!
"
#
##0
##1
##10
##11
##12
##13
##14
##15
##16
##17
##18
##19
##2
##20
##21
##22
##23
##24
##25
##26
##27
##28
##29
##3
##30
##31
##32
##33
##34
##35
##36
##37
##38
##39
##4
##40
##41
##42
##43
##44
##45
##46
##47
##48
##49
##5
##50
##51
##52
##53
##54
##55
##56
##57
##58
##59
##6
##60
##61
##62
##63
##64
##65
##66
##67
##68
##69
##7
##70
##71
##72
##73
##74
##75
##76
##77
##78
##79
##8
##80
##81
##82
##83
##84
##85
##86
##87
##88
##89
##9
##90
##91
##92
##93
##94
##95
##96
##97
##98
##99
$
%
&
'
(
)
*
+
,
-
.
/
0
00
000
001
01
02
03
04
05
06
07
08
09
1
10
100
1000
101
102
1024
1025
103
104
105
106
107
108
1086
109
11
110
111
115
116
118
119
12
120
1200
121
122
123
1230
124
125
126
127
128
129
13
130
1300
132
133
134
1340
1344
1345
135
1354
1358
1362
1365
1366
1368
137
1370
1372
1373
1374
1375
1376
1377
1378
1379
138
1380
1381
1382
1383
1384
1385
1386
1387
1388
1389
139
1390
1391
1392
1393
1394
1395
1396
1397
1398
1399
14
140
1400
141
142
143
145
1453
146
147
148
15
150
1500
151
1516
152
153
155
157
159
1590
16
160
1600
164
1640
1642
165
1650
166
167
169
1699
17
170
1700
171
172
1720
17257
175
177
18
180
1800
1804
181
1821
1825
183
185
1850
1858
1860
1861
1863
1865
1876
188
1880
1882
1888
189
1893
1894
1895
1896
1897
1898
1899
19
1900
1902
1903
1906
1907
191
1910
1911
1913
1914
1915
1917
1918
192
1920
1922
1930
1936
1937
1938
1939
194
1940
1941
1942
1945
1948
1949
195
1950
1951
1952
1953
1954
1955
1956
1957
1958
1959
1960
1961
1962
1963
1964
1965
1966
1967
1968
1969
197
1970
1971
1972
1973
1974
1975
1976
1977
1978
1979
198
1980
1981
1982
1983
1984
1985
1986
1987
1988
1989
199
1990
1991
1992
1993
1994
1995
1996
1997
1998
1999
2
20
200
2000
2001
2002
2003
2004
2005
2006
2007
2008
2009
20093
201
2010
2011
2012
2013
2014
2015
2016
2017
2018
2019
202
2020
2021
2022
206189462
21
210
213
215
216
218
22
220
221
222
223
226
229
23
230
231
233
234
236
237
239
24
240
243
245
248
249
25
250
251
253
256
257
258
26
260
265
268876608
268921163
269
27
270
271
273
275
28
282
284
285
288
29
292
294
295
297
298
299
3
30
300
308
309
31
310
311
312
313
314
315
316
32
322
323
33
332
333
34
340
342
345
35
350
351
36
363
367
37
371
372
373
38
380
385
39
395
4
40
400
401
402
41
413
415
416
42
420
428
43
432
43421
436
44
442
445
448
449
45
450
455
458
459
46
460
463
466
47
471
475
48
486
49
496
499
5
50
500
503
51
512
514687
515
52
520
521
525
527
53
531
54
55
554
555
5566
559
56
561787194
565
57
575
576
58
582
589
59
595
6
60
600
6000
61
618
62
624
63
630
6389
64
65
66
67
671
679
68
69
691
7
70
700
706
71
72
73
74
743
747
75
753
76
77
78
79
8
80
800
81
8108
82
83
84
84913
85
86
863
87
88
89
9
90
900
91
92
93
932
933
935
94
95
96
964
97
975
978
98
980
99
995
:
;
<
=
>
?
@
[
\
]
^
_
a
aa
ab
abbas
abbaszadeh
abc
abdullah
about
abraham
absence
abstract
abuse
ac
academic
academy
acceptance
access
accessed
according
account
act
acta
action
ad
adam
adams
adaptation
address
adds
administration
adopted
ae
af
affairs
afghanistan
africa
african
after
ag
again
against
age
aged
agency
aggregator
aggression
agreement
ahmad
ai
aid
air
airstrikes
ak
al
alain
alan
alba
albert
alberto
albrecht
album
alexander
alexandra
alexandre
alfred
ali
alice
aljazeera
all
allen
alliance
almost
along
alonso
alpha
alphonse
also
alt
alto
am
amazon
ame
america
american
americans
americas
amnesty
among
amp
amsterdam
amy
an
analysis
anarchism
anarchist
anastasia
ancient
and
anderson
andre
andrew
angeles
angola
animal
anjoman
ann
anna
anne
anniversary
annual
another
answers
anthony
anti
antipope
antoine
antonio
anuario
ap
apocalyptic
appears
apple
application
applied
approach
april
ar
arab
arabia
arabic
arabien
arago
aragon
architecture
archive
archived
archives
are
area
areas
arena
argentina
argument
aristotle
arkiv
armand
armenia
armenian
armenians
army
around
art
artes
arthur
article
articles
artist
arts
as
asean
asia
asian
asp
aspx
assad
assassination
assembly
associate
associated
association
astronomy
at
atlas
atle
atomic
atratus
atta
attack
attacks
au
august
auguste
australia
australian
author
authority
auto
autonomous
available
avril
award
awards
away
axis
az
azerbaijan
azerbaijani
azərbaycan
b
ba
baby
back
background
bad
bade
badr
bahrain
bak
balance
balkans
ball
baltimore
ban
bang
bangladesh
bank
banner
baptiste
bar
barbara
barcelona
barnes
baron
bart
bas
based
basic
basin
basketball
bata
battle
bay
baye
bayern
bayte
bbc
be
beach
bearman
because
beck
becomes
been
before
began
beginning
behavior
behavioral
behind
being
belarus
belief
believe
bell
belt
ben
benedict
benedictus
benjamin
bera
berlin
bernard
bernhard
bertrand
best
better
between
beverly
beyond
bhutan
bianquis
bible
biblical
bibliographisches
bid
big
bill
billboard
billion
billionaires
bin
bine
biographical
biography
bir
bird
birdman
birds
bishop
bitcoin
biye
black
blackwell
blast
blica
bloc
block
blog
blood
bloomberg
blue
board
body
bohr
bois
bolivar
bolt
bomb
bombing
bond
book
books
bor
border
borders
borjian
born
boston
bosworth
both
bottom
bourbon
bow
box
boy
bpd
br
brad
brain
branch
brand
brazil
breaking
brian
bridge
brief
brill
britain
britannica
british
brockhaus
brook
brother
brown
bruce
brussels
building
bulgaria
bull
bulletin
bulls
bune
bureau
burkina
bush
business
but
button
by
bye
c
ca
cabaret
calan
california
call
called
calls
cambridge
camp
can
canada
canadian
candidate
cang
cannabis
canvas
capita
capital
captcha
car
carl
carlos
carolina
carter
cascade
cascades
case
cash
caspian
cast
castro
cat
catalogne
catalonia
catalun
catalunya
catch
category
catherine
catholic
caucasus
cave
cbc
cbs
cc
ce
celtics
census
center
central
centre
centro
centuries
century
ceremony
certification
cervantes
cf
ch
cha
challenge
champions
championship
change
channel
chapter
charles
charlotte
chart
charter
charts
chat
check
chelsea
chemical
chemistry
cher
chicago
chief
child
childhood
children
china
chinese
chp
christian
christianity
christine
christmas
christophe
christopher
chronology
church
ci
cia
circle
citation
cite
cities
citizen
city
civil
civilization
cl
claim
claims
clark
class
classic
classical
classification
claude
clear
cleary
clement
cleric
cliff
clio
close
cloud
club
cm
cn
cnn
co
coalition
coast
code
cognitive
cold
colin
collection
college
collider
collins
colombia
color
columbia
com
combat
combined
combustion
come
comedy
comer
commander
comment
commentary
commission
committee
common
commons
commonwealth
commune
communes
communications
communist
community
companion
company
comparative
comparison
competition
complete
component
composition
computer
comte
con
concept
concise
confederacy
confederalism
confederate
conference
conflict
congo
congress
conquest
conservative
considered
constant
constitution
constitutional
contact
contemporary
content
contest
context
continuum
contract
contributive
contributors
control
convention
convert
cookies
cooperation
copy
core
cornell
corona
corporation
corruption
cosmology
costa
could
council
count
counties
countries
country
county
court
courtois
coventry
craig
crash
crc
credits
creek
crew
crimes
crisis
cristiano
critical
criticism
critics
cross
crowe
crown
cry
crystal
cs
ct
cuba
cult
cultural
culture
cup
curd
curie
currency
current
cyprus
cyrus
cz
czech
d
da
daily
dalai
dallas
dan
dance
danger
daniel
dans
dare
dargis
dark
das
data
database
date
david
davis
day
days
db
dc
de
dead
deadline
deal
dealer
dean
death
debt
debut
dec
decade
decay
december
decimus
decision
declaration
declared
declares
decline
deer
default
defence
defense
definition
del
dele
democracy
democratic
demografi
demographic
den
denis
denmark
dennis
density
department
dept
der
deres
derest
derya
deryac
des
description
design
desk
detail
details
deutsche
deutschland
development
di
dialect
dialects
dicaprio
dictator
dictionary
did
die
died
diego
dies
different
digest
digital
din
diplomacy
dir
direct
director
directors
directory
discovery
disease
disorder
dispatch
displaced
displacement
display
displaystyle
dispute
disputed
dissolution
distances
distribution
district
dit
dite
div
diversity
division
dk
dna
do
doc
docs
document
documentary
documentation
documents
does
dog
doi
domestic
don
donald
donetsk
donzel
door
douard
douglas
down
dq
dr
drama
dream
dresden
dsm
dte
du
duchess
duff
durant
during
dutch
dwarf
dx
dynasty
dyu
dərya
e
eagle
early
earth
east
eastern
eb
ebchecked
ebert
ebrahim
ec
eclipse
economic
economics
economist
economy
ecuador
ed
edge
edited
edition
editor
editorial
editors
eds
edu
education
edvard
edward
eerdmans
efemerides
effraim
egypt
ei
eijk
einstein
ek
el
election
elections
electronic
element
elements
elevations
elizabeth
ella
em
emigration
emirs
emmanuel
empire
en
enciclopedia
encyclopaedia
encyclope
encyclopedia
encyclopædia
end
ends
energy
eng
engine
engineering
england
english
entertainment
entry
environment
episode
episodes
era
erhman
eric
erickson
error
es
esa
espan
espn
essays
essential
est
establishment
estadi
estado
estimate
estimated
estimates
et
ethnic
ethnologue
etta
etymology
eu
euge
eugene
eurasian
euro
eurobarometer
euronews
europa
europe
european
eurosport
even
events
everything
evidence
evolution
ewing
ex
example
excerpt
exclusive
execution
expected
experience
exporting
exposition
expositions
express
expression
extension
external
ey
eye
f
fa
face
facebook
fact
factbook
factor
facts
fair
faith
fall
fallen
falls
false
fame
family
fangio
far
fariborz
farsnews
fascism
fashion
faso
fat
fate
father
favor
fc
fe
fear
features
feb
february
federal
federation
feed
feet
felix
female
feminism
feminist
fera
ferdinand
ferna
festival
fi
fiddle
field
fields
fifa
fifty
fight
fighting
figure
figures
files
filippo
film
final
financial
finland
fire
fires
first
five
flag
flags
flora
focus
foetens
foley
folklore
font
football
for
forbes
force
forces
forecast
foreign
forest
fork
form
format
formattingerror
former
fort
forum
found
foundation
founder
four
fourth
fox
fr
frac
framework
franc
france
francis
francisco
francium
frank
franklin
franz
fre
frederick
free
freedom
french
friedrich
friends
frisia
frisian
from
front
fruit
frye
ft
fu
full
fund
funeral
future
g
ga
gabriel
gaga
gal
gala
galaxy
gale
gallery
game
games
gap
gary
gas
gat
gate
gaty
gb
gdp
ge
gender
general
genocide
genus
geographic
geography
geological
george
georges
georgia
german
germany
geschichte
get
ghost
gif
girl
girona
give
gives
glance
global
globe
glory
gmt
go
gob
god
goethe
gold
golden
good
goodbye
google
gordon
gorge
gospel
goston
got
gov
government
governo
graham
grammar
grand
grant
grave
gray
great
greatest
greek
green
greenland
greenwood
gregory
grey
griffin
grin
ground
group
groups
growth
grp
gu
guantanamo
guardian
gue
guez
guid
guide
guillaume
guinea
gulf
gus
guy
guyana
h
ha
habib
had
haiti
hajj
hak
hakerde
hakerden
half
hali
halil
hall
halsey
ham
hamshahrionline
hand
handbook
hankinson
hanks
harper
harpercollins
harvard
harvey
has
hase
hasse
hatamian
hathaway
have
haven
hawking
haykal
hbar
he
head
heading
health
heart
hegemony
heinrichs
heisenberg
helen
hell
help
henri
henry
her
herald
here
heritage
herr
hesse
hezbollah
hi
hidalgo
hidden
hierarchy
high
highest
highway
hill
his
hispanic
historia
historians
historic
historical
history
hit
hitler
hits
hl
ho
hole
holland
hollande
hollywood
holocaust
holy
home
homo
honour
hood
hope
horizon
hospital
hotel
houghton
hour
hours
house
household
housing
houthi
houthis
how
howard
htm
html
http
https
hu
hubble
hubert
huffington
hugo
hukumet
human
hundred
hundreds
hung
hungary
hunger
hunt
i
ian
ibn
ibna
ibrahim
icd
ice
iceland
icon
id
identification
identity
ideology
ie
if
ii
iii
il
illustrated
im
image
images
imdb
imf
immigrants
imperial
imperialism
imran
in
inatta
inc
including
income
increase
independence
independent
index
india
indian
indiana
individual
industry
ine
influence
info
infobase
infobox
information
inhabitants
inherit
inqela
inquiry
insects
inside
insight
inspiration
institut
institute
institution
instituto
instruments
integration
intelligence
interactive
interior
internal
international
internationale
internet
intervention
interview
into
introduction
invasion
investigation
ioannes
ip
ipa
ipv
iq
ir
ira
iran
iranian
iranica
iranicaonline
iraq
ire
ireland
iron
is
isbn
isis
islam
islamic
islamist
island
islands
isna
israel
issue
issues
istanbul
it
italian
italy
item
its
itzkowitz
iucn
iv
j
ja
jack
jackson
jacques
james
jamestown
jan
jane
janet
january
japan
japanese
jason
jazeera
je
jean
jennifer
jersey
jerusalem
jesus
jewish
jill
jim
jimmy
jo
job
jobs
joe
johann
johannes
john
johnson
join
joined
joins
jonathan
jones
jordan
jorge
jose
joseph
joshua
journal
journalist
jp
jpg
jr
jsp
juan
jules
julian
julien
july
jump
jun
june
justice
justin
k
ka
kam
kamikaze
kaplan
karl
karsh
kate
kaveh
kazakhstan
kck
ke
ken
kene
kennedy
kenneth
kepler
kern
kes
key
khan
khazar
kiarostami
kid
kiev
killed
kills
kim
kind
king
kingdom
kings
kinross
kirk
kiss
km
knight
know
known
ko
kommun
korea
ku
kurd
kurdish
kurdistan
kurdistane
kurds
kyiv
l
la
label
labor
lady
lahore
lake
lakers
laks
lama
land
lands
lang
langle
language
languages
large
largest
larousse
larry
las
last
late
latest
latimes
latin
launch
launches
laundry
laurent
lavigne
law
lawrence
lccn
le
lead
leader
leaders
league
learning
least
leave
leaves
lebanon
led
lee
left
legacy
legal
legend
leiden
lengua
leo
leonard
leonardo
les
less
lessons
let
letter
letters
level
levine
levy
lewis
li
liberal
liberation
liberland
libertarianism
liberty
library
lid
lie
life
liftoff
light
ligne
like
limited
line
lings
linguistic
link
list
liste
literature
little
live
lives
living
ljubica
llc
lo
local
location
lock
log
logan
logo
london
long
longest
longman
look
lord
los
lost
lot
louis
louise
love
lower
lpg
ltd
ltr
lu
luc
lucy
lui
luis
m
ma
macmillan
macron
mad
made
madelung
madonna
madrid
maduro
magazine
magic
mail
main
mainly
major
make
maker
makes
making
malta
man
manchester
manohla
manuel
many
map
mar
maradona
marc
marcel
march
marco
mardem
marguerite
mari
maria
marie
mark
market
marks
marriage
mars
marti
martin
mary
maryam
maryland
mas
maseeh
mask
maslin
mass
massachusetts
massacre
massoud
masters
mata
match
materials
math
mathematics
matt
matter
matthew
maurice
may
mayor
mazandaran
mazandarani
mcgraw
mcguinness
me
meaning
means
mechanics
mecles
medal
media
medicine
medien
medieval
meeting
mehdi
mehrnews
member
members
membership
memorial
men
menu
mercopress
mercosur
merriam
messi
messier
messih
metropolitan
mexico
mi
michael
michel
michelangelo
microsoft
middle
middleeast
mifflin
migration
miguel
mike
mila
mile
militant
militants
military
mill
millennium
miller
million
min
mind
minister
ministry
minority
minorsky
mirror
mirza
mississippi
missouri
mit
mm
mode
model
modern
modernity
mohammad
mojo
moment
monetary
money
monitor
month
monthnumber
moral
more
morning
morocco
moscow
most
mostafa
mosul
mot
mother
motion
mount
mountain
mouth
move
movement
movements
movie
movies
msfc
msn
msnbc
mu
mubarakpuri
much
muhammad
mun
muna
munch
municipality
muse
museum
museums
music
musical
muslim
muslims
must
muxteibg
mw
mx
my
mystery
myth
n
na
nacio
nacional
name
named
names
narrative
nasa
nation
national
nationalism
nations
native
nato
natural
nature
nba
nbc
nchen
nd
ndez
ne
near
nebula
need
needs
net
netflix
netherlands
network
neutrality
never
new
newest
newindex
news
newspaper
ng
ngc
ni
nicholas
nicolas
nicolson
nietzsche
night
nil
nimr
nin
nj
nl
no
nobel
non
none
nord
norman
north
northern
northwest
norway
norwegian
not
note
nothing
noticias
notion
nou
nov
nova
november
novorossiya
now
nowruz
npr
nsa
nse
nu
nuclear
num
number
nun
nusra
ny
nya
nytimes
o
obama
obituary
objects
observer
ochs
oct
october
of
off
office
official
og
ogooue
oil
ois
oise
ol
ola
old
oldid
oliver
olivier
olympic
on
once
one
onepage
online
only
op
opec
open
operation
opposition
option
or
oracle
order
orders
org
organisation
organization
organizations
oriental
origin
original
origins
orwell
os
oscar
oslo
osman
osprey
other
otter
ottoman
ottomanist
ouest
our
out
outlook
output
outside
over
overview
own
oxford
p
pa
padding
page
pages
pai
pakistan
palace
palgrave
palm
pan
pantheon
papa
paper
para
paris
parish
park
parliament
parliamentary
parrotia
parser
part
participation
parties
partisi
partiya
partnership
parts
party
pas
passenger
passion
past
patricia
patrick
paul
pay
paymanonline
payne
pbs
pdf
pe
peace
pearson
peikoff
penalty
penguin
peninsula
penske
people
peoples
per
percent
period
persian
persianleague
persians
persica
person
personality
perspective
perspectives
peru
pes
peter
petroleum
pg
phenomenon
philadelphia
philip
philippe
philosophers
philosophical
philosophy
photo
photos
php
physical
physics
physik
piano
pid
pierre
pilot
pin
pis
pkk
pl
place
plan
planet
planning
platinum
play
playboy
player
players
playmate
please
plum
pluto
pm
png
point
poland
police
policy
polish
political
politician
politics
politique
poll
pop
pope
popes
popular
population
populous
portal
portrait
portugal
portuguese
position
possible
post
pot
pourshariati
poverty
power
powers
pp
ppp
pr
practice
prague
pre
prefecture
premier
presence
present
presentation
presidency
president
presidente
presidentes
presidential
presidents
presocratic
presocratics
press
presse
presstv
pressure
prevalence
price
prime
prince
princess
princeton
principal
principle
principles
print
prison
private
prize
pro
problem
process
produce
producer
product
production
profile
program
programme
progress
project
projection
proof
prophet
prosecutor
prostitution
prosur
protection
protesters
protests
protocol
prov
province
provinces
provincial
ps
psi
psychiatry
psychological
psychology
ptsd
pub
pubdate
public
publications
publique
published
publisher
publishers
publishing
pubs
px
q
qa
qaeda
qatar
qodret
quantenmechanik
quantum
quarry
que
queen
question
questions
quick
quickly
quintus
quotes
quran
r
ra
race
radical
radio
radiochemistry
rafael
rage
rain
rainbow
raisi
rajon
ralph
random
rangle
rank
rard
ras
rate
ration
raven
ray
raymond
rd
rde
rdf
re
reach
reaction
reader
real
reality
really
reason
rebel
rebels
record
recording
red
ref
refbegin
refend
reference
references
regime
region
regional
regions
registration
reich
relations
relationship
release
religion
religions
religious
renaissance
rene
repeat
report
reporter
reports
repu
republic
republics
res
research
resolution
resolutions
resource
resources
respect
respublika
rest
result
results
retrieved
return
reuters
reveals
revenant
review
reviews
revolution
revolutionary
rez
reza
ri
ric
rica
rich
richard
right
rights
rika
ring
rio
rise
rises
river
rk
ro
road
robert
robin
robinson
rock
rodrigo
roger
roland
role
rolling
roma
roman
romania
romanovs
rome
ronaldo
room
rose
routledge
roy
royal
rsi
rss
rsssf
rt
ru
rule
ruled
rules
rum
run
runi
runner
rus
russell
russia
russian
russians
ry
ryan
s
sa
saarc
saddam
sage
saint
saljuqs
salvador
same
samuel
san
sandywell
santa
sapiens
sar
sari
sasanian
saudi
say
says
scale
scarecrow
schmitt
school
schumacher
schuster
science
sciences
scientist
sco
score
scotland
scott
script
se
sea
search
season
seats
second
secret
secretary
section
sector
secundus
security
seds
see
selected
self
sell
senate
sentence
seoul
sep
separation
september
series
service
services
serving
set
seven
several
sex
sexual
shah
shall
shanghai
she
sheet
shia
shoot
short
shot
should
show
shows
shtml
si
side
siege
sign
silva
simon
sin
since
singapore
singer
sir
sister
site
situation
sixteenth
size
sk
ska
slovenia
small
smith
snake
snow
snowden
so
sobre
soccer
social
socialism
socialist
society
soldiers
solomon
some
son
song
sonny
sophie
sort
sotloff
sound
source
sources
south
southeast
southern
soviet
space
spacecraft
spain
span
spanish
speak
speaker
speakers
speaking
special
species
spectroscopy
speed
spider
spiritual
spoken
sport
sports
spotlight
spring
springer
spurs
sri
st
sta
stadium
staff
stampede
stand
standard
stanford
stanley
star
stars
starter
stat
state
statement
states
statistical
statistics
stats
statue
status
steinman
step
stephen
steve
steven
stewart
still
stm
stone
stop
stories
storm
story
street
strike
strong
stronghold
structure
struggle
student
students
studies
study
stye
style
su
sub
subcommittee
subjects
subscription
substance
subversion
success
succession
such
sud
sudan
sue
suicide
suite
sulzberger
summary
summer
sun
sunni
sunset
support
supreme
sur
surveillance
survey
survival
svenskfotboll
svg
sweden
swedish
switzerland
sydney
syria
syrian
system
t
ta
tab
table
take
takes
taliban
talk
talks
target
targets
task
tauris
taylor
te
teacher
team
tebyan
technical
technology
teen
tehran
tel
telegraph
television
template
temple
ten
ter
term
terms
territories
territory
terror
terrorism
terrorist
tertius
testament
texas
text
texts
th
than
thanks
that
the
theguardian
their
them
then
theory
therapy
there
these
they
thibaut
things
third
this
thomas
thompson
thomson
those
thought
thousands
threadid
threat
three
through
thumb
ti
ticket
tico
tidigare
tienne
time
times
title
tlaxcala
tmdb
to
today
told
toll
tom
tongue
top
topic
topics
toronto
tot
total
totalitarianism
tour
tourism
toward
tower
town
toy
tr
track
trade
tradition
trailer
transfermarkt
transformation
transit
transition
translation
transmedia
transport
transportation
travel
treasury
treaty
triangle
tribune
tribute
triple
tristan
troops
trouble
trt
trump
trust
tu
tue
turan
turkey
turkish
turks
turn
turner
turnout
tv
twentieth
twin
twitter
two
u
uc
uefa
uk
ukraine
ukrainian
ultimate
un
unasur
uncertainty
und
under
understanding
undp
une
unesco
union
unite
united
unity
univ
universal
universe
university
up
update
updated
upload
upon
upper
urban
url
uruguay
us
usa
usain
usatoday
use
used
user
utm
uzbekistan
v
va
valencia
vali
valley
value
vamvacas
van
vand
var
variety
various
ve
ved
vene
venice
venus
version
very
veser
vi
via
viber
vice
victim
victims
victor
victoria
victory
video
videos
view
vii
viii
vila
villa
village
vincent
violence
violin
violins
virginia
vis
visible
visit
visited
vista
vladimir
voa
voice
vol
volapu
volleyball
vols
volume
von
vote
voyage
vs
vulture
vultures
vvaw
vəne
w
wales
wall
walter
war
ward
warfare
warg
warns
warren
warriors
wars
was
washington
washingtonpost
watch
water
waterfall
waterfalls
watt
way
we
wealth
weapons
weather
web
webarchive
webcitation
website
webster
wedding
weidenfeld
welcome
well
wells
were
west
western
what
wheeler
when
where
which
while
whiplash
white
who
why
wiki
wikileaks
wikimedia
wikipedia
wildfires
wildlife
wiley
will
william
williams
wilson
win
wing
winner
wins
winter
wisconsin
with
without
wl
wm
wolf
wolfgang
woman
women
wonder
woodhead
word
work
works
world
worldwide
would
wqgaacaaj
wrestling
wright
writer
writing
writings
written
www
x
xa
xale
xi
xico
xii
xm
xml
xslt
y
ya
yahoo
yale
ye
year
years
yellow
yemen
yes
yjc
yo
york
you
young
your
youth
youtube
yttro
yu
yves
z
za
zaman
zapata
zazaki
ze
zealand
zeruni
zhu
zi
zone
zu
zur
{
|
}
~
£
§
¨
©
ª
«
¬
­
®
¯
°
±
²
³
´
·
º
»
½
¾
¿
×
æ
ø
ı
ə
ʲ
ʻ
ʿ
ˆ
ˇ
ˈ
ː
̀
́
̂
̃
̄
̆
̇
̈
̊
̋
̌
̓
̔
̛
̣
̦
̧
̨
̮
̱
̲
͂
α
δ
ε
η
ν
ο
π
ς
ψ
а
в
и
к
м
н
о
республика
у
э
ә
ְ
ִ
ַ
ָ
ֹ
ּ
ב
ה
ו
י
מ
נ
ר
ת
،
؛
؟
ا
اب
ابتدا
ابتدای
ابتدایی
ابتلا
ابتکار
ابد
ابداع
ابدی
ابر
ابراز
ابراهیم
ابراهیمی
ابررسانایی
ابرقدرت
ابریشم
ابزار
ابزاری
ابعاد
ابل
ابلین
ابن
ابندان
ابنیه
ابو
ابوالحسن
ابوالحسین
ابوالعباس
ابوالفتح
ابوالفضل
ابوالقاسم
ابوبکر
ابوجعفر
ابوجهل
ابوریحان
ابوسفیان
ابوسهل
ابوطالب
ابوظبی
ابوعبدالله
ابوعلی
ابولفضل
ابومسلم
ابومنصور
ابوموسی
ابوکالیجار
ابی
ابیض
ات
اتا
اتابکون
اتاشون
اتاق
اتاکمه
اتتا
اتتی
اتجا
اتجور
اتحاد
اتحادیه
اتخله
اتر
اتریس
اتریش
اتریشی
اتسری
اتصال
اتـ
اتفاق
اتفاقات
اتفاقی
اتلتیکو
اتم
اتمی
اتنده
اته
اتهام
اتهامات
اتوبوس
اتومبیل
اتچی
اتکه
اتکینسون
اتی
اتین
اتیوپی
اثبات
اثر
اثرات
اثری
اثیر
اج
اجاره
اجارودشرقی
اجارودشمالی
اجارودغربی
اجازه
اجاق
اجبار
اجباری
اجتماع
اجتماعي
اجتماعی
اجتماي
اجتناب
اجداد
اجرا
اجرام
اجراي
اجرای
اجرایی
اجسام
اجلاس
اجماع
احادیث
احترام
احتمال
احتمالا
احتمالی
احداث
احزاب
احساس
احساسات
احساسی
احسان
احمد
احمدا
احمدرضا
احمدی
احمدیه
احوال
احکام
احیا
احیای
اخبار
اختتامیه
اختراع
اختراعات
اختصار
اختصارا
اختصاص
اختصاصی
اختلاف
اختلافات
اختلافاتی
اختلال
اختلالات
اختلالاي
اختلالهای
اختیار
اختیارات
اخذ
اخراج
اخطار
اخلاق
اخلاقی
اخوان
اخیر
اخیرا
اد
ادا
ادارات
اداره
اداری
ادامه
ادب
ادبی
ادبیات
ادراک
ادریس
ادعا
ادعای
ادغام
ادلب
ادم
ادمون
ادموند
ادمی
ادن
ادوار
ادوارد
ادواردز
ادوین
ادگار
ادی
ادیان
ادیب
ادیبون
ادیسون
ادینبورگ
اذیت
ار
ارابه
اراده
اراضی
ارامنه
اران
اراي
اراک
ارایه
ارباب
اربد
اربیل
ارتباط
ارتباطات
ارتباطی
ارتداد
ارتدوکس
ارتدوکسون
ارتدکس
ارتش
ارتشی
ارتشیون
ارتعاش
ارتفاع
ارتفاعات
ارتقاء
ارتودوکس
ارتودکس
ارتکاب
ارتیفاع
ارث
ارثی
ارجاع
ارجمند
اردبیل
اردشیر
اردلان
اردن
اردو
اردوغان
اردوگاه
اردیبهشت
ارز
ارزش
ارزشمند
ارزون
ارزیابی
ارس
ارسال
ارسطو
ارسلان
ارش
ارشاد
ارشد
ارشق
ارضی
ارم
ارمغان
ارمنستان
ارمنستون
ارمنون
ارمنی
ارمنیان
ارمنیون
ارمون
ارنست
ارنو
اره
ارهمن
ارو
اروس
ارومیه
اروه
اروپا
اروپاي
اروپای
اروپایی
اروپاییون
اروگوي
ارکان
ارکستر
ارکه
ارگ
ارگان
اری
اریتره
اریک
از
ازارسی
ازای
ازبکستان
ازبکستون
ازبکون
ازدواج
ازواد
ازگیل
اس
اسا
اساء
اساتید
اسارت
اساره
اساس
اساسا
اساسی
اساطیر
اساطیری
اسامی
اسانس
اساي
اسای
اسایی
اسب
اسباب
اسبق
اسبه
اسبوکلا
است
استاتین
استاد
استادیوم
استار
استارت
استالین
استامبول
استامبولی
استان
استانبول
استانبولی
استاندار
استاندارد
استانداردون
استانداری
استانفورد
استانهای
استانی
استانیسلاو
استاي
استثنایی
استخدام
استخر
استخراج
استدلال
استر
استرا
استراباد
استراتژی
استراتژیک
استراحت
استراسبورگ
استرالیا
استرالیای
استرالیایی
استرس
استعداد
استعفا
استعفاء
استعفای
استعمار
استعمارک
استعمارکرون
استعماری
استفاده
استفان
استقبال
استقرار
استقلال
استن
استناد
استنفورد
استوار
استوارت
استوانه
استوایی
استودیویی
استون
استونی
استونیایی
استویا
استپانیان
استکا
استکهلم
استیضاح
استیل
استیو
استیون
اسحاق
اسحق
اسد
اسدالله
اسدی
اسراي
اسراییل
اسراییلی
اسری
اسطوره
اسعد
اسفند
اسفندیار
اسفندیاری
اسفیورد
اسقف
اسلام
اسلامبول
اسلامی
اسلاوی
اسلحه
اسلو
اسلواکی
اسلونی
اسلوونی
اسم
اسماعیل
اسماعیلی
اسماعیلیه
اسماعیلیون
اسمی
اسمیت
اسناد
اسنادی
اسنودن
اسه
اسون
اسپارتاکوس
اسپانیا
اسپانیایی
اسپانیولی
اسپرانتو
اسپرم
اسپرینگ
اسپند
اسپه
اسپهبد
اسپهبدان
اسپهبدون
اسپهبدی
اسپهبدیه
اسپوتنیک
اسپین
اسپینوزا
اسپینیجی
اسک
اسکات
اسکاتلند
اسکاتلندی
اسکار
اسکان
اسکاندیناوی
اسکریپتی
اسکلت
اسکناس
اسکندر
اسکندریه
اسکوبار
اسکودریا
اسکی
اسکیزوفرنی
اسکینر
اسید
اسیر
اسیرون
اش
اشارات
اشاره
اشباع
اشتاین
اشتباه
اشتباهی
اشتراک
اشتغال
اشتیفا
اشخاص
اشراف
اشرافی
اشرف
اشرفی
اشعار
اشعاری
اشعه
اشغال
اشلایفن
اشمار
اشمیت
اشناس
اشناسن
اشناسننه
اشناسنه
اشناسی
اشناسینه
اشنه
اشوان
اشک
اشکار
اشکاری
اشکال
اشکان
اشکانی
اشکانیان
اشکانیون
اشکم
اشکین
اشیا
اشیاء
اصالت
اصدار
اصرار
اصطلاح
اصطلاحا
اصطلاحات
اصطلاحی
اصغر
اصفهان
اصفهانی
اصفهون
اصل
اصلا
اصلاح
اصلاحات
اصلاحاتی
اصلاحیه
اصلاندوز
اصلی
اصول
اصولا
اصیل
اضافه
اضافی
اضداد
اضطراب
اضطراری
اطاعت
اطراف
اطرافیون
اطلاع
اطلاعات
اطلاعاتی
اطلاق
اطلس
اطمینان
اظهار
اعتبار
اعتدال
اعتراض
اعتراضات
اعتراضی
اعتراف
اعترافات
اعتصاب
اعتقاد
اعتقادات
اعتماد
اعتیاد
اعداد
اعدام
اعراب
اعزام
اعزامی
اعصاب
اعضا
اعضاء
اعضای
اعظم
اعظمی
اعلام
اعلامیه
اعلان
اعم
اعمال
اغلب
اغلو
اف
افت
افتاد
افتاده
افتتاح
افتتاحیه
افتخار
افتخارات
افتخاری
افخاني
افر
افراد
افرادی
افراسیاب
افراطی
افراکتی
افروز
افریقا
افزار
افزارون
افزاری
افزایش
افسانه
افسر
افسرده
افسردگي
افسردگی
افشار
افشاریون
افشونی
افغان
افغانستان
افغانستون
افغانی
افق
افقی
افكاري
افلاطون
افلاطونی
افلک
افکار
اقامت
اقبال
اقتباس
اقتدار
اقتصاد
اقتصاددان
اقتصاددون
اقتصادی
اقدام
اقدامات
اقلا
اقلیت
اقلیتون
اقلیتی
اقلیدس
اقلیم
اقوام
اقوز
اقیانوس
اقیانوسیه
ال
الا
الات
الاخبار
الاسلام
الاسلامی
الان
الانه
الاول
الب
الباقی
البته
البرادعی
البرز
البشیر
البطنه
البلاد
البلاغه
البلدان
البورز
التحصیل
التزامی
الثانی
الجبور
الجزاي
الجزایر
الجزیره
الجمیلیه
الجهراء
الحاق
الحجه
الحزم
الحسن
الحسین
الحق
الحکم
الخروج
الد
الدعوه
الدوله
الدین
الریان
الزمان
الساقی
السالوادور
السلطنه
السوریة
السیسی
الشام
الشعرای
الشیخ
الطارق
العابدین
العاده
العالم
العامة
العبادی
العجم
العرب
العربية
العربی
العربیة
العربیه
العلم
العماره
العمل
العیون
الف
الفبا
الفبای
الفبایی
القاعده
القاژییه
القدس
الله
اللهی
الم
الما
الماس
المالکی
المثل
المدن
المدی
المسلمین
المعارف
المعالی
المقدس
الملل
المللی
الملوک
الملک
الملی
الممالک
المنافع
المندب
المهدی
المو
الموت
المپ
المپیک
الناصر
النصره
النه
النهار
النهرین
اله
الهام
الهامی
الهه
الهی
الهیات
الهیي
الوکره
الي
الک
الکبیر
الکتاب
الکترا
الکترومغناطیسی
الکترون
الکترونیک
الکترونیکی
الکتریک
الکتریکی
الکساندر
الکساندرا
الکسی
الکل
الکویت
الکی
الگو
الگوی
الی
الیاس
الیاف
الیزابت
الیزه
الیسم
الیه
الیوت
الیکایی
ام
اما
امارات
امارت
امام
امامزاده
امامعلی
امامی
امامیه
امان
امانوي
اماکن
امبا
امتحان
امتداد
امتیاز
امتیازات
امر
امرای
امرداد
امره
امروز
امروزه
امروزی
امری
امریکا
امریکای
امریکایی
امسال
امشب
امضا
امضای
املاک
امن
امنیت
امنیتی
امه
امواج
اموال
امور
امورخارجه
امون
امونه
اموي
امویون
امپدوکلس
امپراتور
امپراتوری
امپراتوریون
امپراطوری
امپریالیسم
امکان
امکانات
امی
امید
امیدوار
امیر
امیرحسین
امیرمسعود
امیرمو
امیرنشین
امیرون
امیرکبیر
امیرکلا
امیری
امیل
امین
امینی
ان
انابد
انار
انبار
انباره
انبس
انبسی
انبوه
انتاریو
انتحاری
انتخاب
انتخابات
انتخاباتی
انتخابی
انتشار
انتشارات
انتشارت
انتصاب
انتظار
انتظامی
انتقاد
انتقادات
انتقادی
انتقال
انتقالی
انتقام
انتها
انتهای
انجام
انجمن
انجوم
انجومن
انجیرلو
انجیل
انجیلی
انحراف
انحصار
انحلال
اند
انداز
اندازه
اندازی
اندام
اندرو
اندروید
اندلس
انده
اندونزی
اندونزیایی
اندکی
اندیشمندانه
اندیشه
انرجی
انرژی
انزلی
انسان
انسانگرایی
انسانی
انستیتو
انسون
انشان
انصار
انصارالله
انصراف
انعقاد
انفال
انفجار
انفجاری
انقراض
انقلاب
انقلابی
انقلابیون
اننه
انه
انواع
انور
انوشه
انوشیروان
انکار
انکارتا
انگشت
انگشتان
انگلس
انگلستان
انگلستون
انگلند
انگلیس
انگلیسی
انگلیسیج
انگلیسیون
انگوت
انگوس
انگیر
انگیز
انگیزه
انی
انیمیشن
اهالی
اهتمام
اهدا
اهداف
اهل
اهلی
اهم
اهمیت
اهواز
اهیمه
او
اوا
اواخر
اواسط
اواي
اوایل
اوباما
اوبامای
اوبر
اوت
اوتریش
اوج
اوجا
اوجالان
اوجی
اود
اور
اوراسیا
اورال
اورانوس
اورانیوم
اوربان
اورتگا
اوردون
اورست
اورشلیم
اورلي
اورن
اورول
اوروپا
اوروپایی
اوروگوي
اورگن
اوری
اوریسا
اوزبکستون
اوزبکي
اوزبکی
اوس
اوساکا
اوستا
اوستاء
اوستان
اوستانای
اوستاندار
اوستانشابلون
اوستانون
اوستایی
اوسترالیا
اوستروبوتنیا
اوستش
اوستوایی
اوستیا
اوستیای
اوسکار
اوشار
اوضاع
اوقات
اوقیانوس
اوقیانوسیه
اول
اولا
اولاند
اولتیماتوم
اولش
اولمپیک
اولویت
اولين
اولگا
اولی
اولین
اولیه
اولیویرا
اولیویه
اومبریا
اون
اونا
اونان
اونایی
اونتا
اونتی
اونجاهان
اونجه
اونه
اونو
اونوره
اونچه
اونچی
اونکه
اونگادر
اوهایو
اوورنی
اوي
اوپک
اوژن
اوکا
اوکایاما
اوکراین
اوکراینی
اوکیناوا
اوگاندا
اوگاندای
اوگووي
اوی
اویل
اوین
اي
ايران
ايراني
اين
اينتا
اينكه
اپرا
اپرای
اپل
اپوزیسیون
اچ
اژدها
اژه
اک
اکا
اکبر
اکبری
اکتاو
اکتبر
اکتشاف
اکثر
اکثرا
اکثریت
اکران
اکراین
اکراینی
اکرم
اکسام
اکسیژن
اکنون
اکو
اکوادر
اکوادور
اکوسیستم
اکونومیست
اگر
اگرچه
اگزابایت
اگم
اگه
اگوست
ای
ایارنه
ایال
ایالات
ایالت
ایالتای
ایالتون
ایالتی
ایام
ایان
ایباراکی
ایبری
ایت
ایتا
ایتالي
ایتالیا
ایتالیای
ایتالیایی
ایتیشارات
ایجاد
ایجتیماي
ایحداث
ایدامه
ایدز
ایده
ایدو
ایدي
ایر
ایران
ایرانشهر
ایرانی
ایرانیا
ایرانیان
ایرانیج
ایرانیون
ایرانیکا
ایرانیکی
ایرج
ایرلند
ایرلندی
ایرن
ایرنا
ایروان
ایرون
ایرونی
ایزابل
ایزد
ایزدبانوی
ایزدشهر
ایزده
ایزدواج
ایزدی
ایزدیار
ایزدیون
ایزر
ایزو
ایزوتوپ
ایست
ایستاده
ایستفاده
ایستگاه
ایستیفاده
ایسراي
ایسراییل
ایسراییلی
ایسفندیار
ایسلام
ایسلامی
ایسلند
ایسلندی
ایسم
ایسنا
ایسپانیا
ایسپانیای
ایسپانیایی
ایسپانیاییون
ایسپانیولی
ایسپهبود
ایشان
ایشیکاوا
ایصطلاح
ایصلاحات
ایضافه
ایطلاعات
ایطیلاعات
ایعلام
ایفا
ایفل
ایقتصاد
ایقتصادی
ایقتیصاد
ایقتیصادی
ایل
ایلات
ایلام
ایلان
ایلنا
ایلیاد
ایلینوی
ایلینویز
ایم
ایمارات
ایمام
ایمامت
ایمامزاده
ایمامون
ایمامی
ایمان
ایمن
ایمپراتور
ایمپراتوری
این
اینا
اینان
اینتا
اینتاسر
اینتاي
اینتای
اینتخاب
اینترنت
اینترنتی
اینترنشنال
اینتی
اینتیخاب
اینتیشار
اینتیشارات
اینجا
اینجه
اینجوری
ایندرا
ایندیانا
ایندیرا
اینستاگرام
اینسه
اینشتین
اینقلاب
اینقیلاب
اینه
اینچنینی
اینچه
اینکا
اینکاي
اینکه
اینگلیس
اینگلیسی
اینگونه
اینگیلیس
اینگیلیسی
ایو
ایواته
ایوان
ایوانف
ایوبی
ایوبیون
ایولت
ایولین
ایون
ایونیه
ایژدیها
ایکر
ایکس
ایکه
ایگور
ایی
ب
با
باارزش
بااین
باب
بابا
بابایی
بابت
بابل
بابلرود
بابلسر
بابلکنار
بابلی
بابک
بابی
بات
باتاویان
باتن
باتنه
باته
باج
باخ
باختر
باختری
باخی
باد
بادان
بادسری
باده
بادی
بار
باران
بارانی
باراک
باربد
بارت
باردار
بارداری
بارز
بارزانی
بارسلون
بارسلونا
بارسلونای
بارفروش
بارفروشی
باره
بارها
بارون
باری
باریر
باریک
باز
بازار
بازارای
بازارون
بازاری
بازبینی
بازتاب
بازخوانی
بازداشت
بازدید
بازدیدکان
بازرسی
بازرگان
بازرگانی
بازساجی
بازسازی
بازم
بازنشست
بازنشسته
بازنشستگی
بازنگری
بازه
بازو
بازوي
بازوی
بازگشت
بازی
بازیابی
بازیون
بازیکر
بازیکن
بازیکنان
بازیگر
بازیگران
بازیگرون
بازیگری
باس
باستان
باستانی
باستون
باستونی
باسواد
باسک
باسکی
باش
باشد
باشن
باشند
باشه
باشکندی
باشگاه
باشگاهی
باشگاي
باشی
باطل
باع
باعث
باعیث
باغ
باغداری
باغچه
باغی
بافت
بافی
باقر
باقری
باقی
بال
بالا
بالاتر
بالاترین
بالاته
بالاخره
بالاخیابان
بالالاریجان
بالاي
بالای
بالایی
بالتیک
بالزاک
بالغ
بالغلو
بالله
بالون
بالي
بالکان
بالینی
بام
بامداد
بامشي
بامشی
بان
بانتو
باند
بانو
بانوی
بانک
بانکداری
بانکوک
بانکی
بانی
باهاما
باهم
باو
باوجود
باور
باورنه
باورون
باوند
باوندی
باوندیان
باوندیون
باوه
باویر
باي
باپتیست
باچر
باک
باکالیجار
باکتامون
باکجه
باکو
بایت
باید
بایدن
بایرن
بایری
بایه
بایک
بایگانی
بباخته
ببخشه
ببر
بت
بتتر
بتترین
بترتیب
بترکانینه
بترکسته
بترین
بته
بتو
بتواند
بتوم
بتومبی
بتومی
بتون
بتونده
بتونستنه
بتونسته
بتونسنه
بتونسه
بتونن
بتوننه
بتونه
بتونیم
بتیست
بتیم
بجا
بجای
بجز
بجنگ
بجنگستن
بجنگسته
بجنگه
بحث
بحر
بحران
بحرین
بخا
بخاتن
بخاته
بخار
بخارا
بخارایی
بخارد
بخاردن
بخاردنه
بخاردنی
بخارده
بخارست
بخارن
بخاره
بخاز
بخاست
بخاستنه
بخاسته
بخاستی
بخاطر
بخاه
بخاي
بخت
بختیاری
بخرد
بخردن
بخردنه
بخردنی
بخرده
بخرن
بخره
بخری
بخرینه
بخش
بخشداری
بخشش
بخشون
بخشی
بخصوص
بخون
بخوند
بخوندست
بخوندستن
بخوندستنه
بخوندسته
بخونده
بخوندین
بخونس
بخونستن
بخونسته
بخونسن
بخونسه
بخونین
بخیر
بد
بدا
بداره
بداشت
بدان
بدانه
بداي
بدایع
بدبختی
بدبین
بدجور
بدخشان
بدر
بدرالدین
بدزدی
بدست
بدعت
بدل
بدلیل
بدن
بدنسازی
بدنه
بدنی
بده
بدهد
بدهی
بدون
بدونستن
بدونستنه
بدونسته
بدونه
بدونیم
بدی
بدیع
بدین
بدینه
بدینی
بدیه
بر
برا
برابانت
برابر
برابری
برابهم
براتیسلاوا
براثر
برادر
برادران
برادری
برار
برارزا
برارزاء
برارون
براری
برازاویل
برازیلیا
براساس
براندو
برانکو
برانگیختگی
برانگیز
براهام
براهنی
براون
براي
برای
برایتون
بربری
بربریون
برت
برتر
برتران
برتری
برتون
برج
برجام
برجسته
برجیان
برخلاف
برخورد
برخوردار
برخی
برد
بردار
برداری
برداشت
برداشته
بردسکن
بردعه
برده
بردگردسته
بردگرستن
بردگرستنه
بررسی
بررسیهای
برزخ
برزند
برزگر
برزیل
برزیلی
برست
برسمیت
برسن
برسنه
برسنی
برسنینه
برسنیه
برسه
برسی
برسیم
برسین
برسینه
برسیه
برعهده
برعکس
برف
برق
برقرار
برقراری
برقی
برلین
برمه
برمودا
برن
برنار
برنارد
برنامه
برنج
برنخواهد
برند
برنده
برنز
برنهارد
برنومه
بره
برهان
برهم
برو
بروت
بروتن
بروته
برودسکی
بروز
بروس
برون
برونته
برونو
بروني
برونی
بروک
بروکسل
بروی
برپایه
برپایی
برچسب
برچسپ
برژنف
برکلی
برکنار
برکناری
برگ
برگذار
برگردان
برگردنه
برگردون
برگرفته
برگزار
برگزاری
برگزیده
برگسون
برگشت
برگه
برگوزار
برگوزاری
بری
بریتاني
بریتانی
بریتانیا
بریتانیاي
بریتانیای
بریتانیایی
بریتانیاییون
بریتانیکا
بریتنی
بریتیش
بریده
بریزبن
بریستول
بریم
بریمی
برینگ
بز
بزا
بزابي
بزاي
بزایی
بزبان
بزرگ
بزرگترین
بزرگداشت
بزرگراه
بزرگون
بزرگی
بزن
بزنم
بزنن
بزنه
بزه
بزو
بزونه
بزوي
بس
بسات
بساتن
بساتنه
بساته
بساجن
بساجه
بساز
بسازن
بسازه
بست
بستا
بستر
بستری
بسته
بستگی
بسفر
بسه
بسوته
بسکتبال
بسکتوال
بسکون
بسیار
بسیاری
بسیج
بشار
بشتن
بشتنه
بشته
بشر
بشری
بشریت
بشمارده
بشناستن
بشناسته
بشناسه
بشناسی
بشناسینه
بشناسیه
بشنی
بشکستن
بشکسته
بشکنی
بشکنینه
بشکه
بشیر
بصره
بصورت
بطلمیوس
بطور
بعث
بعد
بعدا
بعداز
بعدته
بعدش
بعدن
بعدها
بعدی
بعضی
بعضیا
بعضیون
بعلاوه
بعنوان
بعهده
بعید
بغداد
بغدادی
بـ
بفره
بفهمستنه
بفهمسته
بقاع
بقتل
بقدرت
بقره
بقعه
بقیه
بل
بلا
بلاروس
بلاروسی
بلاروسیه
بلاغ
بلافاصله
بلان
بلجیک
بلخ
بلد
بلدنه
بلده
بلر
بلز
بلشویک
بلعمی
بلغارستان
بلغارستون
بلغارون
بلغاری
بلن
بلند
بلندترین
بلندته
بلندپایه
بلندی
بلننی
بلنی
بله
بلو
بلوار
بلورین
بلوز
بلوغ
بلوچ
بلوچستان
بلوچستون
بلوچی
بلوک
بلژیک
بلژیکی
بلک
بلکه
بلگراد
بلی
بلیز
بلیس
بم
بمب
بمباران
بمبارون
بمبي
بمرد
بمردن
بمردنش
بمردنه
بمرده
بمردە
بمه
بمو
بموبینه
بموند
بموندست
بموندستن
بموندستنه
بموندسته
بموندسه
بمونده
بمونس
بمونسنه
بمونسه
بمونه
بموي
بمیره
بن
بنا
بنابر
بنابراین
بنابرین
بنادر
بنافت
بنام
بنان
بناهای
بناي
بناپارت
بنای
بنت
بنجامين
بنجامین
بند
بندان
بندر
بندرعباس
بندرون
بندری
بندون
بندپی
بندی
بندیکت
بنشنه
بنشو
بنظر
بنفش
بنه
بنوا
بنوشته
بنوم
بنومستنه
بنومسته
بنویسن
بنویسه
بنویشت
بنویشتن
بنویشتنه
بنویشته
بنویشتوي
بنژامن
بنگال
بنگالی
بنگاه
بنگلادش
بنی
بنیاد
بنیادی
بنیامین
بنیان
بنیانگذار
بنیتو
بنین
بنینی
به
بهاءالدوله
بهاءالله
بهار
بهارستان
بهاری
بهانه
بهاي
بهای
بهایی
بهبود
بهتر
بهترین
بهداد
بهداشت
بهرام
بهرامی
بهره
بهروز
بهروش
بهزاد
بهستون
بهشت
بهشتی
بهشهر
بهشهری
بهم
بهمن
بهمنی
بهنام
بهنمیر
بهنود
بهی
بهیت
بهیته
بهینه
بهیه
بهییه
بو
بوا
بواشن
بواشه
بواي
بوت
بوتان
بوتسوانا
بوتن
بوتنه
بوته
بوتو
بوجود
بوحران
بوخار
بود
بودا
بودار
بوداي
بوداپست
بودای
بودایی
بودجه
بودلر
بودن
بودند
بوده
بودیسم
بودیم
بور
بورا
بوربون
بورد
بوردن
بوردنه
بورده
بوردی
بورس
بورن
بوره
بوروس
بوروندی
بوروني
بورکینافاسو
بورگوین
بوری
بوریس
بوریم
بورین
بوس
بوستون
بوسنی
بوسنیایی
بوسکه
بوسیله
بوش
بوشه
بوشهر
بوشهری
بوف
بوفون
بوقلمونی
بول
بولیوار
بولیوی
بوم
بومارشه
بومب
بومی
بومیون
بون
بوندس
بوننه
بونه
بونو
بونیفاس
بوه
بوهم
بوو
بووشه
بوون
بووه
بووي
بوویه
بوي
بوک
بوکسور
بوکمال
بوکوحرام
بوگو
بوی
بویراحمد
بویم
بوینس
بوینه
بوینین
بویه
بویو
بویی
بي
بيتن
بيته
بيست
بين
بينج
بينه
بيه
بيي
بپت
بپتن
بپته
بپرداخته
بچا
بچه
بک
بکار
بکاردن
بکاردنه
بکاش
بکاشتن
بکاشتنه
بکاشته
بکاشن
بکاشه
بکت
بکتری
بکر
بکران
بکردنه
بکسر
بکشه
بکشی
بکشینه
بکشیه
بکن
بکوشت
بکوشتن
بکوشتنه
بکوشته
بکوشه
بگاي
بگذرنی
بگذرونی
بگذرونیه
بگذشتن
بگذشته
بگذشتی
بگردسته
بگفته
بگیر
بگیرد
بی
بیا
بیابون
بیابونی
بیات
بیاتی
بیار
بیارد
بیاردن
بیاردنه
بیارده
بیارن
بیاره
بیان
بیانی
بیانیه
بیبی
بیت
بیتلز
بیتن
بیتنه
بیته
بیتی
بیداری
بیر
بیرمنگام
بیرن
بیره
بیروت
بیرون
بیرونی
بیری
بیزانس
بیس
بیساي
بیست
بیستم
بیستمین
بیستوم
بیستون
بیسمارک
بیسکای
بیش
بیشتر
بیشتری
بیشترین
بیشته
بیشه
بیشکک
بیضوی
بیضی
بیعت
بیل
بیلباي
بیله
بیلی
بیلیون
بیم
بیمار
بیماران
بیمارستان
بیمارستون
بیمارون
بیماری
بیمه
بیمو
بیمونه
بیموي
بین
بینج
بینجکری
بینش
بینه
بینی
بیه
بیهار
بیهقی
بیو
بیون
بیوه
بیوگرافی
بیي
بیپ
بیژن
بیک
بیکن
بیکینی
بیگ
بیگاری
بیگلو
بیگم
بیگی
بیی
بییت
بییتن
بییتنه
بییته
بییرن
بییره
بیینه
بییه
بەلەننی
ة
ت
تا
تااسا
تاب
تابس
تابستان
تابستانی
تابستون
تابستونی
تابش
تابع
تابعیت
تابلو
تابلوی
تابناک
تات
تاتار
تاتاری
تاترک
تاتورک
تاتی
تاتیانا
تاثیر
تاج
تاجر
تاجرون
تاجگذاری
تاجیک
تاجیکستان
تاجیکستون
تاجیکی
تاخت
تار
تاريخ
تارکوفسکی
تاری
تاریخ
تاریخدون
تاریخدونا
تاریخچه
تاریخی
تاریک
تاریکی
تازه
تازگی
تاس
تاسا
تاسمانی
تاسیس
تاسیسات
تاشون
تاشکند
تالاب
تالار
تالس
تالش
تالشون
تالشی
تالکین
تالیف
تام
تامسون
تامل
تامیل
تامین
تان
تانزانیا
تانزانیای
تانک
تانگ
تانگانیکا
تانگو
تاهوا
تاون
تاووش
تاي
تاپ
تاچر
تاکنون
تاکید
تای
تایتان
تایلند
تایلندی
تایم
تایمز
تایوان
تایپه
تایی
تایید
تب
تبادل
تبار
تبارنه
تبارون
تبت
تبتی
تبدیل
تبرستان
تبرستون
تبرستونی
تبري
تبری
تبریز
تبریزی
تبریک
تبس
تبعه
تبعیت
تبعید
تبعیض
تبعیضات
تبلت
تبلیغ
تبلیغات
تبي
تبیان
تبیین
تتلو
تتوک
تثبیت
تج
تجار
تجارب
تجارت
تجارتی
تجاری
تجاوز
تجدد
تجدید
تجربه
تجربی
تجربیات
تجزیه
تجسمی
تجلیل
تجمع
تجن
تجهیزات
تجویز
تحت
تحریر
تحریف
تحریم
تحریمون
تحریک
تحسین
تحصیل
تحصیلات
تحصیلی
تحقیق
تحقیقات
تحقیقاتی
تحقیقی
تحلیل
تحلیلی
تحمل
تحمیل
تحول
تحولات
تحویل
تخت
تخته
تخریب
تخصص
تخصصی
تخلص
تخلیه
تخم
تخمین
تخیلی
تد
تداعی
تداوم
تدبیر
تدریج
تدریجا
تدریس
تدوین
تر
ترا
ترابایت
ترابی
تراش
ترافیک
ترامادول
ترامپ
ترانزیت
ترانزیتی
ترانزیستور
ترانس
ترانه
تراورتنی
تراکتور
تراکتورسازی
تراکم
تربت
تربچه
تربیت
تربیتی
ترتیب
ترجمة
ترجمه
ترجومه
ترجیح
تردید
ترس
ترسناک
ترسنه
ترسی
ترسیم
ترسینه
ترش
ترشیاری
ترقی
ترك
تركان
ترنتینو
ترنه
تره
ترو
تروا
تروتسکی
ترور
تروریست
تروریستون
تروریستی
تروریسم
ترومن
تروی
ترویج
ترين
ترک
ترکان
ترکمن
ترکمنستان
ترکمنستون
ترکمون
ترکمونستون
ترکمونی
ترکون
ترکی
ترکیب
ترکیبات
ترکیبی
ترکیه
تری
تریاک
تریستان
تریلیون
ترین
ترینیداد
تریک
تزار
تزاری
تزریق
تزه
تزي
تست
تسخیر
تسلط
تسلیت
تسلیحات
تسلیم
تسنن
تسنیم
تسه
تسوک
تسي
تسکا
تسکین
تش
تشخیص
تشخیصی
تشدید
تشریح
تشریفاتی
تشعشع
تشعشعی
تشفشون
تشفشونی
تشنج
تشویق
تشکده
تشکر
تشکیل
تشکیلات
تشی
تشیع
تشییع
تصادف
تصاویر
تصاویری
تصحیح
تصرف
تصفیه
تصمیم
تصنیف
تصور
تصوف
تصویب
تصویر
تصویری
تضعیف
تضمین
تظاهرات
تعادل
تعارضای
تعاریف
تعالی
تعاون
تعبیر
تعبیری
تعجب
تعداد
تعدادی
تعريف
تعریف
تعطیل
تعطیلات
تعطیلی
تعقیب
تعلق
تعلیق
تعلیم
تعمید
تعمیر
تعهد
تعویض
تعیین
تغذیه
تغییر
تغییرات
تغییراتی
تغییری
تـ
تفاوت
تفاوتون
تفاوتی
تفریح
تفریحی
تفسیر
تفسیری
تفلیس
تفنگ
تفنگی
تفکر
تفکرات
تقاضا
تقاضای
تقدیر
تقدیم
تقريبا
تقریبا
تقریبی
تقسیم
تقسیمات
تقلب
تقلید
تقوی
تقویت
تقویم
تقی
تل
تلاش
تلاف
تلافی
تلانتا
تلانتیک
تلخ
تلسکوپ
تلف
تلفات
تلفظ
تلفن
تلفنی
تلفون
تلفیق
تلقی
تلمبار
تله
تلور
تلوزیون
تلویزون
تلویزیون
تلویزیونی
تلگراف
تلگرام
تلی
تم
تماس
تماشا
تماشاچیون
تماشای
تمام
تمامی
تمامیت
تمان
تمایل
تمبک
تمدن
تمرکز
تمرین
تمرینات
تمش
تمن
تموم
تمومی
تمون
تمیشه
تن
تناسخ
تناسلی
تناوبی
تنب
تنباکو
تنبک
تنبیه
تند
تندیس
تنزین
تنسی
تنش
تنظیم
تنقلات
تنه
تنها
تنهایی
تنوع
تنک
تنکابن
تنکابنی
تنگ
تنگه
تنگی
تنی
تنیس
ته
تهدید
تهران
تهرانی
تهرون
تهماسب
تهمت
تهه
تهيه
تهیه
تو
توابع
توافق
توان
تواناي
توانایی
تواند
توانست
توبه
توتوری
توتوهاکنین
توتی
توجه
توجهی
توجیه
توحید
توحیدی
توده
تور
تورات
توران
تورج
تورس
تورم
تورنتو
تورنمنت
تورک
تورکمنستون
تورکون
تورکی
تورکیه
توری
توریست
توریستون
توریستی
توریسم
تورین
توزیع
توس
توسط
توسعه
توسوط
توسکا
توسکانی
توسیفی
توصيفي
توصیف
توصیفی
توصیه
توضیح
توضیحات
توطي
توفان
توفیق
توقف
توقیف
تول
تولد
تولستوی
تولوز
تولید
تولیدات
تولیدک
تولیدی
توم
توما
توماس
تومان
تومبی
تومي
تومی
تون
تونده
تونز
تونس
تونستنه
تونسته
تونسنه
تونل
توننه
توننی
تونه
تونگا
تونگای
تونی
توهم
توهین
توي
توپ
توپخنه
توپی
توچیگی
توکل
توکلاي
توکلی
توکوشیما
توکویل
توکیو
توگو
توی
تویاما
توین
توییتر
تي
تير
تيلور
تپش
تپه
تپورستون
تپورون
تپوری
تک
تکامل
تکانه
تکثیر
تکذیب
تکرار
تکراری
تکریت
تکلیف
تکمیل
تکنولوژی
تکنیک
تکه
تکون
تکیه
تگ
تگزاس
تی
تیاتر
تیان
تیتان
تیتراژ
تیر
تیراندازی
تیراژ
تیرما
تیرماه
تیرنگ
تیره
تیرول
تیری
تیسا
تیغه
تیفون
تیل
تیلفون
تیلور
تیم
تیمور
تیموری
تیموریان
تیموریون
تیمون
تیمی
تینار
تیناری
تینش
تیپ
تیک
تیکا
تیکه
ث
ثابت
ثار
ثارون
ثاری
ثالث
ثاني
ثانی
ثانیه
ثبات
ثبت
ثر
ثروت
ثروتمند
ثروتمندترین
ثعالبی
ثور
ثیر
ثیرات
ج
جا
جاء
جابجایی
جابز
جابه
جات
جاده
جادو
جادوگر
جادوگری
جاذبه
جار
جارکند
جاری
جاز
جاستین
جاسوس
جاسوسی
جالب
جالبی
جام
جاماي
جامد
جامع
جامعه
جامه
جامو
جامی
جان
جاناتان
جانب
جانبه
جانت
جاندارون
جانسون
جانشین
جانشینی
جانور
جانورون
جانگ
جانی
جاهان
جاهای
جاوا
جاوااسکریپت
جاودان
جاوه
جاوید
جاي
جاپون
جاپونی
جاکارتا
جای
جایزه
جایگاه
جایگزین
جایی
جبار
جبال
جبر
جبران
جبراي
جبل
جبهه
جت
جد
جدا
جداگانه
جدایی
جده
جدول
جديد
جدی
جدید
جدیدی
جذاب
جذب
جر
جراح
جراحی
جرایم
جرج
جرجان
جرجانی
جرم
جري
جری
جریان
جریب
جریر
جریمه
جریون
جز
جزء
جزاي
جزایر
جزو
جزي
جزیره
جست
جستجو
جستجوی
جسد
جسم
جسمانی
جسمی
جسی
جشن
جشنواره
جشنی
جعبه
جعفر
جعفرا
جعفری
جعفریان
جعفریه
جغرافیای
جغرافیایی
جـ
جفت
جفتی
جفرسون
جل
جلال
جلالی
جلالیون
جلب
جلد
جلدی
جلسات
جلسه
جلفا
جلفای
جلو
جلوه
جلوگیری
جلوی
جلگه
جلیل
جم
جمادی
جماعت
جمال
جماهیر
جمبوری
جمشید
جمع
جمعا
جمعه
جمعی
جمعیت
جمعیتی
جملات
جمله
جمه
جمهور
جمهورون
جمهوری
جمهوریخواه
جمهوریون
جمي
جمیت
جمیعت
جمیعتی
جمیل
جن
جناح
جنازه
جنایات
جنایت
جنایی
جنبش
جنبه
جنجال
جنجالی
جنده
جنس
جنسی
جنسیت
جنسیتی
جنوا
جنوب
جنوبشرقی
جنوبی
جنوبیون
جنون
جنگ
جنگا
جنگای
جنگجو
جنگستنه
جنگل
جنگلای
جنگلون
جنگلی
جنگلیون
جنگنده
جنگنه
جنگون
جنگی
جنیفر
جنین
جنینگز
جه
جهاد
جهان
جهانبخش
جهانگیر
جهانی
جهت
جهش
جهون
جهونی
جو
جوا
جواب
جوابی
جواد
جوامع
جوان
جوانا
جوانان
جوانی
جواهر
جواهرات
جواهرده
جوایز
جوبار
جوجه
جور
جورج
جورجیا
جورواجور
جوری
جوزا
جوزانی
جوزف
جوش
جوغرافی
جوغرافیا
جوغرافیای
جوغرافیایی
جول
جولای
جوله
جولی
جولیا
جولیان
جومعه
جومله
جومور
جوموری
جومونگ
جون
جونبش
جوندارون
جونز
جونور
جونورون
جونگ
جونیان
جونیور
جوهر
جوون
جوونای
جوونون
جوونی
جوي
جوگی
جوگیون
جویبار
جویباری
جویی
جي
جک
جکسون
جی
جیانگ
جیبوتی
جیبی
جیحون
جیر
جیردستون
جیسون
جیش
جیغ
جیل
جیم
جیمز
جیمس
جیمی
جین
جینگ
جیوه
ح
حاج
حاجی
حادثه
حاشیه
حاصل
حاضر
حافظ
حافظه
حال
حالت
حالی
حالیکه
حامد
حامل
حامی
حامیون
حاوی
حاي
حاکم
حاکمون
حاکمیت
حاکی
حبس
حبشه
حبیب
حبیبی
حتا
حتما
حتمی
حتی
حج
حجاب
حجاز
حجازی
حجت
حجم
حد
حدادیان
حداقل
حداکثر
حدس
حدود
حدودا
حدودالعالم
حدودی
حدی
حدیث
حدیثه
حذف
حذفی
حراج
حرارت
حرام
حرف
حرفه
حرفی
حرم
حرمت
حرمسرا
حروف
حروفی
حرکات
حرکت
حرکتی
حریری
حریف
حریفون
حریم
حزب
حزبون
حزبی
حس
حساب
حساس
حسام
حسب
حسن
حسنی
حسودی
حسين
حسکه
حسی
حسین
حسینقلی
حسینی
حشرات
حشره
حصر
حضرت
حضور
حفاری
حفاظت
حفره
حفظ
حق
حقایق
حقوق
حقوقدان
حقوقدون
حقوقی
حقیقت
حقیقی
حل
حلا
حلب
حلبچه
حلقه
حللا
حلی
حماس
حماسه
حماسی
حمام
حماه
حمایت
حمد
حمزه
حمص
حمل
حملات
حمله
حموسو
حموم
حمید
حمیدرضا
حنا
حنجره
حنفی
حه
حوا
حوادث
حواری
حواریون
حواس
حوالی
حوثی
حوثیون
حوزه
حوسن
حوسین
حوض
حول
حولی
حومه
حوکم
حوکومت
حکام
حکایت
حکم
حکما
حکمت
حکوم
حکومت
حکومتون
حکومتی
حکیم
حکیمی
حکیمیان
حیات
حیاتی
حیاط
حیث
حیدر
حیدری
حیران
حیساب
حیمایت
حین
حیوان
حیوانات
حیوون
حیوونا
حیوونای
حیوونون
خ
خا
خاتمی
خاتون
خاخ
خاخر
خاخرون
خاد
خادش
خادشون
خادم
خادکاشی
خادی
خار
خارج
خارجه
خارجی
خارجیون
خاردنه
خارده
خارشت
خارشید
خارشیدی
خارطوم
خارنه
خاره
خاری
خازن
خاس
خاستنه
خاسته
خاستگاه
خاستی
خاسه
خاش
خاشه
خاشک
خاشکی
خاص
خاصی
خاصیت
خاطر
خاطرات
خاطره
خال
خالص
خاله
خالی
خام
خامبی
خامنه
خاموش
خان
خاندان
خاندون
خانقاه
خانقین
خانم
خانندبیل
خاننه
خانه
خانواده
خانوادگی
خانوار
خانوم
خانک
خانگی
خانی
خاه
خاهون
خاور
خاورمیانه
خاورمیونه
خاویار
خاویاری
خاي
خاک
خاکستری
خاکی
خبر
خبرنگار
خبرنگاران
خبرگان
خبرگزاری
خبری
خت
ختم
خجیر
خد
خدا
خدابنده
خداحافظی
خداوند
خداي
خدای
خدایی
خدش
خدمات
خدمت
خدمتکارون
خدگردون
خذ
خر
خراب
خرابه
خرابی
خراج
خراسان
خراسانی
خراسون
خرالزمون
خراک
خرای
خرج
خرد
خرداد
خردادبه
خرس
خرسر
خرسری
خرش
خرم
خرمادی
خرمدین
خرنه
خروج
خروس
خروشچف
خرچنگ
خری
خرید
خرین
خزانه
خزاي
خزر
خزران
خزرها
خزرون
خزندگون
خس
خسارت
خسته
خستگی
خسرو
خسروپرویز
خسروی
خش
خشت
خشم
خشمگین
خشن
خشونت
خشک
خشکبیجار
خشکرود
خشکی
خصوص
خصوصا
خصوصی
خصوصیات
خصوصیت
خط
خطا
خطاب
خطاطی
خطای
خطبه
خطر
خطرناک
خطوط
خطی
خـ
خلا
خلاء
خلاصتا
خلاصه
خلاف
خلافت
خلاقیت
خلال
خلبان
خلبون
خلجستون
خلخال
خلدون
خلع
خلعتبری
خلف
خلفا
خلفای
خلق
خلقون
خله
خلوت
خلوي
خلی
خلیج
خلیفه
خلیل
خلیلی
خم
خماتوا
خماتووا
خمر
خمسه
خمینی
خناتون
خنثی
خنجر
خندق
خنده
خنه
خنواده
خني
خو
خوا
خواب
خوابگاه
خواجه
خواخر
خوار
خوارزم
خوارزمی
خواست
خواستار
خواسته
خواسنه
خواص
خواف
خوان
خوانده
خواننده
خوانندگان
خوانه
خوانی
خواه
خواهان
خواهد
خواهر
خواهم
خواهون
خواي
خوب
خوبی
خوجالی
خوجه
خود
خودا
خودداری
خودرو
خودش
خودمختار
خودمختاری
خودکار
خودکشی
خودگردان
خور
خورا
خوراک
خوراکی
خورخه
خورد
خوردترین
خوردن
خورده
خورش
خورشيدي
خورشید
خورشیدی
خورنگار
خورون
خورگزاری
خورگزاریون
خورگوزاری
خوری
خوزستان
خوزستون
خوزه
خوش
خوشبختی
خوشه
خون
خوند
خوندسته
خوندن
خوندنه
خونریزی
خونش
خونشکر
خونشکری
خونشگر
خوننده
خونندگی
خونه
خونواده
خونی
خووننده
خوی
خی
خیابان
خیابون
خیابونی
خیال
خیالی
خیام
خیانت
خیر
خیرالدین
خیرالنساء
خیریه
خیز
خیل
خیلی
خیمه
خینه
د
دا
داب
دابودشت
دابوی
دابویه
دابویگون
دابویی
دات
داخل
داخلی
داد
دادستان
دادن
دادند
داده
دادگا
دادگان
دادگاه
دادگستری
دار
دارا
داراب
دارالسلام
دارالفنون
دارالمرز
داراي
دارای
دارایی
دارد
داردانل
دارفور
دارم
دارمه
دارمی
دارن
دارند
دارننه
دارنه
داره
دارو
داروخانه
دارون
دارونما
داروهای
داروی
داروین
دارویی
داری
داریم
دارین
داریوش
دازمهر
دازور
داس
داستان
داستانای
داستانون
داستانی
داستون
داش
داشت
داشتن
داشتند
داشتنه
داشته
داشنه
داعش
داعشی
داعشیون
داعی
داغ
داغستان
داغستون
دال
دالاس
دالای
دالایی
دام
داماد
دامادی
دامداری
دامغان
دامنه
دامون
دان
دانا
دانان
دانایی
دانته
دانست
دانش
دانشجو
دانشجوي
دانشجوی
دانشجویان
دانشجویون
دانشجویی
دانشمند
دانشمندان
دانشمندون
دانشمندونی
دانشنامه
دانشنومه
دانشکده
دانشگا
دانشگاه
دانشگاهون
دانشگاهی
دانشگاي
دانشی
دانلود
دانمارک
دانمارکی
دانند
دانه
دانوب
دانگ
دانیشگاه
دانیل
داهه
داهون
داهونه
داود
داودخان
داوری
داوطلب
داوطلبون
داوود
داوودی
داوید
داوینچی
داي
داينه
داکا
داکوتا
داگلاس
دای
دایر
دایرةالمعارف
دایره
دایننه
داینه
دایه
دایی
دب
دباره
دباش
دبداي
دبستان
دبلیو
دبورد
دبوردن
دبورده
دبی
دبیر
دبیرستان
دبیرستون
دبیرکل
دبیری
دتا
دتر
دجله
دخالت
دخانیات
دختر
دختران
دخیل
در
درا
دراز
درازکلا
درازی
دراصل
درام
دراماتورژ
درانه
دراین
دراینه
درب
دربار
درباره
درباریون
دربرگیرنه
دربمو
دربمونه
دربموي
دربند
دربورده
دربی
دربیاردنه
دربیارده
دربیاره
درجه
درحال
درحالی
درحالیکه
درخاست
درخت
درختان
درخشان
درخشون
درخواست
درد
دردسر
درزی
درس
درست
درستی
درسدن
درسی
درسیم
درشی
درصد
درعا
درفش
درم
درمان
درمانی
درمورد
درمون
درمونی
درن
درنظر
درننه
درنه
دره
درهم
درو
دروازه
درواقع
دروس
دروغ
دروم
درون
درونه
درونی
دروه
درویش
درویشعلی
درویشون
درویشی
دريا
درياي
درک
درکا
درکاي
درکای
درگا
درگاه
درگذشت
درگیر
درگیری
درگیریون
دری
دریا
دریاتیک
دریارنه
دریافت
دریامونا
دریامونای
دریان
دریانورد
دریانوردی
دریاي
دریاچه
دریای
دریایی
درین
دریو
دریوچه
دریوک
دریوی
دریویی
دریچه
دزد
دزدون
دزدی
دس
دسامبر
دست
دستاورد
دسترس
دسترسی
دسته
دستور
دستوری
دستگاه
دستگیر
دستگیری
دستی
دستیابی
دستیار
دسه
دسوری
دشت
دشتی
دشمن
دشمنون
دشمنی
دشو
دشوار
دعا
دعای
دعوا
دعواي
دعوت
دف
دفاتر
دفاع
دفاعی
دفاعیات
دفاعیه
دفتر
دفع
دفعه
دفن
دفه
دقت
دقیق
دقیقا
دقیقه
دقیقی
دكته
دكشي
دل
دلا
دلار
دلاری
دلاواله
دلایل
دلبر
دلر
دلفین
دلم
دله
دلو
دلوي
دلیل
دلیلی
دم
دما
دماغ
دماغه
دماوند
دماگوژی
دمای
دمبال
دمباله
دمبدا
دمبدانه
دمبداي
دمبده
دمت
دمدنه
دمشق
دمه
دمون
دمونی
دموکرات
دموکراتون
دموکراتیک
دموکراسی
دموکریتوس
دمکرات
دمکراتیک
دمکراسی
دمی
دمیرتاش
دمیرچی
دمیزاد
دمیزاي
دن
دنبال
دنبالتر
دنباله
دنباوند
دندان
دندون
دننه
دنه
دنور
دنگ
دنی
دنیا
دنیابموي
دنیای
دنیایی
دنینه
دنیه
دنیوی
ده
دهات
دهاک
دهباشی
دهخدا
دهد
دهدر
دهستان
دهستون
دهلی
دهم
دهمین
دهند
دهنده
دهه
دهوم
دهون
دهوک
دهکده
دهی
دو
دوا
دواره
دواز
دوازده
دوازدهم
دوازدهمین
دواش
دواي
دوبار
دوباره
دوبلاژ
دوبله
دوبلین
دوبوا
دوبی
دوتا
دوتار
دوحه
دود
دودانگه
دور
دوران
دورانت
دوربین
دورة
دورترین
دوردست
دورسونخواجه
دوره
دورود
دورون
دوری
دوس
دوسا
دوست
دوستان
دوستانه
دوسته
دوستی
دوسه
دوش
دوشمن
دوشنبه
دول
دولار
دولت
دولتای
دولتون
دولتی
دولف
دوم
دوما
دومبی
دومی
دومین
دومینیک
دومینیکن
دون
دونا
دونالد
دونتسک
دوندنه
دونده
دوندی
دونستن
دونستنه
دونسته
دونسنه
دونسه
دونش
دونشجه
دونشگا
دونن
دوننه
دونه
دونون
دونگ
دونگه
دونی
دونیا
دونیس
دونیم
دوو
دووم
دوومی
دوي
دوک
دوکات
دوکتر
دوکترای
دوکتور
دوی
دویست
دویچه
دي
ديوار
ديگران
ديگه
دپاشنی
دپوشنی
دپیت
دپیته
دچار
دچی
دژ
دک
دکارت
دکارده
دکاشتن
دکت
دکتر
دکترا
دکترای
دکترون
دکتری
دکتن
دکتنه
دکته
دکتی
دکشی
دکفن
دکفه
دکل
دکلستنه
دکلستونه
دکلمه
دگاردنی
دی
دیا
دیات
دیار
دیاربکر
دیاری
دیاز
دیاله
دیالوگ
دیاکونوف
دیترویت
دیتریش
دیجه
دیجیتال
دید
دیدار
دیدن
دیدنی
دیده
دیدگاه
دیر
دیرالزور
دیروز
دیری
دیرینه
دیزنی
دیس
دیفار
دیلم
دیلمان
دیلمستون
دیلمی
دیلمیون
دیلی
دیم
دیملی
دین
دینا
دینار
دینه
دینگوي
دینی
دیه
دیهستون
دیو
دیوار
دیواره
دیوارهای
دیواری
دیوان
دیوانه
دیوانگی
دیود
دیوونه
دیوید
دیویس
دیي
دیپلم
دیپلمات
دیپلماتیک
دیپلماسی
دیک
دیکتاتور
دیکتاتوری
دیگر
دیگران
دیگرون
دیگری
دیگه
دیگو
دیی
دیینه
ذ
ذا
ذات
ذاکری
ذبیح
ذبیحی
ذخایر
ذخیره
ذر
ذرات
ذربایجان
ذربایجون
ذربایجونی
ذرت
ذره
ذرولاش
ذری
ذغال
ذهن
ذهنی
ذوالفقار
ذوالقرنین
ذوب
ذوقه
ذکر
ذی
ذیل
ر
را
راء
راب
رابرت
رابطه
رابین
رابینو
راجع
راحت
راد
رادان
رادرفورد
رادکان
رادیو
رادیوفردا
رادیوم
رادیویی
رادیکال
رار
رارات
راز
رازپوش
رازی
راس
راست
راسته
راستکی
راستی
راسل
راسون
راسین
راشد
راضی
راغون
رافاي
راق
راقاضی
رال
رالف
رام
راما
رامسر
رامش
راموز
رامون
رامگاه
رامی
رامیان
رامین
رامیوو
ران
راند
راننده
رانی
راه
راهب
راهبند
راهنما
راهنمای
راهنمایی
راههای
راهون
راهپیمایی
راهی
راوندی
راوی
راي
راک
راکفلر
راکون
راکی
راگون
راگونی
رای
رایانه
رایت
رایج
رایری
رایش
راین
رایگان
رایگون
رایی
رب
رباط
رباعیات
ربط
ربطی
ربع
ربموي
ربن
ربوتن
ربورده
ربون
ربیارده
ربیع
رةالمعارف
رت
رتبه
رتساخ
رتمیس
رته
رتور
رتی
رج
رجال
رجانتین
رجایی
رجب
رجعت
رجه
رحم
رحمان
رحمانی
رحیم
رحیمی
رحیمیان
رخ
رخت
رخه
رد
ردا
ردن
ردنه
رده
ردی
ردیف
رز
رزم
رزمی
رزو
رزوی
رس
رسالة
رساله
رسانا
رساند
رسانش
رسانه
رسانی
رستاق
رستم
رستمدار
رستمی
رسته
رستوران
رستگار
رسد
رسم
رسما
رسمی
رسمیت
رسن
رسنال
رسنه
رسنی
رسنینه
رسه
رسول
رسوم
رسونی
رسکت
رسی
رسید
رسیدند
رسینه
رش
رشت
رشته
رشتی
رشد
رشوه
رشی
رشید
رشیو
رصد
رضا
رضاخان
رضازاده
رضاشا
رضاشاء
رضاشاه
رضاقلی
رضایا
رضایت
رضایی
رضوان
رضوی
رضی
رطوبت
رعایت
رعد
رغم
رفاه
رفاهی
رفت
رفتار
رفتارای
رفتارهای
رفتارگراي
رفتاری
رفتست
رفتن
رفته
رفخ
رفخون
رفراندوم
رفسنجانی
رفع
رفق
رفقون
رفیع
رفیق
رفیقون
رق
رقابت
رقابتون
رقد
رقص
رقم
رقه
رقیب
رقیبون
رم
رما
رمادی
رمان
رمانتیک
رمز
رمضان
رمضانپور
رمضانی
رمضون
رمون
رمی
رمین
رن
رنار
رنج
رنجبر
رند
رندی
رنسانس
رنه
رنو
رنکینگ
رنگ
رنگار
رنگون
رنگی
رنگین
ره
رها
رهاکردنه
رهاکرده
رهاکنن
رهایی
رهبر
رهبران
رهبرون
رهبری
رهنما
رهگذر
رو
روا
روابط
رواج
روار
روان
رواندا
روانشناختی
روانشناس
روانشناسی
روانه
رواني
روانپزشكي
روانپزشکی
روانکاوی
روانی
روایات
روایت
روایتی
روبا
روبر
روبرت
روبرو
روبل
روبن
روبه
روبیک
روت
روتنه
روته
روج
روجا
روح
روحانی
روحی
روحیه
روخ
روخنه
رود
رودا
رودبار
رودبارک
رودبست
رودخانه
رودریگز
رودزیا
رودزیای
رودسر
روده
رودون
رودپی
روز
روزا
روزانه
روزمره
روزنامه
روزنه
روزنومه
روزه
روزها
روزولت
روزون
روزگار
روزی
روس
روسا
روستا
روستاهای
روستاي
روستای
روستایی
روستم
روسو
روسون
روسی
روسیه
روسیون
روش
روشد
روشن
روشنایی
روشنفکرون
روشنه
روشنگری
روشنی
روشه
روشون
روشی
روغن
روف
رول
رولان
رولن
رولینگ
روم
رومان
رومانی
رومانیایی
رومن
رومي
رومگاه
رومی
رومیان
رومیون
رون
رونالد
رونالدو
رونتگن
روند
رونسانس
رونق
رونمایی
رونی
روو
روون
روونه
رووی
روي
روپونچه
روپیه
روژ
روژاوا
روژاوای
روژه
روی
رویا
رویال
رویان
رویانی
رویترز
رویداد
روین
رویپونش
رویکرد
رویین
ري
ريكا
رپ
رپاد
رپر
رژانتین
رژانتینی
رژه
رژیم
رک
رکن
رکود
رکورد
رگ
رگه
رگو
رگوزاری
ری
ریا
ریاحی
ریادنه
ریاست
ریاض
ریاضی
ریاضیات
ریاضیدون
ریال
ریان
ریانووستی
ریایی
ریاییون
ریتم
ریخت
رید
ریدلی
ریز
ریزشگاه
ریزنه
ریزه
ریزونا
ریزی
ریس
ریش
ریشار
ریشتر
ریشه
ریف
ریل
ریم
ریمون
ریموند
ریمیکس
رین
رینه
رینیر
ریه
ریو
ریور
ریچارد
ریچل
ریچموند
ریک
ریکا
ریکاي
ریکای
ریکوتی
ریگ
ریگا
ریگان
ریگی
رییس
رییسی
ز
زا
زات
زاد
زادانه
زادروز
زادلو
زاده
زادگان
زادگاه
زادگله
زادی
زادیبخش
زار
زارع
زاری
زازا
زازاي
زازاکی
زاغمرز
زال
زامبیا
زامنهوف
زانا
زانو
زاهدان
زاویه
زاي
زاکسن
زاگرب
زاگرس
زاید
زبان
زبون
زبونون
زبیر
زتابایت
زتکون
زحل
زحمت
زخم
زخمی
زد
زده
زدگی
زدی
زر
زراب
زراعت
زرتشت
زرتشتی
زرتشتیان
زرتشتیون
زرج
زرد
زردشت
زرقاء
زرمهر
زرهی
زرگری
زریاب
زرین
ززم
زلزله
زلنسکی
زم
زمان
زمانه
زمانی
زمایش
زمایشات
زمایشگاه
زمس
زمستان
زمستون
زمستونی
زمسون
زمون
زمونه
زمونی
زمین
زمینای
زمینه
زمینی
زن
زنا
زنان
زناي
زنای
زنایی
زنجان
زنجیره
زند
زندان
زندانی
زندانیان
زندانیون
زندنه
زنده
زندون
زندونی
زندونیون
زندگانی
زندگي
زندگی
زندگینامه
زندیه
زندیون
زننه
زنه
زنون
زنگ
زنگبار
زنی
زه
زهر
زهرا
زهره
زهی
زو
زوال
زود
زودته
زودرس
زودی
زور
زورپشتی
زوری
زوریخ
زوف
زوندی
زونه
زونگ
زوون
زوونای
زوونه
زوونون
زوونونی
زوونی
زوي
زي
زير
زک
زی
زیاد
زیادنه
زیاده
زیادی
زیار
زیارت
زیاری
زیاریون
زیبا
زیباترین
زیباکلام
زیبای
زیبایی
زیج
زید
زیدی
زیدیه
زیدیون
زیر
زیرا
زیرزمین
زیرزمینی
زیرشاخه
زیرمجموعه
زیرو
زیرچل
زیرگونه
زیست
زیستی
زیمبابوه
زیمباوه
زین
زینب
زینتی
زیوون
زیک
زیکا
زیگموند
س
سا
سابق
سابقا
سابقه
سات
ساتراپی
ساتن
ساتنه
ساته
ساجن
ساجنه
ساجی
ساحل
ساحلی
ساخاروف
ساخالین
ساخت
ساختار
ساختارون
ساختاری
ساختمان
ساختمون
ساختن
ساخته
سادات
ساده
سادوك
سار
سارا
سارایوو
سارتر
سارد
ساردنی
ساروج
ساروی
سارویه
سارکوزی
ساری
ساز
سازمان
سازماندهی
سازمانی
سازمون
سازن
سازنده
سازنه
سازه
سازها
سازهای
سازون
سازگار
سازی
ساسان
ساسانی
ساسانیان
ساسانیون
ساسی
ساع
ساعات
ساعت
سافت
ساقط
ساقه
سال
سالا
سالات
سالار
سالاری
سالازار
سالانه
سالای
سالت
سالروز
سالزبورگ
سالم
سالنامه
ساله
سالها
سالهای
سالوادور
سالون
سالونه
سالگرد
سالگی
سالی
سام
سامان
سامانه
سامانی
سامانیون
سامرا
ساموا
سامورایی
سامون
سامونه
سامونی
ساموي
سامگوک
سامی
سامیون
سان
سانتا
سانتر
سانتو
سانتوس
سانتی
سانتیاگو
سانتیمتر
سانحه
ساند
سانسور
سانسکریت
سانفرانسیسکو
سانچز
سانژ
ساوالان
ساوت
ساي
سايت
ساپینس
ساک
ساکاشویلی
ساکت
ساکرامنتو
ساکن
ساکنان
ساکنون
ساکنین
ساکورا
ساکی
ساگا
ساگرادا
ساگینیان
سای
سایبری
سایت
سایتاما
سایتون
سایتونی
سایر
سایرس
ساینس
سایه
سایپا
سایی
سباستین
سبب
سبز
سبزه
سبزی
سبزیجات
سبلان
سبک
سبکون
ست
ستا
ستاد
ستار
ستارا
ستاره
ستان
ستانه
ستایش
ستد
ستراخان
ستن
ستنه
سته
ستوده
ستوری
ستوریاس
ستون
ستونه
ستی
ستیزی
ستین
سجاد
سجادرود
سجادی
سحابی
سحر
سخت
سختی
سخن
سخنرانی
سخنگو
سد
سده
سر
سرا
سراج
سراسر
سراسری
سراغ
سراق
سرامیک
سران
سرانجام
سرانجوم
سرانه
سرای
سرایی
سرب
سرباز
سربازا
سربازان
سربازای
سربازها
سربازون
سربازی
سربدارون
سرت
سرتاسر
سرجمع
سرخ
سرخاب
سرخس
سرخه
سرخوش
سرخپوستون
سرخپوستی
سرد
سردابه
سردار
سردارون
سردبیر
سردبیری
سردرد
سردی
سرزمین
سرزمینای
سرزمینونی
سرزمینی
سرساب
سرسبز
سرش
سرشار
سرشت
سرشماری
سرشناس
سرشوماری
سرطان
سرطانی
سرعت
سرعین
سرما
سرمایه
سرمربی
سرنوشت
سرنگون
سرنگونی
سره
سرهنگ
سرو
سروانتس
سرواژه
سرود
سرور
سروش
سرون
سرویراستار
سرویس
سري
سرپا
سرپرست
سرپرستان
سرپرستی
سرچشمه
سرژ
سرکوب
سرکوبی
سرکیسیان
سرگذشت
سرگرم
سرگرمی
سرگي
سری
سریال
سریانی
سریع
سریعا
سریلانکا
سزار
سزر
سزیم
سس
سسه
سسون
سطح
سطحی
سطوح
سعادت
سعد
سعدالدوله
سعدالدین
سعدی
سعود
سعودی
سعی
سعید
سعیدی
سـت
سـه
سفارت
سفارتخنه
سفارش
سفال
سفت
سفر
سفرنامه
سفرنومه
سفره
سفرون
سفری
سفلی
سفید
سفیر
سقانفار
سقراط
سقز
سقط
سقف
سقوط
سل
سلاح
سلاحون
سلاطین
سلام
سلامت
سلامتی
سلتی
سلجوقی
سلجوقیان
سلجوقیون
سلسله
سلطان
سلطنت
سلطنتی
سلطه
سلطون
سلف
سلفچگون
سلفی
سلمان
سلمون
سلنا
سلو
سلول
سلولی
سلوی
سلیقه
سلیم
سلیمان
سلیمانی
سلیمانیه
سلیمون
سلیمی
سم
سما
سمان
سمبل
سمبورو
سمت
سمرقند
سمسکنده
سمشکه
سمنان
سمنانی
سمنون
سمون
سمونی
سمی
سمیر
سمیع
سن
سنا
سناتور
سنار
سنای
سنباد
سنت
سنتا
سنتر
سنتی
سنجار
سنجبدشرقی
سنجبدشمالی
سنجبدغربی
سنجر
سنجی
سند
سندسلام
سنسکریت
سنندج
سنه
سنوات
سنگ
سنگال
سنگاپور
سنگر
سنگسر
سنگسری
سنگی
سنگین
سنگینی
سنی
سنین
سه
سهام
سهامی
سهراب
سهم
سهمی
سهند
سهیل
سهیلا
سو
سوء
سوا
سوابق
سواحل
سواد
سوادکوه
سوادکوهی
سوار
سوارز
سواره
سواری
سوازیلند
سوال
سوایی
سوت
سوتین
سوج
سوخت
سوخته
سوخرا
سوخوتای
سوخومی
سود
سودان
سودانی
سودی
سور
سوراخ
سورانی
سورت
سورتیجی
سورعت
سوره
سورود
سوری
سورینام
سوریه
سوز
سوزان
سوزی
سوسن
سوسیال
سوسیالیست
سوسیالیستون
سوسیالیستی
سوسیالیسم
سوفسطاي
سوفی
سوفیا
سوق
سول
سولاخ
سولاریس
سولاوسی
سولی
سوم
سومالی
سومی
سومین
سون
سونا
سونتی
سونسیون
سوننی
سونگ
سونی
سووا
سووستر
سوي
سوپر
سوپرجام
سوپرکاپ
سوپریور
سوچی
سوکارنو
سوگند
سوی
سویا
سویاتوسلاو
سوییس
سي
سياسي
سيب
سيد
سپاه
سپاهان
سپاهی
سپاهیون
سپتامبر
سپر
سپرده
سپری
سپرین
سپس
سپه
سپهدار
سپهر
سپهسالار
سپیده
سک
سکاي
سکایی
سکته
سکس
سکنه
سکنی
سکه
سکو
سکوت
سکودری
سکولار
سکولاریسم
سکونت
سگ
سگالان
سگور
سی
سیا
سیارات
سیاره
سیارک
سیاست
سیاستمدار
سیاستمدارون
سیاستون
سیاستی
سیاسی
سیاسیون
سیام
سیامی
سیاه
سیاوش
سیای
سیایی
سیب
سیبری
سیتی
سید
سیدنی
سیده
سیر
سیرالي
سیره
سیروس
سیری
سیریلیک
سیز
سیزده
سیزدهم
سیزدهمین
سیزدهوم
سیس
سیسات
سیستان
سیستانی
سیستم
سیستماتیک
سیستمون
سیسیل
سیشل
سیصد
سیف
سیفی
سیل
سیلا
سیلزی
سیلوا
سیلوستر
سیم
سیما
سیمای
سیمرغ
سیمز
سیموس
سیمون
سیمین
سین
سینا
سیناترا
سینما
سینماي
سینمای
سینمایی
سینه
سینوهه
سینگ
سینی
سیه
سیو
سیوا
سیونیک
سیوپوست
سیوپوستون
سیپاه
سیپراس
سیکا
سیگار
ش
شا
شاء
شاءصفی
شاءعباس
شاب
شابا
شابلون
شابک
شاخ
شاخص
شاخه
شاد
شادمهر
شادی
شار
شارانت
شارتیه
شاردن
شارل
شارلوت
شارنت
شارون
شازده
شاعباس
شاعر
شاعران
شاعرون
شاعری
شافعی
شال
شالکه
شالی
شام
شامل
شاملو
شامپانی
شامپاین
شان
شانتال
شانزده
شانزدهم
شانس
شانه
شانگهای
شاه
شاهان
شاهد
شاهرخ
شاهرود
شاهزاده
شاهنامه
شاهنشاهی
شاهنشاي
شاهنومه
شاهون
شاهکار
شاهکارون
شاهی
شاهین
شاو
شاي
شاپور
شاگرد
شاگردون
شای
شایان
شاید
شایسته
شایع
شایعه
شایی
شب
شباهت
شبه
شبهه
شبکه
شبیه
شت
شتاب
شتر
شتنه
شته
شتی
شتیانی
شجاع
شجاعت
شجاعی
شجریان
شخسیت
شخص
شخصا
شخصی
شخصیت
شخصیتون
شخصیتی
شد
شدت
شدن
شدند
شده
شدید
شدیدا
شدیدی
شر
شراب
شرایط
شرایطی
شرح
شرط
شرطی
شرع
شرعی
شرف
شرق
شرقی
شرقیه
شركت
شرلی
شرم
شروء
شروان
شروع
شرون
شروین
شروینه
شرک
شرکت
شرکتون
شرگو
شرگوي
شریعت
شریف
شریفی
شریک
شریکی
شست
شش
ششم
ششمین
شصت
شطرنج
شعار
شعبان
شعبانخانی
شعبه
شعبون
شعر
شعرا
شعرای
شعرهای
شعرون
شعری
شغال
شغل
شغلی
شـ
شفا
شفاهی
شفت
شفته
شفق
شفیع
شفیعی
شلاق
شلفین
شلوار
شلیک
شم
شما
شمار
شماره
شماری
شمال
شمالی
شمس
شمسی
شمشیر
شمشیربند
شمشیری
شمع
شمن
شمنون
شمه
شمیرون
شن
شنا
شناخت
شناخته
شناختی
شناس
شناسا
شناسان
شناسایی
شناسته
شناسنامه
شناسه
شناسون
شناسي
شناسی
شناسینه
شنایی
شنبه
شند
شنه
شنود
شنگ
شنگن
شنی
شه
شهاب
شهابی
شهباز
شهدا
شهر
شهرا
شهرام
شهراندونزی
شهرای
شهربانو
شهربانی
شهرت
شهردار
شهرداری
شهردویر
شهرسازی
شهرستان
شهرستانی
شهرستون
شهرنوم
شهره
شهرها
شهرهای
شهرهند
شهرو
شهرون
شهروند
شهروندون
شهروندی
شهرونی
شهريور
شهرک
شهری
شهریار
شهریور
شهسوار
شهلا
شهمیرزاد
شهناز
شهید
شهیدا
شهیدی
شو
شوارتس
شواش
شوال
شوالیه
شواهد
شواهدی
شوب
شوخی
شود
شور
شورا
شوراب
شوراده
شوراي
شورای
شورش
شورشون
شورشی
شورشیون
شوروی
شوری
شوریون
شوش
شوم
شوماخر
شومار
شوماره
شومارگون
شومال
شومالی
شون
شوند
شونزده
شونزدهم
شونزه
شونزهم
شونزهمین
شوننه
شونه
شونی
شوهرت
شووب
شوي
شوپه
شوکا
شوی
شویتس
شي
شيوع
شک
شکار
شکارچی
شکاری
شکایت
شکر
شکری
شکست
شکسته
شکسپیر
شکل
شکلک
شکلی
شکم
شکن
شکنجه
شکوری
شکوفایی
شکوفنده
شکوه
شکی
شگفت
شی
شیاده
شیاي
شیب
شیخ
شیخی
شیدایی
شیر
شیرا
شیراز
شیرازی
شیراک
شیرویه
شیرکت
شیرگاه
شیری
شیرین
شیرینی
شیزوي
شیش
شیشصد
شیشم
شیشمین
شیشه
شیشوم
شیشومین
شیشک
شیطون
شیطونی
شیعه
شیعی
شیعیان
شیعیون
شیل
شیلا
شیله
شیلی
شیلیایی
شیمانه
شیمی
شیمیایی
شیمیدون
شین
شیناسی
شینزو
شینه
شیه
شیوه
شیکاگو
شیکست
شیکل
شیگا
شەنه
ص
صابر
صاحاب
صاحب
صادر
صادرات
صادق
صادقلو
صادقی
صارمی
صاف
صالح
صالحی
صاي
صبا
صباح
صبح
صحبت
صحت
صحرا
صحرای
صحنه
صحیح
صخره
صد
صدا
صدابردار
صدارت
صداقت
صدام
صداوسیما
صداوسیمای
صدای
صدایی
صدتا
صدر
صدراعظم
صدراعظمی
صدمه
صدمین
صدها
صدور
صدیقه
صرب
صربستان
صربستون
صربون
صربی
صرف
صرفا
صص
صعده
صعود
صغیر
صف
صفا
صفاری
صفاریون
صفت
صفحات
صفحه
صفحە
صفر
صفوی
صفویان
صفویه
صفویون
صفی
صلاح
صلح
صلحنومه
صله
صلوات
صلیب
صلیبی
صمدی
صمصام
صنايع
صنایع
صندلی
صندوق
صنعا
صنعای
صنعت
صنعتی
صواحی
صوتی
صور
صورت
صورتی
صوفی
صوفیه
صول
صولح
صومعه
صوه
صید
صیدا
ض
ضامن
ضبط
ضحاک
ضد
ضرب
ضربه
ضرر
ضرورت
ضروری
ضعف
ضعیف
ضمن
ضمنا
ضمیمه
ضیاء
ضیاءپور
ضیاالدین
ط
طارق
طاق
طاقت
طالب
طالبا
طالبان
طالبانی
طالبون
طالبی
طالع
طالقانی
طالقونی
طاهباز
طاهر
طاهري
طاهری
طاهریون
طاي
طایفه
طب
طبابت
طباطباي
طباطبایی
طبرستان
طبرستون
طبرسی
طبری
طبع
طبق
طبقات
طبقاتی
طبقه
طبیب
طبیعت
طبیعی
طرابلس
طراح
طراحی
طرح
طرحون
طرحی
طرز
طرزی
طرطوس
طرف
طرفدار
طرفداران
طرفدارون
طرفداری
طرفه
طرفی
طرفین
طریق
طعم
طعمه
طغرل
طلا
طلاق
طلال
طلای
طلایی
طلب
طلبون
طلبی
طلعت
طلوع
طلیسچی
طنز
طنزپرداز
طهاهري
طهماسب
طهماسبی
طوایف
طور
طوری
طوس
طوسی
طوفان
طول
طولانی
طي
طی
طیب
طیبی
طیر
طیف
ظ
ظاهر
ظاهرا
ظاهری
ظرف
ظرفیت
ظریف
ظلم
ظهر
ظهور
ظهیرالدین
ع
عاج
عادت
عادل
عادی
عارف
عاروسی
عازم
عاشق
عاشقانه
عاشقونه
عاشقی
عاصمه
عاطفه
عاطفی
عاقل
عالم
عالمیان
عالی
عالیه
عام
عامل
عامه
عامو
عامی
عامیانه
عایشه
عبادت
عبارت
عبارتند
عبارتنه
عبارته
عبارتون
عبارتی
عباس
عباسی
عباسیان
عباسیون
عبد
عبدالجبار
عبدالحسین
عبدالحمید
عبدالرحمن
عبدالرحیم
عبدالرسول
عبدالرضا
عبدالعزیز
عبدالعظیم
عبدالعلی
عبدالفتاح
عبدالله
عبدالمالک
عبدالمالکی
عبدالمجید
عبدالملک
عبدالملکی
عبدالمناف
عبدالناصر
عبدالکریم
عبدی
عبرت
عبری
عبور
عبوری
عتبة
عتیق
عثمان
عثمانی
عثمانیان
عثمانیون
عجم
عجیب
عدالت
عدد
عدسی
عدل
عدلیه
عدم
عدن
عده
عذرخاهی
عراق
عراقی
عرب
عربستان
عربستون
عربستونی
عربون
عربي
عربی
عربیسم
عرصه
عرض
عرضه
عرفان
عرفانی
عرق
عروس
عروسی
عزا
عزاداری
عزالدین
عزت
عزل
عزیز
عسل
عسلی
عسکری
عسگری
عسیر
عشایر
عشق
عشقی
عصب
عصبانی
عصبانیت
عصبی
عصر
عضدالدوله
عضو
عضوه
عضوون
عضویت
عطار
عطاران
عطر
عظمت
عظیم
عظیمی
عفرین
عفو
عفونت
عقاب
عقابها
عقاید
عقب
عقبه
عقده
عقرب
عقل
عقلی
عقیده
عقیقی
عقیلی
عل
علاء
علاءالدوله
علاقه
علام
علامت
علامه
علاوه
علاي
علایم
علت
علف
علل
علم
علما
علمای
علمي
علمی
علمیه
علنا
علنی
علوم
علومی
علوی
علویان
علویه
علویون
على
علي
علی
علیا
علیجان
علیرضا
علیزاده
علیشمس
علیقلی
علیه
علیپور
عماد
عمادالدوله
عمادالدین
عمادی
عمارت
عمال
عمان
عمدتا
عمده
عمر
عمرالبشیر
عمران
عمرانی
عمرش
عمرو
عمق
عمل
عملا
عملکرد
عملگر
عملی
عملیات
عملیاتون
عملیاتی
عمو
عمودی
عموم
عموما
عمومی
عمید
عمیق
عن
عناصر
عناوین
عنايت
عنایت
عنبران
عنصر
عنوان
عهد
عهدنامه
عهده
عوارض
عواطف
عوام
عوامل
عواید
عوثمان
عوثمانی
عوثمانیا
عود
عوض
عومان
عومر
عونوان
عوهده
عکاس
عکاسی
عکس
عکسا
عکسای
عکسون
عید
عیدی
عیراق
عیسی
عیلام
عین
عینا
عینی
عیید
غ
غا
غاج
غار
غارت
غاز
غازگر
غازی
غازین
غافل
غالب
غالبا
غبار
غده
غدیر
غذا
غذاي
غذای
غذایی
غرامت
غرب
غربت
غربی
غرق
غروب
غرور
غریب
غریبه
غزل
غزلیات
غزنوی
غزنویون
غزه
غسان
غسل
غصب
غلات
غلاف
غلامحسین
غلامرضا
غلامعلی
غلبه
غلت
غلط
غلوم
غم
غنا
غنی
غو
غوز
غول
غیاث
غیب
غیبت
غیر
غیراساره
غیررسمی
غیرطبیعی
غیرقابل
غیرقانونی
غیرمجاز
غیرمستقیم
غیرنظامی
غیرنظامیون
غیره
ـ
ـــر
ــه
ــی
ـل
ـوگـه
ف
فا
فاتح
فاتحه
فاجعه
فار
فارادی
فارس
فارسي
فارسی
فارسیج
فارغ
فارو
فارک
فاز
فاشیست
فاشیستون
فاشیستی
فاشیسم
فاصله
فاضل
فاضلی
فاطمه
فاعل
فاقد
فالا
فالکلند
فامیل
فامیلی
فان
فانجیو
فاي
فاکس
فایده
فایل
فبلمهای
فت
فتا
فتاب
فتابگردون
فتح
فتحعلی
فتعلی
فتنه
فتوا
فتوحات
فجر
فخر
فخرالدوله
فخرالدین
فدایی
فدراسیون
فدرال
فدرالی
فدرالیسم
فر
فرا
فرات
فرار
فرارو
فراری
فراز
فراساخته
فرافکنی
فراماسونری
فرامرز
فراموش
فراموشی
فران
فرانتس
فرانس
فرانسه
فرانسوا
فرانسواز
فرانسوی
فرانسویون
فرانسیس
فرانسیسکو
فرانسیم
فرانش
فرانك
فرانچسکو
فرانک
فرانکا
فرانکفورت
فرانکل
فرانکلین
فرانکو
فرانکوفونی
فرانکوی
فراهانی
فراهم
فراوان
فراوانی
فراوون
فراوونی
فراگیر
فرج
فرح
فرخ
فرخان
فرخزاد
فرخی
فرد
فردا
فردای
فردریک
فردوس
فردوسی
فردی
فردینان
فردیناند
فردینه
فرزاد
فرزانه
فرزند
فرزندان
فرزین
فرستاده
فرسودگی
فرش
فرشته
فرشوادگر
فرشواذگرشاه
فرصت
فرض
فرضیه
فرعون
فرعی
فرق
فرقه
فرم
فرمان
فرماندار
فرمانداری
فرمانده
فرماندهون
فرماندهی
فرمانروا
فرمانروایی
فرمول
فرمون
فرموندار
فرمونداری
فرمونده
فرموندهی
فرموندي
فرمونروا
فرمونرواي
فرمونروای
فرمونروایی
فرناندز
فرناندو
فرنگ
فرنگی
فره
فرهاد
فرهادخان
فرهادی
فرهنگ
فرهنگخنه
فرهنگستان
فرهنگستون
فرهنگون
فرهنگي
فرهنگی
فرهود
فرو
فروانیه
فرود
فرودگاه
فرودیته
فروردین
فروزش
فروش
فروشنده
فروشگاه
فروغ
فروند
فرونسه
فرونسي
فروهر
فروپاشی
فروید
فري
فری
فریاد
فریب
فریبا
فریبرز
فریخا
فریخای
فریخایی
فرید
فریدا
فریدریش
فریدون
فریدونکنار
فریقا
فریقای
فریقایی
فریم
فرین
فرینش
فرینی
فساد
فستیوال
فسفر
فسیل
فش
فشار
فشرده
فشن
فصل
فصلنامه
فصلون
فصلی
فصوص
فضا
فضاي
فضای
فضایی
فضل
فطر
فع
فعال
فعالون
فعالیت
فعالیتای
فعالیتون
فعل
فعلا
فعلی
فقدان
فقر
فقط
فقه
فقیر
فقیرترین
فقیرون
فقیری
فقیه
فلات
فلاح
فلاسفه
فلاند
فلاندر
فلاندرز
فلاندی
فلج
فلز
فلزات
فلزی
فلسطین
فلسطینی
فلسفه
فلسفی
فلورانس
فلوریدا
فلک
فلکی
فلیسیته
فلیکس
فمینیست
فمینیسم
فن
فناخسرو
فناوری
فنلاند
فنلاندی
فنی
فنیقی
فه
فهرست
فهم
فهمنه
فهیمه
فو
فواصل
فوبه
فوت
فوتبال
فوتبالیست
فوتسال
فوتوال
فوتوالیست
فوج
فوجی
فور
فورا
فوربز
فوربس
فورد
فورنیه
فوری
فوریه
فوق
فولاد
فولادلوی
فولادی
فولکلور
فومن
فون
فوي
فوکوشیما
فوکوي
في
فکر
فکری
فی
فیات
فیبر
فیثاغورس
فیجی
فیدل
فیدون
فیروز
فیروزا
فیروزان
فیروزجاه
فیروزه
فیروزکوه
فیروزی
فیزیولوژی
فیزیک
فیزیکدون
فیزیکی
فیس
فیسبوک
فیصل
فیض
فیضیه
فیفا
فیفتی
فیل
فیلا
فیلادلفیا
فیلبند
فیلد
فیلسوف
فیلسوفان
فیلسوفون
فیلم
فیلمبرداری
فیلمنومه
فیلمهای
فیلمون
فیلمی
فیلیپ
فیلیپین
فیلیپینی
فینال
فینیکس
ق
قا
قابل
قابلیت
قابوس
قاتل
قاجار
قاجارون
قاجاری
قاجاریه
قاجاریون
قاجانیان
قاخان
قادر
قادی
قار
قارن
قاره
قاسم
قاسمی
قاسی
قاصد
قاضی
قاطع
قاطی
قاعده
قافیه
قالب
قالبون
قالی
قانون
قانونی
قاهره
قاي
قاچاق
قاچاقچی
قای
قایده
قایق
قایم
قباد
قبایل
قبر
قبرس
قبرستون
قبضه
قبل
قبلا
قبلن
قبله
قبلی
قبول
قبولی
قبیل
قبیله
قتل
قحطی
قد
قدر
قدرت
قدرتمند
قدرتون
قدرتی
قدری
قدس
قدم
قدمت
قدمتی
قدمی
قدیس
قدیم
قدیما
قدیمی
قذافی
قرا
قراتکین
قرار
قرارداد
قراردادی
قرارگاه
قراری
قران
قربانی
قربانیون
قربون
قربونی
قرص
قرقیزستون
قرقیزي
قرقیزی
قرمز
قرن
قرنطینه
قره
قرون
قروه
قریب
قریش
قزاق
قزاقستان
قزاقستون
قزاقون
قزاقي
قزاقی
قزل
قزلباش
قزلباشون
قزوین
قزوینی
قسطنطنیه
قسم
قسمت
قسمتون
قسمتونی
قسمتی
قشقایی
قشقاییون
قشلاق
قشلاقی
قشنگ
قشنگه
قشنگی
قشون
قصاب
قصد
قصر
قصران
قصه
قصیده
قضاوت
قضاي
قضایی
قضیه
قطار
قطب
قطبی
قطر
قطره
قطری
قطع
قطعات
قطعنامه
قطعنومه
قطعه
قطعی
قطعیت
قـ
قفقاز
قفقازی
ققنوس
قلا
قلب
قلبی
قلعه
قلم
قلمرو
قلمروهای
قلمروو
قلمروی
قله
قلی
قلیایی
قلیچ
قم
قمری
قمی
قناری
قنبری
قند
قندهار
قه
قهرمان
قهرمانان
قهرمانی
قهرمون
قهرمونای
قهرمونون
قهرمونی
قهوه
قو
قوا
قواعد
قوام
قوانین
قوانینی
قوای
قودرت
قورا
قورچی
قوس
قول
قوله
قولی
قوم
قومس
قومی
قومیت
قوه
قوچ
قوی
قویی
قیافه
قیام
قید
قیصر
قیمت
قیمتی
قیوم
ك
كا
كار
كاسپين
كامل
كاپلان
كرد
كردنه
كرده
كشور
كلا
كم
كنندگي
كننه
كنه
كه
ل
لا
لااقل
لاباما
لابیرنت
لات
لاتزیو
لاتویا
لاتویای
لاتین
لاتینی
لاجیم
لادن
لاذقیه
لار
لارن
لارنس
لاره
لاریجان
لاریجانی
لازم
لاس
لاست
لاسکا
لاش
لاشت
لاشه
لال
لاله
لالیگا
لام
لاما
لامبر
لامپ
لان
لاند
لانکا
لانگ
لانگدوک
لاهه
لاهور
لاهیجان
لاودا
لاي
لاپ
لاپاز
لاپلند
لاک
لاگوس
لای
لایت
لاین
لایه
لاییز
لب
لبا
لباس
لبانی
لبانیایی
لبخند
لبر
لبرت
لبرتو
لبنان
لبنانی
لبنیات
لبه
لبوم
لت
لتو
لتونی
لحاظ
لحظه
لخ
لخت
لد
لذا
لذت
لر
لرد
لرزه
لرستان
لرستون
لری
لزاس
لزایمر
لزمی
لزگی
لس
لسوتو
لشکر
لشکرکشی
لشکری
لشکریون
لشگر
لطف
لطفی
لغات
لغت
لغتنامه
لغتنومه
لغو
لغوی
لـ
لف
لفا
لفرد
لفردو
لفظ
لفور
لفونس
لفونسو
لقب
لل
للبدیات
للملایین
للمیلاد
لله
للوا
لم
لماتی
لمان
لمانی
لمانیا
لمون
لن
لند
لندن
لنه
لنون
لنکران
لنگ
لنگر
لنگرود
لنگرودی
لنین
لنینگراد
لنینیست
له
لهجه
لهراسبی
لهستان
لهستانی
لهستون
لهستونی
لو
لوا
لوازم
لوبنان
لوبیا
لوتر
لوتوس
لوح
لوده
لودویک
لودویگ
لور
لوران
لورانس
لورن
لوری
لوس
لوساکا
لوسی
لوسین
لوش
لوقا
لولا
لوله
لوم
لومه
لومومبا
لون
لونسو
لوه
لوي
لوپز
لوچ
لوچو
لوک
لوکا
لوکزامبورگ
لوگوتراپی
لوگوس
لوی
لویس
لوین
لویی
لي
لپ
لپا
لچر
لک
لکساندر
لکسی
لکه
لکی
لگ
لی
لیبرال
لیبرالون
لیبرالیسم
لیبرلند
لیبریا
لیبی
لیتل
لیتوانی
لیتکوه
لیث
لیختن
لیدل
لیدی
لیر
لیره
لیز
لیس
لیسانس
لیسبون
لیست
لیستی
لیسک
لیف
لیل
لیلا
لیله
لیلی
لین
لیندا
لیندون
لینک
لینکلن
لینگ
لیه
لیو
لیورپول
لیون
لیونل
لیژ
لیک
لیکس
لیگ
لیگا
لیگوریا
م
ما
ماء
ماتر
ماترون
ماتور
ماتیاس
ماتیو
ماجرا
ماجرای
ماد
مادام
ماداگاسکار
مادایا
مادر
مادرید
مادلن
مادلونگ
ماده
مادو
مادورو
مادون
مادي
مادگی
مادی
مار
مارادونا
مارال
مارت
مارتن
مارتی
مارتین
مارتینیک
مارد
مارس
مارسل
مارسی
مارشال
مارلون
مارمضون
مارمولک
ماره
مارول
مارون
مارپیچی
مارچ
مارک
مارکس
مارکسیست
مارکسیستی
مارکسیسم
مارکه
مارکو
مارکوارت
مارکوس
مارکی
مارکیز
مارگارت
مارگریت
مارگیری
ماری
ماریا
ماریاما
ماریتیم
مارین
مارینو
مارینوس
ماریو
ماز
مازرون
مازرونی
مازرونیون
مازندران
مازندرانی
مازندرون
مازندرونی
مازندنومه
مازنی
مازون
مازیار
ماس
ماسال
ماساچوست
ماست
ماسه
ماسون
ماسک
ماشین
ماضی
ماقبل
مال
مالایی
مالت
مالرو
مالزی
ماله
مالک
مالکان
مالکی
مالکیت
مالی
مالیات
مالیه
مام
مامطیر
مامور
ماموریت
مامون
مان
ماند
ماندلا
مانده
ماندگار
مانش
مانع
مانند
مانوي
مانکن
مانی
ماه
ماهان
ماهنامه
ماهنومه
ماهه
ماهواره
ماهور
ماهی
ماهیت
ماهیون
ماهیچه
ماهیگیری
ماوراء
ماي
ماژول
ماکان
ماکاي
ماکرون
ماکس
ماکسیم
مای
مایا
مایاي
مایع
مایل
مایلی
مایه
مایک
مایکروسافت
مایکل
مب
مبا
مباحث
مبادله
مبارز
مبارزات
مبارزه
مبارزون
مبارک
مبال
مبانی
مبتلا
مبتنی
مبدا
مبدانه
مبلغ
مبلغون
مبنا
مبنای
مبنی
متا
متال
متحد
متحده
متحدون
متحول
متخصص
متداول
متر
متراکم
مترجم
مترمربع
متروپولیتن
متری
متشکل
متصل
متعدد
متعددی
متعلق
متعهد
متغیر
متفاوت
متفاوتی
متفقون
متفقین
متفکرون
متقابل
متل
متمایل
متمدن
متمرکز
متن
متناظر
متنوع
متنی
متهم
متوالی
متوجه
متوسط
متوقف
متولد
متولی
متون
متچا
متی
متین
مثابه
مثال
مثبت
مثل
مثلا
مثلث
مثلن
مثنوی
مجارستان
مجارستانی
مجارستون
مجارون
مجاری
مجاز
مجازات
مجازی
مجاهدون
مجاهدین
مجاور
مجبور
مجتبی
مجتمع
مجد
مجدد
مجددا
مجروح
مجری
مجریه
مجسمه
مجلات
مجلس
مجلسی
مجله
مجمع
مجموع
مجموعا
مجموعه
مجنون
مجهز
مجوز
مجی
مجید
مجیدی
مجیک
محاصره
محافظت
محافظه
محاکمه
محبت
محبوب
محبوبیت
محترم
محتوای
محتوایی
محتوی
محدود
محدوده
محدودیت
محرم
محرمانه
محروم
محرک
محسن
محسوب
محصول
محصولات
محض
محقق
محققون
محققین
محل
محلات
محله
محلول
محلی
محم
محمد
محمدا
محمدامین
محمدباقر
محمدبن
محمدتقی
محمدجواد
محمدحسن
محمدحسین
محمدرضا
محمدصالح
محمدعلی
محمدمهدی
محمدي
محمدی
محمود
محمودا
محمودی
محموله
محور
محوطه
محک
محکم
محکمه
محکوم
محکومیت
محیط
محیطی
مخابرات
مخابراتی
مخاطب
مخاطبون
مخالف
مخالفان
مخالفت
مخالفنه
مخالفه
مخالفون
مخالفین
مخبر
مختار
مختارات
مخترع
مختصات
مختصر
مختصرا
مختلف
مختلفی
مخدر
مخروطی
مخصوص
مخصوصا
مخصوصی
مخفف
مخففا
مخفی
مخفیانه
مخلوط
مخملی
مخی
مد
مداح
مدار
مدارس
مدارک
مداری
مدافع
مدافعون
مدال
مدام
مداوم
مداي
مدت
مدتی
مدح
مدخل
مدرس
مدرسه
مدرن
مدرک
مدعی
مدل
مدن
مدنی
مده
مدودف
مدون
مدگی
مدی
مدیا
مدیترانه
مدیر
مدیران
مدیرعامل
مدیره
مدیرون
مدیرکل
مدیریت
مدینه
مدیون
مذاهب
مذاکرات
مذاکره
مذهب
مذهبون
مذهبی
مذکور
مذکوره
مر
مرا
مراتب
مراجع
مراحل
مراد
مرادلو
مرادی
مراسم
مراسمون
مراسمی
مراقبت
مراه
مراهی
مراکز
مراکش
مربع
مربوط
مربی
مرتب
مرتبط
مرتبه
مرتد
مرتضوی
مرتضی
مرتن
مرج
مرجع
مرحله
مرحوم
مرد
مردا
مرداب
مرداد
مردال
مردان
مرداویج
مردسالار
مردم
مردمون
مردمونی
مردمی
مردن
مردنه
مرده
مردها
مردهای
مردود
مردون
مردونه
مردی
مرز
مرزبان
مرزبون
مرزهای
مرزی
مرسدس
مرسوم
مرسی
مرشد
مرضیه
مرطوب
مرعش
مرعشی
مرعشیون
مرغ
مرغانه
مرغنه
مرقس
مرل
مرلی
مرمت
مرمر
مرمره
مرن
مره
مرو
مروارید
مرور
مروزی
مروش
مريكا
مرپیچی
مرکب
مرکبات
مرکز
مرکزی
مرکزیت
مرکسور
مرکل
مرگ
مرگش
مرگون
مری
مریتیم
مریخ
مریض
مریضی
مریلند
مریم
مریوان
مریکا
مریکای
مریکایی
مریکاییون
مزاحم
مزارع
مزد
مزدیسنا
مزراب
مزرعه
مزمن
مزه
مزین
مس
مسا
مسابقات
مسابقه
مساحت
مسافر
مسافرت
مسافرون
مساله
مساوی
مساي
مسایل
مست
مستر
مستردام
مستطیل
مستعار
مستعمرات
مستعمره
مستقر
مستقل
مستقیم
مستقیما
مستند
مسته
مستوفی
مستی
مسجد
مسخره
مسعود
مسعودی
مسقط
مسلح
مسلحانه
مسلحونه
مسلسل
مسلط
مسلم
مسلمان
مسلمانان
مسلمانون
مسلمون
مسلمونا
مسلمونای
مسلمونون
مسلک
مسمغان
مسي
مسير
مسکن
مسکو
مسکونی
مسکوی
مسی
مسیح
مسیحا
مسیحی
مسیحیان
مسیحیت
مسیحیون
مسیر
مسیه
مشابه
مشارکت
مشاغل
مشاهدات
مشاهده
مشاور
مشاوره
مشایی
مشت
مشترک
مشترکا
مشتری
مشتق
مشخص
مشخصات
مشخصه
مشخصی
مشرف
مشرق
مشروب
مشروطه
مشروطیت
مشروع
مشروعه
مشروعیت
مشعر
مشغول
مشهد
مشهر
مشهری
مشهور
مشهورترین
مشهوره
مشورت
مشورتی
مشکل
مشکلات
مشکلی
مشکوک
مشکین
مشگین
مشیخ
مشیرالدوله
مصاحب
مصاحبه
مصادره
مصالح
مصدر
مصدق
مصدوم
مصر
مصرف
مصرفی
مصری
مصطفی
مصمغان
مصنوعی
مصوب
مضامین
مضر
مضمون
مطابق
مطالب
مطالعات
مطالعاتی
مطالعه
مطبوعات
مطبوعاتی
مطرح
مطلب
مطلع
مطلق
مطلقه
مطمي
مطهری
مظفر
مظفری
مظهر
مع
معابد
معاد
معادل
معادن
معاذ
معارف
معاصر
معالجه
معانی
معاهده
معاون
معاونت
معاویه
معبد
معتاد
معتبر
معتبرترین
معتدل
معترض
معترضون
معتقد
معتقدنه
معتمدی
معجزه
معدن
معدنی
معده
معدود
معرض
معرف
معرفة
معرفت
معرفی
معروف
معروفترین
معروفنه
معروفه
معروفی
معروفیت
معشوقه
معصوم
معصومه
معلم
معلمی
معلوم
معلومه
معمار
معماری
معمر
معمول
معمولا
معمولن
معمولی
معنا
معنادرمانی
معنای
معنوی
معنی
معکوس
معیار
معین
معینی
مغان
مغرب
مغز
مغزی
مغناطیسی
مغنیسا
مغول
مغولون
مـ
مـبـر
مفاخر
مفاهیم
مفت
مفتی
مفرد
مفلح
مفهوم
مفید
مقابل
مقابله
مقالات
مقالاتی
مقاله
مقام
مقامات
مقامی
مقاومت
مقایسه
مقبره
مقداد
مقدار
مقداری
مقدس
مقدسی
مقدم
مقدمات
مقدماتی
مقدمة
مقدمه
مقدونی
مقدونیه
مقر
مقررات
مقصد
مقصر
مقطع
مقعد
مقننه
مقوم
مقومی
مقیاس
مقیم
مل
ملا
ملاقات
ملاله
ملانی
ملاي
ملایم
ملبورن
ملت
ملتون
ملحق
ملقب
ملل
مله
ملوان
ملوک
ملویل
ملک
ملکم
ملکه
ملکی
ملی
ملیت
ملیون
مم
ممالک
ممتاز
ممتنع
ممد
ممدرضا
ممدعلی
ممدولی
ممرضا
ممفیس
ممكنه
مملکت
ممنوع
ممنوعه
ممنوعیت
ممکن
ممکنه
ممیج
من
منابع
منار
مناسب
مناسبت
مناطق
مناطقی
مناظر
مناظره
منافع
مناقشه
منبع
منتخب
منتشر
منتظر
منتظری
منتقد
منتقدون
منتقدین
منتقل
منتهی
منجر
منجمله
منحصر
منحل
مند
منزل
منزوی
منسوب
منشا
منشور
منشی
منصب
منصوب
منصور
منطق
منطقةالبروج
منطقه
منطقوي
منطقی
منظره
منظم
منظور
منظومه
منع
منعقد
منفجر
منفی
منقرض
منلاي
منم
منه
منو
منوچهر
منچستر
منگنز
منی
منین
مه
مهاباد
مهاجر
مهاجرت
مهاجرون
مهاجرونی
مهاجرین
مهاجم
مهارت
مهجوری
مهدوی
مهدی
مهر
مهرا
مهراد
مهران
مهراوا
مهربون
مهرداد
مهرماه
مهره
مهرپرستی
مهرگان
مهری
مهسا
مهشيد
مهشید
مهلب
مهم
مهمان
مهماندوست
مهمترین
مهمون
مهمونی
مهمی
مهندس
مهندسی
مهین
مو
موا
مواجه
مواد
موادی
موارد
مواردی
موازی
مواضع
مواظب
موافق
موافقت
موبارزه
موبایل
موبد
موت
موتحد
موتحده
موتزارت
موتعلق
موتور
موثر
موج
موجاهدین
موجب
موجستمه
موجود
موجودات
موجودیت
موحاصره
موحد
موحیط
موخالف
موخالفت
موختلف
موختلفی
موخچه
مود
مودت
مودتی
مودرن
مودل
مودنا
مودیر
مور
مورا
مورالس
موران
موراویا
موربع
مورخ
مورخون
مورخین
مورد
مورفین
مورل
موره
موروثی
موری
موریت
موریتانی
موریس
موز
موزامبیک
موزش
موزشگاه
موزشی
موزل
موزه
موزون
موزی
موزیسین
موزیک
موس
موسابقات
موسابقه
موستعمره
موستقل
موستقیم
موسس
موسسات
موسسه
موسلمون
موسلمونا
موسو
موسولینی
موسوم
موسوی
موسی
موسیقی
موسیقیایی
موشاهده
موشترک
موشخص
موشک
موشکل
موشکلات
موصل
موضع
موضوع
موضوعات
موضوعاتی
موطالعه
موعادل
موعاصر
موعاهده
موعاون
موعود
موغول
موغولون
موغولي
موفق
موفقیت
موقابل
موقاومت
موقت
موقتا
موقتی
موقع
موقعی
موقعیت
مول
مولانا
مولتکه
مولداوی
مولن
مولود
مولکول
مولی
مولیر
مومکن
مون
مونا
موناي
موناکو
مونای
مونت
مونتانا
مونتري
مونتشر
مونتقل
مونته
مونتگومری
مونجر
موند
موندسته
موندن
موندنه
مونقرض
مونند
موننه
مونه
مونیخ
مونیسیپالیتی
مونیکا
موهاجرت
موهم
موهمترین
موهمی
موي
موگابه
موی
موید
مي
ميلادي
ميلادی
مپ
مپر
مژده
مژگان
مک
مکاتب
مکاتبات
مکارم
مکان
مکانی
مکانیسم
مکانیک
مکانیکی
مکتب
مکرر
مکرمه
مکزیک
مکزیکو
مکزیکوسیتی
مکزیکی
مکس
مکعب
مکمل
مکنزی
مکه
مکون
مکی
مکیون
مگالایا
مگر
مگه
می
میازاکی
میامی
میان
میاندورود
میانرود
میانمار
میانه
میانکاله
میاه
میاگی
میت
میتانی
میتر
میترا
میتراي
میثل
میثم
میخاي
میدان
میدانی
میدون
میر
میراث
میربزرگ
میربو
میرحسین
میرزا
میرزاجانپور
میرزاخانی
میرزای
میرسرروضه
میرقوام
میرنه
میره
میری
میریام
میز
میزان
میزبان
میزبانی
میزوری
میزون
میس
میسوری
میسیسیپی
میش
میشاي
میشل
میشه
میشو
میشیگان
میل
میلاد
میلادی
میلان
میلانی
میلر
میلس
میله
میلواکی
میلی
میلیارد
میلیتوس
میلیمتر
میلیون
میلیونا
میلیونی
میم
میمون
مین
مینا
مینامی
مینداناي
مینستر
مینسوتا
مینسک
مینه
مینو
مینورسکی
مینوس
مینوی
مینگ
مینی
میه
میهمان
میهمون
میهن
میهنی
میون
میونجی
میونمار
میونه
میونگین
میونی
میوه
میکا
میکرد
میکرو
میکل
میگل
ن
نا
ناا
ناب
نابغه
نابود
نابودی
نات
ناتل
ناتنی
ناتو
ناتول
ناتولی
ناتومی
ناتوی
ناحیه
ناخ
ناخالص
ناخدا
ناخو
ناخودا
نادر
نادرست
نادرشاه
نادری
نادو
نار
نارا
ناراحت
ناراحتی
ناراضی
نارشیست
نارشیستی
نارشیسم
نارنج
نارنجی
نارنه
نارنگی
ناز
نازل
نازنین
نازک
نازی
نازیسم
ناسا
ناسیونال
ناسیونالیست
ناسیونالیستون
ناسیونالیستی
ناسیونالیسم
ناشته
ناشر
ناشناخته
ناشی
ناصر
ناصرالدین
ناصرخسرو
ناصری
ناظر
ناظرون
ناظم
ناقص
نام
نامبیا
نامبیای
نامدار
نامزد
نامزدی
نامشخص
نامعتبر
نامعلوم
نامعلومی
نامند
نامنظم
نامه
نامهای
نامواره
نامور
نامگذاری
نامی
نامیبیا
نامیده
نان
نانت
نانسی
ناهوشیار
ناهیتا
ناهید
ناو
ناوارا
ناوگان
ناي
ناپذیر
ناپل
ناپلي
ناپولی
ناچار
ناکساگوراس
ناکسیماندر
ناکسیمنس
ناکسیگوراس
ناگازاکی
ناگانو
ناگفته
ناگهانی
ناگورنو
نای
نایب
نایروبی
ناینه
نبرد
نبود
نبونه
نبوی
نبی
نت
نتا
نتانیاهو
نتایج
نترس
نتن
نتوان
نتومبی
نتون
نتونده
نتونستنه
نتونسته
نتونسنه
نتونسه
نتونن
نتونه
نتونی
نتونیو
نتی
نتیجتا
نتیجه
نتیل
نثر
نجا
نجات
نجار
نجاریان
نجایی
نجران
نجف
نجفی
نجل
نجلس
نجم
نجوم
نجومی
نجیب
نحو
نحوه
نحوی
نخ
نخاستنه
نخاسته
نخاش
نخان
نخانه
نخجوان
نخجوون
نخست
نخستین
نخل
نخوستین
ند
ندا
ندارد
ندارمی
ندارننه
ندارنه
نداره
نداشت
نداشتن
نداشتنه
نداشته
ندامان
ندان
ندانه
نداي
نداینه
ندرانیک
ندرس
ندره
ندرومدا
ندروپوف
ندن
ندنه
نده
ندورا
ندومبی
ندون
ندونده
ندونستنه
ندونسته
ندونه
ندی
نر
نرخ
نرسنه
نرسی
نرسیه
نرم
نرماندی
نرو
نروژ
نروژی
نرگس
نری
نزد
نزدیک
نزدیکترین
نزدیکه
نزدیکون
نزدیکی
نزن
نزول
نس
نسا
نساجی
نسب
نسبت
نسبتا
نسبی
نسبیت
نستازیا
نستعلیق
نستور
نسخ
نسخه
نسرین
نسل
نسوم
نسیم
نسیه
نش
نشا
نشاط
نشان
نشانه
نشانی
نشد
نشده
نشر
نشریات
نشریه
نشست
نشناسمبی
نشناسی
نشنال
نشنه
نشون
نشونه
نشونگر
نشونی
نشوي
نشی
نشین
نشینه
نشینی
نصاب
نصب
نصر
نصرالله
نصرت
نصرتی
نصف
نصیحت
نطق
نظارت
نظام
نظامی
نظامیون
نظر
نظرات
نظرسنجی
نظری
نظریات
نظریه
نظم
نظمی
نظیر
نعش
نعل
نعمان
نعمت
نغمه
نـ
نـووه
نف
نفت
نفتی
نفر
نفرات
نفرجمعیت
نفرنفرنفر
نفره
نفری
نفس
نفع
نفوذ
نفوس
نفیسی
نقاره
نقاش
نقاشون
نقاشی
نقاط
نقد
نقدر
نقدی
نقره
نقش
نقشه
نقشی
نقض
نقطه
نقل
نقلی
نقوش
نقی
نقیب
نقیبی
نل
نلاین
نلسون
نلی
نم
نما
نماد
نمادون
نمادی
نمارستاق
نماز
نماشون
نماي
نمایش
نمایشنومه
نمایشگاه
نمایشگاي
نمایشی
نماینده
نمایندگان
نمایندگون
نمایندگی
نمر
نمره
نمه
نمو
نمود
نمودار
نموده
نموندسته
نمونه
نموي
نمک
نمی
نمین
نن
ننشنه
ننه
ننی
نه
نها
نهاد
نهادهای
نهادون
نهاوند
نهایت
نهایتا
نهایی
نهب
نهج
نهضت
نهم
نهمین
نو
نوا
نواحی
نوادا
نواده
نوادگان
نوار
نواز
نوازان
نوازنده
نوازندگی
نواشه
نوامبر
نوان
نوانه
نوایی
نوبت
نوبخت
نوبل
نوت
نوج
نوجوانان
نوجوون
نوجوونی
نوح
نود
نوده
نور
نورالدین
نورانی
نوردیک
نورس
نورسلطان
نورمن
نوروز
نوروزخوانی
نوروزه
نوروزی
نوری
نوز
نوزده
نوزدهم
نوزدهوم
نوزلاند
نوزهم
نوس
نوسانگر
نوسخه
نوش
نوشتنه
نوشته
نوشهر
نوشهری
نوشیروانی
نوشین
نوع
نوعی
نوقاط
نوم
نوما
نومدار
نومزه
نومن
نومنه
نومه
نومی
نون
نونه
نوه
نوهوم
نوو
نوون
نوونه
نوي
نوپرواز
نوک
نوکنده
نوی
نوید
نویس
نویسد
نویسن
نویسنده
نویسندگان
نویسندگون
نویسندگی
نویسنه
نویسون
نویسی
نویشتنه
نویشته
نوین
ني
نيز
نيكخو
نيه
نيوز
نپال
نپالی
نپت
نچه
نژ
نژاد
نژادون
نژادپرستی
نژادی
نژندی
نکا
نکارا
نکارد
نکاردنه
نکارده
نکان
نکانده
نکانن
نکانه
نکای
نکته
نکردنه
نکرده
نکس
نکشی
نکنه
نکه
نگ
نگار
نگارخنه
نگارش
نگارنده
نگاره
نگاری
نگاه
نگاهی
نگذشته
نگران
نگرانی
نگرش
نگرو
نگرونی
نگروی
نگلا
نگه
نگهبون
نگهداری
نگو
نگولا
نگولای
نگوین
نگین
نی
نیا
نیارده
نیاز
نیازمند
نیازی
نیای
نیایش
نیبی
نیت
نیته
نیجر
نیجریه
نیر
نیرو
نیروها
نیروهای
نیروي
نیروگاه
نیروی
نیز
نیزه
نیس
نیست
نیش
نیشابور
نیشت
نیشتنه
نیشتنگا
نیشتنگاء
نیشتنگاه
نیشتنگاي
نیشتنگای
نیشته
نیشتگا
نیشتگاه
نیشتینگا
نیشتەگا
نیظام
نیظامی
نیل
نیلی
نیم
نیما
نیمار
نیمای
نیمایش
نیمایی
نیمه
نیمکره
نیمی
نین
نینه
نینوا
نینورسک
نیه
نیو
نیوتن
نیوجرسی
نیوز
نیوزلند
نیوزیلند
نیومکزیکو
نیویورک
نیک
نیکاراگوي
نیکخو
نیکسون
نیکلا
نیکلاس
نیکلای
نیکنام
نیکول
نیکولا
نیکولای
نیکی
نیکیتا
نیگاتا
نیی
نییه
ه
ها
هابسبورگ
هابل
هاد
هادا
هادانه
هاداي
هادس
هادن
هاده
هادی
هادیم
هادین
هارت
هارد
هارشا
هارشاي
هارشاگر
هارشن
هارشه
هارشی
هارشیم
هارشین
هارمونیک
هاره
هاروارد
هارولد
هارون
هارپسیکورد
هاسنت
هاسه
هاشم
هاشمی
هافبک
هاكردنه
هاكرده
هال
هاله
هالی
هالیوود
هامایاک
هامبورگ
هان
هانا
هانتینگتون
هانری
هانس
هانوفرون
هانگر
هاوارد
هاوانا
هاواي
هاوایی
هاورکرافت
هاوک
هاوکینگ
هاي
هاپ
هاپسبورگ
هاک
هاکارد
هاکاردن
هاکاردنه
هاکارده
هاکانه
هاکرد
هاکردبی
هاکردمه
هاکردن
هاکردنه
هاکرده
هاکن
هاکنن
هاکنه
هاکنی
هاکنیم
هاکنین
هاکی
های
هایتن
هایته
هایره
هایزنبرگ
هایش
هاینریش
هایی
هاییته
هاییتی
هب
هت
هتل
هجدهم
هجرت
هجری
هجزو
هجوم
هجیم
هخامنشی
هخامنشیون
هد
هدا
هدار
هدانه
هداهن
هداهه
هداي
هدایت
هدایتی
هدف
هدفی
هدن
هده
هدی
هدیه
هر
هرا
هرات
هراتی
هراز
هرازپی
هراس
هرالد
هراکلیتوس
هربرت
هرتی
هرجور
هرد
هردتا
هردوت
هرزگوین
هرس
هرسال
هرمان
هرمز
هرمزگان
هره
هرودوت
هروي
هرچن
هرچند
هرچه
هرچی
هرکاجه
هرکامین
هرکس
هرکول
هرکومتا
هرکی
هرگاد
هرگدر
هرگز
هری
هزار
هزاران
هزارتا
هزارجریب
هزارجریبی
هزاره
هزارون
هزینه
هزیود
هس
هسا
هست
هستم
هستمه
هستمی
هستند
هستنه
هسته
هستکا
هستی
هستیا
هسسه
هسنه
هسه
هسکا
هسەنه
هشام
هشت
هشتاد
هشتم
هشتمین
هشتوم
هشتگ
هشتگرد
هشدار
هـ
هفت
هفتا
هفتاد
هفتم
هفتمین
هفته
هفتوم
هفتگی
هفدهم
هكردن
هكردنه
هكرده
هكنه
هكنيم
هلال
هلموت
هلن
هلند
هلندی
هلندیون
هلی
هلیوم
هم
همان
همانند
هماهنگ
هماهنگی
همایش
همایون
همبستگی
همت
همجنس
همدان
همدانی
همدردی
همدون
همدیگر
همدیگه
همرا
همراه
همراهون
همراهی
همزمان
همزمون
همساینون
همسایه
همسایگی
همسر
همسرش
همسود
همشهری
همه
هموار
همواره
همون
همونتا
همونتی
همونجه
همپتون
همچنان
همچنين
همچنین
همچون
همکارون
همکاری
همگان
همگی
همیشه
همیشک
همیشگی
همیلتون
همین
همینتا
همینتاسر
همینتی
همینجه
همینجور
همینسه
هن
هنتا
هند
هندسه
هندو
هندواروپایی
هندوانه
هندوراس
هندوستان
هندوستون
هندوي
هندوییسم
هندی
هنر
هنرستون
هنرمند
هنرمندان
هنرمندون
هنرون
هنرپیشه
هنری
هنوز
هنگ
هنگام
هنگامی
هنگر
هنگساز
هنگسازی
هنگوم
هنگون
هنگی
هنی
هنیش
هنیشت
هنیشتن
هنیشتنه
هنیشته
هه
هو
هوا
هوادار
هوادارون
هوارد
هوانس
هواي
هواپیما
هواپیمای
هواپیمایی
هوای
هوایی
هوتو
هود
هورم
هورن
هوریزونته
هوس
هوش
هوشمند
هوشنگ
هوشی
هوشیار
هولار
هولند
هولندی
هولوکاست
هولی
هومر
هومن
هومو
هون
هوندا
هونر
هونشو
هونگ
هوهانس
هوي
هوکایدو
هوکوساي
هوگو
هوی
هویت
هویدا
هي
هچ
هچکی
هچی
هژبر
هژمونی
هک
هکارده
هکتار
هکته
هکرد
هکردمه
هکردن
هکردنه
هکرده
هکشی
هکنن
هکنه
هکنیم
هکنین
هی
هیا
هیات
هیت
هیتلر
هیته
هیتی
هیجان
هیجانی
هیجده
هیجدهم
هیدروژن
هیر
هیروشیما
هیرکانی
هیرکانیا
هیزار
هیستری
هیفدهوم
هیل
هیلاری
هیمالیا
هیمن
هیندنبورگ
هیود
هیوده
هیوستون
هیوگو
هیي
هیپ
هیچ
هیچکس
هیژده
هیژدهم
هیگاشی
هییه
و
وا
واء
واب
وابسته
وابستگی
وات
واتسون
واتیکان
واج
واجب
واحد
واحدون
وادار
واده
واديس
وادی
وادیس
وار
وارث
وارد
واردی
وارش
وارشی
وارن
وارنگ
واره
واری
واریرز
واز
وازه
واس
واسطه
واسلاو
واسکو
واش
واشنگتن
واشه
واشینگتن
واقع
واقعا
واقعه
واقعی
واقعیت
وال
والا
والاس
والت
والتر
والد
والری
والمدن
والنسیا
واله
والونی
والی
والیبال
وام
وان
وانبار
وانت
واندر
وانسیان
وانه
وانک
وانگ
واي
واپاشی
واپسین
واژه
واژگان
واکایاما
واکر
واکنش
واکنشای
واگذار
وای
وایت
وایمار
وایومینگ
وایکینگ
وایکینگون
وایی
وب
وبر
وبسایت
وبلاگ
وبگاه
وت
وتن
وتنه
وته
وتو
وتومه
وثوق
وجه
وجود
وجوی
وجین
وحدت
وحش
وحشت
وحشی
وحی
وحید
وخت
وختا
وختی
ودر
ودور
ودی
ور
وراز
ورامین
ورت
ورد
وردن
وردند
وردنه
ورده
وردگاردسته
وردگاردنی
وردگردستن
وردگردسته
وردگرده
وردگرستن
وردگرسته
وردی
ورزا
ورزای
ورزش
ورزشون
ورزشکار
ورزشکاران
ورزشکارون
ورزشگاه
ورزشی
ورسای
ورسک
ورشو
ورف
ورم
ورن
ورنده
ورنه
وره
ورو
ورود
ورودی
وروسیا
ورون
وروپا
وروپایی
ورژن
ورکانه
ورگ
ورگردنه
ورگون
ورگیو
وری
وریا
وریل
وز
وزارة
وزارت
وزارتخنه
وزرای
وزن
وزنه
وزير
وزیر
وزیران
وزیرون
وزیری
وس
وساطت
وساي
وسایل
وست
وستا
وسته
وسر
وسسه
وسط
وسطای
وسطی
وسعت
وسه
وسواس
وسکس
وسیع
وسیعی
وسیله
وش
وشار
وشارون
وشارونی
وشاری
وشان
وشسکو
وشمگیر
وشن
وشناي
وشون
وشونه
وشونی
وصل
وصیت
وضع
وضعیت
وطن
وظایف
وظیفه
وعده
وف
وفا
وفیل
وقایع
وقت
وقته
وقتی
وقف
وقفه
وقوع
ول
ولادیمیر
ولاش
ولایات
ولایت
ولت
ولتاژ
ولدوا
ولز
ولزی
ولفگانگ
وله
ولو
ولوژی
ولوژیک
ولویه
ولي
ولگ
ولگا
ولگای
ولی
ولیت
ولید
ولیعهد
ولین
ولیک
وموری
ومین
ون
وناردو
ونجه
وند
ونداد
وندادهرمز
وندن
وندنه
وندی
ونزوي
ونسان
ونسه
ونه
ونوس
ونوشه
ونک
ونکوور
ونگ
ونی
ونیز
ونیزی
ونیون
وه
وهمینه
وهوا
وو
ووا
ووشه
وول
وون
وونت
وونه
ووهان
وي
ويرو
ويشتر
ويكي
ويننه
ويژگي
وپاي
وپولد
وچه
وچون
وچونی
وچوي
وچگی
وک
وکا
وکیل
وکیپوس
وگ
وگاس
وگو
وی
ویالون
ویان
ویت
ویتامین
ویتنام
ویتنامی
ویدي
ویدیو
ویدیویی
ویراستار
ویرانی
ویرایش
ویرجینیا
ویرو
ویروس
ویروسون
ویرون
ویرژیل
ویزون
ویس
ویشتر
ویشتره
ویشتری
ویشترین
ویشته
ویشه
ویكی
ویل
ویلا
ویلسون
ویلم
ویلن
ویلنیوس
ویلهلم
ویلکیج
ویلیام
ویلیامز
ویمبی
وین
وینده
ویندوز
وینستون
وینه
وینگوم
وینی
ویه
ویهان
ویو
ویولن
ویي
ویژه
ویژگی
ویژگیون
ویکتور
ویکتوریا
ویکتورین
ویکی
ویکیپدیا
ویکیپدیاي
ویکیپدیای
ویکیپدیایون
ویگ
ویی
وەشون
ى
ي
يا
ياساي
ياسايي
يانس
يس
يك
يه
ً
ٌ
ٍ
َ
ُ
ِ
ّ
ْ
ٓ
ٔ
ٕ
ٚ
٠
١
١٣
١٣٨
١٧
٢
٢٨
٣
٤
٧
٩
٪
٫
٬
ٰ
پ
پا
پابلو
پاتر
پاتریس
پاتریک
پاتن
پادشاه
پادشاهان
پادشاهی
پادشاي
پادوسبان
پادوسبانی
پادوسبانیون
پادوسپان
پادوسپانیون
پادکست
پادگان
پارات
پارادوکس
پارافیلی
پاراگوي
پارت
پارتاید
پارتایدی
پارتمون
پارتی
پارتیزان
پارس
پارسه
پارسی
پارسیان
پارسینه
پارلمان
پارلمانی
پارلمون
پارلمونی
پارمنیدس
پاره
پارپیرار
پارچه
پارک
پارکر
پاری
پاریس
پاز
پازوار
پازواری
پاس
پاسارگاد
پاساعت
پاساژ
پاسبون
پاسخ
پاسداران
پاسدارون
پاسداری
پاسکال
پاسیفیک
پاشا
پاشاکلا
پاشایی
پال
پالایش
پالمر
پالي
پام
پان
پاناما
پانتر
پانزده
پانزدهم
پانصد
پاول
پاولویچ
پاي
پايان
پايين
پاپ
پاپلی
پاپوا
پاپون
پاپیاس
پاچینو
پاک
پاکسازی
پاکستان
پاکستون
پاکستونی
پاکي
پای
پایان
پایانی
پایتخت
پایدار
پایدشت
پایه
پایون
پایگا
پایگاه
پاییز
پایین
پایینی
پتابایت
پتاسیم
پتانسیل
پتر
پترزبورگ
پترو
پتروشیمی
پتشخوارگر
پتقال
پتک
پتی
پجر
پجن
پجنه
پخش
پد
پدا
پدر
پدرش
پدرو
پدياي
پدیا
پدیاي
پدیای
پدید
پدیده
پذیر
پذیرش
پذیرفت
پذیرفته
پر
پرادش
پراست
پرافتخارترین
پراکنده
پراگ
پرایا
پربازدیدترین
پرت
پرتاب
پرتره
پرتغال
پرتغالی
پرتغالیون
پرتو
پرجمعیت
پرداخت
پرداخته
پرداز
پردازنه
پردازی
پرده
پردیس
پرز
پرس
پرستش
پرستی
پرسش
پرسپولیس
پرسی
پرشین
پرطرفدارترین
پرفروش
پرفسور
پرن
پرنده
پرندوي
پرندگان
پرندگون
پرنس
پره
پرو
پرواز
پروانس
پروتستان
پروتي
پروتکل
پرور
پرورش
پروس
پروسپه
پروفایل
پروفسور
پرون
پرونده
پروو
پروژه
پروی
پرویز
پروین
پريشي
پرچم
پرچممان
پرچمی
پرچین
پرک
پرکار
پری
پرینسیپ
پریکلس
پزشک
پزشکون
پزشکی
پزو
پس
پست
پستاندار
پستون
پسر
پسرش
پسند
پسوند
پش
پشت
پشتون
پشتکوه
پشتی
پشتیبانی
پشتیبونی
پشو
پشیمون
پغوم
پـ
پـتـه
پل
پلا
پلات
پلاس
پلان
پلانک
پلنگ
پله
پلوتو
پلور
پلک
پلی
پلیس
پمبه
پن
پنالتی
پناه
پناهندگون
پناهندگی
پناهی
پنبه
پنج
پنجا
پنجاب
پنجابی
پنجاه
پنجتا
پنجره
پنجشنبه
پنجشیر
پنجم
پنجمین
پنجه
پنجوم
پنجومین
پنسیلوانیا
پنل
پنهان
پنهانی
پنهون
پنوم
پنگ
په
پهلوان
پهلوی
پهن
پهنا
پهنای
پهنه
پهپاد
پو
پواتو
پوتوسی
پوتی
پوتین
پودمان
پور
پورت
پورتال
پورتلند
پورتو
پورتوریکو
پورداوود
پوری
پوزي
پوس
پوست
پوستون
پوستی
پوسه
پوش
پوشاک
پوشش
پوشکین
پول
پولاک
پولدار
پولدارترینون
پولس
پولو
پولی
پولیتیکیان
پولیس
پومپ
پونتا
پوند
پونزده
پونزه
پونزهم
پونصد
پوي
پویا
پوینت
پي
پيدا
پيش
پچ
پچوک
پچیک
پژاک
پژوهش
پژوهشکده
پژوهشگاه
پژوهشگر
پژوهشگران
پژوهشگرون
پژوهشی
پکن
پی
پیاده
پیاز
پیام
پیامبر
پیانو
پیانوی
پیانیست
پیاپی
پیت
پیتاگوراس
پیتر
پیته
پیتک
پیدا
پیداهاکردن
پیداهاکرده
پیدایش
پیر
پیرامون
پیران
پیراهن
پیرزنا
پیرلو
پیرمردی
پیرنه
پیرنیا
پیرهن
پیرو
پیروز
پیروزه
پیروزی
پیرون
پیروون
پیروونش
پیروی
پیری
پیزگاه
پیس
پیش
پیشاسقراطی
پیشاسقراطیون
پیشتاز
پیشتر
پیشرفت
پیشرفته
پیشرو
پیشروی
پیشنهاد
پیشنهادی
پیشه
پیشوا
پیشوند
پیشکش
پیشگام
پیشگامون
پیشگویی
پیشگیری
پیشی
پیشین
پیشینه
پیغوم
پیل
پیمان
پیمایی
پیمون
پیمونت
پین
پینه
پینو
پینوشه
پینک
پینگ
پیوست
پیوسته
پیومبر
پیومبرون
پیوند
پیوندی
پیچ
پیچیده
پیک
پیکاردی
پیکاسو
پیکان
پیکر
پیکسار
پیکوي
پیگیری
پیی
پییر
پییری
چ
چا
چاب
چاد
چادر
چار
چارتا
چارده
چاردهم
چاردهمین
چارشمبه
چارشنبه
چارصد
چارقد
چارلز
چارلی
چارم
چارمین
چاره
چارهزار
چاروم
چارومین
چارچوب
چارگوش
چاشم
چاق
چاقو
چال
چالوس
چانک
چاه
چاوز
چاووش
چاي
چاپ
چاپخنه
چاپلین
چای
چایی
چت
چتی
چخوف
چرا
چراغ
چراغعلی
چربی
چرخ
چرخش
چرخه
چرنوبیل
چرچیل
چری
چریک
چریکون
چریکی
چستر
چش
چشم
چشمه
چغانی
چـ
چفت
چقدر
چل
چلاو
چلاوی
چلاویون
چلسی
چله
چلیک
چم
چمستان
چمنو
چمپیوز
چمپیونز
چمپیونزلیگ
چن
چناربن
چنان
چنبار
چنتا
چند
چندان
چندتا
چندلر
چنده
چندی
چندین
چنه
چنون
چنونچه
چنگ
چنگال
چنین
چه
چهار
چهاردانگه
چهاردهم
چهارراه
چهارشنبه
چهارم
چهارمحال
چهارمین
چهره
چهل
چو
چوب
چوبی
چورت
چوسان
چوسون
چون
چونکه
چوي
چوی
چویی
چپ
چپون
چپوک
چپکی
چپی
چچن
چچنی
چچی
چک
چکسلواکی
چکش
چکه
چکی
چگالی
چگونه
چگونگی
چی
چیانگ
چیبا
چیتی
چیز
چیزای
چیزایی
چیزها
چیزون
چیزونی
چیزی
چیست
چین
چیندکا
چینگ
چینی
چیون
چیچیه
ژ
ژاله
ژان
ژانت
ژاندارم
ژاندارمری
ژانر
ژانس
ژانویه
ژانیرو
ژاوی
ژاپن
ژاپنی
ژاک
ژاکلین
ژرار
ژرمن
ژرمنون
ژرمنی
ژروم
ژرژ
ژن
ژنتیک
ژنتیکی
ژنرال
ژنو
ژو
ژورا
ژوزف
ژول
ژولی
ژولیت
ژولین
ژولیو
ژولیوس
ژوهانسبورگ
ژوي
ژي
ژی
ژیروند
ژیل
ژیلبر
ک
کا
کاء
کابل
کابلی
کابوس
کابین
کابیندا
کابینه
کاتالانی
کاتالونون
کاتالونی
کاتالونیا
کاتالونیای
کاتب
کاترین
کاترینا
کاته
کاتولیک
کاتولیکون
کاتک
کاتی
کاجه
کاخ
کادمی
کادمیک
کادوسیون
کار
کارا
کاراي
کاراچای
کاراکاس
کاراکتر
کارای
کاراییب
کاربر
کاربرد
کاربردی
کاربری
کارت
کارتاژ
کارتی
کارخانه
کارخنه
کارد
کاردنه
کارده
کاردیف
کارزن
کارزنون
کارسی
کارشناس
کارشناسون
کارشناسی
کارل
کارلا
کارلو
کارلوس
کارمند
کارمندان
کارمندون
کارن
کارناتاکا
کارنامه
کارندیون
کارنومه
کارنوندیون
کاره
کارها
کارهای
کاروانسرا
کارور
کارورون
کاروری
کارول
کارولین
کارولینا
کارولینای
کارون
کاروون
کارکرد
کارکوپینو
کارکیا
کارگاه
کارگر
کارگران
کارگردان
کارگردانی
کارگردون
کارگردونی
کارگرون
کارگری
کاری
کاریکام
کازا
کازان
کازه
کاس
کاست
کاستاریکا
کاسترو
کاستلو
کاستیا
کاستیل
کاسه
کاسپی
کاسپین
کاسپینی
کاسکید
کاسیاس
کاش
کاشان
کاشانی
کاشت
کاشتنه
کاشته
کاشف
کاشن
کاشنه
کاشه
کاشی
کاظم
کاظمی
کاغذ
کافر
کافه
کافکا
کافی
کال
کالاي
کالج
کاله
کالو
کالی
کالیجار
کالیفرنیا
کالیفرنیای
کالیمانتان
کالین
کالینینگراد
کام
کامارا
کامبه
کامبوج
کامبی
کامران
کامرون
کامل
کاملا
کاملن
کامو
کامپانیا
کامپیوتر
کامپیوترون
کامپیوتری
کامی
کامیار
کامین
کان
کانادا
کانادای
کانادایی
کانال
کاناگاوا
کانبرا
کانتون
کانجی
کاندنه
کانده
کاندوم
کاندی
کاندید
کاندیدا
کاندیداتوری
کاندیدای
کانزاس
کانسرواتیسم
کانل
کاننده
کانندگون
کاننه
کانه
کانون
کانی
کاهش
کاهن
کاو
کاوشگر
کاونتری
کاوه
کاووس
کاوی
کاویان
کاویانی
کاي
کاپ
کاپتان
کاپتاه
کاپریو
کاپلان
کاپیتالیسم
کاپیتان
کاپیتول
کاک
کاکر
کاکرون
کاکری
کاکی
کاگاوا
کاگوشیما
کای
کایا
کایر
کایرون
کایری
کب
کباب
کبوتر
کبود
کبک
کبیر
کبیسه
کت
کتا
کتاب
کتابای
کتابخانه
کتابخنه
کتابون
کتابونی
کتابچه
کتابی
کتار
کتاه
کتب
کتره
کتس
کتنیس
کته
کتول
کتولی
کتی
کتیبه
کتیفه
کجا
کجاست
کجور
کجوری
کد
کده
کدو
کدوم
کر
کرالا
کرامت
کرامول
کرانه
کراچی
کربلا
کربن
کرت
کرج
کرد
کردا
کردان
کردستان
کردستون
کردن
کردند
کردنه
کرده
کردها
کردهای
کردکوی
کردی
کردیم
کرزوس
کرس
کرسی
کرم
کرمان
کرمانشاه
کرمانی
کرمون
کره
کرو
کروات
کرواسی
کروبی
کروز
کرون
کرونا
کرونوس
کرونی
کروی
کرچه
کرک
کرکس
کرکوک
کرگ
کرگدن
کرگردن
کری
کریس
کریستف
کریستو
کریستوف
کریستوفر
کریستی
کریستیانو
کریستین
کریستینا
کریسمس
کریم
کریمه
کریموف
کریمی
کریک
کریکت
کز
کس
کسانی
کسایی
کسب
کسروی
کسری
کسفورد
کسلیان
کسوف
کسون
کسونی
کسکیدز
کسی
کش
کشاورز
کشاورزون
کشاورزی
کشت
کشتار
کشته
کشتی
کشتیون
کشف
کشمیر
کشنده
کشنه
کشه
کشور
کشورا
کشورای
کشوره
کشورها
کشورهای
کشورون
کشورونی
کشوري
کشوری
کشک
کشی
کشیده
کشیش
کشینه
کعبه
کـ
کف
کفا
کفش
کفن
کفنه
کفه
کل
کلا
کلاته
کلار
کلارا
کلارتی
کلاردشت
کلارستاق
کلارستاقی
کلارک
کلاس
کلاسیک
کلاش
کلاشنیکف
کلاله
کلام
کلامی
کلان
کلاه
کلاویه
کلبادی
کلباسی
کلخوران
کلر
کلرادو
کلری
کلسیم
کلفت
کلفتی
کلمات
کلمب
کلمبوس
کلمبیا
کلمبیای
کلمبیایی
کلمنت
کلمه
کلموي
کلن
کله
کلو
کلوب
کلود
کلودل
کلونی
کلکته
کلی
کلیات
کلیجان
کلید
کلیدهای
کلیدی
کلیسا
کلیساها
کلیساهای
کلیساي
کلیسای
کلین
کلینتون
کلینیک
کلیه
کلیولند
کلیک
کم
کما
کمال
کماکان
کمبریج
کمبود
کمتر
کمترین
کمته
کمدی
کمدین
کمر
کمربند
کمرنگ
کمروي
کمل
کمه
کمون
کمونچه
کمونیست
کمونیستون
کمونیستی
کمونیسم
کمپ
کمپانی
کمپونی
کمپین
کمک
کمکی
کمی
کمیاب
کمیت
کمیته
کمیسیون
کمیل
کمین
کمیک
کن
کنار
کنارشهر
کناره
کنارهکته
کناری
کنت
کنتاکی
کنترل
کنتس
کنته
کند
کندلوس
کندلوسی
کندنه
کنده
کندی
کنراد
کنس
کنستانتین
کنسرت
کنفدراسیون
کنفدرالیسم
کنفرانس
کنم
کنند
کننده
کنندگان
کنندگون
کنندگی
کننه
کنه
کنوانسیون
کنون
کنونی
کنکور
کنگ
کنگره
کنگلو
کنگو
کنگوی
کنی
کنیا
کنیای
کنیایی
کنید
کنیز
کنیم
کنیه
که
کهن
کهنه
کهکشهونون
کهکشون
کهکشونا
کهکشونای
کهکشونی
کو
کوا
کوازاري
کوانتمی
کوانتوم
کوانتومی
کوب
کوبا
کوبانی
کوبای
کوبایی
کوبیده
کوت
کوتا
کوتاه
کوتاهی
کوتاي
کوتایک
کوتن
کوتوله
کوتی
کوثر
کودتا
کودتای
کودک
کودکان
کودکی
کور
کورا
کوراییم
کورت
کورد
کوردستان
کوردستون
کوردنشین
کوردها
کوردوبا
کوردون
کوردپرس
کوردی
کورش
کورمانج
کورمانجی
کورنی
کوره
کوروش
کورونوس
کوری
کوزوو
کوزووی
کوس
کوسته
کوسه
کوسی
کوش
کوشتار
کوشته
کوشش
کوشی
کوفی
کول
کولا
کولاي
کولای
کولایی
کولاییان
کولت
کولن
کولونی
کولپیتس
کوم
کوماتی
کوماموتو
کومتا
کومس
کومش
کومله
کومور
کومونیستی
کومپانی
کومک
کومیته
کون
کونفرانس
کونفوسیوس
کوننده
کونگ
کونگره
کوه
کوهدشت
کوهستان
کوهستانی
کوهستون
کوهستونی
کوهن
کوهنه
کوههای
کوهون
کوهپایه
کوهی
کوي
کوپا
کوپر
کوپرنیک
کوپی
کوچ
کوچه
کوچک
کوچی
کوک
کوکا
کوکایین
کوگندم
کوی
کویت
کویر
کوین
کویی
کي
کپ
کپتاه
کپلر
کپچا
کپی
کپیولت
کچلیک
کچه
کچیک
کی
کیا
کیارستمی
کیاسر
کیاسری
کیان
کیانگ
کیانی
کیاکلا
کیتا
کیتاب
کیتابون
کیتابونی
کیتابی
کیتن
کیتو
کیجا
کیجاي
کیجای
کیخسرو
کید
کیرشنر
کیست
کیسه
کیش
کیشوت
کیشور
کیف
کیفیت
کیله
کیلو
کیلوبایت
کیلومتر
کیلومترمترموربع
کیلومترمربع
کیلومترموربع
کیلومتری
کیلومیتر
کیلومیتری
کیلوگرم
کیم
کین
کینار
کینه
کینگ
کینگز
کیه
کیهان
کیهانی
کیهون
کیوان
کیوتو
کیوس
کیومرث
کیپ
کیپور
کیکاووس
کیی
کییف
کییفی
کەنەنه
گ
گا
گابریل
گابون
گات
گاتنه
گاته
گاد
گادر
گادوین
گارد
گاردین
گارسیا
گارم
گارنیه
گارون
گاری
گاز
گازی
گاستون
گاسفن
گال
گالری
گالش
گالشون
گالشی
گالوس
گالیسی
گالیسیا
گالیسیایی
گالیله
گام
گاما
گامبی
گامبیا
گامون
گان
گاندی
گاننه
گانه
گاه
گاهانه
گاهشمار
گاهشماری
گاهی
گاو
گاوباره
گاوبارگان
گاوباریون
گاوزن
گاووس
گاي
گاگا
گاگداری
گایا
گب
گبری
گت
گتاب
گتترین
گتته
گتنه
گته
گتو
گتون
گتی
گجرات
گجگجی
گد
گدایف
گدر
گدری
گذ
گذار
گذاران
گذارون
گذاری
گذاشت
گذاشته
گذر
گذرنه
گذشت
گذشته
گر
گرا
گراد
گرافیک
گرامر
گرامشی
گرامی
گران
گرانادا
گرانت
گراند
گراهام
گراي
گرای
گرایان
گرایانه
گرایش
گرایلی
گرایی
گربه
گرجستان
گرجستون
گرجي
گرجی
گرد
گردا
گردبازو
گردد
گردش
گردشگری
گردن
گردنه
گرده
گردون
گردونی
گردی
گردید
گردیزی
گرفت
گرفتار
گرفتن
گرفتند
گرفته
گرم
گرما
گرماب
گرمایی
گرمسار
گرمسیری
گرمی
گرند
گرنه
گره
گرو
گرون
گرونی
گروه
گروهون
گروهی
گروگان
گرچه
گرگ
گرگان
گرگانی
گرگوری
گری
گریزلیز
گریم
گرین
گرینلند
گریه
گریگوری
گریگوریان
گز
گزارش
گزارشگری
گزارشی
گزر
گزنفون
گزنه
گزنوفانس
گزیده
گزینه
گس
گست
گسترده
گسترش
گستره
گسیختگی
گشت
گغارکونیک
گـ
گفت
گفتار
گفته
گفتگو
گفتگوی
گل
گلابی
گلام
گلای
گلدن
گلر
گلرویی
گلزار
گلزن
گلستان
گلستون
گلسرخی
گلشیری
گلشیفته
گله
گلوب
گلوله
گلوگاه
گلکی
گلی
گلیا
گلیله
گم
گمرکی
گمون
گن
گنابادی
گناه
گنبد
گنج
گنجه
گنجوی
گنجینه
گند
گندم
گنش
گنشکر
گنشکرون
گننه
گنه
گه
گو
گوا
گواتمالا
گوادلوپ
گوارا
گوانتانامو
گوانگ
گواه
گوت
گوتنبرگ
گوتنه
گوته
گوتیه
گودار
گوذار
گوذاری
گوذشته
گور
گوران
گورانی
گورباچف
گورجستون
گورجي
گورجی
گورجیون
گورستون
گوروه
گورکانی
گورکانیون
گورکی
گوزارش
گوزنگو
گوست
گوستاو
گوسترش
گوستن
گوستو
گوسفند
گوش
گوشت
گوشتی
گوشه
گوشک
گوشی
گول
گولدن
گولن
گوم
گومز
گومل
گوموا
گومیلیف
گون
گوناگون
گوناگونی
گونبد
گونما
گوننه
گونه
گونی
گوهر
گوي
گوکزا
گوگ
گوگزا
گوگل
گوگوریو
گوی
گویا
گویان
گوید
گویش
گویشون
گویند
گویندگان
گویی
گي
گپ
گپون
گچ
گی
گیا
گیاتسو
گیاه
گیاهان
گیاهون
گیاهی
گیت
گیتار
گیتاریست
گیتاشناسی
گیتنه
گیته
گیتی
گیر
گیرن
گیرننه
گیرنه
گیرون
گیری
گیسو
گیفو
گیل
گیلاس
گیلان
گیلانشاه
گیلانی
گیله
گیلون
گیلک
گیلکون
گیلکی
گیم
گیمز
گینه
گیوم
گیگابایت
ی
یا
یات
یاد
یادا
یادبود
یادداشت
یادمان
یادکرد
یادگار
یادگاری
یادگیری
یار
یاردن
یاردنه
یارده
یارشاطر
یارمی
یارنه
یارون
یاری
یاز
یازده
یازدهم
یازدهمین
یاس
یاساي
یاسایی
یاسبرین
یاسر
یاغی
یافت
یافته
یاقوت
یال
یاما
یاماناشی
یاماگاتا
یاماگوچی
یان
یانس
یانه
یانگ
یاور
یب
یبی
یت
یتا
یتر
یتن
یتنه
یته
یتی
یتیم
یثرب
یج
یحیی
یخ
یخچال
یخی
ید
یدا
یدون
یدی
یر
یران
یرانی
یرانیا
یرتون
یرس
یرن
یره
یرون
یری
یریم
یز
یزاک
یزد
یزدان
یزدانی
یزدگرد
یزدی
یزیانا
یزید
یس
یست
یسراي
یسم
یسه
یسپاني
یسی
یشت
یشتن
یشتنه
یشته
یعقوب
یعقوبی
یعن
یعنن
یعنی
یغما
یغمایی
یـ
یف
یل
یلان
یلتسین
یلدا
یلس
یلماز
یلن
یلند
یلنه
یله
یلوستون
یلی
یلین
یلیون
یم
یمن
یمنی
یموي
یمین
ین
یند
ینده
ینزلند
ینه
ینی
یه
یهود
یهودون
یهودی
یهودیان
یهودیت
یهودیون
یو
یوا
یواخیم
یواس
یواشکی
یوبی
یوتا
یوتابایت
یوتیوب
یوجین
یوحنا
یور
یورتچی
یورش
یورو
یورونیوز
یوروویژن
یوروی
یورک
یوری
یوریس
یوسف
یوسفی
یوسیمیتی
یوشیج
یوفا
یوفای
یولیانی
یوم
یون
یونان
یونانی
یونانیان
یونانیون
یونایتد
یونس
یونسکو
یونسکوی
یونگ
یوها
یوهان
یوهانس
یوونتوس
یوي
یوکاتان
یوگسلاوی
یوگوسلاوی
یي
یپرم
یچی
یک
یکا
یکدیگر
یکسان
یکشنبه
یکصد
یکم
یکمین
یکی
یگان
یگانه
یی
ییت
ییتن
ییتنه
ییته
یید
ییر
ییرن
ییره
ییل
ییلاقی
یین
یینه
یینگ
یینی
ییه
ە
ۖ
۰
۰۰
۰۰۰
۰۰۱
۰۰۴
۰۰۵
۰۰۶
۰۰۷
۰۰۸
۰۰۹
۰۱
۰۱۱
۰۱۴
۰۱۵
۰۱۷
۰۱۸
۰۲
۰۲۲
۰۲۳
۰۲۶
۰۲۹
۰۳
۰۳۰
۰۳۱
۰۳۲
۰۳۳
۰۳۴
۰۳۵
۰۳۶
۰۴
۰۴۰
۰۴۳
۰۴۵
۰۴۶
۰۴۷
۰۵
۰۵۱
۰۵۲
۰۵۳
۰۵۶
۰۵۷
۰۶
۰۶۰
۰۶۲
۰۶۳
۰۶۴
۰۶۵
۰۶۶
۰۶۷
۰۷
۰۷۰
۰۷۵
۰۷۶
۰۷۷
۰۷۹
۰۸
۰۸۰
۰۸۲
۰۸۴
۰۸۶
۰۸۷
۰۹
۰۹۲
۰۹۹
۱
۱۰
۱۰۰
۱۰۰۰
۱۰۰۳
۱۰۰۵
۱۰۰۹
۱۰۱
۱۰۱۲
۱۰۱۷
۱۰۲
۱۰۲۰
۱۰۲۱
۱۰۲۴
۱۰۲۶
۱۰۳
۱۰۳۰
۱۰۳۱
۱۰۳۲
۱۰۳۳
۱۰۴
۱۰۴۱
۱۰۴۵
۱۰۴۸
۱۰۵
۱۰۶
۱۰۶۶
۱۰۷
۱۰۷۰
۱۰۷۳
۱۰۸
۱۰۸۸
۱۰۹
۱۰۹۵
۱۱
۱۱۰
۱۱۰۰
۱۱۱
۱۱۲
۱۱۳
۱۱۳۵
۱۱۴
۱۱۴۸
۱۱۵
۱۱۶
۱۱۶۰
۱۱۶۳
۱۱۷
۱۱۷۳
۱۱۷۵
۱۱۷۶
۱۱۸
۱۱۸۰
۱۱۸۹
۱۱۹
۱۲
۱۲۰
۱۲۰۰
۱۲۰۹
۱۲۱
۱۲۱۰
۱۲۱۳
۱۲۱۸
۱۲۲
۱۲۳
۱۲۳۸
۱۲۴
۱۲۴۰
۱۲۵
۱۲۵۷
۱۲۶
۱۲۶۰
۱۲۶۴
۱۲۶۵
۱۲۶۶
۱۲۷
۱۲۷۰
۱۲۷۲
۱۲۷۵
۱۲۷۶
۱۲۷۸
۱۲۸
۱۲۸۲
۱۲۸۳
۱۲۸۴
۱۲۸۶
۱۲۸۷
۱۲۸۸
۱۲۹
۱۲۹۰
۱۲۹۱
۱۲۹۲
۱۲۹۴
۱۲۹۷
۱۲۹۹
۱۳
۱۳۰
۱۳۰۰
۱۳۰۱
۱۳۰۲
۱۳۰۳
۱۳۰۴
۱۳۰۵
۱۳۰۶
۱۳۰۷
۱۳۰۸
۱۳۱
۱۳۱۰
۱۳۱۱
۱۳۱۲
۱۳۱۳
۱۳۱۴
۱۳۱۵
۱۳۱۶
۱۳۱۷
۱۳۱۸
۱۳۱۹
۱۳۲
۱۳۲۰
۱۳۲۱
۱۳۲۲
۱۳۲۳
۱۳۲۴
۱۳۲۵
۱۳۲۶
۱۳۲۷
۱۳۲۸
۱۳۲۹
۱۳۳
۱۳۳۰
۱۳۳۱
۱۳۳۲
۱۳۳۳
۱۳۳۴
۱۳۳۵
۱۳۳۶
۱۳۳۷
۱۳۳۸
۱۳۳۹
۱۳۴
۱۳۴۰
۱۳۴۱
۱۳۴۲
۱۳۴۳
۱۳۴۴
۱۳۴۵
۱۳۴۶
۱۳۴۷
۱۳۴۸
۱۳۴۹
۱۳۵
۱۳۵۰
۱۳۵۱
۱۳۵۲
۱۳۵۳
۱۳۵۴
۱۳۵۵
۱۳۵۶
۱۳۵۷
۱۳۵۸
۱۳۵۹
۱۳۶
۱۳۶۰
۱۳۶۱
۱۳۶۲
۱۳۶۳
۱۳۶۴
۱۳۶۵
۱۳۶۶
۱۳۶۷
۱۳۶۸
۱۳۶۹
۱۳۷
۱۳۷۰
۱۳۷۱
۱۳۷۲
۱۳۷۳
۱۳۷۴
۱۳۷۵
۱۳۷۶
۱۳۷۷
۱۳۷۸
۱۳۷۹
۱۳۸
۱۳۸۰
۱۳۸۱
۱۳۸۲
۱۳۸۳
۱۳۸۴
۱۳۸۵
۱۳۸۶
۱۳۸۷
۱۳۸۸
۱۳۸۹
۱۳۹
۱۳۹۰
۱۳۹۱
۱۳۹۲
۱۳۹۳
۱۳۹۴
۱۳۹۵
۱۳۹۶
۱۳۹۷
۱۳۹۸
۱۳۹۹
۱۴
۱۴۰
۱۴۰۰
۱۴۰۱
۱۴۰۲
۱۴۰۴
۱۴۰۷
۱۴۱
۱۴۱۲
۱۴۱۷
۱۴۲
۱۴۲۰
۱۴۲۵
۱۴۳
۱۴۳۰
۱۴۳۱
۱۴۳۵
۱۴۴
۱۴۴۰
۱۴۴۴
۱۴۴۸
۱۴۵
۱۴۵۰
۱۴۵۲
۱۴۵۳
۱۴۵۸
۱۴۶
۱۴۶۱
۱۴۶۳
۱۴۶۴
۱۴۶۵
۱۴۶۸
۱۴۶۹
۱۴۷
۱۴۷۳
۱۴۷۷
۱۴۷۸
۱۴۸
۱۴۸۳
۱۴۸۷
۱۴۸۸
۱۴۹
۱۴۹۰
۱۴۹۱
۱۴۹۲
۱۴۹۳
۱۴۹۸
۱۵
۱۵۰
۱۵۰۰
۱۵۰۰۰
۱۵۰۳
۱۵۰۵
۱۵۰۷
۱۵۰۸
۱۵۱
۱۵۱۰
۱۵۱۱
۱۵۱۲
۱۵۱۳
۱۵۱۵
۱۵۱۶
۱۵۱۷
۱۵۱۸
۱۵۱۹
۱۵۲
۱۵۲۰
۱۵۲۱
۱۵۲۲
۱۵۲۳
۱۵۲۴
۱۵۲۵
۱۵۲۶
۱۵۲۷
۱۵۲۸
۱۵۲۹
۱۵۳
۱۵۳۰
۱۵۳۲
۱۵۳۳
۱۵۳۴
۱۵۳۵
۱۵۳۶
۱۵۳۹
۱۵۴
۱۵۴۰
۱۵۴۱
۱۵۴۲
۱۵۴۴
۱۵۴۵
۱۵۴۶
۱۵۴۹
۱۵۵
۱۵۵۰
۱۵۵۲
۱۵۵۶
۱۵۶
۱۵۶۰
۱۵۶۱
۱۵۶۴
۱۵۶۵
۱۵۶۷
۱۵۶۹
۱۵۷
۱۵۷۰
۱۵۷۱
۱۵۷۳
۱۵۷۸
۱۵۸
۱۵۸۱
۱۵۸۲
۱۵۸۳
۱۵۸۵
۱۵۸۸
۱۵۸۹
۱۵۹
۱۵۹۰
۱۵۹۲
۱۵۹۴
۱۵۹۵
۱۵۹۶
۱۵۹۷
۱۵۹۸
۱۶
۱۶۰
۱۶۰۰
۱۶۰۱
۱۶۰۲
۱۶۰۳
۱۶۰۴
۱۶۰۵
۱۶۰۶
۱۶۰۷
۱۶۱
۱۶۱۰
۱۶۱۱
۱۶۱۲
۱۶۱۳
۱۶۱۴
۱۶۱۷
۱۶۱۸
۱۶۱۹
۱۶۲
۱۶۲۱
۱۶۲۲
۱۶۲۳
۱۶۲۵
۱۶۲۶
۱۶۲۷
۱۶۲۸
۱۶۳
۱۶۳۰
۱۶۳۲
۱۶۳۵
۱۶۳۶
۱۶۳۸
۱۶۳۹
۱۶۴
۱۶۴۳
۱۶۴۶
۱۶۴۷
۱۶۴۸
۱۶۵
۱۶۵۰
۱۶۵۱
۱۶۵۴
۱۶۵۵
۱۶۵۸
۱۶۵۹
۱۶۶
۱۶۶۰
۱۶۶۱
۱۶۶۲
۱۶۶۵
۱۶۶۶
۱۶۶۷
۱۶۷
۱۶۷۰
۱۶۷۲
۱۶۷۳
۱۶۷۴
۱۶۷۵
۱۶۷۹
۱۶۸
۱۶۸۰
۱۶۸۳
۱۶۸۴
۱۶۸۵
۱۶۸۸
۱۶۸۹
۱۶۹
۱۶۹۱
۱۶۹۳
۱۶۹۴
۱۶۹۶
۱۶۹۷
۱۷
۱۷۰
۱۷۰۰
۱۷۰۱
۱۷۰۳
۱۷۰۴
۱۷۰۶
۱۷۰۷
۱۷۰۹
۱۷۱
۱۷۱۰
۱۷۱۱
۱۷۱۲
۱۷۱۳
۱۷۱۴
۱۷۱۵
۱۷۱۷
۱۷۱۹
۱۷۲
۱۷۲۰
۱۷۲۳
۱۷۲۵
۱۷۲۷
۱۷۳
۱۷۳۰
۱۷۳۲
۱۷۳۴
۱۷۳۸
۱۷۴
۱۷۴۰
۱۷۴۱
۱۷۴۲
۱۷۴۶
۱۷۴۷
۱۷۵
۱۷۵۱
۱۷۵۲
۱۷۵۳
۱۷۵۴
۱۷۵۵
۱۷۵۷
۱۷۵۹
۱۷۶
۱۷۶۲
۱۷۶۳
۱۷۶۴
۱۷۶۵
۱۷۶۶
۱۷۶۷
۱۷۶۸
۱۷۶۹
۱۷۷
۱۷۷۰
۱۷۷۱
۱۷۷۲
۱۷۷۳
۱۷۷۵
۱۷۷۶
۱۷۷۷
۱۷۷۸
۱۷۸
۱۷۸۰
۱۷۸۲
۱۷۸۳
۱۷۸۴
۱۷۸۵
۱۷۸۶
۱۷۸۷
۱۷۸۸
۱۷۸۹
۱۷۹
۱۷۹۰
۱۷۹۱
۱۷۹۲
۱۷۹۳
۱۷۹۴
۱۷۹۵
۱۷۹۶
۱۷۹۷
۱۷۹۸
۱۷۹۹
۱۸
۱۸۰
۱۸۰۰
۱۸۰۱
۱۸۰۲
۱۸۰۳
۱۸۰۴
۱۸۰۵
۱۸۰۶
۱۸۰۷
۱۸۰۸
۱۸۰۹
۱۸۱
۱۸۱۰
۱۸۱۱
۱۸۱۲
۱۸۱۳
۱۸۱۴
۱۸۱۵
۱۸۱۶
۱۸۱۷
۱۸۱۸
۱۸۱۹
۱۸۲
۱۸۲۰
۱۸۲۱
۱۸۲۲
۱۸۲۳
۱۸۲۴
۱۸۲۵
۱۸۲۶
۱۸۲۷
۱۸۲۸
۱۸۲۹
۱۸۳
۱۸۳۰
۱۸۳۱
۱۸۳۲
۱۸۳۳
۱۸۳۴
۱۸۳۶
۱۸۳۷
۱۸۳۸
۱۸۳۹
۱۸۴
۱۸۴۰
۱۸۴۱
۱۸۴۲
۱۸۴۳
۱۸۴۴
۱۸۴۵
۱۸۴۶
۱۸۴۷
۱۸۴۸
۱۸۴۹
۱۸۵
۱۸۵۰
۱۸۵۱
۱۸۵۲
۱۸۵۳
۱۸۵۴
۱۸۵۵
۱۸۵۶
۱۸۵۷
۱۸۵۸
۱۸۵۹
۱۸۶
۱۸۶۰
۱۸۶۱
۱۸۶۲
۱۸۶۳
۱۸۶۴
۱۸۶۵
۱۸۶۶
۱۸۶۷
۱۸۶۸
۱۸۶۹
۱۸۷
۱۸۷۰
۱۸۷۱
۱۸۷۲
۱۸۷۳
۱۸۷۴
۱۸۷۵
۱۸۷۶
۱۸۷۷
۱۸۷۸
۱۸۷۹
۱۸۸
۱۸۸۰
۱۸۸۱
۱۸۸۲
۱۸۸۳
۱۸۸۴
۱۸۸۵
۱۸۸۶
۱۸۸۷
۱۸۸۸
۱۸۸۹
۱۸۹
۱۸۹۰
۱۸۹۱
۱۸۹۲
۱۸۹۳
۱۸۹۴
۱۸۹۵
۱۸۹۶
۱۸۹۷
۱۸۹۸
۱۸۹۹
۱۹
۱۹۰
۱۹۰۰
۱۹۰۱
۱۹۰۲
۱۹۰۳
۱۹۰۴
۱۹۰۵
۱۹۰۶
۱۹۰۷
۱۹۰۸
۱۹۰۹
۱۹۱
۱۹۱۰
۱۹۱۱
۱۹۱۲
۱۹۱۳
۱۹۱۴
۱۹۱۵
۱۹۱۶
۱۹۱۷
۱۹۱۸
۱۹۱۹
۱۹۲
۱۹۲۰
۱۹۲۱
۱۹۲۲
۱۹۲۳
۱۹۲۴
۱۹۲۵
۱۹۲۶
۱۹۲۷
۱۹۲۸
۱۹۲۹
۱۹۳
۱۹۳۰
۱۹۳۱
۱۹۳۲
۱۹۳۳
۱۹۳۴
۱۹۳۵
۱۹۳۶
۱۹۳۷
۱۹۳۸
۱۹۳۹
۱۹۴
۱۹۴۰
۱۹۴۱
۱۹۴۲
۱۹۴۳
۱۹۴۴
۱۹۴۵
۱۹۴۶
۱۹۴۷
۱۹۴۸
۱۹۴۹
۱۹۵
۱۹۵۰
۱۹۵۱
۱۹۵۲
۱۹۵۳
۱۹۵۴
۱۹۵۵
۱۹۵۶
۱۹۵۷
۱۹۵۸
۱۹۵۹
۱۹۶
۱۹۶۰
۱۹۶۱
۱۹۶۲
۱۹۶۳
۱۹۶۴
۱۹۶۵
۱۹۶۶
۱۹۶۷
۱۹۶۸
۱۹۶۹
۱۹۷
۱۹۷۰
۱۹۷۱
۱۹۷۲
۱۹۷۳
۱۹۷۴
۱۹۷۵
۱۹۷۶
۱۹۷۷
۱۹۷۸
۱۹۷۹
۱۹۸
۱۹۸۰
۱۹۸۱
۱۹۸۲
۱۹۸۳
۱۹۸۴
۱۹۸۵
۱۹۸۶
۱۹۸۷
۱۹۸۸
۱۹۸۹
۱۹۹
۱۹۹۰
۱۹۹۱
۱۹۹۲
۱۹۹۳
۱۹۹۴
۱۹۹۵
۱۹۹۶
۱۹۹۷
۱۹۹۸
۱۹۹۹
۲
۲۰
۲۰۰
۲۰۰۰
۲۰۰۰۰
۲۰۰۱
۲۰۰۲
۲۰۰۳
۲۰۰۴
۲۰۰۵
۲۰۰۶
۲۰۰۷
۲۰۰۸
۲۰۰۹
۲۰۱
۲۰۱۰
۲۰۱۱
۲۰۱۲
۲۰۱۳
۲۰۱۴
۲۰۱۵
۲۰۱۶
۲۰۱۷
۲۰۱۸
۲۰۱۹
۲۰۲
۲۰۲۰
۲۰۲۱
۲۰۲۲
۲۰۲۳
۲۰۳
۲۰۴
۲۰۵
۲۰۶
۲۰۷
۲۰۸
۲۰۹
۲۱
۲۱۰
۲۱۰۰
۲۱۱
۲۱۲
۲۱۳
۲۱۴
۲۱۵
۲۱۶
۲۱۷
۲۱۸
۲۱۹
۲۲
۲۲۰
۲۲۱
۲۲۲
۲۲۳
۲۲۴
۲۲۵
۲۲۶
۲۲۷
۲۲۸
۲۲۹
۲۳
۲۳۰
۲۳۱
۲۳۲
۲۳۳
۲۳۴
۲۳۵
۲۳۶
۲۳۷
۲۳۸
۲۳۹
۲۴
۲۴۰
۲۴۱
۲۴۲
۲۴۳
۲۴۴
۲۴۵
۲۴۶
۲۴۷
۲۴۸
۲۴۹
۲۵
۲۵۰
۲۵۰۰
۲۵۱
۲۵۲
۲۵۳
۲۵۴
۲۵۵
۲۵۶
۲۵۷
۲۵۸
۲۵۹
۲۶
۲۶۰
۲۶۱
۲۶۲
۲۶۳
۲۶۴
۲۶۵
۲۶۶
۲۶۷
۲۶۸
۲۶۹
۲۷
۲۷۰
۲۷۱
۲۷۲
۲۷۳
۲۷۴
۲۷۵
۲۷۶
۲۷۷
۲۷۸
۲۷۹
۲۸
۲۸۰
۲۸۱
۲۸۲
۲۸۳
۲۸۴
۲۸۵
۲۸۶
۲۸۷
۲۸۸
۲۸۹
۲۹
۲۹۰
۲۹۱
۲۹۲
۲۹۳
۲۹۴
۲۹۵
۲۹۶
۲۹۷
۲۹۸
۲۹۹
۳
۳۰
۳۰۰
۳۰۰۰
۳۰۱
۳۰۲
۳۰۳
۳۰۴
۳۰۵
۳۰۶
۳۰۷
۳۰۸
۳۰۹
۳۱
۳۱۰
۳۱۱
۳۱۲
۳۱۳
۳۱۴
۳۱۵
۳۱۶
۳۱۷
۳۱۸
۳۱۹
۳۲
۳۲۰
۳۲۱
۳۲۲
۳۲۳
۳۲۴
۳۲۵
۳۲۶
۳۲۷
۳۲۸
۳۲۹
۳۳
۳۳۰
۳۳۱
۳۳۲
۳۳۳
۳۳۴
۳۳۵
۳۳۶
۳۳۷
۳۳۸
۳۳۹
۳۴
۳۴۰
۳۴۱
۳۴۲
۳۴۳
۳۴۴
۳۴۵
۳۴۶
۳۴۷
۳۴۸
۳۴۹
۳۵
۳۵۰
۳۵۰۰۰
۳۵۱
۳۵۲
۳۵۳
۳۵۴
۳۵۵
۳۵۶
۳۵۷
۳۵۸
۳۵۹
۳۶
۳۶۰
۳۶۱
۳۶۲
۳۶۳
۳۶۴
۳۶۵
۳۶۶
۳۶۷
۳۶۸
۳۶۹
۳۷
۳۷۰
۳۷۱
۳۷۲
۳۷۳
۳۷۴
۳۷۵
۳۷۶
۳۷۷
۳۷۸
۳۷۹
۳۸
۳۸۰
۳۸۱
۳۸۲
۳۸۳
۳۸۴
۳۸۵
۳۸۶
۳۸۷
۳۸۸
۳۸۹
۳۹
۳۹۰
۳۹۱
۳۹۲
۳۹۳
۳۹۴
۳۹۵
۳۹۶
۳۹۷
۳۹۸
۳۹۹
۴
۴۰
۴۰۰
۴۰۱
۴۰۲
۴۰۳
۴۰۴
۴۰۵
۴۰۶
۴۰۷
۴۰۸
۴۰۹
۴۱
۴۱۰
۴۱۱
۴۱۲
۴۱۳
۴۱۴
۴۱۵
۴۱۶
۴۱۶۶۶۷
۴۱۷
۴۱۸
۴۱۹
۴۲
۴۲۰
۴۲۱
۴۲۲
۴۲۳
۴۲۴
۴۲۶
۴۲۷
۴۲۸
۴۲۹
۴۳
۴۳۰
۴۳۱
۴۳۲
۴۳۳
۴۳۴
۴۳۵
۴۳۶
۴۳۷
۴۳۸
۴۳۹
۴۴
۴۴۰
۴۴۱
۴۴۲
۴۴۳
۴۴۴
۴۴۵
۴۴۶
۴۴۷
۴۴۸
۴۴۹
۴۵
۴۵۰
۴۵۱
۴۵۲
۴۵۳
۴۵۴
۴۵۵
۴۵۶
۴۵۷
۴۵۸
۴۵۹
۴۶
۴۶۰
۴۶۱
۴۶۲
۴۶۳
۴۶۴
۴۶۵
۴۶۶
۴۶۷
۴۶۸
۴۶۹
۴۷
۴۷۰
۴۷۱
۴۷۲
۴۷۳
۴۷۴
۴۷۵
۴۷۶
۴۷۷
۴۷۸
۴۷۹
۴۸
۴۸۰
۴۸۱
۴۸۲
۴۸۳
۴۸۴
۴۸۵
۴۸۶
۴۸۷
۴۸۸
۴۸۹
۴۹
۴۹۰
۴۹۱
۴۹۲
۴۹۳
۴۹۴
۴۹۵
۴۹۶
۴۹۸
۴۹۹
۵
۵۰
۵۰۰
۵۰۰۰
۵۰۱
۵۰۲
۵۰۳
۵۰۴
۵۰۵
۵۰۶
۵۰۷
۵۰۸
۵۰۹
۵۱
۵۱۰
۵۱۱
۵۱۲
۵۱۳
۵۱۴
۵۱۶
۵۱۷
۵۱۸
۵۱۹
۵۲
۵۲۰
۵۲۱
۵۲۲
۵۲۳
۵۲۴
۵۲۵
۵۲۶
۵۲۷
۵۲۸
۵۲۹
۵۳
۵۳۰
۵۳۱
۵۳۲
۵۳۳
۵۳۴
۵۳۵
۵۳۶
۵۳۷
۵۳۸
۵۳۹
۵۴
۵۴۰
۵۴۱
۵۴۲
۵۴۳
۵۴۴
۵۴۵
۵۴۶
۵۴۷
۵۴۸
۵۴۹
۵۵
۵۵۰
۵۵۱
۵۵۲
۵۵۳
۵۵۴
۵۵۵
۵۵۶
۵۵۷
۵۵۸
۵۵۹
۵۶
۵۶۰
۵۶۱
۵۶۲
۵۶۳
۵۶۴
۵۶۵
۵۶۶
۵۶۷
۵۶۸
۵۶۹
۵۷
۵۷۰
۵۷۱
۵۷۲
۵۷۳
۵۷۴
۵۷۵
۵۷۷
۵۷۸
۵۷۹
۵۸
۵۸۰
۵۸۱
۵۸۲
۵۸۳
۵۸۵
۵۸۶
۵۸۷
۵۸۸
۵۸۹
۵۹
۵۹۰
۵۹۱
۵۹۲
۵۹۳
۵۹۴
۵۹۵
۵۹۶
۵۹۷
۵۹۸
۵۹۹
۶
۶۰
۶۰۰
۶۰۰۰۰
۶۰۱
۶۰۲
۶۰۳
۶۰۴
۶۰۵
۶۰۶
۶۰۷
۶۰۸
۶۰۹
۶۱
۶۱۰
۶۱۱
۶۱۲
۶۱۳
۶۱۴
۶۱۵
۶۱۶
۶۱۷
۶۱۸
۶۱۹
۶۲
۶۲۰
۶۲۱
۶۲۲
۶۲۳
۶۲۴
۶۲۵
۶۲۶
۶۲۷
۶۲۸
۶۲۹
۶۳
۶۳۰
۶۳۱
۶۳۲
۶۳۳
۶۳۴
۶۳۵
۶۳۷
۶۳۸
۶۳۹
۶۴
۶۴۰
۶۴۱
۶۴۲
۶۴۳
۶۴۴
۶۴۵
۶۴۶
۶۴۷
۶۴۸
۶۴۹
۶۵
۶۵۰
۶۵۱
۶۵۲
۶۵۳
۶۵۴
۶۵۵
۶۵۶
۶۵۷
۶۵۸
۶۵۹
۶۶
۶۶۰
۶۶۱
۶۶۲
۶۶۳
۶۶۵
۶۶۶
۶۶۷
۶۶۸
۶۷
۶۷۰
۶۷۱
۶۷۲
۶۷۳
۶۷۴
۶۷۵
۶۷۶
۶۷۷
۶۷۸
۶۷۹
۶۸
۶۸۰
۶۸۱
۶۸۲
۶۸۳
۶۸۴
۶۸۵
۶۸۶
۶۸۷
۶۸۸
۶۸۹
۶۹
۶۹۰
۶۹۱
۶۹۲
۶۹۳
۶۹۴
۶۹۵
۶۹۶
۶۹۸
۶۹۹
۷
۷۰
۷۰۰
۷۰۱
۷۰۲
۷۰۳
۷۰۴
۷۰۵
۷۰۶
۷۰۷
۷۰۸
۷۰۹
۷۱
۷۱۰
۷۱۱
۷۱۳
۷۱۴
۷۱۵
۷۱۶
۷۱۷
۷۱۸
۷۱۸۲
۷۲
۷۲۰
۷۲۱
۷۲۲
۷۲۳
۷۲۴
۷۲۵
۷۲۶
۷۲۷
۷۲۸
۷۲۹
۷۳
۷۳۰
۷۳۱
۷۳۲
۷۳۳
۷۳۴
۷۳۵
۷۳۶
۷۳۷
۷۳۸
۷۴
۷۴۰
۷۴۱
۷۴۳
۷۴۵
۷۴۶
۷۴۷
۷۴۸
۷۵
۷۵۰
۷۵۱
۷۵۲
۷۵۳
۷۵۴
۷۵۵
۷۵۷
۷۵۸
۷۵۹
۷۶
۷۶۰
۷۶۱
۷۶۳
۷۶۴
۷۶۵
۷۶۶
۷۶۷
۷۶۹
۷۷
۷۷۱
۷۷۲
۷۷۳
۷۷۴
۷۷۶
۷۷۷
۷۷۸
۷۷۹
۷۸
۷۸۰
۷۸۱
۷۸۲
۷۸۳
۷۸۴
۷۸۵
۷۸۶
۷۸۷
۷۸۸
۷۸۹
۷۹
۷۹۱
۷۹۲
۷۹۳
۷۹۴
۷۹۵
۷۹۶
۷۹۸
۷۹۹
۸
۸۰
۸۰۰
۸۰۱
۸۰۲
۸۰۳
۸۰۴
۸۰۵
۸۰۶
۸۰۷
۸۰۸
۸۰۹
۸۱
۸۱۰
۸۱۱
۸۱۲
۸۱۳
۸۱۵
۸۱۶
۸۱۷
۸۱۸
۸۱۹
۸۲
۸۲۰
۸۲۱
۸۲۲
۸۲۴
۸۲۵
۸۲۶
۸۲۷
۸۲۸
۸۲۹
۸۳
۸۳۰
۸۳۱
۸۳۲
۸۳۳
۸۳۴
۸۳۵
۸۳۶
۸۳۷
۸۳۸
۸۳۹
۸۴
۸۴۰
۸۴۱
۸۴۲
۸۴۳
۸۴۴
۸۴۵
۸۴۷
۸۴۸
۸۴۹
۸۵
۸۵۰
۸۵۱
۸۵۲
۸۵۳
۸۵۴
۸۵۵
۸۵۶
۸۵۸
۸۶
۸۶۰
۸۶۱
۸۶۲
۸۶۳
۸۶۴
۸۶۷
۸۶۸
۸۶۹
۸۷
۸۷۰
۸۷۱
۸۷۲
۸۷۳
۸۷۴
۸۷۵
۸۷۶
۸۷۷
۸۷۸
۸۷۹
۸۸
۸۸۰
۸۸۲
۸۸۳
۸۸۴
۸۸۵
۸۸۶
۸۸۷
۸۸۸
۸۸۹
۸۹
۸۹۰
۸۹۱
۸۹۲
۸۹۳
۸۹۴
۸۹۵
۸۹۶
۸۹۷
۸۹۸
۸۹۹
۹
۹۰
۹۰۰
۹۰۲
۹۰۳
۹۰۴
۹۰۵
۹۰۶
۹۰۷
۹۰۸
۹۰۹
۹۱
۹۱۰
۹۱۱
۹۱۲
۹۱۳
۹۱۴
۹۱۵
۹۱۶
۹۱۷
۹۱۸
۹۱۹
۹۲
۹۲۰
۹۲۱
۹۲۳
۹۲۴
۹۲۵
۹۲۶
۹۲۷
۹۲۸
۹۲۹
۹۳
۹۳۰
۹۳۱
۹۳۲
۹۳۳
۹۳۴
۹۳۵
۹۳۶
۹۳۷
۹۳۸
۹۳۹
۹۴
۹۴۰
۹۴۱
۹۴۲
۹۴۳
۹۴۴
۹۴۵
۹۴۶
۹۴۷
۹۴۸
۹۴۹
۹۵
۹۵۰
۹۵۱
۹۵۲
۹۵۳
۹۵۶
۹۵۷
۹۵۸
۹۶
۹۶۱
۹۶۲
۹۶۳
۹۶۴
۹۶۴۵۷۰۴۱۵۴
۹۶۵
۹۶۷
۹۶۸
۹۶۹
۹۷
۹۷۰
۹۷۱
۹۷۲
۹۷۳
۹۷۴
۹۷۵
۹۷۶
۹۷۷
۹۷۸
۹۸
۹۸۰
۹۸۱
۹۸۲
۹۸۳
۹۸۴
۹۸۵
۹۸۶
۹۸۷
۹۸۸
۹۸۹
۹۹
۹۹۰
۹۹۱
۹۹۲
۹۹۳
۹۹۴
۹۹۶
۹۹۷
۹۹۸
۹۹۹
ं
ग
ज
त
द
न
प
म
य
र
ल
ह
ा
ि
ी
े
ो
्
ং
দ
ব
ম
র
ল
া
ী
ু
্
ਲ
ਾ
ਿ
ੀ
ં
ા
್
ั
ิ
ุ
้
์
་
ད
ལ
ས
ུ
င
ည
တ
န
ပ
မ
ာ
ိ
ု
ေ
း
်
ြ
​
‌
‍
‎
‏
‐
–
—
‖
‘
’
“
”
„
†
‡
•
…
‪
‫
‬
‭
‮
′
″
₃
€
ℏ
←
↑
→
↔
↷
−
≥
⋅
③
④
⑦
✋
⟨
⟩
ⴰ
ⵜ
⺀
⺄
⺆
⺈
⺊
⺌
⺕
⺝
⺸
⺼
⿰
⿱
⿲
⿳
⿴
⿵
⿶
⿷
⿸
⿹
⿺
⿻
、
。
《
》
〢
あ
い
お
か
く
し
せ
そ
ち
と
の
ひ
ふ
ま
よ
ら
゙
゚
イ
ク
コ
サ
シ
ス
セ
タ
ッ
テ
ト
ネ
ハ
ヒ
フ
ヘ
ホ
ム
ヤ
ユ
ラ
リ
ル
レ
ン
・
ー
㇁
㇂
㇄
㇇
㇈
㇉
㇓
㐁
㐄
㐅
㐌
㐫
㐬
㐭
㐮
㐱
㑒
㒵
㒸
㒼
㓁
㓞
㔾
㕛
㕣
㖾
㘝
㚅
㚇
㚔
㚘
㝉
㝡
㝴
㝵
㞋
㞢
㞷
㠩
㠭
㠯
㡀
㡭
㡿
㢲
㢴
㣇
㣺
㥯
㪅
㫄
㫐
㫒
㫺
㬅
㬎
㬥
㬰
㲋
㳄
㷠
㸒
㸚
㸦
㼌
㼲
㽞
㿟
䀠
䂞
䍃
䏍
䒑
䖍
䖒
䖝
䖵
䙴
䚻
䜌
䝿
䡛
䧹
䪞
一
丁
丂
七
丄
丅
丆
万
丈
三
上
下
丌
不
与
丏
丐
丑
专
且
丕
世
丘
丙
业
东
丞
丢
丣
两
严
並
丨
丩
个
丫
丬
中
丮
丰
丱
串
丵
丶
丷
丸
丹
为
主
丽
丿
乀
乂
乃
久
乆
乇
么
义
之
乌
乍
乎
乏
乐
乑
乔
乖
乗
乘
乙
乚
乛
乜
九
乞
也
习
乡
乳
乾
亀
亅
了
亇
予
争
事
二
亍
于
亏
亐
云
互
亓
五
井
亘
亚
亜
亞
亟
亠
亡
亢
交
亥
亦
产
亨
亩
享
京
亭
亮
亯
亰
亲
亳
亶
亷
人
亻
亼
亾
仁
今
介
仌
从
仐
仑
仒
仓
仕
他
付
仝
代
令
以
任
企
伊
伏
伐
休
会
伯
但
位
住
何
佘
余
作
佥
使
來
侈
侌
侖
侯
侵
便
保
俞
信
修
倉
倍
候
倠
備
僉
僕
儿
兀
允
兂
元
兄
充
兆
兇
先
光
兊
克
兌
免
兑
兒
兓
兔
党
兜
兟
入
全
兩
兪
八
公
六
兮
兰
共
关
兵
其
具
典
兹
兼
冀
冂
冃
冄
内
冈
冉
冊
冋
册
再
冎
冏
冐
冒
冓
冖
冗
冘
军
农
冝
冡
冥
冫
冬
冷
几
凡
凢
凵
凶
凷
凸
凹
出
函
凾
刀
刁
刂
刃
刄
刅
分
切
刍
刑
刕
刖
列
刘
则
初
別
利
别
到
制
刺
則
削
剌
前
剡
剽
劉
力
功
加
劦
助
劫
劳
劵
勃
勇
勉
勒
動
務
勞
勤
勹
勺
勻
勾
勿
匀
匂
包
匆
匈
匊
匋
匍
匕
化
北
匚
匝
匡
匪
匱
匸
匹
区
医
匽
匿
區
十
卂
千
卄
卅
卆
升
午
卉
半
卌
华
卑
卒
卓
单
卖
南
卜
卝
卞
占
卡
卢
卣
卤
卦
卩
卪
卬
卯
印
危
即
却
卵
卷
卸
卻
厂
厃
厄
历
厈
厉
厌
厓
厘
厚
原
厤
厥
厨
厭
厲
厶
厷
厸
去
厼
厽
叀
参
參
叅
又
叉
及
友
双
反
叐
发
叒
叔
叕
取
受
叚
叜
叟
口
古
句
另
叩
只
召
可
台
叱
史
右
叵
号
司
叹
吂
各
吅
合
吉
吊
吋
同
名
后
吏
向
吕
君
吝
吞
否
含
启
吳
吴
吹
吾
呂
呆
呈
告
员
呙
周
命
咅
和
咎
咠
咢
咨
咸
咼
哀
品
哉
員
哥
哲
唐
商
啇
問
啚
啬
啻
善
喜
喬
單
喿
嗇
噩
嚴
囊
囗
囘
囙
囚
四
回
囟
因
囧
囬
困
囱
囷
固
国
圂
圅
國
圍
圓
土
圡
圣
圥
在
圭
地
圶
圼
坐
坒
坚
坴
垂
垔
垚
埀
埋
城
埶
執
基
堂
堅
堆
堇
堯
報
塞
墨
壘
士
壬
壯
声
壳
壴
壹
壺
壽
夂
处
夅
夆
备
夊
夋
夌
复
夏
夒
夕
外
夗
夘
多
夜
夢
大
夨
天
太
夫
夬
夭
央
失
夲
头
夷
夸
夹
夻
夾
奂
奄
奇
奈
奉
奎
奏
奐
契
奓
奔
奚
奞
奠
奢
奥
奭
女
奴
奻
好
如
妄
妙
妟
妥
妻
妾
姑
委
姜
威
娄
婁
婴
嬰
嬴
子
孑
孔
孕
孖
字
存
孚
孛
孝
孟
季
孤
学
孫
孱
學
宀
宁
宂
它
宅
宇
守
安
宋
完
宏
宓
宗
官
定
宛
宜
宝
客
宣
室
宮
宰
害
家
容
宾
宿
寄
寅
密
富
寒
察
寧
審
寫
寬
寮
寸
对
寺
寻
寽
対
寿
封
尃
射
将
將
專
尉
尊
尋
尌
對
小
少
尒
尓
尔
尖
尗
尚
尞
尢
尣
尤
尧
尨
尭
就
尸
尹
尺
尻
尼
尽
尾
尿
局
居
屈
屋
屎
屏
屑
展
屖
屚
属
屠
屡
屬
屮
屯
屰
山
屵
屾
岁
岂
岐
岑
岡
岩
岳
岸
峯
島
崇
崎
崑
崔
崖
崙
崩
嵬
嶲
巂
巛
川
州
巟
巠
巢
巤
工
左
巧
巨
巩
巫
差
己
已
巳
巴
巷
巸
巽
巾
巿
帀
市
布
希
帚
帛
帝
带
師
席
帯
帳
帶
常
干
平
年
幵
并
幷
幸
幺
幻
幼
幽
幾
广
広
庄
床
底
店
庚
府
度
庫
庭
庶
康
庸
廉
廌
廛
廣
廩
廴
延
廷
建
廾
廿
开
弁
弃
弄
弇
弋
式
弓
弔
引
弗
弘
弜
弟
弥
弦
弱
張
強
强
彊
彌
彎
彐
彑
当
彔
录
彖
彗
彡
形
彥
彦
彧
彭
彳
役
彼
往
待
律
徒
得
徙
從
復
微
徳
徵
心
忄
必
忌
忍
志
忝
忠
忩
快
念
忽
忿
思
怠
急
怱
恆
恒
恩
恭
息
悉
患
悤
悲
悶
情
惠
惡
惢
愁
愈
意
愛
感
慈
慧
慮
憂
憲
應
戀
戈
戉
戊
戋
戌
戍
戎
成
我
戒
戔
或
戚
戠
戢
截
戲
戶
户
戹
戼
戾
房
所
扁
扇
手
扌
才
打
托
执
承
折
拉
拜
拿
指
掌
推
提
摩
撃
支
攴
攵
收
攸
改
攻
放
政
敄
敏
敕
敖
敗
敝
敞
敢
散
敦
敫
敬
数
敷
數
斂
文
斉
斊
斗
斤
斥
斩
斬
斯
新
方
於
施
斿
旁
旋
族
无
旡
既
旣
日
旦
旧
旨
早
旬
旱
旲
时
旾
昆
昇
昌
昍
明
昏
易
昔
昗
昜
星
春
昬
是
昱
昴
昷
時
晃
晋
晏
普
景
晶
智
暑
暴
曇
曩
曰
曲
曳
更
曷
書
曹
曼
曾
替
最
朁
會
月
有
朋
服
朔
朕
朗
望
朝
木
朩
未
末
本
札
朮
术
朱
朵
朶
朿
杀
李
杏
村
杜
束
条
来
東
杲
杳
松
析
林
枚
果
枝
枲
枼
某
柔
查
柬
柰
柴
査
栃
栗
桀
桑
桜
桶
桼
梁
條
梟
梨
棘
棠
棥
森
楚
業
楽
榮
樂
樊
欠
次
欣
欮
欲
欶
欽
款
歆
歇
歛
止
正
此
步
武
歨
歪
歮
歯
歰
歲
歴
歷
歸
歹
歺
死
殳
段
殷
殸
殹
殺
殻
殿
毋
毌
母
毎
每
毒
比
毕
毚
毛
毳
氏
氐
民
气
氣
水
氵
氶
氷
永
氺
氾
求
汝
汞
江
沃
沓
沖
沙
沝
泉
法
波
泣
泥
泰
洛
洪
活
派
流
浦
浪
浮
海
淡
淮
清
渚
渠
湯
滋
滿
漢
漸
潟
火
灬
灭
灰
灵
灷
炅
炎
炏
炗
炙
炭
為
烈
烏
烝
焉
無
焦
焱
然
煞
熊
熏
燕
營
燮
爪
爫
爭
爯
爰
爱
爲
爵
父
爻
爽
爾
爿
片
牙
牚
牛
牜
牟
牢
牧
牪
特
牽
犀
犬
犭
犮
狂
狄
狊
独
狺
猋
猒
猪
献
獻
玄
率
玉
王
玟
玨
珎
班
琴
瑟
瑩
瓜
瓦
甘
甚
生
産
用
甫
甬
田
由
甲
申
电
甶
男
甸
甹
町
画
甾
畀
界
畏
畐
留
畜
畟
畢
畧
畨
番
畫
異
畱
當
畺
畾
疊
疋
疌
疑
疒
疾
癶
癸
癹
登
發
白
百
皀
皃
的
皆
皇
皋
皐
皕
皮
皷
皿
盃
盆
盇
盈
益
盍
盎
监
盒
盖
盛
盡
監
盤
盧
目
直
相
盾
省
眇
眉
看
県
眔
眞
真
眷
眼
眾
着
睘
睪
睿
瞏
瞢
瞿
矍
矛
矞
矢
矣
知
矦
短
石
破
碎
磊
磨
示
礻
礼
祁
神
祟
票
祭
禀
禁
福
禸
禹
禺
离
禽
禾
禿
秀
秃
秉
秋
科
秝
秦
移
稟
種
穀
穌
穴
究
穹
空
穿
突
窄
窒
立
竒
竜
竝
竟
章
童
竹
笑
笠
筆
等
答
箕
算
管
箴
節
篤
篭
米
粉
粛
粟
粤
粦
粲
糞
糸
糹
系
約
納
素
索
紫
累
細
結
絜
絫
統
絲
維
綿
縄
縣
繇
纍
纟
缶
网
罒
罔
罕
罗
罙
罡
罢
罪
署
罷
羅
羊
羌
羍
美
羔
羕
羗
羞
羡
羣
群
義
羲
羸
羽
翁
翏
習
翕
翟
翠
翼
老
耂
考
者
耆
而
耎
耑
耒
耳
耴
耶
耷
聂
聊
聖
聚
聶
聿
肀
肃
肅
肉
肖
肙
肥
肩
肯
育
肴
胃
背
胡
胥
能
脊
脩
膚
臣
臤
臧
自
臬
臭
臯
臱
至
致
臺
臼
臽
臾
臿
舀
舂
舄
與
興
舉
舌
舍
舛
舜
舞
舟
般
艮
良
色
艸
艹
艾
芒
芔
芬
芮
花
芳
芺
芻
苔
苗
苟
若
苦
英
茶
茸
荅
草
荒
荣
荼
莆
莧
莫
莽
菆
菊
菐
華
萬
落
葉
著
葛
董
葵
蒙
蒦
蒼
蓋
蓬
蓺
蔑
蔡
蕉
蕭
薄
薛
薦
薰
藍
藏
藥
蘭
虍
虎
虐
虒
虔
處
虖
虗
虘
虚
虛
虜
虞
虫
虽
蚤
蚩
蜀
蜜
蟲
蠡
血
行
衍
衛
衣
衤
表
衮
衰
袁
袞
褭
褱
襄
襾
西
覀
要
覃
見
規
覓
覧
親
覽
见
角
解
言
訁
訇
計
詹
語
誩
課
調
諸
讠
语
谷
豆
豈
豊
豐
豕
豖
豙
象
豦
豩
豪
豸
貇
貝
貞
貟
負
貢
貧
貪
貫
責
貳
貴
買
費
賀
賁
資
賈
賏
賓
賔
賛
賞
賢
賣
質
賴
贊
贝
贡
责
贯
贲
贵
赖
赞
赤
赦
走
越
足
路
蹇
身
躬
車
軍
軎
軟
転
輦
车
辛
辜
辟
辥
辰
辱
農
辵
辶
边
达
过
近
连
迷
追
退
送
逆
逐
通
速
造
逢
連
逮
進
遀
遂
過
道
達
遣
適
遷
遺
邊
邑
邕
那
邦
邪
郎
部
郭
都
鄉
酉
酋
配
酓
釆
采
里
重
野
量
金
釒
錢
钅
長
镸
长
門
閃
閉
開
閏
閑
閒
間
閔
閵
閻
闌
门
间
闷
阑
阜
阝
队
阿
降
陳
隆
隊
隋
隡
隨
隱
隶
隹
隺
隻
隼
隽
难
雀
雁
集
雈
雋
雍
雐
雔
雙
雚
雜
雝
離
難
雨
雩
雪
雲
零
雷
電
需
霍
霜
霝
霞
霸
靈
靑
青
非
靡
面
靣
革
韋
韦
韭
韯
韱
音
頁
頃
項
須
頗
頡
頻
顛
页
風
风
飛
飞
食
飠
養
饣
首
香
馬
馮
駦
马
骨
高
髟
鬥
鬯
鬲
鬼
魚
魯
鮮
鱼
鲁
鳥
鳳
鸟
鹵
鹿
麃
麗
麥
麦
麻
黃
黄
黍
黎
黑
黒
黨
黹
黽
黾
鼎
鼓
鼠
鼻
齊
齋
齐
齒
齿
龍
龙
龜
龟
龠
龰
龱
龴
龵
龶
龷
龸
龹
者
艹
ﮔ
ﺁ
ﺍ
ﺎ
ﺏ
ﺑ
ﺒ
ﺖ
ﺗ
ﺘ
ﺟ
ﺠ
ﺣ
ﺧ
ﺩ
ﺪ
ﺭ
ﺮ
ﺰ
ﺳ
ﺴ
ﺷ
ﺸ
ﻁ
ﻂ
ﻃ
ﻏ
ﻕ
ﻗ
ﻛ
ﻟ
ﻠ
ﻣ
ﻤ
ﻥ
ﻦ
ﻧ
ﻨ
ﻩ
ﻪ
ﻫ
ﻬ
ﻭ
ﻮ
ﻯ
ﻰ
ﻳ
ﻴ
﻿
（
）
？
🙏
𠀁
𠀃
𠀆
𠀉
𠀎
𠀐
𠁁
𠁣
𠂆
𠂇
𠂈
𠂉
𠂊
𠂋
𠂎
𠂒
𠂔
𠂛
𠂡
𠂢
𠂤
𠂬
𠂭
𠂹
𠃊
𠃋
𠃌
𠃍
𠃎
𠃑
𠃓
𠃔
𠃜
𠄌
𠄎
𠄠
𠄢
𠆢
𠆥
𠇍
𠈌
𠌵
𠓜
𠔉
𠔥
𠔼
𠔽
𠔿
𠕀
𠕁
𠕋
𠘧
𠘨
𠙻
𠙼
𠚏
𠚒
𠚤
𠚪
𠣏
𠤎
𠤕
𠥓
𠦄
𠦑
𠦝
𠧒
𠧗
𠧪
𠩺
𠪚
𠫓
𠫔
𠫤
𠬛
𠬝
𠬞
𠬢
𠬤
𠬶
𠮛
𠮦
𠮷
𠯑
𠱠
𠳮
𠷎
𡈼
𡉀
𡉵
𡌥
𡍮
𡏳
𡕒
𡕩
𡕰
𡖅
𡗗
𡗜
𡘆
𡘤
𡧱
𡨄
𡩧
𡬠
𡭽
𡰣
𡰥
𡰪
𡰯
𡰱
𡷈
𡸁
𡿨
𡿩
𡿪
𡿺
𢀖
𢀛
𢀩
𢁙
𢆉
𢆰
𢆶
𢇁
𢇇
𢉖
𢌬
𢌿
𢏚
𢑑
𢑚
𢖻
𢙣
𢛳
𢦏
𢦒
𢧵
𢼄
𢾕
𣁋
𣄼
𣅀
𣅽
𣍘
𣎳
𣎵
𣏋
𣏼
𣗥
𣥂
𣥖
𣦵
𣦼
𣧄
𣪊
𣪠
𣬉
𣳾
𣶒
𤇾
𤊽
𤐫
𤓰
𤔔
𤕨
𤣩
𤰇
𤰔
𤰞
𤴓
𤴔
𤽄
𥁑
𥁕
𥃦
𥃩
𥃭
𥇡
𥑟
𥘅
𥘈
𥝢
𥫗
𥱡
𦈢
𦉪
𦉬
𦉼
𦍌
𦍒
𦎧
𦐇
𦓔
𦔮
𦘒
𦙃
𦚏
𦣝
𦣞
𦣻
𦥑
𦥔
𦥯
𦨉
𦭝
𦰩
𧆞
𧈧
𧘇
𧰨
𧴪
𧴮
𧵩
𧾷
𨸏
𨾴
𩙿
𩠐
𩫏
𩵋
𪉷
𪜀
𪟽
𪠲
𪩲
𫇦
𫔭
𫜸
𫝀
𫠣
𫠩
𫢉
𫥞
𫩏
𫩠
𫪡
𫲽
𫶧
𬀷
𬐘
𬗌
𬙙
𬛸
𬜯
𬟩
𬯁
𬴘
𬺻
𬼉
𬼖
𭀰
𭁈
𭁨
𭅰
𭑈
𭕄
𭗼
𭤨
𭥫
𭻾
𮅕
𮊿
𮍌
𮍏
𮓗
𮥼
𮧮
廾
𰀁
𰀄
𰀈
𰀉
𰀕
𰀠
𰀡
𰀢
𰀪
𰁜
𰃮
𰆊
𰆘
𰋙
𰕎
𰢴
𰧭
𰯲
08--
11--
13--
14--
15--
16--
17--
18--
19--
20--
21--
22--
23--
24--
25--
26--
27--
28--
29--
30--
31--
32--
33--
34--
35--
36--
37--
38--
39--
40--
41--
42--
43--
44--
45--
46--
47--
48--
49--
50--
51--
52--
53--
54--
55--
56--
57--
58--
59--
60--
61--
62--
63--
64--
65--
66--
67--
68--
69--
70--
71--
72--
73--
74--
75--
76--
77--
78--
79--
80--
81--
82--
83--
84--
85--
86--
87--
88--
89--
90--
91--
92--
93--
94--
95--
96--
97--
98--
99--
a--
ab--
abo--
abol--
ac--
acco--
acha--
ad--
ae--
aest--
af--
affi--
ag--
ah--
air--
ak--
al--
ale--
alt--
alter--
am--
amor--
an--
ance--
ang--
ano--
anth--
ap--
appe--
appli--
appre--
ar--
arch--
aris--
arm--
as--
assi--
astr--
at--
athl--
atten--
attr--
au--
ave--
ax--
az--
b--
ba--
bag--
bagh--
ball--
bame--
ban--
bar--
bas--
baseb--
bat--
be--
bed--
beg--
bel--
bene--
ber--
bi--
bien--
biol--
birth--
bit--
bla--
ble--
blo--
blue--
bo--
boat--
bol--
bon--
boo--
bourge--
box--
br--
bra--
bre--
break--
bri--
bro--
broad--
bru--
bu--
buck--
budd--
buil--
bun--
bur--
bus--
but--
by--
c--
ca--
cab--
cal--
camp--
can--
cap--
capa--
captu--
car--
cari--
casu--
ce--
cele--
cen--
ch--
cha--
chair--
che--
cho--
chri--
ci--
circu--
cl--
cle--
clo--
clus--
co--
coach--
col--
colle--
coloni--
com--
commer--
compe--
con--
confi--
const--
contr--
coop--
coor--
cor--
corn--
correspon--
cot--
cou--
cove--
cow--
cra--
crafts--
cre--
cri--
cro--
cru--
cu--
cur--
cus--
d--
da--
dam--
day--
de--
defe--
defi--
dem--
depe--
des--
dete--
di--
diffe--
dio--
dis--
discri--
discus--
dispe--
dist--
div--
do--
dol--
dor--
doub--
dr--
du--
dy--
dyna--
e--
ear--
ec--
ed--
ef--
effi--
ei--
el--
elec--
electro--
electrone--
em--
emer--
en--
entre--
ep--
equ--
es--
esca--
et--
eu--
ex--
exam--
excel--
excl--
exis--
exp--
expe--
expl--
extr--
eye--
f--
fa--
fan--
far--
fav--
fc--
fe--
fel--
fer--
fi--
fil--
fire--
fis--
fla--
flo--
flu--
fluor--
fo--
fol--
foot--
for--
fore--
fr--
frag--
fre--
fu--
fun--
fur--
g--
ga--
gang--
gar--
gau--
ge--
gen--
gene--
gentle--
gi--
gil--
gla--
glit--
glyce--
go--
gon--
gos--
gra--
gradu--
grand--
gre--
gri--
gro--
gu--
guar--
gun--
gy--
h--
ha--
hab--
ham--
har--
hard--
has--
hat--
he--
head--
hem--
her--
hi--
high--
ho--
hol--
home--
homo--
hoo--
hor--
horse--
hu--
hum--
hur--
hus--
hy--
hydr--
i--
id--
ide--
illu--
im--
imag--
imit--
imp--
impli--
in--
inc--
indi--
industri--
inf--
infe--
infi--
influ--
ing--
initi--
inse--
inst--
insu--
inter--
inva--
inve--
inven--
io--
ir--
irre--
irri--
is--
it--
iv--
j--
ja--
je--
jes--
ji--
jo--
joy--
ju--
judi--
k--
ka--
kal--
ke--
ker--
key--
kha--
ki--
ko--
ku--
l--
la--
lan--
lau--
law--
le--
legis--
lem--
les--
li--
life--
liqu--
lle--
lo--
lob--
long--
lu--
lubri--
ly--
m--
ma--
mac--
mach--
mad--
mag--
magni--
mah--
mal--
man--
mar--
mari--
mas--
mau--
mcc--
me--
mem--
memo--
mer--
mes--
metr--
mi--
mic--
micro--
mid--
min--
mis--
mist--
mo--
mon--
monas--
mor--
mos--
mu--
mul--
multi--
mur--
my--
myste--
n--
na--
nar--
ne--
neck--
neighbor--
nel--
neu--
neutr--
new--
news--
ni--
no--
nob--
non--
nor--
nu--
nut--
ny--
o--
obe--
obje--
obli--
observa--
occ--
off--
on--
oo--
op--
opp--
or--
orch--
orth--
os--
out--
over--
p--
pa--
pac--
pal--
pan--
par--
para--
pas--
pat--
path--
pay--
pe--
pen--
per--
ph--
philan--
pho--
phosp--
physi--
pi--
pic--
pictu--
pil--
pin--
pit--
pl--
plat--
play--
ple--
plu--
po--
pol--
poly--
pon--
por--
pos--
pot--
pr--
pre--
pro--
pros--
pseu--
psy--
psych--
pu--
pul--
pun--
pur--
puzz--
py--
q--
qa--
qu--
quad--
quarter--
quat--
quin--
quo--
r--
ra--
rad--
radi--
rail--
ram--
ran--
rap--
ratt--
re--
rela--
reve--
ri--
ro--
rou--
ru--
s--
sa--
sal--
sales--
sam--
sc--
sce--
sch--
scre--
se--
sea--
seces--
secu--
sei--
sele--
sen--
ser--
ses--
sh--
sha--
shi--
sho--
show--
shut--
si--
side--
sil--
six--
sk--
skep--
sla--
slo--
smo--
sna--
sne--
sno--
snow--
so--
soc--
soci--
sol--
soli--
some--
sop--
sor--
sou--
sp--
spe--
speci--
spect--
spl--
spo--
spon--
spr--
spu--
squ--
st--
stair--
ste--
step--
sti--
sto--
store--
stra--
stre--
stu--
su--
sub--
summ--
sun--
super--
supp--
sur--
sus--
suspi--
sven--
sw--
swe--
sy--
symb--
symp--
syn--
t--
ta--
tan--
te--
teac--
techni--
tem--
ten--
th--
ti--
to--
top--
tor--
tr--
tram--
tran--
tranqu--
trans--
trap--
tre--
tri--
tro--
tru--
tu--
tun--
tur--
turn--
tw--
ty--
u--
un--
under--
up--
ur--
ura--
ure--
us--
utop--
v--
va--
var--
ve--
ven--
ver--
vi--
vin--
vine--
virg--
vo--
w--
wa--
wal--
war--
wash--
water--
we--
web--
week--
wel--
west--
whe--
wid--
wil--
win--
wind--
wine--
wis--
wit--
wo--
woo--
wood--
wor--
work--
wro--
x--
xa--
xan--
xanth--
xe--
xen--
xeno--
xenog--
xenop--
xero--
xip--
xy--
xyli--
xylo--
xylop--
y--
ya--
yachts--
yan--
yar--
yard--
ye--
year--
yel--
yeo--
yes--
yo--
yog--
yoke--
yt--
yu--
z--
za--
zan--
ze--
zem--
zi--
zil--
zin--
zir--
ziw--
zo--
zoan--
zodi--
zon--
zonu--
zoo--
zoog--
zool--
zoop--
zoroastr--
zos--
zu--
zy--
zygo--
zygod--
œ--
ا--
اب--
ابر--
ابو--
ابول--
ابی--
ات--
اتا--
اج--
اح--
اخت--
اد--
ار--
ارت--
ارز--
ارس--
ارغ--
از--
اس--
اساس--
است--
استث--
استع--
اسک--
اش--
اص--
اع--
اعتماد--
اف--
افت--
افر--
ال--
الا--
الب--
الح--
الخ--
الع--
الق--
الم--
الک--
الی--
ام--
امر--
امپری--
امیر--
ان--
انت--
اند--
انی--
اهو--
او--
اوت--
اور--
اوردو--
اوز--
اوس--
اول--
اون--
اک--
اکس--
اکست--
ای--
ایسل--
ایل--
این--
ایو--
ب--
با--
بات--
بار--
باز--
باس--
باش--
باغ--
بال--
بان--
باک--
بای--
بت--
بحر--
بخش--
بد--
بر--
برا--
برد--
برگ--
بری--
بز--
بزرگ--
بس--
بع--
بل--
بلا--
بلو--
بلی--
بم--
بن--
بندر--
بنوي--
به--
بو--
بول--
بون--
بوک--
بي--
بک--
بگرد--
بی--
بیا--
بیت--
بیس--
بین--
بیو--
بە--
ت--
تا--
تاب--
تار--
تاپور--
تای--
تب--
تج--
تح--
تحق--
تد--
تر--
ترا--
ترو--
ترک--
تری--
تزی--
تش--
تص--
تع--
تف--
تل--
تم--
تن--
تنگ--
ته--
تو--
تون--
تونکا--
تک--
تی--
تیر--
تیم--
ث--
ثر--
ثیر--
ج--
جا--
جان--
جاو--
جر--
جز--
جغرا--
جل--
جم--
جن--
جه--
جو--
جور--
جی--
ح--
حج--
حد--
حس--
حو--
خ--
خا--
خاس--
خان--
خاور--
خد--
خدا--
خر--
خرم--
خس--
خش--
خو--
خود--
خور--
خوش--
خون--
خی--
د--
دا--
داد--
دار--
دارو--
داس--
دام--
دان--
دب--
در--
درب--
درو--
دریا--
دس--
دست--
دف--
دق--
دك--
دل--
دلا--
دم--
دن--
ده--
دو--
دوا--
دور--
دوق--
دول--
دي--
دک--
دکل--
دگر--
دی--
دیا--
دید--
دیر--
دیس--
دیم--
دیو--
ذ--
ذر--
ر--
را--
راد--
رام--
ران--
راه--
رای--
رب--
رت--
رج--
رخ--
رد--
رز--
رس--
رسن--
رش--
رق--
رم--
رن--
رنگ--
ره--
رو--
رود--
روز--
روش--
رون--
روو--
ري--
رپ--
رک--
ری--
ریس--
ز--
زا--
زاد--
زار--
زر--
زع--
زم--
زن--
زند--
زو--
زي--
زک--
زی--
زیر--
س--
سا--
سات--
سال--
سام--
ساک--
ست--
سح--
سد--
سر--
سرخ--
سرد--
سرو--
سس--
سف--
سل--
سم--
سن--
سه--
سو--
سوار--
سوز--
سوم--
سوپر--
سوی--
سک--
سگ--
سی--
سید--
سیر--
سیل--
سیم--
سیو--
ش--
شا--
شاء--
شاد--
شار--
شام--
شان--
شاه--
شب--
شد--
شر--
شش--
شع--
شعر--
شم--
شن--
شه--
شهر--
شو--
شوع--
شپز--
شک--
شی--
شیر--
ص--
صح--
صد--
صدا--
صف--
ض--
ضد--
ضیاء--
ط--
طا--
طاع--
طال--
ظ--
ع--
عا--
عبد--
عبدال--
عص--
عض--
عق--
عل--
علا--
علم--
علی--
عن--
عکس--
غ--
غا--
غم--
غیر--
ـ--
ــ--
ف--
فا--
فار--
فاط--
فر--
فرا--
فری--
فش--
فن--
فو--
فور--
فون--
فی--
فیلم--
ق--
قا--
قار--
قامش--
قرار--
قص--
قو--
ك--
كار--
كاس--
كم--
كي--
ل--
لا--
لار--
لال--
لان--
لاپ--
لاک--
لب--
لت--
لد--
لر--
لس--
لل--
لم--
لن--
له--
لو--
لوا--
لوف--
لوم--
لون--
لک--
لی--
لیو--
م--
ما--
مات--
مار--
مال--
مان--
مب--
مت--
متا--
مجا--
مح--
محمد--
مخ--
مد--
مر--
مرج--
مرك--
مرو--
مز--
مزار--
مس--
مست--
مش--
مشک--
مص--
مع--
مف--
مفع--
مق--
مل--
ملا--
ملی--
مم--
ممد--
من--
مه--
مهر--
مو--
موت--
مور--
مورا--
موع--
مون--
مي--
مپ--
مک--
می--
میر--
میز--
ن--
نا--
ناب--
نات--
نار--
ناع--
نام--
نب--
نت--
نخ--
ند--
ندا--
ندو--
نر--
نش--
نص--
نصیر--
نف--
نما--
نن--
نه--
نو--
نوت--
نور--
نوش--
نوم--
نوو--
نوي--
ني--
نژ--
نژاد--
نی--
نیا--
نیش--
نین--
نیو--
نیک--
نیی--
ه--
ها--
هاد--
هاپ--
های--
هدا--
هذی--
هر--
هرس--
هس--
هم--
همي--
هنگ--
هو--
هوا--
هون--
هک--
هی--
هیس--
هیچ--
و--
وا--
وات--
واس--
وال--
وب--
وت--
ور--
ورد--
وری--
وز--
وش--
وف--
وفا--
ول--
ولو--
ون--
وند--
وه--
وو--
وک--
وی--
ویت--
ویس--
ویشتر--
ویل--
وین--
ویو--
ي--
٢--
٢٠--
پ--
پا--
پاس--
پال--
پان--
پاک--
پای--
پر--
پرت--
پرس--
پرو--
پرولت--
پری--
پس--
پشت--
پط--
پل--
پن--
په--
پو--
پور--
پوش--
پچ--
پژو--
پی--
پیر--
پیس--
پیش--
پیک--
چ--
چا--
چار--
چاپ--
چرک--
چشم--
چل--
چم--
چن--
چند--
چو--
چک--
چی--
ژ--
ژا--
ژن--
ژو--
ژی--
ک--
کا--
کار--
کال--
کام--
کان--
کاو--
کاک--
کبود--
کت--
کتاب--
کث--
کد--
کر--
کرد--
کرو--
کس--
کش--
کف--
کل--
کلا--
کلی--
کم--
کما--
کن--
کنس--
که--
کو--
کوا--
کوب--
کور--
کوم--
کون--
کوهن--
کوچ--
کپ--
کی--
کیا--
کە--
گ--
گا--
گت--
گد--
گر--
گرا--
گرد--
گرم--
گرگ--
گری--
گز--
گس--
گل--
گم--
گن--
گو--
گور--
گوم--
گون--
گوگ--
گي--
گی--
گیل--
ی--
یا--
یاد--
یار--
یدا--
یر--
یس--
ین--
یه--
یو--
یور--
یون--
یک--
یی--
۳۳۳--
۸۳۳--
--0
--00
--01
--02
--03
--04
--05
--06
--07
--08
--09
--1
--10
--11
--12
--13
--14
--15
--16
--17
--18
--19
--2
--20
--21
--22
--23
--24
--25
--26
--27
--28
--29
--3
--30
--31
--32
--33
--34
--35
--36
--37
--38
--39
--4
--40
--41
--42
--43
--44
--45
--46
--47
--48
--49
--5
--50
--51
--52
--53
--54
--55
--56
--57
--58
--59
--6
--60
--61
--62
--63
--64
--65
--66
--67
--68
--69
--7
--70
--71
--72
--73
--74
--75
--76
--77
--78
--79
--8
--80
--81
--82
--83
--84
--85
--86
--87
--88
--89
--9
--90
--91
--92
--93
--94
--95
--96
--97
--98
--99
--a
--ability
--able
--ace
--acy
--ad
--ade
--ae
--age
--ah
--aire
--aj
--ak
--al
--ale
--alism
--ality
--alization
--am
--an
--ance
--ancy
--ane
--anism
--ant
--ar
--ard
--ari
--arity
--ary
--as
--ase
--at
--ata
--ate
--ater
--ation
--ations
--ative
--ato
--ator
--au
--avy
--aw
--ay
--b
--ba
--bag
--be
--ber
--berry
--bility
--ble
--bo
--boat
--book
--bot
--box
--boy
--break
--bs
--bug
--by
--c
--ca
--cal
--ce
--cence
--cent
--cer
--cern
--ces
--ch
--che
--chy
--ci
--cism
--ck
--cle
--co
--coat
--cracy
--cs
--ct
--ction
--ctions
--ctor
--cut
--cy
--d
--da
--dation
--day
--de
--ded
--der
--di
--dium
--dle
--do
--dog
--dom
--dor
--dra
--dro
--ds
--duct
--dy
--e
--ea
--ean
--ed
--ee
--eer
--ef
--eh
--ein
--ek
--el
--em
--ement
--emia
--en
--ence
--ency
--ene
--ened
--ent
--ential
--eology
--eon
--ep
--eption
--er
--ere
--erer
--ern
--ers
--ert
--ery
--es
--ess
--et
--ety
--eur
--ever
--ew
--ex
--ey
--f
--ference
--fession
--fessional
--fessor
--ff
--fic
--fish
--flow
--folk
--friend
--ft
--ful
--fulness
--fusion
--g
--ga
--ge
--gen
--ger
--gh
--ght
--gi
--gin
--gle
--go
--gon
--graph
--graphy
--gree
--gun
--gy
--h
--hand
--he
--head
--hension
--hi
--hip
--hood
--hy
--i
--ia
--ial
--ian
--ians
--iation
--ib
--ibility
--ic
--ica
--ical
--ich
--icism
--ick
--icle
--id
--idae
--ide
--ided
--idence
--ident
--ie
--ier
--ies
--ificance
--ight
--ik
--il
--ile
--ility
--ill
--illa
--im
--ime
--imer
--in
--ina
--ination
--ine
--ing
--ings
--inity
--io
--ion
--ional
--ionist
--ions
--ior
--iot
--ique
--ir
--is
--isation
--ise
--ish
--isk
--ism
--ist
--it
--ite
--ities
--ition
--itism
--itor
--itude
--ity
--ium
--ivation
--ive
--iver
--ivism
--ivity
--ix
--iya
--iz
--ization
--izer
--j
--ji
--k
--ka
--ke
--keeper
--ker
--ket
--ki
--kle
--l
--la
--land
--lar
--lay
--ld
--le
--ledge
--ler
--let
--ley
--lf
--lgia
--lia
--line
--lism
--lite
--lity
--lization
--lk
--lky
--ll
--lla
--lle
--lly
--lm
--lon
--lop
--lor
--lp
--lry
--ls
--lt
--lude
--lusion
--ly
--m
--ma
--man
--manship
--master
--mate
--mb
--mber
--mbia
--me
--men
--ment
--mer
--meters
--mi
--mia
--mise
--mn
--mo
--mp
--ms
--mum
--my
--n
--na
--nard
--nc
--nce
--ncy
--nd
--nda
--nder
--ne
--ned
--nel
--ner
--nes
--ness
--news
--ng
--nge
--nger
--ni
--nia
--nic
--ning
--nism
--nist
--nity
--nk
--nn
--nne
--no
--nol
--ns
--nsky
--nt
--ntice
--nts
--nty
--ny
--o
--ock
--od
--oe
--off
--ogist
--ography
--ogue
--ogy
--oid
--oit
--ok
--ol
--oli
--olis
--ology
--oly
--om
--on
--ons
--oo
--oon
--op
--opy
--or
--ora
--oration
--orm
--ors
--ort
--ory
--ot
--ots
--ough
--ous
--out
--ov
--ow
--oy
--p
--payment
--pe
--ped
--ph
--phy
--piece
--po
--ponsibility
--port
--post
--prise
--pt
--py
--q
--r
--ra
--rade
--ram
--raph
--raphy
--rator
--rb
--rd
--re
--ree
--rel
--rence
--rer
--rey
--rf
--rge
--ri
--ria
--rier
--rin
--rist
--rity
--rm
--rmal
--rn
--rno
--ro
--room
--ropy
--rs
--rship
--rt
--run
--ry
--s
--sa
--sal
--sc
--sciousness
--se
--selves
--ser
--servation
--sh
--ship
--si
--sia
--side
--sight
--sion
--sis
--sistence
--sity
--sm
--sman
--smen
--so
--som
--son
--sp
--ss
--ssa
--sse
--ssion
--st
--stein
--ster
--stic
--stity
--struction
--sty
--suit
--sul
--sy
--t
--ta
--tage
--tal
--tan
--tance
--tation
--te
--ted
--tee
--tein
--ter
--th
--ti
--tial
--tic
--time
--tinent
--ting
--tion
--tist
--tive
--tle
--to
--ton
--tone
--tor
--try
--ts
--tte
--ttle
--tude
--tum
--ture
--tus
--ty
--tz
--u
--ual
--uation
--ud
--ude
--ue
--uet
--uff
--ug
--ugh
--ught
--ul
--ula
--ult
--um
--ump
--un
--una
--une
--up
--ur
--ure
--urer
--urse
--us
--ut
--ute
--utes
--ution
--v
--va
--val
--ve
--ver
--vy
--w
--way
--wd
--weight
--wn
--wood
--work
--ws
--x
--y
--ya
--yan
--yard
--ye
--yer
--yet
--yl
--ym
--z
--za
--zation
--ze
--zz
--и
--я
--ء
--ا
--اء
--اب
--ابه
--ابی
--ات
--اتور
--اتی
--اج
--اد
--ار
--ارا
--ارد
--ارک
--اری
--از
--اس
--اش
--اط
--اغ
--اق
--اقات
--اقون
--ال
--الیا
--ام
--اما
--ان
--انا
--انت
--انه
--انژ
--انی
--اه
--او
--اي
--اچی
--اک
--ای
--ایش
--ایی
--ب
--با
--بار
--بت
--بد
--بر
--بری
--بن
--به
--بو
--بون
--بی
--ة
--ت
--تا
--تال
--تان
--تب
--تر
--ترین
--تز
--تس
--تف
--تل
--تن
--ته
--تو
--تون
--تي
--تک
--تکین
--تی
--تین
--تیک
--ث
--ج
--جا
--جان
--جرد
--جش
--جل
--جه
--جو
--جی
--ح
--حا
--حر
--حله
--حی
--خ
--خار
--خان
--خانه
--خت
--خته
--خنه
--خی
--د
--دا
--داء
--دار
--دان
--در
--دره
--دز
--دس
--دشت
--دل
--دن
--ده
--دهی
--دو
--دون
--دي
--دگی
--دی
--ذ
--ذب
--ر
--را
--رت
--رد
--ردو
--رز
--رس
--رست
--رستی
--رش
--رم
--رمو
--رن
--ره
--رو
--رود
--ري
--رک
--ری
--ریا
--ریت
--ز
--زا
--زل
--زه
--زو
--زپ
--زی
--زیون
--س
--سا
--سازان
--سازی
--سبی
--ست
--ستر
--سته
--ستوي
--ستی
--سر
--سف
--سل
--سلاو
--سلی
--سم
--سن
--سه
--سو
--سون
--سک
--سکی
--سی
--سیه
--ش
--شا
--شاء
--شاه
--شت
--شن
--شه
--شهر
--شو
--شون
--شی
--ص
--صد
--صر
--ض
--ضا
--ضه
--ضی
--ط
--طه
--طور
--ظ
--ظر
--ع
--عات
--عت
--عد
--علی
--عه
--عی
--غ
--غر
--غی
--ـ
--ـه
--ف
--فة
--فت
--فر
--فه
--فی
--فیت
--فین
--ق
--قال
--قان
--قب
--قت
--قلال
--قه
--قی
--ك
--ل
--لا
--لت
--لد
--لر
--لن
--له
--لو
--لی
--لین
--لیه
--م
--ما
--مان
--ماه
--مبی
--مر
--مرد
--مل
--مم
--من
--مند
--مه
--مو
--می
--مین
--ن
--نا
--نامه
--ناک
--نب
--نت
--ند
--نده
--ندگی
--نر
--نز
--نس
--نش
--نع
--نن
--ننده
--نه
--نو
--نومه
--ني
--نچ
--نژه
--نک
--نگ
--نی
--نیک
--ه
--ها
--های
--هش
--هم
--هو
--هی
--و
--وا
--وال
--وب
--وت
--ود
--ور
--ورا
--وز
--وزا
--وس
--وسی
--وش
--وع
--وف
--وفر
--وق
--ول
--ولا
--وم
--وما
--ومه
--ون
--ونا
--ونت
--ونس
--ونه
--ونی
--وه
--ووا
--وي
--وک
--وی
--ویا
--ویر
--ویل
--ویچ
--ى
--ي
--يت
--يد
--ير
--يل
--يم
--ين
--يه
--يي
--٠
--پ
--پا
--پر
--پل
--پن
--پی
--چ
--چه
--چو
--چی
--ژ
--ژه
--ک
--کا
--کاتا
--کار
--کر
--کس
--کش
--کل
--کلا
--کن
--که
--کو
--کی
--گ
--گا
--گان
--گاه
--گاي
--گر
--گرا
--گری
--گو
--گون
--گی
--گیر
--گین
--ی
--یا
--یان
--یای
--یة
--یت
--یج
--ید
--یدن
--یده
--یر
--یز
--یزه
--یس
--یست
--یسم
--یش
--یقی
--یل
--یم
--ین
--ینا
--ینو
--ینگ
--ینگهام
--یه
--یو
--یوس
--یون
--یپ
--یک
--یکس
--یکی
--یی
--ە
--۰
--۰۰
--۰۶
--۱
--۱۱
--۱۷
--۲
--۲۲
--۲۸
--۳
--۳۳
--۳۹
--۴
--۴۴
--۵
--۵۶
--۶
--۶۱
--۶۷
--۷
--۷۲
--۷۸
--۸
--۸۳
--۸۹
--۹
--۹۴
