!
"
#
##0
##1
##10
##11
##12
##13
##14
##15
##16
##17
##18
##19
##2
##20
##21
##22
##23
##24
##25
##26
##27
##28
##29
##3
##30
##31
##32
##33
##34
##35
##36
##37
##38
##39
##4
##40
##41
##42
##43
##44
##45
##46
##47
##48
##49
##5
##50
##51
##52
##53
##54
##55
##56
##57
##58
##59
##6
##60
##61
##62
##63
##64
##65
##66
##67
##68
##69
##7
##70
##71
##72
##73
##74
##75
##76
##77
##78
##79
##8
##80
##81
##82
##83
##84
##85
##86
##87
##88
##89
##9
##90
##91
##92
##93
##94
##95
##96
##97
##98
##99
$
%
&
'
(
)
*
+
,
-
.
/
0
00
000
00049
001
002
003
0031
004
007
008
009
01
012
014
0170
02
020
021
022
025
027
03
030
031
032
033
035
038
04
040
04498
047
05
050
055
057
058
06
061
063
065
066
067
07
0732
074
07597
08
09
090
092
093
096
09874
1
10
100
1000
10000
1004
101
1015
1018
1019
102
1024
1025
1028
103
104
1046
105
1055
106
1060
1061
10617
1065
1066
107
1077
108
1080
1088
109
10917
1096
1097
1099
11
110
1100
1106
111
11116
112
1125
1126
1129
113
1130
1135
114
1140
1141
1147
115
1152
1154
116
1164
1168
117
118
119
1191
1194
1197
12
120
1200
121
122
1220
1221
1226
1227
123
1232
1238
124
1241
125
1250
1254
1258
126
1265
1266
127
1273
1275
1276
128
1289
129
1290
13
130
1300
1302
1304
1306
1307
1308
1309
131
1310
1311
1319
132
1320
1321
1327
133
1334
1337
1339
134
1343
1344
1345
1347
1348
135
1350
1356
1359
136
1362
1364
1365
137
1370
1372
1376
138
1382
1383
1386
139
1391
1393
1397
1399
14
140
1400
1401
1403
141
1413
1415
1417
1419
142
1420
1425
1426
1427
1428
1429
143
1430
1435
1436
1439
144
1440
1441
1442
1444
1445
1447
1449
145
1450
1451
1453
1455
1457
1458
1459
146
1460
1461
1464
1465
1469
147
1471
1472
1473
1475
1477
1478
148
1480
1481
1482
1483
1485
1486
1487
1489
149
1490
1492
1493
1494
1495
1496
1497
1498
1499
15
150
1500
1501
1502
1503
1504
1505
1506
1508
1509
151
1510
1511
1512
1513
1514
1515
1516
1517
1518
1519
152
1520
1521
1522
1523
1524
1525
1526
1527
1528
1529
153
1530
1532
1533
1534
1535
1536
1537
1538
1539
154
1540
1541
1542
1543
1544
1545
1546
1547
1548
1549
155
1550
1551
1552
1553
1554
1555
1557
156
1560
1562
1563
1564
1565
1567
1568
1569
157
1570
1571
1572
1573
1574
1575
1576
1577
1578
1579
158
1580
1581
1582
1585
1586
1587
1588
1589
159
1590
1591
1592
1593
1594
1595
1596
1597
1598
1599
16
160
1600
1601
1602
1603
1604
1605
1606
1607
1608
1609
161
1610
1611
1612
1613
1614
1615
1616
1617
1618
1619
162
1620
1621
1622
1623
1624
1625
1626
1627
1628
1629
163
1630
1631
1632
1633
1634
1635
1636
1637
1638
1639
164
1640
1641
1642
1643
1645
1647
1648
1649
165
1650
1651
1652
1654
1655
1656
1657
1658
1659
166
1660
1661
1662
1663
1664
1665
1666
1667
1668
1669
167
1670
1671
1672
1673
1674
1675
1676
1677
1678
1679
168
1680
1683
1685
1688
1689
169
1690
1691
1695
1696
1697
1698
1699
17
170
1700
1701
1702
1703
1704
1705
1706
1707
1708
1709
171
1710
1711
1712
1713
1714
1716
1717
1719
172
1720
1721
1722
1723
1725
1726
1727
1728
173
1730
1731
1732
1733
1735
174
1740
1741
1742
1744
1745
1746
1747
1748
1749
175
1750
1751
1754
1755
1756
1757
1758
1759
176
1760
1761
1762
1763
1764
1765
1766
1767
1768
1769
177
1770
1771
1772
1773
1774
1775
1776
1777
1778
1779
178
1780
1781
1782
1783
1784
1785
1786
1787
1788
1789
179
1790
1791
1792
1793
1794
1795
1796
1797
1798
1799
18
180
1800
1801
1802
1803
1804
1805
1806
1807
1808
1809
181
1810
1811
1812
1813
1814
1815
1816
1817
1818
1819
182
1820
1821
1822
1823
1824
1825
1826
1827
1828
1829
183
1830
1831
1832
1833
1834
1835
1836
1837
1838
1839
184
1840
1841
1842
1843
1844
1845
1846
1847
1848
1849
185
1850
1851
1852
1853
1854
1855
1856
1857
1858
1859
186
1860
1861
1862
1863
1864
1865
1866
1867
1868
1869
187
1870
1871
1872
1873
1874
1875
1876
1877
1878
1879
188
1880
1881
1882
1883
1884
1885
1886
1887
1888
1889
189
1890
1891
1892
1893
1894
1895
1896
1897
1898
1899
19
190
1900
1901
1902
1903
1904
1905
1906
1907
1908
1909
191
1910
1911
1912
1913
1914
1915
1916
1917
1918
1919
192
1920
1921
1922
1923
1924
1925
1926
1927
1928
1929
193
1930
1931
1932
1933
1934
1935
1936
1937
1938
1939
194
1940
1941
1942
1943
1944
1945
1946
1947
1948
1949
195
1950
1951
1952
1953
1954
1955
1956
1957
1958
1959
196
1960
1961
1962
1963
1964
1965
1966
1967
1968
1969
197
1970
1971
1972
1973
1974
1975
1976
1977
1978
1979
198
1980
1981
1982
1983
1984
1985
1986
1987
1988
1989
199
1990
1991
1992
1993
1994
1995
1996
1997
1998
1999
2
20
200
2000
2001
2002
2003
2004
2005
2006
2007
2008
2009
201
2010
2011
2012
2013
2014
2015
2016
2017
2018
2019
202
2020
2021
2022
2024
2026
2028
203
204
205
2050
206
207
208
209
2090
21
210
211
212
213
214
215
216
217
218
219
22
220
2200
221
222
223
224
2248
225
2250
226
227
228
229
23
230
231
232
233
234
235
236
237
2376
238
239
24
240
241
242
2425
243
244
2443
245
246
247
248
249
25
250
2500
251
252
253
254
255
256
257
258
259
26
260
261
262
263
265
266
267
268
269
27
270
2700
271
272
273
274
275
276
277
278
279
28
280
281
282
283
284
285
286
287
288
289
29
290
291
2912
292
293
294
295
296
297
298
299
3
30
300
3000
301
302
303
304
30450
305
306
307
308
309
31
310
311
312
313
314
315
316
317
318
32
320
321
322
323
324
325
326
327
329
33
330
331
332
333
334
335
337
338
339
34
340
34075
341
342
344
345
346
347
348
349
35
350
3500
351
352
353
354
355
356
357
358
359
36
360
361
362
363
364
365
367
368
369
37
370
371
372
373
374
375
376
377
378
379
38
380
381
3810
382
383
384
385
386
387
388
389
39
390
391
392
393
394
395
396
397
398
4
40
400
4000
401
402
403
405
406
407
408
409
41
410
412
413
414
415
416
417
418
419
42
420
421
4217
422
423
424
425
426
427
428
429
43
430
431
432
434
435
436
437
438
439
44
440
442
443
444
445
446
447
448
45
450
4500
451
452
454
455
456
458
46
460
4600
461
462
463
464
465
467
468
469
47
470
472
474
476
478
479
48
480
481
482
483
484
485
486
487
488
489
49
490
491
492
493
495
496
497
499
5
50
500
5000
501
502
503
504
505
507
508
509
51
510
511
513
514
515
516
518
52
520
521
522
523
524
525
526
527
529
53
530
531
533
534
536
539
54
540
542
543
544
547
548
55
550
5500
551
552
554
556
558
56
560
5600
561
562
564
565
567
568
57
5700
571
572
575
5776
578
5789
58
580
581
582
583
585
586
587
588
589
59
590
591
593
595
596
597
598
6
60
600
6000
601
602
603
604
606
607
608
61
610
611
612
613
614
616
617
6171
62
622
623
625
626
628
629
63
630
6310
632
633
634
639
64
640
641
642
643
644
647
65
650
651
652
656
657
66
660
661
663
665
666
668
669
67
670
6700
671
673
674
676
6768
678
679
68
680
681
683
688
689
69
690
691
694
695
697
7
70
700
7000
701
702
705
707
709
71
711
714
716
718
719
72
720
723
724
725
726
728
73
730
73048
731
733
734
735
74
740
741
743
746
747
749
75
750
7500
751
752
753
754
755
757
759
76
760
761
762
763
764
766
767
768
769
77
770
772
775
777
78
780
781
782
784
785
786
787
7873
789
79
790
791
792
7920
793
794
796
7963
797
798
8
80
800
801
8018
802
804
8047
805
807
808
809
81
810
811
812
814
815
816
8168
817
819
82
820
821
822
825
8270
828
8289
83
830
833
834
836
838
839
84
840
842
843
844
845
846
848
849
85
850
852
855
856
858
859
86
860
861
864
865
866
86795
868
869
87
870
871
87118
873
87358
875
876
88
880
88007
882
883
884
88441
885
888
89
890
893
89598
896
897
898
9
90
900
9000
902
905
906
908
909
91
910
916
919
92
921
921516
923
923675
925
928
928327
93
931
934
937
937467
937872
938
939
94
940
944
945
947
949
95
950
952
953
955
96
960
962
963
965
966
968
969
97
973
974
975
978
98
9801728
981
982
985
986
987
989
99
990
992
993
994
995
998
999
:
;
<
=
>
?
@
\
^
_
`
a
aa
aabbcc
aachen
aaden
aadenden
aadenjene
aadenten
aadentied
aaiere
aain
aal
aalborg
aalda
aalen
aalke
aalmantou
aaln
aaltied
aaltiede
aaltouhoope
aan
aangrenzende
aanstriekede
aantje
aape
aapel
aapelboome
aapele
aapelsoarte
aaren
aargau
aarhus
aaron
aartsbiskop
aas
aasked
aaskeden
aaskenge
aaskengen
aasket
aaskje
aaskjen
aast
aastdeel
aastdu
aaste
aastelk
aastelke
aastelken
aasten
aaster
aasterfoan
aasterhusen
aasterkaante
aasterlauwersfra
aastersiede
aastersk
aasteuropa
aastfoan
aastfoon
aastfra
aastgebiete
aastindien
aastkuste
aastlauwersk
aastpru
aastrauderfeen
aastriek
aastrieker
aastriekisk
aastriekiske
aastriekisken
aastrieksk
aastriekske
aastrieksken
aastsee
aastsiede
aaststellingwerf
aate
ab
abaucourt
abbe
abbey
abc
abd
abe
abel
abels
abenteuer
aber
aberglaube
aberratio
aberration
abessinien
abies
abietinus
abituur
abolition
aborigines
about
abraham
abrahamitiske
abrocomidae
abruzzen
absatz
absolut
absolute
absolutismus
absorbierd
abstrahierjen
abstrakt
abstrakte
abstrakten
abstrakter
abstraktion
abt
abta
abteikirche
abu
abwarten
abzog
ac
academia
academy
access
accipiter
account
aceh
acetosa
acheron
achgelis
achillea
achse
achta
achte
achter
achtkant
achtkarspelen
ackerbow
acolhua
aconcagua
aconitum
acorus
acrylfaawen
acrylmoalera
act
actinoid
actinoide
action
actium
active
aculeata
ad
adam
adams
additive
addrup
adeel
adelheid
adelphobates
adenauer
adenin
adenosindiphosphat
adenosintriphosphat
ader
adj
adjektiv
adjektive
adler
administration
administrativ
administrative
admiroal
adnan
adolf
adolph
adp
adra
adressoaten
adria
adriatiske
adrien
adspirate
adstroatsproake
adventure
ae
aegilops
aegopodium
aegyptiacus
aemilia
aemilius
aeneas
aeneis
aes
aeshna
aethusa
af
afbeelding
afd
affa
affekoat
afghanen
afghaniske
afghanisken
afghanistan
afonso
afr
africa
african
africana
afrika
afrikoa
afrikoansk
afrikoanske
afro
after
aftermath
afu
afwa
ag
agamemnon
agatha
age
ageld
agena
agent
agentur
ages
agg
agglomeration
aggressive
aglais
agnon
agostino
agra
agrariske
agricola
aguila
aguilar
aguirre
agyekum
ah
ahd
ahl
ahlers
ahlrich
ahlrichs
ahmad
ahmed
ai
aichach
aid
aide
aiegers
ailound
ailoundbewoonere
ailounddialekte
ailounde
ailoundegruppe
ailoundgruppe
ailoundkoppel
ailoundkoppele
ailoundsa
ailoundstoat
ailuridae
aime
ain
aincreville
ainewa
ainewaine
air
aire
aires
airlander
airlines
airport
ais
aisjans
aiske
aiskylos
ait
aiter
aja
aka
akademie
akademiske
akademisken
akademismus
akademy
akadier
akadisk
akbar
akihito
akira
akker
akkrum
akroat
akropolis
akseptierje
akte
akten
aktion
aktions
aktionspotentioal
aktionspotentioale
aktiv
aktive
aktivierenge
aktivierengsenergie
aktivisten
aktivita
aktsjoon
aktua
aktualisierde
aktualisierte
aktuell
aktuelle
akzeleration
akzentuierjen
akzentuierten
akzeptanz
akzeptierd
al
ala
alabama
alacant
alagoas
alain
alam
alamo
alan
alanin
alaska
alauda
alb
alba
albada
albaner
albanien
albanisk
albe
alben
albers
albert
alberti
alberto
albertus
albicollis
albin
albinismus
albrecht
album
albums
alca
alchemiste
alcon
ald
aldegea
aldehaske
aldhoarne
aldrin
aldskoat
ale
aleenich
aleenige
aleer
alejandro
aleksander
aleksandr
alemanniske
alessandri
alessandro
alex
alexander
alexandra
alexandre
alexandria
alexandrie
alexandrowitsch
alexei
alfabet
alfred
alfte
algarven
algemeen
algemeene
algemeenen
algen
algerien
algiske
algonkin
ali
alice
alighieri
align
alignbars
aliierde
alija
alkalimetal
alkalimetalle
alkaloide
alkan
alkane
alkmaar
alkohol
alkoholiske
all
alla
allan
alle
allebee
alledeege
alleenich
alleenigen
alleenspieler
allegorie
allegorien
allegorisk
allegoriske
allemoale
allen
allende
aller
allerdings
allerdjoopste
allere
allereerste
alleren
allerhound
allerla
allerwaiens
allerweegense
alles
alleweegense
allgemeine
alliance
allianz
allierde
allierden
alliierde
allinich
alliteratsjoon
allium
allmusic
allochthon
allochthone
allophone
allotrope
almagro
almere
almeri
almirante
alnus
alois
alom
alone
alonso
alpaka
alpakas
alpe
alpen
alpha
alphabet
alphabete
alphabetisierenge
alphabetisk
alphen
alphonse
alpina
alpinum
alrich
als
alsa
also
alt
altaiske
altamirano
altar
alte
alten
altenburger
altengrabow
altenoythe
alter
alternativ
alternative
altertumskunde
altfriesisch
altfriesisches
altgermanischen
althusius
altied
altiplano
altissima
alto
altsa
altstadt
altun
aluminium
alun
aluun
alvarado
alveste
always
alwen
alwier
alwieten
alzheimer
am
amadeo
amadeus
amanty
amaru
amateur
amateure
amateurfunk
amazonas
ambacht
ambly
amblyrhynchus
amboachte
ambold
ambrogio
ambystoma
amdo
amdorf
ame
amedeo
ameerega
amel
amelanchier
amelound
ameloundsk
amen
america
american
americas
amerika
amerikaanske
amerikanische
amerikoa
amerikoaner
amerikoanere
amerikoaniske
amerikoanisken
amerikoansk
amerikoanske
amerikoansken
amersfoort
amicitia
amiens
aminogruppe
aminosu
amk
amke
ammerland
ammerlandes
ammerlound
ammi
amnestie
amon
amor
amos
ampe
ampere
amphib
amphibien
amphiprion
amphitjooter
amplitude
amring
amringer
amrum
amsterdam
amsterdamer
amt
amte
amtelk
amtelke
amtelken
amtes
amts
amtsbesa
amtsgericht
amtskommuner
amtsproake
amtssproake
amtssproaken
amtstied
amtstiede
amundsen
amy
an
ana
anakonda
anakondas
anakuma
analog
analoge
analogie
analogsignoal
analyse
analysierjen
anarchist
anas
anatomie
anbaud
anbauer
anbeeden
anbetra
anbetracht
anboode
anc
ancemont
ancerville
ancient
ancona
and
andalusien
andeel
andeele
anden
ander
andere
anderen
andern
andernay
andersen
anderson
andinobates
andorra
andraach
andrade
andre
andrea
andreas
andres
andresen
andrew
andrews
andriessen
andrieuwenge
andromeda
andromedadook
andry
anduurjend
andy
ane
anektierd
anemoonfisk
anerkennenge
anerkoand
anfang
anfierd
anfierder
anfroage
angel
angela
angelbeck
angeles
angelico
angels
angelsaksiske
angers
angesehen
anglica
anglikoanske
anglo
anglofra
angoawen
angola
angostura
angriep
angriepe
angriepen
anguilla
angungt
angustifolium
anha
anhalt
anhang
anhongere
anhound
ani
animal
animalia
animation
animierde
animus
anione
anita
anjo
anjou
ankara
ankieked
ankoomen
ankumst
anla
anlaid
anlaide
anlaut
anleeken
anloage
anloagen
anluuke
anm
anma
anna
annaierenge
annaierjend
annales
anne
annegret
annektierd
annektiert
annemarie
annerd
annerde
annerenge
annerengen
annerje
annert
annette
annexion
anno
annual
annunciation
annunner
annuumen
anoardend
anoardenet
anoardnenge
anode
anonym
anonymen
another
anpaased
anpaasede
anpaaset
anpaasje
anpezan
anra
anreegenge
anreekenje
anroat
ansa
ansammeld
ansicht
ansichte
ansichten
ansloain
anslut
ansluutenge
ansluutengen
anspielde
ansproake
anspru
anstiegend
anstoald
anstoalde
ant
anta
antaal
antaios
antarktika
antarktikoa
antarktis
antarktiske
ante
antenne
antennen
antenor
antenora
anthony
anthropogene
anthropomorphe
anti
antichrist
antigua
antike
antillen
antilles
antique
antisemitisken
antje
antjut
anto
antoine
antologia
anton
antoni
antonio
antonius
antoula
antousluuten
antwerpen
antwordt
anwar
anweende
anweendenge
anweendengen
anweesende
anwiesengen
anwoand
anwoande
any
anzeiger
anıtkabir
ao
aofr
aou
ap
apa
apaat
apaate
apaaten
apache
aparecida
aparte
apartheid
apbau
apbaud
apbaude
apbauden
apbaue
apbauen
apbewoard
apblo
apbreeke
apbreeken
apbroachte
apdeeld
apdeele
apdeelenge
apdeelt
apdraach
apdrift
apennin
apfa
apfaalen
apfaalend
apfaalende
apfangsa
apfel
apfiendenge
apfierd
apfierde
apfierenge
apfoated
apfoatenge
apfoatengen
apfreeten
apfuunen
apgjucht
apgjuchte
apgjuchten
apgjuchtenge
apgjuchter
apgjuchtet
apgoawe
apgoawen
apgriepen
apgruund
apgruunde
apheelden
apheerde
aphieuwed
aphonged
aphongje
aphoolde
aphorismen
apiaster
apis
apkeemen
apkleeuwenge
apkloord
apkloorde
apkloorenge
apkna
apkoom
apla
apleeken
aplichte
apliested
aplo
aploage
aploosed
aploosede
aploosenge
aplooset
apluukenge
apluurd
apma
apmarsk
apmoakere
apmoal
apnieme
apniemen
apnimt
apnoame
apnoamen
apnunner
apnuumen
apnuumene
apokalypse
apollo
apostel
apostele
apostelgeskichte
app
appaasje
appalachen
apparoat
apparoate
apparoaten
appe
appel
appelboom
appele
appelsoarte
appietsked
appingedam
apr
apreeke
apremont
aprieten
april
aproat
aproup
apruupen
apruur
apsa
apsats
apsatse
apsicht
apsichtelk
apsjoon
apskreeuwen
apskrieuwen
apsmieten
apstaalde
apstaalenge
apstand
apstaud
apstauenge
apsteede
apstich
apstiech
apstiksel
apstoald
apstok
apstound
apstounde
apstoundiske
apstuuns
apswung
apteekend
apteekengen
aptoubauen
aptougjuchten
aptouniemen
aptoustaalen
aptra
aptreede
aptreeden
aptreedende
aptrieden
apulien
apweendich
apwiese
apwiesen
apwiest
apwoaksen
apwoard
aqua
aquarell
aquarellfaawe
aquarellmoalera
aquarien
aquarium
aquilonaris
aquino
aquitanien
ar
ara
araber
arabere
arabien
arabisk
arabiske
arabisken
arago
araguaia
aram
arama
aranesisk
aranesiske
aratsch
arawak
arawakisk
arawakiske
arbeit
arbeiterwohlfahrt
arbenz
arc
arcangelo
archa
archaiske
archegonium
archibald
archipel
archipie
architekt
architektoonske
architekturfu
architektuur
archiv
archive
arcimboldo
arco
arctium
arctocephalus
arctos
ard
ardea
ardennen
are
area
arend
arendt
arens
arequipa
arfe
arfst
arfsten
argentienske
argentiensken
argentina
argentinien
argentinisk
argentiniske
argentinske
argon
argonne
argumentation
argumente
argumentierde
ariane
arias
ariel
arier
aristoteles
arizona
arizonica
arjen
arktis
arktiske
arlinghaus
arlington
armand
armas
arme
armee
armeen
armeenske
armenien
armenisk
armeniske
armstrong
army
arne
arnhem
arnica
arnold
arpitoansk
arquata
arrancy
arrow
arsen
arst
arste
art
artcyclopedia
arte
artemis
artemisia
arthur
articulen
artikel
artikkel
artikkele
artillerie
artilleriefjuur
artois
arturo
aru
aruba
arvalis
arvense
arvensis
as
asatru
aschaffenburg
aschdod
aschkelon
aschkenasiske
asden
asen
aserbaidschan
asha
ashe
asiatisk
asiatiske
asiatisken
asien
asimov
asinus
asio
askania
asp
aspekt
aspekte
assad
assaigs
assembly
assen
assibilation
assibilierenge
assimilation
association
assyriske
asteraceae
astrid
astrologie
astronom
astronomie
astronomiske
astrophysik
astrophysiker
asturiana
asturien
asuncio
asyl
asylbewierwer
at
atacama
atahualpa
atatu
atawallpa
atelier
athen
athene
atheneum
athletik
atlantic
atlantica
atlantik
atlantikkuste
atlantique
atlantis
atlantiske
atlantisken
atlas
atmospha
atom
atoma
atombombe
atome
atomic
atomiske
atomka
atommasse
atommul
atomnummer
atomphysik
atomtaal
atomtaale
atomtypen
atoom
atout
atp
atra
atricapillus
atta
attack
attenta
attentat
atter
attila
attraktion
attribute
au
aube
aubert
aubin
aubre
auch
auckland
aucuparia
audiencia
audio
auerk
auf
aufbau
aufl
auflage
aufstieg
aufzucht
aug
auge
auger
augsburg
augsburger
augsbuurich
augstein
august
augusta
auguste
augustin
augustiner
augustinus
augusto
augustus
auks
aukshuus
aula
aulnois
auratus
aurich
aurispinosus
aurk
aurora
aus
ausgabe
auslaut
austen
australia
australian
australien
australis
australisk
australiske
australisken
austroalske
austroneeske
authority
auto
autoboan
autoboane
autoboanen
autochthon
autochthone
autochthonen
autolaampe
automatisk
automatiske
automobil
autonavigation
autonome
autonomie
autonomiegebiete
autonoom
autor
autore
autoren
autorita
autos
autre
auwerk
aux
außergewo
av
avant
avenue
averroes
aves
avillers
avion
avioth
avis
aviv
avocado
avocourt
aw
awatan
away
awi
awick
ax
axel
axolotl
axon
axone
ayatollah
aylwin
aymara
ayora
ayre
ayrton
ayub
ayuthaya
ayutthaya
ayyubiden
az
azannes
aziz
azore
azoren
azteke
azteken
aztekenko
aztekenriek
aztekiske
aztekisken
aztla
azurea
að
aǥastiz
b
ba
baa
baabe
baadende
baadenje
baadenjende
baadent
baadenuuren
baagere
baal
baald
baale
baalen
baalende
baalengsruumte
baalenje
baalenjer
baalera
baalere
baaljene
baalt
baalwiesen
baarenbierich
baarle
baarn
babel
babo
baby
babyloniske
bacalar
bacata
baccifera
bach
back
backemoor
backgroundcolors
backjans
bad
baden
badiot
badiske
badonvilliers
bagdad
bagger
baghdadi
baha
bahai
bahama
bahamas
bahamensis
bahi
bahia
bahlmann
bahrain
bai
baier
baieriske
bail
bak
bakker
bakkers
bakr
baksteene
baksteenkapa
bakterien
bal
balam
balboa
bald
baldassare
baldoarich
baldoarige
baldoarigen
bale
balen
baler
bali
baliceaux
balkan
balkon
ballade
ballett
ballon
balmaceda
balspil
balthasar
baltimore
baltiske
baltisken
baltrum
bamberg
bananen
band
banda
bande
bandix
bands
bang
bangka
bangkok
bangladesch
bangladesh
banja
bank
bankier
banneetel
banner
bannoncourt
banoanen
bant
bantheville
baptist
baptiste
baptisten
baquerizo
bar
barack
barbados
barbara
barbizon
barboare
barbuda
barcelona
barcino
barn
barnia
barock
barocke
barocken
barokstil
baron
barra
barriere
barrios
barrois
barry
bars
bartels
barthe
barthold
bartholdy
bartholoma
bartjen
baruch
barßel
bas
baschar
base
basel
baseler
basen
basic
basierd
basierde
basierje
basierjende
basiert
basilika
basiliken
basilique
basis
baskelound
baskenlound
baskisk
baskiske
basra
bass
basseterre
bast
bastard
bastardisierenge
bastidas
bastion
bat
batangas
bataviske
bath
batista
batke
batrachotoxin
batterie
batterien
battista
battle
bau
baubegin
baud
baude
baudeele
bauden
baudigne
baudonvilliers
baudre
baue
bauelement
bauelemente
bauen
bauer
bauhaus
baukunde
baukunst
baukunstler
baukunstlere
baulny
baulound
bauma
bauphase
bauprojekt
bauriege
bausteede
bausteene
baustile
baut
bauten
bautied
bautoankmoale
bautzen
bauwierk
bauwierke
bauwiese
bauwiesen
bay
bayano
bayer
bayeriske
bayerisken
bayern
bayeux
bayreuth
bazeilles
bazincourt
bb
bbc
bbe
bbecke
bbers
bc
bd
be
beach
beaken
beamten
beanspruchje
bearbeitet
beast
beat
beatles
beatrice
bebel
beck
becker
beckmann
beclagten
bed
beda
bedarf
bedeeligd
bedeeliged
bedeeligede
bedeeligenge
bedingenge
bedingengen
bedjoogere
bedoarjende
bedr
bedra
bedrain
bedreege
bedreeuwen
bedrieuw
bedrieuwe
bedrieuwen
bedrieuwene
bedrieuwenen
bedrieuwssysteme
bedrooch
bedruuch
bedum
beduurt
beduust
bee
beedebouk
beedje
beeendet
beeged
beegeden
beegenge
beeget
beegjen
beegsoam
beekensdai
beekmans
been
beend
beende
beendoustand
beene
beerbte
beere
beernd
beernt
beers
beeter
beetere
beeteren
beethoven
beets
beetstersweach
befa
befaale
befaalen
befeel
befeels
befeelsha
befiende
befiendelke
befint
befo
befoar
befoated
befoatede
befoatet
befoatje
befoont
befoulked
befoulkede
befoulkenge
befoulkengs
befoulkengsa
befoulkengsdeel
befoulkengsdeele
befoulkengsgruppe
befoulkengsgruppen
befoulkengsmoorhaid
befoulkengstichte
befoulkengstichtegaid
befoulkengswoaksdum
befra
befruchted
befuul
bega
begeen
begeenen
begeistert
begieren
begin
begind
beginne
beginnend
beginnende
begint
begjucht
begjuchte
begon
begonnen
begra
begreeuwen
begreeuwenge
begriep
begriepe
begriff
begrip
begro
begruundede
begruundenge
begruunder
begruundere
begungbere
begunge
begunstiged
beha
behaalt
behaghel
beheelden
beheelten
beheer
behierd
behierden
behind
behinnerde
behnen
behnke
beho
behoaldt
behonneld
behonnelenge
behonnelje
behonnelt
behoold
behoolde
behoolden
behooldnis
behrens
bei
beienflouded
beijhause
beijing
beilage
beim
bein
beirut
beispiel
beitra
beitrag
beißen
beiđero
bejuchte
beka
bekampenge
bekanne
bekantnis
bekassine
bekenntnis
bekieke
bekieked
bekiekede
bekieken
bekiekenge
bekieket
bekiekje
bekiekjen
bekierd
bekierde
bekierenge
bekikt
bekloaged
bekloagede
bekloagenge
bekloaget
bekoand
bekoande
bekoanden
bekoander
bekoandhaid
bekoandste
bekoant
bel
bela
belaid
belaide
belastenge
bele
beleegerd
beleegerde
beleegerenge
beleeken
beleekenen
belgien
belgisk
belgiske
belgisken
belgrad
beliekteekend
belieuwde
belieuwede
belieuwje
belieuwjen
belieuwnis
believe
belitung
belize
beliziske
beljoowed
beljuchted
beljuchten
beljuchtenge
belkultur
bell
bella
bellamy
bellavista
bellen
bellingwedde
bellmann
belmopan
beloand
beloang
beloanged
beloanget
beloangje
beloangjen
beloond
belt
beltbra
belukt
beluuke
beluukend
beluukenge
beluukengen
beluukengswiese
beluukt
bema
bemo
bemonde
ben
benaamd
benaamde
benaamden
benaamen
benaamenge
benaamengen
benaamt
bend
benda
bende
bendsen
bene
benedikt
benediktiner
benetice
benevent
bengalen
beni
benin
benjamin
benjamins
benkens
bennett
beno
benoard
benrather
bens
bentheim
bentz
benutsed
benutsede
benutseden
benutsenge
benutsere
benutsernoome
benutset
benutsje
benutsjen
benutst
benz
benzin
beoachted
beoachtje
beoachtjen
beoamten
beoarbaided
beoarbaidenge
beoarbaidje
beoboachtengen
beooboachtboare
beooboachtenge
beowulf
bepeelde
ber
bera
berappe
beraue
berauet
beraut
berber
berberisk
berbersproaken
berblinger
berblingers
bere
bereekend
bereekenge
bereekenje
bereekenjen
berend
bereschit
beresford
berg
berge
bergen
berger
berghaus
bergisch
bericht
beriek
berieke
bering
berkeley
berlin
berliner
berlinere
berltsum
bermuda
bern
bernal
bernard
bernardo
bernauer
bernd
bernhard
bernina
berninapass
bernkastel
bernstein
berntsjes
beropt
beroupe
beroupeden
bers
bersetzung
bersicht
bert
bertus
beru
beruchtigde
berus
beryl
beryllium
bes
besa
bescha
beschrieuwen
beschrieuwenge
besichtiged
besiedeld
besiedelde
besiedelenge
besiedeljen
besiedelt
besiedelung
besiedlung
besiegede
besiegler
besierk
besinden
besirk
besirksmeenten
besit
besitte
besittengen
besitter
beska
beskadt
beskat
beskeed
beskeeldiged
beskeeten
beskreeuw
beskreeuwen
beskrieuwe
beskrieuwen
beskrieuwenge
beskrieuwengen
beskrieuwt
beskrift
beskriftenge
beskutsed
beskutset
beskutsje
beskutsjen
besleek
besleeten
besloot
beslooten
beslut
besluut
besluute
besoacht
besoachte
besoachten
besonderer
besonders
best
besta
bestand
bestanddeel
bestanddeele
besten
bestiegen
bestiegenge
bestiegengs
bestimd
bestimde
bestimden
bestimme
bestimmen
bestimmend
bestimmende
bestimmenge
bestimmungsbuch
bestimt
bestoald
bestoant
bestound
bestounddeel
bestounddeele
bestounde
bestounden
bestoundend
bestoundende
bestoundene
bestrieden
bestrieken
bestrieuwengen
bestroafed
bestroafje
bestroald
bestroawede
bestuud
bestuude
besu
besunner
besunnere
besunneren
besunneres
besunnerhaid
besunnerhaide
besunners
besweerde
beta
beteekend
beteekende
beteekenden
beteekenge
beteekengen
beteekenje
beteekenjen
beteekent
beth
bethen
bethlehem
betjens
betjoond
betjoonje
betjoont
betjud
betjudt
betjut
betjutte
betjuude
betjuudend
betjuudende
betjuudenden
betjuudendste
betjuudenge
betjuudengen
betjuudengsleere
betjuudengsloosegaid
betjuudenste
betjuudet
betjuudt
betjuuge
betoacht
betoachte
betoald
betoalde
betoalden
betoalenge
betoalje
betoaljen
betoalt
betoanke
betong
betoond
betoonde
betoonenge
betra
betracht
betrachted
betrachtede
betrachtenge
betrachter
betrachtet
betrachtje
betrachtjen
betrachtungen
betreede
betreeden
betried
betroued
betrouenge
betruued
betruuede
betruuenge
betruuet
betty
betula
between
betwieuweld
betwoangen
beust
beuurkunded
bevo
bewa
bewaltigje
beweegenge
beweerenge
bewierkede
bewierket
bewierwere
bewies
bewiesd
bewiese
bewiest
bewoaked
bewoakje
bewoaksen
bewoaksene
bewoapende
bewoapenden
bewoard
bewoarje
bewoarjen
bewoart
bewoaterengs
bewoond
bewoonde
bewoonere
bewoonje
bewoont
bewuksen
bewust
bewustweesen
bey
beyond
beza
bh
bhutan
bi
biaculeatus
biafra
biała
białowiez
bibel
bibelkunde
bibelske
biber
bibliografie
bibliographiske
bibliota
biblioteek
bibliothek
bibliske
bichte
bicolor
bidde
bidding
bidje
bidra
bidskrift
bie
biebeheelden
biebel
biebelkanon
biebelske
biebeluursa
biebelwietenskup
biebroacht
biedraach
biedrain
biedreege
biedroage
bieeenuur
bielde
bielded
bieldede
bieldeden
bieldeferta
bieldehauer
bieldehauera
bielden
bieldende
bieldenge
bieldenhondskrift
bieldenskrift
bieldet
bieldeta
bieldje
bieldjen
biele
bielefeld
bielen
bielitjen
bieloangs
bielsko
bienai
bienaist
biend
biende
bienden
biendenge
biendengen
bienonner
bienoome
bienunner
bienuur
biepsil
bier
bierge
biergich
bierich
bierichbau
bieriche
bierichka
bierichlound
bierichloundskup
bierichloundskuppe
bierichmassiv
bierichra
bierichstieger
bierichstiegera
bierichstiegere
bierichstiegerske
bierichviscacha
bierichweede
bierichwierk
bierichwoold
bierige
bierlein
bierstadt
biesa
biesiede
biespiel
biespiele
biespil
biespilbielden
biespile
biespilsatse
biespilswiese
biespilta
biespilwierke
bieten
bieter
bietiede
bietou
bietoufo
bietoukeemene
bietousa
bieuw
bieuwelte
biewielen
biewoud
big
bigin
bigriep
bigriepe
bij
bikba
bikket
bikoand
bikoandste
bilabioale
bilateria
bild
bilde
bilded
bildede
bildeden
bildenge
bildengssysteem
bildet
bildje
bildjen
bilged
bilget
bilgje
bilgjen
bilingual
bilker
bill
billich
billige
billiger
billionen
billy
bilt
biltske
bimetal
bin
bingen
bingum
binh
binne
binnekeemene
binnelound
binneminister
binnen
binnenlound
binnensta
binner
binnere
binnerplanete
binnerste
binnertropiske
binneruum
binnesta
binokel
binomio
binturong
bio
biochemie
biochemikerinne
biochemiske
biodiversita
biographie
biography
biologe
biologie
biologiekategorie
biologiske
biospha
biotiske
biotop
bip
bird
biriek
birkenfeld
birkhuhn
birma
birmaniske
birz
bis
bischof
bisdum
bishop
biske
biskop
biskoppe
biskoppelke
biskrieuwen
biskup
biskuppe
bismarck
bison
bissau
bissel
bistoant
bistounddeele
bistum
bisunnere
bisunners
bit
bitburg
bitcoin
bite
biteekent
bitje
bitjen
bitjuudenge
bitjuudengen
bitoalje
bitoonde
bitsken
bitter
bjoode
bjoor
bjouera
bjudt
bjunt
bjut
bke
bla
blaauw
blaauwe
black
blaine
blanc
blanca
blanka
blas
blasewitz
blatt
blau
blaue
blaugra
blaumeeske
blautusk
ble
bleede
bleedere
bleek
bleeuw
bleeuwen
blekinge
bler
blesse
bleu
blica
blick
bliede
bliedskup
bliende
blienden
bliendwroutere
blieuwe
blieuwen
blieuwene
blift
blik
blikje
blikken
blind
blo
bloaser
bloaset
block
blog
bloide
blok
blokkade
blokkierden
blokoade
blood
bloot
bloote
blossem
blossfeldia
blot
bloud
bloudboad
blouddruk
blouderch
blouderge
bloudferjooten
bloudsundai
blouked
bloume
bloumen
blu
blue
blues
bluetooth
blv
blw
bmi
bmw
bo
boa
boade
boadje
boald
boalde
boalden
boalere
boaljene
boalsert
boalsertersk
boalt
boan
boane
boanen
boanhoaf
boanhof
boank
boanstation
boanstra
boantje
boantjene
boar
board
boare
boaren
boark
boarke
boarker
boarn
boarnburgum
boarnsterhim
boars
boas
boase
boasis
boat
bocabella
boccioni
bochum
bockwindmu
bod
bodensee
bodin
body
boeing
boekel
boer
bogota
bohlsen
bohr
bohrium
bohuslav
boing
bois
bokel
bokelesch
bokma
bokser
bokwiendma
bolan
bolde
boli
bolivar
bolivien
bolivioanske
bolle
bollingen
bologna
bolognese
boloria
bolsonaro
bolt
bolten
bombardierd
bombardierenge
bomben
bombenousmietsteede
bommel
bon
bonaire
bonampak
bonaparte
bonasus
bondone
bonete
bong
bonhoeffer
bonifacio
bonifatius
bonilla
bonitius
bonken
bonn
bonpland
bontebok
bood
boode
booden
boodenstoffe
booge
boogen
book
bookela
books
boolke
boolken
boom
boome
boomfoarm
boomko
boommodder
boomskoulen
boomstam
boomstamme
boomstieger
boomstiegerpoagen
boomstom
boomwulle
boomwuttele
boone
boonen
boor
boord
boore
boorje
boot
boote
booth
bootjer
bootjera
bootjere
bootlegs
boots
boppe
bopperlound
bor
bora
borassus
borchers
borde
bordeaux
border
borg
borgia
borgman
borgmolen
boris
borja
borkum
borneo
bornho
bornholm
borssum
bos
bosch
boskoop
boskup
boskupper
boskuppere
bosna
bosnia
bosnien
bosniere
bosniske
boston
bot
botanik
botaniker
boten
bothen
botke
botschaft
botsuana
botswana
botticelli
bottom
bottrop
boucher
boud
boudem
boudemwooge
bouden
bouk
bouke
boukela
boukelba
boukelisk
boukete
bouketen
boukmoalera
boukpra
bouksta
bouksteeuwe
bouksteeuwen
bouksteewe
bouksteewen
bourbon
bourgeoisie
bourtange
bourtanger
bowie
bowling
box
boy
boyaca
boys
bozen
br
bra
brabant
brabham
brachvogel
brackland
bradley
braga
braille
brainge
braingeboork
brand
branda
brandenburg
brandenburger
brandenbuurich
brands
brandt
brange
brangen
brangt
braque
brasi
brasil
brasilia
brasilien
brasiliensis
brasilioansk
brasilioanske
brasilioansken
brassica
brassicaceae
bratislava
bratte
braun
braunau
braunkohle
braunschweig
brava
brave
bravo
brazil
brc
brd
bre
breakfast
brecqhou
breda
bredevoort
bredstedt
breed
breede
breeden
breek
breeke
breeken
breekenge
breekstuk
breekstukke
breektaal
breer
brein
breinermoor
breinigerberg
breisgau
breit
breklum
breklumer
bremen
bremer
bremerhaven
bremerhoawen
bremmer
brennen
breslau
bretagne
bretonen
bretonisk
bretoniske
breugel
breughel
brevis
brexit
brfxxccxxmnpcccclllmmnprxvclmnckssqlbb
brian
bridge
bridgetown
brief
briek
brieken
brigen
brigitte
briketts
bril
brille
brillen
brillengla
brillengleese
brillenrezept
brink
brinkmann
britannien
brite
briten
british
britisk
britiske
britisken
britske
brixi
bro
broacht
broachte
broachten
broadcasting
broake
broakje
broatske
brocken
brockes
brockhaus
brockmeyer
brod
broecke
broek
brok
broke
brokkich
broks
brom
bromelien
bromium
brommelba
brons
bronson
bronstied
bronze
brood
brooklyn
brookmer
brookmerlound
broom
brosen
brother
broud
broude
broudgebiet
broudruum
bround
broundkatastrophe
brouwer
brown
bru
bruce
bruder
bruegel
brueghel
brugge
brukt
brummelba
brummelse
brun
brunei
brunetto
bruni
brunnen
bruno
bruns
brunswick
brussel
brust
brustboom
bruto
brutoal
brutoale
bruttoinloundsprodukt
brutus
bruuk
bruukbeere
bruukboare
bruuke
bruuked
bruuken
bruukengs
bruukt
bruukte
bruukten
bruun
bruune
bruunelk
bruunelke
bruunen
bruunkoole
bruunkoolegewinnenge
bruunswiek
bruur
bruure
bruuremo
bruursba
bruzena
bsch
bse
bsteede
bsv
bu
buch
buchenwald
bucht
buda
budapest
buddel
buddele
buddelhoals
buddelje
buddhismus
buddhisten
budys
buen
buenos
buffalo
bufo
bugenhagen
buk
bukarest
bukke
bukse
bulgaren
bulgarien
bulgarisk
bulgariske
bull
bulldog
bulle
bullekruud
bum
buma
bumbardierd
bumbardierden
bumbe
bumben
bunau
bunde
bunderhee
bundesliga
bundesministerium
bundesrepublik
bundesstraße
bungsbierich
bunka
bunken
bunkene
bunker
bunnel
bunschoten
bunt
bunte
buon
buonarroti
buppe
buppeda
buppedeem
buppedu
buppekeeuwe
buppeloop
buppelound
buppen
bupper
bupperbefeel
buppere
bupperen
bupperflakte
bupperflakten
bupperkaante
bupperloop
bupperlound
bupperloundsk
buppersorbisk
buppersorbiske
bupperste
buppeste
buran
burg
burgema
burgen
burger
burgerdum
burgere
burgerfereen
burgergjucht
burgergjuchte
burgerkriech
burgerkriege
burgerma
burgerskup
burgsteinfurt
burgum
burgumer
burirom
burkina
burlage
burli
burloage
burma
burmann
burney
burrows
burse
bursera
burundi
bus
busch
bush
bushido
busk
buskba
buske
buslinien
buss
busse
butan
bute
buten
buteoides
butere
butjadingen
butjoarlound
butorides
buts
button
butz
butzhuus
buuk
buulgenlooper
buund
buunde
buunden
buundes
buundesautoboan
buundesdai
buundesdais
buundesdaiwoal
buundesdaiwoalen
buundesexekutsjoon
buundesfersammelenge
buundeskansler
buundeskanslerske
buundeskanzler
buundeskanzlerske
buundeslound
buundeslounde
buundespra
buundesregierenge
buundesrepublik
buundesstoat
buundesstoate
buundesstoaten
buundesstra
buundesweer
buundnis
buunen
buunene
buur
buura
buuren
buurenhuus
buurenhuuse
buurenkriech
buurenrepublik
buurensteede
buurerepublik
buurgen
buurger
buurgere
buurgerkriech
buurich
buurige
buuriske
buurma
buurske
buurskup
buurskuppe
buuse
buuskool
buute
buuteminister
buuten
buutena
buutenda
buuteneuropa
buutengebiete
buutenlound
buutenloundske
buutensiede
buutenskelett
buutepolitik
buutere
buuterga
buuterst
buuterste
buutewaareld
buutewais
buutlound
buutloundere
buutloundske
buxtehude
bwr
by
bydrage
byzantienske
byzantiniske
byzantiske
bzw
c
ca
caballus
cabo
cabral
cabrio
cadien
cadovius
caeasar
caeruleus
caesar
cafe
cahal
caicos
caina
caine
cajamarca
cajun
calakmul
calcium
caldas
calendula
calidris
calif
california
call
callao
calling
calluna
calvin
calvinismus
calvinisten
calvinistisk
calystegia
cam
camara
camargo
camarines
cambridge
cameron
camille
camp
campanula
campbell
campingplats
campo
campos
campus
can
canada
canadensis
canal
cancer
canidae
caniformia
canis
canisius
cannabis
canoe
canterbury
canti
canto
cantos
canvas
canyon
capcom
cape
capensis
capital
capitata
cappella
capreolus
caput
capybaras
car
caracas
caracol
carbonium
carboxylgruppe
carel
carex
caribbean
carillon
carl
carla
carles
carlisle
carlo
carlos
carmen
carnivora
carola
carolina
carolinenhof
carolus
carpatica
carpenters
carr
carrel
carrera
carrier
carsten
carstens
cartago
carte
carter
cartlidge
caryophyllaceae
casa
case
casella
cash
casino
caspar
casper
cassirer
cassius
castan
castellano
castellum
castilla
castillo
castle
castries
castro
cat
catala
catalana
catalans
catalunya
catamarca
catarina
catastri
catedral
category
cath
cathe
cato
cavendish
cavia
cay
caye
cayenne
cayley
cayman
cb
cbs
cc
cd
cdu
ce
cecil
cedrus
cego
cellar
celle
cello
celsius
cembalo
cembra
cenote
census
cent
centaurea
centauri
centenario
center
central
centre
centrolenidae
century
cer
cerambycidae
cerberus
cerrillos
cerro
cervantes
cervus
cesium
cessna
cetacea
cfb
ch
cha
chacabuco
chaco
chacokriech
chadwick
chagres
chal
chalifa
challenger
chamito
champagne
champion
champollion
champs
chan
chance
chandos
change
channel
chaos
chaotisk
chaplin
charakter
charaktere
charakteristisk
charakteristiske
charles
charlie
charlotte
charon
charta
chateau
chaucer
chaumont
chavannes
che
check
chel
chemie
chemikalien
chemiker
chemisk
chemiske
chemisken
chemnitz
chen
chengiana
cher
cherei
cheri
cherokee
cheyenne
chfaale
chfierd
chfljooge
chfoart
chga
chgeen
chgreep
chgunge
chgungen
chgungt
chhoald
chi
chiapas
chibcha
chicago
chiche
chico
chile
chileenske
chilenisk
chileniske
chili
chimborazo
chimi
china
chinchilla
chinchillas
chinchillidae
chineeske
chineesken
chinesen
chinesisk
chinesiske
chinesisken
chip
chiquitos
chiroptera
chirurg
chitin
chkeemen
chkoom
chla
chleeken
chlodwig
chloope
chlor
chlorophyll
chloroplast
chloroplasten
chloropus
chluuke
chluuken
chner
chnimt
chnuumen
cho
choco
chongqing
chopin
chor
chorotega
chorti
chorumgang
choruumgong
chow
chr
chris
chrisianae
christ
christchurch
christel
christen
christi
christian
christie
christina
christine
christmas
christo
christoffelberg
christoffer
christoph
christophe
christopher
christus
chroat
chrom
chromosomen
chromosomensats
chromosomensatse
chronicle
chronik
chronikbouk
chronike
chronnen
chronologie
chronospezies
chronostratigraphie
chse
chsen
chsische
chsischen
chsisches
chsloain
chsmieten
chsnieden
chste
chstens
cht
chte
chted
chten
chtenborg
chtepunkt
chter
chtern
chtich
chtitlan
chtli
chtlinge
chtlings
chtniskirche
chtouhoaljen
chtreede
chtswoude
chur
church
churchill
chuukwer
ci
cia
ciboney
cicero
cichorium
ciel
cieli
cielo
cincinnati
cinema
cio
cirksena
cis
cisalpina
city
ciudad
ciutat
civilization
ck
ckchensee
ckchenwoold
cke
cken
cker
cking
cklin
cklingen
cl
claassen
claes
claesz
clage
clair
clan
clara
clark
claude
claudio
claudius
claus
claussen
clav
cle
cleger
clemens
clemenswerth
clement
cleveland
click
climate
cloppenburg
close
closeup
club
cm
cns
co
coa
coba
cobain
cobalt
cobar
cobra
coburg
coca
cocha
coche
cochimi
cocle
cocom
cocopa
cocos
code
codex
codices
codrington
coeptis
cohen
cohte
cokxxx
col
colegio
coleoptera
colin
colina
collapse
collection
college
collinghorst
collins
collybita
colmar
colo
colombia
colonia
color
colorado
colors
colostethus
colour
columbia
columbian
columbianiske
columbus
com
come
comec
comic
comics
comitia
command
commando
commedia
commitee
common
commons
commonwealth
communis
compan
company
comparative
completes
componist
composition
compostela
compton
computer
computere
computerna
computerspiele
computerspil
comunidad
con
concepcio
condita
confessions
congress
conley
connecticut
conquistador
conquistadoren
conrad
constable
constant
constanze
constitution
consul
conte
contest
continental
contra
contrapassos
control
convallaria
convar
convention
cooh
cook
cooper
cooperator
copa
copia
cops
coq
cor
corbin
corbusier
corday
cordes
cordillera
coriolis
cornelis
cornelius
cornet
corno
cornu
cornwall
coronel
corot
corpora
corpus
correa
correia
corte
cos
cosas
cosi
cosmas
cossebaude
costa
costalago
cotta
cottage
cottbus
coulomb
council
countries
country
county
coupe
courant
courbet
court
cousances
cow
coxae
coyo
cps
crab
crabro
crackdown
crackstate
cranach
crash
crassulaceae
crassus
crataegus
crisis
crispa
cristatus
cristiano
cristina
cristo
cristobal
crocuta
croix
crone
cropped
cross
crossfox
crown
crusne
cruz
cruzoob
cryptocarpus
cs
csa
csu
ctot
cu
cua
cuello
cuhzo
cuitla
cultura
cultural
cultureelerfgoed
cultures
cumbre
cuniculus
cuntz
cuny
cupressus
cupul
curac
curacao
curet
curial
curie
curitiba
curium
curtis
cusano
cusco
cuxhaven
cuxhoawen
cuyochi
cyanistes
cyanus
cyclotis
cynapium
cynocephalus
cyperaceae
cytisus
cytologie
cytosin
cze
d
da
daach
dab
dacci
dach
dachau
daddy
dadurch
dae
dag
dage
dago
dagoge
dagogik
dagoginne
dagogiske
dai
daigle
dailound
daimler
dait
daiwierksba
dak
dakar
dakota
dal
dalai
dalarna
dalbergia
dale
dali
dallas
dam
damaskus
dame
damian
damien
damm
damp
damper
damplok
damplokomotive
damplokomotiven
dampmaskiene
dampmaskienen
dampskiepe
dampskip
damwa
dan
dance
dancing
daniel
dann
danne
dannebaum
dannenappele
dannenbierich
dannene
dans
danske
dante
dantes
dantumadiel
danzig
daor
dar
darie
dariegen
darmstadt
darstellung
darvan
darwin
darwinii
darwinius
das
dass
dasz
dat
data
database
dateformat
daten
datierd
datierje
datiert
david
davidson
davis
davy
day
days
dayton
db
dbielde
dboan
dchen
dd
dde
dded
ddede
ddeel
ddeele
ddegaid
ddel
ddelboome
ddele
ddelen
ddeler
ddelerdom
ddelwoold
dden
ddene
ddenen
ddenge
ddengs
ddenje
dder
dderdierte
ddere
dderen
ddermuus
ddermuuse
dderste
ddet
ddr
de
dead
deadache
death
debatte
debiti
debitori
decidua
decussata
deddens
deducite
dee
deeder
deedere
deege
deegebau
deegelk
deeges
deegeslieuwend
deegeslucht
deegestemperatuuren
deeken
deel
deelbiriek
deelbjoor
deelbleedere
deeld
deelde
deelden
deele
deelen
deelenge
deelengsplan
deeler
deelgebied
deelgebiet
deelgebiete
deelige
deelklasse
deelkontrakt
deelkontraktpra
deella
deelnieme
deelniemere
deeloardenge
deelrieten
deels
deelsa
deelskeeten
deelsleek
deelsleeke
deelsloain
deelslooenge
deelsmieten
deelstoat
deelstoate
deelt
deeltaaid
deeltaaienge
deeltousa
deelwiese
deemo
deemoud
deen
deenema
deenenge
deeniske
deens
deensk
deenske
deensken
deenuur
deep
deer
deera
deeran
deerap
deerba
deerbie
deerbuppe
deerbuute
deerfoar
deerfon
deerha
deerieuwenske
deerjuun
deerma
deeroane
deeroun
deerstaale
deerstaalenge
deerstaalengen
deerstaalengswiese
deerstaalerinne
deerstoald
deerstoalt
deertou
deertoustaalen
deertruch
deertwiske
deerunner
deeruum
deeruume
deeruumetou
deeruur
deeruut
deerwai
defence
definierd
definierje
definiert
definition
definitione
definitiv
degas
dege
degi
degli
degradierd
deiches
deilmann
dein
del
delacroix
delaunay
delaware
delfin
delfine
delft
delk
delke
della
delmenhorst
delta
dem
demografie
demokratie
demokratiske
demokroatisk
demokroatiske
demonstranten
demonstrativpronomen
demonstratsjoon
demonstratsjoonen
demonstrierje
demonstrierjen
den
dendeel
dendrit
dendriten
dendrobates
dendrobatidae
dene
denfusion
denis
denken
denkleeuwenge
denkmal
denkmalschutz
denkraft
denkraftwierk
denkraftwierke
denn
denphysik
denreaktione
denreaktore
denreaktsjoonen
denta
denwoapen
departamento
departement
depe
deplasmolyse
depolarisation
deportierd
depping
der
dera
deration
deratsjoon
derek
derfoar
derfon
derhoangst
derierde
derix
derk
derlu
deroan
deroun
dertou
deruume
des
desa
descartes
desco
descriptio
desertifikation
desiderius
desoxyribonukleinsu
desoxyribose
destino
det
detail
details
detern
detlev
detmold
detocht
detochten
detten
deu
deur
deuterium
deuteronomium
deuteropauliniske
deutsch
deutsche
deutschen
deutscher
deutsches
deutschland
deutschlands
devant
devil
dez
dezember
dferwaltenge
dfierder
dfra
dgebiet
dgemeenskup
dgewoakse
dgjucht
dgjuchte
dgrootste
dgruundenge
dh
dho
dhoolder
dhuus
dhuuse
di
diakritiske
diala
dialekt
dialekte
dialektgebied
dialektgebiede
dialektgebiete
dialektgruppe
dialektgruppen
dialektmiskenge
dialektoal
dialektvariante
dialetto
diamante
diamanten
diana
diavolezza
diccionari
diccionario
dice
dicere
dich
dichtenge
dichter
dichtere
dichterske
dichtjen
dichtkunst
dick
dickens
dictionary
did
diderik
didier
didodido
die
dieb
died
diede
dieden
diego
dieguen
diek
diekbau
dieken
diekhusen
diekmann
diel
dielektrikum
diem
dien
diende
dient
diepenbrock
diepholz
diepholzer
dierkes
diers
diert
dierte
diertenoomen
diertepark
diesa
diesel
dieselmotor
diesen
diesene
dieses
dieter
dietrich
differenzler
digde
dige
diger
digital
digitale
digitalisierde
digitoal
digitoale
dik
dikat
diktator
diktatuur
diktoatoor
diktoatooriske
diktoator
diktoatuur
dilma
dimension
dimensionoale
diminuitiv
diminutiv
diminutive
din
ding
dinge
dingen
dingere
dingo
dingos
dinomyidae
dio
diode
dioden
dioica
diorite
diphthonge
diphthongierde
diploid
diploide
diploidie
diplomatiske
diplomoat
diplomoaten
diplomoatiske
dipus
dira
direkt
direkte
direkten
direktor
direktwoal
dirigent
dirk
dirty
dis
discografie
discolor
discorsi
discover
discovery
disk
disko
diskografie
diskographie
diskriminierenge
diskussion
diskussionen
diskutierd
diss
disse
dissen
dissertation
dissimilis
distribution
district
distrikt
distrikte
distrito
disuurstof
disziplinen
dit
ditmoal
diurnum
diversity
divina
division
dix
diz
dize
dizzy
dj
djapper
djappere
dje
djen
djoop
djoope
djoopen
djoopgoang
djoopste
dju
djupte
djuur
dk
dl
dlichen
dloop
dlrg
dm
dmeente
dmidde
dmitri
dmitry
dmuure
dna
dnepr
dnoome
dnunner
dnuur
do
doal
doale
doalsound
doarne
doarnen
doarst
doarste
doarsten
doat
doata
doatai
doatei
doaten
doatenboank
doatenferoarbaidenge
doatierd
doatierenge
doatierje
doatseeke
doatum
dobbe
dobritz
doc
dochter
dochtere
doe
dog
doge
dogg
doggy
doggystyle
dogma
doi
dokke
dokken
dokkum
dokkumersk
dokter
dokterske
doktrin
dokuma
dokument
dokumentation
dokumente
dokumentierd
dokumentierenge
dokumentierje
dolk
dolke
dolksteet
dollar
dolomitan
dolsterhuzen
dom
dome
domenico
domestica
domestikation
dominante
domingo
dominica
dominierde
dominierden
dominierje
dominierjende
dominika
dominikaniske
dominikoaner
dominikoanske
dominikus
dominions
dominique
domme
domoalige
domoaligen
domoals
domtouden
don
donald
donau
donezk
dong
dongele
dongen
dongeradiel
donia
donkerbroek
donna
donnerbu
dons
donse
donsed
donserske
donsgruppe
donsmusik
doo
doobel
dood
doodda
doode
dooded
doodede
doodelk
dooden
doodenkoppe
doodenleegere
doodesstroafe
doodet
doodha
doodje
doodjen
doodkeemen
doodmoaked
doodskeeten
doodskjooten
doodsloain
doodsmieten
doof
dook
doom
doomoalige
doomoals
door
doore
dooren
doorik
doors
dopheede
doppe
dora
dordrecht
doresta
dorf
dorfes
dorff
doris
dorothy
dorset
dortmund
dos
dosa
dose
dost
dota
dotierde
dotierden
douard
douaumont
double
douglas
douk
douse
down
dpark
dpartnerskuppe
dploaner
dpoute
dr
dra
dracht
drachten
drachtenkoppel
drachtster
dragon
drain
drale
dramatiske
dre
dream
dreege
dreegen
dreegend
dreeger
dreegere
dreeguunere
drees
dreeuwen
dregion
dregunnere
dreguuner
dreguunere
dreguunerske
drei
dreisprachige
dreker
drente
drenthe
drentse
dresden
dresdner
drieuw
drieuwe
drieuwen
drieuwwoain
drift
drina
drinke
drinken
drinkwoater
drive
dro
droake
droaken
droane
droanen
droapen
drochow
droege
drogen
dronk
dronke
dronryp
dronten
droogen
droome
drosera
drost
droste
dru
druck
druckerei
drudden
druk
drukke
drukkera
drukt
drukte
drukwoaterreaktor
druppe
druppen
drusen
druuch
druuchte
druuchten
druuchtied
druuge
druuged
druugede
druugen
druuger
druuget
druugje
druusenkoppe
drylts
dryopteris
ds
dsa
dscf
dschalalabad
dschibuti
dsdeel
dsdeele
dsee
dsgebiet
dspil
dstieger
dstoate
dstried
dt
dtondern
du
dubai
dubbel
dubbeld
dubbelde
dubbelden
dubbelklaaster
dubbelkontinent
dubbelkop
dublin
dubnium
duc
duchamp
due
dug
duggan
duisburg
duisenberg
duiveland
duke
dukt
dul
dulle
dullegaid
dullert
duma
dumains
dumme
dummy
dumstorf
dun
dunant
duncan
duncker
dunen
dunes
dunker
dunkerblau
dunkerbruun
dunkere
dunkeren
dunkerer
dunkergra
dunkerque
dunner
duo
dupre
dupreziana
dura
durak
durand
durch
durufle
dutch
duts
duudelk
duugendhaid
duuker
duukje
duunen
duur
duurde
duure
duuren
duuret
duurhoafte
duurje
duurjende
duurt
duusend
duusende
duusendjierige
duusendtakke
duuwen
duvell
dvd
dvds
dvor
dvp
dw
dwa
dweerelgen
dwertmann
dwest
dwichtichste
dwo
dwoo
dwoon
dy
dykstra
dynamo
dynastie
dz
dzentrum
dzje
dzjes
e
eagle
ealsum
ealwien
eanjum
earebondel
earl
early
earth
east
eastersee
easterwa
eastsidaz
eat
eben
eberesche
eberhard
ebert
ebkensche
eblul
ebuz
echolot
echte
eckhard
ecs
ectopoglossus
ecuador
ecuadorioanske
ed
edam
edda
eddington
edelgas
edelman
eden
edewa
edewecht
edgar
edicions
edikt
edirne
edison
edit
edition
editorial
edmond
edmund
edo
edom
edouard
eds
edu
eduard
eduardo
edv
edvard
edward
edwin
edzard
ee
eed
eede
eedelgas
eedelmetalle
eedfabriek
eedferoarbaidjende
eedferoarbeitenge
eedgra
eedgreeuwe
eedgreeuwen
eedgreeuwer
eedgreeuwera
eedgreeuwere
eedgreuwe
eedhonnel
eedmoas
eedmoase
eedmul
eedoubau
eedoubaugebiet
eedwierk
eeftert
eegentelk
eegentelke
eei
eeke
eeken
eekene
eelco
eeltsje
eemoalige
eemsdelta
een
eend
eendbetoonenge
eende
eended
eendede
eendelk
eenden
eendenge
eendengen
eendet
eendgultich
eendgultige
eendigede
eendiget
eendje
eendknoop
eendriem
eene
eenegaid
eenfach
eenfache
eenfachen
eenfacher
eenfachere
eenfachste
eenhaid
eenhaide
eenhaidelk
eenich
eenige
eenigen
eenigenge
eenigerma
eenigje
eenkloang
eenmoal
eenpeld
eenpelde
eenpelden
eenpeldhaide
eensa
eensich
eensiche
eensichste
eensiedich
eensige
eensigen
eensproakige
eentaal
eentoal
eenuntru
eenuntwintich
eenuntwintichste
eenuur
eepen
eepenbeer
eepenbeere
eepend
eepende
eepene
eepenen
eepenenge
eepenge
eepengewinkel
eepenje
eepenjen
eepent
eepentelk
eepentelke
eer
eerd
eerder
eerdere
eere
eeren
eerenamtelke
eerene
eerenge
eerenmeeglid
eermoda
eerst
eerstbestiegenge
eerste
eersten
eerstens
eerstmoalich
eerstmoals
eeuw
eeuwel
eeuwele
eeuwend
eewich
eewigen
eeðerst
ef
effekt
effekte
effektive
effusus
efta
eften
efter
eftert
eg
egede
egeers
egge
eggman
egmont
egoal
egon
ehrentraut
ehud
ei
eichhornia
eide
eiderstedt
eifel
eiffeltouden
eigen
eigene
eigentlicher
eilat
eilers
eilert
eilound
ein
eindhoven
eine
einem
einen
einer
eines
einfluß
einfu
einhaus
einstein
eis
eise
eisen
eisenach
eisenbahn
eisinga
eisner
eistedd
ejkow
ek
ekonomie
ekonomisk
ekonomiske
eksport
ekuador
el
elaine
elaphus
elastisk
elastiske
elata
elbe
elbphilharmonie
elder
elefant
elefante
elefanten
elegans
elektrisk
elektriske
elektrisken
elektrizita
elektrolyse
elektrolytiske
elektromagnetiske
elektromotor
elektron
elektrone
elektronemikroskop
elektronen
elektronik
elektroniske
elektronisken
elektroonske
elektrotechnik
elektroteenelse
elema
element
elementa
elementar
elementarpaat
elementarpaate
elemente
elementsymbol
elephas
elfrida
elfriede
elfstedentocht
elias
elie
eliot
elisabeth
elisabethfeen
elisabethfeenkanoal
elisabethfehn
elke
elko
ellen
elmau
eloquentia
elphinstone
els
elsassiske
elsaß
else
elsen
elsens
elske
elst
eluh
elvis
elytren
elza
em
emanuel
embdena
embera
emden
emder
emeralde
emerit
emil
emile
emilia
emilianisk
emilianiske
emilio
eminem
emir
emiroate
emission
emitter
emma
emmanuel
emmeloord
emmen
emmerich
emmius
empetrum
empiriske
empo
empyreum
ems
emsla
emsland
emstek
emys
en
encyclopedia
end
ende
endeavour
endemisk
endemiske
endemisken
endi
ene
energie
energieferbruuk
energieniveau
energieniveaus
energiewa
energy
eng
engadin
engelbert
engelenfeart
engelke
engelmann
engels
engl
englisch
english
ennen
ennens
enno
enrico
enrique
ensci
entertainment
entre
entstehung
entwicklung
enunner
enzyklika
enzyklopa
enzym
enzyme
eoza
ep
epena
epenberenge
epheserbra
ephesos
ephraim
epidemie
epidemien
epikur
epipedobates
epiphyten
epoche
epos
eppendorf
eps
eqchi
equador
equisetum
equus
er
erasmus
erbium
erdbeere
erde
erdog
ere
erfurt
erhard
eric
erica
ericaceae
erich
erik
erinnert
erinnerung
eriophorum
eritrea
erkennen
erlabrunn
erlabrunner
erlangen
ermessenhaid
ernemann
ernest
ernesto
ernst
eroberung
erosion
erotiske
ers
erschienen
ersjanisk
erste
ersten
erts
erwa
erweiterte
erwin
erza
erzbiskop
erzieher
es
esa
esau
esch
eschatologie
eschenheimer
escher
escuintla
esculenta
esens
eskalierde
eskimo
espan
especial
esperanto
espeter
esquiu
esra
essay
essays
essen
essener
essern
est
este
ester
esterwegen
esterweger
estes
esther
estlound
estniske
et
eta
etc
ethanol
ethe
ethniske
ethnologue
etienne
etniske
etsbergisk
etten
etwas
etymologie
etymologisches
etymologisk
etymologiske
eu
euarchontoglires
euge
eugen
eugene
eugenia
eukaryoten
euklid
eumops
eunectes
euphrat
eupleridae
eurasien
euratom
euripides
euro
eurocent
euromaidan
euroopa
europa
europaea
europako
europama
europarlama
europarlema
europas
europe
europeade
european
eurospeedway
eurovision
euryale
eustatius
euthanasie
eutheria
eutin
euzyten
ev
eva
evangeelsk
evangeelske
evangeelsken
evangelien
evangelikoale
evangelisch
evangelisk
evangeliske
evangelisken
evangelisten
evangelium
evangelske
evenbuurich
everest
evers
evert
everything
evil
evolution
evolutiona
evolutionstheorie
evolutsjoons
ew
ewald
ewu
ex
exakte
exarch
excidobates
exemploar
exemploare
exerciren
exil
existenz
existierde
existierje
existiert
exklave
exkursion
exkursionen
exodus
exotherm
exotiske
expansion
expedition
expeditsjoon
expeditsjoonen
experience
experiment
experimente
experimentelle
experimentierd
experimentierde
explorer
explosion
expo
export
exportierd
express
expressionismus
expressionistiske
externe
externsteine
extrakoarten
extrem
extremadura
extreme
extroa
exupe
eyck
eye
eyes
ez
ezechiel
ezel
f
fa
faal
faale
faalen
faalene
faalt
faander
faanderasien
faandere
faandergruund
faanderjuuken
faanderpalts
faanderrhien
faanderste
faar
faarallen
faaw
faawe
faawed
faawede
faawelk
faaweloos
faawen
faawenmiskenge
faawer
faawestof
faawestoffe
faawetemperatuur
faawetwong
faawich
faawige
faawstoffe
faba
fabian
fabio
fabriek
fabrik
fabrikant
face
facebook
facetten
fachwort
facto
fading
faero
fahren
fail
failere
failje
failt
faksimile
fakt
fakten
faktisk
faktor
fal
falcklandii
faldern
falken
falkland
falklound
falkloundkriech
fall
falle
falling
fals
falsk
falsked
falskere
falster
faltings
fami
famielje
familiaris
familie
familien
familiennoome
familiennoomen
family
fan
fangd
fange
fangen
fangene
fangenskup
fangio
fangst
fangt
far
farad
farbe
farc
farianten
farina
farm
fasan
fascian
fashioned
faso
fassade
fassoade
fat
fata
fato
fatta
fatte
fauene
faulbaum
fauna
fauvismus
fawkes
fd
fde
fdp
fe
fean
feanwa
feat
feature
feb
febr
februar
februoar
fedde
federation
federoale
feeder
feedera
feegefjuur
feeke
feen
feenkolonie
feenkolonioale
feenkultuur
feenmuseum
feentjer
feer
feermon
feh
fehnmuseum
feind
fektur
fekture
fektuur
feliciano
felidae
felipe
felis
felix
feloidea
felsenbirne
femme
fen
fer
fera
ferallerde
ferannerd
ferannerenge
ferannerengen
ferannerje
ferannerjen
ferannert
feranstaltenge
feranstaltengen
feranstaltet
ferantwoudelk
ferbaadend
ferbaadenden
ferbaadene
ferbaadenje
ferbaadenjen
ferbaadent
ferband
ferbannenge
ferbaud
ferbeeden
ferbeedene
ferbeend
ferbeende
ferbeeterd
ferbeeterde
ferbeeterenge
ferbeeterengen
ferbeeterje
ferbeeterjen
ferbeetert
ferbiend
ferbiende
ferbienden
ferbiendenge
ferbiendengen
ferbiendet
ferbiendsboolke
ferbiesterjend
ferbiesterjende
ferbindt
ferbint
ferbjoode
ferbleeuwen
ferblieuwene
ferbolted
ferbond
ferbood
ferboode
ferboont
ferbrange
ferbrangt
ferbreeken
ferbreekerske
ferbruuk
ferbruuker
ferbruukere
ferbruukt
ferbuund
ferbuunded
ferbuundede
ferbuundeden
ferbuunden
ferbuunen
ferbuunene
ferbuurgene
ferda
ferdamde
ferdeeld
ferdeelde
ferdeele
ferdeelen
ferdeelenge
ferdeelt
ferdinand
ferdinando
ferdraach
ferdraachsorganisation
ferdraage
ferdreege
ferdreeuwen
ferdrieuwe
ferdrieuwen
ferdrieuwene
ferdrieuwenge
ferdrinke
ferdronken
ferdruugje
ferdu
ferdulde
fereediged
fereekenge
fereen
fereend
fereende
fereene
fereenfachede
fereenfachenge
fereenigd
fereenigde
fereeniged
fereenigede
fereenigenge
fereeniget
fereensheem
fereerd
fereerden
fereerenge
ferenc
ferfa
ferfaal
ferfaale
ferfailengen
ferfierere
ferfjust
ferfo
ferfoaren
ferfoarmengen
ferfoated
ferfoatede
ferfoatenge
ferfoatengs
ferfoater
ferfoatere
ferfoatet
ferfoulged
ferfoulgede
ferfoulgeden
ferfoulgenge
ferfoulget
ferfoulgjen
ferfrachtje
ferfu
fergeen
fergeene
fergeenhaid
fergiftenge
fergliek
fergliekboar
ferglieke
ferglieked
ferglieken
fergliekenge
fergliekje
fergliekslo
fergliekswiese
fergliekt
ferglitskerenge
fergno
fergratterd
fergratterde
fergratterden
fergratterengsgla
fergratterje
fergratterjen
ferha
ferhaagerje
ferheer
ferheetenge
ferhierd
ferhilked
ferhinderjen
ferhinnerd
ferhinnerje
ferhinnerjen
ferhinnert
ferhoalde
ferhoaldt
ferhoalenge
ferhonnelenge
ferhonnelengen
ferhonneljen
ferhoolde
ferhoolden
ferhooldenge
ferhooldengen
ferhooldensbiologie
ferhooldnis
ferhooldnisma
ferhooldnisse
ferian
ferienstra
ferierwenge
fering
ferjeete
ferjeeten
ferka
ferkier
ferkierd
ferkierde
ferkiers
ferkiersampele
ferkiersreegele
ferkiersskild
ferkierssproake
ferkloord
ferkloorde
ferkloorden
ferkloorenge
ferkloorengs
ferkloorje
ferkloorjen
ferkloort
ferko
ferkoop
ferkooped
ferkoopede
ferkoopet
ferkoopje
ferkoopjen
ferla
ferlaach
ferlaangerd
ferlaangerenge
ferlach
ferlaid
ferlaide
ferlaite
ferliet
ferlieten
ferljoose
ferljoosen
ferljus
ferljust
ferlo
ferloag
ferloangerd
ferloangerenge
ferlof
ferlook
ferloop
ferloope
ferloopende
ferloos
ferloosen
ferlopt
ferluuken
ferma
fermeerenge
fermesound
fermiddelenge
fermieden
ferminnerd
ferminnert
fermisked
fermiskede
fermiskenge
fermiskje
fermo
fermoald
fermoardet
fermoord
fermoorenge
fermoorje
fermouded
fermoudede
fermoudelk
fermoudelke
fermoudelken
fermoudenge
fermoudengen
fermoudet
fermoudje
fermuugen
ferna
fernand
fernandes
fernandina
fernando
ferne
fernichted
fernsehen
fernul
fernunft
feroantwoudelk
feroantwoudelken
feroarbaided
feroarbaidenge
feroarbaidje
feroardenge
feroardengen
feronkerd
feronkerde
ferounstalted
ferpachtet
ferpakked
ferplichted
ferplichtet
ferplichtje
ferputsed
ferra
ferrankenge
ferrari
ferreira
ferrer
ferring
ferroat
ferrumequinum
fersa
fersakjen
fersakkede
fersammelenge
ferscheeden
ferscheedene
ferseerd
ferseerde
ferseert
fersichtede
fersierenge
fersjoon
ferska
ferskeeden
ferskeedene
ferskeedenhaid
ferskeedenhaide
ferskeen
ferskiel
ferskiele
ferskielende
ferskielt
ferskiene
ferskienen
ferskienenge
ferskient
ferskuuwe
ferskuuwenge
fersleeten
ferslingt
ferslus
fersmilt
fersmiltenge
fersoacht
fersoachte
fersoachten
ferspradt
fersprat
ferspratte
ferspratten
ferspreedenge
ferspreedengs
ferspreeken
fersta
ferstaalboare
ferstat
fersteen
ferstoant
ferstopje
ferstopjen
ferstopped
ferstoppeden
ferstounde
ferstounden
ferstoundnis
ferstraid
ferstummeld
ferstuude
ferstuuden
ferstuurwene
fersuurged
fersuurgenge
fersuurget
fersuurgje
fersuurgjen
fersweerder
fersweerdere
ferswiende
ferswint
ferswoont
ferswuunden
ferswuunen
fert
ferta
ferteekend
ferteekenge
ferteeknis
ferticht
fertichted
fertichtede
fertichtet
fertjoonde
fertjoonden
fertjoonje
fertjoonjen
fertjoonst
fertjoud
fertjouen
fertjukkenge
fertoacht
fertonkjen
fertra
fertrappelje
fertredenge
fertreede
fertreeden
fertreedene
fertreedenge
fertreeder
fertreedere
fertringenge
fertroangen
feruret
feruunlukked
feruurd
feruurdeeld
feruurdeeljen
feruurje
feruurjen
feruurseeked
feruurseekede
feruurseeket
feruurseekje
ferwa
ferwachteden
ferwachtet
ferwachtje
ferwachtjen
ferwalted
ferwaltenge
ferwaltengebesa
ferwaltengen
ferwaltengs
ferwaltengsbesirk
ferwaltengsbesirke
ferwaltengseenhaid
ferwaltengsgliederenge
ferwaltengsma
ferwalter
ferwaltere
ferwaltet
ferwaltje
ferwant
ferwantskup
ferweederd
ferweende
ferweendenge
ferweendet
ferwiese
ferwiesenge
ferwiesengen
ferwiest
ferwikkeld
ferwikseld
ferwikselenge
ferwikseljen
ferwo
ferwoaksen
ferwoand
ferwoande
ferwoant
ferwonneld
ferwu
ferwuuden
fest
festival
festschrift
festung
fet
feudalismus
feuer
feuersalamander
ff
ffe
ffel
ffen
ffener
ffens
ffentlichungen
ffere
fgl
fi
fichtelgebirge
fiction
fide
fidel
fideo
fideos
fieber
fiegenkaktus
field
fielicht
fiellicht
fien
fiende
fienden
fiendet
fiendt
fiene
fienen
fienere
fier
fierd
fierdai
fierde
fierdeege
fierdelk
fierdelke
fierden
fierder
fierdere
fiere
fierelk
fierelkhaid
fieren
fierende
fierenden
fierenge
fiergungende
fierje
fierkieker
fiersjo
fiersjoon
fierste
fiert
fierte
fiertepunkt
fiertjuuch
fieuw
fieuwduusend
fieuwhunnerd
fieuwhunnert
fieuwunsa
fieuwuntru
fieuwuntwintich
fighter
figueres
figuration
figurativ
figurative
figures
figuur
figuure
figuuren
fikoar
file
files
filiecht
filip
fillicht
film
filme
filmer
filmografie
filmographie
filmspieler
filologekongres
filology
filosoof
filsum
filter
fin
final
finansierenge
finanzielle
finanzierenge
findt
finger
fingere
finke
finkegea
finken
finlound
finn
finnisk
finniske
finno
finsk
finster
finstere
finsterflakten
fint
fiorella
fire
firma
firmen
firmenich
first
fisch
fischer
fisher
fisk
fiske
fiskediek
fisker
fiskera
fiskerboot
fiskere
fiskjen
fiskotter
fiskus
fix
fixstiern
fixstierne
fjauer
fjauerduusend
fjauerhunnert
fjauerkaant
fjauerkaantich
fjauermoal
fjauerpunktsmeetenge
fjautich
fjautien
fjautienjierige
fjautienste
fjodorowitsch
fjoode
fjooden
fjoodendeel
fjoodendeele
fjoodgrootste
fjooge
fjoole
fjoondel
fjoorup
fjoos
fjoose
fjoosepunkt
fjord
fjorde
fjouwer
fjunde
fjundskup
fjuntelk
fjuund
fjuunde
fjuundskup
fjuuntelk
fjuuntelke
fjuur
fjuurbierich
fjuurenboom
fjuurenboome
fjuurenge
fjuurengewoakse
fjuurla
fjuurlound
fjuurspa
fjuursteen
fjuurtouden
fjuurwierk
fjuurwoapen
fken
fkensbloume
fl
fla
flaage
flaagen
flaagenstried
flaask
flabellifer
flachland
flachsmeer
fladderjen
flag
flagge
flak
flakke
flakken
flakker
flakte
flakten
flaktenma
flamme
flandern
flaschenhals
flask
flaveolum
flavescens
flecht
flederma
fleeke
flektione
flensborg
flensburg
flensbuurich
fler
flevolound
flexion
flickr
fliegen
fliegende
flieger
flielound
flieloundsk
flinnerke
flinnerkene
flintsteen
flintsteene
flitsepee
flitterke
fljooge
fljoogen
fljoogend
fljoogende
fljooger
fljoogere
fljoot
fljoote
fljooten
fljootende
fljuchplats
fljucht
fljut
flo
floaine
floaks
floaksmeer
floite
floitepiepe
floitepiepen
flooch
floot
flor
flora
floreana
florentiner
florenz
flores
floresiensis
florian
florida
floriert
flot
flotte
flotten
floud
floudergen
floyd
flu
fluch
fluchhoawen
fluchplats
fluchsa
fluchste
flucht
fluchted
fluchtede
fluchteden
fluchtet
fluchtfersa
fluchtje
fluchtjen
fluchtlenge
fluchtlengen
fluchtlinge
fluchtlings
flug
flugge
fluggen
flugplats
fluks
fluor
flur
flurbereinigung
flurnamen
flus
flusse
fluurkoarten
fluß
flyer
fm
fn
fnp
fo
foaks
foakse
foamielje
foamieljen
foamieljenferbeend
foan
foanarcha
foanboudem
foanbroundkultuur
foane
foangebied
foangebiede
foangebiet
foangestriche
foangoud
foangruund
foankieker
foankolonie
foankultivierenge
foanlieke
foanlieken
foanmuseum
foanta
foanwoater
foanwoaterspeegel
foar
foaraaln
foarallen
foarallere
foarbehoold
foarbie
foarbield
foarbielde
foarda
foardeel
foardeele
foardert
foardraach
foardrieuwen
foare
foarel
foaren
foarfa
foarfaal
foarfaale
foarfoar
foarfoaren
foargeen
foargeskichte
foargong
foargunge
foargunger
foargungere
foarha
foarhalle
foarheerskup
foarhong
foarhoundene
foarige
foarigen
foarjier
foarkoarte
foarkoomen
foarkristelke
foarkumt
foarkuume
foarkuumen
foarkuumend
foarkuumende
foarla
foarlaid
foarleegerde
foarleeken
foarloage
foarloopende
foarlooper
foarloopere
foarm
foarmarsk
foarmd
foarmde
foarme
foarmel
foarmelk
foarmen
foarmje
foarmoalige
foarmoaligen
foarmt
foarmulierd
foarnoome
foarnste
foaroolden
foarooldfra
foaroun
foarpommern
foarroate
foarsa
foarsichtich
foarsilwe
foarsitsende
foarsittende
foarsitter
foarsjucht
foarska
foarskede
foarskenge
foarskengen
foarskengs
foarsker
foarskere
foarskrifte
foarsleek
foarsloain
foarsloaine
foarsluuch
foarsmieten
foarsta
foarstaalde
foarstaale
foarstaalenge
foarstaalengen
foarstand
foarstoald
foarstoalde
foarstoul
foart
foarteekene
foartied
foartiedich
foartjuuch
foartjuuge
foaruut
foaruutgeen
foaruutgungende
foaruutsa
foaruutta
foarwoud
foated
foatenge
foatje
foatjen
focke
focken
fockenbuurich
focko
focus
fodder
fodderd
fodderheede
fodderje
fodderjen
fodderstation
fodderwa
fodom
foe
foerste
fogo
fokdri
foken
fokhuus
fokke
fokkema
fokker
fokus
folge
folie
folk
folketing
folketro
folkho
folksdounsploech
follers
folmhusen
folter
folterd
fon
fonds
foneenuur
fonna
fonne
fonnunner
fonologie
fonologyske
fonsa
fonsuun
fontaine
fontainebleau
fontsize
fooldbla
fooldbleede
foole
foon
foone
foonen
foonkieker
foont
foonten
for
force
ford
fore
forest
forges
foriining
forma
formas
formation
formel
formell
formelle
formen
formenlehre
formenwo
formoal
formoat
formule
formulierd
formulierde
formulierenge
forn
forni
forschung
forseti
forsite
fort
forte
fortmann
fortuna
forum
fosite
fossa
fossil
fossile
fossilien
foto
fotogroafinne
fotos
foucault
foudelsgjuchte
fouger
foulge
foulged
foulgede
foulgedeege
foulgeden
foulgejier
foulgen
foulgende
foulgere
foulgesilwe
foulget
foulgetied
foulgje
foulgjende
foulk
foulke
foulkegjuchtelk
foulkemoort
foulkere
foulkeslacht
foulkewonderenge
foulkewonnerengstied
foulkiske
foulks
foulksdons
foulksdonse
foulksdonsgruppe
foulksfa
foulksfersammelenge
foulksferta
foulksgloowe
foulkshoochskoule
foulkskultuur
foulkskundler
foulksmusik
foulksnoomen
foulksousta
foulksra
foulksrepublik
foulksskoule
foulkssoagen
foulkssouvera
foulkssproake
foulksstoarm
foulksstomme
foulksta
foulkstribun
foulssouvera
foundation
fout
foutbaal
foutbaaler
foutbaalfereen
foutbaalspieler
foutbaalt
foutbal
foutbalfereen
foutbalmanskup
foutbalmonskup
foutbalplouch
foutbalspieler
foutbalstadion
foutet
foutmarsk
foutnooten
foutpaat
foutplontenge
foutsa
fox
fpo
fr
fra
fraamden
frac
fracht
frachtauto
frachtferkier
frachtskip
frachtwoaine
fragaria
fragen
fragment
fragonard
fraiegaid
frameless
franc
france
frances
francesca
francesco
francis
francisca
francisco
franck
franckh
franco
francogallia
francois
franeker
frangula
frank
franke
franken
frankenfa
frankenriek
frankfurt
frankfurter
frankiske
frankisken
franklin
frankriek
frans
franske
frantis
frantso
frantsoose
frantsoosen
frantsoosenkruud
franz
franziska
franziskus
franzo
frasch
frasche
fratso
frau
fraue
frauensa
fraunhofer
fraut
fray
frbl
fre
fred
freddie
frederic
frederick
frederik
free
freedelk
freedelke
freeferdraach
freerk
freers
freeselk
freesk
freeska
freesluut
freete
freeten
fregata
fregattfuugel
freiburg
freiheit
freiherr
freilichtmuseum
freistaat
fremd
fremden
french
frequenz
frequenze
frequenzen
fresh
fresk
fresken
fresko
freude
freya
freye
freymond
fri
frick
frida
fried
friedberg
friedemann
friedenssa
friedla
friedlaender
friedrich
friedrichswerdersche
friedrichwerderske
friem
frieme
friend
friends
friens
frieren
fries
friese
friesen
friesenfeld
friesenko
friesisch
friesische
friesischen
friesisches
friesland
frieslands
friesoythe
friet
friezen
frigg
friisk
frisch
frisia
frisian
frisica
frisicae
frisii
frisistik
frisk
friske
frisoaljes
frits
fritz
frjentsjer
frjentsjertersk
fro
froage
froagebooge
froageboogen
froagen
froagenboogen
froagestaalenge
froai
froaie
froamd
froamde
froamdeferkier
froamden
froamdenferkier
froamdwoud
froamdwoude
froast
frodo
froier
from
fromme
front
fronten
froubuorren
froumuure
frpl
frr
fru
frucht
fruchtbeere
fruchtboar
fruchtboom
fruchtboome
fruchtboomma
fruchtboomtuchter
fruchte
fruit
fruticosa
fry
frysk
fryske
frysla
fs
fsa
fstedt
fsteen
ft
fte
ftel
ften
ftgrootste
ftich
ftichduusend
ftichste
ftien
ftienjierige
ftienste
ftige
ftigen
ftiger
ftiget
ftsta
ftstof
ftstoffe
ftwierk
ftwierke
fu
fuad
fuchs
fuchtegaid
fuchtich
fuchtichwoold
fuchtige
fuchtigen
fuchtiger
fuego
fugel
fugge
fuggen
fuji
fukushima
ful
fulboodich
fulboodige
fulda
fuleendede
fulfersammelenge
fulgencio
fulica
fuliginosus
fuljierich
fulkeemen
full
fulle
fullen
fullspil
fulmoune
fulspil
fulsta
fumien
fumigatus
funana
funchal
funen
fungi
fungiert
funk
funkamateure
funktion
funktione
funktionierde
funktionierje
funktioniert
funktionoale
funktsjoon
funktsjoona
funktsjoonswiese
funnen
funste
funte
funza
fusion
futhark
futhorc
futhork
futuna
future
futurismus
fuugel
fuugelailound
fuugelba
fuugele
fuugelhuus
fuugelmotive
fuugeloarde
fuugelreservoat
fuugenklood
fuul
fuulba
fuule
fuulera
fuulfoold
fuulmoor
fuuls
fuunen
fuunene
fuur
fuuren
fuurke
fuurken
fuurtouden
fy
fæ
g
ga
gabel
gaben
gabinia
gabriel
gabriela
gabriele
gabrieli
gabun
gad
gaddafi
gagausien
gagern
gaigel
gail
gailani
gainsborough
gaita
gaius
gala
galahad
galaktiske
galapageium
galapagensis
galapagoensis
galapagos
galaterbra
galen
galeopsis
galerie
galeriehollounder
galette
galicia
galicien
galilee
galilei
galileo
galinsoga
galle
gallehus
gallen
gallery
gallia
gallien
galliere
gallinago
gallinula
gallisk
galliske
gallium
galliumnitride
gallo
galloprovincialis
gam
gambia
game
games
gameten
gametophyt
gamma
gan
gandamak
gandersum
ganglia
ganglion
gangsta
gans
ganse
gansen
gant
gaolden
gap
garantierje
garantiert
garci
gard
garde
garden
gardinen
garifuna
garissa
garn
garnison
garotte
garrel
garten
garua
gas
gascogne
gase
gaspar
gaspard
gast
gaste
gaston
gat
gate
gath
gatu
gau
gauck
gaud
gaudi
gaue
gauegaid
gauegaide
gauer
gauguin
gay
gaza
gb
gdan
gdansk
ge
gea
gealeboer
geb
geba
gebauer
geben
gebied
gebieden
gebierge
gebiet
gebiete
gebietsreform
gebo
gebooren
geboren
gebr
gebrauch
gebruuk
gebruuke
geburtstag
gebuursdai
gebuurt
ged
geda
gedaechtniskirche
gedanken
gede
geders
gedesentraliseerde
gedicht
gedichte
geeders
geegend
geelenbierich
geen
geenen
geesen
geest
geestra
geeten
gefa
gefangen
gefangene
geffen
gefo
gefoar
gefoarelk
gefoarelke
gefoarenge
gefoarenloage
gefoor
gefoorelk
gegen
gegenwehr
geghard
gehalt
geheemsproake
gehen
gehu
geiger
geisladi
geißler
gekweeden
gel
gela
gelb
geld
gelde
geldeenheid
gelder
gelderland
gelderlound
gelderwerb
gele
geleerde
geleerden
gelenge
geler
gelje
gelk
gelma
gels
gelsenkirchen
gelt
gem
gema
gemeende
gemeenden
gemeene
gemeenskup
gemeenskuppe
gemeenskuppelke
gemeensoame
gemeensoamen
gemeensoamgaiden
gemeente
gemeinde
gemeiner
gemeinschaft
gen
gena
genau
genaue
gend
gende
gene
genealogie
genenge
gener
general
generalitat
generalsta
generation
generatione
genere
generoal
generoale
generoalfa
generoalgouverneur
generoalkapitanoat
generoalmajor
generoalmobilmoakenge
generoalsekreta
generoalstoate
genesis
genetik
genetiker
genetisk
genetiske
genetisken
genf
genge
gengen
gengs
gengur
genhaid
genista
genitiv
genje
genjen
genjende
geno
genome
genotyp
genouch
genozid
genre
gentiana
gentilis
gentlik
genua
geoffrey
geografie
geografisk
geografiske
geograph
geographical
geographie
geographisk
geographiske
geologe
geologie
geologisk
geologiske
geometrie
geometriske
georg
george
georges
georgi
georgia
georgien
georgiske
georgs
geothermiske
ger
gera
gerais
gerald
gerard
gerben
gerd
gerda
gerdes
gere
gerechticheit
gerhard
gerhart
geriemsele
gerlofs
germ
germain
german
germanen
germania
germaniae
germanic
germanica
germanisch
germanische
germanischen
germanisches
germanisk
germaniske
germanist
germanistik
germanium
germany
germoanen
germoanske
gero
gers
gersleat
gert
gerte
gertrud
geryones
ges
gesa
gesammelt
gesamttaal
gesang
geschichte
geschichten
geschiedenis
geschoben
gesehen
gesellschaft
gesetz
gesicht
gesina
geska
geskichte
geskichtelke
geskichten
geskichtsskrieuwenge
geskikkelkhaid
geskoanke
geskrifte
gesla
gesta
gestalt
gestapo
gestoben
gestrich
gestriche
get
getu
gevelsberg
gewa
gewalt
gewaltdeedere
gewaltich
gewaltige
gewaltsoam
gewand
geweeuwe
gewicht
gewichte
gewierkskup
gewierkskupsmon
gewieten
gewinnen
gewinnenge
gewisse
gewo
gewoaks
gewoater
gewoond
gewoonhaid
gewoonlik
gg
gge
ggen
ghana
ghansen
gherde
ghibelline
ghibellinisken
ghosts
gi
giacometti
giacomo
gian
gibbons
gibraltar
gibt
gier
giessen
gießen
gif
gift
gifte
giftegaid
giftich
giftka
giftpetersilje
giftplonten
giftstoffe
gigantea
giganteus
gil
gilbert
gilde
gines
gioacchino
giorgio
giotto
giovanni
girl
girls
girolamo
gis
gisela
gitarre
giudecca
giuseppe
giuue
giverny
gje
gjende
gjucht
gjuchte
gjuchted
gjuchtede
gjuchtelke
gjuchten
gjuchtenge
gjuchtengen
gjuchter
gjuchtere
gjuchtfa
gjuchthondskrifte
gjuchtreekenge
gjuchts
gjuchtsferfoatenge
gjuchtshoaf
gjuchtshondschrifte
gjuchtshondskrifte
gjuchtskrieuwenge
gjuchtspreekenge
gjuchtsproake
gjuchtsta
gjuchtsteede
gla
glaan
glaanba
gladbach
glaise
glanrind
glans
glansjend
glansjende
glap
glas
glauben
glaubens
glazioale
glaziologie
gleese
gleiter
glende
glenn
gletschervorfeld
glho
glidderske
glied
gliede
glieder
gliedere
gliedfljoogere
gliek
glieke
gliekenge
gliekfoarmich
gliekgewicht
gliekgjuchtenge
gliekhaid
gliekma
glieknoomige
glieknoomigen
glieks
glieksponnenge
gliekstoald
gliekstroom
gliektiedige
gliekwa
glieuwe
glieuwen
glike
glimmer
glires
glismere
glitsker
glitskere
glitskertunge
glo
global
globo
globoale
glochiden
glogn
gloitra
gloowe
gloowen
gloowens
gloowensgjuchtentengen
gloria
glossary
gloud
glu
glucose
gluk
glukkelk
glukket
glusse
gmbh
gmelin
gmina
gn
gnaeus
gnaphalium
gnau
gnaue
gnauedierte
gnauer
gnauere
gnauetuske
gni
gnoade
gnu
go
goadelk
goadelke
goaderenge
goaii
goang
goar
goarn
goarnaan
goarneen
goarnit
goarnt
goartjebloume
goate
goatere
goawe
god
godde
goddelke
goddes
goddeshanken
goddeshuus
goddesla
goddestjoonst
goddin
goddine
gode
godewaareld
godha
godhaid
godhaide
godin
godinne
gods
goeree
goes
goesharde
goesharder
goethe
gogh
goia
going
golanho
gold
golf
goliath
golla
gomes
gompitz
gone
gong
gongboare
gonge
gonza
gonzaga
gonzalo
good
goodyear
google
gooise
goolt
goolten
gorbatsjow
gordon
gordyk
gorilla
gorsafawddacha
goslar
got
goten
gotha
gotik
gotisk
gotiske
gotisken
gotlound
gottfried
gotthardtunnel
gotthold
gottko
gottlieb
gottlob
goud
goude
gouden
goudskien
goulart
gould
goulden
gouldene
gouldenen
gouldhoudene
gouldpietske
gouldsa
gouldta
gous
goutum
gouvernement
gouverneur
gov
goveniana
governableparachute
government
goya
gps
gr
gra
graben
graceland
gradstein
graf
grafik
grafiker
grafschaft
graham
gram
gramm
grammar
grammatik
grammatiske
gran
granada
grand
grande
granit
granoattra
granulata
graph
graphiske
graphit
grapske
grapsus
gras
grass
gratia
gratte
grattendeels
gratter
grattere
gratteren
graubu
graun
graven
gravenhage
graveolens
gray
graz
great
greco
green
greenberg
greenland
greep
greepen
greetsiel
greeuwe
greeuwen
greewe
greewefa
gregor
gregorianisken
gregorio
gregorioanske
gregorioansken
gregory
greiden
greifswald
grenada
grenze
greta
gretchen
grey
grid
gridcolor
griech
grieche
griechen
griechenlound
griechisk
griechiske
griechisken
griep
griepe
griepen
gries
griesbruun
griesbruune
griese
grieseed
grillparzer
grimm
grimmberger
grins
grinsla
grinslounder
grinzer
gript
gris
grischun
griseus
gro
groad
groaf
groafe
groafen
groafinne
groafskup
groafskuppe
groaienge
groawe
groep
groide
groie
groien
groiende
groienge
groit
groningen
groninger
groningerlound
groningisk
groningsk
groningske
groot
grootbritannien
grootdeel
grootdoore
groote
grootegast
grooten
grootenging
grooter
grootfoar
grootfu
grootha
grootheertoachdum
grootkolumbien
grootmacht
grootschlemm
grootsde
grootsta
grootste
grootsten
grootstendeels
gross
grosse
grosser
grossherzogtum
grosso
grote
grotius
grou
groupe
grover
groß
große
großer
großstadt
gru
grube
gruber
grundgesetz
grundlage
grundlagen
grundriss
grundriß
grundschule
gruppe
gruppen
grutte
gruund
gruunde
gruunded
gruundede
gruundeden
gruunden
gruundenge
gruundengsjier
gruundengsmythos
gruunder
gruundere
gruundet
gruundfoarm
gruundgesa
gruundgjuchte
gruundje
gruundjen
gruundla
gruundloage
gruundsa
gruundskoule
gruundskoulen
gruundsleek
gruundsleeke
gruundsteen
gruundstof
gruundwa
gruundwoater
gruundwoaterspeegel
gruundwoud
gruundwoudska
gryn
grzimek
gsi
gskola
gt
gtot
gu
gua
guadalupe
guadalupensis
guadeloupe
guam
guanahatabey
guanako
guanakos
guangxi
guanicoe
guanin
guarani
guardia
guardian
guatemala
guatemalteekiske
guaviare
guayabero
guayana
guayaquil
guaymalle
gudlaugsson
guelfe
guerilla
guerilleros
guernsey
guerra
guerrero
guevara
guez
guggenheim
guide
guido
guillaume
guillermo
guillotine
guimara
guinea
guinness
guirguis
gulf
gulfhaus
gulfhuus
gulfkriech
gulliver
gultegaid
gultich
gultichwa
gultige
gum
gummi
gun
gung
gunge
gungen
gungend
gungst
gungt
gunnbjørn
gunpowder
gunst
gunther
guo
gurion
gustaaf
gustaf
gustav
gustave
gustavo
gut
gutenberg
guulden
guunere
guy
guyana
gymnasium
gyo
gypten
gyptere
gyptisk
gyptiske
gyptisken
gysbert
gysseling
h
ha
haag
haager
haagere
haageren
haagerwa
haaldeel
haalt
haan
haangste
haar
haare
haaretz
haarlem
haarlimmer
haas
haat
haate
haaten
habakuk
habe
haben
habicht
habsburg
habsburger
hachelk
hachte
had
hades
hadrian
haematopus
hafen
haftar
hagalil
hagen
haggai
hagger
haggere
hagioskop
hahn
haider
haifa
haikens
haiti
haitioansk
hajo
halbe
halberstadt
halbertsma
halchidhoma
halffter
hall
halle
hallelujah
hallensa
halley
hallige
halligen
halligfra
halloosje
halloosjegla
hallound
halmahera
halo
halogeen
halogene
hals
halt
halten
halunder
halyikwamai
hamal
hamas
hamburg
hamburger
hambuurich
hamilton
hamito
hamlet
hamm
hampshire
han
hana
hand
handbook
handbuch
hande
handel
handelsblatt
handmahal
handwo
handy
hanekamp
hanekamps
hanenkamp
hangst
hangste
hangsteboone
hankebloume
hannah
hanne
hannen
hannenbik
hannover
hanns
hans
hansa
hansen
hanser
hansesta
hanson
haplochromis
haploid
haploide
haploidie
haplotyp
haplotype
happerge
har
hara
harald
haram
harbig
harbour
hard
hardcore
harde
harderwykenbuurich
hardy
haren
harkebra
harley
harlingerfra
harlingerlound
harm
harmenszoon
harmonie
harmoniske
harms
harns
harnzersk
harold
harpuunen
harpyien
harris
harrison
harry
hart
harte
hartmann
harz
hasan
hase
haselu
haskerdiken
haskerhoarne
haspel
hassium
hassler
hastings
hat
hatefutsoth
hatte
hattie
hau
haud
haudailound
haudartikkel
haudboanhoaf
haudgod
haudgruppe
hauding
haudling
haudlingsfamilie
haudquartier
haudsa
haudseeke
haudseekelk
haudseekelke
haudskoule
haudsta
haudsteede
haudstra
haudwoud
haue
hauen
haufen
haug
hauk
haupt
hauptling
hauptmann
hauptrolle
hauptskoule
hauptstra
haus
hausen
haust
haut
hautecourt
hauts
havanna
havasupai
haven
havo
hawai
hawaii
hawaiisk
hawaiiske
hay
haydn
hayen
hayo
hd
he
head
hearrenfean
hearresleat
heart
heaven
heaviside
heavy
hebben
hebdo
hebr
hebra
hecheln
hecker
hector
hedgehog
hedwig
hee
heedba
heede
heedeba
heedekruudgewoakse
heedelound
heedeloundskuppe
heeden
heedendum
heedensk
heedenske
heedensken
heedkonke
heel
heelden
heeldene
heele
heelen
heelje
heelkunde
heelplonte
heelplonten
heelt
heelten
heem
heemat
heemata
heematbuund
heematfereen
heematmuseum
heematsta
heemel
heemelfoart
heemelko
heemels
heemelske
heemelsko
heemsk
heemske
heer
heerbeere
heerd
heerde
heerden
heere
heeren
heerende
heerenveen
heerfierder
heerfunk
heeroma
heerskede
heersker
heerskup
heerskupferdreege
heert
heertoach
heertoachdum
heese
heeselbierich
heesters
heet
heete
heeten
heeuwe
heeuwelte
heewe
heeweld
heft
hege
heide
heidegger
heidelbeere
heidelberg
heidelberger
heidendom
heidi
heidnische
height
heiko
heilbronn
heilige
heimaey
heimat
heimatabend
heimatbla
heimatbund
heimatkalender
heimatkunde
heimatkundliches
heimatmuseum
heimatverein
heimeldinger
heimreich
hein
heinemann
heinkel
heinr
heinrich
heinz
heinze
heisfelde
heitkamp
heizungskesselbau
hektar
hektoar
helder
helen
helena
helene
helenens
helffte
helgola
helgoland
heliand
helianthus
helices
helium
helix
heliđes
hell
hellbernd
heller
helleri
hellmann
helmerich
helmers
helmut
help
helsinki
hemel
hemingway
hemispha
hen
henbeere
hende
hendrik
hengest
henk
henken
henri
henrich
henrie
henriette
henrik
henry
henryk
hep
heppens
her
heracleum
herausgeber
herausgegeben
herbert
hercules
herder
here
herero
heritage
herm
herman
hermann
hermanni
hermes
hermon
herna
hernando
herne
herpestidae
herr
herrschaft
herschel
hersfeld
hertel
hertogenbosch
hertsoch
hertsoginne
hertz
hery
herz
herzegovina
herzegowina
herzog
herzogthum
hesel
hespe
hespes
hessen
hessiske
het
heteren
hettema
heuer
heuss
hexameter
hexaploid
hexaploidie
heyens
hf
hg
hh
hi
hia
hiddes
hie
hieb
hied
hiede
hieden
hiedene
hiemba
hier
hierarchiske
hierbie
hiere
hieren
hierfoar
hierfon
hierha
hierkoamer
hierma
hieronymus
hieroun
hiertou
hiertruch
hierunner
hiet
hieten
hietsele
hietselje
hieuwengen
higgins
high
hilaire
hildburga
hilde
hildebrand
hildebrandsla
hildegard
hildesheim
hilge
hilk
hilked
hilkede
hilket
hilkje
hilkjen
hill
hillary
hillegaid
hillen
hillich
hillichdum
hillichdume
hillichduume
hilliche
hillige
hilligen
hilligenlieuwende
hilmarsum
hilt
him
himalaya
himbeere
himmel
himmler
hinauf
hindeloopen
hindenburg
hindernis
hindi
hinduismus
hindus
hinerks
hingst
hinnerk
hinnerksin
hinrich
hinrichs
hinten
hinter
hiob
hip
hipposideros
hiroshima
hirske
hirundo
his
hispanic
hispaniola
histo
histoorisk
histooriske
histoorisken
historia
historical
historie
historienmoaler
historiker
historikere
historische
historischen
historischer
historisk
historiske
historisken
historismus
historisten
history
hitler
hitlerjugend
hits
hjelmslev
hl
hlau
hle
hlen
hlenwarf
hler
hlewagast
hlewagastiz
hlung
hlungen
hm
hmen
hmert
hn
hne
hnel
hner
hnliche
hnlichen
hnliches
ho
hoaf
hoaftbefeel
hoageltouden
hoake
hoaken
hoald
hoalde
hoalden
hoaldt
hoalje
hoaljen
hoals
hoalt
hoamp
hoangst
hoangste
hoangstebloume
hoangstego
hoangstehouf
hoarnstersweach
hoase
hoasen
hoasenmuus
hoasenmuuse
hoasenoardige
hoast
hoawen
hoawensta
hoawer
hoch
hochdeutsch
hoche
hochkant
hochmoor
hochtied
hoe
hoekema
hoekstra
hoerlin
hof
hofer
hoffmann
hofmann
hofstra
hogeland
hohegaste
hohensolms
hohenzollern
hoi
hokkaido
hokusai
hol
holbein
holcus
hole
holger
holl
holland
holle
hollebierich
hollen
hollenbround
hollener
hollenerfoan
hollenermoor
hollound
hollounder
holloundere
holloundsgungere
holloundsk
holloundske
holloundsken
hollounske
holn
holnerfoan
holocaust
holotypus
holoza
holp
holsteen
holstein
holsten
holstenske
holt
holtbusk
holtbuske
holte
holten
holtene
holtenen
holterge
holtferoarbaidenge
holtijaz
holtkoole
holtsnit
holy
holzberg
hom
home
homepage
homer
homisse
homo
honda
hondbaal
hondel
hondelsferkier
hondelssa
hondelssta
hondelsweege
hondelt
hondschrift
hondskrift
hondskrifte
honduras
hondwierk
hondwierkere
hondwierksbedrieuwe
honecker
honey
honge
honget
hongje
hongjen
hongkong
hongt
honnel
honneld
honnelde
honnelden
honnelenge
honnelengen
honnelje
honneljen
honnels
honnelskontakt
honnelsmonljuude
honnelssta
honnelsweege
honnelt
honolulu
honore
honshu
hoo
hooch
hoochchinesisk
hoochchinesiske
hoochdu
hoochfoankultuur
hoochfrequente
hoochgotik
hoochhuuse
hoochieuwene
hoochkultuur
hoochkultuuren
hoochlound
hoochrhien
hoochskoule
hoochskoulen
hoochskruuwer
hoochskruuwere
hoochst
hoochste
hoochsten
hoochstlaine
hoochstom
hoochtiedsgedicht
hoochwoater
hood
hoofuurke
hoogdu
hooge
hoogebierich
hoogen
hoogezand
hoohaid
hoohaids
hoohaidsgebiet
hoohaidsgebiete
hooker
hoold
hoolde
hoolden
hooldenge
hooldengen
hoolfinsel
hoolich
hoolicha
hoolichailound
hoolichdeel
hoolichlaiter
hoolichlaitere
hoolichmetal
hoolichwa
hoolichwais
hoolm
hoolme
hoolwe
hoomer
hoomerd
hoone
hoonepootplonte
hoonkebloume
hoop
hoopenge
hoopengen
hoorn
hoose
hop
hope
hopi
hoppe
hopper
horatio
horde
hordeum
horizon
horizontoale
hormon
horn
horna
horst
horstmann
hosea
hot
hotel
hotels
hotman
houd
houden
houdene
houdenha
houf
hougede
hougeden
houget
hougje
houk
houke
hound
houndbedrieuwene
houndboukartikkel
hounde
hounden
house
houston
hovedstaden
hovetlinge
how
howard
hr
hre
hren
hrer
hring
hritheres
hrmann
hrr
hrsg
hrt
hrung
hs
hsg
ht
hta
htm
html
http
https
hu
huac
hualapai
huang
huascara
hubbard
hubble
huber
hubert
hubertus
huddenjeboom
hudson
hue
huehueteotl
hug
hugenotten
hugo
hui
huisman
huitzotl
huldrych
hulst
human
humanist
humanisten
humanistiske
humblot
humboldt
humling
hummel
humor
humorful
humphry
humulus
hundert
hundes
hunger
hungersnood
hunley
hunne
hunnen
hunnerd
hunnerde
hunnert
hunnerte
hunnertfu
hunnertjierige
hunnerttru
hunsru
hunte
hurdegaryp
hurrikan
hurrikoane
hurum
husni
hussein
husserl
hussiten
husum
hutte
hutten
huulba
huulje
huult
huun
huund
huunde
huundebloume
huundeoardige
huunderasse
huundeslieden
huundestok
huundetusk
huunich
huunichruum
huure
huus
huusarrest
huusdiert
huusdierte
huuse
huusede
huuseden
huushollenge
huushollengen
huuslook
huusnoome
huusnoomen
huusnummer
huusra
huussa
huussiede
huutsene
huvenhoops
huygens
hy
hyaenidae
hydrochaeris
hydrochoerus
hydrogenium
hydrophil
hydrophile
hydrophilie
hydrophobie
hyloxalus
hylpen
hylpersk
hymenoptera
hymne
hymnen
hyperkorrekt
hyperkorrektuur
hypermetropie
hyperpolarisation
hypertonisk
hyphen
hypota
hypothese
hypothetiske
hyves
hz
i
ia
ian
iba
ibau
iberiske
ibis
ibiskop
ibiza
ibm
ic
ica
ice
ich
ichdu
iche
ichfrankisk
ichfrequent
ichkalifornien
ichlound
ichsaksen
ichsaksisk
ichsaksiske
ichsaksisken
ichsorbisk
ichsorbiske
ichste
ichte
ichten
id
ida
idaea
idaeus
idafeen
idafeentjer
idaho
idasee
idatmospha
idaum
idba
idbieuwjen
idboudem
idbupperkaante
idde
ide
ided
idee
ideen
idegaid
idegaide
idegong
idel
idelte
iden
idenboom
idende
idene
idenge
idenlieuwend
idens
idensba
idensbouk
idensbouke
idensdonsgruppe
idenstied
idenstuun
idenstuune
identifikation
identifisierje
identifizierd
identisk
identita
ideoal
ideologie
ider
idere
iderepublik
idertexte
idf
idfulle
idgas
idgeschichtelke
idgrootste
idhanne
idhoochste
idhuus
idhuuse
idich
idigaid
idige
idiged
idigen
idigjen
idiolekt
idiolekte
idiolektoale
idiom
idiome
idiske
idividuelle
idje
idkoarste
idloos
ido
idoulje
idraigodanheddogleddollo
idreekere
idruk
idsk
idske
idskup
idsljuude
idum
idwierstande
ie
ieboom
iechsoamkaid
iedenst
iedenste
iedensthoaftich
ieder
iegaid
iegaide
iegaiden
iegaids
iegaidsstrieder
iek
iekema
iele
iemandt
ieme
iemen
iemenfreeter
iemenfreetere
iemesku
ien
ienbaud
ienbielde
ienblikke
ienboom
ienburgerd
ienburgerenge
iende
iendeeld
iendeele
iendeelenge
ienden
iendieked
iendraach
iendrain
iendruk
iene
ienfaale
ienfangen
ienfersteen
ienferstoundnis
ienfier
ienfierd
ienfierde
ienfierden
ienfiere
ienfierenge
ienfloud
ienfloudberiek
ienfloude
ienflouded
ienfloudede
ienfloudriek
ienfloudriekste
ienge
iengjucht
iengjuchtenge
iengjuchtengen
iengong
iengonge
iengreeuwen
iengriep
iengriepe
iengriepen
iengskriege
iengunge
ienheemske
ienhilked
ienhoold
ienhoolde
ienkjuused
ienkuumen
ienla
ienleeden
ienleedend
ienleedenge
ienluuke
ienluuksnigge
ienmarsk
ienmeented
ienmiskenge
ienmundenge
iennieme
iennoame
iennoamen
iennoomen
iennuumen
ienoardend
ienoardenge
ienricheld
iensa
iensats
ienschrift
iensen
iensicht
ienskaltjen
iensleek
iensleeten
iensluutend
iensnit
ienspeerd
ienstaale
ienstaalenge
ienstoald
ienteekend
ientoudeelen
ientoudomjen
ientoufieren
ientouniemen
ientousa
ientoustaalen
ientreed
ientringen
ientringlinge
ienw
ienwa
ienweensel
ienwierkenge
ienwonderer
ienwonnerd
ienwonnerenge
ienwonnerere
ienwooner
ienwoonere
ienwoonertaal
ienwoonertaale
ienwoonertoal
ier
ierd
iere
ieren
ierenge
ierengen
ierm
ierme
iersen
iersenboan
iersenboanbra
iersenboanfru
iersenboanlinien
iersenboanstra
iersenboantunnel
iersene
iersenen
iersentied
ierslikkere
ierwe
ies
iesbierich
iesboadjen
iesel
iesfra
iesfuugel
iesk
ieslound
iesloundsk
iesloundske
iesmassen
iesstadion
iestied
iestiede
ietboare
iete
ietelweere
ietelweeren
ieten
ietensgesa
ietensprodukte
ieuw
ieuwen
ieuwene
ieuwenen
ieuwenfa
ieuwenfals
ieuwenske
ieuwenskenunner
ieuwenskesilwe
ieuwenso
iewenske
if
ifel
ifljucht
ifma
igbo
ige
igeboorene
iged
igede
igeden
igen
igend
igenge
iger
igerde
igere
igeren
igerenge
igerje
igert
igesats
igesatse
iget
igewoud
igje
igjen
iglesia
igna
ignacio
ignaz
igor
igotik
igotiske
igranada
igruundede
iguinea
iheedendum
iheedene
iheedenen
iheedensk
iheedenske
ihnen
ihoochdu
ihr
ihre
ihren
ihrer
ii
iib
iii
iiib
iik
ijier
ijob
ijssel
ik
ike
iked
ikeemene
iken
ikenge
ikengen
ikengs
iker
ikere
ikmaskiene
ikone
ikonen
ikonographie
ikoppigen
ikorps
il
ila
ilbefienden
ild
ilde
ilden
ildend
ildene
ildener
ilder
ildere
ildheer
ildheere
ildmarschall
ildmarsjall
ildmuus
ildmuuse
ildsoam
ildtoach
ildwoud
ile
ilegaid
ilen
ilends
ilenge
ilengen
ilengs
ilere
ilex
ilha
ilhas
ilhuicami
iliacus
ilich
ilige
ilja
iljitsch
ilkuumen
illegoal
illich
illinois
illustige
illustration
illustrierd
illyrien
ilmiddel
iloa
ilound
ilriederske
ilsa
ilskap
ilt
ilucht
iluchtmuseum
ilwollenden
ilya
im
ima
image
imagesize
imaskiene
imazighen
imdb
imel
img
imken
imkera
imkere
immaculate
immer
immigranten
immigration
imon
impedanz
imperial
imperium
import
importierd
importierde
importierden
impression
impressionismus
impressionistiske
impressionistisken
impuls
impulse
imre
imsum
imte
in
ina
inauguracion
inc
increment
ind
inda
indagacions
indai
inde
indeele
indelk
indelke
indem
independence
inder
indere
index
india
indian
indiana
indien
indiens
indigene
indioane
indioaner
indioanere
indioanerfoulk
indioanerfoulke
indioanersproaken
indioanske
indirekten
indisk
indiske
indisken
individuelle
individuen
individuum
indizien
indo
indoeuropa
indogermanisch
indogermanisches
indogermanisk
indogermaniske
indonesia
indonesian
indonesien
indonesisk
indonesiske
indonesisken
indskup
indurre
industria
industrialisierenge
industrie
industrielle
industriellen
industriepark
ine
inen
inens
iner
inert
inertioalsysteme
infanterie
inferno
infinitiv
infloud
info
informatik
information
informatione
informationen
informationssa
informationszentrum
informellen
informoatik
infoulge
infrarood
infraroode
infrastruktuur
ingbert
inge
ingeborg
ingen
ingenieur
ingenieure
ingenio
ingolstadt
ingrid
ingwersen
inhoold
inia
inieten
initiative
initiativen
inka
inkariek
inkhuzen
inkhuzensk
inkontinenz
inlaut
inlautend
inlound
inloundere
inloundsk
inloundske
inmitten
inn
inne
innerdoat
innere
innern
innsbruck
innunner
inom
ins
insa
inschrifte
insecta
insekt
insekte
insekten
insel
inselgruppe
inseln
insen
insensato
insige
inskrift
inskrifte
inspiration
inspirierd
instabil
instande
instede
insteede
institut
institute
institutio
institution
institutione
instituto
instituut
instruma
instrument
instrumente
int
inte
integration
integrierd
integrierde
integrierden
integriert
integroal
integroalreekenge
intellektuelle
intelligens
intelligenz
intensiv
intensive
interaktion
interessant
interessante
interesse
interessen
interessierd
interessierde
interferenz
interfra
interfriesischer
interlingue
intermembranruum
interna
internacional
internasjonoal
internasjonoale
international
internationale
internationoal
internationoale
interne
internet
internetradio
internetsiede
internetversion
interpretation
interrogativpronomen
intervalle
interventsjoon
interview
inti
intifada
intonation
intra
intrate
introduction
intucht
intwiske
intybus
inuit
inuktitut
invasion
invasionen
invasions
invasionsbiologie
invasive
io
iod
ion
ione
ionen
ioniske
ionospha
ioseph
iowa
ip
ipa
ipai
ipe
ipeere
ipeeren
ipekop
ipen
ipere
ipomoea
iprage
ipste
iquitos
ir
ira
irak
irakisk
irakiske
irakkriech
iran
iraniske
irch
ire
iren
irisk
iriske
irisken
irlound
irma
irminsul
iro
iroan
iroanske
iroat
irokesen
iromanik
irtysch
is
isa
isaac
isaak
isabel
isabela
isabella
isbn
ische
ischer
isdai
ise
iseelound
iseeloundsk
iseeloundske
isekool
iselke
iselkeba
iselken
isem
iseme
isen
isenkongres
isensa
isensee
isentee
isis
isk
iska
iskbaalende
iskbaalere
iske
isken
iskunnergjucht
isla
islam
islamisk
islamiske
islamisken
islamistiske
islamistisken
island
islands
islas
islound
islounde
isloundske
iso
isolation
isolations
isolator
isolatore
isolatsjoon
isolierd
isolierde
isolierje
isolierjende
isoliert
isolierte
isomere
isotop
isotope
ispanien
israe
israel
israeli
israelis
israeliske
israelisken
israeliten
israelitiske
iss
issiede
issn
ist
istanbul
iste
isted
istehouden
istelke
istelken
isten
isterd
isterenge
istige
istikken
istoald
istoat
istof
istoffe
it
italia
italicus
italieenere
italieensk
italieenske
italieensken
italien
italienfa
italienisk
italieniske
italienisken
italiske
italjeensk
italjeenske
italo
ite
itegaid
item
iten
itenbau
itenboan
itend
itende
itenge
itengen
itenslachten
iter
iterkriech
itersbuurich
iterssa
itersu
itesystem
itet
itetied
itga
itich
itied
itiedelke
itigde
itige
itigen
itje
itjen
itkroane
itlere
itloangte
itnis
itnoame
itnoamen
itnoomen
itpudden
itroal
itroale
its
itsta
itten
itucht
itwoater
itza
itzco
iu
iucn
iulia
iulius
iunius
iupac
iv
iva
ivan
ive
ivff
ivo
iw
iwa
iwaareld
iwaareldske
iwal
iwall
iwan
iwe
iwed
iweden
iweloa
iwen
iwend
iwende
iwendlound
iwendloundske
iwendma
iwends
iwens
iwer
iwerke
iwerkekomp
iwillich
iwillige
iwilliger
iwilligere
iwsa
ix
iđo
j
ja
jaa
jaacht
jaachtinstinkt
jaap
jabik
jacinto
jack
jackie
jackson
jacob
jacobi
jacobo
jacobs
jacobus
jacopo
jacques
jade
jadebousem
jadeweserport
jae
jafo
jaguar
jaguare
jahr
jahrbuch
jahre
jahren
jahres
jahrhundert
jahrhunderts
jair
jakarta
jakob
jakobus
jakobusbra
jamaica
jamaika
jamaikoanske
james
jameson
jan
jana
jandiers
jane
janeiro
janitschoaren
jann
jannsen
janoar
jans
jansen
jansgea
janssen
jantina
januar
january
januoar
janßen
jap
japan
japanisk
japaniske
japanisken
japicx
japiks
japoansk
japoanske
japoansken
japper
japura
jaqaru
jaqi
jaroslav
jaspers
jass
java
javier
jay
jazz
je
jean
jeanne
jeder
jee
jeeger
jeegere
jeel
jeelbille
jeele
jeelen
jeelma
jeelsk
jeesel
jeesele
jeeselnoame
jeesenge
jeestige
jef
jefferson
jeffersons
jefimowitsch
jehovas
jelinek
jelle
jemen
jemgum
jena
jenkins
jens
jensen
jenson
jeremia
jeremiah
jeremias
jericho
jerome
jersey
jerusalem
jerusalemer
jesaja
jesi
jesiden
jesu
jesuiten
jesus
jet
jetske
jever
jeverlound
jeverlounde
jeverlounder
jews
jfk
jh
jheronimus
jhr
ji
jiddisk
jiddiske
jie
jiehr
jield
jiepeke
jier
jierboek
jierduusend
jierduusende
jiere
jierelk
jierelke
jierelks
jierelkse
jieren
jierestiede
jiergong
jierhundert
jierhunndert
jierhunnerd
jierhunnerde
jierhunnert
jierhunnerte
jierhunnerteloang
jierich
jierige
jierigen
jierma
jierseende
jiersta
jierstied
jierstiede
jiertande
jiertjaand
jiertjaande
jiertjaanden
jierwen
jieuwenske
jim
jimbo
jimmy
jir
jirnsum
jo
joa
joachim
joagd
joaged
joageden
joager
joaget
joagje
joagjen
joan
joana
joannes
joaqui
joaquim
joast
job
jobbegea
joe
joel
joh
johan
johann
johanna
johannes
johannesbra
johannisbeere
johanniter
johannitere
johanniterkapa
johanniterkapelle
johanniterkommende
johanniterkommenden
johanniteroarden
johannsen
johansen
john
johnny
johnston
joint
jom
jona
jonathan
jonava
jonavos
jones
jong
jongbloed
jonge
jongen
joo
jood
joodplonten
joodske
jookub
jool
joole
joop
joope
jooplound
joopste
joote
jootera
jopie
jordaan
jordan
jordanien
jorge
jorritsmapries
jos
jose
josef
josep
joseph
josephus
joshua
josua
jot
jou
journal
journalist
journalistinne
jouswier
jouwer
jozef
jpeg
jpg
jr
ju
juan
jubila
juchacz
juda
judas
judasbra
judassood
judecca
juden
judiske
judith
jugendstil
jugoslavien
juist
jujuy
juk
jukka
jukke
jules
juli
julia
julianenpark
julio
julioanske
julioansken
julius
jullien
jun
juncea
junction
juncus
june
jung
jungbohn
jungdiert
junge
jungen
junger
jungere
jungeren
jungfern
jungfernfahrt
jungfoulk
jungfuugele
jungste
jungsteentied
jungwucht
juni
juniperus
junner
juno
juns
junta
junuur
jupiter
jura
jure
juri
juridiske
jurist
juristen
juristisk
juristiske
juristisken
jurua
jury
jusa
juscelino
just
justify
justin
justiz
justizminister
justus
jutlound
jutta
juu
juude
juuden
juudendum
juudiske
juudsk
juudske
juudsken
juugd
juugdljoowe
juugend
juugendstil
juuke
juuken
juun
juunda
juundeel
juunnonner
juunnunner
juunnuur
juunpaata
juunreformation
juunregierenge
juunsa
juunsats
juunsiede
juunsiedich
juunsiedige
juunspielere
juunstonnere
juunstrieder
juunstriedere
juunuur
juunweer
juur
juurere
juust
juustgliek
juustso
juvenile
juvigny
jva
jørn
k
ka
kaalje
kaant
kaante
kaantega
kaanten
kaatsen
kabel
kabinett
kabul
kac
kachelotplate
kaffa
kafka
kahlo
kai
kaierskup
kaikos
kaimoan
kain
kaiphas
kaiser
kaiserdum
kaisere
kaiserelk
kaiserelke
kaiserkroune
kaiserkrounenge
kaiserriek
kaiserslautern
kaiserstoul
kaisertied
kaj
kaju
kakao
kakaoboom
kakteen
kaktus
kala
kalaallisut
kalender
kalif
kalifen
kalifoat
kalifornien
kaliforniske
kaliningrad
kalium
kalk
kalksteen
kallage
kaller
kallere
kalma
kalnin
kama
kambodscha
kamera
kameras
kamerun
kamm
kamp
kampagne
kampe
kamped
kampede
kampere
kamperfeen
kampet
kampf
kampje
kampjen
kampjende
kamra
kan
kanaal
kanaan
kanada
kanadier
kanadiske
kanadisken
kanagawa
kanal
kanariske
kanchenjunga
kandahar
kandidoat
kandidoate
kandinsky
kanienken
kanienkenbusk
kanienkene
kaninchen
kann
kanne
kannen
kannenma
kannibalismus
kanoal
kanoalailounde
kanoalbau
kanoale
kanon
kanonisk
kansje
kansla
kant
kanton
kantone
kanu
kanzla
kanzler
kap
kapa
kapazita
kapelle
kapitanoat
kapitel
kapitoal
kapitol
kapitulation
kapitulatsjoon
kapitulierd
kapitulierje
kapkolonie
kapp
kappe
kappenwiendma
kappenwindmu
kapsel
kapsoller
kaptain
kaptainske
kaqchikel
kara
karakatschan
karakorum
karakter
kardinoal
karel
karen
kariben
karibenkriech
karibik
karibiske
karibisken
karl
karlsbader
karlsruhe
karman
karmswuttel
karneval
karo
karol
karrenbauer
karrharde
karrharder
karriere
karte
karten
karthago
kartierjen
kartographie
kasachstan
kaschmir
kaschuba
kaschuben
kaschubisk
kaschubiske
kasimir
kaskade
kaspar
kaspiske
kassel
kast
kasta
kaste
kasten
kastenimkera
kastenkriech
kastensystem
kastilien
kat
katalanisk
katalaniske
kataloansk
kataloanske
kataloansken
katalonien
katalysator
katamaroan
katamaroane
katar
katastrophe
katastrophen
katechismus
kateeker
kategorie
kategorien
kathare
katharina
katharine
kathedrale
kathedroale
katholiko
kathoolsk
kathoolske
kathoolsken
katione
katoliken
katolisismus
katolske
katoolsk
katoolske
katoolsken
katowice
katrin
katrina
katte
kattegat
kattesta
katuule
katuun
katwijk
kauffungen
kaukasus
kaukasuskriech
kaunas
kautschuk
kavallerie
kavels
kaverne
kawasaki
kawki
kazimierz
kb
ke
keelde
keem
keeme
keemen
keemene
keen
keening
keeningriek
kees
keete
keetegaid
keetich
keeuwe
keiko
kein
keine
keith
kelly
kelnoome
kelt
kelten
keltisk
keltiske
kelvin
kemal
kemen
kemp
ken
kene
kenesna
kenia
kennedy
kennen
kenneth
keno
kens
kent
kentucky
kenunne
kenunnen
kenya
kepler
keramik
keramiken
keramiske
kerchere
kere
kers
kerspell
kessel
ketier
ketlik
ketuvim
kev
kevin
kfa
kg
khalifa
khan
khmer
khomeini
khor
khz
kich
kickers
kid
kidde
kiddeba
kiddeboom
kiek
kieked
kiekje
kiekjen
kiekjet
kiel
kiele
kieler
kielholt
kien
kiensel
kiep
kiese
kieselsu
kiesinger
kiesow
kiewiet
kikuchi
kiliwa
kilo
kilogram
kilogramm
kilomeeter
kilomeetere
kilometer
kilometere
kilowatt
kim
kimswert
kin
kind
kinder
kinderga
kindergarten
kinematik
kinetiske
king
kingharde
kingharder
kinn
kino
kippe
kippur
kirche
kirchhoff
kirchner
kirchspiel
kirgisien
kiribati
kirsche
kis
kisch
kiss
kisumu
kitjen
kittegaid
kittegientje
kitts
kjen
kjoose
kjoosen
kju
kjus
kjust
kjuus
kjuusba
kjuusdanne
kjuushooldenge
kjuusigenge
kjuustoach
kjuustoage
kjuuswai
kk
kke
kkebloume
kked
kkede
kkeden
kkelk
kkelke
kken
kkend
kkene
kkenge
kker
kkerbau
kkere
kl
kla
klaaster
klaasterbusk
klaastere
klaasterkommende
klaastersa
klaastertuun
kladde
kladogramm
klaipe
klan
klapbra
klara
klarina
klasse
klassen
klassenruum
klassenzimmer
klassifikation
klassifisierd
klassifizierd
klassik
klassisk
klassiske
klassisken
klassizismus
klaue
klauen
klaus
klavichord
klavier
kle
klee
kleen
kleenood
kleeuw
kleeuwde
kleeuwe
kleeuwen
kleeuwenge
kleeuwer
kleeuwere
klein
kleine
kleinen
kleiner
kleines
kleinscharrel
klemperer
kleopatra
klettwitz
kleve
klieuwe
klieuwer
klieuwje
klik
klikken
klikst
klima
klimabezirk
klimadiagram
klimadiagramm
klimaklassifikation
klimatyp
klimazone
klimoa
klimt
klinge
klingt
kljoun
klo
kloage
kloagela
kloagen
kloager
kloageskrift
kloai
kloaifra
kloaigruunde
kloaistreek
kloang
kloar
kloas
klok
klokke
klokken
klokkerke
klokkespul
klokwiesersin
klom
klooded
kloodenge
kloodere
kloonjen
kloor
kloord
kloore
kloormoaked
kloorstoald
kloos
kloppenbuurger
kloppenbuurich
klostermoor
klosters
klotzsche
klouke
klu
kluftige
kluge
klukhanne
kluntjes
klux
km
kna
knap
knapheede
knee
knelangen
kneppelfreed
knesset
knie
kniebel
knip
knipe
knipkensleek
knipper
knips
knipshinnens
knoal
knock
knoop
knoope
knop
knu
knuks
knuksra
knula
knullen
knut
ko
koabel
koabele
koabelwierk
koafje
koafjehuus
koafjeteemse
koai
koaie
koal
koalitsjoon
koalitsjoons
koalitsjoonskriech
koalitsjoonskriege
koande
koanden
koant
koap
koare
koarel
koarele
koarelma
koarelska
koareltank
koark
koarl
koarls
koarste
koarte
koarten
koartenspiele
koartenspil
koast
koaster
koastere
koasterske
koastet
kobalt
kobane
koblenz
koch
kode
kodex
koha
kohelet
kohl
kohuana
koka
kokenge
kokerwiendma
kokos
kokytos
kole
koleopterologie
kolleezje
kollektor
kollektorstroom
kollhoff
kollmann
kollumerlound
kollumerpomp
kologiske
kolombien
kolonie
kolonien
koloniestra
kolonioal
kolonioale
kolonioalheerskup
kolonioalisierd
kolonioalisierenge
kolonioalismus
kolonioalisten
kolonioalmoacht
kolonioaltied
kolonioaltroppen
kolonioalweere
kolonisation
kolonisierd
kolonisierenge
kolonisten
kolosserbra
kolosseum
kolumbien
kolumbioansk
kolumbioanske
kolumbioansken
kolumbus
kolwe
kom
kombination
kombinatione
kombinierd
kombinierjen
komeet
komet
komete
komiker
komitee
kommandant
kommando
kommende
kommenden
kommentierd
kommentoar
kommentoare
kommerzielle
kommission
kommunale
kommune
kommunikation
kommunikatsjoon
kommunikatsjoons
kommunisierje
kommunismus
kommunisten
kommunistiske
kommunistisken
kommunoale
kommunoalreform
komo
komore
komp
kompakt
kompanie
komparation
komparativ
kompendium
komplementa
komplet
komplette
komplex
komplexe
komplisierde
komplizierde
komponente
komponierd
komponierde
komponist
komponiste
komponisten
komponistinne
komposition
kompromis
komputer
komputere
komza
kon
kondensator
kondensatore
kondensierd
kondor
konferenz
konfession
konfessionen
konfessionsbielde
konfessionsloosen
konflikt
konflikte
konfo
kongo
kongra
kongres
kongress
koningen
koninklijke
konjunktuur
konklave
konkordanz
konkordanze
konkret
konkrete
konkurrent
konkurrenz
konkurs
konne
konnen
konnene
konomie
konomiske
konquista
konquistador
konrad
konrektorin
konsa
konsequent
konsequente
konserte
konservative
konservativen
konsonant
konsonante
konsonanten
konsonantferbiendenge
konsonantgruppen
konsonantphoneme
konstant
konstante
konstantin
konstantinopel
konstanz
konstitutionelle
konstitutsjonelle
konstruierd
konstrukteur
konstruktion
konstruktione
konstruktionen
konstruktivismus
konstruktsjoons
konsul
konsuloat
konsum
konsumente
kontakt
kontakte
kontaktsproaken
kontinent
kontinente
kontinentoal
kontinentoalspeere
kontinuita
kontra
kontrabass
kontrakt
kontrastierjene
kontrierd
kontrolle
kontrollierd
kontrollierde
kontrollierden
kontrollierje
kontrollierjen
konvergenz
konversationslexikon
konzentration
konzentratsjoonsleeger
konzentrierje
konzept
konzeption
konzerne
konzert
konzerte
konzil
konzipierd
koodiegel
kool
koold
koolde
koolden
koolder
kooldtied
koole
koolenstof
koolenwoaterstoffe
koolestof
koolestofatom
koolestofdioxid
koolestofdioxidmoleku
koolewierstande
koolich
koolmeeske
koolrabi
koolstof
koolwere
koom
koomen
koomer
koomere
kooped
koopede
koopeden
kooper
koopet
koophuus
koopjen
koopljuude
koopmon
koos
kootenay
kop
kopenhagen
kopie
kopien
kopierd
kopka
koplerer
koppe
koppel
koppeld
koppele
koppelweg
kopr
kops
koptiske
korach
koran
kordes
korea
koreaniske
korektuuren
koreoanske
korfage
korintherbra
korl
kornhorn
kornisk
korniske
korrekt
korrektion
korrigierd
korrosion
korrosionsbesta
korrupte
korrupten
korruptsjoon
korsika
kos
kosmiske
kosmographie
kosmologie
kosmonaut
kosmopolitiske
kosmos
kosmosnaturfu
kosovo
kost
kostboare
kosted
kostede
kosten
kostenfra
kostengruunde
kostenloos
kostet
kostu
kosystem
kosysteme
kou
koum
kovalente
koz
kpd
kr
kra
kraansba
kraansfuugel
krabpaster
kraft
krahe
krakau
krako
kralle
kramer
kramp
kraton
kre
kreationismus
kreatuur
krebs
kreech
kreegen
kreepelgo
krefeld
kreis
kreise
kreises
kreml
kreol
kreolen
kreolsproake
kreoolske
kreta
kreuzkirche
kreuznach
kreuzotter
krewa
krichst
kricht
kriech
kriechs
kriechsa
kriechsbu
kriechsferbreeker
kriechsferkloorenge
kriechsfljooger
kriechshoawen
kriechsmarine
kriechsskip
kriechstjoonst
kriege
kriegen
krieger
kriegere
kriegeriske
kriegje
kriet
krim
kriminelle
krimkriech
krimpenerwaard
kring
kringdai
kringe
kringfra
kringsta
krinteboom
krinten
kripto
krise
krist
kristal
kristalle
kristallin
kristelk
kristelke
kristelken
kristen
kristend
kristendom
kristendum
kristene
kristenhaid
kristianisierenge
kristianisiert
kristus
kristussa
krit
kriterien
kritik
kritiker
kritikere
kritisierd
kritisk
kritiske
kro
kroage
kroane
kroanen
kroank
kroankenhuus
kroankhaid
kroankhaide
kroasje
kroaten
kroater
kroatere
kroatien
kroatisk
kroatiske
krokodil
krokoit
krompe
kronach
krone
kronsbeere
krop
kround
kroune
krounenge
krounje
krounkolonie
krounprins
krounsba
kru
krulle
krullerge
krum
krung
krupp
kruse
kruud
kruude
kruume
kruumholte
krypta
krypton
ks
ksa
ksdeegekriech
ksduusend
kse
ksel
ksen
kshunnert
ksjuukigen
ksmoal
ksproake
kst
kste
ksten
kstgrootste
kstich
kstichduusend
kstichste
kstien
kstienste
kstiger
kstroa
ksunsa
kswa
kt
kte
kten
ktunaxa
ku
kuba
kubaniske
kubikkilomeetere
kubikmeter
kubismus
kubitschek
kuboaner
kuboanske
kuboansken
kudderhanne
kudderhoone
kude
kuden
kufuor
kuhl
kuhn
kult
kultiske
kultivierd
kultivierde
kultivierenge
kultiwierenge
kultsteede
kultsteeden
kultur
kultura
kulturell
kulturelle
kulturellen
kulturhuus
kulturlandschaft
kultuur
kultuura
kultuure
kultuurelle
kultuurellen
kultuuren
kultuurgoud
kultuurhaudsta
kultuurhistorisk
kultuurhuus
kultuurkategorie
kultuurlound
kultuurloundskup
kum
kume
kumeyaay
kumme
kumt
kundarstappe
kunde
kunden
kundreekenge
kunert
kunst
kunstakademie
kunstapfoatenge
kunste
kunstelk
kunstelke
kunstelken
kunstfoarm
kunstfoarmen
kunstgeskichte
kunstler
kunstlere
kunstlerhuus
kunstleriske
kunstlernoome
kunstlerske
kunstmjuks
kunstmuseum
kunstphotographie
kunstsproake
kunststil
kunststof
kunstwierk
kunstwierke
kunz
kuper
kupers
kupfer
kuratorium
kurden
kurdisk
kurdiske
kurdistan
kurfu
kurien
kurienkardinoal
kurier
kuro
kurre
kurs
kurse
kursiv
kurt
kurve
kurz
kusch
kusel
kust
kuste
kusten
kustenkanoal
kustenreba
kustenstrieke
kut
kute
kutenai
kutten
kuu
kuud
kuude
kuuden
kuudene
kuugel
kuugele
kuukuuk
kuukuuksbloume
kuule
kuume
kuumen
kuumende
kuumt
kuunder
kuur
kuurfu
kuurich
kuurichimkera
kuurige
kuurse
kuuse
kuusje
kuuste
kuut
kuutdrukke
kuute
kuuten
kuuter
kuutere
kuutjende
kuuts
kuutsichtegaid
kuutsichtich
kuutske
kuutsken
kuutskichte
kuutsta
kuutste
kuwait
kuweit
kv
kw
kwa
kwad
kwarts
kwattier
kwattiere
kweede
kweeden
kweedewoude
kwieden
kwierk
kwierkhuus
kwierkhuuse
kwood
kwoode
kwoud
kwoude
ky
kyptschak
kyrillisk
kyrilliske
kz
københavn
l
la
laachhoaft
laachje
laadere
laampe
laan
laanger
laangere
laangte
laangtema
labor
labour
lacandonen
lacerta
ladbergen
laden
ladin
ladina
ladiner
ladinische
ladinisk
ladiniske
lady
lafayette
laga
lage
lagidium
lagið
lago
lagomorpha
lagostomus
lagun
laguna
lagunen
lahm
lahn
lai
laid
laide
laie
laien
lailampe
laimo
lain
laine
laing
laistenge
laistengen
laistje
lait
laitede
laitenge
laitengsbeend
laitengsdreegere
laiter
laitere
laiterin
laitet
laitfa
laitje
lakota
lama
lamanai
lamarckii
lamas
lambert
lambertisa
lamium
lampe
lampeken
lampen
lanatus
land
landa
landau
lande
landen
landes
landeskunde
landesmuseum
landesmuseums
landesplanung
landesverein
landesvermessung
landkreis
landmaschinen
landriucht
landsberg
landschaft
landt
landtrecht
landwirtschaftliche
lang
lange
langejan
langen
langeooch
langeoog
langer
langere
langholt
langhorne
langobarden
langsweagen
language
languages
langue
languedoc
langues
lanka
lansierenge
lanthanide
lanwer
lanz
laos
lappa
lappe
lapt
lara
laren
larix
larry
larus
las
lascaux
lasciate
laser
lasere
laserlucht
lasers
lasierjen
lassen
lasso
last
lasten
lastich
lastwoain
lat
late
lates
latien
latienamerikoa
latiensk
latienske
latiensken
latienskoule
latifolia
latini
latinisierd
latinske
latj
latje
latte
lau
lauching
laud
lauda
laufen
laur
laura
laurasiatheria
laurent
laurentius
lauricocha
lausitz
lausitzer
laut
lauwers
lava
lavalle
lavenham
lavierjen
lavoisier
law
lawinen
lawrence
lb
lc
lco
ld
lde
lded
ldede
ldegalerie
lden
ldenge
lder
lderde
ldere
lderlin
ldet
ldga
ldieten
ldje
le
league
leal
leander
learning
leben
lebendiges
lebens
leber
lecce
lech
lechte
leck
led
leda
ledaspeerwierk
ledebur
leds
lee
leed
leede
leeden
leedene
leedenen
leedenge
leedengen
leedengsdreegere
leeder
leederha
leedoa
leeger
leegerd
leegere
leeguoan
leeguoane
leeken
leekene
leem
leen
leenwoud
leenwoude
leer
leeraner
leerbouk
leerd
leerde
leerden
leerder
leere
leeren
leerort
leert
leese
leeseaddition
leesebouk
leesebrille
leesedeel
leesen
leeser
leesere
leesewa
leet
leetantike
leete
leeter
leetere
leeteren
leetmiddeloaler
leetse
leeuwarden
leeuwe
leeuwen
leeuwt
leeward
lefebvre
left
legen
legenda
legende
legenden
legierenge
legierengen
legion
legislative
legitimen
legoal
leguminosae
leguminosen
lehnu
lehrer
leicht
leiden
leie
leif
leine
leipzig
leiter
lelystad
lemmer
lemos
len
lengen
lengenerlound
lengua
leni
lenin
lennox
lenstra
leo
leon
leonard
leonardo
leone
leonhard
leopold
lepidus
lepospondyli
leptone
ler
lere
lernen
leroy
les
lesebouk
lesebuch
lesen
lesotho
lesoto
lesser
lessing
let
lete
lethe
letlound
letzte
leu
leuben
leuchtturm
leucomelas
leute
leuten
leuteritz
leuven
leuzismus
levadas
level
leverkusen
levi
levin
leviten
levitikus
lew
lewis
lex
lexikographie
lexikon
leyman
lez
lf
lfenbeenkuste
lft
lfte
lg
lge
lgelound
lgelounder
lgeloundsk
lgeloundske
lgen
lgene
lheim
li
lia
libaneesisk
libaneesken
libani
libanon
libanonkriech
liberaci
liberia
libero
liberoale
liberoalen
liberte
library
libre
libri
libyen
libyske
lich
licht
lichte
lichten
lichter
lichtet
licinius
lid
lide
lidskup
lie
liebe
liebig
liebknecht
liech
liechtensteen
liechtenstein
liede
lieden
liedenskuppe
lieder
liegen
liek
liekap
liekdeel
lieke
lieken
lieket
liekhaftich
liekje
liekt
liekuut
lien
liend
liene
lienen
lienje
lienjen
lient
lienuursa
lienwoude
lier
lies
liesbetfeen
liesbetfeenkanoal
liesken
lieste
liested
liesten
liet
lieten
lieuw
lieuwde
lieuwden
lieuwe
lieuwed
lieuwede
lieuweden
lieuwelk
lieuwelke
lieuwend
lieuwende
lieuwends
lieuwendsbegjucht
lieuwendsduur
lieuwendsjier
lieuwendsruum
lieuwendsruume
lieuwendsruumte
lieuwendstied
lieuwendswichtich
lieuwendswichtige
lieuwendswiese
lieuwensduur
lieuwensjier
lieuwer
lieuwermoase
lieuwet
lieuweweesen
lieuwje
lieuwjen
lieuwjend
lieuwjende
lieuwt
liewendsruum
life
liga
light
lighthouse
ligny
lik
like
lila
lili
liliencron
lilienthal
lilienthals
liliputana
liliuokalani
lille
lily
lima
limaq
limbo
limburg
limbus
limbuurchsk
limbuurchske
limbuurich
limbuurichske
limit
lin
lina
lincoln
linda
lindau
lindern
lindgren
lindholm
lindsey
line
linearen
linegrey
liner
lingen
lingua
linguae
linguarum
linguist
linguistic
linguistics
linguistik
linguistiske
linie
linien
liniers
linke
linker
links
linksoogegaid
linnaeus
linne
linnen
linse
linsen
lint
linux
lio
lion
lippe
lippenhuzen
lipsius
lircay
lisa
lisk
lisle
lissabon
list
liste
liszt
lit
litauen
litauske
liter
literariske
literatur
literatura
literaturatlas
literatuur
literatuurkategorie
literatuurpries
literatuurwietenskupper
lithium
lithographie
litje
litjed
litjen
litjer
litjere
litjeren
litjet
litsje
litste
littek
littik
littikschlemm
littje
little
liturgie
liturgisk
liturgiske
liudger
live
livres
lix
liyon
lizenz
lj
ljaacht
ljauer
lje
ljedder
ljen
ljn
ljo
ljoacht
ljoachtblau
ljoachtbruune
ljoachte
ljoachten
ljoachter
ljoachtgra
ljoachtgries
ljoof
ljoofsten
ljoofte
ljoowe
ljoust
ljouwert
ljouwerter
ljouwertersk
ljubljana
ljucht
ljude
ljuude
lk
lka
lke
lkemoal
lken
lker
lkerding
lkerung
lket
lkiekere
lkunaan
lkuneen
ll
llanfair
llanos
llaqtapata
lld
lle
llegaid
llegebiet
llegenda
llen
llenberg
llene
llenge
llengen
llengua
ller
llerbrouk
llercomite
llere
llerfereen
llerje
llerne
llers
llerverein
llibres
llich
llige
llionesisk
llm
lln
lloyd
lm
lmshoawen
ln
lna
lnba
lnboot
lnd
lne
lnefereen
lnemuseum
lnen
lnenstra
lner
lnestra
lnir
lnjen
lnlycke
lo
loade
loage
loagen
loang
loange
loangen
loanger
loangere
loangfa
loanghoarst
loanghoarster
loangholt
loangholter
loanghorst
loangjierige
loangjierigen
loangs
loangsha
loangsk
loangsoam
loangsoamer
loangste
loangsten
loangstra
loangte
lobo
lobos
locarno
locke
lodewijk
lodovico
lof
loga
logabirum
logien
logiske
logo
logogramme
loh
lohe
lohmann
loire
loison
lojban
lok
lokativ
loki
lokjen
lokked
lokoal
lokoale
lokoalen
lokomotive
lokono
lom
lomas
lombok
lon
lond
londen
london
londskup
londskuppe
long
longrightarrow
loo
lood
loodene
loodich
loodige
loof
look
looken
loop
loopboan
loope
loopen
loopende
loopenden
looperske
loopferanstaltenge
loorp
loorper
loos
loose
looseja
loosmoakje
loote
lootgluck
loou
lope
lopt
lord
lordi
lorenz
lorenzen
lorenzetti
lorenzo
lorraine
lorup
los
loschwitz
loser
lot
lothar
lothringen
lotte
lotus
louis
louise
louisiana
louisville
loukotka
lound
lounda
loundbefoulkenge
loundbesit
loundbra
lounddai
lounde
lounded
loundede
loundeden
loundelke
loundenge
loundera
loundere
loundes
loundesapnoame
loundesheeren
loundeslasten
loundet
loundferbiendenge
loundferra
loundfla
loundfoulge
loundfree
loundgjucht
loundje
loundkoarte
loundkoarten
loundkring
loundkringe
loundmasse
loundnoome
loundnoomen
loundnoomenkoarte
lounds
loundsferdeegenenge
loundsheer
loundskup
loundskuppe
loundskuppelk
loundskuppelke
loundskupsbielden
loundsljuude
loundsproake
loundstra
loundstrieke
loundstuk
loundwirtschaft
loundwirtskaft
loundwirtskaftelke
loundwirtskup
loundwirtskuppelke
louppy
lout
louts
louvre
love
low
loxodonta
lozano
lp
lpe
lpel
lpen
lpend
lper
lpere
lpesproake
lpsmiddele
lpt
lptiedwoude
lring
ls
lse
lsen
lsfelder
lshoff
lsk
lske
lskup
lskuppe
lskuppelk
lskuppelke
lskups
lst
lste
lster
lstere
lt
lte
lten
ltere
lteren
ltesten
ltich
ltiske
ltnis
ltnisse
ltnisses
lu
lubaantun
lubbe
lubelskie
lublin
luc
lucas
lucht
luchta
luchtbunnel
luchtfoart
luchtfoartjuuch
luchtfuchtegaid
luchtgauegaid
luchtjier
luchtjiere
luchtlinie
luchtminuten
luchtskiepe
luchtskip
luchtsta
luchtstroom
luchtwa
lucia
luciano
lucientes
lucius
lucky
ludolf
ludt
ludwig
ludwigshafen
luf
luft
luftbielde
luftbilder
luftfoart
luftfoartjuuge
lufthoawen
luftloose
luftmassen
luftstroom
lugo
luhansk
luigi
luis
luisa
luise
luka
lukas
lukashenko
lukassen
lukoanere
lukoansk
luks
lukt
lumen
lund
lungen
lungenenzian
lupulus
lupus
lusatia
lusitanica
lussac
lust
lut
lutea
luther
lutheraniske
lutheriske
lutheroanen
luthersk
lutherske
luthersken
luttersk
lutterske
luttersken
lutz
luud
luude
luudferschuuwenge
luudferskuuwenge
luudferskuuwengen
luudgeschichte
luudgeskichte
luudgruppe
luudleere
luudmoalerisk
luudstand
luuke
luuken
luukende
luuterd
luuterenge
luuterengsbierich
luxemburg
luxembuurich
luxus
luzatske
luzern
luzifer
luzifers
lv
lvares
lven
lvia
lvig
lw
lwen
lwenferlaach
lwenferwaltenge
lweninduktion
lwenluude
lwenmo
lwenmoord
lwenmoort
lwenportra
lwensta
lwer
lwerne
lwerwiet
lwoude
ly
lybien
lychnis
lyon
lyse
lytse
lz
lækker
m
ma
maa
maai
maak
maake
maakje
maal
maale
maart
maarten
maas
maast
maastboalde
maaste
maasten
maastendeels
maastens
maastieds
maastricht
maasttied
maasttieds
mabs
mac
macdonald
mach
machado
machen
machiavelli
machine
macht
machte
machtich
machtige
machtsuurnoame
machu
macke
mackenzie
macmillan
macnaghten
macrotis
mad
madagaskar
madagassiske
made
madeira
mademoiselle
madonna
madre
madrid
maduro
mae
maestre
mafia
magazin
magdalena
magdeburg
magdeburger
magdebuurich
magellan
magellanstra
maggi
magic
maginot
magiske
magistroate
magliabechiano
magna
magnesium
magnet
magnetfa
magnetisk
magnetiske
magnituden
magnus
mah
mahadilok
mahal
mahanakhon
mahasathan
mahinthara
mahjong
mahler
mahmud
mahmudabad
mahtig
mai
maiglo
maihuenia
mail
mailound
main
maine
mainz
mainzer
maipu
maipurisk
maire
mais
maisch
maiwand
maja
majalis
maji
major
makedonien
maken
makkaba
malaiiske
malaria
malawi
malaysia
maldonado
male
maleachi
malebolge
malebolgia
maledive
maler
mali
malinche
malle
mallorca
mallord
malpopo
malta
maluku
malus
malvinas
malwinen
mameluken
mamerto
mamluken
mammal
mammalia
mammals
mammut
mammute
mammuthus
mamore
man
manat
manaus
manche
manco
mandarin
mande
mandela
mandiraja
mandoat
mandoate
manegolt
manet
manfred
manga
mangan
mangiennes
mangroven
mangrovenwoolde
manhattan
mani
manierismus
manieristiske
manifest
maniok
manku
mann
mannheim
mannoia
manoel
mansell
mansfa
mansfeld
mansfelder
manske
mansur
mansura
mantegazzianum
mantua
manuel
manufaktur
manuskript
manx
mao
maorisk
map
maplandia
mapocho
maps
mapuche
mapudungun
mar
maracaibo
marajo
maran
marat
marathon
marburg
marc
marcel
march
marck
marco
marcus
mare
marek
marga
margaret
margarete
margaretha
margarita
margeriten
marginatus
margot
margrete
margrethe
mari
maria
mariane
marianne
mariano
maricopa
marie
marien
marienberg
marienhafe
marilyn
marine
marinefunksteede
marineseender
marino
marinus
mario
marion
marionetten
maris
maritim
maritime
mariun
marius
mark
marka
marke
marken
market
markhausen
markierd
markierden
markiert
markt
markus
marmeloade
marnix
marokko
marokkoanske
marren
marron
mars
marsch
marseillaise
marseille
marselha
marshall
marshallailounde
marsk
marskierde
marskierden
marskierje
marskiert
marta
marten
martes
martha
marti
martiensseni
martin
martini
martinique
martins
martinus
martland
marum
marx
mary
maryland
mas
masaccio
maschine
maschinen
maschinenbau
masillae
maskiene
maskienen
maskine
maskinell
maskinen
maskinenbou
maskulin
mason
mass
massachusetts
massacre
massaker
masse
massen
massentaal
massiv
massive
masterpiece
mastodon
mastodonten
mat
mate
matelda
materialien
materie
materielle
materioal
materioale
materioalien
materioalprobe
mateu
mathbf
mathematik
mathematiker
mathematikerske
mathematiske
mathias
mathilde
mathrm
matisse
mato
matrix
matrosen
matteo
mattha
mattheson
matthew
matthias
matuszak
mau
mauer
maui
mauretanien
maurice
mauritius
mausoleum
max
maximilian
maximoal
maximoale
maximose
maximus
maxtlah
maxwell
may
maya
mayakultuur
mayapa
mayathan
maybach
mayen
mayer
mayo
mayor
mayotte
mayr
mays
mb
mber
mbo
mc
mccandless
mcd
mcdonald
mckinley
mclaren
mcwhirter
md
mde
mden
me
mea
mechanik
mechanisierenge
mechanisk
mechaniske
mechanisms
mechanismus
mechthild
mecklenbuurich
med
mededelingen
medel
medemblik
media
medici
medien
medina
mediske
medium
medizin
medizine
mediziner
mediziniske
mee
meeapgjuchter
meebegruunder
meebroacht
meebroachte
meedeeld
meedglid
meeglid
meeglide
meeglidskup
meeglidstoaten
meeglidtaal
meeglied
meegliede
meeglieder
meegliedere
meegliederfersamlenge
meekamped
meel
meelasje
meeluude
meemoaked
meemoakje
meen
meend
meende
meenden
meene
meenen
meenenge
meenengen
meenieme
meenskup
meenskuppe
meenskuppelke
meensoam
meensoame
meensoamgaide
meent
meente
meentedeel
meenteferwaltenge
meentefoarstounder
meentehus
meentehuus
meenten
meentera
meenteroat
meentewoapen
meenuumen
meeoarbaider
meeoarbaidere
meer
meere
meeresspeegel
meerhaid
meerswien
meerswiene
meert
meerte
meestriedere
meeta
meete
meeten
meetenge
meetengen
meeter
meetere
meeterjoop
meeting
meetinstrument
meetreewe
meetreewen
meettechnik
mega
megaherbivore
megawatt
megillot
mehelyi
mehr
mei
meierijstad
meijering
mein
meinard
meindert
meinem
meiner
meinhard
meis
meisenheim
meister
meitnerium
mekka
mel
melandrium
melanoleuca
melasse
melbourne
melchior
meles
melitta
melk
melke
melken
mellifera
mellum
melolontha
membran
memel
memens
memmert
memoiren
memoriale
memory
memphis
men
menaam
menameradiel
mendeleyev
mendelssohn
mendoza
menen
menens
menge
mennenga
mennoniten
mensch
menschen
ment
menu
menzel
mephitidae
meppen
mer
mera
merbra
mercator
mercedes
mercury
mere
meren
merkel
merkur
merne
meropidae
meropogon
merops
mersebuurich
mertens
merula
merzig
mes
mesa
mesopotamien
mesothorax
mesproake
mesquita
messe
messel
messenger
messer
messerschmidt
messerschmitt
messias
messier
messner
mestizen
met
meta
metal
metaldeele
metall
metallbau
metalle
metallen
metallisk
metalloid
metallurgie
metamorphose
metamorphosen
metapher
metaphysik
metathese
metathorax
meteorit
meteorologie
meter
methan
methode
methoden
metrisch
metro
metropol
metropole
metropolit
metropolitan
metropolitana
metropolregion
metropoolregion
metz
meu
meuse
mews
mexicanum
mexicanus
mexico
mexikaniske
mexiko
mexikoanere
mexikoanske
mexikoansken
meyde
meyer
meyers
meynheyt
mg
mgjucht
mhaft
mhafte
mhnt
mhz
mi
mia
micha
michael
michaels
michail
michel
michelangelo
michele
michigan
miconia
microtus
mid
midde
middeeges
middel
middelamerikoa
middelamerikoanske
middelburg
middeldu
middele
middeleuropa
middelgroote
middelhoochdu
middelhooge
middella
middelloop
middellound
middelma
middelmeer
middelmeergebiet
middelmeerregion
middelniederloundsk
middeloaler
middeloalerelke
middeloalerlike
middeloalerske
middeloolde
middelpunkt
middelradde
middels
middelste
midden
middewinter
middle
midianitere
midsla
midsloundsk
midsuumerfa
midtjylland
midway
midwiek
midwinterfa
mie
miechha
miedema
miege
miegelke
miegelken
mielen
mien
miete
migrante
migranten
migration
migratorius
miguel
mike
mikro
mikrometer
mikron
mikronesien
mikrophon
mikroskop
mikroskope
mil
mila
mild
mildaam
mile
miles
milione
milionen
milita
militair
militariske
military
miliz
mill
millefolium
miller
millet
milliard
milliarde
milliarden
millicandela
millimeetere
millimeter
millimetere
million
millione
millionen
millionste
millisekunden
milliwatt
mills
milos
milpa
milton
mimik
mimmelage
min
mina
minas
mind
mindanao
minden
minderheiten
minderheitensprachen
mindestens
mindoro
mineralien
mineroal
mineroalien
minh
mini
miniatur
miniatuur
minimoalpoor
minimoalpoore
minimum
minister
ministere
ministerien
ministerium
ministerkonfera
ministerpra
ministerra
ministerske
minner
minnerha
minnerhaid
minnerhaide
minnerhaidesproake
minnerhaidesproaken
minnerhaidssproake
minnerhaidssproaken
minnerheedenra
minnerje
minnerjen
minnerwa
minnesota
minor
minoritenkirche
minoritensa
minos
minsener
minssen
minste
mintwain
minus
minute
minuten
mio
mioza
miquelon
mir
miren
mireya
miro
miroslaw
mis
misbruuk
misbruuke
misbruukt
miscellanea
mischst
misferstounden
misglukkeden
misiones
misk
miske
misked
miskede
miskenge
miskengen
misket
miskfaawe
miskje
miskkroane
miskling
miss
misse
mission
missionare
missionierenge
missionoar
missionoare
mississippi
missouri
mist
mistral
mit
mitarbeit
mitglieder
mith
mithridates
mitochondrial
mitochondrien
mitochondrioale
mitselwier
mitt
mitte
mitteilungen
mittelalters
mitteleuropas
mittelpunktschule
mittheilungen
mitzka
mixco
mixteken
mißversta
mje
mjitte
mjo
mjoo
mjoon
mjota
mjuks
mjuksfuurken
mken
mlich
mling
mlingfra
mloos
mloosen
mm
mma
mme
mmelk
mmen
mmenge
mmengen
mmers
mmerung
mmesee
mmling
mmlinger
mn
mo
moab
moabitere
moacht
moachtberiek
moachte
moachtha
moachtige
moade
moaden
moage
moai
moaiboom
moaiholtene
moaiklokje
moake
moaked
moakede
moakeden
moaker
moaket
moakje
moakjen
moaksteede
moal
moald
moalde
moale
moaler
moalera
moalere
moalerfoamielje
moalerkunst
moalerske
moalje
moaljen
moalk
moalt
moaltechnik
moalwiese
moalwiesen
moan
moangelse
moanne
moanselke
moansk
moanske
moanskelk
moanskelke
moanskelken
moansken
moanskene
moanskengjuchte
moanskenmasse
moanskenoffer
moanskentoanken
moanskenwietenskup
moanskhaid
moantel
moarte
moarten
moas
moasba
moase
moast
moaste
moasten
moat
moate
moaten
mobile
mobschatz
moc
moctezuma
moda
modder
moddere
mode
model
modell
modelle
moderatoorinne
moderator
moderatorinne
modern
moderne
modernisierje
modernste
modigliani
modrow
modulation
modulierde
moduloator
modus
moe
moench
moers
mohammed
mohave
mohr
mohs
moin
moite
moitera
moken
molbiergen
moldawien
moleku
molen
molinia
molk
molkera
molkstra
molkwai
moll
molle
molossa
molossinae
molukken
molybda
moment
mommsen
mon
monacensis
monaco
monarchie
monarchomachen
mond
monde
moneda
monet
mongelse
monges
mongola
mongolen
mongs
monika
monken
monkens
monlik
monljuude
monnelk
monnelke
mono
monochamus
monochord
monochromatisk
monochromatiske
monococcum
monophyletisk
monophyletiske
monophylie
monotheistiske
monotypisk
monotypisken
monroe
monroy
monskup
monskuppe
monster
monsterman
monsun
mont
montan
montana
montanus
monte
monteiro
montejo
montenegro
montesquieu
montezuma
montfaucon
montfort
montfortisk
montfortiske
montierd
montje
montjene
montmorency
montserrat
montu
monuma
monument
monumente
monumentenregister
monumento
monumentoal
monumentoale
moon
moonich
moonige
moor
moore
moorere
moorfrosch
moorgucker
moorgut
moorhaid
mooring
mooringer
mooringske
moorkultuur
moorleiche
moorlilie
moormann
moormerlound
moormoals
moorniederung
moorsproakich
moorsproakige
moort
moortaal
moortoal
moos
moosbeere
moose
mopan
mora
morales
moralisten
more
moreau
moreno
moretus
morgan
moritz
morley
mormonen
morna
mornen
morpheme
morphologie
morris
morrison
morrow
morse
mort
morteratsch
morteratschdoal
morteratschgletscher
morteratschglitsker
morus
mosaik
mosambik
moschaiski
moschee
moscheen
moschus
moscoso
moscow
mose
mosel
moses
moskau
moskeemeente
moslems
mosque
mosse
mote
moteur
mother
motiv
motive
moto
motodroms
motooren
motor
motorcross
motoren
motorensport
motorra
motorreede
motorsaise
motto
moud
mouda
moude
moudeerne
mouden
mound
moundai
mounde
moune
mounen
mounephasen
mount
mour
mout
mouten
moutene
mozambique
mozart
mp
mped
mpel
mpele
mpen
mpfang
mpfange
mpfanger
mpt
mr
mrang
mri
mrt
ms
msel
mt
mtdna
mu
muammar
muasem
mubarak
mucha
mucia
mud
mudde
muddeberg
muddebierich
mudderge
mueszen
muf
muffel
mugelk
mugelkaid
mul
mulder
muller
mullers
mulskeede
mun
munch
mundart
mundarten
mundelk
mundelke
mundenge
mundengs
mundengstjoachter
mundet
mundi
mungard
municipio
munition
munitsjoon
munske
munster
munsterlound
munsterske
munt
munte
munten
mur
murder
murinus
murray
mursi
muse
museen
museo
museum
museums
museumsbahn
museumsboan
museumsboane
museumsdirektor
museumsdorf
museumseisenbahn
museumsiersenboan
museumsta
music
musik
musiker
musikinstruma
musikoalisk
musikoalske
musikwietenskupper
muskel
muskulatuur
muslime
muslimisk
muslimiske
must
mustafa
mustela
mustelidae
muster
mutassim
mutastis
mutatas
mutation
muth
mutsken
mutte
mutten
muttergotteskirche
muttskip
muude
muudegebiet
muugelk
muugelkaid
muugelkaide
muugelke
muugelken
muugelkerwiese
muugelkhaid
muugelkhaide
muugelkst
muugerk
muule
muur
muure
muuren
muurk
muurlound
muursproake
muus
muuse
muusega
muusena
muusewa
muzeul
mw
my
myanmar
myelin
myopie
myopiekorrektion
myrica
myrtillus
myself
myst
mysterio
mystery
mythen
mythiske
mythologie
mythologiske
mythologisken
mythos
n
na
naaberlju
naaberljuudene
naamd
naamde
naamden
naame
naamkunde
naamt
naan
naar
naarding
naargends
nabu
nach
nachdruck
nachschlagewerk
nacht
nachtigal
nachtschatten
nachtschattengewa
nachtsprint
nacional
nadar
nafo
nagasaki
nagel
nah
nahe
nahua
nahuatl
nahum
nai
naie
naier
naikamp
naild
naile
naiskans
naiste
naisten
naite
naitepunkt
naive
nakamura
nakbe
naked
nam
nama
namd
name
namen
namenforschung
namibia
nammen
namnetus
namon
nandiniidae
nang
nann
nannen
nanometer
nant
nantes
napo
napoleon
napoleoonske
napus
narcissus
narthecium
narva
narzissen
nas
nasa
nasdaq
nasjonale
nasjonoal
nasjonoale
nasjonoalfersammelenge
nasjonoalgarde
nasjonoalist
nasjonoalkonvent
nasjonoalpark
nasjonoalsosjoalismus
nasjoone
naso
nasoal
nasoale
nassau
nat
nata
natal
natans
natascha
nation
national
nationale
nationalita
nationalmuseum
nationalsozialismus
nationalsozialiste
natione
nationoal
nationoale
nationoalhymne
nationoalsozialistisken
nationoalstoat
nations
native
nato
natrium
natsjoonen
natu
natur
naturae
natural
nature
naturfu
naturgeschichte
naturhistorisches
naturkunde
naturschutz
natuur
natuurelke
natuurfoarsker
natuurfru
natuurphilosophie
natuurruumte
natuurskuts
natuurskutsgebiet
natuurskutsgebiete
natuurtoankmoal
natuurwietenskuppe
natuurwietenskuppelke
natuurwietenskupper
nau
naumanni
nauru
navajo
navassa
navigationsreewe
navy
nazca
nazi
nazidu
nazis
nbaum
nbert
ncatl
nchen
nchengladbach
nchez
nchhausen
nchner
ncia
nd
nde
nded
ndegaid
ndel
ndelk
ndelke
nden
ndenge
nder
ndere
nderte
nderung
ndez
ndfloud
ndgren
ndich
ndig
ndige
ndiged
ndigen
ndigenge
ndigje
ndisch
ndische
ndischen
ndj
ndjer
ndl
ndnis
ndniß
ndoal
ndr
nds
ndskup
ndung
ne
neapel
neben
nebraska
neburg
neck
neckar
ned
nederland
nederlands
nederlandse
needer
needere
neederen
neemens
neen
neerenge
neerengs
neerstof
neerstofrieke
nees
negativ
negative
negev
negro
negros
nehemia
nei
neidharts
neil
neiße
nektar
nelk
nelke
nelken
nelkgaiden
nelkhaid
nelkhaide
nelks
nelly
nelson
nemann
nemark
nemen
nemzow
nen
nenge
nengra
nenko
nenskildpudde
nenskildpudden
neo
neobiota
neolithisierenge
neon
neonazi
neonazis
neophyt
neophyten
neoten
neozoa
neozoon
nepal
nephilim
nepomuk
neptun
ner
nero
nerungsverein
nervesystem
nes
nessus
net
netherlands
nettelburg
netto
neu
neuburg
neue
neuen
neuenburg
neuhauss
neuhochdeutsch
neuman
neumann
neumarkt
neumu
neun
neurologie
neuron
neurone
neurotransmitter
neurotransmittere
neuss
neustadt
neutrino
neutrinos
neutroal
neutroale
neutron
neutrone
neuville
neuzeit
nevada
nevadensis
nevado
never
neves
nevi
nevis
new
newman
news
newton
ney
nez
nf
nfeld
nfr
ng
nge
ngel
ngele
ngelk
ngelke
ngelound
ngelsk
ngelske
ngelsken
ngelsksproakige
ngen
ngenge
nger
ngere
ngeren
ngh
ngl
nglound
nglounder
ngloundere
ngste
ngstof
ngte
nguru
ngwu
nh
nha
nhat
nhd
nhoff
ni
nia
nib
nic
nica
nicaragua
niccolo
nice
nich
nichdum
nichriek
nichrieke
nichs
nichsboolke
nichsbouk
nichshoaf
nichshuus
nicht
nichts
nico
nicola
nicolaas
nicolae
nicolai
nicolas
nicolaus
nicoya
nidal
nie
nieberding
niebu
niede
nieder
niederdeutsch
niederdeutsche
niederdeutschen
niederdeutsches
niedergang
niederla
niederlounde
niederlounden
niederlounder
niederloundere
niederloundisk
niederloundiske
niederloundsk
niederloundske
niederloundsken
niederlounsk
niedermu
niedersa
niedersachsen
niedersachsens
niedersaksisken
niedersedlitz
niederstift
niels
nielsen
nieme
niemen
niemere
niemeyer
nien
nienburg
niep
niepe
nieper
niepere
niethammer
nietzsche
nieuw
nieuwe
nig
nige
nigel
niger
nigeria
night
nigin
niginne
nigra
nigriceps
nigrum
nij
nijbre
nijehaske
nijewier
nijhoarne
nijla
nijskoat
nik
niki
nikita
nikkel
nikko
nikolai
nikolaj
nikolajewitsch
nikolaus
nikos
niks
nil
nilboars
niloticus
nils
nilsson
nim
nimo
nimt
nin
nina
ninan
ningen
ninive
ninka
nintendo
nio
niobium
nior
nirvana
nis
nisk
niske
nisken
nit
nita
nitkristen
nittel
nitz
nivalis
niveau
nixon
nizier
niziere
nizza
nj
nje
njuugen
njuugende
njuugentich
njuugentien
njuugentiende
njuugentienste
njuugentiger
nk
nke
nker
nko
nkooge
nkoogisk
nkoogiske
nl
nlound
nlwkn
nm
nme
nn
nnammen
nnd
nne
nnel
nnelk
nnen
nnenge
nnens
nner
nnere
nners
nniged
nniget
no
noa
noaber
noaberailounde
noaberdialekte
noabere
noaberljuude
noaberlound
noaberlounde
noabermeente
noabermeenten
noaberskup
noabersproaken
noabersta
noaberta
noach
noacht
noachte
noachtheemel
noachtskaade
noack
noakend
noakende
noame
noardwa
nobel
nobelpries
nobelpriesdreeger
nobelpriese
nobelprieswinner
noble
noch
noche
nochmoal
noemi
noi
noka
nomaden
nome
nomen
nomenklatur
nomenklatuur
nomenologie
nominatfoarm
nominell
noms
non
none
nood
noodfaal
noodige
noodsa
noodseeke
noodweendich
nooit
noom
noomd
noome
noomen
noomenkunde
noomenskild
noomentypen
noord
noordoostpolder
noose
noosenboar
noosenboare
noosengoate
noosepiepen
noote
nooten
noppharat
nora
norbert
nord
norddeutsche
norden
norderney
nordfriesische
nordfriesischen
nordfriesischer
nordfriesisches
nordfriesland
nordfriisk
nordischen
nordiske
nordjylland
nordsee
nordwest
nordwestdeutschland
norfolk
noriega
norm
normaalnul
norman
normandie
normandien
normandier
normandiske
normannen
normoal
normoale
normoalen
normoalerwiese
normoalnul
norris
norte
north
northern
nortmoor
norweegiske
norwegen
norweger
norwegisk
norwegiske
norwegisken
norðurvegi
nos
nosc
nost
nostri
nostro
not
note
noten
notierd
notoc
notre
nott
notwehr
notyp
nouch
noud
noudaast
noudaaste
noudaastelk
noudaastelke
noudamerikoa
noudamerikoanske
noudbrabant
nouddu
noude
noudelk
noudelke
noudelken
noudelkste
nouden
nouderweege
noudfra
noudgermanisk
noudgermaniske
noudhollound
noudhouksk
noudhoukske
noudhumling
noudirlound
noudiske
noudju
noudkorea
noudkuste
noudmakedonien
noudnoudwa
noudrhien
noudsee
noudseegermoanske
noudseekuste
noudsiede
noudstoaten
noudwa
noune
nouveau
nov
nova
novelas
november
novo
now
nowak
nowgorod
np
npenrhynareurdraethceredigion
nr
ns
nsa
nsb
nsd
nsdap
nse
nsed
nsee
nselje
nsen
nsende
nsenge
nset
nsk
nske
nste
nster
nsterla
nsterland
nsu
nsw
nt
ntara
ntda
nte
nted
ntede
nteeken
nteekend
nteekende
nteekene
ntelke
nten
nter
ntfangen
ntfierder
ntfoulked
ntgen
ntgungen
nthaalt
ntheelden
ntheelt
nther
nthoaldt
nthoalt
nthoold
nthoolde
nthooldende
nthooldssteede
ntich
ntiert
ntige
ntimeeter
ntimeetere
nting
ntjansba
ntje
ntjen
ntjene
ntkumt
ntkuume
ntkuumen
ntla
ntleenenge
ntling
ntloang
ntoardede
ntoariske
ntren
ntroal
ntroale
ntroalen
ntroalferwaltenge
ntrum
nts
ntskat
ntskeede
ntskeeden
ntskeedend
ntskeedende
ntskeedenge
ntsko
ntslus
ntspeegelde
ntspond
ntspra
ntspreeke
ntspreekend
ntspreekende
ntspringende
ntspringt
ntstamme
ntstamt
ntsteen
ntsteene
ntstoant
ntstounde
ntstounden
ntstoundenge
ntstuud
ntstuude
ntstuuden
ntsu
ntweeder
ntwikkeld
ntwikkelde
ntwikkelden
ntwikkelenge
ntwikkelengen
ntwikkelje
ntwikkeljen
ntwikkelt
ntwikkelte
ntwiklenge
ntwiklengslounde
nu
nudden
nuestra
nueva
nuevo
nukleinbasen
nukleinsu
nukleo
nukleobasen
nukleone
nukleosid
nukleotid
nukleotide
nul
numenius
numer
numeri
nummer
nunne
nunnen
nunnenklaaster
nunner
nuova
nuphar
nur
nutsdierte
nutsed
nutselk
nutsen
nutsenge
nutten
nutzung
nuu
nuumen
nuumer
nuumere
nuute
nuuten
nwo
nwz
ny
nya
nyctinomops
nyctyornis
nyi
nyk
nymphaea
nyu
nz
nzebrock
o
oa
oaber
oachsde
oachte
oachted
oachteduusend
oachtekaantwiendma
oachtenge
oachtje
oachtjeboom
oachtjen
oadel
oadeld
oadelige
oadelke
oadels
oadler
oadlige
oafte
oafter
oafters
oai
oaien
oaiere
oailound
oailounde
oain
oaind
oainde
oainden
oaindum
oaine
oained
oainen
oainer
oainere
oainhaide
oainskup
oainskuppe
oainsta
oainstoundige
oaint
oaintelk
oaisa
oaiwiet
oaiwiete
oaje
oakse
oaksen
oaler
oalerdum
oalerssichtegaid
oalke
oalter
oaltere
oamde
oamder
oamse
oamselound
oamsemundenge
oamsespeerwierk
oamsfra
oan
oane
oanefljut
oangst
oankeld
oankelde
oankelden
oankeldstrang
oansta
oante
oanten
oantwoud
oantwoudede
oape
oapen
oaper
oarbaid
oarbaide
oarbaided
oarbaidede
oarbaideden
oarbaiden
oarbaider
oarbaidere
oarbaidergewierkskuppe
oarbaiderpaata
oarbaidet
oarbaidje
oarbaidjen
oarbaidsiemen
oarbaidskra
oarbaidskring
oarbaidsloosegaid
oarbaidssteede
oarbaidswiese
oarbaidswiesen
oarbeid
oarbeidskring
oard
oarde
oarden
oardend
oardende
oardenge
oardengen
oardent
oardige
oardigen
oardkonzept
oardnenge
oardnengstaal
oardnengstoal
oardnoome
oare
oargel
oargelakademie
oargele
oargelist
oargelistinne
oargelloundskup
oarich
oart
oas
oawe
oawers
oaxaca
ob
obadja
obama
oberhausen
oberspreewald
objekt
objekte
objekten
objektfoarm
objektiv
objektive
oblast
obres
obscurus
observations
observierde
oc
occidental
occidentalis
occitan
occlo
occupied
oceanodroma
och
ocholt
ochotonidae
ocko
octave
octavian
octavianus
odense
oder
odin
odinismus
odobenidae
odonata
odore
odyssee
odysseus
oe
oenemastate
oer
of
ofen
off
offen
offenbach
offensive
offer
offerd
offere
offerfa
offerje
offerjen
office
officinale
officinalis
offisier
offisiere
offisjelle
offizial
offiziel
offiziell
offizielle
offiziellen
oficial
ofwa
og
ogg
oggi
ogni
ogv
oh
ohd
ohio
ohm
ohne
ohr
oi
oil
ois
ojeda
ojos
ok
okkupation
oklahoma
okse
oksenbrink
oksitanien
oksitoansk
oksitoanske
okt
oktoawe
oktoawen
oktober
oktoober
okular
ol
ola
olaf
old
oldambt
olde
oldenburg
oldenburger
oldenburgische
oldenburgischen
oldenbuurich
oldenbuurichske
oldersum
oldesloe
ole
oleracea
olga
olho
oligoza
olivaceus
olivater
oliver
olivier
olliges
olling
ologe
ologie
ologinne
ologische
ologisk
ologiske
olterterp
oltii
oltmanns
olympia
olympiske
om
oman
omar
omje
omjen
omme
ommelaand
ommer
ommo
omsk
on
one
onera
onkerboolke
onkerboolkeferbiend
online
only
onondaga
ontario
ontologe
onze
oo
oog
ooge
oogen
oogenblik
oogendokter
oogene
oogenlinse
oogenoustand
oogenouwiekengen
oogenskienelk
oogenskoade
ook
oold
oolda
oolde
ooldebra
ooldehou
oolden
ooldenait
ooldenburger
ooldenbuurchske
ooldenbuurger
ooldenbuurgske
ooldenbuurich
ooldenhuus
oolder
ooldeste
ooldfra
ooldgriechisk
ooldgriechiske
ooldhoochdu
ooldniederloundske
ooldnoudisk
ooldnoudiske
oolds
ooldsaksisk
ooldsaksiske
ooldske
ooldst
ooldsta
ooldste
ooldsten
ooldwaareldsk
ooldwaareldske
oom
oomram
oophaga
oor
oorbunken
oore
ooren
ooriersen
oost
oosterhout
oostvaardersplassen
oou
op
open
oper
opera
operation
opern
ophiostoma
opositsjonelle
opositsjoonelle
opposition
oppositsjoon
oppositsjoons
opt
optik
optiker
optimas
optimismus
optimistisken
optisk
optiske
opuntia
opuntien
opus
or
ora
orange
oranien
oranje
oranjefra
oranjewa
orbicularis
orchester
orchideen
orchis
ore
oregon
oregonensis
orellana
org
organ
organe
organellen
organeum
organisation
organisatione
organisatsjoon
organisierd
organisierde
organisierden
organisiert
organisk
organiske
organismen
organismus
orgel
orgoane
orient
oriental
orientaliske
orientation
oriente
orientierd
orientierde
orientierenge
orientierje
orientiert
origenes
origin
original
origine
originoal
originoale
orinoco
orinoko
oriolus
orlando
orleans
orna
ornain
ornamente
ornamentik
ornatus
oro
orozco
ort
orthodoxe
orthodoxen
orts
ortsamtsbera
ortschronisten
ortsnamen
orville
orwell
oryctolagus
os
osama
osasco
oscar
oseanien
oskar
oslo
osmaniske
osmoanen
osmoanske
osnabru
oss
ossenbra
ossifragum
ost
ostade
ostalgie
ostendorf
ostendorp
ostermoorstra
ostfriesen
ostfriesisch
ostfriesische
ostfriesischen
ostfriesischer
ostfriesisches
ostfriesland
ostfrieslands
ostralegus
ostvreslande
osu
oswald
oszilloator
ot
otaria
otariidae
othain
other
otomops
ott
ottenjann
otterberg
otterbierich
otto
ottorino
ou
oubaadend
oubau
oubaud
oubielded
oubieldenge
oubieldengen
ouboald
oubra
oubreeke
oubreeken
oubreekene
oubriek
oubunked
oud
ouda
ouddorp
oudeelenge
ouderkerk
oudrain
oudruk
oudrukke
oudrukt
ouer
oufa
oufaalend
oufierd
oufljut
oufoulge
oufra
ougefal
ougend
ouger
ougere
ougoawe
ougra
ougreeuwen
ougruund
ouha
ouheelden
ouholtjen
ouhonget
ouhongich
ouhongige
oukieked
oukleeuwenge
ouklingjen
oukriegen
oukuumen
oukuuted
oukuutede
oukuutenge
oukuutengen
oula
oulaid
oulait
oulat
oulatte
ouleede
ouleeden
ouleedenge
ouleegerd
ouleegerengen
ouleeken
ouleese
ouliend
ouliende
oulienenge
oulje
ouljelampen
ouljemoalera
oulo
ouloop
ouloosenge
ouma
oumeetengen
oun
ouna
ounba
ounbau
ounbaud
ounbaue
ounbjoode
ounbroacht
oundeel
oundraach
oundrieuwen
ounfa
ounfang
ounfangd
ounfangde
ounfange
ounfangt
ounfierd
ounfierder
ounfljoote
oungenuumen
oungra
oungriep
oungriepe
oungriepen
oungriepende
oungrieper
oungriepere
oungungt
ounhauen
ounhoaked
ounhonger
ounhongere
ounhooldend
ounhooldende
ounimt
ounja
ounka
ounkeemen
ounkoom
ounkumst
ounlaid
ounloage
ounma
ounnieme
ounniemen
ounnimt
ounnoame
ounnuumen
ounoardend
ounpaased
ounpaasenge
ounrakt
ounreeke
ounroat
ounsa
ounsiedeld
ounsjoon
ounsleek
ounsleeke
ounsleeten
ounsluut
ounspond
ounspro
ounsproake
ounstalt
ounstat
ounsteet
ounstikt
ountjuudengen
ountougriepen
ountreede
ountroangen
ounuumen
ounuumene
ounweendenge
ounweendengen
ounwoand
ouoardende
ouoardenden
ououse
our
oureeke
oureekenenge
oureekenge
ourieten
ouroat
ouroate
ourswa
ourunded
ouruupen
ous
ousa
ouska
ouskaffed
ouskat
ouskeed
ouskra
ouskrift
ouskuuwenge
ousleek
ousleeten
ousloain
ousluut
ousluutdiek
ousmieten
ousmilten
ousnied
ousniede
ousnieden
ousnit
ousoaged
ousoande
ouspeergitter
ouspeerventil
ouspieljen
ousproake
ousta
oustamje
oustamme
oustammenge
oustand
oustande
oustandsbesta
oustomje
oustommenge
oustommet
oustoundende
ouswa
out
outa
outdoor
outoukriegen
outouleeden
outouleesen
outoureeken
outousa
outouskeeden
outoutreeden
outra
outreede
outreeden
outs
ouweerd
ouweerende
ouweerlinie
ouweesenhaid
ouwieke
ouwiekend
ouwiekende
ouwiekenge
ouwikseljend
ouwoaterenge
over
overflakkee
overijssel
overkill
ovid
ovidius
owen
owwol
oxenstierna
oxford
oxid
oxidation
oxidationstaal
oxidierd
oxycoccos
oxycoccus
oyta
oza
ozean
ozeane
ozeanien
ozeanterritorium
ozeoan
p
pa
paachter
paad
paade
paas
paasede
paaset
paasje
paasjen
paasjend
paaske
paasken
paat
paata
paate
paatender
paatenderskup
pablo
pac
pacific
pacos
paddel
paderborn
padre
padua
paedwizers
paeonia
paestum
page
pagos
pahl
pai
paine
painting
paipai
paiute
pakistan
pakistoanske
pakkenge
pala
palace
palacio
palais
palast
palatoalen
palau
palazuelos
palenque
palisander
palm
palma
palmyra
palte
paltoga
palts
paltsersk
paltserske
paltsersken
palu
palustre
palustris
pampa
pampas
pamphlet
pan
panama
panamaere
panamaiske
panamakanoal
pane
panel
paneve
paniculata
panorama
panoramio
panser
pansere
panserspeere
panther
panzer
paolo
papa
papaya
papen
papenburg
papenbuurich
paper
papiamento
papier
papio
papua
papuas
papyrus
par
para
paradies
paradise
paradiso
paraguay
paraguayiske
paralithodes
parallaxe
parallel
parallele
parallelskaltenge
paramilita
paramore
parana
paraphyletisk
paraphylie
parasiten
parasorbinsu
paris
pariser
parish
parishes
park
parks
parlama
parlament
parlema
parsec
parsek
part
partei
parteien
partement
parther
partial
partido
partien
partikele
partizip
partner
partnere
partnersta
party
parus
paruwrobates
parviflora
parzellen
pascal
pascha
paschas
pascual
paso
pass
passage
passagen
passagier
passagiere
passat
passierd
passierje
passiert
passion
passions
passive
passoat
pastoor
pastor
pastoralbra
pat
patent
pater
patriarche
patricio
patrick
patriziere
patroon
pau
paul
paula
paulinum
paulo
paulsen
paulssa
paulus
paulusbra
paus
pause
pausen
pauwel
pavel
payne
pazifik
pazifikkriech
pazifikkuste
pazifiske
pazifisken
pc
pce
pdas
pdf
pe
pearl
peary
pech
peck
pedersen
pedoal
pedro
pedunculata
peel
peggy
peheim
pein
peking
pel
pele
pelecanus
pelle
pellworm
pelophylax
pen
penn
pennsylvania
pennsylvanicus
pennsylvanien
pensilvanien
pensionierenge
pentameter
pentaploidie
people
pepier
peppers
peppin
per
percy
perdix
perdok
pere
pereira
pereskia
perfekt
perfekte
pergament
period
periode
perioden
periodensystem
periodesystem
periodiske
perlentaucher
permanente
pernambuco
perpetuum
perry
pers
persere
persien
persisk
persiske
persisken
perso
person
personal
personalpronomen
persone
personen
personennamen
personifizierenge
personoal
persoon
persoone
persoonelke
persoonen
persoonennoome
persoonenoomen
persoonsnoomen
perspektiv
perspektive
perspektiviske
perthois
peru
peruoanske
pest
pestizide
pestoor
pestoora
pestoore
pestooren
pestoorsa
pete
peter
peters
petersen
petit
petitsjoon
petra
petri
petrieshanne
petrieshannen
petrus
petrusbra
pez
pf
pfalz
pfarrer
pfeifengras
pferd
pferdego
pforzheim
ph
pha
phaedrus
phalaropus
phanes
phantasie
pharao
pharmazie
phase
phasen
phaseolus
phil
philadelphia
philemon
philip
philipinen
philipp
philippe
philipperbra
philippine
philippinen
philippinensis
philippsbuurich
philips
phillip
phillips
philologe
philologia
philologie
philology
philomelos
philosoph
philosophe
philosophen
philosophie
philosophin
philosophisk
philosophiske
phlegeton
phlegyas
pho
phocidae
phonem
phoneme
phonetik
phonetisk
phonetiske
phonologie
phop
phore
phosphat
phosphate
phosphor
photo
photograph
photographie
photographierd
photon
photone
photosynthese
php
phragmites
phu
phyllobates
phylloscopus
phylogenetische
phylogenetiske
physik
physikaliske
physiker
physikerske
physiske
pi
pianist
piano
piazza
pica
picasso
picchu
picea
pichincha
pico
picunche
piebenga
piek
piel
piele
pieler
pielgift
piene
piepe
piepen
pieper
pier
pierre
pieschen
pieson
piet
pieter
pietro
pigmente
piipaash
pik
pikachu
pikblende
pikchu
piktogramme
pilatus
pilger
pille
pilosa
pilot
pilsen
pilsner
piltse
piman
pin
pina
pings
pingster
pingsterbloume
pinguin
pinguine
pinilla
pinkstertra
pinneberg
pinnebierich
pinnipedia
pinochet
pinsel
pinsele
pinus
pinyin
pio
pionier
pioniere
piotrowski
piper
piquet
piraterie
pires
piri
piroaten
piscator
pispotte
pissarro
pissis
pisum
piter
pittsburgh
pius
piz
pizarro
pjotr
pl
pla
plaand
plaande
plaatsnamen
place
plakkaat
plakken
plaknammen
plan
planck
plancus
planet
planetarium
planete
planeten
planetoiden
plantago
plantijn
plantoasjen
plants
plasma
plasmatiske
plasmolyse
plastiden
plastik
plastiken
plastisk
plastiske
plat
plata
platanus
platdu
platin
platoane
platon
plats
platt
plattdeutsch
plattdu
platte
platten
platter
plauen
play
playstation
plaza
please
plebejere
plebejus
pleeged
pleegje
pleiku
pleistoza
plicht
plichte
plichtfa
plioza
plo
ploage
ploan
ploand
ploande
ploanden
ploane
ploansta
ploate
ploaten
ploats
ploatse
plonke
plonken
plonte
plonted
plonten
plontendeele
plontenge
plontengen
plontje
plooged
plosiv
plosive
plot
plotarea
plotdata
plotten
plouch
plouchboom
plouchiersen
plouchstal
plouge
plu
plunnerd
plunnerden
plunnerjen
plural
pluralbildenge
pluralbildengen
plus
pluto
plutonium
pluume
pluvialis
plymouth
pma
pn
pneumonanthe
png
pnv
po
poa
poabst
poaceae
poage
poageglidderske
poagen
poagenoardige
poagensta
poagenstoul
poagenstoule
poagesta
poagestoule
poapske
poapskenbleede
poapst
poapste
poar
poark
poarkstriek
poars
poaskebloume
poater
poatermutse
podagraria
podolsk
poe
poena
poes
poesia
poesie
poeticus
pogrom
pogrome
pointillismus
points
pokken
pol
poland
polar
polarita
pole
polen
poli
police
polifolia
poliocephalus
politik
politike
politiker
politikere
politikerske
politisk
politiske
politisken
politsai
pollock
polnisk
polniske
polnisken
poloar
poloardai
poloare
poloarnoacht
polonia
polska
polygonaceae
polygonum
polynesien
polynesiske
polyphylie
polyploidie
pommern
pomologen
pompeius
pompstersk
pong
ponnen
pont
pontius
pontresina
pool
poole
poolmen
poolsk
poolske
poolsken
poor
poore
pooriske
pootjens
pop
popmusik
popov
popsjunger
popula
population
populatione
populatsjoon
populatsjoone
populistiske
populoaren
por
porsche
port
portales
porto
portoal
portra
portrait
portsmouth
portugal
portugiesen
portugiesisk
portugiesiske
portugiesisken
portus
pos
posaune
poseidon
poseidonia
position
positione
positiv
positive
positsjoon
possesiv
post
poste
posthum
posthumus
postklassik
postma
poststempel
postsynaptiske
postuloat
pot
potato
potboakera
potchefstroom
potentioal
potifar
potlood
potsdam
potshuusen
potter
poul
poulenc
poulos
pound
pounde
poute
pouten
powell
powiat
poznan
pozzo
pp
ppe
ppel
ppele
ppelfra
ppen
ppenge
pper
pr
pra
praag
prado
prag
prager
praktisiert
praktisk
praktiske
praktisken
prasit
pratensis
praxis
prayer
pre
preetenje
preetjene
preetjer
preetjere
preetstoul
prefekture
preiselbeere
preißelbeere
premier
premierminister
premierministerske
premnas
presbyopie
presents
presida
presley
presleys
press
preußen
price
pries
priese
priester
priestere
prima
primaquab
primaque
primatenoard
primigenius
primitive
prince
princeton
principe
prins
prinsa
prinsen
prinsenroow
prinz
prinzessin
prinzip
prinzipien
prisma
privilegien
privoat
privoate
privoatunnergjucht
pro
probe
probleem
probleeme
problem
probleme
procyonidae
prodigy
produkt
produkte
produktion
produktiv
produktive
produktsjoon
produsa
produsierje
produzent
produzente
produzierd
produzierje
produziert
prof
professor
professore
professur
profil
profile
profitierd
program
programm
programme
progressive
prohlis
proja
project
projekt
projekte
projektgruppe
prokaryoten
proklamatsjoon
proklamierd
proklamierde
prologue
prominenteste
promovierde
pronkjewail
pronomen
propaganda
propeller
prophet
propheten
prophetenbouke
prophetenwoud
prophetie
proportionoal
prosa
prosper
prost
prota
protect
protein
proteine
protektor
protest
protestante
protestanten
protestantisk
protestantiske
protestantisken
protestantismus
protestation
proteste
protestiert
prothorax
proto
protokoll
protokolle
proton
protone
protonen
protopauliniske
prototyp
protsa
provence
providence
province
provins
provinse
provinsen
provints
provinz
provinze
provinzen
proxima
proza
prozent
prozentsats
prozess
prozyten
prr
prs
pru
prudentiae
prudhomme
pruning
prunkjuuweel
prunus
pruusen
ps
pse
pseudepigraphie
pseudepigraphisk
pseudo
pseudonarcissus
pseudonym
psidium
psoolm
psoolme
psychologie
psychologinne
psyllobora
pt
pte
pten
pter
pteropodidae
ptolema
ptolemaea
ptolemaios
pu
pubes
public
publica
publications
publikation
publikum
publique
publishing
publisierd
publisierde
publisiert
publius
publizierd
publizierde
publiziert
publizierte
publizist
puccini
pudde
pudden
puddera
puente
puerto
puigdemont
pumilio
punkt
punkte
punktierte
punta
punte
puorto
puppe
purgatorio
purgatorium
purin
purus
puschkin
pusillus
puss
putin
putje
putorius
puts
putsch
putschisten
putsk
putte
putumayo
puudel
puule
puund
puunen
puure
puuskat
puvis
puławy
px
pyramide
pyramiden
pyriformis
pyrimidin
pyrimidinbase
pyt
q
qaida
qhapac
qhapaq
qin
qm
qom
qrp
qsl
qu
quadroatkilomeetere
quadros
quagga
qualita
quark
quarke
quarta
quatmannshoaf
quator
quatorioal
quatre
que
quechua
quedens
queen
queensland
quelle
quellen
quemu
quer
quez
qui
quick
quilombos
quincy
quinn
quintana
quintus
quipu
quiryn
quito
qumran
quotidiano
qusqu
r
ra
raagje
raake
raakt
raand
raant
raante
raate
rabbiner
rabbit
racontas
rad
radbod
radetzky
radiation
radiator
radikoal
radikoale
radio
radioaktiv
radioaktive
radioaktivita
radioreewe
radios
radioseender
radioseendere
radiosignoale
radiostudio
radioteleskop
radiowoogen
radium
radius
radon
raethel
rafael
raffael
raffaello
rahman
rahn
raid
raiffeisen
rainefoone
rainer
raise
raisede
raisen
raisende
raiset
raisje
rait
raitsenge
raitset
raitsjen
rajaonarimampianina
rajoelin
rajoelina
rakeete
rakete
raketen
rakt
ramat
rami
ramo
ramona
ramp
ramsauer
ramslo
ramsloh
rana
rancagua
randall
ranh
ranitomeya
ranken
rant
rantma
ranunculus
rap
rapa
rapanui
raphael
rapmusik
rapper
rapt
rard
raschid
rasse
rassen
rassistiske
rassistisken
rastdorf
rat
ratchathani
raten
ratio
ratsiraka
rattanakosin
rau
rauch
raude
rauderfeen
raue
rauelk
rauemasse
rauvilliers
ravalomanana
ravenna
ravus
ray
raymond
rb
rch
rchen
rd
rde
rdeel
rden
rder
rderde
rdere
rderenge
rderstufe
rdiktoatuur
rdlichen
rdoba
rdraach
re
reactor
read
reader
ready
reagan
reagierde
reagierje
reagiert
reahel
reaktion
reaktione
reaktiv
reaktivita
reaktor
reaktsjoon
real
realisierje
realismus
realistiske
realita
realskoule
reba
rebekka
rebellen
rebellion
rebhuhn
rebroacht
recht
rechte
rechts
recklinghausen
record
records
red
redakteur
redaktion
redbad
reden
rederijkers
redieua
rediewa
reduzum
reed
reede
reeger
reeke
reeken
reekend
reekenfa
reekenge
reekenje
reekenjen
reekent
reeket
reekner
reeskup
reete
reewe
reewen
referenden
referendum
reflektierd
reflektierde
reflektierje
refoarmen
reform
reformation
reformator
reformatoriske
reformatsjoon
reformen
reformierde
reformierden
reformierje
reformierte
regenbogen
regensburg
regentskup
regenwald
regierd
regierde
regierenge
regierengen
regierengs
regierengsbetsirke
regierengsbieldenge
regierengsfoarme
regierengskritiske
regierengssit
regierengstroppen
regierjen
regierungsbezirk
regime
regiment
regina
regio
region
regional
regionale
regionalgeschichte
regionalliga
regionalsprachen
regione
regionen
regionoal
regionoale
regisseur
regisseurinne
register
regn
regno
regressive
regula
regulative
regunge
regungende
reich
reichen
reichenau
reiches
reichskammergericht
reichspra
reiderland
reiderlound
reihe
reimers
reims
rein
reineke
reiner
reiners
reinert
reinhard
reinhold
reis
reise
reiter
reith
reitter
rekatholisierenge
rekatholisierengs
rekend
reker
reklamation
rekonstruierd
rekonstruierje
rekonstruiert
rekonstruktion
rekonstruktsjoon
rekontra
rekontrierd
rekord
rekordbouk
rekorde
rektor
rektorat
rel
related
relatierd
relation
relativ
relative
relativita
relativpronomen
relevant
relia
relief
religio
religion
religione
religionen
religionis
religions
religionsfra
religionsmeenskuppe
reliquien
relk
relke
relken
rely
rem
rema
rembrandt
remels
remix
remmer
remmers
remscheid
ren
renaissance
renate
renatuurierengsgebied
renault
renburg
rend
rende
renden
render
rendere
rendierte
rendsburg
rene
renfa
renge
rengen
rengsunion
renier
renje
renjen
renoir
renovierd
renovierenge
renoviert
rent
reoal
reoalismus
repens
repin
report
repra
reprint
reptilien
repu
republik
republika
republikaniske
republiken
republikoanere
republikoanske
requiem
rer
rereeke
reroat
rerum
res
research
reservation
reserve
reservoat
reservoate
residenz
residierde
resistente
resonanz
rest
restaurierd
resultierjende
resultoat
resultoate
retuschiert
reutlingen
rev
revier
review
revitalisierjen
revolte
revolution
revolutiona
revolutsjona
revolutsjoon
revolutsjoona
revolutsjoons
revolutsjoonstroppen
revolver
revulutsjoon
rex
rey
reyes
reykjavi
reynolds
rez
rezent
rezente
rf
rffoulgekriech
rfgoud
rfienden
rfiendenge
rfiender
rfienderiske
rfienderske
rfoarenge
rfoarsked
rfoarskede
rfoarskenge
rfoarsket
rfon
rfoulch
rfoulchloose
rfoulchriek
rfoulchrieke
rfoulchrieken
rfoulge
rft
rfte
rfu
rfuunen
rfuunene
rfwoude
rg
rgb
rge
rgen
rgensen
rger
rgerverein
rgje
rgy
rha
rhammar
rhaude
rhauderfehn
rhead
rheelden
rheeldene
rheiderland
rheilffordd
rhein
rheinischer
rheinland
rhetoriker
rhien
rhienbuund
rhiendoal
rhienlound
rhiensken
rhinanthus
rhinolophus
rhinopoma
rhipsalis
rho
rhode
rhodes
rhodos
rhoeo
rhone
rhoolde
rhoolden
rhooldene
rhooldenge
rhus
rhynchospora
rhythm
rhytmus
ri
ria
ribes
ribonukleinsu
ric
rica
ricardo
ricas
ricault
rich
richard
richelieu
richt
richter
richthofen
rico
rida
ride
rie
rieder
riedere
riege
riegen
riegenfoulge
riegenskaltenge
riegenwiese
rieger
riek
riekdum
rieke
riekelk
riekelu
rieken
rieker
riekere
rieks
rieksappel
rieksdai
rieksdaisko
rieksdeputationshaudslus
rieksferwalter
rieksfu
rieksgjucht
riekskansler
riekskanzler
rieksko
riekskristallnoacht
rieksmaak
rieksmonument
rieksmonumente
riekspra
rieksra
rieksregierenge
riekssta
riekste
rieksweer
riem
riemet
riemje
riemsel
riemsele
rien
rienbooge
riene
rienfal
rienmassen
rient
rientied
rienwoater
rienwoold
rienwoolde
riep
riepe
ries
riese
riesen
riesenboarenklau
riesenboom
riesende
riesene
riesenpintje
riesheede
riet
rieten
riff
riffe
rifka
rig
riga
rige
right
rigoletto
rijen
rijksmuseum
rijn
rijp
rik
rimaq
rime
rimetti
rimettiamo
rimini
rinaldo
rinck
rind
ring
ringe
ringen
ringer
ringwaareld
rink
rinne
rinnerd
rinnerje
rinse
rio
rioja
riot
ripper
risem
risiko
risk
riske
risken
risum
rita
ritual
rituale
rituellen
rituoal
rituoale
riustringen
river
rivera
rivet
rize
rja
rje
rjoomele
rjou
rk
rkanboare
rkand
rkanne
rkannen
rkannenge
rkantnis
rke
rkebaumeester
rked
rkede
rkeden
rkedploats
rkekoaster
rkelk
rkelke
rkemeente
rkemeenten
rken
rkenbau
rkenge
rkengen
rkenla
rkenlatienske
rkenmeente
rkenmeenten
rker
rkere
rkeren
rket
rketouden
rkheim
rkhoaf
rkhof
rkhuusen
rkje
rkjen
rkla
rkmoal
rkmoale
rkoand
rkoande
rkoanden
rkoant
rkoante
rkoom
rkreformere
rksoamkaid
rkst
rkste
rkt
rkte
rkteekene
rktouden
rkumst
rkumt
rkuume
rkuumen
rl
rlaadere
rlatienske
rleesenge
rlitz
rm
rme
rmee
rmen
rmere
rmesound
rmferwaltenge
rmoud
rn
rna
rnberg
rnberger
rnchen
rne
rneerenge
rnefelt
rnis
rnisse
ro
roa
roage
roagebierich
roagentjaande
roagje
roaked
roakede
roakeden
roaket
roakje
roakjen
roald
roane
roaset
roat
roata
roate
roaten
rob
robbers
roberd
roberde
roberenge
roberer
roberje
robert
roberta
roberto
roberts
robespierre
robin
robote
robusti
rocaille
rock
rockkoppel
rockmusik
roda
rodebierich
rodentia
rodri
rodrigo
rodriguez
roelandts
roentgenium
roerdalen
roger
roi
rojas
rok
rokoko
roland
rolf
roll
rolling
rom
roma
romaanske
romagna
romain
roman
romance
romani
romanik
romanisierd
romanisk
romaniske
romantik
romantiske
romantisken
romanum
romblon
romell
romeo
romoane
romoanske
romoansken
ron
ronald
rondom
ronnen
roo
rooberd
rooberde
rooberden
rooberenge
rooberer
rooberere
rooberje
rooberjen
roobert
rood
roodbruun
roode
rooded
roodelk
rooden
roodhierich
roodhierigen
rook
room
roome
roomelse
roomelsk
roomelster
roomere
roomsk
roomske
roomsken
roomuurienkuumen
roop
roor
roosendaal
roosevelt
root
rootje
roowdiert
roowdierte
roower
roowere
roowtoage
ropt
rosa
rosaceae
rosario
rose
roseau
rosemarie
rosenbaum
rosenberg
rosenheim
rosetta
rosie
rosma
rosmarinheide
ross
rostock
rot
rote
rotenburg
roter
roth
rotoren
rotsterhaule
rotten
rotterdam
rottum
rottumerplaat
rotundfolia
roubaix
rouen
rouget
rouk
roum
roun
round
roup
roupe
roupen
roupnoome
roupnoomen
rouse
rousettus
rousseau
rousseff
route
row
rowohlt
roy
royal
royale
rp
rpe
rpen
rper
rperbau
rpere
rpg
rpnoomen
rputsch
rq
rra
rrebur
rreeged
rreegede
rreeget
rreegjen
rro
rs
rsa
rscheen
rscheenen
rschienen
rschient
rschke
rsczi
rse
rsel
rselerfoan
rsen
rsenen
rsere
rshavn
rshupper
rsk
rske
rsked
rskede
rskeden
rskeen
rskeenen
rsker
rskere
rsket
rskien
rskiende
rskiene
rskienen
rskienenge
rskienengen
rskient
rskje
rskjen
rskjende
rsktrummel
rskup
rslound
rsluute
rsluutenge
rsma
rsmjoon
rssnit
rsstok
rst
rstaald
rstaale
rstaalenge
rstaalengs
rstaaler
rstbiskop
rste
rstelke
rsten
rstendum
rstendume
rstenduume
rstoald
rstruktuur
rt
rtchais
rte
rtembierich
rten
rter
rterbuch
rth
rtjen
rtjene
rtjucht
rtjuuchnisse
rtjuuger
rtjuugere
rtjuuget
rtl
rtot
rtoustaalen
rts
rtsbiskop
rtsoch
rtsochdum
rttemberg
rttembierich
rtyrer
ru
ruahua
ruanda
rubben
rubbenfamilie
rubellum
rubens
rubetra
rubico
rubicone
rubikon
rubin
rubrum
rubus
rudolf
rudolph
rufen
ruficollis
ruhr
ruhrgebiet
ruinaulta
ruine
ruinen
ruinensta
ruiz
rukhoalsed
rukt
rulle
rullen
rum
ruma
rumantsch
rumex
rumin
rump
rumploangte
rumpparlament
run
rund
runde
rundede
runden
rundfunk
rundschau
rune
runen
runenalfabet
runenskrift
runenteekene
rung
runge
runner
ruprecht
rupt
rusk
ruske
rusken
ruslound
ruslounddu
russe
russel
russell
russen
russisk
russiske
russland
rust
ruste
rusten
rustica
rut
rutherford
rutherfordium
ruthless
ruuch
ruuge
ruum
ruume
ruumelke
ruumfoart
ruumfoartorganisation
ruumstation
ruumte
ruumtefeer
ruumtefeere
ruumtefierder
ruumtefierdere
ruumtefoarer
ruumtefoart
ruumteienhoold
ruumtemperatuur
ruumtestation
ruumtetransport
ruumteuurgriepende
ruumtewooge
ruund
ruunder
ruunen
ruup
ruupen
ruur
ruure
ruut
ruuten
ruutfiende
ruutkeemen
ruutkoom
ruutkumt
ruutroat
ruutroater
ruutstoald
rwa
rwe
rwen
rwensa
rwensystem
rwgoud
ry
rynek
rysum
rz
rzburg
s
sa
saach
saagen
saale
saarbru
saaremaa
saarland
saarlound
saarpfalz
saavedra
saba
sabbat
sabine
sacatepe
saccolaimus
sacharja
sache
sachs
sachsen
sacrifice
sadat
saddam
sae
saecke
sage
sagelterland
sagen
sagharderland
sagrada
sahara
sahel
saigon
sail
sailde
saile
sailje
sailjen
sailskiepe
sailskip
saint
sainte
saise
saison
saitenge
saitengen
saitengs
saitengsstukke
saitengstukke
sakkathattiya
sakkede
saksen
saksisk
saksiske
sakska
sal
sala
saladin
salado
salamanca
salamandra
salinas
salisbury
saliske
salix
saljoet
sall
salomo
salomon
salpa
salta
salvador
salvation
salzburg
salzgitter
sam
samar
sambia
sambo
sambucus
same
samisk
samiske
samlenge
samlengen
sammelbegriep
sammeld
sammelde
sammelenge
sammelengen
sammelje
sammeljen
sammlere
sammlung
samoa
samptlichen
samtgemeinde
samtmeente
samtmeenten
samuel
san
sand
sandjes
sandman
sandmann
sandra
sandro
sandwich
sanft
sanhedrin
sanierd
sanita
sanjua
sankt
sanktionen
sans
sanskrit
sant
santa
santafe
santi
santiago
santificato
santifiche
santo
santos
sao
sap
sapa
sapir
sappemeer
saqqaq
sar
sara
saragossa
sarah
saraiva
sarajevo
saramago
saratow
sardinien
sark
sartor
sartre
sas
sassey
sasso
satellit
satellite
satelliten
satellitenbielde
satellitstoat
sater
saterfriesen
saterfriesisch
saterfriesische
saterfriesischen
saterfriesisches
saterfuchs
saterhaus
saterla
saterland
saterlande
saterlander
saterlanders
saterlandes
saterlandprojekt
saterlands
sathit
satire
satiriker
sativa
sativum
satru
sats
satsbiespiele
satse
saturn
saudi
saudiarabien
saul
saulx
saunsiddel
sauropsida
savanne
savannen
save
savignano
savonarola
savoyen
saxicola
saxifraga
saxifragaceae
saygun
sc
scalemajor
scalesia
scandinavian
scandium
scar
scare
scarlatti
scarle
sce
sch
scha
schaad
schaar
schabowski
schaff
schaffen
schaffhausen
schah
schaltbielden
scharle
scharon
scharrel
scharreler
schat
schauspieler
scheed
scheede
scheedkoarte
scheel
scheele
scheemda
scheeten
scheeve
scheidemann
schelde
schematiske
schenk
scheva
schiedam
schiepe
schiermo
schiermonnikooger
schiffahrt
schiiten
schiitiske
schil
schildkro
schilke
schiller
schillup
schinkel
schip
schipfoart
schipkau
schippere
schismatiker
schismatikere
schlacht
schlanker
schlegel
schlesien
schleswig
schlieffen
schlittschuh
schlosskirche
schlu
schlump
schmaus
schmid
schmidt
schmidts
schmits
schmitt
schmitz
schneider
schnieder
schnitger
scho
schoanelke
schoaren
schober
schokoloade
scholz
schooier
school
schopenhauer
schotlound
schoule
schoulen
schousters
schouwen
schra
schramm
schramme
schreiben
schrieuwe
schrieuwen
schrieuwwiese
schrift
schriften
schriftenreihe
schriftsteller
schro
schu
schubert
schule
schulen
schulte
schultz
schulz
schulzentrum
schumacher
schumann
schurer
schuster
schutz
schutze
schutzstaffel
schuul
schuulen
schwa
schwable
schwalb
schwaneburger
schwann
schwarz
schwarze
schwarzer
schweden
schweiz
schweizerischer
schwentine
schwimmendes
schwingdecke
science
scientific
scj
sco
scoparius
scott
scripta
scriptura
scrovegni
scutellatus
scyr
sd
sde
sden
se
sea
seaborg
seaborgium
sealter
sealterla
sealtersk
sebastia
sebastian
secession
second
secret
security
sed
sedelsberg
sediment
sedimente
sedlis
see
seebucht
seech
seedelsbierich
seeden
seederboom
seederboome
seefoarder
seefoardere
seefoarer
seegen
seeger
seehoawen
seehoawene
seehofer
seeke
seeken
seeker
seekere
seekeren
seekerere
seekerhaids
seekerhaidskra
seekerhaidsra
seekerjen
seele
seelen
seelhorst
seelich
seeling
seeljuude
seelound
seelounde
seelt
seelter
seelterbuund
seelterfra
seelterlound
seelterlounder
seelterlounds
seeltersk
seelterske
seemeeske
seemon
seen
seende
seenden
seendenge
seendengen
seender
seendere
seendet
seepen
seer
seeregaid
seeroowere
seeslacht
seeslu
seespeegel
seestra
seeswoalke
seetel
seeuwends
seewai
seewoater
sega
segeberg
segelterland
segge
segmente
seguro
sehen
sehr
sei
seidr
seifert
seijende
seilnacht
sein
seine
seinen
seiner
seisbierrum
seite
seiten
seitenansicht
seiðr
sek
sekreta
sekte
sektion
sektor
sektore
seku
sekunda
sekunde
sekunden
selatan
selbstverlag
seldschukiske
selecta
selen
selim
selk
sella
sello
selma
seloat
selterlound
selva
sem
seminolen
semitic
semitisch
semitisk
semitiske
semper
sempervirens
sempervivum
sen
senckenbergreihe
send
sende
senden
seneca
senecio
senegal
senfljoogere
senge
sengsteeken
senior
senna
senoat
sens
sensation
sense
sent
sentative
sentatsjoon
sententien
sentia
sentierd
sentierde
sentrale
sentrum
senz
sep
separatisten
separatistiske
separoat
sephardisk
sepium
sept
september
septuaginta
ser
seraph
seraphin
serben
serbien
serbisk
serbiske
sere
serengeti
sergei
sergej
sergejewitsch
sergipe
seri
serie
serien
serna
serra
serrano
sertorius
session
set
setzen
seurat
sevanavank
severa
sevilla
sex
sexy
seychelle
sezessionskriech
sf
sfr
sg
shady
shah
shaka
shakespeare
shakur
shanghai
shanne
shannen
she
shi
shift
ship
shmuel
sho
short
should
show
shrine
shuja
shuttle
shuttleprogram
shuus
si
sia
siameesisk
sibbe
sibben
sibe
sibirien
sibiriske
sibskup
sich
sicher
sicheren
sicherhaid
sicherstoald
sicht
sichtboar
sichtboare
sichte
sida
side
siden
sident
sidenten
sidentin
sidentinne
sidentskup
sidentskups
sidium
sie
sieben
siebs
siech
sied
siede
siedelde
siedelden
siedelenge
siedelengen
siedelengs
siedelere
siedelje
siedelk
siedelt
sieden
siedendoale
siedlenge
siedler
siedlere
siedlung
siegel
siegen
sieger
siegfried
siehe
siel
siela
siele
siemer
siempre
sien
siene
sienke
siepe
siepen
sier
sieroop
sierplonte
sierra
sies
siet
sietda
sieten
sieuwe
sieuwen
sieuwends
sieverding
sievers
sigismund
sigmund
signoal
signoale
sigurd
sii
sik
sikhs
sikke
siks
siksa
sil
sila
silben
silene
silicium
silicon
silizium
silla
silva
silver
silverfox
silverstoneia
silvestris
silwe
silwen
sim
simbabwe
simmendoaler
simo
simon
simone
simoniste
simons
simple
sims
sin
sinai
sinan
sinbielde
sinbieldelke
sind
sindt
sine
sinfonie
singapore
singapur
singen
singer
single
singles
singt
singular
singulett
sink
sinken
sinloos
sinnich
sinniger
sint
sinti
sio
sion
sioux
sipe
sipma
siprage
sir
sire
sirkel
sirte
sisk
siske
sisyphos
sit
site
sitferdeelenge
sitierd
sitte
sitten
sitting
situation
situatione
situationen
situierjende
sitze
sitzen
siuts
sive
sivilisasjoon
sivilisatsjoon
six
sixth
sixtus
sizilien
siðr
sje
sjebaabe
sjo
sjoo
sjoode
sjooden
sjoodenden
sjoodenwoater
sjoogen
sjoon
sjoonswo
sjuch
sjucht
sjuchtwiese
sjung
sjunge
sjunger
sjungere
sjungerske
sjungt
sjut
sjuunelk
sjuunelke
sjuunelken
sjælland
sk
ska
skaach
skaad
skachtma
skagerrak
skala
skaltengen
skaltere
skaltje
skaltjier
skaltjiere
skandinavien
skandinaviske
skarsterbre
skat
skaterboan
skattengsregistere
skauspieler
skauspielerske
ske
sked
skeden
skeed
skeede
skeeden
skeedende
skeedenge
skeedferloop
skeedstra
skeedwachtere
skeeld
skeelde
skeelden
skeeldich
skeele
skeen
skeene
skeeniged
skeeten
skeeuw
skelett
sken
skenbriddel
ski
skichte
skiednis
skieljen
skiemert
skien
skienboar
skienen
skienlood
skient
skiepe
skiere
skieregaid
skiermo
skierstins
skieuwe
skieuwelse
skieuwen
skiksoal
skil
skild
skilde
skilder
skildka
skildpudden
skilleroatsje
skilleroatsjen
skillup
skip
skipbau
skipbeer
skipfoart
skippe
skippere
skips
skizze
skizzen
skjen
skjonisse
skjoonisse
skjoote
skjooten
skjootera
skjootpulwer
skjootwoapen
skjou
skjucht
skjut
sklavera
skloue
sklouen
sklouera
skn
sko
skoade
skoaden
skoadje
skoankenge
skoankt
skoar
skoat
skoatterla
skoatterwa
skok
skole
skoomel
skoot
skopje
skotlound
skottisk
skottiske
skottisken
skoue
skoul
skoulba
skoule
skoulen
skoulere
skouljier
skoulker
skoulkere
skoulkoaster
skoulmuseum
skoulsa
skra
skrabbed
skreeuw
skreeuwen
skrieuwe
skrieuwen
skrieuwene
skrieuwenge
skrieuwer
skrieuwere
skrieuwerske
skrieuwnoome
skrieuwt
skrieuwwiese
skrieuwwiesen
skrift
skrifte
skriftelk
skriftelke
skriften
skriftsproake
skriftstaaler
skriftstukke
skroa
skruuwe
sku
skubben
skulen
skulptuur
skulptuuren
skup
skuppe
skuppen
skut
skuts
skutsed
skutsede
skutsenkameroadskup
skutset
skutsfa
skutsfereen
skutsje
skutsjen
skuul
skuuld
skuulen
skuuwe
skuuwer
skylge
skylgersk
skyline
sl
sla
slacht
slachte
slange
slangen
slavery
slawisk
slawiske
sleat
slee
sleegel
sleek
sleeke
sleekfa
sleep
sleepen
sleesien
sleesisk
sleesiske
sleeten
sleetene
sleeuwe
sleeuwekanoal
slicher
slie
sliem
sliepen
slim
slingen
slippe
sljucht
sljuchte
sljuchten
sljuchtjen
slo
sloachted
sloachtfa
sloachtje
sloachtjen
sloain
sloaine
slonk
sloo
sloon
sloot
sloote
slooten
slot
slotte
slovenia
slowaka
slowakisk
slowenen
slowenien
slowenisk
slowjansk
slu
slucht
sluchte
sluis
sluk
slumped
slumpede
slumpet
slumpje
slus
slusse
slut
sluuch
sluupje
sluute
sluuten
sluutholt
sma
smaatekaan
smaaten
smaragd
smart
smeet
smet
smetana
smid
smidt
smiede
smiet
smiete
smieten
smilt
smilte
smilten
smiltpunkt
smink
smit
smith
smithsonian
smitte
smoacht
smoachtegaid
smoaket
smoakje
smoals
smoarge
smolten
smook
smuk
sna
snake
snee
sneek
snider
snied
sniede
sniededisk
snieden
sniedende
snieder
snieders
sniedetusk
sniedetuske
sniggen
snit
snits
snitser
snitsersk
snoabel
snoabeldiert
snoachelken
snoagens
snoop
snorra
snowden
snows
snu
snurrich
snurring
snuur
snuute
so
soabel
soacht
soachte
soachten
soage
soagebuk
soaged
soageden
soagen
soagjen
soaks
soal
soalt
soalte
soaltsu
soand
soande
soanden
soang
soangen
soant
soanten
soarte
soarten
sobre
social
society
soda
sodomite
soest
sofia
sofier
software
sofuul
sogoar
sohn
soise
sojus
sokkerai
sokrates
sol
sola
solanaceae
solano
solanum
solar
solarenergie
sold
soldoate
soldoaten
solidago
solidarita
solingen
soll
sollen
solms
solo
soloange
solus
soma
somalia
sommer
son
sonaamd
sonaamde
sonaamden
sonde
sonderfahrt
song
songgruppe
sonia
sonic
sonne
sonnenau
sonnentau
sonny
sonora
sons
sont
soo
sood
soode
sooden
soofuul
soogen
soogende
soogenduusend
soogenjierige
soogenjierigen
soogenjiersbloume
soogentich
soogentien
soogentiende
soogentienjierige
soogentiger
soogoar
sooke
sooken
soole
soonaamde
soone
soonen
soor
soowa
sop
sophie
sophokles
sor
sorb
sorben
sorbisk
sorbiske
sorbisken
sorbisksproakige
sorbus
sos
sosjoal
sosjoaldemokroat
sosjoaldemokroaten
sosjoaldemokroatiske
sosjoale
sosjoalistiske
sosjoalistisken
sosjografyske
sotavento
soto
sotouta
soul
soumazannes
sound
soundboanke
soundgruunde
soundho
soundmiskkultuur
soundsteen
soundwai
source
sous
south
souvera
souza
soviet
sowa
sowied
sowjet
sowjetfierder
sowjetiske
sowjetisken
sowjets
sowjetunion
sozialdemokratie
sozialdemokratiske
soziale
sozialismus
sozialistiske
sozioal
sozioale
sozioalen
sp
spa
spaak
space
spacelab
spaceshuttle
spahr
spain
spalte
span
spanien
spanier
spaniere
spanisch
spanisk
spaniske
spanisken
spartakus
spd
spe
speaks
species
spectabilis
spee
speegel
speegele
speer
speergjuchte
speerloage
speerloagen
speerwierk
spektroallienjen
spektroskopie
spektrum
spekulierje
spel
spele
spelta
spen
spenter
speranza
spesjell
spesjoal
speyer
speyerer
spezialist
speziell
spezielle
speziellen
spezifisk
spezifiske
spezifisken
spha
sphagnum
sphagnumfallax
spiedeld
spiedelde
spiedelje
spiedeljen
spiedelt
spiegel
spieker
spiekerd
spiekere
spiekerooch
spiekeroog
spielboan
spield
spielde
spielden
spiele
spielen
spieler
spielere
spieleriske
spielerske
spielfa
spielje
spieljen
spielplats
spielra
spielsteene
spielt
spiere
spiese
spil
spiler
spilin
spin
spindelbusch
spinnen
spinosa
spinoza
spione
spirans
spiroalierme
spit
spitboogen
spits
spitse
spitsen
spitsnoome
spitzho
spitzweg
splinteed
spo
spoade
spoanien
spoaniere
spoanisk
spoaniske
spoansk
spoanske
spoansken
spoarlampe
spoart
spoartler
spoas
spoasige
spon
sponge
sponnenge
sponnengen
sponnengsannerenge
spontoan
sporophyt
sport
sportelke
sportfereen
sportler
sportlerske
sportsta
sportzentrum
spot
spoule
spoulen
spoune
spra
sprach
sprache
sprachen
sprachgebietes
sprachinsel
sprachkontakt
sprachraumes
sprachwissenschaft
sprat
spratte
sprechen
spree
spreede
spreedenge
spreedengswierstand
spreeke
spreeken
spreekene
spreeker
spreekerantaal
spreekere
sprekere
sprengungen
springe
springer
springt
spro
sproak
sproakannernge
sproakbiespiele
sproake
sproakegebiet
sproakelk
sproakelke
sproaken
sproakeskeed
sproakfamilie
sproakfamilien
sproakgebiet
sproakgebiete
sproakgebruuk
sproakgruppe
sproakgruppen
sproakige
sproakkoarte
sproakkunde
sproakkundich
sproakkundige
sproakkundigen
sproakleere
sproakmeenskup
sproakminnerhaide
sproakoukuutengen
sproakpolitik
sproakstatistik
sproakuutbau
sproakwiesen
sproakwietenskup
sproakwietenskupper
sproakwietenskuppere
spru
spruch
sprutsen
spruutknullen
spurensuche
sputnik
spuure
spuuren
spuureplonten
sqrt
square
squarrosus
sr
sranan
sranantongo
sri
srp
srpska
ss
sse
ssegaid
ssel
sseldorf
ssen
sser
sseren
ssich
ssige
ssing
ssinne
ssp
ssw
st
sta
staal
staalde
staale
staalen
staalenge
staalt
staant
staat
staaten
staatliche
staatsarchiv
stabil
stabile
stabilita
stachelbeere
stad
stade
stadion
stadium
stadt
stadtarchiv
stadtsholte
stafrikoa
staile
stailen
stal
stalin
stalingrad
stam
stama
stamboom
stamic
stamme
stamoard
stampje
stamt
stan
stand
standard
standardmodel
standoard
standoardfra
standoardsproake
standort
standpunkt
stanford
stanley
stap
stapelkamp
stapelmoor
stappe
stappen
stappenwiese
stapte
star
starr
start
starum
starumersk
stat
state
states
station
statiske
statistical
statistieke
statistik
statistike
statistiske
statius
statsjoonierenge
statte
statten
statue
status
stauffenberg
stausee
stauseen
stb
stdai
stdeel
stdenis
stdu
ste
stearns
stechpalme
stede
steech
steede
steedefertreedenden
steeden
steedenoome
steedenoomen
steedenwiese
steedhoolder
steel
steele
steen
steenbreek
steenbreekgewoakse
steene
steenene
steenhuus
steenhuuse
steenlawine
steenmodder
steentied
steert
steet
steete
steeten
steeuwe
steewen
stefan
steffens
stegaid
steggerda
steia
stein
steinbach
steiner
steinfurt
steinhaus
steinmeier
steinway
steinweg
stel
stela
stele
stelk
stelke
stelken
stelker
stelkste
stellaria
stellingwarf
stellingwerf
stellingwerfsk
stellingwerfske
stellingwerve
stellingwerver
stellmacher
stemmen
sten
stenge
stengels
stephan
stephansdom
stephen
ster
stera
sterben
stere
sterer
sterken
sterkertier
stern
sterna
sters
stersiede
sterske
sterskup
stersteede
sterweede
sterweeder
steuver
steve
steven
stewart
stfoalen
stfoalsken
stfoan
stfra
stgermanisk
stgermaniske
stheelden
sthoolde
sthouke
sthouksk
stich
stiche
stichpunkte
sticht
stichtaal
stichting
stickhausen
stickhusen
stickisee
stiege
stieglitz
stiekel
stiekelboars
stiekelboarse
stiekele
stiekelje
stiekelwier
stiel
stiele
stiepel
stiepele
stiern
stiernbielde
stierne
stiernen
stiernkunde
stiernsystem
stiernsysteme
stierwe
stierwedai
stierwen
stierwende
stieuwbail
stift
stifted
stifteden
stiftenge
stiftung
stiged
stigede
stigeden
stiget
stigje
stigjen
stik
stikba
stikje
stikke
stikked
stikkeden
stikken
stikker
stikstof
stikt
stil
stiles
stilgjuchte
stilgjuchten
stilken
stilkene
stilkenen
stilkens
still
stille
stillieuwend
stillieuwende
stimme
stimmen
stimt
stimuliert
stina
stindiske
stine
stinensere
stinensiske
stinken
stins
stinzebloumen
stinzen
stinzeplonten
stjordaanlound
stjunkdierte
stjunke
stjuur
stjuurd
stjuure
stjuuren
stjuurenge
stjuurje
stjuurt
stkanoal
stkuste
stla
stlaid
stlaide
stlain
stloain
stlound
stlounddialekte
stmoaked
stner
stnieme
stnuumen
sto
stoa
stoab
stoabil
stoadich
stoadige
stoaf
stoafsuuger
stoald
stoalde
stoalden
stoalt
stoant
stoapeld
stoapelde
stoarke
stoarkena
stoarksbrood
stoarm
stoarmd
stoarmenge
stoarmfloud
stoarmfloude
stoarmje
stoarmjen
stoat
stoate
stoatelk
stoatelke
stoatemeenskup
stoaten
stoatenbuund
stoatiske
stoats
stoatsapparoat
stoatsautorita
stoatsburger
stoatsburgerskup
stoatsfoarm
stoatsgebiet
stoatsmon
stoatspra
stoatsra
stoatsreligion
stoatsstriek
stoatsupperhaud
stoatsuppermon
stoatue
stoatus
stock
stockholm
stockholmer
stof
stoffe
stoikere
stoite
stok
stokke
stokkede
stokpielenge
stolts
stolz
stom
stomboom
stomje
stomme
stommet
stommige
stone
stones
stonner
stonnere
stonnerkene
stonnerma
stoorf
stoorwen
stoowe
stopped
store
storm
stoul
stound
stoundbielde
stounde
stoundekampe
stounden
stoundend
stoundende
stoundet
stoverledingen
stq
str
stra
straasbuurich
strabo
strackerjan
strackerjann
stralsund
strand
strange
strategie
strategiske
stratmann
strauderfeen
strauss
strauß
stravinsky
straßburg
straße
stream
street
streifzug
strenge
stried
strieder
striedera
striedere
striederske
striedich
striedige
striedkra
striedkrafte
striek
strieke
strieken
striemel
striepe
striepen
strierd
strieuwjen
strik
stringen
strip
stritz
stro
stroafe
stroafed
stroafen
stroal
stroalen
stroalenge
stroalengsbelastenge
stroalengswinkel
stroalensats
stroalet
stroalt
strofen
strom
stroma
stromme
strontium
strookede
stroom
stroome
stroomenge
stroomengen
stroomsna
stroomt
strot
strotmann
stround
strounde
strout
strouts
stru
struk
strukelje
strukeljer
strukeljers
struktur
struktuur
struktuure
struktuuren
struktuurfoarmel
struuk
struuke
struukelje
struukeljer
struwwelpeter
sts
stsahara
stsiede
stskrieuwen
ststaale
ststellingwerf
ststoald
ststoalde
ststof
ststoundende
ststuude
sttouhoolden
sttoula
sttoustaalen
stu
stuart
stuck
stucke
studa
studen
student
studente
studenten
studie
studien
studierd
studierde
studierje
studiert
studies
studio
studium
study
stuk
stukke
stukken
stump
stunde
sture
sturre
stutsed
stutset
stutte
stuttgart
stuud
stuude
stuuden
stuuf
stuuke
stuuns
stuur
stuure
stuuren
stuurste
stuurwen
stuurwenen
stwierk
style
styx
su
sua
subalaris
subatoma
subatomiske
subdialekt
subjekt
subkultuur
subsp
substantiv
substantive
substantiviert
substanz
substanzen
substrat
substratspezifita
substroat
substroatsproake
subtraktive
subtropisk
subtropiske
succisa
such
suchte
sucks
sud
sudan
sudoanske
sue
suez
suffiks
suffikse
suhrkamp
suizid
suk
sukke
sukker
sukkerroor
sukkulente
sul
sula
sulawesi
suldoat
suldoate
suldoaten
suldoatensknoop
sulla
sully
sultan
sultanoat
sultoan
sumar
sumatera
sumatra
sumbawa
sumbel
sumer
sumerdai
summe
summer
sump
sumpe
sumpf
sumpfbeere
sumpige
sumplound
sun
sund
sunda
sundai
sundeeges
sung
sunne
sunnebloume
sunnelucht
sunnen
sunnengod
sunnenjier
sunnenlucht
sunnenmassen
sunnensystem
sunner
sunnerbetjuudenge
sunnerbuundskriech
sunnerfoarm
sunnerfoarmen
sunnerje
sunnerkloas
sunnerkoarten
sunnerloage
sunnern
sunniten
sunnitiske
sunst
sunt
supen
super
superflux
superior
superlativ
superma
superstroatsproake
supplement
support
sur
suriname
surrealismus
sursilvan
surveys
sus
susan
suster
sustere
sustersta
sustertaxa
sustertaxon
sutor
suud
suudaast
suudaastasien
suudaaste
suudaastelk
suudaastelke
suudafrikoa
suudafrikoansk
suudafrikoanske
suudafrikoansken
suudamerikoa
suudamerikoanske
suuddu
suude
suudelk
suudelke
suudelken
suudelkste
suuden
suuder
suudersee
suudeuropa
suudhoawen
suudhollound
suudjutlound
suudjutloundske
suudkuste
suudossetien
suudpool
suudsiede
suudstoaten
suudsuudaaste
suudtirol
suudtiroler
suudwa
suuge
suugediert
suugedierte
suugel
suugerke
suuken
suukene
suulen
suumer
suumerdai
suumere
suumertied
suun
suundais
suundegaid
suundegaidelke
suune
suur
suure
suuren
suurga
suurge
suurgede
suurgeden
suurget
suurgje
suurgjen
suurke
suurstof
suurstofatom
suurstofgas
suurstofmoleku
suzanne
sv
sven
svg
svobody
sw
swa
swadesh
swahili
swaits
swaitser
swaitsere
swaitseriske
swaitserske
swakke
swallow
swarre
swarrer
swarrere
swasilound
sweden
swedisk
swediske
swedsken
sweeden
sweedisk
sweediske
sweedisken
sweedske
sweedsken
sweegersuun
sweer
sweere
sweeregaid
sweereloosegaid
sweeren
sweerer
sweerkraft
sweerpunkt
sweerpunkte
sweerste
sweet
swichtsta
swiek
swiekske
swienehauer
swieten
swieuwel
swim
swimme
swimmen
swimmende
swimmer
swines
swint
swo
swom
swonnebiergerfoan
swonnebierich
swoorm
swot
swoteed
swott
swotte
swotten
swotwoater
swotwoold
swuunden
sx
syddanmark
sydney
sygeltra
sylt
sylter
syltring
sylvestris
sylvia
symbiose
symbol
symbole
symbolik
symbolischen
symbolisierje
symbolisiert
symboliske
symbolismus
symbool
symmetrie
sympathien
sympathisanten
sympetrum
symposium
symptome
syn
synagoge
synagogen
synapse
synapsen
synaptiske
synaptogenese
synkretismus
synkretistisken
synonym
synonyme
synoptiske
syntax
synthetiske
syracuse
syrien
syringa
syrisk
syriske
syrisken
systeem
systeeme
system
systematik
systematisk
systematiske
systeme
sza
szczecin
szczepanek
szczepanski
szene
szenen
szlo
sønderjysk
søren
t
ta
taaged
taal
taalatlas
taale
taalen
taalkunde
taalrieke
taalwoude
taar
taaske
taastere
tabelle
tabellen
tabelliermaskine
tachentich
tachentiger
tachiwin
tacitus
tadarida
tadeusz
tadshikistan
tag
tageblatt
tageszeitung
tahiti
tai
taid
taie
taiga
taiwan
taj
tajo
tak
take
takke
takken
taks
taksierd
taksierengen
taksierje
taksierjen
takt
taktik
tal
talaia
talemon
tales
taliban
talle
tallehillens
tallinn
talsperre
talyllyn
tamazight
tambo
tamburs
tan
tanach
tanaka
tang
tank
tankred
tannenberg
tansania
tanzalarm
tapajo
taphozous
tapir
tapire
tappe
tara
tarasken
taraxacum
tarent
tarnovo
tarock
tarot
tarsomerus
taschenbuch
tasman
tasmanien
tasmaniske
tasmanisken
tastatuur
taste
tasten
tatar
tataren
tatarisk
tatariske
tatarstan
tatich
tau
taubken
taujan
taumata
taunus
taurus
tawakkul
tawantinsuyu
tawido
taxa
taxon
taz
tb
tdierte
te
team
teau
tebak
techn
technik
technike
techniken
technisk
techniske
technisken
technologie
technologiske
technology
tecklenburg
tecklenburgisk
tecklenbuurger
tecklenbuurich
tectorum
tee
teeken
teekend
teekende
teekene
teekener
teekenge
teekengen
teekenje
teekenjen
teekent
teekner
teenelse
teide
teil
teis
tek
tel
tela
telaid
tele
telefon
telefonie
telegrafie
telegram
telekommunikation
telemann
telescope
teleskoop
teleskop
telk
telke
tell
tellmann
tellur
tellus
tem
temnospondyli
tempel
temperatur
temperatuur
temperatuuranstiech
temperatuure
temperatuuren
temple
tempo
tempora
ten
tendenz
teneriffa
teniotis
tenjen
tennessee
tennis
tennispark
tenno
teno
tenochtitla
tentazione
teo
teologie
teologiske
teorie
teotihuaca
tepaneken
tepe
teppich
ter
tera
terassen
terbium
terdeel
tere
teresa
tergruund
tergruunde
teritopra
teritum
terjuuken
terminologie
terneuzen
terra
terre
terrebonne
terrhien
territorien
territorioal
territorium
territory
terror
terrorist
terroristen
terroristiske
terschelling
tersiede
tersloh
terste
tersteewen
tertia
terwispel
terzine
terzinen
tes
tesen
tessel
tesselsk
tessin
test
testama
testament
testaments
tested
testede
testet
testing
tetralix
tetraploidie
tetzcohco
teufel
teutoborger
texas
texcoco
texoanere
text
textcolor
textdata
texte
textil
tezohzo
tgjucht
tgjuchte
th
tha
thailand
thailound
thames
than
thar
that
the
thea
theatraliske
theben
theboanske
thedering
their
thekla
thema
themen
themoa
themse
thene
theo
theobald
theodor
theodore
theodosius
theologe
theologen
theologie
theologinne
theologiske
theophilus
theoretiker
theoretisk
theoretiske
theorie
theorien
theosophie
theotoko
thep
ther
thera
there
theresa
thereuterion
thermik
thermiske
thermometer
thermostoat
thermostoate
thes
these
thesen
thessalonicher
thessalonicherbra
thet
theun
thi
thie
thiele
thieme
thien
thin
thinking
thiopien
thiopisk
thiopiske
thiornun
third
this
thiu
thning
tho
thoben
thobens
tholen
tholt
thomas
thompson
thonne
thor
thora
thorax
three
thu
thuen
thule
thumb
thumbnail
thunberg
thunder
thuner
thuot
thy
thylacinus
thylakoid
thylakoide
thylakoidmembran
thymin
thyroxin
ti
tia
tibet
tibetisk
tica
tich
tichduusend
tichela
tichjierige
tichjierigen
tichste
ticht
tichte
tichtebie
tichtegaid
tichter
tichterbie
tichtest
tichtfjoose
tichtst
tichtste
tid
tidschrift
tie
tieck
tied
tiede
tiedelk
tiedelke
tieden
tiedgenossen
tiedoaler
tiedpunkt
tiedruum
tiedschrift
tiedskrift
tiedskrifte
tiedwiese
tiedwoud
tiedwoude
tief
tiemersma
tienden
tienne
tiere
tierm
tierra
tif
tiflis
tige
tiger
tigje
tigris
tik
tikal
til
till
tille
tilly
tilo
tim
timbaland
time
timeaxis
times
timmerljuude
timo
timor
timotheus
timothy
timpe
timur
tin
tina
tinctorius
tinden
tineke
tinkbondel
tinogasta
tintenfass
tintoretto
tipai
tiran
tiresias
tirol
tiroler
tisza
titan
titane
titanic
titanus
titel
titicaca
tito
tittel
tittelbla
tittele
titus
tiu
tizian
tiziano
tj
tjaande
tjaanden
tjaaner
tjaaske
tjalk
tje
tjer
tjittes
tjo
tjoachter
tjoachterfoarmige
tjoater
tjobuund
tjodimensionoal
tjodimensionoale
tjodimensjonoale
tjoduusend
tjohunnerdduusend
tjohunnert
tjokaant
tjokaante
tjoo
tjoon
tjoond
tjoonde
tjoonden
tjoonduusend
tjoonje
tjoonmoal
tjoonst
tjoonste
tjoont
tjooter
tjootere
tjootern
tjooterspieler
tjooterspil
tjooterstuk
tjooterstukke
tjosproakich
tjosproakige
tjosproakigen
tjou
tjoue
tjountwintich
tjudt
tjuk
tjukbla
tjukke
tjukken
tjukker
tjukkere
tjukte
tjut
tjuuchnis
tjuude
tjuudelk
tjuuden
tjuudenge
tjuugen
tjuugnis
tjuugnisse
tjuusterch
tjuustergaid
tjuusterge
tjuustergen
tkebo
tkse
tkslound
tl
tlacopan
tlatelolco
tlaxcala
tlaxcalteken
tld
tlound
tlu
tm
tna
tnunner
to
toach
toacht
toachte
toachten
toage
toai
toake
toal
toale
toalemon
toalen
toalenma
toalrieke
toank
toanke
toankebouk
toanken
toankere
toankmoal
toanksteede
toanksteen
toankt
toarsken
toarst
toba
tobago
tobas
tocantins
tochter
tocto
tod
today
toelichting
togo
tokaviske
tokio
tokugawa
tol
toledo
toleranz
tolkien
tolosa
tolstoi
tolteken
tolunion
tom
toma
tomasee
tomasz
tome
tomme
tomoate
tomoaten
tomographie
tomopeas
ton
tonag
tonge
tongen
tonger
tongo
tonk
tonket
tonne
tonnen
toon
toonapnoamen
toone
toonen
toonho
toorop
top
topografiske
topographiske
topogroafiske
toponymie
topoxte
toppenhuzen
tor
tora
torah
tordesillas
torf
torfmoos
torfwerk
toromanisk
toromaniske
torquatus
torra
torre
torrijos
torter
tortula
torulosa
torus
toskana
tot
totanus
toth
totoal
totoale
tou
toua
toudeeld
touden
toudene
toueerst
toueerste
toufa
toufal
toufierd
touflusse
toufo
toufoarne
toufree
toufuul
tougjuchte
tougliek
touglieketied
tougoang
tougong
tougongelk
tougruunde
tougunsten
touheerde
touheere
touhoope
touhoopebreeken
touhoopebuunen
touhoopefljoote
touhoopefljooten
touhoopefljut
touhoopefo
touhoopefoated
touhoopefoatenge
touhoopefoatet
touhoopefoatjend
touhoopehong
touhoopehonge
touhoopehonget
touhoopehongje
touhoopehongjende
touhoopekumst
touhoopelaide
touhoopelieuwje
touhoopeoarbaid
touhoopesa
touhoopesluut
touhoopestaalenge
touhoopesteeten
touhoopestoald
touhoopestoalde
touhoopewoaksen
touhoupe
touhoupeoarbaid
touhoupesa
touhuus
touken
toukieker
toukiekere
toukiekje
toukumst
toukumstliteratuur
toula
toulouse
touma
toumaast
toumin
toumindest
touminst
toumoal
toun
tounichte
touniemend
touniemende
tounuumen
touoardend
tour
toura
toureeke
toureekend
toureekende
touriete
tourismus
tourist
touriste
touristen
touristiske
tournachon
tours
tousa
touse
touseekerde
tousenfoan
touskrieuwen
touspreeken
tousta
toustand
toustande
toustound
touta
toutreedenge
tovar
tower
town
tr
tra
traale
traalen
traalende
traalenge
traast
trabant
trachemys
tracht
track
tracktor
trade
tradionelle
tradition
traditione
traditionel
traditionell
traditionelle
traditsjonell
traditsjonelle
traditsjoon
traditsjoonell
traditsjoonelle
traditsjoonen
trafalgar
trafo
trago
trai
trainer
traktoat
trang
tranliterierd
transactinoide
transamazo
transformator
transformatore
transistor
transistore
transjordanien
transkribierd
transport
transportierd
transvaal
trappe
trappen
traunstein
trave
traven
tre
treede
treeden
treene
treff
trenkamp
trentino
tres
tresoar
tribut
tribute
tricolor
tried
trieden
trient
trier
trietichjierigen
trifolium
trilje
trilogie
tringa
tringe
tringen
tringet
tringt
trinidad
trinitatis
tripel
triple
triploid
triploide
triploidie
tripolis
triptychon
tristan
tristis
trisuurstof
triticum
tritium
triturus
triumph
triumviroat
trjo
trjoo
trjoobla
trjoue
tro
troald
troalt
troangen
trobu
troch
troja
trojaner
trojanere
trojaniske
trojanisken
trompe
trompel
troon
troonfoulge
troonfoulgegjucht
troonfoulger
tropaeolum
tropen
tropikfuugel
tropisk
tropiske
tropisken
troppe
troppen
trotha
trots
trouble
tru
truch
truchboord
truchbreeke
truchbreeken
trucheenuur
truchfierd
truchfoart
truchgungend
truchgungende
truchla
truchleeken
truchleekenen
truchloopend
truchlukt
truchma
truchmoaked
truchnunner
truchsa
truchsichtich
truchsleek
truchsnieden
truchsnit
truchwa
true
trujillo
trump
trumpa
trung
truppen
truth
truuenge
truuf
truuffaawe
truuffaawen
truufgjucht
truufkoarte
truuge
truujen
truur
truurfier
truurspil
truuwe
ts
tsa
tsaar
tsalp
tsbouke
tschad
tschai
tschaikowski
tsche
tschechien
tschechisk
tschechiske
tschechisken
tschechoslowaka
tschechoslowakiske
tschiel
tschipko
tse
tsed
tsede
tsel
tseldai
tseldeeges
tseldoabe
tseldobbe
tsele
tselk
tselke
tsenge
tsengen
tsengswiese
tsere
tsjalbert
tsje
tsjen
tsjerepnin
tsjoele
tsjonger
tsk
tske
tsken
tskland
tsklinik
tsklound
tsklounds
tsksproakige
tsksproakigen
tsma
tsoar
tsprinzip
tste
tsteede
tstheorie
tsunami
tsushima
tsverlag
tt
tte
tted
ttel
tten
ttende
ttenge
ttengen
ttengs
ttenhofen
ttens
ttensoage
ttensoagen
tter
tterbau
tterbieldenge
tterda
tterdeel
tterdreegere
tterdruk
ttere
tterfoulge
tterfoulged
tterfoulger
tterfoulgere
tterfoulgjende
tterfra
ttergjucht
ttergjuchte
ttergotik
tterkuumen
tterkuumere
tterla
ttermiddai
ttermiddeeges
ttermoaked
ttermoakede
ttermoakeden
ttermoor
ttern
tters
tterske
tterstoundene
ttertied
ttertoacht
ttertouwiesen
tterwies
tterwiesd
tterwiese
ttien
ttienste
ttingen
tu
tua
tuareg
tube
tuberosum
tucht
tuchted
tuchtede
tuchtfoarm
tuchthuuse
tuchtstom
tucuma
tuddelke
tude
tudor
tuffelke
tuffelken
tul
tullius
tulp
tulumba
tuma
tumbes
tummers
tumpis
tun
tunesien
tunge
tunne
tunnel
tunnen
tuo
tupac
tupaq
tupelo
tupi
tupinamba
tupungato
turbine
turdus
turka
turke
turken
turkmenistan
turks
turm
turner
turrialba
tursk
turske
tursken
tusk
tuske
tuskfoarmel
tuudor
tuum
tuume
tuumera
tuumesproang
tuun
tuune
tuunersbierich
tuunersbieriger
tuunkera
tuunpaatie
tuur
tuusk
tuusterge
tuusterpa
tv
twa
twadde
twain
tweelfte
tweelich
tweelichduusend
tweelichprophetenbouk
tweelwe
tweelwerra
tweelwerroat
tweereljenden
twiech
twiege
twieluude
twierk
twieuwel
twieuwelfaale
twieuwelloos
twikse
twillinge
twillingstaxa
twinge
twintich
twintichduusend
twintichste
twiske
twisken
twiskenoan
twiskenoaner
twisketied
twisketruch
twist
twiste
twistegaiden
twizelerheide
two
twoangen
twoangsoarbaid
twoangsoarbaidere
twobra
twodeelenge
twodimensionoale
twoduusend
twohunnert
twoluen
twoo
twoofaawen
twosproakegaid
twosproakich
twosproakige
twountwintich
twountwintichste
twu
tyler
tynje
typ
type
typen
typisk
typiske
tyr
tytsjerk
tytsjerksteradiel
tz
tze
tzen
tzilo
tzin
tzotzil
u
ub
ubbehusen
ubbens
ubbo
ubico
ubuntu
ucayali
uccello
ude
uden
uders
udo
udomratchaniwet
uerdinger
uerlichen
uetersen
ufc
ufer
uff
uft
uganda
ugrisk
ugriske
uhte
uit
uitlanders
uk
ukena
ukiyo
ukraine
ukrainisk
ukrainiske
ul
ulbricht
ulf
ulie
uliginosum
uljanow
ulk
ullmann
ulm
ulmer
ulmi
ulrich
ulrichsgymnasium
ulrieke
ulster
ultimoate
ultimoatum
ultra
ultraviolett
ultraviolette
um
umberto
umelound
umelounde
umfang
umlaut
umlautteeken
ummen
ummens
umschlag
umwelt
un
una
unbekoande
unbekoanden
unbewoonde
und
unde
undeelboar
under
underskeedenge
unesco
ungarisk
ungariske
ungarisken
ungarn
ungefa
ungefeer
uni
uniforme
union
unit
united
universal
universale
universaliste
universelle
universidad
universita
university
universum
unkel
unken
unland
unnen
unner
unnera
unnerbesirke
unnerbewuste
unnerbrange
unnerbreeken
unnerbreekenge
unnerbreekengen
unnerbroacht
unnerdeeld
unnerdeelenge
unnerdeelt
unnerdowiele
unnerdrukt
unnerdrukten
unnere
unneren
unnerfamilie
unnerfamilien
unnerfiende
unnerfiendenge
unnerfranken
unnergeen
unnergeene
unnergjucht
unnergjuchtere
unnergjuchtssproake
unnergong
unnergruund
unnergruunde
unnerhoolder
unnerhuus
unnerierm
unnerjuuke
unnerkaante
unnerkeeuwe
unnerklasse
unnerkriege
unnerkuume
unnerla
unnerlaide
unnerlain
unnerlaine
unnerlegion
unnerloop
unnerlound
unnern
unnerniemen
unnerniemer
unnernoom
unnernoomen
unneroard
unneroarde
unneroarden
unneroardenge
unneroardengen
unnersa
unnerschat
unnerscheed
unnerscheede
unnerscheeden
unnersiede
unnerskat
unnerskeed
unnerskeede
unnerskeedelk
unnerskeedelke
unnerskeeden
unnerskeedene
unnerskeedenge
unnerskrieuwen
unnerskrift
unnersleek
unnersleeke
unnersoacht
unnersoachte
unnersproakgruppe
unnerste
unnersto
unnerstoald
unnerstoundene
unnerstu
unnerstutsed
unnerstutsenge
unnerteekend
unnerteekende
unnerteekenge
unnerteekenje
unnertyp
unnerwaareld
unnerwaiens
unnerwains
unnerwiele
unnnergjucht
uno
unouhongegaid
unouhongige
unra
uns
unseeker
unser
unter
unterems
unterricht
unters
untersuchungen
ununoctium
ununquadium
up
upenn
upgant
upganter
uplengen
uppe
upperburgema
upperhaud
upperljuude
uppermoanske
uppermon
uppermonljuude
uppermonskup
upperste
uppsala
upright
upstalsboom
ur
urabi
ural
uran
uranometria
uranus
urban
urbe
urbino
ure
urk
urkunde
ursidae
ursprungs
ursula
ursus
urtica
urticae
uru
urubamba
uruguay
us
usa
usbekistan
use
used
user
usnoacht
uspd
uss
ust
usw
ut
uta
utah
utara
utc
ute
uten
utende
utert
utgoawe
uthende
uto
utrecht
uu
uua
uuas
uuelda
uuisca
uuk
uul
uuldand
uule
uum
uumda
uume
uumebaud
uumebenaamd
uumebrange
uumebrangt
uumebreeke
uumebroacht
uumebroachte
uumegong
uumehooch
uumekierd
uumekierde
uumekiere
uumekierenge
uumela
uumelound
uumelounde
uumesa
uumesleek
uumesleeten
uumetou
uumetoula
uumetouy
uumewaareld
uumewaareldfaktore
uumewondeld
uumewonneld
uumfang
uumfangrieke
uumfangst
uumfoated
uumfoatede
uumfoatet
uumfoatje
uumfoatjend
uumgeebenge
uumgeegend
uumgoangssproake
uumgong
uumgongssproake
uumhooch
uumla
uumloop
uumloopboan
uumlound
uumreekenge
uumroat
uumroup
uumsa
uumsirkelt
uumskrift
uumsleeten
uumsloain
uumsluute
uumso
uumsta
uumstand
uumstounde
uumtoach
uumtou
uumtousa
uumtra
uumwaareld
uumwai
uun
uuna
uunbekoand
uunbekoande
uunbesa
uunbetoonde
uunbewoond
uunbewoonde
uunda
uuneendelk
uuneenichkaid
uunfa
uunfaal
uunferwachted
uunfruchtboar
uunfulkeemen
uungefa
uungefeer
uungewo
uungjucht
uungliek
uunglieke
uungluk
uungoadelke
uungultich
uunma
uunmuugelk
uunouhongegaid
uunouhongegaids
uunouhongegaidsferkloorenge
uunouhongegaidskriech
uunouhongegaidsstriedere
uunouhongelk
uunouhongelkaid
uunouhongich
uunouhongige
uunouhongigen
uunpoloare
uunra
uunseeker
uunsichtboar
uunsichtboare
uunska
uunsu
uuntjoue
uunwichtich
uunwietenskuppelk
uuo
uur
uurapfierd
uurapfierenge
uurblieuwsele
uurbrangen
uurbroacht
uurd
uurda
uurdeel
uurdeeld
uurdeeljen
uurdra
uurdrain
uurdreegenge
uurdrieuwen
uure
uureen
uureenkumst
uureensta
uureenstimt
uurel
uurema
uuren
uurfa
uurfaadend
uurfaal
uurfaale
uurfaalen
uurfamilie
uurfla
uurflakte
uurfloudenge
uurfloudengen
uurgeen
uurgeskichte
uurgloowe
uurgong
uurgongs
uurgongsmetal
uurgongsmetall
uurgongsregierenge
uurgongstied
uurgriepe
uurgunge
uurgungt
uurha
uurhaud
uurhoop
uurich
uurichblieuwen
uurienwoonere
uurige
uurigens
uurje
uurkaante
uurknal
uurkunde
uurkundelk
uurkunden
uurla
uurlaid
uurlaine
uurlainhaid
uurledingerlound
uurleeden
uurleeken
uurlieuwde
uurlieuwed
uurlieuwende
uurlieuwet
uurlieuwje
uurlieuwjende
uurloang
uurma
uurnatu
uurnieme
uurnimt
uurnoamen
uurnoom
uurnoomen
uurnuumen
uuroardenge
uuroolde
uurra
uurrakt
uurreeke
uurregionoale
uurroat
uurruld
uurs
uursa
uurse
uursee
uurseeke
uurseeken
uursicht
uursichtskoarte
uursiede
uursniedengen
uurspro
uursproang
uursproange
uursproangelk
uursproangelke
uursproangsoarde
uursprungelk
uursuugedierte
uursuume
uurswa
uurswain
uurtjuugd
uurtjuuge
uurtjuugenge
uurtjuugengen
uurtoal
uurtoufaadenjen
uurweegend
uurwienden
uurwinnenge
uurwint
uurwoold
uus
uusen
uut
uuta
uutbau
uutbaud
uutbaue
uutbielded
uutbieldenge
uutbilded
uutbildenge
uutblieuwen
uutboald
uutbra
uutbreedenge
uutbreedje
uutbreek
uutbreeke
uutbreeken
uutbriek
uutbu
uutdiend
uutdiende
uutdiene
uutdienenge
uutdienengskoeffizient
uutdient
uutdruk
uutdrukje
uutdrukke
uutdrukkelk
uutdrukt
uutduur
uute
uuterst
uutfa
uutfaale
uutfal
uutfiende
uutfiender
uutfierd
uutfiere
uutfierenge
uutfierengen
uutfu
uutfuunen
uutgeen
uutgenuumen
uutgjuchte
uutgliek
uutgoave
uutgoawe
uutgoawen
uutgong
uutgongsbedingengen
uutgongsenergie
uutgreeuwe
uutgreeuwen
uutgreeuwene
uutgreeuwengen
uutgreeuwengs
uutgunge
uutgungende
uutgungt
uuthonneld
uuthonnelt
uutja
uutkiek
uutla
uutlaached
uutleendt
uutlo
uutlooper
uutloopere
uutlound
uutloundere
uutloundske
uutlukt
uutluuke
uutmienera
uutmoaked
uutmoakeden
uutmoaket
uutmoakje
uutnoame
uutnoamen
uutnonner
uutnunner
uutnunnersa
uutnutsje
uutnuumen
uutnuur
uutoarbaided
uutpra
uutreeker
uutriete
uutroat
uutrooded
uutropt
uutroupenge
uutrusted
uutrustenge
uutruupen
uutruupene
uutsa
uutsaach
uutseenden
uutsicht
uutsiedelt
uutsiedlere
uutsjo
uutsjoon
uutsjucht
uutska
uutsleek
uutsluutend
uutsmukkede
uutsnit
uutsoand
uutsoant
uutspielde
uutspradt
uutsprat
uutspreede
uutspreedenge
uutspreeke
uutspreeken
uutspro
uutsproake
uutsproakevarianten
uutsta
uutstaald
uutstaalenge
uutstaalengen
uutstierwen
uutstierwjen
uutstoald
uutstra
uutstroald
uutstroalje
uutstroalt
uutsturwen
uutstuurwen
uutstuurwene
uutteekend
uutteekenge
uuttoach
uuttoacht
uuttoanke
uuttoudienen
uuttousteeten
uuttoutoanken
uuttreed
uuttreeden
uuttuusk
uutwa
uutwieded
uutwierkede
uutwierkenge
uutwierkengen
uutwoaksen
uutwoaksene
uutwoaksenen
uutwoal
uutwonnerd
uva
uw
uwe
uwen
uwene
uxmal
ußere
v
va
vaal
vaca
vaccinium
vaccinum
vagharshapat
vaillant
vakuole
vakuum
val
valdiva
valdivia
vale
valencia
valenciana
valencians
valentin
valentini
valenz
valenzbeend
vallader
valle
vallenato
valletta
valley
valparai
value
values
van
vanadium
vandalen
vanellus
vanuatu
var
varel
varennes
vargas
variante
varianten
variation
varieta
variiert
varilla
varioabele
vasco
vasili
vater
vaticanus
vatikansta
vatikoansken
vaucouleurs
vauquelin
vaux
ve
vecellio
vechta
vechtaer
vechte
veda
veden
veen
vega
vegas
vegetation
vegetativ
vegetative
vegetatsjoon
vegetatsjoons
vegn
vegna
vegne
vehne
vel
vela
velde
veldnamen
vele
veliko
veloare
vende
vendsyssel
venedig
venetien
venezuela
venga
venier
venlo
venn
ventil
ventile
venus
ver
vera
verb
verband
verben
verbo
verde
verden
verdi
verdun
verdunois
vere
verein
vereins
verfallen
verfassung
vergangenen
vergessene
vergil
vergilius
vergleichende
verkehr
verkehrslage
verlag
vermeer
vermeinten
vermessen
vermessungsamt
vermont
verne
vero
veronese
verordenten
versailles
verscho
verse
versehen
version
versione
versloot
versuch
vertical
vertikoale
vertoog
vertumnus
verzeichnis
verður
vespa
veteroan
veteroanen
vettel
vff
vgl
vi
via
vicarius
vicente
vichy
vicia
vicky
victor
victoria
victoriano
victory
vicugna
vida
vidal
video
viel
vier
viersen
vietnam
view
vigintiduopunctata
vii
viii
viktor
viktoria
viktoriasee
vikunja
vila
villa
village
villamil
villar
villas
ville
villeneuve
villers
vilnius
vin
vincent
vincenz
vincenzo
vinchina
vinci
vindiciae
vinh
vini
vinifera
vinnen
viola
violencia
violet
virap
viren
virgil
virgin
virginia
viridis
virtu
virus
viscacha
viscachas
viscivorus
visigoten
vision
vita
vitalienbruure
vitamin
vitesse
vitis
vitus
viva
vivaldi
viver
vivere
viverridae
vivipara
vize
vizeko
vk
vlaanderen
vladimir
vlagtwedde
vlie
vlissingen
vmbe
vmbo
vnd
vnder
vnkost
vo
vocks
vogel
voi
voices
vokalismus
vokoal
vokoale
vokoalphoneme
vol
volk
volkskunde
volksleben
volksschule
volkstanzgruppe
volkstum
volkswagen
volkszeitung
volltext
volonta
volonte
volt
volta
voltaire
volume
volumen
vom
von
voodoo
voor
vor
vorarlberg
vorgeschichte
vorið
vornhusen
vorstadt
vos
voss
vote
votiv
voyage
vp
vre
vries
vrije
vro
vs
vt
vulga
vulgari
vulgaris
vulkan
vulkoan
vulkoane
vulkoanismus
vulpes
vund
vung
vv
vw
w
wa
waa
waage
waaie
waait
waaksens
waal
waalje
waareld
waarelda
waareldbekoand
waareldbielde
waarelddeel
waarelddeele
waareldfroamd
waareldgeskichte
waareldkoarte
waareldkriech
waareldkultuura
waareldliteratuur
waareldma
waareldmusik
waareldnatuura
waareldriek
waareldruum
waareldruumte
waareldsee
waareldsga
waareldske
waarelduutstaalenge
waareldwied
waaren
waarmere
waarmte
waas
waater
wache
wacholder
wachtel
wachter
wad
wadern
waeter
waffen
waggon
wagner
wahhabiten
wahl
wahlkreis
wahlpflichtkurs
wai
waie
waifljucht
waigjucht
waigjuchte
waigjuchted
waigjuchtenge
waigunge
waikuume
wail
waileeken
wain
waiwiesenge
waiwiesengen
wake
walapai
wald
waldeck
wale
wales
waling
waliser
walisisk
walisiske
walk
walker
walkers
walkna
wall
wallace
wallenstein
wallis
walliser
wallonien
wallschlag
walse
walter
walther
waltjend
wams
wan
wander
wanen
wang
wange
wangen
wangeroger
wangerooge
wangerooger
wangeroogisk
wangeroogiske
wanneer
wanner
want
wap
wapedia
wappen
war
warao
ward
waren
warengenossenschaft
warf
warhol
warkum
warm
warnken
warnkens
warns
warren
warsaw
warschau
warschaupakt
warsingsfehn
warthe
warthmu
warum
was
wasa
wash
washington
waskar
waskaran
wasko
wasser
wassiljewitsch
wassily
wat
waten
water
waterloo
waternamen
watt
watteau
watten
wattenmeer
way
wayna
wayne
wałe
we
web
weber
weblinks
webside
websiede
website
webstee
websteede
wechselwiesen
weda
wedel
weede
weedebloume
weeden
weeder
weederstation
weege
weegen
ween
weende
weendengen
weener
weer
weerbie
weere
weeren
weerfon
weerhaid
weerje
weershuus
weershuuse
weerskienelk
weerskup
weerstound
weert
weertruch
weeruum
weerwe
wees
weese
weesen
weesentelk
weesp
weet
weete
weeuwen
weeuwer
weeuwere
weeuwersta
weg
wegeregister
wehlbuurich
wehrmacht
wei
weich
weichsel
weimar
weimarer
weimarrepublik
weinstraße
weisse
weits
weixdorf
weizsa
weiß
weiße
weißer
weißig
wel
welche
welches
welcome
wele
weler
welerske
welje
weljen
welle
wellound
welmon
welsbit
welt
weltanschauung
wen
wendel
wendelsberg
wenden
wendenkrjuustoacht
wender
wenigen
wenker
wenn
wentu
wenzel
wer
werd
werde
werden
were
werenge
werengen
werft
werje
werk
werke
werktag
werlte
werner
werra
wert
wesche
wese
wesenbeck
weser
weserfra
wessels
west
westendorp
westerkwartier
western
westerveld
westerwolde
westfa
westfalen
westminster
westoldenburg
westoverledingen
westrhauderfehn
weststellingwerf
wet
wetenschappen
weths
wetter
wettin
wetzlar
wfr
wga
wgerm
what
whist
white
who
whorf
why
whymper
wi
wicca
wiccas
wich
wichmann
wichtich
wichtichste
wichtichsten
wichtige
wichtigen
wichtiger
wichtigste
wid
wide
widerhall
widor
width
widukind
widzel
wie
wied
wiede
wiedede
wieden
wieder
wiedere
wiederen
wiedet
wiedewieuw
wiedingharde
wiedingharder
wiedje
wiedkieker
wiedkiekjen
wiedloftige
wiedsichtegaid
wiedste
wieduut
wiefken
wiefkene
wiege
wiehnoachten
wiek
wieke
wieken
wiekendeege
wiel
wiele
wiemann
wien
wiend
wiende
wiendma
wiener
wienstra
wier
wiera
wierap
wierapbau
wierapbaud
wieraplieuwjen
wierbie
wierden
wieren
wierene
wierfereenenge
wierfereenigenge
wierfoar
wierfon
wierfuunen
wiergebuurt
wiergoawe
wiergruunded
wierha
wierhoalenge
wierhoalt
wieringen
wierk
wierke
wierked
wierkede
wierkenge
wierkengen
wierkengsgroad
wierket
wierkje
wierkjen
wierksteede
wierkumt
wierkuume
wierma
wieroane
wieroun
wierroat
wierskienelk
wiersloon
wierstand
wierstande
wierstound
wierstounde
wierstoundler
wierstoundlere
wierstoundlerske
wierstounds
wierstoundsteorie
wierstoundsteorien
wiertou
wiertra
wiertruch
wierunner
wieruum
wieruume
wieruumekeemen
wieruumekuumen
wieruut
wierwenge
wies
wiesbaden
wiesd
wiesde
wiese
wiesed
wiesede
wiesegaid
wieselke
wiesen
wiesenge
wiesengen
wieser
wiest
wiet
wiete
wieten
wietenskup
wietenskupler
wietenskuppe
wietenskuppelk
wietenskuppelke
wietenskuppelken
wietenskupper
wietenskuppere
wietenskupperske
wietenskups
wietenskupsdichtenge
wietruslound
wietsound
wietwoater
wieu
wieuw
wieuwe
wieuwelk
wieuwelke
wieuwelken
wieuwke
wieuwljuude
wieuwmoanske
wieuwmoansken
wijk
wiki
wikimedia
wikinge
wikinger
wikingere
wikipedia
wikipedien
wikisource
wikkeld
wiksel
wikselde
wikselje
wikseljende
wikselkuurs
wikselnde
wikselsponnenge
wikselstroom
wikselt
wikselwierkenge
wikt
wiktorowitsch
wil
wilamowic
wilamowice
wild
wilda
wilde
wilfried
wilh
wilhelm
wilhelmine
wilhelmshaven
wilhelmshoawen
wilke
wilkens
will
wille
willem
willemstad
willi
william
williams
willibrord
willy
wilmans
wilmesaurisk
wilms
wilson
wilst
wiltekomp
wiltekompsdom
wiltjens
wilts
wiltshusen
wim
win
winburg
wind
windmu
windows
windward
winkel
winkele
winkelhuuse
winkler
winne
winnel
winnen
winner
winnere
winnerske
winschoten
winsemius
winst
winste
wint
winter
winterdai
winterdais
wintere
wintergriese
winterquartier
winterspiele
wir
wirbelde
wird
wirket
wirtschaft
wirtschaftelk
wirtskaft
wirtskaftelke
wirtskup
wirtskuppelk
wirtskuppelke
wirtskuppelken
wirtskups
wirtskupsminister
wisconsin
wise
wish
wisse
wissen
wissenschaft
wissenschaften
wist
wiste
wisten
wit
wite
with
within
witsanukam
witte
witten
wittenberg
wittensand
wittlich
wittmund
witzel
wiue
wiuwert
wize
wka
wladimir
wo
woage
woain
woaine
woainjeeger
woainmoakera
woainremise
woak
woaket
woaks
woakse
woaksed
woaksen
woaksende
woaksenden
woaksene
woaksenen
woaksje
woakst
woal
woald
woale
woalen
woalgjucht
woalhoangste
woalkring
woand
woande
woanelk
woanelke
woant
woape
woapen
woapendiert
woapene
woapenstilstound
woar
woarniemenge
woarniemengen
woarniemer
woarniemere
woarnuumen
woarschienelk
woarsene
woarskauenge
woarskienelk
woater
woaterbau
woaterdoabe
woaterdoaben
woaterdruppen
woatere
woaterfaale
woaterfierenge
woaterhanne
woaterhannen
woaterhyazinthe
woaterhyazinthen
woaterkinkes
woaterkra
woaterlo
woaterloop
woaterloope
woaterma
woaterpoul
woaterpoute
woaterriekste
woaterska
woaterskeed
woaterskianloage
woaterspeegel
woaterstof
woaterstofatome
woaterstofbra
woaterstra
woaterstroom
woaterswien
woaterswiene
woatertouden
woaterwa
woaterwai
[...]
