!
"
#
##0
##1
##10
##11
##12
##13
##14
##15
##16
##17
##18
##19
##2
##20
##21
##22
##23
##24
##25
##26
##27
##28
##29
##3
##30
##31
##32
##33
##34
##35
##36
##37
##38
##39
##4
##40
##41
##42
##43
##44
##45
##46
##47
##48
##49
##5
##50
##51
##52
##53
##54
##55
##56
##57
##58
##59
##6
##60
##61
##62
##63
##64
##65
##66
##67
##68
##69
##7
##70
##71
##72
##73
##74
##75
##76
##77
##78
##79
##8
##80
##81
##82
##83
##84
##85
##86
##87
##88
##89
##9
##90
##91
##92
##93
##94
##95
##96
##97
##98
##99
$
%
&
'
(
)
*
+
,
-
.
/
0
00
000
00001
0001
0002
0008
001
001389
002
00300
00355
00643
00729
01
010
0100
014
01585
016
0163867
019
02
0212
0240
026
02609
0277
03
032
033
04
0433
0483
049
05
050
053
056
057
06
060
07
072
08
080
081
084
09
092
094
0963
1
10
100
1000
1001
1007
101
102
1026
103
1033
1037
104
105
1054
106
1067
107
108
1080
109
1093
11
110
1100
111
112
1120
113
114
115
116
117
1170
118
119
11916
1199
12
120
1200
121
122
123
1234
124
125
126
12639
127
128
129
13
130
1300
131
132
1321
1327
133
134
135
1353
1356
136
137
1371
1376
138
1389
139
14
140
1400
141
142
143
144
1445
145
146
147
1470
1473
148
1487
149
1497
15
150
1500
1502
151
1515
1517
1519
152
1520
1521
1525
1527
153
1530
1535
154
1543
1546
1549
155
1550
15507
1551
1552
1553
156
1564
1567
157
1571
158
1580
1584
159
1595
1596
16
160
1600
1601
161
1614
1617
162
1621
1622
1624
1626
1628
163
1630
1631
1632
1639616
164
1640
1641
1642
165
1650
1652
1654
166
1660
1662
1663
1664
1667
1669
167
1670
1671
1672
168
1682
1683
1689
169
1692
1693
1694
1696
1698
1699
17
170
1700
1701
1703
1704
1709
171
1714
1717
1718
1719
172
1720
1721
1723
1724
173
1735
174
1745
175
1750
1753
1754
1755
1759
176
1762
1763
1764
1767
1768
1769
177
1770
1772
1773
1775
1777
1778
1779
178
1781
1783
1785
1786
1787
1788
1789
179
1790
1791
1792
1793
1796
1797
1798
1799
18
180
1800
1801
1802
1803
1804
1805
1806
1807
1808
1809
181
1811
1812
1813
1814
1815
1816
1817
18177349
1818
1819
182
1820
1821
1822
1823
1824
1825
1826
1827
1828
1829
183
1830
1831
1832
1833
1834
1835
1836
1837
1838
1839
184
1840
1841
1842
1843
1844
1845
1846
1847
1848
1849
185
1850
1851
1852
1853
1854
1855
1856
1857
1858
1859
186
1860
1861
1862
1863
1864
1865
1866
1867
1868
1869
187
1870
1871
1872
1873
1874
1875
1876
1877
1878
1879
188
1880
1881
1882
1883
1884
1885
1886
1887
1888
1889
189
1890
1891
1892
1893
1894
1895
1896
1897
1898
1899
19
190
1900
1901
1902
1903
1904
1905
1906
1907
1908
1909
191
1910
1911
1912
1913
1914
1915
1916
1917
1918
1919
192
1920
1921
1922
1923
1924
1925
1926
1927
1928
1929
193
1930
1931
1932
1933
1934
1935
1936
1937
1938
1939
194
1940
1941
1942
1943
1944
1945
1946
1947
1948
1949
195
1950
1951
1952
1953
1954
1955
1956
1957
1958
1959
196
1960
1961
1962
1963
1964
1965
1966
1967
1968
1969
197
1970
1971
1972
1973
1974
1975
1976
1977
1978
1979
198
1980
1981
1982
1983
1984
1985
1986
1987
1988
1989
199
1990
1991
1992
1993
1994
1995
1996
1997
1998
1999
2
20
200
2000
2001
2002
2003
2004
2005
2006
2007
2008
2009
201
2010
2011
2012
2013
2014
2015
201504
2016
2017
20170731141731
2018
20180726010024
2019
202
2020
20200424113056
20200822004543
202019
202021
2021
20210502131349
2022
203
2030
204
205
206
207
2076
208
209
21
210
2100
211
212
213
214
215
216
217
218
219
22
220
221
222
223
224
225
226
227
228
229
23
230
231
232
233
234
235
236
237
238
239
24
240
241
242
243
244
245
246
247
248
249
25
250
2500
251
252
253
2531
254
255
256
257
2577
258
259
26
260
261
262
263
264
265
266
267
268
269
27
270
271
272
273
274
275
276
277
278
279
28
280
281
282
283
284
285
286
287
288
289
29
290
291
292
293
294
295
296
297
298
299
3
30
300
3000
301
302
303
303087
304
305
306
307
308
309
31
310
311
312
313
314
315
316
317
318
319
32
320
3200
321
322
323
324
325
326
327
328
329
33
330
331
332
333
334
335
336
337
338
339
34
340
341
342
343
344
345
346
347
348
349
35
350
3500
3505
351
352
353
354
355
356
357
358
359
36
360
361
362
363
364
365
366
367
368
369
37
370
371
372
373
375
376
377
378
38
380
381
382
384
385
388
389
39
390
391
392
393
394
395
396
397
398
399
4
40
400
4000
401
4020
404
405
406
407
408
409
41
410
411
412
413
414
415
416
417
418
419
42
420
421
422
423
424
425
426
427
428
429
43
430
431
432
433
4344
435
437
438
439
44
440
441
442
443
445
446
447
448
45
450
451
452
453
454
455
456
457
458
459
46
460
461
462
463
464
465
467
468
469
46953
47
470
471
472
473
477
478
479
48
480
481
482
483
484
485
486
487
488
489
49
490
492
49257
493
494
495
496
497
498
5
50
500
5000
50000
503
504
505
506
507
508
509
51
510
511
512
513
514
515
516
517
518
52
520
521
522
524
525
526
527
528
53
530
531
532
534
535
536
537
5379
538
5387
539
5395
54
540
541
542
543
544
545
546
549
55
550
551
552
554
555
557
559
56
560
56023
562
563
564
565
5667
567
57
571
572
574
575
576
578
579
58
582
584
585
5851582170
586
587
588
59
590
592
599
6
60
600
601
602
6036
604
605
606
608
609
61
612
616
618
62
620
622
624
63
631
635
636
637
638
64
640
642
647
65
650
653
656
66
660
661
669
67
670
6715
672
68
680
683
684
687
69
690
691
693
699
7
70
700
7000
701
702
704
71
7103
718
72
720
7248
73
730
732
7333
736
74
743
746
7493
75
750
7516
752
759
7595
76
762
766
768
77
770
78
786
788
789
79
7914
7979
8
80
800
8006001
803
807
81
810
8108
8133
8156
82
824
8243
83
831
84
840
844
845
8459
8497
85
850
851
85120
85270
85271
856
86
860
862
87
872
87317
87429
877
87898
88
880
88185
88431
884446
89
890
89022
892
893
89362
89476
895
896
89647
9
90
900
900029
901
903
903816
905551
906463
907
908
91
910
9103
911
91671
919
91940
92
920
9272
928
93
94
9403
943
945
94666
9468
94950
95
950
951
952
953
96
960
963
966
97
975
977378
978
9781884446054
98
981
985
9876
99
9986
:
;
<
=
>
?
@
[
\
]
^
_
`
a
aa
aalborgevents
aar
aasma
aat
aatccusco
ab
abboud
abc
aberta
abierta
about
abs
ac
academia
academic
academy
accessed
acer
achille
acref
acrocephalus
act
acta
action
ad
adam
adatok
add
adelfopoiimenes
adm
admgor
admin
administration
administrativ
admkrsk
admomsk
admrzn
admsurgut
ado
adriatica
ae
aemter
af
affairs
affiliation
africa
afrika
after
ag
agaricus
age
ageing
agency
ageratum
agreement
agro
agrostis
ahlfors
ai
aif
air
ais
aise
aj
ak
akl
aktuell
al
ala
alba
albania
albanian
albert
album
alces
alders
ale
aleksis
aleph
alexander
alfred
ali
alighieri
align
alisma
all
alle
allium
allmusic
aloe
alpestris
als
also
altis
am
amaranthus
amardnthus
ame
america
american
americanus
ammospermophilus
among
ams
amsterdam
an
ana
anagallis
analysis
anas
anatoly
ancestry
ancient
and
andmebaas
andmed
andmete
andorra
andrea
android
andrzej
angelegenheiten
angeles
angustifo
ani
anidb
anime
anita
ankara
ann
anna
anne
annoti
annual
ans
ansa
anser
antalya
anthyllis
anton
antonio
any
ap
aperti
apg
api
apiaceae
apie
app
apple
apps
april
aquatica
aquila
aquino
ar
arabia
aranyoldalak
arbetar
arbete
arborescens
arc
archimedes
archinform
archive
archived
archives
arctium
arctos
are
area
areas
aree
arena
argentina
ariste
arjava
armenia
armenian
armenians
army
aromaticum
around
art
arthur
arti
article
articles
artist
artists
artnet
arts
arvense
arvensis
arvi
as
ashdodnet
asia
asian
asp
asprete
aspx
assets
association
astera
asteraceae
astronomy
asustusjaotus
at
ata
athens
atkla
atlas
atricapilla
atriplex
att
attachments
attempt
attribution
atvira
au
audio
auf
aufl
august
augustin
aus
ausgewa
austin
australia
australian
austria
austrian
aut
auteurs
auth
author
authorities
authority
authors
av
ava
avatud
avec
avicenna
aviv
avoimen
award
awards
away
ay
ayuntamiento
az
azerbaijan
azerbaijani
azerbaijans
azərbaycan
b
ba
babelio
bach
back
baker
baku
balkans
baltic
band
bangkok
bangumihyo
banja
bank
bankı
barack
baranya
barbara
barcelona
bardejov
bari
bas
base
based
basic
basingstoke
bayerische
bayern
bazademografia
bb
bbc
bc
bd
bde
bdl
be
beach
beatles
beauv
beauvoir
beccabunga
beethoven
befolkning
befolkningsfo
befolkningsta
before
beginning
behavior
bei
being
beirut
bel
belarus
belgium
belgrade
bell
belstat
ben
benekenii
benezit
bengali
benth
beograd
ber
berlin
bern
bernard
bernhardt
bers
bes
best
betonica
between
bevoelkerung
bevoelkerungsstand
beweb
bez
bf
bfs
bg
bh
bi
bialystok
bibcode
bibliographisches
bibliography
biblioteca
bibliothe
biden
bidens
big
bigenc
bilateral
bilaterales
billboard
bin
bio
biograafiline
biografico
biografski
biographical
biographie
biography
biology
birthday
bisexual
bisexuality
biuro
biznes
bl
black
bletchley
blica
bling
blog
bloomington
bloomsbury
bm
bnf
bo
board
body
bonbon
book
books
bordeaux
boris
borwa
bos
bosco
boston
both
box
boy
boz
br
bradt
branch
brandenburg
brasil
brassica
brassicaceae
bratislava
brattya
brazil
bremen
brest
brief
briefe
brill
britain
britannica
bro
broadway
brockhaus
bromus
brothers
brovina
brown
brozovic
bru
brunei
bruno
bryansk
bu
bubo
bucures
budapest
buergerservice
building
bul
bulletin
bupleu
bureau
burgas
business
but
buteo
butler
buzuku
bwv
by
bəhlulzadə
c
ca
caenorhabditis
cafe
calamagrostis
calandra
calendar
calidris
california
callitriche
callosciurus
calluna
calvin
cambridge
camera
campestris
can
canada
canal
canidae
canis
canna
cannabina
canum
canus
capillaris
capital
capreo
capreolus
caragana
carduelis
carduus
carpenters
caryophyllaceae
case
cat
catalana
catalogue
category
catholic
cb
cbs
cc
ccg
ccl
cd
cdrduus
ce
cea
ceae
cee
cel
cell
census
centaure
centaurea
center
central
centre
centuries
century
ceremony
cervantes
ceum
cf
cfm
cgi
ch
chaerophyllum
chamaedrys
champion
changes
channel
chapter
char
charles
chart
charts
chartsbin
cheladmin
chelyabinsk
chemnitz
chenopodium
chernivtsy
chess
chicago
chiesacattolica
children
chile
chilly
china
chinese
chis
chisholm
chisinau
chisl
choice
christian
church
chuselnist
ci
cia
ciconia
cid
cidades
cimientos
cirsium
cite
cities
citizen
citizenship
citta
city
citypopulation
citytoday
ciudad
ciudades
ck
cke
cl
classical
classification
classofcontent
clava
climate
club
cm
cms
cn
cnc
cnig
cnt
co
code
codi
col
collection
college
coltofean
columbia
column
com
come
coming
commedia
commission
committee
commons
commonscat
commonwealth
communities
community
companion
company
complana
complete
compositae
comune
con
concatenate
conchita
conference
congress
congressus
coni
connect
constitucio
constitution
consultato
contact
content
contest
contra
cooperation
copa
cordoba
corngold
corvus
costume
council
countries
country
course
court
coventry
cr
cratae
crataegus
creative
cri
crimea
critical
criticism
croatia
croatian
cs
csa
csu
cu
cucurbita
cultura
cultural
culture
cumhuriyeti
cura
current
cy
cya
cygnus
cynomys
cyprus
cz
czech
czso
d
da
dados
dag
daily
daimler
dajov
dallas
dame
dan
dance
dans
dante
dantesca
danych
darwin
das
data
database
datan
dataplattform
dataset
datasets
date
dati
datos
datu
datumoj
datura
daugavpils
david
day
days
db
dbinet
dbscripts
dc
dd
de
dead
death
debrecen
debreceni
december
decentralization
dedes
default
defense
degli
dei
del
dela
delarge
dell
della
delle
dem
demja
demo
demogr
demografia
demographia
demographic
demoscope
den
dendrocopos
denmark
department
depuis
der
des
deschise
descriere
description
desktopdefault
destatis
detail
detailed
deutsche
deutschland
development
dhe
di
dia
dialog
dianthus
diaspora
dibra
dickens
dictionary
dictionnaire
die
dies
dietrich
digitalarchivioricordi
digos
dijon
dimitris
din
dinner
dio
dioica
diphasia
directed
directory
discographie
discography
discogs
display
displaystyle
dissertation
district
dition
ditions
dium
division
dizionario
dk
dla
dm
dmoz
dniu
do
dobitnici
doc
docid
docs
doctor
documentary
documents
doderer
doi
domain
don
doneck
donne
douglas
dov
download
dq
dr
dracocephalum
drama
dremomys
driscoll
driving
druk
dryopteris
dte
dts
du
dublin
duomenu
durchgesehen
during
dus
dvd
dy
dz
dzieje
dztwo
e
ea
early
earth
east
eastern
easy
eb
ebx
ec
echinops
econom
economic
economists
economy
ed
edinburgh
edinburghlive
edinburghs
edit
edited
edition
editions
editorial
editorsabbr
edr
eds
edu
education
ee
eesti
ef
effects
egon
egy
egypt
ei
ein
eine
einer
einstein
ek
ekkusu
el
ela
ele
elected
election
electronic
elegans
elements
elena
eleocharis
elias
eliasmelteme
elisabeth
elsie
elvis
em
emberiza
emil
empire
en
ena
enc
enciclope
enciclopedia
enciklopedija
encyclopaedia
encyclopedia
encyclopædia
encyklopedia
end
energy
eng
engel
england
english
enite
enka
entry
environment
eo
ep
epigejos
epy
equisetum
er
era
eredme
ergo
erigeron
erik
ermonela
ernest
ernst
ersa
erste
erwin
eryngium
erza
erzan
erzia
erzianj
erzy
erzya
erzyaks
erzyan
erzyawiki
es
esculentum
eske
esko
esky
espan
esperanto
espn
espoo
essays
est
estadi
estado
estatisticas
ester
estimated
estimates
estimativas
esto
estonia
estonian
et
ethnic
ethno
ethnologue
eu
eugenie
euro
europa
europaea
europe
european
europride
eurostat
eurovision
ev
eva
evans
events
ever
every
ex
exil
exils
extant
ez
ezy
f
fa
faba
fabaceae
facebook
faces
fact
factbook
facts
factsheet
faculty
fahrelnissa
fakta
falco
false
families
family
fan
fandom
fanny
faostat
father
fathers
fbd
fc
fe
feat
features
featuring
february
federal
federation
felno
female
fembio
feminism
feminisms
feneketlen
fennica
fenno
ferdinand
ferto
festival
festschrift
festuca
ff
fi
fia
fiction
field
fifth
fight
figures
file
fileadmin
files
film
filmportal
films
final
find
finland
finlandia
finnish
finno
finnougoria
finugor
fire
firenze
first
fis
five
fleabane
fleck
flora
florence
florida
fm
fo
folk
folkemengde
folkma
food
foorumi
for
force
foreign
format
forth
found
foundation
four
fourr
fr
franc
france
francesco
francia
francisco
frank
franka
frankfurt
franz
frau
frauen
frauendatenbank
fred
free
freebase
freedom
freeman
french
friedrich
friendship
fringilla
from
front
fu
fuer
full
fun
funambulus
func
function
fund
funisciurus
fuzz
fylker
g
ga
gabriel
gala
gales
galileo
galium
gallery
gallinago
game
games
gao
garrulus
gary
gashi
gatti
gaujas
gay
gayrussia
gazeta
gazetteer
gb
gc
gdansk
ge
gemeinden
gemeindeverzeichnis
gemellaggi
gen
gender
genealogics
genera
general
genericorum
gennaio
geo
geodezia
geografickeho
geographic
geography
geometry
geonames
geonet
geoportaal
geopostcodes
georg
george
georgia
georgian
geos
geostat
gera
geranium
gerd
gergely
gerlista
german
germany
geropeppa
gesammelt
geschichte
gesellschaft
gesellschaftstaat
gi
gia
gili
giordano
giovanni
girl
giugno
gjakove
gjon
gks
glacial
glaucium
global
glycyrrhiza
gnd
gnes
go
gob
god
godinu
goethe
gold
golden
goldie
gomel
good
google
gora
gordon
gorod
goroda
gorodapartnery
gostyam
gouv
gov
government
govt
gr
gra
gradove
graham
gramineum
grammar
grammophon
grand
grants
grao
grave
gray
graz
great
greatest
greece
greek
greeks
griko
grin
gronkiewicz
gross
group
groups
grove
growth
gru
grus
gruyter
gsfc
gu
guardian
guide
guides
gus
gustav
gutenberg
gv
gy
gyo
gyor
gypsophila
gypsy
h
ha
haan
hagstofa
haldus
hall
hallituksen
hallitus
hamburg
hand
handbook
hanelt
hanna
hannes
hans
haqqında
har
harkany
harmattan
has
hauptamt
have
haven
haworth
hayakawa
hd
he
head
health
heart
hebrew
heikki
heikkila
heimito
heini
hele
helia
helianthus
helichrysum
heliosciurus
hell
hello
helsingfors
helsingiensia
helsingin
helsinki
helyne
hemingway
hemsl
henry
her
herausgeg
here
heritage
hermanas
hg
hh
hi
high
highest
hill
his
histoire
historia
historic
historica
historical
history
hit
hl
hler
hlten
ho
hodder
hogy
holocaust
holroyd
home
homepage
homosexuality
hong
honor
hordeum
hot
houndmills
house
how
hr
hrsg
hrvatska
hrvatski
htm
html
http
https
hu
hugo
hugonnai
human
hundred
hung
hungarian
hungary
hylopetes
hypericum
hypopitys
i
ia
iaaf
iad
iana
iapt
ib
ibge
ibn
ibuar
ic
ica
iccu
ice
iceland
ich
id
idc
identity
idmenu
ie
iedzivotaju
ien
ieste
ignatij
ih
ihre
ii
iii
iks
il
ilir
illinois
illustrated
illustrations
im
images
imdb
img
in
ina
inc
included
index
india
indian
indiana
indicator
indicators
individuals
indonesia
industry
ine
inen
info
information
inkeri
inline
innsbruck
ins
insee
instagram
institut
institutas
institute
institutionen
instituto
institutt
institutti
int
integrated
intelligence
inter
interlingua
intermedia
intermunicipal
international
internationale
internationales
internationalis
internationellt
internazionali
internet
interview
into
introduction
io
ional
ipa
iparxei
iprage
ir
iran
iranian
irish
is
isa
isbn
isik
islam
islamic
island
islands
ismail
iso
israel
iss
issn
issue
ist
istanbul
istat
istituto
istoriya
istrefi
istva
it
ita
italian
italiana
italiani
italy
itau
itaucultural
item
itemid
its
itunes
iv
iva
ivan
ivilnius
ivo
ix
iz
izdania
izdanje
izlase
izmir
j
ja
jadwiga
jaho
jahrbuch
jahre
jak
jakarta
jale
james
jan
jansson
janua
januari
january
janusz
japan
jaskinia
je
jean
jellinek
jendrassik
jerusalem
jeugdliteratuur
jewish
jj
jo
joe
johann
john
johnson
jonathan
jord
jos
joseph
jouanna
journal
jp
jpg
jr
js
json
jsonapi
jsp
jstor
ju
judet
juha
juhani
juho
july
jumelage
jumelages
jun
june
juni
jurnalist
just
jyva
jyvaskyla
k
ka
kafka
kaftaj
kahla
kaino
kainun
kaj
kaja
kala
kalbos
kalevipoeg
kaliningrad
kaliopi
kallas
kan
kana
kansainvalinen
kansainvaliset
kansallisbiografia
kansallispuistoittain
kansan
kant
kar
karamanou
kardes
kardeskentler
karinska
karisto
karjalan
karl
kartografia
kas
kasparek
kat
kathmandu
katitzi
kauhajoki
kauna
kaunas
kaupunki
kaupunkien
kausi
kava
kavkaz
kaz
kazakhstan
kazan
ke
kemal
ken
kenneth
kent
keskkonnainfo
kettunen
key
keynes
kg
kherson
ki
kiado
kiel
kielen
kielesta
kieli
kindred
king
kirche
kirja
kirjallisuuden
kirjaviite
kirov
kis
kise
kit
kiven
kivi
kjønnsfordeling
klagenfurt
klein
kleine
klgd
klimt
knj
knjiga
knjiz
know
ko
koc
koda
koeleria
koeltz
koenigstein
kombe
kommun
kommune
kommunen
kommuner
kona
kong
koosseis
koponen
korczak
korea
korhonen
kos
kosova
kosove
kosovo
kova
kp
kr
krakau
krako
krakow
krall
krimmler
kritik
kro
krøyer
ks
ksenia
ksh
ksi
ksia
ksie
ku
kujola
kuka
kukin
kultur
kultura
kulturnav
kunta
kuntien
kurskadmin
kvensk
kyivcity
kyoto
kz
l
la
lactarius
lacustris
ladan
lady
laenderregionen
lagopus
lais
lake
lamiaceae
land
landareal
landets
lane
lang
language
languages
lanius
lapai
lappa
largest
lariscus
larnaka
lars
larus
las
last
laszta
late
latifo
latvia
latvies
latvijas
laura
lauri
law
laxma
layal
ldmium
ldthyrus
le
leaders
least
leben
lebens
lecture
left
leipzig
lej
leksikon
lenta
lepidota
les
lesbian
let
letter
letteratura
leucotos
level
lewis
lexica
lexikon
lg
lgbt
li
lia
lib
library
libris
liebe
liege
lietuviu
life
light
lika
like
likool
likooli
linda
line
lingua
linguistica
lingvistica
link
linkresolverservlet
linux
linz
lis
lisa
list
lista
literary
literatur
literature
lithuania
lithuanian
litres
litte
little
lium
lius
live
lives
living
lix
lk
ll
lla
lle
ller
llum
ln
lo
local
localita
localities
lodz
logos
london
long
longifolia
los
lota
louis
love
lp
lsy
lt
ltd
lu
lua
lublin
ludnosc
ludnosci
ludwig
luka
lukuma
lumotlar
lund
lundy
luokitukset
luokitusavain
luokka
lupus
lus
luscinia
luther
lutra
lutskrada
lv
ly
lycalopex
lycopo
lynx
lyon
lzmk
m
ma
maaamet
maakatastri
maakond
macedonia
machine
macmillan
macrantha
madame
madrid
magazine
maggio
magyar
magyarorsza
mai
mail
main
majas
major
making
mala
malferma
malmo
malta
malu
malus
mammals
man
management
manfred
manga
mannfjoldi
manuel
many
map
maps
mar
marathon
marc
marcel
march
margit
mari
maria
marianna
marie
marija
marilyn
marina
mario
marion
maritimus
mark
marlene
marmota
mars
marshall
martes
martin
marto
martti
marx
mary
mas
mascota
mashke
mass
mastor
mastoron
mat
mathematics
matricaria
matthew
max
maximum
may
mayor
małgorzata
md
me
med
medal
media
mediabank
medical
medicine
medico
medien
medieval
medius
medizinal
meet
megye
mejle
mek
mel
melampy
meles
melilo
member
members
membership
memorial
memory
men
mentha
mer
mercedes
merevi
merkmalen
mes
mesta
meste
meta
metro
metsa
mex
mexico
mey
mez
mezhdunarodnye
mg
mi
mia
miasta
miasto
michael
michel
microsciurus
mid
middle
miejski
miescie
miestai
miesto
mieszkancow
miguel
mikey
miklo
milano
military
milium
mill
millefo
million
milvus
min
ministe
ministry
minor
minorities
minority
minsk
minus
mira
mis
mista
mit
mk
mm
mo
modamastoron
model
modern
modernity
module
moksha
molaotheo
moldova
molecular
molie
mollis
moma
monaco
monde
mondo
mongolia
mononoke
monotropa
monroe
montanus
month
monthly
montifringilla
moomin
moon
mordovia
mordvin
mordwinische
mordwinischen
mordwinisches
more
morning
morphological
mos
moschata
moscow
most
motacilla
mother
motoren
mountain
movements
movie
mr
mrsu
ms
msu
mt
mtv
mu
muenchen
mun
muni
municipal
municipalities
municipality
municipii
municipios
munst
munzinger
murray
mus
museum
music
musica
musical
musik
muslim
muslims
must
mustela
muumit
mx
my
myotis
myth
myvwikipedia
mzmdfjyi
məlumat
n
na
naciona
nacional
nacionalna
nad
nagrade
nagy
name
names
nana
nancy
narod
narodne
nas
nasa
naseleniya
nat
nation
national
nationalbibliothek
nationale
nations
natural
naturalny
nature
naukowe
nazor
nazvoslovia
nazvy
nbsp
nchen
ncu
nd
nda
nde
nder
ndf
ndigen
ndor
ndringar
ne
near
ned
nektarios
nen
neotamias
nepal
nepeta
nes
nest
net
network
neue
never
new
newly
news
newsmusic
ng
nga
ngd
nger
ni
nia
nica
nicaragua
nicholas
nicht
nie
nigeria
night
nights
nigra
niina
nije
nikos
nil
nimella
nis
nium
nivel
nk
nkp
nl
nm
nnes
nnii
nninen
nnov
nnrot
nnrotin
no
noailles
node
nom
nominations
nominum
non
noor
nor
nord
norman
north
northamerica
norton
norway
nos
not
nova
novak
nove
novel
november
novembre
novi
novosti
now
nr
ns
nsf
nso
nssdc
nt
nta
ntha
nthus
nu
nuernberg
num
number
nurkse
nus
ny
nyc
nyctalus
nyei
nyi
nymphaea
nytimes
nyve
nz
nze
o
ob
obama
obci
object
oblast
obr
obszary
obyvatel
oc
och
ochiq
oclc
october
od
oder
odonata
odprte
oenanthe
oewd
of
office
official
officina
officinalis
oficial
ofitsialnaya
og
ogledalce
ohio
ol
ola
old
oldest
olera
olga
oli
olsztyn
olympic
olympics
om
omorika
omos
omr
omsk
omvarld
on
one
onepage
onkormanyzat
online
only
op
opc
open
opendata
opendocument
openlist
opera
opere
opole
option
or
ora
orae
oras
orasul
oraz
org
organisation
organization
orhei
orientalis
orientation
origin
original
oriolus
orleans
orobanche
orson
os
osa
oscar
oslo
osp
otava
otevr
other
otherside
otnosheniy
otto
ottoman
otvorenih
otvorenog
otvoreny
otwarty
otwartych
ougrienne
oulu
oup
our
ousia
out
ouvertes
ov
ova
over
ovo
own
oxford
oxfordreference
oy
oyme
p
pa
paasonen
paasonens
paavo
package
page
pages
pageview
pagina
painos
pajusalu
pakistan
palace
paludicola
palustre
palustris
pampuri
pan
panama
pani
pantheon
pantone
paolo
papers
par
para
paraxerus
parc
parenthorizontaltab
paris
park
parks
parku
part
partenaires
participant
participants
partie
partner
partneri
partneriai
partners
partnerska
partnerske
partnerskie
partnerstadt
partnerstaedte
partnery
parus
pas
pasakas
passer
passion
passport
past
path
patras
patrasevents
paul
paulo
pazink
pc
pdf
pe
peace
peakbagger
pecs
pectinatus
peerage
pejcharova
pek
pekka
pel
pen
penguin
penza
people
peoples
per
peres
performance
permstat
persian
persica
person
persona
persone
personen
persons
perspective
pes
pesme
pessoa
petaurista
peter
peterburg
petersburg
petinomys
petit
pflanzen
pg
ph
pha
philadelphia
philippines
philips
philosophical
philosophie
philosophy
phoenicurus
phone
phonetics
photo
photos
php
phylloscopus
physicians
pi
pia
piattaforma
picasso
picea
picnic
picus
pierre
pim
pina
pinaceae
pineda
pinus
pipistrellus
pk
pl
place
places
planes
planetary
planine
plant
planta
plantaginaceae
plantago
plataforma
plateforme
platform
platforma
platforması
platformja
platformo
platformu
plattform
platvormi
play
plays
ple
plovdiv
pm
pmid
po
poaceae
poblenou
pobratimeni
pobratimi
pobratimskih
pobratimy
pobratymy
poc
pod
podataka
podatke
podhale
poe
poeae
poet
poks
pol
poland
poleis
political
politics
politik
politisch
polsha
polska
polskawliczbach
polydor
polyporus
pop
popolazione
popul
populac
populacao
populat
population
populations
por
port
portal
portrait
porvoo
pos
post
postimees
potamoge
potamogeton
power
poznan
pp
ppe
ppen
pr
pra
praha
pratensis
prawa
pre
prefix
prelude
present
presentationstandard
president
presidential
presley
press
prezydenta
pri
pride
prima
primary
primula
princess
princeton
print
printing
prize
prizes
prizren
pro
proben
problem
proceedings
production
produkte
professional
profile
program
project
projektissa
proleksis
prosciurillus
prospects
prostrata
proust
provincias
prpopul
prunella
prunus
przekroju
przez
psycho
pt
pu
pub
publ
public
publicat
publication
publications
publique
published
publisher
publishers
publishing
pulmonaria
purpurea
pvm
pwn
px
pxen
pxnet
pxt
pxweb
py
pyramidata
q
qadınlar
qbhp
qena
qobustan
quartal
quarter
quarterly
que
queen
qızı
r
ra
rabindranath
race
rada
radio
rafael
ragnar
rahikainen
rahvaarv
rahvastik
rahvastiku
rahvastikunaitajad
raimund
raksti
ral
random
rapa
raphanus
rar
ras
rathaus
ratufa
rature
rav
ravila
rayonı
razvitiya
rba
rd
rdo
re
reading
real
receive
recognition
record
records
recutita
red
ref
referat
reference
references
reflist
reg
regenbogenparade
region
regionales
regions
register
regkat
regulus
rein
rel
relacio
relations
relationships
relazioni
religion
religious
remarkable
remarks
remix
renaissance
rephaboliki
report
repu
republic
republika
republiky
res
research
residence
resident
residente
resolver
resource
resources
result
results
retrieved
review
revision
revolution
reynolds
rgb
rgy
rhymnus
ri
ria
ribes
rica
richard
riga
right
rights
riket
rio
ris
rita
ritter
rium
rius
river
rivneportal
rk
rkdartists
rkiye
rkəmli
rlz
rma
rnu
ro
rob
robert
robertson
robic
robin
robinson
roku
rol
rom
roma
roman
romania
romanichthys
rome
rosa
rosaceae
ross
rosstat
rotterdam
rousseau
route
routledge
royal
rpa
rpl
rpus
rr
rs
rse
rsium
rsl
rt
rte
rterbuch
rtf
ru
rubric
ruch
rules
rum
rumex
rus
russia
russian
russula
russulaceae
rustica
ruumiandmed
rv
rvar
rven
rvi
rxid
ry
ryabov
ryan
ryazan
rza
s
sa
saarimaa
sabrana
sacred
sad
saez
saint
salmivuori
salvador
salzburg
sam
samara
samarbete
samo
samuel
san
sanakirja
sanayi
sanguisorba
sankt
sanskrit
sant
santa
sao
sarah
sarajevo
saransk
sarjakuvaklassikot
sata
sativa
saudi
savoy
sbn
scarecrow
schiele
scho
schoenoplectus
school
schubert
schult
schwarzwald
schweiz
sci
science
sciences
scientific
scirpus
sciurus
scop
scott
scribner
scripts
scrofa
se
sea
search
sebastian
sec
second
secret
see
sein
seine
seitaj
sel
selbsta
select
selected
self
seminar
seoul
sephardic
sept
september
sera
serbia
series
server
service
services
ses
seste
set
settlement
seura
seuran
severodvinsk
sex
sexes
sexual
sf
sfd
shagal
shakespeare
shaw
short
show
showsister
shqipe
shqiptare
shtml
shu
si
sid
sides
sie
significantly
sil
sile
silene
simferopol
simon
simone
sindhi
sinensis
singapore
singer
singing
single
singles
sister
sistercities
sistercity
sisters
site
sites
sivers
sivut
sixcms
size
sk
ska
skgeodesy
ski
skiego
skopje
sks
skyla
sla
slnl
slovak
sls
smith
sn
so
soc
soccerway
sociais
social
socie
societatis
society
sofia
som
some
son
song
songs
sons
sonze
soome
soprano
source
sources
south
southall
southeast
southern
souvenirs
soviet
sp
spa
space
sparrow
spb
special
species
speculative
spermophilus
sphrase
spicata
sport
sports
spra
sprache
spring
springer
spus
sr
srcountry
srid
srpska
srtv
ssb
ssp
st
sta
staatsbibliothek
stabila
stachys
stadt
stadtmarketing
stadtpolitik
staedtepartnerschaften
stage
stan
stanbul
standardizacia
stanford
stanisław
stanley
stanu
star
starportal
start
stat
statbank
state
states
statfin
statistica
statistical
statisticky
statistics
statistik
statistika
statistikker
statistikportal
statistiques
statistiska
statline
statov
stats
status
statweb
ste
steinberg
stephen
sterreich
sterreichische
sti
stica
still
stipa
stis
stockholm
stojakovic
storage
storia
stories
story
stoughton
str
strauss
stress
strona
structure
struktura
strum
stub
studien
studies
studio
study
sturnus
su
sua
sub
subsp
suhonen
suicide
suillus
sul
sum
summary
summer
sumy
sun
sundasciurus
sunday
suom
suomalainen
suomalais
suomalaisen
suomalaiset
suomen
suomentanut
suomi
support
sur
surguta
survey
sus
susa
sust
sv
sve
svenska
sverige
svislando
svyazi
sweden
sweet
swiat
sy
sydney
syllable
sylvestris
sylvia
symposium
syn
syntichaki
system
sz
szabo
szczecin
sze
szeged
szegedtourism
szegedvaros
szekesfehervar
szlo
szmielew
szo
səttar
t
ta
tab
tabellen
tabid
tabindex
table
tables
tableviewlayout
tabli
tadorna
tadr
tagore
tale
tales
tallinn
tallinna
tamiops
tampere
tampereen
tanace
tanacetum
tandfonline
tans
tanzania
tar
tara
taraxacum
tartu
tas
tass
tavernarakis
taxon
tbilisi
tbilisiinfigures
tc
tchaikovsky
te
team
techcrunch
technology
tel
telegraph
telepu
telsky
tema
tematiche
tematyczne
temps
ten
tennis
teoksen
ter
term
ternopil
territories
terrus
terytorialnym
tes
testvervarosaink
testvervarosok
tevs
texas
text
texte
texts
th
than
that
the
theatre
theguardian
their
theme
theory
there
thessaloniki
thet
they
thibetanus
this
thomas
thought
three
through
thuill
thumb
thymus
ti
tibor
ticum
tiedot
tietoa
tietosanakirja
tigran
til
time
times
tirage
tirana
tirane
tis
title
tna
tne
tnen
to
today
toim
toiminta
toivo
tokyo
tolvanen
tom
tome
tomentosum
ton
tools
top
topelius
toppop
torma
toronto
tort
torter
total
tour
tourism
tove
town
towns
tr
track
traduit
traffic
trans
transfermarkt
transkribiert
translated
translatedate
transylvania
travel
tre
treccani
tree
tri
trifolium
tringa
triticum
trochiloides
troglodytes
trondheim
true
trump
trust
ts
tsa
tscheremissische
tt
tteknek
tu
tubero
tuberosus
tudes
tum
turdus
turk
turkey
turkish
turku
turner
tus
tutkimus
tv
tvoja
twentieth
twin
twinnings
twins
twitter
two
tx
txt
ty
type
tz
tzdb
u
ua
ucoz
udmila
ufa
ug
ugkk
ugri
ugric
ugricae
ugrilainen
ugrilaisen
ugristarum
uk
ukr
ukraina
ukraine
ukrajina
ukrajna
ukrcensus
ukrstat
ul
um
umar
umberto
umwelt
un
una
und
under
une
unesco
uniflora
union
unit
united
universita
university
uno
unspecified
up
upload
uploads
ur
uralica
uralistica
urban
url
urmana
ursus
urti
urtica
urzad
us
usa
use
user
ussr
ut
utc
uz
v
va
vaerak
vai
vain
val
valencia
valsanicola
value
van
vancouver
vanellus
vanorter
var
varos
varval
vasence
vatican
vaticano
vaz
ve
veerman
vejse
vena
venezia
venskabsbyer
vepsa
verilerin
verkkoversio
verkkoviite
verkostot
verlag
verna
vero
veronica
version
versus
verwaltung
ves
vese
vf
vg
vi
viaf
vicia
victor
vid
video
vie
vienna
view
viewer
views
vii
viii
viitattu
vila
ville
villes
vilma
vilniu
vilnius
vintage
violeta
viridis
viron
virtaranta
virtual
vis
vision
vita
viva
vko
vladimir
vmr
vn
vneshn
vneshneeconomic
vo
vogue
vol
volgadmin
volksdichtung
volkslitteratur
voltaire
volume
vom
von
voronezh
vrk
vrm
vs
vulga
vulgaris
vulpes
vuokkiniemi
vuonna
vuotta
vv
vw
vyyskaupungit
w
wa
wagner
wales
walsh
walter
waltz
walzer
wanda
war
warsaw
warszawa
was
washington
wasserfa
water
way
wayback
wb
wcm
we
web
webcitation
weber
website
week
weekly
welcome
well
welles
wells
welt
were
west
western
what
when
where
which
white
who
wiat
wie
wien
wiener
wiki
wikidata
wikimapia
wikimedia
wikimedians
wikipedia
wikiseminar
wikisource
wild
wilhelm
will
william
williams
windows
winners
winter
wissen
wissenschaft
with
without
wmflabs
wo
wojewo
wolff
wolfgang
woman
women
work
works
world
worldbank
worldometers
worldua
worterbuch
would
wołoszyn
wp
wps
writer
writers
writing
written
wsoy
wspolpraca
wszystkie
wurm
wurst
www
wyd
wydawnictwo
x
xa
xerus
xi
xico
xii
xiii
xiv
xix
xls
xlsx
xml
xn
xstadat
xv
xvi
xvii
xviii
xx
xxi
xxii
xxiii
xxvi
xxvii
xxx
xxxv
y
ya
yale
yandex
year
yearbook
years
yerevan
yes
yiddish
yle
yliopisto
ymer
yntima
york
you
young
your
youth
youtube
ysta
ystavyyskaupungit
yto
ytteita
yu
z
za
zagreb
zahlenfakten
zaninovic
zastrzez
zastupitelstvo
zb
ze
zeid
zeit
zeki
zensus
zh
zi
zigazgata
zip
zones
zorin
zoroks
zoron
zoros
zpravodaj
zso
zu
zukunft
zum
zur
{
|
}
~
§
©
ª
«
¬
­
°
²
³
´
·
º
»
×
æ
đ
ı
ık
ıq
ɒ
ə
ɾ
ʰ
ʲ
ʹ
ʻ
ʾ
ˀ
ˈ
ˌ
ː
ˤ
̀
́
̂
̃
̄
̆
̇
̈
̉
̊
̋
̌
̓
̔
̞
̡
̣
̥
̦
̧
̨
̩
̪
̭
̯
̰
͂
ͅ
͔
͡
α
ανοικτω
β
δα
δεδομε
δη
δημοκρατι
δρυμο
ε
εθνικο
η
θ
θυ
ι
λ
με
μος
ν
νων
ο
ου
πα
πλατφο
ρ
ρμα
ς
της
των
ω
а
аасмяэ
абазань
абашидзе
абдулла
абдуллин
абдуллович
абзелиловонь
абрамов
абрамова
абрамович
абрамовонь
абрикосов
абсалямов
абу
абус
абхазии
абхазия
абэба
ава
ававтось
авазо
аваи
авака
авакаи
аваканть
авакс
аваломанень
аваломанть
авам
аван
аванень
аванзо
аванок
аванстэнь
авантень
аванть
авань
авардемат
аваронь
аварькаи
авасоло
аваст
авась
ават
аватеште
аватне
аватненень
аватнень
авг
авгура
авгуры
август
августа
августе
августин
августина
авдеева
авеи
аверьянов
аветисян
авиациянь
авив
авиценна
авксентии
аволь
авраам
аврора
австралии
австралия
австралиянь
австралиясо
австрии
австрия
австриянь
австриясо
австро
авт
автезь
автоардомаванть
автомобильных
автономия
автономная
автономнои
автономныи
автономных
автонь
автопортрет
автор
автора
автореф
автореферат
авторизованныи
авторитетные
авторов
авторонть
авторонь
авторось
авторских
авторскои
авторы
авш
агафонова
агаян
агеев
агеева
агеенко
агеи
агентства
агентство
агидели
агидель
агнеш
агнешка
аграрнои
агроном
ад
адавие
адаево
адам
адана
адаптация
адашево
адвокат
адвокатокс
адвокатонь
адкрытых
адлякува
административно
административного
административнои
администратор
администрации
администрация
администрациянь
адо
адольф
адольфонь
адрес
адриатикань
адушкин
адушкина
адыгея
адыс
адя
адядо
азарць
азат
азбука
азбуки
азг
азе
азерб
азербаи
азеринь
азиз
азиза
азии
азия
азиява
азиянь
азиясо
азо
азор
азорава
азоравась
азораватне
азорозо
азорокс
азоронть
азорось
азрапино
азребаи
азыркина
азясь
аи
аида
аир
аист
ак
акад
академии
академик
академикесь
академическои
академия
академиянть
академиянь
академияс
академиясо
акаевка
акаи
акасусо
акашево
акбашев
акбулатова
аквинат
акель
акмулла
акоп
акопян
аксел
акт
акте
активистнэ
актриса
актрисась
актуальные
акчеево
акшенас
акшино
ал
ала
алаев
аламнеде
аламнешка
аламо
аламодо
аламонь
аламос
аламошка
алания
алатырев
алатырень
алатырского
алатырь
алаша
алашань
алашасо
алб
албании
албания
албаниянь
албаниясо
албанонь
албант
албантнэнь
алга
алганжеи
алгоритм
алдо
але
алеко
алекса
александар
александер
александр
александра
александрань
александрия
александро
александров
александрова
александрович
александровка
александровна
александрово
александровская
александровскии
александровского
алексеев
алексеева
алексеевич
алексеевка
алексеевна
алексеевскии
алексеи
алексис
алетеи
алешкин
алешкина
алжир
али
алибаев
алигьери
алиев
алиева
аликово
аликовонь
алина
алка
алкине
алкинеть
алкс
алкукс
алкуксонь
аллагулово
аллаяров
аллен
алма
алматы
ало
алов
алова
аловеле
аловелесэ
алово
аловскии
алои
алоломонь
алонь
алоош
алоошонь
алоошсто
алсо
алсто
алт
алтави
алтаень
алтазель
алтазь
алтаи
алтары
алтась
алтнень
алтнэ
алу
алфавит
алфавита
алфавитныи
алфавитэнь
алфавитэсь
алце
алыштан
аль
альберт
альбом
альбома
альбомами
альбоме
альбомов
альбомозо
альбомоньте
альбому
альдо
альманах
альманахсо
альмухаметов
альпань
альпина
альфорс
альфред
альшеевень
аля
аляндра
алясь
ам
амалия
амасян
аме
америка
американская
американскии
американцы
американь
америкасо
америки
ами
амир
амирхан
амман
амо
аморда
амс
амстердам
амур
амуронь
амурскои
ан
ана
анаево
анализ
анализа
анастасия
анатолиень
анатолии
анатольевич
анатомиянь
анг
анге
англ
англакс
англань
англии
англия
англиянь
англонь
ангола
андерсен
андерсон
анджелес
андорра
андре
андреас
андрее
андреев
андреевич
андреевка
андреевна
андреевскии
андреи
андрея
андыть
андю
ани
аникин
анимэ
анисимов
анкара
анна
анналы
аннань
анненково
ано
анок
аноколь
анокстави
анокстазь
анокстамо
анокстамонь
анокстамс
анокстамсто
анокстась
анокстомась
аноксты
анокстызе
анокстыль
анокстыльть
анокстыть
анокстыця
анокстыцязо
анокстыцякс
анокстыцясь
анокстыцятне
анокт
аношонь
ансамбль
ансамбля
ансамблянь
ансамблясь
ансяк
анталья
антарктида
антверпен
анте
античнои
антология
антон
антонио
антонов
антонова
антонович
антоновка
антошкин
антропово
антроповонь
антропологии
антропология
антропологиянь
антропоним
антророним
антун
ану
ань
анютино
аня
ао
аоре
ап
апак
апаро
апародо
апек
апельсин
апокш
апокшке
аполлоновка
апон
апостол
апостола
апостолов
апостроф
аппарат
апр
апраксино
апреле
апрель
апреля
апте
ар
ара
араб
арабонь
арабского
аравии
аравия
аравиянь
аравто
аравтови
аравтозь
аравты
аравтызе
аравтызь
арамс
аранжировка
арапов
арапова
араповонь
арасель
арасельть
арасть
арась
арасьчинь
арбажэнь
арбита
арбузовка
арвид
аргентина
аргентинань
аргументы
аргун
аргунонь
ардатов
ардатовань
ардатово
ардатовскии
ардатовского
ардатовскои
ардома
ардомась
ардомс
ардомсто
ардон
ардононь
ардсь
арды
арекипа
арена
арестовазь
арестовизь
арзамас
ариведерчи
арии
аристотелень
аристотель
аристэ
ария
аркадак
аркадии
арктика
арктикань
арлашкин
арльберг
арм
армас
армеевка
армении
армения
армениянь
армениясо
арменович
армии
армия
армияв
армиянть
армиянь
армиясо
армиясто
армиясь
армян
армянонь
армянская
армянские
армянского
армянскои
армянт
арневть
ароматич
арон
арпад
арпи
арсакион
арсе
арсеви
арсезевсь
арсезь
арсема
арсеманзо
арсеманть
арсемань
арсемась
арсемат
арсематнень
арсеме
арсемс
арсении
арсеньева
арсесть
арсесь
арси
арсиндеи
арсить
арсиця
арсланов
арсян
арт
арта
артаев
арте
артиллерии
артист
артиста
артистка
артисткась
артистки
артистов
артистэнть
артмане
артнемасо
артнесь
артовкс
артовксонзо
артовксонть
артовксонь
артовкст
артовкстнэ
артозь
артома
артомань
артомо
артомс
артонь
артсь
артур
артызе
артындеень
артындеи
артыця
артыцякс
артыцянь
артыцясь
артыцят
артыцятнень
арутюнян
арутюняна
арх
архангельск
архангельскии
архангельское
архангельскои
архангелэнь
археолог
археологзеи
археологии
археология
археологиянь
архив
архива
архиве
архивень
архивировазь
архивированная
архивировано
архивная
архивсэ
архивы
архимед
архимеда
архипов
архитектор
архитекторось
архитектура
архитектурань
архитектурно
архитектуры
ары
арыть
ас
асанбаев
аскарово
аскино
аслан
асмус
асодавикс
аспект
аспекты
аспирант
аспирантура
аспирантуранть
ассизскии
ассистент
ассоциации
ассоциация
ассоциациянть
ассоциациянь
ассоциациясь
асср
аст
астаи
астана
асташкин
астраханонь
астраханскои
астрахань
астрель
астроном
астрономическои
астрономиянь
астрономы
астрофизикесь
асыҡ
ась
аськолкс
асянов
атд
атемар
атерь
атинесь
аткарск
аткарскои
атланта
атлантикань
атлас
атласе
атлетика
атлетикань
атмосферань
атомонь
атырау
атьма
атьминскии
атюрьбуесэ
атюрьево
атя
атяка
атякш
атякшось
атямарь
атянть
атянь
атясь
атят
атятне
атяшево
атяшевскии
атяшевского
ауль
аулькедьало
аулькедьалонь
аулькедьалот
афанасии
афанасьево
афганистан
афинасо
афины
афинэнь
афиша
афоризмы
африка
африкань
африкасо
африки
ах
ахмед
ахмедов
ахмет
ахметович
ахтынь
ахтям
ахунзянов
ацавиця
ацазь
ацамков
ацамковонь
ацамковсто
ацева
ачык
аш
аша
ашдод
ашик
ашкадар
ашна
ашназа
ашня
ашо
ашола
ашонь
ашопря
ашот
ашохолуницань
аштезь
аштема
аштемадо
аштемань
аштемась
аштеме
аштемков
аштемковонь
аштемковсто
аштемс
аштемстэ
аштесть
аштесь
ашти
аштии
аштиль
аштить
аштиця
аштицякс
аштицят
аштицятнень
ашуг
ашугонь
ашхабад
ашық
аэропорт
аэропортонть
аэропортось
аэс
аюпов
ағиҙел
б
ба
баба
бабань
бабат
бабине
бабинень
бабинесь
бабич
бабушка
баганя
багдад
багдасар
багратонь
бадалбеи
бадачоньтомаи
бадиково
баево
баеньбуе
бажамо
бажамонзо
бажамонь
бажамось
бажанов
бажась
бажбеук
бажи
бажить
база
базар
базарная
базарно
базарныи
базаронь
базе
базовои
баи
баимов
бакалы
баки
бакич
баков
баконь
бакт
баку
бал
балаково
балаханонь
балахна
балашов
балашова
балезинень
балезино
балет
балета
балетень
балетэнь
балканонь
балкария
баллада
баллы
балтаи
балте
балтии
балтикань
балтиянь
балтонь
бангкок
бангладеш
банк
банка
банконь
банное
банска
банть
баня
банясо
баняц
бар
барабанов
барак
баракнэ
барановка
баранонь
баргова
бардача
бардее
бардина
баренбои
бари
барон
барселона
барыш
бас
баскетболонь
баснянь
баснят
бассеи
басср
бась
бат
бата
батаев
батальононть
батальононь
бателич
батист
батне
батор
батуми
батуминь
батумись
батумисэ
батыр
баур
бауэр
бах
баха
бахлулзаде
бахреи
бахтин
бахчисараи
бачка
баш
башар
башгосиздат
башинформ
башк
башка
башкир
башкирии
башкирия
башкириява
башкириянь
башкириясо
башкиронь
башкирская
башкирскии
башкирского
башкирское
башкирскои
башкирском
башкирт
башкиртнэнь
башкирэнь
башкнигоиздат
башкортостан
башкортостана
башкортостанга
башкортостане
башкортостанонь
башкортостансо
башкортостаны
башмаконь
башня
башнясь
башҡорт
башҡортостан
баяга
баягань
баязит
бб
бби
бд
бе
без
беззубова
безопасности
беи
бек
бекетовка
беково
бековонь
бел
беларуси
беларускаи
беларусь
беларусі
белая
белгород
белгородонь
белгородская
белгородскои
белград
белебеень
белебеи
белинскии
белинскои
белицер
белка
белки
белл
бело
белобро
белов
белои
белорецк
белорецкоень
белорецэнь
белорузия
белорузиянь
белорузиясо
белорузонь
белорузт
белоруков
белорусов
белоруссии
белоруссия
белоруссиянь
белорусская
белорусские
белорусскии
белорусского
белорусскои
белоруссонь
белорусы
белосток
белу
белыи
белышев
бель
бельгия
бельцова
беляев
беляева
беляевка
беляков
белянка
бен
бенгалонь
бенчиле
београд
бере
берег
берега
береговые
березин
березник
березникень
березники
березняк
березово
березовская
берлин
берлинсэ
берлинэнь
берн
бернард
бернарда
бернштеи
берон
берянь
беряньстэ
беседа
беседы
беслан
бесланонь
беспалова
бессоновонь
бетлеем
бетховен
бетховена
беятлы
би
биатлонист
бибин
библиогр
библиограф
библиографическии
библиографическои
библиография
библиотека
библиотекарь
библиотекасо
библиотеке
библиотеки
библиотечнои
библия
библиянь
бижбуляконь
бизнес
бизнеса
биишева
бикбаи
бин
бинарадка
биобиблиогр
биобиблиографическии
биогр
биографии
биографическая
биографические
биографическии
биография
биол
биолог
биологии
биология
биологиянь
биологов
биотехнологии
бирмингем
бирск
бисау
бит
битва
бич
бишкек
бка
бл
благовещ
благовещенск
бланка
бласть
блауг
блика
бликась
блинова
блиновои
блог
блок
блокнот
блохино
блохинские
блюз
бо
боб
бобансетнень
бобань
бобр
бобров
бобровка
бовуар
бог
бога
богатырь
богданов
богданова
богдановка
богема
боги
богов
боголюбовка
богородонь
богородск
богородского
богородское
богота
бодинень
бодьябуе
бодя
бодяк
бодянть
боевои
боевые
божественная
божидар
божии
боз
боза
бои
бок
бока
бокава
болашенко
болг
болгария
болгариянь
болгариясо
болгаронь
болгарское
болгарэнь
болдино
более
болезнь
болезнях
болеслав
боливии
боливия
боливиянь
болиголо
боло
болота
болотная
болотник
болотниково
болотница
болотныи
болото
больных
больша
большая
больше
большевик
большие
большинство
большо
большого
большое
большои
большую
боляев
боляень
бом
бондяков
бор
бора
бораж
бордо
борец
боризвеле
борис
борисов
борисова
борисович
борисовна
борисовскии
бормоту
боров
боронь
бороциця
борткевич
борткевича
борхес
борчин
борьба
борьбы
босн
боснии
босния
босниянь
ботаника
ботаникань
ботанико
ботаническии
ботаническои
ботевград
бочканов
бочкаре
бошкович
боя
бояр
бояраваксчим
боярка
бояркин
бояркина
бояронь
боярышник
брага
брагань
брадарич
бразилиа
бразилии
бразилия
бразилиянь
браи
браков
бранденбургонь
бранко
браславскои
брат
брата
братислава
браун
брашов
бреи
бремен
брест
брешан
бригадань
брит
британиянь
британонь
брно
брод
брокгауз
брокгауза
бронзань
бронзовои
брунеи
бруно
брыжинскии
брыжинского
брэ
брюссель
бря
брязо
брянск
брянскоень
брянскои
брянь
брясто
бсср
бсэ
бу
бубрих
бубрихень
буга
бугульмань
бугуруслан
бугурусланонь
буда
будапешт
будапештсэ
будапештэнь
буддистт
будет
буду
будут
будущее
буе
буеа
буева
буеванть
буелемесь
буелемть
буентень
буенть
буень
буеньте
буес
буесенть
буесо
буестэ
буестэнть
буесь
буесэ
буесэнть
буетне
буетнева
буетненень
буетнень
буетнесэ
буеть
буетьнень
бузакова
бузаковои
бузулук
буи
бук
бука
букань
буква
буквар
букварень
букварь
букват
букватне
буквы
буколики
булаево
булат
булатов
булгаки
булгаково
булгаронь
булдыга
буллань
було
булонь
булякова
бур
буракаева
бурасы
бураҡаева
бургас
буржуазнои
бурзянонь
бурои
бурса
буртасы
бурундук
бурятия
бурятонь
бутан
бутень
бути
буто
бутурлинэнь
буты
бухарест
буэнос
българите
българия
българска
български
българското
бы
бывшего
быкова
был
была
были
было
быстрица
быстрыи
быта
бытовои
быть
бышев
бышевень
бышевск
бышевскои
бэи
бэк
бэльци
бюджетное
бюллетень
бюро
бяла
в
ва
вавилин
вавилононь
вавож
вавожбуе
ваг
вагнер
вагнера
вагриус
вад
вадим
вадинск
вадинэнь
вадово
вадолеи
вадонь
вадря
вадрякс
вадрясто
вадрят
важнеи
важодевкст
важодевксэнзэ
важодевксэнть
важодевксэнь
важодема
важодемадост
важодемазо
важодеманзо
важодемантень
важодеманть
важодемань
важодемасо
важодемась
важодемат
важодеме
важодемс
важодемстэ
важоди
важодии
важодить
важодиця
важодицякс
важодицянь
важодицят
важодицятненень
важодицятнень
важодсть
важодсь
ваз
вазонь
ваи
вакксо
вакс
вакска
ваксо
ваксозонзо
ваксонзо
ваксс
вакссо
вакссонзо
вакссто
вал
валаня
валаськавтома
валга
валгамаа
валги
валгома
валгсь
валда
валдо
валдонть
валдонь
валеев
валентин
валентина
валериа
валериан
валерии
валериян
вали
валид
валиди
валиев
валкс
валксонть
валксонь
валксось
валкст
валли
валмеревкст
валмиера
валморо
валмородеи
валморозеекс
валморозеенть
валморозеень
валморозеесь
валморозеи
валморозо
валморонзо
валморонь
валморосо
валморосонзо
валморось
валморот
валморотнесэ
валморыця
валови
валоморонь
валонзо
валонтень
валонть
валонь
валось
валпурнавкстнэстэ
валрисьменть
валрисьмень
валрисьмесэ
валрисьметне
валске
валскень
валскес
валсо
валсонть
валсто
валстонть
валт
валтне
валтнень
валтнестэ
валтнэ
валтнэнь
валтнэстэ
валтнэсэ
валуи
вальма
вальмазо
вальмалопа
вальмань
вальмасонть
вальмась
вальс
вальтер
вамош
ван
вана
ванамыиса
ванан
ванат
ванда
ванды
вандынь
ванкувер
ванкуверсэ
ванкшны
ванмо
ванмось
ванна
ванновить
ваннозь
ваннома
ванномазо
ванноманзо
ванноманть
ванномань
ванномо
ванномс
ваннось
ванны
ваннызе
ванныть
ванныця
вано
вановт
вановтонзо
ванодо
ванозь
ванома
ваномо
ваномс
ванстови
ванстовить
ванстовсть
ванстовсь
ванстозь
ванстома
ванстоманть
ванстомань
ванстомась
ванстомга
ванстомо
ванстомс
вансты
ванстызь
ванстыть
ванстыця
ванстыцякс
ванстыцясь
вансть
вансынек
вансь
вант
ваны
ванынем
ваныть
ваныця
ваныцякс
ваныцят
ваныцятнень
вань
ванькс
ваня
вар
варака
варакань
варвара
варваровка
варганов
вариант
варма
вармава
вармазеи
варманть
вармань
вармась
вармат
варна
варнавонь
варшава
варшавань
варшавасо
варшавонь
варштамс
варштась
варя
варяв
вас
васенце
васенцеде
васенцекс
васенценть
васенцесь
васенцетнеде
васень
васеньце
васеньцеде
васи
василе
василии
васильев
васильева
васильевич
васильевичень
васильевка
васильевна
васня
васняяк
васов
васолкст
васоло
васолов
васолонь
вастаньчи
вастневи
вастневить
вастневиця
вастневсть
вастневсь
вастови
вастовить
вастовома
вастовсть
вастома
вастселии
вастызь
вась
ватикан
ватракшонь
вацярлеи
вача
вачарлеи
вачказель
вачказельть
вачказь
вачкамо
вачкамонь
вачкамс
вачкасть
вачкиця
вачо
вачонь
вачувто
ваш
ваша
вашингтон
вашо
вая
ваясь
ваяя
ваяяи
вб
вв
введение
введения
вдовин
вдовинэнь
ве
веб
вебер
вебера
веде
ведев
ведензэ
веденть
ведень
веденьпурнавкс
веденьпурнавксонть
веденьхозяи
веденяпино
ведесь
ведомости
ведте
ведтне
ведун
ведущии
ведь
ведьава
ведьбаляга
ведьбарсеи
ведьга
ведьгев
ведьгевень
ведьгевть
ведьгеменде
ведьгемень
ведьпача
ведьпотмова
ведьпрамо
ведьпрамонть
ведьпрамось
ведьпрыи
ведьпурнавксонь
ведьс
ведьстэ
ведьсэ
ведьсэнть
ведьчика
ведьчирень
ведява
ведяшкин
веж
вежаи
веженсь
вежня
веи
век
века
веке
веков
веле
велев
велева
велеванть
веледенть
велекс
велентень
веленть
велень
веленьсовет
веленьте
веленьхозяи
велес
велесе
велестэ
велестэнть
велесь
велесэ
велесэнть
велетне
велетнева
велетнень
велетнес
велетнестэ
велетнесэ
велеть
вели
великая
великие
великии
великих
велико
великобритания
великого
великои
великорусского
велимир
велиненть
вельдарав
вельде
велькопольски
велькс
велькска
велькссэ
вельксэс
вельмевтема
вельмема
вельскои
вельсоветсэ
вельсоветэнь
вельть
вельтязь
вельхозяи
велявсь
велявтозь
велявтома
велявтомадо
велявтомань
велявтомс
велявтсть
велявтсь
велявты
велявтыть
велязем
велязьма
велянзясь
вемельс
вен
вена
венань
венасо
венг
венгерского
венгерскои
венго
венгрань
венгрии
венгрия
венгриянь
венгриясо
вендетта
вене
венедиктов
венельксчачо
венесуэла
венеция
венок
венскои
венстязь
венть
венцеслав
венч
венчась
венчень
венчть
вень
вепс
вепссэнь
вера
вергиз
вергизэсь
вергилии
верде
верди
вердинь
вере
верев
верек
верекстэярсыцянь
веренть
верень
верепаз
верная
вернулся
веро
верования
вероисповедании
верона
вероника
версе
версии
версия
версиянть
версиясь
верт
верх
верхиссы
верхне
верхнекамонь
верхнеландеховскои
верхнетоемскии
верхнетоемскои
верхнии
верхняя
верховного
верховнои
верховноі
верховныи
верхозим
верце
верченка
веры
верь
верьга
верьгачудемасо
верьгиз
верьгизпильгине
верьгизт
верьгизэнь
верьде
верькс
верьс
верьсэ
верьце
верякуши
вес
весе
веселеи
веселовскии
весемасторонь
весемеде
весемезэ
весемекс
весементь
весемесь
весемикс
весемирэнь
весенень
весеннии
весенняя
весень
весероссиянь
весесоюзонь
веси
весна
весны
вести
вестн
вестник
весть
весь
весэ
вете
ветер
ветеран
ветеранов
ветеринаронь
ветеце
ветешка
вети
ветиекс
ветизе
ветии
ветикуронть
ветить
ветиця
ветицязо
ветицякс
ветицясь
ветлуга
ветра
веть
ветьк
ветькень
ветькеть
ветямкуронь
ветямо
ветямонзо
ветямонь
ветямосонть
ветямось
ветямс
ветясть
ветясь
вехи
веца
вецана
вече
вечер
вечернии
вечерница
вечкан
вечканов
вечкановонь
вечке
вечкеви
вечкевикс
вечкевиксэв
вечкевить
вечкевсь
вечкезь
вечкема
вечкемадо
вечкемань
вечкемась
вечкемс
вечкенино
вечки
вечкиль
вечкильть
вечкить
вечкиця
вечксть
вечксызь
вечксь
вечная
вечнои
веш
вешемс
веши
вешить
вешкаи
вешкиця
вешнеме
вешнемс
вешнесть
вешнесь
вешни
вешнить
вешниця
вешсь
вещества
веществань
взаимодеи
взвода
взгляд
взгляды
взмах
взятие
ви
виа
виард
вид
видади
видатних
виде
видезь
видел
видема
видемадо
видеме
видень
видео
видесте
видестэ
видеть
видечинь
видиця
видицянь
видицят
видманова
видов
видс
видстэ
видт
видтнэ
видть
видьме
видьмензэ
видьмень
видьметь
видьс
видьстэ
видэнть
видэнь
видэсь
видяев
видяевень
видяень
видяз
видяи
видян
видящая
виев
виевстэ
виевть
виевтяно
виезэ
виензэ
виенть
виень
виест
виесь
византии
византиянь
визгин
визинга
вии
вик
вика
вики
викигиде
викии
викикулят
викимедиа
викимедии
викимедия
викимедиянь
викимедиятне
викиновости
википедии
википедия
википедиянтень
википедиянть
википедиянь
википедиясо
википедиясонть
википедиясь
википедиятне
викитека
викитундо
викманн
виктор
виктория
викшнезь
викшнеме
вилаи
вильгельм
вильнюс
вильсона
вильчинская
вильям
вильянди
вильяндимаа
вина
винаи
винань
виндреи
винница
винницань
виноградовка
виноградовонь
виолетта
виргилия
вирев
виренть
вирень
виресь
виртуальная
виртуальныи
вирть
вирумаа
вирь
вирьава
вирьга
вирьганть
вирькал
вирьпусмо
вирьпусмонть
вирьпусмосо
вирьпусмосонть
вирьпусмось
вирьпусмот
вирьсэ
вирьтне
вирьтнень
вирьтнесэ
вирьть
вирява
вирявань
вислоцкая
високоснои
вит
виталии
витаминт
витгенштеи
витебскои
витев
витнезь
витнема
витни
витнии
витниця
витницякс
вить
витье
витьлугань
витьстэ
витьсянглеи
витьчирева
витьчиресэ
витя
вихтор
вице
вич
вичуга
вичугскои
вишера
вишка
вишкасердобань
вишкине
вишкинетнень
вишкинеть
вишкинька
вишкинькат
вишпиляв
вия
вка
вкань
вклад
включает
включая
включением
вконтакте
вкп
вкс
вксонзо
вксонть
вксонь
вксось
вкст
вкстнэнь
вл
владение
владению
владивосток
владикавказ
владимир
владимира
владимирович
владимировка
владимировна
владимиронь
владимирская
владимирскии
владимирского
владимирскои
владимирэнь
владислав
владокруга
властенть
властень
власти
власть
влияние
влияния
влиятельных
влксм
вмененныи
вместе
вместо
вмн
вн
вна
вне
внешние
внешняя
вник
внимание
вновь
внось
внутренних
внутригородским
внутрипортального
во
вобласць
вод
вода
водень
водного
водном
водные
водныи
водных
водоляи
водопад
воды
водь
водяная
водяно
водясова
вое
воевода
воеводское
воеводскои
воеводства
воеводствасо
воеводство
военная
военно
военного
военнои
возвращение
возвышенность
возм
возможно
возможности
возможность
вознесенэнь
возраста
возрасту
возрождение
возрождения
вои
воин
вокал
вокально
вокальнои
вокнаволок
вокруг
волга
волге
волго
волгоград
волж
волжскии
волжского
волжское
волжскои
воли
волк
волков
волкова
волна
волнистая
волнушка
волны
воло
вологда
вологдань
вологодскои
володаронь
володушка
волос
волостень
волости
волость
волосы
волошинская
волынэнь
вольная
вольно
вольскои
вольтер
вольтера
вольфганг
воля
вонень
вонть
вонь
воньстэ
вооруже
вопрос
вопросам
вопросу
вопросы
воркута
воро
воробе
воробье
ворона
воронеж
воронежень
воронежскои
воронии
воронина
воронкина
ворота
ворсма
восемь
воскресенскии
воскресенского
воскресенское
воскресенэнь
воспитание
воспоминании
воспоминания
воспоминаниях
восток
востока
восточная
восточно
восточнои
восточные
восточныи
восточных
восход
вот
воткинскои
вохма
вошла
вошли
вп
впервые
вперед
впн
впо
впоследствии
врач
врезка
време
времен
времена
времени
временник
время
вроцлав
вс
все
всегда
всего
всеи
вселенная
всем
всемирная
всемирного
всемирное
всемирнои
всемирныи
всеобщая
всеобщеи
всерос
всероссии
всесвятскии
всесоюз
всесоюзная
всесоюзного
всесоюзнои
всеукраі
всех
вск
вскии
всо
встреча
встречаются
встречи
вступ
вступил
вступительная
всходы
всю
вся
вт
вта
втави
втавить
втазель
втазь
втамо
втамонь
втамост
втамот
втамс
втась
втне
втневи
втнезь
втнема
втнемазо
втнеманзо
втнеманть
втнемань
втнемасо
втнемась
втнемат
втнематнень
втнемс
втнесть
втнесь
втнесэ
втни
втнить
втниця
втнэнь
вторая
второго
второе
второи
втулкин
вты
втызе
втык
втыть
вть
вузов
вуктыл
вулканонь
вурнаронь
вурст
входит
въ
вы
выбор
выгрузка
выдающиеся
выдающии
выдающихся
выделенными
выдра
выезднои
выи
выкса
выксонь
выльгорт
вып
выполнение
выпуск
выпуска
выпуски
выпущен
выро
выронь
вырумаа
выселки
выселок
высокая
высокое
выставка
выставкасо
выставки
выступает
выступась
выступила
выступление
высш
высшая
высшего
высшеи
высших
выхода
выходит
вычегда
выша
выше
вышел
вышенка
вышестоящего
вышла
вышло
вьетнам
вьетнама
вьетнамонь
вэс
вяжга
вязники
вязовка
вяи
вяльбе
вярьвель
вятка
вяткань
вятские
вятско
вятское
вятскои
вяхи
вячеслав
від
відкритих
г
га
габдиев
габдулла
габриэль
габуева
габуес
габуесэ
гав
гаваева
гавана
гавриил
гаврилов
гаврилова
гаврилович
гавриловка
гаврилово
гавтомс
гаген
гагинэнь
гадсь
газ
газет
газета
газетань
газетасо
газетасонть
газетаст
газетатнесэ
газете
газеты
газим
газонь
гаи
гаитбаев
гак
гал
гала
галань
галенц
галерея
галереясо
галилеи
галилео
галилея
галимов
галина
галич
галича
галле
гамбург
гамлет
ган
гандболонь
ганиева
ганновер
ганс
ганть
гань
гареев
гари
гарипова
гариповои
гармонии
гарри
гарсиа
гарт
гарш
гатауллин
гаун
гафури
гафурии
гбу
гбук
гвадалахара
гвардеи
гвардии
гвардия
гвардиянь
гвозди
гвоздика
гг
гданьскои
где
гдр
ге
геворг
гегеля
геи
гектарт
гелезэ
гелень
гелест
гелесь
гель
гельбень
гельбеть
гельбке
гельпе
гельпень
гельпеть
гельсэ
гельть
гема
геманть
гемань
гемась
гемостаза
гендер
гендерэнь
генеалогии
генерал
генеральнои
генеральныи
генетц
генетцень
гении
гениюш
геннадии
генрих
генуя
геогр
географии
географическая
географические
географическии
географических
географическо
географического
географическое
географическои
география
географиянь
географось
геокар
геолог
геологиянь
геопортал
георг
георгиева
георгиевич
георгиевскии
георгии
георгики
гепатологии
гера
гераклит
гераклитов
герань
герасимов
герасимович
герб
герба
герд
герман
германиеи
германии
германия
германияв
германиянь
германиясо
германонь
германскои
геродот
геродота
герои
героическии
героическом
героя
герцеговина
герцеговинань
герцеговинасо
ги
гибли
гига
гигантская
гидрологическая
гидрологиянь
гидрометеоиздат
гидроним
гидронименть
гидронимт
гидросюлмонть
гиж
гиз
гиззат
гикогус
гилем
гиль
гималаи
гимн
гимназии
гимназия
гимназиянть
гимназиянь
гимназиясо
гимнаст
гин
гинеколог
гиппократ
гиреи
гирея
гитара
гитарасо
гитлер
гихл
гичанть
гичась
гкая
гл
глав
глава
главная
главного
главное
главнои
главныи
главных
главы
глаголонть
глаголонь
глаголось
глаголт
глаголтнэнь
глаз
глаза
глазами
глазов
глазовонь
гласнои
глауциум
глинка
глухов
гнесиных
го
гово
говорах
говорил
говорила
говорить
говоров
говорово
говорят
гоголень
гоголь
год
года
годах
година
годов
году
годы
гожув
гои
гол
гола
голенищев
голицыно
голова
голокучник
голос
голоса
голт
голубчик
голышенкова
гом
гомель
гонконг
гонолулу
гор
гора
горан
горбатка
горбатов
горбунов
гордеев
гордость
горе
горенка
гори
горизонт
горит
горка
горки
горкин
горн
горная
горнипов
горныи
горо
город
города
городам
городах
городе
городец
городецэнь
городищань
городище
городов
городок
городонь
городская
городские
городским
городских
городского
городское
городскои
городу
гороховец
горошек
горы
горькии
горьковскои
горького
горькоень
горькои
горяи
гос
госиздат
госкомстат
гослитиздат
господа
госпожа
госсовета
госстатиздат
гост
гостовински
государсвтеннои
государств
государства
государстванть
государствань
государственная
государственного
государственное
государственнои
государственном
государственные
государственныи
государственным
государственными
государственных
государство
государством
государь
госуниверситетсэ
госуниверситетэнь
гпу
гр
грабовка
град
градове
граждане
гражданин
гражданонь
гражданскои
гражданство
граи
граклиани
грамматика
грамматикань
грамматикась
грамматике
грамматики
грамота
грамотасо
гран
гранада
грани
границ
граница
границась
границы
грантонь
грань
граф
графа
график
графика
графики
графиня
грац
граче
грачевник
гребенцов
гребенчатыи
гребнева
грек
грекень
греко
греконь
гремячево
гренаде
гренландия
греции
греция
грециянь
грециясо
греч
гриб
грибов
грибова
григо
григорианонь
григориень
григории
григориянонь
григорьев
григорьевич
григорьевка
григорьевна
григошин
грифом
гришуткин
гродненскои
гродно
гроза
грозная
грознои
грозныи
гронинген
груз
груздь
грузии
грузинскои
грузинэнь
грузия
грузиянь
грузиясо
грузнов
групп
группа
группанть
группань
группаньте
группасо
группась
группат
группатне
группатнень
группе
группу
группы
грязи
гтрк
гу
гуанчжоу
губ
губа
губаи
губанов
губернатор
губернии
губерния
губерниянь
губернияс
губерниясо
губерниясто
губернскии
губернского
губернскои
губорь
гуеньпочко
гузаль
гузынцы
гуи
гулин
гуль
гуманитар
гуманитарнои
гуманитарные
гуманитарныи
гуманитарных
гумбеи
гумны
гура
гуру
гусев
гусева
гусеи
гуси
густав
густерин
гусь
гутенберг
гуцу
гуши
гэс
гювеч
гюго
гюльянак
гянджа
гісторыя
д
да
даби
даваи
давид
давиденков
давол
даволков
даволковонь
даволковсто
давыд
давыдов
давыдова
давыдово
даг
дагестан
дагестана
дагестанонь
дагестансо
дадиани
дады
даже
даи
дал
дала
далее
дали
даль
дальневосточного
дальневосточныи
дальнего
дальнеи
дальнеконстантиновскои
дальнии
далянь
дама
дамаск
дан
данилов
данилович
данильчев
даних
дания
даниянь
данни
даннои
данные
данным
данными
данных
данте
даных
дар
дара
дарга
даров
даровонь
даровскои
даронь
дарькат
дарья
дат
дата
дательнои
датонь
дату
даты
даугавпилс
дахно
дв
два
две
движение
движения
движениянь
двина
двои
двор
двора
дворец
дворов
дворца
двудо
двудольные
двудольных
двух
де
дебрецен
деваев
девица
девицы
девичья
девочка
девушка
девушки
девяткин
деде
деи
дек
декабрь
декабря
декан
декарт
декарта
декоративно
дел
дела
делам
делать
деле
делегат
делегатонь
деление
делению
деления
дели
дело
деловои
делопроизводствасо
делька
дема
демань
демешко
демин
демина
демографические
демографическии
демография
демократическои
демократиянь
демокрит
демоскоп
демьян
ден
денек
денис
денко
дено
денть
день
деньги
департамент
департамента
департаментсэ
депутат
депутатов
депутатокс
депутатонь
дер
дербент
дербента
дергаче
дергачи
деревень
деревне
деревни
деревня
деректер
державна
деря
десна
десятилетия
десятне
дет
детеи
дети
детская
детских
детского
детства
детство
дефис
децентралізація
деятелеи
деятели
деятель
деятельности
деятельность
дж
джавад
джавид
джавришвили
джаз
джазонь
джакарта
джалиль
джамала
джан
джана
джанонь
джанполадян
джанская
джанскои
джансо
джант
джвари
джегиз
джеи
джефф
джидда
джин
джионат
джо
джон
джордано
джордж
джорджия
джулия
джульетта
джяковица
дзержинск
дзержинскои
ди
диабетическои
диалект
диалектах
диалектов
диалектология
диалектологиянь
диалектсэ
диалектэсь
диалог
диалогт
диаметразо
диаметрасо
дивеевка
дивеи
дивизии
дивизия
дивизиянь
дигора
дигоронь
диего
дизаи
дикая
дикие
дикии
диккенс
диккенса
дикои
дильхан
дим
димитрия
дин
дина
динамика
динис
дины
диплом
дипломант
дипломат
дипломатонь
директор
директора
директорокс
дириже
дис
диск
дисквалификации
диссертации
диссертация
диссертациянзо
диссертациянть
дитрих
дия
дка
длинныи
для
дмитриев
дмитриевич
дмитриевка
дмитриевна
дмитриень
дмитрии
дная
дне
дневник
дневники
днеи
днепра
дни
днии
днипро
днипропэтровскоень
дныи
дню
дня
до
доблестныи
добрич
добро
добровольским
доброе
добрыи
дов
довольно
додаҳои
дожга
дождеи
дождь
докл
доклад
доктор
доктора
докторокс
докторонь
докторось
докторскои
докторт
документальнои
документальныи
документах
документов
документы
документэнь
дол
долгии
долговерясы
долгои
должен
должна
должность
должны
долларов
долларт
долуханова
доля
дом
дома
домашняя
доме
доминго
доминиканонь
домка
домкав
домказо
домкасто
домкась
домкачизэ
домкачись
домо
домои
домокош
дон
дональд
дональда
донецкои
доницетти
доннер
дононь
дону
доп
дополнения
допрок
допускаются
дор
дора
дорович
доровка
доровна
доровскои
дорог
дорога
дороге
дороги
дорогои
доронин
доронина
доронь
дорофеев
доска
доскоп
достижения
достоевскии
достоевского
достои
достопримечательности
доха
доход
доходности
доцент
доцентэкс
дочери
дочь
дпир
др
драган
драго
дракино
драма
драмань
драманьсе
драматическои
драматург
драмы
древнего
древнеи
древние
древнии
древних
древностеи
древности
древняя
древови
дрезден
дрин
дрина
дринов
дрогобыч
дрогобычень
дрозд
друг
другие
других
другои
другую
дружба
дружбы
друзеи
друзья
дс
ду
дубаи
дубе
дубенка
дубенскии
дубенского
дубинька
дубитель
дублин
дубровка
дубровки
дубровник
дударев
дук
дула
дума
думань
думка
думы
дунае
дунаень
дунаи
дуняшин
дуняшинэнь
дурак
дурма
дурман
дурова
дуровои
дух
духовная
духовницкои
духовнои
духовность
дучич
душа
душан
душанбе
души
душистая
душистыи
душка
душман
душои
ды
дье
дэбес
дэбесбуе
дэвид
дюркгеи
дюртюли
дюрька
дюрькина
дя
дядя
дямо
дятел
е
ев
ева
евангелие
евангелия
евангелиянь
евгении
евгения
евдокия
евич
евна
евпатория
евразии
евразиянь
евреень
евреи
евро
евровидение
европа
европань
европасо
европассо
европе
европеи
европои
европраи
европы
евсевьев
евсевьева
евсевьевень
евсевьевич
евсеева
евтнема
египет
египетэнь
египтянт
его
егоров
егорович
егф
единиц
единого
единои
единство
единыи
ее
ежегодник
ежов
ежовка
еи
екатерина
екатеринбург
екатериновка
ел
елена
елены
елизавета
елизаветинка
елисеи
еллинек
еллинекэнь
елховка
ель
емва
емельян
емельянович
емен
емла
емс
ему
емфира
емэн
ен
ене
ениватов
енов
енть
ень
епархии
епископ
епишин
ер
ере
ереван
ереванонь
еремеев
еремеева
еремеево
ермаково
ермишень
ермишь
ерохин
ершов
ершовонь
ершовскии
если
естественного
естественнои
естественныи
естествознания
есть
есь
есэ
ефим
ефимия
ефимов
ефимова
ефимович
ефимовна
ефрон
ефрона
ех
еще
ж
жа
жабино
жаворонок
жадо
жак
жале
жан
жандарматне
жанеи
жанна
жанра
жанрань
жаренки
жат
жданов
ждановка
же
жедрино
желание
железная
железнодорожнои
железнодорожныи
железнои
железныи
желна
желтухе
жена
женат
женева
женихенть
женск
женская
женскии
женскои
женщин
женщина
женщинах
женщины
жеребеень
жеребеи
жеребцов
жертв
жертвы
жешув
жзл
жи
живаев
живаева
живая
живе
живого
живои
живоинович
живописень
живописец
живот
животные
животных
живстэ
живу
жигуле
жидовка
жизни
жизнь
жил
жила
жилые
жителеи
жители
жить
жка
жма
жник
жнои
жныи
жо
жов
жозефина
жои
жонзо
жонь
жордания
жось
жуан
жужа
жужань
жуков
жуковка
жуково
жулавы
жураве
журавле
журнал
журнала
журнале
журналист
журналистиканть
журналистикань
журналистики
журналисты
журналистэнь
журналонть
журналонь
журналось
журналсо
журналсонть
журналтнэсэ
журналу
жы
жюри
жінок
з
за
забаи
забгпу
заберезово
заболотныи
забыто
забытые
заварюхин
заварюхина
заведении
заведующеекс
заведующеи
заведующии
завет
завета
завирушка
завод
завода
заводонь
заводось
заводсо
заволжск
заволжье
заволжья
завражнов
завьялбуе
завьяловскии
загир
заглавие
загреб
загребень
загребэнь
загрэб
задачи
заде
задрима
заж
заи
заказник
закарпатскоень
заки
закирович
закон
законодательного
законодательства
законодательство
закононть
закононь
зал
залаэгерсег
зале
залив
залогонь
залужаны
зальцбург
зам
замбия
заместитель
заметки
замечательных
замок
замосць
занимательная
заочна
зап
запад
западная
западно
западнои
западныи
запечатленная
записи
записка
записки
запись
заповедник
заповедника
заполярнои
запорожье
зара
заразиха
заречная
заречныи
зарипов
зарубежные
зарубежных
зарубкино
заря
засечнои
заслуги
заслуженнои
заслуженныи
заслуженных
затем
зато
захар
захарка
захаркино
захаров
захаровонь
захватов
заче
защиты
заявленные
збірник
звания
зве
звезда
звезды
звенигово
звениговскои
зверобои
звонимир
звук
звуки
звукорежиссе
звучит
зд
здесь
здравствуи
здунов
зды
зе
зеи
зеки
зеландия
зеле
зеленыи
зелинскии
земель
земетчинэнь
земле
землерои
земли
земля
земляки
земскои
земфира
земфире
земфиру
земфиры
зер
зеркале
зеркало
зи
зианчуринэнь
зигальга
зигмунд
зилаирэнь
зилим
зильмердак
зимнии
зимовка
зимы
зинов
зиновские
зиновьев
зия
злата
златко
змееголо
знает
знак
знаки
знамени
знаменитые
знаменское
знамя
знамянь
знание
знании
знания
знать
значение
значении
значения
значениями
значок
знаю
знэнь
знярдо
зняро
зняроксть
знярс
знярыя
зовка
зовут
золотая
золоти
золотое
золотои
золотушнои
золотые
золочивонь
золушка
зоолог
зоологическим
зоология
зори
зорин
зоринэнь
зорька
зоря
зрения
зу
зубарево
зубов
зубова
зубово
зубу
зугдиди
зугдидинь
зуевка
зуевонь
зулеи
зы
зыян
зыянов
зыянонь
зь
зьвестак
зэ
зэнзэ
зюраткуль
зюрков
зюрковонь
зюрковсто
зя
зярдо
зярдояк
зяро
зярояк
зярс
зярыя
зярыяксть
и
иа
ибн
ибрагим
ибрагимов
ибреси
ив
ива
иван
ивана
ивано
иванов
иванова
иванович
ивановича
ивановичень
ивановка
ивановна
иваново
ивановонь
ивановская
ивановскои
иванонь
иванцево
иваньбие
иво
ивр
иврит
иглан
игнад
игнадбуе
игнадбуень
игнадбуесэ
игнадвелесэ
игнат
игнатии
игнатово
игнатьевна
игореве
игорь
игр
игра
играть
игры
ид
ида
иде
идеал
идезь
идеи
идель
идем
идема
идемань
идемга
идеме
идемевстне
идемевсь
идемс
идентификатор
идеолог
идея
идеянть
идизе
идиця
идицякс
идиш
идише
ие
иеде
иезэнзэ
иенень
иензэ
иентень
иенть
иень
иерусалим
иес
иесте
иесть
иестэ
иестэнть
иесь
иесэ
иесэнть
иетне
иетненень
иетнень
иетнес
иетнесте
иетнестэ
иетнесэ
иеть
иетьсэ
иж
ижевск
ижо
ижора
ижоронь
ижорт
из
избирательнои
избр
избранное
избранные
изв
известия
известна
известные
изгнанники
изд
издаваемые
издание
издании
изданию
издания
изданные
издат
издательскии
издательства
издательствань
издательствасо
издательствась
издательство
измаи
изменение
изменении
изменения
изменениях
измерения
измир
изни
изнизе
изниця
изницякс
изнявкс
изнязь
изнямо
изнямонть
изнямонь
изнясы
изнясь
изображение
изображении
изобразительного
изобразительное
изобразительнои
изобразительных
изобретатель
израиль
израиля
изучение
изучении
изучению
изучения
изученность
изъявительнои
изьвабуе
изяк
ии
иисус
ик
икеле
икелев
икелензэ
икелень
икеленьшкинемань
икелепелев
икелепелень
икелест
икельга
икельце
икс
ил
илань
иле
или
илинка
илл
илларион
иллинои
иллирии
иллюстратор
иллюстрации
иллюстрированная
иллюстрированном
иллюстрированныи
иль
ильведевкс
ильи
ильинскии
ильинско
ильинское
ильинскои
ильич
ильича
илька
илья
ильяс
иля
илядо
илязо
илязт
иляст
им
имаи
имамонь
име
имеет
имен
имена
именем
имени
именно
именнои
иммануил
иммануила
император
императоронть
императоронь
императорского
императорскои
империи
империя
империянть
империянь
империясо
империясь
импровизатор
имущества
имя
ин
инан
инари
ингенер
ингерманландии
ингерманландия
ингерманландиянь
ингриянь
ингушетия
индеи
индекс
индексы
индии
индия
индиянь
индиясо
индоевропань
индокитаи
индон
индонезии
индонезия
индуистт
ине
инебритания
инебританиянь
иневедев
иневедентень
иневеденть
иневедень
иневедесь
иневедь
иневедьвакссонь
иневедьс
иневедьсэ
иневедьсэнть
инегуи
инее
инекерсиця
инекудо
инекужо
инекужонть
инекужось
инелеи
инерьхка
инесаро
инеш
инешки
инешкипаз
инешкипазонтень
инешкипазонть
инешкипазонь
инешкипазось
инже
инжеватов
инжекс
инженер
инженерэнь
инжень
инжетне
инжетнень
инжеть
инза
инзеи
инзер
инион
инквизиция
инновации
инновационныи
иностраннои
иностранных
инсар
инсаронь
инсарского
инсбрук
инспектора
инспекторокс
институт
института
институтов
институтом
институтонть
институтонь
институтось
институтс
институтсо
институтсонть
инструкция
инта
интеграция
интеграциянь
интеллектуальнои
интервью
интервю
интернат
интернет
интернете
инф
инфо
информатизации
информации
информационно
информационного
информационное
информационном
информационные
информационныи
информацию
информация
информациянь
информациясь
инфраотрядось
инчхон
инязмастор
инязор
инязорава
инязоро
инязорокс
инязоронтень
инязоронть
инязоронь
инязорось
инят
иоанн
иоанна
иоганн
иоганна
иокогама
ионавтомасо
иордания
иосиф
иосифень
ир
ирак
ираклион
иран
иранонь
ирвинг
иргиз
ирек
иремель
ирендык
ириклинскои
ирина
иркаев
иркутонь
иркутск
иркутскои
ирландия
ирландиянь
ирландиясо
ирсеть
ирцедь
ис
иса
исаевка
исаи
исень
искала
искателеи
искра
искувиця
искувума
искусств
искусства
искусстванть
искусствань
искусстваньветии
искусствась
искусстве
искусство
искусствоведениянь
ислам
исламабад
исламонь
исландия
исмагилов
исмаил
исп
испания
испаниянь
испаниясо
испанонь
исполкома
исполкомонть
исполкомонь
исполнении
исполнила
исполнитель
исполнительница
исполнительницы
исполнительнои
использование
использования
использовать
используется
испр
исправьте
испытание
исса
иссань
исслед
исследование
исследовании
исследования
исследованья
исследователь
исследовательскии
исследовательского
исследовательскои
ист
исто
истоки
истоков
истории
историк
историкесь
историко
историографии
историця
историческ
историческая
исторические
историческии
исторических
исторического
историческое
историческои
историческом
история
историядо
историязо
историянзо
историянть
историянь
историяс
историясо
историяст
историясь
источник
источника
источнике
источники
источников
истребительно
истрефи
истья
истэ
истя
истяжо
истяк
истямо
истямокс
истямось
истяня
истят
истяяк
исфахан
исхаков
исяк
ит
ита
итал
италия
италиянь
италиясо
итальянонь
итогам
итогах
итоге
итоги
итогов
иудеи
их
ихсан
иця
ицял
ицяло
ицялонь
ичалки
ичка
ишим
ишимбаи
иштван
ишуткин
ишуткинэнь
июль
июля
июне
июнь
июня
к
ка
кабаево
кабардино
кабардинэнь
кабир
каблешков
кавал
кавалер
кавалерист
кавалт
каванить
каванямо
кавказ
кавказа
кавказонь
кавказскии
кавказского
кавказсо
кавксо
кавксоце
кавксть
кавонест
кавтаськин
кавто
кавтов
кавтоиень
кавтонь
кавторовка
кавтосядт
кавтотне
кавтотнень
кавтошка
кадови
кадовикс
кадовить
кадово
кадовозь
кадовсть
кадовсь
кадозь
кадом
кадомонь
кадомс
кадоньбуесэ
кадоркин
кадсы
кадсызь
кадсь
кадт
кадызе
кадызь
кадыи
кадык
кадыть
кадышева
кадышево
кадышень
каждыи
кажлодка
кажов
каз
казаева
казак
казаки
казаконь
казан
казанень
казани
казанонь
казанского
казанскои
казань
казаньсэ
казари
казарка
казах
казахонь
казахстан
казахстана
казахстанонь
казахстансо
казахт
казеевка
казезель
казезь
казень
казеньсаии
кази
казизе
казимерас
казить
казне
казненть
казнень
казненьсаии
казнесь
казнесэ
казнетне
казнетнень
казнеть
казсь
казязь
казямо
каи
каир
каить
как
какава
какая
какие
какои
какш
какшнэнь
какшокс
какшонзо
какшонть
какшонь
какшост
какшпингезэ
какшт
какштне
какштненень
какштнень
какштнэ
какштнэнень
какштнэнь
кал
кала
калавтозь
калаганонь
каладсь
калгодо
калгодот
кале
калевала
калевалань
калевалы
калевипоэг
калеи
календарь
калень
кали
калидаса
калина
калинин
калинина
калининград
калининградонь
калининск
калининскои
калинкин
калиновка
калиопи
калифорния
каллас
калма
калмазыренть
калмазырь
калмазырьсэ
калмазь
калмазьгак
калмамо
калмо
калмолангонь
калмонзо
калмонь
калмыкия
калонь
калоньчи
калось
калсо
калт
калтнэ
калтнэнь
калуга
калугань
калыша
каль
кальметикше
кальцк
калья
каляда
калядань
калязь
кам
кама
камаевка
камаи
камань
камбарка
камбоджа
камбраз
каменка
каменныи
каменскии
камень
камера
камешкир
камешкирэнь
кампания
камчатка
камчатке
камчатонь
камы
камышовка
кан
канавава
канада
канадань
канадасо
канады
канаклеи
канал
каналга
канале
каналонть
каналонь
каналось
каналсо
каналсонть
канаш
канашбуе
канд
кандидат
кандидата
кандидатокс
кандидатонь
кандидатт
кандови
кандовить
кандозь
кандсть
кандсь
кандтнесть
кандтнесь
кандтни
канды
кандыи
кандыльть
кандыть
кандыця
каниськина
канны
канон
канонть
канонь
кансе
канскии
канстень
кансто
канстонть
кансть
кант
канта
кантата
кантнесь
канть
кань
каня
капитан
капста
капстансетнень
капстань
капша
капшазь
капши
капшить
кар
кара
карабахонь
карабулак
карабулакскои
карага
карагаи
карадо
караево
каразь
караидель
каракас
карамал
каратаи
каратау
карачаевань
карачаево
карачи
карачиха
каргавась
каргин
карго
каргонь
каргополь
каргополье
кардаз
кардазов
кардазонь
кардазс
кардазсо
кардазт
кардазь
кардаи
кардо
кареи
карел
карелии
карелия
карелияв
карелиянь
карелиясо
карело
карелтнэнь
карельскии
карельского
карелэнь
карень
карима
каркс
карл
карла
карликень
карликовая
карлис
карма
кармавтомань
кармавты
кармавтыця
кармалеи
кармалы
карман
кармаскалинэнь
кармасть
кармась
карматанок
карми
кармить
карнаи
карпеловка
карпович
карпогоры
каррик
каррикень
карс
карсаевка
карсемапель
карстонь
карсунонь
карт
карта
картами
картань
картах
карте
картина
картины
картлеи
картография
карточкат
карты
карциган
карцигант
каршо
каршонзо
карьга
карьеранзо
карькс
каряз
карязонть
карязонь
карязось
карязт
касабланка
касимбуе
касимов
касо
касовкс
касовксонь
касовксось
касовкст
касовксто
касозь
касома
касоманень
касоманть
касомань
касомась
касомо
касост
каспиень
каспии
каспиянь
кассари
кассть
кассы
кассь
касто
кастома
кастомантень
кастомс
кастренэнь
касты
кастыть
касум
касы
касыкст
касыть
касыця
кась
кат
каталог
каталоге
катар
катардома
катарина
катасонов
категории
категория
категориятнесэ
кати
катитци
катка
каткалопа
каткамав
каткань
катовице
католикань
католикень
католикт
католическои
каторова
катя
каунас
кауханева
каф
кафедра
кафедральнои
кафедранть
кафедрань
кафедраньветии
кафедрасо
кафедры
кафетци
кафка
кахраманер
кацялаи
качады
качаево
качеевка
качестве
качество
качим
каша
кашепаров
каштаз
каштан
каштом
каштомава
каштомонь
каштомос
каштомс
каштомсо
кая
каяви
каявкс
каявсть
каявсь
каявтозь
каявтызь
каямо
каямс
каясызь
каясь
каятотсь
кб
кв
ква
квартет
квент
квенэнь
квица
кг
ке
кев
кевало
кевев
кевеи
кевенть
кевень
кевери
кеветее
кевинень
кевкосте
кевкстема
кевкстеманть
кевкстемань
кевкстемат
кевкстематне
кевкстематнень
кеврунго
кеврунгонтеии
кеврунгонть
кеврунгонь
кеврунгоньтеии
кеврунгось
кеврунгот
кевсэ
кевтне
кевтнень
кевть
кеде
кеденек
кедензэ
кеденть
кедень
кедест
кедесь
кедеть
кедрань
кедсэ
кедте
кедть
кедь
кедьгес
кедьгесь
кедье
кедьнимиляв
кедьс
кедьсе
кедьстэ
кедьстэнзэ
кедьсэ
кедьсэнзэ
кедьсэст
кее
кеево
кеж
кежеи
кежень
кез
кезерень
кезерь
кезэрень
кезэрь
кезэрэнь
кеи
кеиень
кекс
кекшезь
кекшема
кекшнема
кекшнесть
келе
келезэ
келеи
келекс
келентень
келенть
келень
келеньсодыдеи
келеньсодыи
келеньсодыця
келес
келест
келесь
келеть
келеушта
келеуштань
келина
келу
кель
кельгома
кельденть
кельзен
кельме
кельмезь
кельмемадо
кельмесь
кельметь
кельмеширень
кельми
кельс
кельсодыень
кельсодыи
кельстэ
кельсь
кельсэ
кельсэнть
кельсэяк
кельтне
кельтнеде
кельтнень
кельтнес
кельтнестэ
кельтнесэ
кельть
кельце
келэзэ
келя
кемаи
кемаль
кеман
кемвеи
кемгавтово
кеме
кемевтсь
кемекстави
кемекставт
кемекстазь
кемекстамонь
кемекстамс
кемексты
кемекстызе
кемекстызь
кемекстыть
кемема
кемемань
кемемасо
кемемась
кементь
кеменце
кемень
кемеровонь
кеместэ
кеметь
кеми
кемить
кемкавтово
кемккстызе
кемкотово
кемля
кемнилее
кемсь
кемть
кемтяно
кенде
кендя
кенень
кенере
кенерезь
кенери
кенерить
кенерсь
кения
кенкшенть
кентерберии
кенть
кень
кенярдозь
кепе
кепедезь
кепедемань
кепеди
кепедьсы
кепедьсызь
кер
керень
кери
керсевезь
керсезь
керсема
керсиця
керсицянь
керш
керше
кершев
кершсянглеи
кершчирева
кершчиресэ
керькс
керькст
керявкс
керяз
керязь
кест
кестэ
кесь
кесэнть
кеттунен
кеть
кетьксчи
кетьстэ
кеце
кече
кеченьбие
кеченьбуе
кечушево
кеяк
ки
киванть
киви
кивинь
кивм
кивчеи
кидаш
кие
киев
киевень
кизатя
кизна
кизнер
кизонь
кизэ
кизэнть
кизэнь
кизэсь
кии
киккас
кикнур
кикнурэнь
кикс
кикст
киксэнть
киксэнь
киксэсь
килангонь
килангсо
килеень
килеи
килемаронь
килемары
кильдюш
кильдюшкина
килькш
кильмезень
кильмезь
кин
кина
кингисепп
кине
кинель
кинематографсо
кинень
киненьгак
кинешемскои
кинешма
кинзэ
кино
кинонь
кинопоиск
кинорежиссе
киносо
киностудия
кинофестивальсэ
кинофестиваля
кинть
кинь
киньгак
кинэнь
киото
кипр
кипра
кир
киргизия
киргизского
киргизэнь
кирда
кирдань
кирдат
кирдатне
кирдатнень
кирдеви
кирдезь
кирдема
кирдемань
кирдемась
кирдеме
кирдемс
кирди
кирдивиень
кирдивии
кирдиенть
кирдиень
кирдизь
кирдии
кирдимастор
кирдимасторонь
кирдимасторось
кирдить
кирдиця
кирдицякс
кирдсть
кирдсь
кирдян
кирдяшов
кире
киренть
киржеман
киржеманы
кирилл
кириллица
кириллов
кириллович
кириллэнь
кириченко
кирмалав
кирнявтнезь
кирнявтнить
кирнявтсь
киров
кирово
кировонь
кировская
кировскои
кирпичников
кирс
кирсанов
кирьга
кирькс
кирькст
кирьксэнтень
кирьксэнть
кирьксэс
кирьксэсь
кирья
кирюков
кирюшкин
кис
киселе
киселиха
киска
кискань
киссель
кист
кись
кисэ
кит
китаень
китаи
китап
китне
китнень
кито
кить
кичатово
кишалы
кишине
киштезь
киштема
киштемань
киштемась
киштемат
киштеме
киштить
киштиця
киява
кияванть
кияк
кияса
кият
кията
киятань
киі
кк
кки
кл
кла
клавдия
клавишные
клад
клаи
клара
класс
класса
классика
классикань
классики
классификации
классификация
классическая
классических
классическои
класснэнь
классо
классов
классонди
классонь
класст
класстнэнень
класстнэнь
кле
клевер
клеи
клементьева
клеменчич
клепики
клет
клеткантень
клетки
климатось
климт
клин
клиникань
клип
клипмеи
клуб
клубе
клубнено
клубонть
клубонь
клубось
клубсо
клубт
клуж
ключ
ключагин
ключарево
ключи
клявля
клявлянь
клязьма
км
кмк
кн
книг
книга
книгазо
книганзо
книганть
книгань
книгас
книгасо
книгасонзо
книгасто
книгась
книгат
книгатнень
книгах
книге
книги
книжка
книжное
книжнои
книжныи
книпович
кнр
княгинино
княгининэнь
княгиня
княжиха
княжпогостонь
князь
князя
ко
коалициань
кобале
кобалесэ
кобе
коблик
кобра
ков
кова
ковале
ковач
ковачова
ковгак
кове
ковернэнь
ковкерькс
ковкерьксенть
ковкерькссэнть
ковкерьксэнть
ковкерькэнть
ковкставксо
ково
ковонть
ковонь
ковось
ковров
ковскии
ковского
ковскоень
ковскои
ковском
ковставкс
ковставксо
ковставксонть
ковставксонь
ковставксось
ковставкссо
ковсто
ковстонть
ковт
ковылкина
ковылкино
ковыль
ковыляи
ковэнтри
когда
кого
кода
кодазь
кодак
кодамо
кодамояк
кодар
кодат
кодаткак
кодаяк
кодгемень
кодось
кодыть
кое
коенть
коень
коест
коесь
кожаи
козлов
козловка
козловонь
козловскои
козо
козонь
козулькаи
козьмодемьянск
козяи
кои
кока
коканть
кокась
коклаць
кокорев
кол
кола
коламо
колань
колбаса
колга
колган
коли
количество
колия
колияк
колиянть
коллегиеи
коллегии
коллегия
коллегиянь
колледж
коллектив
коллектива
коллективнои
коллекции
коллекция
колмо
колмов
колмоксть
колмонь
колмонькемень
колмосядт
колмоце
колмоцеде
колмоценть
колмоцесь
коло
кологрив
кологривскии
коломасов
коломасово
колоньгемень
колопино
колоратурнои
колорист
колос
колумбия
колумбиянь
колхоз
колхоза
колхозонь
колхои
колчинскии
колыбель
колыбельная
колышлеень
колышлеи
кольчугино
колю
колючии
ком
кома
коман
команда
командантень
команданть
командань
командась
командат
командатне
командир
командирэкс
команднои
комаров
комарова
комбинат
комбинированнои
комедии
комедия
комзолова
коми
коминь
комис
комиссар
комиссаров
комиссии
комиссия
комиссиянь
комиссияс
комитет
комитета
комитетэнть
комитетэнь
комитетэсь
комить
комков
комм
коммент
комментарии
комментариями
коммерсантъ
коммуна
коммунар
коммунасо
коммунатнесэ
коммунизма
коммунистическои
коммунистэнь
комонть
комонь
компакт
компании
компания
компаниянть
компаниянь
компаниясо
компаниясь
комплекс
комплекса
комплексном
композитор
композитора
композиторов
композиторонь
композиторось
композиции
композиция
композициянь
компонентов
комсеце
комсомолец
комсомолонь
комсомольск
комсомольская
комсомольскии
комсомольскои
комсь
комсьвеи
кому
кон
кона
конадо
конадонть
конанень
конантень
конанть
конань
конаньсэ
конасо
конасонть
конастонть
конась
конат
коната
конатань
конатасонть
конатась
конатат
конататне
конататнень
конатне
конатнеде
конатненень
конатнень
конатнестэ
конатнесэ
конаяк
конго
конгонь
конгресс
конгресса
конгрессе
кондямо
кондямокс
кондят
коне
конец
конечно
конечностеи
конкин
конкка
конкурс
конкурса
конкурсе
коновалов
кононть
конопля
коноша
конрад
консерваториянть
консерваториясо
конспект
константин
константинов
константинова
константинович
константиновка
константиновна
констанца
конституции
конституция
конституциянь
конституциясо
конт
контексте
континентальнои
контроль
конф
конференции
конференция
конфискациеи
конц
конца
конце
концепции
концепция
концерт
концерта
концерте
концертныи
концертов
концертом
концерты
конч
конь
конькова
конья
коня
координаторам
копе
копенгаген
коперник
коперника
копия
кор
кораблинень
кораблино
кордова
коре
кореи
коренные
коренных
корея
кореянь
корино
корнеи
корни
кородома
кородомат
короле
королева
королекс
король
короткометражныи
корпус
корпусонть
коррекции
коррекция
корреспондент
корреспондентэкс
корсаков
корсунь
корта
кортави
кортавкс
кортавксонь
кортавкссо
кортавкст
кортавкстнэнь
кортазь
кортамо
кортамокельсэ
кортамонть
кортамонь
кортамосо
кортамосонть
кортамось
кортамот
кортамотнень
кортамс
кортасть
кортась
кортатано
корткероссонь
кортнема
кортнесть
кортнесь
корты
кортыль
кортыльть
кортысь
кортыть
кортыця
кортыцят
кортыцятнеде
кортыцятнень
корчак
корчака
корш
коршун
коршуны
корьмакаи
корэя
коряз
коряков
коряс
коряскак
коса
космическои
космосонь
косо
косова
косовань
косовасо
косово
косовонь
косовосо
косояк
коста
косте
костин
костить
косто
костомукша
костомукшань
костомукшского
костре
кострома
костромань
костромская
костромского
костромскои
костромы
костюм
костюма
костюмт
костяева
костязь
коське
кот
котельнич
котельничень
котельничского
котлас
котлякова
кото
котова
которая
которого
которое
которои
котором
которосль
которую
которые
которыи
которых
котосядт
котоце
кохма
коцт
коцтонть
коцтонь
коцтось
коцтсто
кочеваткин
кочелаево
кочетков
кочетовка
кочич
кочкави
кочкавить
кочкавиця
кочказель
кочказь
кочкамо
кочкамонь
кочкамось
кочкамот
кочкамотнень
кочкамотнесэ
кочкари
кочкаря
кочкасть
кочки
кочкизь
кочкить
кочкиця
кочкицятнень
кочксезель
кочксезь
кочксемань
кочкур
кочкурбуе
кочкурбуень
кочкурбуесэ
кочкурвелесэ
кочкурово
кочкуровская
кочкуровскии
кочкуровского
кош
коша
кошице
кошкаровка
кошки
кошкинань
кошт
коштонть
коштонь
коштось
коштсо
коэльо
коэффициентов
коэффициенты
кпсс
кр
кра
крае
краев
краевед
краеведение
краеведениянь
краеведов
краеведческая
краеведческии
краеведческого
краеведческои
краеведческом
краенть
краень
краи
краков
краковонь
крандаз
крапи
крас
красавица
красивая
красивые
красн
краснаи
красная
красноармеи
красноборскои
красногвардеи
красного
красногорск
красногорскои
краснодар
краснодаронь
красное
краснои
краснокамонь
краснокутскои
краснопе
краснополье
краснослободск
краснослободского
краснослободскои
красночетаи
краснояр
краснояронь
красноярск
красноярского
красноярскоень
красные
красныи
красота
краткая
краткии
краткое
краторось
краю
края
краям
краях
кре
креи
крепости
крепость
крест
крестьян
крестьянскои
крещение
кри
кривань
кривозерье
кривошеев
кривошеева
кривошеевень
кристиан
кристина
критерияс
критик
критика
критикань
критикась
критикенть
критики
критическои
критэнь
крова
кровохле
кровь
кровя
кроме
кронштадт
крот
круг
кругловои
кругом
кругосвет
кружкова
кружоватикше
крупным
крупных
крутая
крутец
крутои
крыжо
крылов
крылова
крым
крыма
крымень
крымонь
крымоньтат
крымские
крымскии
крымских
крымско
крымскои
крымскотатарскии
крымсэ
крыму
крымэнь
крюковка
кряшент
кряшены
кряшенэнь
кс
кса
ксения
ксенофонт
ксень
ксес
ксесь
кснав
кснавне
ксня
кста
кстово
кстовскии
кстыень
кстыи
ксть
ксь
ксэ
ксэе
ксэнь
ксэньгемень
ксэсядт
ксэце
кто
ку
куала
куба
кубанцев
кубасо
кубкань
кубкасо
кубок
кубоксо
кубоксонть
кува
куваи
кувака
кувакасто
кувакат
кувалма
кувалмазо
кувалмо
кувалмозо
кувалмонть
кувалмос
кувалмосо
кувалмост
кувалмось
кувалт
кувать
куватьс
кувеи
кувшинка
кувэи
кугеси
куда
кудава
кудазоро
кудашкин
кудо
кудов
кудова
кудонзо
кудонтень
кудонть
кудонь
кудоракша
кудораське
кудораськезэ
кудораськензэ
кудораськень
кудораськесэ
кудос
кудосо
кудосонть
кудост
кудосто
кудось
кудот
кудотнень
кудоюрт
кудоюртонь
кудоютконь
кудряв
кудрявцев
кудряшов
куе
кужа
куженер
куженеронь
куженя
кужо
кужова
кужомастор
кужомасторонть
кужомасторось
кужомасторсо
кужонтень
кужонть
кужонь
кужос
кужосо
кужосонть
кужось
кужосэ
кужот
куз
кузбуесэ
кузеева
кузман
кузнецк
кузнецка
кузнецкии
кузнецов
кузнецова
кузнецэнь
кузоватонь
кузонть
кузонь
кузось
кузым
кузьма
кузьмино
кузьминовка
кузьмич
куи
кукк
куклин
куко
куконь
куконькаи
кукуруза
кул
кулдуркаев
кулдым
кулдыр
кулдыркаевень
кулебаки
кулебаконь
кули
кулик
куликенть
куликесь
куликов
куликова
куликовка
куликово
кулишеи
кулозенть
кулозь
кулом
кулома
куломадо
куломадонзо
куломанзо
куломанть
куломань
куломась
куломо
кулость
кулось
кулы
кулыи
кулыцянть
куль
культур
культура
культурантень
культуранть
культурань
культурасо
культураст
культурась
культуре
культурная
культурно
культурного
культурное
культурнои
культурные
культурныи
культуролог
культуры
куля
кулялопа
кулялопанть
кулялопань
кулялопас
кулялопасо
кулялопасонть
кулялопась
кулялопат
кулялопатнень
кулялопатнесэ
кулянь
куляньсе
кулят
кулятне
кум
кумажа
кумак
кумардак
куме
кумена
кун
кунда
кундави
кундазь
кундамга
кундамо
кундамс
кундасы
кундась
кундем
кундо
кундонтень
кундонть
кундсема
кундсить
кундсицянть
кундсицясь
кундсицятне
кунды
кундызе
кундыть
кункшка
кунсолодо
кунсоломс
кунсолось
куншка
куншкава
куншкаиень
куншкакуро
куншкакуросо
куншкамасторонь
куншкамодань
куншкань
куншкапингень
куншкас
куншкасо
куншкасто
куншкась
куншкатарка
куншкатаркань
куншкатаркасо
купала
кур
кура
кураи
куракино
куракш
куракшонь
куракшт
курахонь
курган
курганонь
курго
курда
курилова
куриловка
курник
курня
куро
курок
курокке
куроксто
куронтень
куронть
куронь
курорта
курос
куросо
курось
курот
куротне
куротнень
куротнесэ
курс
курса
курсасо
курсат
курскоень
курскои
курултаем
курултая
куруш
курушсо
куско
кустарниковая
кут
кутаиси
кутаисинь
куторга
куторкин
куторкинэнь
кутузов
кутьмере
кухня
куцькан
куцян
кученяево
кучер
кучизе
кучизь
кучозель
кучозь
кучомс
кучсь
куш
кушка
кушки
куя
куяр
куярт
кш
кша
кши
кшинть
кшинь
кшись
кшить
кшмелесь
кшни
кшнинь
кшнипонат
кшнынь
кшуманця
кшуманцянь
кшумань
кызы
кызыл
кыргызскои
кьявик
кэ
кярдла
кярьга
кярьгоня
кяшал
л
ла
лав
лавка
лавтов
лавтовонзо
лавшо
лагерьсэ
лада
лади
ладить
ладка
ладсии
ладсиця
ладсо
ладямо
лажамо
лажныця
лаз
лазарев
лазаревич
лазарь
лазо
лазось
лаи
лаказь
лаки
лаксманонь
лакштяемка
ламара
ламбамо
ламбаське
ламзурь
ламо
ламодояк
ламоиень
ламоксть
ламонь
ламораськень
ламосо
ламось
ламот
ламотне
ламотнень
ламочи
ламочинть
ламочинь
ламочист
ламочись
ламочисэ
ланга
ланганзо
ланго
лангозо
лангозонзо
лангозост
лангонть
лангонь
лангост
лангось
лангс
лангскак
лангсо
лангсонзо
лангсто
ланд
ландех
ланка
ланкс
ланксо
лань
лаос
лапа
лапине
лаппо
лапужа
лапшин
ларина
ларионов
лариса
ларнака
ларс
лас
ласло
ласте
ласточка
ласькамо
лат
латвии
латвия
латвиянь
латвиясо
латин
латинскии
латинское
латинэкс
латинэнь
латкине
латкиненть
латкинеть
латко
латкова
лато
латонь
латыш
латышень
лаула
лаура
лауреат
лауреатокс
лауреатом
лаури
лауриат
лаушки
лахор
лахость
лахти
лациця
лацо
лачплесис
лашма
лашмо
лашмонть
лашмосо
лашмосонть
лая
лбуе
лбуесэ
лганя
лгбт
ле
лебеда
лебедев
лебедянь
лебяжье
лев
левжа
левкс
левкстнэ
левксэнзэ
левож
левон
левчаев
легенда
легендат
легенды
ледезель
ледезь
ледема
ледемс
леди
леднема
ледниця
ледницянь
ледров
ледстневи
ледстнема
ледстнемань
ледстнемат
ледстнемга
ледстнесь
ледстни
ледстяви
ледстязь
лееенть
леекс
леентень
леенть
леень
леесь
лежнево
лезг
лезги
лезгинэнь
лездамо
лездамонь
лездамс
лездасть
лездась
лезды
лездыть
лездыця
лездыцякс
лездыцянзо
лездыцят
лезе
лезкс
лезксэнь
лезэ
лезэв
лезэвть
леи
лек
лека
лекарственныи
лекарственных
лексика
лексикась
лексико
лексикографиянь
лексикология
лексикон
лекции
лекцият
леля
лелязо
леляи
лелякаи
лелянзо
лелянь
лелясь
лелят
лем
лемаи
лембе
лембее
лембень
лембестэ
лемде
лемдеви
лемдезель
лемдезь
лемдемс
лемди
лемдизе
лемдизь
лемдильть
лемдить
лемдязель
лемдязь
лемдяи
лемезе
лемезэ
лемезэль
лемензэ
лементь
лемень
лемест
лемесь
леметь
лемпелень
лемполавкс
лемс
лемстэ
лемстэнть
лемсэ
лемсэнть
лемтеме
лемтне
лемтнень
лемть
ленин
ленина
ленингр
ленинград
ленинградов
ленинградонь
ленинградскои
ленинградсо
ленинец
ленинского
ленинское
ленинэнь
ленскои
лень
леон
леонид
леонида
леонтьев
леопольд
лепа
лепе
лепекал
леплеи
лепштить
лепштязь
лердиҥ
лермонтовонь
лес
леса
лесна
лесная
лесничество
лесное
леснои
лесоучасток
лесу
лет
лети
летие
летию
летия
летнеи
летнии
летняя
лето
летом
летописеи
летопись
летьке
летяга
летяги
лециця
лецнема
лецнеманзо
лецнемат
лецти
лецтнема
лецтни
лецтяви
лецтязь
лечении
лечиця
лешуконскои
лещанкина
леяк
ли
либерализмонь
либеральнои
либия
либо
либретто
лив
ливамо
ливамс
ливан
ливвикэнь
ливень
ливерпуль
ливти
ливтить
ливтне
ливтни
ливтнить
ливтниця
ливтямо
ливтямсто
ливтясь
лига
лигань
лигасо
лидер
лидия
лиепая
лиза
лии
лика
ликша
ликшань
лилль
лима
лингвист
лингвистикань
лингвистическии
лингвистических
линда
линия
линус
линц
лион
липецк
липецкая
липецкои
липецкстат
липецэнь
липня
лира
лирика
лирикань
лирикась
лирики
лирическои
лисе
лисезь
лисезэ
лисема
лисемадо
лисемазо
лисеманзо
лисемань
лисемась
лисеме
лисемс
лисемстэ
лиси
лисиль
лисильть
лисить
лисиця
лисмапрят
лиснеме
лиснесть
лиснесь
лисни
лиснить
лиссабон
лиссть
лиссь
лист
листок
листь
листья
лись
лисьма
лисьмапря
лисьмапрянь
лисьмапрят
лисьмапрятне
лисьмапрятнесэ
лисьмась
лисян
лит
литва
литвань
литвасо
литвин
литвиновои
литвы
литератор
литераторонь
литератур
литература
литературанть
литературань
литератураньветии
литератураньветиця
литературас
литературасо
литературась
литературатнень
литературе
литературная
литературно
литературного
литературное
литературнои
литературные
литературныи
литературных
литературовед
литературонь
литературы
литова
литовань
литовонь
литовскои
литогр
литограф
литонь
лифтон
лихаче
лихтенштеи
лиц
лица
лицах
лицеи
лицо
лицянь
личнои
личности
личные
лишения
лишме
лишменть
лишмень
лишнои
лишь
лия
лиява
лиядсть
лиядсь
лиякс
лиякскак
лиякстоми
лиякстомсь
лияназ
лияназонь
лиянь
лиясо
лиясто
лиясь
лият
лията
лияткак
лиятне
лиятнень
лиять
лка
лкам
лканть
лки
лл
лмо
лмонзо
лмонь
лнечник
ло
лобанов
лобаски
лов
лова
ловажа
ловажанзо
ловажань
ловажасто
лови
ловить
лович
ловка
ловна
ловнодо
ловнома
ловномакудо
ловноманть
ловномань
ловномапусмо
ловномапусмонь
ловномапусмосо
ловномасонть
ловномастонть
ловномась
ловномат
ловномо
ловномсто
ловнось
ловныть
ловныця
ловныцянть
ловныцясь
ловныцятненень
ловныцятнень
лово
ловови
лововить
лововонть
лововсть
лововсь
ловозь
ловома
ловоманть
ловомась
ловомс
ловонь
ловось
ловскии
ловское
ловскои
ловсо
ловсонь
ловсос
ловсосто
ловсось
ловсть
ловсь
ловт
ловцо
логикань
лодзь
лодом
ложбина
лои
лок
локк
локсеень
локсеи
локшо
лом
лома
ломанде
ломанекс
ломанензэ
ломанентень
ломаненть
ломанень
ломанесь
ломанеть
ломанне
ломаннень
ломантне
ломантнеде
ломантненень
ломантнень
ломанть
ломань
ломаньде
ломаньтне
ломаньтнень
ломаньть
ломатне
ломатненень
ломатнень
ломать
ломов
ломоносов
ломоносова
ломшин
лонг
лондон
лондоне
лондононь
лондонсо
лонь
лоп
лопа
лопав
лопазо
лопанзо
лопансетнень
лопанть
лопань
лопапарцун
лопасо
лопасонть
лопась
лопат
лопатино
лопатинэнь
лопатне
лопатнеде
лопатнень
лопинестэ
лопух
лопыре
лос
лосев
лосевка
лотка
лоткавтозель
лоткавтомс
лоткавтызе
лоткавтыця
лоткасть
лоткась
лотки
лотксе
лотксема
лотман
лт
лта
лтая
лтбуе
лтонть
лтонь
лтось
лтт
лтыи
лу
лув
лувне
лувов
лувозо
лувонзо
лувонтень
лувонть
лувонь
лувост
лувось
лувс
лувсо
лувт
лувтне
лувтнень
лувтнэнь
луг
луга
лугалангонь
луганскои
луганть
лугань
лугатикше
лугаян
лугов
луговая
лугово
луговои
лугоянонь
луза
лузгин
луи
луиза
луис
лук
лука
лукас
луков
лукоянов
лукояновскии
лукояновского
лукш
лукшонть
лукьянов
лукьяновонь
лумпур
лунд
лундан
лунин
лунинэнь
лунь
луньга
лур
лух
лухма
лухскои
луцьк
лученок
лучшая
лучше
лучшее
лучшии
лучших
лы
лыи
лыкамо
лыковщина
лысая
лысенков
лысково
лысконь
лысогоронь
лысые
ль
льва
львив
львивонь
львов
львовонь
львовскои
львівська
льеж
льн
льник
льныи
льскии
льшая
лю
любаев
любаевень
любви
любим
любимая
любителеи
любишь
любкер
любкеру
люблин
люблю
любляна
любовь
любом
любомир
людвиг
людеи
люди
людикень
людмила
люксембург
люлякина
люра
лютер
лютера
лютеранонь
лютеранскои
лютерант
люция
ля
ляи
лялязо
лямбирка
лямбирь
лямбирьбуева
лямбирьбуень
лямбирьбуесэ
ляце
ляча
ляэне
ляэнемаа
ліквідацію
літаратуры
м
ма
маак
маалыматтарды
маар
мавзолеи
маг
магадан
магаданонь
магда
магдебург
магнитогорск
магомед
мад
мадам
мадезь
мадрид
мадышка
мадьяр
мадьярокс
мадьяронь
мадьярт
мае
мажаев
мазань
мазгар
мазы
мазыи
мазылгавтозь
мазылгавтыця
мазычинть
мазычинь
мазь
маи
мак
макалеи
макао
макар
макаркин
макаров
макарович
макаровка
макарово
макарьев
макарьевонь
макашин
макед
македония
македониянь
македониясо
македононь
македонски
макиавелли
маклауш
маклая
мако
маково
маконь
макс
макса
максака
максидром
максим
максима
максимально
максимальное
максимов
максимович
максневи
макснесь
максни
максо
максови
максовить
максодо
максозель
максозельть
максозо
максозоль
максозь
максома
максомань
максомась
максомо
максомс
максомсто
макссть
макссы
макссызь
макссь
макст
максть
максы
максызе
максызь
максыть
максыця
максь
мактьютор
макушкин
макушкина
мал
мала
малав
малава
малавикс
малавикст
малавиксэв
малавиксэнзэ
малаи
маланьчева
малас
маласо
маласонь
малацек
малая
маленькая
маленькии
малиновка
малмыж
малмыжского
мало
малое
малопургинень
малые
малыи
малых
мальдивы
мальме
мальт
мальта
мальчик
малюмат
маманя
мамо
ман
манадыши
манга
манеи
мани
манила
манов
манович
манось
мансии
мансинь
мансур
мантурово
манч
манчестер
манчесь
маны
мань
маоу
мар
мара
мараля
маралянь
маралят
марат
марафон
марафона
марафононть
марафононтэнь
марафононь
марафонось
марафонских
маргарита
маргит
маре
марезь
марензэ
маресево
маресь
мари
марибор
марие
маризь
марии
мариинско
мариинскои
марин
марина
маринзе
маринь
марискин
маристат
марить
мариуполь
мария
марк
марка
маркелов
маркелович
маркес
марков
маркова
маркович
марковна
маркс
маркса
марксизмань
марксонь
марлен
маро
марокко
маронзо
маронть
марракеш
марс
марса
марсель
март
марта
мартин
мартина
мартис
марто
мартон
мартонзо
мартонок
мартост
мартот
мартояк
мартынов
мартынова
мартыновонь
марть
марч
маршака
маршрут
мары
марь
марькат
марья
марьям
марьянник
маря
маряви
марявить
марявсь
марязь
марямизь
марямо
марясь
марят
маскаев
масканя
маскино
масле
масли
масо
массовои
масср
мастачеи
мастер
мастера
мастерскои
мастор
масторава
мастораванть
масторавань
масторга
мастордо
мастордонть
масторкоцт
масторлангонь
масторов
масторокс
мастором
масторонтень
масторонть
масторонь
масторосо
масторось
масторпельксесь
масторпрявт
масторсо
масторсонть
масторсто
масторт
мастортне
мастортнева
мастортнень
мастортнесэ
мастортнэ
мастортнэва
мастортнэнь
мастортнэсэ
масштаб
мась
мат
матвеев
матвеевич
матвеево
математик
математика
математикань
математики
математические
математическои
матер
матери
материал
материала
материалам
материале
материали
материалист
материалов
материалонь
материалось
материалт
материалтнэ
материалы
материальная
материальнои
матерна
маткат
мато
маторкина
матразь
матушка
мать
мафун
махачкала
махмуд
махоркосовхоз
мачинэнь
мачкасы
машак
машина
машинань
машинасо
машт
маштови
маштовить
маштовиця
маштовсь
маштозь
маштомс
маштсь
машты
маштызь
маштыть
маштыця
маштыцятнень
маэ
мая
маяк
мб
мбоу
мбук
мвд
мвт
мгпи
мгу
ме
мед
медаленть
медалесь
медали
медаль
медальсэ
медальтнесэ
медальть
медведев
медведева
медведево
медведевонь
медведевскии
медведица
медведь
медвежии
медгиз
медев
медень
медиа
медицина
медицинань
медицине
медицинские
медицинскии
медицинскои
медицины
медресе
медуница
медь
медьеть
медьков
медьковонь
медьковсто
медярво
мее
меельце
меельцеде
меельцекс
меельцесь
межа
межасонть
межвузовскии
межгорье
межд
междометия
междометиясь
междометиятне
междометиятнень
между
междунар
международная
международного
международнои
международныи
межрегиональнои
межрегиональныи
мезде
мезе
мезекс
мезенть
мезень
мезеньгак
мезес
мезесь
мезеяк
мезть
мезэ
меи
мекев
мекевлангт
мекка
мекс
мексика
мекш
мекшень
мекшетне
мекштне
мелезэ
мелем
мелензэ
меленки
меленть
мелень
мелест
мелесь
мелеуз
меликов
мелких
мелодия
мель
мельванома
мельга
мельганзо
мельгаст
мельник
мельникова
мельпутоматне
мельс
мельспаросо
мельсэ
мельтне
мельтнень
мельтопавтомань
мельть
мельцаны
мельцек
мем
мемориал
мемориальнои
мемуары
менделеньи
мендявозь
мендязь
менее
менелев
менеленть
менелень
менелесь
менель
менельга
менельс
менельстэ
менельсэнть
мензэ
менка
менть
ментюк
мень
меньшинств
меньшинства
меня
мера
мере
мереви
меревсь
мерезель
мерезэ
мерема
мереманзо
меремань
мереме
меремс
меремяэ
мерзлота
мерзлоте
мерзлоты
мери
мерил
мериль
мерильть
мерить
мериця
меркушкин
мерсть
мерсь
мертяно
меры
мерьсь
мерянь
мерят
мес
мессинговка
мест
места
месте
местная
местного
местнои
местностеи
местности
место
месть
месь
месэ
месяц
месяца
мет
металл
метикше
метод
метода
методикань
методические
методическои
методы
метра
метрадо
метрань
метрас
метрат
метрическои
метро
метрополитен
метьказ
метьказонть
метьказось
метьказт
механик
механика
механики
механическои
мехико
мехмет
меццо
мечетесь
мечеть
мечта
меште
мештень
меще
мзе
ми
миасс
миеттинен
мии
мик
мика
миккели
миклош
миклухо
миколаі
микробиолог
микунь
микшнема
микшницясь
мила
милан
милетич
миллиардер
миллион
миллиона
миллионов
миллионт
милославское
милославскои
мин
мина
минас
миндаль
минеев
минек
миненек
минералонь
мини
минимарафона
минимарафононть
минимум
министерства
министерствань
министерствасо
министерствась
министерство
министр
министра
министракс
министрань
министрась
министров
миноме
минск
минскои
минутань
минутат
минь
миня
мир
мира
мирде
мирдезе
мирдезэ
мирденень
мирдензэ
мирдень
мире
мирко
мирнои
мирныи
мировая
мировоззрение
мировои
миронов
миронович
мироновка
мирослав
мирская
мирсэ
мирсэнть
миру
мирьдень
мирэнть
мирэнь
мисевич
мисс
миссис
митрань
митрева
митряшкин
мить
митя
миус
миф
мифологии
мифологическои
мифология
мифологиясо
мифы
михаи
михаил
михаила
михалина
миханович
михаэль
миша
мишанин
мишанина
мишель
мишина
мишкольц
мишулинэнь
миядзаки
мияки
мка
младен
младшего
младшеи
младшии
млекопитающие
млекопитающих
млечникэнь
млн
млрд
мм
мн
мная
мне
мнению
мнения
мнииск
мнииялиэ
многие
многих
много
многое
многоликая
мнои
мныи
мо
мова
мовсум
мог
могиле
могут
мода
модава
модаванть
модаваря
модаварясонть
модаварясь
модалангонь
модамарень
модамарть
модамарь
модамастор
модамасторонть
модамасторонь
моданзо
модантень
моданть
модань
модапотмонь
модарькань
модас
модасо
модасонть
модасто
модась
модат
модатне
модатнева
модатнень
модатнестэ
модатнесэ
модауло
модаулонть
модаулонь
модаулосо
модаулосонть
модель
модельер
модуль
мое
моеи
можга
можгинень
может
можна
можно
мозамбик
моздок
мои
мок
мокин
мокш
мокша
мокшалеи
мокшан
мокшанова
мокшановонь
мокшанская
мокшанскии
мокшанских
мокшанско
мокшанского
мокшанском
мокшань
мокшень
мокши
мокшин
мокшина
мокшо
мокшокс
мокшонь
мокшот
мокшотне
мокшотнеде
мокшотнень
мокшэрзянь
мокшэрзятне
мокшэрзятнень
молд
молдавия
молдавонь
молдавская
молдавскои
молдова
молдовань
моле
молезь
молекулярнои
молема
молеманть
молемань
молемасонть
молемась
молеме
молемс
молемсть
молемстэ
молемсь
моли
молиль
молить
молиця
молицякс
молицят
молла
молния
молодая
молоде
молодежи
молодои
молодость
молодые
молодых
молома
молотов
мольер
мольера
мольсть
мольсь
молян
молят
момент
момента
мон
монако
монастырень
монастыресь
монастырская
монастырь
монг
монгол
монголии
монголия
монголонь
монень
монографии
монография
монографият
монро
монрэаль
монтерреи
монтэвидэо
монументалист
монь
мор
мора
морава
морави
моразь
морак
морамо
морамонь
морамс
моран
морасть
морась
морат
моратано
морга
морганть
моргаушонь
моргаушского
морго
морд
мордва
мордвань
мордвин
мордвы
мордгиз
мордгу
мордо
мордов
мордовии
мордовия
мордовияв
мордовиява
мордовиянь
мордовиясо
мордовиясь
мордово
мордовская
мордовские
мордовскии
мордовских
мордовско
мордовского
мордовское
мордовскои
мордовском
мордовскяи
море
морки
моркинскии
моркинэнь
моро
мороз
морокерькс
морокерьксэнть
морокерьксэсь
морокс
моронзо
моронть
моронь
моросо
морост
морось
морот
моротне
моротнень
мороютко
мороюткось
морсесь
морси
морсить
морскои
морфологические
морфологических
морфология
морфологиянь
моры
морызе
морыть
морыця
морыцякс
морыцянть
морыцянь
морыцясь
морыцят
морыцятне
морыцятнень
моря
мосин
мосина
моск
москва
москве
москвои
москвы
москов
московка
московов
московонь
московская
московскии
московского
московскои
московском
московсо
московсто
мост
мостар
мосфильм
мось
мотив
моторкина
моу
мохсун
моцарт
мочаев
мочалище
мошково
моя
мр
мрамор
мрокм
мс
мсема
мсемань
мсеме
мси
мсср
мстислав
му
мубариз
мудрость
мудрыи
муе
муеви
муевить
муевсь
муезь
муемс
муж
мужского
мужчина
мужчины
муз
музее
музеентень
музеенть
музеень
музеесь
музеи
музея
музыка
музыкальная
музыкально
музыкального
музыкальное
музыкальнои
музыкальные
музыкальныи
музыкальных
музыкант
музыкантов
музыкань
музыке
музыки
музыковед
музыку
муи
муизе
муизь
муить
мукшновить
мультфильм
мулявин
мулявина
мумбаи
мумии
мунд
муниципалитет
муниципалитетсэ
муниципального
муниципальное
муниципальнои
муниципальные
муниципальныи
муниципальным
муниципальных
муравеи
муравьевка
муразеи
мурань
муратов
мурашкино
мурашэнь
муреш
мурза
мурзаев
мурзасо
мурзы
мурманонь
мурманск
муром
муромонь
муса
мусале
муслим
мустафа
мусульманонь
мусульмант
мусы
муха
мухамет
мухаметшарипович
мухаммед
мухановка
мухибе
муху
мушконь
мушкотикше
мфа
мцхета
мы
мыколаив
мысли
мыслители
мыслитель
мысль
мышления
мышь
мэдээллии
мэрилэндэнь
мюллер
мюнхен
мюнхенсэ
мя
мяги
мята
мятатикше
міст
мәғлүмәт
н
на
наан
наб
наблюдении
навашино
навашинэнь
навваб
навигация
навля
навоз
наволо
нагаево
нагаи
нагорная
нагорно
нагорныи
нагорскои
награда
наградами
награжде
награждении
над
надежда
надеждань
надеждин
надеждинка
надеждинскии
надо
надонть
надь
надькин
надя
назад
назарович
назв
назвал
название
названием
названии
названия
назо
называют
наи
наиль
наименовании
наклонениянь
наклонениясо
нал
наличного
наличное
налк
налксе
налксема
налксемантень
налксеманть
налксемань
налксемасо
налксемасонть
налксемаст
налксемась
налксемат
налксематнень
налксематнесэ
налксеме
налксемс
налксемстэ
налксесть
налксесь
налкси
налксизе
налксии
налксить
налксиця
налксицякс
налксицянть
налксицясь
налксицят
налксицятне
налксицятнеде
налксицятненень
налксицятнень
налксицятнестэ
налксось
налога
нам
нама
нан
нанть
нань
написание
напишет
наполеон
напольное
напр
направления
например
нар
нарбекова
нарва
нарваткин
нарвицька
нарганг
наречии
наречия
нарком
наркомпросонь
наркомпроссо
нарлангонь
нармунень
нармунтне
нармунтнень
нармунть
нармунь
наровчат
наровчатонь
народ
народа
народная
народни
народного
народное
народнои
народном
народные
народныи
народных
народов
народонть
народонь
народтнэнь
народы
нарушение
нарушении
нарушения
нас
насекомые
насекомых
населе
население
населением
населении
населения
населенные
населенным
населенных
населення
наследие
наследия
наследиянь
наследство
насо
насонть
настоящее
настоящем
настоящии
настя
насыров
нась
наталия
наталья
наташа
натои
натуралист
натуральнои
нать
наук
наука
наукань
наукасо
наукась
наукатнень
науке
науки
наукова
науч
научная
научно
научного
научное
научнои
научные
научныи
научных
находится
нац
нации
националистическои
национальная
национально
национального
национальное
национальнои
национальному
национальностеи
национальности
национальность
национальные
национальныи
национальных
нач
начала
начале
начало
начальник
начальника
начальнои
наченалы
начинает
начинается
начко
наш
наша
наше
нашего
нашеи
наши
наших
ная
наявного
нберг
нга
ндо
ндол
ндонь
ндр
не
неаполь
небо
небомореоблака
нева
неверкинэнь
неверныи
невеста
невестантень
невестанть
невестась
неви
невить
невскои
невсь
невтеви
невтевить
невтевкс
невтевкст
невтевксэкс
невтевксэсь
невтезь
невтема
невтемакс
невтеманть
невтемань
невтемась
невтемат
невтемга
невтемс
невти
невтизе
невтизь
невтинзе
невтить
невтиця
невтневсь
невтни
невтсь
невтьсы
негатив
него
недель
неделя
недоступная
недра
нее
неемс
неень
нееньшкань
нежедезь
нежедема
нежеди
нежедязь
нежелательны
независимая
независимои
независимости
неи
неизе
неизеть
неизь
неиця
неко
некоторые
некоторых
некрасова
некролог
неле
нем
нема
немась
неме
немецекс
немецень
немецкии
немецкого
немецкои
немецком
немецэнь
немеш
немного
немовонь
немс
немчич
нен
ненец
ненецкии
ненецт
ненецэнь
ненть
нень
необходимо
неофициальныи
непал
нер
неренть
нерень
нерехта
нерлеи
нерь
нерьгаз
нескольких
несколько
несмотря
несть
несы
несь
несэ
нет
нетопырь
неть
нетькс
нетьксэзэ
нетьксэнзэ
нетьксэсь
нефе
нефта
нефтань
нефтегорск
нефтяник
нехаева
нечаевка
нече
нечурька
нешке
нея
неяви
неявикс
неявить
неявиця
неявсь
неят
ни
нибудь
нива
нигерии
нигерия
нид
нидерл
нидерландонь
нидерланды
ние
ниеминен
ниже
нижегород
нижегородская
нижегородскии
нижегородского
нижегородскои
нижне
нижнего
нижнеи
нижнии
нижнои
нижняя
низовка
низэ
нии
ниигн
нииялиэ
ник
ника
никарагуа
ники
никита
никитин
никитино
никитична
никифоров
никкендорф
никколо
ников
никогда
никола
николаев
николаевич
николаевка
николаевна
николаенко
николаень
николаи
николая
николич
никольск
никольскии
никольского
никольское
никольскои
никонова
никорцминда
никосия
никс
никул
нил
ниле
нилексть
нилень
ниленьгемень
нилеце
нилецесь
нилькс
ним
ними
нина
нинань
нинзэ
нино
нинь
ниса
нить
них
ница
ницкии
ницкого
ницца
ницше
ниця
ницякс
ничего
ния
нк
нка
нкань
нквд
нки
нков
нкс
нкска
нкснева
нкснень
нксо
нксов
нксозо
нксонзо
нксонтень
нксонть
нксонь
нксоньте
нксост
нксось
нкссаамонь
нксска
нкссо
нкссов
нкссонть
нкссонь
нкссто
нкст
нкстнева
нкстнень
нкстнэ
нкстнэнь
нкстнэсэ
нксто
нм
нн
нна
нная
нник
нно
нного
нное
ннои
ннрот
нные
нныи
нным
нных
но
ноам
нобелевскои
нобелень
нов
нова
новак
новая
новгород
новгорода
новгородскои
новеи
новелла
новелланьарсии
новелланьтеии
новеллист
новеллы
нови
новиков
новикова
нович
новка
новлеи
новна
ново
новобурасонь
нового
новое
новои
новокуи
новом
новомихаи
новонь
новороссии
новоселки
новосибирск
новости
новостнои
новость
новоторъялонь
новотроицкое
новоузенскои
новохопе
новочадово
новочебоксарск
новруз
новскии
новые
новыи
новым
новых
новь
ногаень
ногаи
ного
ное
ноенть
ноень
нои
нок
нокаут
нолда
нолдави
нолдавить
нолдавкс
нолдавксонть
нолдавксось
нолдавкст
нолдавсь
нолдазель
нолдазельть
нолдазь
нолдамо
нолдамодо
нолдамонь
нолдамосо
нолдамось
нолдамс
нолдасть
нолдасынек
нолдась
нолды
нолдызе
нолдызь
нолдынзе
нолдыть
нолдыця
нолдыцязо
нолинск
нолинэнь
ном
номер
номера
номерэзэ
номинантах
номинации
номинациясонть
нон
нонть
нонь
нор
нора
норвегии
норвегия
норвегиянь
норвегиясо
норвегиясь
норвегэнь
норка
норма
нормась
нормативныи
норматне
нормы
норов
норовава
норовжорч
носит
ность
ночи
ночка
ночница
ночь
нояб
ноября
нп
нпк
нса
нская
нскии
нского
нсо
нсто
нська
нськии
нськоі
нт
нтв
нтская
нты
нть
ну
нувара
нугуш
нудеень
нудеи
нуе
нужно
нуллин
нумоло
нумолонть
нумолонь
нумолось
нумолот
нумолотне
нун
нупаль
нупальсэ
нупонень
нупонь
нупоньчеи
нур
нурдо
нурксе
нурька
нурькаметрань
нурькине
нурькинестэ
нурькинеть
нусратуллович
нуук
нуцьказо
нуцьканзо
нучко
нушлеи
нуя
нуянь
нц
нштеи
ны
ные
ныи
ныне
ныркина
нырок
ных
нь
нью
нэнь
нээлттэи
нюрнберг
ня
нязепетровскоень
няк
някань
о
оа
оао
об
обама
обамань
обв
обвинение
обеде
обедъе
обзор
обиница
обкома
обкомонь
обл
областеи
областень
области
областного
областнои
область
областьсэ
областям
областях
області
облоносо
обнаружен
обнаружены
обозрение
оборона
оборону
обороны
обр
обработано
образ
образе
образование
образовании
образованию
образования
образованиям
образованиянть
образованиянь
образовательное
образом
образцова
образцы
обран
обранонь
обращаи
обращения
оброчное
обрядовая
обряды
обсерватории
обслуживания
обсуждение
обуховка
обуцянь
обуцяст
общ
общая
общего
общеи
общения
общеобразовательная
общеобразовательнои
общеобразовательных
общероссии
обществ
общества
обществань
обществе
общественная
общественно
общественного
общественнои
общественные
общественныи
общество
обществознанию
обществознаниянь
общие
общии
объе
объедине
объединение
объединением
объединенныи
объект
объекте
объектов
объекты
объектэнть
объектэнь
объектэсь
объявил
обыкнове
обыкновенная
обыкновенныи
обычаи
обычно
обычного
обычном
обь
обязательно
ов
ован
овлань
овощнои
овраг
овсе
овся
овсяница
овто
овтонь
овтось
овтот
овтоумарь
оганнэсбург
оганян
огаре
огарева
огаревонь
огиз
огинскои
оглавление
оглы
огни
огоне
огонь
огпу
од
ода
одежда
одесса
один
одирьванть
одирьвань
одирьвась
одицякс
одицянть
одицясь
одломанень
одна
однако
одним
одно
одного
однои
одноиме
одном
одов
одонь
одось
одошонь
одс
одсибирень
одсто
одтнэнь
одуванчик
оды
одэнсэ
оеннои
оень
ожа
ожга
ожо
ожоков
ожоковонь
ожоковс
ожоковсто
ожола
ожопуло
ожот
оз
озавтозь
озавтома
озавтыть
озадо
озась
озатя
озатясь
озатятне
озе
озера
озерки
озеро
озинки
озкс
озксов
озксонть
озксонь
озксось
озкст
озкстнэнь
ознаменование
ознома
озномо
ознотано
озныть
озныцят
озолма
озолманть
озон
озонированного
озонотерапия
озы
озыть
озяз
ои
ок
ока
оказавшие
окань
окато
оки
окна
оков
окои
около
окончании
окончательных
окрестности
окрестностях
округ
округа
округам
округе
округов
округонь
округт
окружнои
окс
оксана
оксанен
окт
октав
октмо
октябрь
октябрьск
октябрьскии
октябрьскои
октября
октябрянь
ола
олго
оле
олег
олена
олимпиадань
олимпиадасо
олимпиень
олимпии
олимпиянь
олма
оло
олодимерэнь
олодимэр
олодимэрэнь
олонь
оль
ольборг
ольга
ольги
оля
олякстомтома
олякстомтомань
олянь
олясо
олясто
олячи
олячив
олячинть
олячинь
олячис
олячист
олячись
олячитнень
ом
оман
омбо
омбомасторга
омбомасторонь
омбомасторсо
омбомостаронь
омбоце
омбоцеде
омбоцекс
омбоцентень
омбоценть
омбоцес
омбоцесь
омбоцесэнть
омега
омс
омск
омскоень
омскои
омутнинск
омутнинэнь
он
она
онам
оне
онега
онегин
они
оникс
онкстамо
онлаи
онная
онного
оннои
онныи
онным
онных
оно
онов
ономастика
ономастикон
ононь
онсо
ону
оны
онь
онів
оон
ооо
оп
опарино
опаринского
опе
опера
операнть
оперань
операсо
оперась
опернои
оперы
оперэнь
описание
описываемои
ополе
опосредственно
определе
определено
определителе
определители
определитель
опт
опубл
опубликован
опубликована
опыт
ор
оразаи
орал
орбан
орг
оргавтомо
орган
органа
организации
организация
организациянть
организациянь
организациясь
организациятне
организмань
организмат
органов
оргат
оргоди
оргодсь
ордань
орданьбуе
орданьбуень
орданьбуесэ
орден
ордена
орденом
орденсэ
ордентнэсэ
орденэнь
оре
оренбург
оренбургонь
оренбургская
оренбургскии
оренбургскои
оренбургстата
оригинальнои
ориентации
оризонти
оричевонь
орк
оркестр
оркестра
оркестрань
орксо
орлеан
орлов
орлова
орловка
орма
ормадо
ормаза
ормаменьксэнь
орманть
ормань
ормасо
ормат
орматнень
орсон
орта
ортасо
ортат
ортатне
ортатнень
ортодоксонь
ортодокст
оружие
орфографии
орфографическии
орфография
орфографиянь
орша
оршамонь
оршамопелень
оршамопелест
оршамопель
оршамопельсэ
оршамопельтнень
оршамопельть
оршамосо
оршанонь
оршанскии
оря
ос
осака
освещении
освобождение
освоение
осе
осень
осенью
осет
осетинт
осетинэнь
осетия
осецкая
осинки
осинскии
осип
осипов
оска
осканть
оскар
оскасо
оскасонть
оскась
оскат
осло
осложненных
османонь
османскои
основания
основе
основнои
основном
основные
основных
основы
осо
особенности
особенностями
особо
осовскии
острава
остров
острова
островского
островскоень
осудившии
осуждение
от
отв
отвагу
ответственнои
ответственныи
отворени
отворените
отвореног
отд
отдел
отдела
отделение
отделения
отделениянть
отделениянь
отделениясо
отделом
отдельного
отдельныи
отдельных
отделэнь
отец
отечества
отечествань
отечественнои
отечеством
открыли
открытие
открытых
отличник
отмечал
относится
отношение
отношении
отношения
отраднои
отрадныи
отражение
отрывок
отрядсто
отсутствует
оттава
отто
отца
отче
отчет
отяж
отяжбуе
отяжбуень
отяжбуесэ
отяжвеле
отяжвелень
отяжеле
оулу
офис
офиц
офицер
официальная
официально
официального
официальнои
официальном
официальные
официальныи
оформление
ох
охан
охлобыстин
охот
охотник
охотникесь
охотниктне
охотниктнень
охране
охраны
оценка
оценку
оцинямо
оцю
оцяду
оче
очень
очередь
очерк
очеркень
очерки
очеркть
очкат
ош
ошгка
ошибка
ошкар
ошке
ошкондямо
ошо
ошов
ошокс
ошонтень
ошонть
ошонь
ошос
ошось
ошпандонть
ошпандонь
ошс
ошсо
ошсонть
ошсто
ошстонть
ошт
оште
оштнень
оштнесэ
оштнэ
оштнэнь
оштнэсэ
оштонть
оят
п
па
паасонен
паасонена
паасоненэнь
пабло
павао
павел
павла
павленко
павлов
павлович
павловка
павловна
павлово
павловонь
павловскии
павлодар
падежень
паевка
паз
пазава
пазелки
пазмариенть
пазнэнь
пазонтень
пазонть
пазонь
пазось
пазтнэ
пазтнэнь
пазчангодт
пазчангот
пазялго
паи
пакистан
пакистана
пакистанонь
пакся
паксяв
паксява
паксянтень
паксянть
паксянь
паксяс
паксясо
паксясонть
паксят
паксятикше
паксятнень
пакшанзо
пакшань
пакшаст
пакшат
пакшатне
пакшатнень
пал
палакс
палатань
палермо
палестина
палех
палка
палканзо
палканть
палкасо
палкасонть
палкаст
палкась
палкат
палмань
палт
палы
палыця
пальтин
пальшите
паметник
памяти
памятная
памятник
памятники
памятников
память
пан
панама
панар
панарось
панарт
панасюк
панго
пангонть
пангонь
пангось
пангот
пангт
пангтнэ
пандалкс
пандало
панджаби
пандо
пандов
пандокаряз
пандокарязонть
пандомаринь
пандомс
пандонть
пандонь
пандосо
пандосоксонь
пандосто
пандось
пандотнень
пандт
пандтне
пандтнева
пандтнень
пандтнесэ
пандтнэнь
паневи
панезельть
панезь
панезьсе
панема
панеме
панемс
панжадо
панжи
панжизе
панжиков
панжиковонь
панжиковсто
панжить
панжиця
панжови
панжовить
панжовсь
панжозель
панжозь
панжома
панжомань
панжомась
панжомсто
панжсь
панзеи
пани
панинек
панитикше
панить
панишень
панкс
панорама
панорамы
пансь
паньжа
паолонь
папа
пара
парагваи
парад
параджановонь
парадис
парадсо
паралимпии
параметр
парангинэнь
параньга
парапино
парго
паргонть
паренть
парень
паресь
париж
парижсэ
парижэнь
паризио
парк
парка
парки
парконть
паркось
парксо
парламент
парламентэнь
парма
паро
паровая
пародият
пароль
паронзо
паронь
паросо
паросто
парочи
парочинь
парсеень
парсеи
парсте
парт
партизанонь
партии
партия
партиянть
партиянь
партияс
партиясо
партиясь
партнеры
парца
парцунсо
парцунтсо
парцы
парынз
парь
парьс
паряк
пас
пасиба
паскалева
пасле
паспорт
пасхальнои
пат
патра
патриот
патриотическои
патриоты
патязо
патяи
патянь
патясь
пауло
паулу
пауль
пацине
пацифистка
паця
пацясо
пацят
пача
пачалго
пачалксеть
пачелма
пачелмань
пачк
пачкоди
пачкодить
пачкодсть
пачкодсь
пачколи
пачти
пачтямо
пачтясь
паша
паши
пашкевич
пашутина
пг
пгт
пе
пев
пева
певец
певица
певице
певицы
певтеме
пед
педа
педагог
педагогикань
педагогики
педагогическии
педагогического
педагогическои
педе
педер
педи
педогогическои
педягаи
пеель
пеень
пежеттементь
пезэ
пеи
пек
пеке
пекень
пекин
пекстазь
пекстызь
пекше
пекшень
пекшеть
пелагея
пеле
пелев
пелеве
пелевее
пелевень
пелезэ
пелема
пелень
пелест
пелесь
пелечие
пеликан
пелить
пелкстамось
пель
пельга
пельде
пельдензэ
пельдест
пелька
пелькс
пельксенть
пельксесь
пельксстэ
пелькссэ
пелькссэнть
пелькст
пелькстамо
пелькстамонтень
пелькстамонть
пелькстамонь
пелькстамосо
пелькстамосонть
пелькстамось
пелькстамот
пелькстамотнень
пелькстамотнесэ
пелькстась
пелькстнэ
пелькстнэнь
пелькстэ
пельксэ
пельксэв
пельксэзэ
пельксэкс
пельксэнзэ
пельксэнтень
пельксэнть
пельксэнь
пельксэс
пельксэст
пельксэсь
пельс
пельть
пеля
пелян
пенгть
пенза
пензань
пензенск
пензенская
пензенскии
пензенского
пензенскои
пензятка
пеночка
пенсияв
пенсияс
пенть
пенчсэ
пень
пенькозавод
пеня
пер
перасо
первая
первенства
первенствасо
первого
первое
первои
первоисточника
первомаи
первоцвет
первые
первыи
первым
первых
перев
перевесье
перевод
переводе
переводчик
переводы
перевоз
перед
передаче
передачеи
передовои
переи
переизд
переиздание
переименовывалась
перекре
перем
перен
перепис
переписеи
переписенть
переписи
перепись
перераб
переславль
перец
перець
перечень
период
периода
пермезь
пермень
пермиси
пермскии
пермского
пермскои
пермь
пермяконь
пером
перпельксэнь
перс
персидонь
персидская
персидскии
персидского
персиянь
персональнои
перспективы
персэнь
пертпельксэнь
перть
пертьпелькс
пертьпельксэнть
пертьпельксэнь
пертьпельксэсь
перу
перунь
перхляи
перька
перькава
перькаванзо
перьканзо
пес
песен
песне
песни
песнь
песню
песня
песняров
песняры
песнях
песочная
пестровка
пестэ
пестяки
песэ
песэнзэ
пета
петаи
петар
петер
петербург
петербурга
петербурге
петербургонь
петербургскии
петербургского
петербургскои
петербургсо
петни
петнии
петнявкс
петр
петра
петрань
петров
петрова
петрович
петровка
петровна
петровнань
петровск
петровскии
петровского
петровскои
петроград
петрозаводск
петропавловск
петроскои
петрянь
петър
петь
петя
пецек
пеця
печ
печатавсть
печатавсь
печатазель
печатазельть
печатазь
печати
печени
печи
печк
печказонь
печкасонь
печкаст
печкема
печора
печорань
печорскои
печтемань
пешкеди
пешксе
пешксэ
пеште
пештень
пештть
пештязь
пештямс
пещера
пеячевич
пи
пианинасо
пианистсэ
пигмеи
пидеви
пидезь
пидема
пидемакнигань
пидень
пидинек
пидипалакс
пидить
пидиця
пижанка
пижанэнь
пиже
пижела
пижень
пижеть
пижма
пижни
пижнить
пизе
пизем
пиземе
пиземень
пиземесь
пиземеть
пизэнь
пик
пикассо
пикет
пикник
пикс
пиксаур
пиксяси
пикшень
пила
пиле
пилиппинтне
пильге
пильгезэ
пильгензэ
пильгень
пильгеоска
пильгеоскань
пильгеоскасо
пильгеоскасоналксии
пильгест
пильгс
пильгсэ
пильнянь
пимбур
пимпирев
пин
пинг
пинге
пингеде
пингезэ
пингем
пингенень
пингензэ
пингенть
пингень
пингес
пингестэ
пингестэнть
пингесь
пингесэ
пингетнень
пингетнестэ
пингстэ
пингэнь
пине
пинксэнть
пинск
пиньинь
пинясов
пионерскии
пионерэнь
пиргуж
пире
пирень
пиресэ
пирэ
пирявкс
пирявксонть
пирявксонь
писал
писала
писателеи
писателень
писатели
писатель
писательтнень
писателя
писать
письма
письмар
письменности
письменных
письмо
пите
пителинень
питер
питерскои
питне
питневтеме
питнезэ
питнеи
питнень
питтсбург
пифагор
пици
пиципалакс
пициця
пичаи
пиче
пичевеле
пичень
пиченьгуж
пиченьгужо
пичепулонь
пичеть
пичеуры
пичингуши
пишется
пишля
пишляи
пишутся
пия
пиянь
пка
пко
пламя
план
планета
планина
планирования
плантариум
пластинка
пластинки
пластинку
пластов
плато
платон
платонов
платонть
платформ
платформа
платформазы
платформаи
платформасы
платформаһы
плау
плаун
пле
плеи
плесецкои
пловдив
плодопитомническии
плотина
площадь
плюс
пляж
плятформа
пмо
пномпень
по
победа
победу
победы
побратимени
побратимы
поведение
поверхностных
повестезэ
повестень
повести
повестть
повесть
поветлужье
повлиявшие
пово
поводелесэ
поводимово
поводу
поволж
поволжскии
поволжья
повышающих
повят
поганка
погрешность
под
подарок
података
податоци
подборка
подвиг
подг
подгорица
подгорнова
подгорное
подгот
подготовка
подгруздок
поддержке
поддержки
поддержку
подлежащеи
подмаре
подмаренник
подольскои
подоро
подорожник
подосиновец
подосиновского
подотд
подробная
подробности
подробные
подрод
подсемеи
подсо
подст
подчине
подъе
подільськии
пое
поень
пожалуи
поза
позань
позась
позда
поздняк
поздяев
позже
познань
пои
поиск
поисках
поиски
пока
показателеи
покрова
покровские
покровское
покрышкино
покш
покшболдинань
покшке
покшокс
покшолгавтомонзо
покшолгавтомс
покшолма
покшолмазо
покшолманзо
покшолманть
покшолмань
покшолмасо
покшолмаст
покшолмастонть
покшолмась
покшолмозо
покшоль
покшонь
покшось
покшпилень
покшсто
покшт
покштне
покшто
покштояк
покштя
покштязо
покштянзо
покштянок
покштянь
покштяст
покштят
покштятне
покштятнень
покшчи
покшчинть
покшчинь
покшчись
покшчитнень
покшчить
пол
пола
полавтневи
полавтнемань
полавтови
полавтово
полавтовсь
полавтозь
полавтоманть
полавтомс
полавтсызь
полавтызе
полавтыця
полавтыцякс
полад
поладови
поладовить
поладовсть
поладозь
поладсы
поладызе
полазо
полакс
поланзо
полань
полвека
полдаська
поле
полева
полевая
полеви
полево
полевои
полежаев
полежаева
полежаи
полина
полинань
политехническои
политиздат
политик
политика
политикань
политикась
политики
политическая
политические
политическии
политических
политического
политическои
полиции
полк
полка
полковник
полконть
полконь
полконьветии
полкось
полкс
полку
полная
полного
полное
полнои
полномочного
полностью
полныи
половина
половине
половои
положение
полонсо
полонь
полоцкои
полу
полубояров
получась
получат
получизе
получил
получила
поль
польза
пользователеи
польск
польскии
польского
польское
польскои
польцо
польша
польшань
польшасо
поля
поляк
поляков
поляконь
полян
поляна
полянка
полянки
полянскии
полянского
полянскои
поляны
полярная
полярнои
померанцева
помидорт
помимо
помню
поморонь
помощи
помощник
помощь
пона
понав
поназ
поназырево
понань
понгавтозь
понги
понго
понгсть
понгсь
понижающих
понимание
понкст
пономаре
поп
попов
попова
поповка
популярная
популярнои
популярность
популярныи
пор
пора
поражением
порасто
порвоо
порецень
порецкои
пори
поркка
пороге
поротник
порт
портал
портале
портленд
порто
портр
портрет
портреты
портретэзэ
порту
португалия
португалонь
порядке
пос
посад
посадов
посадонь
посвящ
посвяще
посвященнои
посвященныи
посе
посевнои
поселение
поселении
поселения
поселениям
поселениях
поселка
поселкам
поселков
поселок
послание
после
последние
последнии
последняя
послесл
пособие
пособия
пособият
поспелов
пост
постанова
постановка
постановление
постоянного
поступась
посчитал
поте
потма
потманя
потмо
потмова
потмое
потмозо
потмоксось
потмомодань
потмонзо
потмонь
потмось
потмура
потом
потс
потсо
потсто
потьма
похвистнева
похвистневань
похвистнево
поцо
почвы
поче
почему
почета
почетнои
почетные
почетныи
починкань
починки
починковского
починок
починокъ
почко
почт
почта
почтань
почти
почтовои
почтовые
почтонь
почтсто
почты
пошаты
пошолмазо
поэзии
поэзия
поэзиянть
поэзиянь
поэзиясь
поэма
поэмазо
поэманзо
поэманть
поэмасонзо
поэмась
поэмат
поэмы
поэт
поэта
поэтесса
поэтессась
поэтика
поэтическое
поэтическои
поэтов
поэтом
поэтому
поэттнэнь
поэты
поэтэкс
поэтэнть
поэтэсь
пою
появасть
появась
появилась
появились
появился
появить
появления
появляется
пп
пра
прав
права
правазо
праванзо
правань
праваст
прават
праватнень
правах
правда
правде
праве
правил
правила
правилам
правильно
правительства
правительстванть
правительствань
правительствась
правительстве
правительство
правления
правлениянь
право
правовои
правовые
православие
православиянь
православияс
православная
православнои
правосудия
правтомс
прага
прагасо
прадм
праздник
праздники
празь
праи
практ
практическои
прамо
прамозо
прамонзо
прамонть
прамосо
прамосонть
прамостонть
прапор
прасковья
прасть
прась
пре
превеи
превензэ
превс
превть
преглед
пред
предания
предварительные
пределах
предисл
предисловие
предложения
предмет
предметт
предметэнь
предметэсь
предс
председателекс
председателем
председатель
председателя
представители
представитель
представительства
представителя
предшествующем
предыстория
президент
президента
президентом
президентэкс
президентэнть
президентэнь
президентэсь
президиума
президиумонь
премии
премию
премия
премиянть
премиянь
премиясо
премиясь
премьер
премьера
преобладающих
преп
преподаватель
пресня
пресс
прессе
прессы
при
прибавление
прибалтии
прибельская
прибелэнь
приведены
приволж
приволжск
приволжскии
приволжского
приволжское
приволжском
приволье
приговор
приднестровская
прие
приз
призе
призрен
призренэнь
призы
приказ
прикладнои
приключения
прил
прилагательнои
приложение
приложения
прим
примазь
применение
пример
примере
примеч
примечание
примечания
примечаниями
приморскии
приморскои
прине
принцесса
принципы
принят
приполярнои
припять
приравненных
природа
природе
природного
природнои
природныи
природных
природы
прирост
прироста
присвоении
приставкин
приток
приуралье
приуралья
причастия
причастиянть
причастиясь
причастият
причастиятне
приштина
приштинасо
приютово
про
проблем
проблема
проблематнень
проблемы
проведении
проверка
проверки
проверьте
провинции
провинция
провинциянть
провинциянь
провинциясо
провинциясь
провинциятнесэ
проводит
програма
программа
программанть
программань
программат
программе
программы
прогресс
прогулка
продештястонть
продюсер
проект
проекта
проекте
проекттэнть
проектэнть
проектэсь
проживания
проживающего
проза
прозаик
прозаикесь
прозань
прозаньсе
прозвище
прозе
прои
произведении
произведения
произведениянзо
произведениянть
произведениянь
произведенияст
произведеният
произведениятне
произведениях
производства
производствань
произношение
происходит
происхождение
происхождении
прок
прокин
прокопиу
прокопчук
прокофьев
промза
промкс
промксонть
промксонь
промксос
промксось
промкссонть
промыслы
промышленная
промышленное
промышленнои
промышленности
пронскои
проня
прописнои
просветители
просветитель
просветительное
просвещение
просвещения
просвещениянь
прости
просто
простого
простои
простор
пространство
протасово
протестантт
против
противотанкового
проф
профессионального
профессиональнои
профессия
профессиянь
профессор
профессора
профессорокс
профессоронть
профессоронь
профессорось
профиль
проходит
проходцова
прохоров
прохорович
процесс
процессов
процессы
проше
прошел
прошлого
прошлое
прошлом
пруст
пруста
пры
прыи
прыль
прыть
прыця
пря
пряв
прява
прявельтявкс
прявт
прявтветии
прявтвитницякс
прявтмасторонь
прявтнэ
прявтозатясь
прявтозо
прявтокс
прявтонть
прявтонь
прявтост
прявтось
прявтош
прявтошозо
прявтошокс
прявтошонь
прявтошось
прявтошсо
прявтредактор
прявтсо
прявтсоль
прявттнэ
прядо
прядови
прядовиль
прядовить
прядовома
прядовомадо
прядовомас
прядовомс
прядовомсто
прядовсь
прядозь
прядома
прядомадо
прядомадонзо
прядоманзо
прядомантень
прядоманьте
прядомс
прядомсто
прядсь
пряды
прядызе
прядызеть
прядынзе
прязо
прязонзо
прязост
пряка
прякань
прякат
прямо
прянзо
прянть
прянь
пряс
прясо
прясонзо
прясост
пряст
прясто
прястонть
прясуре
прясь
прят
прятне
прятнень
псака
псевдоним
псевдонимом
пси
психиатрии
психоаналитик
психолог
психология
псков
псковонь
птиц
птица
птицы
птолемеи
публикации
публикация
публиковазь
публикувазь
публикувизе
публицист
публичнои
пугаче
пула
пулаи
пулеме
пуло
пулозо
пулонзо
пулонть
пулось
пултазь
пултось
пулттнэнь
пултызь
пумбра
пуна
пункт
пункта
пунктам
пунктов
пунктуациянь
пункты
пупиця
пур
пурга
пургаз
пургазонь
пургине
пурды
пуре
пуркаев
пуркаево
пурнави
пурнавиль
пурнавильть
пурнавить
пурнавкс
пурнавксо
пурнавксозо
пурнавксонзо
пурнавксонтень
пурнавксонть
пурнавксонь
пурнавксос
пурнавксось
пурнавкссо
пурнавкст
пурнавкстнэ
пурнавкстонть
пурнавкшность
пурнавозь
пурнавсть
пурнавсь
пурназель
пурназельть
пурназь
пурнамо
пурнамова
пурнамонь
пурнамось
пурнамс
пурнасть
пурнась
пурны
пурнызе
пурныи
пурнынзе
пурныть
пурныця
пурныцязо
пурныцякс
пурныцясь
пурня
пуромить
пурьгине
пурьгинепаз
пурьгинепалакс
пусан
пусмо
пусмозо
пусмонзо
пусмонтень
пусмонть
пусмонь
пусмопрянь
пусмос
пусмосо
пусмосонть
пусмось
пусмот
пусмотнесэ
пустачеи
пусточеи
пусты
путеводитель
путевые
путеи
путешественников
путешествие
путешествия
пути
путневить
путнемс
путови
путовиль
путовить
путовкс
путозель
путозь
путома
путомасо
путомась
путомо
путомс
путонь
путсть
путсы
путсызь
путсь
путы
путызе
путызь
путыльть
путынзе
путыть
путыця
путыцязо
путыцякс
путь
путятинень
пучеж
пучежскои
пуччини
пуччининь
пушечникова
пушкань
пушкин
пушкина
пушкино
пушкинэнь
пушта
пуштазь
пуща
пхэньян
пциг
пчеловода
пшени
пшень
пшкади
пшкадсь
пшкадтяно
пшти
пштистэ
пылвамаа
пырма
пьеса
пьесанзо
пьесань
пьесась
пьесат
пьесы
пьяна
пэру
пянгелеи
пярну
пярнумаа
пятаев
пятаи
пяти
пятина
пятиязычныи
пятнистая
пятнистыи
пять
р
ра
рабат
рабиндранат
рабиндраната
работ
работа
работал
работе
работник
работников
работои
работу
работы
рабоче
рабочеи
рабочии
рав
раввинэнь
равнина
равно
равонть
равонь
равош
равошонь
равчирева
равчирень
рада
радаев
радаевень
радаи
ради
радин
радио
радиосо
радиостанции
радист
радом
радуга
радужныи
раз
разве
развитие
развитии
развития
разводов
разговор
разговорник
разговоры
разгуляева
раздел
раздела
разделе
раздельно
раздолье
разживин
разин
разина
разинэнь
различного
различных
размещение
размещения
размышления
разных
разо
разрезе
разума
разъезд
раи
раиль
раиса
рак
ракаи
ракеты
раки
ракоманьтеии
ракша
ракшанок
ракшань
ракшась
ракшат
ракшатне
ракшатненень
ракшатнень
ралем
раломанень
рам
рамаданбуева
рамаданбуесэ
рамазанов
рамазанова
рамазановна
рамалла
рамась
рамат
рами
рамизе
рамках
рамсеме
рамштед
ран
рана
раневская
раневскои
ранее
ранзо
раннее
ранних
ранобэ
рантень
ранть
ранцева
рань
ранязель
рапламаа
раптанов
расизаде
раскень
раскетнень
распоряжение
распоряжению
распределение
рассвет
рассказ
рассказов
рассказово
рассказы
расстрел
раст
раствора
растении
растения
расче
расчета
рась
раське
раськеденть
раськезэ
раськекоцтонь
раськекс
раськемасторонь
раськенек
раськензэ
раськентень
раськенть
раськень
раськест
раськестэ
раськесь
раськесэ
раськесэнть
раськетне
раськетнеде
раськетненень
раськетнень
раськеть
раськетьнень
раськеютконь
раськсень
рат
ратне
ратнень
ратор
раторонь
раужо
раужот
рафиков
рахимов
рахманка
рахмановка
рац
рацяня
раштамо
рашты
раштыця
рая
рб
рг
ргб
рго
ргу
рдест
рдыця
ре
реабилитации
реабилитация
реабилитирован
реакции
реалист
реалистическои
реальность
реальныи
ребе
ребровка
реве
ревель
ревень
ревизов
ревка
революции
революционер
революционнои
революция
революциядо
революциянь
регина
регион
региона
регионального
региональнои
региональныи
регионам
регионов
регионология
региононь
регионсо
регионы
ред
редактор
редакторокс
редакторонь
редакторось
редакторы
редакциеи
редакции
редакция
редакциясо
редакциясь
редизе
редкие
редкол
редька
редькин
реестр
реестра
реестрасонть
реестре
реж
режим
режиссе
резеповка
резиденциясь
результат
результатам
результате
результаты
резяпкин
реи
рек
река
реквием
реке
реки
реконструкции
рекордъ
ректор
религии
религиозная
религиознои
религиозные
религия
религиянь
религиятне
релиз
реме
рен
ренатои
ренберг
рене
рень
репештя
репортаж
репрессии
репсэсь
република
републике
републички
репье
репьевка
рес
респ
респу
республик
республика
республикакс
республикам
республиканская
республиканскии
республиканскои
республиканть
республикань
республикасо
республикасонть
республикась
республикат
республикатнесэ
республиках
республике
республики
респулика
рестазь
рестань
ресурс
ресурсов
ресурсы
ретороманонь
реформации
рец
рецензентнэ
речи
речка
речке
речки
речнои
речь
решение
решения
ржа
ри
риа
ривезенть
ривезень
ривезесь
ривезть
ривезь
рига
ригань
ригасо
риголетто
рижская
рижскии
рижскои
ризаня
рии
рика
рим
римень
римскои
римсэ
ринат
рине
рио
рипсимэ
рис
рисьме
рисьменть
рисьмень
рисьмес
рисьмесь
рисьминеть
рисэнь
риты
риф
рихард
риц
рица
ричард
ришон
рия
рк
рка
рки
ркка
ркп
ркс
рм
рма
рмав
рмадан
рмадеекс
рмадеенть
рмадеень
рмадеесь
рмадеи
рмадови
рмадовкс
рмадовксозо
рмадовксонзо
рмадовксонть
рмадовксонь
рмадовксось
рмадовкссо
рмадовкссонзо
рмадовкст
рмадовкстне
рмадовкстнесэ
рмадовкстнэ
рмадовкстнэнь
рмадовкстнэсэ
рмадозель
рмадозенть
рмадозь
рмадома
рмадоманень
рмадоманзо
рмадомантень
рмадоманть
рмадомань
рмадомасо
рмадомась
рмадомат
рмадомо
рмадомс
рмадомсто
рмадстоманть
рмадстызе
рмадсть
рмадсь
рмады
рмадызе
рмадызеть
рмадызь
рмадыи
рмадыль
рмадынзе
рмадыть
рмадыця
рмадыцязо
рмадыцякс
рмадыцянтень
рмадыцянть
рмадыцянь
рмадыцясь
рмадыцят
рмадыцятне
рмадыцятнень
рмалема
рмалеманть
рмалемасонть
рмалеме
рмалесть
рмалесь
рмань
рмас
рмат
рматне
рн
рна
рная
рник
рнои
рныи
ро
роберт
робич
роботанзо
роботань
роботась
роботник
ровенскои
ровное
ровныи
рогатыи
рогнеда
рогнеды
рого
роговои
род
рода
роде
родилась
родился
родин
родина
родине
родину
родины
родионова
родная
родник
родники
родниковскои
родного
роднои
родном
родному
родня
роднянзо
родовое
родригес
рождаемости
рождаемость
рождении
рождения
рожденныи
рождественское
роза
розань
розень
розика
розничнои
розовои
розы
розь
рои
рок
рока
роков
рокс
року
рокчизэ
рокчинзэ
роли
роль
ром
рома
роман
романа
романе
романист
романистокс
романов
романович
романовка
романозо
романонть
романонь
романось
романсонть
романт
романтизмань
ромашка
ромашкин
ромео
ромоданово
ромодановскии
рон
ронть
ронь
роо
рос
росарио
росс
росси
россии
россини
россия
россиянть
россиянь
россиясо
россияссо
росспэн
росстат
ростанка
ростов
ростовонь
ростовскои
росток
рось
роттердам
роштувань
роща
рощино
рпв
ррб
рскии
рственная
рственныи
рсфср
рт
ртая
ртищево
ртищевского
ртнемкась
ртови
ртозь
ртомс
ртсы
рты
ртыи
ру
рубеже
рубинскии
рудаз
рудазов
рудазонь
рудня
рудольф
руз
рузаевка
рузаевскии
рузанкин
рузанкина
рузкс
рузокс
рузонь
рузт
рузтнэ
рук
руки
руководители
руководитель
руководство
руководством
рукописень
рукописи
рум
румынии
румыния
румыниянь
румыниясо
румынэнь
рунго
рунгозо
рунгонзо
рунгонть
рунгонь
рунгосо
рунгост
рунгось
рунгот
рус
русень
руси
русск
русская
русски
русские
русскии
русским
русских
русско
русского
русское
русскои
русском
русскому
русскоязычныи
руссо
русь
руськина
русэ
рут
руця
ручин
рф
рхга
ры
рыбаковскии
рыбинск
рыбкинского
рыбновонь
рыбное
рыбныи
рыбы
рыгин
рыжая
рыжевка
рыза
рыи
рыне
рынем
рыненть
рынесь
рынетне
рынетнень
рынеть
рыскино
рыуге
рыугень
рышник
рь
рэд
рэзэкнэ
рэи
рюи
ря
рябка
рябов
рябова
рябовонь
ряд
рядовои
рядом
рядсек
ряжскои
ряз
рязанень
рязанская
рязанскии
рязанско
рязанского
рязанскои
рязань
ряховская
с
са
саам
саамань
саамов
саамонь
саамт
саамтнень
сааремаа
сааримаа
саба
сабаево
сабаново
сабанцеле
сабанчеево
сабина
сабирьяновна
саблятикше
сава
савва
сави
савин
савино
савкшнось
савкшны
саво
саврасово
савсь
сагит
сагиян
сад
садо
садовая
садовка
садоя
садпирень
садсо
саду
сае
саеви
саевить
саевкс
саевсь
саезель
саезь
саема
саеманть
саемга
саеме
саемс
саемстэ
саензат
сазан
сазоновка
сазь
саи
саизе
саизеть
саизь
саиль
саинзе
саить
саиця
сак
сакалов
сакмара
сакулька
сакшнодо
сакшность
сакшнось
сакшны
сакшныть
сал
салава
салават
салавата
салаватонь
салазгорь
салат
салачик
салвадор
салгир
салдыркс
салма
салманьбие
салмат
салмукс
салмуксоньзалыи
салов
саловка
салон
салонь
салт
салтозь
салтомо
салы
салыи
сальвадор
салют
салями
сам
сама
самаевка
самаи
самар
самара
самарань
самарканд
самаркин
самарская
самарскои
самая
самбир
самбиронь
само
самодо
самозлеи
самои
самоле
самом
самообразование
самородов
самоуправления
самошкин
самс
самтавро
самур
самые
самыи
самым
самых
сан
сана
сандеи
санджак
санджаконь
сандиков
сандра
санеевка
санки
санкт
санта
санто
сантьяго
сантяи
санчурск
сапожок
сапоньундокс
сар
сара
сарагоса
сараева
сараево
сараз
саразонь
саразось
сараи
саран
саранонь
саранск
саранска
саранске
саранского
саранскоев
саранскоень
саранскои
сарансо
сарапул
сарапульскои
сарат
саратов
саратовань
саратовонь
саратовская
саратовскии
саратовского
саратовскои
сарга
сарка
сарлеи
саров
сары
сарысу
сасово
сасовонь
састо
састыне
састынькине
састь
сась
сатирань
сатис
сатка
сато
саттар
саты
сатышка
саудовонь
саудовская
саудовскои
сауле
сауэ
сафа
сафаровка
сафонова
саха
сахалинские
сахалинстат
сахалинэнь
сахара
сахор
саша
сб
сборник
сборника
сборники
сборноенть
сборнои
св
свадьба
свадьбадо
свадьбантень
свадьбань
свадьбас
свадьбась
свал
свалшкань
сванэтиянь
сванэтиясь
сваханть
свахась
сведении
сведения
сведениям
свентокшинэнь
свербеи
свердловонь
свердловск
свет
света
свете
светлана
светлая
светлыи
свету
свеча
свобода
свободе
свободныи
свободы
свод
свое
своего
своеи
своем
свои
своим
своих
свою
свыше
связеи
связень
связи
святая
святкин
свято
святого
святои
святых
сделать
сдобников
се
себастьян
себе
себя
сев
севан
севастополь
севера
северин
северная
севернее
северного
севернои
северном
северныи
северо
северодвинск
северодвинскои
севилья
севонь
сегед
сегодня
седе
седее
седеезэ
седеем
седеень
седеест
седеи
седело
седеяк
седи
седидеи
седидии
седиень
седии
седиця
седицятнень
седоголовыи
седои
седь
седэ
седямо
седямонть
седямонь
седямоньсе
седямосо
седямось
седясь
сееде
сеедьстэ
сеель
сеетьстэ
сезеви
сезевсь
сеземс
сезизе
сезон
сезононь
сезонсонть
сезьган
сезяка
сезялтикше
сеи
сек
секе
секень
секр
секретарекс
секретаресь
секретарь
секретно
секс
секскак
сексолог
сексуальнои
сексэнь
секторонь
секциянь
сел
села
селам
селе
селеи
селиванов
селим
селища
селище
селищи
село
селу
сельведть
сельведь
сельма
сельме
сельмензэ
сельменть
сельмень
сельмесь
сельметикше
сельметь
сельмс
сельмсэ
сельмть
сельская
сельские
сельскии
сельским
сельских
сельского
сельское
сельскои
сельскохоз
сельскохозяи
сельсовет
сельсовета
сельсоветов
сельхозгиз
сельцо
селя
селякась
сем
семантическая
семантического
семе
семеи
семен
семенович
семеновка
семеновна
семея
семилеи
семинар
семинариянть
семинариясо
семиотик
семия
семияверькс
семиянзо
семиянтень
семиянть
семиянь
семияньте
семиясо
семиясонть
семиясто
семиястонть
семиясь
семс
семь
семье
семьи
семья
сен
сенгилеи
сендру
сендявкс
сендявксонть
сендявксонь
сендявксос
сенень
сензэ
сенксь
сент
сентябре
сентябрь
сентября
сень
сеньсэ
сеняш
сер
серабои
серафим
серафима
серая
серб
сербань
сербень
сербии
сербия
сербиянь
сербиясо
сербохорв
сербская
сербскои
сербт
сербэнь
сервис
сергач
сергеевич
сергеевна
сергеевнань
сергеи
сергея
сергиевское
серджиу
сердобонь
сердобск
сердобскии
сердца
сердце
сердцем
сере
серебренникова
серебряныи
середине
середины
серезэ
сереи
сержант
сери
серии
серия
сериянь
сериясо
сермадеень
сермадеи
сермадозь
сермадсь
сермадыця
серменево
сернуронь
серов
серова
серои
серыи
серьгеди
серьгедить
серьгедсь
серьгу
серье
серьсэ
серэи
серэсь
сес
сеск
сеске
сеславинская
сессии
сесте
сестра
сестэ
сестэяк
сетне
сетнень
сеть
сетяля
сеул
сех
сехте
сехтэ
сечень
сея
си
сиань
сибаи
сиби
сибирев
сибирень
сибири
сибирская
сибирскии
сибирьсэ
сибиряк
сивас
сиваш
сивинь
сигал
сиднеи
сидоров
сизьгемень
сии
сил
сила
силино
силы
сим
симбирень
симбирск
симбирскои
симбирь
симбухово
символ
символика
симема
симемапель
симеме
симень
симилеи
симкина
симкино
симона
симпсонтнэнь
симферополь
симфоническои
симфония
сина
сингапур
синдрово
синевир
сини
сино
синонимень
синтаксис
синти
сины
синь
сиразитдинов
сире
сирелиус
сирень
сирия
сирть
сисем
сисемеце
систем
система
системанть
системань
системасо
системасонть
системась
систематика
систематическии
системе
системные
системы
ситдиковои
ситдыкова
сити
ситникова
ситуация
ситуациянть
сить
сих
сиэтл
сия
сияжар
сияка
сиянь
ск
ска
скажи
сказал
сказание
сказать
сказка
сказки
скал
скалбе
скалои
скалонь
скандал
ская
сквозь
скворец
ские
скии
ским
ских
ско
скобелев
скобках
ского
ское
скоень
скои
ском
скому
скончался
скопин
скопинень
скопье
скопьесэ
скрипка
скрипкань
скрипки
скрябино
скрябін
скулме
скульптор
скульпторонть
скульптура
скульптурань
скямонь
сл
слава
славань
славка
славко
славы
славянонь
слаим
слалом
сле
след
следует
слитно
слишком
слобода
слободские
слободскои
слов
слова
словак
словакии
словакия
словакиянь
словакиясо
словаконь
словам
словаре
словареи
словари
словарь
словаря
словах
слове
словен
словения
словениянь
словенэнь
словесности
слово
словоизменение
словообразование
словообразования
слогонь
слои
служамо
служась
служба
службу
службы
служение
служи
служил
случае
случаи
слушать
слэн
см
сман
смбат
смелев
смерти
смертности
смертность
смерть
смешан
смешанного
сми
смидовича
смирнов
смирнова
смирновка
смит
смоле
смоленск
смоленэнь
смольково
сморо
смородин
смородина
смустезе
смустезэ
смустензэ
смустенть
смустень
смустест
смустесь
смустнень
смусть
смысл
снартнесь
снартни
сначала
сная
снг
снег
снега
снеть
снимамо
снк
снм
сносок
снп
сныи
со
соавт
соавторстве
собачка
собинка
собои
собор
соборонь
собр
собрание
собранием
собрания
собраниянь
собственных
событии
события
сов
сова
совави
совавтови
совавтовить
совавтозель
совавтозельть
совавтозь
совавтома
совавтомс
совавтсь
совавты
совак
совамо
совамодо
совамось
совамс
совамсто
совасть
совась
совершенно
совесть
совет
совета
совете
советень
советов
советс
советск
советская
советскии
советских
советского
советское
советскои
советэнть
советэнь
сови
совии
совиль
совить
совиця
совицякс
совместно
современная
современник
современников
современного
современное
современнои
современном
современности
современность
современные
современныи
современных
совсем
совсесь
совси
совхоз
согласно
согласнои
сода
содави
содавикс
содавиксев
содавикст
содавиксэв
содавиксэвикс
содавиксэвть
содавиксэкс
содавить
содавиця
содавсь
содазо
содазь
содамо
содамое
содамонть
содамочи
содамочинть
содамочинь
содамочись
содамочить
содамс
содан
содасть
содасы
содасызь
содась
содат
содатано
содержание
содержаниянть
содержимого
соды
содыдеекс
содыдеи
содыень
содыи
содылизь
содыль
содыть
содыця
содыцякс
содыцят
создание
создания
создатель
созыв
созэ
сои
соискание
сок
соказь
сокамо
сокить
сокиця
сокицянь
сокол
соколов
соколова
сокольскои
сокор
сократ
сокровища
сокссо
соламо
солдатонь
соли
солигалич
солигаличень
солист
солистка
солистки
солнечныи
солнца
солнце
солнышко
соло
соловеи
соловецкии
соловье
соловьев
солы
соль
сом
сомаи
сомбатхеи
сон
соната
сонгак
сондензэ
сонензэ
сонзе
сонзо
сонзэ
сонзэяк
сонсь
сонськак
сонть
сонь
соня
сообщ
сообщества
сообщество
соответствующего
соответствующую
сопрано
сопредельных
сопровожд
сопс
сорныця
сорока
сорокопу
сорокопут
сортавалань
сослагательнои
сосновка
сосновоборскои
сосновскии
сосновыи
сосногорск
сосны
сост
состав
состава
составе
составители
составитель
составление
составленные
составу
состоялась
состоялся
состояние
состоянии
состоянию
состояния
сосудистых
сотрудник
сотрудникекс
сотрудничество
софи
софин
софия
софокл
софокла
софьино
софья
социал
социалень
социалист
социалистического
социалистическои
социалистэнь
социальная
социально
социальное
социальнои
социальные
социальным
социолог
социологии
социологических
социологическои
социология
социологиянь
соч
сочи
сочинении
сочинения
сочисэ
сош
союз
союза
союзных
союзонь
союзось
союзс
союзу
спа
спарроу
спас
спасибо
спасонь
спасск
спасскии
спасского
спасское
спасскои
спассонь
спб
спбгу
спектакль
спектаклясо
специалист
специальнои
специальностенть
специальностень
специальныи
спид
спиридонов
списка
спискас
спискась
списке
списки
списку
список
сплит
спокои
спорт
спорта
спортава
спортивнои
спортивныи
спортонь
спортсмен
спортце
способов
справ
справка
справочная
справочник
справочнике
справочные
справочныи
спринтсэ
спутник
ср
сравнительно
сравнительнои
сравтови
сравтовозь
сравтовсь
сравтомо
срадыть
сразу
сре
сред
среди
средиземныи
средне
средневековои
среднего
среднегодовая
среднеи
среднем
среднии
средняя
средства
среды
срок
српска
српске
сс
сскии
сср
ссср
сссрень
сссрнь
сссрсэ
сссрэнь
ссылка
ссылками
ссылке
ссылки
ссылку
ссылок
ст
ста
ставангер
ставрополень
ставрополь
ставропольского
стадиононть
стазь
стака
стакаатлет
стакаль
стакасто
стакачитнеде
стакачитнень
стал
стала
стали
сталин
сталина
сталинская
сталинэнь
сталкер
сталмозо
сталмосо
сталмост
сталмось
стало
стамбарнэ
стамбул
стамбулонь
стан
станислав
становление
становления
станции
станция
станциянть
станциястонть
станциясь
старая
стареи
старина
старинные
старого
старое
старожилово
старожиловонь
старожиловскии
старои
старостанть
старостась
старостихась
старошаи
старшеи
старшии
старые
старыи
стасть
стат
статбель
статеи
статистика
статистикань
статистикась
статистике
статистики
статистику
статистическая
статистические
статистическии
статистического
статистическое
статистическои
статистичнии
статус
статуса
статусе
статусом
статусось
статуясь
стать
статье
статьи
статью
статья
статьянь
статьясь
статьят
статьятнень
стая
стб
ств
ства
ствань
ствасо
ствась
стват
стве
ственного
ственнои
ствие
ствительнои
ствительность
ствия
ство
сте
стекло
стена
стенас
степа
степан
степана
степанов
степанович
степановка
степановна
степенень
степени
степень
степи
степная
степное
степнои
стер
стереотип
стерлитамак
стерлитамаконь
стест
стефан
стефания
сти
стилистика
стилистикась
стиль
стильсэ
стиля
стипендия
стить
стихензэ
стихень
стихи
стихов
стихотворения
стихотворениянзо
стихотворениянь
стихотвореният
стихсэ
стихт
стихть
стная
стник
стныи
стнэнь
сто
стогово
стодола
стои
сток
стокгольм
стокольм
столетия
столица
столице
столовои
столь
стомо
стонь
стопы
стор
сторона
стороны
сторось
сточка
стоякович
стр
страдательнои
стран
страна
стране
страниц
страница
страницы
страничка
странник
странныи
страны
стрекоз
стрекозы
стрелецкая
стрелка
стрелковая
стрелкового
стрелковои
стрельниково
стрикленд
стриклендэнь
стрип
строения
строи
строитель
строительнои
строительство
строительству
строке
стронгест
строчнои
строязель
структура
структурными
структуры
струнного
струннои
струнныи
стрыень
стрыи
стряпчеи
стувтне
стувто
стувтовозь
стувтозь
студенец
студент
студентов
студентт
студентэнь
студии
студия
студиянть
студиянь
студиясо
стыи
стыть
сть
стэ
стэдензэ
стэдест
стэнзэ
стэнть
стэнь
стэст
стявтозель
стявтозь
стявтомазо
стявтомась
стявтызе
стявтызь
стядо
стязь
стяко
стякодо
стяконь
стямо
стямс
стясь
су
субъект
субъектам
субъектов
сув
сувар
сувениры
сувозеи
суворина
суд
суда
судак
судан
суджук
судизь
судиславль
судицятне
судо
судогда
судом
судонть
судонь
судось
судьба
судьбы
судья
судязь
судямонень
сузгарье
суздалень
суздаль
суздаля
суи
сукс
сулеи
султан
султанов
султанова
султанонь
сульдина
сульмии
сумгин
суммы
сумы
суна
сундерьков
сундерьковонь
сундерьковсто
сунжа
суннитт
суннитэнь
сунь
суньдерьковонь
сунэнь
суом
суоми
суоминь
суомисэ
суомить
суперлига
суподеевка
сур
сура
сураи
сурань
сурвеле
сурвелесэ
сургут
сурдин
суре
сурень
суреть
суркино
сурков
суркова
суркс
суро
суродеев
суродеевка
сурок
суронь
сурсеме
сурсемень
сурские
сурсо
сусанино
сусик
суслик
суслоны
сусорева
суурлахт
суфражистка
суффикс
суффикст
суффикстнэ
суффикстнэнь
суффиксэнть
суффиксэсь
сухарева
сухая
сухои
сушкова
существительного
существительноесь
существительнои
существующих
сфере
сфрю
схема
схемы
схоз
схозонь
схозсо
схпк
сцена
сценань
сценариень
сценарист
сцене
сценограф
сцены
счастливая
счастье
счастья
считается
считаются
сша
съ
съезда
съездсэ
съездэнь
сы
сывелень
сывелесь
сывель
сывельде
сывельстэ
сызь
сыктывдинэнь
сыктывкар
сыль
сын
сына
сынек
сыненст
сынест
сынзе
сынст
сынсь
сынь
сыр
сыргасть
сыргась
сырги
сыргозема
сыре
сыреждиця
сыреси
сыресь
сырне
сырнень
сырое
сырькаи
сырьнень
сырятино
сытина
сыть
сыця
сыцятне
сычковонь
сь
ськамонзо
ськамост
ськамот
ськамочинь
сэ
сэденть
сэдень
сэдесь
сэдь
сэльге
сэм
сэнди
сэндии
сэндявкс
сэндявксов
сэндявксонтень
сэндявксонть
сэндявксонь
сэндявксос
сэндявксось
сэндявкссо
сэндявкссэ
сэндявкст
сэндявкстнэнь
сэндявкстнэс
сэндявксэнь
сэндявозь
сэндязь
сэндямо
сэндямс
сэнек
сэнзе
сэнзэ
сэнть
сэнь
сэньветидеи
сэньветии
сэньдеии
сэньдявкс
сэньпря
сэпеи
сэпень
сэрдятнень
сэреди
сэредькс
сэредьксэсь
сэрезэ
сэреи
сэрензэ
сэренть
сэрень
сэрест
сэресь
сэрь
сэрьге
сэрьс
сэрьсэ
сэря
сэст
сэсэн
сэть
сэтьме
сэтьмечи
сэх
сэяк
сю
сювозь
сюжет
сюзан
сюкони
сюконить
сюконьчи
сюконямо
сюконян
сюкорот
сюкпря
сюкпрянок
сюкпрят
сюлгамо
сюлмави
сюлмавить
сюлмавкс
сюлмавкст
сюлмавозь
сюлмазь
сюлмамо
сюлмасызь
сюлми
сюлмить
сюлмиця
сюмси
сюнь
сюпав
сюпавт
сюпавчи
сюпавчинь
сюр
сюракшов
сюрковонь
сюро
сюронь
сюрот
сююмбике
ся
сядо
сядодо
сядонь
сядот
сядошка
сянглеензэ
сянглеенть
сянглеи
сянголеи
сянен
сяненэнь
сярдо
сярко
сятко
сяткт
січня
т
та
табл
таблица
таблицу
таблицы
тавла
тавласо
тавцан
таганов
тагановонь
тагир
тагиров
таго
тагор
тагора
тагояк
тад
таджикень
таджикистан
тази
тазино
таи
таиланд
таиланда
так
такая
также
такие
таким
таких
такое
такои
таксона
таксоне
таксономии
талант
таланта
таликазо
таллин
таллинн
таллиннсэ
таллиннэнь
таллинэнь
там
тамара
тамаш
тамаша
тамбов
тамбовонь
тамбовскои
тамилэнь
таммер
тампере
тан
таналык
тандат
танец
танзания
танковыи
танконь
танстень
тансть
тантеи
танца
танып
таня
тапазь
тапамс
тар
тара
тарад
тарадов
тарадонзо
тарадонь
тарадт
таразбиесэ
таранонь
тарас
тарасов
тарасова
тарасполь
таратынов
таргави
таргазь
таргань
таргась
таргить
тарго
таргонть
таргонь
таргочи
тарка
таркав
таркава
таркаванть
таркадо
тарказо
тарказоль
тарказонзо
таркакс
тарканзо
таркантень
тарканть
таркань
таркас
таркасо
таркасонзо
таркасонть
таркаст
таркасто
таркастонзо
таркастонть
таркась
таркат
таркатне
таркатнева
таркатнеде
таркатнень
таркатнестэ
таркатнесэ
тарковскии
тарковского
тарковском
тарту
тартумаа
тартунь
тарья
тасс
тасср
тат
татар
татарии
татарка
татаронь
татарская
татарские
татарскии
татарского
татарское
татарскои
татарстан
татарстана
татарстане
татарстанонь
татарстансо
татарт
татартнэ
татартнэнь
татарумарь
татары
татищево
татищевонь
татрань
татрат
татры
татьяна
тау
таш
ташкент
ташкентэнь
ташт
таштавкс
таштамков
таштамковонь
таштамковсто
ташто
тая
тбилиси
тбилисинь
тв
твен
тверень
тверскои
творческая
творческии
творческои
творчества
творчествань
творчестве
творчество
твоя
те
театр
театра
театраань
театрализовань
театральная
театральнои
театранть
театрань
театраньветиця
театрасо
театрасонть
театрась
театратнесэ
театре
тебе
теборг
тебриз
тебя
тев
тевветии
тевезэ
тевекс
тевелявонь
тевендеи
тевензэ
тевентень
тевенть
тевень
тевест
тевесь
тевс
тевсэ
тевсэнзэ
тевсэнть
тевтееманть
тевтеии
тевтеиця
тевтеицясь
тевтеме
тевтне
тевтнеде
тевтнень
тевтнесэ
тевть
тевтьветии
тег
тега
тегеран
тегеранонь
тегов
теде
тее
теевезь
теевема
теевемс
тееви
теевиль
теевить
теевиця
теевкс
теевкст
теевксэнзэ
теевксэнть
теевксэсь
теевсть
теевсь
теевть
теезель
теезельть
теезь
теема
теемадо
теемазо
тееманзо
теемант
теемантень
тееманть
теемань
теемасо
теемась
тееме
теемзэ
теемс
теемсть
теемстэ
теемсь
тез
тезисы
тезэнь
теи
теидии
теизе
теизь
теизэ
теии
теиль
теильть
теине
теинзе
теить
теиця
теицязо
теицякс
теицянь
теицясь
теицят
теицятне
теицятнестэ
теке
текень
текст
текста
тексте
текстов
тексты
тектоникань
текущего
тел
теле
телевидение
телевидениясо
телеканал
телеки
теленевтемань
теленть
телень
телепрограммань
телесь
телина
тель
телькеш
тельня
тем
тема
теманть
теме
темников
темниковскии
темниковского
температура
температуразо
температурась
тенант
тенгрианство
тенденции
тенек
тенень
тензе
тензэ
тени
тенишево
тенк
тенор
тенст
тенсть
тенть
тень
теньгушбуесэ
теньгушевскии
тенько
теньсэ
теоретик
теоретическои
теории
теория
теориянть
теориянь
теориясь
теперь
тепловка
тер
терапиянь
тердезель
тердезь
тердема
тердемань
тердеме
тердемс
терди
тердизе
тердизь
тердинек
тердить
тердсь
тере
терез
тереза
терезия
терезэ
терек
терекень
терекесь
терекс
терензэ
теренть
терентьева
терень
терест
тересь
теризморга
терк
термальнои
термин
терминов
терминтнэнь
терминэсь
терне
тернеть
терра
территориального
территориальное
территориальнои
территориальном
территориальному
территориальныи
территориальных
территории
территория
территориясо
территориясь
террора
терско
терскои
тертне
тертнень
терть
терь
терьава
терьавань
терьават
терька
терьканть
терькась
терькат
терькс
терьлем
терявты
терявтыть
тесе
теске
тестэ
тесь
тесэ
тесэнь
тетрадь
теть
тетюши
тетя
тетязо
тетяи
тетякаи
тетякс
тетям
тетянзо
тетянь
тетяст
тетясь
тефта
тех
техника
техникань
техникасо
техники
техникум
техникумонть
техникумонь
техникумсо
техническии
техническои
технологии
технологиянь
течение
течи
течинь
тешкс
тешкссэ
тешкст
тешкстави
тешкстазь
тешкстамс
тешкстасынек
тешкстась
тешкстнэ
тешксты
тешкстызе
тешкстыть
тешкстэсь
тешксэв
тешксэнть
тешксэнь
тешксэсь
тешнярь
теште
тештенть
тештень
тештеть
тештине
тея
ти
тибетэнь
тибор
тигран
тии
тикше
тикшезэ
тикшекс
тикшенсетнень
тикшенть
тикшень
тикшесь
тикшетне
тикшетнень
тикшеть
тимин
тимо
тимор
тимофеевич
тимофеи
тимьян
тимьянлопань
тин
тинг
тинге
тингенть
тинги
тип
типа
типень
типо
типография
типу
типы
тираж
тирана
тирасполь
тире
тиринем
тиринь
титан
тифлис
тихомиров
тихон
тихонова
тихонович
тишина
тишины
тишков
тия
тка
ткач
ткаченко
тная
тне
тнеде
тненень
тнень
тнес
тнестэ
тнесэ
тно
тного
тнои
тнт
тныи
тнэнь
то
тов
товарищества
товарищество
товзюро
товзюронь
тович
товонь
товт
тогда
того
тодов
тодор
тож
тозонь
тои
токамс
токар
токаре
токарчук
токи
токио
токмово
тол
толаи
толганзо
толгань
толкаи
толкан
толканонь
толковамот
толковка
толковыи
толку
толкун
толкунонь
толнэ
толонть
толонь
толось
толсо
толстого
толстоень
толстои
толстом
толт
только
тольятти
том
тома
томас
томах
томба
томбале
томбалев
томбалеяк
томбамонь
томислав
томо
томов
томова
томонь
томось
томск
томскоень
томсо
томт
тому
тон
тона
тонавтне
тонавтнема
тонавтнемадо
тонавтнеманзо
тонавтнемантень
тонавтнеманть
тонавтнемань
тонавтнемась
тонавтнеме
тонавтнемс
тонавтнемстэ
тонавтнесть
тонавтнесь
тонавтни
тонавтнить
тонавтниця
тонавтницязо
тонавтницякс
тонавтницянзо
тонавтницянь
тонавтницят
тонавтницятне
тонавтницятнень
тонавтозь
тонавтома
тонавтоманть
тонавтомань
тонавтомасо
тонавтомо
тонавтомс
тонавтсть
тонавтсь
тонавты
тонавтыи
тонавтыть
тонавтыця
тонавтыцязо
тонавтыцякс
тонавтыцянь
тонавтыцясь
тонавтыцят
тонавтыцятне
тонавтыцятненень
тонавтыцятнень
тонадеи
тонадсь
тонань
тонась
тоначив
тонгозь
тонеть
тони
тонкинэнь
тонконог
тоннат
тонть
тонь
топавтови
топавтозь
топавтома
топавтомаст
топавтомо
топавтомс
топавтомсто
топавтсь
топавты
топавтыть
топавтыця
топелиус
топелиусэнь
топо
топографическая
топодемати
топодсть
топоним
топонимии
топонимика
топонимики
топонимическии
топонимическои
топонимия
топонимов
топонимт
топоформант
топянои
тор
торама
торамань
торбеева
торбеевского
торбеи
торвальдс
торговли
торн
торо
торонто
торпинге
торпингенть
торпингень
торпингесь
торпингесэ
торунь
торъял
тоска
тоско
тосконь
тосо
тосонь
тосто
тот
точка
точки
точку
тр
тра
трава
травиата
травме
трагедия
трад
традиции
традиционная
традиционнои
традиционные
традиция
тракаи
трактат
трамп
трампа
трампонь
транзеи
трансильвания
транспорт
транспорта
транспортонь
тре
трезморга
треи
тремасов
тренер
тренерэкс
третии
треть
третьего
третья
три
триба
трибуна
триполи
трить
триця
трогир
трои
троицко
троицкои
трокс
тролль
тромсе
тронхеи
трофимовщина
труба
труд
труда
трудностеи
трудов
трудового
трудовои
трудонь
труды
трутовик
трушкина
трямо
тс
тся
тт
ттнень
ту
тува
тувака
туве
туво
тувонь
тувот
тувтал
тувталокс
тувталонь
тувталось
туеде
туема
туемадо
туемс
туемстэ
тужа
тужинэнь
туи
туильть
туить
туиця
тук
тула
тулань
тулча
тумаи
тумо
тумоатякш
тумобуе
тумобуень
тумобуесэ
тумовирень
тумонь
тумопанго
тумот
тунда
тундо
тундонть
тундонь
тундось
тунис
тунисия
тунь
туньшонь
тур
тура
турвань
турдаки
турдаково
турек
турекскии
турема
туремасо
турецкая
турецкои
туризм
туризма
туризмань
турин
туристическии
туристскии
туристт
туристэнь
туркань
туркатнень
турки
туркменистан
туркмения
турконь
турку
туро
туртов
туртовгак
турунен
турции
турция
турциянь
турциясо
тусто
тусть
тусь
тутко
тчик
търново
ты
тыи
тыква
тыненк
тыниссон
тынк
тынь
тыргак
тыргу
тырдаз
тыс
тысяч
тысячелетия
тысячели
тысячи
тышко
ть
тькенть
тьне
тьсэндявкс
тэ
тэрнопиль
тэрнопилэнь
тэсалоники
тюжа
тюжат
тюи
тюльпан
тюменень
тюменскои
тюмень
тюрема
тюремадо
тюреманть
тюремань
тюремасо
тюремасонть
тюремась
тюремат
тюриця
тюрк
тюркань
тюркология
тюрконь
тюркских
тюрсь
тюрьмас
тюрьмасо
тюс
тюсозо
тюсонзо
тюсонть
тюсонь
тюсост
тюсось
тюссо
тюстонь
тюштя
тюштядо
тюштянь
тягловка
тягушев
тян
тянонь
тянь
тяньцзинь
тяпаев
тятер
төи
у
уаи
убрать
ува
увабуе
увалисто
увалонь
уварович
уводь
углич
угол
уголовно
уголок
уголсо
угор
угорская
угорские
угорскии
угорских
угорского
угорское
угорскои
угорском
угрань
угристика
угроведение
угроведения
угроведов
угры
уда
удалась
удалению
удалите
удалкс
удало
удалов
удалсь
удалы
удалять
ударение
ударные
удельнои
удем
удм
удмурт
удмуртии
удмуртия
удмуртов
удмуртонь
удмуртского
удмуртскои
удмуртт
удобныи
удок
удома
удомо
уды
удэ
уезд
уезда
уезде
уездныи
уездсэ
уездэнь
уездэсь
уефа
уж
ужгород
уже
ужкал
ужо
ужовка
ужово
ужос
ужосо
ужосто
уза
узбекень
узбекистан
узбекистана
узел
узень
узия
узкоколеи
узколистныи
узян
уи
уильям
ук
указ
указавших
указали
указан
указанием
указания
указатель
указать
уклад
укр
украина
украинань
украинасо
украинецт
украинскои
украины
украі
укшныця
укштор
укшторонь
ул
улан
уле
улевель
улевельть
уледе
улезэ
улема
улеманзо
улемань
улемась
улеме
улемс
улемстэ
улест
ули
улиндеряи
улипаронзо
улить
улица
улице
улицы
улиця
улицякс
улицянть
улицянь
улицясь
улицят
улицятне
улицятнень
улу
улы
ульне
ульнезь
ульнесть
ульнесь
ульни
ульнинь
ульсть
ульсь
ульть
ульхть
ульяна
ульянов
ульяновка
ульяновск
ульяновская
ульяновскои
ульянонь
улян
улянка
умаа
умарень
умарина
умаринань
умарь
умарьков
умарьковонь
умарьковсто
умарькс
умбрав
уме
умение
умер
умет
умирать
умок
умонь
умыс
ун
ундо
ундокс
ундоксозо
ундоксонзо
ундоксонь
ундоксось
ундокст
унжа
унжат
уни
университет
университета
университете
университетс
университетсэ
университетсэнть
университетэв
университетэнть
университетэнь
университетэсь
унинэнь
уничтожена
унтер
унто
уолш
упоминается
упр
управление
управления
управлениянь
ур
уразовка
ураи
урал
урала
уралга
урале
урало
уралонть
уралонь
уралось
уралсо
уралтау
уральскии
уральского
уральскои
урбанизация
урбанизациясь
урду
уре
уреи
урень
уржум
уржумонь
уржумскии
уркат
урледим
урнемат
урни
уро
уровне
уровня
уроженцы
уроз
уроки
уроконь
урокт
уронь
уроньпуло
уропеи
урось
урош
урср
урсс
урт
уругваи
урух
урхо
уршак
урьвакстыцянть
урядыця
уса
усад
усадьба
усадьбы
усинск
усия
усиянтень
усиянть
усиянь
усиясо
усиясонть
усиясь
усият
усиятнень
усиятнесэ
уски
ускизь
ускляи
ускозь
условии
условиясо
условиях
условно
условнои
условности
усмань
усовка
успех
усср
уссури
устав
устави
установлении
устинович
устно
устнои
устрои
усть
устье
устья
устьянень
уськиреи
усьтэм
утверждении
утворення
утка
уткин
утомсо
утяшева
уфа
уфань
уфасо
уфе
уфимскии
уфимского
уфимскои
ухта
уцяска
уцяскав
уцяскань
уч
учаев
учаевень
учаи
учалинэнь
учалы
участвовал
участие
участии
участия
участкась
участник
участника
участники
участников
учащихся
учватов
уче
учеб
учебник
учебно
учебное
учебнои
учебных
учеваткин
учение
учении
учения
ученого
ученоесь
ученои
ученые
ученыи
ученых
учи
училища
училищанть
училищань
училищасо
училище
учителеи
учитель
учителя
учо
учомс
учонь
учось
учредительнои
учреждение
учреждения
уш
ушаковка
ушмадеи
ушман
ушманонь
ушманось
ушмант
ушмантнэ
ушмантнэнь
ушмовии
ушмодеень
ушмодеи
ушмонь
ушмотне
ушмотнень
ушо
ушов
ушодкс
ушодксо
ушодксозо
ушодксокс
ушодксонь
ушодкссо
ушодови
ушодовить
ушодовомсто
ушодовсть
ушодовсь
ушодозь
ушодома
ушодоманть
ушодомс
ушодомсто
ушодсть
ушодсы
ушодсь
ушоды
ушодызе
ушодызь
ушодыть
ушодыця
ушодыцякс
ушонь
ушосо
уѣздъ
ф
фа
фадеевич
фаи
фаина
фак
фактах
фактов
фактория
факторы
факты
факультет
факультета
факультетс
факультетсэ
факультетт
факультетэнть
факультетэнь
фале
фамилии
фамилия
фамилиязо
фаниль
фанни
фантазия
фантаст
фарерэнь
фарзана
фармакогностическии
фарси
фасмер
фасоль
фатих
фатя
фауна
фауне
фауны
фауст
фахрониса
фгбоу
фгуп
фе
февр
февраля
федаи
федер
федеральная
федерального
федеральное
федеральнои
федеральном
федеральныи
федеральным
федеральных
федерации
федерация
федерациянть
федерациянь
федор
федорович
федоровка
федоровскии
федосеева
федосов
федот
федотов
феи
фелисити
фельдман
феминистка
феминистонь
феминистэнь
феникс
феномен
феодализма
феоктистов
фердинанд
ференц
феррара
фес
фестивале
фестивалень
фестивалесь
фестиваль
фестивальсэ
фестиваля
фз
фи
фиг
фигурань
физик
физика
физикань
физики
физико
физикэсь
физиологического
физические
физическои
филадельфия
филатов
филиал
филип
филипп
филиппов
филиппович
филол
филолог
филологии
филологические
филологических
филологическои
филология
филологиянь
философ
философии
философия
философиянть
философиянь
философонь
философская
философские
философскии
философских
философско
философское
философскои
фильм
фильма
фильманть
фильмасонть
фильмась
фильме
фильмография
фильму
фильмы
фин
финалс
финансонь
финансы
финляндии
финляндия
финляндиянь
финляндиясо
финно
финнов
финноугория
финнэнь
финскии
финских
финского
финскои
финэнь
фирма
фирстов
фитонимы
фифа
фишер
флаг
флагонтень
флеи
флинт
флора
флоренции
флоренция
флорида
фо
фокин
фолк
фольклор
фольклора
фольклоре
фольклорист
фольклорнои
фольклорныи
фольклоронть
фольклоронь
фольклорось
фома
фомин
фон
фонд
фонда
фондонть
фондось
фоне
фонетика
форель
форм
форма
формальнои
формань
формасо
формась
формат
формате
форматне
форматнень
формирование
формирования
формулы
формы
фортепиано
фортепианонь
форум
фот
фото
фотоальбом
фотогалерея
фотографии
фотографиях
фотокувонь
фотокувт
фр
фра
фрагмент
фрагменты
фраи
франгеш
франк
франка
франкивскоень
франкивскои
франко
франкфурт
франс
франсуа
франц
франца
франции
франциск
франциска
франциско
франция
францияв
франциянь
франциясо
французокс
французонь
французская
французскии
французскои
фрг
фред
фреи
фридрих
фрик
фрол
фролов
фролова
фролович
фронт
фронта
фронте
фронтов
фронтовая
фронтовои
фронтонть
фронтонь
фронтсо
фруктань
фулла
функции
фурманов
фурмановскои
футбол
футболист
футболонь
футбольная
футбольнои
х
ха
хаапсалу
хабаровонь
хабаровск
хабибулла
хабибуллович
хаджи
хаи
хакасия
хакасонь
халиков
халил
хамар
хамит
хан
хана
ханджян
ханинеевка
ханларова
ханна
ханои
ханс
хантонь
ханты
хантыи
ханэнь
характер
характеристика
характеристики
харальд
харбин
харитонов
харитонова
харкив
харрасов
хартум
харьков
харьковонь
харьюмаа
хасан
хасанов
хвалынск
хвалынскои
хвои
хвощ
хе
хеи
хельсинки
хельсинкинь
хельсинкисэ
хемингуэи
хенрик
хень
херманис
херсон
хесте
хеттолог
хи
хии
хикәи
хилково
химик
химическии
химическои
химия
химиянь
хинди
хирург
хирургии
хирургическои
хирургия
хит
хлеб
хлебино
хмельницкоень
хованщина
ходе
хозяи
хои
хоккеи
холестазе
холм
холмогоры
холуница
хомскии
хомского
хопе
хор
хора
хорв
хорват
хорватии
хорватия
хорватиянь
хорватиясо
хорватонь
хорватт
хоре
хормась
хоровая
хоронь
хорошии
хорошо
хорхе
хосе
хотелось
хоть
хотя
хохлов
хохлова
хочу
хошимин
хр
хразде
храм
храмов
храмось
храмы
хранцузонь
хре
хребет
хрен
хрестоматия
хрисанфов
христианонь
христианскои
христианства
христианство
христиант
христиантне
христо
христос
хроника
хроники
хрустальнои
хрустальныи
хрымов
хсбрюке
ху
хуан
худ
худож
художеств
художествань
художественная
художественно
художественного
художественнои
художественные
художественныи
художник
художника
художники
художников
худолаз
хусаинов
хусеи
хх
хьюстон
хямяляи
ц
ца
царень
царица
цария
царияв
цариянь
цариясо
царонь
царство
царя
цахуронь
цвет
цвети
цветок
цветы
цдх
це
цев
цева
цево
цекс
цела
целанек
целковои
центр
центра
центральная
центрального
центральное
центральнои
центральныи
центрам
центрань
центриздат
центров
цень
цера
церазо
церанть
церась
церемонии
церкви
церковась
церковно
церковь
церкува
церкуванть
церкувань
церкувась
церькова
церьковань
церьковасо
церькува
церькувань
церькувась
цеци
цеця
цецяв
цецязо
цецянзо
цецянсетнень
цецянть
цецянь
цецясь
цецят
цецятне
цецятнестэ
цзы
цибирьцина
цивилбуе
цивилизации
цивильск
цивте
цивця
цик
цикл
цикла
циклон
цильма
цион
ципакань
ципирькаи
циреи
цирькун
цирюльник
цитадель
цитата
цитатсо
цитаты
цитниця
цифрах
ция
цк
цна
црб
цру
цсу
цы
цыган
цыгане
цыганкин
цыганкина
цыганкину
цыганов
цыганонь
цыганская
цыганские
цыгант
цыгантнэнь
цыпаи
цыпкаи
цюрих
цюрихсэ
ця
цянав
цянть
цяпор
цяпортикше
цярмун
цясь
ч
ча
чави
чавить
чавка
чаво
чавовсь
чавозь
чавома
чавомадо
чавоманть
чавомо
чавомс
чавот
чавсть
чавсь
чаган
чадыведь
чадыков
чадыковонь
чадыковсто
чазма
чаи
чакш
чалган
чалгась
чама
чамазо
чамакс
чаманзо
чамза
чамзинка
чамзинкань
чамзино
чанго
чангодть
чанчунь
чаныш
чанышев
чапаев
чапаевск
чапакс
чапаксонть
чапаксонь
чапаксось
чапакссто
чапамо
чаплыгин
чапозь
чара
чарамо
чарли
чарльз
чарльза
чаро
чары
чарыть
чарыця
чарькодеви
чарькодевикс
чарькодема
чарькодеманть
чарькодемс
чарькодсь
час
часовня
часонь
част
части
частицась
частично
частнои
частности
частнэнь
часто
частуха
часть
частях
чась
чатыр
чаунза
чаунзабуе
чаунзабуень
чаунзабуесэ
чаунзань
чач
чачи
чачить
чачо
чачозо
чачозь
чачома
чачомань
чачомсто
чачост
чачось
чачот
чачсть
чачсь
чачтыи
чверчакевичова
че
чебоксаронь
чебоксары
чев
чевте
чего
чеерень
чеерь
чеерьпиле
чеи
чекаевка
чекаевскии
чел
человек
человека
челяба
челябань
челябинск
челябинскои
чем
чеменземинли
чемерица
чемпион
чемпионат
чемпионатонть
чемпионатонь
чемпионатсо
чемпионатсонть
чемпионка
чемпионокс
чемпиононь
чему
ченко
чепецк
чепецкии
чепецэнь
чепца
чере
череда
через
черемушки
черкассы
черкесия
черника
чернов
чернова
черноголовка
черногория
черногориянь
чернозе
черныше
чернышевскии
чернышевского
чернышевскоень
чертополох
черты
черть
черь
черькстави
ческии
чесно
чесноков
чесноковонь
честнои
честняков
честь
четаи
четве
четвергов
четова
четыре
четыркинэнь
четырнадцать
чех
чехень
чехия
чехиянь
чехиясо
чехов
чехова
чеховонь
чехословакиясо
чеч
чече
чечевица
чеченэнь
чечня
чечнянь
чеш
чеядавкс
чеядавксонь
чеядавкст
чи
чивалгома
чивалгомав
чивалгомае
чивалгомань
чивалгомасо
чивалгомасто
чиде
чиденть
чиезь
чиемасо
чиеме
чиемс
чиемстэ
чизэ
чии
чиить
чикаго
чили
чилисема
чилисемав
чилисемае
чилисемань
чилисемас
чилисемасо
чилисемасто
чимбулак
чина
чиндяново
чине
чинев
чинеле
чинеме
чинень
чинесь
чинзэ
чинтень
чинть
чинь
чиньжарамо
чиньжарамонь
чиньстямо
чиньчарамо
чинязава
чинярька
чио
чипаесь
чипаз
чипаи
чипаня
чире
чирев
чирева
чиреванзо
чирезэ
чиремкшнезь
чирензэ
чиренть
чирень
чирес
чиресе
чиресь
чиресэ
чиресэнть
чиретне
чиретнева
чирьке
чиряз
чирязось
чис
чисельність
числа
числав
числава
числань
числасо
числе
численности
численность
численностью
числительнои
число
чист
чисте
чистенть
чистого
чистэ
чистэнзэ
чистэнть
чись
чисэ
чита
читне
читнень
читнестэ
чить
чичаи
чичеватов
чишминэнь
чишмы
чка
чкаловонь
чкаловск
чкония
чл
член
членов
члены
членэкс
чная
чник
чныи
чо
чова
човалясо
човалят
човине
човонь
човор
човорязь
чокшне
чокшнень
чокшнесь
чокшнэ
чоп
чопачапря
чопода
чополт
чополтбуесэ
чополтонь
чопуда
чосер
чрезвычаи
чт
чтен
чтении
чтения
что
чтобы
чу
чув
чувар
чуваров
чуваронь
чуварпакся
чуваш
чувашии
чувашия
чувашиянь
чувашиясо
чувашонь
чувашская
чувашское
чувашскои
чувто
чувтонть
чувтонь
чувтосто
чувтось
чувтотне
чувтотнень
чувтт
чувттнэ
чувттнэнь
чугонова
чугункань
чугунов
чудема
чудемазо
чудеманзо
чудеманть
чудемасо
чудемасонзо
чудемасонть
чудеме
чудерькс
чудес
чуди
чудиведень
чудинка
чудить
чудиця
чудо
чудожов
чужак
чукал
чукало
чукалы
чуковскии
чукотонь
чуля
чумовтомо
чумозо
чумондозель
чумондозь
чумонзо
чунцин
чуросто
чурька
чурькань
чурькат
чуфаровка
чуфарово
чухлома
чучково
чучковонь
чыи
чья
чэнду
чэрнивци
чэрнивцэнь
ш
ша
шабалинэнь
шаблон
шаблоне
шаблоны
шабра
шабрань
шабрацек
шагаргази
шаги
шадым
шаи
шаке
шакир
шакуров
шала
шали
шалфеи
шалы
шандор
шандоронь
шандрово
шанжав
шанжавкоцтонь
шант
шантала
шанхаи
шань
шапиро
шапкарев
шар
шара
шаранга
шарангень
шарик
шариф
шаркан
шарканбуе
шаронов
шарононь
шарья
шатки
шатковонь
шах
шахматов
шахматовонь
шахунья
шахунэнь
шацкои
шача
шачема
шая
шварцвальд
швед
шведень
шведт
шведэнь
швеи
швеции
швеция
швецияв
швециясо
швециясь
швиммер
ше
шебдас
шебештьен
шего
шеи
шек
шекспир
шекспира
шекспирэнь
шекшата
шекшатат
шелубеи
шемат
шемышеи
шемышень
шенино
шенкурскои
шентала
шенталань
шержеи
шести
шестои
шесть
шефтель
шеянова
ши
шигмонд
шигонь
шие
шижгорич
шии
шиле
шилов
шиловонь
шина
шинон
шиповник
шираз
шире
широкии
ших
шишкеево
шишмә
шиғырҙар
шк
шка
шкава
шкадонть
шказо
шкане
шканзо
шкантень
шканть
шкань
шкас
шкасо
шкаст
шкасто
шкастонзо
шкастонть
шкась
шкатнестэ
шкин
шкина
шкинема
шкинемазо
шкинеманзо
шкинемань
шкинемасо
шкинемасонзо
шкинемаст
шкодер
школ
школа
школав
школадо
школанень
школанзо
школанть
школань
школас
школасо
школасонть
школась
школат
школатнень
школатнесэ
школе
школы
школьников
школьного
школьныи
шле
шлить
шлыганонть
шлыганось
шляви
шлямо
шлямочи
шлямочистэ
шмидт
шнамо
шнась
шнеи
шник
шникова
шнирельман
шо
шожда
шождаатлет
шождасто
шождыне
шокша
шоржа
шотландиянь
шотландскои
шоу
шпильреи
шпинат
шре
шри
шта
штабонь
штапо
штась
штат
штатол
штатолонть
штатолось
штатонть
штатсо
штаттнэ
штаттнэнь
штаттнэсэ
штеи
штера
шти
што
штобу
штрандман
штраус
штрауса
штрихи
штутгарт
штыком
штырма
шуберт
шуберта
шувалово
шуварляи
шугур
шуж
шуи
шукшторов
шумбра
шумбракши
шумбрасто
шумбрат
шумбрачи
шумбрачинзэ
шумбрачинь
шумбрачинькандыи
шумерля
шуструи
шуя
шь
шяи
щ
щаве
щавель
щанкина
ще
щеглов
щемерова
щербаково
щито
ъ
ы
ыгевамаа
ыи
ыця
ь
э
эбэ
эвер
эволюция
эгон
эгра
эграбуе
эдинбург
эдип
эдуард
эдь
эень
эжели
эзем
эзементь
эземень
эземесь
эземс
эземсэ
эзера
эзизе
эзизь
эзинь
эзить
эзнек
эзть
эзь
эи
эквадор
экз
экзамен
экзамент
экзистенциянь
экология
экологиянь
экономи
экономика
экономикань
экономики
экономикус
экономист
экономистов
экономические
экономическим
экономических
экономического
экономическое
экономическои
экс
эксмо
экспедиции
экспедиция
экспедициясо
экспедициясь
экспедицият
экспедиянь
экспериментальнои
экшелямо
экшелямсто
экшс
экшсэ
эл
элва
элвис
эле
электрон
электронная
электроннои
электронные
электронныи
элемент
элементов
элен
эли
элиас
элизабет
элина
элита
элм
эль
эльгыгытгын
эльза
эльницякс
эльницясь
эмеж
эмежть
эмежэнь
эми
эмиль
эмин
эмираттнэ
эмпиризмонь
энвер
энгельс
энгельса
энгельсонь
энеида
энергетикань
энергии
эно
энтомолог
энц
энцикл
энциклопедии
энциклопедист
энциклопедич
энциклопедическии
энциклопедия
энь
эпическои
эпос
эпоса
эпосе
эпосонть
эпосонь
эпосось
эпоссонть
эпоха
эпохи
эпоху
эра
эрадо
эрадонть
эрань
эрато
эрдеи
эрз
эрзан
эрзи
эрзя
эрзява
эрзяватне
эрзякс
эрзямас
эрзямасонь
эрзямокшонь
эрзян
эрзяне
эрзянка
эрзянская
эрзянские
эрзянскии
эрзянских
эрзянско
эрзянского
эрзянское
эрзянскои
эрзянском
эрзянскому
эрзянь
эрзяраськень
эрзясь
эрзят
эрзятне
эрзятнеде
эрзятненень
эрзятнень
эрзятьнень
эри
эрии
эрик
эрикс
эринек
эрить
эриця
эрицянь
эрицясь
эрицят
эрицятне
эрицятнеде
эрицятнем
эрицятненень
эрицятнень
эрицятнестэ
эркаень
эркаи
эрки
эрнест
эрнии
эрси
эрсиль
эрсить
эрфурт
эршег
эрь
эрьва
эрьвакодат
эрьвантень
эрьванть
эрьвась
эрьвачинь
эрьзи
эрьзя
эрьзянь
эрьке
эрькентень
эрькенть
эрькень
эрькесенть
эрькесь
эрькесэнть
эрькетикше
эрькетне
эрькетнень
эрькеть
эрьмезень
эрьмезь
эрюрт
эрюш
эря
эряват
эряви
эрявикс
эрявиксэв
эрявить
эряволь
эрявсь
эряза
эрязань
эрязасто
эрязь
эрязянь
эрямарт
эрямартонть
эрямартонь
эрямартось
эрямартсо
эрямартсонть
эрямартфестивалесь
эрямо
эрямодо
эрямодое
эрямодонзо
эрямодонть
эрямодост
эрямое
эрямозо
эрямонзо
эрямонтень
эрямонть
эрямонь
эрямопингезэ
эрямопингензэ
эрямопингень
эрямос
эрямосо
эрямосонть
эрямост
эрямосто
эрямось
эрямотарказоль
эрямс
эрямсто
эрян
эрясть
эрясь
эс
эсензэ
эсенк
эсест
эсеть
эсинзе
эсинзэ
эсист
эскелькс
эскелькст
эскельксэнзэ
эскельксэнь
эскин
эскишехир
эспер
эсперанто
эсперантонзеи
эсперантонь
эссе
эссеист
эст
эстензэ
эстень
эстер
эстест
эстетики
эстетическои
эстонии
эстония
эстониянь
эстониясо
эстонияссо
эстононь
эстонскии
эстрадань
эстрады
эсть
эстэнь
эстэть
эсь
эськоень
эсьлем
эсьлемень
эсьлемпелень
эсьтевеньважодии
эсьтевеньветии
эсьтевеньтеии
эта
этапе
этапы
эти
этика
этимологическии
этимология
этимологиянь
этих
этническая
этническии
этническои
этно
этнограф
этнографа
этнографии
этнографические
этнографическии
этнографическое
этнографическои
этнография
этнографиядо
этнографиянь
этнографось
этнокультурные
этнологии
этнологических
этнологиянь
этномузыколог
этноним
этнопарконть
этнос
это
этого
этои
этом
этот
эту
этюды
эфендиев
эфендиева
эфиопия
эфир
эффективность
эхо
эцезь
эчке
эш
эшби
эшиня
эшкеви
эшксы
эште
ээ
ю
юар
юбилеем
юбилеи
юбилею
ювяскюля
юг
юго
югославия
югославиянь
югославиясо
югославонь
югра
югыд
юдина
юдифь
южа
южная
южно
южного
южнои
южныи
южскии
южскои
юзер
юк
юкаменскои
юлаев
юлаева
юлаевень
юлиана
юлия
юнеско
юнесконь
юнки
юность
юр
юрак
юри
юридическая
юридические
юридическои
юрии
юрино
юринэнь
юриспруденция
юрист
юристэкс
юрия
юрма
юрмала
юрматау
юрнэ
юров
юрозо
юрокс
юронзо
юронть
юронь
юрось
юрс
юрсо
юрсто
юрт
юртаев
юртаи
юртов
юртонь
юрче
юрченков
юрье
юрьев
юрьевец
юрьевецкои
юрьевич
юрьевна
юрья
юрьянэнь
юрюзань
юсиф
юсси
юта
ютавсь
ютавтневи
ютавтнесь
ютавтови
ютавтовиль
ютавтовить
ютавтовксось
ютавтовкст
ютавтозель
ютавтозельть
ютавтозь
ютавтома
ютавтоманть
ютавтомань
ютавтомасо
ютавтомась
ютавтомат
ютавтомга
ютавтомо
ютавтомонзо
ютавтомс
ютавтомсто
ютавтсь
ютавты
ютавтызе
ютавтызь
ютавтыль
ютавтыльть
ютавтынзе
ютавтыть
ютавтыця
ютавтыцякс
ютавтыцясь
ютавтыцятнень
ютазо
ютазь
ютамо
ютамс
ютамсто
ютасть
ютасы
ютась
ютко
юткова
ютковаст
ютконь
юткосо
юткось
юткошкасто
юткс
ютксо
ютксост
ютксто
юты
ютызе
ютыль
ютыльть
ютыть
ютыця
юхан
юхани
юхо
юшкин
я
яан
яблоня
яваз
яви
явить
явления
является
являются
яво
явови
явовить
явовомась
явовсь
явовтозь
явовтыть
явозель
явозь
яволявтозель
яволявтозь
яволявтома
яволявтсь
яволявты
яволявтызе
явома
явомасо
явомась
явомс
явсть
явсь
явтовксонть
явтпелькс
ягала
ягода
ягодное
ягунов
ядвига
ядов
ядранка
ядрин
яжазь
яжамо
яз
язык
языка
языкам
языками
языках
языке
языки
языков
языковая
языково
языковои
языкознание
языкознания
языкознаниянь
языком
языку
яи
яик
як
якамо
якамонь
якамось
якасть
якась
яки
якиль
якинь
якить
якиця
якоб
яков
яковлева
яковлевич
якорь
яксесь
якстере
якстерекуро
якстерекуронь
якстереть
якстерь
якстерьбаконь
якстерькаи
якстерькуронь
якстерьоктябрянь
яксярго
яксяргот
яксярготне
яктыкуль
якутии
якутия
якутонь
якутска
якушкин
якшамков
якшамковонь
якшамковсто
якшамо
якшур
яла
ялаксозо
ялаксонзо
ялакст
ялатеке
ялга
ялгазо
ялгаи
ялгакс
ялгаксчинь
ялган
ялганек
ялганзо
ялганть
ялгань
ялгаст
ялгат
ялгатне
ялгатненень
ялгатнень
ялгинень
ялго
ям
яма
ямало
ямалонь
яман
ямантау
ямкс
ямксонь
ямонть
ямось
ямс
ямская
ямскои
ямщиков
ян
янв
январе
январь
января
янгазь
яндекс
яндовище
яниковски
янина
янки
яннэнть
яновна
янссон
янт
янть
януш
януша
янь
яп
японии
япония
япониянь
япониясо
япононь
японская
яр
яранск
яранэнь
ярвамаа
яркко
ярмак
ярмаконзо
ярмаконь
ярмаксо
ярмакт
ярмактнень
ярмактнэ
ярослав
ярославль
ярославонь
ярославская
ярославскои
ярсамо
ярсамозо
ярсамонть
ярсамонь
ярсамопелекс
ярсамопеленть
ярсамопелень
ярсамопелесь
ярсамопель
ярсамопельтнень
ярсамопельть
ярсамс
ярсы
ярсыть
ярсыця
ярулла
ярхо
ясная
яснотка
яссы
ястреб
ястребинка
ят
ятонть
ятонь
ятрышник
яушев
яхо
яхья
ячме
ячмень
яшкин
ђ
і
інформаціі
інш
історія
історіі
језик
ћ
ғ
ҡыҙы
һәм
ә
әи
әләр
ө
өи
өфө
բաց
շտեմարան
տվյալների
ְ
ִ
ֵ
ֶ
ַ
ָ
ֹ
ּ
ׁ
ׂ
א
ב
ד
ו
י
ל
מ
ן
ס
ר
ש
ת
ا
العربية
اوپن
ج
ر
فارم
مصر
َ
ُ
ِ
ّ
ٓ
ٔ
ٕ
پلیٹ
ڈیٹا
۱
ं
क
द
भ
र
ल
स
ह
ा
ि
ी
ू
्
ং
দ
ব
ল
শ
া
ি
ে
্
ੀ
ி
ு
்
་
ུ
ასული
ეროვნული
მონაცემები
პლატფორმა
საქართველოს
უბანი
ღია
​
‎
‏
‐
‑
‒
–
—
―
‘
’
“
”
„
†
•
…
‰
′
″
€
№
←
↑
→
↔
↗
↘
↷
⇨
−
∞
≈
③
④
⑦
─
ⲁ
ⲓ
ⲙ
ⲣ
ⲱ
ⴰ
ⴳ
ⴷ
ⴻ
ⵔ
ⵜ
ⵢ
ⵣ
⺀
⺄
⺆
⺈
⺊
⺌
⺕
⺝
⺸
⺼
⿰
⿱
⿲
⿳
⿴
⿵
⿶
⿷
⿸
⿹
⿺
⿻
〢
い
か
き
け
さ
し
た
て
と
の
ま
も
れ
ん
゙
゚
イ
カ
キ
ク
コ
シ
ス
タ
ッ
ト
ニ
ノ
ヒ
フ
ヘ
ホ
ミ
メ
ユ
ラ
リ
ル
ン
・
ー
㇁
㇂
㇄
㇇
㇈
㇉
㇓
㐁
㐄
㐅
㐌
㐫
㐬
㐭
㐮
㐱
㑒
㒵
㒸
㒼
㓁
㓞
㔾
㕛
㕣
㖾
㘝
㚅
㚇
㚔
㚘
㝉
㝡
㝴
㝵
㞋
㞢
㞷
㠩
㠭
㠯
㡀
㡭
㡿
㢲
㢴
㣇
㣺
㥯
㪅
㫄
㫐
㫒
㫺
㬅
㬎
㬥
㬰
㲋
㳄
㷠
㸒
㸚
㸦
㼌
㼲
㽞
㿟
䀠
䂞
䍃
䏍
䒑
䖍
䖒
䖝
䖵
䙴
䚻
䜌
䝿
䡛
䧹
䪞
一
丁
丂
七
丄
丅
丆
万
丈
三
上
下
丌
不
与
丏
丐
丑
专
且
丕
世
丘
丙
业
东
丞
丢
丣
两
严
並
丨
丩
个
丫
丬
中
丮
丰
丱
串
丵
丶
丷
丸
丹
为
主
丽
丿
乀
乂
乃
久
乆
乇
么
义
之
乌
乍
乎
乏
乐
乑
乔
乖
乗
乘
乙
乚
乛
乜
九
乞
也
习
乡
乳
乾
亀
亅
了
亇
予
争
事
二
亍
于
亏
亐
云
互
亓
五
井
亘
亚
亜
亞
亟
亠
亡
亢
交
亥
亦
产
亨
亩
享
京
亭
亮
亯
亰
亲
亳
亶
亷
人
亻
亼
亾
仁
今
介
仌
从
仐
仑
仒
仓
仕
他
付
仝
代
令
以
任
企
伊
伏
伐
休
会
伯
但
位
住
何
佘
余
作
佥
使
來
侈
侌
侖
侯
侵
便
保
俞
信
修
倉
倍
候
倠
備
僉
僕
儿
兀
允
兂
元
兄
充
兆
兇
先
光
兊
克
兌
免
兑
兒
兓
兔
党
兜
兟
入
全
兩
兪
八
公
六
兮
兰
共
关
兵
其
具
典
兹
兼
冀
冂
冃
冄
内
冈
冉
冊
冋
册
再
冎
冏
冐
冒
冓
冖
冗
冘
军
农
冝
冡
冥
冫
冬
冷
几
凡
凢
凵
凶
凷
凸
凹
出
函
凾
刀
刁
刂
刃
刄
刅
分
切
刍
刑
刕
刖
列
刘
则
初
別
利
别
到
制
刺
則
削
剌
前
剡
剽
劉
力
功
加
劦
助
劫
劳
劵
勃
勇
勉
勒
動
務
勞
勢
勤
勹
勺
勻
勾
勿
匀
匂
包
匆
匈
匊
匋
匍
匕
化
北
匚
匝
匡
匪
匱
匸
匹
区
医
匽
匿
區
十
卂
千
卄
卅
卆
升
午
卉
半
卌
华
卑
卒
卓
单
卖
南
卜
卝
卞
占
卡
卢
卣
卤
卦
卩
卪
卬
卯
印
危
即
却
卵
卷
卸
卻
厂
厃
厄
历
厈
厉
厌
厓
厘
厚
原
厤
厥
厨
厭
厲
厶
厷
厸
去
厼
厽
叀
参
參
叅
又
叉
及
友
双
反
叐
发
叒
叔
叕
取
受
叚
叜
叟
口
古
句
另
叩
只
召
可
台
叱
史
右
叵
号
司
叹
吂
各
吅
合
吉
吊
吋
同
名
后
吏
向
吕
君
吝
吞
否
含
启
吳
吴
吹
吾
呂
呆
呈
告
员
呙
周
命
咅
和
咎
咠
咢
咨
咸
咼
哀
品
哉
員
哥
哲
唐
商
啇
問
啚
啬
啻
善
喜
喬
單
喿
嗇
噩
嚴
囊
囗
囘
囙
囚
四
回
囟
因
囧
囬
困
囱
囷
固
国
圂
圅
國
圍
圓
土
圡
圣
圥
在
圭
地
圶
圼
坐
坒
坚
坴
垂
垔
垚
埀
埋
埶
執
培
基
堂
堅
堆
堇
堯
報
塞
墨
壘
士
壬
壯
声
壳
壴
壹
壺
壽
夂
处
夅
夆
备
夊
夋
夌
复
夏
夒
夕
外
夗
夘
多
夜
夢
大
夨
天
太
夫
夬
夭
央
失
夲
头
夷
夸
夹
夻
夾
奂
奄
奇
奈
奉
奎
奏
奐
契
奓
奔
奚
奞
奠
奢
奥
奭
女
奴
奻
好
如
妄
妙
妟
妥
妻
妾
姑
委
姜
姫
威
娄
娟
婁
婴
嬰
嬴
子
孑
孔
孕
孖
字
存
孚
孛
孝
孟
季
孤
学
孫
孱
學
宀
宁
宂
它
宅
宇
守
安
宋
完
宏
宓
宗
官
定
宛
宜
宝
客
宣
室
宮
宰
害
家
容
宾
宿
寄
寅
密
富
寒
察
寧
審
寫
寬
寮
寸
对
寺
寻
寽
対
寿
封
尃
射
将
將
專
尉
尊
尋
尌
對
小
少
尒
尓
尔
尖
尗
尚
尞
尢
尣
尤
尧
尨
尭
就
尸
尹
尺
尻
尼
尽
尾
尿
局
居
屈
屋
屎
屏
屑
展
屖
屚
属
屠
屡
屬
屮
屯
屰
山
屵
屾
岁
岂
岑
岡
岩
岳
岸
峯
島
崇
崎
崑
崔
崖
崙
崩
嵬
嶲
巂
巛
川
州
巟
巠
巢
巤
工
左
巧
巨
巩
巫
差
己
已
巳
巴
巷
巸
巽
巾
巿
帀
市
布
希
帚
帛
帝
带
師
席
帯
帶
常
干
平
年
幵
并
幷
幸
幺
幻
幼
幽
幾
广
広
庄
庆
床
底
店
庚
府
度
庫
庭
庶
康
庸
廉
廌
廛
廣
廩
廴
延
廷
建
廾
廿
开
弁
弃
弄
弇
弋
式
弓
弔
引
弗
弘
弜
弟
弥
弦
弱
張
強
强
彊
彌
彎
彐
彑
当
彔
录
彖
彗
彡
形
彥
彦
彧
彭
彳
役
彼
往
待
律
徒
得
徙
從
復
微
徵
心
忄
必
忌
忍
志
忝
忠
忩
快
念
忽
忿
思
怠
急
怱
恆
恒
恩
恭
息
悉
患
悤
悲
悶
惠
惡
惢
愁
愈
意
愛
感
慈
慧
慮
憂
憲
應
戀
戈
戉
戊
戋
戌
戍
戎
成
我
戒
戔
或
戚
戠
戢
截
戲
戶
户
戹
戼
戾
房
所
扁
扇
手
扌
才
打
托
执
承
折
拉
拜
拿
据
掌
推
提
摩
支
攴
攵
收
攸
改
放
政
敄
敏
敕
敖
敗
敝
敞
敢
散
敦
敫
敬
数
敷
數
斂
文
斉
斊
斗
斤
斥
斩
斬
斯
新
方
於
施
斿
旁
旋
族
无
旡
既
旣
日
旦
旧
旨
早
旬
旱
旲
时
旾
昆
昇
昌
昍
明
昏
易
昔
昗
昜
星
春
昬
是
昱
昴
昷
時
晃
晋
晏
普
景
晶
智
暑
暴
曇
曩
曰
曲
曳
更
曷
書
曹
曼
曾
替
最
朁
會
月
有
朋
服
朔
朕
朗
望
朝
木
朩
未
末
本
札
朮
术
朱
朵
朶
朿
杀
李
杏
村
杜
束
条
来
東
杲
杳
松
析
林
枚
果
枝
枲
枼
某
柔
查
柬
柰
柴
査
栗
桀
桑
桼
梁
條
梟
梨
棘
棠
棥
森
植
楚
業
楽
概
榮
樂
樊
横
欠
次
欣
欮
欲
欶
欽
款
歆
歇
歛
止
正
此
步
武
歨
歪
歮
歯
歰
歲
歴
歷
歸
歹
歺
死
殳
段
殷
殸
殹
殺
殻
殿
毋
毌
母
每
毒
比
毕
毚
毛
毳
氏
氐
民
气
氣
水
氵
氶
氷
永
氺
氾
求
汝
汞
江
沃
沓
沙
沝
泉
法
波
泣
泥
泰
洛
洪
活
派
流
浜
浦
浪
浮
海
淡
淮
清
渚
渠
港
湯
滿
漸
瀬
火
灬
灭
灰
灵
灷
炅
炎
炏
炗
炙
炭
為
烈
烏
烝
焉
無
焦
焱
然
煞
熊
熏
燕
營
燮
爪
爫
爭
爯
爰
爱
爲
爵
父
爻
爽
爾
爿
片
牙
牚
牛
牜
牟
牢
牧
物
牪
特
牽
犀
犬
犭
犮
狂
狄
狊
独
狺
猋
猒
猪
献
獻
玄
率
玉
王
玟
玨
珎
班
琴
瑟
瑩
瓜
瓦
甘
甚
生
産
用
甫
甬
田
由
甲
申
电
甶
男
甸
甹
町
画
甾
畀
界
畏
畐
留
畜
畟
畢
畧
畨
番
畫
異
畱
當
畺
畾
疊
疋
疌
疑
疒
疾
癶
癸
癹
登
發
白
百
皀
皃
的
皆
皇
皋
皐
皕
皮
皷
皿
盃
盆
盇
盈
益
盍
盎
监
盒
盖
盛
盡
監
盤
盧
目
直
相
盾
省
眇
眉
看
県
眔
眞
真
眷
眼
眾
着
睘
睪
睿
瞏
瞢
瞿
矍
矛
矞
矢
矣
知
矦
短
石
破
碎
磊
磨
示
礻
礼
神
祟
票
祭
禀
禁
禸
禹
禺
离
禽
禾
禿
秀
秃
秉
秋
科
秝
秦
移
稟
穀
穌
積
穴
究
穹
空
穿
突
窄
窒
立
竒
竜
竝
竟
章
童
竹
笑
笠
第
筆
等
答
箕
算
箴
節
篤
篭
米
粉
粛
粟
粤
粦
粲
糞
糸
糹
系
約
納
素
索
紫
累
細
絜
絫
統
絲
維
綿
縣
繇
纍
纟
缶
网
罒
罔
罕
罗
罙
罡
罢
罪
署
罷
羅
羊
羌
羍
美
羔
羕
羗
羞
羡
羣
群
義
羲
羸
羽
翁
翏
習
翕
翟
翠
翼
老
耂
考
者
耆
而
耎
耑
耒
耳
耴
耶
耷
聂
聊
聖
聚
聶
聿
肀
肃
肅
肉
肖
肙
肥
肩
肯
育
肴
胃
背
胡
胥
能
脊
脩
膚
臣
臤
臧
自
臬
臭
臯
臱
至
致
臺
臼
臽
臾
臿
舀
舂
舄
與
興
舉
舌
舍
舛
舜
舞
舟
般
艮
良
色
艸
艹
艾
芒
芔
芬
芮
花
芳
芺
芻
苔
苗
苟
若
苦
英
茶
茸
荅
草
荒
荣
荼
莆
莧
莫
莽
菆
菊
菐
華
萬
落
葉
著
葛
董
葵
蒙
蒦
蒼
蓋
蓬
蓺
蔑
蔡
蕉
蕭
薄
薛
薦
薰
藍
藏
藥
蘭
虍
虎
虐
虒
虔
處
虖
虗
虘
虚
虛
虜
虞
虫
虽
蚤
蚩
蜀
蜜
蟲
蠡
血
行
衍
衛
衣
衤
表
衮
衰
袁
袞
裏
褭
褱
襄
襾
西
覀
要
覃
覇
見
規
覓
覧
親
覽
见
角
解
言
訁
訇
計
詹
語
誩
調
諸
讠
谷
豆
豈
豊
豐
豕
豖
豙
象
豦
豩
豪
豸
貇
貝
貞
貟
負
貢
貧
貪
貫
責
貳
貴
買
費
賁
資
賈
賏
賓
賔
賛
賞
賢
賣
質
賴
贊
贝
贡
责
贯
贲
贵
赖
赞
赤
赦
走
越
足
路
蹇
身
躬
車
軍
軎
軟
輦
车
辛
辜
辟
辥
辰
辱
農
辵
辶
边
达
过
近
连
迷
追
退
送
逆
逐
通
速
造
逢
連
逮
進
遀
遂
過
道
達
遣
適
遷
遺
邊
邑
邕
那
邦
邪
郎
部
郭
都
鄉
酉
酋
配
酓
釆
采
里
重
野
量
金
釒
錢
钅
長
镸
长
門
閃
閉
開
閏
閑
閒
間
閔
閵
閻
闌
门
间
闷
阑
阜
阝
阪
阿
降
陳
隆
隊
隋
隠
隡
隨
隱
隶
隹
隺
隻
隼
隽
难
雀
雁
集
雈
雋
雍
雐
雔
雙
雚
雜
雝
離
難
雨
雩
雪
雲
零
雷
需
霍
霜
霝
霞
霸
靈
靑
青
非
靡
面
靣
革
韋
韦
韭
韯
韱
音
頁
頃
項
須
頗
頡
頻
顛
页
風
风
飛
飞
食
飠
養
饣
首
香
馬
馮
駦
马
骨
高
髟
鬥
鬯
鬲
鬼
魚
魯
鮮
鱼
鲁
鳥
鳳
鸟
鹵
鹿
麃
麗
麥
麦
麻
黃
黄
黍
黎
黑
黒
黨
黹
黽
黾
鼎
鼓
鼠
鼻
齊
齋
齐
齒
齿
龍
龙
龜
龟
龠
龰
龱
龴
龵
龶
龷
龸
龹
ꞌ
者
艹
（
）
／
２
：
？
ｔ
～
￼
𠀁
𠀃
𠀆
𠀉
𠀎
𠀐
𠁁
𠁣
𠂆
𠂇
𠂈
𠂉
𠂊
𠂋
𠂎
𠂒
𠂔
𠂛
𠂡
𠂢
𠂤
𠂬
𠂭
𠂹
𠃊
𠃋
𠃌
𠃍
𠃎
𠃑
𠃓
𠃔
𠃜
𠄌
𠄎
𠄠
𠄢
𠆢
𠆥
𠇍
𠈌
𠌵
𠓜
𠔉
𠔥
𠔼
𠔽
𠔿
𠕀
𠕁
𠕋
𠘧
𠘨
𠙻
𠙼
𠚏
𠚒
𠚤
𠚪
𠣏
𠤎
𠤕
𠥓
𠦄
𠦑
𠦝
𠧒
𠧗
𠧪
𠩺
𠪚
𠫓
𠫔
𠫤
𠬛
𠬝
𠬞
𠬢
𠬤
𠬶
𠮛
𠮦
𠮷
𠯑
𠱠
𠳮
𠷎
𡈼
𡉀
𡉵
𡌥
𡍮
𡏳
𡕒
𡕩
𡕰
𡖅
𡗗
𡗜
𡘆
𡘤
𡧱
𡨄
𡩧
𡬠
𡭽
𡰣
𡰥
𡰪
𡰯
𡰱
𡷈
𡸁
𡿨
𡿩
𡿪
𡿺
𢀖
𢀛
𢀩
𢁙
𢆉
𢆰
𢆶
𢇁
𢇇
𢉖
𢌬
𢌿
𢏚
𢑑
𢑚
𢖻
𢙣
𢛳
𢦏
𢦒
𢧵
𢼄
𢾕
𣁋
𣄼
𣅀
𣅽
𣍘
𣎳
𣎵
𣏋
𣏼
𣗥
𣥂
𣥖
𣦵
𣦼
𣧄
𣪊
𣪠
𣬉
𣳾
𣶒
𤇾
𤊽
𤐫
𤓰
𤔔
𤕨
𤣩
𤰇
𤰔
𤰞
𤴓
𤴔
𤽄
𥁑
𥁕
𥃦
𥃩
𥃭
𥇡
𥑟
𥘅
𥘈
𥝢
𥫗
𥱡
𦈢
𦉪
𦉬
𦉼
𦍌
𦍒
𦎧
𦐇
𦓔
𦔮
𦘒
𦙃
𦚏
𦣝
𦣞
𦣻
𦥑
𦥔
𦥯
𦨉
𦭝
𦰩
𧆞
𧈧
𧘇
𧰨
𧴪
𧴮
𧵩
𧾷
𨸏
𨾴
𩙿
𩠐
𩫏
𩵋
𪉷
𪜀
𪟽
𪠲
𪩲
𫇦
𫔭
𫜸
𫝀
𫠣
𫠩
𫢉
𫥞
𫩏
𫩠
𫪡
𫲽
𫶧
𬀷
𬐘
𬗌
𬙙
𬛸
𬜯
𬟩
𬯁
𬴘
𬺻
𬼉
𬼖
𭀰
𭁈
𭁨
𭅰
𭑈
𭕄
𭗼
𭤨
𭥫
𭻾
𮅕
𮊿
𮍌
𮍏
𮓗
𮥼
𮧮
廾
𰀁
𰀄
𰀈
𰀉
𰀕
𰀠
𰀡
𰀢
𰀪
𰁜
𰃮
𰆊
𰆘
𰋙
𰕎
𰢴
𰧭
𰯲
􏰀
00--
01--
02--
03--
04--
07--
08--
09--
44--
63--
74--
76--
77--
78--
80--
81--
82--
84--
85--
87--
88--
89--
90--
91--
92--
93--
94--
95--
96--
97--
98--
99--
a--
aa--
ab--
ac--
acan--
ad--
ae--
af--
ag--
ak--
akad--
al--
aleks--
allgeme--
am--
ambas--
an--
anniv--
ap--
aqu--
ar--
art--
arund--
as--
athl--
au--
av--
ay--
az--
b--
ba--
balt--
be--
ber--
bey--
bi--
bil--
bio--
bl--
bo--
bom--
bor--
br--
bu--
bul--
bulga--
bur--
c--
ca--
cali--
can--
car--
card--
cau--
cauca--
ce--
ch--
cher--
chu--
ci--
cir--
cl--
clas--
co--
com--
con--
coor--
cor--
cr--
crea--
cri--
cu--
cy--
d--
da--
dan--
dar--
de--
der--
des--
di--
differ--
dis--
disco--
dni--
do--
doku--
dr--
du--
dun--
dur--
dura--
dy--
dz--
e--
ec--
ed--
ee--
ef--
el--
em--
en--
ep--
er--
erz--
es--
esse--
et--
eu--
ev--
ex--
f--
fa--
fe--
fi--
fla--
flo--
fo--
foli--
for--
fr--
fu--
g--
ga--
gall--
ge--
geme--
geo--
gi--
giga--
gla--
glau--
gldu--
go--
god--
gott--
gr--
gra--
gro--
gu--
gyp--
h--
ha--
haj--
har--
he--
hei--
hel--
her--
hi--
histo--
histori--
hl--
ho--
hr--
hu--
hum--
hy--
i--
ic--
id--
ie--
if--
ike--
il--
im--
in--
inclu--
ir--
is--
ist--
it--
iz--
j--
ja--
japo--
je--
jo--
jor--
ju--
k--
ka--
kal--
kale--
kansallispu--
ke--
kel--
ki--
ko--
kol--
kon--
kot--
kr--
ks--
ku--
l--
la--
le--
leh--
leu--
li--
lib--
liv--
lju--
ll--
lo--
lood--
lu--
lux--
ly--
m--
ma--
mag--
mat--
mathe--
me--
meg--
meh--
memo--
mer--
mi--
miesz--
milia--
min--
mit--
mo--
mont--
mordval--
mu--
my--
n--
na--
nakł--
nat--
nd--
ne--
ni--
no--
nq--
ns--
nt--
nu--
ny--
o--
ob--
obs--
oc--
od--
of--
offi--
okto--
ol--
om--
on--
op--
opol--
or--
org--
os--
p--
pa--
pan--
par--
pe--
pen--
per--
ph--
phil--
phy--
pi--
pil--
pio--
pjes--
pl--
plat--
po--
pobl--
pobr--
pod--
pol--
pr--
pre--
pro--
prze--
pt--
pu--
pul--
py--
q--
qu--
qua--
que--
r--
ra--
rah--
re--
reg--
res--
retkeilyaluei--
reve--
ri--
ro--
row--
rs--
ru--
rus--
rv--
s--
sa--
sal--
sangu--
sch--
se--
ser--
sf--
sh--
sha--
show--
si--
slo--
so--
son--
sp--
sr--
srp--
st--
ste--
stu--
su--
supple--
sv--
sw--
sy--
sylv--
sz--
t--
ta--
tam--
tar--
tatar--
te--
th--
ti--
to--
tol--
tr--
trad--
trans--
tri--
tu--
tur--
tus--
tz--
u--
ug--
ul--
um--
un--
univ--
univer--
up--
ur--
us--
ut--
v--
va--
vacc--
val--
ve--
vera--
ves--
vi--
vil--
vks--
vo--
w--
wa--
wan--
war--
we--
weri--
wil--
win--
wis--
wo--
wolg--
wri--
wspomnie--
x--
xa--
xi--
y--
ya--
yh--
yu--
z--
za--
ze--
zi--
đ--
ı--
ə--
α--
β--
λ--
ν--
ρ--
φ--
а--
аба--
абд--
абдул--
абсолю--
ав--
ава--
аве--
ави--
авки--
авт--
авто--
автомоб--
аг--
ад--
аз--
ази--
азиатс--
азо--
азор--
ак--
ака--
акт--
актив--
ал--
ала--
аламо--
алатыр--
албан--
але--
али--
алнаш--
ало--
алт--
алты--
аль--
ам--
ама--
амазо--
амо--
амфи--
ан--
ана--
аналитиче--
анже--
ани--
анти--
антиокс--
антроп--
антропологиче--
ар--
ара--
араб--
арбаж--
ард--
ардт--
аре--
арсе--
арт--
ару--
арх--
архитек--
ас--
аса--
аскин--
астра--
ат--
атом--
атюрь--
атя--
ау--
афанась--
ах--
аца--
ача--
аш--
ашо--
б--
ба--
баба--
багаут--
бадрет--
бадрут--
бал--
бала--
балаков--
бан--
бар--
барах--
бас--
бат--
бах--
баш--
бе--
бед--
без--
безбор--
беков--
бел--
бело--
бель--
бер--
беря--
бесс--
бессмерт--
бессонов--
би--
библиоте--
библиотеч--
бикк--
бир--
бл--
бла--
благо--
бо--
бог--
бол--
больн--
больше--
бом--
бон--
бор--
бороця--
бото--
ботуж--
бояр--
бра--
брат--
брю--
бу--
буд--
буе--
бук--
бул--
буля--
бур--
бы--
быв--
в--
ва--
вад--
важо--
важодевкс--
вал--
валкс--
валъ--
валь--
ван--
ванкш--
вано--
вар--
вас--
василь--
вах--
вач--
вачка--
вачко--
ваш--
вв--
ве--
ведь--
веж--
век--
вели--
велоси--
вель--
вельт--
вельтя--
веля--
вен--
венгер--
вепс--
вер--
вере--
верьга--
вес--
весе--
вет--
ветер--
вети--
ветя--
веч--
веш--
веше--
взры--
ви--
вид--
виде--
вики--
викш--
викшне--
вил--
вилегод--
вилл--
вин--
вино--
вирт--
вирь--
вит--
вить--
вичуг--
виш--
вкс--
вл--
влю--
вн--
внеш--
во--
вод--
вое--
воз--
вознесен--
воин--
вол--
волж--
волшеб--
волын--
воро--
вороты--
воспи--
восс--
вот--
вп--
вс--
все--
вспо--
вт--
вта--
вул--
вур--
вы--
выб--
выж--
выпу--
высказы--
выступле--
вых--
вь--
вяз--
вяр--
вінниць--
вәли--
г--
га--
габдрах--
габи--
гав--
гал--
гар--
гастр--
гат--
ге--
гель--
ген--
геро--
ги--
гигант--
гидро--
гитар--
гл--
гла--
глаголь--
глас--
глу--
гнат--
гне--
го--
год--
гол--
голу--
гомел--
гон--
гор--
горнолыж--
горь--
гос--
гоф--
гр--
гра--
граж--
граждан--
грамматиче--
грах--
гре--
грен--
гри--
гру--
грузин--
гу--
губ--
гурь--
гю--
д--
да--
дал--
дальнекон--
дан--
двига--
дворян--
дву--
двух--
де--
дебю--
дебютиро--
дев--
дем--
демографиче--
демок--
денеж--
дер--
деревен--
дет--
дж--
джан--
дже--
джу--
ди--
диагности--
диас--
дивизи--
дис--
диск--
дли--
длинно--
до--
доб--
доброво--
догово--
дол--
дон--
допол--
дополни--
доров--
дорож--
достоев--
др--
дри--
друж--
дс--
ду--
дуб--
дубро--
дура--
духов--
ды--
дь--
дэ--
дю--
дя--
дяги--
е--
ев--
евро--
евстиг--
еге--
еже--
ел--
елист--
ель--
ен--
ер--
ермиши--
ж--
жа--
жанра--
же--
желто--
жерде--
жи--
живо--
живопи--
жизнен--
жмери--
жо--
жу--
жук--
жур--
жура--
з--
за--
зав--
зави--
завья--
заги--
задон--
закон--
зам--
зап--
зарубеж--
засе--
заслуже--
зво--
зд--
зе--
зем--
зер--
зи--
зла--
зов--
золо--
зот--
зри--
зу--
зуев--
зэ--
и--
игл--
ид--
идем--
ие--
иж--
из--
изве--
извест--
изг--
изложе--
изос--
изящ--
ик--
ил--
иллю--
иль--
им--
имму--
ин--
ингуш--
индивиду--
индо--
ине--
инжави--
инопла--
инстр--
инструк--
инструмент--
интер--
информа--
ио--
ир--
ис--
иса--
исп--
испол--
использ--
ит--
итальян--
ичал--
к--
ка--
кавказ--
кавто--
кад--
када--
кады--
каж--
каз--
казен--
какш--
кал--
калмо--
кам--
кама--
камен--
камер--
камчатс--
кан--
канд--
кант--
кап--
капаз--
капи--
кар--
кара--
карво--
каргалин--
карин--
карс--
карт--
карта--
карь--
каря--
кат--
катали--
каш--
кая--
кв--
кварт--
ке--
кев--
кевкс--
кед--
кез--
кекш--
кел--
келе--
кель--
кем--
кемб--
кеме--
кеня--
кеняр--
кеняркс--
кепе--
кер--
керен--
ки--
кизе--
килемар--
киль--
кин--
кине--
кино--
кинь--
кир--
кирня--
кирнявт--
кирья--
кись--
киуш--
ких--
кич--
киш--
кл--
кле--
клет--
клима--
клиниче--
кля--
кн--
кня--
княз--
ко--
ков--
кози--
коин--
кол--
коло--
колы--
коль--
ком--
комсь--
кон--
конош--
конститу--
консуль--
конт--
контр--
кор--
коринф--
корне--
корт--
космиче--
кот--
коч--
кочка--
кр--
кра--
крав--
крат--
кри--
кру--
круж--
круп--
кры--
крымско--
кс--
ксты--
ку--
кугарчи--
куды--
куз--
кузь--
кукмор--
кул--
куля--
куляз--
кун--
кундс--
куншка--
кунь--
кур--
кург--
курин--
кут--
кух--
куч--
кучо--
кш--
кы--
кыргыз--
кэ--
кя--
л--
ла--
лав--
ладя--
лам--
ламокс--
лап--
ле--
лебяж--
лев--
лек--
лем--
лемдя--
лен--
лент--
лепшт--
лепь--
лес--
лет--
летопи--
лец--
лецт--
леч--
лече--
ли--
лив--
лип--
липо--
лит--
литов--
лич--
лия--
лл--
ло--
лов--
ловсо--
ложноно--
лок--
лом--
лома--
лт--
лу--
луга--
лы--
ль--
лю--
люц--
ля--
лямбир--
лі--
м--
ма--
мад--
маз--
мази--
мазы--
мазылгав--
макс--
мал--
малосердобин--
маль--
малю--
ман--
мар--
мари--
мастор--
мат--
машт--
маяков--
ме--
мега--
мед--
медве--
медицин--
меж--
меже--
мель--
мельс--
меля--
мен--
менделеев--
мене--
мент--
мер--
место--
мет--
мець--
мече--
меш--
ми--
мид--
мие--
мик--
микро--
микш--
мини--
мир--
митр--
митрофа--
миф--
мичу--
мичурин--
много--
множе--
мо--
мода--
мозаи--
мок--
молча--
моль--
мон--
мор--
морд--
моршан--
мох--
мр--
мти--
му--
муж--
мусорг--
мух--
мучкап--
мы--
мэр--
н--
на--
нав--
наз--
наи--
наиме--
нал--
напи--
нар--
нарму--
нас--
нау--
наука--
наум--
нахичев--
нац--
наци--
национа--
нач--
не--
небес--
нев--
неве--
неверки--
невт--
невте--
невтел--
незави--
неи--
неко--
нель--
нем--
нер--
нет--
неф--
нефте--
ни--
ниж--
ник--
ниле--
нин--
нкс--
но--
ново--
номина--
ну--
нуж--
нур--
нуць--
нх--
ня--
няндо--
нә--
о--
об--
обес--
обл--
обр--
обсуж--
обтура--
обу--
общ--
обще--
объя--
ов--
овто--
ог--
огнен--
од--
одеж--
один--
одно--
оже--
ожо--
оз--
озавт--
озкс--
ок--
оке--
оконча--
окрес--
ол--
олго--
олим--
оло--
оля--
олякс--
ом--
он--
онома--
оп--
опарин--
описа--
опроще--
ор--
ора--
ори--
оригин--
орма--
ору--
ос--
осетин--
осин--
основа--
осо--
оста--
ось--
от--
отече--
отечестве--
откр--
откры--
отрад--
отряд--
отцов--
ох--
оце--
оцин--
оч--
ош--
ошиб--
ошо--
ощуще--
п--
па--
паз--
пакся--
пакша--
пал--
паль--
памя--
пан--
пандо--
панж--
пань--
пар--
партнер--
парфеньев--
пас--
пат--
пах--
пачт--
паш--
пе--
пед--
пек--
пель--
пельс--
пен--
пер--
пере--
пермс--
перт--
пес--
песоч--
пестра--
петрушев--
петь--
печ--
печа--
печат--
печор--
пеш--
пи--
пиде--
пиди--
пиж--
пильг--
пин--
пинге--
пине--
пиотро--
писа--
письме--
пих--
пичаев--
пиче--
пичка--
пишт--
пла--
плас--
пле--
плеша--
пло--
плос--
площ--
по--
победи--
повес--
повеств--
под--
подля--
подоб--
подоль--
подосинов--
подроб--
поз--
позд--
покор--
покр--
покров--
покш--
пол--
пола--
поли--
полиграф--
полу--
поля--
поник--
поня--
поощ--
поп--
пор--
поря--
пос--
посоль--
пот--
пота--
потмо--
пох--
похвистне--
поце--
поче--
починков--
почо--
пош--
празд--
пре--
предло--
престу--
при--
прилага--
примор--
прис--
присое--
присур--
прих--
про--
прожи--
производ--
промы--
промышле--
пропа--
прося--
прото--
протоплаз--
проф--
пру--
пря--
прявт--
пси--
психоаналитиче--
пу--
публ--
пук--
пур--
пут--
пуш--
пуэ--
пшка--
пы--
пь--
пьян--
пя--
пят--
р--
ра--
раб--
рав--
раг--
раев--
раз--
развлекат--
разно--
рак--
раке--
ракс--
рам--
ран--
распи--
распро--
расс--
раське--
раужо--
рах--
ре--
реаль--
ред--
рез--
резова--
рекла--
рекомендуе--
религиоз--
референду--
рецен--
реше--
ри--
риз--
рим--
рих--
рма--
рмадс--
рн--
ро--
робо--
рог--
род--
рож--
роз--
роза--
рок--
рон--
рос--
рт--
ру--
руз--
рузыявт--
рукопис--
румы--
рус--
ры--
рыб--
рь--
ря--
ряж--
с--
са--
саам--
сага--
садо--
саз--
саи--
сал--
сам--
само--
сан--
санти--
сапонь--
сапры--
сар--
сато--
сафр--
сб--
сбор--
св--
свадеб--
сван--
свансван--
све--
свет--
свидетель--
своб--
свяще--
се--
сев--
север--
седи--
сез--
сек--
сел--
сель--
сельм--
сем--
сена--
сер--
сес--
си--
сиалеев--
сибир--
силь--
сим--
симфониче--
син--
синт--
ск--
сказа--
сказитель--
сказуе--
скан--
ско--
скорох--
сл--
сла--
слав--
славян--
сле--
слоб--
слово--
слу--
см--
смоль--
сму--
снар--
снеж--
сним--
сно--
сня--
со--
соб--
соблю--
собстве--
согл--
содер--
сое--
созд--
создан--
сок--
сол--
солдат--
солнеч--
соля--
сомни--
сон--
сооруже--
сос--
соснов--
сосуд--
сотворе--
сотрудниче--
сохр--
спек--
специа--
спонсор--
спор--
ср--
сра--
сравне--
ст--
ста--
стандар--
стар--
старо--
статистиче--
стве--
сте--
сти--
сто--
стр--
стра--
стратегиче--
струк--
сту--
стувт--
стя--
стявт--
стякш--
су--
сув--
судеб--
сули--
супер--
сур--
суще--
сфе--
съе--
съедоб--
сы--
сывт--
сыгр--
сызран--
сык--
сыре--
сь--
сэ--
сэндя--
сэнь--
сэр--
сэреде--
сю--
сюл--
сюлма--
сюлмаво--
сюлмо--
сюмси--
сюпал--
сюро--
ся--
сял--
т--
та--
таз--
так--
талга--
там--
тан--
тандавт--
тар--
тарга--
тат--
татище--
татьяни--
тах--
тв--
творче--
те--
тев--
тел--
теле--
тен--
теоретиче--
теп--
тер--
тере--
теря--
технологиче--
теш--
ти--
типо--
то--
тов--
тол--
тон--
тона--
топо--
тор--
тр--
тра--
тради--
тре--
требо--
три--
тро--
тропик--
трост--
трубе--
тря--
тс--
ту--
туе--
туев--
тульчи--
тур--
туре--
туристиче--
турнир--
тхэквон--
ты--
ть--
тэ--
тю--
тюль--
тюме--
тюр--
тюрь--
тя--
тяште--
у--
уваро--
угр--
уда--
удор--
ужо--
уз--
узер--
уи--
ук--
украи--
украин--
укш--
ул--
улем--
уликс--
улучше--
уль--
ульпи--
умарь--
ун--
уни--
упо--
упр--
ур--
ураль--
урекс--
ури--
уро--
урь--
уск--
успе--
успеш--
устья--
усь--
утверж--
ух--
ухоло--
уч--
уче--
учи--
уш--
ушмо--
ф--
фа--
фаб--
фак--
фар--
фе--
фелье--
феода--
ферг--
фи--
фигур--
физ--
физиче--
физмат--
фин--
финан--
фло--
фо--
фон--
фортепи--
фото--
фр--
фундаменталь--
функ--
х--
ха--
хан--
хар--
хе--
хи--
хмэльныць--
хо--
хов--
хован--
хол--
хор--
хот--
хох--
хр--
храб--
христиа--
ху--
хә--
ц--
ца--
цар--
це--
цел--
цере--
церк--
ци--
цид--
цин--
цит--
црк--
цы--
цю--
ця--
цярах--
ч--
ча--
чады--
чал--
чама--
чан--
чап--
чары--
чарь--
че--
чебер--
чев--
чем--
чер--
черн--
черни--
черно--
чех--
чеш--
чи--
чие--
чииця--
чикор--
чин--
чиндя--
чиняз--
чипа--
чо--
човор--
чу--
чув--
чуваш--
чугу--
чугунка--
чуди--
чукот--
чэ--
чэрни--
ш--
ша--
шам--
шапо--
шар--
шах--
швед--
ше--
шев--
шел--
ши--
шк--
шка--
шля--
шо--
шот--
шпа--
штер--
шты--
шу--
шук--
шуми--
шур--
щ--
ще--
ы--
э--
эд--
эди--
эз--
эзи--
экологиче--
экс--
экспер--
эл--
электриче--
электрос--
эль--
эми--
эн--
энял--
эпиз--
эпиче--
эр--
эри--
эрь--
эрямарт--
эрямо--
эс--
эст--
эстон--
эсь--
эт--
этниче--
этно--
эш--
эшке--
ю--
юби--
юг--
югосла--
юж--
юк--
юли--
юр--
юрге--
юри--
юридиче--
юрт--
юсти--
ют--
юта--
ютавт--
юшк--
я--
явл--
яво--
яволав--
яволя--
ягод--
ядр--
яжа--
яжавтыця--
яз--
языче--
як--
яку--
ям--
ян--
яна--
яп--
яр--
ярен--
яс--
ят--
ящ--
яң--
і--
ғ--
ә--
יש--
ال--
جمهو--
--0
--00
--1
--18
--2
--24
--3
--30
--39
--4
--5
--50
--6
--7
--70
--8
--80
--9
--a
--aa
--aceae
--acja
--ad
--ae
--ai
--al
--ald
--an
--ane
--ant
--ar
--ard
--arpa
--ary
--as
--ase
--at
--aux
--ay
--b
--ba
--be
--bliki
--bs
--burg
--c
--ca
--ce
--ceus
--ch
--chaft
--che
--chem
--cht
--ci
--ciurus
--ck
--cki
--cs
--ct
--culata
--cum
--cus
--cy
--d
--da
--data
--de
--di
--do
--dom
--dor
--ds
--du
--dy
--e
--ea
--ects
--ed
--edte
--ee
--een
--ei
--eiro
--ej
--ek
--el
--elle
--em
--ema
--en
--ens
--ent
--er
--erial
--ers
--es
--esis
--et
--ete
--ets
--eur
--eus
--ey
--f
--face
--fi
--fia
--ft
--g
--ga
--ge
--ger
--gi
--gne
--go
--gra
--gs
--gy
--h
--ha
--hi
--hip
--hiv
--hr
--hu
--i
--ia
--ian
--ic
--ica
--ice
--ics
--icus
--id
--ie
--ies
--if
--ifo
--ige
--ign
--ii
--ija
--ijan
--ik
--ika
--iki
--il
--im
--ima
--imus
--in
--ine
--ing
--ings
--io
--ion
--ions
--ir
--ire
--is
--ish
--isk
--ism
--ist
--it
--ite
--ity
--iu
--ium
--ius
--ive
--iya
--j
--ja
--jad
--jing
--k
--ka
--ke
--ki
--kie
--kk
--ko
--ku
--l
--la
--ld
--le
--ler
--les
--li
--lin
--lins
--ll
--lm
--lo
--logy
--ls
--lt
--lum
--ly
--m
--ma
--maa
--mc
--me
--ment
--mi
--mp
--ms
--n
--na
--nc
--nce
--nces
--nd
--ne
--ner
--ng
--nge
--ngen
--ni
--nicus
--nie
--nija
--nik
--nn
--no
--ns
--nsa
--nst
--nt
--nte
--ntes
--nus
--ny
--o
--oce
--od
--oda
--ogy
--oi
--ok
--ol
--om
--omys
--on
--ons
--ophagy
--or
--ore
--oria
--orie
--oro
--ors
--os
--ot
--ov
--oz
--p
--pa
--pet
--ph
--po
--ps
--q
--r
--ra
--rad
--rd
--re
--rea
--rey
--rg
--ri
--ria
--rie
--rik
--rium
--rl
--rn
--ro
--rs
--rszag
--rt
--ru
--rum
--ry
--s
--sa
--se
--sh
--si
--sia
--sima
--sis
--ske
--son
--ss
--st
--sto
--sts
--sy
--sz
--t
--ta
--tadt
--tal
--tan
--tant
--tat
--te
--ted
--ten
--th
--tha
--ti
--tic
--tica
--ties
--tik
--tion
--tive
--to
--tor
--tra
--ts
--tta
--tte
--tti
--tud
--ty
--u
--ua
--ual
--uch
--uction
--ue
--uja
--ula
--um
--un
--ung
--ur
--ura
--ure
--urus
--us
--v
--va
--ved
--ver
--vi
--via
--vic
--vo
--vu
--vus
--w
--wa
--we
--wood
--ws
--x
--y
--ya
--yn
--yo
--ys
--z
--za
--ze
--zing
--zk
--zo
--zte
--ı
--α
--κη
--ς
--а
--аб
--ав
--ава
--аев
--аевка
--аево
--ает
--аж
--аз
--азь
--аи
--ак
--ака
--аков
--аково
--акте
--ал
--ала
--але
--али
--алки
--алксось
--альнои
--ам
--ами
--амо
--амова
--амонь
--ан
--ана
--анзо
--ании
--ант
--анть
--аны
--ань
--ар
--араз
--ари
--ас
--асо
--асы
--ась
--ат
--ата
--атась
--ати
--атсо
--ать
--атя
--ах
--ации
--ация
--ач
--ача
--аш
--ая
--б
--ба
--бань
--бе
--бие
--бо
--бу
--буе
--буень
--быи
--в
--ва
--вает
--ванть
--ват
--вать
--вая
--ве
--веи
--веле
--вель
--веме
--ветии
--ви
--вии
--викс
--вин
--вить
--вич
--вка
--вкс
--вная
--вно
--внои
--во
--возь
--вои
--вска
--вскои
--всть
--всь
--вт
--втеме
--втесь
--вто
--втови
--втовсь
--втозель
--втома
--втомо
--втось
--втсы
--втсь
--втызь
--вы
--вые
--вых
--вь
--г
--га
--гак
--гамс
--ган
--гард
--гас
--гат
--гая
--ге
--гень
--ги
--гии
--гия
--гиянь
--го
--гов
--гонь
--градонь
--грал
--гс
--гси
--гт
--гу
--д
--да
--дазь
--дак
--дам
--дамо
--дамот
--дамс
--дасо
--де
--девсь
--дезь
--деи
--демс
--демстэ
--дензэ
--денть
--джа
--дзе
--ди
--дизь
--дии
--дион
--дир
--дки
--до
--донзо
--донть
--дост
--дояк
--дсть
--дсь
--дт
--ду
--ды
--дь
--дэ
--дя
--дязь
--дямс
--е
--ев
--ева
--еве
--еви
--евич
--евка
--ево
--ед
--еде
--ее
--еев
--еево
--еза
--езь
--езэ
--еи
--ек
--екс
--ел
--ела
--ели
--елия
--ель
--еля
--ем
--ема
--еме
--ен
--ена
--ензэ
--ение
--ении
--ения
--енк
--енка
--енко
--ент
--енть
--ены
--ень
--епе
--ер
--ера
--ерг
--ери
--ерт
--ес
--ессы
--есь
--ет
--ета
--ете
--еты
--еть
--ец
--ець
--ея
--ж
--жа
--жде
--жды
--же
--жин
--жка
--жо
--жу
--жье
--з
--за
--зан
--зань
--зат
--зд
--зе
--зеи
--зель
--зельть
--зенть
--зень
--зи
--зис
--зм
--зма
--зо
--зов
--зонзо
--зонок
--зор
--зост
--зт
--зу
--зы
--зь
--зэ
--зэть
--зят
--и
--иан
--ивнои
--иг
--ид
--иди
--ие
--иев
--иеи
--иень
--изе
--изм
--изма
--измань
--изь
--ии
--ик
--ика
--икань
--икасо
--ике
--ики
--ико
--иков
--икше
--ил
--ила
--или
--им
--имов
--ин
--ина
--иная
--инг
--ини
--ино
--инт
--ины
--инь
--инэнь
--ио
--ир
--ировазь
--ис
--исо
--ист
--исты
--истыи
--ит
--ите
--ится
--ить
--иф
--их
--иха
--иц
--ица
--ицань
--ицась
--ицы
--ицянь
--ич
--ическая
--ические
--ическии
--ических
--ического
--ическое
--ическои
--ища
--ию
--ия
--ияв
--иями
--иянь
--ияс
--иясо
--иясь
--ият
--к
--ка
--каи
--как
--какс
--кан
--канть
--кат
--кая
--ке
--кесэ
--кеть
--ки
--кии
--кин
--ко
--ков
--кс
--кске
--кскелинь
--ксово
--ксось
--кссо
--кст
--ксто
--ксть
--ксчи
--ксэкс
--ксэнзэ
--кт
--ку
--кш
--кшнось
--кшныть
--л
--ла
--лаи
--лак
--лан
--лапа
--лар
--лга
--лгавтозь
--лгавты
--лгады
--лдо
--ле
--лежит
--леи
--лела
--лер
--ли
--лизе
--лизь
--лим
--лин
--линзе
--лино
--лия
--ллин
--ло
--лов
--лог
--лои
--лт
--лть
--лу
--лы
--лыи
--ль
--лько
--льная
--льнои
--льные
--льным
--льных
--льть
--ля
--лят
--м
--ма
--мадо
--манонь
--мас
--мась
--мга
--ме
--меж
--мен
--мер
--ми
--мизь
--мка
--мкс
--мо
--мов
--модо
--монзо
--монть
--мот
--мош
--мп
--мс
--мсто
--мсь
--мт
--мтыця
--мть
--му
--мут
--мы
--мыя
--н
--на
--ная
--нбуе
--нг
--нга
--нгия
--нго
--нд
--нде
--не
--неде
--нее
--незь
--неи
--нек
--ненень
--нень
--нес
--нест
--нестэ
--несэ
--нец
--нза
--нзе
--нзо
--нзэ
--ни
--ние
--нии
--ник
--нин
--нис
--нить
--ница
--нию
--ния
--ниянь
--нк
--нка
--нко
--нная
--нние
--нно
--нности
--нныи
--нных
--но
--нов
--ного
--ное
--нои
--нок
--ном
--нонь
--ностеи
--ности
--нс
--нск
--нская
--нскии
--нскои
--нт
--нте
--нтень
--нти
--нто
--нтов
--нты
--нть
--ную
--нц
--нч
--ны
--ные
--ныи
--ным
--ных
--нь
--нья
--нэ
--нэнень
--нэнь
--нэсэ
--нэть
--ню
--ня
--о
--об
--обы
--ов
--ова
--овань
--овательная
--овая
--ове
--ови
--овина
--ович
--овка
--овке
--овна
--ово
--ового
--овои
--овонь
--овскии
--овского
--овсь
--овые
--овыи
--овых
--ог
--ого
--одема
--ое
--оень
--ож
--озо
--озь
--ои
--ок
--окс
--ол
--оле
--оли
--ологии
--ом
--ома
--омка
--омо
--омс
--ому
--он
--онень
--онзо
--онт
--онтень
--онть
--онь
--ор
--ора
--орд
--оро
--оры
--ос
--ост
--ости
--осто
--ость
--ось
--от
--оты
--оть
--отэ
--оу
--очно
--оя
--п
--па
--паз
--пе
--пель
--по
--пов
--позицию
--пря
--пс
--пу
--пь
--р
--ра
--рад
--рд
--ре
--рев
--ри
--рии
--рин
--рию
--рлеи
--рное
--рнои
--рные
--рных
--ро
--ров
--рово
--рс
--ру
--рше
--ры
--рь
--рэнь
--рю
--с
--са
--се
--сево
--сенть
--си
--ск
--ска
--ская
--ски
--ские
--скии
--ских
--ско
--ского
--ское
--скои
--ском
--скую
--слав
--со
--сово
--сон
--сонзо
--сонть
--сонь
--спи
--ссо
--ст
--ства
--стве
--сте
--стеи
--стень
--сти
--сто
--стонть
--стт
--сты
--сть
--стэ
--су
--сы
--сызь
--сь
--сье
--ська
--сэ
--сэнть
--сэсь
--ся
--сят
--т
--та
--тано
--тва
--твань
--те
--теии
--тень
--тет
--ти
--тивная
--тивнои
--тика
--тикше
--тить
--тич
--тне
--тнеде
--тнень
--тнестэ
--тнесэ
--тник
--тнэ
--тнэде
--тнэнь
--тнэсэ
--то
--тов
--тозь
--томо
--тор
--тр
--тры
--тсь
--тсэ
--тт
--ты
--тызе
--тыи
--тыть
--тыця
--ть
--ться
--тэ
--тэнть
--тэнь
--тя
--тямо
--у
--уг
--уд
--уе
--ует
--уз
--ук
--укция
--улов
--ум
--ун
--ур
--ура
--ург
--ури
--ус
--ут
--ута
--уш
--уша
--ушево
--ую
--ующеи
--ф
--фа
--фея
--фия
--фор
--фт
--х
--ха
--хво
--хи
--хин
--хова
--хсо
--ц
--ца
--це
--цек
--ци
--ции
--ция
--циянь
--циясо
--цият
--цкая
--цкии
--цкои
--цт
--цу
--цы
--ць
--цька
--ця
--цякс
--цят
--цятне
--ч
--ча
--чает
--чая
--че
--чжоу
--чи
--чинть
--чинь
--чис
--чист
--чись
--чисэ
--чит
--чка
--чок
--чук
--чурин
--чь
--ш
--ша
--шат
--ше
--шев
--ши
--шин
--шина
--шка
--шки
--шло
--шнось
--шо
--шт
--шу
--щ
--ще
--щеи
--щи
--щик
--ъ
--ъе
--ы
--ые
--ызе
--ызь
--ыи
--ык
--ым
--ынзе
--ынь
--ып
--ыть
--ых
--ыш
--ышев
--ышево
--ь
--ьбе
--ьва
--ьга
--ьге
--ьд
--ье
--ька
--ькс
--ьная
--ьне
--ьнень
--ьник
--ьнои
--ьныи
--ьным
--ьными
--ьных
--ьс
--ьскии
--ьскои
--ьсы
--ься
--ьть
--ьф
--ьц
--ья
--ьян
--э
--эв
--эзэ
--экс
--эле
--эм
--эн
--энзэ
--энтень
--энть
--энь
--эст
--эсь
--ю
--юк
--юм
--ют
--юш
--ющая
--ющеи
--ющии
--я
--яд
--яз
--язь
--яи
--як
--яли
--ям
--ямо
--ян
--яна
--янь
--яр
--ясо
--ясь
--ят
--яш
--і
--ҡ
--ل
--ن
