!
"
#
##0
##1
##10
##11
##12
##13
##14
##15
##16
##17
##18
##19
##2
##20
##21
##22
##23
##24
##25
##26
##27
##28
##29
##3
##30
##31
##32
##33
##34
##35
##36
##37
##38
##39
##4
##40
##41
##42
##43
##44
##45
##46
##47
##48
##49
##5
##50
##51
##52
##53
##54
##55
##56
##57
##58
##59
##6
##60
##61
##62
##63
##64
##65
##66
##67
##68
##69
##7
##70
##71
##72
##73
##74
##75
##76
##77
##78
##79
##8
##80
##81
##82
##83
##84
##85
##86
##87
##88
##89
##9
##90
##91
##92
##93
##94
##95
##96
##97
##98
##99
$
%
&
'
(
)
*
+
,
-
.
/
0
00
000
001
002
003
01
0100
01585
016
0163867
019
02
021
03
04
0433
0483
05
06
07
08
09
0963
1
10
100
1000
10000
100000
1001
1002
1003
1004
1005
1006
1007
1008
1009
101
1010
10100
101000
1011
1012
1013
1014
1015
1016
1017
1018
1019
102
1020
10200
102000
1021
1022
1023
1024
1025
1026
1027
1028
1029
103
1030
10300
103000
1031
1032
1033
1034
1035
1036
1037
1038
1039
104
1040
10400
1041
1042
1043
1044
1045
1046
1047
1048
1049
105
1050
10500
105000
1051
1052
1053
1054
1055
1056
1057
1058
1059
106
1060
10600
106000
1061
1062
1063
1064
1065
1066
1067
1068
1069
107
1070
10700
107000
1071
1072
1073
1074
1075
1076
1077
1078
1079
108
1080
10800
108000
1081
1082
1083
1084
1085
1086
1087
1088
1089
109
1090
10900
109000
1091
1092
1093
1094
1095
1096
1097
1098
1099
11
110
1100
11000
110000
1101
1102
1103
1104
1105
1106
1107
1108
1109
111
1110
11100
111000
1111
1112
1113
1114
1115
1116
1117
1118
1119
112
1120
11200
112000
1121
1122
1123
1124
1125
1126
1127
1128
1129
113
1130
113000
1131
1132
1133
1134
1135
1136
1137
1138
1139
114
1140
11400
1141
1142
1143
1144
1145
1146
1147
1148
1149
115
1150
11500
1151
1152
1153
1154
1155
1156
1157
1158
1159
116
1160
11600
116000
1161
1162
1163
1164
1165
1166
1167
1168
1169
117
1170
11700
1171
1172
1173
1174
1175
1176
1177
1178
1179
118
1180
11800
118000
1181
1182
1183
1184
1185
1186
1187
1188
1189
119
1190
11900
1191
1192
1193
1194
1195
1196
1197
1198
1199
12
120
1200
12000
120000
1201
1202
1203
1204
1205
1206
1207
1208
1209
121
1210
12100
121000
1211
1212
1213
1214
1215
1216
1217
1218
1219
122
1220
12200
122000
1221
1222
1223
1224
1225
1226
1227
1228
1229
123
1230
12300
1231
1232
1233
1234
1235
1236
1237
1238
1239
124
1240
12400
1241
1242
1243
1244
1245
1246
1247
1248
1249
125
1250
12500
125000
1251
1252
1253
1254
1255
1256
1257
1258
1259
126
1260
12600
1261
1262
1263
1264
1265
1266
1267
1268
1269
127
1270
12700
1271
1272
1273
1274
1275
1276
1277
1278
1279
128
1280
128000
1281
1282
1283
1284
1285
1286
1287
1288
1289
129
1290
12900
1291
1292
1293
1294
1295
1296
1297
1298
1299
13
130
1300
13000
130000
1301
1302
1303
1304
1305
1306
1307
1308
1309
131
1310
13100
1311
1312
1313
1314
1315
1316
1317
1318
1319
132
1320
13200
1321
1322
1323
1324
1325
1326
1327
1328
1329
133
1330
13300
1331
1332
1333
1334
1335
1336
1337
1338
1339
134
1340
13400
134000
1341
1342
1343
1344
1345
1346
1347
1348
1349
135
1350
13500
135000
1351
1352
1353
1354
1355
1356
1357
1358
1359
136
1360
13600
136000
1361
1362
1363
1364
1365
1366
1367
1368
1369
137
1370
137000
1371
1372
1373
1374
1375
1376
1377
1378
1379
138
1380
13800
1381
1382
1383
1384
1385
1386
1387
1388
1389
139
1390
1391
1392
1393
1394
1395
1396
1397
1398
1399
14
140
1400
14000
1401
1402
1403
1404
1405
1406
1407
1408
1409
141
1410
1411
1412
1413
1414
1415
1416
1417
1418
1419
142
1420
14200
142000
1421
1422
1423
1424
1425
1426
1427
1428
1429
143
1430
14300
1431
1432
1433
1434
1435
1436
1437
1438
1439
144
1440
1441
1442
1443
1444
1445
1446
1447
1448
1449
145
1450
1451
1452
1453
1454
1455
1456
1457
1458
1459
146
1460
14600
1461
1462
1463
1464
1465
1466
1467
1468
1469
147
1470
14700
1471
1472
1473
1474
1475
1476
1477
1478
1479
148
1480
14800
1481
1482
1483
1484
1485
1486
1487
1488
1489
149
1490
14900
1491
1492
1493
1494
1495
1496
1497
1498
1499
15
150
1500
15000
150000
1501
1502
1503
1504
1505
1506
1507
1508
1509
151
1510
15100
151000
1511
1512
1513
1514
1515
1516
1517
1518
1519
152
1520
152000
1521
1522
1523
1524
1525
1526
1527
1528
1529
153
1530
15300
153000
1531
1532
1533
1534
1535
1536
1537
1538
1539
154
1540
1541
1542
1543
1544
1545
1546
1547
1548
1549
155
1550
15500
1551
1552
1553
1554
1555
1556
1557
1558
1559
156
1560
15600
1561
1562
15623
1563
1564
1565
1566
1567
1568
1569
157
1570
15700
1571
1572
1573
1574
1575
1576
1577
1578
1579
158
1580
1581
1582
1583
1584
1585
1586
1587
1588
1589
159
1590
1591
1592
1593
1594
1595
1596
1597
1598
1599
16
160
1600
16000
1601
1602
1603
1604
1605
1606
1607
1608
1609
161
1610
16100
1611
1612
1613
1614
1615
1616
1617
1618
1619
162
1620
16200
162000
1621
1622
1623
1624
1625
1626
1627
1628
1629
163
1630
1631
1632
1633
1634
1635
1636
1637
1638
1639
164
1640
16400
1641
1642
1643
1644
1645
1646
1647
1648
1649
165
1650
16500
1651
1652
1653
1654
1655
1656
1657
1658
1659
166
1660
16600
166000
1661
1662
1663
1664
1665
1666
1667
1668
1669
167
1670
16700
1671
1672
1673
1674
1675
1676
1677
1678
1679
168
1680
16800
1681
1682
1683
1684
1685
1686
1687
1688
1689
169
1690
16900
1691
1692
1693
1694
1695
1696
1697
169790
1698
1699
17
170
1700
17000
1701
1702
1703
1704
1705
1706
1707
1708
1709
171
1710
17100
1711
1712
1713
1714
1715
1716
1717
1718
1719
172
1720
17200
1721
1722
1723
1724
1725
1726
1727
1728
1729
173
1730
17300
1731
1732
1733
1734
1735
1736
1737
1738
1739
174
1740
1741
1742
1743
1744
1745
1746
1747
1748
1749
175
1750
17500
1751
1752
1753
1754
1755
1756
1757
1758
1759
176
1760
17600
1761
1762
1763
1764
1765
1766
1767
1768
1769
177
1770
17700
1771
1772
1773
1774
1775
1776
1777
1778
1779
178
1780
17800
1781
1782
1783
1784
1785
1786
1787
1788
1789
179
1790
1791
1792
1793
1794
1795
1796
1797
1798
1799
18
180
1800
18000
1801
1802
1803
1804
1805
1806
1807
1808
1809
181
1810
1811
1812
1813
1814
1815
1816
1817
1818
1819
182
1820
18200
1821
1822
1823
1824
1825
1826
1827
1828
1829
183
1830
18300
1831
1832
1833
1834
1835
1836
1837
1838
1839
184
1840
18400
1841
1842
1843
1844
1845
1846
1847
1848
1849
185
1850
18500
1851
1852
1853
1854
1855
1856
1857
1858
1859
186
1860
18600
1861
1862
1863
1864
1865
1866
1867
1868
1869
187
1870
1871
1872
1873
1874
1875
1876
1877
1878
1879
188
1880
1881
1882
1883
1884
1885
1886
1887
1888
1889
189
1890
18900
1891
1892
1893
1894
1895
1896
1897
1898
1899
19
190
1900
19000
1901
1902
1903
1904
1905
1906
1907
1908
1909
191
1910
19100
1911
1912
1913
1914
1915
1916
1917
1918
1919
192
1920
19200
1921
1922
1923
1924
1925
1926
1927
1928
1929
193
1930
19300
1931
1932
1933
1934
1935
1936
1937
1938
1939
194
1940
1941
1942
1943
1944
1945
1946
1947
1948
1949
195
1950
19500
1951
1952
1953
1954
1955
1956
1957
1958
1959
196
1960
1961
1962
1963
1964
1965
1966
1967
1968
1969
197
1970
19700
1971
1972
1973
1974
1975
1976
1977
1978
1979
198
1980
19800
1981
1982
1983
1984
1985
1986
1987
1988
1989
199
1990
19900
1991
1992
1993
1994
1995
1996
1997
1998
1999
2
20
200
2000
20000
2001
2002
2003
2004
2005
2006
2007
2008
2009
201
2010
20100
2011
2012
2013
2014
2015
2016
2017
2018
2019
202
2020
20200
2021
20210
2022
2023
2024
2025
2026
2027
2028
2029
203
2030
20300
2031
2032
2033
2035
2036
2037
2038
204
2040
2041
2042
2043
2044
2045
2047
2048
2049
205
2050
20500
2051
2053
2054
2055
2057
2058
206
2060
20600
2062
2063
2065
2066
2067
2068
2069
207
2071
2073
2074
2075
2076
2078
2079
208
2080
208000
2082
2085
2087
2088
2089
209
2090
2091
2092
2093
2094
2095
2096
2097
2098
2099
21
210
2100
21000
2101
2102
2103
2105
2106
2107
2108
211
2110
2111
2112
2114
2115
2117
2119
212
2120
2121
2122
2124
2125
2127
213
2130
21300
2132
2134
2135
2136
2137
2138
214
2140
21400
2141
2142
2143
2144
2145
2146
2147
2148
215
2151
2152
2155
2157
2158
2159
216
2160
2161
2164
217
2171
2174
2175
2178
218
2180
2181
2182
2183
2184
2185
2187
219
2190
21900
2191
2192
2193
2197
2198
2199
22
220
2200
22000
2203
2204
2206
2207
2208
221
2210
2211
2214
2215
2216
2217
2218
222
2220
22200
2221
2222
2223
2224
2225
2226
2227
2228
223
2230
2233
2234
2235
2237
2239
224
2240
2241
2242
2243
2246
225
2250
22500
2251
2254
2255
2256
2257
2258
226
2260
2261
2264
2265
2266
2267
227
2270
22700
2272
2273
2274
2275
2277
2278
2279
228
2280
2281
2282
2285
2286
2287
2289
229
2290
22900
2291
2294
2295
23
230
2300
23000
2306
2307
2308
231
2310
23100
2312
2314
232
2321
2322
2324
2326
2328
2329
233
2330
2332
2338
2339
234
2340
23400
2341
2344
2346
2348
235
23500
2352
2354
236
2362
2363
2364
2365
2368
237
2370
2371
2373
2374
2378
2379
238
23800
2382
2383
2385
2388
2389
239
2392
2393
2396
2398
24
240
2400
24000
2402
2403
2407
2409
241
2411
2412
2414
2415
2418
242
2420
2423
2424
2425
2426
2427
2428
2429
243
2430
2434
2435
244
2442
2443
2446
2447
2448
245
2451
2456
2457
2458
246
2460
2462
2464
2469
247
2471
2473
2478
2479
248
2480
24800
2481
2482
2486
249
24900
2492
2493
2498
25
250
2500
25000
2502
2503
2504
2505
2507
2508
2509
251
25100
2512
2513
2514
2515
2516
2517
2519
252
2521
2525
2527
253
2530
2531
2533
2536
2537
2539
254
2540
25400
2541
2544
2545
2546
2547
255
2550
2552
2553
2555
256
2562
2564
2566
257
2572
2575
2576
2577
258
2580
25800
2581
2584
2586
2588
2589
259
2591
2594
2595
26
260
2600
26000
2605
2608
261
2610
2611
2612
2614
2615
2616
262
26200
2623
2624
2626
263
2630
26300
2635
2636
264
2640
2641
2643
2644
2645
2646
265
26500
2654
2655
266
26600
2661
2662
2667
2669
267
2671
2674
2677
2679
268
26800
2684
2685
2686
2687
269
2690
26900
2691
2693
2696
2699
27
270
2700
27000
2701
2705
2709
271
27100
272
2721
2725
2726
2728
273
2730
27300
2732
2735
2737
274
27400
2742
2743
2745
2746
275
2750
27500
2751
2753
2755
2759
276
2762
277
2772
2777
2778
278
2784
2786
279
2790
2796
28
280
2800
28000
2801
2802
2805
2806
2807
2809
281
2810
2816
2818
282
28200
2821
2823
2827
283
2830
2833
2838
284
2842
2843
285
28500
2853
2858
2859
286
2861
2865
2867
2868
287
2872
2878
288
2882
2887
289
2890
2895
29
290
2900
2902
291
2910
2911
292
2922
2924
293
2930
2934
2935
2936
294
2946
295
2951
2955
296
2960
2963
2964
297
2973
2979
298
2988
299
2991
3
30
300
3000
30000
300000
3002
3004
3005
3006
301
3011
302
3020
3025
3026
3029
303
3031
3034
304
3047
305
3050
3052
306
3060
3064
307
3072
3074
3075
3077
308
3083
3086
309
3090
3091
3094
3096
3098
31
310
3100
31000
3105
311
3110
3113
3114
312
3122
3124
3127
313
3130
3134
3138
3139
314
3141
315
31500
3156
316
317
3170
318
319
3191
3194
32
320
3200
32000
3207
321
32172
322
3220
3225
323
3238
324
3241
325
3253
326
3266
327
3278
328
3280
32800
3289
329
3292
33
330
3300
33000
3301
3304
3307
331
3319
332
3321
333
334
3342
3343
3344
335
3355
336
3360
3362
3365
3367
3368
337
3370
3377
338
3389
339
3390
34
340
3400
34000
3406
3408
341
3410
3412
342
3426
343
3437
344
345
346
3461
3463
3469
347
3478
348
349
35
350
3500
35000
351
352
353
354
3541
3544
355
356
357
358
359
3599
36
360
3600
361
3616
362
363
364
365
366
367
368
369
3698
37
370
3700
37000
371
3718
372
373
3734
374
375
376
3761
377
378
379
38
380
3800
381
382
383
384
385
386
387
3870
3876
388
389
39
390
3900
3901
3908
391
392
3923
393
394
395
396
397
398
399
4
40
400
4000
40000
401
402
403
404
405
406
407
408
409
41
410
4100
41000
411
412
413
41385
414
415
416
417
418
419
4190
42
420
4200
42000
421
422
42200
423
424
425
426
427
428
42800
429
43
430
4300
43000
431
432
433
434
435
43527
436
437
438
439
4394
44
440
4400
441
442
443
444
445
446
447
448
449
45
450
4500
451
452
453
454
455
456
457
458
459
46
460
4600
461
462
463
464
465
466
467
468
469
47
470
4700
471
472
473
474
4745
475
476
477
478
479
48
480
48000
481
482
483
484
485
486
487
488
489
49
490
4900
491
492
493
494
495
496
497
4972
4973
4974
498
499
4997
5
50
500
5000
50000
501
502
503
504
505
506
507
508
5084
509
51
510
5100
51000
511
512
513
514
515
516
5168
517
518
519
52
520
5200
52000
521
522
523
524
525
526
5267
527
528
5286
529
53
530
5300
53000
531
532
533
534
5340
535
536
537
538
539
54
540
5400
54000
541
542
543
544
5446
545
546
547
548
549
55
550
5500
55000
551
552
553
554
555
556
557
558
559
56
560
5600
561
562
563
564
565
566
5667
567
568
569
57
570
5700
57000
571
572
573
574
575
576
577
5777
578
579
58
580
5800
581
582
583
584
585
5851
586
587
588
589
5890
59
590
5900
59000
591
592
593
594
595
596
597
598
599
6
60
600
6000
60000
601
602
6023
603
604
605
606
607
608
609
61
610
6100
61000
611
612
613
614
615
616
617
618
619
62
620
6200
62000
621
622
623
624
625
626
627
628
629
63
630
6300
63000
631
632
633
634
635
636
637
638
639
64
640
6400
64000
641
642
643
644
645
646
647
648
649
65
650
6500
65000
651
652
653
654
655
656
657
658
659
6596
66
660
6600
66000
661
662
663
664
665
666
667
668
669
67
670
6700
67000
671
672
673
674
675
676
677
678
679
68
680
6800
68000
681
682
683
684
685
686
687
688
689
69
690
69000
691
692
693
6934
694
695
696
697
698
699
7
70
700
7000
70000
701
702
703
704
705
706
707
708
709
71
710
71000
7103
711
712
713
714
715
716
717
7175
718
719
72
720
7200
72000
721
722
723
724
725
726
727
728
729
73
730
7300
73000
731
732
733
734
735
736
737
738
739
74
740
7400
741
742
743
744
745
7456
746
7463
747
748
749
7493
75
750
7500
751
752
753
754
755
756
757
758
759
7595
76
760
7600
761
762
763
764
765
766
767
768
769
77
770
7700
771
772
773
774
775
776
777
778
779
78
780
7800
781
782
783
784
785
786
787
788
789
79
790
7900
791
792
793
794
795
796
797
798
799
8
80
800
8000
801
802
803
804
805
806
807
808
809
81
810
8100
811
8112027
812
813
814
815
816
817
818
819
82
820
8200
82000
821
822
823
824
825
826
827
828
829
83
830
8300
831
832
833
834
835
836
837
838
839
84
840
8400
841
842
843
844
845
846
847
848
849
85
850
8500
85000
851
852
85270
853
854
855
856
857
858
859
86
860
8600
86000
8601
861
862
863
864
865
866
867
868
869
87
870
8700
87000
871
872
873
874
875
876
877
878
87898
879
88
880
881
882
883
884
885
886
887
888
889
89
890
8900
891
892
893
89362
894
89476
895
896
897
898
899
9
90
900
9000
90000
900029
901
902
903
904
905
906
907
908
909
91
910
9100
911
912
913
914
915
916
917
918
919
92
920
9200
921
922
9223372036854775808
923
924
925
926
927
9270
928
929
93
930
931
932
933
934
935
936
937
938
939
94
940
9400
9403
941
942
943
944
945
946
947
948
949
95
950
9500
95000
951
952
953
954
955
956
957
958
959
96
960
9600
96000
961
962
963
964
965
966
967
968
969
97
970
971
972
973
974
975
976
977
978
979
98
980
98000
981
982
983
984
985
986
987
9876
988
989
99
990
991
992
993
994
995
996
997
998
9986
999
:
;
<
=
>
?
@
\
^
_
`
a
aa
aaa
aakhmedova
aasma
aaude
ab
abc
able
ablon
ablono
about
above
abs
abstract
ac
academic
accepted
accepts
access
accessdate
accessed
accessible
according
account
accounts
across
act
acta
action
active
activeusers
activity
acts
ad
add
addclass
added
adding
addition
additional
address
adds
administrative
administrator
admins
advanced
ady
ae
aerial
af
affect
affected
afghanistan
africa
after
ag
again
age
agency
ago
agrostis
ah
ahead
ai
air
airport
aj
ak
ako
al
alba
albania
album
aleksis
alemania
alexander
ali
alias
aliases
alighieri
align
all
allmusic
allow
allowed
allows
almost
alpha
alphabet
already
als
also
alt
although
always
am
ambox
america
american
americanus
among
amount
amu
an
anchor
and
android
angle
animation
anita
anna
anne
announced
announcement
announcing
annual
another
answer
any
anyone
anything
ao
ap
apologies
apologize
apostrophe
app
appear
appearance
appears
appendimpl
appendproperty
appendsnaks
applications
applied
apply
appropriate
april
aq
aquatica
ar
arabic
arc
archimedes
archive
archived
archivedate
archives
archiveurl
arctium
arctos
are
area
areas
aren
arg
argkeys
args
argscfg
argsi
argsk
argument
arguments
arhpress
ark
armenia
armenian
around
array
art
article
articles
artist
artists
arts
arvensis
arvi
arxiv
as
asin
ask
asp
aspects
aspx
assertnotnull
assigned
assisted
associated
association
assume
ast
asteraceae
asv
at
athlete
athletes
atlas
attr
attribute
attributes
au
audio
auf
august
aus
author
authority
authorlink
authors
auto
automatic
automatically
autonomous
autovalue
av
available
aviav
avoid
aw
award
awards
ax
ay
az
b
ba
bach
back
background
bad
band
banner
bar
barcelona
bare
bas
base
based
bashstat
basic
basketball
bb
bbc
bc
bd
be
beach
beatles
because
become
been
beethoven
before
begin
beginning
begun
behalf
behavior
behind
being
bekovo
bel
belfort
bell
below
bengali
beograd
ber
berlin
bernard
bernhardt
bers
best
beta
betonica
better
between
bf
bg
bh
bi
bibcode
biblioteca
big
biografico
biography
biorxiv
birth
bit
bj
bk
bl
black
blacklist
blacklisted
blank
blender
block
blocker
blue
bm
bms
bn
bo
board
body
bodyclass
bodystyle
bold
book
books
bookseries
boolean
border
bosco
bot
both
bots
botstatus
bottom
boundaries
box
boxes
bp
bpy
bq
br
bracket
brackets
break
bridge
bring
britannica
british
broken
bromus
brown
browser
brts
bruno
bry
bs
bstructure
bt
bu
budapest
bug
bugs
build
builder
building
bulgaria
bur
but
button
buttons
bv
bw
bx
bxr
by
bz
c
ca
cache
cached
calamagrostis
calendar
california
call
called
calling
callitriche
calluna
cambridge
campaign
can
canada
canal
candidate
candidates
cannot
cap
capital
capitalization
caption
capture
card
cards
career
casa
case
cases
castle
cat
catedral
categories
categorisation
categorize
categorizes
category
categoryhandler
cathedral
catmore
cats
cause
cb
cbk
cc
cd
ce
ceae
cee
cell
cells
census
centaurea
center
central
centralnotice
centre
century
cf
cfg
cg
cgi
ch
cha
chain
change
changed
changes
changing
chapter
char
character
characters
charles
charts
che
check
checking
checks
checktype
chess
child
chilly
china
chinese
choose
chosen
chr
christ
christmas
chu
church
chv
ci
cia
circumstances
cirsium
citation
citations
cite
citeref
citeseerx
citoid
city
cityes
cj
ck
cl
claim
claims
class
classes
classical
clean
clear
click
club
cm
cmbox
cn
co
coauthors
code
codes
coins
collaboration
collapsed
collapsible
collection
collections
colon
color
colors
colspan
columbia
column
columns
com
come
coming
comma
command
commands
commas
comment
comments
committee
common
commons
commonsmedia
communities
community
compact
company
competition
complete
complex
concat
concerns
condition
conduct
conference
config
configuration
conflicts
congress
congressus
conjunction
connect
consider
consistent
consultation
consultations
consultato
contact
contain
containing
contains
content
contents
contest
context
continue
contribute
contribution
contributions
contributor
contributors
control
convert
coord
coordinate
coordinates
coordinatespec
copy
core
corporate
correct
could
count
countries
country
countrystatement
course
covid
cp
cq
cr
create
createcell
created
creating
creative
croatia
cross
cs
css
csstext
ct
ctat
cu
cultural
culture
cup
cura
current
currententity
currently
custom
cv
cw
cx
cy
cyberleninka
cyrillic
cz
d
da
dag
daily
dance
dans
dante
dantesca
das
dash
data
database
datatype
datavalue
date
datein
dateofbirth
dateofdeath
datepart
dates
david
day
days
db
dbinet
dbscripts
dc
dd
de
dead
dear
death
dec
december
decimal
deepcopy
default
defaults
defined
deg
degli
del
delete
deletion
delivered
delivery
dell
della
delle
dem
demo
demoscope
demospace
den
department
depending
deployed
deployment
deprecated
depth
der
des
description
descriptions
design
designed
desktop
detail
details
detect
deutsche
deutschland
developers
development
devices
df
dg
dh
di
dialog
dianthus
dictionary
did
die
diff
differ
different
digit
digital
digits
dioica
dir
direction
directly
directory
disambig
discuss
discussion
discussions
display
displayed
displays
dissemination
dissertation
distributed
ditions
div
diverse
division
dizionario
dj
dk
dl
dlr
dm
dmoz
dms
dmy
dn
do
doc
document
documentation
documents
does
doesn
doi
domain
don
donation
done
dot
double
down
download
dp
dq
dr
draft
drafting
drone
drop
ds
dsb
dsc
dt
du
due
duplicate
dur
during
dv
dvd
dvinaland
dw
dx
dy
dz
dztwo
e
ea
each
eao
earlier
early
earth
easier
east
eastern
easy
eb
ec
economists
ed
edit
edithistory
editing
edition
editions
editor
editorial
editors
editorsabbr
edits
eds
edu
edłoha
ee
eesti
effects
eg
egon
eh
ei
ein
eine
einer
eissn
either
ej
ek
el
ela
election
elections
element
elementid
elements
elias
eliasmelteme
eligible
elitre
else
elseif
em
email
embargo
empire
empty
en
enable
enabled
enciclopedia
encode
encourage
encyclopedia
end
endash
engagement
engine
england
english
entities
entity
entityid
entries
entry
enumerated
environment
enwikisource
eo
ep
episode
eq
er
erigeron
err
errmsg
error
errors
ersa
eryngium
erza
erzia
erzianj
erzya
es
esa
escape
espan
esperanto
estonia
estonian
et
etal
etc
etno
eu
europa
europe
european
ev
even
event
ever
every
everyone
everything
ew
ex
exactly
example
examples
except
exhibition
exist
existing
exists
expand
expanded
expandtemplate
expected
experience
experienced
explorer
ext
extension
extensions
external
extra
extract
ey
ez
ezh
ezhegodnik
ezy
f
fa
facebook
factbook
fail
false
family
faq
far
favorite
fb
fd
fdc
fe
feature
featured
features
february
fed
feedback
feel
female
feminism
fenno
festival
fetch
few
ff
fg
fh
fi
field
fight
file
files
fill
filled
film
filter
final
find
finnish
finno
finnougoria
fire
firenze
first
firstn
fis
fiu
five
fix
fixed
fj
fk
fl
flag
flagimagestatement
flags
float
floor
flora
flow
flower
fm
fmt
fn
fo
focus
focused
folk
folklore
follow
following
font
fontsize
foo
fooentity
football
for
force
foreign
form
format
formatdate
formatnum
formatproperty
formatpropertywithmostrecentclaimandindicator
formats
formatsnak
formatstatementdefault
formatted
formattedstatement
formatter
formatting
forms
fort
forward
found
foundation
four
fp
fq
fr
frac
frame
frameless
frameonly
framework
franc
france
francesco
francia
frankfurt
free
french
frhdkazan
friday
from
front
fs
ft
fu
full
fullname
func
function
functionality
functions
funds
future
fv
fw
fx
fy
g
ga
gadgets
gallery
game
games
gap
garden
gb
gc
gd
ge
gender
general
genitivusmonthesnm
genre
genres
geo
george
georgia
gerardm
german
germany
geschichte
get
getargs
getbeststatements
getcode
getcontentlanguage
getcurrentframe
getcurrenttitle
getentity
getentityobject
getlabel
getparameters
getparent
gets
getsingle
getting
geum
gg
gi
gif
gili
giordano
giovanni
giugno
give
given
gj
gje
gks
gl
global
globe
glycyrrhiza
gm
gn
gnd
go
goal
gody
goethe
going
golden
good
google
got
gov
gr
gra
grammophon
grand
grant
grants
gray
great
greece
greek
green
greetings
gregorian
group
groups
groupstyle
gs
gsub
gt
gu
guide
gustav
gutenberg
gv
gw
gx
gy
gz
h
ha
had
hall
hand
handle
handler
handlers
happen
happens
happy
harassment
hard
harmattan
has
hash
haus
have
having
hb
hd
hdl
hdr
he
head
header
headers
health
hear
heart
hebrew
height
heikki
heiligengrabe
helianthus
helichrysum
hello
help
helped
helper
helping
helsinki
her
herausgeg
here
heritage
hi
hidden
hiddencat
hide
high
highlight
hill
him
his
histoire
historia
historical
history
hler
hlist
hm
hmao
ho
hold
holocaust
home
hong
hope
host
hour
hours
house
how
however
hozyaystvo
hr
hrsg
hsb
ht
htm
html
http
https
hu
human
humanities
hungarian
hungary
hv
hw
hx
hy
hypericum
hyphen
hyphens
i
ia
ib
ic
iccu
ice
icon
icons
id
idea
ideas
identifier
identifiers
ids
ie
ies
if
ig
iglesia
ignore
ignored
ii
iii
ik
il
illustration
ilo
im
image
imageleft
imageright
images
imbox
img
impact
important
imported
improve
improved
improvements
improving
in
ina
inactive
inbord
include
included
includes
including
incnis
index
indian
individual
individuals
indoor
inen
info
infobox
infoboxes
infocards
information
informed
ing
ingdate
inherit
initial
initials
injdate
inline
innv
input
insert
inserter
inside
instagram
instance
instead
institute
instructions
instrument
instruments
int
integer
intended
interested
interface
internal
international
internationalis
internet
interview
interviewer
interviewers
interwiki
into
introduction
invalid
inversed
invisible
invite
invited
invoke
involved
io
ip
ipairs
ipni
ipv
iq
ir
ira
irc
irk
is
isa
isbn
isdate
isempty
isfaha
isinversed
island
ismn
isn
iso
issn
issue
issues
ist
istituto
istmat
isxn
it
italian
italiana
italiani
italic
italy
item
itemid
items
iterator
its
itself
iu
iv
iva
ivan
ivo
iw
ix
iy
iz
j
ja
jakarta
james
jan
january
japan
japanese
jb
je
jean
jew
jewish
jf
jfm
jh
ji
jj
jk
jl
jo
johann
john
join
joining
jouanna
journal
journals
jpeg
jpg
jq
js
jstor
ju
juhani
julian
july
june
jurnalist
just
jv
k
ka
kab
kadavoor
kaftaj
kag
kai
kal
kam
kao
kar
karl
kars
katitzi
kausi
kawtaj
ke
keep
keila
kem
kern
key
keyboard
keycell
keys
keywords
kf
kg
kh
kha
khk
ki
kiado
kind
king
kir
kirche
kirja
kirjallisuuden
kis
kiven
kivi
kj
kk
kl
klimt
kloster
km
kn
knj
know
knowledge
known
ko
koc
koeleria
kom
korean
kos
kosovo
kova
kr
kra
kraeved
krm
ks
ksh
ku
kudo
kug
kur
kv
ky
kya
l
la
label
labels
lady
lake
landscape
lang
langcode
langs
language
languages
languagescode
lapse
large
las
last
lat
late
later
latin
launch
lay
lb
lbe
lccn
le
leading
leaf
learn
learning
least
leave
leben
left
legal
leipzig
len
length
les
less
let
letter
letteratura
letters
level
lg
li
lia
lib
library
librivox
license
life
light
like
likely
likool
limit
limited
line
lines
linguistica
lingvistica
link
linked
linkf
links
lip
list
listed
listen
lists
liststyle
listtotext
literature
lithuania
little
live
lives
lj
lk
ll
ller
lm
lmen
ln
lo
load
loaddata
local
localisation
localising
location
lock
log
logged
logo
lon
london
long
longer
look
looking
loop
lost
love
loves
lower
lp
lr
lt
lu
lua
lum
luokka
luther
lv
m
ma
made
mafun
mag
magazine
maggio
magic
magyar
mai
mail
mailing
main
mainsnak
maint
maintain
maintenance
major
makarska
make
makes
making
mal
male
mall
man
manager
mandatory
manif
manual
manually
many
map
mappings
maps
mar
march
margin
mari
maria
marie
mark
marks
markup
mars
martin
martti
mask
mass
master
match
matches
material
materials
math
matter
max
maxnumber
may
mdf
mdy
me
means
media
mediawiki
medical
medicine
medizinal
meeting
meetings
member
members
memorial
men
menu
menus
mercedes
message
messagebox
messages
meta
metadata
metatable
mezquita
mg
mh
mi
michael
microformat
middle
might
miklo
milano
military
million
millosh
min
mini
minor
minutes
missing
mission
mit
mj
mk
ml
mm
mn
mo
mobile
mod
mode
model
modern
module
modules
mojgorod
moksha
molie
mon
monobook
monolingualtext
monotropa
month
monthgm
months
moomin
moon
mor
mordovia
mordvin
mordwinische
mordwinisches
more
mos
moscow
moskovsk
mosque
most
motd
mother
move
moved
movement
movie
mow
mp
mr
mrsi
ms
msg
mt
mu
much
mult
multi
multilingual
multiple
munich
munst
munster
mur
museum
music
musical
musician
musicians
must
muumit
mw
my
myv
n
na
nakhodka
name
named
names
namespace
namespaces
nan
nap
narhoz
narod
narodnoe
nasa
naselenie
naseleniya
national
native
natural
nature
navbar
navbox
navboxdata
navboxes
ncbi
nchen
nd
ndefaultlanguage
nds
ne
near
necessary
need
needed
needs
nen
nes
net
neue
new
newattributes
newchild
news
newsletter
newspapers
next
ng
ngr
ni
night
nights
niina
nil
niz
nizhegor
nl
nm
nn
nnes
no
nocat
node
nodes
nolinks
nominate
nominations
nominativeyear
non
none
noor
nor
normal
north
northern
not
notable
notation
note
notes
notgeld
nothing
notice
notifications
notify
notoc
nov
nova
novalue
novel
november
now
nowiki
nowrap
nowy
nr
ns
nster
nt
nu
nuclei
num
number
numbered
numbers
numeric
nums
nv
nvs
ny
o
obj
object
obl
oc
occupation
och
ocinsoutput
oclc
october
od
odd
of
off
offer
office
official
officinalis
often
ogg
ogre
ogv
oh
oj
ojkum
ok
ol
ola
old
olsztyn
olympic
om
ombox
ombudsperson
omit
omitted
omorika
oms
on
once
one
ones
online
only
op
open
opening
opera
operation
operator
oppose
opt
option
optional
options
or
orchestra
order
ordered
ore
org
organizing
orig
origargs
origin
original
orl
orphan
os
otechestvennoy
other
others
otherwise
otto
otvetstv
ou
our
out
output
outside
over
override
owl
own
oxford
oy
oyme
p
pa
paasonen
paavo
padding
page
pageobject
pages
pairs
pajusalu
palace
palustris
pam
pan
panama
panorama
panoramio
par
param
parameter
parameterdata
parameters
paramorder
params
parent
parententityids
parentonly
parentsnaks
paris
park
parsedtime
parseiso
parsetimefromsnak
part
participants
participate
participated
particular
particularly
partie
partners
partnerships
parts
pas
pasakas
pass
passed
passport
password
past
path
pathoschild
pattern
patterns
paul
pcall
pdf
pdt
pe
peace
people
per
performance
performed
period
periodical
person
persons
peter
peterburg
pflanzen
pg
pgpb
pha
phabricator
phase
philosophie
philosophy
phonetics
photo
php
physical
pi
picea
picture
pid
piliscsaba
pipe
pixels
pl
place
placed
placedatanumrecord
placeid
places
plain
plaindata
plan
planned
planning
plans
plant
plantilla
play
played
player
players
please
plus
pmc
pmid
png
pnz
pnzreg
po
polar
policy
poly
polydor
polyporus
pop
populatedatafromclaims
population
port
portal
portion
portrait
portraits
pos
poselenie
position
positional
positive
possible
possibleage
possibledatestring
post
posted
potamogeton
potd
pp
pr
practice
pre
prec
precision
predefinic
predloga
preference
preferences
preferids
preferred
prefix
present
presentation
preserve
preset
press
prev
preview
previews
previous
previously
pri
prim
primarily
primary
primoragp
pro
problem
problems
process
processed
producer
product
professional
profile
program
programming
project
projectcode
projects
prop
proper
properly
properties
property
propertyid
propertyparams
propertyselector
proposal
proposals
proposed
protection
protocol
prototype
proust
provide
provided
provides
province
ps
psk
pt
ptr
pu
public
publication
publications
published
publisher
publishing
pulmonaria
purif
purpose
put
px
python
pywikipedia
q
qena
qid
qu
qualifier
qualifierid
qualifiers
quality
quantity
que
queen
question
questions
quick
quickly
quote
quotes
r
ra
rajon
raksti
range
ranges
rank
ras
rather
ravila
rd
re
read
readers
reading
ready
real
reason
reasons
receive
recent
recently
recommended
record
records
red
redirect
reduce
redundant
ref
reference
references
reg
region
regions
registered
registration
regular
related
relative
release
released
relevant
reliable
religion
remaining
remember
remove
removed
removes
render
rendered
rendering
rep
replace
replaced
replacement
reply
report
reports
republic
request
requested
requests
require
required
requirements
requires
res
research
resolution
resources
result
resultclaims
resultproperty
resultresultproperty
results
ret
retrieved
return
returns
review
revolution
rfc
rft
ri
ribes
rica
rich
richard
right
rights
river
rlz
rm
rna
ro
roa
road
robert
robic
rock
roles
roma
roman
root
ros
rosa
ross
rossiyskiy
rosstat
routledge
row
rowindex
rows
royal
rr
rs
rsfsr
rsl
rt
ru
rue
rueter
rule
rules
run
running
rus
russia
russian
ruwikisource
rv
rvo
rya
rza
s
sa
safe
sah
saint
sak
salmivuori
salvador
sam
same
samo
san
sandbox
sankt
sant
santa
sar
sarah
saransk
saratov
sarjakuvaklassikot
save
says
sbn
sc
scale
schedule
scheme
schiele
schloss
scho
scholarship
scholarships
school
schubert
science
sciences
scientific
sco
scope
scoresway
screen
screenshot
script
scripts
sd
se
sea
search
season
sec
second
seconds
section
sections
security
see
seen
sein
select
selectclaims
selected
self
selo
selskoe
sent
sep
separate
separated
separator
sepc
september
serbia
series
service
session
set
setmetatable
sets
setting
settings
seura
sev
seven
several
sgrabarczuk
sh
share
shaw
sheet
sheets
shift
ship
short
shortcut
should
show
showing
shown
shows
shtml
si
siconversion
side
sides
sign
signups
similar
simple
simply
sin
since
singapore
singer
singing
single
site
sitelink
sitelinks
sitemap
sites
size
sjabloon
sk
ski
skin
skins
sks
sl
slovakia
small
smaller
smo
smth
sn
snak
snaks
snaktype
so
social
socie
society
software
solo
some
someone
something
sometimes
son
song
soon
sorry
sort
soul
sound
source
sourceentity
sourceid
sources
south
southern
sp
space
spaces
spain
span
spb
speak
special
specific
specified
specify
speedy
split
sport
sports
spring
sq
square
sr
src
ss
ssp
ssrn
sssr
st
sta
staff
stage
standard
star
stars
start
started
starting
stat
state
statement
statements
states
station
statistical
statisticheskiy
statistics
status
stay
sterreich
stift
still
stop
store
stories
story
str
strategy
street
stress
stressed
string
strings
strip
striping
stripmarker
stripmarkers
stripped
structure
strvalue
studies
studio
study
style
styles
styling
su
sub
subgroup
subject
submission
submit
subpage
subpages
subrule
subscribe
subscription
substitute
subtitle
successful
such
suffix
suggested
suggestions
sul
summary
summer
summit
suomalais
suomalaisen
suomen
suomentanut
suomi
support
supported
supporting
supports
sur
sure
surname
survey
sust
sv
sve
svg
svn
sw
switch
switching
syllable
symposium
syntax
sysops
system
sz
szablon
t
ta
tab
table
tables
tabletools
tabli
tag
tags
tail
take
taken
takes
tales
talk
tallinn
tam
tara
target
tartu
task
tat
tatarstan
tbl
td
te
team
teams
tech
technical
technology
tell
temp
templat
template
templatedata
templateformat
templatename
templates
temporary
temprow
tempstring
ter
terms
terra
territorial
terrus
test
tested
testing
tests
tet
text
textcolor
texte
tf
th
than
thank
thanks
that
the
their
them
theme
then
there
these
they
things
think
this
thomas
those
though
thought
thoughts
three
through
throwerror
thumb
thumbnail
thursday
thus
ti
tidyval
till
time
timelapse
times
timestamp
tirage
title
titles
titlestyle
tk
tl
tld
tlinks
tlx
tm
tmbox
tmp
tn
to
today
todo
together
toim
tom
tome
ton
tonumber
too
tool
toolbar
tools
top
topic
tostring
totable
tour
tower
town
tp
tr
traduit
trailing
train
trans
transfermarkt
translate
translated
translatewiki
translathon
translating
translation
translations
translator
translators
transparent
travel
tre
triage
trim
true
trust
trustees
try
ts
tt
tu
tul
tum
turku
turn
tuv
tv
tve
tw
twl
two
ty
type
types
typing
tyu
u
ua
ucoc
ucoz
udm
ug
ugric
ugrilainen
ugristarum
ui
uk
ukraine
ukrajina
ul
uly
umberto
un
una
unbalanced
und
undate
undefined
under
understand
understanding
understands
une
unesco
unexpected
unicode
union
unit
united
universal
university
unknown
unless
unnamed
unstressed
unsubscribe
until
up
upcoming
update
updated
updates
upload
uploads
upper
upright
ur
uralica
uri
url
urls
ursus
urtica
us
usa
usability
usage
use
used
useful
user
users
uses
using
uss
ustring
usual
usually
utc
utilities
utils
uv
uvo
uz
v
va
vaija
vain
val
valid
validate
validation
valley
value
valuefunc
values
van
vanc
vancouver
var
variability
variable
various
varmaley
vasolonj
vasuttorteneti
vauthors
ve
vec
vector
veditors
vejse
velikoy
venus
verlag
veronica
version
versions
vertical
very
ves
vg
vgg
vi
via
viaf
vid
video
vienna
view
viewed
viewer
vii
viii
village
vilnius
virtaranta
visible
visit
visual
visualeditor
visually
vla
vladimir
vlg
vls
vo
voice
vol
volksdichtung
voltaire
volume
volumes
volunteer
volunteers
von
vor
vorlage
vote
voting
vowel
voyny
vrnguide
vro
vt
vulgaris
vulpes
vuokkiniemi
vv
w
wa
wagner
want
wanted
wants
war
warszawa
was
washington
watchlist
watchlists
water
way
ways
wbstatus
wcm
wd
wds
we
web
webm
website
wednesday
week
weekly
weeks
weight
welcome
well
were
west
western
what
whatamidoing
when
where
whether
which
while
white
whitelist
whitespace
who
whole
why
wide
width
wie
wien
wiki
wikibase
wikidata
wikigap
wikilink
wikimania
wikimedia
wikimedians
wikipedia
wikipedias
wikiproject
wikis
wikiseminar
wikisource
wikitext
wild
will
william
window
winter
wish
wishes
wishlist
with
within
without
wl
wm
wmde
wmf
wo
wojewo
woman
women
word
work
working
works
world
would
wp
wps
wrap
wrapped
write
writing
written
wrong
ws
wsoy
www
wy
wydawnictwo
x
xal
xi
xico
xii
xiii
xiv
xix
xlate
xn
xv
xvi
xvii
xviii
xx
xxi
xxii
xxiii
xxvii
xxx
y
yak
yar
yds
year
yearmark
years
yes
yesno
yet
yi
ym
ymd
yo
york
you
your
youtube
yue
yyyy
z
za
zab
zam
zbl
ze
zea
zealand
zero
zh
zoom
zu
zum
zur
{
|
}
~

§
ª
«
¬
­
°
±
²
³
´
·
º
»
×
æ
ø
đ
ı
ł
ɏ
ə
ʲ
ʹ
ˈ
ː
̀
́
̂
̃
̄
̆
̇
̈
̉
̊
̋
̌
̡
̣
̦
̧
̨
͔
͡
β
ε
η
μ
ν
ς
а
аасмяэ
абатскии
абдулинскии
абдулла
абдуллин
абзелиловскии
абрамов
абрамовонь
абу
ава
авазо
аваи
авака
авакась
авакс
аваломанень
аваломанть
авангард
аванзо
аванть
авань
авасоло
аваст
авась
ават
аватне
аватнень
авг
август
августа
августе
августин
авдотьино
авеи
авиа
авиценна
авксентии
аволь
австралии
австралия
австралиянь
австрии
австрия
австриянь
австриясо
австро
авт
автоматическая
автоматически
автоматическои
автомобильных
автономнои
автономном
автономныи
автор
автора
авторов
авторонть
авторось
авторы
авш
агафонова
агеев
агеи
агентство
агидель
агнеш
агрызскии
ад
адам
адвокат
адвокатонь
административно
административнои
администратор
администратора
администраторов
администраторские
администрации
администрация
администрациянь
адольф
адрес
адреса
адресов
адыгея
адядо
азбука
азербаи
азеринь
азии
азия
азиянь
азиясо
азнакаевскии
азор
азорава
азоравась
азорось
азыркина
аи
аист
ак
акад
академии
академик
академическои
академия
академиянь
академиясо
акасусо
акбулакскии
акватория
акрил
аксе
аксубаевскии
акте
актриса
актуальные
акулово
акшенас
ал
ала
алаев
аламо
аламодо
аламонь
аламос
алан
алатырень
алатырь
алаша
алашань
алашасо
албания
албаниянь
албаниясо
албанонь
алга
алганьчеи
алдо
але
александер
александр
александра
александрань
александро
александров
александрович
александровка
александровна
александрово
александровскии
александровское
алексеев
алексеева
алексеевич
алексеевка
алексеевская
алексеевскии
алексеевское
алексеи
алексино
алексис
алешкин
али
алигьери
аликовскии
алина
алка
алкине
алкс
алкукс
алкуксонь
алнашскии
ало
алов
аловеле
аловскии
алои
алоломонь
алонь
алоошонь
алоошсто
алт
алтаень
алтазель
алтазь
алтаи
алтаресь
алфавит
алфавиту
алфавитэсь
алфе
алце
аль
альберт
альбом
альбома
альбоме
альбомов
альбомоньте
альбомт
альбому
альманах
альпы
альт
альтернативная
альфред
альшеевень
альшеевскии
аляндра
аляска
ам
амдф
аме
америка
американь
америкасо
амир
амо
амс
амстердам
амурскои
ан
ана
анализ
ананьино
анатолии
англ
англакс
англань
англии
англия
англиянь
андерсен
андерсон
андорра
андре
андреевич
андреевка
андреевна
андреевскии
андреевское
андреи
андрея
анды
андю
аникин
анимациянь
анимациясь
анна
анненково
аннино
аннинскии
анок
анокстави
анокстазь
анокстамо
анокстамс
анокстась
анокстомась
аноксты
анокстызе
анокстыть
анокстыцязо
анокстыцясь
ансамбль
ансамбля
ансяк
антарктида
анте
антипино
антология
антон
антонио
антонов
антоновка
антроповскии
антропологии
антропоним
антун
ао
аоре
апак
апаро
апокшке
апостол
апостроф
апр
апраксино
апрель
апреля
ар
ара
арабонь
арабского
аравия
аравтозь
аравтома
арапов
арапова
араповонь
арасель
арасть
арась
арасьчинь
арбажскии
арвид
аргентина
аргентинань
аргументы
аргун
ардатов
ардатовскии
ардома
ардомась
ардсь
арды
арзамасскии
аристэ
аркадак
аркадакскии
аркадии
армении
армения
армениянь
армениясо
армии
армияв
армиянть
армиянь
армиясо
армянонь
армянскои
армянт
арпад
арсеви
арсезь
арсема
арсеманзо
арсемань
арсемась
арсемат
арсемс
арсесть
арсесь
арси
арсить
арсиця
арсян
арт
артаев
арте
артист
артистка
артистов
артмане
артовкс
артовксонзо
артовксонть
артовксонь
артовксось
артовкст
артозь
артома
артур
артындеи
артыця
артыцянь
артыцясь
артыцят
арутюнян
архангельск
архангельская
архангельскии
архангельское
архангельскои
архангелэнь
археолог
археология
археологиянь
архив
архивировано
архивсэ
архивы
архимед
архимеда
архипелаг
архитектор
архитекторось
архитектура
архитектурань
ары
арыть
асекеевскии
аскарово
аскинскии
асодавикс
аспект
аспекты
аспирантуранть
ассоциация
ассоциациянть
асср
аст
астрель
астрономия
астрономиянь
ась
аткарскии
атлантикань
атлас
атомонь
атьма
атюрьбуень
атюрьбуесэ
атюрьевскии
атя
атяка
атякась
атякш
атянь
атясь
атяшево
атяшевскии
ауль
аулькедьало
аургазинскии
афанасово
афанасьево
афанасьевскии
афанасьевское
афганистан
афины
афинэнь
африка
африкань
африкасо
африки
ахматово
ахмед
ахмет
ацавиця
ацамковонь
ацамковсто
ашна
ашназа
ашо
ашонь
ашот
аштема
аштемазо
аштеме
аштемков
аштемковонь
аштемковсто
аштемс
аштесть
аштесь
ашти
аштить
аштиця
ашуг
аэропорт
б
ба
баба
бабань
бабинесь
бабино
багдад
бад
бадачоньтомаи
баден
баево
бажамонь
бажанов
бажась
бажи
база
базарно
базарныи
базе
базы
баи
баимов
бакалинскии
бакич
баконь
бакт
баку
балаково
балаковскии
балахнинскии
балашов
балашовскии
балезинскии
балет
балетэнь
балканонь
балкария
балтаи
балтачевскии
балте
балтии
балтиянь
балтонь
бангладеш
банк
банть
баня
барабанов
барак
барановка
бараново
баргова
бас
бассеи
басср
бась
батаев
батне
батуми
батуминь
батыр
бах
бахлулзаде
баш
башинформ
башк
башка
башкирии
башкирия
башкириява
башкириянь
башкириясо
башкирская
башкирскии
башкирского
башкирскои
башкирском
башкирт
башкирэнь
башкнигоиздат
башкортостан
башкортостана
башкортостанга
башкортостане
башкортостанонь
башкортостансо
башмаковскии
башня
баягань
баязит
бе
без
безводное
безенчукскии
беззубова
беи
беково
бековскии
бековского
беларусь
белая
белгородонь
белгородская
белгородскии
белгородскои
белград
белебеевскии
белебеень
белинскии
белинскои
белицер
белл
белое
белозе
белокатаи
белорецк
белорецкии
белорецэнь
белорузия
белорузиянь
белорузонь
белорузт
белоруков
белоруссия
белоруссиянь
белорусская
белохолуницкии
белые
белыи
бельково
беляев
беляева
беляевка
беляево
беляевскии
бен
бенгалонь
бере
берег
береговои
березник
березники
березовка
березово
берлин
берлинсэ
берлинэнь
берянь
беряньстэ
беспалова
бессоновонь
бессоновскии
би
библиогр
библиографическии
библиографических
библиография
библиографиясь
библиотека
библиотеке
библиотеки
библиянь
бижбуляконь
бижбулякскии
бизнес
бикбаи
биобиблиогр
биобиблиографическии
биогр
биографии
биографическии
биография
биографиязо
биологии
биология
биологиянь
бирскии
бич
бл
благоварскии
благовещенскии
благовещенское
ближаи
бликась
блок
блюз
бо
бобровка
боброво
бобровскии
бовуар
бога
богдановка
богданово
боголюбовка
богородонь
богородск
богородскии
богородское
бодьинскии
боевои
божественная
бои
болгария
болгариянь
болгариясо
болгаронь
болгарэнь
болдино
более
болезнях
боливии
боливиянь
болото
большая
больше
большеболдинскии
большевик
большеигнатовскии
большемурашкинскии
большие
большинстве
большого
большое
большои
боляень
бондарскии
бор
борис
борисов
борисова
борисовка
борисово
борисовскии
борисовское
борки
боров
бородино
борок
боронь
бороциця
борскии
борхес
борьбы
босния
босниянь
ботаника
ботаникань
ботаническии
ботсвана
бочкаре
боярка
бояркин
бояркина
бояронь
бразилия
бразилиянь
браи
бранденбургонь
бранко
брат
бреи
брестскои
бриляковскии
британонь
бровеи
брод
брокгауза
бронзань
бронзовои
бруно
брыжинскии
брыжинского
брюссель
бря
брянь
бсэ
бу
бубрих
бугульмань
бугуруслан
бугурусланонь
бугурусланскии
будапешт
будапештсэ
будапештэнь
будет
будинок
буду
будут
буе
буева
буеванть
буелемесь
буенть
буень
буеньте
буерак
буес
буестэ
буестэнть
буесь
буесэ
буесэнть
буетне
буетнева
буетнененьперечень
буетнень
буетнесэ
буеть
бузакова
бузаковои
буздякскии
бузулукскии
буи
бука
букань
буква
букварь
букват
букватне
буквы
булат
булгаково
булдыга
буллинскии
булонь
буляк
бураевскии
бурасы
бураҡаева
бурзянонь
бурзянскии
бурои
бурцево
бурятонь
бути
бутурлиновскии
бутурлинскии
бутырки
буэнос
бы
бывшии
быковка
быково
был
была
были
было
быть
бышев
бэи
бэк
бюджетное
бюллетень
бюро
в
ва
вавожскии
ваг
вагаи
вагнер
вад
вадинскии
вадонь
вадря
вадрясто
вадрят
вадскии
важодевксэнзэ
важодема
важодемазо
важодеманзо
важодеманть
важодемань
важодемасо
важодемась
важодемат
важодеме
важодемс
важоди
важодить
важодиця
важодицякс
важодицянь
важодсть
важодсь
ваи
вакс
вакска
ваксо
ваксс
вакссо
вал
валаня
валаськавтома
валга
валги
валда
валдо
валдонть
валдонь
валеев
валентин
валентина
валерии
вали
валкс
валксонь
валкст
валмеревкст
валморо
валморозеенть
валморозеень
валморозеесь
валморозеи
валморозо
валморонзо
валморонь
валморосо
валморот
валонзо
валонтень
валонть
валонь
валось
валрисьмень
валрисьмесэ
валрисьметне
валрисьметь
валске
валскень
валсо
валсто
валстонть
валт
валтне
валтнень
валтнестэ
валтнэ
валтнэнь
валтнэстэ
валуи
вальма
вальмалопа
вальмась
вальс
вальтер
вам
вами
ван
вана
ванамыиса
ванда
ванды
ванмо
ванмосонть
ванмось
ванмот
ваннозь
ваннома
ванномань
ваннось
ванныця
вано
ванодо
ванозь
ванома
ваномась
ваномо
ваномс
ванстови
ванстовить
ванстовсть
ванстовсь
ванстозь
ванстома
ванстомань
ванстомс
вансты
ванстыть
ванстыця
ванстыцякс
вант
ваны
ваныть
ваныця
ваныцят
вань
ванькс
вар
варака
варакань
варвара
варварино
варваровка
вариант
варианты
варма
вармазеи
вармань
вармась
варнавинскии
варшава
варшавань
варя
варяв
вас
васенце
васенцеде
васенцекс
васенцесь
васень
васеньце
васеньцеде
василе
василево
василии
васильев
васильева
васильевич
васильевка
васильевна
васильево
васильевская
васильевскии
васильевское
васильково
васня
васняяк
васов
васоло
васолонь
вастневи
вастневить
вастневиця
вастневсь
вастома
вась
васькино
ватракш
ватракшонь
вачказь
вачо
вачскии
ваш
ваше
вашиданные
вашингтон
ваяя
ваяяи
вб
вв
введение
введения
ве
веб
вебер
вебера
веде
ведев
веденть
ведень
веденьхозяи
ведесь
ведомости
ведть
ведь
ведьава
ведьгев
ведьгемень
ведьпача
ведьпотмова
ведьпурнавксонь
ведьс
ведьсэ
ведьчика
ведьчирень
вежаи
веи
век
века
веков
веле
велев
велева
веледенть
велентень
веленть
велень
велес
велестэ
велестэнть
велесь
велесэ
велесэдубенскии
велесэнть
велетне
велетнева
велетнень
велетнесэ
велетнецыганкин
велеть
великая
великие
великии
великих
великобритания
великои
вельде
велькс
велькска
велькссэ
вельскии
вельть
вельтязь
велявсь
велявтомс
велявтсь
велявты
велявтыть
вена
венань
венасо
венгрань
венгрия
венгриянь
венгриясо
вендетта
вене
венельксчачо
венеция
венч
венчень
венчесь
вень
вепссэнь
вера
вергилии
верде
верди
вере
верев
верек
верень
версии
версия
верх
верхнего
верхнее
верхнеландеховскии
верхнетоемскии
верхнехавскии
верхние
верхнии
верхняя
верховного
верховнои
верховноі
верховныи
верхозим
верхошижемскии
верце
вершина
вершины
верь
верьга
верьгиз
верьгизпильгине
верьгизэнь
верьде
верьце
вес
весе
весемасторонь
весемеде
весемезэ
весемекс
весементь
весемесь
весемикс
весемирэнь
весенень
весень
весероссиянь
веси
весна
вести
вестн
вестник
вестфалия
весть
весь
весэ
вете
ветеран
ветеце
вети
ветии
ветить
ветиця
ветицякс
ветлужскии
веть
ветькень
ветькеть
ветямо
ветямонь
ветямс
ветясь
вецана
вечер
вечернии
вечканов
вечкевикс
вечкема
вечкемадо
вечкемань
вечкемась
вечки
вечкиця
вечксь
вечная
вечнои
вешкаи
вешнеме
взаимодеи
взгляд
ви
виа
вид
вида
виде
видема
видео
видестэ
видеть
видечинь
видиця
видицянь
видманова
видс
видстэ
видт
видтнэ
виды
видьме
видьмензэ
видьс
видьстэ
видэсь
видяев
видяень
видяи
виев
виевстэ
виензэ
виень
виест
византии
византиянь
вии
вика
вики
викиданные
викиданных
викикулят
викимедиа
викимедии
викимедия
викимедиянь
викиновости
википедии
википедия
википедиянть
википедиянь
википедиясь
викисклад
викискладе
викитека
викитундо
викификация
виктор
виктория
викшнезь
вилаи
вилегодскии
вильгельм
вильнюс
вильям
вильянди
вильяндимаа
вина
виндреи
винницань
виноградовка
виноградовскии
виргилия
виргиния
вирев
виренть
вирень
виресь
виртуальныи
вирть
вирумаа
вирь
вирьава
вирьга
вирьпусмо
вирьпусмонть
вирьпусмосо
вирьпусмосонть
вирьпусмось
вирьпусмот
вирьсэ
вирьтне
вирьть
вирявань
високоснои
витгенштеи
витебскои
витема
витнезь
витнема
витнии
вить
витье
вихтор
вице
вичуга
вичугскии
вишка
вишкине
вишкинька
вишне
вия
вка
вкань
вклад
включает
включать
включая
включить
вкп
вкс
вксонь
вкст
вл
владивосток
владикавказ
владимир
владимира
владимирович
владимировка
владимировна
владимиронь
владимирская
владимирскои
владислав
власово
власти
влияние
влксм
вместе
вместо
вмн
вн
внимание
вновь
внутренних
внутри
во
вод
вода
водныи
водных
воды
водясова
воеводства
воеводстват
воеводстве
военная
военно
военнои
возвращает
воздвиженка
возможно
возможность
вознесенка
вознесенскии
вознесенэнь
возраста
возрождение
вои
воин
вокал
вокнаволок
вокруг
волга
волго
волжскии
волков
волково
волна
вологдань
вологодскои
володарскии
волоколамскии
волоконовскии
волос
волостень
волость
волынэнь
вольскии
вольскои
вольтер
вольфганг
воля
вонень
вонть
вонь
вопрос
вопросам
вопросу
вопросы
воробье
воронеж
воронежень
воронежская
воронина
воронино
воронцово
воротынскии
воскресенка
воскресенскии
воскресенское
воскресенэнь
воспоминания
восток
востока
восточная
восточнои
восточныи
восход
вот
воткинскии
воткинскои
вохомскии
вошла
вошли
вп
впервые
впоследствии
враг
врач
времен
времени
временник
время
вроцлав
вс
все
всегда
всего
всем
всемирная
всерос
всероссии
всесоюз
всесоюзная
всех
вскии
вское
вскои
вском
всо
вставить
встреча
встречаются
встречи
вступ
вся
вт
втави
втавить
втавкс
втазель
втазь
втамо
втамонь
втамот
втамс
втась
втневи
втнема
втнемазо
втнеманзо
втнемань
втнемат
втнесь
втни
втниця
вторая
второго
второе
второи
вторые
втулкин
вты
втыть
вть
вул
вулканонь
вурманкасы
вурнарскии
вы
выбор
выборам
выборах
выборов
выборы
вывод
вывода
выводится
вызывает
выи
выкса
вып
выползово
выпуск
выро
вырумаа
выселки
выселок
высокая
высокии
высоково
высокое
высота
высоты
выставка
выставкасо
выступила
высш
высшеи
высших
выходит
вычегда
выше
вышел
вьетнам
вюртемберг
вязники
вязниковскии
вязовка
вязовское
вяи
вяльбе
вятка
вятские
вятское
вячеслав
від
г
га
габриэль
габуень
габуесэ
гаврилов
гаврилова
гаврилович
гавриловка
гаврилово
гавриловскии
гавриловское
гаген
гагинскии
гагинэнь
газ
газета
газетань
газетасо
газете
газеты
гаи
гак
гала
галерея
галилеи
галилео
галина
галич
галичскии
гамлет
ганть
гань
гари
гарри
гарсиа
гарт
гафурии
гбу
гвардия
гвардиянь
гг
гггг
где
ге
геи
гектарт
гелезэ
гелем
гелень
гелест
гель
гельбеть
гельпе
гельпень
гельпеть
гельсэ
геманть
гемась
гемостаза
генерал
генетц
гениюш
геннадии
генри
географии
географические
географическии
географических
географического
географическои
география
географиянь
географиясь
геологиянь
георг
георгиевское
георгии
георгики
герб
герба
герд
германии
германия
германиянь
германиясо
германонь
геродот
геродота
герои
героя
герцеговина
герцеговинань
ги
гидрологическая
гидрологиянь
гидрометеоиздат
гидроним
гидронимт
гидронимцыганкин
гимназия
гиппократ
гитара
гитарасо
гл
глава
главныи
главы
глаголонть
глаголонь
глаголтнэнь
глазами
глазово
глазовскии
гласнои
глебово
глинка
глубина
глухов
го
говорила
говоров
говскии
гоголень
год
года
годах
годов
году
годы
гои
голицыно
головино
головинское
голос
голоса
голосование
голосовании
голосования
голышмановскии
гонконг
гор
гора
горбатов
горбунов
горе
горка
горки
горномарии
горныи
город
города
городе
городецкии
городище
городищенскии
городов
городок
городонь
городского
городское
городскои
гороховецкии
горы
горькии
горьковскои
горького
горькои
гос
госкомстат
госсовета
гост
государства
государствань
государственная
государственного
государственное
государственнои
государственном
государственныи
государственным
государственными
государственных
государство
готикань
гр
градусах
гражданин
гражданскои
гражданство
граи
грамматика
грамматикань
грамматики
грамота
грамотасо
гран
граница
границы
грань
график
граховскии
граче
гребнева
грекень
греко
гремячево
греция
грециянь
грециясо
грива
григорианонь
григориень
григории
григорово
григорьевич
григорьевка
григорьевна
гридино
гришино
гришуткин
гродненскои
грузинэнь
грузия
грузиянь
грузиясо
грузнов
групп
группа
группань
группась
группат
группе
группои
группу
группы
гу
губ
губа
губернии
губерния
губерниянь
губерниясо
губино
губкинскии
гуи
гуль
гуманитар
гуманитарных
гусев
гусева
гусево
гусеи
густав
густерин
гусь
гэс
гювеч
гюго
д
да
давид
давлекановскии
даволков
даволковонь
даволковсто
давыдово
дагестан
дагестанонь
дае
даже
даи
далее
даль
дальневост
дальнего
дальнее
дальнеи
дальнеконстантиновскии
дальнии
дальше
дамаск
дан
данилов
даниловка
данилово
дания
даниянь
данного
данное
даннои
данные
данныи
данным
данных
данте
даны
дар
даровскои
дарьино
дарькат
даст
дат
дата
дату
даты
два
две
движение
движения
двинское
двои
двор
дворики
двумя
двух
дд
де
дебе
девицы
девушка
девяткин
деи
дек
декабрь
декабря
декарт
дел
делам
делать
делевскии
деление
дели
дело
дель
дема
демань
демидово
демин
демина
демография
демократическои
демократиянь
ден
денис
денисово
денть
день
деньги
департаменте
депутат
депутатов
дер
дербент
дергаче
деревень
деревни
деревня
десна
детеи
детская
детского
дефис
деятель
деятельности
деятельность
дж
джаз
джаи
джалиль
джан
джана
джанонь
джанполадян
джанскои
джансо
джеи
джерси
джон
джордж
джульетта
джяковица
дзержинск
ди
диабетическои
диалект
диалектах
диалектов
дивеевскии
дигора
диего
дизаи
диккенс
дикои
дим
динамика
династия
диплом
дипломат
директор
директора
дириже
дис
диск
дискографиясь
диссертация
для
дмитриевич
дмитриевка
дмитриевна
дмитриево
дмитриевскии
дмитриевское
дмитрии
дмитров
дмитровскии
днеи
дня
до
добавить
добавляет
добавлять
добавляются
добрыи
дов
договор
дождь
докл
доклад
доктор
докторонь
докторось
документальнои
документальныи
документах
документации
документация
документов
документы
дол
долгая
долгое
долгота
должен
должна
должно
должны
долина
дом
дома
домка
домкав
домказо
домкасто
домодедово
дон
дональд
донецкои
дону
доп
дополнения
дополнительного
дополнительные
допрок
допускаются
дор
дорович
доровка
доровскии
доровское
дорог
дорога
дороге
дороги
дорогои
доронин
доронь
достаточно
достижения
достопримечательности
доступен
доступных
доцент
др
драма
драмань
драматург
драматургия
древнеи
древнии
древности
древняя
дринов
другие
другим
другими
других
другое
другои
другом
дружба
дружбы
ду
дубасово
дубе
дубенка
дубенскии
дубенского
дубинька
дубки
дубовка
дубовыи
дубрава
дуброва
дубровка
дубровки
дуброво
дубровское
дуванскии
дула
дума
думы
дунае
дунаи
дуняшин
дурак
дурасово
дурова
духовницкии
духовнои
дучич
душанбе
души
душкино
ды
дье
дьяково
дьяконово
дэвид
дюльмен
дюртюлинскии
е
ева
евгении
евгения
евдокия
евразии
евреень
евреи
европа
европань
европасо
европассо
европеи
европраи
европы
евсевьев
евсевьева
евсевьевень
евсевьевич
евтнема
египет
египетэнь
его
егорович
егорьевск
единица
единицы
ее
ежегодник
ежовка
еи
екатерина
екатеринбург
екатериновка
екатериновскии
елань
елга
елена
елизавета
елизаветинка
елизаветино
елизарово
елховка
елшанка
емельян
емельянович
емецкое
емс
ен
ене
енть
ень
ер
ере
ереван
ереванонь
еремеево
ермаково
ермекеевскии
ермишинскии
ермолино
ерохин
ершов
ершовскии
если
естественнои
естествознания
есть
есь
есэ
ефим
ефимия
ефремово
ефрона
ех
еще
ж
жа
жадо
жак
жан
жанеи
жанр
жанра
жанрань
жат
ждановка
же
желательно
железнодорожная
железнодорожного
железнодорожнои
железнодорожныи
железнои
железныи
желтухе
женева
женихенть
женск
женщин
женщина
женщины
жердевскии
живаева
живая
живе
живои
живописец
жизни
жизнь
жилино
жителеи
жить
жнои
жныи
жо
жонь
жордания
жорж
жуковка
жуково
журавле
журавли
журавлиха
журнал
журнала
журнале
журналист
журналистэнь
журналонть
журналонь
журналсо
журналтнэсэ
журналу
з
за
забаи
заболотье
заборье
заварюхин
заварюхина
заведении
завод
завода
заводоуковскии
заводскои
заволжскии
заволжья
завражье
завьяловскии
заглавие
заглавнои
заголовка
заголовком
заголовок
заготовка
загреб
задан
задана
задать
заде
заж
заи
закарпатскоень
закон
зал
залесье
залив
залогонь
зам
заменить
заметки
замок
заозерье
зап
запад
западная
западного
западнои
западныи
запечатленная
записеи
записи
записки
записывается
запись
заповедника
заполнения
заполняется
заполнять
заполье
заполярнои
запрос
запятои
заработало
зараи
заречная
заречное
заречныи
заречье
зарубежных
заря
заслуги
заслуженнои
заслуженныи
затем
зато
затон
захарка
захарово
захаровскии
захватов
зачачьевское
заявлении
заявленные
заявок
звания
зве
звезда
звезды
звениговскии
звук
звукорежиссе
звучит
здесь
здравствуи
зе
зеи
зеландия
зеле
земель
земетчинскии
земле
земли
земля
земскои
земфира
земфиры
зер
зианчуринскии
зигмунд
зилаирскии
зименки
зиновьев
зиняковскии
зия
златко
знак
знаки
знамени
знаменка
знаменскии
знаменское
знамя
знание
знании
значение
значении
значения
значениями
знаю
знярдо
зняро
знярыя
зовка
зово
зовскии
зовское
золотая
золотои
зори
зоринэнь
зорька
зубово
зуевка
зуево
зуевскии
зыково
зыян
зыянонь
зь
зэ
зэнзэ
зюрков
зюрковонь
зюрковсто
зярдо
зярдояк
зяро
зярс
зярыя
и
иа
ибн
ибрагим
ибресинскии
ива
иван
ивана
ивано
иванов
иванова
иванович
ивановка
ивановна
иваново
ивановонь
ивановская
ивановскии
ивановское
ивановскои
ивантеевскии
иванцево
иваньбие
иваньково
ивашево
ивашково
ивнянскии
иво
иврит
иглан
иглинскии
игнадбуень
игнадбуесэ
игнатово
игнатьево
игорь
игра
игринскии
игрок
игры
игумново
ид
иде
идеи
идель
идем
идема
идемань
идентификатор
идентификационныи
идея
идизе
идиця
идиш
идише
ие
иеде
иензэ
иентень
иенть
иень
иерусалим
иес
иесте
иестенть
иестэ
иестэнть
иесь
иесэ
иесэнть
иетне
иетненень
иетнень
иетнесте
иетнестэ
иетнесэ
иеть
иж
ижевск
из
избежать
избирателя
избр
избранное
избранные
изв
известия
известны
изд
издание
издании
издания
издательскии
издательствасо
издательствась
издательство
измаи
изменения
изменениях
измерения
изни
изниця
изницякс
изнямо
изнямонь
изнясь
изображение
изображении
изображения
изобразительное
израиль
изучению
изучения
изученность
ии
ик
икеле
икелев
икелензэ
икелень
икельга
икельце
икс
ил
илецкии
или
илишевскии
илл
илларион
иллинои
иллюстрации
ильинка
ильино
ильинскии
ильинское
ильич
ильича
илька
илья
иля
илядо
илязо
иляст
им
имаи
име
имеет
имен
имена
именем
имени
иметь
иммануил
император
императоронь
императорского
империи
империя
империянь
империясо
имущества
имя
ин
инан
иначе
ингерманландиянь
индекс
индексы
индии
индия
индиянь
индонезия
ине
инебритания
иневеденть
иневедень
иневедь
иневедьс
иневедьсэ
инегуи
инее
инекерсиця
инекудонть
инекудось
инекужо
инелеи
инесаро
инеш
инешкипаз
инешкипазонтень
инешкипазонть
инешкипазонь
инешкипазось
инжавинскии
инжеватов
инжекс
инженер
инжень
инзеи
иностранных
инсар
институт
института
институтонть
институтонь
институтось
институтсо
инструменты
интеграция
интервью
интернет
интернете
интерфеи
инфо
информатизации
информации
информационно
информационном
информационные
информационныи
информацию
информация
информациянь
инязмастор
инязор
инязорава
инязоро
инязорокс
инязоронтень
инязоронть
инязоронь
инязорось
иоганн
иоганна
ирак
иран
иранонь
ирансо
ирек
ирендык
ирина
иркаев
иркутонь
иркутскои
ирландиянь
исаевка
исаково
искажения
искала
искра
искувиця
искусств
искусства
искусствань
искусствась
искусстве
искусство
ислам
исламонь
исп
испания
испаниянь
испанонь
исполнила
исполнительница
использование
использовании
использования
использовать
использоваться
использует
используется
используи
используются
испр
иссинскии
исслед
исследование
исследовании
исследования
исследователь
исследовательскии
исследовательскои
ист
истории
историк
историко
историческая
исторические
историческии
исторических
исторического
историческои
история
историязо
историянь
историясо
историясь
источник
источника
источнике
источники
источников
истринскии
истэ
истя
истяжо
истямо
истят
истяяк
исяк
италия
италиянь
италиясо
итальянонь
итог
итогам
итоги
итогов
иудеи
их
иця
ицял
ицяло
ицялонь
ичалковскии
ишим
ишимбаень
ишимбаи
ишимскии
июля
июнь
июня
к
ка
кабардино
каблешков
кавал
кавалер
кавалерист
кавказ
кавказонь
кавказсо
кавксо
кавксоце
кавксть
кавонест
кавто
кавтов
кавтоиень
кавтонь
кадови
кадовсть
кадовсь
кадозь
кадомс
кадомскии
кадонь
кадоньбуесэ
кадсы
кадызе
кадыи
кадык
каждыи
каз
казаева
казаки
казаково
казанень
казани
казанка
казанскии
казанского
казанское
казань
казаньсэ
казахонь
казахстан
казахстансо
казеевка
казезель
казезь
кази
казне
казнензэ
казненть
казнень
казнесэ
казнеть
казязь
казямо
каи
каир
каить
как
какие
какои
какш
какшонзо
какшонь
какшост
какшт
какштнэ
какштнэнень
какштнэнь
кал
кала
калаганонь
калачеевскии
калгодо
кале
калевала
календарь
калидаса
каликино
калинин
калинино
калининскии
калининскои
калинкин
калиновка
калифорния
калмазырьсэ
калмазь
калмо
калмыкия
калонь
калось
калт
калтасинскии
каль
кальметикше
каляда
кама
камань
камбраз
каменец
каменка
каменное
каменныи
каменскии
каменское
камень
камера
камешковскии
кампании
камчатка
камчатонь
кан
канада
канадань
канал
каналось
канаш
канашскии
канд
кандидат
кандидата
кандидатов
кандидатонь
кандидатт
кандидаты
кандови
кандовить
кандсь
кандтнесть
канды
кандыть
кандыця
канонть
канонь
кансть
кант
канта
кантемировскии
кантоне
канть
капста
кар
кара
карабулак
карабулакскии
карагаи
карадо
караи
караидель
караидельскии
карамалы
каран
каратаи
караул
карачаево
карачи
каргавась
карго
каргонь
каргополь
каргопольскии
кардаз
кардазт
кардо
карел
карелии
карелия
карелиясо
карельскии
карельского
карелэнь
каринское
каркс
карл
карла
карма
кармавтомань
кармалеи
кармалы
карман
кармаскалинскии
кармасть
кармась
карми
кармить
карнаи
каролина
карпатонь
карповка
карпово
каррик
карт
карта
картат
карте
картина
картины
картография
картои
карточка
карточке
карточки
карты
карциган
каршо
каршонзо
карьер
карьера
карьеразо
каряз
карязонть
карязось
карязт
касимов
касимовскии
касовкс
касовксонь
касовкст
касома
касомань
касомо
каспии
каспиянь
кассы
кассь
касто
кастома
кастыть
касум
касы
касыть
касыця
кат
каталог
катардома
категории
категорию
категория
категорият
катитци
катка
каткалопа
каткань
католикань
католикень
католикт
каторова
катя
кафедра
кафедральнои
кафедрань
кафедрасо
кафетци
кафка
кахраманер
качестве
качество
каша
кашино
кашира
каштан
каштом
каяви
каявкс
каявтызь
каямс
каясь
квадратных
кваркенскии
квартет
квенэнь
кг
ке
кев
кевеи
кевенть
кевень
кевкстема
кевкстемась
кевкстемат
кевкстематнень
кеврунго
кеврунгонь
кеврунгоньтеии
кеврунгось
кедензэ
кедень
кедсэ
кедь
кедье
кедьнимиляв
кедьс
кедьстэ
кедьсэ
кедьсэнзэ
кее
кежеи
кез
кезерень
кезскии
кезэрень
кезэрэнь
кеи
кеиень
кекс
кекшезь
келезэ
келеи
келекс
келентень
келенть
келень
келеньсодыи
келес
келест
келесь
келеуштань
келина
кель
кельме
кельс
кельсодыи
кельстэ
кельсэ
кельсэнть
кельтне
кельтнень
кельтнес
кельтнесэ
кельть
келя
кемаи
кемаль
кемвеи
кемгавтово
кеме
кемекстазь
кемекстызе
кемема
кемемань
кемемась
кемень
кеменьцеиенть
кеменьцеиеть
кеместэ
кенде
кенере
кенжень
кенжешка
кенть
кень
кепедезь
кепедемань
кепеди
кепедьсызь
кер
керсезь
керсиця
керш
керше
кершсянглеи
керяз
керязь
кест
кесь
кеттунен
кеть
кетькс
кетьстэ
кече
кзыл
ки
киванть
киви
кивчеи
кигинскии
кие
киев
киевень
кизна
кизэ
кизэнть
кизэнь
кикнурскии
кикс
кикст
киксэнть
киксэсь
килангонь
килеень
килеи
километрах
кильдюш
кильдюшкина
кильмезскии
кильмезь
кин
кина
кине
кинель
кинельскии
кинематографсо
кинень
киненьгак
кинешемскии
кино
кинонь
киносо
кинское
кинть
кинь
киньгак
киото
кипр
киргизия
кирда
кирдань
кирдат
кирдатне
кирдатнень
кирдеви
кирдезь
кирдема
кирдемс
кирди
кирдивии
кирдиень
кирдии
кирдимастор
кирдимасторонь
кирдимасторось
кирдимасторт
кирдить
кирдиця
кирдсь
киржачскии
киржеман
кириллович
кириченко
кирмалав
кирнявтсь
киров
кирово
кировонь
кировская
кировскии
кировское
кировскои
кирсанов
кирсановскии
кирьга
кирькс
кирьксэнть
кирюшкин
кис
киселе
киселевка
киска
кискань
кист
кись
кисэ
кит
китаень
китаи
китап
кить
кишине
киштема
киштемань
киштемась
киштемат
киштить
киштиця
киява
кияк
кията
киятань
кк
кки
кл
кла
клавишные
клаи
класс
классика
классикань
классификации
классификация
классическая
классическои
класснэнь
классо
классов
классонди
классонь
класст
класстнэнень
кле
клементьева
клепиковскии
климово
климт
клин
клинскии
клип
клуб
клубе
клубонть
клубонь
клубт
клубы
ключ
ключе
ключи
клявля
клявлянь
км
кн
книг
книга
книгазо
книганзо
книганть
книгань
книгас
книгасо
книгасто
книгась
книгат
книге
книги
книжка
книжное
книжнои
книжныи
княгининскии
княжево
князь
ко
кобале
ков
кова
ковач
кове
ковернинскии
ковкерькс
ковкерьксенть
ковкерьксэнть
ково
ковонть
ковонь
ковось
ковровскии
ковскии
ковского
ковставксо
ковставксонть
ковставксось
ковсто
ковстонть
ковт
ковылкинскии
когда
код
кода
кодамо
кодамояк
кодат
кодаяк
кодгемень
кодекса
кодом
кодось
коды
коенть
коень
коест
коесь
кожаи
козино
козлов
козловка
козлово
козловскии
козонь
козулькаи
кои
коклаць
кокуи
колань
колга
коли
количество
коллеги
коллегиеи
коллегии
коллегия
коллектив
коллектива
колмо
колмоксть
колмонь
колмонькемень
колмоце
колмоцесь
кологривскии
коломенскии
колонки
колонок
колоньгемень
колумбия
колумбиянь
колхозонь
колышлеи
кольчуга
кольчугинскии
ком
кома
команда
команданть
командань
командась
командир
команды
комаровка
комарово
комедии
комедия
коми
коминтерн
коминь
комиссии
комиссия
комитет
комитета
комитетэнь
комитетэсь
комить
комментарии
коммерсантъ
коммуна
коммунар
коммунистэнь
комонь
компакт
компании
компания
компаниянть
компаниянь
компаниясь
комплекс
комплексном
композитор
композиция
компьютер
комсомолец
комсомолонь
комсомольскии
комсомольское
комсомольскои
комсь
комсьвеи
кому
кон
кона
конанень
конантень
конанть
конань
конаньсэ
конасо
конасонть
конась
конат
коната
конатань
конатась
конатат
конататнень
конатне
конатненень
конатнень
конатнесэ
конго
конгресс
конгресса
кондямо
кондят
коне
конец
коническои
конкка
конкурса
конкурсе
кононть
коношскии
константин
константинович
константиновка
константиново
конституция
консультации
контексте
конф
конференции
конференция
конфискациеи
конца
конце
концепции
концерт
концерта
концерте
концертов
коня
коняпонань
координат
координататне
координаты
копенгаген
коперник
копии
копирования
копия
кор
кораблинскии
кордон
коре
кореи
корея
кореянь
корни
коровино
кородома
короле
королева
корочанскии
корректно
коррекция
корреспондент
корреспондентэкс
кортавкс
кортавксонь
кортавкст
кортамо
кортамокельсэ
кортамонь
кортамосо
кортамось
кортамот
кортамотнень
кортамс
кортасть
кортась
кортнема
корты
кортыть
кортыцят
корш
коряз
коряс
коса
космосонь
косо
косова
косовань
косовасо
косово
косовонь
коста
костин
костино
косто
костомукшань
кострома
костромань
костромская
костромского
костромскои
коське
кот
котельничскии
котласскии
кото
котово
которая
которого
которое
которои
котором
которые
которыи
которым
которых
котосядт
котоце
коцт
коцтонть
коцтонь
коцтось
кочеваткин
кочетовка
кочкави
кочказель
кочказь
кочкамо
кочкамонь
кочкить
кочксезь
кочкур
кочкурбуень
кочкурбуесэ
кочкурвелесэдубенскии
кочкурово
кочкуровская
кочкуровскии
кошки
кошкинань
кошкинскии
кошт
коштонь
коштсо
кпсс
кр
крае
краевед
краеведческии
краи
крас
красавка
красн
краснаи
красная
красненскии
красноармеи
краснобаковскии
красноборскии
красногвардеи
красного
красногорскии
красногорскои
краснодар
краснодаронь
красное
краснои
краснокамскии
краснокутскии
краснооктябрьскии
краснопартизанскии
краснополье
красносельскии
краснослободскии
красночетаи
красноярскии
красноярское
красноярскоень
краснояружскии
красные
красныи
красота
краткая
краткии
краю
края
кре
креи
крепость
кривошеев
кривошеева
кристиан
кристина
критериям
критик
критика
криуша
кровь
кроме
круглово
крутая
крутец
крутои
крутцы
крым
крымень
крымские
крымских
крымско
крюково
кс
ксень
ксесь
кснав
кснавне
ксня
кстовскии
кстыень
кстыи
ксть
ксь
ксэ
ксэнь
ксэсядт
ксэце
кто
ку
куба
кубанцев
кубкань
кубкасо
кубок
кува
куваи
кувака
кувалма
кувалмо
кувалмозо
кувалмосо
кувалмось
кувалт
кувандыкскии
кувать
куватьс
кугарчинскии
куда
кудашкин
кудо
кудов
кудонть
кудонь
кудораське
кудораськезэ
кудораськень
кудораськесэ
кудос
кудосо
кудосонть
кудосто
кудось
кудот
кудотнень
кудоютконь
кудряв
куе
куженерскии
куженя
кужо
кужомастор
кужомасторонь
кужомасторось
кужомасторсо
кужонтень
кужонть
кужонь
кужос
кужосо
кужосонть
кужось
кужосэ
кужот
куз
кузбуень
кузбуесэ
кузеева
кузман
кузнецкии
кузнецов
кузнецова
кузнецово
кузнецовское
кузнецы
кузнечиха
кузонть
кузонь
кузось
кузьма
кузьминка
кузьмино
кузьминовка
кузьминская
кузьмич
куи
кук
куконь
куконькаи
кулебакскии
кулига
куликенть
куликесь
куликова
куликовка
куликово
куликовское
кулозь
кулома
куломадо
куломанзо
куломанть
куломань
кулость
кулось
кулы
кулыцянть
куль
культур
культура
культуранть
культурань
культурасо
культураст
культурась
культуре
культурная
культурно
культурного
культурное
культурнои
культуры
куля
кулялопа
кулялопанть
кулялопань
кулялопасо
кулялопасонть
кулялопась
кулялопат
кулялопатнесэ
кулянь
куляньсе
кулят
кумак
кумардак
куме
кумена
кун
кундазь
кундамга
кундамо
кундамс
кундасы
кундась
кундем
кундонть
кундсицясь
кундсицятне
кундыть
кункшка
куншка
куншкава
куншкакуро
куншкань
куншкапингень
куншкас
куншкасо
куншкасто
куншкась
куншкатарка
куншкатаркань
куншкатаркасо
кур
кура
куракш
куракшонь
курган
курганонь
курго
куриловка
курилово
курманаевскии
куро
курок
куроксто
куронть
куронь
курос
куросо
курось
курот
курс
курсат
курскоень
курултаем
куст
кут
кутаиси
куторкин
кутьмере
кучизь
кучозель
кучозь
куш
кушнаренковскии
куюргазинскии
куя
куяр
куярт
кш
кши
кшинь
кшить
кшни
кшнинь
кшумань
кызыл
л
ла
лавка
лавтов
лагерьсэ
лади
ладсии
ладсиця
ладсо
ладямо
лаз
лазарев
лазарево
лаи
лаишевскии
лака
лакштяемка
ламбамо
ламбаське
ламзурь
ламо
ламоиень
ламоксть
ламонь
ламот
ламотне
ламотнень
ламочи
ламочинь
ламочист
ламочись
ланга
ланганзо
ланго
лангозо
лангозонзо
лангонь
лангс
лангсо
лангсонзо
лангсто
ланка
ланкс
ланксо
лаптево
лапужа
лапшин
ларионов
ларс
ласло
ласте
лат
латвии
латвия
латвиянь
латвиясо
латинскии
латинэнь
латко
латонь
латышень
лауреат
лауреатокс
лауриат
лашма
лашмосо
лашмосонть
лая
лбуень
лбуесэ
лгбт
ле
лебедево
лебяжскии
лебяжье
лев
левино
левкс
левкстнэ
левого
легенда
легенды
ледезель
ледезь
ледемс
леди
леднема
ледницянь
ледстнема
ледстяви
ледстязь
леентень
леенть
леень
леесь
лежневскии
лездамо
лездамс
лездасть
лездась
лезды
лездыть
лездыця
лездыцякс
лездыцят
лезе
лезкс
лезксчить
лезэ
лезэв
леи
лексика
лексикология
лекции
лелязо
лелят
лем
лембе
лембее
лембень
лемденть
лемдизе
лемдизь
лемдильть
лемдить
лемдязь
лемезе
лемезэ
лемензэ
лементь
лемень
лемест
лемесь
лемломшин
лемполавкс
лемполавкст
лемс
лемстэ
лемстэнть
лемсэ
лемтне
лемтнень
лемть
ленин
ленина
ленинград
ленинградонь
ленинградскои
ленино
ленинскии
ленинское
ленинэнь
ленскии
лень
леон
леонид
лепе
лес
лесная
лесничества
лесничество
лесное
леснои
лесные
лесоучасток
лет
летию
летия
летопись
летьке
лецтнема
лецтни
лецтяви
лецтявицыганкин
лечении
лечиця
лещанкина
ли
либо
либретто
ливвикэнь
ливень
ливтема
ливти
ливтить
ливтнить
ливтниця
ливтямо
лига
лидерства
лидия
лиза
лингвист
лингвистикань
липецэнь
липня
липовка
липовское
липяги
лирика
лисе
лисезь
лисема
лисемадо
лиси
лисить
лисиця
лискинскии
лиснесть
лиснесь
лисни
лиснить
лиссть
лиссь
лист
листь
лись
лисьм
лисьма
лисьмапря
лисьмапрят
лит
литва
литвань
литвиновои
литература
литературанть
литературань
литератураньветии
литературасо
литературась
литературе
литературная
литературного
литературное
литературнои
литературныи
литературных
литературовед
литературонь
литературы
литовань
литовонь
литогр
лица
лицах
лицеи
лицянь
личные
лишения
лишме
лишь
лия
лиякс
лиякстомсь
лияназонь
лиянь
лиясо
лиясто
лият
лиятне
лиятнень
лиять
лка
лкат
лки
лковскии
лл
ллои
лмо
ло
лобанов
лобаново
лов
ловажа
лови
ловить
лович
ловка
ловна
ловнодо
ловнома
ловноманть
ловномапусмосо
ловномасонть
ловномась
ловномо
ловнось
лово
ловови
лововить
лововсь
ловома
ловоманть
ловонь
ловось
ловская
ловскии
ловское
ловскои
ловсо
ловсонь
ловсь
лог
лои
лок
локк
локсеи
лом
ломанде
ломанекс
ломанензэ
ломанентень
ломаненть
ломанень
ломанесь
ломантне
ломантненень
ломантнень
ломанть
ломань
ломаньтне
ломаньтнень
ломатнень
ломать
ломаютко
ломовка
ломшин
лондон
лондоне
лондонсо
лонь
лоп
лопа
лопав
лопанзо
лопанть
лопань
лопапарцун
лопапарцунт
лопасо
лопась
лопат
лопатино
лопатинскии
лопатне
лопатнень
лос
лотки
лотман
лотошинскии
лт
лтонь
луара
лув
лувне
лувов
лувозо
лувонзо
лувонть
лувонь
лувось
лувсо
лувтне
лувтнэнь
луг
луга
лугань
лугатикше
лугаян
луговая
луговое
луговои
лужки
луза
лузгин
лузскии
луи
луиза
луис
лука
лукино
лукояновскии
лукш
лукьянов
лундан
луне
лунин
лунинскии
лур
луховицкии
лухскии
луч
лучше
лы
лыи
лыкамо
лысенков
лысково
лысковскии
лысогорскии
ль
льва
львивонь
львов
львовка
львовонь
любаев
любви
любовь
любое
любои
любом
любомир
любые
людвиг
людеи
люди
людикень
людмила
люксембург
лютер
лютеранонь
лютерант
ляи
лямбирскии
лямбирь
лямбирьбуень
лямбирьбуесэ
ляэнемаа
ліквідацію
м
ма
маар
магадан
магда
мадьяр
мадьяронь
мадьярт
маза
мазинскии
мазы
мазыи
мазылгавтозь
мазычинь
мазычись
мазь
маи
мак
макар
макаркин
макаровка
макарово
макарьевскии
макед
македония
македониянь
македононь
макиавелли
маконь
макс
максим
максимович
максимовка
максимово
макскии
максо
максови
максовить
максозель
максозь
максома
максомась
максомо
максомс
макссть
макссь
макст
максть
максы
максызе
максызь
максыть
максыця
максь
макушкин
макушкина
малав
малава
малавикс
малавиксэнзэ
малаи
маланьчева
малас
маласо
малахово
малая
маленькии
малиновка
малиново
малое
малопургинскии
малосердобинскии
малые
малыи
малых
малышево
мальта
мальцево
мальчик
мама
мамо
ман
манадыши
манеи
манов
мансии
мансинь
мантурово
мантуровскии
манчесь
мань
мар
мараля
маралянь
маралят
марат
марафон
мари
маризь
марии
мариинско
марин
марина
марино
маринь
марить
мария
марк
марка
маркелов
маркович
марково
маркс
марксовскии
марксонь
маронть
марс
марсель
март
марта
мартин
марто
мартонзо
мартонок
мартост
мартот
мартынов
марть
марфино
марч
марш
мары
марь
марьевка
марьино
марькат
маряви
марявсь
марязь
марямизь
маскаев
масканя
масловка
маслово
массачусетс
масср
мастер
мастера
мастор
масторава
мастораванть
масторавань
масторга
масторлангонь
масторов
мастором
масторонтень
масторонть
масторонь
масторось
масторпельксесь
масторпелькст
масторпрявт
масторсо
масторсонть
масторсто
масторт
мастортне
мастортнева
мастортнень
мастортнесэ
мастортнэва
мастортнэнь
мастортнэсэ
масштаб
мась
матвеевка
матвеево
матвеевскии
матвеи
математик
математика
математикань
матер
материал
материалам
материале
материалов
материалонь
материалт
материалы
материальнои
матушка
мать
мафун
мачкасы
машина
маштови
маштовсь
маштозь
маштомс
маштсь
машты
маштыть
мая
маяк
мвд
мгпи
мгу
ме
мед
медаленть
медаль
медальсэ
медальть
медведево
медведевскии
медведица
медвежье
медев
медиа
медицина
медицинань
медицине
медицинскои
медь
медье
медьеть
медьков
медьковонь
медьковсто
медярво
меельце
меельцеде
меельцекс
межгорье
междометиясь
междометиятне
между
междунар
международного
международнои
международныи
межевскои
мезде
мезе
мезекс
мезень
мезес
мезесь
мезеяк
мезть
мезэ
меи
мекев
мекка
мекс
мексика
мекшень
мекштне
мелезэ
мелем
мелензэ
меленки
меленковскии
меленть
мелень
мелест
мелесь
мелеузовскии
мель
мельванома
мельга
мельганзо
мельгаст
мельполадкст
мельс
мельсэ
мельть
мельцек
мемориальнои
мендязь
менее
менеленть
менелень
менелесь
менель
менельс
мензэ
мень
меня
мера
мереви
мерема
мереманзо
мереме
меремс
меремяэ
мерзлота
мерзлоты
мери
меридиан
меридиана
мериль
мерильть
мерить
меркушкин
мерсть
мерсь
мертяно
мерянь
мерят
мест
места
местах
месте
местнои
местностеи
место
местоимения
месь
месэ
месяц
месяца
мета
металл
метка
метки
метод
методическои
метрань
метрас
метрат
метрах
метьказонть
метьказось
метьказт
механическои
мехико
меццо
мечетенть
мечетесь
мечетлинскии
мечеть
меште
меще
мзе
ми
миеттинен
мик
миклош
микшнема
милан
милетич
миллион
миллионт
милославскии
мин
минас
минек
миненек
мини
минимарафона
министерства
министерствань
министерствась
министерство
министр
министра
министрань
министрась
министров
мино
минск
минское
минскои
минутань
минутат
минь
мир
мира
мирдезэ
мирденень
мирдензэ
мирдень
мире
мирныи
мировая
мировои
миронов
мирская
мирсэ
мирсэнть
мирэнть
мирэнь
миссури
митино
митрань
мифология
мифы
михаи
михаил
михале
михалево
михеево
мичуринскии
миша
мишанин
мишкинскии
миякинскии
младен
млекопитающих
млн
млрд
мм
мн
мне
мнение
мнииск
мнииялиэ
много
многоликая
мо
мова
мово
мовсум
могиле
могут
мода
модава
модаванть
модаваря
модаварясь
модаварят
модамарень
модамарь
модамастор
модамасторонть
модамасторонь
моданть
модань
модас
модасо
модасонть
модась
модат
модатне
модатнева
модатнень
модатнесэ
модаулонть
модаулосо
модули
модуль
модуля
мое
моеи
можаи
можга
можгинскии
может
можете
можна
можно
моздок
мои
мокрыи
мокш
мокша
мокшалеи
мокшанова
мокшанскии
мокшанских
мокшанского
мокшень
мокши
мокшин
мокшина
мокшо
мокшокс
мокшонь
мокшоньгеопортал
мокшоньмноголикая
мокшот
мокшотне
мокшотнень
мокшэрзянь
молдавия
молема
молеманть
молемань
молемась
молемс
моли
молиль
молить
молиця
молицят
молодая
молоде
молодои
молодых
мольер
мольсть
мольсь
молян
момент
момента
мон
монако
монастыренть
монастырень
монастыресь
монастырь
монголии
монголонь
монень
монета
монография
монографият
монро
монь
мор
моразь
морак
морамо
морамонь
морамс
моран
морась
морганть
моргаушскии
морго
морд
мордва
мордвань
мордвы
мордгиз
мордов
мордовии
мордовия
мордовияв
мордовиява
мордовиянь
мордовиясо
мордовиясь
мордово
мордовская
мордовские
мордовскии
мордовских
мордовско
мордовского
мордовское
мордовскои
мордовском
море
моркинскии
моро
морозовка
морозово
морокерькс
морокерьксэнть
моронзо
моронть
моронь
моросо
морось
морот
моротне
моротнень
мороютко
морсесь
морскои
морфологические
морфологических
морфология
моршанскии
моры
морыть
морыця
морыцянть
морыцянь
морыцясь
морыцят
моря
мосин
мосина
москва
москве
москвы
москов
московка
московов
московонь
московская
московскии
московского
московскои
московсо
мост
моторкина
моцарт
моя
мр
мс
мсема
мскии
муезь
муемс
мужского
мужчина
муз
музеенть
музеень
музеесь
музеи
музея
музыка
музыкальная
музыкального
музыкальнои
музыкальныи
музыкальных
музыкант
музыканта
музыкантов
музыкань
музыке
музыки
муи
мультфильм
мулявин
мумбаи
мумии
мунд
муниципалитет
муниципального
муниципальное
муниципальнои
муниципальныи
муниципальных
мурза
мурзино
мурманонь
мурманск
муром
муромскии
муса
мусульманонь
мусульмант
мучкапскии
мфа
мцхета
мы
мыс
мысли
мысль
мытищи
мюллер
мюнстер
мюнхен
мюнхенсэ
мюнхенэнь
н
на
наб
наблюдении
навашинскии
навваб
наволок
нагаи
нагорная
нагорное
нагорныи
нагорскии
наградами
награды
награжде
награждении
над
надежда
надеждинка
надеждино
надеждинскии
надо
надонть
надписи
надпись
надькин
надя
назад
назарович
назарово
назв
название
названием
названии
названия
назо
наи
наиболее
наклонение
наклонениянь
наклонениясо
наличии
налксе
налксема
налксеманть
налксемань
налксемасо
налксемасонть
налксемаст
налксемась
налксемат
налксематнень
налксематнесэ
налксеме
налксесть
налксесь
налкси
налксии
налксить
налксиця
налксицякс
налксицянть
налксицясь
налксицят
налксицятне
налксицятнеде
налксицятнень
налксось
налткеть
нам
нама
намибия
нанть
нань
написать
например
нар
нарамо
нарва
наречии
нармунень
нармунтне
нармунтнень
нармунть
нармунь
наро
наровчатскии
народ
народа
народная
народного
народное
народнои
народные
народныи
народных
народов
народонть
народонь
народы
нарушении
нас
населе
население
населения
населенных
наследие
наследия
наследиянь
насо
насонть
настоящее
настрои
нась
натальино
наталья
натои
натуралист
натуральнои
нать
наук
наука
наукань
наукатнень
науки
наумово
науч
научная
научно
научного
научное
научнои
научныи
научных
находится
нац
нации
национальная
национального
национальное
национальнои
национальностеи
национальность
национальныи
национальных
начала
начале
начало
начальник
начиная
начко
наш
наша
нашего
наши
наших
ная
нберг
нга
ндо
ндол
не
неверово
невестанть
невестась
невскии
невскои
невтеви
невтевить
невтевкс
невтевкст
невтевскт
невтезь
невтекст
невтема
невтемакс
невтемась
невтемат
невтемга
невтемс
невти
невтизе
невтизь
невтить
невтиця
невтсь
невтькеть
него
недели
недель
нее
неемс
неень
нееньшкань
нежедезь
неи
неизвестно
неклюдово
некоторые
некоторых
некрасово
неле
нельзя
нем
нема
неме
немецень
немецкии
немецкого
немецэнь
немовонь
немс
немскии
нен
ненецкии
ненецт
ненецэнь
ненть
нень
необходимо
необходимости
необязательныи
неофициальныи
нерехта
нерехтскии
нерь
нескольких
несколько
нестерово
несть
несь
нет
неть
нетьксэзэ
нетьксэнзэ
нетьксэсь
нефтегорск
нечаевка
нече
нея
неяви
неявикс
неявить
неявиця
ни
нибудь
нива
нидерландонь
нидерланды
ниже
нижегород
нижегородская
нижегородскии
нижегородскои
нижне
нижнедевицкии
нижнее
нижнеи
нижнеломовскии
нижнетавдинскии
нижние
нижнии
нижнои
нижняя
низовка
низэ
нии
ниигн
нииялиэ
ник
ники
никитино
никифоровскии
никколо
никогда
никола
николаевич
николаевка
николаевна
николаевскии
николаевское
николаенко
николаень
николаи
николая
николо
никольск
никольская
никольскии
никольского
никольское
никольскои
никс
никто
никул
никулино
никульское
нил
ниле
ниленьгемень
нилеце
ним
нимиляв
нина
нинзэ
нино
нинь
ниса
нить
них
ницше
ниця
ничего
ния
нк
нка
нквд
нки
нков
нкс
нкска
нксо
нксов
нксозо
нксонзо
нксонтень
нксонть
нксонь
нксоньте
нксост
нксось
нкссо
нкссонть
нкссонь
нкссто
нкст
нкстне
нкстнэ
нкстнэнь
нкстнэсэ
нксто
нн
нная
нного
нное
ннои
ннрот
нные
нныи
нных
но
ноам
нобелень
нов
нова
новак
новая
новгород
новеи
нови
новинки
новинское
нович
новка
новна
ново
новоалександровка
новобурасскии
нового
новое
новои
новом
новомихаи
новониколаевка
новоникольское
новооскольскии
новопавловка
новосе
новоселки
новосельское
новосибирск
новости
новостнои
новострои
новоторъяльскии
новотроицкое
новоузенскии
новоузенскои
новоусманскии
новохопе
новская
новскии
новское
новые
новыи
новым
новых
новь
ногаи
ногинскии
ного
ногтеи
ное
нои
нокаут
нолдави
нолдавить
нолдавкс
нолдавксось
нолдавкст
нолдазель
нолдазь
нолдамо
нолдамось
нолдамс
нолдасть
нолдась
нолды
нолдызе
нолдыть
нолдыцязо
нолинскии
ном
номер
номера
номерэзэ
номинации
нонь
норвегия
норвегиянь
норвегиясо
норов
норовава
норовжорч
ность
ночь
нояб
ноября
нп
нпк
нскии
нское
нском
нть
ну
нувара
нугуш
нудеень
нудеи
нужен
нужно
нужны
нумоло
нупаль
нупоньчеи
нур
нурдыгина
нуримановскии
нурька
нурькаметрань
нурькине
нурькинестэ
нучко
нуя
нштеи
ны
ные
ныи
ныне
ных
нь
нью
нэнь
ня
няндомскии
о
об
оба
обамань
обвинение
обеспечению
обзор
обкома
обл
областень
области
областнои
область
обновление
обозначающие
обозначения
обозрение
обоснование
обр
обработки
образ
образование
образовании
образования
образованиянь
образом
обран
обратнои
обращения
обрезки
оброчное
обсуждение
обсуждении
обсуждения
обуховка
обухово
общ
общая
общего
общеи
общеобразовательная
общеобразовательнои
общеобразовательных
общества
обществань
общественно
общественнои
общественныи
общество
общие
общины
объе
объедине
объединение
объединением
объединенныи
объект
объекта
объектов
объектт
объектэнть
объектэнь
обычно
обычного
обязательно
обязательныи
овлань
овраг
овсе
овто
овтонь
огаи
огаре
огарева
оглы
огни
огонь
од
ода
одежда
одесса
один
одинцовскии
одирьвань
одицянть
одицясь
одломанень
одна
однако
одно
одновременно
одного
однои
одноиме
одном
одну
одов
одошонь
одс
одсибирень
одтнэнь
ожо
ожоков
ожоковонь
ожоковсто
озавтозь
озадо
озатясь
озатятне
озе
озера
озерки
озеро
озинскии
озкс
озксов
озксонть
озксонь
озксось
озкст
ознома
ознотано
озолма
озон
озонотерапия
озяз
ои
ок
ока
окато
океан
оки
оков
окои
около
окончании
округ
округа
округе
округонь
окт
октябрь
октябрьская
октябрьскии
октябрьское
октябрьскои
октября
октябрянь
окулово
ола
оле
олег
олимпиень
олимпии
олимпиянь
оло
олодимерэнь
олодимэрэнь
олонь
ольга
ольги
ольгино
ольховка
ольшанка
олясто
олячи
олячив
олячинь
ом
омбо
омбомасторонь
омбоце
омбоцеде
омбоцекс
омбоценть
омбоцес
омбоцесь
омс
омутнинскии
он
она
оне
онега
онежскии
они
онлаи
оннои
оно
онов
ономастика
ононь
онтарио
оны
онів
оон
ооо
оп
опарино
опера
оперань
операсо
опернои
описание
описания
опрос
опубл
опубликован
опубликована
опыт
ор
оразаи
орган
организации
организация
организациясь
органов
оргат
ордань
орданьбуе
орданьбуень
орданьбуесэ
орден
ордена
орденом
орденсэ
оре
оренбург
оренбургонь
оренбургская
оренбургскии
оренбургскои
орехово
оригинал
оригинала
оричевскии
орк
оркестр
оркестра
оркестрань
орлов
орлова
орловка
орлово
орловскии
орловское
орма
ормадо
ормаменьксэнь
орманть
ормань
ормат
орск
ортат
ортатне
ортатнень
ортодоксонь
оружие
оршамопель
оршамопельть
оршамосо
оршанскии
освещении
осе
осень
осетия
осинки
осиновка
осип
осипов
оска
осканть
оскар
оскась
оскат
осложненных
османонь
османскои
основания
основе
основное
основнои
основном
основные
основы
особенности
остальные
остальных
остров
острова
островов
островскии
островского
острогожскии
осудившии
осуждение
ось
от
отв
ответственнои
ответственныи
ответы
отвечать
отд
отдел
отдела
отделение
отделения
отдельныи
отдельных
отделэнь
отдыха
отечествань
отечественнои
отзывы
отличие
относительно
относится
отношение
отношении
отношения
отображаться
отображение
отображения
отрада
отрадныи
отсутствует
отто
отче
отчество
отчет
отяжбуе
отяжбуень
отяжбуесэ
отяжвеле
оулу
офицер
официальная
официальнои
официальном
официальныи
оформление
оформления
оформленного
ох
охотниктне
оценка
очень
очерк
очерки
ош
ошибка
ошибки
ошкар
ошкондямо
ошов
ошокс
ошонтень
ошонть
ошонь
ошось
ошс
ошсо
ошсонть
ошсто
ошстонть
ошт
оште
оштнень
оштнэ
оштнэнь
оят
п
па
паасонен
паасонена
павел
павинскии
павлович
павловка
павловна
павлово
павловонь
павловская
павловскии
павловское
падежень
паз
пазава
пазнэнь
пазонть
пазонь
пазось
пазт
паи
пакистан
пакистана
пакся
паксява
паксянть
паксянь
паксяс
паксясо
паксятикше
пакшанзо
пакшань
пакшатне
пакшатнень
пал
палакс
палатань
палехскии
палканть
палкино
палманькс
палт
палы
палыця
пам
памяти
памятная
памятник
памятники
памятников
память
панар
панго
пангонть
пангонь
пангт
пандо
пандонть
пандонь
пандось
пандт
пандтне
пандтнень
пандтнэнь
панезь
панезьсе
панема
панемс
панжадо
панжи
панжиков
панжиковонь
панжиковсто
панжиця
панжовсь
панжозель
панжозь
панжома
панжомась
панжсь
панзеи
панино
панинскии
панитикше
паново
паолонь
паралимпии
параллели
параметр
параметра
параметрами
параметре
параметров
параметром
параметры
параньгинскии
паренть
париж
парижсэ
парижэнь
парк
парка
парламент
парламентэнь
парма
паро
пароль
паронзо
паронь
парсеи
парсте
парт
партии
партия
партиянть
партиянь
партне
парфеньевскии
парца
парь
паряк
паспорт
патязо
патяи
патясь
пауло
паулу
пауль
пахарь
паця
пацят
пача
пачелмскии
пачк
пачкоди
пачкодсь
пачтямо
паша
пашутина
пе
певец
певица
певицы
певтеме
пед
педагог
педагогикань
педагогическои
педе
педикюр
пеель
пезэ
пеи
пек
пеке
пекин
пекстазь
пекшень
пеле
пелев
пелеве
пелевее
пелевень
пель
пельга
пельде
пелька
пелькс
пельксстэ
пелькссэ
пелькссэнть
пелькст
пелькстамо
пелькстамонть
пелькстамонь
пелькстамосо
пелькстамосонть
пелькстамот
пелькстнэ
пелькстнэнь
пелькстэ
пельксэ
пельксэзэ
пельксэкс
пельксэнть
пельксэнь
пельксэс
пельксэсь
пельс
пельть
пеля
пенза
пензань
пензенская
пензенскии
пензенскои
пензятка
пеньки
пеня
пер
перасо
первая
первенства
первого
первое
первои
первом
первомаи
первые
первыи
первым
первых
перев
перевод
переводе
переводчик
переводы
перевоз
перевозскии
переволоцкии
перед
передачеи
переименована
перекре
перелюбскии
перенаправление
переписи
перепись
перераб
перечень
период
периодическои
пермень
пермского
пермь
пером
персидскии
персиянь
персоналии
персоналиях
перспективы
пертпельксэнь
перть
пертьпелькс
пертьпельксэнть
пертьпельксэнь
перу
перунь
першино
перька
перькава
перькаванзо
перьканзо
пес
песен
пески
песне
песни
песнь
песню
песня
песняров
песняры
песнях
песочное
пестово
пестяковскии
песчанка
песчаныи
песэ
петаи
петар
петербург
петербурге
петербургонь
петр
петра
петрань
петров
петрова
петрович
петровка
петровна
петрово
петровск
петровскии
петровское
петровскои
петрозаводск
петропавловка
петропавловскии
петропавловское
петроскои
петрушино
петушинскии
печ
печатазь
печати
печени
печкасонь
печкасоньмноголикая
печкаст
печора
пешксе
пеште
пештть
пештязь
пи
пидезь
пидень
пижанскии
пиже
пижень
пижеть
пизе
пиземе
пик
пикассо
пиксаур
пикселях
пиле
пильге
пильгензэ
пильгень
пильгеоска
пильгеоскань
пильгеоскасоналксии
пильнинскии
пимпирев
пинге
пингеде
пингезэ
пингензэ
пингенть
пингень
пингес
пингестэ
пингестэнть
пингесь
пингесэ
пингетнень
пингетнестэ
пингстэ
пинежскии
пионерскии
пире
пирень
пиресэ
пирогово
писал
писателеи
писателень
писатели
писатель
писателя
писать
письма
письменности
письмо
пителинскии
питер
питне
питнеи
пиципалакс
пичаевскии
пиче
пичень
пичеть
пишется
пишля
пишляи
пко
пкс
план
планета
планирования
платон
пле
плесецкии
плесо
плосково
плотина
плотность
площадь
плюс
пмо
по
победа
поведения
поверхностных
повести
повесть
поводу
поволжскии
поволжья
погорелка
погост
погостинскии
под
подгоренскии
подгорнова
подгорное
подгорныи
поддержку
подзаголовок
подлесное
подлесныи
подлинника
подольск
подольскои
подосиновскии
подписи
подпись
подробнее
подставляться
подстановкои
подстраницы
подъе
поездэсь
пожалуи
поза
позась
позволяет
поздяев
позиционная
позиционные
позкарта
пои
поиск
поиска
пока
покров
покровка
покрово
покровскии
покровское
покрытие
покш
покшке
покшолма
покшолмазо
покшолманть
покшолмасо
покшолмаст
покшолмась
покшось
покшт
покштояк
покштянок
покштянь
покштят
покштятне
покштятнень
покшчи
покшчинть
покшчинь
покшчись
покшчить
пол
пола
полавтнема
полавтнемань
полавтомс
полавтыця
полавтыцякс
поладови
поладызе
полазо
полакс
полань
поле
полевои
полежаев
полежаи
полина
политик
политика
политикань
политики
политическая
политического
политическои
полковник
полконь
полная
полное
полномочия
полностью
полныи
половои
положение
положения
полом
поломское
получась
получение
получения
получил
получить
полушария
поль
пользователеи
пользователя
польск
польскии
польского
польскои
польша
польшань
польшасо
полю
полюса
поля
поляков
поляконь
поляна
полянки
полянскии
полянское
поляны
полярнои
помимо
помочь
помощи
помощь
помощью
пона
понав
поназыревскии
понань
понгавтозь
понги
понгсь
пономаре
понятия
поп
попечителеи
попов
попова
поповка
попово
поповское
популярнои
порт
портал
портале
портр
портрет
портреты
португалия
порядке
пос
посад
посадскии
посвящ
посвяще
посе
поселение
поселении
поселения
поселениях
поселка
поселок
после
последнеи
последние
последнии
последняя
посмотреть
пособие
пособия
поспелов
поссовет
постановка
постоянного
поступась
поте
потма
потмо
потмова
потмомодань
потмонь
потом
потс
потсо
потьма
похвистневань
похвистнево
похвистневскии
поче
почему
починкань
починки
починковскии
починок
почт
почта
почтань
почти
почтовые
почтовыи
почты
поэзии
поэзия
поэзиянь
поэзиясь
поэма
поэмат
поэмы
поэт
поэта
поэтическое
поэтическои
поэтому
поэты
поэтэнть
поэтэсь
появасть
появась
появилась
появляется
пп
прав
права
правазо
правань
праваст
праватнень
правах
правда
праве
правил
правила
правилам
правительства
правительстванть
правительствань
правительстве
правительство
правлениянь
право
правовые
правок
правоприменения
православная
православнои
прага
прагасо
прадеш
праи
практ
практическои
прамо
прамонть
прамостонть
прась
превеи
превс
пред
предания
предисл
предисловие
предложения
предметэсь
предназначен
предоставить
председатель
представители
президент
президента
президентэнть
президентэнь
президентэсь
премии
премия
премиянь
премиясь
премьер
преображенка
преображенскии
преподаватель
пресс
префектуре
при
привет
приводится
приволжскии
приволжское
приволье
приглашаем
приговор
пригородное
пригородныи
прие
приз
призе
призренэнь
призы
прикладнои
приключения
приложение
прилук
прим
применение
пример
примере
примеры
примеч
примечание
примечании
примечания
примечаният
приморская
приморскии
приморского
приморскои
принимает
принцесса
принципы
принял
принят
приозе
приравненных
природа
природе
природного
природы
присвоении
приставкин
пристань
приток
приуралье
причастиятне
приштина
про
проблема
проблемы
проверка
проверки
проверьте
провинции
провинция
провинциянть
провинциясо
провинциясь
программа
программанть
программат
программе
программы
прогресс
продолжить
продюсер
проект
проекта
проектах
проекте
проектов
проекты
проектэнть
проектэсь
проекции
проекция
проживания
проза
прозаик
прозань
прозаньсе
прои
произведении
произведения
произведениянзо
произведеният
произведениятне
происхождение
прок
прокофьев
пролетарскии
промкс
промксонть
промксонь
промксось
пронскии
пронскои
просвещение
просвещения
просвещениянь
просмотрена
просто
простои
пространства
пространство
протасово
против
проф
профессиональнои
профессия
профессор
профессора
профессорокс
профессоронть
профессорось
профиль
прохоров
прохоровскии
процентах
процесс
процессы
прочее
прошлого
прошу
прудки
пруды
пруст
пры
прыть
пря
прява
прявт
прявтлопа
прявтмасторонь
прявтозо
прявтокс
прявтонть
прявтонь
прявтось
прявтош
прявтошокс
прявтошонь
прявтошось
прявтошсо
прявтошт
прядо
прядови
прядовить
прядовомсто
прядовсь
прядозь
прядома
прядомадо
прядомантень
прядоманьте
прядомсто
прядсь
прядызе
прядызеть
прязо
пряка
прякат
прякслопань
прямо
прямои
прянзо
прянть
прянь
пряс
прясо
прясонзо
пряст
прясто
прясь
прят
псевдоним
псевдонимом
пси
псковонь
птиц
публикации
публикация
публикациянзо
публицист
пугаче
пулаи
пулеме
пуло
пулонзо
пулттнэнь
пункт
пункта
пунктов
пункты
пупиця
пургаз
пуре
пуркаев
пурнави
пурнавильть
пурнавить
пурнавкс
пурнавксо
пурнавксозо
пурнавксонзо
пурнавксонтень
пурнавксонть
пурнавксонь
пурнавксось
пурнавкссо
пурнавкст
пурнавкстонть
пурнавозь
пурнавсть
пурназь
пурнамо
пурнамс
пурнась
пурны
пурныть
пурныця
пурныцязо
пурныцясь
пурня
пурьгине
пурьгинепалакс
пусмо
пусмозо
пусмонзо
пусмосо
пусмось
пусмот
пустачеи
пустои
пусточеи
пустынь
путеводитель
путешествие
пути
путови
путовить
путозель
путозь
путома
путомань
путомась
путомс
путсть
путсы
путсызь
путсь
путы
путызе
путызь
путыльть
путыть
путыцязо
путыцякс
путь
путятинскии
пучежскии
пушкин
пушкина
пушкино
пушкинскии
пушкинэнь
пуштазь
пущино
пциг
пшти
пштистэ
пыщугскии
пьеса
пьесат
пьесы
пярну
пярнумаа
пятаев
пятаи
пятилетка
пятина
пять
р
ра
работ
работа
работает
работать
работе
работник
работу
работы
рабочеи
рабочии
рав
равнопромежуточнои
равонь
равошонь
равчирень
радаев
радаевень
ради
радин
радио
радиосо
радуга
раз
развитие
развитии
развитию
развития
разгуляева
раздел
раздела
разделе
разделов
раздельно
раздолье
различных
размер
разметки
размышления
разных
разо
разработке
разъезд
разъезда
раи
раиль
раиса
рак
ракамо
ракитянскии
раксчис
ракша
ракшань
ракшат
ракшатне
ракшатнень
ралем
ралемломшин
рамаданбуень
рамаданбуесэ
раменскии
раменское
раменье
рамках
рамки
рамонскии
ран
рана
раневская
раневскои
ранее
ранзо
ранть
рань
рапламаа
раптанов
раскень
раскинь
рассвет
рассказ
рассказов
рассказово
рассказовскии
рассказы
расстрел
раст
растении
растения
расче
рась
раське
раськезэ
раськекс
раськенек
раськензэ
раськентень
раськенть
раськень
раськестэ
раськесь
раськесэ
раськетне
раськетнень
раськеть
раськетьнень
раськеютконь
раськязорчинь
рат
ратне
ратор
раторонь
раужо
рахманка
рахмановка
рацяня
рб
рго
ре
реабилитации
реабилитирован
реве
ревень
революции
революционер
революция
революциядо
революциянь
регина
регион
региона
региональнои
регионе
регионов
региононь
регионы
ред
редактирования
редактор
редактора
редакторов
редакторокс
редакторы
редакциеи
редакция
редакциясо
редкол
редькино
реестрань
реестрасонть
реж
режиссе
режиссерось
результат
результате
реи
рек
река
реке
реки
рекомендации
рекомендуется
религии
религия
религиянь
религиятне
релиз
репье
репьевка
рес
респ
респу
республик
республика
республиканскии
республиканскои
республиканть
республикань
республикасо
республикасонть
республикась
республикат
республике
республики
рестазь
ресурс
ресурсы
рец
рецензентнэ
речи
речка
речнои
речь
решение
решения
ржаксинскии
ривезесь
ривезь
рига
ригань
ригасо
рии
рим
римень
римскои
рио
рис
рисьме
рисьменть
рисьмесь
рисьминеть
рисэнь
рифма
рихард
рица
ричард
рк
рка
рки
рм
рма
рмав
рмадеекс
рмадеенть
рмадеень
рмадеесь
рмадеи
рмадови
рмадовкс
рмадовксозо
рмадовксонзо
рмадовксонть
рмадовксонь
рмадовксось
рмадовкст
рмадовкстнэ
рмадовкстнэнь
рмадовкстнэсэ
рмадозь
рмадома
рмадомань
рмадомасо
рмадомась
рмадомат
рмадомо
рмадомс
рмадстоманть
рмадсть
рмадсь
рмады
рмадызе
рмадызь
рмадыи
рмадынзе
рмадыть
рмадыця
рмадыцязо
рмадыцякс
рмадыцянть
рмадыцянь
рмадыцясь
рмадыцят
рмадыцятнень
рмалемасонть
рмалесь
рмас
рмат
рная
рное
рныи
ро
роберт
роби
роботник
ров
ровенскии
ровеньскии
ровное
рово
рогаче
рогнеда
рогнеды
род
рода
родился
родин
родина
родионовка
родник
родники
родниковскии
роднои
родном
рождения
рождественка
рождествено
рождественское
роза
розень
розика
розовои
розь
рои
рок
роков
рокс
року
рокчизэ
рокчинзэ
роли
роль
ром
роман
романов
романовка
романово
романовскии
романонть
романонь
роману
ромашкин
ромодановскии
ронть
ронь
рос
россии
россия
россиянь
россиясо
россошанскии
росспэн
ростов
ростовонь
рось
роштувань
роща
рощино
рскии
рских
рское
рсфср
рт
ртищево
ртищевскии
ртомс
ртсы
ру
рувики
рудазов
рудня
рудольф
руз
рузаевка
рузаевскии
рузанкин
рузкс
рузокс
рузонь
рузоньгеопортал
рузоньмноголикая
рузскии
рузт
рук
руководитель
руководства
руководство
руководством
румыния
румыниянь
румыниясо
румынэнь
рунго
рунгозо
рунгонть
рунгонь
рус
руси
русск
русская
русские
русскии
русских
русско
русского
русское
русскои
русском
руссо
русь
рут
руця
ручеи
ручин
рф
ры
рыбновскии
рыбное
рыгин
рыненть
рынесь
рынетне
рынеть
рыуге
рыугень
рябов
рябова
рябовонь
ряд
рядом
рядсек
ряжскии
ряжскои
рязанень
рязановка
рязанская
рязанскии
рязанскои
рязань
с
са
саамонь
саамтнень
сааремаа
сабина
сави
савино
савинская
савинскии
савсь
сад
садо
садовка
садовыи
саеви
саевить
саевсь
саезель
саезь
саема
саемась
саемга
саеме
саемс
сазь
саи
саизе
саизь
саиль
саить
саиця
сак
сакмарскии
саксония
сакшность
сакшнось
сал
салава
салават
салаватскии
салмуксоньзалыи
салов
саловка
салт
салтомо
салыи
сам
сама
самаи
самар
самара
самарань
самарская
самарскои
само
самого
самои
самоле
самом
самостоятельно
сампурскии
самс
самыи
самым
самых
сан
санатория
сандеи
сандра
санкт
санта
сантьяго
санчурскии
сапожок
сара
сараево
сараевскии
сараз
саразонь
сараи
саракташскии
саран
саранонь
саранск
саранска
саранске
саранскоень
саранскои
сарапул
сарат
саратов
саратовань
саратовонь
саратовская
саратовскии
саратовскои
саров
сасовскии
сасовскои
састо
састыне
састынькине
састь
сась
саты
сатышка
саудовонь
сафонова
саша
сб
сборник
сборнои
св
свадьба
свадьбань
свал
свалшкань
сведении
сведения
сведениям
свердловонь
сверху
свет
света
светлана
светлая
светлое
светлыи
светямонь
свечинскии
свобода
свободная
свободное
свободныи
свободы
свое
своего
своеи
свои
своим
своих
свою
свыше
связанные
связи
связь
свято
святого
святои
сделать
се
себастьян
себе
себя
сев
севастополь
север
севера
северин
северная
северного
северное
севернои
северныи
северо
северодвинск
севонь
сегодня
седе
седее
седеень
седеи
седело
седеяк
седи
седидеи
седидии
седиень
седии
седиця
седь
седямо
седямонть
седямонь
седямось
сеедьстэ
сеетьстэ
сезон
сезонось
сеи
секе
секень
секретарекс
секретаресь
секретарь
секс
секскак
секторонь
сел
села
селе
селивановскии
селища
селище
селищи
село
селтинскии
сельме
сельмензэ
сельская
сельскии
сельских
сельского
сельское
сельсовет
сельсоветов
сельцо
сем
семе
семеи
семенович
семеновка
семеново
семилукскии
семинар
семия
семиянь
семияньте
семиясо
семиясто
семиястонть
семиясь
семс
семь
семье
семьи
семья
сен
сендявксонть
сенень
сенксь
сенсорная
сент
сентябрь
сентября
сень
сеньсэ
сер
серафим
серафима
сербань
сербень
сербия
сербиянь
сербиясо
сербская
сербэнь
сергач
сергачскии
сергеевич
сергеевка
сергеевна
сергеево
сергеи
сергея
сергиевка
сергиево
сергиевскии
сердобскии
сердца
сердце
сере
серебренникова
серебряные
серии
серия
сериясо
серково
сермадеи
сермадыця
сернурскии
серои
серпуховскии
серьгеди
серьгедить
серье
сеске
сессии
сесте
сестэ
сеть
сеул
сех
сехте
сеченовскии
сея
си
сибаи
сибирень
сибирьсэ
сивинь
сигал
сиднеи
сидорово
сила
сим
симбирскои
символ
симема
симкина
симона
симферополь
симфония
сингапур
синглат
синтаксис
синьял
сире
сирмы
сисем
систем
система
системанть
системась
системе
системы
сити
сить
сияжар
сиянь
ск
ска
сказка
сказки
сказуемое
скалонь
ская
ске
ские
скии
ским
ских
ско
скобках
ского
ское
скоень
скои
сколько
ском
скопинскии
скопье
скрипка
скрябино
скульптор
скульптура
сл
слава
славко
славы
славянонь
сладковскии
слева
следует
следующие
следующии
следующих
слитно
слобода
слободка
слободскои
слов
слова
словакия
словакиянь
словакиясо
словаконь
словам
словари
словарь
словаря
слове
словения
словенэнь
слово
словообразование
словообразования
слог
сложные
слудка
служась
служба
службы
случае
случаев
случаи
случаях
см
смерти
смерть
смидовича
смирновка
смит
смоленэнь
смольково
смородин
смустезэ
смустень
смустест
смустесь
смусть
сначала
снег
снимазь
снк
сноски
сносок
со
соавт
собака
собинскии
собои
соболево
собор
соборонть
соборось
собрание
собранием
собрания
события
сов
совавтови
совавтовить
совавтозель
совавтозь
совавтома
совамо
совамось
совасть
совась
совет
совета
совете
советская
советскии
советского
советское
советскои
советэнь
сови
совить
совиця
совицякс
совместно
совпадать
современная
современник
современного
современнои
современном
современность
современные
современныи
современных
совхоз
совхоза
согласно
согласнои
сода
содави
содавикс
содавикст
содавиксэв
содавиксэвть
содавиксэкс
содазь
содамо
содамое
содамочи
содамочинь
содамочись
содамс
содан
содасызь
содержание
содержать
содержит
содомово
соды
содыдеи
содыи
содыль
содыть
содыця
создание
создании
создания
создать
сои
сок
сокамо
сокиця
сокицянь
соколова
соколовка
соколово
сокольскии
сокор
сократ
солдатонь
соле
солигалич
солигаличскии
солнечногорскии
солнечныи
солнце
соло
соловье
солы
соль
сон
сондензэ
сонензэ
сонзе
сонзэ
сонсь
сонськак
сонь
соня
сообщение
сообщения
сообществ
сообщества
сообщество
сообществом
соответственно
соответствии
соответствовать
соответствующеи
сопрано
сопровожд
сория
сорныця
сорокино
сорокинскии
сорочинскии
сортировка
сортировки
сослагательнои
сосновка
сосновскии
сосновское
сосновыи
сосногорск
сост
состав
состава
составе
составители
составитель
составления
состоялся
состояние
состоянии
состоянию
сосудистых
сотрудник
сотрудничество
софия
софьино
софья
социал
социалистическои
социально
социальнои
социальные
социальныи
социолог
социология
соч
сочинении
сочинения
сочиненият
союз
союза
союзонь
спас
спасибо
спасск
спасскии
спасское
спасскои
спассонь
спб
спектаклясо
специалист
специально
специальное
специальнои
спид
списка
списке
списки
списков
список
спорт
спорта
спортивная
спортонь
спортсмен
спортсмена
спортце
способ
справ
справа
справка
справочник
сравтови
сравтовсь
сразу
среди
среднего
среднее
среднеи
средние
среднии
средняя
средства
сс
сср
ссср
ссылка
ссылками
ссылке
ссылки
ссылкои
ссылку
ссылок
ст
ста
ставится
ставропольскии
стазь
стака
стакаатлет
стакалгавтозь
стакасто
стал
стала
стали
сталин
сталинская
сталинэнь
сталмозо
стамбарнэ
стамбул
стамбулонь
станислав
станции
станция
станциянть
станциясо
станциястонть
станциясь
старая
старина
старо
старое
старожиловскии
старооскольскии
старостась
старошаи
староюрьевскии
старшеи
старшии
старые
старыи
стат
статеи
статистика
статистикань
статистикась
статистики
статистические
статистическии
статистического
статус
стать
статье
статьи
статью
статья
статьянь
статьясь
статьят
статьях
стб
ств
ства
ствань
стве
ствие
ствительнои
ствительность
ствия
ство
сте
стекло
стена
степан
степана
степанович
степановка
степаново
степановская
степаньково
степенень
степени
степень
степное
степнои
стерлибашевскии
стерлитамаконь
стерлитамакскии
стефан
сти
стилистика
стиль
стильсэ
стить
стих
стихензэ
стихень
стихи
стихотворения
стихотворениянзо
стихть
сто
стои
стоит
сток
стокгольм
столбцов
столица
столь
стонь
стопы
стр
страдательнои
стран
страна
стране
страниц
страница
страницах
странице
страницу
страницы
странник
странныи
страны
стратегии
стрелка
стрижка
строи
строитель
строк
строка
строки
строку
структура
струннои
стувто
стувтозь
студе
студенец
студентов
студентэнь
студии
ступино
ступинскии
сть
стэ
стэдензэ
стэнзэ
стэнть
стэнь
стэст
стявтозель
стявтозь
стядо
стяко
стяконь
стясь
су
субботино
сув
суд
суда
судан
судизь
судиславскии
судицятне
судо
судогодскии
судонть
судонь
судось
судьба
судьбы
судья
судязь
суздаль
суздальскии
суи
сукс
сулеи
сумгин
суна
сундерьковонь
сундерьковсто
сунжа
сунскии
суоми
суоминь
суомисэ
суперлига
сура
сурань
сурвеле
суре
сурень
суркс
суро
суронь
сурскии
сурсо
сусанинскии
сусик
суслоны
суффикс
суффикст
суффикстнэ
суффикстнэнь
суффиксэнть
суффиксэсь
сухарева
сухая
суходол
сухои
сушка
сушкова
существует
схоз
сцена
сценариень
сценарист
сцене
сцены
счастье
сша
сы
сывелень
сывель
сывельде
сывельстэ
сызь
сыктывкар
сын
сынек
сыненст
сынест
сынст
сынсь
сынь
сыргась
сырги
сыре
сыреси
сыресь
сырне
сырнень
сырьнень
сыть
сыця
сь
ськамонзо
ськамочинь
сэ
сэденть
сэдесь
сэдь
сэнди
сэндявкс
сэндявксонть
сэндявксонь
сэндявксос
сэндявксось
сэндявкссо
сэндявксэнь
сэндявозь
сэндязь
сэнзэ
сэнть
сэнь
сэпеи
сэпень
сэрезэ
сэреи
сэрень
сэресь
сэрь
сэрьс
сэрьсэ
сэст
сэсэн
сэть
сэтьме
сэх
сэяк
сювозь
сюжет
сюкпря
сюлмави
сюлмавить
сюлмавкс
сюлмавкст
сюлмавозь
сюлмазь
сюлми
сюмсинскии
сюпав
сюр
сюракшов
сюрковонь
сюро
сюронь
сюрот
ся
сядо
сядонь
сянглеензэ
сянглеи
сянголеи
сярдо
сятко
т
та
табл
таблиц
таблица
таблице
таблицу
таблицы
тавла
таволжанка
таганов
таго
тагор
таджикистан
таи
так
также
такие
таким
таких
такое
такои
таком
таксона
таксонов
таксономиянь
талдомскии
талица
таллин
таллинн
таллинэнь
таловскии
там
тамалинскии
тамбов
тамбовская
тамбовскии
тамбовскои
тан
танконь
тансть
тантеи
таня
тапазь
тара
тарад
тарадонь
тарадт
тарасов
тарасова
тарасовка
тарасово
таратынов
таргазь
таргонть
таргонь
таргочи
тарка
таркав
таркава
тарказо
тарказоль
тарказонзо
таркакс
тарканзо
таркантень
тарканть
таркань
таркас
таркасо
таркасозакон
таркасонть
таркаст
таркасто
таркастонзо
таркастонть
таркась
таркат
таркатне
таркатнева
таркатнень
таркатнесэ
тарковскии
тарковского
тарту
тартунь
тат
татар
татаронь
татарская
татарские
татарскии
татарско
татарского
татарское
татарскои
татарстан
татарстанонь
татарт
татары
татищево
татищевскии
татышлинскии
татьяна
тау
таш
ташла
ташлинскии
таштавкс
таштамков
таштамковонь
таштамковсто
ташто
тбилиси
тв
твалт
твен
тверень
тверскои
творческои
творчества
творчестве
творчество
те
театр
театра
театральнои
театранть
театрань
театрасо
театрась
тебе
тебя
тев
тевветии
тевезэ
тевелявонь
тевензэ
тевентень
тевенть
тевень
тевест
тевесь
тевс
тевсэ
тевтеиця
тевтне
тевтнеде
тевтнень
тевтнесэ
тевть
тегеран
теде
теевема
тееви
теевить
теевкс
теевкст
теевксэнзэ
теевксэсь
теевсть
теевсь
теезель
теезь
теема
теемадо
теемазо
тееманзо
тееманть
теемань
теемась
тееме
теемс
теемсть
теемстэ
теемсь
тез
тезисы
тезэнь
теи
теизе
теизь
теии
теильть
теине
теить
теиця
теицязо
теицякс
теицясь
теицят
теицятнестэ
теке
текень
текст
текста
тексте
текстов
текстом
тексты
текущего
текущеи
теле
телевидение
телеканал
телень
телесь
тель
тельня
тем
тема
теманть
теме
темниковскии
температурась
тенант
тенек
тенень
тензе
тензэ
тенк
тенст
тенть
тень
теньгушбуень
теньгушбуесэ
теньсэ
теоретик
теоретическои
теории
теория
тепловка
тердезь
тердемс
терди
тердинек
тереза
терезэ
терек
терекень
терензэ
теренть
терень
тересь
терехово
термин
терминов
терминтнэнь
термины
тернеи
тернеть
терновскии
территориальная
территориального
территориальное
территориальнои
территориальном
территории
территория
тертне
терть
терь
терьавань
терькат
терявты
терявтыть
тестэ
тестэнть
тесь
тесэ
теть
тетя
тетязо
тетяи
тетякаи
тетям
тетянзо
тетянь
тетяст
тетясь
тех
техас
техника
техникань
техникум
техническои
технологии
течение
течи
течинь
тешкс
тешкскерьксэнть
тешкст
тешкстави
тешкстазь
тешкстызе
тешкстыть
тешкстэсь
тешксэнь
тешксэсь
теште
тештенть
тештень
ти
тикше
тикшеагафонова
тикшезэ
тикшекс
тикшенть
тикшень
тикшерусско
тикшесь
тикшеть
тимин
тимофеевич
тимофеи
тимошкино
тинге
тип
типа
типо
типография
тираж
тирана
тире
тиринь
титово
тихонова
тишины
тия
тка
ткач
тная
тне
тнеде
тненень
тнень
тнесэ
тнои
тныи
то
тобольскии
тов
товзюро
тогда
того
тодор
тозонь
тои
токаре
токарево
токио
тол
толгань
толкан
толонь
толсо
толстого
толстои
толт
только
тольятти
том
тома
томас
томах
томбале
томбамонь
томось
томскоень
томсо
тому
тон
тона
тонавтнема
тонавтнемазо
тонавтнеманзо
тонавтнеманть
тонавтнемань
тонавтнемась
тонавтнеме
тонавтнемс
тонавтнемстэ
тонавтнесь
тонавтни
тонавтниця
тонавтницятнень
тонавтозь
тонавтома
тонавтоманть
тонавтомань
тонавтомасо
тонавтомо
тонавтсь
тонавты
тонавтыи
тонавтыця
тонавтыцякс
тонавтыцянь
тонавтыцясь
тонавтыцят
тонадеи
тонань
тонась
тонат
тонгозь
тонеть
тони
тонкинскии
тоннат
тонть
тонь
топавтозь
топавтома
топавтомс
топавтсь
топавты
топелиус
топодсть
топоним
топонимическии
топонимия
топонимов
топонимт
торама
торбеи
торн
торо
торпинге
торпингенть
торпингень
тоско
тосо
тосто
тот
тоцкии
точек
точка
точки
точкои
точку
тр
травме
трагедия
традиции
традиционнои
трактат
транзеи
транспорт
тре
требует
требуется
треи
тренер
третии
третьего
три
трои
троица
троицкии
троицко
троицкое
трокс
тролль
тростянка
труба
труд
труда
трудностеи
трудов
трудовои
труды
тс
тскии
тся
тт
ту
тува
туве
туво
тувонь
туемс
туи
туить
тулань
тумаи
тумо
тумобуе
тумобуень
тумобуесэ
тумовирень
тумонь
тумот
тунда
тундо
тундонь
тунь
тур
тура
турек
турекскии
турема
туремасо
туризма
туристэнь
туркань
турки
турковскии
турконь
турку
туро
турово
туртов
турция
турциянь
турциясо
тусто
тусть
тусь
тут
ты
тыненк
тынк
тынь
тырдаз
тыс
тысяч
ть
тьне
тьсэндявкс
тэрнопилэнь
тюжа
тюльганскии
тюменень
тюменская
тюменскии
тюмень
тюрема
тюремасо
тюремасонть
тюрк
тюркань
тюрконь
тюрьмасо
тюс
тюсозо
тюсонь
тюсось
тюссо
тюштя
тюштянь
тягушев
у
уаи
убирания
ува
уважаемые
уважением
уварович
уварово
уваровскии
увинскии
угол
уголок
угор
угорская
угорские
угорскии
угорских
угорского
угрань
угристика
угроведение
угроведения
угроведов
уда
удаление
удало
удалов
удалять
ударение
ударные
удмурт
удмуртии
удмуртия
удмуртонь
удмуртскии
удмуртт
удобныи
уезд
уезда
уезде
уездсэ
уездэнь
уже
ужкал
ужо
ужовка
уза
узбекень
узбекистан
узень
узнать
уи
уильям
ук
укажите
указ
указали
указан
указание
указанием
указания
указанныи
указатель
указать
указывается
указывать
укладка
укп
украина
украинань
украинасо
украинецт
украины
украі
укшныця
улан
уле
улевель
уледе
улезэ
улема
улемась
улеме
улемс
улест
ули
улить
улица
улиця
улицякс
улицят
улу
улусе
ульне
ульнесть
ульнесь
ульсь
ульть
ульяновка
ульяновск
ульяновская
ульяновскии
ульяновскои
ульянонь
умаа
умарина
умарь
умарьков
умарьковонь
умарьковсто
уме
умок
умолчанию
умонь
умыс
ун
ундокс
ундоксонзо
ундоксонь
ундокст
унжа
унжат
универсального
университет
университета
университетсэ
университетэнть
университетэнь
унинскии
унто
упоровскии
управление
управлению
управления
ур
ураи
урал
урала
уралонть
уралонь
уралсо
уралтау
уральскии
уральскои
урбанизациясь
урду
уреи
уренскии
урень
уржумскии
уровне
уровнем
уровня
урожаи
уроженцы
уроньпуло
урядыця
усад
усадьба
усия
усиянть
усиянь
усиясо
усиясонть
усиясь
усият
усиятнень
усиятнесэ
уски
ускляи
условии
условиясо
условно
условнои
усолье
успенка
успенское
уссурии
устав
устава
установки
устно
устрои
усть
устье
устьянскии
уськиреи
утверждении
утверждения
утворення
уткино
уточнение
уточнения
уфа
уфань
уфимскии
уфимского
уфимскои
ухоловскии
ухта
учаевень
учалинскии
учалы
участие
участия
участкась
участник
участника
участники
участников
участок
уче
учеб
учебник
учебно
учебное
учебных
учеваткин
учение
ученого
ученои
учи
училища
училищанть
училищань
училищасо
учо
учреждение
уш
ушаковка
ушаково
ушман
ушманонь
ушмант
ушмантнэ
ушмантнэнь
ушмо
ушмовиень
ушмовии
ушмодеень
ушмодеи
ушмонь
ушмотне
ушмотнень
ушов
ушодкс
ушодксо
ушодови
ушодовомсто
ушодовсь
ушодозь
ушодома
ушодомсто
ушодсть
ушодсь
ушоды
ушодызе
ушодыть
ушодыцякс
ушонь
ушосо
ф
фа
фаи
фаина
факты
факультет
факультетсэ
факультетэнть
факультетэнь
фале
фаленскии
фамилия
фаунась
фе
февр
февраля
федеральное
федеральнои
федеральныи
федерации
федерация
федерациянь
федор
федорович
федоровка
федосеева
федотово
феи
фердинанд
фестивале
фестиваль
фестивальсэ
фестиваля
фиг
физик
физика
физикань
физическои
филино
филиппович
филипповка
филол
филолог
филологическои
филология
филологиянь
философ
философии
философия
философиянь
философонь
философская
философскии
философскои
фильм
фильма
фильме
фин
финляндии
финляндия
финляндиянь
финно
финнэнь
финскии
финского
финскои
флаг
флага
флагификация
флеи
фолк
фольклор
фольклора
фольклорист
фольклорнои
фольклоронь
фомин
фомино
фоминская
фоминскии
фоминское
фон
фона
фонд
фонда
фондонть
фондось
фоне
фонетика
форм
форма
формасо
формаст
формась
формат
формата
формате
форматирование
форматне
форматнень
формирование
формирования
формулы
формы
форт
фортепиано
фортепианонь
форум
фото
фотогалерея
фотографии
фотокувонь
фотокувось
фотокувт
фр
фрагмент
фраи
франгеш
франкивскоень
франц
франциск
франция
франциянь
франциясо
французонь
фред
фреи
фридрих
фронтовои
функции
функция
фурмановскии
футбол
х
ха
хаврогорское
хаи
хакасия
хан
ханинеевка
ханкаи
ханс
хантонь
ханты
характеристика
харитонова
харьков
харьюмаа
хвалынскии
хвалынскои
хвои
хе
хеи
хельсинки
хельсинкинь
хемингуэи
хенрик
хии
хикәи
химия
химиянь
хинди
хирург
хирургическои
хмеле
хмелевка
ходе
хозяи
хои
хоккеи
холестазе
холм
холмогорскии
холуница
хомскии
хопе
хор
хора
хорват
хорватии
хорватия
хорватиянь
хорватиясо
хорватонь
хоронь
хорхе
хотите
хотя
хохлов
хохольскии
храм
храмось
хранцузонь
хре
хребет
хрестоматия
хрисанфов
христианонь
христианства
христианство
христиант
христиантне
христосонь
хроника
хрустальнои
хрустальныи
худож
художествань
художественная
художественнои
художественныи
художник
художника
художников
хусеи
хутор
хх
хямяляи
ц
царе
цария
цариянь
цариясо
царонь
цвет
цвета
цветы
це
цев
цево
цели
целковои
цель
центр
центра
центральная
центрального
центральное
центральнои
центральныи
центриздат
цень
церква
церкви
церковь
церкуванть
церкувань
церкувась
церькова
церьковань
церьковасо
церькува
церькуванть
церькувань
церькувасо
церькувасонть
церькувась
цеци
цеця
цецянзо
цецянсетнень
цецянь
цецясь
цецят
цецятне
цецятнестэ
цивильскии
цивця
цикл
цикла
циреи
цитата
цитаты
цитниця
цифры
цк
цы
цыган
цыганкин
цыганкина
цыганов
цыганонь
цыпаи
цыпкаи
ця
цянав
цярмун
ч
ча
чави
чавить
чаво
чавовсь
чавозь
чавома
чавомо
чавсь
чадыков
чадыковонь
чадыковсто
чаи
чама
чамакс
чамзинка
чамзинскии
чангодть
чапаевка
чапаевскии
чапакс
чапамо
чаплин
чарамо
чарли
чарльз
чартер
чары
чарькодеви
час
часовня
част
части
частности
часто
часть
частью
частях
чатыр
чаунза
чаунзабуень
чаунзабуесэ
чач
чачи
чачо
чачозо
чачозь
чачома
чачось
чачсть
чачсь
чачтыи
че
чебоксарскии
чебоксары
чевте
чеерь
чеи
чекмагушевскии
чел
челно
человек
человека
челябань
челябинск
челябинскои
чем
чемпион
чемпионат
чемпионатонь
чемпионатсо
чемпионатсонть
чепецкии
чепца
чере
черевковское
через
черень
черкасскии
черкассы
черкесия
чернавка
чернов
черновка
черногория
чернышевскии
чернянскии
чернівці
чернігів
черты
черь
чесноков
честь
четве
четыре
четырнадцать
чехень
чехия
чехиянь
чехиясо
чехов
чехова
чеховскии
чеченэнь
чеядавкс
чеядавксонь
чи
чивалгома
чивалгомав
чивалгомае
чивалгомань
чивалгомасо
чивалгомасто
чиде
чиезь
чизэ
чии
чили
чилисема
чилисемав
чилисемае
чилисемань
чилисемасо
чилисемасто
чилисемась
чимбулак
чине
чинев
чинзэ
чинтень
чинть
чинь
чиньжарамо
чипаз
чире
чирева
чирензэ
чиренть
чирень
чиресэ
чирки
чис
чисел
числа
числав
числе
численности
численность
числительные
число
числом
чисте
чистое
чистэ
чистэнзэ
чистэнть
чись
чисэ
читне
читнестэ
чить
чишма
чишминскии
чишминэнь
чкаловск
чкаловскии
член
членов
члены
чова
човалят
човине
човонь
човор
човорязь
чокшне
чокшнень
чоп
чопода
чополтбуень
чополтбуесэ
чтение
чтении
чтения
что
чтобы
чув
чувар
чуваронь
чуваш
чувашии
чувашия
чувашиянь
чувашонь
чувашская
чувашскии
чувашское
чувашскои
чувто
чувтонть
чувтонь
чувтосто
чувтось
чувтт
чувттнэ
чугункань
чугунов
чудемазо
чудеманзо
чудеманть
чудемасо
чудемасонзо
чудеме
чудерькс
чуди
чудить
чудиця
чудожов
чукал
чукало
чукалы
чулпан
чуля
чумовтомо
чумозо
чумондозь
чумонзо
чуросто
чурька
чуфаровка
чуфарово
чухлома
чухломскии
чучковскии
чыи
чэрнивцэнь
ш
ша
шабалинскии
шабле
шаблон
шаблона
шаблонами
шаблонах
шаблоне
шаблонов
шаблоном
шаблонт
шаблону
шаблоны
шабра
шабрацек
шаги
шадрино
шаи
шали
шапкарев
шар
шарангскии
шаранскии
шарлыкскии
шаронов
шарононь
шарьинскии
шарья
шатковскии
шатурскии
шах
шахматов
шаховская
шахунья
шацкии
шачема
шведэнь
швеи
швеция
швециясо
швиммер
ше
шебекинскии
шеи
шекспир
шекспира
шекспирэнь
шекшата
шемышеи
шенкурскии
шентала
шенталинскии
шержеи
шеянова
ши
шигали
шие
шиле
шилово
шиловскии
шина
шино
ширина
ширины
широкии
широта
ших
шишкино
шка
шкава
шкадонть
шказо
шкане
шканть
шкань
шкас
шкасо
шкасто
шкастонзо
шкастонть
шкась
шкатнестэ
шкин
шкина
шкинема
шкинемазо
шкинеманзо
шкинемань
шкинемасо
школ
школа
школав
школанень
школанть
школань
школасо
школасонть
школась
школат
школатнень
школатнесэ
школе
школы
школьныи
шлем
шлямо
шнамо
шожда
шождаатлет
шождасто
шои
шокша
шоржа
шотландия
шотландиянь
шоу
шпильреи
шри
шта
штапо
штат
штате
штатол
штатолонть
штатолось
штатонть
штатсо
штаттнэнь
штеи
што
штобу
штраус
шуберт
шуберта
шубино
шуварляи
шуж
шуи
шукшторов
шульгино
шумбра
шумбрат
шумбрачи
шумбрачинь
шумерля
шуструи
шуя
щ
щанкина
ще
щемерова
ъ
ы
ыи
ыця
ь
э
эгон
эдвард
эдуард
эдь
эень
эзементь
эземень
эзизе
эзизь
эзинь
эзнек
эзть
эзь
эи
экватора
экз
экология
экономика
экономикань
экономики
экономист
экономические
экономического
экономическои
эксмо
экспедиции
экшелямо
эл
электронная
электроннои
электронныи
элемент
элемента
элементов
элементт
эли
элиас
элита
эль
эльза
эльницясь
эмеж
эмежть
эмиль
энгельс
энгельсскии
энеида
энергия
эно
энц
энцикл
энциклопедии
энциклопедич
энциклопедическии
энциклопедия
энь
эпическои
эпос
эпосось
эпоха
эрань
эрз
эрзи
эрзя
эрзяватне
эрзякс
эрзямасонь
эрзямокшонь
эрзян
эрзянские
эрзянскии
эрзянских
эрзянско
эрзянского
эрзянскои
эрзянском
эрзянь
эрзяньвремя
эрзяньгеопортал
эрзяньмноголикая
эрзяньмордовское
эрзят
эрзятне
эрзятнеде
эрзятненень
эрзятнень
эри
эрии
эрик
эрить
эриця
эрицянь
эрицят
эрицятне
эрицятнеде
эрицятненень
эрицятнень
эрицятнестэ
эрицятнеукраі
эркаи
эрнест
эрси
эрсить
эртильскии
эрь
эрьва
эрьвантень
эрьванть
эрьвась
эрьзя
эрьзянь
эрьке
эрькентень
эрькенть
эрькень
эрькесь
эрькесэнть
эрькетикше
эрькеть
эрьмезь
эрюш
эряви
эрявикс
эрявиксэв
эрявить
эряволь
эрявсь
эряза
эрязань
эрязасто
эрямар
эрямарт
эрямартграфия
эрямартокс
эрямартонть
эрямартонь
эрямартось
эрямартсо
эрямартт
эрямо
эрямодо
эрямодонть
эрямое
эрямозо
эрямонзо
эрямонть
эрямонь
эрямопингезэ
эрямопингензэ
эрямопингень
эрямос
эрямосо
эрямосонть
эрямост
эрямось
эрямотарказоль
эрямс
эрясть
эрясь
эсензэ
эсест
эсеть
эсинзе
эсинзэ
эсист
эскелькс
эскельксэнь
эскин
эсперанто
эсперантонь
эссе
эст
эстедензэ
эстензэ
эстонии
эстония
эстониянь
эстониясо
эстононь
эстэнь
эсь
эськоень
эсьлем
эта
эти
этим
этимологическии
этимологиясь
этих
этническои
этно
этнограф
этнографии
этнографическии
этнография
этнографиянь
этнологических
это
этого
этои
этом
этот
эту
эфиопия
эффективность
эхо
эчке
эшксы
эште
ю
юбилеи
юбилею
юг
юго
югославиянь
южная
южно
южного
южнои
южном
южныи
южскии
юзер
юкаменскии
юлаев
юлия
юнеско
юнесконь
юность
юр
юри
юридические
юридическои
юрии
юрино
юрист
юркино
юрокс
юронзо
юронь
юрось
юрсо
юрт
юртов
юрттнэ
юрче
юрченков
юрьев
юрьевец
юрьевецкии
юрьевка
юрьево
юрьянскии
ютавсь
ютавтови
ютавтовить
ютавтозель
ютавтозь
ютавтома
ютавтомань
ютавтомат
ютавтомо
ютавтомс
ютавтомсто
ютавтсь
ютавты
ютавтызе
ютавтызь
ютавтыть
ютавтыця
ютавтыцясь
ютазь
ютамо
ютамс
ютамсто
ютасть
ютась
ютко
юткова
ютконь
юткось
юткс
ютксо
ютксост
ютксто
юты
ютызе
ютыль
ютыть
ютыця
юхан
юхани
юхо
юшкин
я
яваз
яви
является
являются
явови
явовить
явозь
яволявтозь
яволявтома
яволявты
явома
явомась
явомс
явсь
ягодное
ядов
ядринскии
яжамо
яз
язык
языка
языкам
языками
языках
языке
языки
языков
языково
языковои
языкознание
языкознания
языком
языку
яи
якамо
якамось
якасть
якась
яки
якинь
якить
яков
яковлевич
яковлевка
яковлево
яковлевскии
яковлевское
якорь
яксесь
якстере
якстерекуро
якстереть
якстерь
якстерькаи
яксярго
якутия
якутонь
якутска
якшамков
якшамковонь
якшамковсто
якшамо
якшино
якшур
яла
ялаксозо
ялаксонзо
ялакст
ялатеке
ялга
ялгакс
ялганзо
ялгань
ялгат
ялгинень
ялго
ям
ямаи
ямало
ямантау
ян
янаульскии
янв
январь
января
янгазь
яндекс
янссон
янь
япония
япониясо
япононь
яр
яранскии
ярвамаа
ярковскии
ярмак
ярмаконь
ярмаксо
ярмакт
ярославль
ярославонь
ярославскои
ярсамо
ярсамонть
ярсамопеленть
ярсамопелень
ярсамопель
ярсамопельть
ярсамс
ярскии
ярснема
ярсы
ярсыть
ярсыця
ясная
ят
ятник
ятонь
ях
яхрома
яхья
ячеи
ђ
і
ћ
ғ
ә
өфө
կաղապար
ַ
ا
ٓ
ٔ
ٕ
އ
ަ
ި
ް
ँ
ं
क
च
ज
ट
द
म
र
व
स
ह
ा
ि
ी
ू
्
ঁ
চ
ট
ন
ব
য
ল
স
়
া
ি
ে
্
ં
ચ
ઢ
ત
ા
ો
ଚ
ଛ
ଞ
ା
୍
ப
ர
வ
ா
ி
ு
்
ಂ
ಟ
ಪ
ಲ
ು
ೆ
್
ೕ
ം
ി
്
ี
่
່
​
‌
‍
‎
‑
‒
–
—
―
‘
’
“
”
„
†
•
…
‰
′
″
€
№
←
↑
→
↔
↗
↷
⇨
−
≈
③
④
⑦
ⴰ
ⴷ
ⵜ
⺀
⺄
⺆
⺈
⺊
⺌
⺕
⺝
⺸
⺼
⿰
⿱
⿲
⿳
⿴
⿵
⿶
⿷
⿸
⿹
⿺
⿻
〢
コ
ユ
リ
㇁
㇂
㇄
㇇
㇈
㇉
㇓
㐁
㐄
㐅
㐌
㐫
㐬
㐭
㐮
㐱
㑒
㒵
㒸
㒼
㓁
㓞
㔾
㕛
㕣
㖾
㘝
㚅
㚇
㚔
㚘
㝉
㝡
㝴
㝵
㞋
㞢
㞷
㠩
㠭
㠯
㡀
㡭
㡿
㢲
㢴
㣇
㣺
㥯
㪅
㫄
㫐
㫒
㫺
㬅
㬎
㬥
㬰
㲋
㳄
㷠
㸒
㸚
㸦
㼌
㼲
㽞
㿟
䀠
䂞
䍃
䏍
䒑
䖍
䖒
䖝
䖵
䙴
䚻
䜌
䝿
䡛
䧹
䪞
一
丁
丂
七
丄
丅
丆
万
丈
三
上
下
丌
不
与
丏
丐
丑
专
且
丕
世
丘
丙
业
东
丞
丢
丣
两
严
並
丨
丩
个
丫
丬
中
丮
丰
丱
串
丵
丶
丷
丸
丹
为
主
丽
丿
乀
乂
乃
久
乆
乇
么
义
之
乌
乍
乎
乏
乐
乑
乔
乖
乗
乘
乙
乚
乛
乜
九
乞
也
习
乡
乳
乾
亀
亅
了
亇
予
争
事
二
亍
于
亏
亐
云
互
亓
五
井
亘
亚
亜
亞
亟
亠
亡
亢
交
亥
亦
产
亨
亩
享
京
亭
亮
亯
亰
亲
亳
亶
亷
人
亻
亼
亾
仁
今
介
仌
从
仐
仑
仒
仓
仕
他
付
仝
代
令
以
任
企
伊
伏
伐
休
会
伯
但
位
何
佘
余
作
佥
使
來
侈
侌
侖
侯
侵
便
保
俞
信
修
倉
倍
候
倠
備
僉
僕
儿
兀
允
兂
元
兄
充
兆
兇
先
光
兊
克
兌
免
兑
兒
兓
兔
党
兜
兟
入
全
兩
兪
八
公
六
兮
兰
共
关
兵
其
具
典
兹
兼
冀
冂
冃
冄
内
冈
冉
冊
冋
册
再
冎
冏
冐
冒
冓
冖
冗
冘
军
农
冝
冡
冥
冫
冬
冷
几
凡
凢
凵
凶
凷
凸
凹
出
函
凾
刀
刁
刂
刃
刄
刅
分
切
刍
刑
刕
刖
列
刘
则
初
別
利
别
到
制
刺
則
削
剌
前
剡
剽
劉
力
功
加
劦
助
劫
劳
劵
勃
勇
勉
勒
動
務
勞
勤
勹
勺
勻
勾
勿
匀
匂
包
匆
匈
匊
匋
匍
匕
化
北
匚
匝
匡
匪
匱
匸
匹
区
医
匽
匿
區
十
卂
千
卄
卅
卆
升
午
卉
半
卌
华
卑
卒
卓
单
卖
南
卜
卝
卞
占
卡
卢
卣
卤
卦
卩
卪
卬
卯
印
危
即
却
卵
卷
卸
卻
厂
厃
厄
历
厈
厉
厌
厓
厘
厚
原
厤
厥
厨
厭
厲
厶
厷
厸
去
厼
厽
叀
参
參
叅
又
叉
及
友
双
反
叐
发
叒
叔
叕
取
受
叚
叜
叟
口
古
句
另
叩
只
召
可
台
叱
史
右
叵
号
司
叹
吂
各
吅
合
吉
吊
吋
同
名
后
吏
向
吕
君
吝
吞
否
含
启
吳
吴
吹
吾
呂
呆
呈
告
员
呙
周
命
咅
和
咎
咠
咢
咨
咸
咼
哀
品
哉
員
哥
哲
唐
商
啇
問
啚
啬
啻
善
喜
喬
單
喿
嗇
噩
嚴
囊
囗
囘
囙
囚
四
回
囟
因
囧
囬
困
囱
囷
固
国
圂
圅
國
圍
圓
土
圡
圣
圥
在
圭
地
圶
圼
坐
坒
坚
坴
垂
垔
垚
埀
埋
埶
執
基
堂
堅
堆
堇
堯
塞
墨
壘
士
壬
壯
声
壳
壴
壹
壺
壽
夂
处
夅
夆
备
夊
夋
夌
复
夏
夒
夕
外
夗
夘
多
夜
夢
大
夨
天
太
夫
夬
夭
央
失
夲
头
夷
夸
夹
夻
夾
奂
奄
奇
奈
奉
奎
奏
奐
契
奓
奔
奚
奞
奠
奢
奥
奭
女
奴
奻
好
如
妄
妙
妟
妥
妻
妾
姑
委
姜
威
娄
婁
婴
嬰
嬴
子
孑
孔
孕
孖
字
存
孚
孛
孝
孟
季
孤
学
孫
孱
學
宀
宁
宂
它
宅
宇
守
安
宋
完
宏
宓
宗
官
定
宛
宜
宝
客
宣
室
宮
宰
害
家
容
宾
宿
寄
寅
密
富
寒
察
寧
審
寫
寬
寮
寸
对
寺
寻
寽
対
寿
封
尃
射
将
將
專
尉
尊
尋
尌
對
小
少
尒
尓
尔
尖
尗
尚
尞
尢
尣
尤
尧
尨
尭
就
尸
尹
尺
尻
尼
尽
尾
尿
局
居
屈
屋
屎
屏
屑
展
屖
屚
属
屠
屡
屬
屮
屯
屰
山
屵
屾
岁
岂
岑
岡
岩
岳
岸
峯
島
崇
崑
崔
崖
崙
崩
嵬
嶲
巂
巛
川
州
巟
巠
巢
巤
工
左
巧
巨
巩
巫
差
己
已
巳
巴
巷
巸
巽
巾
巿
帀
市
布
希
帚
帛
帝
带
師
席
帶
常
干
平
年
幵
并
幷
幸
幺
幻
幼
幽
幾
广
広
庄
床
底
店
庚
府
度
庫
庭
庶
康
庸
廉
廌
廛
廣
廩
廴
延
廷
建
廾
廿
开
弁
弃
弄
弇
弋
式
弓
弔
引
弗
弘
弜
弟
弥
弦
弱
張
強
强
彊
彌
彎
彐
彑
当
彔
录
彖
彗
彡
形
彥
彦
彧
彭
彳
役
彼
往
待
律
徒
得
徙
從
復
微
徵
心
忄
必
忌
忍
志
忝
忠
忩
快
念
忽
忿
思
怠
急
怱
恆
恒
恩
恭
息
悉
患
悤
悲
悶
惠
惡
惢
愁
愈
意
愛
感
慈
慧
慮
憂
憲
應
戀
戈
戉
戊
戋
戌
戍
戎
成
我
戒
戔
或
戚
戠
戢
截
戲
戶
户
戹
戼
戾
房
所
扁
扇
手
扌
才
打
托
执
承
折
拉
拜
拿
掌
推
提
摩
支
攴
攵
收
攸
改
放
政
敄
敏
敕
敖
敗
敝
敞
敢
散
敦
敫
敬
数
敷
數
斂
文
斉
斊
斗
斤
斥
斩
斬
斯
新
方
於
施
斿
旁
旋
族
无
旡
既
旣
日
旦
旧
旨
早
旬
旱
旲
时
旾
昆
昇
昌
昍
明
昏
易
昔
昗
昜
星
春
昬
是
昱
昴
昷
時
晃
晋
晏
普
景
晶
智
暑
暴
曇
曩
曰
曲
曳
更
曷
書
曹
曼
曾
替
最
朁
會
月
有
朋
服
朔
朕
朗
望
朝
木
朩
未
末
本
札
朮
术
朱
朵
朶
朿
杀
杏
杜
束
条
来
東
杲
杳
松
板
析
林
枚
果
枝
枲
枼
某
柔
查
柬
柰
柴
栗
桀
桑
桼
梁
條
梟
梨
棘
棠
棥
森
楚
業
楽
榮
樂
樊
模
欠
次
欣
欮
欲
欶
欽
款
歆
歇
歛
止
正
此
步
武
歨
歪
歮
歯
歰
歲
歴
歷
歸
歹
歺
死
殳
段
殷
殸
殹
殺
殻
殿
毋
毌
母
每
毒
比
毕
毚
毛
毳
氏
氐
民
气
氣
水
氵
氶
氷
永
氺
氾
求
汝
汞
江
沃
沓
沙
沝
泉
法
波
泣
泥
泰
洛
洪
活
派
流
浦
浪
浮
淡
淮
清
渚
渠
港
湯
滿
漸
火
灬
灭
灰
灵
灷
炅
炎
炏
炗
炙
炭
為
烈
烏
烝
焉
無
焦
焱
然
煞
熊
熏
燕
營
燮
爪
爫
爭
爯
爰
爱
爲
爵
父
爻
爽
爾
爿
片
牙
牚
牛
牜
牟
牢
牧
物
牪
牽
犀
犬
犭
犮
狂
狄
狊
独
狺
猋
猒
猪
献
獻
玄
率
玉
王
玟
玨
珎
班
琴
瑟
瑩
瓜
瓦
甘
甚
生
産
用
甫
甬
田
由
甲
申
电
甶
男
甸
甹
画
甾
畀
界
畏
畐
留
畜
畟
畢
畧
畨
番
畫
異
畱
當
畺
畾
疊
疋
疌
疑
疒
疾
癶
癸
癹
登
發
白
百
皀
皃
的
皆
皇
皋
皐
皕
皮
皷
皿
盃
盆
盇
盈
益
盍
盎
监
盒
盖
盛
盡
監
盤
盧
目
直
相
盾
省
眇
眉
看
眔
眞
真
眷
眼
眾
着
睘
睪
睿
瞏
瞢
瞿
矍
矛
矞
矢
矣
知
矦
短
石
破
碎
磊
磨
示
礻
礼
祟
票
祭
禀
禁
禸
禹
禺
离
禽
禾
禿
秀
秃
秉
秋
科
秝
秦
移
稟
穀
穌
穴
究
穹
空
穿
突
窄
窒
立
竒
竜
竝
竟
章
童
竹
笑
笠
筆
等
答
箕
算
箴
節
篤
篭
米
粉
粛
粟
粤
粦
粲
糞
糸
糹
系
約
納
素
索
紫
累
細
絜
絫
絲
維
綿
縣
繇
纍
纟
缶
网
罒
罔
罕
罗
罙
罡
罢
罪
署
罷
羅
羊
羌
羍
美
羔
羕
羗
羞
羡
羣
群
義
羲
羸
羽
翁
翏
習
翕
翟
翠
翼
老
耂
考
者
耆
而
耎
耑
耒
耳
耴
耶
耷
聂
聊
聖
聚
聶
聿
肀
肃
肅
肉
肖
肙
肥
肩
肯
育
肴
胃
背
胡
胥
能
脊
脩
膚
臣
臤
臧
自
臬
臭
臯
臱
至
致
臺
臼
臽
臾
臿
舀
舂
舄
與
興
舉
舌
舍
舛
舜
舞
舟
般
艮
良
色
艸
艹
艾
芒
芔
芬
芮
花
芳
芺
芻
苔
苗
苟
若
苦
英
茶
茸
荅
草
荒
荣
荼
莆
莧
莫
莽
菆
菊
菐
華
萬
落
葉
著
葛
董
葵
蒙
蒦
蒼
蓋
蓬
蓺
蔑
蔡
蕉
蕭
薄
薛
薦
薰
藍
藏
藥
蘭
虍
虎
虐
虒
虔
處
虖
虗
虘
虚
虛
虜
虞
虫
虽
蚤
蚩
蜀
蜜
蟲
蠡
血
行
衍
衛
衣
衤
表
衮
衰
袁
袞
褭
褱
襄
襾
西
覀
要
覃
見
規
覓
覧
親
覽
见
角
解
言
訁
訇
計
詹
誩
諸
讠
谷
豆
豈
豊
豐
豕
豖
豙
象
豦
豩
豪
豸
貇
貝
貞
貟
負
貢
貧
貪
貫
責
貳
貴
買
費
賁
資
賈
賏
賓
賔
賛
賞
賢
賣
質
賴
贊
贝
贡
责
贯
贲
贵
赖
赞
赤
赦
走
越
足
路
蹇
身
躬
車
軍
軎
軟
輦
车
辛
辜
辟
辥
辰
辱
農
辵
辶
边
达
过
近
连
迷
追
退
送
逆
逐
通
速
造
逢
連
逮
進
遀
遂
過
道
達
遣
適
遷
遺
邊
邑
邕
那
邦
邪
郎
部
郭
都
鄉
酉
酋
配
酓
釆
采
里
重
野
量
金
釒
錢
钅
長
镸
长
門
閃
閉
開
閏
閑
閒
間
閔
閵
閻
闌
门
间
闷
阑
阜
阝
阿
降
陳
隆
隊
隋
隡
隨
隱
隶
隹
隺
隻
隼
隽
难
雀
雁
集
雈
雋
雍
雐
雔
雙
雚
雜
雝
離
難
雨
雩
雪
雲
零
雷
需
霍
霜
霝
霞
霸
靈
靑
青
非
靡
面
靣
革
韋
韦
韭
韯
韱
音
頁
頃
項
須
頗
頡
頻
顛
页
風
风
飛
飞
食
飠
養
饣
首
香
馬
馮
駦
马
骨
高
髟
鬥
鬯
鬲
鬼
魚
魯
鮮
鱼
鲁
鳥
鳳
鸟
鹵
鹿
麃
麗
麥
麦
麻
黃
黄
黍
黎
黑
黒
黨
黹
黽
黾
鼎
鼓
鼠
鼻
齊
齋
齐
齒
齿
龍
龙
龜
龟
龠
龰
龱
龴
龵
龶
龷
龸
龹
者
艹
？
￼
📏
📲
🚀
𠀁
𠀃
𠀆
𠀉
𠀎
𠀐
𠁁
𠁣
𠂆
𠂇
𠂈
𠂉
𠂊
𠂋
𠂎
𠂒
𠂔
𠂛
𠂡
𠂢
𠂤
𠂬
𠂭
𠂹
𠃊
𠃋
𠃌
𠃍
𠃎
𠃑
𠃓
𠃔
𠃜
𠄌
𠄎
𠄠
𠄢
𠆢
𠆥
𠇍
𠈌
𠌵
𠓜
𠔉
𠔥
𠔼
𠔽
𠔿
𠕀
𠕁
𠕋
𠘧
𠘨
𠙻
𠙼
𠚏
𠚒
𠚤
𠚪
𠣏
𠤎
𠤕
𠥓
𠦄
𠦑
𠦝
𠧒
𠧗
𠧪
𠩺
𠪚
𠫓
𠫔
𠫤
𠬛
𠬝
𠬞
𠬢
𠬤
𠬶
𠮛
𠮦
𠮷
𠯑
𠱠
𠳮
𠷎
𡈼
𡉀
𡉵
𡌥
𡍮
𡏳
𡕒
𡕩
𡕰
𡖅
𡗗
𡗜
𡘆
𡘤
𡧱
𡨄
𡩧
𡬠
𡭽
𡰣
𡰥
𡰪
𡰯
𡰱
𡷈
𡸁
𡿨
𡿩
𡿪
𡿺
𢀖
𢀛
𢀩
𢁙
𢆉
𢆰
𢆶
𢇁
𢇇
𢉖
𢌬
𢌿
𢏚
𢑑
𢑚
𢖻
𢙣
𢛳
𢦏
𢦒
𢧵
𢼄
𢾕
𣁋
𣄼
𣅀
𣅽
𣍘
𣎳
𣎵
𣏋
𣏼
𣗥
𣥂
𣥖
𣦵
𣦼
𣧄
𣪊
𣪠
𣬉
𣳾
𣶒
𤇾
𤊽
𤐫
𤓰
𤔔
𤕨
𤣩
𤰇
𤰔
𤰞
𤴓
𤴔
𤽄
𥁑
𥁕
𥃦
𥃩
𥃭
𥇡
𥑟
𥘅
𥘈
𥝢
𥫗
𥱡
𦈢
𦉪
𦉬
𦉼
𦍌
𦍒
𦎧
𦐇
𦓔
𦔮
𦘒
𦙃
𦚏
𦣝
𦣞
𦣻
𦥑
𦥔
𦥯
𦨉
𦭝
𦰩
𧆞
𧈧
𧘇
𧰨
𧴪
𧴮
𧵩
𧾷
𨸏
𨾴
𩙿
𩠐
𩫏
𩵋
𪉷
𪜀
𪟽
𪠲
𪩲
𫇦
𫔭
𫜸
𫝀
𫠣
𫠩
𫢉
𫥞
𫩏
𫩠
𫪡
𫲽
𫶧
𬀷
𬐘
𬗌
𬙙
𬛸
𬜯
𬟩
𬯁
𬴘
𬺻
𬼉
𬼖
𭀰
𭁈
𭁨
𭅰
𭑈
𭕄
𭗼
𭤨
𭥫
𭻾
𮅕
𮊿
𮍌
𮍏
𮓗
𮥼
𮧮
廾
𰀁
𰀄
𰀈
𰀉
𰀕
𰀠
𰀡
𰀢
𰀪
𰁜
𰃮
𰆊
𰆘
𰋙
𰕎
𰢴
𰧭
𰯲
􏰀
00--
000--
01--
02--
03--
04--
05--
06--
07--
08--
09--
1000--
1001--
1002--
1003--
1004--
1005--
1006--
1007--
1008--
1009--
1010--
1011--
1012--
1013--
1014--
1015--
1016--
1017--
1018--
1019--
1020--
1021--
1022--
1023--
1024--
1025--
1026--
1027--
1028--
1029--
1030--
1031--
1032--
1033--
1034--
1035--
1036--
1037--
1038--
1039--
1041--
1042--
1043--
1044--
1045--
1046--
1047--
1048--
1049--
1050--
1051--
1052--
1053--
1054--
1055--
1056--
1057--
1058--
1059--
1060--
1061--
1062--
1063--
1064--
1065--
1066--
1067--
1068--
1069--
1070--
1071--
1072--
1073--
1074--
1075--
1076--
1077--
1078--
1079--
1080--
1081--
1082--
1083--
1084--
1086--
1087--
1088--
1089--
1090--
1091--
1092--
1093--
1094--
1095--
1096--
1097--
1098--
1099--
1100--
1101--
1102--
1103--
1104--
1105--
1106--
1107--
1108--
1109--
1110--
1111--
1112--
1113--
1114--
1115--
1116--
1117--
1118--
1119--
1120--
1121--
1122--
1123--
1124--
1125--
1126--
1127--
1128--
1129--
1130--
1131--
1132--
1133--
1134--
1135--
1136--
1137--
1138--
1139--
1140--
1141--
1142--
1144--
1145--
1146--
1147--
1148--
1149--
1150--
1151--
1152--
1153--
1154--
1155--
1156--
1157--
1158--
1159--
1160--
1161--
1162--
1163--
1164--
1165--
1166--
1167--
1168--
1169--
1170--
1171--
1172--
1173--
1174--
1175--
1178--
1179--
1180--
1181--
1182--
1183--
1184--
1185--
1186--
1187--
1188--
1189--
1190--
1191--
1192--
1193--
1194--
1195--
1196--
1197--
1198--
1199--
1200--
1201--
1202--
1203--
1204--
1205--
1206--
1207--
1208--
1209--
1210--
1211--
1212--
1213--
1214--
1215--
1216--
1217--
1218--
1219--
1220--
1221--
1222--
1223--
1224--
1225--
1226--
1227--
1228--
1229--
1230--
1231--
1232--
1233--
1234--
1235--
1236--
1237--
1238--
1239--
1240--
1241--
1242--
1243--
1244--
1245--
1246--
1247--
1248--
1249--
1250--
1251--
1252--
1253--
1254--
1255--
1256--
1257--
1258--
1259--
1260--
1261--
1262--
1263--
1264--
1265--
1266--
1267--
1268--
1269--
1270--
1271--
1272--
1273--
1274--
1275--
1276--
1277--
1278--
1279--
1280--
1281--
1282--
1283--
1284--
1285--
1286--
1287--
1288--
1289--
1290--
1291--
1292--
1293--
1294--
1295--
1297--
1298--
1299--
1300--
1301--
1302--
1303--
1304--
1305--
1306--
1307--
1308--
1313--
1330--
1334--
1345--
1352--
1366--
1376--
1377--
1378--
1379--
1380--
1381--
1382--
1384--
1385--
1386--
1387--
1388--
1389--
1390--
1391--
1392--
1393--
1394--
1395--
1396--
1397--
1398--
1399--
1400--
1401--
1402--
1403--
1404--
1405--
1406--
1407--
1408--
1409--
1410--
1411--
1412--
1413--
1414--
1415--
1416--
1417--
1418--
1419--
1420--
1421--
1422--
1423--
1424--
1425--
1426--
1427--
1428--
1429--
1431--
1432--
1433--
1434--
1435--
1436--
1437--
1438--
1439--
1440--
1441--
1442--
1443--
1444--
1445--
1446--
1447--
1448--
1449--
1450--
1451--
1452--
1453--
1454--
1455--
1456--
1457--
1460--
1461--
1462--
1463--
1464--
1465--
1466--
1467--
1468--
1469--
1470--
1471--
1472--
1473--
1474--
1475--
1476--
1477--
1478--
1479--
1480--
1481--
1482--
1483--
1484--
1485--
1486--
1487--
1488--
1490--
1491--
1492--
1493--
1494--
1495--
1496--
1497--
1498--
1499--
1500--
1502--
1503--
1504--
1505--
1506--
1507--
1508--
1509--
1510--
1511--
1512--
1513--
1514--
1515--
1516--
1517--
1518--
1519--
1520--
1521--
1522--
1523--
1524--
1525--
1526--
1527--
1528--
1529--
1530--
1531--
1532--
1533--
1534--
1535--
1536--
1537--
1538--
1539--
1540--
1541--
1542--
1543--
1544--
1545--
1546--
1547--
1548--
1549--
1550--
1551--
1552--
1553--
1554--
1555--
1557--
1558--
1559--
1560--
1561--
1563--
1564--
1565--
1566--
1567--
1568--
1569--
1571--
1572--
1573--
1574--
1576--
1577--
1578--
1579--
1580--
1581--
1582--
1583--
1584--
1585--
1586--
1587--
1589--
1590--
1591--
1592--
1593--
1594--
1595--
1596--
1597--
1598--
1599--
1600--
1601--
1602--
1603--
1604--
1605--
1606--
1607--
1608--
1609--
1610--
1612--
1613--
1614--
1615--
1616--
1617--
1618--
1619--
1620--
1621--
1622--
1623--
1624--
1625--
1626--
1628--
1629--
1631--
1632--
1633--
1634--
1635--
1636--
1637--
1638--
1639--
1640--
1641--
1642--
1643--
1644--
1645--
1646--
1647--
1648--
1649--
1650--
1651--
1652--
1653--
1654--
1655--
1656--
1657--
1658--
1659--
1660--
1661--
1662--
1663--
1664--
1665--
1666--
1667--
1668--
1669--
1670--
1671--
1672--
1673--
1674--
1675--
1676--
1677--
1678--
1679--
1680--
1681--
1682--
1683--
1684--
1685--
1686--
1687--
1688--
1689--
1690--
1691--
1692--
1693--
1694--
1695--
1696--
1697--
1698--
1699--
1700--
1701--
1702--
1703--
1704--
1705--
1706--
1707--
1708--
1709--
1710--
1711--
1713--
1714--
1715--
1716--
1717--
1718--
1719--
1720--
1721--
1722--
1723--
1724--
1725--
1726--
1727--
1728--
1729--
1730--
1731--
1732--
1733--
1734--
1735--
1736--
1737--
1738--
1739--
1740--
1741--
1742--
1744--
1745--
1746--
1747--
1748--
1749--
1750--
1751--
1752--
1753--
1755--
1756--
1757--
1758--
1760--
1761--
1762--
1763--
1764--
1765--
1766--
1767--
1768--
1769--
1770--
1771--
1772--
1773--
1774--
1775--
1776--
1777--
1778--
1779--
1780--
1781--
1783--
1784--
1786--
1787--
1788--
1789--
1790--
1791--
1792--
1793--
1794--
1795--
1796--
1797--
1798--
1799--
1800--
1801--
1802--
1803--
1804--
1805--
1806--
1807--
1808--
1809--
1810--
1811--
1812--
1813--
1814--
1815--
1816--
1817--
1818--
1819--
1820--
1821--
1822--
1823--
1824--
1825--
1826--
1827--
1828--
1829--
1831--
1832--
1833--
1834--
1835--
1836--
1837--
1838--
1839--
1840--
1841--
1842--
1843--
1844--
1845--
1846--
1847--
1848--
1849--
1850--
1851--
1852--
1853--
1854--
1855--
1856--
1857--
1858--
1859--
1860--
1861--
1862--
1863--
1864--
1866--
1867--
1868--
1869--
1870--
1871--
1872--
1873--
1874--
1875--
1876--
1877--
1878--
1879--
1880--
1881--
1883--
1884--
1885--
1886--
1887--
1888--
1889--
1890--
1891--
1892--
1893--
1895--
1896--
1897--
1898--
1899--
1900--
1901--
1902--
1903--
1904--
1905--
1906--
1907--
1908--
1909--
1910--
1911--
1912--
1913--
1915--
1916--
1917--
1918--
1919--
1920--
1921--
1922--
1923--
1924--
1925--
1926--
1927--
1928--
1929--
1930--
1931--
1932--
1933--
1934--
1935--
1936--
1937--
1938--
1939--
1940--
1941--
1942--
1943--
1944--
1945--
1946--
1947--
1948--
1949--
1950--
1951--
1952--
1953--
1954--
1955--
1956--
1957--
1958--
1959--
1960--
1961--
1962--
1963--
1964--
1965--
1966--
1967--
1968--
1969--
1970--
1971--
1972--
1973--
1974--
1975--
1976--
1977--
1978--
1979--
1980--
1981--
1982--
1983--
1984--
1985--
1986--
1987--
1988--
1989--
1990--
1991--
1992--
1993--
1994--
1995--
1996--
1997--
1998--
1999--
2000--
2001--
2002--
2003--
2004--
2005--
2006--
2007--
2008--
2009--
2010--
2011--
2012--
2013--
2014--
2015--
2016--
2017--
2018--
2019--
2020--
2021--
2022--
2023--
2024--
2025--
2026--
2027--
2028--
2029--
203--
2030--
2031--
2032--
2033--
2035--
2036--
2037--
2038--
204--
2040--
2041--
2042--
2043--
2044--
2045--
2047--
2048--
2049--
205--
2050--
2051--
2053--
2054--
2055--
2057--
206--
2060--
2062--
2063--
2065--
2066--
2067--
2068--
2069--
207--
20702--
20703--
20704--
20708--
20709--
2071--
2073--
2074--
2075--
2076--
2078--
2079--
208--
2080--
2082--
2085--
2087--
2088--
2089--
2090--
2091--
2092--
2093--
2094--
2095--
2096--
2097--
2098--
2099--
210--
2100--
2101--
2102--
2103--
2105--
2107--
2108--
211--
2110--
2111--
2112--
2114--
2115--
2117--
2119--
212--
2120--
2121--
2122--
2124--
2125--
2127--
213--
2130--
2132--
2134--
2135--
2136--
2137--
2138--
214--
2140--
2141--
2142--
2143--
2144--
2145--
2146--
2147--
215--
216--
217--
218--
219--
220--
221--
222--
223--
224--
225--
226--
227--
2273--
228--
229--
230--
231--
232--
233--
234--
235--
236--
237--
238--
239--
240--
241--
242--
243--
244--
245--
246--
247--
248--
249--
250--
251--
252--
253--
254--
255--
256--
257--
258--
259--
260--
261--
262--
263--
264--
265--
266--
267--
268--
269--
270--
271--
272--
273--
274--
275--
276--
277--
278--
279--
280--
281--
282--
283--
284--
285--
286--
287--
288--
289--
290--
291--
292--
293--
294--
295--
296--
297--
298--
299--
300--
301--
302--
303--
304--
305--
306--
307--
308--
309--
310--
311--
312--
313--
314--
315--
316--
317--
318--
319--
320--
321--
322--
323--
324--
325--
326--
327--
328--
329--
330--
331--
332--
333--
334--
335--
336--
337--
338--
339--
340--
341--
342--
343--
344--
345--
346--
347--
348--
349--
350--
351--
352--
353--
354--
355--
356--
357--
358--
359--
360--
361--
362--
363--
364--
365--
366--
367--
368--
369--
370--
371--
372--
373--
374--
375--
376--
377--
378--
379--
380--
381--
382--
383--
384--
385--
386--
387--
388--
389--
390--
391--
392--
393--
394--
395--
396--
397--
398--
399--
400--
401--
402--
403--
404--
405--
406--
407--
408--
409--
410--
411--
412--
413--
414--
415--
416--
417--
418--
419--
420--
421--
422--
423--
424--
425--
426--
427--
428--
429--
430--
431--
432--
433--
434--
435--
436--
437--
438--
439--
440--
441--
442--
443--
444--
445--
446--
447--
448--
449--
450--
451--
452--
453--
454--
455--
456--
457--
458--
459--
460--
461--
462--
463--
464--
465--
466--
467--
468--
469--
470--
471--
472--
473--
474--
475--
476--
477--
478--
479--
480--
481--
482--
483--
484--
485--
486--
487--
488--
489--
490--
491--
492--
493--
494--
495--
496--
497--
498--
499--
500--
501--
502--
503--
504--
505--
506--
507--
508--
509--
510--
511--
512--
513--
514--
515--
516--
517--
518--
519--
520--
521--
522--
523--
524--
525--
526--
527--
528--
529--
530--
531--
532--
533--
534--
535--
536--
537--
538--
539--
540--
541--
542--
543--
544--
545--
546--
547--
548--
549--
550--
551--
552--
553--
554--
555--
556--
557--
558--
559--
560--
561--
562--
563--
564--
565--
566--
567--
568--
569--
570--
571--
572--
573--
574--
575--
576--
577--
578--
579--
580--
581--
582--
583--
584--
585--
586--
587--
588--
589--
590--
591--
592--
593--
594--
595--
596--
597--
598--
599--
600--
601--
602--
603--
604--
605--
606--
607--
608--
609--
610--
611--
612--
613--
614--
615--
616--
617--
618--
619--
620--
621--
622--
623--
624--
625--
626--
627--
628--
629--
630--
631--
632--
633--
634--
635--
636--
637--
638--
639--
640--
641--
642--
643--
644--
645--
646--
647--
648--
649--
650--
651--
652--
653--
654--
655--
656--
657--
658--
659--
660--
661--
662--
663--
664--
665--
666--
667--
668--
669--
670--
671--
672--
673--
674--
675--
676--
677--
678--
679--
680--
681--
682--
683--
684--
685--
686--
687--
688--
689--
690--
691--
692--
693--
694--
695--
696--
697--
698--
699--
700--
701--
702--
703--
704--
705--
706--
707--
708--
709--
710--
711--
712--
713--
714--
715--
716--
717--
718--
719--
720--
721--
722--
723--
724--
725--
726--
727--
728--
729--
730--
731--
732--
733--
734--
735--
736--
737--
738--
739--
740--
741--
742--
743--
744--
745--
746--
747--
748--
749--
750--
751--
752--
753--
754--
755--
756--
757--
758--
759--
760--
761--
762--
763--
764--
765--
766--
767--
768--
769--
770--
771--
772--
773--
774--
775--
776--
777--
778--
779--
780--
781--
782--
783--
784--
785--
786--
787--
788--
789--
790--
791--
792--
793--
794--
795--
796--
797--
798--
799--
800--
801--
802--
803--
804--
805--
806--
807--
808--
809--
810--
811--
812--
813--
814--
815--
816--
817--
818--
819--
820--
821--
822--
823--
824--
825--
826--
827--
828--
829--
830--
831--
832--
833--
834--
835--
836--
837--
838--
839--
840--
841--
842--
843--
844--
845--
846--
847--
848--
849--
850--
851--
852--
853--
854--
855--
856--
857--
858--
859--
860--
861--
862--
863--
864--
865--
866--
867--
868--
869--
870--
871--
872--
873--
874--
875--
876--
877--
878--
879--
880--
881--
882--
883--
884--
885--
886--
887--
888--
889--
890--
891--
892--
893--
894--
895--
896--
897--
898--
899--
900--
901--
902--
903--
904--
905--
906--
907--
908--
909--
910--
911--
912--
913--
914--
915--
916--
917--
918--
919--
920--
921--
922--
923--
924--
925--
926--
927--
928--
929--
930--
931--
932--
933--
934--
935--
936--
937--
938--
939--
940--
941--
942--
943--
944--
945--
946--
947--
948--
949--
950--
951--
952--
953--
954--
955--
956--
957--
958--
959--
960--
961--
962--
963--
964--
965--
966--
967--
968--
969--
970--
971--
972--
973--
974--
975--
976--
977--
978--
979--
980--
981--
982--
983--
984--
985--
986--
987--
988--
989--
990--
991--
992--
993--
994--
995--
996--
997--
998--
999--
aa--
ab--
above--
ac--
acad--
accept--
act--
ad--
add--
adve--
ae--
af--
affi--
ag--
ai--
aj--
ak--
al--
alex--
all--
alt--
am--
an--
anim--
anno--
anti--
ap--
app--
append--
appre--
aq--
ar--
arc--
arg--
args--
as--
at--
atte--
au--
austr--
av--
aw--
award--
az--
azerbai--
ba--
back--
ban--
bar--
base--
be--
beau--
bel--
below--
ber--
bi--
biblio--
bio--
bl--
blo--
bo--
boli--
book--
bor--
box--
br--
bro--
bu--
by--
ca--
calcu--
can--
car--
cat--
cc--
ce--
cent--
ch--
chis--
cho--
ci--
cir--
cl--
clo--
co--
coll--
com--
communi--
con--
conce--
cons--
cont--
conv--
copy--
cor--
country--
cr--
crea--
crit--
cro--
cs--
cu--
cy--
cz--
da--
dar--
data--
date--
dd--
de--
dead--
defi--
demo--
deter--
dh--
di--
disa--
disr--
dj--
dn--
do--
dr--
draw--
du--
dv--
dy--
dz--
e--
ea--
eb--
ec--
econ--
ed--
edu--
ee--
eff--
eg--
egy--
ei--
el--
elec--
em--
en--
encycl--
end--
ep--
eq--
er--
es--
et--
eth--
eu--
euro--
ev--
eval--
ex--
expand--
expe--
expl--
ext--
f--
fa--
fal--
fami--
far--
fe--
fetch--
ff--
fi--
file--
filo--
fl--
flag--
fo--
foo--
for--
format--
fr--
fu--
ful--
full--
fund--
g--
ga--
ge--
gene--
geo--
ger--
get--
gi--
giga--
gj--
gl--
gm--
go--
gr--
gu--
guar--
gy--
h--
ha--
has--
he--
hel--
her--
hi--
ho--
hr--
hu--
hy--
i--
ia--
ib--
id--
iden--
ie--
ig--
ik--
il--
im--
image--
impl--
in--
incr--
indi--
infocard--
init--
inter--
invi--
ip--
ir--
is--
it--
iz--
j--
ja--
je--
ji--
jo--
jou--
ju--
k--
ka--
kah--
kar--
kate--
ke--
key--
ki--
kiel--
kl--
kn--
ko--
kor--
kr--
ks--
ku--
l--
la--
label--
land--
lands--
lang--
last--
lat--
lay--
le--
li--
list--
ll--
ln--
lo--
local--
lt--
lu--
ly--
lyco--
m--
ma--
mainsnak--
make--
man--
mar--
mari--
mast--
matr--
me--
mean--
meil--
meli--
mer--
meta--
mi--
mo--
mon--
mongo--
monu--
mor--
moun--
mr--
mu--
multi--
my--
n--
na--
name--
nd--
ne--
nega--
net--
neu--
new--
news--
next--
ng--
ni--
nick--
nn--
no--
nor--
ns--
nt--
nu--
num--
ny--
o--
oba--
obl--
obs--
oc--
od--
odd--
off--
ol--
om--
on--
op--
open--
opport--
or--
os--
ota--
ou--
out--
over--
p--
pa--
page--
pan--
par--
parent--
pe--
pen--
per--
petr--
phi--
philo--
pho--
pi--
pl--
plain--
plat--
po--
pol--
poli--
post--
pr--
pre--
pro--
pu--
pur--
px--
py--
q--
qu--
quo--
r--
ra--
raim--
rd--
re--
read--
reco--
recom--
ref--
reg--
reli--
remo--
render--
rep--
res--
resource--
ri--
rm--
ro--
rou--
rs--
rt--
ru--
rus--
rv--
s--
sa--
sala--
sc--
sch--
schw--
se--
ser--
sh--
show--
si--
sk--
sky--
sl--
slo--
small--
sn--
so--
soccer--
some--
source--
sp--
spar--
spec--
spo--
spra--
spu--
sr--
st--
str--
stu--
su--
sub--
supp--
sv--
sw--
sy--
sym--
sz--
t--
ta--
table--
talk--
tam--
tar--
tat--
tax--
te--
temp--
template--
ter--
text--
th--
ti--
time--
title--
tn--
to--
toke--
tort--
tr--
trad--
trans--
tru--
ts--
tt--
tu--
tues--
tur--
tutk--
tv--
tw--
ty--
type--
u--
ug--
ugri--
ukra--
ul--
um--
un--
unit--
univ--
univer--
up--
ur--
us--
use--
user--
v--
va--
val--
var--
vati--
ve--
ver--
vi--
vir--
vo--
vol--
vor--
w--
wa--
wal--
wat--
we--
wer--
wiki--
wil--
win--
wo--
wol--
work--
wrap--
ws--
wszy--
x--
xxx--
y--
yi--
z--
za--
ze--
zir--
zor--
zu--
а--
аб--
аба--
аббатс--
абдрах--
абду--
абе--
абзели--
аби--
абхаз--
ав--
ава--
аван--
авдее--
аве--
авер--
ави--
авиа--
аво--
авра--
авт--
авто--
аг--
ага--
аген--
аги--
агр--
агре--
ад--
ада--
адуш--
ады--
аз--
азоркс--
аи--
ак--
ака--
аки--
акти--
аку--
ал--
ала--
аламо--
алатыр--
алба--
але--
алексан--
алеш--
али--
ало--
алт--
алтар--
алы--
аль--
альметье--
аля--
ам--
амаз--
амо--
амфи--
ан--
ана--
андже--
андр--
андриа--
ани--
анта--
антв--
анти--
антиоксидан--
антич--
антр--
антроп--
аню--
апа--
апп--
ар--
ара--
араб--
аравт--
аранжи--
арбу--
аргумен--
ард--
аре--
ари--
арла--
арм--
армян--
арсе--
арт--
артынде--
архи--
архитек--
архитектур--
аса--
асл--
аспиран--
асс--
ассиз--
аст--
астра--
астро--
астрономиче--
ат--
ати--
аткар--
атлан--
атом--
аты--
атя--
ау--
ауди--
афа--
афор--
ах--
ахма--
аца--
ацам--
аш--
ашо--
аэро--
б--
ба--
баб--
баба--
баби--
баг--
бад--
баень--
бажа--
баже--
баз--
база--
бакла--
бал--
бала--
балка--
балт--
бан--
баннер--
бар--
бара--
барано--
бары--
барыш--
бас--
баскетбо--
бат--
баталь--
батыре--
бах--
бач--
баш--
башки--
бая--
бе--
без--
безбор--
беке--
бел--
бела--
беле--
бело--
белог--
белом--
бель--
бер--
берд--
бере--
бес--
бесс--
бетхо--
би--
биби--
бик--
бикку--
бил--
биологиче--
бир--
бирю--
бит--
биш--
бл--
бла--
благо--
благодар--
блау--
ближ--
бо--
боб--
бог--
бого--
богос--
богуча--
бод--
бое--
бож--
бол--
боли--
болот--
боль--
больше--
большин--
бом--
бон--
бор--
бородин--
борт--
бос--
боч--
бош--
бояр--
бр--
бра--
браз--
бран--
брат--
брау--
бре--
британ--
бро--
бру--
бры--
брю--
бря--
брян--
бу--
буб--
будд--
буе--
буен--
буз--
бул--
була--
булы--
бур--
бутурли--
буты--
бух--
буха--
буш--
бъл--
българ--
бы--
быв--
быч--
бю--
в--
ва--
вави--
вад--
вадин--
важ--
важо--
важоде--
важодевкс--
ваз--
вал--
вало--
ван--
ванкш--
вар--
варша--
вас--
вати--
вах--
вач--
вачка--
ваш--
вая--
вв--
вве--
введен--
ве--
вед--
ведень--
ведь--
ведя--
век--
вел--
веле--
вели--
велико--
велоси--
вель--
вельт--
вельтя--
веля--
велявт--
вен--
венгер--
венч--
веп--
вер--
верги--
вере--
верекстэ--
верт--
верх--
верхне--
верхнека--
верши--
верьга--
вес--
весе--
вет--
вети--
ветя--
ветям--
веч--
веш--
веше--
веще--
вз--
ви--
вид--
виде--
вие--
виз--
вики--
вику--
викш--
викшне--
вил--
виль--
вин--
вино--
вир--
вирт--
виртуаль--
вирь--
вит--
витеб--
вить--
вичуг--
виш--
више--
вкс--
вкст--
вл--
вла--
влад--
влады--
власт--
вли--
вн--
вне--
внеш--
вну--
внутри--
во--
вод--
вое--
воевод--
воен--
воз--
возв--
возвра--
воздви--
возмож--
вознесен--
воин--
вок--
вол--
волж--
воло--
волок--
волч--
волы--
воль--
вор--
воро--
воронцо--
вос--
воск--
воскресен--
воспи--
восс--
восточ--
вот--
вох--
вп--
вс--
все--
вспо--
вста--
вт--
вта--
ву--
вук--
вул--
вур--
вх--
вы--
выб--
выезд--
вызо--
вызываю--
выль--
выпол--
вырав--
высказы--
высоко--
высту--
вых--
выш--
вь--
вя--
вяз--
вязо--
вят--
г--
га--
габ--
габи--
гав--
гавт--
гад--
гали--
гам--
ган--
гар--
гарм--
гастроль--
гат--
гаф--
гви--
гвоз--
ге--
гель--
ген--
гендер--
гене--
гео--
географиче--
геоме--
гер--
гера--
герак--
герасимо--
ги--
гидр--
гидросюлмо--
гиз--
гиль--
гимн--
гипер--
гита--
гл--
гла--
глаголь--
глад--
глаз--
глас--
глобаль--
глу--
глуш--
гнез--
го--
гол--
голе--
голо--
голов--
голу--
голы--
гонча--
гор--
горе--
горно--
горь--
гос--
гр--
гра--
граду--
граж--
граждан--
грам--
грамматиче--
граф--
гре--
грем--
гремя--
грече--
гри--
гриба--
григорье--
грин--
гро--
гроз--
груз--
грузин--
гряз--
гу--
губ--
губерн--
губерна--
гуля--
гуме--
гур--
гю--
д--
да--
давле--
давы--
давыдов--
дальне--
дальнерече--
дан--
дани--
данил--
дар--
даро--
дач--
двига--
дворян--
де--
дебю--
дев--
дегт--
дем--
деме--
демидов--
демографиче--
демокра--
демон--
демь--
ден--
денеж--
дер--
десятич--
дет--
дж--
джа--
джак--
джан--
дже--
джи--
джор--
джу--
дз--
дзонг--
ди--
диа--
диви--
дими--
дис--
дли--
дми--
дмитри--
дне--
днепро--
до--
доб--
доба--
добр--
добросо--
дож--
дол--
долу--
дон--
дополни--
допу--
дор--
доро--
дорож--
достое--
др--
дра--
дре--
дри--
дро--
дроб--
дрого--
дрожжано--
дроз--
дру--
друж--
ду--
дуб--
дуби--
дубо--
дубров--
дуд--
дур--
духо--
духовни--
душ--
ды--
дэ--
дю--
дюр--
дюрь--
дя--
дяги--
дят--
е--
ев--
еванге--
евро--
евров--
его--
еди--
един--
единстве--
еже--
ежо--
екатерино--
ел--
ела--
еле--
ели--
елхо--
ель--
ем--
ен--
епи--
ер--
ере--
ермо--
еро--
еры--
еси--
есте--
ж--
жа--
же--
желез--
жер--
жерде--
жеребе--
жи--
живот--
жига--
жигу--
жо--
жу--
жуко--
жур--
жура--
з--
за--
забе--
забо--
зав--
заве--
завер--
зависимо--
заволж--
завраж--
завья--
загла--
заго--
зада--
заинтересо--
зам--
заме--
замеча--
занима--
запи--
заповед--
запол--
запруд--
зар--
зарегистри--
зару--
засеч--
заслуже--
заха--
захаров--
защи--
зая--
заяв--
заявл--
звениго--
зво--
зе--
зеле--
зеленодоль--
земфи--
зер--
зи--
зига--
зим--
зимо--
зин--
зло--
зна--
зо--
золо--
зор--
зото--
зре--
зри--
зу--
зуба--
зубо--
зугди--
зы--
зырян--
зэ--
и--
иб--
ибрае--
ибресин--
ив--
ива--
иван--
иг--
игна--
игнад--
ид--
иде--
ие--
иж--
из--
избиратель--
изве--
извест--
изгна--
издатель--
изме--
изня--
изъ--
ик--
ике--
икеле--
ил--
иле--
или--
иллю--
ило--
иль--
ильин--
ильт--
им--
ин--
инге--
ингуше--
инди--
индо--
инду--
ине--
инже--
инзе--
ино--
иноязыч--
инстр--
инте--
интеллектуаль--
интер--
интерес--
инязор--
ио--
иоан--
иор--
ир--
ирку--
ирлан--
иса--
исае--
иск--
исклю--
искуву--
исл--
исмаги--
испан--
испол--
исполни--
использо--
испы--
исс--
ист--
историче--
исфа--
исх--
ит--
ита--
итальян--
их--
иш--
иштв--
ишут--
ию--
к--
ка--
каба--
каби--
кав--
кавто--
кад--
кады--
каж--
каз--
казан--
казе--
кази--
какш--
кал--
калмо--
калуж--
каль--
кам--
камба--
каме--
камеш--
камешкир--
кан--
кана--
канд--
кант--
кап--
капи--
кар--
кара--
карво--
карга--
карин--
карна--
карпо--
карсема--
каршо--
карь--
каст--
кат--
каф--
кач--
кача--
каш--
каше--
каши--
кая--
каям--
квад--
ке--
кев--
кевкс--
кед--
кеде--
кеж--
кез--
кекш--
кел--
келень--
кель--
кем--
кемго--
кеме--
кемн--
кен--
кенер--
кенк--
кенте--
кеня--
кеняр--
кепе--
кепед--
кер--
керш--
керя--
кеч--
ки--
киев--
киз--
кизне--
кикнур--
кили--
киль--
кин--
кино--
кир--
кирваз--
кирвас--
кирги--
киргиз--
кирд--
кирди--
кире--
кирилло--
кирня--
кирпич--
кирь--
кирья--
кирю--
кис--
кись--
кит--
кич--
киш--
кия--
кл--
кла--
кле--
клеме--
клим--
клима--
климо--
клю--
ключе--
кля--
кн--
кня--
княги--
княж--
княже--
княз--
ко--
коб--
ков--
ковер--
ковкста--
ковы--
кож--
коже--
коз--
козь--
козьмодемьян--
кол--
кола--
коле--
колес--
количе--
коло--
колома--
колум--
колы--
коль--
ком--
комбини--
компо--
комсомоль--
комсь--
кон--
конкре--
коннекти--
коно--
конти--
контр--
коп--
копы--
кор--
коре--
коро--
король--
корот--
корт--
корь--
коси--
космиче--
космо--
кост--
кось--
кот--
котель--
кото--
коч--
кочет--
кочка--
кочксе--
кочкур--
кош--
коше--
кошт--
кр--
кра--
крако--
крас--
красно--
крат--
кре--
крестьян--
кри--
криво--
кривцо--
критиче--
кро--
кру--
круж--
круп--
кры--
крым--
крымско--
крю--
крюч--
кря--
кряше--
кс--
ку--
куб--
кугу--
кудо--
кудон--
куды--
куж--
куз--
кузе--
кузоватов--
кузь--
кук--
кукур--
кул--
кула--
кулду--
куле--
кули--
кулом--
куль--
кум--
кума--
кун--
кунд--
куншка--
куп--
кур--
кура--
курба--
кут--
кух--
куць--
куч--
кучо--
куш--
куя--
кш--
кши--
кшни--
кшу--
кы--
кыргыз--
кя--
кярь--
л--
ла--
лав--
лавров--
лагу--
лад--
лаз--
лам--
ламо--
лан--
лап--
лар--
лась--
лат--
латин--
латыш--
лах--
лаш--
ле--
лебяж--
лев--
лег--
лед--
ледст--
леж--
лез--
лезги--
лекарстве--
лекс--
лекци--
лел--
леля--
лем--
лемд--
лен--
лепшт--
лес--
лесо--
лет--
лец--
лецт--
лешукон--
ли--
ливт--
лин--
лип--
липо--
лир--
лириче--
лис--
лит--
литви--
литера--
лито--
лицен--
лич--
лия--
ло--
лоб--
лов--
ловныця--
лод--
лок--
локсе--
лом--
лома--
лоп--
лопа--
лопухо--
лос--
лосе--
лот--
лотка--
лоткавт--
лт--
лу--
лубян--
лув--
луга--
луган--
луго--
луж--
лук--
лукин--
луко--
лукояно--
лун--
лух--
луч--
лы--
лысо--
ль--
лю--
люби--
любимо--
любл--
любо--
ля--
ляхо--
лі--
м--
ма--
мавр--
маг--
магни--
мад--
мадага--
маз--
мазы--
мак--
макаро--
макс--
мал--
мала--
мали--
малмыж--
мало--
малы--
маль--
малю--
мам--
мамо--
ман--
мар--
массо--
мастор--
мат--
матв--
матвее--
математиче--
мах--
маш--
ме--
мед--
медвед--
медицин--
мее--
меж--
межа--
междоме--
междурече--
меже--
мез--
мезе--
мекш--
меле--
мели--
мело--
мель--
мельс--
меля--
мему--
мен--
мене--
менель--
меньшин--
мер--
меро--
мерь--
мет--
метрополитен--
меть--
мех--
меч--
меш--
ми--
мие--
миз--
мизол--
мик--
микро--
микш--
мил--
миллиар--
милосла--
мин--
минер--
мини--
мир--
мисси--
митр--
митрофа--
миф--
мих--
миха--
михее--
мич--
мичурин--
миш--
млад--
мн--
мне--
мно--
много--
мо--
мод--
мода--
мож--
можги--
мокш--
мокшонь--
мол--
молда--
моле--
моло--
молча--
мон--
монасты--
монго--
монголь--
мор--
мора--
моргауш--
мордви--
моро--
мото--
мох--
мохо--
моча--
мош--
мр--
мс--
му--
муе--
муж--
музы--
мук--
мукш--
мулл--
мун--
муници--
муниципаль--
мур--
мура--
мусл--
мух--
муха--
мухамет--
муш--
мы--
мэ--
мэр--
мя--
мяг--
мяс--
мята--
н--
на--
наб--
набере--
наблю--
навашин--
навигацион--
нага--
нагор--
над--
наз--
наза--
назы--
наи--
наиме--
нал--
нам--
напи--
нар--
наращ--
нармун--
нары--
нас--
ната--
нау--
наум--
наумо--
нах--
наци--
нач--
началь--
не--
неве--
неверки--
невт--
невте--
невтел--
недо--
нее--
неж--
неже--
незави--
независимо--
неи--
некрасо--
нель--
нем--
необх--
необяза--
непо--
нер--
нере--
несте--
неф--
нефе--
нефте--
неш--
ни--
ниж--
нижне--
низ--
ник--
ниле--
ниль--
нкс--
нн--
но--
нов--
новеллань--
нови--
ново--
нол--
нолда--
ном--
нор--
ну--
нуж--
нупо--
нур--
нуць--
ны--
нь--
нью--
нюр--
ня--
о--
об--
обе--
обес--
обл--
обновле--
обр--
обсуж--
обу--
обще--
обществе--
объ--
объя--
обыч--
обяза--
овся--
овчи--
ог--
ога--
ого--
од--
оде--
одирь--
одкс--
оен--
оже--
ожо--
оз--
оза--
озавт--
озе--
озин--
озкс--
озны--
ок--
ока--
окон--
окрестно--
оку--
ол--
оле--
оли--
олим--
олимпи--
оло--
оль--
ольхо--
ольхова--
оля--
олякс--
олякстом--
ом--
омбо--
омс--
он--
онкс--
онома--
оп--
опарин--
опер--
опи--
опреде--
определе--
опу--
ор--
ора--
оргод--
орехо--
ори--
орма--
ору--
орфо--
орш--
орша--
оршамо--
ос--
осети--
оси--
основ--
основа--
осо--
оста--
ось--
от--
ответс--
отече--
отечестве--
отзы--
откры--
отме--
отображае--
отра--
отрад--
отрица--
отряд--
отсу--
оф--
официа--
официаль--
оформле--
ох--
охот--
охотник--
охр--
оце--
оцин--
оч--
ош--
ошиб--
п--
па--
павл--
павло--
пае--
паз--
пакся--
пакш--
пал--
пала--
пале--
паль--
пан--
панго--
панд--
пандо--
пане--
панж--
панжо--
пани--
панк--
пано--
панф--
пань--
пар--
пара--
паро--
партизан--
парф--
парц--
паска--
пат--
пау--
пах--
пац--
пач--
пачтя--
паш--
пе--
пед--
педя--
пее--
пеже--
пез--
пек--
пель--
пельс--
пен--
пенси--
пенько--
пер--
перво--
пере--
переиз--
переме--
перепи--
пермс--
персид--
персон--
перт--
пес--
песоч--
пестра--
пестро--
песча--
пет--
пете--
петер--
петня--
петь--
пех--
печ--
печа--
печат--
пеш--
пешт--
пештя--
пи--
пиан--
пиде--
пиди--
пие--
пиж--
пик--
пил--
пиль--
пильг--
пин--
пинг--
пинеж--
пиня--
пионер--
пир--
пиря--
писа--
пись--
письме--
пифа--
пич--
пиче--
пичка--
пла--
пласти--
плат--
пле--
плеша--
пло--
площ--
по--
победи--
побуди--
повес--
повество--
поворин--
пога--
погоре--
под--
подго--
поде--
подоб--
подоси--
подосинов--
подроб--
подробно--
подсо--
пое--
поезд--
пожа--
пожар--
пожела--
поз--
позд--
поздня--
позици--
покш--
покшболди--
пол--
пола--
поли--
политиче--
поло--
полта--
полу--
поля--
полян--
пом--
помо--
пон--
понга--
понго--
поп--
популяр--
пор--
порец--
поро--
поряд--
пос--
посоль--
пот--
пота--
потя--
поч--
поче--
починков--
пош--
поя--
появи--
пра--
празд--
пре--
пред--
представи--
преж--
през--
президи--
прекрас--
при--
приволж--
приволь--
прилага--
прим--
присоеди--
причи--
про--
пробе--
прож--
производ--
промышле--
промышленно--
прос--
просвети--
проте--
пру--
пря--
прявельтя--
прявт--
псих--
психиа--
психо--
пу--
публ--
публик--
публико--
публич--
пукш--
пула--
пулт--
пун--
пур--
пурна--
пусто--
пусты--
пут--
путеше--
путне--
путят--
пуччи--
пуш--
пуэ--
пше--
пшка--
пы--
пыл--
пыш--
пь--
пье--
пят--
р--
ра--
рав--
равен--
радио--
радище--
раду--
рае--
раз--
разно--
рак--
раке--
рам--
рамаза--
ран--
рас--
раск--
распро--
расс--
расшире--
раське--
рат--
рау--
раф--
рах--
раш--
ре--
реаль--
реб--
реви--
реги--
ред--
редакти--
рее--
рез--
резяп--
рекон--
религиоз--
рем--
реп--
репу--
рес--
реч--
реше--
решет--
ржа--
ри--
ривез--
риж--
риз--
рим--
рит--
рма--
рмад--
ро--
робо--
ров--
ровен--
род--
роди--
рож--
рожде--
роз--
рок--
ромода--
рос--
рт--
ртище--
рто--
ру--
руд--
руз--
руко--
рукопи--
румы--
рус--
руч--
ры--
рыб--
рыба--
рыбо--
рыж--
рыч--
рь--
рю--
ря--
ряб--
ряби--
ряж--
ряз--
рязан--
с--
са--
саба--
сабан--
саби--
сабу--
сав--
сад--
садо--
сае--
саз--
саи--
сак--
сал--
сала--
салмук--
саль--
сам--
само--
самс--
самы--
сан--
санти--
санчур--
сапож--
сапонь--
сар--
сарма--
сат--
сати--
саудов--
сафа--
саха--
сахалин--
сб--
сбор--
св--
сва--
сван--
све--
свер--
сверд--
свет--
сви--
своб--
свобод--
связ--
свят--
свяще--
сдел--
се--
сев--
сед--
сее--
сез--
сезе--
сезя--
сел--
сель--
сельме--
сельхоз--
сем--
семантиче--
семе--
сен--
сенгилее--
сендя--
сень--
сер--
серб--
серма--
си--
сибир--
сив--
силь--
сим--
симфониче--
син--
сино--
синя--
сит--
ситди--
сия--
ск--
ска--
скази--
сказоч--
скло--
ско--
скобе--
скопи--
скри--
скрип--
сл--
сла--
слав--
славян--
сле--
след--
сло--
слоб--
слободс--
слово--
слож--
слу--
служ--
служеб--
см--
сме--
смеша--
смир--
смо--
смоле--
смоль--
сму--
смы--
снар--
снеж--
сним--
сно--
сня--
со--
соб--
соби--
собо--
соболев--
собстве--
сов--
согла--
содер--
содруже--
соз--
созда--
сок--
соколо--
соколь--
сол--
сола--
солдат--
солнеч--
соло--
сомни--
сон--
сор--
сорт--
сос--
сот--
сотрудниче--
соф--
сох--
сп--
спе--
спек--
специаль--
спи--
спир--
спирид--
спо--
спут--
сра--
срав--
сравни--
сре--
сред--
средне--
срп--
сс--
ст--
ста--
ставро--
стади--
стака--
стал--
стан--
стандар--
стар--
старин--
старо--
статистиче--
стве--
сте--
степ--
стер--
сти--
сто--
стр--
стре--
стрел--
стрель--
струк--
струн--
сту--
стувт--
студи--
сты--
стя--
стявт--
су--
суб--
субъек--
сув--
суз--
сули--
султ--
сумар--
сун--
сундерьга--
супер--
сур--
сух--
сухо--
суще--
существи--
сущно--
сфе--
схе--
сце--
счи--
съ--
съез--
съезд--
сы--
сыз--
сызран--
сыктывди--
сыр--
сырга--
сыре--
сырь--
сыч--
сь--
сэ--
сэд--
сэнд--
сэндям--
сэнь--
сэр--
сэрдят--
сю--
сюл--
сюлга--
сюлма--
сюлмаво--
сюр--
ся--
сял--
т--
та--
тага--
таз--
так--
тал--
тали--
там--
тан--
танда--
танза--
тапар--
тар--
тара--
тарг--
тарга--
тарго--
тарко--
тат--
тау--
тах--
таш--
ташто--
тв--
творче--
те--
тев--
тевка--
тевс--
тевть--
тее--
теем--
теле--
тем--
тематиче--
темпера--
тен--
тени--
теньгуше--
теп--
тер--
терд--
терде--
тере--
терехо--
терно--
территориаль--
терь--
теря--
терявт--
теряе--
тетр--
тетю--
тех--
техниче--
техно--
теш--
ти--
тикше--
тим--
тимирязе--
тимо--
тимофее--
тип--
тир--
тих--
тиш--
то--
тоболь--
тов--
тол--
том--
тон--
тона--
тонавт--
топ--
топа--
топо--
топографиче--
тор--
торб--
торбее--
торт--
точ--
тр--
тра--
традицион--
трак--
трам--
тран--
транс--
тре--
требо--
трема--
треть--
три--
тро--
троф--
тру--
труб--
труш--
тря--
тс--
тт--
ту--
тувт--
туе--
тужин--
тул--
туль--
тумо--
тун--
тур--
туристиче--
туркмен--
ты--
тыж--
тыр--
ть--
тю--
тюль--
тюмен--
тюр--
тюре--
тюрк--
тюрь--
тюс--
тя--
тян--
у--
ува--
уган--
угор--
уда--
удар--
уде--
уди--
удоб--
удор--
уе--
уж--
ужо--
уз--
уи--
ук--
украи--
украин--
укш--
ул--
ула--
ули--
уликс--
улучше--
уль--
умарь--
ун--
уни--
универ--
универсаль--
уникаль--
унин--
уо--
упо--
ур--
ура--
ураль--
урба--
ури--
уро--
уру--
урь--
уря--
ус--
уси--
усин--
уск--
услу--
усм--
успе--
успен--
успеш--
уст--
уста--
усти--
усь--
ут--
уте--
утяше--
уфим--
ух--
уця--
уч--
учали--
уче--
учи--
учреж--
уш--
ушмо--
ушод--
ф--
фа--
фабр--
фак--
фан--
фанта--
фар--
фау--
фе--
фед--
федер--
федо--
федоро--
федю--
фелье--
фемини--
феокт--
фер--
фи--
фигур--
физ--
физиче--
фил--
фила--
фили--
филь--
фин--
финан--
фир--
фло--
флор--
фо--
фон--
фонетиче--
фото--
фр--
фра--
фран--
фре--
фри--
фроло--
фрон--
фрэ--
фу--
фун--
фундаменталь--
функциональ--
фур--
х--
ха--
хаба--
хаби--
хали--
хан--
хар--
характе--
хари--
хау--
хаф--
хво--
хе--
хер--
хи--
хил--
хим--
химиче--
хир--
хлеб--
хо--
хован--
ход--
холмо--
холмогор--
холод--
хом--
хому--
хор--
хот--
хоте--
хох--
храб--
хре--
христиан--
хро--
хру--
ху--
худ--
хусаи--
ц--
цар--
це--
цел--
цели--
ценно--
цере--
церк--
церко--
ци--
циви--
циль--
цильни--
ципа--
цирь--
цити--
цифр--
цифро--
цы--
цю--
ця--
ч--
ча--
чады--
чал--
чам--
чама--
чан--
чап--
чапа--
чапае--
чар--
чарь--
чарькод--
чарькоде--
чащ--
че--
чебо--
чекае--
чел--
чель--
чем--
чен--
чер--
черда--
черемша--
черни--
черниго--
черно--
черныше--
черня--
черт--
черь--
чехо--
чеч--
чеш--
чи--
чие--
чин--
чинд--
чиндя--
чипа--
чир--
чире--
чирь--
чис--
чисто--
чистэ--
чиш--
чо--
чоп--
чу--
чув--
чувар--
чувто--
чугу--
чугуе--
чуде--
чуди--
чук--
чумо--
чур--
чура--
чух--
чуч--
чы--
ш--
ша--
шаба--
шал--
шам--
шан--
шап--
шапош--
шар--
шаркан--
шат--
шах--
шахун--
шве--
швед--
ше--
шев--
шел--
шем--
шенкур--
шер--
шеста--
ши--
шипи--
шир--
ширяе--
шиш--
шишо--
шка--
шл--
шлы--
шлю--
шлямо--
шме--
шо--
шом--
шоп--
шор--
шотланд--
шош--
шпа--
шпи--
ште--
шты--
шу--
шува--
шугу--
шугуров--
шук--
шумерли--
шуми--
шун--
шур--
шуш--
щ--
ще--
щерб--
щук--
ы--
э--
эд--
эз--
эзе--
эк--
экз--
эко--
экономиче--
экр--
экс--
экспер--
экш--
экше--
эл--
эле--
элек--
электр--
электриче--
электро--
электрон--
эль--
эм--
эми--
эн--
энде--
энял--
эпи--
эпиз--
эпиче--
эр--
эра--
эрзя--
эрзянь--
эри--
эрь--
эрьва--
эрьке--
эря--
эрямарт--
эрямо--
эс--
эст--
эстетиче--
эстон--
эстра--
эсь--
этниче--
этно--
эф--
эце--
эш--
эшке--
ю--
юби--
юг--
югосла--
юди--
юж--
юл--
юли--
юма--
юр--
юри--
юридиче--
юриспру--
юро--
юрт--
юрьян--
юсу--
юта--
ютавт--
ютавто--
юш--
я--
ябл--
явл--
яво--
явово--
явше--
ягод--
ягу--
ядер--
ядр--
яжа--
яз--
як--
якс--
яку--
якут--
яльчи--
ям--
ямщ--
ян--
янга--
яно--
янти--
япо--
яр--
яран--
яро--
яросла--
яру--
яс--
ят--
ях--
і--
ә--
--0
--00
--000
--00000
--001
--002
--003
--004
--005
--006
--007
--008
--009
--01
--010
--011
--012
--013
--014
--015
--016
--017
--018
--019
--02
--020
--021
--022
--023
--024
--025
--026
--027
--028
--029
--03
--030
--031
--032
--033
--034
--035
--036
--037
--038
--039
--04
--040
--041
--042
--043
--044
--045
--046
--047
--048
--049
--05
--050
--051
--052
--053
--054
--055
--056
--057
--058
--059
--06
--060
--061
--062
--063
--064
--065
--066
--067
--068
--069
--07
--070
--071
--072
--073
--074
--075
--076
--077
--078
--079
--08
--080
--081
--082
--083
--084
--085
--086
--087
--088
--089
--09
--090
--091
--092
--093
--094
--095
--096
--097
--098
--099
--1
--10
--100
--101
--102
--103
--104
--105
--106
--107
--108
--109
--11
--110
--111
--112
--113
--114
--115
--116
--117
--118
--119
--12
--120
--121
--122
--123
--124
--125
--126
--127
--128
--129
--13
--130
--131
--132
--133
--134
--135
--136
--137
--138
--139
--14
--140
--141
--142
--143
--144
--145
--146
--147
--148
--149
--15
--150
--151
--152
--153
--154
--155
--156
--157
--158
--159
--16
--160
--161
--162
--163
--164
--165
--166
--167
--168
--169
--17
--170
--171
--172
--173
--174
--175
--176
--177
--178
--179
--18
--180
--181
--182
--183
--184
--185
--186
--187
--188
--189
--19
--190
--191
--192
--193
--194
--195
--196
--197
--198
--199
--2
--20
--200
--201
--202
--203
--204
--205
--206
--207
--208
--209
--21
--210
--211
--212
--213
--214
--215
--216
--217
--218
--219
--22
--220
--221
--222
--223
--224
--225
--226
--227
--228
--229
--23
--230
--231
--232
--233
--234
--235
--236
--237
--238
--239
--24
--240
--241
--242
--243
--244
--245
--246
--247
--248
--249
--25
--250
--251
--252
--253
--254
--255
--256
--257
--258
--259
--26
--260
--261
--262
--263
--264
--265
--266
--267
--268
--269
--27
--270
--271
--272
--273
--274
--275
--276
--277
--278
--279
--28
--280
--281
--282
--283
--284
--285
--286
--287
--288
--289
--29
--290
--291
--292
--293
--294
--295
--296
--297
--298
--299
--3
--30
--300
--301
--302
--303
--304
--305
--306
--307
--308
--309
--31
--310
--311
--312
--313
--314
--315
--316
--317
--318
--319
--32
--320
--321
--322
--323
--324
--325
--326
--327
--328
--329
--33
--330
--331
--332
--333
--334
--335
--336
--337
--338
--339
--34
--340
--341
--342
--343
--344
--345
--346
--347
--348
--349
--35
--350
--351
--352
--353
--354
--355
--356
--357
--358
--359
--36
--360
--361
--362
--363
--364
--365
--366
--367
--368
--369
--37
--370
--371
--372
--373
--374
--375
--376
--377
--378
--379
--38
--380
--381
--382
--383
--384
--385
--386
--387
--388
--389
--39
--390
--391
--392
--393
--394
--395
--396
--397
--398
--399
--4
--40
--400
--401
--402
--403
--404
--405
--406
--407
--408
--409
--41
--410
--411
--412
--413
--414
--415
--416
--417
--418
--419
--42
--420
--421
--422
--423
--424
--425
--426
--427
--428
--429
--43
--430
--431
--432
--433
--434
--435
--436
--437
--438
--439
--44
--440
--441
--442
--443
--444
--445
--446
--447
--448
--449
--45
--450
--451
--452
--453
--454
--455
--456
--457
--458
--459
--46
--460
--461
--462
--463
--464
--465
--466
--467
--468
--469
--47
--470
--471
--472
--473
--474
--475
--476
--477
--478
--479
--48
--480
--481
--482
--483
--484
--485
--486
--487
--488
--489
--49
--490
--491
--492
--493
--494
--495
--496
--497
--498
--499
--5
--50
--500
--501
--502
--503
--504
--505
--506
--507
--508
--509
--51
--510
--511
--512
--513
--514
--515
--516
--517
--518
--519
--52
--520
--521
--522
--523
--524
--525
--526
--527
--528
--529
--53
--530
--531
--532
--533
--534
--535
--536
--537
--538
--539
--54
--540
--541
--542
--543
--544
--545
--546
--547
--548
--549
--55
--550
--551
--552
--553
--554
--555
--556
--557
--558
--559
--56
--560
--561
--562
--563
--564
--565
--566
--567
--568
--569
--57
--570
--571
--572
--573
--574
--575
--576
--577
--578
--579
--58
--580
--581
--582
--583
--584
--585
--586
--587
--588
--589
--59
--590
--591
--592
--593
--594
--595
--596
--597
--598
--599
--6
--60
--600
--601
--602
--603
--604
--605
--606
--607
--608
--609
--61
--610
--611
--612
--613
--614
--615
--616
--617
--618
--619
--62
--620
--621
--622
--623
--624
--625
--626
--627
--628
--629
--63
--630
--631
--632
--633
--634
--635
--636
--637
--638
--639
--64
--640
--641
--642
--643
--644
--645
--646
--647
--648
--649
--65
--650
--651
--652
--653
--654
--655
--656
--657
--658
--659
--66
--660
--661
--662
--663
--664
--665
--666
--667
--668
--669
--67
--670
--671
--672
--673
--674
--675
--676
--677
--678
--679
--68
--680
--681
--682
--683
--684
--685
--686
--687
--688
--689
--69
--690
--691
--692
--693
--694
--695
--696
--697
--698
--699
--7
--70
--700
--701
--702
--703
--704
--705
--706
--707
--708
--709
--71
--710
--711
--712
--713
--714
--715
--716
--717
--718
--719
--72
--720
--721
--722
--723
--724
--725
--726
--727
--728
--729
--73
--730
--731
--732
--733
--734
--735
--736
--737
--738
--739
--74
--740
--741
--742
--743
--744
--745
--746
--747
--748
--749
--75
--750
--751
--752
--753
--754
--755
--756
--757
--758
--759
--76
--760
--761
--762
--763
--764
--765
--766
--767
--768
--769
--77
--770
--771
--772
--773
--774
--775
--776
--777
--778
--779
--78
--780
--781
--782
--783
--784
--785
--786
--787
--788
--789
--79
--790
--791
--792
--793
--794
--795
--796
--797
--798
--799
--8
--80
--800
--801
--802
--803
--804
--805
--806
--807
--808
--809
--81
--810
--811
--812
--813
--814
--815
--816
--817
--818
--819
--82
--820
--821
--822
--823
--824
--825
--826
--827
--828
--829
--83
--830
--831
--832
--833
--834
--835
--836
--837
--838
--839
--84
--840
--841
--842
--843
--844
--845
--846
--847
--848
--849
--85
--850
--851
--852
--853
--854
--855
--856
--857
--858
--859
--86
--860
--861
--862
--863
--864
--865
--866
--867
--868
--869
--87
--870
--871
--872
--873
--874
--875
--876
--877
--878
--879
--88
--880
--881
--882
--883
--884
--885
--886
--887
--888
--889
--89
--890
--891
--892
--893
--894
--895
--896
--897
--898
--899
--9
--90
--900
--901
--902
--903
--904
--905
--906
--907
--908
--909
--91
--910
--911
--912
--913
--914
--915
--916
--917
--918
--919
--92
--920
--921
--922
--923
--924
--925
--926
--927
--928
--929
--93
--930
--931
--932
--933
--934
--935
--936
--937
--938
--939
--94
--940
--941
--942
--943
--944
--945
--946
--947
--948
--949
--95
--950
--951
--952
--953
--954
--955
--956
--957
--958
--959
--96
--960
--961
--962
--963
--964
--965
--966
--967
--968
--969
--97
--970
--971
--972
--973
--974
--975
--976
--977
--978
--979
--98
--980
--981
--982
--983
--984
--985
--986
--987
--988
--989
--99
--990
--991
--992
--993
--994
--995
--996
--997
--998
--999
--a
--aceae
--ad
--ada
--ade
--ae
--age
--ai
--ain
--ais
--aj
--ak
--akirja
--al
--ala
--ale
--am
--ama
--an
--ana
--ance
--ane
--ang
--ani
--ann
--ano
--ans
--ant
--anus
--ar
--ard
--ards
--arg
--args
--aria
--ario
--ars
--ary
--as
--at
--ata
--ate
--ated
--athon
--ation
--ations
--ator
--atre
--atus
--au
--ava
--ay
--b
--ba
--ball
--bar
--be
--ble
--bot
--box
--buch
--c
--ca
--cal
--case
--cat
--ce
--cell
--celldiv
--ch
--chi
--ci
--cio
--ck
--claim
--claims
--co
--cs
--ct
--cu
--cus
--cy
--d
--da
--dae
--dam
--data
--date
--day
--de
--di
--dium
--do
--dom
--dor
--ds
--dt
--du
--dy
--e
--ea
--eae
--ec
--eck
--ect
--ed
--ee
--een
--ego
--ei
--ej
--ek
--el
--em
--en
--ence
--ens
--ent
--entity
--ents
--eo
--er
--era
--ere
--ers
--ery
--es
--ess
--est
--et
--eta
--ets
--eum
--eur
--eus
--ev
--ew
--ex
--ey
--f
--fer
--ff
--fia
--fied
--ft
--ful
--fy
--g
--ga
--ge
--gen
--ger
--ges
--gh
--go
--gs
--h
--ha
--haft
--ham
--he
--hen
--hes
--hi
--hip
--ht
--i
--ia
--ial
--ian
--iana
--ias
--ibution
--ic
--ica
--ical
--ich
--ick
--ics
--ict
--icum
--id
--ida
--idae
--ide
--ie
--ied
--ier
--ies
--ified
--ig
--ii
--ija
--ik
--ika
--il
--ila
--illa
--im
--ima
--impl
--in
--ina
--index
--ine
--ing
--ings
--ini
--ink
--ino
--ins
--io
--ion
--ional
--ions
--ique
--ir
--ire
--irs
--is
--ise
--ised
--ish
--ism
--ist
--it
--ita
--ite
--itelink
--itude
--ity
--ium
--ius
--ive
--ix
--iya
--iz
--ization
--ize
--ized
--j
--ja
--je
--k
--ka
--kan
--ke
--ken
--ket
--key
--ki
--kie
--ko
--kr
--ks
--ku
--ky
--l
--la
--label
--lan
--land
--ld
--le
--ler
--lf
--li
--lin
--ling
--link
--links
--list
--ll
--lla
--lle
--lly
--lo
--ls
--lus
--ly
--lyk
--m
--ma
--maa
--main
--map
--mble
--me
--ment
--mi
--mic
--mo
--ms
--n
--na
--name
--nce
--nces
--nd
--nda
--ne
--nek
--neous
--ner
--ng
--ni
--nia
--nie
--nii
--ning
--nis
--nje
--nk
--nn
--nna
--nne
--no
--nosti
--ns
--nse
--nt
--nts
--num
--nus
--ny
--nz
--o
--od
--of
--og
--ogie
--ogy
--oj
--ok
--ol
--ology
--om
--on
--onal
--ong
--ons
--ont
--or
--ora
--ors
--orsk
--orus
--ory
--os
--ose
--ot
--ota
--ou
--ous
--ov
--ova
--ovic
--ovsk
--ow
--oz
--p
--pa
--pe
--ped
--ph
--phic
--phical
--phie
--phy
--ping
--po
--point
--ps
--pt
--pus
--q
--r
--ra
--rc
--rd
--re
--rea
--refs
--ren
--ri
--ria
--ric
--ris
--rk
--rl
--rland
--rm
--ro
--rs
--rse
--rt
--rum
--ry
--s
--sa
--sche
--schen
--se
--sed
--sel
--sen
--ser
--ses
--sh
--shi
--si
--sia
--sion
--sis
--sk
--ska
--sma
--snak
--so
--ss
--ssa
--st
--sus
--t
--ta
--tal
--tan
--te
--ted
--ten
--ter
--tes
--text
--th
--tha
--ti
--tic
--tin
--ting
--tion
--tions
--tip
--title
--tive
--tly
--to
--tor
--tos
--tr
--tra
--trum
--ts
--tti
--tu
--tus
--ty
--tyle
--u
--ual
--ually
--ue
--ues
--ula
--um
--ume
--un
--ung
--up
--ur
--ura
--ure
--url
--us
--ut
--v
--va
--value
--ve
--ver
--vi
--vic
--vo
--vs
--vu
--w
--wards
--x
--xors
--y
--ya
--yi
--yr
--ys
--z
--za
--ze
--zes
--zez
--zi
--zia
--zo
--zz
--ı
--ο
--а
--аа
--аб
--ав
--ава
--ави
--ага
--ад
--ада
--аде
--адо
--адонь
--ады
--ае
--аев
--аево
--ает
--аж
--аз
--азо
--азов
--азь
--аи
--ак
--ака
--аки
--акино
--аков
--аково
--аконь
--акс
--ал
--ала
--али
--ам
--ама
--ами
--амо
--амс
--ан
--ана
--анга
--ане
--анзо
--ани
--ание
--ании
--анию
--ания
--анка
--аннои
--анные
--анныи
--анных
--ано
--анов
--аново
--анонь
--ант
--анть
--аны
--ань
--апово
--ар
--аре
--ари
--аронь
--арь
--ас
--аса
--асо
--асы
--ась
--ат
--ата
--атась
--атор
--ать
--аться
--ау
--аул
--аф
--афии
--афическая
--афическои
--афия
--ах
--ац
--ации
--ация
--ациясь
--ач
--аче
--ачи
--аш
--аши
--ащение
--ают
--аются
--ая
--б
--ба
--баев
--баи
--бан
--бе
--берг
--би
--бие
--бии
--бино
--бо
--бово
--бр
--бт
--буе
--буева
--бург
--бурге
--бы
--бья
--в
--ва
--вает
--вазь
--ваи
--вал
--ванть
--ват
--вать
--вая
--ве
--веи
--вер
--ветии
--ветиця
--вец
--ви
--вии
--викс
--вин
--вир
--вица
--виця
--вич
--вка
--вки
--вкс
--вксось
--вна
--вник
--вно
--внои
--вные
--во
--вое
--возь
--вои
--вома
--вонь
--вская
--вские
--вского
--всть
--всь
--вт
--втеме
--вто
--втови
--втозель
--втозь
--втома
--втомо
--втомс
--втсть
--втсы
--втсь
--вты
--втызе
--вцы
--вщина
--вы
--вые
--вых
--вьте
--г
--га
--гадсь
--гак
--ган
--гас
--гат
--гачи
--гда
--ге
--ген
--гень
--гер
--гесь
--ги
--гии
--гин
--гино
--гия
--гиянь
--го
--гов
--гово
--гома
--гонь
--горскии
--град
--градонь
--градская
--граммы
--граф
--гс
--гсо
--гсэ
--гт
--гу
--гуж
--д
--да
--дак
--дамс
--дань
--де
--дев
--деев
--дезь
--деи
--демс
--денть
--дест
--джа
--ди
--дии
--дин
--дине
--дино
--дить
--дия
--дка
--дки
--до
--дозель
--дозь
--донзо
--донть
--донь
--дост
--дояк
--дс
--дсо
--дсь
--дт
--дте
--ду
--дур
--ды
--дызь
--дыть
--дыця
--дыцят
--дыш
--дь
--дья
--дэ
--дя
--дязь
--дяи
--дяк
--е
--ев
--ева
--еве
--еви
--евич
--евка
--евна
--ево
--евск
--евская
--евского
--евсь
--евы
--ед
--еде
--ее
--еев
--еево
--еж
--ез
--езд
--езь
--езэ
--еи
--ек
--екс
--ел
--ела
--еле
--еление
--ели
--елиха
--ель
--ельнои
--ельть
--ем
--ема
--еме
--ен
--ена
--ене
--ензэ
--ение
--ении
--ения
--енка
--енки
--енко
--енок
--ент
--ентень
--енть
--ены
--ень
--еняет
--ео
--ер
--ера
--ери
--ерь
--ес
--ест
--есь
--есэ
--ет
--ета
--ете
--ется
--еты
--еть
--ех
--ец
--еце
--ецкое
--ецком
--ець
--еч
--ея
--ж
--жа
--жд
--жды
--же
--жение
--жи
--жино
--жите
--жка
--жки
--жная
--жо
--жу
--жье
--з
--за
--зан
--зание
--зат
--зать
--зация
--зг
--зд
--зе
--зеи
--зель
--зельть
--зема
--зень
--зеть
--зи
--зии
--зин
--зино
--зм
--зма
--зо
--зов
--золь
--зонзо
--зонок
--зонь
--зоро
--зост
--зт
--зу
--зы
--зь
--зэ
--зэть
--зя
--и
--иб
--ив
--ивнои
--ид
--ие
--иевка
--ием
--иень
--из
--издат
--изе
--изм
--изма
--измань
--измов
--изь
--ии
--ик
--ика
--иканть
--икань
--икасо
--икась
--ике
--ики
--ико
--иков
--иково
--икс
--икше
--ил
--ила
--илеи
--или
--илова
--илово
--иль
--им
--има
--ими
--имово
--имости
--ин
--ина
--инг
--ини
--иницасо
--инка
--инки
--ино
--инов
--иново
--инск
--инское
--ины
--инь
--инэнь
--ио
--ион
--ип
--ир
--ирования
--ировать
--ирует
--ируется
--ис
--иса
--исать
--исе
--ислав
--ист
--ись
--исэ
--ит
--ите
--ители
--ителя
--ится
--ить
--иться
--иума
--иф
--их
--иха
--иц
--ица
--ицань
--ицасо
--ице
--иция
--ициясь
--ицкии
--ицкое
--ицы
--иця
--ич
--ича
--ическая
--ические
--ическии
--ических
--ического
--ическое
--ическои
--ичи
--ичныи
--иш
--ище
--ищево
--ищи
--ию
--ия
--иями
--иянть
--иянь
--иясо
--иясь
--ият
--иях
--к
--ка
--каи
--как
--какс
--кал
--кань
--кас
--касо
--каст
--кась
--кат
--ках
--кая
--ке
--кесэ
--кеть
--ки
--кии
--ким
--кин
--кино
--клы
--ко
--ков
--ковка
--ково
--кого
--кое
--кои
--ком
--коцт
--кс
--кса
--ксе
--ксо
--ксонть
--ксонь
--ксось
--кссо
--кст
--кстави
--кстамс
--ксть
--ксчи
--ксэсь
--кт
--ку
--кудо
--кш
--кша
--кшнось
--л
--ла
--лав
--лак
--ланд
--лань
--лар
--лас
--лась
--лга
--лгавтома
--лгады
--лго
--лдо
--лды
--ле
--лев
--лева
--лево
--лежащеи
--леи
--лен
--лена
--ление
--лении
--лению
--ления
--лено
--лжье
--ли
--лив
--лизе
--лизм
--лизь
--лии
--лин
--линзе
--лино
--линь
--лиха
--лице
--лич
--лк
--лкс
--лла
--лле
--ллин
--ло
--лов
--логии
--лся
--лт
--лть
--лу
--лув
--лы
--ль
--льд
--лье
--льная
--льно
--льное
--льнои
--льном
--льные
--льныи
--льным
--льных
--льт
--льть
--лю
--ля
--ляет
--ляк
--лять
--м
--ма
--маа
--мадо
--мазо
--маи
--манонь
--мас
--масо
--мат
--мга
--ме
--меи
--мен
--мент
--мер
--мет
--меть
--ми
--мизь
--мия
--мка
--мкс
--мля
--мная
--мо
--мов
--мович
--модо
--мозо
--монзо
--мосо
--мось
--мот
--мс
--мск
--мское
--мсто
--мстэ
--мсь
--мт
--му
--мы
--мыш
--мэ
--мя
--н
--на
--наи
--нак
--нат
--нах
--ная
--нг
--нге
--нгер
--нд
--нда
--нде
--ндеи
--ндеряи
--ндии
--нды
--не
--нева
--нево
--неде
--незь
--неи
--нек
--ненень
--нень
--нер
--нес
--нест
--нестэ
--несэ
--нец
--нза
--нзе
--нзии
--нзо
--нзэ
--ни
--ние
--нием
--нии
--ник
--ника
--ники
--никово
--нин
--нис
--ниха
--ниц
--ница
--ницкои
--ницы
--нию
--ния
--ниянь
--ниясо
--нк
--нка
--нке
--нки
--нко
--нку
--нна
--ннии
--нников
--нно
--ннои
--нном
--нные
--нныи
--нным
--нных
--нняя
--но
--нов
--ного
--ное
--нои
--нок
--ном
--нонь
--ности
--нось
--нс
--нск
--нская
--нскии
--нско
--нское
--нскои
--нсо
--нсь
--нсэ
--нт
--нта
--нте
--нтень
--нтнэ
--нто
--нтт
--нты
--нть
--нтэнь
--ну
--ную
--нц
--нца
--нце
--нция
--нцы
--ны
--ные
--ныи
--ным
--ными
--ныть
--ных
--нь
--нье
--нэ
--нэде
--нэкс
--нэнень
--нэнь
--нэстэ
--нэсэ
--нэть
--ня
--нят
--няя
--о
--об
--ов
--ова
--ования
--овая
--ове
--ови
--овица
--ович
--овка
--овна
--овно
--ово
--ового
--овое
--овои
--овск
--овская
--овскии
--овского
--овское
--овскои
--овском
--овсь
--овт
--овцы
--овщина
--овы
--овые
--овыи
--овых
--овье
--ог
--огии
--огия
--ого
--ограф
--ография
--ографиязо
--оде
--одо
--ое
--оень
--оз
--озо
--озь
--ои
--ок
--окс
--ол
--оли
--олог
--ологии
--ология
--ологиянь
--оль
--ольть
--ом
--ома
--омазо
--омась
--омо
--омс
--ому
--он
--онень
--онзо
--онсо
--онт
--онтень
--онть
--онь
--оп
--ор
--ора
--орд
--оро
--орово
--оронь
--оры
--ос
--ослав
--осо
--ост
--осто
--ось
--от
--оты
--оу
--оц
--оцкая
--очныи
--ош
--ошево
--ошо
--оя
--п
--па
--паз
--пань
--пас
--пе
--пелень
--пелесь
--пель
--пи
--пин
--пина
--пино
--пов
--пова
--пово
--постанова
--прыи
--пря
--пс
--пу
--пы
--пь
--р
--ра
--рад
--рах
--рг
--рга
--рге
--ргов
--рд
--рда
--ре
--рев
--рево
--реи
--рень
--реченск
--речье
--ри
--рив
--рии
--риково
--рин
--рино
--рит
--рите
--рить
--риха
--рич
--рия
--риясо
--рк
--рка
--рково
--ркт
--рн
--рно
--рнои
--ро
--ров
--ровка
--ронь
--рс
--рск
--рске
--рсо
--рсэ
--рт
--рта
--рть
--ру
--русско
--рчи
--ръял
--ры
--рь
--рье
--рьево
--рья
--рю
--ря
--ряк
--рят
--с
--са
--саии
--сан
--сар
--се
--сенть
--сесь
--си
--сии
--сис
--сия
--ск
--ская
--ске
--ски
--ские
--скии
--ским
--скин
--ских
--ско
--ского
--ское
--скои
--ском
--скую
--скяи
--слав
--со
--сов
--сова
--сово
--сола
--сон
--сонзо
--сонть
--сояк
--спиридонов
--ср
--сс
--сское
--ссо
--ссэ
--ст
--ства
--ство
--ству
--сте
--стеи
--сти
--стка
--стнэ
--сто
--стонзо
--стонть
--стт
--сты
--сть
--стэ
--су
--сы
--сь
--сэ
--сэнть
--ся
--сядт
--сян
--т
--та
--тави
--тазь
--тал
--тальнои
--тано
--тау
--тах
--тации
--тая
--тва
--тво
--те
--теи
--теии
--тели
--теля
--тень
--тер
--ти
--тии
--тика
--тики
--тин
--тино
--тич
--тическои
--тка
--ткак
--тке
--тки
--тлужье
--тне
--тнева
--тнеде
--тненень
--тнень
--тнес
--тнестэ
--тнесэ
--тни
--тно
--тное
--тные
--тнэ
--тнэде
--тнэнь
--тнэс
--тнэстэ
--тнэсэ
--то
--тов
--товка
--тово
--тое
--тозь
--ток
--томо
--тор
--тось
--тра
--тское
--тсо
--тсь
--тсэ
--тся
--тт
--ттне
--тть
--ту
--ты
--тые
--тызе
--тызь
--тыи
--тыть
--тыця
--ть
--тьево
--ться
--тэ
--тэнть
--тэнь
--тя
--тяно
--тясь
--у
--уа
--убояров
--уг
--уга
--уд
--уе
--уж
--уз
--узскии
--уи
--ук
--уково
--укции
--укция
--ул
--уло
--ум
--ума
--ун
--унино
--уново
--унь
--уп
--ур
--ура
--уре
--ури
--уры
--ус
--ут
--утом
--уты
--уть
--ух
--уха
--уш
--уша
--уши
--ушка
--ущен
--уэ
--уэр
--ую
--ующеи
--уя
--ф
--фа
--фе
--фи
--фия
--фор
--х
--ха
--хаи
--хе
--хи
--хино
--хо
--хов
--хово
--ходит
--хонь
--хти
--ху
--ц
--ца
--цах
--це
--цево
--цек
--цекс
--ци
--ции
--цино
--ция
--циянь
--циясь
--цк
--цкая
--цкии
--цкое
--цкои
--цком
--цо
--цов
--цово
--цу
--цы
--ць
--ця
--цязо
--цякс
--цянть
--цянь
--цясь
--цят
--цятне
--ч
--ча
--че
--чев
--чево
--чен
--чень
--ческом
--чи
--чив
--чие
--чизэ
--чин
--чино
--чинь
--чис
--чист
--чись
--чисэ
--чить
--чих
--чиха
--чич
--чка
--чки
--чно
--чо
--чу
--чук
--чь
--чье
--чья
--ш
--ша
--шая
--ше
--шев
--шева
--шево
--шевская
--шень
--ши
--шии
--шим
--шин
--шка
--шки
--шко
--шлы
--шныть
--шо
--шов
--шово
--шонь
--шт
--шу
--шур
--шую
--шь
--щ
--ща
--ще
--щево
--щение
--щи
--щии
--щина
--щино
--ъ
--ъе
--ы
--ывает
--ыгино
--ые
--ызе
--ызь
--ыи
--ык
--ыль
--ым
--ынзе
--ынь
--ып
--ыре
--ыть
--ых
--ыш
--ышево
--ыя
--ь
--ьга
--ьге
--ьд
--ье
--ьев
--ьево
--ьи
--ька
--ькс
--ькст
--ьма
--ьная
--ьне
--ьнень
--ьно
--ьного
--ьное
--ьнои
--ьные
--ьныи
--ьным
--ьными
--ьных
--ьск
--ьское
--ьскои
--ьсы
--ьсэ
--ься
--ьть
--ьф
--ьц
--ьчи
--ья
--ьян
--э
--эв
--эзэ
--эи
--экс
--эле
--эм
--энзэ
--энтень
--энть
--энь
--эр
--эс
--эст
--эсь
--эть
--ю
--юк
--юля
--юм
--юр
--ют
--ются
--юш
--ющая
--ющеи
--ющие
--ющии
--ющим
--ющих
--я
--яв
--ява
--яги
--яев
--яево
--яж
--яз
--язель
--язо
--язь
--яи
--як
--ял
--яли
--ям
--ями
--ямо
--ямонь
--ямс
--ян
--яна
--янзо
--яние
--янка
--янов
--яново
--янть
--яны
--янь
--яр
--яс
--ясо
--ясь
--ят
--ята
--ятие
--ятино
--ятия
--ятся
--ять
--ях
--яш
--і
--ن
