!
"
#
##0
##1
##10
##11
##12
##13
##14
##15
##16
##17
##18
##19
##2
##20
##21
##22
##23
##24
##25
##26
##27
##28
##29
##3
##30
##31
##32
##33
##34
##35
##36
##37
##38
##39
##4
##40
##41
##42
##43
##44
##45
##46
##47
##48
##49
##5
##50
##51
##52
##53
##54
##55
##56
##57
##58
##59
##6
##60
##61
##62
##63
##64
##65
##66
##67
##68
##69
##7
##70
##71
##72
##73
##74
##75
##76
##77
##78
##79
##8
##80
##81
##82
##83
##84
##85
##86
##87
##88
##89
##9
##90
##91
##92
##93
##94
##95
##96
##97
##98
##99
%
&
'
(
)
*
+
,
-
.
/
0
00
000
01
02
03
04
05
0535
0554
06
0617
07
08
09
1
10
100
1000
10000
100000
1000000
10000000
1000000000
1001
101
102
103
104
10429758
105
106
107
107343683
108
109
11
110
1100
111
112
113
114
115
1150
116
117
118
119
12
120
1200
121
122
123
124
125
126
127
128
129
13
130
131
132
133
134
1340
135
136
137
138
139
14
140
1400
141
142
143
144
145
146
147
148
149
15
150
1500
151
152
153
154
1541
155
156
157
158
1585
1586
159
16
160
1600
1608
161
162
1620
163
1630
1638
164
1640
1646
165
166
1668
167
1678
168
169
17
170
1701
170109
1707
1708
171
1710
1711
1719
172
1720
1721
1725
173
17378135
174
1745
1747
175
1753
176
1761
1763
1765
1766
177
1771
1775
1777
178
1780
1781
1782
1783
1784
1789
179
1790
1792
1794
1795
1796
1797
1798
1799
18
180
1800
1801
1802
1804
1805
1807
1808
1809
181
1810
1811
1812
1813
1814
1815
1816
1817
1818
182
1820
1821
1822
1823
1824
1825
1826
1827
1828
1829
183
1830
1831
1832
1833
1834
1835
1836
1837
1838
1839
184
1840
1841
1842
1843
1844
1845
1846
1847
1848
1849
185
1850
1851
1852
1853
1854
1855
1856
1857
1858
1859
186
1860
1861
1862
1863
1864
1865
1866
1867
1868
1869
187
1870
1871
1872
1873
1874
1875
1876
1877
1878
1879
188
1880
1881
1882
1883
1884
1885
1886
1887
1888
1889
189
1890
1891
1892
1893
1894
1895
1896
1897
1898
1899
19
190
1900
1901
1902
1903
1904
1905
1906
1907
1908
1909
191
1910
1911
1912
1913
1914
1915
1916
1917
1918
1919
192
1920
1921
1922
1923
1924
1925
1926
1927
1928
1929
193
1930
1931
1932
1933
1934
1935
193563
1936
1937
1938
1939
194
1940
1941
1942
1943
1944
1945
1946
1947
1948
1949
195
1950
1951
1952
1953
1954
1955
1956
1957
1958
1959
196
1960
1961
1962
1963
1964
1965
1966
1967
1968
1969
197
1970
1971
1972
1973
1974
1975
1976
1977
1978
1979
198
1980
1981
1982
1983
1984
1985
1986
1987
1988
1989
199
1990
1991
1992
1993
19938912
1994
1995
1996
1997
1998
1999
2
20
200
2000
20000
2001
2002
2003
2004
2005
2006
2007
2008
2009
201
2010
2011
2012
2013
2014
2015
2016
2017
2018
2019
202
2020
2021
2022
203
204
205
206
207
208
209
21
210
211
212
213
214
215
216
217
218
219
22
220
221
222
223
224
225
226
227
228
229
23
230
231
232
233
234
235
236
237
237227
238
239
24
240
241
242
243
244
245
246
247
248
249
25
250
251
252
253
254
255
256
256507
257
258
2586178
259
26
260
261
262
263
264
265
266
267
268
269
27
270
271
272
273
27302
274
275
276
277
278
279
28
280
281
282
283
284
285
286
287
288
289
29
290
291
292
293
294
295
296
297
298
29861311
299
3
30
300
3000
301
302
303
304
304037
305
306
307
308
309
31
310
311
312
313
314
315
316
317
318
319
32
320
321
322
323
324
325
326
327
328
329
33
330
331
332
333
334
335
336
337
338
339
34
340
341
342
343
344
345
346
347
348
349
35
350
351
352
353
354
355
356
357
358
359
36
360
361
362
363
364
365
36578
366
368
37
370
373
375
376
377
378
379
38
380
384
385
386
387
39
390
394
396
399
4
40
400
4000
401
402
403
404
406
407
41
410
412
415
416
418
42
421
422
423
424
427
429
43
430
432
433
435
44
440
441
442
448
45
450
455
456
457
46
460
461
463
464
464633
47
472
48
480
482
488
4888
489
49
490
491
492
495
496
5
50
500
5000
505
5061737
507
509
51
510
511
52
520
521
525
528
53
530
531
5375741
54
541
544
545
54837
55
550
555
56
57
570
571
575
58
580
582
59
590
6
60
600
605
608
61
617
62
620
63
630
64
641
65
650
66
67
670
68
680
69
7
70
700
71
72
73
74
75
750
7555
759
76
769544
77
78
79
7934
8
80
800
81
82
8212
825
83
83552
84
85
850
86
87
88
89
9
90
900
91
92
93
94
95
96
963
97
978
98
980
99
:
;
<
=
>
?
@
[
\
]
^
_
`
a
aa
aaronsohnia
ab
abbreviata
abbreviatum
aberrans
about
ac
acacallis
acad
academic
academy
acampe
acanthephippium
acaulis
accepted
acht
acianthera
acianthus
acineta
ackermania
aconitoides
acostaea
acriopsis
acrolophia
acta
acte
aculeata
acuminata
acuminatum
acuminatus
ad
ada
adah
adams
adansonia
adenoncos
adrianae
ae
aegean
aemula
aerangis
aeranthes
aerides
affinis
aframomum
africa
african
africana
afrika
aganisia
agathis
aglossorrhyncha
agric
agrostophyllum
ah
aha
ai
aiello
ailanthus
ainu
ajania
ak
al
alata
alba
albiflora
albopurpurea
album
aleksandr
alexander
algeria
alibertia
all
allen
allenii
alp
alphabet
alpina
alpinia
alps
alstroemeria
alta
altensteinia
alticola
altissima
alvaradoa
am
ama
amabilis
amazonica
amboinensis
ambon
ame
amen
amer
america
american
americana
ames
amesiella
amharic
amitostigma
amoena
amparoana
amsterdam
an
anacamptis
anathallis
anatolica
anceps
ancipitia
ancistrorhynchus
and
andreetta
andreettae
androcorys
ang
angela
anggun
angraecopsis
anguloa
angustifolia
angustilabia
ann
annamensis
annona
anoectochilus
anomala
antennifera
anthoceros
anthropophora
antilla
ao
aore
ap
aphelandra
aphrodite
aphylla
apiculata
apifera
apoda
apostasia
appendicula
appendiculata
applanata
ar
ara
arabian
arachnis
arachnites
arachnitiformis
arachnitis
araneola
araucaria
arba
arbor
arch
archive
archives
arcuata
are
arenaria
arenas
arfakensis
argentina
argolica
aristata
ark
armeniaca
arn
arnold
aromatica
around
arq
art
article
articles
articulata
artists
arts
arundinacea
as
ascendens
ascocentrum
ascoglossum
asia
asiat
aspasia
aspidogyne
assam
assamese
association
aster
asteriscus
asteroid
asteroidal
asteroids
astronium
at
ata
atlantica
atlas
atropurpurea
atrorubens
attenuata
atu
atwood
au
aubl
auct
audio
aulosepalum
aurantiaca
aurantiacum
aurea
aurelia
auriculata
aurita
aurorae
austral
australia
australis
auxopus
av
aver
averrhoa
averyanova
avicennia
avis
aw
awards
ay
aymara
aymoninii
az
azerbaijan
b
ba
bailey
baill
baker
bal
balanops
balansae
bale
baleares
balsamorhiza
banks
barb
barbata
barbosella
barkeria
barlia
barros
bartl
basa
basic
basiphyllaea
baskervilla
bat
bateman
batemannia
bates
baumann
bay
bayerische
bb
bbc
bc
bd
be
beccarii
beih
bella
bellas
bello
beloglottis
bengal
benn
bennettii
benth
benthamia
berbif
bergia
berlin
bertolonii
bes
best
bf
bh
bi
bianch
bible
bibliographisches
bibliography
bibliothe
bicallosa
bicarinata
bicolor
bicornis
bifida
biflora
bifrenaria
bijdr
biloba
bilong
bio
biol
bipinnula
bir
biscutella
bl
blatt
bletia
bletilla
blica
blog
blong
blume
bnf
bo
body
bogor
bojer
bol
bolivia
boliviensis
bolus
bolusiana
bombyliflora
bonnet
bonpl
bonplandia
book
books
borbonica
borhidi
borneensis
borneo
bosser
bot
botswana
bouvardia
br
brachiata
brachionidium
brachychiton
brachypeza
brachystele
bracteata
brade
bradea
bradei
brand
bras
brasil
brasiliensis
brassavola
brassia
brazil
bremek
brenesia
brevifolia
brevipes
brief
brit
britannica
brockhaus
bromheadia
broughtonia
browne
brownii
brownleea
browser
brunnescens
bryceana
bu
buch
buchtienia
buchtienii
budapest
buitenzorg
bulbosa
bull
burns
burundi
butcheri
by
byrne
c
ca
cadetia
caesarea
caespitosa
caladenia
calanthe
calcarata
calceolaris
callitris
calocedrus
calopogon
calvin
calypso
calypsus
cambridge
cameroon
campacci
campylocentrum
camus
can
canaliculata
candica
candida
candidate
candidum
canthium
cantonese
cape
capensis
caribbean
caricifolia
carinata
carnea
carnevali
carpathians
carr
carrii
caryocar
casasia
castro
casuarina
catalana
catalpa
catasetum
catling
cattleya
caucaea
caucasus
caudata
caularthron
caulescens
cav
cc
ce
cebuano
celebica
celtic
cenisia
cent
center
central
centralbl
centroame
century
cephalanthera
cephalantheropsis
cephalanthus
cephalotes
ceratandra
ceratostylis
cernua
ch
cha
cham
chamaecostus
chamaegastrodia
chamorro
chase
chch
cheilocostus
cheirostylis
chen
cheyenne
chi
chiapas
chiloglottis
chilopogon
chiloschista
china
chinensis
chinese
chiron
chlorantha
chondrorhyncha
christenson
christian
chron
chrysantha
chrysanthemum
chrysobalanus
chrysocycnis
chrysoglossum
chu
chysis
chytroglossa
ci
ciliaris
ciliata
ciliolata
cinnabarina
cirrhaea
cite
citharexylum
citrina
citrus
city
ckbr
clandestina
clareae
clausa
clavata
clavicornis
clavigera
cleistogama
clem
clifton
clowesia
cm
co
coccinea
cochinchinensis
cochleanthes
cochlearis
cochleata
cochlioda
coelia
coerulea
cogn
coilostylis
collection
collina
colombiana
colon
colorata
colubrina
com
comber
comm
common
community
comosa
compacta
companion
companions
comparative
comparettia
comprehensive
compressa
computing
concinna
concolor
condorensis
confusa
congesta
congo
congressus
conopsea
cons
contact
contacts
content
contr
cook
cooperi
corallorhiza
cordata
cordem
cordifolia
cordigera
coriacea
corneliana
cornuta
correa
correll
corse
corsia
coryanthes
corybas
corycium
corymborkis
cosmos
costaricensis
costus
course
craib
crassicaule
crassifolia
crassilabia
cree
creek
cremastra
creole
crete
cretica
cribb
crimea
crinita
crispa
cristata
croatia
crocodeilanthe
croix
cryptantha
cryptarrhena
cryptocentrum
cryptostylis
ctenolophon
cu
cuatrec
cuba
cubensis
cucullata
cultural
culture
cumi
cuneata
cunninghamii
cupania
curcuma
curranii
cuspidata
cyanea
cyclopogon
cycnoches
cymbidiella
cymbidium
cynorkis
cypripedium
cyrtopodium
cyrtostylis
d
da
dacrydium
dactylorhiza
dah
dahlia
daily
dalessandroi
dalstro
dalstroemii
danesch
dansk
das
data
database
david
dc
dd
de
dea
debilis
decem
decipiens
deckinga
decora
deduced
deg
dek
del
delforge
delile
den
dendrobium
dendrochilum
dendrophylax
densiflora
dentata
denticulata
der
des
description
desf
deutsch
deutsche
development
devillers
dh
di
dia
dialect
dic
dichaea
dichromanthus
dici
dictionaries
dictionary
didactylus
didymoplexis
die
dietr
digital
diin
dilatata
dili
dimocarpus
dinka
diodia
diplocaulobium
dipodium
dipterocarpus
disa
discolor
discovery
discussion
disperis
distans
diuris
divaricata
do
dockrill
dockrillia
documents
dod
dodson
dodsonii
doi
dombeya
domingensis
domingoa
dominican
don
donn
doritis
dos
downie
download
downloadable
dr
dracontia
dracula
drakaea
drakensberg
dream
dressler
dresslerella
dressleri
dressleria
drumana
drummondii
dryadum
drymoda
dsee
du
dua
ducke
duckeella
duet
dui
dunst
dunstervillei
dunstervilleorum
duo
duque
durand
duranta
durio
dusenii
dutch
dutra
dva
dz
e
ea
earina
east
eastern
ebo
eburnea
ec
echinacea
econ
ecornuta
ed
edinburgh
edition
eds
edu
edulis
edwards
ee
een
eesti
effusa
ei
ek
ekmanii
el
elata
elatine
elatum
electronic
elegans
elegantula
elettaria
elf
elfdalian
elliptica
elmeri
elongata
elongatia
elongatum
emarginata
embreei
emc
en
enc
enciclope
enciklopedija
encyclopædia
endangered
endara
endl
endres
eng
engl
england
engler
english
engon
entry
ephemeris
ephippium
epiblastus
epidendrum
epigeneium
epipactis
epipogium
equestris
equinum
er
erecta
eria
ericales
eriochilus
erl
eros
erosa
erubescens
es
escobar
escobariana
escobarii
esd
esmeralda
especie
espejo
est
estado
et
ethiopia
ethnologue
etruscan
eu
eugenia
eugenii
eulophia
eulophiella
eur
europe
european
euterpe
ewe
ex
exaltata
excelsa
exigua
exilis
eximia
ez
f
fa
facts
falcata
falcatifolium
family
fan
fargesii
fasciata
fasciculata
fawc
fe
fenno
fenua
ferr
ferruginea
ferrum
ff
fi
file
filifolia
filiformis
fimbriata
finet
finnisch
finno
finugor
firmament
firmiana
first
fitzg
fl
flabellata
flaccida
flava
flavescens
flavum
fleischm
flexuosa
flickingeria
flora
floribunda
florida
fm
fo
focke
foldats
foliosa
folk
fon
fonts
for
forbes
foreign
formerly
formosa
forrestii
forst
fortunella
forum
foto
fouquieria
fowlie
fr
fractiflexa
fragrans
franc
france
franch
frapp
free
french
frey
from
fu
fuchsii
fuciflora
fukuy
fula
fulva
funk
funkiella
fusca
fyrigeva
g
ga
gabriela
gaertn
gagnep
galeandra
galearis
galeata
galeola
galeotti
garay
garayi
gard
gardneri
garganica
garo
gastrochilus
gaudich
gawl
gay
gazeta
gb
ge
gen
gene
general
gentryi
genyorchis
geophyte
george
gerais
gerlach
german
germany
gg
gh
ghillanyi
gi
gibbosa
gibbs
gibbsiae
gigantea
gigas
gilli
glabra
glandulosa
glauca
globosa
glomera
glumacea
gnd
go
god
gode
gomphichis
gongora
gonza
goodyera
google
gordonia
gott
gov
govenia
government
gracile
gracilipes
gracilis
gracillima
graminea
graminifolia
graminoides
grammar
grammatical
grammatophyllum
grande
grandiflora
grandiflorum
grandiflorus
grandifolia
grandis
graveolens
gray
greenw
griff
griffithii
griseb
group
gsater
gu
guarani
guarianthe
guatemala
guatemalensis
guettarda
guianensis
guide
guihaia
guillaumin
guinea
gujarati
guttata
guyana
gymnadenia
h
ha
habenaria
hagsateri
hai
hainan
hainanensis
haiti
haitian
halconensis
halesia
halle
ham
hamar
hamburg
hamelia
hamer
hand
handbook
hannover
hapalorchis
har
hartwegii
harv
harveyana
has
hashim
hasta
hat
hatschbachii
hausa
hawkes
hayata
he
heart
hedychium
heldreichii
helleborine
heller
helleri
helsingfors
helsinki
hemipilia
hemsl
henriquezia
henryi
herb
heringeri
heritage
hermans
herminium
herrerae
hertel
herzogii
hespenh
heterophylla
hexalectris
hexandra
hexisea
hh
hi
higgins
high
hiligaynon
hills
himalaya
himalayas
himantoglossum
hirsuta
hirta
hirth
hirtz
hirtzii
hispida
hist
history
hmong
ho
hochr
hochst
hoehne
hoehnea
hoehnei
hoeijeri
holcoglossum
holoserica
holosericea
holothrix
holttum
home
hook
hooker
hookeri
hookeriana
hopi
hopper
houlletia
houston
how
href
hrsg
htm
html
http
https
hu
huatl
humbertii
humboldt
humilis
hung
hunt
huntleya
i
ia
iauc
ic
ice
icelandic
icon
id
ida
ie
igbo
ii
iii
ik
iki
il
ila
ill
im
image
images
imbricata
imdb
imitans
in
ina
inaequalis
incarnata
incertae
includes
including
incubacea
ind
indes
index
india
indian
indiana
indica
indo
indonesia
ined
inflata
info
inform
information
ing
insectifera
insignis
inst
institut
institute
insularis
inteenau
integra
interactive
interlingua
intermedia
intermedium
international
internationalis
internet
introduction
inuktitut
io
iota
ipsea
ir
iran
iricolor
is
isa
isabelia
isamaa
isbn
isht
island
islands
isochilus
israel
issn
it
italian
italica
italy
iti
its
itu
iu
iv
ix
ixora
iz
iza
izhma
iı
j
ja
jack
jacq
jacquinia
jahrb
jakarta
jamaica
jan
janeiro
japonica
jard
jaruun
java
javanica
je
jean
jeanes
jeg
jenny
jeux
jh
ji
jimdo
jini
jj
jo
johan
johanss
john
johnsonii
johnston
jones
jost
journal
jpg
jpl
ju
jumellea
jupiter
juss
jɛ
k
ka
kabyle
kaempferia
kaks
kala
kalaallisut
kalliope
kam
kan
kaniensis
karjala
karjalan
karst
kasahorow
katangensis
kautskyi
ke
keay
keck
kegeliella
kegelii
ker
kernow
ket
keteleeria
kew
keyboard
khasi
khkh
khuzdul
ki
kinabaluensis
king
kingii
kinyarwanda
kiribati
kirundi
kittr
kk
kleopatra
klotzsch
km
kmaq
kmeria
knowles
ko
koch
koellensteinia
kom
komi
komiinform
komikyv
komimu
kore
kores
korth
kosack
kp
kraenzl
kraenzlinella
krameri
krause
kreodanthus
kreutz
krio
ks
ku
kua
kuhlhasseltia
kulom
kunth
kuntze
kuratov
kurdish
kus
kwazulu
l
la
lab
labill
lacaena
laciniata
ladino
laevis
lagerstroemia
lakota
lam
lamb
lamellata
lanceolata
lancifolia
lancilabris
land
lang
language
languagegeek
languages
langue
lankesteri
lantz
lapponica
larsen
latifolia
latifolium
latilabris
latino
latipetala
laubenfels
laura
lauterbach
laxa
laxiflora
le
leaders
leafl
learn
learning
lecanorchis
ledermannii
lehm
lehmannii
lenu
leochilus
lepanthes
lepanthopsis
lepo
leptotes
leroy
les
lesser
lessons
leucantha
lewis
lex
lexicon
leyte
lez
lf
li
lia
libocedrus
library
licania
life
lightcurve
ligulata
ligurian
lilacina
lima
limbata
limprichtii
lin
linden
lindenii
lindl
lindley
lindleyalis
lindleyana
line
linearifolia
linearis
ling
lingala
lingua
linguistic
linguistica
linguistics
link
links
linn
linnaea
linus
linux
liparis
liquidambar
list
listera
literary
literature
lithocarpus
liu
livida
lj
ll
lli
lo
lobata
lockhartia
lodd
loddigesii
loefgr
london
long
longibracteata
longicauda
longicaulis
longicornu
longiflora
longifolia
longifolium
longilabris
longipes
longissima
lonsum
los
lour
love
low
lowii
lu
lucht
lucida
lucksom
lueddemannia
lueddemanniana
luer
luisia
lutea
luteola
luxembourg
luzon
lv
lycaste
lycomormium
m
ma
maas
maboroensis
macedonian
macodes
macra
macrantha
macrophylla
maculata
maculatum
maculosa
madagascar
madagascariensis
maek
mag
magazine
magnifica
magnolia
magnoliopsida
maguire
magyar
mai
mail
main
maingayi
majalis
major
makino
mal
mala
malagasy
malawi
malaxis
malay
malaya
malayan
malesherbia
malo
malta
maluku
mammea
mammosa
man
mannii
mansf
maori
map
maranta
marathi
marcantonio
marginata
mari
maria
maritima
mark
marseille
marshallese
marshallia
mart
martius
masam
mascula
masiwa
materials
mau
maxillaria
maxima
mazz
mb
mba
me
media
medinae
medit
mediterranean
meiracyllium
meitei
mem
mende
mendozae
menezes
merr
merrill
merrillii
mes
mesadenella
mesadenus
mesua
metasequoia
metung
mexicana
mexico
mey
mez
mi
michelia
micrantha
micranthum
microchilus
microglossa
microphylla
microphyta
microtis
middle
mil
milia
milion
mill
mille
miltonia
miltoniopsis
min
minahassae
minas
mindanao
minima
minor
minutiflora
mio
mipela
miq
mirabilis
miranda
mirongo
mis
misc
missouri
mit
mitragyna
mm
mme
mne
mnras
mo
model
modern
modesta
mohawk
mollis
molloy
mon
monogr
monomeria
monophylla
monosepalum
montana
montanum
monticola
montis
moon
moore
moorei
mora
more
morinda
morio
morisii
mormodes
mormolyca
moscosoa
movie
moya
mozambique
mpumalanga
mt
mu
mucronata
muell
muelleri
multiflora
multitree
munzinger
mus
muscicola
museum
music
mute
mw
my
mya
myanmar
myoxanthus
myrmechila
myrmechis
myrmecodia
myrmecophila
myrtifolia
mystacidium
myths
mytnik
n
na
nachtr
nagam
nakai
nam
name
names
nana
narod
nas
nasa
nat
natal
national
nationalbibliothek
nationale
native
natl
nau
nauclea
navajo
nbrkomi
nc
nd
nda
ndi
ne
neapolitan
ned
nees
neglecta
nelson
nem
nematoceras
nemorosa
neo
neofinetia
neottia
neottianthe
nepali
nephelaphyllum
neptune
nervilia
nervosa
nes
net
neudecker
neuwiedia
new
news
nfelder
nfronte
ng
nga
ngbangbo
ngng
ngo
nha
ni
nia
nicholls
nigeria
nigra
nigrescens
nigritella
nin
nitida
nivalis
nivea
nj
nkele
nn
no
nobilis
noi
nom
non
nord
nordic
noroeste
norse
norte
north
northern
nos
nostr
not
notes
nothofagus
nothosubsp
notul
notylia
nou
nov
nova
nove
novial
now
ns
nu
nuda
nula
nus
nutans
nw
ny
nytimes
o
oaxaca
oberonia
object
oblanceolata
oblonga
oblongifolia
obovata
obscura
observatory
obtusa
occidentalis
occultation
ochracea
ochreata
octomeria
od
odontoglossum
odontorrhynchus
odorata
odoratissima
oe
oeste
oestrifera
of
official
officinalis
og
ohu
ohwi
oi
ojibwe
ok
ol
olac
old
oli
oligantha
oliv
oliver
olympics
olympiques
omegaifera
omniglot
on
ona
oncidium
one
online
ono
ons
onze
oo
opera
ophiopogonoides
ophrys
oppositifolia
or
orbicularis
orbit
orbital
orch
orchid
orchidaceae
orchidee
orchids
orchis
oreophila
org
ori
orientalis
oriya
orleanesia
ormerod
ornata
ornithocephalus
ornithochilus
oromo
orqui
orquideologia
ortiz
os
osmanya
osteospermum
other
otia
otostylis
otto
otuz
ou
ouest
our
ovalifolia
ovalis
ovata
p
pa
pabst
pabstii
pachyglossa
pachyphylla
pachyphyllum
pachypodium
pachystachys
pacific
page
pakistan
palawensis
pallens
pallida
pallidiflavens
paludosa
palustris
pan
panafrican
panafril
panama
panamensis
pandurata
panero
paniculata
panisea
panj
pantl
paper
papers
paphinia
papiamentu
papilio
papilionacea
papilionanthe
papillosa
papuana
paradoxa
paraguay
parana
paranaensis
paraphalaenopsis
pardona
paris
parish
parishii
parma
part
parva
parviflora
parviflorum
parvifolia
parvilabris
parvula
passionis
patens
patula
pauciflora
pauciflorus
paul
paulo
paulownia
paulus
pav
pavetta
paxton
pdf
pe
pectinata
pedersen
pedilochilus
pedunculata
pen
pendens
pendula
penicillata
peninsula
pentapetes
pentas
people
peoples
peristeria
permculture
perpusilla
perrier
perrieri
pers
persian
person
persona
personen
peru
peruviana
peruvianum
peter
petersburg
petiolata
petit
petroskoi
pez
pfavii
pfitzer
ph
phaius
phalaenopsis
philipp
philippinense
philippinensis
philippines
pholidota
phonology
php
phph
phragmipedium
phrasebook
phreatia
phyllocladus
phytologia
phytotax
pi
picta
pierre
pile
pilifera
pilosa
pinus
piperia
pisin
pit
pityphyllum
pl
planch
planet
planets
plantaginea
platanthera
platystele
pleione
pleurothallis
plicata
plocoglottis
plumosa
plus
png
po
podocarpus
podochilus
poepp
poetry
pogonia
poir
polyantha
polycycnis
polygonoides
polystachya
pomatocalpa
ponerorchis
ponthieva
popayanensis
popul
population
por
porroglossum
portilla
portillae
porto
powellii
pp
practical
praecox
praemorsa
prasophyllum
prayer
presl
press
pridgeon
prince
pringlei
pro
proc
prodr
profile
project
prolifera
promontorii
pronunciation
proposal
prorepentia
prosthechea
prostrata
protea
prov
provincialis
pseuderia
pseudobertolonii
pseudolaelia
pseudovanilla
psychilis
psychopsis
pt
pteroglossa
pterostylis
pu
pub
puberula
pubescens
publ
publishers
pulchella
pulchellus
pulcherrima
pulchra
pulchrum
pullei
pumila
pumilum
punctata
punctulata
punjabi
pupulin
purpurascens
purpurata
purpurea
purpurella
purpureum
pusilla
pw
pygmaea
pyramidalis
pyrenees
q
qangara
qian
qq
qu
quadriloba
quatro
que
queensland
quekettia
qui
quisqueya
quisumb
r
ra
racemosa
radiata
radio
raf
rami
ramosa
ramosii
ramulosa
rao
raw
rchb
rd
re
record
recurva
ref
reference
reflexa
reg
reginae
regni
regno
reichenbach
reichenbachiana
reinholdii
reinw
reipubl
remota
renanthera
rendle
renz
reo
rep
repens
repert
report
reptans
repu
republic
republika
res
research
resources
respublika
restrepia
reticulata
retusa
rev
revoluta
rez
rh
rhellicani
rhipogonum
rhizanthella
rhynchophreatia
rhynchostylis
rhytionanthos
ri
rica
rich
ricii
ridl
ridsdale
rigida
rin
ringens
rio
riparia
rkomi
rmaz
rn
ro
robert
robinsonii
robiquetia
robusta
robyns
rochev
rodr
rodrigoi
rodriguezia
rogers
rolfe
rom
roma
romero
roscoe
roscoea
rosea
rosetta
roseum
rosillo
rostellata
rostrata
rotundifolia
rouse
roxb
roy
royen
rr
rt
rterbuch
ru
rua
ruan
rubble
rubens
rubra
rudolfiella
ruiz
rumantsch
rupestris
rupicola
rupp
rusby
russia
russian
rutk
s
sa
saami
sabal
sabu
saccata
saccoglossum
saccolabium
sada
sakai
salazar
salisb
salpistele
salvador
sam
sanderiana
sango
sanguinea
sanskrit
santa
sanu
sapindus
sarcochilus
sarcoglottis
sarcophylla
sarcostoma
sardegna
sata
satellites
satyrium
sauleda
sauroglossum
saxicola
saxon
sc
scandens
scaphosepalum
scaphyglottis
schedul
schelpe
schiedeella
schilleriana
schinopsis
schlechter
schlechteriana
schlimii
schltdl
schltr
scho
schomburgkia
schott
schuit
schult
schultzei
schum
schumann
schutzgeb
schweinf
sci
scolopax
scopulorum
script
scriptum
scuticaria
se
searchable
second
sect
section
secunda
sedis
sei
seidenf
seis
selbyana
sem
senghas
sent
ser
serapias
series
serrulata
sertifera
service
ses
sessiliflora
sessilis
set
sex
sh
sha
shape
sherff
sherpa
sheviak
showobject
shtml
si
sia
siamensis
sibelius
siberia
sicilia
sicula
sievekingia
sigmoidea
sijm
sijmii
sil
silvae
silvana
silverstonei
simarouba
simia
similis
simplex
simulation
sin
sindhi
sine
singapore
sinhala
sip
sis
site
situation
siu
six
skeptrostachys
sketch
skinneri
sls
sm
small
smaragdina
smithii
snac
so
sobralia
soc
society
sociolinguistic
software
sol
solano
sole
some
son
sond
song
soo
sophora
sophronitis
soto
sound
sourashtra
south
southeast
southern
southwest
sp
spaeth
spain
spanish
sparsiflora
spathoglottis
spathulata
speak
spec
species
speciosa
specklinia
spectabilis
sphegodes
spicata
spilotantha
spiralis
spiranthes
spitzelii
splendens
splendida
spoken
spondias
sport
spreng
spruce
sprucei
spruneri
squez
ss
ssp
st
sta
staatsbibliothek
standard
standl
stanhopea
stapf
states
station
statistics
stelis
stellaris
stellilabium
stenia
stenopetala
stenophylla
stenoptera
stenorrhynchos
stereosandra
stevensonii
steyerm
steyermarkii
stimson
sto
storm
story
strelitzia
streptopetala
striata
stricta
structure
studies
study
stylobasium
su
sua
subgenus
subsection
subsp
subtribus
subulata
suc
sud
sudan
sudeste
sul
sulawesi
sulcata
sulphurea
sulvi
sum
sumatra
sumatrana
summer
summerh
sunda
superba
superbiens
sur
surame
suriname
sw
swadesh
swahili
sweet
swingle
syktnet
syktyvdin
syktyvdincbs
syllabary
sylvatica
sylvestris
sylvia
symplocos
syn
synonym
syriac
sysbibl
syst
system
sz
szlach
sɔ
t
ta
tagalog
tahi
tai
tainia
taiwan
tallinn
talpinaria
tamazight
tan
tang
tanzania
tartu
taxon
tdil
te
teaching
teaguei
teatr
ten
tenella
tentaculata
tenthredinifera
tenuifolia
tenuis
teres
terra
tersch
testacea
tetragona
tetramicra
teuscheria
text
texts
th
tha
thailand
thailandica
the
thecostele
thelymitra
thiele
thomas
thouars
thrixspermum
thu
thunb
thunbergia
thunia
thwaites
ti
tibet
tibetan
tiessen
tigjus
tigrina
tigrinya
til
time
times
tipo
tipularia
tirveng
title
titus
tlingit
to
tocharian
tod
today
tok
tolu
tolumnia
tomentosa
tong
tongan
tools
torricellensis
toscano
toxicodendron
tra
track
trans
translation
translator
transvaal
traunsteineri
tre
trenta
tres
trevoria
tri
triandra
trias
tribe
tribus
trichocentrum
trichoglottis
trichosalpinx
trichotosia
tricolor
tridens
tridentata
trifida
trigonidium
triloba
trilobata
trimen
trinidad
triphora
trisetella
trop
tropical
tropidia
trulla
trullifera
truncata
truncicola
ts
tsi
tsogang
tsubotae
tt
tu
tua
tuber
tuerckheimii
tuhat
tulu
tun
tunka
turcz
tuyama
twa
twi
two
type
tz
tʃ
u
ua
ucla
ucoz
ue
ug
ugric
ugristarum
uhnoe
uhnvirau
ui
uliginosa
uluni
um
umbellata
umbilicata
un
uncatum
unciferia
und
undulata
une
ungar
unguiculata
uni
unicode
uniflora
unifolia
union
united
university
uno
unspecified
unu
uralic
uralica
uranus
urb
urban
url
urvilleana
us
usa
use
ust
utriculata
uu
uvaria
v
va
vad
vaginata
vai
valeton
valida
van
vanda
vandopsis
vangueria
vanilla
vanoverberghii
vanuatu
var
variabilis
variegata
variegatum
vasquezii
ve
veg
vell
velutina
venetian
venez
venezuela
venezuelana
veni
venosa
venusta
veracruz
verb
verdc
verlag
verm
vernixia
vernonia
verrucosa
versicolor
verticillata
verticordia
vesta
vestita
vi
via
vier
vietnam
view
vii
viii
vikhondi
villosa
vinacea
vint
vinte
vinti
violacea
virescens
virginalis
viridiflora
viridis
vit
vittata
vo
vocabulary
vogel
vol
volapu
von
vos
votr
vulpes
vus
vv
vy
w
wa
wageneri
wall
wallichii
wallisii
walpers
wan
wang
waray
wardii
wariana
warm
warmingia
warsz
warszewiczii
watson
wc
we
web
weber
website
webster
welw
welwitschii
wendl
wenzelii
werneri
wernham
west
westc
western
what
white
whitney
wi
widdringtonia
wien
wight
wiki
wikidata
wild
will
willd
williams
williamsii
winter
wissen
with
wo
wolfgang
wolof
wong
wood
word
words
world
writer
writing
wu
ww
www
x
xa
xi
xii
xiii
xiv
xix
xn
xu
xv
xvi
xvii
xviii
xx
xxi
xxii
xxiii
xylobium
y
ya
yauaperyensis
yav
ye
yi
yn
yo
yoania
york
yoruba
you
your
yrjo
yu
yumi
yunnan
yunnanensis
yy
z
za
zambia
ze
zelenkoa
zero
zeuxine
zh
zi
zimbabwe
zinnia
zo
zollingeri
zootrophion
zu
zucc
zur
zwei
zygopetalum
zygostates
zz
{
|
}
~
«
­
°
±
²
³
´
·
¹
»
½
×
ß
ßß
æ
ææ
ð
ðð
ø
øø
þ
þu
þþ
đ
đđ
ħ
ħħ
ı
ĸ
ł
łł
ŋ
ŋŋ
œ
œœ
ŧŧ
ƀƀ
ƃ
ƈƈ
ƌ
ƒƒ
ƕƕ
ƙƙ
ƚ
ƚƚ
ƣƣ
ƥƥ
ƭƭ
ƴ
ƴƴ
ƶ
ƶƶ
ƿƿ
ǀxam
ǝ
ǝǝ
ǥ
ǥǥ
ȝȝ
ȣ
ȣȣ
ȥȥ
ȼȼ
ȿȿ
ɀɀ
ɇɇ
ɉɉ
ɋɋ
ɍ
ɍɍ
ɏɏ
ɐ
ɐɐ
ɑ
ɓ
ɓɓ
ɔ
ɔɔ
ɕ
ɖɖ
ɗ
ɗɗ
ɘ
ə
ət
əə
ɛ
ɛɛ
ɜ
ɞ
ɟ
ɠ
ɠɠ
ɡ
ɢ
ɣ
ɣɣ
ɤ
ɥ
ɥɥ
ɦ
ɦɦ
ɨ
ɨɨ
ɩ
ɩɩ
ɪ
ɫ
ɫɫ
ɬ
ɬɬ
ɮ
ɯ
ɰ
ɱɱ
ɲ
ɲɲ
ɴ
ɵ
ɵɵ
ɸ
ɻ
ɽ
ɽɽ
ɾ
ʀʀ
ʁ
ʂ
ʃ
ʃʃ
ʇʇ
ʈ
ʈʈ
ʉ
ʉʉ
ʊ
ʊʊ
ʋ
ʋʋ
ʌ
ʌʌ
ʍ
ʎ
ʏ
ʐ
ʑ
ʒ
ʒʒ
ʔ
ʔɂ
ʕ
ʝ
ʝʝ
ʟ
ʣ
ʦ
ʧ
ʰ
ʲ
ʷ
ʹ
ʻ
ʼ
ʾ
ʿ
ˀ
ˆ
ˈ
ˊ
ˌ
ː
ːˌ
ˑ
ˑˈ
ˠ
˧
˨
ˮ
̀
́
̂
̃
̄
̆
̇
̈
̉
̊
̋
̌
̎
̏
̑
̓
̔
̘
̚
̛
̝
̞
̠
̣
̤
̥
̦
̧
̨
̩
̪
̭
̮
̯
̰
̱
͂
͜
͡
ͣ
ͤ
ͦ
ͱͱ
ͳͳ
͵
ͷͷ
α
αα
β
ββ
γ
γγ
δ
δδ
δε
ε
εε
ζ
ζζ
η
ηη
θ
θθ
ι
ιι
κ
κα
κκ
κοντα
λ
λλ
μ
μμ
ν
νν
ντα
ξ
ξξ
ο
οο
ου
π
ππ
ρ
ρρ
ς
σ
σια
σιοι
σσς
τ
τα
τε
ττ
υ
υυ
φ
φφ
χ
χχ
ψ
ψψ
ω
ωω
ϑ
ϕ
ϙ
ϙϙ
ϛ
ϛϛ
ϝ
ϝϝ
ϟ
ϟϟ
ϡ
ϡϡ
ϳ
ϳϳ
ϸϸ
ϻ
ϻϻ
а
аа
аб
абар
або
абрамов
абу
абуо
абхаз
абхазия
абхазияса
абъячои
авг
август
августа
аверкиевна
авиаперевозкаяс
авиацияса
авив
авилова
аврамов
австралия
австралияса
австралияын
австрия
австрияса
австрияын
авт
автобиографическо
автомат
автомашина
автомобиль
автономии
автономия
автономияа
автономно
автономныи
автор
авторах
автореф
авторло
авторов
авторъяс
авторъясло
авторъяслысь
авторыс
автотуи
авъя
агаси
агафья
агентство
агни
агния
адамович
аддз
аддзам
аддзис
аддзо
аддзыны
аддзысьло
аделаида
адзва
административно
администрации
администрация
администрацияло
администрацияо
адмирал
адольф
адрес
адыг
адыгеи
азбука
азербаи
азии
азия
азиял
азияса
азияын
азияысь
азияя
азот
аи
акад
академии
академик
академическ
академическо
академия
академиял
академияло
академиялысь
академияо
академияса
академияын
академияысь
акант
акись
акротири
акте
актинид
актов
актриса
акушерско
ал
аланд
албания
алгонкин
але
александр
александра
александров
александрович
александровна
александровіч
алексеевич
алексеевна
алексеи
алеут
алжир
али
ало
алтаи
алты
алфавит
аль
альберт
альбина
альманахъясын
альманахын
альпъяс
альстре
альфия
аляска
амазонка
амбулатория
америка
америкал
америкало
америкаса
америкаын
амман
амстердам
амур
ан
ана
анализ
анализа
анании
ананьиноса
анар
анараш
анастасия
анатолии
анатольевич
анатольевна
анбур
анбурло
анбуро
анбуръяс
анбуръясын
анбурын
ангелина
ангилья
англ
англии
англичан
англичанко
англия
англияса
англияын
англо
ангола
анголаын
андорра
андреас
андреев
андреевич
андреевна
андреи
андхра
анжелика
анисим
анисимов
анисимович
анкара
анна
аннибале
аннона
ансамбль
ансамбльло
ансамбльо
ансамбльын
антигуа
антил
антилопаяс
антициклон
антология
антон
антонида
антонина
антонов
антонович
антропологии
антропология
антус
ануфриев
ануфриева
ануфриевич
анфим
аныб
ань
аньяс
аньясло
ао
апогеи
апостол
аппалачи
апрель
ар
араб
арабскии
аравия
араукария
аргентина
аргентинаын
арестуи
арзамазов
арии
аркадии
арланьыс
арлыда
армения
арменияса
арменияын
армиаын
армия
армияас
армиялы
армияо
армияса
армияын
армияысь
армяна
арнас
аро
арсеньев
арся
арсянь
арт
артавсис
артавсьо
артало
артеев
артеева
артель
артельо
артист
артистка
артм
артманног
артмас
артмис
артмисны
артмо
артмы
артмыны
артур
аруба
архангельск
архангельско
архангельскои
археография
археолог
археология
архив
архивын
архивысь
архипелаг
архипович
арын
ас
асалан
асвеськ
асвесько
аски
аскиа
аско
асланыс
аслас
аслыныс
аслыс
аслысп
аслыспо
аслыссикас
аслыссяма
асму
аспект
аспирантало
аспирантура
аспирантурао
аспирантураын
ассам
ассистенто
ассоциация
асср
ассьыныс
ассьыс
аст
астероид
астероидло
астра
астрахань
астроном
астрономия
астрономъяс
асш
асшо
асшодъя
асъюралан
асъя
асыв
асывввыв
асыввыв
асыввывлань
асыввывса
асыввывсянь
асыввыл
асыввылас
асыввылын
асывнас
асьнымо
асьныс
асьнысо
асьс
асьсо
ася
ат
атлантика
атлантувса
атлас
атлетика
атмосфери
аттьо
ау
афанасии
афанасьев
афанасьева
афанасьевич
афганистан
афганистанын
афинъяс
африка
африкаанс
африкал
африкановна
африкаса
африкаын
ачым
ачыс
ашальчи
ашхабад
аэ
аэропорт
аэропортын
ая
б
ба
баб
баба
бабиков
бабин
бабина
бавлісны
багамаяс
багдад
бадь
бадье
баженов
баженова
бажуков
база
базао
базаыс
баи
баканов
баку
бакуса
бала
балалаи
баландин
баландина
баланопсъяс
балансо
балерина
балет
бали
балкар
баллада
балт
балтика
балтикабердса
балты
баля
бамана
бан
бангкок
бангладеш
бангладешын
бандар
банк
банкнотаяс
банту
бара
барабанъяс
барак
бараксанов
баракъяс
барбадос
барбуда
баренц
баржа
бартельми
бас
басняяс
басо
бассеи
батак
батале
баталов
баталова
батиев
батиево
батор
бать
батьло
батьсо
батьто
батьыс
бахреи
башкир
башкортостан
баян
бб
бдін
бдінса
бевое
бегаван
без
безносиков
безносикова
безносов
безопасносьт
беи
беларус
беларусь
беларусьса
беларусьын
белград
белиз
белка
белорус
белыи
белых
бельгия
бельгияын
беляев
бенгал
бенин
бенинын
бенуэ
бер
берба
берг
бергало
бергаліс
берго
берд
бердас
бердо
бердса
бердын
бере
берег
берегас
берего
берегын
березник
беринг
берлин
бермудаяс
берн
би
биа
биармия
биару
биатлон
библеи
библиографическии
библиография
библиотека
библиотекаро
библиотекаын
библия
бива
био
биобиблиогр
биобиблиографическии
биогр
биографии
биографическая
биографическии
биография
биологическо
биология
бипур
бир
бирма
бис
бисау
бисо
бихар
бишкек
бияс
благо
благовешенньо
благоев
блезянаяс
близько
блин
блог
блок
блокланд
бнкоми
бо
бобо
бобракова
бобслеи
бобув
бобувъясо
богданов
богомолов
богородицы
бодо
боево
божии
бои
бок
бока
бокас
боко
бокс
бокса
боксе
боксянь
боксяньыс
бокъяс
бокъясын
бокъясыс
бокын
бокыс
бокысь
бол
болгар
болгария
болгарияын
боливи
боливия
больничаын
большая
большевик
большевикъяс
большеземельско
большое
большои
большунов
бор
борган
борд
бордаяс
борди
бордъя
бордъяс
бордъяссо
борис
борисов
борисович
борнео
боро
бортом
босния
босняк
босьт
босьтан
босьтас
босьтло
босьтлісны
босьтны
босьто
босьтто
босьтчис
босьтчисны
босьтчо
босьтчысь
босьтысь
босьтіс
босьтісны
боталов
ботсвана
браз
бразив
бразилия
бразилияын
бразъяс
браи
братислава
братья
браун
брахми
брезон
бретт
бригада
бригадао
бригадаын
бригадир
британия
британияса
бритму
брокгауз
бронислав
брунеи
брэтт
брюсов
брюссель
бсср
бсэ
буб
бубрих
бугаев
будапешт
будет
будинос
будут
будущее
бужо
буи
букве
букур
було
булышева
бумага
бунт
бур
бура
бурако
бурд
бурджык
бурджыка
бурдин
бурдо
буретш
буржуазно
буркина
бурлыкина
бурмо
буро
буров
бурунди
бурят
бус
бутан
бутанын
буткан
буткина
бутырева
бухарест
бухгалтер
бушене
бушкола
бъяс
бъясо
бы
быд
быдлаті
быдлаын
быдм
быдмас
быдмис
быдмо
быдмыны
быдмысь
быдо
быдп
быдса
быдсикас
быдсяма
быдт
быдтан
быдтасъясыс
быдто
быдтор
быдтыны
быдтысигкежлас
быдтысьо
быдтысян
быдтісны
быковская
был
была
были
было
быр
бырис
бырисны
быро
быт
быто
бытть
быттьо
быть
бэи
бюджет
бюджетного
бюджетысь
бюроын
бюст
в
ва
ваа
ваас
вавилин
вавилов
вавывса
вагнер
вад
вадим
вадор
вадорас
вадорса
вадоръяс
вадоръясс
вадоръясын
вадоръясыс
вадорын
вадорыс
вадуц
вадывел
важ
важвыло
важгорт
важо
важся
важъя
важысянь
вазиристан
вазян
ваи
вак
валеи
валентин
валентина
валер
валериан
валерианович
валерии
валлетта
валлон
вало
валы
вальс
валя
вампиловло
ванеев
ванеева
ванкувер
вануату
вань
ваньо
ваня
вао
вапо
вар
вараи
вариант
варо
варшава
варыш
варышо
варышъяс
варышыс
вас
васа
васизь
василеи
василии
василиса
васильев
васильева
васильевич
васильевна
васо
вась
васька
васьло
васьлысь
васьо
васютов
вася
васянь
ватаманов
ватикан
ваувса
вахнин
вацлав
вачкыштало
ваш
ваын
ваыс
ваяло
вв
введение
введенньо
вдаль
веб
вевдорыс
вевт
вевтть
вевттьысь
вевтырто
вевъя
ведомости
ведомосьтъясын
ведушо
веж
вежа
вежадыр
вежаи
вежалун
вежалунсянь
вежев
вежис
вежисны
вежлало
вежласис
вежлась
вежласьо
вежло
вежны
вежо
вежов
вежова
вежон
вежоннас
вежоно
вежонын
вежонысь
вежсис
вежсь
вежсьо
вежтасыс
вежысь
вежысьо
вез
вези
веи
век
века
векджык
веке
векни
векньыдик
веков
вел
велало
великая
великии
велико
великои
великополье
вело
вель
велья
вена
венг
венгер
венгрия
венгрияса
венгрияын
венда
венера
венесуэла
вениамин
вень
веньло
веньо
вепс
вепсскии
вепсъяс
вер
вера
верба
верд
верде
вердны
вердо
верк
верко
верм
верман
вермас
вермасис
вермасны
вермасьо
вермис
вермисны
вермо
вермы
вермыны
вермысь
вермысьо
веро
вероника
версия
верст
верстьо
верстяммо
вертеп
вертоле
верхневычегодскии
верхнеи
верхнии
верхняя
верховного
верхолузье
весе
весенние
весиг
вестник
веськ
веськавны
веськал
веськало
веськаліс
веськалісны
весько
веськыд
веськыда
веськыдладорас
веськыдладорын
весьтас
весьтасъяс
весьто
весьтын
вет
ветас
ветеран
ветеранъясло
ветеринарно
ветл
ветлан
ветло
ветлы
ветлывло
ветлыны
ветлысь
ветлысьяслы
ветліс
ветлісны
ветник
ветнико
вето
ветошкин
ветошкина
ветса
ветск
ветско
ветъяс
ветъясло
ветъясо
ветымын
ветымыно
ветын
ветысь
ветью
вешенньо
веши
вешто
взводо
взводса
взгляд
ви
вид
видео
видз
видза
видзан
видзанін
видзанінын
видзисны
видзло
видзлісны
видзму
видзны
видзо
видзысь
видзысьо
видзысьяс
видзысьясло
видзьяс
видлавны
видлал
видлало
видлаліс
виж
вижаньяс
вижов
вижовго
виз
визин
визув
визувт
визувто
визувтысь
визувъяс
визывт
визь
визьо
визьыс
визьяс
визьяса
визя
вии
вик
викбо
википедия
виктор
виктория
викторович
виль
вильгельм
вильно
вильнюс
вильо
вильыш
вильям
вина
винла
виноватые
винсента
вины
вир
виргин
виртуальныи
вис
висер
висерса
висерын
висерысь
виск
вистина
висъяс
вись
висьмис
висьмо
висьо
висьт
висьтавліс
висьтавны
висьтавсьо
висьтал
висьтало
висьтасьо
висьтсо
висьтъяс
висьтъяссо
висьтъясын
висьтъясыс
висьтын
висьтыс
вит
виталии
витальевна
вито
витсе
виттор
витторло
витторлысь
витязева
вихман
вице
вичко
вичкоас
вичкобердса
вичкодор
вичколо
вичкоо
вичкос
вичкоса
вичкосо
вичкоын
вичкоысь
вичкояс
вичмо
виччысьо
виччысьто
вишера
вк
вкаи
вко
вкп
вкса
вл
владилен
владимир
владимирович
владимировна
владислав
влак
власов
власовец
власть
власьт
власьтлы
власьтъяс
власьтъяслы
влксм
вло
влыто
вм
вман
вмис
вмо
вмыны
внас
вны
во
воас
вог
воддза
водз
водзас
водзвылас
водзвылын
водзджык
водзкыви
водзкывсо
водзкывъяссо
водзм
водзмо
водзо
водзын
водзынджык
водзынсо
водню
водскии
водь
военачальник
военно
военноначальник
вож
вожа
вожае
вожо
вожса
вожъяс
вожъясын
вожын
вожысь
воздушно
возеи
возраста
возрождение
вои
воинско
воис
воисны
вок
вокал
вокализма
воко
вокруг
вокуев
вокъяс
вокыс
вол
волас
волга
волгадор
волгоград
волеи
волим
воло
вологда
вологодские
вологодско
вологодскои
володь
волосница
волосовоса
волоф
волся
волхов
волшебно
волывло
волывлісны
волысь
воль
вольно
вольсало
воляпук
воліс
волісны
вом
вомас
вомланьын
вомо
вомсянь
вомын
вомынбо
вомынъюр
вона
вонас
вони
воны
воо
вопросу
вопросы
воркута
воркутаса
воркутауголь
воркутаын
воробеи
воронеж
ворс
ворса
ворсан
ворсана
ворсантор
ворсанторъяс
ворсны
ворсо
ворсысь
ворсысьяс
ворсіс
восо
воспоминания
воссис
восстание
воссь
воссьо
востока
восточнои
восточных
воськовъяс
восьса
восьт
восьтны
восьто
восьтыны
восьтысь
восьтіс
восьтісны
вося
восянь
вот
вото
воторниксянь
воч
воча
вочасо
вош
воши
вошо
вошт
вошто
вошысь
воын
воыс
воысь
воя
воянь
вояс
воясас
воясо
воясса
воясся
вояссянь
воясын
вп
впало
впере
впъяс
врач
времен
времени
временно
время
вручил
вс
вса
все
всеволод
всеобщая
всероссии
всесоюзная
всех
вская
всо
встас
всто
вступ
вступит
встъяс
встын
встысь
всходы
всьо
вся
всянь
вто
вторая
второи
втюрина
ву
вудж
вуджан
вуджиго
вуджис
вуджисны
вуджны
вуджо
вуж
вужвои
вужи
вужкыви
вужъяс
вужъяса
вужъясьо
вузавлісны
вузавны
вузало
вузасьо
вузасьысьяс
вузасян
вузасянін
вузо
вуктыл
вулих
вулкан
вулканъяс
вундассь
вуно
вурдов
вцик
вчи
вш
вшо
въет
въяс
въясо
въясыс
вы
выборов
выв
вывлань
вывланьын
вывло
вывса
вывсо
вывсьыс
вывсянь
вывт
вывтас
вывтыр
вывтырыс
вывтырысло
вывті
выи
выл
выланыс
вылас
вылна
выло
вылын
вылынджык
вылыс
вылысас
вылысладорыс
вылысыс
вылысь
выль
выльгорт
выльгортса
вылькар
выльлунсянь
выльмо
выльо
выльтор
выльторъяс
выльтыдор
выльыб
выльыбын
выльысь
вымская
вымского
вымь
вын
вына
вынва
выни
вынсь
вынсьо
вынъясло
выныс
вып
выпуск
выру
выселок
выставка
выставке
высшего
вычегде
вычегды
вычегодская
вычегодскои
вышел
вьентьян
вьетнам
вьетнамын
вяи
вятка
вяткао
вятские
вячеслав
вячеславович
вячеславовна
від
г
га
габов
габова
габон
габушева
гаваи
гаврив
гавриил
гаврил
гаврилов
гаврилович
гаг
гагарин
гагауз
гаги
гагиева
гагра
гагшор
гагъясо
гадаи
гаж
гажа
гажлун
гажо
гажъяс
гажын
газет
газета
газетло
газето
газетса
газетъяс
газетъясло
газетъясын
газеты
газетын
гаи
гаин
гаинын
гаити
гал
гала
галадорас
галадорын
галгаи
галерея
галилеи
галина
галис
галмудуг
гам
гамбия
гамбияын
гамлет
гамса
гамын
гана
ганс
гантман
гапликов
гара
гараж
гаранин
гармонь
гаро
гарольд
гартч
гаръя
гарь
гарья
гас
гаспарис
гацак
гач
гашко
гваделупа
гвардия
гвардияса
гватемала
гвиана
гвинея
гвинеяын
гг
гда
гдао
гдаса
где
гдін
гдінын
геж
гежо
геи
гелии
ген
генерал
генерально
генеральному
гении
геннадии
генрих
гень
географ
географическо
география
геолог
геологическо
геология
геолого
георгиевич
георгиевна
георгиевско
георгии
георгия
герасим
герасимович
герд
герда
гереро
герман
германия
германияса
германияын
гернси
герои
героиня
героя
герцеговина
герцен
герцена
герцман
гершель
геч
гибнито
гибралтар
гидра
гиж
гижа
гижалан
гижало
гижаліго
гижан
гижанног
гижис
гижисны
гижло
гижліс
гижлісны
гижны
гижо
гижысь
гижысьло
гижысьлы
гижысьлысь
гижысьо
гижысьяс
гижысьясл
гижысьясло
гижысьяслы
гижысьяслысь
гижысьясо
гиз
гималаи
гималаяс
гимназия
гимназияын
гимнастика
гипс
гитара
гитис
гл
глава
главно
главное
главы
глагол
глаголов
гласн
гласных
глафира
гло
глысь
глэдман
глэдмэн
го
гобо
говорухина
гоголь
год
года
годах
годов
годом
году
годунов
годы
гож
гожи
гожо
гожся
гоз
гози
гознан
гозъя
головина
голосенко
гольдшмидт
гольфстрим
голяыс
гомель
гондурас
гонка
гонки
гор
гора
гораа
горань
горбаче
горбуновская
гордость
гореи
горинова
горно
горо
город
города
городского
горси
горт
гортаныс
гортас
горто
гортса
гортын
горув
горулын
горчаков
горчакова
горчаковло
горш
горькии
гос
госиздат
госпитальын
государственн
государственно
государственного
государственное
государственные
государственныи
государственных
государство
гоуд
гр
гра
грабежова
град
гражданалы
гражданин
гражданско
грамм
грамматика
грамматики
граммо
грамота
грамотао
гран
гранитысь
грановскии
граф
графика
гребенникова
грезд
грездас
грездко
грездло
грездо
грездс
грездса
грездсо
грездсянь
грездъяс
грездъясас
грездъяско
грездъясын
грездъясысь
грездын
грездыс
грездысь
грек
греко
грен
гренада
гренадинъяс
гренлан
гренланд
гренландия
греция
греч
грибова
грива
григории
григорьев
григорьевич
григорьевна
гриш
гро
гроза
груз
грузин
грузинскии
грузия
грузияса
грузияын
групи
группа
группаын
группы
грязнова
гса
гсо
гу
гуал
гуало
гуалісны
губернатор
губернии
губерния
губернияса
губернияын
губернияысь
губернские
губерня
губерняло
губерняо
губерняса
губерняын
губерняысь
гуджарати
гудо
гул
гулъяс
гулю
гулюяс
гуляев
гуляева
гуманитарно
гундыр
гур
гурье
гусли
гусьо
гуся
гусяним
гусянимъяс
гусятор
гут
гуш
гущин
гуын
гъяс
гъясло
гъяслы
гъяслысь
гъясо
гъясын
гъясыс
гъясысь
гы
гыд
гыжи
гыжъя
гылало
гым
гын
гыр
гырысь
гырысьджык
гырысьо
гырысьясыс
гыс
гысь
гыч
гыяс
гэс
гіганти
гігантів
д
да
даби
дав
давны
давыдов
дагестан
дагестанын
даддьо
даи
дакка
дакота
дал
дало
дальнего
далісны
дам
дама
дамаск
дан
дана
даниил
данилов
даниэль
дания
данияса
данные
данных
дантор
дань
данін
данінын
дар
дарас
даро
даръя
дарья
дас
дасны
дасо
дасысь
дась
дасьт
дасьтан
дасьто
дасьтыло
дасьтыны
дасьтысь
дасьтысьо
дасьтысьяс
дасьтысян
дасьтіс
дасьтісны
дат
даты
дбо
два
две
двина
двор
дворечын
двуж
двух
дд
ддельно
ддза
ддыри
де
деванагари
дед
деи
дек
декабря
декелия
декларация
дел
делаи
делегат
делегато
деление
дели
дело
делопроизводительо
дементьевич
демидов
демобилизация
демобилизируи
демографическии
демократическо
демократия
демьян
дене
дениз
денис
денисов
день
депутат
депутато
депутатов
депутатъяс
дер
дерби
дереванно
деревенскои
деревне
деревни
деревня
деревья
дерт
дет
детгиз
детеи
дети
детская
детскии
деятельности
дж
джакарта
джан
джанын
джараи
джаяварденепура
джеджим
джеи
джек
джен
дженьдо
дженьыд
дженьыда
дженьыдджык
дженьыдик
дженьыдо
джерси
джиан
джибути
джив
джиян
джон
джордж
джса
джсянь
джувдор
джудждаыс
джуджта
джуджыд
джуджыдджык
джуитт
джульетта
джъяс
джыдж
джык
джын
джынвыи
джыни
джынъяс
дз
дза
дзал
дзан
дздо
дзебисны
дзебо
дзебсьо
дзебсясь
дзеско
дзескыдінын
дзж
дзжо
дзи
дзик
дзико
дзирдал
дзиръя
дзны
дзо
дзоль
дзольго
дзольгыри
дзользьо
дзолюк
дзоля
дзонг
дзонь
дзоньвидза
дзоньвидзалун
дзоньнас
дзоньтало
дзоридз
дзоридзьяс
дзса
дзы
дзыд
дзыдджык
дзыдъяс
дзыс
дзьяс
дзюдо
ди
диалект
диалекта
диалектов
диаметрыс
диана
дивизия
дивизияса
дивтасвуодна
дизаи
дик
диктант
диктор
дили
дин
дина
динар
динка
диплом
дипломо
директор
директорало
директораліс
директоро
дириже
дис
диск
диссертациа
диссертация
дисциплина
дит
дитан
дитны
дито
дитч
дитчан
дитчана
дитчис
дитчисны
дитчо
дитчыны
дитысьяс
дитісны
дихапеталумъяс
дк
дко
дкыв
дкывъяс
дкырко
дл
длаас
длан
длана
дланін
дланінло
дланіно
дланінын
длао
длапо
длас
длаті
длаын
длаысь
дло
длы
длыны
длысь
длысьлысь
длысьнас
длысьо
длысьяс
длысьясло
длысьясо
длыт
длыто
для
дліго
дліс
длісны
дм
дмавны
дмал
дмало
дмалысь
дмасис
дмасьны
дмасьо
дмитриевич
дмитриевна
дмитриевои
дмитрии
дмитрия
дмо
дму
дмыны
дне
дневник
дневные
днеи
днепр
днестрдор
дни
дны
дныс
дня
до
доблестно
доблесьтысь
доброумов
добряков
дов
довго
догри
додз
додь
дозмо
дозорно
дои
докл
доклад
доклады
доктор
документ
документально
документъясын
документы
долган
должносьтъясын
должносьтын
доллар
дом
доме
доменыс
доминика
доминикан
домна
домокош
домра
дон
дона
донае
донецк
донъяло
донъяліс
доп
дор
дорас
дорвыв
дори
доро
доров
дорова
дорович
доровло
доровна
дорог
дорога
доронин
дорса
доръям
доръян
дорын
дорысь
достоевскии
доха
доцент
доценто
дпо
др
дравид
драма
драмаа
драматург
драматургии
драматургия
драмаяс
драмы
древнего
древнеи
дрогалина
дрофа
друг
друга
другая
другие
другъяс
дружба
дс
дса
дсао
дсо
дсь
дсьо
дсьыныс
дсьыс
дсянь
дт
дто
дтор
ду
дублин
дубрава
дубровскии
дугдо
дугдывто
дугдісны
дуглас
дудинка
дукция
дум
дума
думао
думаса
дунаи
дунган
дуркин
дуров
дутов
духовно
душанбе
дч
дчавны
дчан
дчана
дчанао
дчанкыв
дчанкывъяс
дчанлун
дчанлуныс
дчанін
дчаніно
дчанінъяс
дчанінъяслы
дчанінын
дчас
дчигас
дчиго
дчис
дчисны
дчо
дчы
дчывло
дчыло
дчымо
дчыны
дчысь
дчысьо
дчысьяс
дчысьясло
дчысьяслы
дчыто
дъяс
дъяса
дъясас
дъясо
дъясс
дъяссо
дъясын
дъясыс
дъясысь
дын
дыр
дырджык
дыри
дырся
дыс
дыско
дыслы
дысо
дыссо
дысь
дысьлы
дысьлысь
дысьо
дысьяс
дысьясло
дысьяслы
дысьяслысь
дысьясо
дысьяссянь
дыхание
дыш
дыштало
дьяконов
дьяконовло
дэвид
дэн
дядь
дядьо
дядя
дяк
дяко
ді
діасе
діго
дін
діно
діс
діса
дісны
діюр
діяс
діясло
е
ев
евангелие
евгении
евгения
евгеньевна
евдокия
евразия
евразияын
евреи
евроаддзо
европа
европак
европал
европало
европао
европаса
европасаяс
европаын
европаысь
европеи
европы
егерме
египет
его
егор
егореи
егорович
егоровна
еджгов
еджыд
еджыдо
еджыдъяс
едэма
ее
екатерина
екатеринбург
елена
елизавета
елин
елфимова
елькин
ельцова
ельцовои
ем
емва
емвао
емд
емдыр
емдін
емдінса
емдінын
емельян
емен
ен
енбиа
енко
енлы
енмам
енмыс
ентыла
енъясо
енэж
енэжва
енэжваяс
енэжо
енэжын
енэжыс
епанешников
епархия
епим
епископ
епископи
ер
ереван
ереванса
еремеи
ерилов
еринь
ермаков
ермил
ермолин
ермолинло
ершов
ес
есева
есенинлысь
естественно
есть
ефим
ефимович
еще
ж
жа
жаков
жакова
жаковлысь
жаланін
жало
жан
жанр
жанров
жанръяс
жанрын
жар
жаръяс
жас
жва
жданов
ждысьо
же
жебджык
железная
железнодорожно
жемаи
женщины
жеребцов
жеребцова
жж
жи
живая
живе
живешь
живого
живопись
жижева
жизни
жизнь
жилин
жилина
жителям
жить
жмудор
жны
жо
жонь
жоньяс
жсигас
жсян
жсянь
жуго
жугыль
жук
жуков
жукова
журио
журнал
журнала
журналист
журналистало
журналистика
журналистикаын
журналисто
журналистъяс
журналистъясло
журналло
журнало
журналса
журналъяс
журналъясын
журналын
жъяс
жын
жыннян
жыр
жыри
жыръяс
жыс
жыцьця
жь
з
за
забоев
забоева
заведении
заветно
завод
заводит
заводито
заводитч
заводитчиго
заводитчис
заводитчо
заводитіс
заводитісны
заводло
заводо
заводса
заводъяс
заводъясын
заводын
загадки
загреб
заи
закон
законодательных
замбия
замбияын
замежно
заметки
занулльо
заозерье
заочно
зап
запань
запасно
запасо
записки
заполярно
заптан
запто
зарава
заречно
заречье
зарни
зарниа
зарнио
зарождение
заседании
заслугаясысь
заслуги
заслуженн
заслуженно
заслуженныи
засухин
затон
затонса
захаренко
захаров
заясысь
збыль
збыльвывса
збыльмо
збыльысь
звание
звания
званньо
зве
звезда
звер
звишо
здесь
здук
зезегов
зеланд
зеландия
зеландияын
зеландын
зеленец
зеленеч
зеленечса
зеленечын
зеленцов
земле
земли
землю
земля
землі
земноі
земск
земско
земство
зер
зерлинг
зз
зи
зимбабве
зимбабвеын
зимстан
зинаида
зия
зияын
зк
зко
зкост
зкостса
зл
зло
злы
злысь
знак
знаменательные
знаменательных
знамя
знание
зная
знича
зо
зоби
зов
зои
золотая
зон
зона
зонка
зонкаяс
зонъяс
зосима
зоя
зс
зсо
зубов
зуевка
зуло
зулу
зумыд
зур
зъяс
зым
зын
зырян
зыряна
зырянало
зыряне
зырянская
зырянскии
зырянских
зырянского
зырянъясын
зыс
зысло
зысь
зь
зьо
зэв
зэр
зэра
зэръяс
зяи
зілис
зілисны
зіль
зільо
зіля
и
иа
ив
иван
ивана
иванов
иванова
иванович
ивановка
ивановна
иваново
ивановская
ивашев
иво
иврит
ивуар
ивуарын
иг
игбо
игнатов
игнатова
иго
игорь
играи
игры
игушев
ид
ида
идеи
идентификатор
идиш
идише
идо
идолъяссо
иереи
иероглифъяс
иероглифъясо
иерусалим
ижевск
ижемскии
ижемского
ижкар
ижма
ижора
из
изба
избр
избранные
известия
известная
известныи
известным
извесьт
изд
издание
издании
издат
издательство
издорса
изи
изкар
изки
израиль
изучающих
изучение
изучения
изшом
изъэрд
изъюр
изъюров
изъюрова
изъя
изъяс
изьва
изьваи
изьваса
изьватас
изьваын
изэрд
ии
иисус
ике
икк
ил
илам
или
иливапыс
илля
илляшор
ильвес
ильин
ильинична
ильич
илья
им
имбирь
имен
имена
имени
имп
император
империи
империя
империяын
имя
ин
инало
инари
инд
индия
индияло
индияса
индияын
индо
индокитаи
индонезия
индонезияын
индустриально
индустрия
индыто
индісны
инженер
инженерно
инженеро
инициальяс
инкери
инна
инним
иннимъяс
ино
инспекторо
институт
института
институтло
институтлысь
институто
институтса
институтын
институтысь
инструктор
инструкторо
инструмент
инструментъяс
инструменты
инта
интаса
интасянь
интеллигенция
интерглосса
интерлингва
интернат
интернатын
интернационально
интернет
интернете
информатика
информации
информационно
информация
инъяс
инъясын
инын
иньва
ио
иоанн
иовлева
иоганн
иона
иордания
иосиф
иосифович
ипать
ир
ирае
ирак
иракса
иракын
иран
иранын
ирвел
ирина
иркап
иркутск
ирландия
ирландияын
ирландса
иртыш
ирым
ис
исаев
исаева
исаков
исане
исковто
искусства
искусстве
искусство
искусствовед
искусствоведение
искусствоведениеяса
искусствоо
искусствоын
искусствояс
искусствоясло
искусствоясын
ислало
исламабад
ислан
исландия
исландса
исны
исп
испан
испани
испания
испанияын
исполком
исполкомло
исполкомо
исполкомын
исполнитель
исполнительно
исполняющим
испр
исследовании
исследования
исследователи
исследовательско
истан
истомин
истомина
истории
историк
историко
историческая
исторические
историческо
историческои
история
историяо
историяса
историясо
историяын
историяыс
историяысь
источник
исчезновения
ит
итал
итали
италия
италияса
италияын
италья
итальян
итальянлань
итар
ительмен
ительно
итл
итны
ито
итоги
итч
итчан
итчо
итчыто
итісны
их
ич
ичо
иыс
июль
июля
ия
ияли
ияс
к
ка
кабала
кабарда
кабил
кабо
кабул
кабыр
кавалер
кавалеръяс
кавалеры
кавелаарс
кавказса
кавказын
кага
кагао
кад
кадаи
кадакывл
кадас
кадколаст
каднас
кадо
кадро
кадръяс
кадс
кадсо
кадся
кадсянь
кадсяньыс
кадъяс
кадын
кадыс
кадысь
кажым
кажымса
казакова
казандор
казань
казаньса
казаринов
казах
казахстан
казахстанса
казахстанын
казлук
казым
казьтывсьо
казьтылан
казьтылана
казьтыло
казьтышто
казявлывло
казял
казялан
казяло
каи
как
какао
кал
калашников
кале
калевала
каледония
каледонияын
календар
календарын
календарь
калии
каликова
калимантан
калимов
калинин
калининград
калифорния
каллистрат
калмык
кальо
каля
каляты
кам
кама
камао
камбалов
камбалова
камбоджа
камбоджаын
каменщик
камерун
камчатка
камчаткао
кан
канада
канадаса
канадаын
канал
каналан
канар
канд
кандидат
кандидатско
канев
канева
канкар
канкарса
канкарын
канму
канмулы
канмуо
канмуса
канмуын
канмуяс
канмуясло
канмуясын
каннада
канова
канпас
кань
као
капитан
капуста
кар
кара
карабах
карабъяс
каракалпак
каракчиева
карас
каратаи
карачаи
караши
карбас
карбасын
каргорт
кардиология
кардор
кардоро
кардорса
кардорсянь
кардорын
карел
карелия
карелияса
карелияын
карелъяс
карельские
кариб
кариокар
каркытш
каркытшло
каркытшо
каркытшса
каркытшын
каркытшысь
карл
карлик
карло
карманов
карманова
карнан
карнатака
каро
карпов
карпом
карса
карсо
карсяма
карсянь
карта
картасикт
картаяс
картвел
картография
картупель
каръяс
каръяслы
каръясо
каръясын
каръясыс
каръясысь
карын
карыс
карысь
каспи
кассини
кассяна
кастрен
касьо
каталан
каталог
катар
категории
категория
катер
катерина
каткова
катманду
като
католик
католиков
катша
катшасин
катъясын
катыд
катыдпом
катыдын
катыла
катыласа
катылаын
кафедра
кафедрао
кафедраса
кафедраын
качаи
качо
кашмир
кашмири
кашуб
каян
каяс
кв
кваи
квартал
квинсленд
квн
кг
ке
кебанъе
кебра
кебраын
кедва
кедвавом
кежл
кежлас
кежло
кеи
кек
кекур
кель
кельо
кельт
кельчиюр
кельыдло
кения
кер
керала
кербер
керес
керка
керкаас
керкао
керкасо
керкаын
керкаыс
керкаысь
керкаяс
керкаяссо
керкаясын
керки
керновса
керо
керчомъя
керчомъяса
керчомъяын
кет
кетелеерия
кечуа
кечы
ки
кибра
кид
киев
киевын
киколь
кило
килограмм
килограммо
километр
километра
кильдин
кин
кинас
кино
киноакте
кинорежиссе
киноса
киносценарист
кинотеатр
кинь
кио
кипарис
кипомысь
кипр
кипрушев
кипрушева
кипъе
кирибати
кирилл
кирито
киро
киров
кирово
кирпич
кирпиченко
кирпичысь
кирс
кирсикт
кисляков
киссь
киссьо
кисьмо
кисьтана
кисьто
китаи
китса
киуру
киче
кичин
кишине
киын
кк
кл
клавиатура
клавишаяс
кладбище
класс
класса
классик
классика
классикао
классики
классическо
класслы
классо
классса
классъяс
классъяслы
классъясын
классын
кле
клеи
климат
климатыс
климов
климовская
клина
клиппертон
клочков
клуб
клубо
клубын
клузия
ключ
км
кмыс
кмысдас
кмысдасо
кмысо
кмыссе
кн
книга
книги
книжно
книжное
княжество
княжпогост
князев
князь
ко
кобра
ков
кова
ковмис
ковмо
ково
ковскии
ковтысъяс
ковтысъясын
ковтысын
когда
код
кода
кодане
кодзув
кодзувкот
кодзувкотъяс
кодзувло
кодзувъяс
кодзула
коди
кодко
кодл
кодло
кодлы
кодо
кодсюро
кодъяс
кодъяско
кодъясл
кодъясло
кодъясо
кодь
кодьо
коді
кожва
коз
козин
козлов
козлова
козловало
кои
кок
кока
кокало
кокборок
кокконен
кокни
кокниа
кокньо
кокньыда
кокъясыс
кокыс
кол
кола
колана
колас
коласа
колва
колегов
колегова
колесников
колец
коли
колины
колис
колисны
колкоз
колкозын
колледж
колледжын
коллектив
коллекция
колльо
коллявны
колляло
коло
коломбо
колорадо
колтта
колумби
колумбия
колумбияын
колхоз
колхозник
колхозо
колхозса
колхозъяс
колхозын
коль
колье
кольк
кольквиж
кольки
кольксо
кольксьыс
колькъяссо
колькъясыс
кольны
кольо
кольчурин
кольчч
кольччис
кольччисны
кольччо
коля
колян
коляоз
коляс
колясъяс
ком
команда
командало
командао
командаса
командаын
командаысь
командир
командиро
командуи
комбриг
комедия
комет
комети
коми
комиа
комигижысь
комигиз
комиинформ
комило
комимуын
комио
комиссия
комиссияло
комиссияо
комиссияын
комитет
комитетло
комитето
комитетса
комитетын
комиын
комиысь
комияс
комиясло
комияслы
комияслысь
комиясо
коммент
комментарии
коммуна
коммунист
коммунистическо
коммунистъяс
комор
компания
комплекс
композитор
компьютерло
комса
комсомол
комсомолец
комсомоллысь
комсомольск
комсомольско
комын
комыно
конаков
конго
конгресс
конгресса
конда
конев
конец
конкани
конкка
конкурс
конкурса
конкурсло
конкурсо
конкурсын
коновалова
консонантъяс
константин
константинович
конституция
конструктор
консультанто
консультативно
контексте
контора
контораын
контр
контроль
контрразведчик
контрреволюционно
конф
конференции
конференция
конференцияяс
конца
конце
концерт
концертмеи
концертно
концертъяс
коньках
конькио
конькова
конюхов
копенгаген
копт
кор
кора
кордильера
кордильераяс
кордильераясл
кореи
корея
коржа
кори
корис
корисны
корк
корко
корнеи
корнелиус
коро
коровина
короле
королев
корольув
коротаева
корпус
корреспондент
корреспондентало
корреспонденто
корсиго
корсь
корсьны
корсьо
корсюр
корсюро
корсяло
корткеросская
коръя
коръяс
коръяссо
коръясыс
коръясысь
корья
коряк
кос
коса
косджык
кослан
косланса
косланын
космодромсянь
косму
коснырева
косо
косово
кост
коста
костарика
костас
косто
кострома
костромин
костромина
костус
костын
кось
коськъяс
косьм
косьт
косьтан
косьювом
кот
котельнич
котельно
кото
котравны
котрал
котралан
котрало
котралысь
котралысьяс
котте
котыр
котырас
котырись
котырко
котырл
котырло
котырлысь
котырнас
котыро
котырса
котырт
котыртло
котыртны
котырто
котыртчис
котыртчо
котыртысь
котыртысьо
котыртысьяс
котыртіс
котыртісны
котыръяс
котыръяслы
котыръясо
котырын
котырыс
котырысь
коч
кочанов
кочев
коҥго
кпа
кпелле
кпсс
кр
крае
краев
краевед
краеведение
краеведческии
краеведческо
краи
крам
красная
красно
краснобор
краснодар
красное
краснои
красноселькуп
красноярск
красныи
краткая
краткии
края
кредит
кремль
креол
крепостно
крест
креста
кресто
крестсо
крестъяс
крестьян
крестьяна
крестьянало
крестьяналы
крестьяналысь
крестьянин
крестянин
кресьттяна
кресьттянин
кресьтяна
кресьтянало
кресьтяналы
кресьтянаяс
кресьтянин
кривоще
крироипк
кристаллсяма
кристиан
кристина
кристос
кристослы
критик
критика
критическо
кро
круглов
кружок
кружоко
крукыля
крупская
крут
круто
крым
крымтотара
крымын
крюков
ксан
ксеи
ксения
ксы
ксыув
ксьо
кт
кта
ктан
ктаыс
кто
ктор
кты
ктыны
ктысь
ктыын
ктіс
ктісны
ку
куа
куб
куба
кубок
кувеи
кувсис
кувсьо
кудряшова
кудымкар
кудымкаро
кудымкарса
кудымкарын
куж
кужба
кужи
кужо
кузакова
кузиванов
кузиник
кузнецов
кузнецова
кузнецовская
кузнеч
кузнечик
кузь
кузьбожева
кузьджык
кузье
кузьма
кузьмо
кузьта
кузьтанас
кузьтаыс
кузя
куи
куим
куимо
куимсе
куимысь
кук
кукань
куклина
кул
кулак
кулаков
кулан
кулига
куликов
куло
кулом
куломдин
куломе
куломскии
куломского
культо
культур
культура
культурало
культуралысь
культурао
культураын
культуре
культурно
культурныи
культурология
культуры
кулі
куліс
кулісны
кунва
кунваму
кунгин
кунгур
кунь
куньыб
купаи
купала
купалал
купальнича
купеч
купечло
купечьяс
куратов
куратова
куратовло
куратовлысь
курган
курд
курдистан
куро
курорт
курочкин
курс
курск
курсъяс
куръя
куръядор
куръяс
куръясянь
куръяяс
курыд
кус
куслыто
кусо
куст
кустаинъяс
кустъяс
кустъяса
кут
кутал
кутало
куталысь
кутантор
кутас
кутасны
кутны
куто
куття
кутчысь
кутш
кутшо
кутысь
кутіс
кутісны
кучик
куш
кушманов
кушмановло
куяс
куясо
кхаси
кхмер
кхуздул
кчим
къямыс
къямысдас
къямысдасо
къямысо
къямыссе
къяс
кы
кыа
кыв
кывбур
кывбура
кывбуралысь
кывбурсо
кывбуръяс
кывбуръяса
кывбуръясс
кывбуръяссо
кывбуръясын
кывбуръясыс
кывбурыс
кывбурьяс
кыввор
кывворын
кывзо
кывзыны
кыви
кывко
кывкуд
кывкудъяс
кывкудъясын
кывкутана
кывкуто
кывкутысь
кывл
кывлань
кывло
кывлы
кывлысь
кывны
кывс
кывсо
кывсянь
кывто
кывтор
кывтуялысь
кывтыд
кывчуко
кывъя
кывъяс
кывъяско
кывъяслань
кывъясло
кывъясо
кывъяссо
кывъясын
кывъясыс
кывъясысь
кыд
кыда
кыдджыка
кыдз
кыдзи
кыдзкар
кыз
кыза
кызвын
кызвыннас
кызвыныс
кызвынысло
кызвынысьс
кызь
кызьо
кыи
кык
кыка
кыкнан
кыко
кыксе
кыкысь
кыл
кыло
кым
кымо
кымын
кын
кындзи
кынм
кыно
кып
кыпо
кыпт
кыпто
кыптіс
кыптісны
кыпыда
кыр
кырвыв
кыргыз
кыргызстан
кыргызстанын
кырк
кырко
кырныша
кыро
кырс
кырсь
кырта
кыртъяс
кырув
кыръяс
кыръяссянь
кыръясын
кырымало
кырымаліс
кыско
кыскыны
кыссь
кыссьо
кыссян
кысько
кысянь
кыт
кыто
кытсюро
кытч
кытчо
кытш
кытшал
кытшло
кытшо
кытшовт
кытшовто
кытшса
кытшсянь
кытшын
кытшысь
кытысь
кыті
кыш
кыша
кышо
кыян
кьявик
кэ
л
ла
лаборант
лаборанто
лаборатория
лабораторияо
лабораторияын
лабрадор
лавка
лавр
лагеро
лагерын
лад
ладорло
ладорын
лаз
лаи
лальск
лан
ланка
ланін
лао
лаос
лаосын
ларев
ларевло
ларын
лас
ласича
ласта
лат
латвия
латвияын
латгал
латин
латиница
латкин
латыш
латышева
латышско
латьюдін
лахти
лача
лб
лвел
лгинь
лдино
ле
лебедев
лебедь
лев
лева
левин
легенда
леготин
лежно
леи
лек
леканов
лекановало
лекановло
лексика
лексики
лексикология
лекцияяс
лелькуи
лена
ленин
ленингр
ленинград
ленинградо
ленинградса
ленинградын
ленинско
ленинскому
лента
леоне
леонеын
леонид
леонидович
леонтьев
лепе
лермонтов
лес
леснои
лесотехническо
лесото
леспромхозын
лет
летие
летию
летка
летопись
ли
лианаяс
либ
либерия
либерияын
либо
либретто
лив
ливан
ливия
лигатура
лигатураысь
лидия
лиза
лииси
лилия
лимеров
лимерова
лингала
лингвист
лингвистика
лингвистическии
липа
липин
липина
лирика
лирикаа
лирическо
лисовская
лисовскии
лиссабон
лист
листбок
лит
литва
литератор
литераторы
литератур
литература
литературало
литературалы
литературалысь
литературао
литератураса
литератураын
литератураысь
литературе
литературн
литературная
литературно
литературного
литературные
литературныи
литературоведом
литературы
лихаче
лихтенштеи
лицеи
личко
лише
лка
лл
ло
лоас
лобанов
лобанова
лов
ловзьо
ловзян
лови
лович
ловна
ловозеро
ловъю
ловъя
ловъяс
логика
логинов
логинова
логлан
лодыгин
лодыгинло
лозьва
лои
лоины
лоис
лоисны
лок
локло
локо
локса
локсянь
локт
локтан
локто
локтысь
локтіс
локтісны
локъяс
локын
лома
ломбард
ломоносов
ломтас
лонги
лондон
лондонын
лоны
лоо
лопъювад
лос
лпк
лт
лтозеро
лу
луганск
луд
лудъяс
лудыков
лудыкова
лужиков
луз
луза
луздор
луздорса
луздорын
луи
лук
лукерия
лун
луна
лунас
луначарскии
лунвыв
лунвывлань
лунвывланьо
лунвывланьын
лунвывланьынджык
лунвывса
лунвывсянь
лунвыл
лунвылас
лунвыло
лунвылын
лунвылынджык
лунвылысь
луннас
луно
лунс
лунсо
лунся
лунсянь
лунсяньыс
лунш
лунъяс
лунъясас
лунъясо
луны
луныс
лунь
луораветлан
луутса
луяввр
лы
лыа
лыаа
лыаты
лывло
лывлісны
лыд
лыда
лыдас
лыддис
лыддисны
лыддь
лыддьо
лыддьыны
лыддьыссьо
лыддьысь
лыддьысьны
лыддьысьо
лыддьысьысь
лыддьысян
лыддьысянін
лыдм
лыдо
лыдпас
лыдпаса
лыдпасъяс
лыдсо
лыдын
лыдыс
лыдысь
лыжавом
лыжи
лыжио
лыжные
лызлов
лызь
лызьо
лыи
лым
лымва
лыми
лымъя
лымъяс
лын
лыны
лыс
лыса
лысва
лыска
лысо
лысся
лыссянь
лысь
лысьло
лысьнас
лысьо
лысьсо
лысьсянь
лысьтысьысь
лысьын
лысьяс
лысьясо
лысьясын
лысяс
лыткин
лыткина
лыткинло
лыткино
лыюров
лыяс
ль
льгым
льдін
лькуп
льня
льо
льса
льсе
льсянь
льт
льто
льыс
льысь
льяс
льясло
лэбавны
лэбал
лэбало
лэбалысь
лэбач
лэбачо
лэбачсо
лэбачыс
лэбачысло
лэбачьяс
лэбачьясо
лэбачьясыс
лэбзьо
лэбо
лэдз
лэдзан
лэдзанін
лэдзанінын
лэдзис
лэдзисны
лэдзны
лэдзо
лэп
лэпто
лэптыны
лэптісны
лэчч
лэччо
люба
любви
любимая
любляна
любовь
любомир
любомирович
людвиг
люди
людмила
люксембург
люсия
люся
лютер
лютоев
лютоева
люция
лючки
ля
лябовская
лямпа
лян
лянин
ляпин
ляпкыд
ляскасьо
ляшев
лі
ліны
ліс
лісны
м
ма
маарианхамина
маахир
маврикии
мавритания
мавто
магистр
магистрально
магнаи
магнита
магнолия
мадагаскар
мадагаскарын
маддяр
маддярмуысь
маддяръясло
мадеи
маджа
мадмас
мадонна
мадрид
маду
мадьяр
маегов
маи
макар
макаров
макарова
макаръя
македон
македония
макс
максаковка
максим
максимов
малави
малагаси
малаи
малакка
малап
малая
малаялам
мале
малева
мали
малиын
малмыж
мало
малыи
мальва
мальвин
мальдивъяс
мальо
мальпигия
мальта
мальцев
мальцева
мальчик
мам
мамло
мамныс
мамо
мамонтов
мамсо
мамыс
мамыско
мамысло
мамыслы
ман
манама
манастыр
мандач
манде
манила
манинса
манси
мансии
маньси
маньчжур
мао
маори
мар
маранта
маратхи
маргарита
марена
мари
марии
марило
марина
марино
мария
марк
марка
марков
маркова
марковская
маркс
маро
марокко
марс
марса
марсден
марсянь
март
марта
марте
мартен
мартиника
мартынов
мартюшев
марфа
маршак
маршал
маршалл
марши
маршрут
маръя
маръямоль
марья
мас
маса
маскат
масо
масою
масс
массив
массивъяс
мастеница
мастер
мастеро
мастерско
мастерство
мась
мат
матвеев
матвеи
математик
математика
материал
материалам
материалов
материалъясын
материалы
материально
материк
материкысь
мато
матын
матыно
матыс
матысса
мать
матіго
матіса
махараштра
махотина
мацук
мачс
машина
машинист
машинисто
маэ
мають
мая
маяковскии
маяс
маясло
маяслы
має
мбук
мбыд
мвош
мд
мдр
мдін
мдіно
мдінса
мдінсаяс
мдінын
мдінысь
ме
мегхалая
мед
медали
медало
медаль
медальо
медальяс
медальясо
медб
медбо
медбур
медваж
медведев
медведева
медводдза
медводдзао
медводдзаысь
медводдзаяс
медводз
медвои
медвылыс
медвына
медджуджыд
медицина
медкузь
медматыс
медпункт
медся
медсяс
медсясо
медто
медуна
медш
медшо
медъе
медыджыд
медыджыдыс
медым
медічо
межадор
межадорса
межадорын
международного
международныи
междуреченск
межеванию
межо
мездлун
мездо
мезень
меи
мексика
мексикаса
мексикаын
мелехин
мелехина
мелилья
мелия
мельникова
мельнича
мемориал
мен
менам
менеджмент
меников
мено
меным
меня
мераи
мерия
меркурии
меркурия
меркуріи
мероприятиеяс
места
местаас
меставывса
местао
местасо
местаын
местаыс
местаяс
местаясо
местаясын
меститчо
место
местоимения
месторождение
мет
металл
метида
методистало
методисто
методическо
метр
метра
метрао
метро
метрополитен
механика
механико
механическо
меценат
мещура
ми
мидз
мизо
мизорам
микаи
микелон
мико
микова
микол
микронезияло
микст
микулаи
микунь
микушев
микушева
милиславлевич
милициа
милиция
миллион
мин
мингале
минералог
минералогия
минерально
минин
министерство
министерстволо
министерствоын
министр
министро
министръяс
министръясло
минло
мино
миноме
минса
минск
минскии
минскын
минут
минута
минъяс
минъясын
минын
мир
мира
миро
мировоззрение
мировои
мирошниченко
мирса
мирско
мирт
мирын
миссисипи
миссури
митреи
митро
митрофан
митрофанович
митрук
мить
митюше
митя
мифология
мифологияын
михаи
михаил
мича
мичае
мичлун
мичмо
миш
мишарин
мишарина
миян
миянлы
мияно
миянын
миянысь
мк
мко
мкот
мл
мла
младшо
млн
мло
млрд
млун
млунъяс
млы
млысь
мм
ммо
мнас
мне
много
многократные
мны
мо
мобилизуи
мог
мога
могмо
могъяс
могыс
могысь
модель
мое
можно
моз
мозамбик
мозын
мои
моисеенко
мок
мокчои
мокша
мокшало
молдав
молдова
молдоваын
молебен
молитва
молитваяс
молодая
молоде
молодежи
молодежь
молодцов
молодые
мольяс
мом
мон
монако
монархия
монастырь
монастыря
монгол
монголия
монголияса
монголияын
монголовед
монди
монография
монографияяс
монтсеррат
мор
мордва
мордовия
мордін
моренаяс
моро
мороз
морозов
морозова
морохин
морохина
морско
морт
морта
мортл
мортло
мортлы
мортлысь
морто
мортыс
морфология
москва
москвао
москваса
москваын
моторин
мошев
моя
мп
мпо
мр
мри
мс
мса
мсера
мсо
мсьыс
мсюро
мсянь
мсяньыс
мто
мтор
мтори
мторъяс
мторъяссо
мтс
му
муас
мув
мувеж
мувывтор
мувывтори
мувывторс
мужич
мужичо
мужчины
муза
музеи
музея
музыка
музыкально
музыкальные
музыкальныи
музыкант
мук
муко
мул
муло
мулы
мулысь
мультимедии
мультфильм
мун
мунан
мунас
муниципалитет
муниципально
муниципальное
муниципальных
мунл
мунло
мунліс
мунны
муно
мунысь
мунысьяс
муніго
муніс
мунісны
муо
мупытшкса
мупытшса
муравье
мураши
мурманск
муртса
мус
муса
мусерпас
мусерпасъяс
мусерпасъясын
мусерпасын
мусин
мусинъяс
мусиныс
мусир
муслун
мусо
муссонъяс
мусьыс
мусюр
мусюръяс
мусянь
мусяньыс
мутас
мутасъяс
мутасын
мутасыс
мутнича
муш
мушар
муын
муыс
муысь
муяс
муясо
муясын
муясыс
мшо
мъю
мъянмаын
мъяр
мъяс
мъяско
мъясло
мъяслы
мъясо
мъяссо
мъясын
мъясыс
мъясысь
мы
мывкыд
мыго
мыд
мыджсьо
мыж
мыжа
мыжд
мыждо
мыждісны
мыжто
мыжы
мыи
мыла
мылва
мылд
мылдін
мыльк
мылькъяс
мын
мында
мынто
мынтыны
мыр
мырдо
мыртыю
мыс
мысла
мысли
мысов
мысса
мысти
мысын
мысь
мытшо
мыччо
мыш
мышку
мышкуыс
мьянма
мэи
мэн
мэр
мэтью
між
мінск
н
на
навасса
навахо
навколо
наво
нагаи
награда
наградах
наградаяс
наградито
награды
над
надеев
надежда
надежды
надз
надрах
нажо
названия
назначен
наи
нако
накодь
нал
належить
налимов
налимова
нало
налы
налысь
нам
намибия
нанаи
нао
напалков
напалкова
напрямку
народа
народе
народн
народная
народно
народного
народное
народнои
народные
народныи
народов
народы
наръян
наръяна
нас
наса
населе
население
населения
населенные
наследие
настоятель
настоящее
настя
насянь
наталия
наталья
наты
натыса
натыын
наук
наука
наукаса
наукаын
наукаяс
наукаяса
наукаясло
наукаясса
науки
науру
науч
научн
научно
научного
научнои
научные
научныи
научных
нах
находящиеся
нац
национал
национальн
национальная
национально
национальнои
национальныи
нач
начала
начале
начало
начальник
начальнико
начально
начко
наш
наша
нашего
наын
наысь
ная
нд
ндебеле
нджык
нджыка
нджыкас
нджыкасо
ндреи
не
неб
небзьо
небо
небольшои
небыд
невис
невскии
него
негырысь
недыр
неи
некод
некодлы
некор
некоторые
некрасов
некрасова
некутш
некутшо
некымын
некымынысь
нелямын
нелямыно
нем
немдін
немдінса
немецкии
немеч
немечко
непал
непали
непалын
нептун
нептуна
нептунло
нептуно
неридз
неркаги
несанелис
несколько
нестеров
нестерова
нетыр
неуна
нехорошев
нечаев
неыджыд
неыло
неылын
ни
ниа
нивх
нившера
нига
нигер
нигерия
нигерияын
нигерын
нидерл
нидерланд
нидерландса
нидерландъяс
нидерландъясса
нидерландъясын
ние
нижнии
нижняя
нии
ник
никарагуа
никита
никитин
никитина
никитич
никифорович
нико
никола
николаевич
николаевна
николаи
николая
николсон
никонович
никосия
никта
никулин
нил
нилогов
ним
нима
нималана
нимало
ними
нимко
нимнас
нимо
нимпасын
нимс
нимсо
нимсянь
нимт
нимто
нимтыло
нимтыны
нимъяс
нимъяссо
нимъясын
нимъясыс
нимыс
нимысь
нин
нина
нино
нинпу
ниппон
ниппонса
нись
нитш
нитшкысь
ниуэ
них
ния
нк
нквд
нко
нл
нло
нлы
нлысь
нмо
нн
нно
ннрот
нные
нныи
но
нобель
нов
новая
новгород
новикова
нович
новло
новлісны
новна
нового
новосе
новосибирск
новости
новые
новыи
ног
нога
ногиев
ногло
ного
ногыс
нои
ноксьо
нолинск
нолл
ноль
ном
номер
номера
номерыс
номъя
номыръясо
номыръясыс
нор
норвег
норвегия
норвегияса
норвегияын
нормативныи
нортленд
нос
носим
носков
носу
ношуль
ношульса
ношульын
нояб
ноября
нс
нса
нсо
нсьыс
нсюр
нсюро
нсянь
нто
ну
нужно
нуис
нуисны
нуль
нулісны
нуны
нуо
нур
нутрихин
нц
нъяс
нъясас
нъясло
нъясын
нъясыс
нъясысь
ны
ныв
нывбаба
нывбабаяс
нывдырся
нывъяс
нывъяслы
ные
ныи
ныло
нылыс
нын
ныр
нырвизь
нырвизьяс
нырыс
ныс
нысь
нь
ньло
ньо
ньыв
ньывкаи
ньывсер
ньын
нью
ньюфаундленд
нэ
нэм
нэмло
нэмо
нэмса
нэмсо
нэмся
нэмсянь
нэмъяс
нэмъясо
нэмъясын
нэмын
нэмыс
нювчим
нювчимса
нювчимын
нюж
нюжал
нюжало
нюжо
нюи
нюр
нюръяс
ня
няи
нянь
няньо
няньсо
няньяс
няня
нярбордъяс
няшабо
ні
нія
о
об
обдор
обдорса
обелиск
обертання
обертаються
обертається
обзор
обком
обкомло
обкомын
области
область
обласьт
обласьтло
обласьтлысь
обласьто
обласьтса
обласьтъясын
обласьтын
обласьтысь
обозрение
оборона
образ
образование
образовании
образования
образовательного
образовательных
образцов
образцово
обрезкова
обрезковало
обряд
обрядъяс
обсерваторияын
общ
общеи
общества
общественник
общественно
общественного
общество
общии
объект
обыкновенная
обычаи
обязанности
ов
оверин
овидии
овл
овло
овлы
овлывл
овлывло
овлыны
овлісны
овм
овмо
овны
овсо
овт
овто
овъяс
овъяссо
овъясыс
овыс
ог
огаи
огнев
огни
ого
огонь
од
ода
одес
одиа
один
одинцов
одм
одна
одного
одыб
одыбса
одыбын
оз
озе
озыр
озырлун
озырлунъяс
озырмо
озысь
ои
океан
океаниияын
океания
океанияын
океанк
океанл
океанлань
океанса
океансянь
океанъяс
океанын
океанысь
оки
околицы
около
окотапырысь
округ
округа
округса
окситан
октябр
октябрина
октябрса
октября
ол
ола
олам
олан
оланпас
оланпасъяс
оланподув
олантуи
оланін
оланінъяс
оланіныс
оласног
оласногсо
оласногыс
олег
олимпиада
олимпиадаса
олимпиадаын
олимпиадаясын
олимпии
оло
олысь
олысьло
олысьыс
олысьяс
олысьясло
олысьяслы
олысьяслысь
олысьясо
олысьясыс
ольга
оліс
олісны
ом
оман
омниглот
омо
омонимъясо
омра
омск
омутнинск
он
она
онас
онега
онегин
они
онлаи
онло
онно
онныи
оно
онса
онъяс
онъясо
онъясын
онын
онысь
оньмо
оо
ооо
опера
оперативно
оператор
операция
описание
опицеро
оплеснин
опыт
опытно
ор
орбита
орбіт
орбіти
орган
организации
организация
органъяс
органъясын
орд
орден
ордена
орденло
орденлысь
ордено
орденов
орденъяс
орди
ордым
ордын
оре
оренбург
ореховскии
орисса
орк
оркестр
орлов
оро
ортсы
оруба
оружеи
орфография
орхидея
орчч
орчча
орччо
осе
осет
осетин
осетия
осипов
осипова
осло
основному
основные
основы
особенности
оссер
остался
остапова
остров
островов
островскии
от
отв
отвагаысь
отд
отдел
отделение
отдело
отделса
отделын
отелло
отерма
отец
отечества
отечественная
отечественно
отечественнои
отечественные
отечеством
открытых
отличник
отражение
отряд
отс
отсало
отсаліс
отсасисны
отсасьны
отсасьо
отсасьысь
отсасьысьо
отсасян
отсо
отта
отто
отын
офицеро
официал
официально
официальное
официальные
официальныи
охка
охота
очень
очерк
очерки
очеркъяс
очно
ош
ошк
ошкар
ошко
ошъяс
п
па
павел
павлов
павлова
павлович
павловна
паджга
паджгаын
паи
пак
пакистан
пакистанын
пактал
пакультет
палаззя
палалеи
пале
палеоазия
палеонтолог
палестин
пали
палкин
палладии
паль
пальма
пальмаяс
пальо
паметник
паметниксо
паметь
паметьын
памяти
памятник
памятных
пан
панама
панас
панджаби
пандікост
панев
пано
пансиго
пансис
пансь
пансьо
пантелеи
паныд
паныдась
паныдасьл
паныдасьло
паныдасьлы
паныдасьлывло
паныдасьлыны
паныдасьлысь
пань
панюков
панюкова
паніс
папуа
парагваи
паракод
паралимпиада
параллель
параллельсянь
париж
парижын
парк
паркын
парламент
парма
пармао
пармаса
пармаын
пармы
парначе
пароход
партизан
партии
партия
партияо
партияса
партияын
парч
парчо
паршуков
паршукова
пас
паса
паси
паспом
пассажирско
пассажиръясо
пассатъяс
пасъяло
пасъяс
пась
паськ
паськавны
паськал
паськало
пасько
паськыд
паськыда
пасьт
пасьта
пасьтала
пасьтаыс
патриотическо
пау
паула
пахорукова
пач
паш
пашкыр
пашнин
пе
певец
пед
педагог
педагогика
педагогическо
пединститут
пединститутса
пединститутын
педо
педот
педучилишо
педь
пезмо
пекин
пекнича
пекничасянь
пелым
пелысь
пелыськаи
пель
пелька
пельо
пельыс
пем
пемо
пемыд
пемыдго
пемыдперкаль
пемыдруд
пенсия
пер
пера
первая
первенство
первои
первомаи
первыи
перевод
перевода
переводчик
переводы
перед
перем
перепелица
переписи
переписно
перепись
переписьын
переработаи
пери
перигеи
период
перкаль
перкъяс
перм
перми
пермскии
пермских
пермского
пермское
пермскои
пермь
пермяк
пермяки
пермяккез
пермяков
пермякъяс
пермякъясло
пермякъясын
пермяцкие
пермяцкии
пермяцко
пермяцкого
пермяцкои
перна
перо
перс
пертас
перу
перъяло
перъян
перым
перымса
перымын
пес
песен
песни
песня
песо
пет
петавло
петавліс
петавлісны
петан
петас
петасъяс
петер
петербург
петербургса
петербургын
петк
петко
петны
пето
петр
петра
петрович
петровна
петроград
петроградса
петрозаводск
петрозаводскса
петрунь
петрухин
петто
петук
петш
петшо
петыр
петыркар
петыркарса
петыркарын
петысь
петя
петіго
петіс
петісны
пехотно
печать
печатьын
печо
печора
печораса
печорскии
печорско
печорского
пещера
пи
пик
пико
пиковая
пилао
пилипин
пилиппинса
пиля
пинь
пиньинь
пинькаи
пио
пионер
пионеръясло
писар
писаро
писателеи
писатели
писатель
писателя
писо
писцо
письк
писько
письм
письма
письменности
письменность
письмо
питер
питирим
питирима
питю
пиын
пиыс
пиысь
пиян
пиянсо
пияныс
пияныско
пиянысло
пк
план
планет
планета
планете
планети
плата
плато
платояс
платформа
пле
плено
плесид
плесовскии
плодъяс
плосков
плутон
плутонло
плутоно
пномпень
по
победа
пов
поверхні
повести
повесттез
повесть
повестьяс
повесьт
повесьтъяс
повесьтын
повзьо
поводдя
поволжья
повто
поговорки
погост
погосто
погостын
погостысь
под
подборка
подвиг
подгорица
подгорье
подз
подо
подокарп
подоров
подорова
подув
подувсо
подувъяс
подула
подулало
подулас
подуласьо
подуло
подулын
подулыс
пое
пож
пожег
пожня
пожо
поз
поздеев
поздысь
поздысьо
пози
позис
познысо
позс
позсо
позсьыс
позтыкеро
позтырас
позъяс
позь
позьо
позяло
позянлун
пои
поиск
поисках
покаяние
покои
покча
пол
поле
полевои
полещиков
полиграф
полиевкт
полинезия
политик
политика
политикао
политическо
полко
полковник
полкса
полкын
полльо
половине
положение
полугрудов
польша
польшаса
польшаын
полюсдорса
поляк
поляков
полякова
поляна
поляны
полярно
пом
пома
помавны
помавто
помал
помало
помалысь
помаліс
помалісны
помас
помасиго
помасис
помась
помасьо
помка
помни
помо
помощь
помся
помсянь
помто
помын
помыс
помысь
пон
понд
понда
пондо
пондіс
пондісны
пони
пономаре
поп
попо
попов
попова
поповло
попово
поппе
популярная
попъяс
породаяс
поромо
порошкин
порсь
порт
портал
порталын
портр
портрет
портретъяс
португал
португалия
портъяс
поруб
пос
посад
посвяще
посе
после
последние
пословицы
посни
посниджык
поснитори
посньыдик
пособие
пособиеяс
пост
потандорса
потапов
потас
поте
потолицын
потребительясло
потшо
поче
починок
починокын
пошма
пошта
поэзии
поэзия
поэма
поэмаяс
поэмы
поэт
поэта
поэтесса
поэтика
поэтическо
поэтл
поэтло
поэтъяс
пп
пр
прав
правда
правительства
правительство
правительстволо
правление
правленньо
право
православие
православно
прага
прадеш
праздник
праздникко
праздникъяс
празьник
празьнико
праи
праскан
предание
преданиеяс
предания
предисл
предложении
предмет
предметъяс
предприятие
предприятиеяс
предприятиеяслы
председатель
председательо
представительство
презентовали
президент
президента
президентло
президенто
президиум
президиума
президиумло
президиумо
премиа
премии
премия
премьер
преображенньо
преподавательо
пресвятои
пресс
при
приблизно
приданым
придаш
прие
приз
призе
признание
приказ
приключения
приложение
пример
примета
примеч
примечания
принсипи
приполярно
природа
природы
присвоении
присвоено
пристань
приуральско
приуралья
приходса
причитания
приштина
приют
про
проблема
проблемаяс
проблеме
проблемы
провинцияын
провинцияясын
проводников
программа
программаяс
прогресс
продюсер
проект
проекте
проекто
проектын
проза
прозаа
прозаик
прозы
прои
произведение
произведениеяс
произведении
произведения
производственно
происхождения
проко
прокопеи
прокопии
прокопьевич
прокопьевка
прометеи
промышленник
промышленно
промышленносьт
промышленносьтын
проньдор
пропаганда
пропессор
просветительско
просвещение
просвещениеса
просвещения
простится
просто
профессионально
профессор
профессора
профессоро
профессура
прохоров
прочее
прочентыс
прошева
прошлое
психолог
психология
псков
пу
пуа
пуан
публицист
публицистика
публично
пудъясянкыви
пузла
пук
пукал
пукалан
пукало
пукалысь
пукалысьяс
пукаліс
пуксиг
пуксиго
пуксис
пуксь
пуксьо
пуксяло
пукт
пуктало
пуктана
пукто
пуктывлісны
пуктыл
пуктыны
пуктысь
пуктысьяс
пуктыто
пуктіс
пуктісны
пулеме
пуло
пунегов
пунегова
пункт
пункты
пунтленд
пуо
пурт
пуст
пустошь
путе
путешественник
путешествие
пути
путин
путраджаи
путшкымдін
путь
пучер
пушкин
пушкинло
пушкинлысь
пуысь
пуэрто
пуяс
пуяса
пхеньян
пшыркоу
пъю
пывсян
пыд
пыдди
пыддиыс
пыдна
пыдо
пыдын
пыж
пыжо
пыжъяс
пызан
пызь
пыисдін
пылаева
пыр
пырало
пыран
пырджык
пырис
пырисны
пырло
пырмо
пырны
пыро
пырся
пырт
пыртны
пырто
пыртіс
пыртісны
пырыс
пырысь
пырысьо
пырысьяс
пысса
пыста
пыстин
пыстина
пытшк
пытшкас
пытшко
пытшкын
пытшкысь
пычим
пыши
пышкаи
пышъяло
пьер
пьеса
пьесасо
пьесаын
пьесаяс
пьесы
пьидо
пятое
р
ра
рабиновиц
работе
работы
рабочо
рабфакын
равны
рад
радаи
радеи
раджастхани
радио
радиоактив
радиобиолог
радиокомитетын
радиоузел
радиоын
радиус
радо
радок
радость
радуга
раевсикт
раевскии
раз
разало
разведка
разведкаын
разведчик
развитие
развитию
развития
разговорник
размыслов
разо
разыб
разів
раи
раинъяс
раинъясын
раиса
рака
ракета
ракин
ралан
рало
ралысь
ралысьяс
ралісны
рам
рамалла
ран
ранитчо
ранитчыло
рапас
рапасло
раротонга
рас
раса
распределение
распутин
рассвет
рассел
рассказ
рассказы
рассыхаев
ратегова
раысь
раяс
рво
рвоана
рвоны
рвоо
рвосьо
рвыв
рд
рдо
рдов
рдовруд
рдсе
реабилитируи
ревизия
ревизияса
ревизско
революциа
революции
революционер
революционно
революция
революцияо
регион
регионально
регионкостса
регионса
регионъяс
регионъяскостса
регионъясын
регионын
регионысь
регистрируи
регыд
регыдо
регыдъя
ред
редактируи
редактор
редакторало
редакторнас
редакторо
редакциеи
редакция
редакцияо
редакцияын
редколлегияо
режиссе
резо
результаты
реи
река
реке
рекемчук
реки
рекорд
ректор
религии
рем
ремесленно
репертуарын
репрессируи
репрессияяс
республик
республика
республикал
республикало
республикалы
республикалысь
республиканская
республиканскии
республиканско
республикао
республикаса
республикаті
республикаын
республикаысь
республикаяс
республике
республики
ресурсъяс
ресурсы
реформа
рецензия
речки
речовини
реюньон
рз
рзь
рзьо
ри
риа
риал
рига
рика
рико
рим
римас
римса
римскии
римско
рин
ринло
рино
ринса
ринын
риныс
ринысь
рио
рисслер
рито
ричард
рияд
рк
рка
ркань
ркка
ркни
ркоддь
ркодь
ркодя
ркп
ркс
ркута
ркутаса
ркуто
рл
рло
рлун
рлысь
рлэдзысь
рм
рмо
рмудор
рнас
рни
рникузя
рнио
рнисикас
рнисикасъяс
рнисикасын
рнитны
рнито
рнитчан
рнитчо
рнитіс
рнитісны
рниын
рниыс
рны
рнэмса
ро
роберт
рогаче
рогов
рогова
род
рода
родаків
родина
родины
родная
родники
роднои
родов
рождения
роза
розе
розьо
розьыс
рои
рок
року
років
роль
рольяс
роман
романа
романсо
романъяс
ромбандеева
рональд
россии
россия
россияло
россияса
россияын
россияысь
ростов
ротаса
рохин
рохингъя
рохир
роч
роча
рочев
рочева
рочевло
рочму
рочмуло
рочмуо
рочмуса
рочмуын
рочо
рочысь
рочьяс
рощевская
рощевскии
рпа
рпо
рр
рс
рса
рсаи
рсикт
рсикто
рсо
рсфср
рсьыс
рся
рсянь
рсяньыс
рт
рта
рталун
ртан
ртас
ртаса
ртасъяс
ртасъясын
ртасын
ртасыс
ртасьо
ртасян
рти
рткер
рткеро
ртло
ртны
рто
ртса
рттуи
ртуи
ртулов
ртч
ртчо
ртъяс
ртъяско
ртъясыско
ртымдін
ртын
ртысь
ртысьясло
рті
ртіго
ртіс
ртісны
ру
руа
руанда
руб
рубеже
рубцов
руд
руда
рудаяс
рудзо
рудов
рудовго
ружи
румын
румыния
румынияын
рунаяс
рупия
рупта
рус
русанов
руси
русин
русина
русинов
руслан
русская
русские
русскии
русских
русско
русского
русскои
русском
русь
рут
рута
рух
руч
ручильо
ручьяс
рф
ръя
ръяс
ръясло
ръяслысь
ръясо
ръясын
ръясыс
ръясысь
ръяысь
рыд
рым
рын
рынджык
рыннас
рыс
рысь
рыт
рытнас
рыто
рытъя
рытъяс
рытыв
рытыввыв
рытыввывса
рытыввывсянь
рытыввыл
рытыввылас
рытыввылын
рытывсянь
рытывт
рычков
рязань
с
са
саам
саами
саамы
саваннаяс
саваннаясын
савва
савваитов
савельева
савельевич
савенко
савин
савина
савинло
савино
сад
сада
сади
садъяс
садъясын
садьмо
сажин
сажина
саи
саин
сак
сакара
салдат
салдатъяс
салехард
сало
салтане
сальвадор
самара
самарин
само
самоа
самодии
самои
самоле
самоучители
самоучитель
сан
сана
сандвич
сандра
сандрик
сандро
санкт
санскрит
сантали
сантиметр
сантиметро
саня
сао
сапиндус
сапожников
сапота
сар
сараево
сараи
саранош
саранск
саратов
саридз
саридзвыв
саридздор
саридзл
саридзо
саридзса
саридзсянь
саридзті
саридзуи
саридзын
саридзыс
саридзьяс
сарло
сарлы
сас
сатира
сатирик
сатурн
сатурна
сатурнло
сатурно
саудса
саха
сахалин
сахара
сахарова
саш
саяс
сб
сборник
сборникъясын
сборникын
сборно
свадьба
свазиленд
сван
свати
сведения
свердловск
свердловскса
свердловскын
свет
светлана
светтьо
свободно
своеи
свои
своі
свыв
свывса
связи
связь
священник
сгу
сд
сдаи
сделанные
сдін
сдінса
сдінын
се
себя
север
севера
севере
северная
северного
севернои
северныи
северных
северо
седрочев
сеи
секретар
секретарало
секретаро
сектор
секторо
секторса
секторын
села
селе
селиванова
село
сельков
сельско
сельского
сельское
сельсо
сем
семантика
семе
семен
семенов
семенович
семиков
семинариа
семинария
семинарияын
семинаръяс
семит
семо
семуков
семуково
семуковын
семь
семья
семьяас
семьяло
семьянас
семьяын
семьяыс
семячков
семяшкин
сен
сенегал
сенегалын
сент
сенькин
сенюков
сер
сера
серам
серамбана
серапима
серафим
серб
сербия
сербияын
сервис
сергеевич
сергеи
сергии
сердитов
сердце
серегов
сереговса
середасянь
сержант
сери
серия
серно
серо
серпас
серпаса
серпасал
серпасало
серпасалысь
серпасалысьясло
серпасаліс
серпасасьо
серпаскывъяс
серпасъяс
серпасыс
серти
сертиыс
сет
сетавны
сетан
сетас
сетло
сетлісны
сетны
сето
сетсьо
сету
сетч
сетіс
сетісны
сеул
сеута
си
сибелиус
сибири
сибирса
сибирын
сибирь
сибо
сибыд
сибыр
сибырак
сибыро
сибырса
сибырын
сивкова
сигово
сигудо
сидзжо
сидо
сидор
сидоров
сидорова
сизим
сизимдас
сизимдасо
сизимо
сизимсе
сизь
сизьяс
сизяб
сизяыб
сик
сикас
сикасо
сикассо
сикасын
сикасыс
сикким
сико
сикт
сиктас
сиктко
сиктло
сиктлы
сикто
сиктса
сиктсаяс
сиктсо
сиктсянь
сиктъяс
сиктъясо
сиктъясын
сиктын
сиктыс
сиктысь
сила
сильо
симаков
симаруба
символ
симпелев
симфоническо
син
сингапур
синдарин
синдор
синдхи
синица
синкымыс
синма
синмасьо
синмо
синмыс
синнот
синод
синт
синтаксис
синтаксисысь
синто
сио
сип
сипертас
сир
сири
сирия
система
системало
системе
системи
системы
системі
сиу
ск
сказка
сказкаясын
сказки
сказок
сканд
скандинав
ская
скаяс
скаясын
сква
сквозь
скелетон
ские
скии
ских
склад
складаються
складом
ско
скоги
ского
ское
скои
ском
скончалась
скончался
скопье
скотт
скуа
скуао
скуаса
скуаын
скульптор
скульптура
скупои
скыд
сл
слав
слава
славка
славы
славян
сладкоштиев
слалом
сло
слободскои
слов
слова
словак
словакия
словари
словарь
словаря
словен
словения
слово
слога
сложно
слуда
слудка
служба
службао
службаса
службасо
службаын
службаяс
служит
служитло
служитны
служито
служитысь
служитіго
служитіс
слун
слунсо
слысь
см
смасьны
смасьо
смерти
сметанин
сметанина
сми
смилингис
смоленск
смотритель
сна
снаи
снаыс
снг
сни
снимаи
снимокъяс
сноасе
сноуборд
сны
сньыдик
со
соавт
соавтор
собрание
собранньо
собянин
сов
совдор
совет
совета
советск
советская
советские
советскии
советских
советско
советского
советское
советскои
совпартшколаын
современная
современник
современники
современного
современныи
совхоз
совхозло
совхозо
совхозса
совхозын
совчужысь
сод
содо
содт
содто
содтыны
содіс
создание
созыв
сои
соколов
соколова
сола
солдат
соликамск
солнечнои
соло
соловье
соломон
соломония
солтан
сомали
сомалии
сомалиленд
соми
сонця
сонячноі
сонячніи
сопльо
сора
сорб
сорваче
сорвачева
сорд
сорди
соров
сорокин
сорокина
сосна
соснин
сосновка
сосногорск
сосногорско
соссяна
сост
состав
сосьва
сот
сото
сотрудник
сотруднико
сотч
сотчис
сотчо
софия
софроновло
софья
социал
социалистическо
социально
социолог
социологии
социология
сочи
сочинении
сочиын
союз
союза
союзса
спас
спасо
спасорд
спаспоруб
спб
спектакль
спектакльын
спектакльяс
специалист
специалистъяс
специальносьт
спецкурсу
спира
спиридон
спиридонов
список
списокъясын
списокъясысь
списокын
спо
спорт
спортивно
спортса
спортсмен
спортсменъяс
спортын
справочник
спринт
спринтын
спутник
спутникъяс
сравнительныи
сред
среди
среднего
сретенньо
сс
сса
ссо
сср
ссрс
ссср
сссрса
ссылки
ссылок
ссьыс
ссянь
ст
став
ставмирса
ставнас
ставныс
ставнысо
ставрополь
ставроссияса
ставс
ставсо
ставсоюзса
ставсьыс
ставыс
стажируи
стал
стала
стали
сталин
сталинград
сталино
стало
стан
станислав
становление
станок
станциа
станция
старик
старина
старо
старовскии
старославянскии
староста
старт
старцев
старцева
старшина
старшо
статеи
статистика
статистики
статкомитетло
статус
статут
стать
статьи
статья
статьяын
статьяяс
ства
ствиеа
ство
степан
степанакерт
степанов
степанова
степанович
степановна
степвыв
степени
степень
степо
степьяс
степьясын
стер
стеро
стефан
стефенс
стивен
стикс
стилем
стилистика
стиль
стильо
стильын
стит
ститны
стито
стихи
стихов
стихотворения
стихъяс
стно
сто
стокгольм
стоколос
столицы
столповскии
стр
стран
страна
странаын
странаысь
страница
страницы
страны
стрелитция
стрелко
стрелково
стрелок
стро
строи
строитель
строительно
студенеч
студент
студенталіго
студенто
студентов
студентъясло
студентъяслы
студия
студияо
студияын
стч
стчис
стчо
стчысь
стяк
стякъяс
стякъясло
су
суахили
субкотыр
субкотырса
субо
суворов
сувт
сувтанін
сувтланін
сувтны
сувто
сувтса
сувтіс
сувтісны
суд
судан
суданын
судзо
суднояс
судта
судтаа
судтало
судтаыс
суи
сук
сукгоева
сулавеси
сулавло
сулал
сулало
сулалысь
сулаліс
суматра
сумах
сунало
сунда
суоми
суомиса
суомиын
суомиысь
супутників
сур
сура
сурина
суринам
сус
суспу
суткинас
суффикс
суханов
суханова
сухоруков
сухум
суэц
сцена
сценарии
сценарист
сценическо
счастье
сша
съезд
съездса
съя
съяс
съясл
съяслы
съяслысь
съясо
съяссо
съясын
съясыс
съясысь
сы
сыв
сывдан
сывъюдор
сыко
сыкомтевчук
сыктгу
сыктыв
сыктывдін
сыктывдінкар
сыктывдінса
сыктывдінын
сыктывкар
сыктывкара
сыктывкарбердса
сыктывкаре
сыктывкарко
сыктывкаро
сыктывкарса
сыктывкарскии
сыктывкарского
сыктывкарсянь
сыктывкарын
сыктывкарысь
сыктывса
сыл
сылан
сыло
сылы
сылысь
сын
сына
сыно
сыо
сыр
сырье
сырьево
сыс
сысола
сысольск
сысольско
сысольскса
сысольскын
сысольскысь
сысь
сысянь
сычуань
сыын
сыысь
сь
сьджык
сьерра
ська
сьм
сьо
сьт
сьта
сьто
сьтса
сьтъяс
сьтын
сьтэпан
сьывны
сьыл
сьылан
сьыланкыв
сьыланкыви
сьыланкывло
сьыланкывъяс
сьыланкывъяса
сьыланкывъясло
сьыланкывъяссо
сьыланкывъясыс
сьыланъяс
сьыло
сьылысь
сьылысьо
сьылысьяс
сьылысьясло
сьыліс
сьылісны
сьыліыс
сьыны
сьыс
сьысь
сьысьяс
сэзь
сэк
сэки
сэкся
сэксянь
сэн
сэні
сэсся
сэсянь
сэт
сэто
сэтч
сэтчо
сэтш
сэтшо
сэтысь
сэті
сю
сюжет
сюжетъяс
сюзь
сюзяыб
сюзяыбын
сюзяыбысь
сюи
сюмо
сюр
сюра
сюраныр
сюраныръяс
сюрес
сюро
сюрс
сюрса
сюрсо
сюсь
сюся
ся
сявны
сял
сялана
сяло
сяля
сям
сяма
сямыс
сян
сянь
сяр
сяри
сідз
сідзжо
сідзи
сідзко
сіи
сісьтыдін
сітбар
т
та
табак
табар
таблица
тагалог
таджик
таджикистан
таджикистанын
тадз
тадзи
тае
таи
таиланд
таиландын
таити
так
также
тако
також
таланты
талица
таллинн
таллиннын
талун
талунъя
там
тамазигхт
тамара
тамил
тамилнад
тан
тана
тандзе
танзания
танко
таня
тані
тао
тар
тарабукин
тарабукина
тараканов
тарас
тарашкевич
таро
тарту
тартуса
таскаев
тасмания
тасманияын
тасс
тасьті
тасянь
тат
татч
татчо
татш
татшо
татысь
татьяна
тах
ташкент
таысь
тбилиси
твер
творческ
творческо
творчества
творчестве
творчество
творчествоын
твыв
твылысь
тджык
тдор
те
театр
театра
театральная
театрально
театрло
театрлы
театро
театрса
театръясло
театрын
тебеньков
тегеран
теи
текст
текстов
текстъяс
тексты
телевидение
телевидениеса
телевидениеын
телеграф
телеканал
телепон
телерадиокомпанияын
телескоп
телеуджтас
телугу
тель
тема
тематическо
темаыс
температура
тенант
тенанто
тентюков
теории
теория
тепло
терентьев
терентьева
терентьевало
терминов
террил
территориальное
территория
тетум
техника
техникало
техникаын
техникум
техникумын
техническо
технология
теш
тешкодь
тешъяс
ти
тибет
тибетын
тик
тико
тилаын
тили
тима
тиман
тимин
тиминло
тимонин
тимор
тимофеевич
тимофеи
тимушев
тимушева
тимшер
тио
тип
типо
типография
типология
тир
тираж
тиражыс
тирана
тирасполь
тист
тит
титан
титов
тифинаг
тифлис
тихо
тиыс
тияс
тк
тка
ткаяс
ткаясо
тко
ткодь
ткодьлуныс
ткодьо
ткодя
ткодялан
ткодяло
ткымын
тл
тлаась
тлаасьо
тлан
тлао
тласа
тлаын
тло
тлы
тлыны
тлысь
тлысьо
тлісны
тмоза
тмуно
тнас
тно
тны
тные
то
тобаго
товарищество
того
тогоын
тод
тои
токио
толковыи
толстои
толысь
только
толя
том
тома
томас
томах
томджык
томе
томлун
томск
тому
томулов
томуловло
томуловлы
тон
тонна
тонъяс
топ
топо
топографическо
тополь
топонимии
топонимическии
топонимия
топоров
топыд
топыда
топыдлун
тори
торлопов
торопов
тороповло
торсхавн
торъя
торъявл
торъякыв
торъял
торъялана
торъяло
тотара
тоторкатша
тотьма
тотьмаын
тофалар
точки
тпыри
тр
традиции
традиционная
традиция
традицияын
традицияяс
тракт
трактор
транскрипцияын
транслитерация
транслитерацияын
транспорт
транспортло
транспорто
транспортын
трась
трасьо
трасян
тре
трек
тренер
тренеро
тренируи
третьяков
трея
три
трибельгорн
трибуна
тринидада
трипан
трипура
тро
троицко
троича
тропик
тропикдорса
трофимов
трофимович
трошев
трошева
труд
труда
трудовая
труды
труженики
труппаын
трухильо
трц
тс
тсвана
тсе
тсо
тсонга
тсяма
тт
ттш
ттшо
ту
тув
туввез
туввези
тувсов
тувсовъя
тувт
тувто
тувтч
тувтчисны
тувтчо
тувтысь
тувтісны
тувъя
тугъя
туи
туискеро
тул
тула
тулан
тулыс
тулыснас
тулысын
тун
тунгус
тундра
тундрао
тундраса
тундраын
тундраяс
тундраясын
тундры
тунис
тупк
тупкисны
тупко
тупкысис
туризм
турин
турист
туркин
туркмен
туркменистан
турку
туркуса
турок
турубанов
турун
туруна
турунвиж
туруно
турунчо
турунъю
турунъяс
турунысь
турция
турцияса
турцияын
туръя
туръяыб
туръяыбын
турышев
тусь
тусьясо
тусьяссо
тут
туша
тушанас
тушаыс
тушаысло
туявны
туял
туялан
туяло
туялысь
туялысьо
туялысьяс
туялысьясло
туялысьясо
туяліс
туясьо
туясян
тфи
тхам
тхили
тхимпху
тч
тчан
тчик
тчис
тчо
тчыд
тчыдысь
тчыны
тш
тшаи
тшак
тшк
тшко
тшо
тшуго
тшуп
тшупо
тшыг
тшыгъяло
тшыко
тшын
тъяс
ты
тыбо
тыбъю
тыва
тыдал
тыдало
тыдовтчо
тыдор
тыла
тылаборда
тылаи
тыло
тымсер
тымсерын
тымын
тымыно
тын
тыпу
тыр
тыра
тырвыи
тыриг
тыригкежло
тыриго
тыркостса
тырл
тырло
тырлы
тырлысь
тырмо
тырмы
тырмымо
тырмыны
тырмыто
тыро
тырсикас
тырт
тырто
тыръяс
тыръясло
тырыс
тырыско
тырыслысь
тыс
тысь
тысьясло
тысянь
тысяча
тыш
тышкасиго
тышкасис
тышкасисны
тышкасьны
тышкасьо
тышкасян
тышо
тышса
тышъяс
тышъясын
тышын
тышысь
тыыс
тыысь
тыяс
тыясын
ть
тьо
тэ
тэи
тэн
тэно
тэрыб
тэрыба
тэч
тэчас
тэчасног
тэчасын
тэчо
тэчысь
тэчысьяс
тэчысьясло
тюксеи
тюмень
тюрк
тюркия
тюрнин
тянь
ті
тіс
тісны
у
уаи
ув
увдорыс
увлань
увтас
увтасъяс
увтыр
увтырын
увъяс
увъясысь
уганда
угоддьо
угор
угорская
угорские
угорскии
угорских
угорского
угров
угровед
угроведение
угроведов
угрозои
ударник
удж
уджавло
уджавліс
уджавны
уджал
уджалан
уджало
уджалысь
уджалысьо
уджалысьяс
уджалысьясло
уджалысьяслы
уджалысьяслысь
уджалысьясо
уджалышто
уджаліго
уджаліс
уджалісны
уджас
уджвывса
уджо
уджсикас
уджсо
уджсьыс
уджтас
уджтасъяс
уджтасын
уджъе
уджъяс
уджъяссо
уджъясыс
уджын
уджыс
уджысь
уджышто
удит
удито
удитіс
удмурт
удмуртия
удмуртияын
удмуртского
удмуртъяс
удмуртъясло
удора
удораса
удоратина
удораын
удорса
уег
уезд
уездло
уездно
уездо
уездса
уездъяс
уездын
уездысь
уж
ужга
ужгаса
узбек
узбекистан
узбекистанса
узбекистанын
узьо
узьто
уи
уилл
уильям
ук
указ
указатель
указо
уква
уквавом
укваса
укваын
украин
украина
украинао
украинаса
украинаын
украинаысь
украинеч
ул
улан
улас
улис
улича
уличаяс
улляна
уллянаса
уло
улын
улынджык
улыс
улысладорыс
улысь
уль
ульныров
ульяна
ульянов
ульянова
ульяновск
уляшев
уляшева
уляшевло
уляшов
умберто
умер
ун
уна
уналаті
уналаын
уналы
унао
унасикас
унатор
унаысь
унджык
унджыко
унджыксо
унджыкыс
унелма
университет
университета
университетло
университетлысь
университето
университетса
университетъясын
университетын
университетысь
унтер
уон
управление
управлениеын
управления
управленньо
упри
ур
урадник
урал
урала
уралса
уралын
уральско
уран
урана
уранло
урано
урась
урасьо
урду
уржум
уркаи
урло
уро
урожаи
уроки
урокъяс
уругваи
урчито
уръяс
уса
усва
усвавом
усвадор
уси
усинск
усис
ускар
ускаро
усогорск
успенньо
устав
установка
устно
устрои
усть
устье
усь
уськ
усько
усьл
усьо
утка
уткасо
уткаыс
уткаысло
уткаяс
утро
уу
ухта
ухтаса
ухтаын
ухты
участвуи
участок
участокын
уче
учеб
учебник
учебники
учебникъяс
учебно
учебное
учебнои
учебных
учен
ученого
ученые
ученыи
училишо
училище
училищео
училищеын
училищо
учитель
учительско
учителя
учреждение
учреждениеяс
учреждении
ушаков
ушел
ушла
уэльс
уяло
уялысь
ф
фабрика
фадеев
фаи
факс
факто
факультет
факультето
факультетса
факультетын
факультетысь
фалалеевич
фамилии
фап
фарер
фарерских
фарси
фасо
фасоын
фе
февраль
февраля
федерал
федерально
федератив
федерации
федерация
федерацияло
федерацияса
федор
федоров
федорова
федосеев
федотович
федюне
фельдшер
фельдшеро
фельдшерско
фельетонъяс
фенно
феоктиста
фердинанд
фермер
фернандес
фестиваль
фестивальо
фестивальын
фет
фигурно
фиджи
фиджии
физик
физика
физико
физиология
физическо
физкультура
физкультурно
филармония
филармонияын
филатова
филезия
филиал
филиала
филиалло
филиало
филиалса
филиалын
филиалысь
филипп
филиппин
филиппинъяс
филиппов
филиппова
филиппович
филол
филолог
филологиа
филологии
филологическии
филология
филологияса
философ
философия
философияса
фильм
фильмъяс
фин
финал
финальяс
финляндии
финляндия
финляндияса
финляндияын
финн
финно
финноугория
финугор
финъяс
флегонт
флорида
флотса
флотын
фолкленд
фольклор
фольклора
фольклорист
фольклористика
фольклорно
фольклоро
фольклорын
фольклорысь
фомин
фон
фонд
фондло
фондо
фонетика
фонтан
форма
формат
формате
формулаясын
формы
форум
фосфор
фотоальбом
фотогалерея
фотографии
фр
фраи
франк
франс
франсуз
франсузко
франц
франциско
франция
францияса
францияын
француз
французскии
фреи
фриз
фристаи
фролов
фролова
фронт
фронто
фронтовики
фронтъясын
фронтын
фрукта
фрунзе
фула
фунт
фурлан
фурманов
футбол
футболист
фф
фьордъяс
х
хабариха
хабаровск
хадс
хаи
хакас
ханои
хант
ханты
харон
харута
харьков
хатанзеи
хауса
хельер
хельсинки
хельсинкиын
химик
химия
хин
хинди
хирург
хирургия
хозе
хозяи
хозяинов
хозяинова
хоккеи
холман
холопов
холопова
холуница
хор
хорват
хорватия
хорватияын
хормеи
хоро
хорошо
хорын
храм
хрестоматия
хризобаланус
хуанх
худ
худож
художественн
художественно
художествоа
художник
худяев
худяков
хуи
хутор
хх
хіх
ц
цар
царе
цария
царияса
царияын
цбс
це
цеи
цембер
центр
центра
центриздат
церковь
цех
цивиле
цик
цикл
циклон
циклонъяс
цо
цхинвал
цц
цыпанов
ці
ч
ча
чавкан
чагин
чад
чадын
чаи
чаланов
чало
чалысь
чам
чаморро
чан
чапаев
чард
чарла
чарльз
час
часовня
часто
частушкаяс
часть
часын
че
чебоксары
чедвик
человек
челябинск
челядь
челядьдыри
челядьло
челядьлы
челядьлысь
челядьо
челядьсо
челядьыс
челядьыско
челядя
чем
чемпион
чемпионат
чемпионатъясын
чемпионатын
чемпионка
чемпионо
чеп
чепецк
чер
черань
чердін
чере
через
черемкова
черемковаса
черепанов
чери
черио
черкес
чернеть
черногор
черногория
черныб
черныи
черных
честь
четвергсянь
четыре
чеусов
чех
чехия
чеховло
чечен
чеччало
чеччышто
чи
чиган
чиго
чили
чилимд
чилимдін
чилиын
чильо
чим
чимиаво
чин
чина
чинки
чино
чиновник
чинок
чиніс
чипан
чипсано
чирк
чис
чисны
чистале
чит
читае
читальня
читальняо
чл
член
членъяс
чло
члісны
чны
чо
човса
чожмо
чои
чоло
чорыд
чорыда
чтения
что
чув
чуваш
чувашскии
чувьюров
чувьюрова
чугаев
чуграяс
чугун
чудь
чуж
чужан
чужанін
чужанінас
чужаніно
чужанінсо
чужи
чужис
чужисны
чужло
чужо
чужт
чуи
чуистова
чук
чукарева
чукачои
чукло
чукля
чуко
чуксало
чуксасьо
чукыръяс
чупров
чур
чурак
чурвидз
чурка
чут
чуто
чутъяс
чутъяса
чутъясао
чутік
чушканзі
чхаттисгархи
чч
ччо
ччыны
чысь
чысьо
чышко
чышъян
чьяс
ш
ша
шабді
шаблон
шаи
шаль
шаманов
шань
шаньга
шаньгин
шапка
шар
шарапов
шарджыни
шарипков
шахов
шахова
шаховло
шахсикт
шахта
шахтаын
шахте
швед
швеи
швеция
швецияын
ше
шеболкин
шебырев
шева
шег
шеги
шед
шедо
шедтасъяс
шежам
шеи
шекспирло
шеллябо
шелъяс
шенышто
шеппард
шергин
шергина
шесталов
шестое
шиликова
шинь
ширяев
ших
шк
шка
шкамо
шкм
школ
школа
школаас
школало
школалы
школалысь
школао
школаса
школасо
школаын
школаыс
школаысь
школаяс
школаяслы
школаясын
школы
школьника
шлыгина
шм
шмо
шмонитан
шмонитана
шмонь
шо
шобд
шобді
шог
шогман
шои
шом
шомгаг
шомысов
шомысова
шона
шонал
шонд
шонді
шондіа
шондібан
шонт
шонто
шоныд
шоныдджык
шор
шори
шорсаи
шорт
шоръяс
шотландия
шотландса
шоу
шоуолтер
шоутъярв
шоч
шоча
шочиника
шпицберген
шренк
шри
шрифт
шрифтъяс
шса
шта
штабса
штабын
штатло
штато
штатъяс
штатъясын
штатын
штво
штвоыс
шти
штип
што
шу
шуам
шуанног
шуас
шубашкар
шугнан
шуд
шуда
шудо
шуи
шуис
шуисны
шуктомов
шул
шулепов
шуло
шуліс
шулісны
шуны
шуо
шусис
шусь
шусьо
шусьыны
шусяна
шучалин
шш
шы
шыасяс
шыбит
шыбитчана
шыбитісны
шыбка
шыблало
шыд
шызьо
шылад
шылада
шыладор
шыладорса
шыладсо
шыладыс
шыло
шыльо
шыльыд
шым
шын
шыо
шыпас
шыпаскуд
шыпаслы
шыпассо
шыпасъяс
шыпасъясо
шыпасысь
шыр
шыръяс
шыръясо
шыыс
шыяс
шыясо
шь
щ
щаи
щербаков
щипачкин
що
щугор
щукин
щукинло
щщ
ъ
ъъ
ы
ыб
ыбса
ыбъяс
ыв
ывла
ывлавыв
ывлао
ывло
ывлісны
ывса
ывсьыс
ывсянь
ывъяс
ывъясыс
ыгыперя
ыд
ыджда
ыджданас
ыдждаыс
ыджыд
ыджыдвиддзын
ыджыдвиддзысь
ыджыдвидз
ыджыдвидзса
ыджыдджык
ыджыдъяг
ыдпел
ыж
ыжъяс
ыл
ыла
ылас
ылдо
ылнаын
ыло
ылыдз
ылын
ылыс
ылысь
ылысянь
ылі
ылісны
ын
ыны
ыпъялан
ырг
ырго
ыркыд
ыс
ысис
ысло
ыст
ысто
ыстіс
ыстісны
ысь
ысьны
ысьо
ысьяс
ысьясло
ысьяслы
ысян
ытва
ыш
ышо
ыы
ь
ьь
э
эвакуируи
эве
эвен
эг
эгеи
эдуард
эжва
эжваса
эжо
эжъес
эз
эзысь
эзысьо
эзысьысь
эи
эквадор
экватор
экваторса
экз
экзаменъяс
эко
экологическо
экология
экономика
экономикаысь
экономист
экономисто
экономические
экономическо
экспедиция
экспедицияо
экспедицияын
экспериментально
эл
электронная
электронно
электронныи
электростанция
элемент
элеонора
элиас
эллада
эллин
эль
элясьо
эм
эмакывло
эмбур
эмилия
эмо
эму
эн
энгельс
энергетическо
эновт
эновтны
эновто
энциклопедии
энциклопедист
энциклопедическии
энциклопедия
энциклопедияын
энь
эньлов
эньыс
эньысло
эньясыс
эпарсе
эпическо
эпос
эпоса
эпосло
эпоху
эр
эра
эрао
эраса
эраст
эрд
эрзя
эритрея
эск
эскимос
эско
эском
эскысь
эскысьяс
эсперанто
эст
эстафета
эстафетаын
эстония
эстонияса
эстонияын
эстонскии
эстонско
эстрадно
эстъяс
эськ
эсько
этимологическии
этимология
этнограф
этнографии
этнографическо
этнографическое
этнография
этнографияысь
этнокультурно
этнос
это
этша
этшаджык
эускара
эфиопия
эфиопияын
эшмес
эшпаи
эшто
ээ
ю
юало
юан
юано
юасьо
юбер
юбилеи
юван
ювывса
югд
югдо
югдін
югдіно
югдінса
югдінын
юго
югов
югыд
югыдъяг
югыт
юджин
юдор
южно
юк
юкагир
юко
юксисны
юксьо
юл
юлев
юлиан
юлии
юлия
юло
юль
юмов
юнеско
юннань
юнь
юньнань
юо
юпитер
юпитерло
юпитеро
юпітер
юпітера
юр
юра
юралысь
юралысьло
юралысьлысь
юралысьо
юрас
юрбито
юрган
юрго
юренькаи
юри
юридическо
юрии
юркар
юркаро
юркарса
юркаръяс
юркарын
юркарыс
юрнуо
юро
юрси
юрсикт
юрсикто
юрсиктсянь
юрсипыста
юрсо
юръе
юрыс
юрье
юрьевна
юстина
юсь
юсьва
юсьяс
юсянь
ютыр
ютырло
ютыро
ютырса
ютырын
юхнин
юхнинло
юшар
юшкин
юшков
юшкова
юшковло
юыс
юысь
юю
юяс
юясло
юясын
юясыс
юясысь
я
ябл
ябыр
ява
яг
яга
ягвыв
ягдор
ягноб
ягын
яз
язык
языка
языкам
языках
языке
языки
языков
языкознания
языку
язьва
яи
як
яка
яков
яковлев
яковлевич
яковлевская
якуб
якутск
які
ям
ямаи
ямал
ямалса
ян
яна
янв
январ
января
янга
янка
яно
янс
янсо
янцзыцзян
яныс
янін
яп
япон
япония
японияса
японияын
японскии
японско
яран
яранск
яранъяс
яранъясло
ярасов
ярашъю
ярашъюын
яренга
яренск
яренско
яренскса
яренскын
ярко
ярманга
ярославль
яс
яско
ясло
яслы
ясно
ясо
яссо
ясын
ясыс
ясысь
ятка
яфетическо
яя
ђ
ђђ
є
єє
ѕ
ѕѕ
і
із
інших
іі
ііі
ј
је
јј
љ
љљ
њ
њњ
ћ
ћћ
џ
џџ
ѡ
ѡѡ
ѣ
ѣѣ
ѥ
ѥѥ
ѧ
ѧѧ
ѩ
ѩѩ
ѫ
ѫѫ
ѭ
ѭѭ
ѯѯ
ѱѱ
ѳ
ѳѳ
ѵ
ѵѵ
ѹ
ѻ
ѻѻ
ѽ
ѽѽ
ѿ
ѿѿ
ҁҁ
҆
ҋҋ
ҍ
ҍҍ
ҏҏ
ґґ
ғ
ғғ
ҕ
ҕҕ
җ
җҗ
ҙҙ
қ
ққ
ҝҝ
ҟҟ
ҡҡ
ң
ңң
ҥ
ҥҥ
ҧ
ҧҧ
ҩҩ
ҫ
ҫҫ
ҭ
ҭҭ
ү
үү
ұ
ұұ
ҳ
ҳҳ
ҵҵ
ҷҷ
ҹҹ
һ
һһ
ҽҽ
ҿҿ
ӄ
ӄӄ
ӆ
ӆӆ
ӈ
ӈа
ӈӈ
ӊӊ
ӌӌ
ӎӎ
ӏӏ
ӕ
ӕӕ
ә
әты
әә
ӡ
ӡӡ
ө
өө
ӷӷ
ӻӻ
ӽ
ӽӽ
ӿӿ
ԁ
ԁԁ
ԃԃ
ԅԅ
ԇԇ
ԉ
ԉԉ
ԋ
ԋԋ
ԍ
ԍԍ
ԏ
ԏԏ
ԑ
ԑԑ
ԓ
ԓԓ
ԕԕ
ԗԗ
ԙԙ
ԛ
ԛԛ
ԝԝ
ԟԟ
ԡԡ
ԣԣ
ԥ
ԥԥ
ԧԧ
ԩԩ
ԫ
ԭ
ԯ
ԯԯ
մ
ն
վ
ְ
ִ
ֵ
ַ
ָ
ֹ
ּ
ֿ
א
ב
ג
ד
ז
ט
י
כ
ס
ע
פ
ר
،
ء
ا
الا
العربية
ب
ة
ت
ث
ج
ح
خ
د
ذ
ر
ز
س
ش
ص
ض
ط
ظ
ع
غ
ف
ق
ل
م
ن
ه
و
ي
ٌ
َ
ُ
ِ
ّ
ٓ
ٔ
ٕ
ٹ
پ
چ
ڈ
ڑ
ژ
ک
گ
ھ
ی
ے
ܐ
ܒ
ܕ
ܚ
ܢ
ܬ
ܰ
ܲ
ܳ
ܵ
ܶ
ܸ
ܹ
ܼ
ܿ
ހ
ރ
އ
ވ
ދ
ޖ
ާ
ި
ު
ެ
ް
߲
ँ
ं
ः
एक
क
ख
च
छ
ज
ट
ठ
ड
ण
त
थ
द
ध
न
प
ब
भ
म
य
र
ल
व
श
ष
स
ह
़
ा
ि
ी
ु
ू
े
ो
ौ
्
।
०
१
२
३
४
५
६
७
८
९
ॿ
ং
ক
খ
চ
জ
ট
ত
দ
ন
প
ব
ম
য
র
ল
শ
ষ
হ
়
া
ি
ী
ু
ে
ৈ
্
ੀ
ੰ
ச
ட
ர
ழ
ி
ு
்
ు
ು
ೆ
ള
ാ
ു
െ
ද
න
ව
ස
්
ා
ි
ු
ෙ
ด
น
บ
ย
ล
ส
ั
า
ิ
ี
ื
ุ
็
่
้
་
ཀ
ག
ད
ན
པ
མ
ར
ལ
ས
ི
ུ
ོ
ྐ
ྒ
ྔ
ྱ
ྲ
က
ခ
င
စ
ဋ
တ
န
ပ
ဘ
မ
ရ
လ
သ
ါ
ာ
ိ
ီ
ု
ူ
ေ
ံ
း
်
ြ
ွ
ှ
၁
၂
၃
၄
၅
၆
၇
၈
၉
ၢ
ၵ
ၼ
ႁ
ႃ
ႆ
ႇ
ႈ
სულიკო
ხარ
፡
ា
ᨍ
ᨑ
ᨒ
ᨕ
ᨗ
ᨘ
ᨙ
ᨚ
᩵
᩶
᪀
᪁
᪂
᪃
᪄
᪅
᪆
᪇
᪈
᪉
᪐
᪑
᪒
᪓
᪔
᪕
᪖
᪗
᪘
᪙
ᮓ
ᮔ
ᮞ
ᮥ
᮪
ᵹᵹ
ᵽᵽ
᷄
᷅
ᷠ
ỻỻ
ỽỽ
ỿỿ
​
‌
‍
‎
–
—
―
‘
’
“
”
„
†
•
…
′
№
←
↔
↷
−
⊕
③
④
⑦
⟨
⟩
ⱡ
ⱥ
ⱦ
ⱨ
ⱪ
ⱬ
ⱳ
ⲉ
ⲙ
ⲣ
ⲧ
ⴰ
ⵉ
ⵍ
ⵎ
ⵖ
ⵜ
⺀
⺄
⺆
⺈
⺊
⺌
⺕
⺝
⺸
⺼
⿰
⿱
⿲
⿳
⿴
⿵
⿶
⿷
⿸
⿹
⿺
⿻
〢
゚
ア
イ
ゥ
コ
サ
シ
ッ
ト
ネ
ヘ
ユ
ワ
ン
㇁
㇂
㇄
㇇
㇈
㇉
㇓
ㇰ
㐁
㐄
㐅
㐌
㐫
㐬
㐭
㐮
㐱
㑒
㒵
㒸
㒼
㓁
㓞
㔾
㕛
㕣
㖾
㘝
㚅
㚇
㚔
㚘
㝉
㝡
㝴
㝵
㞋
㞢
㞷
㠩
㠭
㠯
㡀
㡭
㡿
㢲
㢴
㣇
㣺
㥯
㪅
㫄
㫐
㫒
㫺
㬅
㬎
㬥
㬰
㲋
㳄
㷠
㸒
㸚
㸦
㼌
㼲
㽞
㿟
䀠
䂞
䍃
䏍
䒑
䖍
䖒
䖝
䖵
䙴
䚻
䜌
䝿
䡛
䧹
䪞
一
丁
丂
七
丄
丅
丆
万
丈
三
上
下
丌
不
与
丏
丐
丑
专
且
丕
世
丘
丙
业
东
丞
丢
丣
两
严
並
丨
丩
个
丫
丬
中
丮
丰
丱
串
丵
丶
丷
丸
丹
为
主
丽
丿
乀
乂
乃
久
乆
乇
么
义
之
乌
乍
乎
乏
乐
乑
乔
乖
乗
乘
乙
乚
乛
乜
九
乞
也
习
乡
乳
乾
亀
亅
了
亇
予
争
事
二
亍
于
亏
亐
云
互
亓
五
井
亘
亚
亜
亞
亟
亠
亡
亢
交
亥
亦
产
亨
亩
享
京
亭
亮
亯
亰
亲
亳
亶
亷
人
亻
亼
亾
仁
今
介
仌
从
仐
仑
仒
仓
仕
他
付
仝
代
令
以
任
企
伊
伏
伐
休
会
伯
但
位
何
佘
余
作
佥
使
來
侈
侌
侖
侯
侵
便
保
俞
信
修
倉
倍
候
倠
備
僉
僕
儿
兀
允
兂
元
兄
充
兆
兇
先
光
兊
克
兌
免
兑
兒
兓
兔
党
兜
兟
入
全
兩
兪
八
公
六
兮
兰
共
关
兵
其
具
典
兹
兼
冀
冂
冃
冄
内
冈
冉
冊
冋
册
再
冎
冏
冐
冒
冓
冖
冗
冘
军
农
冝
冡
冥
冫
冬
冷
几
凡
凢
凵
凶
凷
凸
凹
出
函
凾
刀
刁
刂
刃
刄
刅
分
切
刍
刑
刕
刖
列
刘
则
初
別
利
别
到
制
刺
則
削
剌
前
剡
剽
劉
力
功
加
劦
助
劫
劳
劵
勃
勇
勉
勒
動
務
勞
勤
勹
勺
勻
勾
勿
匀
匂
包
匆
匈
匊
匋
匍
匕
化
北
匚
匝
匡
匪
匱
匸
匹
区
医
匽
匿
區
十
卂
千
卄
卅
卆
升
午
卉
半
卌
华
卑
卒
卓
单
卖
南
卜
卝
卞
占
卡
卢
卣
卤
卦
卩
卪
卬
卯
印
危
即
却
卵
卷
卸
卻
厂
厃
厄
历
厈
厉
厌
厓
厘
厚
原
厤
厥
厨
厭
厲
厶
厷
厸
去
厼
厽
叀
参
參
叅
又
叉
及
友
双
反
叐
发
叒
叔
叕
取
受
叚
叜
叟
口
古
句
另
叩
只
召
可
台
叱
史
右
叵
号
司
叹
吂
各
吅
合
吉
吊
吋
同
名
后
吏
向
吕
君
吝
吞
否
含
启
吳
吴
吹
吾
呂
呆
呈
告
员
呙
周
命
咅
和
咎
咠
咢
咨
咸
咼
哀
品
哉
員
哥
哲
唐
商
啇
問
啚
啬
啻
喃
善
喜
喬
單
喿
嗇
噩
嚴
囊
囗
囘
囙
囚
四
回
囟
因
囧
囬
困
囱
囷
固
国
圂
圅
國
圍
圓
土
圡
圣
圥
在
圭
地
圶
圼
坐
坒
坚
坴
垂
垔
垚
埀
埋
埶
執
基
堂
堅
堆
堇
堯
塞
墨
壘
士
壬
壯
声
壳
壴
壹
壺
壽
夂
处
夅
夆
备
夊
夋
夌
复
夏
夒
夕
外
夗
夘
多
夜
夢
大
夨
天
太
夫
夬
夭
央
失
夲
头
夷
夸
夹
夻
夾
奂
奄
奇
奈
奉
奎
奏
奐
契
奓
奔
奚
奞
奠
奢
奥
奭
女
奴
奻
好
如
妄
妙
妟
妥
妻
妾
姑
委
姜
威
娄
婁
婴
嬰
嬴
子
孑
孔
孕
孖
字
存
孚
孛
孝
孟
季
孤
学
孫
孱
學
宀
宁
宂
它
宅
宇
守
安
宋
完
宏
宓
宗
官
定
宛
宜
宝
客
宣
室
宮
宰
害
家
容
宾
宿
寄
寅
密
富
寒
察
寧
審
寫
寬
寮
寸
对
寺
寻
寽
対
寿
封
尃
射
将
將
專
尉
尊
尋
尌
對
小
少
尒
尓
尔
尖
尗
尚
尞
尢
尣
尤
尧
尨
尭
就
尸
尹
尺
尻
尼
尽
尾
尿
局
居
屈
屋
屎
屏
屑
展
屖
屚
属
屠
屡
屬
屮
屯
屰
山
屵
屾
岁
岂
岑
岡
岩
岳
岸
峯
島
崇
崑
崔
崖
崙
崩
嵬
嶲
巂
巛
川
州
巟
巠
巢
巤
工
左
巧
巨
巩
巫
差
己
已
巳
巴
巷
巸
巽
巾
巿
帀
市
布
希
帚
帛
帝
带
師
席
帶
常
干
平
年
幵
并
幷
幸
幺
幻
幼
幽
幾
广
広
庄
床
底
店
庚
府
度
庫
庭
庶
康
庸
廉
廌
廛
廣
廩
廴
延
廷
建
廾
廿
开
弁
弃
弄
弇
弋
式
弓
弔
引
弗
弘
弜
弟
弥
弦
弱
張
強
强
彊
彌
彎
彐
彑
当
彔
录
彖
彗
彡
形
彥
彦
彧
彭
彳
役
彼
往
待
律
徒
得
徙
從
復
微
徵
心
忄
必
忌
忍
志
忝
忠
忩
快
念
忽
忿
思
怠
急
怱
恆
恒
恩
恭
息
悉
患
悤
悲
悶
惠
惡
惢
愁
愈
意
愛
感
慈
慧
慮
憂
憲
應
戀
戈
戉
戊
戋
戌
戍
戎
成
我
戒
戔
或
戚
戠
戢
截
戲
戶
户
戹
戼
戾
房
所
扁
扇
手
扌
才
打
托
执
承
折
拉
拜
拿
掌
推
提
摩
支
攴
攵
收
攸
改
放
政
敄
敏
敕
敖
敗
敝
敞
敢
散
敦
敫
敬
数
敷
數
斂
文
斉
斊
斗
斤
斥
斩
斬
斯
新
方
於
施
斿
旁
旋
族
无
旡
既
旣
日
旦
旧
旨
早
旬
旱
旲
时
旾
昆
昇
昌
昍
明
昏
易
昔
昗
昜
星
春
昬
是
昱
昴
昷
時
晃
晋
晏
普
景
晶
智
暑
暴
曇
曩
曰
曲
曳
更
曷
書
曹
曼
曾
替
最
朁
會
月
有
朋
服
朔
朕
朗
望
朝
木
朩
未
末
本
札
朮
术
朱
朵
朶
朿
杀
杏
杜
束
条
来
東
杲
杳
松
析
林
枚
果
枝
枲
枼
某
柔
查
柬
柰
柴
栗
桀
桑
桼
梁
條
梟
梨
棘
棠
棥
森
楚
業
楽
榮
樂
樊
欠
次
欣
欮
欲
欶
欽
款
歆
歇
歛
止
正
此
步
武
歨
歪
歮
歯
歰
歲
歴
歷
歸
歹
歺
死
殳
段
殷
殸
殹
殺
殻
殿
毋
毌
母
每
毒
比
毕
毚
毛
毳
氏
氐
民
气
氣
水
氵
氶
氷
永
氺
氾
求
汝
汞
江
沃
沓
沙
沝
泉
法
波
泣
泥
泰
洛
洪
活
派
流
浦
浪
浮
淡
淮
清
渚
渠
湯
滿
漸
火
灬
灭
灰
灵
灷
炅
炎
炏
炗
炙
炭
為
烈
烏
烝
焉
無
焦
焱
然
煞
熊
熏
燕
營
燮
爪
爫
爭
爯
爰
爱
爲
爵
父
爻
爽
爾
爿
片
牙
牚
牛
牜
牟
牢
牧
牪
牽
犀
犬
犭
犮
狂
狄
狊
独
狺
猋
猒
猪
献
獻
玄
率
玉
王
玟
玨
珎
班
琴
瑟
瑩
瓜
瓦
甘
甚
生
産
用
甫
甬
田
由
甲
申
电
甶
男
甸
甹
画
甾
畀
界
畏
畐
留
畜
畟
畢
畧
畨
番
畫
異
畱
當
畺
畾
疊
疋
疌
疑
疒
疾
癶
癸
癹
登
發
白
百
皀
皃
的
皆
皇
皋
皐
皕
皮
皷
皿
盃
盆
盇
盈
益
盍
盎
监
盒
盖
盛
盡
監
盤
盧
目
直
相
盾
省
眇
眉
看
眔
眞
真
眷
眼
眾
着
睘
睪
睿
瞏
瞢
瞿
矍
矛
矞
矢
矣
知
矦
短
石
破
碎
磊
磨
示
礻
礼
祟
票
祭
禀
禁
禸
禹
禺
离
禽
禾
禿
秀
秃
秉
秋
科
秝
秦
移
稟
穀
穌
穴
究
穹
空
穿
突
窄
窒
立
竒
竜
竝
竟
章
童
竹
笑
笠
筆
等
答
箕
算
箴
節
篤
篭
米
粉
粛
粟
粤
粦
粲
糞
糸
糹
系
約
納
素
索
紫
累
細
絜
絫
絲
維
綿
縣
繇
纍
纟
缶
网
罒
罔
罕
罗
罙
罡
罢
罪
署
罷
羅
羊
羌
羍
美
羔
羕
羗
羞
羡
羣
群
義
羲
羸
羽
翁
翏
習
翕
翟
翠
翼
老
耂
考
者
耆
而
耎
耑
耒
耳
耴
耶
耷
聂
聊
聖
聚
聶
聿
肀
肃
肅
肉
肖
肙
肥
肩
肯
育
肴
胃
背
胡
胥
能
脊
脩
膚
臣
臤
臧
自
臬
臭
臯
臱
至
致
臺
臼
臽
臾
臿
舀
舂
舄
與
興
舉
舌
舍
舛
舜
舞
舟
般
艮
良
色
艸
艹
艾
芒
芔
芬
芮
花
芳
芺
芻
苔
苗
苟
若
苦
英
茶
茸
荅
草
荒
荣
荼
莆
莧
莫
莽
菆
菊
菐
華
萬
落
葉
著
葛
董
葵
蒙
蒦
蒼
蓋
蓬
蓺
蔑
蔡
蕉
蕭
薄
薛
薦
薰
藍
藏
藥
蘭
虍
虎
虐
虒
虔
處
虖
虗
虘
虚
虛
虜
虞
虫
虽
蚤
蚩
蜀
蜜
蟲
蠡
血
行
衍
衛
衣
衤
表
衮
衰
袁
袞
褭
褱
襄
襾
西
覀
要
覃
見
規
覓
覧
親
覽
见
角
解
言
訁
訇
計
詹
語
誩
諸
讠
话
语
谷
豆
豈
豊
豐
豕
豖
豙
象
豦
豩
豪
豸
貇
貝
貞
貟
負
貢
貧
貪
貫
責
貳
貴
買
費
賁
資
賈
賏
賓
賔
賛
賞
賢
賣
質
賴
贊
贝
贡
责
贯
贲
贵
赖
赞
赤
赦
走
越
足
路
蹇
身
躬
車
軍
軎
軟
輦
车
辛
辜
辟
辥
辰
辱
農
辵
辶
边
达
过
近
连
迷
追
退
送
逆
逐
通
速
造
逢
連
逮
進
遀
遂
過
道
達
遣
適
遷
遺
邊
邑
邕
那
邦
邪
郎
部
郭
都
鄉
酉
酋
配
酓
釆
采
里
重
野
量
金
釒
錢
钅
長
镸
长
門
閃
閉
開
閏
閑
閒
間
閔
閵
閻
闌
门
间
闷
阑
阜
阝
阿
降
陳
隆
隊
隋
隡
隨
隱
隶
隹
隺
隻
隼
隽
难
雀
雁
集
雈
雋
雍
雐
雔
雙
雚
雜
雝
離
難
雨
雩
雪
雲
零
雷
需
霍
霜
霝
霞
霸
靈
靑
青
非
靡
面
靣
革
韋
韦
韭
韯
韱
音
頁
頃
項
須
頗
頡
頻
顛
页
風
风
飛
飞
食
飠
養
饣
首
香
馬
馮
駦
马
骨
高
髟
鬥
鬯
鬲
鬼
魚
魯
鮮
鱼
鲁
鳥
鳳
鸟
鹵
鹿
麃
麗
麥
麦
麻
黃
黄
黍
黎
黑
黒
黨
黹
黽
黾
鼎
鼓
鼠
鼻
齊
齋
齐
齒
齿
龍
龙
龜
龟
龠
龰
龱
龴
龵
龶
龷
龸
龹
ꆈ
ꌠ
ꓡ
ꓢ
ꓲ
ꓴ
ꙁ
ꙇ
ꙉ
ꙋ
ꙍ
ꙏ
ꙓ
ꙕ
ꙗ
ꙟ
ꙡ
ꙣ
ꙥ
ꙧ
ꙩ
ꙫ
ꙭ
ꙮ
ꚁ
ꚃ
ꚅ
ꚇ
ꚉ
ꚋ
ꚍ
ꚏ
ꚑ
ꚓ
ꚕ
ꚗ
ꚙ
ꚛ
ꜣ
ꜥ
ꜧ
ꜩ
ꜫ
ꜭ
ꜯ
ꜳ
ꜵ
ꜷ
ꜹ
ꜻ
ꜽ
ꝇ
ꝍ
ꝏ
ꝛ
ꝡ
ꝣ
ꝩ
ꝺ
ꝼ
ꝿ
ꞁ
ꞃ
ꞅ
ꞇ
ꞌ
ꞑ
ꞓ
ꞗ
ꞡ
ꞣ
ꞥ
ꞧ
ꞩ
ꢬ
ꢵ
꣄
ꦏ
ꦕ
ꦤ
ꦫ
꧇
꧐
꧑
꧕
ꪀ
ꭲ
ꭶ
ꭹ
ꭿ
ꮃ
ꮅ
ꮑ
ꮒ
ꮝ
ꮣ
ꮳ
ꯀ
ꯂ
ꯃ
ꯄ
ꯅ
ꯇ
ꯉ
ꯍ
ꯑ
ꯔ
ꯛ
ꯜ
ꯝ
ꯟ
ꯠ
ꯣ
ꯤ
ꯥ
ꯦ
ꯧ
ꯨ
꯰
꯱
꯲
者
艹
？
𐄇
𐄈
𐄉
𐄐
𐅄
𐅅
𐌀
𐌁
𐌂
𐌃
𐌄
𐌅
𐌇
𐌉
𐌊
𐌋
𐌌
𐌍
𐌐
𐌓
𐌔
𐌕
𐌖
𐌚
𐌝
𐌞
𐌰
𐤉
𐤌
𐤍
𐬀
𐬁
𐬆
𐬉
𐬌
𐬎
𐬑
𐬗
𐬙
𐬚
𐬛
𐬞
𐬡
𐬥
𐬧
𐬭
𐬯
𐬱
𐬴
𐬵
𐭘
𐭙
𐭚
𐭛
𑄇
𑄧
𑄱
𑄲
𑋰
𑋱
𑋲
𑋳
𑋴
𑋵
𑋶
𑋷
𑋸
𑋹
𑙐
𑙑
𑙒
𑙓
𑙔
𑙕
𑙖
𑙗
𑙘
𑙙
𖩡
𖫳
𖫴
𠀁
𠀃
𠀆
𠀉
𠀎
𠀐
𠁁
𠁣
𠂆
𠂇
𠂈
𠂉
𠂊
𠂋
𠂎
𠂒
𠂔
𠂛
𠂡
𠂢
𠂤
𠂬
𠂭
𠂹
𠃊
𠃋
𠃌
𠃍
𠃎
𠃑
𠃓
𠃔
𠃜
𠄌
𠄎
𠄠
𠄢
𠆢
𠆥
𠇍
𠈌
𠌵
𠓜
𠔉
𠔥
𠔼
𠔽
𠔿
𠕀
𠕁
𠕋
𠘧
𠘨
𠙻
𠙼
𠚏
𠚒
𠚤
𠚪
𠣏
𠤎
𠤕
𠥓
𠦄
𠦑
𠦝
𠧒
𠧗
𠧪
𠩺
𠪚
𠫓
𠫔
𠫤
𠬛
𠬝
𠬞
𠬢
𠬤
𠬶
𠮛
𠮦
𠮷
𠯑
𠱠
𠳮
𠷎
𡈼
𡉀
𡉵
𡌥
𡍮
𡏳
𡕒
𡕩
𡕰
𡖅
𡗗
𡗜
𡘆
𡘤
𡧱
𡨄
𡨸
𡩧
𡬠
𡭽
𡰣
𡰥
𡰪
𡰯
𡰱
𡷈
𡸁
𡿨
𡿩
𡿪
𡿺
𢀖
𢀛
𢀩
𢁙
𢆉
𢆰
𢆶
𢇁
𢇇
𢉖
𢌬
𢌿
𢏚
𢑑
𢑚
𢖻
𢙣
𢛳
𢦏
𢦒
𢧵
𢼄
𢾕
𣁋
𣄼
𣅀
𣅽
𣍘
𣎳
𣎵
𣏋
𣏼
𣗥
𣥂
𣥖
𣦵
𣦼
𣧄
𣪊
𣪠
𣬉
𣳾
𣶒
𤇾
𤊽
𤐫
𤓰
𤔔
𤕨
𤣩
𤰇
𤰔
𤰞
𤴓
𤴔
𤽄
𥁑
𥁕
𥃦
𥃩
𥃭
𥇡
𥑟
𥘅
𥘈
𥝢
𥫗
𥱡
𦈢
𦉪
𦉬
𦉼
𦍌
𦍒
𦎧
𦐇
𦓔
𦔮
𦘒
𦙃
𦚏
𦣝
𦣞
𦣻
𦥑
𦥔
𦥯
𦨉
𦭝
𦰩
𧆞
𧈧
𧘇
𧰨
𧴪
𧴮
𧵩
𧾷
𨸏
𨾴
𩙿
𩠐
𩫏
𩵋
𪉷
𪜀
𪟽
𪠲
𪩲
𫇦
𫔭
𫜸
𫝀
𫠣
𫠩
𫢉
𫥞
𫩏
𫩠
𫪡
𫲽
𫶧
𬀷
𬐘
𬗌
𬙙
𬛸
𬜯
𬟩
𬯁
𬴘
𬺻
𬼉
𬼖
𭀰
𭁈
𭁨
𭅰
𭑈
𭕄
𭗼
𭤨
𭥫
𭻾
𮅕
𮊿
𮍌
𮍏
𮓗
𮥼
𮧮
廾
𰀁
𰀄
𰀈
𰀉
𰀕
𰀠
𰀡
𰀢
𰀪
𰁜
𰃮
𰆊
𰆘
𰋙
𰕎
𰢴
𰧭
𰯲
85--
a--
ab--
ac--
acicu--
acu--
acuti--
ad--
adeno--
ai--
ak--
al--
alex--
alp--
am--
an--
and--
anfr--
ang--
anth--
ap--
ar--
are--
as--
astro--
at--
atro--
au--
austro--
b--
ba--
ban--
bat--
be--
benzi--
ber--
bern--
bh--
bhu--
bi--
bl--
bo--
born--
br--
brac--
brachy--
bre--
bren--
brevi--
bu--
bur--
c--
ca--
cal--
calli--
calo--
cam--
can--
capit--
car--
card--
carn--
caro--
cata--
cath--
cau--
ce--
cele--
ch--
char--
cher--
chiri--
chlo--
chri--
chry--
ci--
circum--
clar--
clo--
co--
cole--
com--
con--
confe--
cord--
cori--
corn--
coro--
cra--
crass--
cre--
cri--
cro--
cruci--
cu--
d--
da--
de--
decu--
deve--
di--
dist--
diversifo--
do--
dr--
du--
e--
ec--
ecal--
echi--
ecua--
ed--
ei--
ek--
el--
ele--
en--
ensifo--
epi--
epiphy--
er--
es--
et--
eu--
euphro--
ex--
f--
fa--
faga--
fal--
fe--
ferdina--
fern--
fi--
fimbri--
fl--
fo--
for--
fr--
fu--
g--
ga--
gale--
garci--
ge--
gh--
gi--
gilbe--
glo--
globi--
go--
gou--
gra--
graci--
gramm--
grani--
gre--
green--
gu--
h--
ha--
he--
hen--
hi--
hisp--
ho--
hoff--
hol--
hu--
hybr--
i--
ic--
ig--
ik--
il--
im--
impe--
in--
inter--
ir--
is--
j--
ja--
japo--
je--
jesu--
ji--
jo--
ju--
k--
ka--
kalo--
ke--
ki--
kle--
ko--
komi--
kopt--
kots--
kp--
ku--
kul--
kur--
l--
la--
lanceol--
lar--
lati--
lau--
le--
leuco--
li--
lit--
ll--
lo--
locali--
longi--
lu--
lv--
m--
ma--
macro--
madi--
magni--
man--
mar--
mb--
me--
mela--
mer--
meridi--
mi--
mich--
micro--
mo--
mon--
mongo--
mor--
mori--
mu--
multi--
my--
myrt--
n--
na--
nam--
nd--
ne--
necta--
neo--
ng--
ni--
nj--
nn--
no--
nu--
ny--
o--
obli--
oc--
occid--
odobe--
ok--
ol--
ophiog--
or--
os--
ova--
p--
pa--
pachy--
papi--
papu--
parvi--
pat--
pe--
pfl--
ph--
phil--
pi--
pisa--
pl--
platy--
pleuro--
po--
poly--
por--
pra--
pri--
pro--
pru--
pseudo--
pu--
pulch--
punc--
pur--
q--
qu--
quad--
quadri--
qui--
quin--
r--
ra--
re--
res--
ri--
ro--
ru--
s--
sa--
sacc--
salicifo--
sam--
san--
sanc--
sand--
sarco--
sc--
sch--
sco--
se--
see--
ser--
sh--
si--
sla--
sm--
so--
sp--
spat--
st--
sta--
ste--
steno--
stenog--
stra--
su--
sub--
subc--
suo--
sw--
sy--
sylv--
t--
ta--
te--
tenui--
th--
ti--
tig--
tj--
to--
tri--
tro--
ts--
tu--
tur--
ty--
u--
ug--
um--
un--
unci--
v--
va--
vasc--
ve--
ven--
ver--
vi--
vo--
w--
wa--
wal--
we--
wel--
wi--
wil--
wo--
wri--
x--
xanth--
xen--
xi--
xx--
y--
ya--
ye--
yo--
z--
za--
zh--
zu--
ɔ--
ɖ--
ə--
ɣ--
ʊ--
γ--
δ--
ε--
μ--
ν--
ο--
π--
σ--
τρ--
а--
аб--
аба--
авес--
авиац--
авт--
агро--
аддз--
адр--
ак--
ал--
аль--
ан--
анде--
ар--
аркти--
арм--
архи--
архите--
ас--
аспи--
асыв--
ась--
ат--
атмос--
б--
ба--
бар--
бас--
бая--
бе--
бедь--
бело--
бер--
бесплат--
би--
библи--
бо--
бога--
бр--
бу--
бук--
бул--
булы--
бур--
бы--
быд--
быдт--
в--
ва--
важ--
вар--
варчч--
вах--
введе--
вг--
ве--
веж--
вел--
велико--
вен--
вер--
вес--
весь--
веч--
веш--
ви--
вид--
видз--
виз--
вит--
вич--
вичч--
више--
вия--
вк--
вл--
вм--
вну--
во--
воз--
вол--
волыв--
вом--
воро--
воспи--
восточ--
вось--
вп--
вс--
все--
ву--
вуза--
въ--
вы--
выб--
выв--
выль--
вынъ--
выс--
выш--
від--
г--
га--
гам--
ге--
геоде--
гер--
ги--
гл--
гла--
го--
гово--
гор--
гос--
гр--
гра--
граж--
гу--
гум--
гур--
гы--
д--
да--
дав--
дан--
дат--
де--
дет--
дея--
дж--
джа--
дз--
дзеб--
дзес--
ди--
дис--
дм--
дму--
до--
доб--
долж--
дор--
дорчч--
др--
древ--
древне--
дт--
ду--
дух--
дч--
дчы--
діа--
дін--
е--
ев--
ен--
енъ--
ер--
ес--
есте--
ефр--
ж--
же--
желез--
жи--
жугл--
жура--
з--
за--
зам--
зап--
заполь--
зар--
зе--
зем--
зен--
зи--
зим--
зко--
зо--
золо--
зу--
зы--
зюз--
зіль--
и--
иг--
игна--
ид--
иде--
иж--
иже--
из--
изв--
ил--
иль--
им--
ин--
инвали--
инд--
индо--
инте--
интер--
ио--
ир--
ис--
иссле--
историче--
ит--
к--
ка--
када--
каз--
каза--
казьты--
казя--
казявл--
кал--
кали--
каль--
камен--
кан--
кар--
карпа--
кв--
ке--
кер--
ки--
кино--
кл--
км--
кн--
ко--
ков--
код--
кок--
кол--
коль--
ком--
кон--
конд--
конс--
консерва--
коп--
кор--
кос--
кот--
кох--
кою--
кр--
кра--
кре--
крем--
кри--
ку--
кузе--
куим--
куш--
кы--
кыв--
кыд--
кыз--
кык--
кытшъ--
кэ--
кіль--
л--
ла--
лаг--
лаж--
ле--
лег--
лек--
лексико--
лес--
лесо--
лет--
ли--
лит--
ло--
лов--
лон--
лу--
лун--
луч--
лъ--
лы--
лым--
ль--
лэ--
лэб--
лэбзь--
лю--
ля--
лі--
м--
ма--
мага--
маль--
мам--
ман--
мара--
мас--
ме--
мед--
медицин--
меж--
мез--
мель--
мен--
мех--
ми--
миф--
мк--
мо--
мол--
мон--
мор--
мс--
му--
мы--
мын--
мыр--
мычч--
н--
на--
наблю--
наз--
нар--
нарком--
нау--
нач--
не--
неи--
нем--
несказоч--
ни--
ниа--
ним--
нн--
но--
нов--
номы--
нор--
нох--
ну--
ныв--
ныр--
нь--
ню--
нюр--
ня--
ні--
о--
об--
облас--
обору--
обще--
объе--
объя--
ов--
ог--
од--
озъ--
ол--
он--
онь--
оо--
опа--
опи--
опре--
ор--
ора--
орфограф--
осво--
от--
ох--
ош--
п--
па--
павл--
паж--
пан--
пара--
парф--
парха--
пас--
пе--
пед--
пере--
персид--
пи--
пило--
пле--
плотно--
по--
погиб--
под--
подроб--
поз--
пол--
поль--
пом--
поп--
потреби--
пр--
пра--
практ--
пре--
предте--
преподава--
прес--
при--
приход--
про--
просв--
проф--
пу--
пыж--
пышъя--
пя--
р--
ра--
работ--
рад--
раев--
раз--
ран--
рас--
рд--
рдов--
ре--
реконс--
религ--
реч--
ри--
рит--
рм--
рни--
ро--
род--
рож--
рожде--
розмі--
роп--
рс--
рт--
ртч--
рты--
ру--
руб--
руч--
ры--
рыт--
с--
са--
саам--
самодея--
сар--
сб--
сбер--
сберка--
сви--
сво--
свя--
се--
седо--
сек--
секц--
сель--
сере--
си--
ск--
ска--
ско--
сл--
слово--
см--
смир--
сне--
со--
соб--
сов--
сол--
спа--
спец--
сравни--
сраже--
ссыл--
ст--
ста--
стат--
статистиче--
сте--
столпов--
сту--
су--
суб--
субъе--
суд--
супут--
сур--
сы--
сыс--
сь--
сьт--
сю--
ся--
сі--
т--
та--
татар--
те--
теле--
терм--
тех--
ти--
тимо--
тк--
тл--
то--
тол--
топо--
тор--
тр--
традицио--
тран--
треня--
три--
тру--
тс--
ту--
тч--
тш--
тшъ--
ты--
тыв--
тыр--
тэ--
ті--
у--
ув--
угор--
удж--
удин--
удор--
узь--
ук--
ул--
улич--
ур--
усяні--
ухти--
учрежде--
уя--
ф--
фа--
фан--
фашис--
фе--
фелье--
фер--
физи--
фил--
фин--
финан--
фло--
фоне--
фор--
фотог--
функц--
х--
хан--
хар--
хас--
хау--
хен--
хри--
христ--
хро--
ц--
цар--
це--
целл--
цер--
церк--
цы--
ч--
ча--
чась--
че--
чер--
чех--
чеч--
чи--
чо--
чу--
чудот--
чук--
чул--
чунь--
чч--
ш--
ша--
швед--
ше--
шишк--
шо--
шом--
шоч--
шу--
шы--
щ--
ъ--
ы--
ыб--
ыв--
ылын--
ыс--
ыш--
э--
эг--
эж--
экзо--
экс--
эл--
электро--
эм--
эн--
эпиче--
эр--
эст--
этниче--
этно--
ю--
юби--
югыд--
юк--
юр--
юра--
я--
яг--
як--
ян--
яс--
і--
ін--
ј--
ҫ--
ү--
ө--
الم--
د--
س--
आ--
१--
བ--
--0
--00
--1
--2
--3
--4
--5
--6
--7
--8
--9
--a
--abia
--ace
--acea
--aceae
--ad
--ae
--ago
--ain
--ak
--al
--alis
--an
--ana
--anica
--ans
--anum
--ara
--arck
--ard
--aris
--ary
--as
--ata
--ation
--atum
--atus
--aulis
--ax
--b
--ba
--bia
--c
--ca
--caulis
--caulon
--ce
--cea
--ceae
--cens
--ceps
--ch
--che
--chya
--ci
--ck
--co
--cola
--color
--cornis
--cosa
--cum
--cus
--d
--da
--de
--ded
--dii
--ds
--dum
--e
--ea
--ead
--eana
--ed
--ei
--ek
--el
--ell
--em
--en
--ene
--enii
--ens
--ense
--ensii
--ensis
--ent
--epala
--er
--era
--eri
--errima
--ers
--ert
--es
--esii
--et
--eum
--ex
--exa
--ey
--eyi
--f
--fera
--g
--ga
--gae
--ger
--gera
--gii
--go
--gram
--gua
--gy
--h
--ha
--he
--hii
--hiza
--hl
--hu
--i
--ia
--iae
--ian
--iana
--ianum
--iata
--ic
--ica
--ical
--ich
--ick
--icola
--icum
--idea
--ides
--ie
--iella
--iensis
--ifera
--ii
--ik
--im
--in
--ine
--ing
--ings
--inum
--io
--ion
--ions
--ipes
--ipetala
--is
--ish
--isia
--ita
--ium
--ius
--j
--ja
--jas
--k
--ka
--kh
--ki
--kii
--ku
--l
--la
--laris
--lata
--latum
--le
--lensis
--ley
--li
--lii
--lis
--ll
--lla
--lo
--loba
--lobum
--lp
--ls
--lu
--lum
--lus
--ly
--m
--ma
--mat
--me
--ment
--mis
--ms
--n
--na
--nae
--nara
--nce
--nces
--nd
--ne
--nea
--nensis
--ner
--ng
--ni
--nia
--nica
--nii
--nis
--nka
--noi
--ns
--nse
--nsis
--nt
--nta
--nti
--nts
--num
--nus
--ny
--o
--oba
--oi
--oides
--ola
--on
--onii
--ophora
--or
--ora
--orum
--orus
--os
--osa
--osum
--owii
--p
--pala
--petala
--ph
--phala
--phylla
--phyrea
--pii
--pis
--ple
--ps
--ptera
--pus
--r
--ra
--rae
--ras
--rata
--re
--rea
--rei
--rense
--rensis
--ri
--ria
--rii
--ris
--rk
--rm
--rnu
--ro
--roi
--ron
--rpa
--rs
--rt
--rta
--rum
--ry
--s
--sa
--sc
--scens
--sco
--se
--sh
--siana
--sii
--sima
--sis
--ski
--soides
--son
--st
--sus
--t
--ta
--tae
--tal
--tala
--talum
--te
--tea
--ted
--tele
--tes
--th
--ti
--tia
--tifera
--tii
--tion
--to
--toma
--ton
--tor
--tosa
--ts
--tu
--tum
--tus
--u
--ual
--uary
--uca
--ud
--ue
--uis
--ula
--ularis
--ulata
--ulus
--um
--ur
--ura
--us
--uta
--utum
--v
--va
--w
--x
--xis
--y
--ya
--yana
--yi
--ylis
--ylla
--yllum
--yllus
--yu
--z
--za
--zii
--α
--ι
--κο
--а
--ав
--авл
--авло
--авны
--ад
--ада
--аз
--аи
--ак
--ал
--алан
--ало
--аліс
--алісны
--ам
--ами
--ан
--ана
--ание
--ания
--ано
--анов
--анъяс
--аныс
--ао
--ар
--ас
--аса
--асис
--асны
--ась
--асьны
--асьо
--ат
--атель
--аф
--ах
--ач
--аыб
--ая
--аяс
--б
--ба
--бе
--бердса
--бинат
--бно
--бо
--бов
--бу
--бы
--в
--ва
--вание
--вая
--ви
--вич
--вка
--вл
--вло
--вліс
--вны
--во
--вр
--вская
--вскии
--въю
--вы
--выв
--вые
--вья
--г
--га
--ган
--гин
--гическо
--гия
--го
--гов
--готовки
--грезд
--д
--да
--де
--джык
--джыка
--ди
--див
--дин
--до
--дор
--дцать
--ды
--дь
--дя
--дін
--е
--еб
--ев
--ева
--евич
--евло
--евна
--ед
--еев
--еи
--ек
--еко
--ел
--ели
--ель
--ем
--ен
--ена
--ение
--ении
--ения
--енка
--енное
--еннои
--ент
--ентии
--еография
--ер
--ера
--ескии
--еско
--ет
--етия
--еф
--ец
--еч
--ея
--ж
--жно
--жныи
--жск
--жык
--з
--за
--зал
--зд
--зе
--зм
--зно
--зь
--зя
--и
--иа
--игас
--иго
--ид
--идзе
--ие
--из
--изация
--изм
--ии
--ик
--ика
--ики
--ико
--ил
--ила
--им
--ин
--ина
--инг
--ины
--ион
--ис
--ист
--исто
--ись
--ит
--их
--ица
--ич
--ическая
--ические
--ическии
--ических
--ическо
--ию
--ия
--ияын
--к
--ка
--кая
--ке
--ки
--кие
--кии
--ких
--ко
--кс
--кт
--кыв
--л
--ла
--лал
--лало
--лань
--ланьын
--ле
--ли
--лии
--лин
--лка
--лл
--ло
--лог
--логии
--логия
--лу
--лун
--лъяс
--лы
--лысь
--лыт
--лыто
--ль
--льн
--льная
--льно
--лю
--ля
--ляр
--ліс
--м
--ма
--ме
--ми
--мис
--мит
--мка
--мо
--му
--муын
--мхоз
--мя
--н
--на
--нак
--нас
--ная
--нг
--нда
--нз
--ни
--ник
--ница
--нка
--ння
--но
--нов
--ног
--ного
--ное
--ность
--нская
--нскии
--нско
--нского
--нт
--ны
--ные
--ныи
--ным
--ныс
--нысо
--ных
--нь
--ньыд
--ня
--нял
--о
--ов
--ова
--оведение
--ович
--овна
--ово
--од
--ое
--ои
--ок
--ом
--он
--ор
--орас
--ос
--оса
--оты
--очка
--ою
--п
--па
--пеи
--пи
--по
--пом
--пу
--р
--ра
--рд
--ре
--рез
--реч
--ри
--рии
--ро
--ров
--рт
--ры
--рых
--рь
--ря
--с
--са
--саяс
--си
--сиг
--сис
--сия
--ск
--ская
--ские
--скии
--ским
--ско
--ского
--ское
--скои
--ском
--скому
--со
--сон
--сс
--ссии
--ссо
--ст
--ство
--съяс
--сы
--сыс
--сь
--сьны
--сьо
--сьыс
--сэз
--ся
--сянь
--сяньыс
--т
--та
--тас
--те
--тея
--ти
--тика
--тин
--тка
--то
--тов
--тор
--ты
--ть
--тэз
--ті
--тів
--у
--увса
--уг
--уги
--уз
--уи
--ук
--ул
--ум
--ун
--ус
--ую
--ф
--фа
--фе
--х
--ха
--хи
--хов
--ху
--ц
--ца
--цев
--цева
--ции
--ция
--цкии
--цов
--цы
--ць
--ч
--ча
--чал
--че
--ческ
--ческо
--чи
--чка
--чм
--чна
--чно
--чо
--чыны
--чь
--ш
--шев
--ши
--шии
--шин
--шина
--шко
--шо
--шор
--ъе
--ъя
--ъял
--ъяс
--ъясас
--ъяско
--ъясло
--ъяслы
--ъяслысь
--ъясо
--ъясс
--ъяссо
--ъясын
--ы
--ыб
--ыв
--ывны
--ыд
--ые
--ыи
--ык
--ыл
--ыло
--ыліс
--ым
--ын
--ыны
--ыс
--ысь
--ысьл
--ыт
--ых
--ышто
--ь
--ьба
--ье
--ьевич
--ьевна
--ьи
--ьло
--ьн
--ьно
--ьны
--ьо
--ьскии
--ьского
--ьт
--ьто
--ьше
--ьыс
--ья
--ьян
--ьяс
--э
--эн
--ю
--я
--яг
--яева
--яло
--ян
--янь
--яр
--яс
--яса
--ясло
--яслы
--ясо
--ясын
--ясыс
--ях
--яц
--яын
--і
--ів
--ігас
--іго
--ім
--ін
--іно
--інсо
--інын
--іс
--існы
--ң
--ӏ
--ו
--ه
