!
"
#
##a
##aa
##ab
##ac
##ad
##ae
##af
##ag
##ah
##ai
##aj
##ak
##al
##am
##an
##ao
##ap
##aq
##ar
##as
##at
##au
##av
##aw
##ax
##ay
##az
##b
##ba
##bb
##bc
##bd
##be
##bf
##bg
##bh
##bi
##bj
##bk
##bl
##bm
##bn
##bo
##bp
##bq
##br
##bs
##bt
##bu
##bv
##bw
##bx
##by
##bz
##c
##ca
##cb
##cc
##cd
##ce
##cf
##cg
##ch
##ci
##cj
##ck
##cl
##cm
##cn
##co
##cp
##cq
##cr
##cs
##ct
##cu
##cv
##cw
##cx
##cy
##cz
##d
##da
##db
##dc
##dd
##de
##df
##dg
##dh
##di
##dj
##dk
##dl
##dm
##dn
##do
##dp
##dq
##dr
##ds
##dt
##du
##dv
##dw
##dx
##dy
##dz
##e
##ea
##eb
##ec
##ed
##ee
##ef
##eg
##eh
##ei
##ej
##ek
##el
##em
##en
##eo
##ep
##eq
##er
##es
##et
##eu
##ev
##ew
##ex
##ey
##ez
##f
##fa
##fb
##fc
##fd
##fe
##ff
##fg
##fh
##fi
##fj
##fk
##fl
##fm
##fn
##fo
##fp
##fq
##fr
##fs
##ft
##fu
##fv
##fw
##fx
##fy
##fz
##g
##ga
##gb
##gc
##gd
##ge
##gf
##gg
##gh
##gi
##gj
##gk
##gl
##gm
##gn
##go
##gp
##gq
##gr
##gs
##gt
##gu
##gv
##gw
##gx
##gy
##gz
##h
##ha
##hb
##hc
##hd
##he
##hf
##hg
##hh
##hi
##hj
##hk
##hl
##hm
##hn
##ho
##hp
##hq
##hr
##hs
##ht
##hu
##hv
##hw
##hx
##hy
##hz
##i
##ia
##ib
##ic
##id
##ie
##if
##ig
##ih
##ii
##ij
##ik
##il
##im
##in
##io
##ip
##iq
##ir
##is
##it
##iu
##iv
##iw
##ix
##iy
##iz
##j
##ja
##jb
##jc
##jd
##je
##jf
##jg
##jh
##ji
##jj
##jk
##jl
##jm
##jn
##jo
##jp
##jq
##jr
##js
##jt
##ju
##jv
##jw
##jx
##jy
##jz
##k
##ka
##kb
##kc
##kd
##ke
##kf
##kg
##kh
##ki
##kj
##kk
##kl
##km
##kn
##ko
##kp
##kq
##kr
##ks
##kt
##ku
##kv
##kw
##kx
##ky
##kz
##l
##la
##lb
##lc
##ld
##le
##lf
##lg
##lh
##li
##lj
##lk
##ll
##lm
##ln
##lo
##lp
##lq
##lr
##ls
##lt
##lu
##lv
##lw
##lx
##ly
##lz
##m
##ma
##mb
##mc
##md
##me
##mf
##mg
##mh
##mi
##mj
##mk
##ml
##mm
##mn
##mo
##mp
##mq
##mr
##ms
##mt
##mu
##mv
##mw
##mx
##my
##mz
##n
##na
##nb
##nc
##nd
##ne
##nf
##ng
##nh
##ni
##nj
##nk
##nl
##nm
##nn
##no
##np
##nq
##nr
##ns
##nt
##nu
##nv
##nw
##nx
##ny
##nz
##o
##oa
##ob
##oc
##od
##oe
##of
##og
##oh
##oi
##oj
##ok
##ol
##om
##on
##oo
##op
##oq
##or
##os
##ot
##ou
##ov
##ow
##ox
##oy
##oz
##p
##pa
##pb
##pc
##pd
##pe
##pf
##pg
##ph
##pi
##pj
##pk
##pl
##pm
##pn
##po
##pp
##pq
##pr
##ps
##pt
##pu
##pv
##pw
##px
##py
##pz
##q
##qa
##qb
##qc
##qd
##qe
##qf
##qg
##qh
##qi
##qj
##qk
##ql
##qm
##qn
##qo
##qp
##qq
##qr
##qs
##qt
##qu
##qv
##qw
##qx
##qy
##qz
##r
##ra
##rb
##rc
##rd
##re
##rf
##rg
##rh
##ri
##rj
##rk
##rl
##rm
##rn
##ro
##rp
##rq
##rr
##rs
##rt
##ru
##rv
##rw
##rx
##ry
##rz
##s
##sa
##sb
##sc
##sd
##se
##sf
##sg
##sh
##si
##sj
##sk
##sl
##sm
##sn
##so
##sp
##sq
##sr
##ss
##st
##su
##sv
##sw
##sx
##sy
##sz
##t
##ta
##tb
##tc
##td
##te
##tf
##tg
##th
##ti
##tj
##tk
##tl
##tm
##tn
##to
##tp
##tq
##tr
##ts
##tt
##tu
##tv
##tw
##tx
##ty
##tz
##u
##ua
##ub
##uc
##ud
##ue
##uf
##ug
##uh
##ui
##uj
##uk
##ul
##um
##un
##uo
##up
##uq
##ur
##us
##ut
##uu
##uv
##uw
##ux
##uy
##uz
##v
##va
##vb
##vc
##vd
##ve
##vf
##vg
##vh
##vi
##vj
##vk
##vl
##vm
##vn
##vo
##vp
##vq
##vr
##vs
##vt
##vu
##vv
##vw
##vx
##vy
##vz
##w
##wa
##wb
##wc
##wd
##we
##wf
##wg
##wh
##wi
##wj
##wk
##wl
##wm
##wn
##wo
##wp
##wq
##wr
##ws
##wt
##wu
##wv
##ww
##wx
##wy
##wz
##x
##xa
##xb
##xc
##xd
##xe
##xf
##xg
##xh
##xi
##xj
##xk
##xl
##xm
##xn
##xo
##xp
##xq
##xr
##xs
##xt
##xu
##xv
##xw
##xx
##xy
##xz
##y
##ya
##yb
##yc
##yd
##ye
##yf
##yg
##yh
##yi
##yj
##yk
##yl
##ym
##yn
##yo
##yp
##yq
##yr
##ys
##yt
##yu
##yv
##yw
##yx
##yy
##yz
##z
##za
##zb
##zc
##zd
##ze
##zf
##zg
##zh
##zi
##zj
##zk
##zl
##zm
##zn
##zo
##zp
##zq
##zr
##zs
##zt
##zu
##zv
##zw
##zx
##zy
##zz
%
&
'
(
)
*
+
,
-
.
/
0
00
000
00027
001
007
01
014
02
03
04
048
049
05
050
0535
0554
06
0617
07
08
09
0a
0b
0c
0d
0e
0f
0g
0h
0i
0j
0k
0l
0m
0n
0o
0p
0q
0r
0s
0t
0u
0v
0w
0x
0y
0z
1
10
100
1000
10000
100000
1000000
10000000
100000000
1000000000
1000000000000
1001
1003
101
102
103
104
105
1050
106
107
107343683
108
10855166
109
11
110
1100
111
112
113
1130
114
115
1150
116
117
1170
118
119
12
120
1200
121
122
123
1235
124
125
126
1260
127
128
129
13
130
1300
131
132
133
134
1340
1341
135
1356
136
136472
137
1375
138
139
1390
14
140
1400
1405
141
142
143
144
145
1451
146
147
148
1480
1484
149
1492
15
150
1500
151
152
1520
1529
153
1531
154
1540
1541
1542
1545
155
1550
156
1560
1561
157
1570
15706812
158
1585
1586
159
16
160
1600
16000
1608
161
1610
162
1620
1625
1629
163
1630
1638
1639
164
1640
1645
1646
165
166
1668
167
1670
1671
1678
1679
167982
168
1682
169
1696
1699
17
170
1700
1701
170109
1707
1708
171
1710
1711
1712
1719
172
1720
1721
1722
1725
1728
173
1730
1737
17378135
174
1741
1744
1745
1747
175
1750
1753
1755
176
1760
1761
1762
1763
1765
1766
1768
1769
177
1770
1771
1772
1775
1777
1779
178
1780
1781
1782
1783
1784
1785
1786
1787
1789
179
1790
1791
1792
1793
1794
1795
1796
1797
1798
1799
18
180
1800
1801
1802
1803
1804
1805
1806
1807
1808
1809
181
1810
1811
1812
1813
1814
1815
1816
1817
1818
1819
182
1820
1821
1822
1823
1824
1825
1826
1827
1828
1829
183
1830
1831
1832
1833
1834
1835
1836
1837
1838
1839
184
1840
1841
1842
1843
1844
1845
1846
1847
1848
1849
185
1850
1851
1852
1853
1854
1855
1856
1857
1858
1859
186
1860
1861
1862
1863
1864
1865
1866
1867
1868
1869
18696256
187
1870
1871
1872
1873
1874
1875
1876
1877
1878
1879
188
1880
1881
1882
1883
1884
1885
1886
1887
1888
1889
189
1890
1891
1892
1893
1894
1895
1896
1897
1898
1899
19
190
1900
1901
1902
1903
1904
1905
1906
1907
1908
1909
191
1910
1911
1912
1913
1914
1915
1916
1917
1918
1919
192
1920
1921
1922
1923
1924
1925
1926
1927
1928
1929
193
1930
1931
1932
1933
1934
1935
193563
1936
1937
1938
1939
194
1940
1941
1942
1943
1944
1945
1946
1947
1948
1949
195
1950
1951
1952
1953
1954
1955
1956
1957
1958
1959
196
1960
1961
1962
1963
1964
1965
1966
1967
1968
1969
197
1970
1971
1972
1973
1974
1975
1976
1977
1978
1979
198
1980
1981
1982
1983
1984
1985
1986
1987
1988
1989
199
1990
19908137
1991
1992
1993
19938912
1994
1995
1996
1997
1998
1999
1a
1b
1c
1d
1e
1f
1g
1h
1i
1j
1k
1l
1m
1n
1o
1p
1q
1r
1s
1t
1u
1v
1w
1x
1y
1z
2
20
200
2000
20000
2000000
2001
2002
2003
2004
2005
2006
2007
2008
2009
201
2010
2011
2012
2013
2014
2015
2016
2017
2018
2019
202
2020
2021
2022
203
204
205
206
207
208
209
21
210
211
212
213
214
215
216
217
218
219
22
220
221
222
223
224
225
226
227
228
229
23
230
2300
231
232
233
234
2345
235
236
237
237227
238
239
24
240
241
242
243
244
245
246
2464
247
248
249
25
250
25000
251
252
253
254
255
256
2562
256507
257
258
2586178
259
26
260
261
262
263
264
265
266
2664168
267
268
269
27
270
271
272
273
27302
274
275
276
277
278
279
28
280
2800
281
282
283
284
285
286
287
288
289
29
290
291
292
293
294
295
296
297
298
29861311
299
2a
2b
2c
2d
2e
2f
2g
2h
2i
2j
2k
2l
2m
2n
2o
2p
2q
2r
2s
2t
2u
2v
2w
2x
2y
2z
3
30
300
3000
300000
301
302
303
304
304037
305
306
307
308
309
31
310
3100478
311
312
313
314
3141
315
316
317
318
319
32
320
321
322
323
324
325
326
327
328
329
33
330
331
332
333
334
335
336
337
338
339
34
340
341
342
343
344
345
346
347
348
349
35
350
351
352
353
354
355
356
357
358
359
36
360
361
362
3621644
363
364
365
36578
366
368
369
37
370
371
373
37312
374
375
376
377
378
379
38
380
3800
381
383
384
385
386
387
388
39
390
391
392
394
396
397
399
3a
3b
3c
3d
3e
3f
3g
3h
3i
3j
3k
3l
3m
3n
3o
3p
3q
3r
3s
3t
3u
3v
3w
3x
3y
3z
4
40
400
4000
401
402
403
404
405
406
407
409
41
410
411
412
413
414
415
416
417
418
42
420
4200
421
422
423
424
425
426
427
428
429
43
430
4300
431
432
433
434
435
438
439
44
440
441
442
443
448
449
45
450
452
453
454
455
456
457
459
46
460
461
463
464
464633
468
47
470
472
473
474
475
476
479
48
480
481
482
483
484
486
487
488
4888
489
49
490
491
492
495
496
497
499
4a
4b
4c
4d
4e
4f
4g
4h
4i
4j
4k
4l
4m
4n
4o
4p
4q
4r
4s
4t
4u
4v
4w
4x
4y
4z
5
50
500
5000
50000
504
504063
505
506
5061737
507
509
51
510
511
512
513
514
515
516
517
518
52
520
521
524
525
526
527
528
53
530
531
532
5375741
54
541
544
545
546
54837
55
550
553
555
559
56
560
562
563
567
57
570
571
575
578
58
580
581
582
584
59
590
592
5a
5b
5c
5d
5e
5f
5g
5h
5i
5j
5k
5l
5m
5n
5o
5p
5q
5r
5s
5t
5u
5v
5w
5x
5y
5z
6
60
600
602
602358
603
604
605
606
608
61
614
615
617
619
62
620
621
623
624
628
63
630
637
64
640
641
648
65
650
6500
655
66
660
67
670
671
674
679
68
680
688
69
690
691
694
6a
6b
6c
6d
6e
6f
6g
6h
6i
6j
6k
6l
6m
6n
6o
6p
6q
6r
6s
6t
6u
6v
6w
6x
6y
6z
7
70
700
702
704
705
708
709
71
710
717
72
721
73
731
736
74
740
741
742
746368
75
750
751
7555
759
76
760
761
77
776
777
78
780
788
79
7934
7a
7b
7c
7d
7e
7f
7g
7h
7i
7j
7k
7l
7m
7n
7o
7p
7q
7r
7s
7t
7u
7v
7w
7x
7y
7z
8
80
800
8044
809
81
812
819
82
8212
825
826
83
830
83552
84
840
842
849
85
850
85270
856
86
861
862
863
865
87
873
88
883
89
890
891
8a
8b
8c
8d
8e
8f
8g
8h
8i
8j
8k
8l
8m
8n
8o
8p
8q
8r
8s
8t
8u
8v
8w
8x
8y
8z
9
90
900
91
910
911
92
920
921
922
93
94
95
950
951
9524018
953
96
960
961
963
964
965
966
97
971
978
98
980
9876
98769076
99
9a
9b
9c
9d
9e
9f
9g
9h
9i
9j
9k
9l
9m
9n
9o
9p
9q
9r
9s
9t
9u
9v
9w
9x
9y
9z
:
;
<
=
>
?
@
[
[CLS]
[MASK]
[PAD]
[SEP]
[UNK]
]
^
_
`
a
a0
a1
a2
a3
a4
a5
a6
a7
a8
a9
aa
aadah
aaronsohnia
ab
abantu
abbreviata
abbreviatum
aberrans
aberrantia
abondolo
abortiva
about
abugida
abuo
ac
acacallis
acad
academia
academiae
academic
academy
acampe
acanthephippium
acaulis
accepted
acen
aceras
acerifolia
acht
acianthera
acianthus
acicularis
acineta
aciopea
ackerman
ackermania
acmopyle
aconitoides
acostaea
acriopsis
acrochaene
acrolophia
acta
acte
actinostrobus
aculeata
acuminata
acuminatipetala
acuminatum
acuminatus
acuna
acutiflora
acutifolia
ad
ada
adams
adans
adansonia
adaptive
adelphe
adenochila
adenoncos
adnata
adrianae
ae
aegean
aemula
aerangis
aeranthes
aerides
aesculapii
af
afaan
afar
affine
affinis
afr
aframomum
africa
african
africana
afrika
afzel
ag
agan
aganisia
agathis
aglossorrhyncha
agric
agrostophyllum
ah
aha
ai
aiello
ailanthus
ainu
air
airport
aiton
aj
ajania
ak
akan
akti
al
alain
alainii
alaska
alaskan
alata
alba
albania
albertiana
albida
albiflora
albopurpurea
alborosea
album
aldo
aleksandr
aleksey
aleut
alexander
algeria
alibertia
alibertis
aliciae
all
allen
allenii
allg
alo
aloisii
alopex
alp
alpestre
alphabet
alphabets
alpina
alpinia
alpinum
alpinus
alps
also
alstroemeria
alta
altensteinia
alticola
altigena
altissima
altmıs
altı
alvaradoa
alvaroi
am
ama
amabilis
amaliae
amalraj
amanensis
amara
amazonica
amboinensis
ambon
ambrensis
amen
amer
america
american
americana
ames
amesiana
amesianum
amesiella
amharic
amis
amitostigma
amoena
amor
amparoana
amplectens
amplexicaulis
amplifolia
amsterdam
an
anacamptis
anacardiaceae
anak
anastacia
anathallis
anatolica
anceps
ancient
ancientscripts
ancipitia
ancistrochilus
ancistrorhynchus
and
andean
anderson
andersson
anderssonii
andorra
andreetta
andreettae
andrews
andringitrana
androcorys
anexos
anfracta
anfractum
ang
angela
anggun
anglo
angolensis
angraecopsis
angraecum
angulata
anguloa
angulosa
angustifolia
angustifolius
angustilabia
angustilabris
ani
anke
ann
annamensis
annona
announcing
annulata
anoectochilus
anomala
ansellia
antennata
antennifera
anthoceros
anthodiscus
anthracina
anthrax
anthropophora
antill
antilla
antiope
antioquiensis
ao
aon
aorchis
aore
ap
aphelandra
aphrodite
aphylla
apicula
apiculata
apifera
apoda
aporoides
apostasia
appendicula
appendiculata
applanata
aq
ar
ara
arabian
arachnis
arachnites
arachnitiformis
arachnitis
araneola
aranifera
araucaria
arba
arbor
arborescens
arch
archive
archives
arctata
arcuata
ardalambion
are
area
areas
areldia
arenaria
arenas
arenes
arenicola
arethusa
arfakensis
arfineq
argentaria
argentea
argentina
argolica
ariasii
aristata
ark
armaz
armeniaca
armodorum
arn
arnaldoa
arnold
aromatica
around
arq
art
article
articles
articulata
artists
artocarpus
arts
arunachal
arundinacea
arvinilik
as
ascendens
ascidieria
ascocentrum
ascochilus
ascoglossum
asia
asiat
asp
aspasia
aspera
asperula
aspidogyne
assam
assamese
association
aster
asteriscus
asteroid
asteroidal
asteroids
astronium
astronomical
at
ata
athrotaxis
ati
atifar
atlantica
atlas
ato
atopoglossum
atra
atrata
atropurpurea
atropurpureum
atrorubens
atta
attenuata
attica
attingens
atu
atwood
atwoodii
au
aubl
auct
audio
auf
aulosepalum
aurantiaca
aurantiacum
aurea
aurelia
aureum
auriculata
aurita
aurorae
austral
australe
australia
australiensis
australis
austrobaileya
autumnalis
auxiliary
auxopus
av
available
aveniformis
aver
averrhoa
averyanova
aveyronensis
avicennia
avis
avt
aw
award
awards
ax
axiri
ay
aymara
aymoninii
az
azerbaijan
azərbaycan
b
b0
b1
b2
b3
b4
b5
b6
b7
b8
b9
ba
baa
back
badi
badia
bahasa
bahia
bahiensis
bahorucensis
bailey
baill
baker
bakh
bal
balanopaceae
balanops
balansae
bale
baleares
balf
bali
baliensis
balkan
ballatrix
balsamorhiza
balti
banghamii
bangii
banks
banksii
bansa
baptista
barb
barbae
barbata
barbosella
barbulata
barkeria
barlia
baronii
barretto
barros
bartholina
bartl
basa
base
based
basic
basiphyllaea
baskervilla
bassa
bat
bateman
batemannia
bates
bathiei
battandieri
baumann
baumanniana
bay
bb
bbc
bc
bd
be
beatles
becc
beccarii
becerra
beck
become
beekbergen
beginners
behar
behrii
beih
beitrage
belg
bella
bellas
bello
beloglottis
belt
bemba
ben
bengal
benn
bennettii
benth
bentham
benthamia
benzingii
berbif
bergia
bergonii
berlin
bernaysii
bertolonii
bes
best
beth
between
beye
beyrodtiana
bf
bg
bh
bhasha
bhutan
bhutanica
bi
bianch
bible
bibliographisches
bibliography
bibliotheque
bicalliata
bicallosa
bicallosum
bicarinata
bicolor
bicornis
bicornuta
bidentata
bidupensis
bidwillii
bieb
bifalcis
bifida
biflora
bifolia
bifrenaria
bijdr
biloba
bilobulata
bilong
bilunulata
bin
binotia
bio
biol
bipinnula
bir
bisaya
biscutella
bismarck
bissei
bist
bivalvis
bj
bk
bl
blackfoot
blair
blanco
blancoi
blatt
bletia
bletilla
bleyensis
blog
blong
blume
blumea
blumenzeitung
bm
bn
bnf
bo
bock
body
bogor
bogoriensis
boiss
bojer
bokchoonara
bol
bolivia
boliviana
boliviensis
bolus
bolusiana
bombyliflora
bonnet
bonpl
bonplandia
book
books
boom
borbonica
borealis
borhidi
borneense
borneensis
borneo
bornm
bornmuelleri
borrowing
borwa
bosser
bot
botswana
bouvardia
bp
bq
br
braccata
brachiata
brachiatum
brachiloba
brachionidium
brachycalyx
brachyceras
brachychiton
brachypetalum
brachypeza
brachystele
bracteata
bracteatus
bracteosa
bractescens
brade
bradea
bradei
brahui
branch
brand
brandegee
bras
brasil
brasiliense
brasiliensis
brassavola
brassia
brassii
brazil
breda
bremek
brenesia
brenesii
brenneri
breve
brevicaulis
breviflora
brevifolia
brevilabris
brevipedunculata
brevipes
brevipetala
brevis
breviscapa
bridson
brief
brieger
brit
britain
britannica
brockhaus
bromheadia
brongniart
broughtonia
browne
brownii
brownleea
browser
brumalis
brunnea
brunner
brunnescens
bryceana
bs
bt
bu
buch
buchananii
buchtienia
buchtienii
budapest
buginese
building
buitenzorg
bulbocodioides
bulbophylloides
bulbosa
bull
bullock
burm
burns
buruensis
burundi
buryat
bus
butantan
butcheri
bv
bw
bwa
bx
by
byrne
bz
bøte
bɔ
c
c0
c1
c2
c3
c4
c5
c6
c7
c8
c9
ca
cadellia
cadetia
caesarea
caespitosa
caladenia
calantha
calanthe
calanthoides
calathea
calcarata
calceolaris
calceolus
calcicola
caldensis
caleana
california
calliantha
callitris
callitropsis
calocedrus
calochilus
caloglossa
calophylla
calopogon
calvin
calypso
calypsus
calyptrochilum
cambridge
cameroon
camilla
campacci
campanulata
campbellii
campestris
campos
campylocentrum
campynemanthe
camus
can
canad
canada
canaliculata
canaliculatum
canariensis
canary
candica
candida
candidate
candidum
caniceps
canna
cant
canthium
cantonese
cap
caparaoensis
cape
capensis
capillaris
capitata
caprina
capuron
car
cardiophylla
caribbean
carica
caricifolia
carinata
carinifera
carnea
carnevali
carnosifolia
carnosula
caroline
carolinensis
carpathians
carr
carrii
carsonii
caryocar
casasia
castro
casualis
casuarina
catalana
catalpa
catarina
catasetum
cathcartii
cathedral
catling
cattleya
caucaea
caucasus
cauda
caudata
caudatus
caularthron
caulescens
cauliflora
cav
cayman
cb
cc
ccc
cchiu
cd
ce
cebuano
ceciliae
cel
celebensis
celebica
celtic
cenisia
cent
center
cento
central
centralbl
centre
centroamerica
centrostigma
centum
century
cephalanthera
cephalantheropsis
cephalanthus
cephalotes
ceratandra
ceratostylis
cerina
cernua
cesmeensis
cetiri
cf
cg
ch
cha
cham
chamaecostus
chamaegastrodia
chameleon
chamorro
chan
change
characters
charlesworthii
chart
chase
chch
che
cheeseman
cheilocostus
cheirostylis
chen
cheng
cherokee
chestermanii
chev
chevalieri
cheyenne
chi
chiapas
chicago
chikoro
children
chile
chilensis
chiloglottis
chilopogon
chiloschista
chimaera
china
chinensis
chinese
chiriquensis
chiron
chloraea
chlorantha
chlorina
chloroleuca
chlorops
chocoensis
choctaw
chondrorhyncha
christenson
christensonii
christian
christina
christoph
chron
chrysantha
chrysanthemum
chrysobalanus
chrysocycnis
chrysoglossum
chrysolepis
chu
chunka
church
chysis
chytroglossa
ci
cielo
ciliaris
ciliata
ciliolata
cinc
cinco
cinnabarina
cinnabarinum
cinque
circumflexa
circumstances
cirrhaea
cite
citharexylum
citrina
citrus
city
cj
ck
cl
clandestina
clareae
clarke
clarkei
classical
clausa
clavata
clavicornis
clavigera
cleisocentron
cleisostoma
cleistogama
clem
clemensiae
clifton
cliftonii
cloes
cloesii
clowesia
clowesii
club
cm
cn
co
coccinea
coccineum
cochinchinensis
cochleanthes
cochlearis
cochleata
cochlioda
code
coelia
coeloglossa
coerulea
cogn
coilostylis
cola
coleman
colenso
collection
collina
colombia
colombiana
colon
colorata
colossus
colubrina
columnaris
com
comayaguensis
comber
comets
comm
common
community
como
comosa
compacta
companion
companions
comparative
comparettia
comparison
complete
composition
comprehensive
compressa
compressicaulis
computer
computing
concava
concinna
concolor
condorensis
conference
conferta
confusa
confusum
congesta
congie
congo
congressus
conjugator
connata
conopsea
conradiae
cons
conspersa
conspicua
contact
contacts
content
contr
convallariiforme
conversational
convexa
convoluta
cook
cooperi
corallorhiza
cordata
cordem
cordifera
cordifolia
cordigera
cordilabia
coreana
coriacea
coriophora
coripatae
corneliana
cornelius
corneri
corniculata
cornish
cornuta
cornutula
coronaria
corps
correa
correll
corse
corsia
corticicola
coryanthes
corybas
corycium
corymborkis
corymbosa
cosmos
costaricense
costaricensis
costata
costus
council
count
course
covid
cp
cq
cr
crabronifera
craib
crassa
crassicaule
crassicaulis
crassicornis
crassifolia
crassifolium
crassilabia
cree
creek
cremasta
cremastra
crenata
crenulata
creole
crete
cretica
cribb
crimea
crinita
crispa
cristata
cristatum
croatia
croatii
crocodeilanthe
crocodiliceps
croix
cruciforme
cryptantha
cryptarrhena
cryptocentrum
cryptophoranthoides
cryptostylis
cs
ct
ctenolophon
cu
cuatrec
cuba
cubensis
cucullata
cuhk
cultmap
cultural
culture
cumi
cundinamarcae
cuneata
cunn
cunninghamia
cunninghamii
cupania
curcuma
curitiba
curranii
curtisii
cuspidata
cuspidatus
cv
cw
cx
cy
cyanaeorchis
cyanea
cyclochila
cyclopogon
cycnoches
cylindrica
cymbidiella
cymbidifolia
cymbidium
cynorkis
cypelligera
cypripedioides
cypripedium
cyprus
cyrtopodium
cyrtostylis
cz
cə
d
d0
d1
d2
d3
d4
d5
d6
d7
d8
d9
da
dacrydium
dactylorhiza
dah
dahlem
dahlia
daily
dakota
dalessandroi
dalstroemii
dalstrom
dalzell
damt
dan
danesch
daniel
dans
dansk
dar
das
dat
data
database
datchu
dau
david
day
db
dc
dd
de
debilis
debitores
debruyneara
dece
decem
deci
decipiens
deckinga
decora
decumbens
decurrens
decussata
deduced
deg
deh
dek
del
delavayi
delforge
delhierroi
delicatula
delile
della
deltoglossa
deltoidea
demissa
demo
den
dendrobium
dendrochilum
dendrophylax
denis
densa
densiflora
densiflorum
densiflorus
dentata
dentatum
denticulata
denticulatum
dentifera
dep
depauperata
dependens
deppei
der
derby
des
description
deset
desf
detz
deus
deutsch
deva
devanagari
developed
development
devet
devillers
dewildei
df
dg
dh
dha
di
dialect
dialects
dic
dichaea
dichotoma
dichroma
dichromanthus
dictionaries
dictionary
didactylus
didymoplexis
die
diels
dies
dietr
digital
digitata
dijh
dilatata
dili
dimidia
dimocarpus
din
dine
dinka
diodia
diplocaulobium
dipodium
dipterocarpus
dis
disa
dischorensis
discifera
discogs
discoidea
discolor
discophylla
discovery
discussion
disperis
distans
disticha
distichum
district
dit
diuris
div
divaricata
diversifolia
divi
dix
dj
djvu
dk
dl
dldl
dm
dn
do
doc
dockrill
dockrillia
document
documentation
documents
dod
dodekanensis
dodii
dodson
dodsoniana
dodsonii
doi
dokuz
dolichopus
dombeya
domin
domingensis
domingoa
dominican
don
dona
dong
donn
doo
doritaenopsis
doritis
dort
dos
dosh
downie
download
downloadable
dp
dq
dr
dracontia
dracula
drakaea
drake
drakensberg
dream
dressler
dresslerella
dressleri
dressleria
dricia
driessenii
druce
drumana
drumm
drummondii
dryadum
drymoanthus
drymoda
drymophila
dræpær
ds
dt
du
dua
duartei
ducke
duckeella
duclouxii
dudes
duet
dui
dulcis
dumort
dungan
dunst
dunstervillei
dunstervilleorum
duo
duplex
duque
dura
durand
duranta
during
durio
dusenii
dutch
dutra
dutrae
dv
dva
dw
dwa
dx
dy
dyris
dz
dʒ
dʒa
e
e0
e1
e2
e3
e4
e5
e6
e7
e8
e9
ea
eai
earina
east
eastern
easy
eat
eb
ebok
eburnea
eburneum
ec
ecalcarata
ecallosa
echinacea
echinata
echinocarpa
econ
ecornuta
ecuador
ecuadorana
ecuadorense
ecuadorensis
ed
edentulum
edinburgh
edition
editor
eds
edu
education
edulis
edwards
ee
een
eesti
ef
effusa
eg
eh
ei
ein
eins
ej
ek
eka
ekmanii
el
ela
elata
elatine
elatior
elatum
elatus
electronic
elegans
elegantula
elel
elements
eleonorae
eleorchis
elettaria
elf
elfdalian
eliasii
elle
elleanthus
elli
elliptica
ellis
elmeri
elongata
elongatia
elongatum
em
emang
emarginata
embreea
embreei
emc
emeiensis
en
enc
enciclopedia
enciklopedija
encoding
encyclopædia
endangered
endara
endi
endl
endres
endresii
eng
engl
england
engler
english
engon
enim
ensata
ensifolia
entry
eo
ep
ephemeris
ephippium
epibator
epiblastus
epidendrum
epigeneium
epipactis
epiphyticus
epipogium
eq
equestris
equinum
er
erecta
erectiflora
eria
ericales
erinacea
eriochilus
eritrea
eritrean
ernstia
eros
erosa
erubescens
erythroxantha
es
esa
escobar
escobariana
escobarii
esmeralda
esmeraldae
especie
espejo
esperanto
espn
est
estado
estradae
estrellensis
et
ete
eth
ethiopia
ethiopic
ethnologue
etruscan
eu
eugenia
eugenii
eulophia
eulophiella
eumecocaulon
euphronia
eupomatia
eur
europe
european
eurychone
euterpe
euxina
ev
evelyniana
everything
evolution
evrardii
ew
ewe
ex
exaltata
example
excavata
excelsa
exigua
exile
exilis
eximia
expansa
ey
eylesii
ez
f
f0
f1
f2
f3
f4
f5
f6
f7
f8
f9
fa
faberi
facebook
facts
fagaceae
falcata
falcatifolium
falcatus
fallax
family
fan
far
fargesii
farinosa
fasc
fasciata
fasciculata
fasin
fassett
fastigiata
fauriei
fawc
faðir
fb
fc
fd
fe
feb
fenesta
fenno
fenua
fenzl
ferdinandii
ferr
ferruginea
ferrum
ff
fg
fh
fhichead
fi
fichead
fidel
field
fijian
filamentosa
file
files
filifolia
filiformis
filmportal
fimbriata
fimbriatum
fimf
final
finds
finet
finisterrae
finland
finnisch
finno
finnougoria
finnugor
fino
finugor
firi
firmament
firmiana
first
fisch
fissa
fitzg
fitzgeraldii
fj
fk
fl
flabellata
flabelliformis
flaccida
flammea
flava
flaveola
flavescens
flaviflora
flavum
fleischm
flexione
flexuosa
flickingeria
flora
floribunda
florida
florum
fm
fn
fo
foar
focke
foetida
fol
foldats
foliata
foliosa
folk
fon
fongbe
font
fonts
for
forbes
forbesii
forcipata
fordii
foreign
forest
format
formerly
formicifera
formosa
formosana
formosanus
forrestii
forssk
forst
fortunae
fortunei
fortunella
forum
foto
foundation
fouquieria
four
fowlie
fp
fq
fr
fractiflexa
fragilis
fragrans
franca
francais
francaise
france
franch
franz
frapp
free
freelang
french
frey
friedmann
friedrich
friends
fro
from
fs
ft
fu
fuchsii
fuciflora
fukuy
fula
fulfulde
fulgens
full
fulva
funerea
funk
funkiella
fur
furcatipetala
furcifera
fusca
fuscata
fusiformis
fv
fw
fx
fy
fyrigeva
fz
g
g0
g1
g2
g3
g4
g5
g6
g7
g8
g9
ga
gabriela
gaertn
gagnep
gaidhlig
galanga
galeandra
galearis
galeata
galeatum
galeola
galeotti
galeottiana
gamble
garay
garayana
garayi
garcinia
gard
gardner
gardneri
garganica
garo
gart
garten
gastrochilus
gatandatu
gatanu
gatatu
gaudich
gautierensis
gawl
gay
gazeta
gb
gbe
gbu
gc
gd
ge
geelvinkensis
geerinck
gehrtii
geminata
gemma
gen
gene
geneastar
general
geniculata
geniez
gentryi
genychila
genyorchis
geobot
geol
geophyte
george
georgian
georgii
gerais
gerlach
german
germany
gert
get
gf
gg
gh
ghana
ghillanyi
gi
giant
gibbosa
gibbs
gibbsiae
gigantea
gigas
gii
gikuyu
gilbertese
gilli
githaginea
gj
gjellerupii
gk
gks
gl
glaberrima
glabra
glabrum
glacensis
gladioliflora
glandulifera
glanduligera
glandulosa
glauca
glaucescens
glaziovii
gleason
global
globifera
globosa
globosus
glomera
glosa
glossary
glossodia
glumacea
glumaceum
gm
gn
gnd
gnu
go
gob
god
gode
golz
gomesa
gomez
gomphichis
gonc
gongora
gonzalez
gonzalezii
goodyera
goodyeroides
google
gookte
gordonia
gorky
gott
goupia
gov
govenia
government
gp
gq
gr
gracile
gracilenta
gracilicaulis
gracilipes
gracilis
gracilisepala
gracillima
gracillimum
graeca
graham
graminea
graminifolia
graminifolium
graminoides
grammar
grammatical
grammatik
grammatophyllum
gran
grande
grandiflora
grandiflorum
grandiflorus
grandifolia
grandis
granitica
graniticola
granulosa
gratiosa
gravend
graveolens
gray
grayumii
great
greek
green
greenland
greenlandic
greenm
greenw
greenwoodiana
gren
griff
griffithii
griseb
grisebach
grisebachiana
group
grup
gruyter
gs
gt
gu
guadalajara
guadeloupe
guangxi
guarani
guarianthe
guatemala
guatemalensis
gud
guerrero
guettarda
gugel
guiana
guianense
guianensis
guide
guihaia
guillaumin
guimaraensii
guinea
gujarati
gumprechtii
gustavii
guttata
guyana
gv
gw
gx
gy
gymnadenia
gz
h
h0
h1
h2
h3
h4
h5
h6
h7
h8
h9
ha
haa
habenaria
haberi
hadi
haft
hagsater
hagsatera
hagsateri
hai
hainan
hainanensis
haiti
haitian
haitiensis
halconensis
halesia
halford
halle
hallier
ham
hamar
hamburg
hamburger
hamelia
hamer
hamiltonii
hammarbya
hance
hand
handbook
handel
hannover
hapalorchis
harms
harpago
harpophylla
hartwegii
harv
harvard
harvey
harveyana
has
hashim
haslamii
hasselblatt
hassk
hast
hasta
hastata
hastifera
hat
hatch
hatschbachii
hauman
hausa
hautz
hawaiian
hawkes
hayata
hb
hc
hd
he
heart
hebes
hedychium
heldreichii
heliconiscapa
helios
helleborine
heller
helleri
helmutii
helsingfors
helsinki
hem
hemipilia
hemirhoda
hemsl
hend
henrici
henriquezia
henryi
her
herae
herb
herbacea
heringeri
heritage
hermans
herminium
hero
herrerae
hertel
herzogii
hespenh
het
heterophylla
hexalectris
hexandra
hexisea
hf
hg
hh
hi
hians
hiern
hieroglyphica
higgins
high
hil
hiligaynon
hillii
hills
himalaya
himalayas
himantoglossum
himoriara
hina
hindi
hintonella
hirsuta
hirta
hirtella
hirth
hirtz
hirtzii
hispaniola
hispida
hist
historical
history
hitu
hiver
hj
hk
hl
hlhl
hm
hmong
hn
ho
hochr
hochst
hodie
hoe
hoehne
hoehnea
hoehnei
hoeijeri
hoffmannseggiana
hogei
hohenlohii
hoi
hok
hol
holcoglossum
hologlossa
holoserica
holosericea
holothrix
holstii
holttum
home
homo
honduras
hondurensis
hook
hooker
hookeri
hookeriana
hopi
hopper
horichiana
houlletia
houston
how
hp
hq
hr
hram
href
hrsg
hrvatska
hs
ht
htm
html
http
https
hu
hubb
hubble
huber
huds
huegelii
huit
humbertii
humblotii
humboldt
humilis
hundert
hung
hungaricae
hunt
huntleya
hut
hv
hw
hx
hy
hybrid
hydropiper
hygrophila
hystrix
hz
i
i0
i1
i2
i3
i4
i5
i6
i7
i8
i9
ia
iala
iao
iauc
ib
ic
ical
ice
icelandic
iceliensis
icon
id
ida
idiom
ie
ien
if
ig
igbo
ignea
iguapensis
ih
ii
iii
ij
ik
ike
iki
ikki
ikuinen
il
ila
ilel
ilhas
ill
illhkomisc
illyrica
ilmas
ilokano
ilonggo
im
image
images
imbricata
imdb
imitans
imo
imperialis
in
ina
inaequalis
inalco
incarnata
incertae
included
includes
including
incubacea
ind
indes
index
india
indian
indiana
indica
indifferens
indigenous
indo
indonesia
indonesian
ined
inel
inflata
info
inform
information
ing
ingramii
inim
innu
inodora
inornata
insectifera
insignis
inst
institut
institute
insularis
inteenau
integra
integrilabia
interactive
interamnia
interlingua
interlingue
intermedia
intermedium
intermedius
international
internationalis
internet
into
intonsa
intricata
introduction
inuktitut
involuta
io
iota
ip
iphone
ipsea
iq
ir
ira
iran
ireland
iri
iricolor
iriphabliki
iris
irwiniana
is
isa
isabelia
isamaa
isaoara
isbn
ise
isht
isi
isizulu
island
islands
isochilus
israel
israelitica
issn
ist
it
ita
italian
italica
italy
iti
its
itur
iu
iv
iva
ivanovich
iw
ix
ixora
iy
iyo
iz
izamo
izhma
iı
j
j0
j1
j2
j3
j4
j5
j6
j7
j8
j9
ja
jack
jackson
jacq
jacquinia
jacquiniella
jahrb
jakarta
jalisco
jamaica
jamaicensis
james
jamesonii
jan
janeiro
janetiae
japonica
japonicum
jarae
jarai
jard
java
javanese
javanica
javanicum
jawob
jazyk
jb
jc
jd
je
jean
jeanes
jedan
jeden
jeg
jenmanii
jenny
jesup
jesupiae
jesupii
jesupiorum
jeux
jewish
jezik
jf
jg
jh
ji
jimburae
jimdo
jimenezii
jimii
jin
jini
jj
jk
jl
jm
jn
jo
johan
johanna
johanss
john
johnson
johnsonii
johnst
johnston
johnstonii
jolome
jones
jordanensis
josephi
jost
jostii
journal
jp
jpeg
jpg
jpl
jq
jr
js
jt
ju
julius
jumellea
jumelleana
juncifolia
jupiter
jurnata
jusqu
juss
jv
jw
jx
jy
jyoti
jyut
jz
jɛ
k
k0
k1
k2
k3
k4
k5
k6
k7
k8
k9
ka
kabyle
kaempferia
kahscummenta
kaks
kala
kalaallisut
kalalu
kalliope
kalopissii
kam
kamerunensis
kami
kan
kane
kaneh
kaniensis
kannada
kanuri
kapampangan
kareniae
karjala
karjalan
karst
kasahorow
kashubian
katangensis
kateak
kau
kautskyi
kb
kc
kd
ke
keay
keck
kee
keek
keel
kegeliella
kegelii
kel
keller
kenya
ker
kernow
kerrii
ket
keteleeria
kew
keyboard
kf
kg
kh
khasi
khat
khkh
khuzdul
ki
kikuyu
kildin
kim
kimsa
kinabaluensis
king
kingdom
kingiella
kingii
kinyarwanda
kiribati
kirkii
kirundi
kit
kittr
kj
kk
kl
klabatensis
kleinii
kleopatra
klotzsch
km
kmaq
kmeria
kn
knowles
ko
kobuski
koch
koehleri
koellensteinia
koelreuteria
kok
kola
kom
koma
komi
komiinform
komikyv
komimu
komionline
komisc
kon
kongo
konstantinovich
koptisch
koptische
kore
kores
korn
korth
kortkeros
kosack
kosta
kosterm
kotschyi
koume
koumekumne
kowa
kozlemenyek
kp
kpe
kpelle
kq
kr
kraenzl
kraenzlinella
krameri
krause
kreodanthus
kress
kreutz
kreyol
krio
kriolu
ks
kt
ku
kua
kudymkar
kue
kuhlhasseltia
kulom
kultura
kumar
kumne
kuni
kunkele
kunstleri
kunth
kuntze
kuratov
kurdish
kurz
kurzweil
kus
kuusi
kv
kw
kwangsiensis
kwazulu
kwe
kx
ky
kz
l
l0
l1
l2
l3
l4
l5
l6
l7
l8
l9
la
laa
laakso
laat
lab
labiata
labill
lacaena
lacerda
laciniata
lactea
ladino
laeta
laevigata
laevis
lagarophyta
lagerstroemia
lagopus
lak
lakota
lam
lamb
lamellata
lamiales
lan
lancea
lanceana
lanceolata
lanceolatus
lancifolia
lancilabris
lancipetala
land
lang
langit
language
languagegeek
languages
langue
lanka
lankesteri
lantz
laos
lapponica
large
largest
larsen
las
lasioglossa
lasiorhiza
last
laszlo
latakiana
latifolia
latifolium
latilabris
latina
latino
latipetala
latisepala
lauara
laubenfels
laura
laurensis
laurifolia
lauterbach
laxa
laxiflora
laxifolia
layardii
lb
lc
ld
le
leaders
leafl
learn
learning
leat
lebanon
lecanorchis
ledermannii
lehm
lehmanniana
lehmannii
leiden
leksikon
lem
lengua
leningrad
lenu
leochilus
leontoglossa
lepanthes
lepanthopsis
lepida
lepo
leptantha
leptochila
leptotes
leptotifolia
leroy
les
lesser
lessons
letzebuerg
leucantha
lewis
lewisiae
lex
lexical
lexicon
leyte
leytensis
lezgi
lf
lg
lh
li
lia
libera
libocedrus
library
libu
licania
lichenophila
life
lightcurve
ligulata
ligurian
liisi
lilacina
lilijae
lima
limba
limbata
limbu
limprichtii
lin
lincz
linden
lindeniana
lindenii
lindl
lindley
lindleyalis
lindleyana
lindleyanum
lindleyi
line
linearifolia
linearifolium
linearis
lineata
ling
lingala
lingua
linguistic
linguistica
linguistics
link
links
linn
linnaea
linus
linux
liparis
liquidambar
liriodendron
list
listera
liszt
litensis
literary
literature
lithocarpus
litru
liu
livida
lj
ljudej
lk
ll
llamachoi
llave
lm
ln
lo
loanwords
lobata
local
localization
lockhartia
lodd
loddigesii
loefgr
loheri
lojae
lojban
loko
lon
london
londonoi
long
longa
longibracteata
longicalcarata
longicauda
longicaulis
longicornu
longiflora
longifolia
longifolium
longilabris
longiloba
longipedicellata
longipedunculata
longipes
longipetala
longiracemosa
longirepens
longisepala
longispicata
longissima
lonsum
lontara
lopez
lopo
lorenz
loreziana
los
lour
love
low
lowii
loxia
lp
lq
lr
ls
lt
lu
lua
lucht
lucida
lucis
luckel
lucksom
lueddemannia
lueddemanniana
luer
luerorum
lugens
luhkie
luisia
lule
luma
lunata
lunulata
lutea
luteocilium
luteola
luxembourg
luxembourgish
luxemburg
luzon
luzuriaga
lv
lvii
lw
lx
ly
lycaste
lyciensis
lycomormium
lycopodioides
lydia
lyonii
lz
m
m0
m1
m2
m3
m4
m5
m6
m7
m8
m9
ma
maas
maastik
maastricht
maboroensis
mac
macedonian
macodes
macra
macrantha
macranthum
macranthus
macrobulbon
macrocarpa
macrolepis
macrophylla
macrostylis
macuconensis
maculata
maculatum
maculosa
madag
madagascar
madagascariensis
madisonii
madrid
maduroi
maek
mag
magazine
magnifica
magniflora
magnipetala
magnolia
magnoliaceae
magnoliopsida
maguire
maguirei
magyar
mai
mail
main
maingayi
maire
majalis
major
mak
makino
mal
malachantha
maladroxiensis
malagasy
malasia
malawi
malaxis
malay
malaya
malayalam
malayan
malaysia
malesherbia
malgache
mali
malmeana
malmquistiana
malo
malta
maluku
mammea
mammosa
man
mana
manabina
mandonii
mangaly
manipuri
mann
manniella
mannii
manochehr
mansf
mansi
manu
manual
manuscripts
maori
map
maquilingensis
mar
maranta
marathi
marcantonio
marda
marginata
mari
maria
marianne
maritima
mark
mars
marseille
marshall
marshallese
marshallia
marsupialis
mart
martiana
martin
martinezii
martius
marumbyana
mas
masam
mascula
masiwa
mast
materials
matthewsii
mau
maxillaria
maxim
maxima
maya
mayek
mazz
mazzetti
maþær
mb
mbarambara
mbili
mc
mccann
mcgregorii
md
me
mearnsii
medals
meded
media
medical
medieval
medinae
mediocarinata
medit
mediterranean
medusa
meg
megaloophora
meiracyllium
meisn
meitei
melachila
melanocaulon
meleagris
melhania
meli
melki
mem
membracidoides
men
mende
mendozae
menezes
mens
mentosa
merge
meridana
meridionalis
merr
merrill
merrillii
mes
mesadenella
mesadenus
mesua
met
metasequoia
metro
metsatoll
metung
mexicana
mexico
mey
mf
mg
mga
mh
mhg
mi
michael
michelia
michelle
micholitzianum
michx
micrantha
micranthum
microblephara
microchila
microchilus
microglossa
micropetala
microphylla
microphyta
microscopica
microstrobos
microtis
middle
mien
miguelii
mije
mil
mila
milia
milian
miliard
milion
militaris
miljoen
mill
mille
million
miltonia
miltoniopsis
min
mina
minahassae
minas
minax
mincult
mindanaensis
mindanao
minima
minimiflora
ministry
minor
minus
minuta
minutalis
minuticauda
minutiflora
minutissima
mio
mipela
miq
mirabilis
miranda
mirongo
mis
misc
misera
miss
missouri
mit
mitragyna
mitt
mitteilungen
mj
mk
ml
mm
mme
mn
mnras
mo
mocoana
model
modern
modesta
mohammad
mohawk
moi
mollis
molloy
mon
mongolian
monogr
monomeria
monophylla
monophyllum
monosepalum
montana
montanum
montezumae
monticola
montis
montrouz
montserratensis
monument
mood
moon
moons
moore
mooreana
moorei
mora
more
morenoi
morganii
morii
morinda
morio
morisii
moritzii
mormodes
mormolyca
mornicola
morocco
morren
moscosoa
moscow
most
mot
mother
mouton
movie
moya
mozambique
mp
mpumalanga
mq
mr
ms
mt
mu
mucronata
mucronatum
muell
muelleri
multiclavia
multiflora
multilingual
multitree
munzinger
muoi
murexoidea
muricata
muricaudata
mus
muscicola
muscosa
musee
museum
music
mute
muz
mv
mw
mx
my
mya
myanmar
myoxanthus
myrmechila
myrmechis
myrmecodia
myrmecophila
myrticola
myrtifolia
mysorensis
mystacidium
myth
myths
mytnik
mz
mɯ
n
n0
n1
n2
n3
n4
n5
n6
n7
n8
n9
na
naa
nachtr
nada
nadeaud
nagam
nagelii
nah
nahast
nahuatl
naithani
nakai
nam
name
names
naming
namon
nana
nang
nao
napintzae
nar
narikeni
narod
nas
nasa
nasre
nasriddi
nasuta
nat
natal
nation
national
nationale
nations
native
natl
naturhist
nau
nauclea
navajo
naw
nb
nbrkomi
nbsp
nc
nd
ndbmarshak
ndi
ne
neapolitan
nectarifera
ned
neerl
nees
negadensis
neglecta
neglectum
neilgherrensis
nelson
nelsonii
nem
nematoceras
nemorosa
neo
neocaledonica
neocogniauxia
neofinetia
neomoorea
neottia
neottianthe
nep
nepal
nepali
nephelaphyllum
neptune
nervilia
nervosa
net
network
neudecker
neudeckeri
neutral
neuwiedia
new
news
newspaper
nf
nfronte
ng
nga
ngbangbo
ngng
nh
nha
ni
nia
nicaragua
nicholls
nicobar
nidus
nie
niesseniae
nigeria
night
nigra
nigrescens
nigritella
niizh
nin
nipponica
nir
nitida
niue
niuean
nivalis
nivea
niveoglobula
niveum
nj
nk
nl
nm
nn
nnu
no
nobilis
node
nodosa
noi
nom
nome
nomine
nomo
non
nor
nord
nordeste
nordic
noroeste
noronha
norse
norske
norte
north
northern
nos
nostr
nostre
nostro
not
notes
nothofagus
nothosubsp
notizbl
notul
notylia
nou
nov
nova
nove
novem
novial
now
np
nq
nr
ns
nsf
nt
nu
nubigena
nuda
nui
nul
nula
nuli
numbered
nummularia
nun
nus
nusen
nutans
nutt
nuytsia
nv
nw
nx
ny
nyelvtudomanyi
nyi
nyny
nytimes
nz
nɔ
o
o0
o1
o2
o3
o4
o5
o6
o7
o8
o9
oa
oasis
oaxaca
ob
oberonia
object
oblanceolata
obliquipetala
oblonga
oblongifolia
obovata
obscura
observatory
obtusa
obtusifolia
oc
occidentale
occidentalis
occultation
och
ochracea
ochreata
ochroleuca
octavioi
octo
octomeria
od
odamt
odobeniceps
odontoglossum
odontorrhynchus
odorata
odoratissima
odoratum
oe
oerst
oerstedii
oeste
oesterr
oestrifera
of
official
officinalis
og
oh
ohu
ohwi
oi
oia
oito
oj
ojibwe
ok
okkara
okkum
oko
ol
olac
old
oled
oli
oligantha
oligotricha
oliv
olivacea
oliver
oliveriana
olsem
olszewski
olympics
olympiques
om
omar
omegaifera
omene
omissa
omniglot
omo
on
ona
onagriceps
oncidium
one
online
ono
ons
onze
oo
op
open
opera
ophioglossoides
ophiopogonoides
ophrys
opik
oppositifolia
optics
oq
or
orbicularis
orbit
orbital
orch
orchadian
orchid
orchidaceae
orchidee
orchideen
orchids
orchis
ore
oreadum
oreophila
org
organization
orientalis
origins
oriya
orleanesia
ormerod
ornata
ornatum
ornithocephalus
ornithochilus
oromo
orquidea
orquideologia
orsay
ortegae
orthography
ortiz
orðabok
os
osam
oscitans
osem
oshiwambo
osmanica
osmanya
osteospermum
ot
ota
otchipwe
oterma
other
otia
oto
otostylis
otta
otto
otu
otuz
ou
ouest
ougrienne
our
ov
ovalifolia
ovalis
ovata
ovatilabia
ow
ox
oxford
oxyglossa
oxyrrhynchos
oy
oz
p
p0
p1
p2
p3
p4
p5
p6
p7
p8
p9
pa
pabst
pabstii
pachyglossa
pachyphylla
pachyphyllum
pachyphyta
pachypodium
pachystachys
pacific
pacifica
pad
page
pageara
pages
pagewanted
pakarnu
pakistan
palawan
palawanensis
palawensis
pallas
pallens
pallida
pallidiflavens
pallidiflora
pallidus
paludosa
palustris
pan
panafrican
panafril
panama
panamensis
panattensis
panc
pancheri
pandurata
panduratum
panero
paniculata
panisea
panj
pantherina
pantl
pap
papa
paper
papers
paphinia
paphiopedilum
papiamento
papiamentu
papilio
papilionacea
papilionanthe
papillosa
papillosum
papuacedrus
papuana
papuanum
papuligera
paradoxa
paraensis
paraguay
parana
paranaensis
paranapiacabensis
paraphalaenopsis
pardalina
pardipes
pardo
pardona
paris
parish
parishii
park
parma
part
parva
parviflora
parviflorum
parviflorus
parvifolia
parvifolium
parvilabris
parvula
parvulum
pas
pasi
passionis
pataka
patens
patre
patri
patro
patroclus
patula
pauciflora
pauciflorus
paul
paulara
paulensis
paulo
pauloensis
paulownia
paulus
pav
pavetta
paxton
paz
pb
pc
pd
pdf
pe
peace
pearce
pectinata
pectinatum
pedersen
pedilochilus
pedunculata
pellucida
pen
pendens
pendula
penduliflora
penicillata
penins
peninsula
pensilis
pentapetes
pentas
people
peoples
peperomioides
pequenas
perez
peristeria
permculture
peroupavae
perplexum
perpusilla
perrier
perrieri
perry
pers
persian
person
persona
personen
persons
perspective
peru
peruv
peruviana
peruvianum
pet
petelotii
peter
petersburg
petersiana
petiolaris
petiolata
petit
petropolitana
petroskoi
peyrotii
pf
pfavii
pfisteri
pfitzer
pflanzenr
pg
ph
phaius
phalaenopsis
phengjas
philipp
philippinense
philippinensis
philippines
philology
phisqa
pholcoidea
pholidota
phonology
photos
php
phph
phragmipedium
phral
phrasebook
phrases
phreatia
phyllocladus
phytologia
phytotax
pi
picta
pid
pidgin
piemonteis
pierre
pile
pileata
pileatum
pilifera
pilosa
pilosissima
pingasut
pinus
piperia
piratiningana
piruw
pis
pisateley
pisateli
pisin
pisinna
pit
pito
pitu
pityphyllum
pj
pk
pl
place
planch
planet
planets
plantaginea
plante
plantsman
platanthera
plattdeutsch
platychila
platypetala
platyphylla
platystele
platystylis
plectorrhiza
pleione
pleurothallis
pleurothalloides
plicata
plocoglottis
plu
plumosa
plus
pm
pn
png
po
podocarpus
podochilus
poem
poepp
poetry
pogonia
pogoniopsis
pohl
poir
pollinensis
polyantha
polycycnis
polygonoides
polyphylla
polystachya
pomatocalpa
pona
ponerorchis
ponthieva
popayanensis
popul
population
por
porphyrea
porroglossum
porsch
portal
portentosa
portilla
portillae
portions
porto
portoi
portugal
portuguese
posadarum
post
pour
pouteria
powellii
pozoi
pp
pq
pr
practical
pradesh
praecipua
praecox
praemorsa
praetermissa
prasanthk
prasophyllum
prayer
preliminary
presl
press
presser
pridgeon
primer
prince
pringlei
privigna
pro
proc
procera
prodr
profile
program
project
prolifera
promontorii
pronominal
pronunciation
propinqua
proposal
prorepentia
prosthechea
prostrata
protea
protracta
prov
provincialis
proza
prunus
prussian
ps
pseuderia
pseudoanatolica
pseudobertolonii
pseudocymbiformis
pseudolaelia
pseudovanilla
psilantha
psittacina
psychilis
psychopsis
pt
pteroglossa
pterostylis
pu
pub
puberula
pubescens
pubipetala
publ
published
publishers
pud
pugioniformis
pulaar
pular
pulchella
pulchellum
pulchellus
pulcherrima
pulchra
pulchrum
pullei
pumila
pumilum
punctata
punctatum
punctulata
pungens
punjabi
punkty
pupulin
purpurascens
purpurata
purpurea
purpurella
purpureum
purpusii
pursh
pusilla
puttemansii
pv
pw
px
py
pygmaea
pyramidalis
pyrenees
pz
q
q0
q1
q2
q3
q4
q5
q6
q7
q8
q9
qa
qangara
qb
qc
qd
qe
qf
qg
qh
qi
qian
qj
qk
ql
qm
qn
qng
qo
qp
qq
qr
qs
qt
qu
quadriloba
quadrilobum
quadripunctata
quale
quar
quaranta
quatre
quatro
que
quecami
quechua
queensland
quekettia
qui
quiinaceae
quinque
quisqueya
quisqueyana
quisumb
qv
qw
qx
qy
qz
r
r0
r1
r2
r3
r4
r5
r6
r7
r8
r9
ra
rabei
racemosa
radialis
radiata
radio
raf
raiony
ramifera
ramirez
ramonensis
ramosa
ramosii
ramuana
ramulosa
ran
randa
randii
rao
rapa
rauschert
raw
rb
rc
rchb
rd
re
reading
real
rec
recchia
recondita
record
recordings
recueil
recurva
recurvata
red
reedii
ref
reference
reflexa
refracta
reg
regalis
regel
regia
regina
reginae
regis
register
regni
regnia
regno
rehder
reichenbach
reichenbachiana
reinhard
reinholdii
reinw
reipubl
relations
release
remota
renanthera
rendle
renz
renzii
reo
rep
repens
repert
rephaboliki
report
reports
reptans
republic
republica
republika
res
research
resource
resources
respublika
respublikası
restrepia
restrepioides
results
resupinata
ret
reticulata
retusa
reunion
rev
review
revista
revoluta
rf
rg
rh
rhamnaceae
rhellicani
rhinerrhiza
rhipogonum
rhizanthella
rhodochila
rhodostephane
rhombilabia
rhomboglossa
rhyncholaelia
rhynchophreatia
rhynchostele
rhynchostylis
rhytionanthos
ri
rich
richardiana
richteri
ricii
ridl
ridleyi
ridsdale
rigida
rigidula
rijks
rima
rimbachii
rimwe
rin
ringens
rio
riparia
risso
rj
rk
rkomi
rl
rm
rn
ro
robbr
robert
robinsonii
robiquetia
robusta
robustum
robyns
rochev
rodr
rodrigoi
rodriguesii
rodriguezia
roei
roem
roezlii
rogers
rohingya
rolfe
rolfeana
rolfei
romero
romulus
rona
rong
roo
roraimae
roscoe
roscoea
rosea
roseoalba
roseola
rosetta
roseum
rosillo
rostellata
rostrata
rostratum
rotation
roto
rotuma
rotuman
rotunda
rotundata
rotundifolia
rotundifolius
rouse
routledge
roxb
roy
royen
rp
rq
rr
rs
rt
ru
rua
ruan
rubble
rubella
rubens
rubescens
rubra
rubus
ruckbr
ruckeri
rudolfiella
rudolfii
rufa
rufescens
ruiz
rumantsch
rumantscha
rungweensis
runoja
rupestris
rupicola
rupp
rus
rusby
rusbyi
ruscifolia
russia
russian
rutaceae
rutk
rv
rw
rwanda
rx
ry
rydb
rz
s
s0
s1
s2
s3
s4
s5
s6
s7
s8
s9
sa
saa
saami
sab
sabal
sabu
sabulosa
saccata
saccatum
saccifera
saccoglossum
saccolabium
sacculata
sada
sagittata
saint
sakai
sake
sala
salacca
salazar
salicifolia
salisb
salpistele
salvador
sam
sama
sambiranoensis
sami
samoa
san
sanchezii
sancta
sanctae
sancti
sanderae
sanderiana
sang
sanga
sango
sanguinea
sans
sanskrit
santa
santhali
santiago
santo
sanu
sao
sapindaceae
sapindus
sar
sarawakensis
sarcochilus
sarcoglottis
sarcophylla
sarcostoma
sardegna
sardinia
sas
sassafras
sastre
sat
sata
satellite
satellites
satyrium
sau
sauleda
saundersiana
saurocephala
sauroglossum
sava
saxicola
saxon
say
sb
sc
scabra
scandens
scandinavian
scansor
scaphosepalum
scaphyglottis
scaposa
scariosa
scelochilus
sch
schedul
schelpe
schiedeella
schilleriana
schimperi
schinopsis
schinz
schlechter
schlechteri
schlechteriana
schlimii
schltdl
schltr
schmidtianum
schomburgkia
schonfelder
school
schott
schreb
schudelii
schuit
schult
schultzei
schulze
schum
schumann
schunkei
schutzgeb
schweinf
schweinfurthianum
schweinfurthii
sci
science
scientiarum
sclerophylla
scolopax
scopulorum
scortechinii
scottish
script
scripts
scriptum
scuticaria
sd
se
searchable
secc
sechs
second
sect
section
secunda
sed
sedam
sedem
sedis
see
seehawer
seem
sefulu
sehs
sei
seidenf
seidenfadenii
seis
sekiz
seksen
selbyana
sele
selenitepala
sellowii
sem
semperflorens
senghas
sent
sep
sept
sepuluh
ser
seranica
serapias
series
seriz
serotina
serpens
serpentilingua
serra
serrata
serrulata
sertifera
sertularioides
service
services
ses
sesc
sesi
sesotho
sessiliflora
sessilis
sest
set
sete
setigera
setswana
sette
setunggal
seven
several
sewi
sex
seychelles
sf
sg
sh
sha
shan
shape
shaw
sherff
sherpa
sheviak
shim
shona
showobject
shsh
shtml
si
sia
siamensis
sibelius
siberia
sicilia
sicula
sida
sie
siebold
sievekingia
sigmoidea
sijm
sijmii
sil
silva
silvae
silvana
silverstonei
silvestrii
simarouba
simaroubaceae
simia
similis
simondii
simplex
simpliciglossa
sims
simulation
sin
sindarin
sindhi
sindimo
sine
sinense
sinensis
sing
singapore
singing
sinhala
sinor
sip
siprage
sire
sirirugsa
sis
site
sites
sitta
situation
siu
siumut
six
sj
sk
skal
skeptrostachys
sketch
skinneri
skornick
sky
sl
slavic
slovenia
sm
small
smaragdina
smith
smithatris
smithii
sn
snac
so
sobralia
soc
societe
society
sociolinguistic
sodiroi
software
sojaruun
sol
solano
sole
solium
solomon
somali
some
sometimes
son
sond
sonda
song
soninke
soo
sophora
sophronitis
soratana
sordida
sorokin
sororcula
sororia
sotho
soto
sotoana
sound
sourashtra
south
southeast
southern
southwest
soyuz
sp
spaeth
spain
spanish
spannageliana
sparsiflora
spathilabia
spathoglottis
spathulata
spathuliformis
spathulipetala
spatulata
speak
spec
species
speciosa
speciosum
specklinia
spectabilis
speculum
spelling
sphegodes
spicata
spicatum
spilotantha
spiralis
spiranthes
spisok
spitzelii
splendens
splendida
spoken
spondias
sport
sprache
spreng
spruce
sprucei
spruneri
sq
sr
sri
ss
ssp
st
sta
stamariaara
standard
standl
standleyi
stanhopea
stap
stapf
state
states
station
statistics
stelis
stellaris
stellata
stellilabium
stenia
stenoglossa
stenopetala
stenophylla
stenoptera
stenorrhynchos
stenostachya
stereosandra
steud
steven
stevens
stevensonii
stewart
steyerm
steyermarkii
stictophylla
stimson
stipulatum
sto
store
storm
story
straussii
strelitzia
streptopetala
striata
striatum
stricta
striolata
structure
structures
stuartiana
studies
study
stylobasium
stylosa
styri
su
suarez
suarezii
suaveolens
sub
subclausa
subconcolor
subgenus
subnulla
subsection
subsp
subtilis
subtribus
subulata
suc
sud
sudan
sudeste
sudsee
suisse
sul
sulawesi
sulcata
sulphurea
sulvi
sum
sumatra
sumatrana
sumatranus
summer
summerh
summerhayesiana
sunda
suomalais
suomen
superba
superbiens
suppl
support
sur
suramerica
suriana
suriname
surinamensis
sutingara
sv
svan
svg
sw
swa
swadesh
swahili
swan
swaziland
sweden
sweet
swingle
sx
sy
syktnet
syktyvdin
syktyvdincbs
syllabary
sylvatica
sylvestre
sylvestris
sylvia
symb
symplocos
syn
synonym
syntax
syriac
sysbibl
syst
system
sz
szlach
sɔ
səl
sɛ
t
t0
t1
t2
t3
t4
t5
t6
t7
t8
t9
ta
taa
tabana
taeniophyllum
tagalog
taha
tahi
tahitensis
tai
tainia
taiwan
taiwanensis
taiwaniana
taj
tale
talking
tallinn
talpinaria
tamazight
tan
tanaka
tang
tanzania
tartu
tat
tate
taw
taxodium
taxon
taylorii
tb
tc
td
tdil
te
teaching
teaguei
teatr
teie
teis
telescope
ten
tenella
tennant
tenompokense
tentaculata
tenthredinifera
tenue
tenuicaulis
tenuiflora
tenuifolia
tenuis
tenuissima
ter
tere
terei
teres
teretifolia
terra
terrestris
tersch
teschner
testacea
tetragona
tetramicra
teuscheria
text
texts
tf
tg
th
tha
thailand
thailandica
thanu
that
the
thecostele
theek
their
thelymitra
them
theoretical
thiele
thienii
thin
thomas
thouars
thrixspermum
through
thth
thu
thunb
thunbergia
thunbergii
thunia
thwaites
ti
tibet
tibetan
ticoglossum
tiegh
tien
tiessen
tif
tiga
tigjus
tigre
tigrina
tigrinum
tigrinya
til
tili
time
times
tin
tipo
tipularia
tirveng
title
titus
tiu
tj
tjtj
tk
tl
tlhingan
tlingit
tm
tn
to
tobago
tocharian
tod
today
toia
tok
tokachii
toki
tokyo
toloi
tolu
tolumnia
tomentosa
tomovl
tong
tongan
tonkinensis
tools
topic
torricellensis
torta
tortilis
toru
toscano
tot
tou
touroz
toxicodendron
tołikani
tp
tq
tr
track
trans
transhyrcana
transiens
translation
translator
transliteration
translucida
transparens
transvaal
traunsteineri
trav
tre
trei
treis
trenta
trente
tres
trevoria
tri
triandra
triangularis
trias
tribe
tribus
tricallosa
tricarinata
triceratops
trichocentrum
trichoglottis
trichophora
trichosalpinx
trichotosia
tricolor
tridens
tridentata
trifida
trifurcata
trigoniaceae
trigonidium
triloba
trilobata
trimen
trin
trinervia
trinidad
triphora
triplicata
trisetella
tristis
troglodytes
trop
tropical
tropidia
trulla
trullifera
trullifolia
truncata
truncicola
ts
tshiluba
tshtsh
tsi
tso
tsodi
tsogang
tsosts
tsts
tsubotae
tt
ttuddaag
tu
tua
tuber
tuberculata
tuberculatum
tuberculatus
tuberosa
tuerckheimii
tuhat
tui
tulu
tumbuka
tun
tunga
tunguraguae
tunisia
tunka
tuo
turcz
turfosa
turkmenistan
turner
tutorial
tuvalu
tuyama
tv
tw
twa
twai
twee
twenty
twi
twins
twintig
two
tx
ty
tykkara
type
typology
tyteca
tz
tł
tɕ
tʃ
u
u0
u1
u2
u3
u4
u5
u6
u7
u8
u9
ua
ub
uber
uc
ucla
ucoz
ucs
ud
udihe
ue
uf
ug
uganda
ugaritic
ugri
ugric
ugrilaisten
ugrische
ugristarum
uh
uhnoe
uhnvirau
uhsi
ui
uj
uk
uks
uku
ul
uliginosa
uluni
um
umbellata
umbelliformis
umbilicata
umbonata
umbrosa
umunani
un
una
uncata
uncatum
unciferia
uncinata
und
unduavica
undulata
undulatum
une
unesco
ungar
unguiculata
uni
unicode
unicolor
unicornis
uniflora
unifolia
union
united
univ
universal
universitat
university
uno
uns
unspecified
unu
unus
uo
uod
up
uq
ur
uralic
uralica
urani
uranus
urb
urban
ure
uribei
url
ursula
uru
urvilleana
us
usa
use
used
usio
ust
ut
utara
utriculata
uu
uv
uvaria
uw
ux
uy
uz
v
v0
v1
v2
v3
v4
v5
v6
v7
v8
v9
va
vaccinium
vad
vagans
vaginata
vaginatum
vahl
vai
vaisala
valerioi
valeton
valida
valoda
van
vanda
vandewegheara
vandopsis
vangueria
vanilla
vanoverberghii
vanuatu
var
vargasii
variabilis
variegata
variegatum
vasconica
vasilevich
vasquez
vasquezii
vb
vc
vd
ve
veg
vel
velay
veleziana
vell
velutina
velutinum
venetian
venez
venezuela
venezuelana
venezuelensis
veni
venosa
vent
ventricosa
ventricosum
venulosa
venusta
vera
veracruz
veratrifolia
verb
verboonenii
verbs
verbum
verdc
verde
verdi
verecunda
verlag
verm
vernixia
vernixioidea
vernonia
verrucosa
verruculosa
versicolor
version
verticillata
verticordia
very
vespertilio
vesta
vestita
vestitum
vf
vg
vh
vha
vhathu
vi
via
vicina
video
videos
viduata
vier
viet
vietnam
vietnamensis
view
views
viginti
vii
viii
viis
vikhondi
vil
villosa
villosum
vinacea
vint
vinte
vinti
violacea
violaceomaculata
virens
virescens
virgata
virginalis
virginiana
viridiflora
viridis
virtual
viscosa
visit
vit
vitellina
viti
vitiensis
vittata
vj
vk
vl
vlimau
vm
vn
vo
vocabulary
vogel
voizvozh
vol
volapuk
volo
volume
von
vorator
vos
votr
vp
vq
vr
vs
vt
vu
vulpes
vun
vus
vv
vw
vx
vy
vz
w
w0
w1
w2
w3
w4
w5
w6
w7
w8
w9
wa
waa
waechter
wageneri
wagneri
wall
wallace
walleri
wallich
wallichii
wallisii
walloon
walp
walpers
wals
walter
walu
wan
wang
want
war
waray
wardii
wariana
warlpiri
warm
warmingia
warscewiczii
warsz
warszewiczii
was
washington
waterson
watson
wb
wc
wd
we
web
weber
weberbaueriana
weberi
website
webster
wedd
weitzman
welcome
welsh
welteri
welw
welwitschii
wena
wendl
wendlandii
wendtii
wenzelii
werneri
wernham
west
westc
western
wf
wg
wh
what
white
whitney
wi
widdringtonia
wien
wiesbaden
wight
wiki
wikidata
wikivoyage
wiktionary
wild
will
willd
williams
williamsii
willing
wilson
wilsonii
windows
winter
wissen
with
wittm
wj
wk
wl
wm
wn
wo
wolfgang
wollde
wolof
wong
wood
word
words
works
world
worterbuch
wp
wq
wr
wrayi
wright
wrightii
writer
writers
writing
written
ws
wt
wu
wullschlaegelia
wus
wv
ww
www
wx
wy
wz
x
x0
x1
x2
x3
x4
x5
x6
x7
x8
x9
xa
xantholeuca
xb
xc
xd
xe
xf
xg
xh
xi
xii
xiii
ximenae
xiv
xix
xj
xk
xl
xls
xm
xn
xo
xp
xq
xr
xs
xt
xu
xud
xuyu
xv
xvi
xvii
xviii
xw
xx
xxi
xxii
xxiii
xxiv
xxx
xxxi
xy
xylobium
xytriophora
xz
y
y0
y1
y2
y3
y4
y5
y6
y7
y8
y9
ya
yahoo
yakka
yalla
yam
yamam
yauaperyensis
yav
yb
yc
ycylom
yd
ye
yedi
yehla
yetmis
yf
yg
yh
yi
ying
yj
yk
yl
ym
yn
yo
yoania
york
yoruba
you
your
youtube
yp
ypirangae
yq
yr
yrjo
ys
yt
yu
yucatanensis
yulania
yumi
yunnan
yunnanense
yunnanensis
yuz
yv
yw
yx
yy
yz
z
z0
z1
z2
z3
z4
z5
z6
z7
z8
z9
za
zambia
zaratananae
zb
zc
zd
ze
zealand
zebrina
zehn
zelenec
zelenkoa
zero
zeuxine
zf
zg
zh
zhuang
zhurn
zhzh
zi
zimbabwe
zingiber
zinnia
zj
zk
zl
zm
zn
znamenityh
zo
zollingeri
zootrophion
zp
zq
zr
zs
zt
zu
zucc
zunagensis
zuni
zur
zv
zw
zwanzig
zwei
zx
zy
zygopetalum
zygosepalum
zygostates
zz
{
|
}
~
§
¨
©
«
¬
°
±
²
³
´
·
¹
»
½
×
ß
ßß
æ
ææ
ð
ðð
ø
øø
þ
þþ
đ
đđ
ħ
ħħ
ı
ĸ
ŀ
ł
ła
łł
ŋ
ŋa
ŋŋ
œ
œœ
ŧ
ŧŧ
ſ
ƀ
ƀƀ
ƃ
ƅ
ƈ
ƈƈ
ƌ
ƒ
ƒƒ
ƕ
ƕƕ
ƙ
ƙƙ
ƚ
ƚƚ
ƣ
ƣƣ
ƥ
ƥƥ
ƫ
ƭ
ƭƭ
ƴ
ƴƴ
ƶ
ƶƶ
ƿ
ƿƿ
ǀ
ǀxam
ǁ
ǂ
ǃ
ǃna
ǆ
ǉ
ǌ
ǝ
ǝǝ
ǥ
ǥǥ
ȝ
ȝȝ
ȣ
ȣȣ
ȥ
ȥȥ
ȵ
ȼ
ȼȼ
ȿ
ȿȿ
ɀ
ɀɀ
ɂ
ɂɂ
ɇ
ɇɇ
ɉ
ɉɉ
ɋ
ɋɋ
ɍ
ɍɍ
ɏ
ɏɏ
ɐ
ɐɐ
ɑ
ɒ
ɓ
ɓɓ
ɔ
ɔɔ
ɕ
ɖ
ɖo
ɖɖ
ɗ
ɗɗ
ɘ
ə
ət
əə
ɛ
ɛɛ
ɜ
ɞ
ɟ
ɟa
ɠ
ɠɠ
ɡ
ɢ
ɣ
ɣɣ
ɤ
ɥ
ɥɥ
ɦ
ɦɦ
ɨ
ɨɨ
ɩ
ɩɩ
ɪ
ɫ
ɫɫ
ɬ
ɬɬ
ɭ
ɮ
ɯ
ɰ
ɱ
ɱɱ
ɲ
ɲɲ
ɳ
ɴ
ɵ
ɵɵ
ɸ
ɹ
ɻ
ɽ
ɽɽ
ɾ
ɾa
ɿ
ʀ
ʀʀ
ʁ
ʂ
ʃ
ʃt
ʃʃ
ʄ
ʇ
ʇʇ
ʈ
ʈʈ
ʉ
ʉʉ
ʊ
ʊi
ʊʊ
ʋ
ʋʋ
ʌ
ʌʌ
ʍ
ʎ
ʏ
ʐ
ʑ
ʒ
ʒʒ
ʔ
ʔɂ
ʕ
ʙ
ʜ
ʝ
ʝʝ
ʟ
ʣ
ʦ
ʧ
ʨ
ʰ
ʲ
ʷ
ʹ
ʻ
ʼ
ʾ
ʿ
ˀ
ˆ
ˈ
ˉ
ˊ
ˌ
ː
ːˌ
ˑ
ˑˈ
ˠ
ˡ
ˤ
˥
˧
˨
ˮ
ͱ
ͱͱ
ͳ
ͳͳ
͵
ͷ
ͷͷ
α
αα
β
ββ
γ
γγ
δ
δδ
δεκα
δυο
ε
εε
ελληνικη
ζ
ζζ
η
ηη
θ
θθ
ι
ιι
κ
κκ
λ
λλ
μ
μμ
ν
νν
ξ
ξξ
ο
οο
ου
π
πι
ππ
ρ
ρρ
ς
σ
σσς
τ
ττ
υ
υυ
φ
φφ
χ
χχ
ψ
ψψ
ω
ωω
ϐ
ϑ
ϒ
ϕ
ϖ
ϙ
ϙϙ
ϛ
ϛϛ
ϝ
ϝϝ
ϟ
ϟϟ
ϡ
ϡϡ
ϰ
ϱ
ϲ
ϳ
ϳϳ
ϵ
ϸ
ϸϸ
ϻ
ϻϻ
а
аа
аав
аб
абазин
абар
абезь
абрамов
абрамович
абу
абуось
абхаз
абхазия
абхазияса
абхазияын
абъячои
абъячоиса
абъячоиын
ав
авар
авг
август
августа
августын
авенир
аверкиевна
авеста
авиаперевозкаяс
авиационно
авиацияса
авиацияын
авив
авилова
авлык
аврам
аврамов
аврора
австралия
австралияса
австралияын
австрия
австрияса
австрияын
авт
автобиографическои
автобус
автомат
автомашина
автономии
автономия
автономияа
автономная
автономного
автономнои
автономныи
автор
авторами
авторах
автореф
авториз
авторлон
авторлысь
авторов
авторос
авторъяс
авторъяслон
авторъяслысь
авторыс
автотуи
авъя
агаси
агасон
агафья
агентство
агитация
агни
агния
агропункт
ад
адам
адамович
адвечная
аддз
аддзам
аддзан
аддзис
аддзисны
аддзом
аддзома
аддзомаось
аддзывлан
аддзыл
аддзылі
аддзыны
аддзысьл
аддзысьлам
аддзысьломъяс
аделаида
адзва
адззисьлытодз
административно
административное
административнои
администрациа
администрации
администрация
администрациялон
администрацияон
администрацияын
адмирал
адольф
адплата
адрес
адриа
адыг
адыгеи
азбука
азербаиджан
азербаиджанса
азербаиджанын
азии
азия
азияк
азиял
азиялон
азияса
азияын
азияысь
азияя
азов
азор
азот
азыма
аи
аибабин
аибабина
аивазян
аика
аикатыла
аикатыласа
аикатыласянь
аикатылаын
аикино
аикинская
аилов
аиловъяс
аимара
аиморт
аиму
аину
аиран
аихенвальд
аиыс
аиысл
аиыслон
аиясос
аиясыс
акад
академиа
академии
академик
академическ
академическии
академическои
академия
академиял
академиялон
академиялысь
академияо
академияон
академияса
академияын
академияысь
акан
акант
акань
аквад
аким
акинь
акись
акротири
аксенов
акта
актер
актерон
актеръяслысь
актея
актинид
актов
актриса
акулина
акун
акутон
акушерскои
ал
аланд
алая
албан
албания
алгонкин
александр
александра
александров
александрович
александровна
александровіч
алексеевич
алексеевка
алексеевна
алексеи
алена
алены
алеут
алжир
алжирын
али
алия
алнаш
алои
алоигорд
алонсо
алта
алтаи
алтаиского
алтмыш
алты
алфавит
алфавита
аль
альберт
альберта
альбина
алькос
альманах
альманахъясын
альманахын
альпвывса
альпъяс
альпъясын
альпъясысь
альстремерия
альфия
альфред
аляска
ам
амазонка
амбулатория
америка
америкал
америкалон
америкалысь
америкаса
америкаын
америкаысь
америке
амман
амстердам
амур
ан
анализ
анализа
анании
ананьиноса
анар
анараш
анастасия
анатолии
анатольевич
анатольевна
анбур
анбурлон
анбуро
анбурон
анбуръяс
анбуръясон
анбуръясын
анбурын
анггун
ангелина
ангилья
англ
англиискии
англииско
англииском
англичан
англичанкод
англия
англияса
англияын
англо
ангола
анголаын
андеграунда
андорра
андреас
андреев
андреевич
андреевна
андреи
андхра
андъяс
анжелика
анжелос
анико
анимация
анисим
анисимов
анисимович
анисья
анкара
анна
аннибале
аннона
анны
ансамбль
ансамбльлон
ансамбльон
ансамбльын
антигуа
антил
антила
антилопаяс
антипка
антициклон
античнои
античность
антология
антон
антонида
антонина
антонов
антонович
антропологии
антропология
антус
ануфриев
ануфриева
ануфриевич
анфим
аныб
аныбская
ань
анькытш
аньяс
аньяслон
аняби
аош
аошса
аошын
апельсинъяс
апогеи
апостол
аппалачи
аппарат
аппаратын
апр
апрель
апреля
аптека
ар
араб
араби
арабкод
араблон
арабскии
аравия
аравияын
аралия
араукария
арви
аргентина
аргентинаын
арест
арестуит
арестуитома
арестуитісны
арзамазов
арии
арифметика
ариэль
аркадии
аркадьевич
арктика
арктикаын
арланьыс
арлыд
арлыда
арлыдыс
армении
армения
арменияса
арменияын
армиа
армиалон
армиао
армиаын
армии
армия
армияас
армиялы
армияо
армияса
армияын
армияысь
армяна
армянские
армянскии
армянском
арнас
ародз
арос
ароса
аросаяс
аросодз
аросон
ароссянь
аросын
арсении
арсеньев
арся
арсянь
арт
артавны
артавсис
артавсьо
артавсьома
артал
арталан
арталом
арталоны
артеев
артеева
артеевлон
артель
артельон
артемии
артист
артиста
артистка
артисткаон
артистъяс
артистъясос
артм
артманног
артмас
артмис
артмисны
артмо
артмодан
артмодны
артмодо
артмодом
артмодома
артмодоны
артмодігон
артмодісны
артмом
артмома
артмомаось
артмомсянь
артмоны
артмы
артмыны
артур
аруба
аруначал
архангельск
архангельского
архангельскои
археография
археол
археолог
археологическои
археология
археологъяс
архив
архивъясын
архивъясысь
архивын
архивысь
архипелаг
архипович
архиповка
архитектоника
архитектор
архитектуралон
архитектураса
арын
ас
асалан
асвеськ
асвеськодлан
аски
аскиа
аскодыс
асланым
асланыс
аслас
аслыныс
аслыс
аслысп
аслысполос
аслысполослунсо
аслысполослуныс
аслыссикас
аслыссяма
асму
аспект
аспекты
аспирант
аспиранталома
аспирантон
аспирантура
аспирантурао
аспирантураын
аспирантуру
ассам
ассистент
ассистентон
ассоциация
ассоциацияын
асср
ассьыныс
ассьыс
аст
астафьев
астероид
астероидлон
асторъя
астра
астрахань
астроном
астрономия
астрономияса
астрономъяс
асш
асшодъя
асшор
асшора
асшорлун
асъюралан
асъя
асыв
асывввыв
асыввыв
асыввывлань
асыввывса
асыввывсянь
асыввыл
асыввылас
асыввылын
асывланьын
асывнас
асывсянь
асывсяньыс
асылын
асылыс
асьным
асьнымос
асьныс
асьнысо
асьс
асьсо
асьто
ася
ат
атемаджак
атифар
атлант
атлантика
атлантувса
атлас
атлетика
атс
аттьоалом
ау
аудио
афанасии
афанасьев
афанасьева
афанасьевич
афанасьевна
афганистан
афганистанын
афинъяс
афон
африка
африкаанс
африкал
африкалон
африкановна
африкаса
африкаын
ачым
ачыс
ашальчи
ашхабад
аэропорт
аэропортын
аэрофлот
ая
б
ба
баб
баба
бабиков
бабин
баварская
багама
багамаяс
багатыр
багдад
багратион
баддя
бадь
бадьель
баженов
баженова
бажуков
база
базаын
базаыс
баибаиин
баид
баидог
баидогъяс
баикал
баикалсаиса
баиконур
баканов
бакланов
баку
бакур
бакуса
бал
бала
балалаика
баландин
баландина
баланопсъяс
баланс
балаяс
балде
балерина
балет
бали
балин
балинос
балкана
балканъяс
балкар
баллада
балт
балтика
балтикабердса
балты
баля
бамана
бан
бангкок
бангладеш
бангладешын
бандар
бандароуна
банк
банкнотаяс
банкын
банту
баня
бара
барабанъяс
барак
бараксанов
баракъяс
барбадос
барбуда
баренц
баржа
барит
барнс
барранка
бартельми
барышня
барьер
бас
баск
баскетбол
басняяс
басса
бассеин
бассеинъясл
бассеинын
бат
батак
баталов
баталова
батальонса
батиев
батиевос
батманов
батор
батурорд
бать
батьлон
батьсо
батьтогыс
батьыс
батьыскод
батьыслон
баффин
бахреин
бахчисараискии
башкир
башкортостан
башня
баян
баяр
баяркерос
баярса
бб
бевоев
бегаван
беддя
бедныилысь
бедь
бедьвож
без
безносиков
безносикова
безносов
безносова
безобразова
безопасносьт
беирут
бел
беларус
беларусь
беларусьса
беларусьын
беларусі
белград
белиз
белка
белоборск
белорус
белоруссия
белоруссияса
белорусско
белыи
белых
бельгия
бельгияса
бельгияын
беляев
беляева
беляевская
бенгал
бенгалия
бенгальскии
бенин
бенинын
бенуэ
бер
берба
бербер
берг
бергалан
бергало
бергалом
бергалоны
бергаліс
бергодчис
бергодчома
бергодісны
берд
бердас
бердо
бердса
бердын
бердышевская
берег
берегас
берегын
березина
березник
березники
березов
березовка
березово
беринг
берлин
берлинса
берлинская
бермудаяс
берн
бертовтома
бертье
бесплатныи
бесприданница
бессонов
бетон
беш
би
биа
биармиа
биармия
биару
биатлон
биатлонын
библиогр
библиографическии
библиографическое
библиография
библиотека
библиотекалы
библиотекарон
библиотекаын
библиотеке
библиотечная
библия
бива
биир
биобиблиогр
биобиблиограф
биобиблиографическии
биоблиографическии
биогр
биографии
биографическая
биографические
биографическии
биография
биолог
биологическои
биология
бион
биосферного
бипур
бир
бирма
бисау
бисауын
бислама
бисо
бихар
бихерт
бичирок
бишкек
биыс
биэс
бияс
благовешенньо
благоев
блезянаяс
блин
блог
блок
блокада
блокланд
блюхер
бнкоми
боболь
бобракова
бобров
бобслеи
бобув
бобувъяс
бобувъясос
бог
богатства
богатыря
богатырях
богданов
богдашко
богомолов
богородицы
бодо
боевои
бож
божа
божас
божии
божыс
бок
бока
бокас
боко
бокс
бокса
боксер
боксит
боксянь
боксяньыс
бокъяс
бокъясын
бокъясыс
бокын
бокыс
бокысь
болгар
болгария
болгарияса
болгарияын
более
боливи
боливия
боливияын
больнича
больничаын
большая
больше
большевик
большевиков
большевикъяс
большеземельскои
большелуг
большим
большого
большое
большои
большунов
бонапарт
бондаренко
бор
бораныс
борас
борган
борд
борда
бордаяс
бордиыс
бордиыслон
борднас
бордо
бордодчанкыв
бордодчанкывъяс
бордъя
бордъяс
бордъяссо
бориисны
борио
бориом
бориома
бориомаось
бориомаяс
борионы
борис
борисов
борисович
борисовна
бориывломаось
бориыломаось
бориылісны
бориысьомъяс
бориысян
борлань
борнео
боровои
борсо
борся
борсяньыс
борти
бортом
боръя
боръяясыс
борын
борынджык
борыннас
борьбе
босния
босняк
босфор
босьт
босьтан
босьтас
босьтлома
босьтломаось
босьтліс
босьтлісны
босьтны
босьто
босьтом
босьтома
босьтомаось
босьтомон
босьтомысь
босьтоны
босьттог
босьтч
босьтчис
босьтчисны
босьтчо
босьтчома
босьтчомаось
босьтчоны
босьтчы
босьтчыны
босьтчысь
босьтысь
босьтысьон
босьтысьяс
босьтіс
босьтісны
бот
боталов
ботан
ботсвана
ботсванаын
брагин
браз
бразив
бразилия
бразилияын
браиан
братислава
братья
брауи
браун
брахми
брез
брезон
бретт
бригада
бригадаон
бригадаса
бригадаын
бригадир
британия
британиялон
британияса
британияын
британияысь
бритму
брокгауз
броненосец
бронза
бронислав
брошюра
брунеи
брыка
брэтт
брюсов
брюссель
бсср
бсэ
бтр
бу
буб
бубдор
бубрих
бугаев
бугаево
будапешт
будапештса
будет
будинос
будут
будучи
будущее
буж
бужодъяс
буквар
букварь
букве
букур
булла
булычев
булычевл
булышев
булышева
бульвар
бумага
бунин
бунт
бур
бура
бурако
буракодь
бурд
бурджык
бурджыка
бурдин
бурдинлы
бурдинос
бурдодан
бурдодчан
бурдодчанін
бурдодчанінын
бурдодчис
бурдодчом
бурдодчома
бурдодчысь
бурдодысь
бурдодысьон
буретш
буржуазнои
бурилова
буркина
бурлыкина
бурм
бурмантов
бурмодны
бурмодом
буровои
бурсьылысь
буртор
бурунди
бурыс
бурьян
бурят
бурятия
бус
бутан
бутанын
буткан
буткина
бутырева
бутыревои
бухарест
бухгалтер
бухгалтерия
бухта
бухтаяс
бушенев
бушенева
бушкола
буэ
бъяс
бы
быд
быдвося
быдла
быдлаті
быдлаын
быдлунъя
быдм
быдмам
быдмас
быдми
быдмис
быдмисны
быдмо
быдмог
быдмогъяс
быдмогъяслон
быдмогъяслы
быдмогъяслысь
быдмогъясос
быдмом
быдмома
быдмоны
быдмыны
быдмысь
быдмыштом
быдон
быдонлон
быдонлы
быдп
быдполос
быдса
быдсикас
быдсяма
быдт
быдтан
быдтасъяссо
быдтасъясыс
быдто
быдтом
быдтома
быдтоны
быдтор
быдтылісны
быдтыны
быдтысигкежлас
быдтысьо
быдтысьоны
быдтысян
быдтысянінсо
быдтіс
быдтісны
быков
быковская
был
была
были
быличка
было
быль
быр
быри
бырис
бырисны
быродны
быродом
быродома
быродоны
быродісны
быром
быт
бытовои
бытть
быттьо
быттьоко
быть
бэк
бюджет
бюджетного
бюджетысь
бюро
бюроо
бюроын
бюст
бюстсо
в
ва
ваа
ваас
вабергач
вавилин
вавилов
вавож
вавывса
вага
вагнер
вад
вадим
вадор
вадорас
вадорс
вадорса
вадорсянь
вадоръяс
вадоръяск
вадоръясс
вадоръясын
вадоръясыс
вадоръясысь
вадорын
вадорыс
вадуц
вадыб
вадывел
важ
важвылом
важгорт
важгортса
важджык
важкуа
важон
важонджык
важонсянь
важся
важъя
важыс
важысянь
вазиристан
ваи
ваиандот
ваигач
ваиис
ваиисны
ваил
ваилома
ваиломаось
ваилывлісны
ваимос
ваины
ваиодны
ваиодо
ваиодом
ваиодома
ваиодіс
ваиом
ваиома
ваионы
ваисьо
ваиысь
вак
вакатша
вал
валеи
валентин
валентина
валентиновна
валентины
валер
валериан
валерианович
валерии
валерия
валлетта
валлон
валы
валысь
вальс
валя
вампиловлон
ванас
ване
ванеев
ванеева
ванеевлон
ванкувер
ванкуверын
вант
вануату
вань
ваньо
ваня
ванял
вао
ваон
ваполка
вараи
варда
вариант
вариантын
варов
варук
варчч
варччис
варччыны
варччысьяс
варшава
варыш
варышон
варышъяс
варышъясыс
варышыс
вас
васа
васизь
васизьлон
василеи
василии
василиса
василия
васильев
васильева
васильевич
васильевна
васо
васод
васса
вась
васька
васьлон
васьлысь
васьо
васьос
васюк
васютов
вася
васянь
ватаманов
ватар
ватаръяс
ватикан
ватшкан
ватшканос
ваувса
вахнин
вахрушева
вацлав
вач
вачком
вачкышталоны
вачортыдін
ваш
вашка
ваын
ваыс
ваысь
ваявлісны
ваял
ваяло
ваялом
ваялоны
ваяс
вв
введение
введенньо
вгик
вднх
вдовии
веб
вевдориывгорт
вевдорыс
вевт
вевтть
вевттьылісны
вевттьысь
вевтырт
вевъя
вега
веденнь
ведомости
ведомосьтъяс
ведомосьтъясын
ведушои
веж
вежа
вежадыр
вежаика
вежаинъяс
вежалун
вежалунсянь
вежан
вежев
вежис
вежисны
вежл
вежлавны
вежлал
вежлалома
вежлаломон
вежласис
вежласисны
вежлась
вежлог
вежны
вежов
вежова
вежодо
вежодом
вежодома
вежодоны
вежодісны
вежом
вежома
вежон
вежоннас
вежонодз
вежонын
вежонысь
вежора
вежортас
вежортаса
вежортассо
вежортасыс
вежос
вежсис
вежсь
вежсьо
вежсьома
вежсьомсо
вежсьомъяс
вежтасыс
вежысь
вежысьон
вежысьясон
вез
вези
веивот
век
века
векджык
веке
векни
векньыдик
веков
векшор
вел
велалісны
велаятлон
великая
великие
великии
великим
велико
великобритания
великого
великои
великополье
великорусского
велламо
велодан
велодлома
велодны
велодо
велодом
велодома
велодомаось
велодомлон
велодомын
велодоны
велодчан
велодчанін
велодчанінъяс
велодчанінъясо
велодчанінъясын
велодчанінын
велодчигас
велодчигон
велодчис
велодчисны
велодчо
велодчом
велодчома
велодчомаось
велодчомсо
велодчомсьыс
велодчомысь
велодчоны
велодчылома
велодчыны
велодчысь
велодчысьяс
велодчысьяслон
велодчысьяслы
велодчысьясос
велодысь
велодысьлы
велодысьлысь
велодысьон
велодысьос
велодысьяс
велодысьяслон
велодысьяслы
велодысьяслысь
велодысьясон
велодысьясос
велодігон
велодіс
велодісны
велоспорт
велпом
вель
вельвичия
велья
вена
венан
венг
венгер
венгерскии
венгрия
венгрияса
венгрияын
венда
венера
венесуэла
венесуэлаын
венет
венеция
вениамин
веныс
вень
веньл
веньлон
веньлысь
веньо
вепс
вепсскии
вепсъяс
вер
вера
веракрус
верба
вербена
верд
верде
вердны
вердо
вердоны
веретя
верзьома
верк
веркоса
веркосо
веркоссо
веркосыс
веркосысь
верм
вермам
верман
вермас
вермасис
вермасисны
вермасны
вермасьом
вермасьомо
вермасьоны
вермис
вермисны
вермо
вермом
вермома
вермомлы
вермомсо
вермомсянь
вермомъяс
вермомъясысь
вермомысь
вермоны
вермы
вермывліс
вермылома
вермыны
вермысь
вермысьон
вермысьяс
вермысьяслы
вермысьясон
вернувшихся
вероника
верос
веросыс
вероятностная
версии
версия
верст
версттьо
версть
верстьо
верстьолы
верстяммом
верстяммоны
вертеп
вертолет
вертолетон
верую
верхне
верхневычегодскии
верхнее
верхнеи
верхнии
верхняя
верховного
верхолузье
весал
весенние
весиг
весигт
весляна
весна
вестник
веськ
веськав
веськавлома
веськавны
веськал
веськало
веськалом
веськалома
веськаломаось
веськаліс
веськалісны
веськодлан
веськодланін
веськодланінлон
веськодланінон
веськодланінын
веськодло
веськодлом
веськодлома
веськодлыны
веськодлысь
веськодлысьлон
веськодлысьлысь
веськодлысьнас
веськодлысьон
веськодлысьос
веськодлысьыс
веськодлысьяс
веськодлысьяслон
веськодлысьяслы
веськодлысьясон
веськодлысьясос
веськодлігон
веськодліс
веськодлісны
веськодны
веськодома
веськодчысь
веськыд
веськыда
веськыдвыв
веськыдладорас
веськыдладорын
весьт
весьтас
весьтасъяс
весьто
весьтт
весьтын
весьшоро
вет
вете
ветеран
ветеранъяслон
ветеринар
ветеринария
ветеринарнои
ветл
ветлан
ветло
ветлодло
ветлодлома
ветлодлоны
ветлодлыны
ветлодлігас
ветлодліс
ветлодлісны
ветлом
ветлома
ветломаось
ветлоны
ветлывл
ветлывлома
ветлывліс
ветлыны
ветлысь
ветлысьяс
ветлысьяслы
ветліс
ветлісны
ветошкин
ветошкина
ветса
ветск
ветымын
ветымынод
ветын
ветысь
ветью
вечно
вешиывлоны
вешт
вештісны
взводон
взводса
взгляд
взрыв
ви
вид
видам
видео
видз
видза
видзан
видзанін
видзанінлон
видзанінъяслы
видзанінын
видзигон
видзисны
видзломаось
видзлісны
видзму
видзны
видзо
видзодлас
видзодны
видзодо
видзодтог
видзодысьяс
видзодысьяссянь
видзодіс
видзодісны
видзом
видзома
видзомаось
видзомо
видзоны
видзчысьны
видзысь
видзысьон
видзысьяс
видзысьяслон
видзысьяслы
видзь
видзьяс
видл
видлавны
видлал
видлалом
видлалома
видлаліс
видлыны
виды
виж
вижань
вижаньяс
вижов
вижовгорд
виз
визин
визиндор
визинын
визинысь
визув
визувт
визувто
визувтоны
визувтысь
визувъяс
визул
визулын
визывт
визь
визьон
визьыс
визьяс
визьяса
визьясон
визя
визябож
визяорда
вии
вииома
вик
вики
википедия
виктор
виктория
викторович
викторовна
вилхо
виль
вильгельм
вильно
вильноын
вильнюс
вильня
вильыш
вильям
вина
винатусь
винегрет
винла
виноватые
винсента
вины
вир
виргин
вирпаса
виртуальная
виртуальныи
вис
висер
висерса
висерын
висерысь
виск
висла
вистина
вистино
висъяс
вись
висьмис
висьмом
висьмома
висьом
висьт
висьтавліс
висьтавны
висьтавсьо
висьтал
висьтало
висьталои
висьталом
висьталома
висьталомъяс
висьталоны
висьталіс
висьтасис
висьтсо
висьтъяс
висьтъяса
висьтъясас
висьтъяслон
висьтъяссо
висьтъясын
висьтъясыс
висьтын
висьтыс
вит
виталии
витальевич
витальевна
вити
витод
витодз
витсе
виттор
витторлон
витторлы
витторлысь
витторос
витысь
витязев
витязева
вихман
вице
вич
вичко
вичкоас
вичкобердса
вичкодор
вичколон
вичколы
вичкоо
вичкос
вичкоса
вичкосо
вичкосянь
вичкоын
вичкоыс
вичкоысь
вичкояс
вичм
вичмис
вичмодом
вичмодісны
вичмома
вичуга
виччысь
виччысьны
виччысьоны
виччысьт
виччысьтог
вишера
вишерскии
вишерскои
вияло
вклад
вкп
вкус
вл
владивосток
владилен
владимир
владимирович
владимировна
владимирса
владислав
власов
власовец
власти
власть
власьт
власьтлы
власьтъяс
власьтъяслы
влксм
вм
вместе
внас
внесолнечных
внук
внуково
вны
вныръяс
во
воас
вов
вовлом
вовлы
вовлытом
вовлытомтор
вовны
вовъяс
вовъясон
вовъясос
вовъяссо
вог
вогул
вогулъяс
вогулъяслон
вод
вода
воддза
воджын
водз
водзас
водзвылас
водзвылын
водзджык
водзджыксо
водзкыв
водзкывиыс
водзкывс
водзкывсо
водзкывъяссо
водзладорас
водзм
водзмостчис
водзмостчома
водзмостчомон
водзмостчысь
водзо
водзодз
водзсасьом
водзті
водзын
водзынджык
водзынс
водзынсо
водитан
водитель
водитны
водитом
водитоны
водитчан
водитчис
водитчисны
водитчо
водитчом
водитчоны
водитчыны
водитысьяс
водитісны
воднои
водскии
воды
водь
военачальник
воениздат
военкоматъяс
военн
военно
военнои
военноначальник
вож
вожа
вожаель
вожо
вожса
вожъяс
вожъясын
вожъясыс
вожын
вожысь
возеи
возиис
возиисны
возио
возиом
возиома
возиомъяс
вознесенньо
возраста
возрождение
возь
возьяс
вои
воивож
воивыв
воивывладорас
воивывлань
воивывланьын
воивывлон
воивывса
воивывсо
воивывсянь
воивыл
воивылас
воивыло
воивылын
воивылынджык
воивылысь
воид
воидор
воин
воина
воинаодз
воинаодзыс
воинас
воинаса
воинаяс
воине
воинои
воинскои
воины
воио
воиома
воипук
воипукъяс
воис
воискаяс
воискаясын
воисны
воися
воит
воитовкаи
воитовкаияс
воитъяс
воитыр
воитыркод
воитыркост
воитыркостса
воитырл
воитырлон
воитырлы
воитырлысь
воитырон
воитырос
воитырсикас
воитыръяс
воитыръяслон
воитыръяслысь
воитыръясос
воитырыс
воитырыслысь
воиын
воияс
воиясын
вок
вокал
вокализма
вокализме
вокальнои
вокан
вокзал
вокои
вокруг
воксо
вокуев
вокъяс
вокыс
вол
вола
волапюке
волас
волга
волгадор
волгадорын
волгоград
волеаи
волеибол
волженцев
волим
волк
волков
вологда
вологдао
вологдаса
вологодские
вологодского
вологодскои
володин
володь
волок
волом
волома
воломаось
волон
волоны
волосница
волосовоса
волостнои
волосьт
волосьтлон
волосьто
волосьтон
волосьтса
волосьтъяс
волосьтъясын
волосьтъясысь
волосьтын
волосьтысь
волоф
волся
волхов
волшебнои
волы
волывл
волывломаось
волывлоны
волывлыны
волывліс
волывлісны
волысь
воль
вольгым
вольдін
вольнои
вольсал
вольсалоны
вольфрам
воля
воляпук
волі
воліны
воліс
волісны
вом
вомас
вомланьын
вомо
вомон
вомона
вомсянь
вомсяньыс
вомъяс
вомын
вомынбож
вомынъюр
вомыс
вона
вонас
воны
воньлон
воо
воодз
воодчома
воодчоны
воодчывлоны
воодчыны
воом
воома
воомаось
воон
вооны
вооруженнои
вооружоннои
вопрос
вопросам
вопросу
вопросы
вор
вора
воравлісны
воравны
вораинъяс
вораинъясын
воралан
воралом
воралома
воралысь
воралысьлон
воралысьяс
воралысьяслон
воралісны
ворас
вораса
воркань
воркута
воркуталон
воркутао
воркутаса
воркутасянь
воркутауголь
воркутаын
воркутинская
ворлэдзысь
воро
воробеи
воробьев
ворог
вороглон
вороглысь
ворогос
ворон
воронеж
воротао
ворпа
ворпасо
ворпаыс
ворпаяс
ворс
ворса
ворсан
ворсана
ворсантор
ворсанторъяс
ворсанін
ворсны
ворсо
ворсом
ворсома
ворсомкод
ворсомъяс
ворсомъяслон
ворсомъясо
ворсомъясын
ворсоны
ворсысь
ворсысьон
ворсысьыс
ворсысьяс
ворсіс
ворсісны
воръяс
воръясо
воръясон
воръясын
воръясысь
ворын
ворыс
ворысь
вос
восна
воснаыс
восни
восньыдик
восо
воспитания
воспитатель
воспоминания
воспроизвести
воссис
восстание
воссь
воссьо
воссьом
воссьома
восток
востока
востоке
восточно
восточнои
восточных
востым
воськовъяс
воськолон
воськолын
восьлавны
восьмилетньои
восьса
восьсон
восьт
восьтны
восьто
восьтом
восьтома
восьтомаось
восьтомын
восьтомысь
восьтыны
восьтысь
восьтысьяс
восьтігон
восьтіс
восьтісны
вося
восянь
вот
вотломаось
вотлысьо
вотлысьомон
вотлісны
вотодз
воторник
воторниксянь
вотос
вотоса
вотосон
вотосъяс
вотчоны
вотчыны
вотъяс
воч
воча
вочалысь
вочалісны
вочан
вочас
вочасон
вочигон
вочис
вочисны
вочлома
вочломаось
вочлісны
вочны
вочо
вочом
вочома
вочомаось
вочомторъяс
вочомысь
вочоны
вочысь
вочысьон
вочысьяс
вош
воши
вошис
вошом
вошт
воштом
воштыны
воштіс
вошысь
воын
воыс
воысь
воя
воянь
вояс
воясас
вояслон
воясо
воясодз
воясса
воясся
вояссянь
воясын
вп
впервые
вперед
враг
враглон
врач
времен
времени
временник
временно
время
вручил
вс
все
всеволод
всего
всем
всемирныи
всеобщая
всероссиискои
всесоюзная
всех
вст
встас
встречи
вступ
вступит
встъяс
встын
встыс
встысь
всходы
вся
вторая
второе
второи
втюрина
ву
вугыля
вудж
вуджан
вуджигон
вуджис
вуджисны
вуджлісны
вуджны
вуджо
вуджод
вуджодлома
вуджодліс
вуджодлісны
вуджодны
вуджодо
вуджодом
вуджодома
вуджодомаось
вуджодомон
вуджодомъяс
вуджодоны
вуджодсьо
вуджодчис
вуджодчо
вуджодчысь
вуджодчысьяс
вуджодысь
вуджодіс
вуджодісны
вуджом
вуджома
вуджомаось
вуджоны
вуджор
вуж
вужвоитыр
вужвоитырлон
вужвоитырлысь
вужвоитыръяс
вужвоитыръяслон
вужиыс
вужиысь
вужкыв
вужкывиын
вужъя
вужъяс
вужъяса
вужъяссо
вужъясыс
вужъясьом
вужъясьома
вузавлісны
вузавны
вузалом
вузалісны
вузасьом
вузасьысьяс
вузасьысьяслы
вузасян
вузасянін
вузасянінъяс
вузов
вузъяслы
вузын
вук
вуктыл
вуктылса
вуктым
вулих
вулкан
вулканъяс
вун
вундан
вундассь
вунлытом
вунодны
вуолииокилон
вурдов
вурсян
вцик
вш
въет
въетнамын
въяс
вы
выбор
выборах
выборов
выбрали
выбрана
выв
вывлань
вывса
вывсьыс
вывсянь
вывт
вывтас
вывтасъяс
вывтыр
вывтырыс
вывтырыслон
вывті
выдра
выи
выиграл
выиим
выиодз
выл
вылад
выланыс
вылас
вылегжанин
вылна
вылнао
выло
вылоджык
вылом
выломон
выломыс
вылоны
вылот
вылын
вылынджык
вылыс
вылысас
вылысладорыс
вылысса
вылысыс
вылысь
выль
выльвидз
выльгорт
выльгортса
выльгортын
вылькар
выльлун
выльлунсянь
выльм
выльмодом
выльмодісны
выльон
выльпов
выльтор
выльторъяс
выльтыдор
выльыб
выльыбын
выльысь
вылісянь
вымская
вымского
вымскои
вымь
вын
вына
вынва
выни
выниора
вынс
вынсо
вынсь
вынсьодо
вынсьодом
вынсьодома
вынсьодіс
вынъяслон
вынъяслы
выныс
вып
выпуск
выражения
выру
выселок
высогор
высокая
высоким
выставка
выставкаяс
выставкаясо
выставке
высшего
высших
высшои
выучеискии
вычегде
вычегды
вычегодская
вычегодско
вычегодскои
вышел
вышка
вышла
вьентьян
вьетнам
вьетнамса
вьетнамын
вяисяля
вятка
вяткао
вяткаса
вятские
вятчанин
вячеслав
вячеславович
вячеславовна
г
га
габо
габов
габова
габон
габура
габушева
гаваи
гаваии
гаврив
гавриил
гаврил
гаврилов
гаврилович
гаг
гагарин
гагауз
гаги
гагиева
гагион
гагра
гагшор
гагъяс
гагъясон
гагъясос
гадаитч
гадолин
гаж
гажа
гажакерос
гажаяг
гажлун
гажодо
гажон
гажт
гажъяс
гажын
газ
газет
газета
газетаын
газетл
газетлон
газетлы
газетлысь
газето
газетса
газетъяс
газетъясл
газетъясо
газетъясын
газеты
газетын
газпром
гаи
гаиана
гаидар
гаизер
гаизерос
гаина
гаити
гак
гал
гала
галгаи
галев
галерея
галилеи
галина
галины
галис
галлии
галмудуг
галпи
галфедь
галя
гам
гамбия
гамбияын
гамлет
гамса
гамская
гамын
гамысь
гана
ганаланян
ганаын
гандбол
гандболысь
ганс
гантман
ганыс
гапликов
гара
гараж
гаранин
гарвард
гаревская
гармонь
гаро
гарольд
гартч
гаръя
гаръяса
гаръяын
гарь
гарьинскии
гарья
гас
гаспарис
гацак
гашк
гашко
гбу
гвадалахара
гвадалахаре
гвадалахары
гваделупа
гвардеискои
гвардия
гвардияса
гватемала
гватемалаын
гвиана
гвинея
гвинеяса
гвинеяын
гг
где
гдр
геж
гежод
гежода
гези
гектар
гектор
гелии
ген
генезис
генерал
генеральнои
генеральному
гении
геннадии
геннадьевна
генрих
гень
геня
географ
географические
географическои
географическом
география
геодезист
геодезия
геолог
геологическои
геология
геолого
геологоразведочнои
георгиевич
георгиевна
георгиевскои
георгии
георгия
герасим
герасимов
герасимова
герасимович
герб
герд
герда
гереро
герман
германия
германияса
германияын
гернси
герои
героилы
героилысь
героини
героиня
героическои
героияс
героя
герсе
герстле
герцеговина
герцеговинаын
герцен
герцена
герценовские
герцман
герчкан
гершель
геч
гибралтар
гидра
гиенаяс
гиж
гижа
гижал
гижалан
гижалом
гижалігон
гижан
гижанног
гижанногсо
гижи
гижигон
гижис
гижисны
гижлома
гижліс
гижлісны
гижны
гижо
гижод
гижода
гижодон
гижодсо
гижодъяс
гижодъяса
гижодъясас
гижодъясон
гижодъяссо
гижодъясын
гижодъясыс
гижодъясысь
гижодын
гижодыс
гижом
гижома
гижомаось
гижоны
гижысь
гижысьл
гижысьлон
гижысьлы
гижысьлысь
гижысьон
гижысьос
гижысьяс
гижысьясл
гижысьяслон
гижысьяслы
гижысьяслысь
гижысьясос
гиз
гилев
гиль
гильдияса
гималаи
гималаяс
гимн
гимназия
гимназияын
гимназияысь
гимнастика
гиперион
гипс
гитара
гитис
гл
глава
главн
главного
главное
главнои
главы
глагол
глагола
глаголов
гладков
глас
гласн
гласных
глафира
глеб
глоссарии
глот
глотовоса
глэдман
глэдмэн
гляденовоса
го
гоа
гоби
гобор
говк
говорим
говоров
говорухина
гоголь
гогольлон
гогольлысь
гогор
гогорвоана
гогорвоны
гогорвоодо
гогорвосьо
гогорвосьоны
гогорса
гогортас
гогортасъясын
гогортасын
гогорын
гогорыс
гогрос
гогыля
год
года
годах
годов
годом
году
годунов
годы
гож
гожио
гожионы
гожиыны
гожиысь
гожом
гожомбыдон
гожомнас
гожомын
гожомыс
гожся
гожъянінъясас
гоз
гози
гозиодчан
гозиодчыны
гозион
гознан
гозъя
гозъялон
голова
головина
голос
голоса
голосенко
голь
гольдшмидт
гольмисны
гольфа
гольфстрим
гольяслон
голя
голям
голяыс
гомель
гон
гона
гонди
гондурас
гонка
гонкам
гонки
гонсо
гонтом
гоныс
гор
гора
гораа
горам
горан
горань
горация
гораяс
горбачев
горбунов
горбуновская
горд
гордов
гордовперкаль
гордовруд
гордость
гордъель
горе
гореи
горз
горинова
гормог
горн
горно
горнои
горны
город
города
городе
городища
городского
городское
городскои
горсио
горская
горско
горсъяс
горт
гортаныс
гортас
гортдор
горто
гортса
гортшор
гортын
горув
горулын
горчаков
горчакова
горчаковалон
горчаковлон
горш
горькии
горькиилон
горьковская
гос
госбанк
госиздат
госнеч
госпитальын
гоститны
госторглон
гость
государства
государственн
государственная
государственного
государственное
государственнои
государственные
государственныи
государственных
государство
государстволы
госьтя
гот
готов
готрасис
готрась
готрасьома
готрасян
готского
готыр
готыра
готыртогыд
готырыс
готырыскод
гоу
гоуд
гпту
гпу
гр
гра
грабежова
грав
град
граддор
градъяс
гражданалы
гражданаон
гражданин
гражданск
гражданскои
грал
гралысь
грамм
грамматика
грамматике
грамматики
грамматические
грамматическии
грамматическои
граммодз
грамота
грамотао
грамотаон
грамотаын
гран
гранди
гранит
гранитысь
граница
грановскии
грантха
граф
графика
графики
гребенникова
грезд
грездас
грездкод
грездлон
грездо
грездон
грездс
грездса
грездсаяс
грездсо
грездсянь
грездъяс
грездъясас
грездъяскод
грездъясын
грездъясыс
грездъясысь
грездын
грездыс
грездыслон
грездысь
грек
греко
грен
гренада
гренадинъяс
гренлан
гренланд
гренландия
греция
греч
грибова
грива
гриваын
гривня
григории
григорьев
григорьевич
григорьевна
гриш
гриша
гроза
груз
грузин
грузинскии
грузинско
грузия
грузияса
грузияын
грузъяс
группа
группаын
группы
грязнова
гс
гт
гтырии
гу
гуал
гуалома
гуалісны
гуандун
гуанси
гуарани
гуас
гуасян
губ
губернатор
губернии
губерния
губерниялон
губернияо
губернияса
губернияын
губернияысь
губернские
губерня
губернялон
губерняо
губерняса
губерняын
губерняысь
губерняясо
губерняясын
гуд
гудаута
гуджарат
гуджарати
гудок
гудыр
гул
гулаг
гули
гульрипш
гулю
гулюяс
гуля
гуляев
гуляева
гуманитарнои
гумбольдт
гумбольт
гумус
гумусыс
гундыр
гуран
гуранторио
гуранъяс
гуркинлон
гурьев
гурьевчи
гусли
гусо
густав
гусь
гусьон
гуся
гусяним
гусянимъяс
гусятор
гут
гущин
гуын
гъяс
гъясл
гъяслысь
гы
гыд
гыжиыс
гыжъя
гыжъяса
гызьо
гылалом
гым
гын
гыркашор
гырысиник
гырысь
гырысьджык
гырысьось
гырысьясыс
гыс
гыслысь
гыч
гыяс
гэл
гэс
гячрыпш
д
да
даби
дав
давид
давыдов
дагестан
дагестанын
даддьон
даддя
дадь
даже
даи
дакка
дакота
дал
дальнего
дальше
дам
дама
дамаск
дан
дана
даниил
данила
данилов
даниловна
даниэль
дания
данияса
данияын
данные
данным
данных
дань
дар
дари
дарит
даръя
дарья
дас
дасод
дасысь
дась
дасьт
дасьтан
дасьто
дасьтом
дасьтома
дасьтомаось
дасьтомын
дасьтомысь
дасьтоны
дасьтыны
дасьтысь
дасьтысьоны
дасьтысьяс
дасьтысян
дасьтігон
дасьтіс
дасьтісны
дат
датском
даты
даугава
дача
дачникъяс
дашогуз
дб
два
двадцать
две
движение
двина
двор
дворечын
дворы
двуж
двух
дд
дджык
ддза
ддырии
де
деванагари
девет
девис
дед
дедов
дездемона
деимос
деиствиеа
дек
декабр
декабрь
декабря
декамп
декан
деканос
декелия
декларация
декрет
дел
дела
делаи
делегат
делегатон
деление
дели
дело
деловои
делопроизводительон
делосо
делояс
дельта
дема
дементьевич
демид
демидов
демин
демобилизация
демобилизируитчома
демографическии
демократ
демократическои
демократия
демоскоп
демьян
дениз
денис
денисов
день
деньга
депо
депортиво
депутат
депутатов
депутатон
депутатос
депутатъяс
депутатъяслон
депутатъясос
дер
дерби
дереваннои
дереванноиса
дереванноиын
деревенскои
деревне
деревни
деревня
деревья
дерт
десет
дет
детгиз
детдомын
детеи
детектив
дети
детинка
детская
детские
детскии
детскои
детство
детьми
детям
деятель
деятельности
дж
джавршян
джакарта
джараи
джаркханд
джаяварденепура
джеджим
джеимс
джеин
джек
джен
дженьдодом
дженьыд
дженьыда
дженьыдджык
дженьыдджыка
дженьыдик
дженьыдось
джерси
джиан
джианъяс
джибути
джибутиын
джив
джиян
джиянын
джиянысь
джо
джованни
джоджд
джозеф
джон
джордж
джуджданас
джудждаыс
джуджта
джуджыд
джуджыда
джуджыдджык
джуитт
джульетта
джумхури
джъяс
джыдж
джыджъяс
джык
джын
джынвыи
джыни
джыниодз
джынион
джыниын
джыниыс
джыниысь
джынсянь
джынъяс
дз
дза
дзазгысь
дзал
дзан
дзебисны
дзебны
дзебома
дзебсь
дзебсьомон
дзебсясь
дзескодны
дзескыд
дзескыдінын
дзж
дзжо
дзи
дзизгысь
дзик
дзикодз
дзирдал
дзирдалан
дзиръя
дзк
дзко
дзны
дзодзог
дзоль
дзольго
дзольгыри
дзолюк
дзоля
дзоляник
дзонг
дзонь
дзоньвидза
дзоньвидзалун
дзоньнас
дзоньтавны
дзоньталом
дзоридз
дзоридзало
дзоридзьяс
дзоридзьяса
дзса
дзуг
дзугиын
дзуридз
дзы
дзыд
дзыдджык
дзыдъяс
дзыдысь
дзыс
дзюдо
ди
диакритика
диалект
диалекта
диалектов
диалекты
диалог
диаметрыс
диана
дивизиа
дивизионе
дивизия
дивизиялон
дивизияса
дивизияын
диво
дивтасвуодна
диграф
диграфъяс
дизаин
дик
дикои
диктант
диктатор
диктор
дили
дин
дина
динамика
динамо
динар
динара
династия
динго
динка
диона
диплом
дипломат
дипломон
диптерокарп
директор
директора
директорало
директоралома
директораліс
директорон
директорос
директорыс
дирекциял
дирижер
дирижерско
дирхам
дис
диск
дисккутан
дисномия
диссертациа
диссертация
диссертациясо
дистанция
дисциплина
дит
дитан
дитны
дитч
дитчан
дитчана
дитчыны
дитя
дихапеталумъяс
дк
дл
дла
длан
длана
дланінл
длап
длас
длат
длаын
длома
длы
длывл
длыны
длысь
длысьнас
длысьяс
длыт
для
дліс
дм
дмавны
дмал
дмасис
дмасьны
дмитриевич
дмитриевна
дмитриевои
дмитрии
дмитрия
дмуа
дмусин
дмусинъяс
дне
дневник
дневникас
дневникысь
дневные
днеи
днепр
днестрдор
днестрдорын
дни
дног
дны
дня
до
доблестнои
доблесть
доблесьтысь
добрая
доброумов
добряков
дов
дова
догри
доддь
додз
додь
дозм
дозмор
дозморов
дозмук
дозорнои
дозьорито
дозьоритоны
дои
докл
доклад
докладов
докладон
докладъяс
доклады
доктор
доктора
докторлысь
документ
документальнои
документъяссо
документъясын
документы
долган
должносьто
должносьтъясын
должносьтын
доллар
доломит
доль
доля
дом
дома
доман
доме
доменико
доменыс
доминика
доминикан
домна
домны
домокош
домра
дон
дона
донаель
донал
донбасс
донецк
донецкои
донъявны
донъял
донъялом
донъялома
донъялоны
донъяліс
донъялісны
донын
доп
дополнение
дор
дора
дорапас
дорапаслон
дорас
дорвыв
дориигон
дориис
дориом
дориома
дориомысь
дориыны
дориысь
дориысьны
дориысьом
доро
дорог
дорога
дороги
дорогои
дородз
дором
доронин
доронина
дорониным
доропеи
доросалома
доросъясын
дорофеева
дорса
дорсянь
дорччысь
доръям
доръян
доръяс
доръясас
доръясын
дорын
дорысь
достоевскии
достоевскиилон
доха
доцент
доцентон
дочь
дпо
др
дравид
драма
драмаа
драматург
драматургии
драматургия
драмаын
драмаяс
драмы
древнего
древнеи
древнеиших
древо
дрогалина
дрозд
дрофа
дрофаяс
друг
друга
другая
другие
других
другое
другои
другъяс
дружба
дружбы
дс
дса
дсо
дсь
дсьыныс
дсянь
дт
дтор
ду
дуб
дублин
дубрава
дубровскии
дуг
дугд
дугдывт
дугдывтог
дугдіс
дугдісны
дуглас
дуда
дударевлон
дудинка
дудинки
дукция
дум
дума
думао
думаса
дунаи
дунган
дуркин
дуров
дутов
дух
духов
духовн
духовная
духовнои
душанбе
душес
души
дч
дчан
дчана
дчанлун
дчанлуныс
дчанін
дчиг
дчис
дчисны
дчома
дчы
дчывл
дчыл
дчыны
дчысь
дъяс
дъясас
дъясс
дъясын
дъясыс
дыл
дым
дын
дыр
дырджык
дырии
дырииыс
дырся
дырсяньыс
дыс
дысь
дысьяс
дысьясл
дыхание
дыш
дь
дьокуускаи
дьяконов
дьяконовлон
дэ
дэвид
дэн
дю
дюр
дядь
дядьо
дядя
дяк
дякон
дян
дятел
ді
діасеръя
дін
дінму
дінмукостса
дінмуяслы
діно
дінын
діс
діса
дісны
діюр
діяс
діяслон
діясын
е
ев
евангелие
евангелльо
евгении
евгения
евгеньевич
евгеньевна
евдокия
евкодж
евразия
евразияын
евреи
евреиского
евро
евроаддзом
европа
европак
европал
европалон
европалысь
европаса
европасаяс
европаын
европаысь
европе
европеиского
европеискои
европеиском
европы
евсеевич
ег
егерме
египет
египетса
египетын
его
егор
егореи
егорова
егорович
егоровна
егуш
ед
едва
еджгов
еджыд
еджыдось
еджыдъяс
еджыдъяслы
едз
едзва
единицаон
единои
едэма
еді
ее
езов
екатерина
екатеринбург
екыш
елена
елизавета
елин
елисеи
елохин
елфимова
елфимовалон
ель
ельбаза
елькерос
елькин
елькина
ельцова
ельцовал
ельцовои
ельяс
ем
ема
емва
емваодз
емваса
емватас
емвош
емд
емдыр
емдін
емдінса
емдінын
емель
емельян
емельянов
ен
ена
енакодь
енасо
енбиа
енджыка
енджыкас
енджыкасо
енисеи
енкола
енлы
енм
енмам
енмамлон
енмодом
енмодомын
енмыс
ентыла
енъяс
енъясон
енэж
енэжва
енэжваяс
енэжо
енэжын
енэжыс
епанешников
епархия
епим
епископ
епископа
епископах
епископи
ерд
ердса
ереван
ереванса
ереванын
еремеи
ерилов
еринь
ермаков
ермил
ермог
ермолаи
ермолин
ермолина
ермолинлон
ерофеева
ерта
ерталун
ертась
ертасьом
ертасян
ертъяс
ертъясыскод
ершов
ес
есев
есева
есевои
есенин
есенинлысь
если
естественн
естественно
естественнои
есть
есь
ефим
ефимович
ефрон
еще
ея
ж
жак
жаков
жакова
жаковлон
жаковлысь
жаковос
жал
жан
жанр
жанров
жанръяс
жанръясын
жанрын
жар
жариков
жаръяс
жва
жданов
ждановчи
же
жеб
жебджык
железная
железнодорожнои
железныи
жемаит
жена
женева
женитьба
женскои
женщина
женщины
жеребцов
жеребцова
жером
жж
жжньнь
жзл
живая
живешь
живого
живопись
живут
жиделева
жижева
жизни
жизнь
жила
жили
жилин
жилина
жильн
жителеи
жителям
жить
жны
жо
жонь
жоньяс
жсигас
жуг
жуглась
жугодны
жугыль
жук
жуков
жукова
жуковлон
жуковскии
жуод
журавлев
журавлева
журавлиное
жури
журио
журион
журн
журнал
журнала
журналист
журналисталома
журналисталіс
журналистика
журналистикаын
журналистон
журналистъяс
журналистъяслон
журналисты
журналл
журналлон
журналлысь
журнало
журналон
журналса
журналъяс
журналъясл
журналъясо
журналъясын
журналын
жыннян
жыннянъяссо
жыр
жырио
жырион
жыриын
жыръя
жыръяс
жыс
жыцьця
з
за
забоев
забоева
завалинка
заведении
завет
заветнои
завод
заводит
заводито
заводитома
заводитомаось
заводитоны
заводитч
заводитчигас
заводитчигон
заводитчис
заводитчо
заводитчоны
заводиті
заводитіс
заводитісны
заводлон
заводо
заводон
заводса
заводъяс
заводъясо
заводъясын
заводъясысь
заводын
заводыс
заводысь
заволжск
завьялов
загадки
загарская
загарье
загреб
задачи
задорожныи
заезд
заимка
закалялась
закар
закон
законодательных
законоучитель
зал
замбези
замбия
замбияын
замежнои
заметки
занулльо
заозерье
заочнои
зап
западнои
запань
запас
запаснои
запасо
запасъяс
запасъясыс
запасыс
записки
запольская
заполярнои
заполярье
запт
заптан
зарава
заречнои
заречье
зарни
зарниа
зарниодома
зарнион
зарождение
заря
зарянка
заседании
заслугаысь
заслугаясысь
заслуги
заслуженн
заслуженного
заслуженнои
заслуженныи
засухин
затон
затонса
захаренко
захаров
захарович
заясысь
заяц
збыль
збыльвывса
збыльвылас
збыльм
збыльысь
звание
званиеон
звания
званньо
звательцо
звезда
звездои
звезды
звер
здесь
здравоохранения
здук
здукъясас
зезегов
зеланд
зеландия
зеландияса
зеландияын
зеландын
зеленец
зеленеч
зеленечса
зеленечын
зеленечысь
зеленцов
зеленыи
зель
земле
земли
землю
земля
землячестволон
земск
земскои
земство
зенит
зенитын
зз
зи
зиис
зиль
зильган
зима
зимбабве
зимбабвеын
зимнии
зимник
зимстан
зинаида
зиом
зиысь
зк
зкостса
зл
злоба
злы
злысь
зм
змеи
знак
знаменательные
знаменательных
знаменитые
знаменка
знамя
знание
знания
зная
зобиыс
зов
зовсьорт
зовсьортса
зовсьортын
золотая
золото
золотое
золотои
зон
зона
зонда
зонзовои
зонка
зонкаяс
зонм
зонъяс
зор
зосима
зоя
зс
зубков
зубов
зуд
зуевка
зул
зулоб
зулобдинская
зулобын
зулобысь
зулу
зумыд
зумыш
зуун
зым
зыр
зыран
зырома
зырян
зыряна
зыряналон
зыряналысь
зыряне
зырянская
зырянскии
зырянских
зырянского
зырянскои
зырянъясын
зыс
зь
зэв
зэр
зэра
зэрас
зэро
зэръяс
зэрыс
зюзев
зяика
зілис
зілисны
зіль
зільны
зільо
зільома
зільомысь
зільоны
зіля
и
ибсенлон
ив
ивадор
иван
ивана
иванлон
иванов
иванова
иванович
ивановка
ивановна
иваново
ивановская
ивановскои
иваныс
ивашев
иво
иврит
ивуар
ивуарын
ивук
игбо
игнат
игнатов
игнатова
игнаторд
иго
игоревич
игорь
игр
игра
играи
игры
игушев
игушева
ид
ида
идальго
идеи
идентификатор
идеология
идиот
идиш
идиша
идише
идо
идолъяслы
идолъяссо
идыс
иевлев
иемен
иеменын
иепун
иереи
иероглифъяс
иероглифъясон
иерусалим
ижевск
ижемская
ижемскии
ижемского
ижемцев
ижкар
ижкарысь
ижма
ижмы
ижора
ижорскии
из
изба
избачон
избр
избран
избранное
избранные
изваильская
известия
известная
известныи
известным
известняк
извесьт
изд
издание
издании
издания
издат
издательскии
издательство
издор
издорса
изи
изиысь
изкар
изки
изобразительного
израиль
израильын
изсаиса
изучающих
изучение
изучению
изучения
изшом
изъэрд
изъюр
изъюров
изъюрова
изъюровкод
изъюровлон
изъюровос
изъя
изъяс
изьва
изьваиль
изьваиыв
изьвао
изьваса
изьватас
изьваын
изэрд
ии
ииа
иион
иираель
иирва
ииркап
иироны
иирсь
иирсьыны
иирым
иисус
иит
иито
иитод
иитодъяс
иитодын
иитома
иитоны
иитч
иитчис
иитчо
иитчом
иитчома
иитчомаось
иитчытом
ииыс
иияс
ике
икк
икки
ику
ил
илам
или
иливапыс
илля
илляшор
ильвес
ильи
ильин
ильинична
ильич
ильмаре
ильмари
илья
им
имбирь
имеет
имен
имена
именем
имени
имениеын
имп
император
императрица
империи
империя
империяса
империяын
имре
имя
ин
иналоны
инари
иная
инвалидон
инвалидъяс
ингушетия
инд
индия
индиялон
индияса
индияын
индо
индод
индодон
индодъяс
индокитаи
индокитаиын
индом
индома
индомаось
индонезия
индонезияса
индонезияын
индоны
индостан
индостанса
индустриальнои
индустрия
индыломаось
индыны
индысь
индытом
индіс
индісны
инесса
инженер
инженерно
инженернои
инженерон
инициальяс
инкери
инм
инмас
инна
инним
иннимъяс
инновационнои
иннокентия
инод
инодъяс
инспектор
инспекторон
институт
института
институте
институтлон
институтлысь
институто
институтов
институтон
институтса
институтъяс
институтын
институтысь
инструктор
инструкторон
инструмент
инструментъяс
инструментъяслон
инструментъясон
инструменты
инта
интаса
интасянь
интеграла
интеллигенция
интерглосса
интерлингва
интернат
интернатын
интернациональнои
интернет
интернете
информатика
информации
информационно
информационнои
информационныи
информация
инъяс
инъясын
инын
иньва
ио
иоанн
иоанна
иоанно
иов
иовлева
иог
иоганн
иогра
иод
иоз
иоза
иозкод
иозкост
иозкоста
иозкостса
иозкотыр
иозлон
иозлы
иозлысь
иозод
иозодан
иозодлома
иозодломаось
иозодліс
иозодлісны
иозодны
иозодо
иозодом
иозодома
иозодомаось
иозодоны
иозодсьо
иозодтом
иозодчан
иозодчома
иозодчылома
иозодчыны
иозодіс
иозодісны
иозон
иозос
иозсо
иозсянь
иозыс
иозыслон
иозысь
иоктан
иокто
иоктом
иоктома
иоктомлон
иоктомъяс
иоктысь
иоктісны
иола
иолгинь
иолога
ион
иона
ионакиевич
ионик
ионович
иор
иора
иораяс
иордания
иорк
иормидз
иоро
иортымдін
иоруба
иорын
иос
иосиф
иосифович
иоссер
иошкар
ипа
ипать
ир
ирак
иракса
иракын
иран
иранын
ирвел
ирина
иркутск
ирланд
ирландия
ирландияын
ирландса
иртыш
ис
исаак
исаев
исаева
исаков
исанев
исковтомлон
искусства
искусстве
искусство
искусствовед
искусствоведение
искусствоведениеяса
искусстволысь
искусством
искусствоон
искусствоса
искусствоын
искусствояс
искусствояслон
искусствоясын
ислалом
ислам
исламабад
ислан
исландия
исландияын
исландса
исп
испан
испани
испания
испанияса
испанияын
испанскии
исполком
исполкомлон
исполкомо
исполкомын
исполнитель
исполнительнои
исполняющим
испр
исследовании
исследования
исследователи
исследователь
исследовательскои
ист
истан
истанъяс
истиховская
истоков
истомин
истомина
истории
историк
историка
историко
историческ
историческая
исторические
историческии
историческои
история
историяса
историясо
историяын
историяыс
историяысь
источник
исус
исчезновения
ися
ит
итал
итали
италия
италияса
италияын
италья
итальян
итальянлань
итальянско
итар
ительмен
ительменскии
ительн
итл
итоги
иттрии
итчан
их
ич
ичеткин
ичот
ичотджык
ичотик
ичотсянь
ичотсяньыс
иыв
иывса
иывсьыс
иывъяс
иывъясыс
иыгыпера
иыгыперя
иыдпел
иыл
иыла
иылас
иыло
иылодзыс
иыломсо
иыломыс
иыломыслон
иылын
иылыс
иылысь
иын
иырсьысьяс
июль
июля
июня
ия
ияли
ияс
иөз
иөҙ
к
ка
кабала
кабалаын
кабалаясын
кабарда
кабил
кабинет
кабо
кабул
кабыр
кавалер
кавалеръяс
кавалеръяслы
кавалеры
кавелаарс
кавказ
кавказса
кавказын
кага
кагаон
кад
кадад
кадаи
кадакыв
кадакывл
кадакывъяс
кадакывъяслон
кадас
кадколаст
кадколастыс
каднас
кадо
кадодз
кадодзыс
кадон
кадров
кадровои
кадръяс
кадс
кадсо
кадся
кадсянь
кадсяньыс
кадъя
кадъяс
кадын
кадыс
кадысь
каждыи
кажым
кажымса
казак
казакова
казан
казандор
казань
казаньса
казаринов
казаринова
казах
казахстан
казахстанса
казахстанын
казлук
казуарина
казым
казьтывсь
казьтывсьо
казьтыл
казьтылан
казьтылана
казьтыло
казьтылом
казьтыломъяс
казьтылоны
казьтыштома
казьтыштомаось
казявлы
казявлывлан
казявлывломаось
казявны
казял
казялан
казяласны
казяломаось
каи
каикос
каиман
каины
каио
каион
каипияныс
каияс
каиясыс
как
какао
како
какои
калашников
кале
калевала
каледония
каледонияын
календар
календарын
календарь
кали
калии
каликова
каликовои
калимантан
калимов
калинин
калининград
калининская
калипсо
калистратов
калифорния
калле
каллистрат
калмык
калмыкия
калов
калуга
кальманлон
кальо
кальозур
каля
каляты
кам
кама
камао
камбалов
камбалова
камбоджа
камбоджаын
каменка
каменского
каменщик
камера
камерун
камерунын
камилла
кампет
кампинема
камсамас
камчатка
камчаткаодз
кан
канава
канада
канадаса
канадаын
канал
каналан
каналом
каналъяс
каналын
канар
канд
кандидат
кандидатон
кандидатск
кандидатскои
канев
канева
канкар
канкарса
канкарын
канму
канмулы
канмуо
канмуон
канмуса
канмусянь
канмуын
канмуяс
канмуяслон
канмуясын
каннада
канова
канпас
канса
кансям
канувса
канури
кань
капитан
каплин
капуста
капустин
кар
кара
караб
карабах
карабахса
карабъяс
караджич
каракалпак
каракчиева
карас
каратаика
каратаикаын
карачаи
карашиохка
карбас
карбасын
карбердса
каргорт
кардиология
кардор
кардоро
кардородз
кардорса
кардорсянь
кардорын
карел
карелии
карелия
карелияса
карелияын
карелияысь
карело
карелса
карелъяс
карелъяслон
карельские
карельскии
карельского
кариб
кариокар
каркодь
каркытш
каркытшлон
каркытшо
каркытшса
каркытшъяс
каркытшын
каркытшысь
карл
карлик
карлон
карманов
карманова
кармыльк
карнан
карнатака
каро
кародз
карон
карпатъяс
карпов
карповская
карпом
карпомъяс
карса
карсо
карсяма
карсянь
карта
картасикт
картаяс
картвел
картина
картинаа
картография
картон
картупель
карты
каръяс
каръяслы
каръясо
каръясын
каръясыс
каръясысь
карын
карыс
карысь
карьера
каспи
касса
кассини
кассяна
кастрен
катаев
катаевлон
катакана
каталан
каталог
катар
категории
категория
категорияын
катер
катерина
каткова
катманду
католик
католиков
католическ
катша
катшасин
катъясын
катыд
катыдпом
катыдпомын
катыдын
кафедра
кафедрао
кафедраон
кафедраса
кафедраын
кафта
кацалапов
кач
качаи
кашмир
кашмири
кашуб
каян
кв
кваит
кваитод
кваитсе
кваитымын
кваитымынод
квалификациясо
квант
квартал
квать
квенья
квинсленд
квн
квр
кг
кгпи
ке
кебанъель
кебра
кебраса
кебраын
кебырыб
кевман
кедва
кедвавом
кедвавомса
кедваын
кежл
кежлас
кежло
кежо
кежысь
кеизерлинг
кеит
кек
кеконач
кекур
кекурын
кель
кельобъясо
кельобъясон
кельт
кельчи
кельчиюр
кельыд
кельыдл
кельыдлоз
кемерово
кения
кенияын
кеннеди
кентавр
кеня
кенял
кеповская
кеппен
кер
керал
керала
керан
керас
керасъясын
кербер
керес
керка
керкаас
керкао
керкаон
керкасо
керкасьыс
керкасянь
керкаын
керкаыс
керкаысь
керкаяс
керкаясс
керкаясын
керки
керновса
керос
керосын
керчомъя
керчомъяса
керчомъяын
керчомья
кесъял
кет
кетелеерия
кетов
кечуа
кечывалвел
ки
киас
кибра
кид
киев
киевса
киевын
киколь
килльыны
кило
килограмм
килограммодз
килограммсянь
километр
километра
кильдин
ким
кинас
кингисепп
кинематограф
кинешма
кино
киноактер
кинорежиссер
киноса
киносценарист
кинотеатр
кинофильм
кинь
кио
кион
кипарис
кипод
киподтуя
кипом
кипомысь
киппт
кипр
кипрушев
кипрушева
кипъева
кир
кирибати
кирилл
кириллович
киритома
кириченко
киро
киров
кирово
кировса
кирпич
кирпиченко
кирпичсо
кирпичысь
кирс
кирсикт
кирт
кируль
кирушев
кисляков
киссь
киссьом
кисьмом
кисьт
кисьтан
кисьтана
китаи
китаиса
китаиско
китаиского
китаиын
китса
киуру
киче
кичин
кишинев
киын
киысь
кияс
кк
кл
клавдия
клавиатура
клавиатуры
клавишаяс
клад
кладбище
класс
класса
классик
классика
классикаон
классики
классификации
классическим
классическои
класслы
классо
классодз
классса
классъяс
классъяслы
классъясса
классъясын
классын
классянь
клеиман
клеин
клеопатра
клепиков
клест
климат
климатын
климатыс
климов
климовская
клин
клина
клингон
клином
клиппертон
клировои
клочков
клочковлысь
клуб
клубон
клубъяс
клубын
клузия
ключ
клянича
км
кмыл
кмыс
кн
книг
книга
книгаяс
книги
книгои
книгу
книж
книжн
книжное
книжнои
княжество
княжпогост
князев
князь
князя
ко
кобра
ков
коваль
ковмас
ковмис
ковмома
ковтысъяс
ковтысъясын
ковтысын
ковтысыслон
ковыль
когда
код
кода
коданев
кодарын
коддьом
кодж
коджса
коджсянь
коджувдор
кодза
кодзан
кодздодігон
кодзны
кодзув
кодзувкот
кодзувкотъяс
кодзувлон
кодзувъяс
кодзула
кодзыд
кодзыдъяс
коди
кодиисны
кодиома
кодионы
кодк
кодко
кодкод
кодл
кодлон
кодлы
кодон
кодос
кодсюро
кодъяс
кодъяско
кодъясл
кодъяслон
кодъяслы
кодъясон
кодъясос
кодъясысь
кодь
кодьось
коді
кожва
кожмудор
коз
козин
козинъяс
козлов
козлова
козловалон
козловская
козлорд
козъя
козьналома
козяин
кои
коигорт
коигортса
коидыс
коидысон
коидыссо
коика
коим
коимод
коимодысь
коин
коинлон
коинъяс
коинъяслон
коипер
коитыбож
коитыбожын
кок
кока
кокавны
кокал
кокалоны
кокас
кокборок
кокконен
кокнас
кокни
кокниа
кокньодны
кокньыд
кокньыда
кокнялом
коковкин
кокошникон
коксо
коксующ
кокъямыс
кокъямысдас
кокъямысдасод
кокъямысод
кокъямыссе
кокъямысысь
кокъясыс
кокыс
кол
кола
колана
коланлун
колас
коласа
колва
колегов
колегова
колеговская
колесников
колец
коли
колины
колип
колипов
колис
колисны
колкоз
колкозын
коллегия
колледж
колледжын
коллектив
коллективизация
коллекционер
коллекцию
коллекция
коллявны
коллял
колляло
коллялоны
коло
колоко
колокольня
колокольнясо
колом
коломбо
колонии
колоны
колорадо
колтовы
колтта
колуи
колуиыс
колумби
колумбия
колумбияын
колхоз
колхозлы
колхозник
колхозникъяс
колхознои
колхозо
колхозон
колхозса
колхозъяс
колхозъясын
колхозын
колхозыс
колысь
колысьдырся
коль
кольель
кольельын
кольк
кольквиж
колькиодз
колькиыс
колькиысь
кольксо
кольксьыс
колькъяс
колькъяссо
колькъясыс
кольны
кольо
кольодісны
кольом
кольома
кольомаось
кольца
кольцов
кольцовлысь
кольчаяс
кольчурин
кольчч
кольччис
кольччисны
кольччома
кольччомыс
кольччыны
коля
колян
коляоз
коляс
колясъяс
колясъясс
коліс
колісны
ком
команда
командалон
командаон
командаса
командаын
командаысь
командир
командирлон
командирон
командирос
команднои
командныи
командуитома
команды
комаров
комбинат
комбинатлон
комбинатын
комбриг
комдив
комедия
коми
комиа
комиавиатранс
комигижысь
комигиз
комиинформ
комил
комилон
комимуын
комио
комиодан
комиодлома
комиодліс
комиодны
комиодо
комиодом
комиодома
комиодомысь
комиодысь
комиодіс
комион
комионлаин
комипермгиз
комиссариат
комиссарон
комиссии
комиссия
комиссиялон
комиссияо
комиссияса
комиссияын
комитет
комитета
комитетлон
комитетлысь
комитето
комитетон
комитетса
комитетын
комитетысь
комиын
комиысь
комияс
комиясл
комияслон
комияслы
комияслысь
комиясос
комкот
коммент
комментарии
коммуна
коммунального
коммунальнои
коммунизм
коммунист
коммунистическая
коммунистическои
коммунистъяс
комор
компакт
компания
комплекс
комплекснои
комплект
композитор
композиторов
компьютер
компьютерлон
компьютерн
компьютерныи
комри
комсомол
комсомолец
комсомоллон
комсомоллысь
комсомоло
комсомолса
комсомолын
комсомольск
комсомольская
комсомольскои
комсь
комтог
комтом
комъяр
комыд
комын
комынод
кон
конаков
конго
конгресс
конгресса
конда
кондратьева
конев
конец
кони
конкани
конкка
конко
конкурс
конкурса
конкурслон
конкурсо
конкурсъяс
конкурсъясо
конкурсын
коновалов
коновалова
кононов
консерватория
консерваторияын
консонантъяс
константин
константинович
констанца
конституция
конструктор
консультантон
консультативнои
консюро
контактов
контексте
континентвывса
контора
контораын
контр
контроль
контрразведчик
контрреволюционнои
конф
конференции
конференция
конференцияяс
конца
конце
концерт
концертмеистер
концертнои
концертъяс
конша
конь
коньках
коньки
конькион
конькова
коньковои
коньшина
конюхов
конюшня
коні
копенгаген
копса
копт
кор
кора
коралл
кордильера
кордильераяс
кордильераясл
кордильераяссянь
кордильераясын
кореи
кореиского
корея
кореяса
кореяын
коржа
коржинскии
корис
корисны
коричневое
кориыс
корк
корко
коркоя
корломон
корнеи
корнеичуклон
корнелиус
коровина
королев
королева
король
корольув
кором
корома
короны
корось
коросьон
коротаева
корпус
корпусын
корреспондент
корреспонденталома
корреспондентон
корс
корсаков
корсигон
корсика
корсис
корсия
корсь
корсьны
корсьом
корсьоны
корсюр
корсюро
корсялоны
корт
корта
корткерос
корткеросса
корткеросская
корткеросын
корткеросысь
корттуи
кортулов
кортшом
кортысь
коръя
коръяс
коръясон
коръяссо
коръясыс
коръясысь
корья
коряк
кос
коса
косджык
косиис
косиисны
косио
косиом
косиома
косионы
косиы
косиысьом
косиысьомаось
кослан
косланса
косланын
космодромсянь
космос
косму
коснырева
косов
косова
косово
кост
коста
костаныс
костарика
костас
косто
костод
кострома
костромин
костромина
костт
костус
костын
костысь
косъель
косъя
кось
коськ
коськъяс
косьм
косьт
косьта
косьтан
косьювом
кот
котельнич
котельнои
котиом
котлас
котов
которои
котортом
котортігон
котортіс
которые
которыи
которых
котравны
котрал
котралан
котралом
котраломын
котраломысь
котралысь
котралысьяс
котте
котыр
котыра
котырас
котырись
котыркод
котырл
котырлон
котырлы
котырлысь
котырнас
котыро
котырон
котырса
котырсо
котырт
котыртл
котыртлісны
котыртны
котырто
котыртом
котыртома
котыртомаось
котыртомын
котыртомысь
котыртчис
котыртчисны
котыртчома
котыртысь
котыртысьон
котыртысьяс
котыртіс
котыртісны
котыръяс
котыръяслы
котыръясо
котыръясон
котыръясын
котырын
котырыс
котырысь
коть
кохма
кохновка
коч
кочанов
кочанова
кочев
кочегарон
кочильои
кочлон
кочьяс
кошевои
коюшев
коҥго
кпа
кпелле
кпрф
кпсс
кр
крагсиу
крае
краев
краевед
краеведение
краеведческии
краеведческои
краевидение
краи
краинего
краинем
краио
краиса
краиын
краиысь
краколье
крам
красная
красноармееч
краснобор
краснодар
красное
краснои
красноселькуп
красноярск
красныи
красоты
краткая
краткии
крачка
края
кредит
кредитнои
кремль
кремская
кренделева
креол
крепостнои
крест
креста
крестон
крестсо
крестъяс
крестъяса
крестьян
крестьяна
крестьянал
крестьяналон
крестьяналы
крестьяналысь
крестьяне
крестьянин
крестьянина
крестянин
кресьттяна
кресьттянин
кресьтяна
кресьтяналон
кресьтяналы
кресьтянаос
кресьтянаяс
кресьтянин
кречет
кри
кривощекова
крио
крироипк
кристаллсяма
кристиан
кристина
кристос
кристослон
кристослы
крит
критик
критика
критическои
криуу
крокодилъяс
крона
кросс
кротов
круг
круглов
кругосвет
кружков
кружок
кружоко
кружокон
кружокъяс
крузенштерн
крукыля
крупская
крут
крутая
крутоборка
крутои
крым
крымо
крымтотара
крымын
крысаяс
крысовка
крэиг
крюков
кряж
ксения
кт
ктан
ктаыс
кто
ктыны
ку
куа
куала
куб
куба
кубок
кувеит
кувсис
кувсисны
кувсь
кувсьом
кувсьома
кувтодзыс
кудинова
кудряшова
кудряшовои
куды
кудымкар
кудымкаро
кудымкарса
кудымкарын
куж
кужба
кужиын
кужомон
кужса
кузакова
кузебаи
кузебая
кузиванов
кузиванова
кузивансикт
кузиник
кузнецов
кузнецова
кузнецовская
кузнеч
кузнечик
кузь
кузьбожева
кузьджык
кузьель
кузьма
кузьминская
кузьмос
кузьта
кузьтанас
кузьтаыс
кузя
кузяыс
куи
куил
куилан
куиланін
куиланінъяс
куило
куилом
куилоны
куилысь
куим
куимнан
куимон
куимсе
куимтыдор
куимысь
куина
кук
кукань
куклина
кукуруза
кукушка
кул
кулак
кулакалом
кулакалісны
кулаков
кулан
кулига
кулижников
кулик
куликов
куло
кулом
кулома
куломаяс
куломд
куломдин
куломдін
куломдіно
куломдінса
куломдінсаяс
куломдінын
куломдінысь
куломе
куломкод
куломом
куломон
куломская
куломскии
куломского
куломское
куломъю
кулоны
куль
культ
культовои
культур
культура
культураа
культурал
культуралон
культуралысь
культураон
культураса
культураын
культураяс
культуре
культурно
культурного
культурное
культурнои
культурные
культурныи
культурология
культуры
кулі
куліс
кулісны
кунва
кунваму
кунгин
кунгур
кунь
куньыб
купала
купалал
купалалы
купалалысь
купальнича
купеч
купечлон
купечьяс
купечьяслы
кур
куратов
куратова
куратовалон
куратовалысь
куратовлон
куратовлы
куратовлысь
куратово
куратчина
курган
курд
курдистан
курила
куритчан
курог
курорт
курочкин
курочкина
курс
курса
курсант
курск
курсо
курсъяс
курсы
курсын
курув
куръя
куръядор
куръядорын
куръяс
куръясянь
куръяяс
курыд
кус
куслытом
куст
кустаинъяс
кустарники
кустъяс
кустъяса
кут
кутал
кутало
куталоны
куталысь
кутан
кутантор
кутас
кутасны
кутенаи
кутны
куто
кутом
кутома
кутомаось
кутоны
кутра
куття
куттяяс
кутчысь
кутчысьны
кутш
кутшом
кутшомко
кутшомон
кутшомсюро
кутысь
кутькин
кутіс
кутісны
кучев
кучик
кучмозерье
куш
кушит
кушман
кушманов
кушмановлон
кушмис
кушмисны
кушнирлон
куштысев
кушшор
куяс
куясон
куяссо
кхаси
кхмер
кхуздул
къ
къарачаи
къямыс
къяс
кы
кыа
кыв
кывбердлон
кывбертлас
кывбертласъяс
кывбур
кывбура
кывбуралысь
кывбуралысьяс
кывбуррез
кывбурсо
кывбуръяс
кывбуръяса
кывбуръясс
кывбуръяссо
кывбуръясын
кывбуръясыс
кывбурын
кывбурыс
кывбурьяс
кыввор
кыввораныс
кывворын
кыввужиыс
кывз
кывзома
кывзыны
кывзысьны
кыви
кывио
кывиозъяс
кывион
кывиывъясын
кывиын
кывиыс
кывиысь
кывк
кывкод
кывкортод
кывкуд
кывкудъяс
кывкудъясын
кывкутана
кывкутысь
кывл
кывлань
кывлон
кывлы
кывлысь
кывнас
кывны
кывным
кывпод
кывс
кывсис
кывсо
кывсянь
кывто
кывтор
кывтуялысь
кывтыд
кывтыдпом
кывтыдын
кывтэчасъяс
кывчукор
кывчукоръясын
кывъя
кывъяс
кывъяск
кывъяскод
кывъяслань
кывъяслон
кывъяслы
кывъяслысь
кывъясон
кывъяссо
кывъясын
кывъясыс
кывъясысь
кыд
кыда
кыддза
кыдз
кыдзи
кыдзкар
кыз
кыза
кызвын
кызвыннас
кызвыныс
кызвыныслон
кызвынысьс
кызта
кызтанас
кызь
кызьод
кызіник
кыи
кыид
кыидос
кыидоссо
кыиисны
кыилісны
кыины
кыио
кыиодоны
кыиом
кыионы
кыисьо
кыисьом
кыисьывлісны
кыисьыны
кыисьысь
кыисьысьлы
кыисьысьяс
кыисян
кыиысь
кыиысьяс
кыияс
кык
кыка
кыквося
кыкнан
кыкнанныс
кыкод
кыкон
кыксе
кыкыс
кыкысь
кыл
кылан
кыло
кылодома
кылодысьяслон
кылон
кылісны
кым
кымор
кыморъяс
кымосыс
кымын
кымынк
кын
кындзи
кынм
кынмывны
кынмыл
кыном
кыномпот
кыномпотсо
кыномыс
кынь
кып
кыподалісны
кыподан
кыподлісны
кыподны
кыподом
кыподома
кыподомаось
кыподомын
кыподоны
кыподчо
кыподчом
кыподчоны
кыподысь
кыподіс
кыподісны
кыпт
кыптіс
кыптісны
кыпыд
кыпыда
кыр
кырвыв
кыргыз
кыргызстан
кыргызстанса
кыргызстанын
кырк
кырныш
кырныша
кырнышъяс
кырс
кырсь
кырта
кыртъяс
кырув
кыръяс
кыръяссянь
кыръясын
кырымал
кырымало
кырымалома
кырымаліс
кыско
кысконы
кыскыны
кыссис
кыссь
кыссьо
кыссян
кысько
кысян
кысянь
кыт
кытон
кытсюр
кытсюро
кытч
кытчо
кытчодз
кытчоко
кытш
кытшал
кытшл
кытшлон
кытшо
кытшовт
кытшовтны
кытшовтоны
кытшон
кытшса
кытшсянь
кытшъяс
кытшъяслы
кытшъясын
кытшын
кытшыс
кытшыслон
кытшысь
кытысь
кыті
кыш
кыша
кышыд
кыян
кыяс
кэ
кэролин
л
ла
лабиринт
лаборант
лаборантон
лаборатория
лабораторияон
лабораторияын
лабором
лабрадор
лабрадорса
лабытнанги
лава
лавка
лавкаяс
лавр
лаврентии
лагер
лагеро
лагеръяс
лагерын
лад
лада
ладанов
ладин
ладм
ладор
ладорлон
ладорын
лажанев
лажмыд
лаз
лазар
лазарь
лаин
лак
лакота
лальск
ланка
ланкаын
лао
лаос
лаосын
ларев
ларевлон
ларимин
ларионов
лариса
ларуков
ларын
ласеи
ласича
ласичаяс
лассел
ласта
ластапом
лат
латвия
латвияса
латвияын
латгал
латин
латиница
латинскии
латкин
латкина
латкинлон
латыпов
латыш
латышев
латышева
латышскии
латышско
латьюд
латьюдін
лауреат
лахти
лахтиса
лач
лача
лб
лгу
лебедев
лебедевлысь
лебедь
лев
лева
левин
левл
леву
левъяс
легенда
легенды
леготин
ледзьяс
леди
лежанев
лежног
лезги
леик
леитенант
леитенантон
лек
лека
леканов
лекановалон
лекановлон
лекгагъяс
лексика
лексики
лексикография
лексиколог
лексикология
лектор
лекты
лектыын
лекции
лекция
лекцияяс
лелькуитчанкывъяс
лельо
лельоясос
лена
ленин
ленина
ленингр
ленинград
ленинградо
ленинградса
ленинградскои
ленинградском
ленинградын
ленинизм
ленинлы
ленинса
ленинскои
ленинскому
леннрот
ленск
лента
ленталон
леоне
леонеын
леонид
леонидович
леонов
леонтьев
леонтьевич
лепехин
лепча
лермонтов
лермонтовлысь
лес
лесгафт
лесничество
леснои
лесопункт
лесопунктын
лесотехническои
лесото
леспромхоз
леспромхозын
лесс
лесу
лет
летие
летию
летка
леткаса
летма
летом
летопись
летописьын
летчик
лехта
лжи
ли
лианаяс
либ
либерия
либерияын
либо
либретто
лив
ливан
ливанын
ливингстон
ливия
лига
лигатура
лигатураысь
лиге
лидер
лидия
лиза
лизавета
лииси
лилия
лилияяс
лимбу
лимеров
лимерова
лимитизм
лингала
лингвист
лингвистика
лингвистике
лингвистическии
линукс
линус
липа
липин
липина
лира
лирика
лирикаа
лирике
лирики
лириодендрон
лирические
лирическои
лиса
лисовская
лисовскии
лиссабон
лист
листбок
листын
лису
лит
литва
литваын
литератор
литераторы
литератур
литература
литературалон
литературалы
литературалысь
литературао
литератураса
литератураын
литератураысь
литературе
литературн
литературная
литературно
литературного
литературное
литературнои
литературные
литературныи
литературоведение
литературоведом
литературы
литсотрудникон
лихачев
лихачевская
лихтенштеин
лица
лицеи
личк
личком
личныи
лл
ло
лоан
лоас
лобанов
лобанова
лобачевскии
лов
ловзис
ловзьом
ловзян
ловион
ловля
ловнам
ловозеро
ловпу
ловс
ловъю
ловъя
ловъяс
ловъяслысь
логика
логинов
логинова
логиновъяс
логинъяг
логлан
логос
лоддза
лоддя
лодыгин
лодыгина
лодыгинлон
ложбан
лоз
лозов
лозовруд
лозым
лозымса
лозьва
лои
лоима
лоины
лоис
лоисны
лок
локны
локт
локталоны
локтан
локтас
локто
локтом
локтома
локтомаось
локтоны
локтысь
локтіс
локтісны
локчим
локчимдін
лола
лома
ломбард
ломоватовоса
ломоносов
ломоносова
ломтас
лон
лонгиир
лондон
лондонын
лонтара
лоны
лонь
лоня
лоо
лоома
лоомаось
лоомтор
лоомторъяс
лооны
лоп
лопар
лопе
лопъю
лопъювад
лоркалон
лос
лосасъяс
лосьод
лосьодавны
лосьодан
лосьодантор
лосьодломаось
лосьодны
лосьодо
лосьодом
лосьодома
лосьодомаось
лосьодомо
лосьодомын
лосьодомысь
лосьодоны
лосьодтодз
лосьодысь
лосьодысьон
лосьодысьяс
лосьодігон
лосьодіс
лосьодісны
лосьыда
лосяв
лосявны
лосялана
лосяло
лосялом
лосялоны
лпк
лт
луга
лугавом
луганда
луганск
луд
лудъяс
лудыков
лудыкова
лужиков
луз
луза
луздор
луздорса
луздорын
лузмодпов
лузса
луи
луиза
лук
лука
лукерия
лукинчи
лукич
лукоил
лун
луна
лунас
луначарскии
лунвыв
лунвывлань
лунвывланьо
лунвывланьоджык
лунвывланьын
лунвывланьынджык
лунвывса
лунвывсянь
лунвыл
лунвылас
лунвыло
лунвылоджык
лунвылын
лунвылынджык
лунвылысь
луннас
луно
лунодз
лунон
лунс
лунсо
лунся
лунсянь
лунсяньыс
лунш
лунъя
лунъяс
лунъясас
лунъясо
лунъясодз
луны
лунын
луныс
лунь
луораветлан
лусон
луутса
луцевич
луча
лучшая
лучше
лучшие
лушес
луяввр
лх
лы
лыа
лыаа
лыаты
лыатыса
лыаяс
лыд
лыда
лыдас
лыддис
лыддисны
лыддь
лыддьо
лыддьог
лыддьодлом
лыддьом
лыддьома
лыддьомын
лыддьоны
лыддьыны
лыддьысис
лыддьыссь
лыддьыссьо
лыддьысь
лыддьысьны
лыддьысьо
лыддьысьомъяс
лыддьысьысь
лыддьысьыськод
лыддьысян
лыддьысянкывъяс
лыддьысянін
лыдм
лыдо
лыдпас
лыдпаса
лыдпасъяс
лыдсо
лыдын
лыдыс
лыдысь
лыжавом
лыжи
лыжион
лыжнои
лыжные
лыжным
лызлов
лызь
лызьон
лыилома
лыиломаось
лыилыны
лыилісны
лыиома
лыиомон
лыисьысь
лыисян
лым
лымва
лымдор
лыми
лымиыс
лымъя
лымъяс
лын
лыс
лыса
лысва
лыска
лысом
лыссянь
лысь
лысьл
лысьс
лысьсянь
лысьтысьысь
лысьын
лысьяс
лысьясын
лысяс
лыткин
лыткина
лыткинлон
лыткинлысь
лыткинос
лыысь
лыюров
лыяс
ль
львов
льгым
льл
льня
льом
льт
лэбавны
лэбал
лэбало
лэбалоны
лэбалысь
лэбач
лэбачос
лэбачс
лэбачсо
лэбачыс
лэбачысл
лэбачыслон
лэбачыслы
лэбачыслысь
лэбачьяс
лэбачьяслон
лэбачьяслысь
лэбачьясос
лэбачьясыс
лэбачьясыслон
лэбзь
лэбзьо
лэбзьоны
лэбзьывлоны
лэбис
лэбо
лэбоны
лэдз
лэдзан
лэдзанін
лэдзанінлон
лэдзанінса
лэдзанінын
лэдзис
лэдзисны
лэдзны
лэдзо
лэдзом
лэдзома
лэдзомаось
лэдзоны
лэп
лэпт
лэптом
лэптома
лэптомаось
лэптыны
лэптісны
лэчч
лэччо
лэччоны
лэчыд
лэчьяс
люба
любви
любимая
любителеи
люблю
любляна
любов
любовныи
любовь
любомир
любомирович
людвиг
людевит
люди
людикъяс
людмила
люк
люксембург
люксембургын
люсия
люся
лютер
лютерана
лютоев
лютоева
лютоевъяс
люция
лючки
ля
лябовская
лягушаясос
ляи
лял
ляли
лямпа
лямпиада
лян
ляпин
ляпкыд
ляпкыдик
ляскасьом
ляскасьомын
ляшев
лі
ліны
м
ма
маарианхамина
маахир
маврикии
мавритания
мавританияын
мавт
мавтома
магадан
магаданын
магазин
магдалина
магистр
магистральн
магнаиер
магнита
магнолия
мадагаскар
мадагаскарын
маддяр
маддярмуысь
маддяръяс
маддяръяслон
мадеира
маджа
мадмас
мадонна
мадрид
маду
мадхья
мадьяр
мадьярму
мадьяръяс
маегов
маек
маз
маи
маибуров
маибыр
маиен
маик
маикл
маиор
маиотта
маискои
маитинская
маитхили
маия
макар
макаров
макарова
макаръя
македон
македония
макемаке
макет
макс
максаковка
максаковкаса
максим
максимов
максимович
максимовна
мал
малави
малавиын
малагаси
малаи
малаизи
малаизия
малаизияын
малаия
малакка
малань
малап
малая
малаялам
мале
малева
маленькии
малешор
мали
малиновка
малиын
малмыж
малыи
малых
малыхина
малыш
мальва
мальвин
мальдивъяс
малькова
мальо
мальпигия
мальта
мальцев
мальцева
мальцевгрезд
мальчик
мальчики
мам
мама
мамл
мамлок
мамлон
мамлы
мамлысь
мамныс
мамонтов
мамсо
мамтогыс
мамченко
мамъяслы
мамыс
мамыск
мамыскод
мамыслон
мамыслы
ман
манак
манама
манастыр
манастыро
манат
мандата
мандач
манде
мандеб
мандинка
манила
манинса
манипур
манси
мансииск
мансиискии
мансииско
мансииского
мансииском
мансилон
манш
маньси
маньчжур
маори
мар
маранта
маратхи
марафон
марганеч
маргарита
марго
марена
мари
марии
мариика
мариискии
марииском
марилон
мариму
марина
марино
мариуполь
мария
марк
марка
маркиз
марков
маркова
марковлон
марковская
маркс
мародз
марокко
мароккоын
марпа
марр
марс
марса
марсден
марсянь
март
марта
марте
мартен
мартин
мартиника
мартиты
мартынов
мартынова
мартыновлон
мартюшев
марфа
марш
маршак
маршака
маршал
маршалл
марши
маршрут
маръя
маръямоль
марын
марья
маска
маскат
маскаяс
масс
массачусетт
массив
массивъяс
массивъясын
массивын
мастацкая
мастеница
мастер
мастеров
мастерон
мастерская
мастерскои
мастерскоияс
мастерство
мастеръяс
мась
мат
матвеев
матвеевич
матвеи
математик
математика
математиков
математикон
математическ
математических
математическои
материал
материалам
материале
материалов
материалсо
материалъяс
материалъясын
материалы
материальнои
материк
материкс
материксянь
материкысь
матиас
мато
матрена
матын
матынджык
матынось
матыс
матысмиг
матысса
мать
матюшев
матігогор
матігогорас
матігогорса
матіса
мафун
махараштра
махотина
мацук
мача
мачс
мачсо
машенька
машина
машинаон
машинист
машинистон
маэ
мая
маяк
маяковскиилысь
мбук
мбыд
мвд
мгу
мд
мдр
мдін
ме
мегхалая
мегыр
мед
медал
медали
медалом
медаль
медальон
медалью
медальяс
медальясон
медасьлісны
медб
медборъя
медборъяысь
медбур
медбуръяс
медваж
медведев
медведева
медведь
медводдза
медводдзаон
медводдзасяньыс
медводдзаысь
медводдзаысьсо
медводдзаяс
медводз
медводзс
медвоидор
медвылыс
медвына
медджуджыд
медиафаил
медико
медицина
медицинскои
медколан
медкузь
медматыс
медпункт
медся
медсяс
медсясо
медтодчана
медуна
медш
медшор
медъен
медъена
медыджыд
медыджыдыс
медым
медічот
меж
межадор
межадорса
межадорын
междунар
международного
международнои
международные
международныи
междуреченск
межеванию
межог
межос
мезд
мездлун
мездмом
мездом
мездома
мездомысь
мездігон
мезенин
мезенцев
мезень
мексика
мексиканскои
мексикаса
мексикаын
мексики
мел
мелехин
мелехина
мелилья
мелия
мелочи
мельников
мельникова
мельниковчи
мельнича
мелі
мемориал
мемориальнои
мен
менам
менделеев
менеджмент
меников
мено
менсьым
меным
меня
мераитчан
меркурии
меркурия
мероприятиеяс
меры
месопотам
места
местаас
меставывса
местао
местасо
местаын
местаыс
местаяс
местаясас
местаясо
местаясс
местаясын
меститчо
местнои
место
местоимения
месторождение
месторождениеын
месяцев
мет
метал
металл
металлист
метеостанция
метида
метод
методика
методист
методисталома
методистон
методическ
методическои
методы
метр
метра
метраодз
метров
метродз
метрополитен
метрысь
метшк
мефодии
механик
механика
механикон
механическ
механическои
мехико
меценат
мечта
мещура
мең
ми
мизо
мизорам
мик
микаило
микела
микелон
микит
микита
мико
миков
микова
микол
микола
микронезиялон
микст
микул
микулаи
микунь
микуньсянь
микушев
микушева
микушевкод
милан
милиславлевич
милициа
милиция
милицияын
миллер
миллиард
миллион
миллионъяс
мимас
мин
мингалев
мингалева
минеи
минералог
минералогии
минералогическ
минералогия
минеральн
минерально
мини
миниатюраяс
минин
министерства
министерство
министерстволон
министерствоо
министерствоса
министерствоын
министр
министрлон
министрон
министрос
министръяс
министръясл
министръяслон
минса
минск
минскын
минут
минута
минъяс
минъясын
минын
мир
мира
миранда
мире
мирлон
мирнои
мировая
мировоззрение
мировои
мирон
мирошниченко
мирса
мирскои
мирт
мирын
мис
миссии
миссисипи
миссисипилон
миссури
митипер
митреи
митрои
митропан
митропандікост
митрофан
митрофанович
митрофаново
митрофановская
митрук
мить
митюшев
митюшева
митюшсикт
митя
мифологических
мифологическои
мифология
мифологияын
мифологияысь
мифы
михаил
михаила
михаилов
михаилович
михаиловна
мича
мичаа
мичаель
мичлун
мичм
мичмодома
миш
мишарин
мишарина
мишаринъяс
мишурин
миян
миянладорын
миянлы
мияно
миянын
миянысь
мк
мл
мла
младш
младшои
млн
млрд
млунс
млунъяс
млы
млысь
мм
мнас
мне
много
многократные
мны
мо
мовп
мовптас
мовпъяс
мовпыс
мог
мога
могила
могм
могмодан
могмодны
могон
могул
могъяс
могъясон
могъяссо
могыс
могысь
мод
модар
модарас
модаро
модас
модель
модест
модлао
модлапов
модлаполас
модлаполын
модлаын
модлы
модо
мододлісны
мододны
мододома
мододомаось
мододоны
мододчис
мододчома
мододіс
мододісны
модон
модсо
модсьыс
модъяс
модыс
модыскод
модысь
модяр
модісны
мое
моеи
можга
можегов
может
можно
моз
мозамбик
мозамбикын
мозымов
мозын
мозына
мои
моид
моидан
моидана
моидкыв
моидкывъяс
моидъяс
моидъяссо
моидъясын
моисеенко
мок
мокчои
мокчоиса
мокша
мокшалон
мокшанского
молдав
молдова
молдоваса
молдоваын
молебен
молитва
молитваяс
молодая
молодежи
молодежнои
молодежь
молодцов
молодцовица
молодые
молодыми
молодых
молот
молотилка
молотов
молчанов
молчанова
мольерлон
мольяс
мом
мон
мона
монако
монакоын
монархия
монастырь
монастыря
монгол
монголия
монголиялон
монголияса
монголияын
монголовед
монди
монета
монография
монографияыс
монографияяс
монтана
монтсеррат
монумент
мор
мордва
мордвалон
мордовия
мордін
море
морева
моренаяс
моров
морово
мороженои
мороз
морозов
морозова
морозовская
морос
моросас
моросвывса
моросын
моросыс
морохин
морохина
морскои
морт
морта
мортл
мортлон
мортлы
мортлысь
мортон
мортос
мортсо
мортто
мортъяс
мортыс
мортысь
морфология
моря
мос
москашор
москва
москвао
москваодз
москваса
москваын
москваысь
москве
московскии
московского
москоги
москуа
москуао
москуаса
москуаын
мосъясос
мотивам
моторин
моу
моцарт
мочаев
мошев
моя
мп
мр
мрамор
мру
мс
мсюр
мсянь
мтор
мторъяс
мторъясс
мтс
му
муа
муас
мув
мувеж
мувыв
мувывса
мувывтор
мувывториыс
мувывторс
мувывторсьыс
мувывторыс
мужик
мужики
мужич
мужичои
мужичоияс
мужчины
муза
музалевскии
музеи
музеилон
музеио
музеион
музеиын
музеияс
музея
музыка
музыкальнои
музыкальные
музыкальныи
музыкант
музыке
мук
мукод
мукоддырии
мукодкод
мукодлаас
мукодлао
мукодлаын
мукодлаысь
мукодлон
мукодлы
мукодлысь
мукодос
мукодсо
мукодсьыс
мукодтор
мукодъяс
мукодыс
мукодыскод
мукодыслы
мул
мулон
мулы
мулысь
мультфильм
мун
мунам
мунан
мунас
муниципал
муниципалитет
муниципалитетувса
муниципальн
муниципальное
муниципальнои
муниципальныи
муниципальных
мунл
мунломаось
мунлысь
мунліс
мунны
муно
муном
мунома
муномаось
муноны
мунтодз
мунысь
мунысьяс
муні
мунігон
муніс
мунісны
муо
муои
мупытшкса
мупытшса
муравеи
муравьев
муравьева
мураши
мурман
мурманск
мурома
мурт
муртса
мурыгин
мус
муса
мусанов
мусерпас
мусерпасъяс
мусерпасъясын
мусерпасын
мусин
мусинъяс
мусинъясыс
мусинын
мусиныс
мусир
муслун
мусо
мусоргскии
муссонъяс
мустафина
мусукто
мусульманаяс
мусьыс
мусюр
мусюрон
мусюръяс
мусюръясыс
мусянь
мусяньыс
мутас
мутасъяс
мутасъясас
мутасъясын
мутасын
мутасыс
мутнича
мутнои
мутныи
мутьдін
муш
мушар
муыд
муын
муыс
муысь
муяс
муясас
муясо
муясодз
муясс
муяссо
муясын
муясыс
мцбс
мъянмаын
мъяс
мъясын
мъясыс
мъясысь
мы
мывкыд
мыгораджык
мыд
мыджсьо
мыджсьомон
мыелдино
мыж
мыжа
мыжалісны
мыжд
мыждом
мыждома
мыждомаось
мыждоны
мыждісны
мыжсо
мыжтог
мыжтом
мыжы
мыжыын
мыи
мыик
мыико
мыила
мыион
мыисюро
мыитак
мыитако
мыиысь
мыла
мылва
мылд
мылдін
мылдінын
мыльк
мылькъя
мылькъяс
мын
мында
мынт
мынтом
мынтыломаось
мынтылісны
мынтыны
мыр
мырддисны
мырддь
мырдон
мыртыю
мыс
мысла
мысли
мысль
мысов
мысса
мысти
мысын
мысь
мытш
мытшодъяс
мыш
мышкон
мышку
мышкуыс
мь
мьен
мьянма
мэ
мэитэи
мэн
мэр
мэра
мэром
мэтью
мю
мяо
мінск
н
на
наблюдатель
наблюдения
набор
навасса
навахо
навеки
наволок
наволоки
нагаи
нагалэнд
награда
наградах
наградаяс
наградитлісны
наградитома
наградитомаось
наградитісны
награды
награжден
награждении
над
надан
надеев
надежда
надеждин
надежды
надз
наду
назад
назар
название
названия
назначен
наи
наио
наиос
наипьидо
нак
накод
нал
налимов
налимова
наличное
налон
налы
налысь
нам
нама
намака
наместничество
нами
намибия
намибияын
нанаи
наон
напалков
напалкова
наполеон
нарком
наркомнац
наркомпрос
народ
народа
народе
народн
народная
народного
народное
народнои
народные
народныи
народов
народы
наръян
наръяна
нарьян
нас
наса
население
населения
населенные
наследие
насриддин
наста
насталик
настоятель
настоящее
настук
наступает
настя
насянь
наталии
наталия
наталья
науатль
наук
наука
наукао
наукаса
наукаын
наукаысь
наукаяс
наукаяса
наукаяслон
наукаясса
науки
науковедение
наукометрия
науру
науч
научн
научно
научного
научнои
научные
научныи
научных
нах
нахлупин
находящиеся
нац
национал
национальн
национальная
национально
национального
национальнои
национальносьт
национальносьтъяс
национальные
национальныи
национальных
нацистскои
начала
начале
начало
начальн
начальник
начальникон
начальникос
начальное
начальнои
начинающих
начконы
наш
наша
нашего
нашеи
наши
наших
наын
наысь
наян
нганасанскии
ндебеле
нджык
не
неаполь
неб
небд
небдін
небдінса
небе
небзьодом
небог
небога
небогаин
небогаинын
небогас
небого
небогон
небогсо
небогтор
небогъяс
небогъясо
небогъясон
небогъяссо
небогъясын
небогын
небогыс
небогысь
небольшои
небыд
небыдик
нев
нева
невада
неваж
невис
невскии
него
негырысь
неджуджыд
недыр
неи
неизвестныи
нек
некод
некодкод
некодлы
некор
некоторые
некоторых
некрасов
некрасова
некрасовлысь
некутш
некутшом
некыдзи
некымын
некымынысь
нель
нельод
нельодтор
нельсе
нельыс
нельысь
нелямын
нелямынод
нем
немдін
немдінса
немдінын
немецкая
немецкии
немецко
немецкого
немеч
немечкод
немечлон
немечьяс
немскои
ненецкии
неньодо
неофициальнои
непал
непали
непалын
непервого
непряева
нептун
нептунлон
нептунодз
нереида
неридз
неркаги
несанелис
несказочная
несколько
нестеров
нестерова
нет
нетыр
неуна
нефедова
нехоженои
нехорошев
нечаев
нешан
неыджыд
неыло
неылын
ни
ниа
ниагара
ниашор
нивх
нившера
нига
нигер
нигерия
нигерияын
нигерын
нидерл
нидерланд
нидерландса
нидерландъяс
нидерландъясса
нидерландъясын
нидерланъясын
нидзувъясос
ние
нижнии
нижняя
низовцева
низь
нии
ник
ника
никарагуа
никита
никитин
никитина
никитич
никитична
никифоров
никифорович
никола
николаевич
николаевна
николаи
николая
николсон
никольскои
никон
никонович
никосия
никта
никулин
нил
нилогов
ним
нима
нимавны
нималана
нималіс
ними
нимиоза
нимкод
нимкывъяс
ниммез
нимнас
нимодан
нимодана
нимон
нимпасъясын
нимпасын
нимс
нимсо
нимсянь
нимт
нимтом
нимтомаось
нимтоны
нимтыломаось
нимтыны
нимтысянкывъяс
нимтісны
нимъяс
нимъяслон
нимъясон
нимъясс
нимъяссо
нимъясын
нимъясыс
нимъясысь
нимын
нимыс
нимыслон
нимыслы
нимысь
нин
нина
нином
ниномон
нинпу
ниппон
ниппонса
ниппонын
нискавуори
нись
нитш
нитшкысь
ниуэ
них
ния
нк
нкар
нквд
нко
нл
нлон
нлы
нлысь
нн
но
нобасян
нобель
нов
новая
новгород
новгородса
новгородского
новгородскои
новеллаяс
новик
новикбож
новикова
новиновскии
новл
новло
новлодлом
новлодлоны
новлодлысь
новлоны
новлыны
новлысь
новлісны
нового
новои
новоипатово
новороссииск
новоселов
новосибирск
новосибирскса
новости
новые
новыи
новым
ног
нога
ногиев
ногиевлон
ноглон
ного
ногон
ногыс
нодкыв
нодкывъяс
ноитісны
ноксьоны
нолинск
нолл
ноль
ном
номер
номера
номерын
номерыс
номъя
номыръяс
номыръясос
номыръяссо
номыръясыс
нор
норасьомъяс
норвег
норвегия
норвегиякод
норвегияса
норвегияын
норвегияысь
норвегмуын
норман
нормативныи
нормаяс
норн
нортленд
норыс
нос
носим
носков
носковлон
носу
нотаяс
ночи
ночь
ношта
ношуль
ношульса
ношульын
нояб
ноября
нс
нса
нсо
нсьыс
нсюр
нсянь
нт
ну
нужно
нуис
нуисны
нула
нуль
нулісны
нуны
нуодан
нуодны
нуодо
нуодом
нуодома
нуодомаось
нуодомысь
нуодоны
нуодсьо
нуодысь
нуодіс
нуодісны
нуом
нуома
нуомаось
нуоны
нур
нутрихин
нуысь
нц
нъяс
нъясас
нъясс
нъясын
нъясыс
нъясысь
ны
ныв
нывбаба
нывбабалон
нывбабаяс
нывбабаяслон
нывбабаяслы
нывд
нывдырся
нывкаяс
нывъяс
нывъяслон
нывъяслы
нывъясос
ныл
нылос
нылыс
нын
ныр
нырвизь
нырвизьын
нырвизьыс
нырвизьяс
нырвизя
нырнас
нырныс
нырсяньыс
нырыс
ныс
нысь
нь
ньобавлісны
ньобис
ньобисны
ньобны
ньобом
ньов
ньоръясон
ньоръясысь
ньоти
ньсь
ньыв
ньывк
ньывкаи
ньывсер
ньын
нью
ньюфаундленд
ньяса
нэ
нэм
нэмлон
нэмо
нэмовоися
нэмодз
нэмса
нэмсо
нэмся
нэмсянь
нэмъяс
нэмъясо
нэмъясын
нэмын
нэмыс
нэо
нэп
нюа
нювчим
нювчимса
нювчимын
нюдз
нюдзпоска
нюж
нюжал
нюжодны
нюит
нюитысь
нюк
нюм
нюмыд
нюр
нюрсял
нюръяс
нюръясын
нючпасса
ня
няв
няит
нянь
няньон
няньсо
няньтом
няньыс
няньысь
няньяс
няня
няр
нярбордъяс
няшабож
ні
ніва
нія
о
оао
оаэ
об
обдор
обдорса
обелиск
оберон
обзор
обком
обкомлон
обкомо
обкомын
обкомысь
обл
обладателем
области
областнои
область
обласьт
обласьтлон
обласьтлысь
обласьто
обласьтон
обласьтса
обласьтт
обласьтувса
обласьтъяскод
обласьтъяслы
обласьтъясын
обласьтын
обласьтысь
облисполкомса
обнаружены
обозрение
оборона
оборудование
оботуров
обработаитан
образ
образование
образовании
образования
образованньо
образовательного
образовательных
образцов
образцовои
образъяс
обрезкова
обрезковалон
обрезцов
оброк
обряд
обрядкод
обрядность
обрядъяс
обряды
обсерватория
обсерваторияын
обско
обучения
обшественнои
общ
общеи
общеобразоват
общества
общественн
общественник
общественно
общественного
общественнои
общество
обществоын
общии
община
общои
объединении
объект
объектов
объектъяс
объячево
обыкновенная
обычаи
обязанности
ов
овдаль
оверин
овет
овидии
овидия
овк
овкса
овл
овло
овлома
овломаось
овлоны
овлы
овлывл
овлывло
овлывлоны
овлыны
овліс
овлісны
овм
овмодом
овмодчавны
овмодчалісны
овмодчанін
овмодчаніно
овмодчанінсо
овмодчанінъяс
овмодчанінъяслон
овмодчанінъяслы
овмодчаніныс
овмодчис
овмодчисны
овмодчом
овмодчома
овмодчомаось
овмодчомин
овмодчоминлон
овмодчомино
овмодчоминса
овмодчоминъяс
овмодчоминын
овмодчоны
овмодчылома
овмодчыломаось
овмодчыны
овмодісны
овмос
овмоса
овмосас
овмослон
овмосон
овмосса
овмоссо
овмосъяс
овмосъяслы
овмосъясон
овмосын
овны
овсо
овт
овтом
овъяс
овъяссо
овъясыс
овыс
ог
огаио
огарев
огнев
огни
огня
огонь
огыр
огюст
од
ода
одамт
одва
одер
одес
одесса
одессаын
одз
одзын
одиа
одиг
один
одинцов
одинцова
одио
одм
одна
одним
одного
однои
одоль
одсянь
одыб
одыбодз
одыбса
одыбын
одын
оз
озел
озтіс
озъяг
озъягса
озын
озыр
озыра
озырджык
озырлун
озырлунсо
озырлунъяс
озырлуныс
озысь
ои
оивыв
оид
оидл
океан
океана
океанвывса
океаниияын
океания
океанияын
океанк
океанл
океанлань
океанса
океансянь
океанъяс
океанын
океанысь
оки
окиль
оклахома
окмыс
окмысдас
окмысдасод
окмысод
окмыссе
околица
околицы
около
окота
окотапырысь
округ
округа
округе
округса
оксалис
окситан
оксы
оксыув
оксыувлон
оксьома
окт
октод
октоны
октябр
октябрина
октябрса
октябрь
октябрьскои
октября
окунев
ол
ола
олам
олан
оланног
оланпас
оланпасон
оланпасъяс
оланподув
олантуи
оланін
оланінъяс
оланінъяслон
оланіныс
оласног
оласногс
оласногсо
оласногыс
олег
олек
олимпиада
олимпиадалон
олимпиадаса
олимпиадаын
олимпиадаясын
олимпиаде
олимпииские
олимпиискии
олимпииского
олимпиискои
олимпияса
оло
олом
олома
оломаось
оломлон
оломлы
оломо
оломсо
оломын
оломыс
оломысь
олоны
олысь
олысьлон
олысьлысь
олысьыс
олысьысл
олысьяс
олысьясл
олысьяслон
олысьяслы
олысьяслысь
олысьясон
олысьяссо
олысьясыс
олысьясыслон
олыся
оль
ольга
ольок
ольоксан
ольоксанос
ольоксеи
ольош
олігон
оліс
олісны
ом
оман
оманын
омега
омидз
омниглот
омоль
омоля
омонимъясо
омра
омск
омутнинск
он
она
ондреи
оне
онега
онегин
онежье
они
онись
ония
онлаин
онлаиновыи
оно
онодз
ономастика
онтарио
оньков
оньмосьт
оньо
оні
оніодз
онія
оо
оон
ооо
опаленное
опарин
опарина
опера
оперативнои
оператор
операциа
операционнои
операция
операысь
опик
описание
описанию
опицерос
оплеснин
оплеснинлы
опонасеи
опонь
определение
оптика
опыт
опытнои
ор
орбита
орган
организации
организация
органъяс
органъяслы
органъясын
орд
орда
ордас
орден
ордена
орденлон
орденлысь
орденов
орденон
орденсо
орденъяс
орденъясон
орджоникидзе
ордиысь
ордиысьом
ордиысьомъясын
ордпу
ордча
ордым
ордын
орел
оренбург
ореховскии
ориноко
орисса
оркестр
оркестрын
орлов
ородчытог
ортсо
ортсы
ортсыса
ортсысяньыс
ортяков
оружеиник
оружие
оружио
орфографии
орфографическии
орфографическои
орфография
орхидея
орчч
орчча
орччон
орччонось
орысь
ос
освоения
оселъяс
осет
осетин
осетия
осетияын
осип
осипов
осипова
осипович
осло
основнои
основном
основные
основы
особенности
особои
оспожа
ост
остались
остался
остапова
остров
островов
островскии
островскиилон
островскиилысь
остяк
остякъяс
остякъяслон
от
ота
отар
отаро
отас
отв
отвагаысь
отвыв
отвылысь
отд
отданная
отдел
отделение
отделениеса
отделения
отделон
отделса
отделын
отделысь
отдор
отдортны
отев
отелло
отерма
отец
отеч
отечества
отечественная
отечественнои
отечественные
отечеством
отзыв
оти
отиас
отикод
отилаын
отиод
отиоза
отион
отиос
отисо
отиыс
отияс
отка
откодь
откодьлунсо
откодьлуныс
откодьось
откодя
откодявны
откодялан
откодялои
откодяломаось
откодялоны
откон
открыли
открытии
открытых
откымын
отла
отлан
отлаын
отличия
отличник
отметил
отметит
отмоза
отмуном
отмуномлон
отмуномон
отмуномса
отмуномын
отнас
отношениях
отпырио
отражение
отряд
отрядын
отс
отсавны
отсал
отсало
отсалома
отсаломысь
отсалоны
отсаліс
отсасис
отсасисны
отсасьны
отсасьо
отсасьом
отсасьысь
отсасьысьон
отсасьысьяс
отсасян
отсог
отсогон
отт
отто
оттшотш
оттшотшъя
отув
отуввез
отувтан
отувто
отувтом
отувтома
отувтчис
отувтчисны
отувтчом
отувтчоны
отувтчыны
отувтысь
отувтісны
отувъя
отуз
отчизна
отчыд
отчыдысь
отын
оті
оун
офицер
офицерон
официал
официальн
официальная
официально
официальное
официальнои
официальноя
официальные
официальныи
охота
оча
очамчира
очень
очерк
очерки
очеркъяс
очеркъясыс
очнои
ош
ошинь
ошк
ошкамошка
ошкос
ошмаотывла
ошмос
ошодома
ошъяс
ошыбка
ошым
оять
п
пабу
павел
павленко
павлов
павлова
павлович
павловна
павловск
павлом
паг
пагирев
пад
паджга
паджгаса
паджгаын
падм
пажун
пажын
пазифее
паи
паиыс
паиысь
пак
пакистан
пакистанын
пактал
пакультет
пакультетса
палаззя
палаззяын
палалеи
палата
палауз
пале
палеоазия
палеонтолог
палестин
пали
пализа
палкин
палладии
паль
пальма
пальмаяс
пальо
пальозои
пальшин
пальын
паметник
паметникс
паметь
паметьын
памир
памяти
памятка
памятник
памятники
памятных
память
пан
панама
панамаын
панас
панджаби
панев
панкратова
панны
пано
паном
панома
панорама
пансиг
пансигон
пансис
пансь
пансьо
пансьом
пансьома
пантелеева
пантелеимон
пантелеимонович
паныд
паныда
паныдамоз
паныдась
паныдасьл
паныдасьло
паныдасьлом
паныдасьлоны
паныдасьлы
паныдасьлывло
паныдасьлывлоны
паныдасьлыны
паныдасьлысь
панысьяс
паныт
пань
панюков
панюкова
панюковос
паніс
папуа
парагваи
парад
паракод
паракодъяс
паралимпиада
паралимпиадаса
параллель
параллельнои
параллельныи
параллельсянь
парамонов
париж
парижын
парк
паркъясын
паркын
парламент
парма
пармао
пармаса
пармаын
пармы
парначев
парокод
пароход
парра
партизан
партиинои
партия
партияо
партияса
партияын
паруса
пархачева
парч
парчим
парчог
парчогын
паршуков
паршукова
пас
паса
паси
пасиис
пасиисны
пасио
пасиод
пасиодъяс
пасиодъяссо
пасиодъясыс
пасиом
пасиома
пасионы
пасифе
пасиывлісны
пасиыломаось
пасиыны
паскаль
паспом
пассажирск
пассажиръяс
пассатъяс
пассифлора
пассэз
пасъялом
пасъялігон
пасъяс
пасыс
пась
паськ
паськавны
паськал
паськало
паськалома
паськаломаось
паськалоны
паськодны
паськодом
паськодысь
паськом
паськыд
паськыда
паськыдджыка
пасьт
пасьта
пасьтала
пасьтаыс
патриарх
патриархат
патриотическ
патриотическои
патриоты
патрон
паула
паулу
пауль
паулінка
пахлави
пахорукова
пач
пачгин
паш
пашкыр
пашнин
паюсов
певец
пед
педагог
педагогика
педагогикаысь
педагогическии
педагогических
педагогическое
педагогическои
педеель
пединститут
пединститутлон
пединститутса
пединститутын
педор
педосеи
педот
педучилишо
педучилишоын
педь
пезмог
пекарня
пекин
пекнича
пекничасянь
пекуи
пелым
пелысь
пелыськаи
пелысьлысь
пелысьон
пелысьсо
пелыся
пель
пелька
пелькиник
пельо
пельос
пельоса
пельосын
пельыс
пем
пемос
пемослон
пемоссо
пемосъяс
пемосъяслысь
пемосъясос
пемосыс
пемыд
пемыдгорд
пемыдперкаль
пемыдруд
пенсиа
пенсионер
пенсия
пер
пера
первая
первенство
первои
первомаи
первомаискои
первые
первыи
первым
перевод
перевода
переводом
переводчик
переводы
перед
передвижнои
перем
перемен
перепелица
перепелицалон
переписи
переписнои
перепись
переписьын
переподготовки
перераб
переработаитан
пери
перигеи
периисны
перио
период
периом
перионы
периыны
периысь
периысьяслон
перк
перкаль
перкъяс
перм
перми
перминов
пермскии
пермских
пермского
пермское
пермскои
пермь
пермяк
пермяки
пермяккез
пермяков
пермякъяс
пермякъяслон
пермякъясын
пермяц
пермяцк
пермяцкие
пермяцкии
пермяцкого
пермяцкое
пермяцкои
перна
пернапас
перо
перс
персидская
персидскии
персонаж
перспективн
перспективы
пертас
пертасъяс
перу
перуын
перъялоны
перъян
перъянін
перъянінын
перым
перымса
перымын
пес
песен
песни
песнь
песня
песо
пестов
песьня
пет
петавл
петавлома
петавломаось
петавлы
петавлыны
петавліс
петавлісны
петан
петас
петасл
петассэз
петасъяс
петер
петерб
петербург
петербурго
петербургса
петербургского
петербургын
петербургысь
пети
петк
петкодлан
петкодло
петкодлома
петкодломысь
петкодлоны
петкодлыны
петкодліс
петкодлісны
петкодоны
петкодчас
петкодчис
петкодчисны
петкодчо
петкодчом
петкодчома
петкодчомысь
петкодчоны
петкодчылома
петкодчыны
петлом
петны
пето
петом
петома
петомаось
петоны
петр
петра
петров
петрович
петровна
петроград
петроградса
петрозаводск
петрозаводско
петрозаводскса
петрозаводскын
петру
петрунь
петрухин
петтодз
петтодзыс
петук
петш
петшор
петыр
петыркар
петыркарса
петыркарын
петырса
петысь
петя
петігон
петіс
петісны
пехотнои
печ
печали
печать
печатьын
печкыны
печлавны
печора
печораса
печорск
печорская
печорскии
печорского
печорскои
пеша
пешкин
пешнигорт
пещера
пещерао
пещерасо
пи
пиа
пианист
пивкин
пидз
пижма
пик
пико
пиковая
пила
пилаон
пилипин
пилипинын
пилиппинса
пилология
пилорама
пиля
пименова
пинега
пино
пинь
пиньинь
пинькаи
пинькаияс
пиня
пио
пион
пионер
пионеръяслон
пиос
пипу
пир
пирогов
пис
писания
писар
писарон
писателеи
писателем
писатели
писатель
писательница
писателя
писать
писо
писцовои
письк
письм
письма
письменности
письменность
письменносьт
письмо
письмояс
питер
питирим
питирима
питю
пиын
пиыс
пиыскод
пиысь
пиян
пиянсо
пияныс
пияныскод
пияныслон
пк
план
планет
планета
планетаса
планете
планеты
плата
платина
плато
платон
платояс
платформа
пленник
плено
пленэр
плес
плесид
плесовскии
плетцер
плехов
плита
плитаяс
плод
плодъяс
плосков
плотносьт
плотносьтыс
площадка
площадь
плуг
плутон
плутонлон
плутонодз
плэсид
пмк
пномпень
по
победа
пов
повести
повесттез
повесть
повестьяс
повесьт
повесьтъяс
повесьтъяса
повесьтъяссо
повесьтъясын
повесьтъясыс
повесьтын
повесьтыс
повесьтысь
повзь
повинносьт
повны
поводдя
поводдяыс
поволжья
повсо
повсто
повстын
повстысь
повт
повтог
повтом
повтомлун
повтомлунысь
повъю
погиб
погибнитома
поговорки
погодинлон
погост
погостас
погосткод
погосто
погостон
погостын
погостыс
погостысь
пограничникъяс
под
пода
подборка
подвиг
подгорица
подгорье
подгот
подготовки
поддельнои
подз
подле
подокарп
подон
подоров
подорова
подписал
подписан
подробная
подсобнои
подтыбок
подув
подувнас
подувсо
подувъяс
подувъясыс
подул
подула
подулас
подуласьо
подулон
подулын
подулыс
подчерем
поезд
поел
поелын
поет
пож
пожаланін
пожар
пожег
пожега
пожмадор
пожны
пожня
пожо
пожог
пожогдін
пожогдінын
пожогса
пожогын
пожом
пожома
пожомаяг
пожсигас
пожсьысь
пожсян
пожум
поз
поздеев
поздысь
поздысьны
поздысьо
поздысьоны
позио
позис
позиын
позиыс
познысо
позс
позсо
позсьыс
позтыкерос
позтырас
позтырсо
позтырыс
позъяс
позъяснысо
позь
позьо
позьтом
позялом
позяломов
позяна
позянлун
поинга
поиск
поисках
поите
показателеи
покаяние
покои
покров
покча
покчаын
пол
пола
поле
полевои
полеи
полесье
полет
полещиков
полиглоте
полиграф
полиевкт
полик
поликортулов
полина
полинезия
политехническои
политик
политика
политикао
политикаысь
политике
политическ
политическая
политическои
политова
полиция
полко
полковник
полкон
полкса
полкын
полльо
полльоын
половина
половине
половник
положение
полознича
полои
полон
полонъясын
полонын
полос
полтава
полугрудов
получил
полыс
поль
польского
польтоны
польша
польшаса
польшаын
польясным
полюс
полюсдорса
поляк
поляков
полякова
полян
поляна
полянин
поляны
полярнои
пом
пома
помавлома
помавны
помавтом
помал
помала
помало
помалом
помалома
помаломаось
помалысь
помалысьяс
помаліс
помалісны
помас
помасигон
помасис
помась
помасьлытом
помасьо
помасьом
помещиклысь
помка
помланьо
помни
помо
помодз
помодзыс
помос
помосд
помосдін
помосдінса
помосдінын
помощь
помсянь
помт
помтом
помъясыс
помын
помыс
помысь
пон
понд
понда
пондо
пондомаось
пондоны
пондотчом
пондіс
пондісны
пони
пономар
пономарев
пончод
поп
попвасев
попе
поплон
попов
попова
поповл
поповлон
поповлы
поповлысь
поповос
поповцев
пополнился
попон
поппе
попугаияс
популярн
популярная
популярныи
попъяс
попытка
порадок
порио
порко
порог
породан
породаяс
породны
породом
породоны
породысьяслон
породісны
порок
пором
поромось
поромъяс
пороны
порохня
порошенко
порошкин
порсь
порт
портал
портале
порталын
порто
портома
портр
портрет
портретсо
портрету
портретъяс
портреты
португал
португалия
португалияын
португальского
портъяс
поруб
порфирии
порысь
пос
посад
посвященнои
посвященныи
поселения
поселок
поселоклон
поселоко
поселокодз
поселокон
поселокса
поселоксо
поселоксянь
поселокъяс
поселокын
поселокыс
поселокысь
посетил
после
последние
послелоги
послесл
послесловие
пословицаяс
пословицы
посни
посниджык
посниторион
посньыдик
пособие
пособиеяс
пособио
пост
постановление
постижение
посъяс
пось
потандорса
потапов
потас
потасъяс
потеминскии
потемкин
потка
поткалы
поткаон
поткасо
поткаыс
поткаяс
поткаясон
поткодчо
поткодчоны
потолицын
потолицынлон
потребительскои
потребительяслон
потш
потшос
поч
почет
почета
почетного
почетное
почетнои
почетные
почетныи
починок
починокъяс
починокъясын
починокын
починокыс
почти
пошма
пошта
пошти
поэзии
поэзия
поэзиялы
поэма
поэмаын
поэмаяс
поэмы
поэт
поэта
поэтесса
поэтика
поэтическ
поэтическои
поэтл
поэтлон
поэтлы
поэтлысь
поэту
поэтъяс
поэтъяслон
поэтъясос
пп
пр
прав
права
правапіс
правда
правила
правительства
правительство
правительствол
правительстволон
правл
правление
правлениеын
правленньо
правленньоо
правленньоса
право
правовои
правописания
православие
православн
православная
православное
православнои
правояс
прага
прадеш
праздник
праздниккод
праздниксо
праздникъяс
празьник
празьникон
празьникысь
праис
практика
практическои
праскан
прасковья
пред
предание
преданиеяс
предания
предисл
предисловие
предложении
предмет
предметъяс
предприятие
предприятиеяс
предприятиеяслы
председатель
председательнас
председательон
представительство
представлении
предтечалон
предтеченскои
презентовали
президент
президента
президентлон
президентон
президиум
президиума
президиумлон
президиумлысь
президиумо
президиумон
президиумысь
премиа
премии
премия
премьер
премьера
преображенньо
преподаватель
преподавательон
преподобнои
прерияяс
пресвятои
пресн
пресс
при
прибауткаяс
привидения
приволжск
пригоршни
приданноион
приданым
придаш
приемн
приемнои
приз
призвание
призер
признакъяс
признание
приказ
прикамья
прикладнои
приключениеяс
приключения
прилагательное
приложение
прилузского
прилузье
пример
примерами
примере
примета
приметаяс
приметы
примеч
примечания
примит
принсипи
принцип
принял
приполярн
приполярнои
природа
природы
присвоении
присвоено
пристань
притяжение
приуральскои
приуралья
приходса
приходскои
причитания
пришел
приштина
приют
про
проба
проблема
проблематика
проблемаяс
проблеме
проблемы
пробн
проведении
провинцияын
провинцияясын
провод
проводников
прогимназия
программа
программаяс
программы
прогресс
продолжает
продюсер
проект
проекте
проектон
проектъяс
проектын
проза
прозаа
прозаик
прозалон
прозвишо
прозвишояссо
прозе
прозы
проидет
произведение
произведениеяс
произведении
произведения
производственнои
произвольнои
происхождение
происхождения
проко
прокопеи
прокопии
прокопьевич
прокопьевка
прокушева
пролетарскои
прометеи
промышленн
промышленник
промышленнои
промышленности
промышленносьт
промышленносьтын
проньдор
пропаганда
пропессор
пропп
просветительскои
просвещенец
просвещение
просвещениеса
просвещения
просвещенньо
проспект
простая
простится
просто
простои
просужих
протеи
против
протока
проф
профессиональн
профессионального
профессиональнои
профессия
профессор
профессора
профессорон
профессура
профиль
профсоюзса
прохорова
процент
процессы
прочее
прочент
прочентыс
прошвион
прошева
прошлое
прошлом
прошлым
прощаи
пруб
прусс
пруссияын
псалом
психолог
психология
псков
пти
пу
пуа
пуан
публикация
публицист
публицистика
публичнои
пув
пугдым
пуд
пудъя
пудъясянкыви
пудъясянкывъяс
пузла
пукал
пукалан
пукало
пукалома
пукалоны
пукалысь
пукалысьяс
пукалысьяслон
пукалігас
пукаліс
пуксиг
пуксигон
пуксис
пуксь
пуксьодны
пуксьодома
пуксьодомаось
пуксьодоны
пуксьодісны
пуксьом
пуксьома
пуксьыны
пуксялом
пуксяс
пукт
пукталоны
пуктана
пуктас
пукто
пуктом
пуктома
пуктомаось
пуктомысь
пуктоны
пуктывлісны
пуктыл
пуктыломаось
пуктылісны
пуктыны
пуктысь
пуктысьон
пуктысьяс
пуктытом
пуктігон
пуктіс
пуктісны
пул
пулемет
пулон
пулысь
пуля
пунегов
пунегова
пункт
пунктъяс
пункты
пунктын
пунтленд
пуо
пуон
пуоны
пурга
пурт
пуръяс
пуст
пустошь
пустыня
пустыняясын
путевка
путеводитель
путешественник
путешествие
путешествия
пути
путин
путинлон
путраджаия
путшкымдін
путь
пучеж
пучер
пушкин
пушкинлон
пушкинлысь
пушкинос
пушту
пушыд
пуысь
пуэрто
пуяс
пуяса
пуяск
пуясл
пуяслы
пуясыс
пхенчханын
пхеньян
пшыркоу
пывсян
пыд
пыдди
пыддиыс
пыдна
пыдо
пыдосас
пыдосо
пыдостом
пыдосын
пыдосыс
пыдын
пыдынджык
пыді
пыдіа
пыдісянь
пыелдино
пыж
пыжа
пыжветл
пыжветлана
пыжон
пыжъяс
пыжъяссо
пызан
пызь
пызьдін
пыисдін
пыисдінса
пылаева
пыр
пыралома
пыран
пырас
пырджык
пырис
пырисны
пырлома
пырломаось
пырліс
пырны
пыро
пыродчис
пыродчисны
пыродчо
пыродчома
пыродчоны
пыродчылома
пыродчыны
пыром
пырома
пыромаось
пыроны
пырся
пырт
пыртны
пырто
пыртом
пыртома
пыртомаось
пыртомон
пыртоны
пыртысь
пыртіс
пыртісны
пырыс
пырысь
пырысьон
пырысьяс
пысса
пыста
пыстин
пыстина
пытшк
пытшкас
пытшко
пытшкос
пытшкосас
пытшкосса
пытшкын
пытшкысь
пычим
пыш
пышиис
пышиисны
пышио
пышиома
пышкаи
пышкаиысь
пышъявны
пышъял
пышъялан
пышъялоны
пышъялысь
пьер
пьеса
пьесасо
пьесаын
пьесаяс
пьесаяссо
пьесаясыс
пьесы
пятое
пять
р
ра
рабиновиц
работа
работе
работник
работнике
работы
рабочии
рабочоион
рабфакын
рад
радаиа
радеит
радеита
радеитана
радеитны
радеито
радеитом
радеитоны
радеитчом
радеитысьяслон
раджастхан
раджастхани
радии
радио
радиоактив
радиобиолог
радиокомитетын
радиоузел
радиоын
радистон
радиус
радость
радуга
раевсикт
раевская
раевскии
раевскои
раз
разал
разало
разведка
разведкаса
разведкаын
разведчик
разведывательнои
развитие
развитию
развития
разговорник
разгорт
раздел
различные
различных
размыслов
разнои
разные
разодоны
разряд
разумовскаялон
разыб
раи
раида
раиисполкомса
раиисполкомын
раикомса
раикомын
раио
раион
раиона
раионас
раионл
раионлон
раионнои
раионныи
раионо
раионон
раионса
раионъяс
раионъяслы
раионъясын
раионъясысь
раионын
раионысь
раиса
раиын
рак
рака
ракета
ракетнои
ракин
рал
рамалла
ран
ранитчис
ранитчом
ранитчома
ранитчылома
ранитчыліс
раннего
рапас
рапасл
раротонга
рас
раска
раскерос
расов
расположен
распопов
распределение
распутин
рассвет
рассел
рассказ
рассказъяс
рассказы
рассохин
рассыхаев
рассыхаева
растет
ратегова
рая
раяс
рво
рвоана
рвыв
рд
рдов
рдовруд
рдселькуп
реабилитируитома
реабилитируитісны
ревизия
ревизияса
ревизскои
революциа
революции
революционер
революционнои
революция
революциялы
революцияодз
регион
региона
региональнои
регионе
регионкостса
регионлон
регионов
регионоведение
регионса
регионъяс
регионъяскостса
регионъясын
регионы
регионын
регионысь
регистрируитома
регыд
регыдон
регыдъя
ред
редактируитома
редактируитіс
редактор
редакторал
редакторалома
редакторлон
редакторнас
редакторон
редакторос
редакторыс
редакциаын
редакциеи
редакция
редакцияо
редакцияын
редколлегияо
режиссер
режиссералома
режиссерон
резо
результаты
реикьявик
реин
река
реке
рекемчук
реки
реконструкции
рекорд
ректор
ректорон
реку
религии
религия
рельеф
рельефа
рем
ремесленнои
ремонтно
репертуаро
репертуарын
репрессируитома
репрессируитісны
репрессия
репрессияяс
република
респ
республик
республика
республикал
республикалон
республикалы
республикалысь
республиканск
республиканская
республиканскии
республиканского
республиканскои
республикао
республикаса
республикасы
республикаті
республикаын
республикаысь
республикаяс
республикаяслон
республикаяслы
республике
республики
ресурс
ресурсъяс
ресурсы
реуэл
референдум
реформа
рец
рецензия
речи
речке
речкеи
речки
речная
речь
реюньон
рея
рз
рзь
ри
риа
риал
рига
ригаын
риисны
рика
рико
рим
римас
римса
римскии
римскои
рин
ринса
ринын
рио
риск
рисслер
рисслерлон
рита
ритм
ритма
риф
ричард
рияд
рк
ркань
ркка
ркоддь
ркодь
ркодя
ркп
ркута
рл
рлун
рлэдзысь
рм
рнас
ро
роберт
ров
рогачев
рогов
рогова
род
рода
родаків
родановоса
родвуж
родвужыс
родился
родина
родины
родион
родмодчыны
родмыны
родная
родник
родники
родного
родное
роднои
родов
родсо
родыс
родысь
рождения
рождества
рождество
рожки
рожкин
рожков
роза
розе
розь
розьыс
розя
рои
рок
року
роль
рольяс
ром
рома
роман
романа
романлон
романлысь
романов
романсо
романсъяс
романъяс
романын
романыс
ромаось
ромбандеева
ромсера
ромыс
рона
рональд
роно
ропча
россии
россииская
россииские
россиискии
россииского
россиискои
россия
россиял
россиялон
россиялысь
россияса
россияын
россияысь
росстат
ростанях
ростов
ротаса
ротума
рохин
рохингъя
рохир
роч
роча
рочев
рочева
рочевлон
рочму
рочмулон
рочмуса
рочмуын
рочо
рочон
рочонджык
рочъяс
рочын
рочысь
рочьяс
рочьяскод
рочьяслон
рочьяслысь
роштво
роштвоыс
рощевская
рощевскии
рощинлон
рп
рр
рс
рса
рсфрс
рсфср
рсфсрса
рсь
рся
рсяньыс
рт
ртал
ртан
ртас
ртаса
ртасыс
рткер
ртны
рттуияс
ртч
ртыд
ртымал
ру
руа
руанда
руб
рубан
рубеже
рублеи
рубликъ
рубцов
рувса
руд
руда
рудаяс
рудзог
рудник
рудов
рудовг
рудовгорд
рудовлоз
рудольфович
руководителем
руководителя
рукописеи
рулла
румын
румыния
румынияса
румынияын
румянцев
рунаяс
рупия
рупта
рус
русалка
русанов
руси
русин
русина
русинов
руслан
русская
русские
русскии
русским
русских
русско
русского
русское
русскои
русском
русь
рута
руч
ручильои
ручлон
ручпозъя
ручье
ручьи
ручьяс
руыс
рф
рх
ръя
ръяс
ръясас
ръясл
ръясын
ръясыс
рыд
рын
рынджык
рыс
рысь
рыт
рытвыв
рытнас
рытодз
рытъя
рытъяс
рытъяснас
рытыв
рытыввыв
рытыввывса
рытыввывсянь
рытыввыл
рытыввылас
рытыввылын
рытывсянь
рытывт
рыцарь
рычков
рышкыд
рья
ряд
рязань
с
са
саам
саами
саамияс
саамов
саамского
саамъяслон
саамы
саанич
сааремаа
саваннаяс
саваннаясын
савапиян
саваяг
савва
савваитов
савелии
савельева
савельевич
савенко
савин
савина
савинлон
савинос
савискера
сад
сада
садиын
саду
садъяс
садъясын
садьмы
сажин
сажина
саи
саин
саинахова
саиним
саио
саиодз
саиса
саит
саите
саитъяс
саитын
саитысь
саиын
саиысь
сак
сакара
саксон
салдат
салдатъяс
салехард
салтане
сальвадор
самара
самарин
самарина
самматти
самоа
самоанскии
самовар
самодеятельных
самодии
самои
самолет
самолетон
самостоятельного
самоучители
самоучитель
самуил
самыи
самым
самых
сан
сана
сандвич
сандра
сандрик
сандро
санкт
санскрит
сантали
сантиметр
сантиметродз
сантьяго
саньо
саня
сап
сапиндус
сапог
сапожников
сапота
сар
сараево
саран
саранош
саранпауль
саранск
саратов
сардырся
саридз
саридзвыв
саридзвывса
саридздор
саридзл
саридзлань
саридзса
саридзсянь
саридзт
саридзті
саридзуиысь
саридзын
саридзыс
саридзьяс
сарлон
сарлы
сас
сатира
сатираа
сатирик
сатурн
сатурна
сатурнлон
сатурнодз
саудса
саураштра
саха
сахалин
сахалинодз
сахара
сахараын
сахаров
сахарова
саш
саяс
сб
сбербанклон
сберкассаын
сбор
сборн
сборник
сборнику
сборникъяс
сборникъясын
сборникын
сборнои
сборноио
сборноиын
св
свадьба
свазиленд
сван
свати
све
сведения
свекл
свердловск
свердловскса
свердловскын
свет
света
свете
светлана
светть
свинеч
свиристель
свободнои
свободным
свое
своего
своеи
свои
свою
свыв
связи
связь
святая
священник
священникон
священномученик
сгу
сд
сдаитома
сделанные
се
себе
себя
севастополь
север
севера
севере
северная
северного
северное
севернои
северныи
северных
северо
севрук
сегиз
сегодня
сегозерских
седка
седокова
седрочев
сезон
сеи
сеилывло
сеилісны
сеины
сеио
сеиом
сеионы
сеиты
сеишелъяс
сеиысь
секретар
секретаралома
секретараліс
секретарон
сексен
сектор
секторо
секторон
секторса
секторын
секунда
секц
секция
села
селе
селиванова
село
селом
сельков
селькуп
сельпо
сельскии
сельского
сельское
сельскои
сельсовет
сельхозтехника
сельыб
селюнина
сем
семантика
семен
семенов
семенович
семеновна
семенчин
семиков
семинар
семинариа
семинария
семинарияо
семинарияын
семинаро
семинаръяс
семит
семо
семуков
семуково
семуковын
семь
семьи
семья
семьяас
семьялон
семьянас
семьясо
семьяын
семьяыс
семячков
семяшкин
сен
сенатор
сенегал
сенегалын
сент
сентябрь
сентября
сенъяс
сенькин
сенюков
сер
сера
серам
серамбана
серапима
серафим
серафима
серафимович
серб
сербия
сербияын
сервис
сергеевич
сергеевна
сергеи
сергии
серд
сердитов
сердце
серегов
серегово
сереговса
сереговын
середа
середасянь
середине
серер
сержант
сержантлы
сери
серия
серияын
серкни
серни
серникузя
сернио
сернисикас
сернисикасон
сернисикасъяс
сернисикасъяслысь
сернисикасъясын
сернисикасын
сернит
сернитны
сернито
сернитоны
сернитч
сернитчан
сернитчом
сернитысь
сернитіс
сернитісны
серниын
серниыс
серниысь
сернос
серносса
серодышталома
серон
серонджык
серпас
серпаса
серпасал
серпасалан
серпасало
серпасалом
серпасалома
серпасалысь
серпасалысьяс
серпасалысьяслон
серпасаліс
серпасасьны
серпасасьо
серпасасьом
серпаскывъяс
серпасторъяс
серпасъяс
серпасъяссо
серпасыс
сертасъяс
серти
сертиыс
сессия
сеська
сеськаса
сеськаын
сет
сетавны
сетан
сетас
сетломаось
сетлісны
сетны
сето
сетом
сетома
сетомаось
сетоны
сетсь
сетсьо
сету
сетч
сетчыны
сеть
сетіс
сетісны
сеул
сеута
сеысь
сеян
сеяннас
сеянон
сеянс
сеянсо
сеянтор
сеяныс
сеянін
си
сиб
сибелиус
сибири
сибирса
сибирская
сибирын
сибирь
сибод
сибыд
сибыр
сибырак
сибыро
сибырса
сибырын
сивков
сивкова
сигово
сигуд
сигудок
сигудокон
сидзжо
сидор
сидоров
сидорова
сидя
сизев
сизим
сизима
сизимдас
сизимдасод
сизимод
сизимсе
сизимысь
сизь
сизьяс
сизьяслон
сизя
сизяб
сизяыб
сиис
сиисны
сик
сикас
сикаса
сикасо
сикасос
сикассо
сикасъясыс
сикасын
сикасыс
сикким
сикотш
сикт
сиктас
сикткод
сиктлон
сиктлы
сиктлысь
сикто
сиктодз
сиктон
сиктс
сиктса
сиктсаяс
сиктсо
сиктсовет
сиктсоветас
сиктсоветлон
сиктсоветса
сиктсянь
сиктъяс
сиктъясса
сиктъясын
сиктъясысь
сиктын
сиктыс
сиктысь
сила
силез
сим
симаков
симаруба
символ
симеон
симон
симоновлон
симпелев
симфоническои
симфония
син
синва
сингапур
сингапурын
синдарин
синдор
синдхи
синема
синица
синкымыс
синм
синма
синмад
синмасьоны
синмо
синмыс
синнот
синод
синс
синт
синтаксис
синтаксисысь
синтом
синхронноя
синъясон
синьцзян
сиом
сиома
сипертас
сир
сири
сирия
сирияын
сирпу
сисимиут
система
системалон
системасо
системаяс
системе
системы
сись
ситкарев
сиу
сицилия
сиысь
сияние
сияса
ск
сказка
сказкаясын
сказки
сказок
сканд
скандинав
скандинавия
сквозь
скелетон
скиатлонын
склад
складын
скончалась
скончался
скопье
скор
скоро
скородум
скородумса
скородумъель
скородумын
скорсян
скот
скотос
скотсо
скотт
скреб
скуа
скулл
скульптор
скульптура
скупои
скыд
сл
слав
слава
славитны
славка
славы
славян
славяна
славяноведения
сладкоштиев
сладкоштиева
слалом
слаповскиилон
след
следует
слияние
слобода
слободаын
слободаысь
слободаяг
слободаяс
слободскои
слов
слова
словак
словакия
словакияын
словареи
словари
словарь
словаря
словен
словения
словенско
слово
словообразование
слога
слоган
сложноиджык
сложные
слон
слуга
слуда
слудаяс
слудка
служба
службао
службаса
службасо
службаын
службаяс
службы
служение
служит
служитлома
служитны
служитом
служитома
служитысь
служитысьяс
служитігон
служитіс
слун
слы
см
смерти
смерть
сметанин
сметанина
сми
смилингис
смирнов
смит
смоленск
смолянка
смотритель
смыслов
сна
снаипер
снаыс
снг
снегу
снегурочка
снимаитома
снимокъяс
сноасе
сноуборд
сны
со
соавт
соавтор
соавторъяс
собкорон
собор
соборо
соборын
собрание
собраниеса
собрания
собранные
собранньо
собранньолон
собственных
события
собянин
сов
сова
совдор
совдорысь
совет
совета
советлон
советлы
советлысь
советник
советникон
совето
советов
советон
советса
советск
советская
советские
советскии
советских
советского
советское
советскои
советъяс
советъяслон
советъясо
советын
советысь
совешанньо
совман
совмис
совмисны
совмо
совмодан
совмодны
совмодом
совмодомо
совмодомын
совмодомысь
совмодоны
совмом
совмома
совмомо
совмомыс
совмоны
совмыны
совпартшколаын
современная
современник
современника
современники
современного
современное
современнои
современном
современности
современные
современныи
совсо
совхоз
совхозлон
совхозо
совхозон
совхозса
совхозын
совчужысь
согди
сод
содержит
содз
содо
содома
содт
содтод
содтодон
содтома
содтоны
содтыны
содтысисны
содіс
создание
сознания
созыв
созыва
созывса
соива
сокол
соколов
соколова
сола
солдат
соликамск
солнечнои
солнце
соло
соловецкои
соловьев
соловьева
соломон
соломония
солон
солтан
соль
сомали
сомалиленд
сомалиын
соми
сомпенг
сомын
сон
сонетов
сопльос
сор
сора
сораса
сорб
сорвали
сорвачева
сорд
сордиыв
сорма
соров
сорока
сорокин
сорокина
сорокинлы
сорокопут
сорса
сосна
соснин
сосновка
сосногорск
сосногорскодз
сосногорскын
сосны
соссяна
сост
состав
состава
составляет
составу
состом
состоялась
состоялся
сосьва
сот
сотворение
сото
сотовои
сотрудник
сотрудникон
сотч
сотчис
сотчом
сотчомвыв
сотчылома
сотісны
софин
софия
софроновлон
софья
социал
социалист
социалистических
социалистического
социалистическои
социальн
социально
социальнои
социокультурные
социолог
социологии
социологические
социология
сочи
сочинении
сочиын
сочон
союз
союза
союзлон
союзса
союзысь
спартак
спартакиада
спас
спасо
спасорд
спаспоруб
спаспорубса
спб
спектакль
спектакльын
спектакльысь
спектакльяс
специалист
специалистон
специалистъяс
специалистъясос
специальность
специальносьт
специальносьтъяс
спецкурсу
спецкурсъяс
спецкурсысь
спира
спиридон
спиридонов
список
списокъясын
списокъясысь
списокын
спицина
спк
спорт
спорта
спортзал
спортивнои
спортса
спортсмен
спортсменъяс
спортын
способ
справка
справочник
спринт
спринтын
спутник
спутникъяс
спутникъясос
сравнительная
сравнительныи
сражении
сред
среди
среднего
средняя
сретенньо
срок
сс
сса
сср
ссрс
ссср
сссрса
ссылкаын
ссылки
ссылок
ссяньыс
ст
став
ставмирса
ставнас
ставныс
ставнысо
ставон
ставрополь
ставроссияса
ставс
ставсо
ставсоюзса
ставсьыс
ставыс
стадаяс
стадион
стал
стала
стали
сталин
сталинград
сталино
стало
сталь
стан
стандарт
станет
станислав
становление
станок
станциа
станционныи
станция
станцияын
старая
старик
старина
старовскии
старославянскии
староста
старт
старцев
старцева
старцевос
старш
старшии
старшина
старшои
старые
старыи
статеи
статистика
статистики
статистические
статистическии
статкомитет
статкомитетл
статкомитетлон
статус
статут
статуто
стать
статьи
статья
статьяын
статьяяс
стекл
степан
степанакерт
степанида
степанов
степанова
степанович
степановна
степановская
степвыв
степени
степень
степо
степса
степь
степьяс
степьясын
стерлитамак
стефан
стефано
стефанович
стефенс
стивен
стикс
стилем
стилистика
стиль
стильон
стильын
стит
ститчысьяс
стихи
стихов
стихотворениеяс
стихотворения
стиххез
стихъяс
сто
стокгольм
стоколос
столетия
столицеи
столицы
столповскии
столповского
столяр
сторожевск
сточ
сточа
стр
стран
страна
странаса
странаын
странаысь
странаясын
страница
страницы
страничка
странник
страну
страны
страусъяс
стрелитция
стрелковои
стрелок
строи
строиба
строибасо
строитель
строительнои
строительон
строительство
строитны
строитом
строитомаось
строитомлысь
строитомсо
строитісны
строки
структура
струннои
студенеч
студент
студенталігон
студентов
студентон
студентъяс
студентъяслон
студентъяслы
студия
студияо
студияын
ступак
ступеня
стч
стчысь
стэнли
стюарт
су
суахили
субкотыр
субкотырса
субота
суботасянь
субъект
субэтносон
суворов
суворовым
сувт
сувтанін
сувтланін
сувтны
сувто
сувтодны
сувтодома
сувтодіс
сувтодісны
сувтома
сувтса
сувтіс
сувтісны
суд
судан
суданын
суддяон
судно
суднояс
судоходство
судта
судтаа
судталон
судтасо
судтаын
судтаыс
судьба
суиор
суиорсаиса
суит
сук
сукгоева
сулавеси
сулавлома
сулал
сулало
сулалома
сулалоны
сулалысь
сулалысьяс
сулаліс
сулалісны
суматра
сумах
сунда
суоми
суомиса
суомиын
суомиысь
суомияслон
сур
сура
суриана
сурина
суринам
сурма
сурнин
сус
сусликъяс
суспу
суткинас
сутшкасьысь
суффикс
суханов
суханова
сухоруков
сухум
сушмита
существительных
существования
суэц
сход
сцена
сценарии
сценариилон
сценариияс
сценарист
сценаса
сценическои
счастье
счастья
сша
сшел
съезд
съездса
съездъяс
съезды
съяс
съясл
съясын
съясыс
съясысь
сы
сыв
сывдан
сывлыт
сывъюдор
сык
сыкод
сыкомтевчук
сыктгу
сыктыв
сыктывд
сыктывдинская
сыктывдін
сыктывдінкар
сыктывдінса
сыктывдінын
сыктывкар
сыктывкара
сыктывкарбердса
сыктывкаре
сыктывкаркод
сыктывкарлон
сыктывкарлы
сыктывкаро
сыктывкародз
сыктывкарса
сыктывкарскии
сыктывкарского
сыктывкарсянь
сыктывкарцы
сыктывкарын
сыктывкарысь
сыктывса
сыл
сылан
сылон
сылы
сылысь
сылігон
сымон
сымын
сын
сына
сынод
сынодын
сынянырд
сыон
сыр
сырье
сырьев
сыс
сыскин
сысл
сысола
сысольск
сысольскии
сысольско
сысольскои
сысольскса
сысольскын
сысольскысь
сысь
сысянь
сычуань
сыын
сыысь
сь
сьджык
сьерра
ська
сьм
сьод
сьодбож
сьодкыркотш
сьодкыркотшса
сьодов
сьодовгорд
сьодовруд
сьодон
сьодтыдін
сьодъю
сьодъюръяс
сьокта
сьоктанас
сьоктаыс
сьокыд
сьокыда
сьокыт
сьолом
сьоломои
сьоломон
сьоломсо
сьоломсянь
сьоломсяньыс
сьоломшор
сьоломшорои
сьоломъяс
сьоломыд
сьоломын
сьом
сьомкуд
сьомон
сьомсо
сьоська
сьт
сьта
сьтса
сьтэпан
сьыв
сьывны
сьыл
сьылан
сьыланкыв
сьыланкывиыс
сьыланкывиысь
сьыланкывкод
сьыланкывлон
сьыланкывсо
сьыланкывъяс
сьыланкывъяса
сьыланкывъяслон
сьыланкывъясон
сьыланкывъяссо
сьыланкывъясыс
сьыланъяс
сьыло
сьылодысь
сьылом
сьылома
сьыломнас
сьыломон
сьыломыс
сьылоны
сьылысь
сьылысьон
сьылысьяс
сьылысьяслон
сьыліс
сьылісны
сьыліыс
сьыс
сэзь
сэк
сэки
сэкся
сэксянь
сэн
сэнъясын
сэні
сэсся
сэсянь
сэт
сэтор
сэтч
сэтчо
сэтчодз
сэтчос
сэтш
сэтшом
сэтшома
сэтысь
сэтысянь
сэті
сю
сюжет
сюжетъяс
сюжетыс
сюзев
сюзь
сюзьлон
сюзьыс
сюзьяс
сюзяыб
сюзяыбас
сюзяыбса
сюзяыбын
сюзяыбысь
сюлатуи
сюм
сюр
сюра
сюраныр
сюранырлон
сюраныръяс
сюрес
сюри
сюрис
сюро
сюром
сюрома
сюрс
сюрса
сюрсод
сюрсодз
сюрсысь
сюръя
сюсь
сюся
ся
сявны
сял
сялана
сям
сяма
сяммис
сямс
сямсо
сямыс
сямысь
сянлю
сянь
сяр
сяриывдорса
сіван
сідз
сідзж
сідзжо
сідзи
сідзко
сіи
сіио
сіион
сіиос
сісь
сісьтыдін
сітбар
сіяс
т
та
табак
табар
табасаран
таблица
тав
тавда
таво
тагалог
таджик
таджикистан
таджикистанын
тадз
тадзи
таежного
таи
таибэи
таивань
таига
таиланд
таиландын
таимыр
таина
таио
таиос
таисия
таити
так
также
такие
такои
таланты
талисман
талица
таллинн
таллиннын
талун
талунъя
там
тамазигхт
тамара
тамбов
тамил
тамилнад
тан
танганьика
тандзе
танзания
танзанияын
танковои
танцы
таня
тані
таодз
таодзыс
тапио
тар
тарабукин
тарабукина
тарабукиналы
тараканов
тарас
тарачево
тарашкевич
тарту
тартуса
таскаев
тасмания
тасманияын
тасс
тасьті
тасянь
тат
татарского
татарстан
татон
татч
татчо
татчос
татш
татшом
татысь
татьяна
таті
тах
ташкент
ташкентын
таын
таысь
тбилиси
твер
твое
твои
творческ
творческои
творчества
творчестве
творчество
творчестволон
творчествосо
творчествоын
творчествоыс
твылысь
тджык
тдор
те
театр
театра
театральная
театральнои
театрлон
театрлы
театро
театрон
театрса
театръяслон
театрын
тебе
тебеньков
тебенькова
тев
тевтя
тевтяяс
тегеран
тежянь
тез
тезисы
теиково
текст
тексте
текстов
текстсо
текстъяс
тексты
текуса
теле
телевидение
телевидениелон
телевидениеса
телевидениеын
телевидения
телеграмма
телеграф
телеканал
телепон
телерадиокомпанияын
телережиссер
телескоп
телеуджтас
телугу
тель
тема
темаа
тематика
тематическии
тематическои
темаыс
температура
тенеи
теннис
тентюков
тентюкова
теории
теория
теперь
теплои
терентьев
терентьева
терентьевалон
терещенко
теркс
термин
терминов
терминология
терминъяс
террил
территориальное
территориальнои
территории
территория
тетум
тефия
техник
техника
техникалон
техникаын
техникум
техникумо
техникумын
техникумысь
техническ
техническои
технология
технологияяс
теш
тешкодь
тешъяс
ти
тибет
тибетын
тигр
тик
тикон
тил
тилаын
тили
тима
тиман
тимана
тимин
тиминлон
тимонин
тимор
тимофеев
тимофеевич
тимофеевна
тимофеи
тимушев
тимушева
тимушевъяслон
тимшер
тимшор
тип
типам
типографии
типография
типология
типосиктса
типосиктын
типосиктысь
тир
тираж
тиражыс
тирана
тирасполь
тираспольскии
тиррен
тист
тит
титан
титания
титов
титовская
титул
тиф
тифинаг
тифлис
тифон
тихои
тихон
тихонов
тишков
тиыс
тияс
тк
тка
ткаченко
ткаяс
ткварчал
ткодь
ткодя
ткодял
ткымын
тл
тлаавл
тлаась
тласа
тлаын
тлы
тлыны
тлысь
тмун
тнас
то
тобаго
тобои
тобольск
тобысь
тов
товар
товарищество
товарищи
товарон
товио
товионы
товиыны
товнас
товсо
товся
товшор
товъяс
товъяснас
того
тогоын
тод
тоданін
тоданінын
тодмавны
тодмалан
тодмалом
тодмалома
тодмалысь
тодмалісны
тодмасис
тодмасьлома
тодмасьны
тодмасьома
тодмодома
тодны
тодо
тодома
тодомлун
тодомлунъяс
тодоны
тодса
тодсаось
тодтом
тодчана
тодчанлун
тодчанлуна
тодчанлунсо
тодчанлуныс
тодчис
тодчо
тодчодома
тодчоны
тодчымон
тодысь
тодіс
тодісны
тож
тоз
тои
тоима
ток
токарев
токелау
токио
токиоын
толка
толкин
толковыи
толстои
толстоилон
толстоилысь
толын
толыс
толысся
толысь
толысьлон
толысьнас
толысьо
толысьодз
толысьон
толысьсянь
толысьын
толысьяс
толысьясо
толь
только
толя
том
тома
томас
томах
томджык
томе
томлун
томми
томов
томск
томулов
томуловлон
томуловлы
томъяслы
томын
тон
тонеи
тонна
тонъяс
тоомас
топ
топографическои
тополь
топонимии
топонимическии
топонимическои
топонимия
топоров
топыд
топыда
топыдлун
тор
тора
торговои
торгуитлома
тори
ториодны
ториодо
ториодом
ториодома
ториодоны
ториодчисны
ториодчо
торион
торлопов
торлопова
торлоповлон
торнадо
торопов
торопова
тороповлон
торсхавн
торшхавн
торъя
торъяв
торъявл
торъякыв
торъякывъяс
торъял
торъялана
торъяло
торъялом
торъялоны
торъяліс
тотара
тотараму
тотараяс
тотем
тоторкатша
тотьма
тотьмаса
тотьмаын
тофалар
тохар
точила
точилаяс
точки
тпыри
тр
традиции
традиционн
традиционная
традиционнои
традиционные
традиция
традицияын
традицияяс
тракт
трактор
тракторист
тракторъяс
трамплинсянь
транскрипции
транскрипцияын
транслитерация
транслитерацияын
транспорт
транспортл
транспортын
трапезников
траспорт
трась
трасян
трек
тренер
тренерон
трентино
тренясикт
треска
треть
третьего
третьим
третья
третьяков
третьякова
трех
трехозерка
трея
три
трибельгорн
трибуна
тридцать
тринидад
тринидада
трипан
трипура
тритон
трк
троекуров
троицко
троицкои
троича
тропик
тропикдорса
тропикувса
тропои
тростник
трофимов
трофимович
трофимовская
трош
трошев
трошева
труба
трубаяс
труд
труда
трудов
трудовая
трудового
трудовои
трудодень
труды
труженики
труппао
труппаын
трусов
трухильо
трц
тс
тсвана
тсонга
тсяма
тт
ттш
ту
туа
тув
тува
тувалу
туввез
тувсов
тувсовъя
тувт
тувтч
тувъя
тувъябур
туган
тугъя
туи
туивежын
туио
туиод
туиодз
туис
туискерос
туискеросса
туисянь
туиті
туиын
туиыс
туияс
туиясл
тул
тула
тулан
туланлон
тулыс
тулыснас
тулысо
тулысся
тулыссянь
тулысын
тулысь
тун
тунгус
тундра
тундрао
тундраодз
тундраса
тундраын
тундраысь
тундраяс
тундраясын
тундры
тунис
тупк
тупкисны
тупкома
тупкыны
тупкысис
тупкысьл
тур
тургенев
турецкии
тури
туризм
турин
турист
турияслон
туркин
туркмен
туркменистан
туркменистанса
туркменистанын
турку
туркуса
туркуын
турнир
турок
турпан
турсо
турубанов
турубановская
турун
туруна
турунвиж
турунон
турунс
турунсо
турунчож
турунчожъяс
турунъю
турунъяс
турунъяслысь
турунысь
турция
турцияса
турцияын
туръя
туръяыб
туръяыбын
турышев
турьев
тусь
тусьяс
тусьясон
тусьяссо
туся
тусяпулысь
тут
туша
тушаа
тушанас
тушаыс
тушаыслон
туявны
туял
туялан
туяло
туялом
туялома
туяломлы
туяломо
туяломъяс
туяломын
туялысь
туялыськод
туялысьон
туялысьяс
туялысьяскод
туялысьяслон
туялысьяслысь
туялысьясон
туялысьясос
туяліс
туялісны
туяна
туясьома
туясьомъяс
туясян
туғыҙ
тфи
тхам
тхимпху
тч
тчыд
тчыдысь
тш
тшаи
тшак
тшапнитны
тшк
тшоктом
тшоктома
тшоктыны
тшоктіс
тшокыд
тшокыда
тшокыдджыка
тшот
тшотон
тшотш
тшотшкос
тшотшъяяс
тшугор
тшуп
тшупод
тшупода
тшыг
тшыгла
тшыгъяломысь
тшыгъялісны
тшык
тшын
ты
тыбъю
тыва
тыдав
тыдал
тыдало
тыдовтч
тыдовтчо
тыдор
тыдорса
тыдорын
тыла
тылаборда
тылабордаос
тылабордаыс
тылабордаяс
тылабордаясыс
тылаи
тылаиын
тылаю
тылон
тылын
тымсер
тымсерын
тыпу
тыр
тыра
тырвыио
тыриг
тыригкежло
тыригон
тырис
тырмы
тырмымон
тырмыны
тырмытом
тыром
тыромкод
тыромлы
тырт
тыртом
тырыс
тыс
тысянь
тысяча
тыш
тышкасигон
тышкасис
тышкасисны
тышкасьны
тышкасьома
тышкасян
тышлон
тышодз
тышса
тышъяс
тышъясын
тышын
тышыс
тышысь
тыыс
тыысь
тыяс
тыяса
тыясын
ть
тьот
тэ
тэзе
тэкод
тэль
тэн
тэно
тэныд
тэрыб
тэрыба
тэч
тэчас
тэчасног
тэчасногыс
тэчасын
тэчасыс
тэчо
тэчом
тэчома
тэчоны
тэчысь
тэчысьяс
тэчысьяслон
тэчысьяслысь
тюксеи
тюмень
тюменьса
тюрк
тюркия
тюркских
тюрнин
тютчев
тянь
тяпорсикт
ті
түөрт
у
уаилд
ув
увдорыс
увлань
увтас
увтасъяс
увтасын
увтыр
увтырын
увъяс
увъясысь
уганда
угандаын
угарит
углеводородн
угоддь
угор
угорская
угорские
угорскии
угорских
угорского
угорскои
угров
угровед
угроведение
угроведов
угрозои
угту
ударник
удж
уджавлома
уджавломаось
уджавліс
уджавлісны
уджавны
уджал
уджалан
уджало
уджалом
уджалома
уджаломысь
уджалоны
уджалысь
уджалысьон
уджалысьяс
уджалысьясл
уджалысьяслон
уджалысьяслы
уджалысьяслысь
уджалысьясос
уджалыштома
уджалігон
уджаліс
уджалісны
уджас
уджвочысь
уджвывса
удждон
удждырся
уджмогъяс
уджо
уджон
уджс
уджсикас
уджсо
уджсьыс
уджтас
уджтаслон
уджтасъяс
уджтасын
уджъертъяскод
уджъертъясыскод
уджъяс
уджъясас
уджъясон
уджъяссо
уджъясын
уджъясыс
уджын
уджыс
уджыслон
уджысь
уджыштома
удивительные
удин
удинскии
удит
удитома
удитіс
удмурт
удмуртия
удмуртияын
удмуртская
удмуртского
удмуртъяс
удмуртъясл
удмуртъяслон
удор
удора
удораса
удоратин
удоратина
удораын
удорса
удорская
удорскии
удэгеи
уег
уезд
уездлон
уезднои
уездо
уездс
уездса
уездъяс
уездъясысь
уездын
уездысь
уж
ужга
ужгаса
ужгаын
уже
узбек
узбекистан
узбекистанса
узбекистанын
узь
узьны
узьтом
уиба
уигур
уилл
уильтин
уильям
уиндермир
уитни
ук
указ
указатель
указон
уква
уквавом
уквавомса
уквавомсаяс
укваса
укваын
уклоняющиися
украин
украина
украинал
украинао
украинаса
украинаын
украинаысь
украинеч
украинечьяс
украинскии
украинско
украинского
украины
ул
ула
улад
улан
улас
улис
улича
уличалы
уличаяс
уличкост
уличпом
улляна
уллянаса
уллянаын
уло
улын
улынджык
улыс
улысас
улысладорыс
улысыс
улысь
уль
ульныров
ульяна
ульяния
ульянов
ульянова
ульяновск
ульяновскии
ульяновскои
уляшев
уляшева
уляшевлон
уляшевъяс
уляшов
уліас
умберто
умбриэль
умер
умерла
умун
ун
уна
уналаті
уналаын
уналон
уналы
унаон
унаос
унап
унасикас
унатор
унаысь
унгардлон
унджык
унджыкон
унджыксо
унджыкыс
унджыкыслон
унджыкысьс
унелма
университет
университета
университетлон
университетлысь
университето
университетса
университетъяслон
университетъясын
университетын
университетысь
унтер
уон
уотсон
уппсаласа
управа
управление
управлениеын
управления
управленньоса
управленньоын
управляюшои
упражнениеяс
упри
ур
урадник
урал
урала
уралл
урало
уралса
уралын
уральского
уральскои
уран
урана
уране
уранлон
уранодз
урась
урасьом
урду
уржум
уркаи
уркаияс
урлон
урнышевская
уро
урожаи
урожаиыс
урожаияс
уроженец
уроженца
уроки
урокъяс
урон
уругваи
урчит
урчитом
уръель
уръяс
ус
уса
усадьба
усачев
усва
усвавом
усвавомса
усвадор
уси
усинск
усинскса
усины
усис
усисны
ускар
ускародз
условиеяс
услугаяс
услуги
усогорск
успенньо
устав
установка
установлении
устнои
устроиство
усть
устье
устюг
усь
уськ
уськодо
уськодчывло
уськодчывлоны
усьл
усьласьны
усьо
усьом
усьома
усьомаяслы
усьоны
усьысь
усян
усянінын
утка
уткасо
уткаыс
уткаыслон
уткаяс
уткаясыс
утога
утро
уу
уумманнак
уфаын
ухо
ухта
ухтаса
ухтаын
ухтинец
ухты
участковои
участок
участокын
учеб
учебник
учебника
учебники
учебникъяс
учебникъясо
учебно
учебное
учебнои
учебные
учебных
учен
учение
ученого
ученои
ученые
ученыи
учет
училишеын
училишо
училишолон
училишоо
училишоын
училишоысь
училишоясын
училище
училищео
училищеын
училищо
учитель
учительскои
учительяс
учительяслы
учителю
учителя
учпедгиз
учреждение
учреждениеяс
учреждениеяслы
учреждении
учреждения
ушаков
ушел
ушла
уэльс
уэльсын
уэсли
уял
уялан
уяло
уялысь
ф
фабио
фабрика
фадеев
фазанъяс
фаил
факелон
факс
факто
фактов
факты
факультет
факультето
факультетса
факультетын
факультетысь
фалалеевич
фамилии
фанатъяс
фанера
фап
фарер
фарерских
фарси
фасо
фасоын
феба
февр
февраль
февраля
федерал
федеральн
федерального
федеральнои
федератив
федеративнои
федерации
федерация
федерациял
федерацияса
федерацияысь
федина
федор
федоров
федорова
федорович
федоровлон
федоровлы
федоровна
федоровои
федосеев
федотов
федотович
федюнева
федя
фекла
фельдшер
фельдшераліс
фельдшерон
фельдшерско
фельдшерскои
фельетон
фельетонист
фельетонъяс
фенно
феодал
феоктиста
феория
фергана
фердинанд
ференц
ферма
фермер
фермерлон
фернандес
фестиваль
фестивальо
фестивальын
фестивальясын
фет
фехтование
фигурноя
фиджи
фиджиискии
физик
физика
физико
физиолог
физиология
физическ
физическои
физкультура
физкультурно
фил
филадельфия
филармония
филармонияын
филатова
филезия
филиал
филиала
филиаллон
филиало
филиалса
филиалын
филиалысь
филина
филипп
филиппин
филиппинъяс
филиппинъясын
филиппов
филиппова
филиппович
филлант
филол
филолог
филологиа
филологиаса
филологии
филологические
филологическии
филологических
филологическои
филология
филологияса
философ
философии
философия
философияса
философск
философскои
фильм
фильмлы
фильмъяс
фин
финал
финалын
финальяс
финансовои
финляндии
финляндия
финляндиялы
финляндияса
финляндияын
финн
финно
финноугория
финнъяс
финнъяслон
финских
финского
финскои
финугор
финъяс
финъяслон
фирма
фк
флегонт
флора
флоренция
флорида
флота
флотлы
флотса
флотын
фмба
фобос
фолкленд
фольклор
фольклора
фольклоре
фольклорист
фольклориста
фольклористика
фольклорлы
фольклорлысь
фольклорно
фольклорнои
фольклоро
фольклорын
фольклорысь
фомин
фон
фонд
фонда
фондлон
фондо
фондын
фонетика
фонетики
фонтан
форкии
форм
форма
формаа
формат
формате
формаын
формаыс
формирование
формировании
формулаясын
формы
форум
форуме
фосфор
фосфоритъяс
фото
фотоальбом
фотогалерея
фотографии
фотография
фотографияяс
фотомодель
фр
фразеологическии
фраибургса
франк
франклин
франко
франс
франсович
франсса
франсуз
франсузкод
франц
францискан
франциско
франция
францияса
францияын
француз
французскии
фреизер
фридрих
фриз
фристаил
фролов
фролова
фронт
фронта
фронтлон
фронто
фронтовики
фронтса
фронтъяс
фронтъясын
фронтын
фрукта
фрунзе
фула
фундаментальнои
функция
функцияыс
фунт
фурлан
фурманов
футарк
футбол
футболист
футболса
футболысь
фф
фьордъяс
х
хабариха
хабаровск
хадс
хаиду
хаинд
хакас
халиско
ханкенди
ханои
хансэгум
хант
хантъяс
ханты
характер
характеристика
хард
харон
харута
харьков
хасан
хассания
хассельблатткод
хата
хатанзеискии
хаумеа
хауса
хелимскии
хельер
хельсинки
хельсинкиса
хельсинкиын
хендрик
хештроффер
хииака
химик
химическ
химия
хинди
хиндилань
хирург
хирургия
хирургон
хиыт
хлеб
хмонг
ходон
ходьба
хозяика
хозяинов
хозяинова
хозяиства
хозяиство
хоккеи
хоккеиысь
холдингл
холман
холопов
холопова
холуница
хор
хора
хорват
хорватия
хорватияын
хореография
хорлон
хормеистер
хормеистерон
хоровои
хорон
хорошо
хорунжая
хорын
хоседа
хотя
хохлатая
храм
хранит
хрестоматия
хризобаланус
христиан
христиана
христианскои
хроника
хроники
хуанх
худ
худож
художественн
художественно
художественнои
художественныи
художествоа
художник
худяев
худяков
хуило
хул
хутор
хх
хі
хіх
хіі
ц
цаплин
цар
царе
царевне
царь
цбс
цветами
цветтэз
цезарь
цеилон
цеитлин
целлюлозно
цембер
цембера
цемент
центр
центра
централизованная
центральная
центриздат
центром
церера
церетелилон
церкви
церковно
церковных
церковь
цех
цивилева
цивилизации
цик
цикл
циклон
циклонъяс
цинк
цитата
цитирования
цк
цо
цунху
цхинвал
цц
цывунин
цыпанов
ч
ча
чавкан
чагин
чад
чадоромцева
чадын
чаи
чаика
чаиковскии
чаит
чаитл
чаито
чаитоны
чакма
чал
чаланов
чаланова
чам
чаморро
чан
чапаев
чард
чарла
чарльз
час
часовня
части
часто
частушка
частушкаяс
часть
часын
чача
чачба
чебоксары
чев
чег
чедвик
чекша
чекши
человек
человека
челюскин
челябинск
челядь
челядьдыр
челядьдырииыс
челядьдырся
челядьдырыс
челядькод
челядьл
челядьло
челядьлон
челядьлы
челядьлысь
челядьос
челядьсо
челядьыс
челядьыскод
челядя
чем
чемодан
чемпион
чемпионат
чемпионатъясын
чемпионатын
чемпионка
чемпионон
чен
чеп
чепецк
чер
черань
чераньясос
чердынскои
чердынь
чердін
чередь
через
черемкова
черемковаса
черемуховка
черепанов
чери
чериа
черинянь
черион
черисо
чериыс
черияс
черкес
черкесияын
черлыяса
черненко
чернеть
чернецов
чернов
черногор
черногория
черныб
черныи
черных
чернявскии
черон
честь
четверг
четвергсянь
четири
четыре
четьи
чеусов
чех
чехия
чехов
чеховлон
чехословакия
чечен
чеченскии
чечня
чеччавны
чеччалом
чжуан
чибъю
чиг
чиган
чикыш
чикышъяс
чили
чилимд
чилимдін
чилимдінса
чилиса
чилиын
чим
чими
чимиаворок
чин
чина
чингизидъяс
чинки
чино
чиновник
чиновникъяслысь
чиньяворык
чиніс
чипан
чипас
чипсанон
чирк
чиркъясос
чис
чисталев
чисталева
чисталевкод
чисталевлон
чит
читаев
читаевса
читаевын
читальня
читальняон
чичивичи
чл
член
членъяс
члены
чм
чны
чов
човса
чод
чож
чожмоглон
чожнас
чожон
чожыс
чои
чоииыв
чоисо
чоиыс
чоияс
чол
чолом
чоломалом
чом
чомъясын
чорыд
чорыда
чос
чоскыд
чосмасьны
чосмасьо
чосмасьоны
чосмасянториыс
чоя
чтении
чтения
что
чуб
чув
чуваш
чувашму
чувашскии
чувашского
чувашскои
чувашскому
чувашъяс
чувкос
чувьюров
чувьюрова
чугаев
чугаева
чугра
чуграяс
чугун
чуд
чудо
чудово
чудотвореч
чудь
чуж
чужан
чужанін
чужанінас
чужанінои
чужанінсо
чужанінын
чужи
чужис
чужисны
чужл
чужлом
чужлома
чужо
чужом
чужома
чужомаось
чужомлы
чужомсянь
чужомсяньыс
чужоны
чужт
чуистова
чук
чукарева
чукачои
чукачоиын
чукаыб
чукилев
чукичева
чуклом
чукля
чукор
чукоро
чукорон
чукорса
чукорсо
чукортан
чукортны
чукорто
чукортом
чукортома
чукортоны
чукортчом
чукортчоны
чукортысь
чукортысьяслон
чукортіс
чукортісны
чукоръяс
чукоръясо
чукоръясын
чукорын
чукорыс
чукорысь
чукот
чукотка
чуксало
чуксась
чуксасьоны
чуксасян
чукыръяс
чукыръясыс
чулимске
чума
чуманов
чумбаров
чуня
чупров
чур
чурак
чурвидз
чурвидзысь
чург
чурка
чут
чутъяс
чутъяса
чутъясаось
чутік
чутіка
чушканз
чушканзі
чхаттисгархи
чч
чысь
чышкома
чышъян
ш
шабд
шабді
шаблон
шаг
шадрин
шаит
шаль
шаман
шаманов
шан
шанскии
шань
шаньга
шаньгин
шапка
шар
шарапов
шарапова
шарджыниын
шарипков
шарлуа
шарыб
шатохин
шатун
шах
шахов
шахова
шаховлон
шахсикт
шахта
шахтаров
шахтаын
шахтаясын
шахтер
швед
шведмуын
шведскии
швеицария
швеицарияса
швеицарияын
швеция
швецияса
швецияын
шеболкин
шебырев
шев
шева
шевченколысь
шег
шеги
шегрен
шегъясс
шед
шедо
шедодлома
шедодома
шедодысь
шедодіс
шедом
шедтасъяс
шежам
шеиен
шекспир
шекспирлон
шел
шелепанов
шеллябож
шелтозеро
шенкурск
шеныштом
шеппард
шепта
шергин
шергина
шест
шестаков
шесталов
шестое
шесть
шеф
шешуков
шиликова
шинь
шиофок
ширяев
шиханов
шишкин
шк
шка
шкм
школ
школа
школаас
школалон
школалы
школалысь
школао
школаодзса
школаон
школаса
школасо
школах
школаын
школаыс
школаысь
школаяс
школаяслы
школаясын
школы
школын
школьника
школьниклон
школьных
шлен
шлыгина
шм
шмидт
шмонитан
шмонитана
шмонь
шобд
шобді
шовк
шог
шогман
шожым
шоина
шоинао
шоинаты
шоинатыса
шоинатыын
шоинаын
шоиччан
шоиччыны
шом
шома
шомбургкия
шомгаг
шомс
шомысов
шомысова
шона
шонал
шонд
шондодом
шонді
шондіа
шондібан
шондіои
шонт
шоныд
шоныдджык
шор
шорас
шорвыв
шорин
шоринлон
шоринлы
шориннас
шорино
шоринодз
шоринон
шоринса
шоринъяс
шоринын
шориныс
шоринысь
шориыв
шоркодя
шормудор
шормуса
шорнэмса
шородз
шорполос
шорсаи
шорсикт
шорсиктодз
шорсиктон
шорсиктсянь
шорсянь
шорт
шортуи
шорті
шоръяс
шорын
шоссе
шотл
шотландия
шотландияын
шотландса
шоу
шоуолтер
шоутъярв
шоч
шоча
шочджык
шочджыка
шочиника
шпицберген
шренк
шри
шрифт
шрифтъяс
шрифты
шта
штаблон
штабо
штабса
штабын
штат
штата
штатлон
штато
штатса
штатъяс
штатъяслон
штатъясса
штатъясын
штатын
штво
штвосянь
шти
штип
шу
шуалоны
шуам
шуанног
шуас
шубашкар
шубашкарса
шугнан
шуд
шуда
шудаяг
шудои
шуига
шуигавыв
шуигаладорас
шуигаладорын
шуигун
шуис
шуисны
шуктомов
шукшинлон
шул
шулепов
шулома
шуломаось
шулывлоны
шуліс
шулісны
шуны
шуо
шуом
шуома
шуомаось
шуомон
шуомсо
шуомын
шуоны
шур
шура
шурышкар
шусис
шусь
шусьо
шусьог
шусьогъяс
шусьома
шусьоны
шусьыліс
шусьыны
шусяна
шучалин
шучалина
шучи
шуя
шш
шы
шыал
шыась
шыасяс
шыбит
шыбитчана
шыбитчо
шыбитісны
шыблалом
шыд
шызь
шызьом
шылад
шылада
шыладор
шыладорса
шыладсо
шыладыс
шыладысь
шылон
шыль
шыльыд
шыльыда
шыльыдін
шым
шыодчанкывъяс
шыодчис
шыодчисны
шыодчома
шыодчоны
шыон
шыпас
шыпаскуд
шыпаслы
шыпассо
шыпасъяс
шыпасъяскод
шыпасъясон
шыпасысь
шыпурт
шыр
шыръяс
шыръясон
шыръясос
шыыс
шыяс
шыясон
шыяссо
щ
щербаков
щербакова
щербаковлон
щербаковлысь
щербинина
щипачкин
щит
щугор
щукин
щукинлон
щщ
ъ
ъъ
ы
ыб
ыбса
ыбъяс
ывла
ывлавыв
ывлао
ывлаын
ывлаыс
ыджда
ыджданас
ыдждаыс
ыджыд
ыджыдвиддзын
ыджыдвиддзысь
ыджыдвидз
ыджыдвидзса
ыджыдджык
ыджыдты
ыджыдшор
ыджыдъяг
ыджыдыс
ыджыт
ыж
ыжъяс
ыл
ылд
ылдос
ылдосын
ылнаын
ыло
ылоджык
ылодз
ылосас
ылыдз
ылын
ылынджык
ылыс
ылысса
ылысянь
ылі
ын
ыннэн
ыпъялан
ырг
ыргон
ыркыд
ыркыдджык
ыс
ыст
ыстодъяс
ыстом
ыстома
ыстомаось
ыстоны
ыстіс
ыстісны
ысь
ытва
ытшкыны
ыш
ыштывлоны
ыы
ь
ьь
э
эве
эвен
эвенки
эволюция
эг
эгеи
эдвард
эдлислон
эдуард
эжа
эжва
эжваа
эжваиывса
эжвалон
эжвао
эжваса
эжватас
эжваын
эжвинские
эжов
эжолты
эжор
эжсь
эжъес
эз
эзысь
эзысьысь
эино
эир
эквадор
эквадорын
экватор
экваторса
экз
экзамен
экзаменъяс
экземпляр
экзопланет
экзопланеты
эки
эко
экологическои
экология
экономика
экономикаысь
экономист
экономистон
экономические
экономическои
экран
экспедиция
экспедицияо
экспедицияон
экспедицияын
экспедицияясо
экспедицияясын
эксперимента
экспериментальнои
экспресс
эл
электрон
электронн
электронная
электроннои
электронные
электронныи
электростанция
электростанцияын
электроэнергия
элемент
элеонора
элиас
эллада
эллин
эль
эльбрус
элясисны
элясьом
эм
эмакывлон
эманимл
эмбур
эмбурсо
эмилия
эмось
эму
эн
эналь
энгельс
энергетика
энергетическ
энлы
эновт
эновтны
эновтом
эновтома
эновтоны
эновтчис
эновтчыны
эновтісны
энцелад
энциклопедии
энциклопедист
энциклопедическии
энциклопедия
энциклопедияын
энь
эньлов
эньыс
эньыслон
эньясыс
эп
эпарсе
эпическая
эпическои
эпос
эпоса
эпослон
эпоха
эпохи
эпоху
эр
эра
эраодз
эраса
эраст
эрд
эрда
эрдъяс
эрзя
эри
эрида
эритрея
эритреяын
эрнст
эрса
эсер
эсеръяс
эск
эскимос
эском
эскомлон
эскомо
эскомъяс
эсконы
эскысь
эскысьяс
эсперанто
эст
эстафета
эстафетаын
эстония
эстонияо
эстонияса
эстонияын
эстонскии
эстонско
эстонского
эстраднои
эстъяс
эськ
эсько
эта
этап
этапын
этика
этимологическии
этимология
этническои
этнограф
этнографии
этнографическии
этнографическое
этнографическои
этнография
этнографияысь
этнокультурнои
этнологии
этнология
этнос
этнофутурист
это
этого
этои
этом
этот
этша
этшаджык
эускара
эфиопия
эфиопияса
эфиопияын
эхидна
эхо
эшмес
эшмесса
эшпаи
эшт
эштодом
ээ
ю
юал
юало
юаломъяс
юан
юанон
юантор
юань
юбер
юбилеи
юбилеилы
юбилеинои
юбилею
юван
ювывса
юг
югд
югдін
югдіно
югдінса
югдінын
югдінысь
юго
югов
югор
югославия
югыд
югыдл
югыдладор
югыдлань
югыдтыдор
югыдъяг
югыдыс
югыт
юджин
юдин
юдор
южа
южная
южно
юк
юкагир
юкис
юклом
юкм
юкны
юкод
юкодо
юкодон
юкодса
юкодын
юкома
юкон
юкона
юконас
юконлон
юконо
юконон
юконса
юконсо
юконъяс
юконъясас
юконъяссо
юконъясын
юконъясыс
юконъясысь
юконы
юконын
юконыс
юконысь
юксисны
юксь
юксьо
юктало
юл
юлев
юлиан
юлии
юлиус
юлия
юлон
юль
юманьсикт
юмов
юнеско
юниоръяс
юннань
юность
юнь
юньнань
юо
юор
юоркутод
юортан
юортог
юортома
юорттог
юортіс
юоръяс
юпик
юпитер
юпитерлон
юпитеродз
юр
юра
юралысь
юралысьбердса
юралысьл
юралысьлон
юралысьлысь
юралысьо
юралысьон
юралысьос
юралысьыс
юраліс
юрас
юрган
юрго
юренькаияс
юридическои
юрии
юриндалысь
юрист
юриыв
юркар
юркарныс
юркародз
юркарон
юркарса
юркарсянь
юркаръяс
юркарын
юркарыс
юркин
юркытш
юрла
юрну
юрнуодом
юрнуодома
юрнуодысь
юрнуодысьяс
юрнуодіс
юро
юрон
юрси
юрсикт
юрсиктодз
юрсиктон
юрсиктсянь
юрсипыста
юрсо
юръе
юрыс
юрье
юрьев
юрьевец
юрьевич
юрьевна
юс
юстина
юсь
юсьва
юсьтыдор
юсьяс
юсянь
ют
ютлан
ютпхин
ютыр
ютырлон
ютыро
ютырса
ютырын
юхан
юхнин
юхнина
юхнинлон
юшар
юшкин
юшков
юшкова
юшковлон
юыс
юысь
юю
юяс
юясл
юяслон
юясті
юясын
юясыс
юясысь
я
ябл
яборов
ябыр
ябыръяс
ябырысь
ява
является
являются
яг
яга
ягвыв
ягдор
ягдорсянь
ягель
ягноб
ягыб
ягын
яз
язык
языка
языкам
языках
языке
языки
языков
языкознания
языком
языку
язьва
яи
яисеиысьяс
яисо
яицо
яиыс
як
яков
яковлев
яковлевич
яковлевская
якуб
якуба
якутинская
якутия
якутск
якутском
якша
ям
ямаика
ямал
ямалса
ямл
ян
яна
янв
январ
января
янга
янка
янцзыцзян
яо
яп
япет
япон
япония
япониякод
японияса
японияын
японскии
японско
яран
яранск
яранъяс
яранъяслон
ярасов
ярашъю
ярашъюын
ярега
яренга
яренск
яренскои
яренскса
яренскын
ярко
яркова
ярманга
ярмангаяс
ярослав
ярославль
ярославльса
ярославльын
яръюгыд
яс
ясли
яснецова
ясног
ясовои
ясыда
ясыс
ятка
яфетическои
ячеика
яя
ђ
ђђ
є
єє
ѕ
ѕѕ
і
іі
ііі
ј
ја
је
ју
јј
љ
љљ
њ
њњ
ћ
ћћ
џ
џџ
ѡ
ѡѡ
ѣ
ѣѣ
ѥ
ѥѥ
ѧ
ѧѧ
ѩ
ѩѩ
ѫ
ѫѫ
ѭ
ѭѭ
ѯ
ѯѯ
ѱ
ѱѱ
ѳ
ѳѳ
ѵ
ѵѵ
ѹ
ѻ
ѻѻ
ѽ
ѽѽ
ѿ
ѿѿ
ҁ
ҁҁ
ҋ
ҋҋ
ҍ
ҍҍ
ҏ
ҏҏ
ґ
ґґ
ғ
ғғ
ҕ
ҕҕ
җ
җҗ
ҙ
ҙҙ
қ
ққ
ҝ
ҝҝ
ҟ
ҟҟ
ҡ
ҡҡ
ң
ңң
ҥ
ҥҥ
ҧ
ҧҧ
ҩ
ҩҩ
ҫ
ҫҫ
ҭ
ҭҭ
ү
үш
үү
ұ
ұұ
ҳ
ҳҳ
ҵ
ҵҵ
ҷ
ҷаԝоб
ҷҷ
ҹ
ҹҹ
һ
һһ
ҽ
ҽҽ
ҿ
ҿҿ
ӄ
ӄумыт
ӄӄ
ӆ
ӆӆ
ӈ
ӈопои
ӈӈ
ӊ
ӊӊ
ӌ
ӌӌ
ӎ
ӎӎ
ӏ
ӏӏ
ӕ
ӕӕ
ә
әты
әә
ӡ
ӡӡ
ө
өө
ӷ
ӷӷ
ӻ
ӻӻ
ӽ
ӽӽ
ӿ
ӿӿ
ԁ
ԁԁ
ԃ
ԃԃ
ԅ
ԅԅ
ԇ
ԇԇ
ԉ
ԉԉ
ԋ
ԋԋ
ԍ
ԍԍ
ԏ
ԏԏ
ԑ
ԑԑ
ԓ
ԓԓ
ԕ
ԕԕ
ԗ
ԗԗ
ԙ
ԙԙ
ԛ
ԛԛ
ԝ
ԝԝ
ԟ
ԟԟ
ԡ
ԡԡ
ԣ
ԣԣ
ԥ
ԥԥ
ԧ
ԧԧ
ԩ
ԩԩ
ԫ
ԭ
ԯ
ԯԯ
ա
բ
դ
ե
զ
է
թ
ի
լ
խ
կ
հ
ձ
ղ
մ
յ
ն
ո
պ
ռ
ս
վ
տ
ր
ց
ւ
փ
ք
և
א
או
ב
ג
ד
ה
ו
ז
ח
ט
י
יי
כ
ל
ם
מ
ן
נ
ס
ע
ף
פ
צ
ק
ר
ש
ת
װ
ײ
׳
،
ء
ا
اسلامی
الجمهورية
العربية
ب
ة
ت
ث
ج
ح
خ
د
دوا
دولة
دوه
ذ
ر
ز
س
سنڌي
سوه
ش
ص
ض
ط
ظ
ع
غ
ف
ق
ك
ل
لس
م
ن
ه
و
ى
ي
٠
١
٢
٣
٤
٥
٦
٧
٨
٩
ٲ
ٴ
ٶ
ٹ
ٺ
ٻ
ٻولي
ٽ
پ
ځ
ڃ
څ
چ
ڇ
ڈ
ڊ
ڌ
ڏ
ڑ
ړ
ږ
ژ
ڙ
ښ
ڠ
ڤ
ک
ڪ
گ
ڷ
ں
ڻ
ھ
ہ
ۆ
ۇ
ی
ێ
ې
ے
ە
۰
۱
۲
۳
۴
۵
۶
۷
۸
۹
۽
܂
܄
ܐ
ܒ
ܕ
ܗ
ܘ
ܙ
ܚ
ܛ
ܝ
ܝܢ
ܟ
ܠ
ܡ
ܢ
ܣ
ܥ
ܦ
ܪ
ܫ
ܬ
ݢ
ހ
ރ
އ
ވ
މ
ދ
ގ
ޔ
ޖ
ߊ
ߓ
ߞ
ߡ
ߣ
अ
आ
आठ
आह
इ
ई
उ
ऊ
ए
एक
ऐ
औ
क
ख
ग
घ
ङ
च
छ
ज
झ
ञ
ट
ठ
ड
ढ
ण
त
थ
द
ध
न
प
फ
ब
भ
म
य
र
ल
ळ
व
श
ष
स
ह
।
०
१
१०
२
३
४
५
६
७
८
९
ॿ
অ
আ
ই
এ
ক
খ
গ
ঙ
চ
ছ
জ
ঞ
ট
ড
ণ
ত
থ
দ
দশ
ন
প
ব
ম
য
র
ল
শ
ষ
স
হ
০
১
২
৩
৪
৫
৬
৭
৮
৯
ਜ
ਧ
ਪ
ਬ
ਸ
ગ
જ
ત
ર
ଆ
ଓ
ଡ
அ
க
ங
ச
ட
த
ப
ம
ய
ர
ழ
గ
త
ల
ಕ
ಡ
ಣ
ತ
ನ
ಬ
ಳ
ಸ
ക
ങ
ണ
ത
ബ
മ
യ
ല
ള
സ
අ
එ
ක
ට
ත
ද
න
ප
ය
ර
ල
ව
ශ
ස
හ
ළ
ก
ง
จ
ช
ด
ท
ธ
น
บ
ป
พ
ภ
ม
ย
ร
ล
ว
ศ
ษ
ส
ห
อ
ฯ
า
ำ
เ
แ
ไ
๐
๑
๒
๓
๔
๕
๖
๗
๘
๙
ກ
ນ
ພ
ລ
ວ
ສ
ອ
າ
་
།
༠
༡
༢
༣
༤
༥
༦
༧
༨
༩
ཀ
ཁ
ག
གཅ
གཉ
ང
ཅ
ཉ
ཏ
ཐ
ཐམ
ད
དག
ན
པ
བ
བཅ
བད
བཞ
བར
མ
ཞ
འ
ཡ
ར
ལ
ཤ
ས
က
ခ
င
စ
ဆ
ည
ဋ
တ
ထ
ဒ
န
ပ
ဗ
ဘ
မ
ယ
ရ
လ
ဝ
သ
၀
၁
၂
၃
၄
၅
၆
၇
၈
၉
ၜ
ၵ
ၸ
ၼ
ၽ
ႁ
႐
႑
႒
႓
႔
႕
႖
႗
႘
႙
ა
არა
ბ
გ
დ
და
ე
ენა
ვ
ზ
თ
ი
კ
ლ
მ
ნ
ო
პ
ჟ
რ
რესპუბლიკა
ს
სულიკო
ტ
უ
ფ
ქ
ღ
ყ
შ
შენ
ჩ
ც
ძ
წ
ჭ
ხ
ხარ
ხომ
ჯ
ჰ
ჲ
ᄀ
국
ᄃ
ᄅ
ᄆ
말
민
ᄇ
ᄉ
ᄊ
ᄋ
응
이
ᄌ
ᄒ
한
ᅡ
ᅢ
ᅥ
ᅧ
ᅨ
ᅩ
ᅪ
ᅬ
ᅮ
ᅳ
ᅴ
ᅵ
ᆨ
ᆫ
ᆯ
ᆸ
ᆺ
ᆼ
ᇂ
ሀ
ሁ
ሄ
ለ
ሉ
ሊ
ላ
ል
ሎ
መ
ማ
ም
ሞ
ሥ
ሦ
ረ
ሩ
ሪ
ራ
ሬ
ር
ሰ
ሲ
ሳ
ስ
ቃ
በ
ቡ
ባ
ቤ
ብ
ተ
ት
ኅ
ነ
ኑ
ን
ኖ
ኛ
ኝ
አ
ኢ
ኤ
እ
ከ
ኩ
ክ
ኲ
ኻ
ወ
ዊ
ው
ዓ
ዕ
ዘ
ዝ
የ
ያ
ይ
ዮ
ደ
ዲ
ዳ
ዴ
ድ
ዶ
ጊ
ግ
ጠ
ጵ
ጻ
ፃ
ፊ
ፌ
ፐ
፡
።
ᐃ
ᐅ
ᐊ
ᐍ
ᐎ
ᐏ
ᐣ
ᐦ
ᐧ
ᐯ
ᐱ
ᑎ
ᑐ
ᑕ
ᑦ
ᒃ
ᒧ
ᒪ
ᓀ
ᓂ
ᓄ
ᓈ
ᓐ
ᓕ
ᓗ
ᓪ
ᓯ
ᓱ
ᔑ
ᔭ
ᕉ
ᕐ
ᕕ
ᖁ
ᖃ
ᖅ
ᖏ
ᖓ
ᖕ
ᖽ
ᖿ
ᛦ
ខ
ភ
ម
រ
ស
ᠠ
ᠨ
ᠮ
ᠰ
ᠵ
ᡠ
ᡤ
ᡳ
ᤌ
ᤐ
ᤕ
᥆
᥇
᥈
᥉
᥊
᥋
᥌
᥍
᥎
᥏
ᥑ
ᥒ
ᥖ
ᥨ
ᥬ
ᥭ
ᥰ
ᥳ
ᦅ
ᦑ
ᦟ
ᦹ
ᦺ
ᧄ
ᧈ
ᧉ
᧐
᧑
᧒
᧓
᧔
᧕
᧖
᧗
᧘
᧙
᧚
ᨀ
ᨁ
ᨂ
ᨄ
ᨅ
ᨆ
ᨈ
ᨊ
ᨍ
ᨑ
ᨒ
ᨔ
ᨕ
ᨣ
ᨦ
ᨾ
᪀
᪁
᪂
᪃
᪄
᪅
᪆
᪇
᪈
᪉
᪐
᪑
᪒
᪓
᪔
᪕
᪖
᪗
᪘
᪙
ᬩ
ᬮ
ᬲ
ᮃ
ᮊ
ᮓ
ᮔ
ᮘ
ᮛ
ᮞ
᱐
᱑
᱒
᱓
᱔
᱕
᱖
᱗
᱘
᱙
ᱚ
ᱛ
ᱜ
ᱝ
ᱞ
ᱟ
ᱠ
ᱡ
ᱢ
ᱣ
ᱤ
ᱥ
ᱦ
ᱧ
ᱨ
ᱩ
ᱪ
ᱫ
ᱬ
ᱭ
ᱮ
ᱯ
ᱰ
ᱱ
ᱲ
ᱳ
ᱴ
ᱵ
ᱶ
ᱷ
ᱸ
ᱹ
ᱺ
ᱻ
ᱼ
ᱽ
᱾
᱿
ᴅ
ᴋ
ᴍ
ᴘ
ᴛ
ᵹ
ᵹᵹ
ᵽ
ᵽᵽ
ᶁ
ẜ
ỻ
ỻỻ
ỽ
ỽỽ
ỿ
ỿỿ
‑
–
—
―
‘
’
“
”
„
†
•
…
′
″
ⁿ
№
ⅰ
←
↔
↷
−
③
④
⑦
⟨
⟩
⯲
ⰵ
ⱡ
ⱡⱡ
ⱥ
ⱥⱥ
ⱦ
ⱦⱦ
ⱨ
ⱨⱨ
ⱪ
ⱪⱪ
ⱬ
ⱬⱬ
ⱳ
ⱳⱳ
ⲁ
ⲉ
ⲏ
ⲓ
ⲕ
ⲙ
ⲛ
ⲟ
ⲣ
ⲧ
ⲭ
ⴰ
ⵆ
ⵉ
ⵌ
ⵎ
ⵖ
ⵜ
ⵣ
⺀
⺄
⺆
⺈
⺊
⺌
⺕
⺝
⺸
⺼
⿰
⿱
⿲
⿳
⿴
⿵
⿶
⿷
⿸
⿹
⿺
⿻
〢
ア
ィ
イ
ゥ
オ
カ
ク
コ
サ
シ
タ
ッ
ト
ヌ
ネ
ヒ
ヘ
ホ
マ
ユ
リ
レ
ワ
ン
・
ㅱ
ㅸ
ㅹ
ㅿ
ㆀ
ㆁ
ㆄ
ㆅ
ㆆ
ㆍ
ㆎ
㇁
㇂
㇄
㇇
㇈
㇉
㇓
ㇰ
ㇱ
ㇻ
㐁
㐄
㐅
㐌
㐫
㐬
㐭
㐮
㐱
㑒
㒵
㒸
㒼
㓁
㓞
㔾
㕛
㕣
㖾
㘝
㚅
㚇
㚔
㚘
㝉
㝡
㝴
㝵
㞋
㞢
㞷
㠩
㠭
㠯
㡀
㡭
㡿
㢲
㢴
㣇
㣺
㥯
㪅
㫄
㫐
㫒
㫺
㬅
㬎
㬥
㬰
㲋
㳄
㷠
㸒
㸚
㸦
㼌
㼲
㽞
㿟
䀠
䂞
䍃
䏍
䒑
䖍
䖒
䖝
䖵
䙴
䚻
䜌
䝿
䡛
䧹
䪞
一
丁
丂
七
丄
丅
丆
万
丈
三
上
下
丌
不
与
丏
丐
丑
专
且
丕
世
丘
丙
业
东
丞
丢
丣
两
严
並
丨
丩
个
丫
丬
中
丮
丰
丱
串
丵
丶
丷
丸
丹
为
主
丽
丿
乀
乂
乃
久
乆
乇
么
义
之
乌
乍
乎
乏
乐
乑
乔
乖
乗
乘
乙
乚
乛
乜
九
乞
也
习
乡
乳
乾
亀
亅
了
亇
予
争
事
二
亍
于
亏
亐
云
互
亓
五
井
亘
亚
亜
亞
亟
亠
亡
亢
交
亥
亦
产
亨
亩
享
京
亭
亮
亯
亰
亲
亳
亶
亷
人
亻
亼
亾
仁
今
介
仌
从
仐
仑
仒
仓
仕
他
付
仝
代
令
以
任
企
伊
伏
伐
休
会
伯
但
位
何
佘
余
作
佥
使
來
侈
侌
侖
侯
侵
便
保
俞
信
修
倉
倍
候
倠
備
僉
僕
儿
兀
允
兂
元
兄
充
兆
兇
先
光
兊
克
兌
免
兑
兒
兓
兔
党
兜
兟
入
全
兩
兪
八
公
六
兮
兰
共
关
兵
其
具
典
兹
兼
冀
冂
冃
冄
内
冈
冉
冊
冋
册
再
冎
冏
冐
冒
冓
冖
冗
冘
军
农
冝
冡
冥
冫
冬
冷
几
凡
凢
凵
凶
凷
凸
凹
出
函
凾
刀
刁
刂
刃
刄
刅
分
切
刍
刑
刕
刖
列
刘
则
初
別
利
别
到
制
刺
則
削
剌
前
剡
剽
劉
力
功
加
劦
助
劫
劳
劵
勃
勇
勉
勒
動
務
勞
勤
勹
勺
勻
勾
勿
匀
匂
包
匆
匈
匊
匋
匍
匕
化
北
匚
匝
匡
匪
匱
匸
匹
区
医
匽
匿
區
十
卂
千
卄
卅
卆
升
午
卉
半
卌
华
卑
卒
卓
单
卖
南
卜
卝
卞
占
卡
卢
卣
卤
卦
卩
卪
卬
卯
印
危
即
却
卵
卷
卸
卻
厂
厃
厄
历
厈
厉
厌
厓
厘
厚
原
厤
厥
厨
厭
厲
厶
厷
厸
去
厼
厽
叀
参
參
叅
又
叉
及
友
双
反
叐
发
叒
叔
叕
取
受
叚
叜
叟
口
古
句
另
叩
只
召
可
台
叱
史
右
叵
号
司
叹
吂
各
吅
合
吉
吊
吋
同
名
后
吏
向
吕
君
吝
吞
否
含
启
吳
吴
吹
吾
呂
呆
呈
告
员
呙
周
命
咅
和
咎
咠
咢
咨
咸
咼
哀
品
哉
員
哥
哲
唐
商
啇
問
啚
啬
啻
喃
善
喜
喬
單
喿
嗇
噩
嚴
囊
囗
囘
囙
囚
四
回
囟
因
囧
囬
困
囱
囷
固
国
圂
圅
國
圍
圓
土
圡
圣
圥
在
圭
地
圶
圼
坐
坒
坚
坡
坴
垂
垔
垚
埀
埋
埶
執
基
堂
堅
堆
堇
堯
塞
墨
壘
士
壬
壮
壯
声
壳
壴
壹
壺
壽
夂
处
夅
夆
备
夊
夋
夌
复
夏
夒
夕
外
夗
夘
多
夜
夢
大
夨
天
太
夫
夬
夭
央
失
夲
头
夷
夸
夹
夻
夾
奂
奄
奇
奈
奉
奎
奏
奐
契
奓
奔
奚
奞
奠
奢
奥
奭
女
奴
奻
好
如
妄
妙
妟
妥
妻
妾
姑
委
姜
威
娄
婁
婴
嬰
嬴
子
孑
孔
孕
孖
字
存
孚
孛
孝
孟
季
孤
学
孫
孱
學
宀
宁
宂
它
宅
宇
守
安
宋
完
宏
宓
宗
官
定
宛
宜
宝
客
宣
室
宮
宰
害
家
容
宾
宿
寄
寅
密
富
寒
察
寧
審
寫
寬
寮
寸
对
寺
寻
寽
対
寿
封
尃
射
将
將
專
尉
尊
尋
尌
對
小
少
尒
尓
尔
尖
尗
尚
尞
尢
尣
尤
尧
尨
尭
就
尸
尹
尺
尻
尼
尽
尾
尿
局
居
屈
屋
屎
屏
屑
展
屖
屚
属
屠
屡
屬
屮
屯
屰
山
屵
屾
岁
岂
岑
岡
岩
岳
岸
峯
島
崇
崑
崔
崖
崙
崩
嵬
嶲
巂
巛
川
州
巟
巠
巢
巤
工
左
巧
巨
巩
巫
差
己
已
巳
巴
巷
巸
巽
巾
巿
帀
市
布
希
帚
帛
帝
带
師
席
帶
常
干
平
年
幵
并
幷
幸
幺
幻
幼
幽
幾
广
広
庄
床
底
店
庚
府
度
庫
庭
庶
康
庸
廉
廌
廛
廣
廩
廴
延
廷
建
廾
廿
开
弁
弃
弄
弇
弋
式
弓
弔
引
弗
弘
弜
弟
弥
弦
弱
張
強
强
彊
彌
彎
彐
彑
当
彔
录
彖
彗
彡
形
彥
彦
彧
彭
彳
役
彼
往
待
律
徒
得
徙
從
復
微
徵
心
忄
必
忌
忍
志
忝
忠
忩
快
念
忽
忿
思
怠
急
怱
恆
恒
恩
恭
息
悉
患
悤
悲
悶
惠
惡
惢
愁
愈
意
愛
感
慈
慧
慮
憂
憲
應
戀
戈
戉
戊
戋
戌
戍
戎
成
我
戒
戔
或
戚
戠
戢
截
戲
戶
户
戹
戼
戾
房
所
扁
扇
手
扌
才
打
托
执
承
折
拉
拜
拿
掌
推
提
摩
支
攴
攵
收
攸
改
放
政
敄
敏
敕
敖
敗
敝
敞
敢
散
敦
敫
敬
数
敷
數
斂
文
斉
斊
斗
斤
斥
斩
斬
斯
新
方
於
施
斿
旁
旋
族
无
旡
既
旣
日
旦
旧
旨
早
旬
旱
旲
时
旾
昆
昇
昌
昍
明
昏
易
昔
昗
昜
星
春
昬
是
昱
昴
昷
時
晃
晋
晏
普
景
晶
智
暑
暴
曇
曩
曰
曲
曳
更
曷
書
曹
曼
曾
替
最
朁
會
月
有
朋
服
朔
朕
朗
望
朝
木
朩
未
末
本
札
朮
术
朱
朵
朶
朿
杀
杏
杜
束
条
来
東
杲
杳
松
析
林
枚
果
枝
枲
枼
某
柔
查
柬
柰
柴
栗
桀
桑
桼
梁
條
梟
梨
棘
棠
棥
森
楚
業
楽
榮
樂
樊
欠
次
欣
欮
欲
欶
欽
款
歆
歇
歛
止
正
此
步
武
歨
歪
歮
歯
歰
歲
歴
歷
歸
歹
歺
死
殳
段
殷
殸
殹
殺
殻
殿
毋
毌
母
每
毒
比
毕
毚
毛
毳
氏
氐
民
气
氣
水
氵
氶
氷
永
氺
氾
求
汉
汝
汞
江
沃
沓
沙
沝
泉
法
波
泣
泥
泰
洛
洪
活
派
流
浦
浪
浮
海
淡
淮
清
渚
渠
湯
滿
漢
漸
火
灬
灭
灰
灵
灷
炅
炎
炏
炗
炙
炭
為
烈
烏
烝
焉
無
焦
焱
然
煞
熊
熏
燕
營
燮
爪
爫
爭
爯
爰
爱
爲
爵
父
爻
爽
爾
爿
片
牙
牚
牛
牜
牟
牢
牧
牪
牽
犀
犬
犭
犮
狂
狄
狊
独
狺
猋
猒
猪
献
獻
玄
率
玉
王
玟
玨
珎
班
琴
瑟
瑩
瓜
瓦
甘
甚
生
産
用
甫
甬
田
由
甲
申
电
甶
男
甸
甹
画
甾
畀
界
畏
畐
留
畜
畟
畢
畧
畨
番
畫
異
畱
當
畺
畾
疊
疋
疌
疑
疒
疾
癶
癸
癹
登
發
白
百
皀
皃
的
皆
皇
皋
皐
皕
皮
皷
皿
盃
盆
盇
盈
益
盍
盎
监
盒
盖
盛
盡
監
盤
盧
目
直
相
盾
省
眇
眉
看
眔
眞
真
眷
眼
眾
着
睘
睪
睿
瞏
瞢
瞿
矍
矛
矞
矢
矣
知
矦
短
石
破
碎
磊
磨
示
礻
礼
祟
票
祭
禀
禁
禸
禹
禺
离
禽
禾
禿
秀
秃
秉
秋
科
秝
秦
移
稟
穀
穌
穴
究
穹
空
穿
突
窄
窒
立
竒
竜
竝
竟
章
童
竹
笑
笠
筆
等
答
箕
算
箴
節
篤
篭
米
粉
粛
粟
粤
粦
粲
粵
糞
糸
糹
系
約
納
素
索
紫
累
細
絜
絫
絲
維
綿
縣
繇
纍
纟
缶
网
罒
罔
罕
罗
罙
罡
罢
罪
署
罷
羅
羊
羌
羍
美
羔
羕
羗
羞
羡
羣
群
義
羲
羸
羽
翁
翏
習
翕
翟
翠
翼
老
耂
考
者
耆
而
耎
耑
耒
耳
耴
耶
耷
聂
聊
联
聖
聚
聶
聿
肀
肃
肅
肉
肖
肙
肥
肩
肯
育
肴
胃
背
胡
胥
能
脊
脩
膚
臣
臤
臧
自
臬
臭
臯
臱
至
致
臺
臼
臽
臾
臿
舀
舂
舄
與
興
舉
舌
舍
舛
舜
舞
舟
般
艮
良
色
艸
艹
艾
芒
芔
芬
芮
花
芳
芺
芻
苔
苗
苟
若
苦
英
茶
茸
荅
草
荒
荣
荼
莆
莧
莫
莽
菆
菊
菐
華
萬
落
葉
著
葛
董
葵
蒙
蒦
蒼
蓋
蓬
蓺
蔑
蔡
蕉
蕭
薄
薛
薦
薰
藍
藏
藥
蘭
虍
虎
虐
虒
虔
處
虖
虗
虘
虚
虛
虜
虞
虫
虽
蚤
蚩
蜀
蜜
蟲
蠡
血
行
衍
衛
衣
衤
表
衮
衰
袁
袞
褭
褱
襄
襾
西
覀
要
覃
見
規
覓
覧
親
覽
见
角
解
言
訁
訇
計
話
詹
語
誩
諸
讠
话
语
谷
豆
豈
豊
豐
豕
豖
豙
象
豦
豩
豪
豸
貇
貝
貞
貟
負
貢
貧
貪
貫
責
貳
貴
買
費
賁
資
賈
賏
賓
賔
賛
賞
賢
賣
質
賴
贊
贝
贡
责
贯
贲
贵
赖
赞
赤
赦
走
越
足
路
蹇
身
躬
車
軍
軎
軟
輦
车
辛
辜
辟
辥
辰
辱
農
辵
辶
边
达
过
近
连
迷
追
退
送
逆
逐
通
速
造
逢
連
逮
進
遀
遂
過
道
達
遣
適
遷
遺
邊
邑
邕
那
邦
邪
郎
部
郭
都
鄉
酉
酋
配
酓
釆
采
里
重
野
量
金
釒
錢
钅
長
镸
长
門
閃
閉
開
閏
閑
閒
間
閔
閵
閻
闌
门
间
闷
阑
阜
阝
阿
降
陳
隆
隊
隋
隡
隨
隱
隶
隹
隺
隻
隼
隽
难
雀
雁
集
雈
雋
雍
雐
雔
雙
雚
雜
雝
離
難
雨
雩
雪
雲
零
雷
需
霍
霜
霝
霞
霸
靈
靑
青
非
靡
面
靣
革
韋
韓
韦
韭
韯
韱
音
頁
頃
項
須
頗
頡
頻
顛
页
風
风
飛
飞
食
飠
養
饣
首
香
馬
馮
駦
马
骨
高
髟
鬥
鬯
鬲
鬼
魚
魯
鮮
鱼
鲁
鳥
鳳
鸟
鹵
鹿
麃
麗
麥
麦
麻
黃
黄
黍
黎
黑
黒
黨
黹
黽
黾
鼎
鼓
鼠
鼻
齊
齋
齐
齒
齿
龍
龙
龜
龟
龠
龰
龱
龴
龵
龶
龷
龸
龹
ꁱ
ꂷ
ꃘ
ꆇ
ꆈ
ꇖ
ꈬ
ꉆ
ꉙ
ꉬ
ꊰ
ꋍ
ꌕ
ꌠ
ꏃ
ꑍ
꒿
ꓐ
ꓑ
ꓒ
ꓓ
ꓔ
ꓕ
ꓖ
ꓗ
ꓘ
ꓙ
ꓚ
ꓛ
ꓜ
ꓝ
ꓞ
ꓟ
ꓠ
ꓡ
ꓢ
ꓣ
ꓤ
ꓥ
ꓦ
ꓧ
ꓨ
ꓩ
ꓪ
ꓫ
ꓬ
ꓭ
ꓮ
ꓯ
ꓰ
ꓱ
ꓲ
ꓳ
ꓴ
ꓵ
ꓶ
ꓷ
ꓸ
ꓹ
ꓺ
ꓻ
ꓼ
ꓽ
꓾
꓿
ꙁ
ꙃ
ꙅ
ꙇ
ꙇꙇ
ꙉ
ꙉꙉ
ꙋ
ꙋꙋ
ꙍ
ꙍꙍ
ꙏ
ꙏꙏ
ꙑ
ꙓ
ꙓꙓ
ꙕ
ꙕꙕ
ꙗ
ꙗꙗ
ꙟ
ꙟꙟ
ꙡ
ꙡꙡ
ꙣ
ꙣꙣ
ꙥ
ꙥꙥ
ꙧ
ꙧꙧ
ꙩ
ꙩꙩ
ꙫ
ꙫꙫ
ꙭ
ꙭꙭ
ꙮ
ꚁ
ꚁꚁ
ꚃ
ꚃꚃ
ꚅ
ꚅꚅ
ꚇ
ꚇꚇ
ꚉ
ꚉꚉ
ꚋ
ꚋꚋ
ꚍ
ꚍꚍ
ꚏ
ꚏꚏ
ꚑ
ꚑꚑ
ꚓ
ꚓꚓ
ꚕ
ꚕꚕ
ꚗ
ꚗꚗ
ꚙ
ꚙꚙ
ꚛ
ꚛꚛ
ꜣ
ꜣꜣ
ꜥ
ꜥꜥ
ꜧ
ꜧꜧ
ꜩ
ꜩꜩ
ꜫ
ꜫꜫ
ꜭ
ꜭꜭ
ꜯ
ꜯꜯ
ꜰ
ꜱ
ꜳ
ꜳꜳ
ꜵ
ꜵꜵ
ꜷ
ꜷꜷ
ꜹ
ꜹꜹ
ꜻ
ꜻꜻ
ꜽ
ꜽꜽ
ꝇ
ꝇꝇ
ꝍ
ꝍꝍ
ꝏ
ꝏꝏ
ꝛ
ꝛꝛ
ꝡ
ꝡꝡ
ꝣ
ꝣꝣ
ꝩ
ꝩꝩ
ꝺ
ꝺꝺ
ꝼ
ꝼꝼ
ꝿ
ꝿꝿ
ꞁ
ꞁꞁ
ꞃ
ꞃꞃ
ꞅ
ꞅꞅ
ꞇ
ꞇꞇ
꞊
ꞌ
ꞌꞌ
ꞑ
ꞑꞑ
ꞓ
ꞓꞓ
ꞗ
ꞗꞗ
ꞡ
ꞡꞡ
ꞣ
ꞣꞣ
ꞥ
ꞥꞥ
ꞧ
ꞧꞧ
ꞩ
ꞩꞩ
ꢜ
ꢬ
ꢰ
ꢱ
꣐
꣑
꣒
꣓
꣔
꣕
꣖
꣗
꣘
꣙
ꦏ
ꦕ
ꦗ
ꦤ
ꦧ
ꦫ
ꦮ
ꦱ
ꦲ
꧇
꧐
꧑
꧒
꧓
꧔
꧕
꧖
꧗
꧘
꧙
ꪀ
ꪒ
ꪕ
ꪺ
ꫀ
ꫂ
ꫠ
ꫡ
ꫢ
ꫣ
ꫤ
ꫥ
ꫦ
ꫧ
ꫨ
ꫩ
ꫪ
꫰
꫱
ꫲ
ꫳ
ꫴ
ꭲ
ꭶ
ꭹ
ꭺ
ꭼ
ꭿ
ꮃ
ꮅ
ꮑ
ꮒ
ꮕ
ꮙ
ꮚ
ꮜ
ꮝ
ꮠ
ꮡ
ꮣ
ꮤ
ꮧ
ꮳ
ꮶ
ꮷ
ꮼ
ꯀ
ꯁ
ꯂ
ꯃ
ꯄ
ꯅ
ꯆ
ꯇ
ꯇꯔ
ꯈ
ꯉ
ꯊ
ꯋ
ꯌ
ꯍ
ꯎ
ꯏ
ꯐ
ꯑ
ꯒ
ꯓ
ꯔ
ꯕ
ꯖ
ꯗ
ꯘ
ꯙ
ꯚ
ꯛ
ꯜ
ꯝ
ꯞ
ꯟ
ꯠ
ꯡ
ꯢ
꯫
꯰
꯱
꯲
꯳
꯴
꯵
꯶
꯷
꯸
꯹
者
艹
ﬓ
ﬔ
ﬕ
ﬖ
ﬗ
ﺗ
ﻠ
ﻩ
ﻴ
？
𐄇
𐄈
𐄉
𐄊
𐄋
𐄌
𐄍
𐄎
𐄏
𐄐
𐄑
𐄒
𐄓
𐄔
𐄕
𐄖
𐄗
𐄘
𐄙
𐄚
𐄛
𐄜
𐄝
𐄞
𐄟
𐄠
𐄡
𐄢
𐄣
𐄤
𐄦
𐄫
𐄬
𐄯
𐅄
𐅅
𐅆
𐅇
𐌀
𐌀𐌅𐌕
𐌁
𐌂
𐌃
𐌄
𐌅
𐌇
𐌉
𐌊
𐌋
𐌌
𐌍
𐌐
𐌓
𐌔
𐌕
𐌕𐌄𐌓𐌄𐌝
𐌖
𐌚
𐌝
𐌝𐌍𐌝𐌌
𐌝𐌔𐌕
𐌞
𐌰
𐌲
𐌳
𐌶
𐌹
𐌺
𐌿
𐍂
𐍃
𐍄
𐍈
𐍉
𐎠
𐎡
𐎢
𐎣
𐎤
𐎥
𐎦
𐎧
𐎨
𐎩
𐎪
𐎫
𐎬
𐎭
𐎮
𐎯
𐎰
𐎱
𐎲
𐎳
𐎴
𐎵
𐎶
𐎷
𐎸
𐎹
𐎺
𐎻
𐎼
𐎽
𐎾
𐎿
𐏀
𐏁
𐏂
𐏃
𐒀
𐒈
𐒋
𐒑
𐒒
𐒕
𐒘
𐒛
𐤁
𐤃
𐤉
𐤊
𐤌
𐤍
𐤏
𐤓
𐬀
𐬁
𐬆
𐬉
𐬌
𐬎
𐬑
𐬗
𐬙
𐬚
𐬛
𐬝
𐬞
𐬠
𐬡
𐬢
𐬥
𐬧
𐬬
𐬭
𐬯
𐬰
𐬱
𐬴
𐬵
𐭀
𐭁
𐭂
𐭃
𐭄
𐭅
𐭆
𐭇
𐭈
𐭉
𐭊
𐭋
𐭌
𐭍
𐭎
𐭏
𐭐
𐭑
𐭒
𐭓
𐭔
𐭕
𐭘
𐭙
𐭚
𐭛
𐭜
𐭠
𐭡
𐭢
𐭣
𐭤
𐭥
𐭦
𐭧
𐭨
𐭩
𐭪
𐭫
𐭬
𐭭
𐭮
𐭯
𐭰
𐭱
𐭲
𑃐
𑃑
𑃒
𑃓
𑃔
𑃕
𑃖
𑃗
𑃘
𑃙
𑃚
𑃛
𑃜
𑃝
𑃞
𑃟
𑃠
𑃡
𑃢
𑃣
𑃤
𑃥
𑃦
𑃧
𑃨
𑃰
𑃱
𑃲
𑃳
𑃴
𑃵
𑃶
𑃷
𑃸
𑃹
𑄃
𑄄
𑄅
𑄆
𑄇
𑄈
𑄉
𑄊
𑄋
𑄌
𑄍
𑄎
𑄏
𑄐
𑄑
𑄒
𑄓
𑄔
𑄕
𑄖
𑄗
𑄘
𑄙
𑄚
𑄛
𑄜
𑄝
𑄞
𑄟
𑄠
𑄡
𑄢
𑄣
𑄤
𑄥
𑄦
𑄶
𑄷
𑄸
𑄹
𑄺
𑄻
𑄼
𑄽
𑄾
𑄿
𑅀
𑅁
𑅂
𑅃
𑋰
𑋱
𑋲
𑋳
𑋴
𑋵
𑋶
𑋷
𑋸
𑋹
𑙐
𑙑
𑙒
𑙓
𑙔
𑙕
𑙖
𑙗
𑙘
𑙙
𖩠
𖩡
𖩢
𖩣
𖩤
𖩥
𖩦
𖩧
𖩨
𖩩
𖫐
𖫑
𖫒
𖫓
𖫔
𖫕
𖫖
𖫗
𖫘
𖫙
𖫚
𖫛
𖫜
𖫝
𖫞
𖫟
𖫠
𖫡
𖫢
𖫣
𖫤
𖫥
𖫦
𖫧
𖫨
𖫩
𖫪
𖫫
𖫬
𖫭
𖫵
𠀁
𠀃
𠀆
𠀉
𠀎
𠀐
𠁁
𠁣
𠂆
𠂇
𠂈
𠂉
𠂊
𠂋
𠂎
𠂒
𠂔
𠂛
𠂡
𠂢
𠂤
𠂬
𠂭
𠂹
𠃊
𠃋
𠃌
𠃍
𠃎
𠃑
𠃓
𠃔
𠃜
𠄌
𠄎
𠄠
𠄢
𠆢
𠆥
𠇍
𠈌
𠌵
𠓜
𠔉
𠔥
𠔼
𠔽
𠔿
𠕀
𠕁
𠕋
𠘧
𠘨
𠙻
𠙼
𠚏
𠚒
𠚤
𠚪
𠣏
𠤎
𠤕
𠥓
𠦄
𠦑
𠦝
𠧒
𠧗
𠧪
𠩺
𠪚
𠫓
𠫔
𠫤
𠬛
𠬝
𠬞
𠬢
𠬤
𠬶
𠮛
𠮦
𠮷
𠯑
𠱠
𠳮
𠷎
𡈼
𡉀
𡉵
𡌥
𡍮
𡏳
𡕒
𡕩
𡕰
𡖅
𡗗
𡗜
𡘆
𡘤
𡦂
𡧱
𡨄
𡨸
𡩧
𡬠
𡭽
𡰣
𡰥
𡰪
𡰯
𡰱
𡷈
𡸁
𡿨
𡿩
𡿪
𡿺
𢀖
𢀛
𢀩
𢁙
𢆉
𢆰
𢆶
𢇁
𢇇
𢉖
𢌬
𢌿
𢏚
𢑑
𢑚
𢖻
𢙣
𢛳
𢦏
𢦒
𢧵
𢼄
𢾕
𣁋
𣄼
𣅀
𣅽
𣍘
𣎳
𣎵
𣏋
𣏼
𣗥
𣥂
𣥖
𣦵
𣦼
𣧄
𣪊
𣪠
𣬉
𣳾
𣶒
𤇾
𤊽
𤐫
𤓰
𤔔
𤕨
𤣩
𤰇
𤰔
𤰞
𤴓
𤴔
𤽄
𥁑
𥁕
𥃦
𥃩
𥃭
𥇡
𥑟
𥘅
𥘈
𥝢
𥫗
𥱡
𦈢
𦉪
𦉬
𦉼
𦍌
𦍒
𦎧
𦐇
𦓔
𦔮
𦘒
𦙃
𦚏
𦣝
𦣞
𦣻
𦥑
𦥔
𦥯
𦨉
𦭝
𦰩
𧆞
𧈧
𧘇
𧰨
𧴪
𧴮
𧵩
𧾷
𨸏
𨾴
𩙿
𩠐
𩫏
𩵋
𪉷
𪜀
𪟽
𪠲
𪩲
𫇦
𫔭
𫜸
𫝀
𫠣
𫠩
𫢉
𫥞
𫩏
𫩠
𫪡
𫲽
𫶧
𬀷
𬐘
𬗌
𬙙
𬛸
𬜯
𬟩
𬯁
𬴘
𬺻
𬼉
𬼖
𭀰
𭁈
𭁨
𭅰
𭑈
𭕄
𭗼
𭤨
𭥫
𭻾
𮅕
𮊿
𮍌
𮍏
𮓗
𮥼
𮧮
廾
𰀁
𰀄
𰀈
𰀉
𰀕
𰀠
𰀡
𰀢
𰀪
𰁜
𰃮
𰆊
𰆘
𰋙
𰕎
𰢴
𰧭
𰯲
0--
000--
01--
1--
122--
2--
3--
4--
44--
46--
5--
50--
52--
54--
56--
58--
6--
60--
63--
66--
68--
7--
71--
72--
73--
76--
79--
8--
80--
82--
85--
87--
88--
89--
9--
91--
92--
93--
98--
99--
a--
aa--
ab--
ac--
acer--
acha--
acicul--
acro--
acum--
acut--
ad--
ada--
aden--
adri--
ae--
aeri--
aest--
af--
ag--
ah--
ai--
aj--
ak--
akad--
al--
albi--
albo--
alex--
all--
aloif--
alterni--
alvd--
am--
ama--
ambr--
ampa--
amph--
ampu--
amygda--
an--
and--
ang--
ani--
anish--
ann--
anom--
anth--
anthro--
anti--
ap--
aphy--
apor--
aq--
ar--
ara--
arach--
arachni--
are--
argen--
arie--
aristul--
ariz--
arizaj--
arje--
art--
arund--
as--
asco--
aspas--
astr--
at--
ater--
atje--
atmosp--
atro--
au--
augu--
auri--
austro--
av--
aw--
awah--
ax--
ay--
az--
b--
ba--
banc--
baph--
barb--
bark--
bart--
bass--
bat--
be--
bear--
bell--
ben--
berg--
berk--
bern--
berr--
bert--
bh--
bi--
bico--
bilo--
bipinn--
bl--
blepha--
blepharo--
bo--
bol--
borr--
bovil--
bowm--
br--
brac--
brachy--
bren--
brev--
brevif--
broa--
brux--
bu--
bucc--
burc--
burk--
burn--
by--
ca--
calc--
cald--
cale--
cali--
call--
calo--
calv--
caly--
calypt--
camb--
came--
camp--
campanul--
campyl--
can--
cap--
car--
cardi--
cass--
cast--
cata--
cato--
cauc--
caud--
cav--
ce--
cera--
cerato--
ch--
cha--
chamae--
character--
che--
chi--
chlo--
chor--
chow--
chri--
chry--
chrysan--
chryso--
chu--
ci--
cili--
cine--
cinq--
circ--
cl--
clad--
clas--
clau--
clav--
clei--
clus--
cneo--
co--
cocc--
coch--
coel--
coll--
colu--
com--
conc--
cond--
condyl--
conf--
confir--
cong--
coni--
conj--
cont--
conv--
conver--
cope--
cord--
cori--
corn--
corr--
corrug--
cory--
corymb--
cosm--
coty--
coul--
cr--
cras--
crassi--
crem--
cres--
crin--
crosso--
cruc--
cryp--
cs--
ct--
cu--
cubi--
cucu--
cucull--
cult--
cune--
cuni--
curt--
curv--
curvif--
cx--
cy--
cyan--
cyathi--
cycl--
cymb--
cyph--
cyrt--
d--
da--
dactyl--
dah--
dan--
dd--
de--
decl--
defi--
defl--
deg--
del--
den--
densi--
dep--
der--
des--
deter--
dh--
di--
diapha--
dic--
dicci--
dicha--
didy--
die--
diff--
dila--
diph--
dipl--
dipt--
dis--
diver--
diversi--
dj--
dm--
dn--
do--
doc--
dod--
dolabri--
dolich--
dors--
dr--
drac--
drei--
drya--
ds--
du--
dua--
dui--
dupe--
dv--
dva--
dw--
dy--
dz--
dzie--
e--
ea--
eb--
ec--
ecalcar--
ed--
ee--
ef--
eg--
egge--
eh--
ei--
ej--
ek--
el--
ela--
elev--
em--
en--
ensi--
ep--
epip--
epis--
er--
erio--
erne--
eryt--
erythr--
es--
espe--
espi--
et--
eu--
euan--
euphor--
eur--
ev--
evan--
ex--
ey--
ez--
f--
fa--
fair--
falc--
falcif--
far--
fe--
feder--
fern--
fest--
fi--
fili--
fimb--
fimbri--
fiss--
fj--
fl--
flab--
flam--
flav--
fo--
for--
fove--
fr--
frag--
fran--
frei--
frut--
fu--
fur--
fusc--
fy--
fø--
ga--
gado--
gale--
gall--
garc--
garr--
gast--
gc--
ge--
gen--
gh--
gi--
gilb--
gill--
gira--
gl--
glabri--
glad--
glob--
glor--
glos--
glosso--
gn--
go--
gold--
gong--
gr--
grac--
gram--
grandi--
greg--
greu--
gu--
guang--
guib--
guil--
guok--
guttul--
gw--
gymn--
gyno--
gyro--
ha--
haemato--
hage--
ham--
hamilto--
hanc--
hand--
hang--
hard--
harl--
harm--
harr--
has--
hat--
he--
hedy--
heli--
helico--
helo--
hene--
henn--
her--
herce--
herrenh--
hi--
hint--
hirsut--
hirt--
hiru--
hisp--
hm--
ho--
hoff--
hol--
horn--
hout--
hu--
hueb--
hugh--
humi--
hut--
hv--
hw--
hy--
hyacin--
hydr--
hype--
hypo--
ia--
ib--
ic--
id--
iden--
ie--
ig--
ii--
ij--
ik--
il--
im--
imbric--
in--
inaequi--
ind--
infl--
initi--
inte--
integr--
inter--
io--
iono--
ip--
ir--
iri--
is--
isch--
ist--
it--
iv--
iw--
iy--
iz--
j--
ja--
jan--
japo--
je--
ji--
jo--
ju--
k--
ka--
kada--
kam--
kan--
kara--
ke--
kene--
kenn--
ker--
kh--
ki--
kiel--
kina--
kl--
kn--
knap--
ko--
kom--
komi--
kon--
kora--
kp--
kr--
ku--
kus--
kv--
kw--
ky--
kyeh--
kı--
kə--
l--
la--
lab--
laca--
lace--
laci--
lact--
lacu--
lam--
lan--
lanceol--
lanci--
las--
lasio--
lati--
laur--
lawr--
laxi--
lc--
le--
lehe--
leio--
lem--
lent--
leopar--
lept--
leuc--
leucop--
li--
libe--
libr--
ligu--
lili--
lin--
liter--
lithop--
ll--
lo--
long--
loph--
lu--
lumb--
luni--
lute--
lw--
lx--
ly--
m--
ma--
mac--
macow--
macro--
mag--
magni--
mai--
mak--
mal--
man--
mar--
mas--
matu--
mau--
maxill--
mb--
mc--
me--
mech--
meg--
megalan--
megan--
mell--
men--
met--
mexi--
mi--
mich--
micr--
microp--
mil--
min--
mira--
mit--
mk--
mo--
moll--
mon--
monte--
mori--
moun--
mp--
mu--
mult--
muri--
mv--
mw--
my--
myrian--
myrt--
n--
na--
naci--
naka--
natural--
nau--
navi--
nd--
ne--
neder--
neku--
nem--
neo--
nep--
ng--
nga--
ni--
nichol--
nie--
nigr--
nj--
nk--
nn--
no--
nor--
north--
not--
ns--
nu--
nubi--
nuci--
nuvl--
ny--
nz--
oa--
ob--
obli--
obov--
obtu--
oc--
occi--
och--
ochro--
od--
odon--
odonto--
odor--
oestlu--
of--
oh--
oi--
ok--
okla--
ol--
omni--
on--
ono--
oo--
op--
ophi--
or--
orbi--
org--
ornith--
orth--
os--
ot--
oto--
ou--
ov--
ovati--
ovda--
ox--
oxyc--
oxyp--
oxys--
oy--
p--
pa--
pach--
pachyp--
pala--
pale--
pall--
palm--
palu--
pamp--
pan--
panduri--
panor--
pap--
papua--
para--
parahy--
pard--
pari--
parl--
pars--
parv--
passi--
pe--
pecu--
pela--
peli--
pell--
pelt--
pen--
perd--
perg--
peri--
perm--
perp--
pet--
pf--
ph--
phal--
phil--
phoe--
phoeni--
phyl--
phyllan--
phyllo--
phys--
pi--
pied--
pini--
pinn--
pl--
plani--
plat--
platyp--
platys--
plecto--
plei--
po--
pocu--
pogo--
poli--
poly--
pomp--
pond--
por--
porri--
pr--
prae--
prav--
pres--
prin--
prit--
pro--
prui--
ps--
pseu--
pseudo--
psycho--
pt--
pter--
pu--
pulv--
pulver--
punc--
puncti--
purd--
purp--
py--
pygm--
pyri--
qa--
qh--
qi--
qo--
qu--
quad--
quadri--
quat--
qui--
quot--
ra--
ramo--
raym--
re--
rec--
ref--
renant--
rep--
res--
rev--
rh--
rhod--
rhom--
rhombi--
rhop--
rhyn--
rhynch--
ri--
rigi--
rio--
rive--
rivu--
rn--
ro--
rond--
ronn--
rosa--
roth--
ru--
rube--
rubi--
rubr--
rump--
rus--
s--
sa--
sab--
sacc--
saco--
sali--
salt--
san--
sar--
sarco--
sauvage--
sc--
scab--
scabri--
scap--
sch--
schoe--
sci--
sclero--
scop--
se--
secu--
sei--
sell--
sep--
ser--
serri--
serru--
ses--
set--
sh--
sha--
shep--
si--
sie--
simm--
simplici--
simu--
sin--
siphono--
sis--
sk--
skand--
skul--
sl--
slov--
sm--
sn--
so--
sol--
soo--
sp--
spat--
spha--
sphaer--
sphaeran--
spic--
spin--
sprach--
squa--
sr--
st--
sta--
stel--
stelid--
sten--
stenoc--
stenog--
stenop--
step--
stepha--
stip--
sto--
stra--
stre--
stri--
strict--
stro--
stru--
su--
sub--
subulif--
sul--
sum--
sur--
sv--
sw--
swa--
sy--
sz--
t--
ta--
tai--
taka--
tall--
tama--
tan--
tara--
tasm--
taur--
tc--
te--
tech--
tele--
temp--
ten--
tenui--
ter--
tess--
testa--
tetr--
tetrap--
th--
tha--
the--
thely--
thom--
thor--
thyrsi--
ti--
tigr--
tin--
tj--
tl--
tm--
to--
tok--
tond--
torr--
tort--
tr--
trac--
trachy--
trans--
tre--
tri--
trich--
trun--
ts--
tshi--
tt--
tu--
tuks--
tuli--
tun--
turb--
turk--
tv--
tw--
ty--
u--
ua--
ub--
ud--
ue--
ug--
uh--
ui--
uk--
ul--
um--
un--
unci--
uni--
up--
ur--
urop--
us--
usamb--
ut--
uu--
ux--
va--
vali--
van--
vati--
ve--
veit--
vel--
vern--
verr--
verruc--
vers--
vertic--
vexi--
vh--
vi--
vict--
vil--
vinc--
vincje--
viri--
viridi--
vit--
vo--
vol--
volun--
vr--
vu--
vulc--
vulg--
vuos--
vy--
w--
wa--
wald--
war--
we--
wens--
wh--
wi--
wilkin--
wo--
woguli--
wotjakis--
wu--
wy--
xa--
xant--
xantho--
xe--
xero--
xeroph--
xi--
xy--
ya--
ye--
yi--
yk--
yo--
yu--
yv--
z--
za--
ze--
zeyl--
zh--
zi--
zo--
zu--
zw--
zy--
zə--
æ--
ð--
þ--
þus--
ǀ--
ǁ--
ǃ--
ɑ--
ɔ--
ɕ--
ɖ--
ə--
ɛ--
ɡ--
ɣ--
ɨ--
ɾ--
ʁ--
ʃ--
ʋ--
ʒ--
ʔ--
αλ--
δ--
ε--
εν--
ι--
μ--
ξ--
ρ--
σ--
τ--
τε--
τρ--
φ--
χ--
ψ--
а--
аа--
аб--
аба--
абу--
ав--
ави--
авиа--
авиац--
авт--
автоб--
аг--
ага--
агл--
агр--
ад--
аз--
аза--
азбу--
ази--
азьла--
аи--
аисбер--
ак--
акк--
акр--
акт--
актив--
акц--
ал--
алек--
алексе--
алл--
аль--
ам--
амба--
аме--
ан--
анде--
анек--
анф--
ань--
апен--
ар--
ара--
арау--
арах--
ариз--
армян--
арх--
архангело--
архи--
арш--
ас--
аст--
асфаль--
асх--
ат--
ау--
аудио--
афр--
ах--
ахар--
ахир--
аэро--
б--
ба--
баб--
бази--
бал--
баль--
баля--
бам--
бан--
бар--
бат--
бать--
бах--
бе--
бед--
без--
безо--
беисб--
бел--
беляв--
бен--
бер--
бес--
бесп--
бессме--
бессозна--
би--
биа--
биби--
библе--
библи--
биг--
бигно--
бит--
бла--
благо--
благов--
благотвор--
бли--
бо--
боб--
бог--
бож--
боз--
бои--
бол--
боло--
бон--
бор--
бори--
борт--
бос--
бр--
бра--
брах--
бре--
бро--
бу--
бук--
бур--
бълга--
бы--
быд--
быдт--
в--
ва--
ваг--
вад--
важ--
ваи--
вал--
ван--
вар--
вах--
вая--
введ--
ве--
вев--
веж--
вел--
вем--
вен--
венла--
вер--
вес--
весе--
вет--
веш--
вз--
взаимоот--
взро--
ви--
вид--
видео--
видз--
виз--
визу--
вики--
вил--
винт--
вир--
вис--
вит--
виш--
виша--
вл--
вм--
вне--
во--
вод--
водз--
водит--
водитч--
воев--
воен--
вож--
воз--
возгл--
вози--
возмож--
возне--
вои--
воина--
вок--
вол--
волог--
воль--
вом--
вониф--
воо--
вор--
ворга--
ворс--
вос--
воспи--
вось--
восьми--
вот--
воча--
вою--
вп--
вранг--
вс--
все--
всь--
ву--
вуж--
вуз--
вуза--
вун--
вурсь--
вы--
выдающ--
выль--
вын--
вынъ--
высо--
вых--
выш--
вь--
г--
га--
габ--
гаг--
гаж--
гажод--
галь--
гам--
ган--
гар--
гарм--
гастр--
гвоз--
ге--
гели--
гель--
ген--
гео--
геоме--
ги--
гиб--
гига--
гигант--
гид--
гидро--
гим--
гин--
гир--
гич--
гл--
гла--
глав--
глу--
гне--
гнез--
гнеи--
го--
гогор--
гож--
гоз--
голи--
голки--
голл--
голуб--
гон--
гонча--
гор--
горд--
горно--
горь--
гос--
госс--
госу--
гр--
гра--
граж--
гре--
гру--
гу--
гуд--
гуман--
гур--
гуся--
гут--
гы--
д--
да--
дав--
дагъ--
даль--
дан--
дань--
дар--
дас--
де--
деб--
дев--
деист--
демон--
ден--
деся--
дет--
дея--
дж--
джа--
дже--
джу--
дз--
дзе--
дзеб--
дзес--
дзорд--
дзум--
ди--
дивер--
дик--
дириж--
дис--
дистрибути--
дифтон--
дм--
дмит--
дне--
до--
доб--
дож--
дозь--
дои--
дол--
долг--
долж--
дон--
дор--
дореволюц--
доро--
др--
дра--
драм--
древ--
древне--
дси--
ду--
дуб--
душ--
ды--
дыр--
дыуу--
дь--
дэ--
дю--
дя--
ді--
е--
ев--
ег--
ед--
един--
еженедель--
ек--
ел--
елфим--
ель--
ен--
енэж--
ер--
ерт--
ес--
естест--
естество--
ефр--
ж--
жан--
жар--
же--
[...]
