!
"
#
##0
##1
##10
##11
##12
##13
##14
##15
##16
##17
##18
##19
##2
##20
##21
##22
##23
##24
##25
##26
##27
##28
##29
##3
##30
##31
##32
##33
##34
##35
##36
##37
##38
##39
##4
##40
##41
##42
##43
##44
##45
##46
##47
##48
##49
##5
##50
##51
##52
##53
##54
##55
##56
##57
##58
##59
##6
##60
##61
##62
##63
##64
##65
##66
##67
##68
##69
##7
##70
##71
##72
##73
##74
##75
##76
##77
##78
##79
##8
##80
##81
##82
##83
##84
##85
##86
##87
##88
##89
##9
##90
##91
##92
##93
##94
##95
##96
##97
##98
##99
$
%
&
'
(
)
*
+
,
-
.
/
0
00
000
0000
00027
001
002
003
01
02
03
030
04
048
049
05
050
0535
0554
06
0617
062
07
08
09
090
1
10
100
1000
10000
100000
1000000
10000000
1000000000
1001
101
102
102398
103
104
1048
105
1050
106
107
108
1080
1089
109
11
110
1100
111
112
113
1130
114
115
1150
116
1160
117
118
119
12
120
1200
1202
121
122
123
124
125
126
127
128
129
13
130
1300
131
132
133
134
1340
1341
135
136
137
1375
138
139
14
140
1400
1405
141
1417
142
143
1433
144
145
146
147
148
149
15
150
1500
151
152
1529
153
154
1540
1541
1545
155
1550
156
157
158
1582
1585
1586
159
16
160
1600
1608
161
1610
162
1620
1625
1629
163
1630
1638
1639
164
1640
1645
1646
165
166
1668
167
1678
168
1680
169
1699
17
170
1700
1701
1707
1708
171
1710
1711
1712
1719
172
1720
1721
1722
1725
1728
173
1737
174
1745
1747
175
1750
1753
1755
176
1760
1761
1762
1763
1765
1766
1768
1769
177
1770
1771
1772
1775
1777
1779
178
1780
1781
1782
1783
1784
1785
1786
1787
1789
179
1790
1791
1792
1793
1794
1795
1796
1797
1798
1799
18
180
1800
1801
1802
1803
1804
1805
1806
1807
1808
1809
181
1810
1811
1812
1813
1814
1815
1816
1817
1818
1819
182
1820
1821
1822
1823
1824
1825
1826
1827
1828
1829
183
1830
1831
1832
1833
1834
1835
1836
1837
1838
1839
184
1840
1841
1842
1843
1844
1845
1846
1847
1848
1849
185
1850
1851
1852
1853
1854
1855
1856
1857
1858
1859
186
1860
1861
1862
1863
1864
1865
1866
1867
1868
1869
187
1870
1871
1872
1873
1874
1875
1876
1877
1878
1879
188
1880
1881
1882
1883
1884
1885
1886
1887
1888
1889
189
1890
1891
1892
1893
1894
1895
1896
1897
1898
1899
19
190
1900
1901
1902
1903
1904
1905
1906
1907
1908
1909
191
1910
1911
1912
1913
1914
1915
1916
1917
1918
1919
192
1920
1921
1922
1923
1924
1925
1926
1927
1928
1929
193
1930
1931
1932
1933
1934
1935
1936
1937
1938
1939
194
1940
1941
1942
1943
1944
1945
1946
1947
1948
1949
195
1950
1951
1952
1953
1954
1955
1956
1957
1958
1959
196
1960
1961
1962
1963
1964
1965
1966
1967
1968
1969
197
1970
1971
1972
1973
1974
1975
1976
1977
1978
1979
198
1980
1981
1982
1983
1984
1985
1986
1987
1988
1989
199
1990
1991
1992
1993
1994
1995
1996
1997
1998
1999
2
20
200
2000
20000
2000000
2001
2002
2003
2004
2005
2006
2007
2008
2009
201
2010
2011
2012
2013
2014
2015
2016
2017
2018
2019
202
2020
2021
2022
2023
203
2030
204
205
206
207
208
209
2096
21
210
211
212
213
214
215
216
217
218
219
22
220
221
222
223
224
225
226
227
228
229
23
230
2300
231
232
233
234
235
236
237
238
239
24
240
241
242
243
244
245
246
247
248
2481
249
25
250
25000
251
252
253
254
255
256
257
258
259
26
260
261
262
263
264
265
266
267
268
269
27
270
271
272
273
274
275
276
277
278
279
28
280
2800
281
282
283
284
285
286
287
288
289
29
290
291
292
293
294
295
296
297
298
299
3
30
300
3000
300000
301
302
303
304
305
306
307
308
309
31
310
311
312
313
314
315
316
317
318
319
32
320
321
322
323
324
325
326
327
328
329
33
330
331
332
333
334
335
336
337
338
339
34
340
341
342
343
344
345
346
347
348
349
35
350
351
352
353
354
355
356
357
358
359
36
360
361
362
363
364
365
366
368
369
37
370
371
373
374
375
376
377
378
379
38
380
381
384
385
386
387
39
390
391
394
396
397
399
4
40
400
4000
401
402
403
404
405
406
407
409
41
410
412
413
414
415
416
417
418
42
421
422
423
424
425
427
428
429
43
430
431
432
433
435
438
439
44
440
441
442
443
448
449
45
450
453
454
455
456
457
459
46
460
461
463
464
465
468
47
470
472
473
475
476
478
48
480
481
482
483
484
486
488
4888
489
49
490
491
492
495
496
497
499
5
50
500
5000
504
505
507
509
51
510
511
512
516
52
520
521
525
526
527
528
53
530
53049
531
535
54
541
544
545
55
550
553
555
556
56
560
563
569
57
570
571
575
576
577
58
580
582
584
59
590
592
597
6
60
600
601
605
608
61
614
615
617
62
620
623
624
63
630
637
639
64
640
641
65
650
6500
652
655
656
66
67
670
671
678
679
68
680
683
685
688
69
690
691
694
695
7
70
700
704
70425
708
709
71
717
72
720
721
73
731
736
74
740
75
750
7555
759
76
767
769
77
776
78
780
789
79
7934
8
80
800
8044
809
81
82
8212
825
83
834
839
84
85
850
856
86
8601
87
88
883
89
890
9
90
900
91
910
911
92
921
922
924
93
94
95
950
951
953
95696
958
96
960
961
963
97
978
98
980
98085
99
991
:
;
<
=
>
?
@
\
^
_
`
a
aa
aaa
aaaaaa
aakhmedova
aaronsohnia
ab
abbreviata
abbreviatum
aberrans
ability
able
ablo
ablon
ablona
ablono
about
above
abs
absolute
abstract
abtei
abu
abusefilter
ac
acacallis
acad
academic
academy
acampe
acanthephippium
acaulis
acceptable
accepted
accepting
access
accessible
accordingly
account
accounts
acen
achievements
acht
acianthera
acianthus
acicularis
acineta
ackerman
ackermania
aconitoides
acostaea
acriopsis
acrobat
acrolophia
across
act
acta
acte
action
actions
active
activities
activity
actm
actualdateboundariesproperties
actually
aculeata
acuminata
acuminatum
acuminatus
acutiflora
acutifolia
ad
ada
adac
adah
adam
adams
adans
adansonia
add
added
adding
addition
additional
address
addresses
adds
adenocheilae
adenoncos
admin
administra
administradores
administrateur
administrateurs
administrator
administratoren
administratorer
administratori
administratorlar
administrators
admins
adminship
adrianae
advance
advanced
adventures
ae
aegean
aegirtica
aemula
aerangis
aeranthes
aerial
aerides
aesculapii
af
afaan
afar
affect
affected
affecting
affects
affiliates
affine
affinis
afr
aframomum
africa
african
africana
africano
africanus
afrika
afrikaans
after
afterwards
ag
again
against
aganisia
agathis
age
agenda
aglossorrhyncha
ago
agric
agrostophyllum
ah
aha
ahead
ahref
ai
aiello
ailanthus
ain
ainu
air
airport
ais
aiton
ajania
ak
akan
ako
aku
al
ala
alaska
alaskan
alata
alba
albania
albertiana
albiflora
albopurpurea
album
aldasoro
alemania
alert
alexander
algeria
ali
alibertia
alibertis
aliciae
align
all
alla
alle
alleborgobot
allegro
allen
allenii
allow
allows
allpropertyclaims
almost
along
alongside
alp
alphabet
alphabets
alpina
alpinia
alpinum
alpinus
alps
already
als
also
alstroemeria
alt
alta
altar
altensteinia
although
alticola
altissima
altmıs
alto
altstadt
altı
alvaradoa
always
alwen
am
ama
amabilis
amanensis
amazonica
ambassador
ambassadors
amber
amboinensis
ambon
ambox
ame
amen
amendment
amer
america
american
americana
ames
amesianum
amesiella
amharic
amikeco
aministradori
amitostigma
amk
amministratori
amministraturi
amoena
among
amount
amparoana
amplectens
amsterdam
an
ana
anacamptis
anacardiaceae
anak
analysis
anathallis
anatolica
anceps
ancient
ancipitia
ancistrochilus
ancistrorhynchus
and
anderson
andersson
anderssonii
andreetta
andreettae
andrews
androcorys
android
andy
ane
anexos
anfiteatro
anfracta
anfractum
ang
angela
anggun
angraecopsis
angraecum
anguloa
angustifolia
angustilabia
animated
animation
anke
ann
anna
annae
annamensis
anniversary
annona
announce
announced
announcement
announcements
announcing
annual
anoectochilus
anomala
another
ans
ansellia
ansicht
answer
ant
antennifera
anthoceros
anthrax
anthropophora
anti
antilla
antiochiana
antiope
any
anyone
anything
ao
aon
aore
ap
apg
aphelandra
aphrodite
aphylla
api
apicula
apiculata
apifera
apis
apoda
apollo
apologies
apologize
apostasia
app
appear
appearance
appearances
appeared
appendicula
appendiculata
appendimpl
appendsnaks
applanata
apple
applicable
applicants
application
applications
applied
apply
appreciate
appreciated
approach
approaches
appropriate
approximately
apps
apr
april
apulica
ar
ara
arabian
arabic
arachniformis
arachnis
arachnites
arachnitiformis
arachnitis
aral
aralia
aramaic
araneola
aranifera
araucaria
arba
arbitrary
arbor
arborea
arc
arch
archive
archives
arctic
arcuata
are
area
areas
aren
arenaria
arenas
arenes
arenicola
arfakensis
arg
argentaria
argentina
argolica
args
argsi
argument
arial
aristata
ark
arma
armenia
armeniaca
armenian
army
arn
arnold
aromatica
around
arq
arrange
array
art
arthur
article
articles
articulata
artist
artists
arts
arunachal
arundinacea
arxiv
arz
as
ascendens
ascocenda
ascocentrum
ascoglossum
asia
asian
asiat
ask
asked
asking
asks
aspasia
aspects
aspera
aspidogyne
assam
assamese
assertnotnull
assist
assistance
assisted
associate
associated
association
ast
aster
asteraceae
asteriscus
asteroid
asteroidal
asteroids
astronium
asv
at
ata
athletes
atlantica
atlas
atra
atrata
atropurpurea
atropurpureum
atrorubens
attaviria
attend
attended
attention
attenuata
attica
attingens
atu
atwood
atwoodii
au
aubl
auct
audience
audio
auf
aug
august
aulosepalum
aurantiaca
aurantiacum
aurea
aurelia
aureum
auriculata
aurita
aurora
aurorae
aus
austral
australia
australiensis
australis
austria
author
authors
auto
autocollapse
autofill
automagical
automated
automatic
automatically
autonomous
auxopus
av
available
aver
average
averyanova
aveyronensis
avicennia
avis
avoid
aw
award
awards
aware
awo
ay
aya
aymara
aymoninii
az
azerbaijan
azerbaiya
b
ba
babel
baby
back
background
bad
badi
bahasa
bahi
bahia
bahiensis
bailey
baill
baixos
baker
bal
balance
balanops
balansae
bale
baleares
bali
baljyn
balkan
balsamorhiza
balyim
ban
band
bandar
bank
banks
banksii
banner
bans
bansa
bar
barb
barbae
barbata
barbosella
barcelona
barkeria
barlia
barros
bars
bartholina
bartl
basa
base
based
baseresult
basi
basic
basilika
basiphyllaea
baskervilla
bassel
bat
bataille
bateman
batemannia
bates
bathiei
battandieri
battle
baumann
baumanniana
bay
bb
bbc
be
beach
bear
beatles
because
becc
beccarii
beck
become
bee
beekbergen
been
before
begin
beginners
beginning
begun
behalf
behavior
behind
behrii
bei
beih
being
beinn
beitra
belfort
bell
bella
bellas
bello
bells
beloglottis
belongs
below
belt
bemba
ben
bengal
bengali
benn
bennettii
benth
benthamia
ber
berbif
bergia
bergonii
bergtocht
beringei
berli
berlin
berliner
bertolonii
bertoloniiformis
bes
best
bet
beta
betawiki
better
between
beyond
beyrodtiana
bg
bh
bhatta
bhattacharjee
bhutan
bhutanica
bi
biancae
bianch
bible
bibliographic
bibliography
bibliotecarios
bicalliata
bicallosa
bicarinata
bicolor
bicornis
bicornuta
bicornutum
bidentata
bidupensis
bieb
bifalcis
bifida
biflora
bifolia
bifrenaria
big
bigger
bijdr
billed
billion
biloba
bilong
bilunulata
bin
bingen
binotia
biol
bipinnula
bir
birgit
biscutella
bit
bitstream
biv
bl
black
blackfoot
blair
blanter
blatt
blender
bletia
bletilla
block
blocker
blocks
bloem
blog
blong
blue
blues
blume
bm
bms
bn
bo
board
body
boga
bogor
bogoriensis
boiss
bojer
bol
bold
bolivia
boliviana
boliviensis
bolus
bolusiana
bomarea
bomb
bombyliflora
bonn
bonnet
bonpl
bonplandia
book
bookmark
books
bookseries
bookseriesentity
bookseriesissue
bookseriesvolume
boolean
boom
borbonica
border
borealis
borgir
borhidi
borneensis
borneo
bornm
bornmuelleri
borrowing
bosser
bot
both
botmultichill
bots
botsuana
botswana
bottom
boundaries
bouvardia
box
boxmerge
boy
bprecision
bpy
br
bra
brachiata
brachiatum
brachionidium
brachyceras
brachychiton
brachypeza
brachystele
bracteata
bracteosa
bractescens
brade
bradea
bradei
brahui
branch
brand
brandegee
bras
brasil
brasiliense
brasiliensis
brassavola
brassia
brassii
brazil
brazilian
break
breaking
breda
bremek
brenesia
brenesii
brenneri
breve
brevicaulis
brevifolia
brevilabris
brevipedunculata
brevipes
brevis
bridge
brief
brieger
bright
brighton
bring
brit
britannica
british
broken
bromheadia
broughtonia
brown
browne
brownii
brownleea
browser
browsers
bru
brunnescens
brutia
bryceana
bs
bst
bstructure
btable
bu
buch
buchtienia
buchtienii
budapest
bug
buginese
bugs
build
building
buitenzorg
bulbophylloides
bulbosa
bulgaria
bull
bullock
burg
burm
burns
burseraceae
burundi
bush
business
but
butantan
butcheri
button
buttons
buzau
bvalue
bw
by
byar
byer
byrne
bɔ
c
ca
cache
cached
cadellia
cadetia
caesarea
caespitosa
caffer
cairn
caladenia
calanthe
calanthoides
calatayud
calathea
calcarata
calceolaris
calceolus
calcicola
calculatedage
caldensis
caleana
calendar
california
call
called
calliantha
calling
callitris
calocedrus
calophylla
calopogon
calvin
calypso
calypsus
calyptrochilum
cambridge
cameroon
camilla
campacci
campaign
campanulata
campestris
campos
campylocentrum
campynemanthe
camus
can
canad
canada
canadian
canal
canaliculata
canariensis
canary
candica
candida
candidate
candidates
candidum
cano
canorus
cant
canterbury
canthium
cantonese
cap
cape
capensis
capillaris
capital
capitata
capitol
captcha
caption
car
card
cardinalis
cardiophylla
cards
care
caribbean
caricifolia
carinata
carnea
carnevali
caron
carpathians
carr
carrii
carsonii
caryocar
casa
casasia
case
cases
cast
castillo
castle
castro
casuarina
cat
catalaunica
catalpa
catasetum
cate
catedral
categori
categoria
categorie
categories
category
categorylinkstoentitieswithmissinglabel
categorynameprefix
catentity
catentityid
cathcartii
cathedral
catling
cattleya
catwikibaseerror
caucaea
caucasus
cauda
caudata
caudatus
caularthron
caulescens
caused
cav
cc
ccc
cccccc
ccccff
ccf
cd
cdo
ce
ceb
cebuano
ceeties
celebica
celebration
cell
cells
celtic
cembroides
cemetery
cenisia
cent
center
cento
central
centralbl
centralnotice
centre
centroame
centum
century
cephalanthera
cephalantheropsis
cephalanthus
cephalotes
cerastes
ceratandra
ceratostylis
ceremony
cerina
cernua
certain
cesmeensis
cest
cf
cgi
ch
cha
challenge
cham
chamaecostus
chamaegastrodia
chameleon
chamorro
chan
chance
change
changed
changes
changing
channel
chaos
character
characters
chart
charts
chase
chat
chch
che
check
checktype
cheers
cheeseman
cheilocostus
cheirostylis
chemical
chen
cherokee
chestermanii
chev
cheyenne
chhi
chi
chiapas
chicago
chicken
children
chile
chiloglottis
chilopogon
chiloschista
chimaera
chimeri
chimrie
china
chinensis
chinese
chiron
chloraea
chlorantha
cho
chobe
chocoensis
choice
chondrorhyncha
choose
chopin
chosen
chr
christ
christchurch
christenson
christian
christmas
christoph
christopher
chron
chrysalis
chrysantha
chrysanthemum
chrysanthi
chrysobalanus
chrysocycnis
chrysoglossum
chu
chugach
church
chysis
chytroglossa
ci
cia
cidades
ciliaris
ciliata
ciliatus
ciliolata
cinc
cinnabarina
cinnabarinum
cinque
cio
circa
circle
circumflexa
circumstances
cirrhaea
citakan
citates
citation
citations
cite
citharexylum
cities
citoid
citrina
citrus
citta
city
ciutats
ckbr
cke
ckoerner
claim
claims
claimspropertyid
clandestina
clareae
clarke
classes
classical
clausa
clavata
clavicornis
clavigera
clear
cleisostoma
cleistes
cleistogama
clem
clemensiae
click
clickable
clicking
clifton
climat
clock
cloes
cloesii
clone
cloneoptions
close
clouds
clowesia
clowesii
club
clusia
cluster
cm
cmp
cn
co
coast
coccinea
coccineum
cochinchinensis
cochleanthes
cochlearis
cochleata
cochlioda
cochrane
cocos
code
codemirror
codes
coelia
coeloglossa
coelogyne
coerulea
cogn
coilostylis
coleman
collaboration
collapse
collapsed
colleagues
collect
collected
collection
collections
collina
colombiana
colon
color
colorata
colubrina
columbia
column
columnaris
columns
com
comber
combine
come
comet
comets
comfortable
coming
comm
comma
command
commands
commas
commemo
comment
comments
committee
common
commons
commonscat
commonsmedia
communicate
communication
communities
community
como
comosa
comp
compact
compacta
companion
companions
company
comparative
compare
comparettia
comparison
compat
competition
complaints
complete
completed
completion
complex
composite
comprehensive
compressa
computer
computing
comu
con
concat
conceptual
concerns
concert
concinna
concolor
condorensis
conduct
conference
conferta
config
configuration
confirmed
conflict
conflicts
confusa
congesta
congie
congo
congratulations
congressus
conjugator
conjunction
connata
conopsea
conradiae
cons
consensus
consider
consideration
consistent
consultation
consultations
contact
contacts
contain
contains
content
contentlanguagecode
contents
contest
context
continue
contos
contr
contribs
contribute
contributions
contributors
control
controlled
convallariiforme
conversation
conversational
conversations
convert
convexa
cook
cookie
cooperation
cooperi
coord
coordinate
coordinates
coordinator
copy
copyright
copyto
corallorhiza
cordata
cordem
cordifera
cordifolia
cordigera
cordilabia
core
coreana
coriacea
coriophora
corneliana
cornelius
cornuta
cornutula
coronarium
coronavirus
corps
correa
correct
correll
corresponding
corse
corsia
coryanthes
corybas
corycium
corymborkis
corymbosa
cosmic
cosmos
costaricense
costaricensis
costus
could
council
count
countries
country
countryentity
countryentityid
countryentityorid
countryflags
countryoptions
county
course
cover
covering
covid
cp
crabronifera
craib
crassa
crassicaule
crassicornis
crassifolia
crassilabia
cre
cream
create
created
creating
creation
creative
cree
creek
cremastra
crenata
crenulata
creole
crete
cretensis
cretica
crh
cribb
crimea
crinita
crispa
cristata
cristatum
cristatus
cristo
criteria
critical
croacia
croatia
crocodeilanthe
crocodiliceps
croix
crop
cropped
cross
crossing
cruciforme
cruz
cryptantha
cryptarrhena
cryptocentrum
cryptostylis
cs
css
ctenanthe
ctenolophon
cu
cuatrec
cuba
cubensis
cucullata
cucullatus
cuculus
cuisine
cultural
culture
cultures
cumi
cumma
cuneata
cunninghamii
cup
cupania
curcuma
curranii
current
currententity
currently
cursor
curtisii
cuspidata
cuspidatus
custom
customize
customizing
customtitle
cut
cv
cy
cyanaeorchis
cyanea
cyberbit
cyclochila
cyclopogon
cycnoches
cygnus
cymbidiella
cymbidifolia
cymbidium
cynorkis
cypripedium
cyprus
cyrillic
cyrtopodium
cyrtostylis
czech
cə
d
da
dacrydium
dactylorhiza
dah
dahlem
dahlia
daily
daiss
dakota
dalessandroi
dallol
dalstro
dalstroemii
dame
damselfly
dan
dance
dancers
dances
danesch
daniel
dansk
dar
dark
dart
das
data
database
databases
datatype
datatypes
datavalue
date
dateofcreation
datepart
dates
datesfromqualifier
david
day
days
db
dc
dd
ddd
de
dea
dead
deadline
dear
death
debilis
dec
dece
decem
december
decide
decided
decipiens
decision
decisions
deckinga
declaration
decora
decoration
deduced
deepcopy
default
defaults
define
deg
degruyter
dek
del
delavayi
delete
deleted
deletion
delforge
delhierroi
delicatula
delile
delivered
delivery
della
delphinensis
delta
dem
demo
demonstration
den
dendrobium
dendrochilum
dendrophylax
denis
denny
densa
densiflora
densiflorum
dentata
denticulata
department
dependens
depending
deploy
deployed
deployment
deployments
deprecated
der
des
descent
described
describing
description
descriptions
desde
deset
desf
design
designed
desired
desktop
despoei
det
detail
details
deus
deutsch
deutschland
deva
devanagari
develop
developed
developer
developers
development
device
devices
devillers
dferg
dh
dhe
di
dia
dialect
dialects
dialog
diamonds
dianica
dic
dichaea
dichotoma
dichromanthus
dici
dictionaries
dictionary
did
didactylus
didymoplexis
die
dies
diesel
dietr
diff
difference
different
difficult
diffs
digital
digitata
diin
dil
dilatata
dili
diliff
dim
dimidia
dimocarpus
din
dinamik
dinasoedd
dinka
diodia
diplocaulobium
dipodium
dipterocarpus
direct
direction
directly
disa
disable
disabled
disambiguation
disambiguationspage
disaster
dischorensis
discifera
discoidea
discolor
discovery
discuss
discussion
discussions
disperis
display
displayed
displays
disruption
dissemination
distans
disticha
distichum
distributed
distribution
district
dit
diuris
div
divaricata
diverse
diversity
dix
djvu
dk
dms
dniepr
dniper
dnjepr
do
doc
dockrill
dockrillia
document
documentary
documentation
documents
dod
dodekanensis
dodii
dodson
dodsonii
does
doesn
dog
doi
doing
dolichopus
dollars
dom
domain
dombeya
domingensis
domingoa
dominican
don
dona
donation
donations
done
dong
donn
doritaenopsis
doritis
dos
dot
doteli
double
doulos
down
downie
download
downloadable
dozen
dprecision
dr
dracontia
dracula
draft
drafting
drag
drakaea
drakensberg
draw
draws
dre
dream
dressler
dresslerella
dressleri
dressleria
dri
drone
drop
dropdown
dropped
drumana
drumm
drummondii
dryadum
drymoda
drymophila
dsb
dsc
dsee
dstructure
dtable
du
dua
ducke
duckeella
dudes
due
duet
duha
dui
duisburg
dumort
dunst
dunstervillei
dunstervilleorum
duo
duque
durand
duranta
during
durio
dus
dusenii
dusk
dutch
dutra
dutrae
dva
dvalue
dwa
dyke
dyris
dz
dʒ
dʒa
e
ea
eaba
each
eagle
earina
earlier
early
earth
easier
easily
east
eastern
easy
eat
eau
ebo
ebsco
eburnea
eburneum
ec
echinacea
echinata
echinocarpa
echo
eclipse
econ
ecornuta
ecseri
ecuador
ecuadorense
ed
edentulum
edinburgh
edison
edit
edited
editing
edition
editions
editor
editors
edits
eds
edt
edu
eduardogobi
education
educational
edulis
edvard
edward
edwards
edłoga
edłoha
ee
eeeeff
een
eesti
effect
effects
efficient
effort
effusa
ehem
ehirler
ei
eiffel
eight
ein
einer
either
ej
ek
eka
ekmanii
el
elata
elatine
elatior
elatum
elatus
ele
election
elections
electronic
elegans
elegantula
element
elements
eleonorae
eleorchis
elettaria
elf
elfdalian
eliasii
eligible
elitre
elizabeth
elle
elli
elliptica
ellis
elmeri
elongata
elongatia
elongatum
else
elseif
em
email
emang
emarginata
emaus
emausbot
embreei
emc
emergency
eml
empty
emu
en
enable
enabled
enabling
enclosed
encourage
encouraged
encyclia
encyclopedia
end
endangered
endara
enddates
ende
endi
ending
endl
endres
endresii
ends
enforcement
eng
engage
engagement
engine
engineer
engineering
engl
england
engler
english
engon
enhance
enobarbia
ensure
entities
entity
entityid
entriestolookupcategory
entry
environment
environments
enye
eo
ep
ephemeris
ephippium
epiblastus
epidendrum
epigeneium
epipactis
epipogium
episcopalis
eps
equality
equestris
equinum
er
erecta
erectiflora
eria
ericales
eriochilus
eritrea
erl
ermita
ernst
ernstia
eros
erosa
error
errors
erubescens
eruption
es
esa
escapepattern
escobar
escobariana
escobarii
esmeralda
esocast
espan
espanya
especially
especie
espejo
essential
est
estado
estados
estatal
estonia
estonian
estradae
et
eta
etc
eth
ethiopia
ethnologue
etlingera
etmek
etruscan
eu
eugenia
eugenii
eulophia
eulophiella
eupomatia
eur
europe
european
europeans
euterpe
evaluate
evelyniana
even
event
events
eventually
ever
every
everyone
everything
everywhere
evidence
evolution
ewe
ex
exactly
exaltata
example
examples
excavata
excelsa
except
excited
excude
exigua
exilis
eximia
existent
existing
exoplanets
expand
expanded
expanding
expandspecialsqualifiers
expandtemplate
expansa
expansion
expansions
expect
expected
experience
experienced
experiment
experimental
experiments
explaining
explains
explorer
expo
express
extended
extension
extensions
extensive
external
eye
eylesii
ez
f
fa
fabrei
facade
facebook
facilitating
facts
faint
fairy
falcata
falcatifolium
falcon
falls
false
familia
family
familycolor
fan
faq
far
fargesii
farinosa
farm
farmer
farsi
fasciata
fasciculata
fashion
faster
fastest
fastigiata
fauriei
favorite
fawc
fdc
fe
feature
featured
features
feb
february
federation
feedback
feel
feels
fellow
fellowship
female
feminism
femlabels
fenno
fenua
ferdinandii
ferenc
ferr
ferruginea
ferrum
festival
festivals
fete
few
ff
ffeecc
fff
ffffee
fi
fichead
field
fifa
file
fileexporter
fileimporter
filepath
files
filifolia
filiformis
fill
filled
film
filter
filterbyrank
filtered
fimbriata
fimbriatum
fin
final
finally
find
findings
finds
finet
finished
finisterrae
finnisch
finnish
finno
finugor
fire
firefox
fireworks
firgive
firmament
firmiana
first
fish
fissa
fitzg
fitzgeraldii
fiu
five
fix
fixed
fixing
fj
fjo
fl
flabellata
flabelliformis
flac
flaccida
flag
flagbegindate
flagimage
flagimagestatement
flava
flaveola
flavescens
flavum
fleischm
fleischmannii
fleurs
flexione
flexuosa
flickingeria
flight
float
flokkur
flood
floor
flora
floribunda
florida
flow
flower
flowers
flu
fly
fm
fo
foar
focke
focus
focused
fog
foldats
folders
foliata
foliosa
folk
folklore
follow
following
fon
font
fonts
food
fooentity
footage
footnotes
for
forbes
forbesii
force
fordii
foreign
forest
forget
form
format
formatnum
formatproperty
formatpropertydefault
formatpropertywithmostrecentclaimandindicator
formatrefs
formatsnak
formatstatement
formatstatementdefault
formatted
formattedstatement
formatter
formatting
formdate
formerly
formosa
formosana
formosanus
formula
formulæ
forrester
forrestii
forst
fort
fortress
fortunae
fortunella
forum
forward
foto
found
foundation
fouquieria
four
fowlie
fps
fr
fra
fractiflexa
fragrans
fraktur
frame
frameless
framework
franc
france
franch
francis
francisco
frankfurt
frapp
free
freedom
freezes
freiburg
french
frequently
frey
frhdkazan
fri
frica
friday
friendly
friends
fritillary
fro
frog
from
front
frp
ft
fu
fuchsii
fuciflora
fuente
fukuy
fula
full
fullname
fully
fulva
func
function
functionality
functions
functiontocall
fund
funding
fundraiser
fundraising
funds
funerea
funk
funkiella
fur
further
fusca
fuscata
fusiformis
future
fy
fyrigeva
fæ
g
ga
gabriela
gadget
gadgets
gaertn
gag
gagnep
gala
galanga
galaxy
gale
galeandra
galearis
galeata
galeola
galeotti
galeottiana
galleries
gallery
gamble
game
games
gan
gandhi
gap
garay
garayana
garayi
garcinieae
gard
garden
gardneri
garganica
garo
gart
garten
gas
gastrochilus
gate
gather
gaudich
gawl
gay
gaz
gazeta
gb
gbe
ge
gehrtii
gel
gelaltar
gen
gender
gene
general
generic
geniez
genitivusmonthesnm
genitivusmonthesom
gentium
gentiumalt
gentryi
genyorchis
geo
geobot
geophyte
george
georgia
georgian
gerais
gerardm
gerlach
german
germania
germany
geschichte
get
getboolean
getcategory
getcode
getcontentlanguage
getdate
getentity
getlabel
getlabelwithlang
getparameters
getparent
getparentsinboundariessnakimpl
getpeopleaswikitext
gets
getsingle
getsinglestringqualifiervalue
getsisterprojectlink
getsitelink
getsourcingcircumstances
gettimeboundariesfromqualifier
getting
getuserfunction
gg
gh
ghana
gharakhanyan
ghillanyi
gi
giant
gibbosa
gibbs
gibbsiae
gif
gigantea
gigas
gii
gilli
ginkgo
girl
give
given
gj
gje
gjellerupii
gl
glaberrima
glabra
glaciar
gladioliflora
glandulifera
glanduligera
glandulosa
glauca
gleason
global
globalization
globe
globosa
globosus
glomera
glosa
glossary
glossodia
glumacea
gm
gnd
gnome
gnu
go
goal
goals
god
gode
goes
going
golden
gomesa
gomphichis
gonc
gone
gongora
gonza
good
goodyera
goodyeroides
google
gordonia
gorie
gorilla
gorky
gort
got
gott
goupia
gov
govenia
government
gr
gracile
gracilenta
gracilipes
gracilis
gracillima
gradovi
gradually
graeca
graham
graminea
graminifolia
graminoides
grammar
grammatical
grammatik
grammatophyllum
gran
grand
grande
grandiflora
grandiflorum
grandiflorus
grandifolia
grandis
granitica
grant
granted
grants
granulosa
graphs
grateful
gratiosa
graveolens
gray
graytable
great
greater
greece
greek
green
greenland
greenlandic
greenw
greetings
grekube
gren
griff
griffithii
griseb
gro
group
groups
growth
gruyter
gsater
gsub
gu
guarani
guarantee
guard
guarianthe
guatemala
guatemalensis
gud
guettarda
gui
guiana
guianensis
guide
guidelines
guihaia
guillaumin
guinea
gujarati
gumprechtii
guo
guttata
guyana
gv
gymnadenia
h
ha
habenaria
haberi
hackathon
had
haft
hag
hagsatera
hagsateri
hai
hainan
hainanensis
haiti
haitian
hak
halan
halantul
halconensis
halesia
half
halford
halia
hall
halle
hallier
hallstatt
ham
hamar
hamburg
hamburger
hamelia
hamer
han
hand
handbook
handel
handle
handling
hangout
hannover
hapalorchis
happen
happening
happens
happy
har
harassment
harbour
hard
hartwegii
harv
harvard
harveyana
has
hasadditionalqualifiers
hash
hashim
haslamii
haspreferred
hasselblatt
hasta
hastifera
hat
hatschbachii
haus
hausa
hausdu
hautz
have
haven
having
hawk
hawkes
hayata
hayekii
hd
hdr
he
head
headings
health
hear
heard
heart
hebes
hebrew
hedwig
hedychium
height
heiligengrabe
held
heldreichii
heliconia
helios
helleborine
heller
helleri
hello
help
helped
helper
helping
helps
helsingfors
helsinki
hemipilia
hemsl
henrici
henriquezia
henryi
her
herae
herb
herbst
here
heringeri
heritage
hermans
herminium
heron
herrerae
hertel
herzogii
hespenh
het
heterophylla
hexalectris
hexandra
hexisea
hh
hi
hians
hidden
hide
hidetag
hiern
hieroglyphica
higgins
high
highbeam
highlands
highlight
highlighted
highlighting
highlights
highly
highway
hil
hiligaynon
hill
hills
him
himalaya
himalayas
himantoglossum
hina
hindi
hirsuta
hirta
hirth
hirtz
hirtzii
hirundo
his
hispaniola
hispida
hist
histo
historia
historic
historical
historically
histories
history
hle
hmong
ho
hochr
hochst
hodie
hoehne
hoehnea
hoehnei
hoeijeri
hogei
hohenlohii
hol
holcoglossum
hold
holding
hole
holoserica
holosericea
holothrix
holttum
home
hong
hook
hooker
hookeri
hookeriana
hope
hopefully
hopi
hopper
hortus
host
hostdelimeterposition
hosted
hosting
hoststartposition
hotel
houlletia
hour
hours
house
houtzagers
hover
how
however
hr
hram
hrsg
hs
hsb
ht
htm
html
http
https
hu
huatl
hubb
hubble
hubblecast
huds
hudson
huegelii
hugo
hui
human
humanities
humbertii
humboldt
humilis
hung
hungarian
hungary
hunt
hunting
huntleya
hy
hybrid
hybrida
hygrophila
i
ia
iauc
ic
ice
iceland
icelandic
iceliensis
ich
ico
icon
icona
icons
id
ida
idea
ideal
idealab
ideas
idhlig
idiom
idioma
ie
ien
if
ig
igbo
igi
iglesia
ignea
ignore
igo
iguapensis
ii
iii
ik
ike
iki
ikki
ikuinen
il
ila
ilhas
ill
ille
illyrica
ilo
im
image
imageclaims
imageright
images
imbricata
imdb
img
imitans
immediate
immense
impact
imperialis
implement
implementing
important
imported
impression
impressions
improve
improved
improvement
improvements
improving
imz
in
ina
inaequalis
incarnata
incertae
include
included
includemetatable
includes
including
inclusive
increase
increased
incubacea
ind
indes
index
india
indian
indiana
indic
indica
indigenous
individual
individuals
indo
indonesia
indonesian
ine
ined
inel
inflata
info
infobox
infoboxes
infocardclass
infocardtemplate
inform
information
informationbox
informed
infrastructure
ing
ingramii
inherit
initial
initially
initiative
initpos
inline
innenansicht
innenraum
inodora
inornata
input
insectifera
insert
inserted
inserter
insertfromsnak
inserting
inside
insignis
inspector
inspire
inst
instance
instead
institute
instructions
insularis
inteenau
integra
integrated
intended
interactive
interamnia
interested
interface
interlanguage
interlingua
intermedia
intermedium
internal
international
internationalis
internationalization
internet
interwiki
interwikis
into
intonsa
intricata
introduce
introduction
inuktitut
inversed
inversion
invisible
invitation
invite
invited
inviting
invoke
invoked
involved
io
ios
iota
ip
ipa
ipairs
iphone
ipsea
ipv
ir
ira
iran
irc
ireland
iri
iricolor
iris
is
isa
isabelia
isamaa
isbn
isbns
iscountry
isempty
isfaha
isfemale
isht
isinversed
isla
island
islandia
islands
islas
isn
iso
isochilus
israel
israelitica
isrc
iss
issn
issue
issues
ist
istanbul
istestpage
isunion
it
ita
itaalia
italia
italian
italica
italie
italien
italy
item
items
iti
its
itself
itu
iu
iv
iva
ivanovo
ivx
ix
ixora
iyek
iyo
iz
iza
j
ja
jack
jackson
jacq
jacquinia
jacquiniella
jah
jahrb
jak
jakarta
jalisco
jam
jamaica
jamaicensis
james
jamii
jan
janak
jane
janeiro
january
japan
japanese
japonica
japonicum
jarae
jard
jaruun
java
javanica
javanicum
javascript
jay
jazyk
jbwr
je
jean
jeanes
jeden
jeg
jenny
jesup
jesupii
jesupiorum
jethrobt
jewish
jezik
jh
ji
jin
jini
jj
jo
job
jobs
joe
johan
johann
johanna
johanss
john
johnsonii
johnston
join
jones
jost
jostii
journal
journals
jpg
jpl
jr
js
jst
jstor
ju
juan
jugydmort
jukoff
julian
juliancomment
july
jumellea
jun
june
jupiter
juss
just
juvenile
jv
jɛ
k
ka
kaa
kab
kabyle
kad
kadavoor
kaempferia
kaheksan
kai
kaiyr
kaj
kaks
kaksikymmenta
kakskymment
kala
kalaallisut
kalliope
kam
kami
kan
kaniensis
kanuri
kapampangan
karcher
kareniae
karjala
karjalan
karst
kasahorow
kashan
kastanje
katangensis
katego
kategooria
kategori
kategoria
kategorie
kategorija
kategorio
kategoriya
kategorya
kateguore
kateqoriya
kath
kathedrale
katiguriya
kato
kau
kaupungit
kautskyi
kb
ke
keay
keck
keegan
keek
keep
keeping
kefermarkt
kegeliella
kegelii
kei
kel
keller
kept
ker
kernow
kerrii
ket
keteleeria
kew
key
keyboard
kg
kh
kha
khasi
khat
khkh
khuzdul
ki
kiel
kievica
kii
kildin
kim
kinabaluensis
kind
kindly
king
kingdom
kingfisher
kingiella
kingii
kinyarwanda
kirche
kirchspiel
kiribati
kirkii
kirundi
kit
kittr
kk
klad
kleinii
kleopatra
kloster
klotzsch
km
kmaq
kmeria
kn
know
knowledge
knowles
known
ko
koch
koellensteinia
koelreuteria
koi
kok
kola
kom
komi
komiinform
komimu
komionline
komisc
kong
konrad
koord
kopenhagen
koptische
kore
korea
korean
kores
kornick
korth
kosack
kosta
kota
kotschyi
kp
kpe
kr
kra
kraenzl
kraenzlinella
kraju
krameri
krause
kremlin
kreodanthus
kretzschmar
kreutz
krio
kruger
ks
ksh
kte
ku
kua
kuhlhasseltia
kui
kulom
kumar
kun
kuni
kunst
kunstleri
kunth
kuntze
kuratov
kurdish
kurz
kus
kuu
kuusi
kv
kw
kwangsiensis
kwazulu
kwe
ky
kyoto
l
la
lab
label
labeled
labels
labiata
labill
lacaena
lacerda
laciniata
lactea
lad
ladino
laelia
laeta
laevigata
laevis
lagerstroemia
lago
laguna
lai
lake
lakota
lam
lamb
lamellata
lamiales
lan
lanata
lanceana
lanceolata
lancifolia
lancilabris
lancipetala
land
landing
landschaftspark
lang
langcode
langentity
langentityid
langit
language
languagegeek
languages
langue
lankesteri
lantz
laos
lapponica
lapse
large
larger
largest
larsen
las
lasioglossa
lasiorhiza
last
lasts
lat
latakiana
late
later
latest
latex
latifolia
latifolium
latilabris
latin
latino
latipetala
lauara
laubenfels
launch
launched
laura
laurensis
laurifolia
lauterbach
lav
law
laxa
laxiflora
layardii
lb
lbe
le
lea
lead
leaders
leading
leaf
leafl
learn
learned
learning
least
leave
leaving
lebanon
lecanorchis
led
ledermannii
left
legacy
legal
legend
leh
lehm
lehmanniana
lehmannii
leiden
lem
len
length
lengua
lenu
leo
leochilus
lepanthes
lepanthopsis
lepida
lepo
leptotes
ler
leroy
les
less
lesser
lessons
let
lets
letter
letters
leucantha
leuconeura
level
lewis
lex
lexical
lexicon
leyte
leytensis
lez
lf
lg
li
lia
liaison
libocedrus
library
libraryutil
lica
licania
license
lichen
lies
life
light
lightcurve
ligulata
ligurian
liisi
like
likely
lilacina
lilium
lima
limba
limbata
limit
limitations
limited
limprichtii
lin
linden
lindeniana
lindenii
lindl
lindley
lindleyalis
lindleyana
line
linearifolia
linearifolium
linearis
lineata
ling
lingala
lingua
linguistic
linguistica
linguistics
link
linked
linking
links
linn
linnad
linnaea
linus
linux
lion
liparis
liquidambar
liquidthreads
liriodendron
list
listed
listen
listera
listofprofessions
lists
listtotext
liszt
litensis
literary
literature
lithocarpus
litru
little
liu
live
livida
lix
lj
ljubljana
lk
ll
llaqta
llave
ller
lli
lmas
lmen
lmener
lmo
ln
lo
loa
loaddata
loading
loanwords
lobata
lobos
local
localidades
localidatz
localisation
localisations
localise
localised
localising
localization
locally
located
locatie
location
lockhartia
locomotive
lodd
loddigesii
lodo
loefgr
log
logged
logi
logo
logobject
logos
lon
london
long
longa
longer
longibracteata
longicalcarata
longicauda
longicaulis
longicornu
longiflora
longifolia
longifolium
longilabris
longipes
longipetala
longispicata
longissima
longitude
lonsum
lontara
look
looking
looks
lorenz
loreziana
los
lost
lot
loudspeaker
lour
love
loves
low
lower
lowii
lr
lt
lu
lua
lucht
lucida
lucis
lucksom
ludwig
lueddemannia
lueddemanniana
luer
luerorum
lugens
luhkie
luisia
luminescence
lunata
lune
lungsod
lunulata
luokka
lutea
luteola
luxembourgish
luzon
luzuriaga
lv
lvm
lycaste
lyciensis
lycomormium
lydia
lz
m
ma
maas
maastik
maastricht
mabbett
maboroensis
mac
macedonia
macedonian
machine
macodes
macra
macrantha
macrocarpa
macrophylla
maculata
maculatum
maculosa
madagascar
madagascariensis
made
madonna
madrid
maduroi
maek
mag
magazine
magazines
magic
magnifica
magniflora
magnolia
magnoliopsida
maguire
magyar
mai
mail
mailbox
mailing
main
maingayi
mainly
mainsnak
mainsnakclass
maintain
maintenance
maire
majalis
major
mak
make
makes
makgadikgadi
making
makino
mal
mala
maladroxiensis
malagasy
malawi
malaxis
malay
malaya
malayalam
malayan
malaysia
male
malesherbia
mali
mall
malline
mallnitz
malo
malta
maluku
mammea
mammosa
man
mana
manager
manali
mandonii
mangaly
manif
manipuri
mann
mannheim
mannii
mansf
manu
manual
manually
many
maori
map
maps
mar
maranta
marathi
marcantonio
march
marche
marda
margin
marginata
mari
maria
marina
marine
maritima
mark
marked
marks
mars
marseille
marshall
marshallese
marshallia
mart
martelli
martin
martinezii
martius
mas
masam
mascula
masiwa
masonry
mass
massmessage
mast
match
material
materials
math
mating
matter
matthewsii
mau
max
maxillaria
maxima
may
mazz
maþær
mb
mba
mccann
md
mdennis
mdf
me
meadow
meaningful
means
meantime
med
medals
meded
media
medialist
mediawiki
medical
medien
medinae
medit
mediterranean
medium
meet
meeting
meetings
meg
meiracyllium
meitei
meleagris
meli
meliaceae
melki
mem
member
members
memorem
memorial
men
mende
mendozae
menezes
meni
menu
menus
mercury
merfeld
merge
meridana
meridionalis
merr
merrill
merrillii
merry
mes
mesadenella
mesadenus
message
messagebox
messages
mesta
mesua
met
meta
metasequoia
metelko
method
metro
metung
mexicana
mexico
mey
mez
mezquita
mg
mga
mhnt
mhr
mi
miasta
michael
michelia
micholitzianum
micrantha
micranthum
microchilus
microglossa
microphylla
microphyta
microsoft
microtis
mid
middle
mie
mien
miesta
miestai
mig
might
migrate
migration
miji
mil
mile
milia
milion
militaris
military
miljoen
mill
mille
million
miltonia
miltoniopsis
min
mina
minahassae
minas
mindanaensis
mindanao
mine
mini
minima
minimize
minor
minorities
minus
minuta
minute
minutes
minuticauda
minutiflora
minutissima
mio
mipela
miq
mirabilis
miranda
mirongo
mis
misc
miss
missing
mission
missouri
mit
mitragyna
mitt
mitte
mitteilungen
mk
ml
mm
mme
mmend
mmenta
mn
mne
mnras
mo
mobile
mocoana
mod
mode
model
modern
modesta
module
moduledate
moduleurl
moeda
mohawk
moi
mollis
molloy
mon
monasterio
monastery
monday
mongolian
monikko
monitor
monitoring
monobook
monogr
monolingualtext
monomeria
monophylla
monosepalum
montana
montanum
montbe
montbeliard
montezumae
month
monthgm
monthly
months
monticola
montis
montreal
montserratensis
moon
moons
moore
mooreana
moorei
mor
mora
more
morenoi
morganii
morii
morinda
morio
morisii
mormodes
mormolyca
morning
morocco
morren
moscosoa
moscow
moscu
mosque
most
mostly
motd
moth
mother
motion
mount
mountain
mountains
mouton
move
moved
movement
movie
moving
moya
mozambique
mozilla
mp
mpumalanga
mr
mrj
ms
msg
mt
mu
much
mucronata
mucronatum
muell
muelleri
multi
multichill
multiclavia
multiflora
multilingual
multimedia
multiple
multitree
mundo
munich
mural
muricata
mus
muscicola
muse
museum
music
must
mustang
mute
mw
my
mya
myanmar
mylanguage
myoxanthus
myrmechila
myrmechis
myrmecodia
myrmecophila
myrtifolia
mystacidium
mythology
myths
mytnik
myv
mzn
n
na
naar
nachtr
nacional
nada
nagam
nagelii
nagy
nah
nakai
nam
name
named
names
namespace
namespaces
namibia
naming
namon
nan
nana
nap
narod
nas
nasa
nat
natal
natalia
nation
national
nations
native
natl
natural
nature
nau
nauclea
nav
navajo
naval
navbox
navcontent
navframe
navigation
navy
nazca
nb
nbg
nbrkomi
nc
nchen
nd
nda
nde
ndefaultlanguage
ndert
ndi
nds
ne
neapolitan
near
nearly
neas
necessary
ned
need
needed
needs
nees
negadensis
neglecta
neh
nelja
nella
nelson
nelsonii
nem
nematoceras
nemorosa
nen
neo
neocogniauxia
neofinetia
neomoorea
neottia
neottianthe
nep
nepal
nepali
nephelaphyllum
neptune
nervilia
nervosa
nes
net
netherlands
network
neudecker
neudeckeri
neutral
neuwiedia
new
newclaims
newcomers
newer
newly
newoptions
newparentsnaks
news
newsletter
newspaper
newspaperarchive
newspapers
next
nextlabel
nez
nf
nfelder
nfronte
ng
nga
ngbangbo
ngc
nge
ngng
ngo
nh
nha
ni
nia
nice
nich
nicholas
nicholls
nick
nidus
nie
niesch
niger
nigeria
night
nigra
nigrescens
nigritella
nil
nin
nina
nipponica
nir
nissue
nitida
niue
niuean
nivalis
nivea
nj
nkele
nl
nm
nn
nnnnnn
nnu
no
nobilis
nobr
nodosa
nodyn
noi
nolinks
nom
nominate
nominations
nominativeyear
non
none
noon
nor
noravank
nord
nordeste
nordic
normal
noroeste
norse
norte
north
northern
norway
nos
nostr
nostra
nostre
nostro
not
notable
note
notes
nothing
nothofagus
nothosubsp
notice
notification
notifications
notify
notizbl
notoc
notul
notylia
nou
nov
nova
novalue
nove
november
novial
now
nowrap
np
npages
nr
ns
nster
nt
nta
nu
nuda
nul
nula
num
number
numbered
numbers
numeric
numida
nummularia
nun
nung
nus
nutans
nutt
nuuk
nuvola
nuytsia
nvolume
nw
ny
nya
nyi
nyny
nzst
o
oa
oaxaca
ob
obama
oberonia
object
objective
oblanceolata
oblonga
oblongifolia
obovata
obscura
observatory
obtusa
obtusifolia
obverse
oc
ocaasi
occidentalis
occultation
occupation
och
ochracea
ochreata
october
octomeria
octopus
od
oda
odontoglossum
odontorrhynchus
odorata
odoratissima
oe
oerstedii
oeste
oestrifera
of
off
offer
offered
office
official
officinalis
offline
often
og
oga
ogg
ogv
oh
ohu
ohwi
oi
oj
ojibwe
ok
okkum
ol
olac
olbiensis
old
oldest
ole
oli
oligantha
oligotricha
oliv
oliver
olor
olympic
olympics
om
ombudsperson
omegaifera
omniglot
on
ona
once
oncidium
one
ones
online
only
ono
ons
onze
oo
ooui
op
open
opened
opening
opera
operation
operations
operator
ophioglossoides
ophiopogonoides
ophrys
opinions
opportunities
opportunity
oppose
oppositifolia
opt
optics
option
optional
options
opus
or
ora
oras
orbicularis
orbit
orbital
orbits
orch
orchadian
orchi
orchid
orchidaceae
orchidee
orchideen
orchids
orchis
order
ordered
oreophila
org
organization
organize
organized
organizing
orgel
ori
orientalis
orig
origin
original
oriya
orleanesia
ormerod
ornata
ornatum
ornithocephalus
ornithochilus
oromo
orqui
orquideologia
ort
orter
orthography
ortiz
os
osaka
osmanica
osmanya
osteospermum
ot
ota
otchipwe
oterma
other
others
otia
otostylis
otto
otu
otuz
ou
ouest
our
out
outdated
output
outreach
outside
ov
ovalifolia
ovalis
ovata
ovatilabia
over
overlay
overview
ovttaidlohku
owl
own
oxyrrhynchos
oxyrrhynchossubsp
oy
p
pa
pabst
pabstii
pachyglossa
pachyphylla
pachyphyllum
pachyphyta
pachypodium
pachystachys
pacific
pacifica
padding
pag
page
pages
pageviews
pagos
pai
paid
painting
pairs
pakistan
palace
palacio
palawanensis
palawensis
pale
pallens
pallida
pallidiflavens
paludosa
palustris
pan
panafrican
panafril
panama
panamensis
panattensis
panc
pandurata
panduratum
panero
paniculata
panisea
panj
pano
panorama
panormitana
pans
panthera
pantherina
pantl
pap
papa
paper
papers
paphinia
paphiopedilum
papiamentu
papilio
papilionacea
papilionanthe
papillosa
papuana
papuanum
par
parade
paradoxa
paraguay
param
parameter
parameters
parana
paranaensis
paraphalaenopsis
pardalina
pardo
pardona
parent
parententities
parentoptions
parentsnak
parentsnaks
pareren
paris
parish
parishii
park
parliament
parma
parque
parsedtime
parseiso
parser
parsetimefromsnak
part
partial
participants
participate
participated
participating
participation
particular
particularly
partitive
partners
partnerships
partofclaims
parturl
party
parva
parviflora
parviflorum
parvifolia
parvilabris
parvula
parvulum
pas
pass
passionis
password
passwords
past
patens
path
pathoschild
patre
patroclus
patrol
pattern
patula
pauciflora
pauciflorus
paul
paulo
pauloensis
paulownia
paulus
pav
pavetta
paxton
pcall
pdf
pdflink
pdt
pdx
pe
peace
pectinata
pedersen
pedilochilus
pedunculata
pen
pencil
pendens
pending
pendula
penelope
pengurus
penicillata
peninsula
pentapetes
pentas
people
peoples
pequenas
per
percentage
performance
performed
period
peristeria
permission
permissions
perplexum
perpusilla
perrier
perrieri
perry
pers
persian
person
personal
personname
personnametoauthorname
personnametoresponsiblename
persons
perspective
peru
peruviana
peruvianum
pet
peter
petersburg
petersiana
petiolaris
petiolata
petit
petropolitana
petroskoi
pez
pfarrkirche
pfavii
pfg
pfitzer
ph
pha
phabricator
phacochoerus
phaius
phalaenopsis
pharia
phase
phases
phengjas
philipp
philippe
philippinense
philippinensis
philippines
philology
pho
phoenix
pholcoidea
pholidota
phonology
photo
photos
php
phph
phragmipedium
phral
phrase
phrasebook
phreatia
phrygia
phyllocladus
phytologia
phytotax
pi
pia
piano
picta
picture
pictures
pidgin
piece
pieces
pied
pierre
pile
pileatum
pilifera
pilosa
pilosissima
pilot
pilse
pinaster
pinea
ping
pintscher
pinus
pipep
pipepbot
piperia
pis
pisin
pit
pitu
pityphyllum
pk
pl
place
placeid
places
plain
plaindata
plainlinksneverexpand
plan
planch
planet
planets
planned
planning
plans
plant
plantaginea
plantilla
plantsman
platanthera
platform
platforms
platychila
platypetala
platystele
playing
plaza
please
pleased
plectorrhiza
pleione
pleurothallis
plicata
ploceus
plocoglottis
plu
plumosa
plus
plusminus
pm
pms
png
po
podocarpus
podochilus
poepp
poetry
pogonia
pogoniopsis
point
points
poir
poland
police
policy
polish
polje
pollinensis
polonia
polyantha
polycycnis
polygonoides
polyphylla
polystachya
polytonic
pomatocalpa
pona
pond
ponderosa
pone
ponerorchis
pont
ponthieva
pop
popayanensis
popul
popular
populatedatafromclaims
por
porphyrea
porroglossum
porsch
port
portal
portentosa
portilla
portillae
portland
portlet
porto
portrait
portugal
portuguese
pos
position
positions
positive
possible
possibleage
possibly
post
posted
postfix
postfixdelimeterposition
posting
postponed
potd
potential
potom
pour
powellii
power
powerful
pp
ppelberg
pr
practical
pradesh
praecox
praemorsa
praetermissa
prague
praha
prasophyllum
prayer
pre
precision
predefinic
predloga
predloz
prefer
preference
preferences
preferids
preferred
prefsection
prepare
preparing
present
presentation
presentations
preserve
preserving
preset
presets
president
presl
press
presser
presumably
prettytable
prev
preview
previews
previous
previously
prevlabel
pride
pridgeon
prima
primarily
primary
prince
principal
pringlei
print
priorities
prioritize
privacy
private
privigna
privileged
prizes
pro
probably
problem
problems
proc
procera
process
processalltext
processes
processtext
prodr
produce
product
productivity
prof
professional
professionslist
profit
program
programming
progress
project
projectname
projects
prolifera
promontorii
pronunciation
proof
propclaim
properly
properties
property
propertyid
propertyids
propertyparams
propertyparamskey
propertyselector
propinqua
proportion
proposal
proposals
propose
proposed
prorepentia
prosthechea
prostrata
protea
protection
protest
prototype
prototypes
prov
provide
provided
provides
providing
provincialis
ps
pseuderanthemum
pseuderia
pseudoanatolica
pseudoapulica
pseudobertolonii
pseudocymbiformis
pseudolaelia
pseudospeculum
pseudovanilla
psychilis
psychopsis
psychotria
pt
pteroglossa
pterostylis
pu
pub
pubentity
puberula
pubescens
pubipetala
publ
public
publication
publications
publish
published
publisher
publishers
publishing
pula
pulchella
pulchellum
pulchellus
pulcherrima
pulchra
pulchrum
pullei
pumila
pumilum
pump
punct
punctata
punctatum
punctulata
pungens
punjabi
pupulin
purbo
purodha
purpose
purpurascens
purpurata
purpurea
purpurella
purpureum
purpusii
pusilla
put
puzzle
pw
px
py
pygmaea
pyramidalis
pyrenees
pyrrhula
python
pywikibot
pywikipedia
pywikipediabot
q
qangara
qian
qnotlaterthan
qnotsoonerthan
qq
qs
qu
qua
quadriloba
quadripunctata
quale
qualifier
qualifierid
qualifierids
qualifierpropertyid
qualifiers
qualifiervalue
quality
quantity
quar
quatre
quatro
que
quecami
queensland
queer
quekettia
question
questions
qui
quick
quickly
quiddity
quisqueya
quisqueyana
quisumb
quito
quo
quotation
quotations
r
ra
rabei
racemosa
radialis
radiata
radicans
radio
raf
railway
rainbow
ralfr
rami
ramonensis
ramosa
ramosii
ramuana
ramulosa
ran
range
ranges
rank
rao
ras
rate
rather
raw
rawrule
raya
rb
rchb
rd
re
reach
read
readability
readers
reading
ready
real
really
reason
receive
received
recent
recently
recipientcategory
recipientcategoryclaims
recognize
recommend
recommendations
recommended
record
recorded
records
rect
recurva
recurvata
red
redesigned
redirect
redirected
redirects
reduce
reduced
ref
refanchor
refanchoryear
reference
references
referencing
referendum
reflections
reflexa
reg
regarding
regards
regel
regina
reginae
region
regions
regis
register
registered
regni
regno
regular
reichenbach
reichenbachiana
reinhard
reinholdii
reino
reinw
reipubl
related
relatively
release
released
relevant
reliable
reliably
remaining
remains
remco
remember
remota
removal
remove
removed
removing
renanthera
rendered
rendle
renessaince
renz
reo
rep
repeat
repens
repert
repetition
replace
replaced
replacing
reply
report
reports
repository
represented
reptans
republic
republika
request
requested
requesting
requests
require
required
requirements
requires
rer
res
research
reserva
reserve
resolution
resolved
resource
resources
respond
responsible
rest
restored
restrepia
result
resultclaims
resultlist
resultproperty
resultresultproperty
results
resultwikitext
ret
reticulata
return
returns
retusa
retusus
rev
reverseorder
reverting
review
reviewing
reviews
revision
revisions
revisionslider
revoluta
rez
rfc
rh
rhamnaceae
rhellicani
rhipogonum
rhizanthella
rhodostephane
rhomboglossa
rhyncholaelia
rhynchophreatia
rhynchostylis
rhytionanthos
ri
ria
ribbonimageclaims
rica
rich
richard
ricii
rico
ride
ridl
ridleyi
ridsdale
right
rights
rigida
rigidula
rijks
rimbachii
rimbaud
rin
ring
ringens
rio
riou
risso
river
riwnodennyk
rkomi
rm
rmaz
rmy
rn
rnste
ro
roa
road
robbr
robert
robin
robinsonii
robiquetia
robusta
robyns
rock
rodopi
rodr
rodrigoi
rodriguezia
roezlii
rogers
rohingya
roi
role
roles
rolfe
roll
rolling
rom
roma
romero
ronney
roraimae
rosa
roscoe
roscoea
rose
rosea
roseoalba
rosetta
roseum
rosillo
rostellata
rostrata
rotuman
rotunda
rotundifolia
round
rouse
rover
row
rows
roxb
roxburghii
roy
royal
royen
rr
rran
rs
rt
rterbuch
ru
rua
ruan
rubble
rubens
rubra
rudis
rudolfiella
rue
ruedi
ruellia
rufa
rufescens
ruiz
rule
rules
rumani
rumantsch
rumantscha
rummad
run
runa
running
runoja
runs
rupestris
rupicola
rupp
rus
rusby
rusbyi
rusia
russia
russian
rutaceae
rutk
rv
rydb
s
sa
saa
saami
sabal
sablon
sabu
sabulosa
saccata
saccatum
saccifera
saccoglossum
saccolabium
sada
safe
safety
sagittata
sah
sahara
saint
sakai
sakha
salar
salazar
salisb
salpistele
salvador
salvatore
sam
same
sami
sample
san
sanctae
sancti
sand
sandbox
sanderiana
sango
sangue
sanguinea
sans
sanskrit
santa
santiago
santo
santorin
sanu
sapindaceae
sapindus
saratoi
sarcochilus
sarcoglottis
sarcophylla
sarcostoma
sardegna
sardinia
sat
sata
satellite
satellites
saturday
satyrium
sauleda
saundersiana
saurocephala
sauroglossum
sava
save
saw
saxicola
saxon
say
says
sc
scale
scandens
scandinavian
scansor
scaphosepalum
scaphyglottis
scariosa
schedul
schedule
scheduled
schelpe
scheme
schemedelimeterposition
schiedeella
schilleriana
schinopsis
schinz
schlechter
schlechteriana
schlimii
schloss
schltdl
schltr
scho
scholarly
scholarship
scholarships
schomburgkia
schott
schuit
schult
schultzei
schulze
schulzei
schum
schumann
schutzgeb
schwa
schweinf
sci
science
sciences
scientific
scn
sco
scolopax
scopulorum
scotland
scottish
screen
screens
screenshot
script
scripts
scriptum
scroll
scrolltop
scrugli
scuticaria
se
sea
search
searchable
searches
searching
seattle
sebastian
secc
sechs
second
secondary
seconds
sect
section
sections
secunda
securepoll
security
sed
sedis
see
seeking
seem
seen
sei
seidenf
seis
sekiz
seksen
selbyana
select
selectclaims
selected
selectedsnakes
selecting
selection
selector
selenitepala
self
sem
semperflorens
sen
send
sending
senghas
sent
sep
separate
separated
separator
sept
september
ser
seranica
serapias
series
serif
serotina
serpens
serrulata
sertifera
serve
server
service
services
ses
sessiliflora
sessilis
session
set
sete
setosa
setting
settings
seven
several
sex
seychelles
sgrabarczuk
sh
sha
shadow
shah
shan
shanghai
shape
share
shared
sharing
shark
she
sheet
sherff
sherpa
sheviak
shift
shin
ship
shiraz
shona
short
shortcut
shorter
shortly
should
shouldn
show
showcase
showed
showing
shown
shows
shsh
shtml
si
sia
siamensis
siberia
sicilia
sicula
sida
side
sidebar
sidney
sie
siebot
siebrand
sievekingia
sight
sigmoidea
sign
significant
signs
signup
signups
sijm
sijmii
sil
silva
silvae
silvana
silver
silverstonei
simarouba
simaroubaceae
simia
similar
similis
simondii
simple
simpler
simplex
simulation
sin
since
sindhi
sindimo
sine
sinensis
sing
singapore
single
sinhala
sinna
sinor
sioni
sip
sira
sirirugsa
sis
sister
sisterproject
sita
site
sitelink
sitelinks
sites
sitewide
sitiaca
situation
siu
six
siz
size
sizes
sjabloon
sk
skabelon
skal
skandinavistik
skeptrostachys
sketch
ski
skills
skin
skinneri
skins
sko
sky
skyline
sl
slavic
slightly
slovenia
slow
slower
slowly
sm
small
smaller
smaragdina
smartphone
smg
smith
smithii
smooth
sn
snak
snaks
snaktype
snið
snow
so
sobralia
soc
social
society
sociolinguistic
sodiroi
soft
software
sol
solano
solar
sole
solid
solo
solution
solutions
solve
some
someone
something
sometimes
somevalue
somewhere
son
sond
sonda
song
soninke
soo
soon
sophora
sophronitis
sordida
soria
sororia
sorry
sossusvlei
soto
soul
sound
sourashtra
source
sourceentity
sourceid
sources
south
southeast
southern
southwest
sp
space
spaces
spacex
spacing
spaeth
spain
span
spanish
sparsiflora
spathoglottis
spathulata
spb
speak
speaker
speakernotes
speaking
speaks
spec
special
species
specific
specified
speciosa
speciosum
speciosus
specklinia
spectabilis
speculum
speed
speedy
spelling
sphegodes
spicata
spider
spilotantha
spinning
spiralis
spiranthes
spit
spitzelii
splendens
splendida
split
spoken
spondias
sport
spotted
spra
sprache
spread
spreng
spring
springer
spruce
sprucei
spruneri
spumans
spuria
sq
square
squarrosa
squez
sr
src
sri
ss
ssa
ssp
st
sta
stad
stadium
staff
stage
stampa
standard
standards
standl
stanhopea
stap
stapf
star
stars
start
started
starting
startpos
starts
state
statedas
statement
statements
statementvalue
states
static
station
statistics
statue
status
stay
steam
stelis
stellaris
stellata
stellilabium
stenia
stenoglossa
stenopetala
stenophylla
stenoptera
stenorrhynchos
stenostachya
step
steppe
steps
stereosandra
steven
stevensonii
steward
stewards
steyerm
steyermarkii
stied
stift
stiftskirche
still
stimson
stipulatum
stl
sto
stop
stopped
store
stored
storm
story
stq
str
strategy
straussii
street
strelitzia
streptopetala
striata
striatum
stricta
string
strings
striolata
strobus
strodt
stroke
strong
strpages
structure
structures
strvalue
stu
stuartiana
studied
studies
study
style
styles
styling
stylobasium
su
sua
sub
subgenus
subject
submission
submit
subrule
subrules
subscribe
subscribed
subscription
subsection
subsp
substring
subtilis
subtitle
subtribus
subulata
suc
successful
such
sud
suda
sudan
sudeste
suggest
suggested
suggestions
sul
sulawesi
sulcata
sulphurea
sulvi
sum
sumatra
sumatrana
sumatranus
summarizes
summary
summer
summerh
sun
sunda
sunrise
sunset
sup
superba
superbiens
suppl
support
supported
supporting
supports
sur
surame
sure
surely
surface
suriname
survey
survival
sutherland
sv
svan
svg
svn
sw
swa
swadesh
swahili
swan
swaziland
sweden
swedish
sweet
swift
swingle
switch
switching
switzerland
sy
syktyvdin
syllabary
sylvatica
sylvestris
sylvia
symbol
symbols
symplocos
syn
synagogue
syncing
synonym
syntax
synthebot
syriac
sysop
syst
system
systems
sz
szablon
szl
szlach
sɔ
t
ta
tab
tabana
table
tables
tablets
tablevalue
tabs
tag
tagalog
tags
taha
tahi
tahitensis
tai
tail
tailed
tainia
taipei
taiwan
taiwanensis
taiwaniana
take
taken
takes
taking
tale
tales
talk
talking
talks
tallinn
talpinaria
tamazight
tamil
tan
tang
tango
tanzania
tap
tara
taras
target
tarnovo
tartu
tas
task
taskforce
tasks
tat
tatar
tate
taubenheim
taxon
tay
taylor
tbilisi
td
tdil
te
teach
teaching
teaguei
team
teams
teau
tech
technical
technology
tehera
teie
tek
tel
telepu
telescope
tell
tem
temp
temperature
templat
template
templatedata
templates
temple
temporary
ten
tenella
tenellum
tennant
tenompokense
tentaculata
tenthredinifera
tenue
tenuicaulis
tenuiflora
tenuifolia
tenuis
tenuissima
ter
tere
teres
teretifolia
term
terms
terra
terrestris
tersch
teschner
test
testacea
testament
testamento
tested
testing
tests
tet
tetragona
tetramicra
teuscheria
text
texts
tf
tg
th
tha
thai
thailand
thailandica
than
thank
thanks
that
the
theatre
thecostele
their
thelymitra
them
theme
then
theoretical
there
these
they
thi
thiele
thin
things
think
thinking
this
thite
tho
thomas
those
thouars
though
thought
thoughts
thousands
thread
three
thrixspermum
through
throughout
throwerror
thth
thu
thudufushi
thumb
thumbnail
thumbnails
thunb
thunbergia
thunbergii
thunia
thursday
thwaites
ti
tibet
tibetan
ticoglossum
tie
tied
tiegh
tien
tiessen
tiger
tigjus
tigre
tigrina
tigrinum
tigrinya
til
tiles
tili
till
time
timelapse
times
tipo
tipularia
tirveng
tis
title
titledelimeterposition
titus
tj
tl
tlhingan
tlingit
tln
tm
tn
tnavbar
to
toboolean
toccolours
tocharian
tod
today
todo
together
toggle
tok
toki
tokyo
tolu
tolumnia
tomentosa
tomorrow
tomovl
tong
tonga
tongan
tonkinensis
tonumber
too
tool
toolbar
tools
tooltip
top
topic
topics
toppdoma
torricellensis
toru
toscano
tostring
tostringsnak
tot
totable
total
totextwithtip
tou
touch
tour
towards
tower
town
toxicodendron
tpi
tr
tra
tracking
tracks
trademark
traffic
trail
trailer
trailing
train
training
trans
transhyrcana
transit
transition
translatable
translate
translated
translates
translatewiki
translathon
translating
translation
translations
translator
translators
transparent
transvaal
traunsteineri
travel
tre
tree
trees
trenta
tres
trevoria
tri
triage
trial
triandra
triangularis
trias
tribe
tribus
tricarinata
trichocentrum
trichoglottis
trichosalpinx
trichotosia
tricolor
tridens
tridentata
trier
trifida
trigonidium
triloba
trilobata
trim
trimen
trinidad
trip
triphora
triplicata
trisetella
tristis
tro
troglodytes
trop
tropical
tropidia
truck
true
trulla
trullifera
trullifolia
truncata
truncicola
trust
trustees
try
trying
ts
tsa
tse
tshiluba
tsi
tso
tsogang
tsts
tsubotae
tt
tta
tte
tu
tua
tuber
tuberculatum
tuberosa
tuerckheimii
tuesday
tuesdays
tugiu
tuhat
tuhatta
tul
tulu
tun
tunga
tunguraguae
tunisia
tunka
turcomanica
turcz
turfosa
turkey
turkish
turkmenistan
turn
turned
turning
tutorial
tuyama
tv
twa
twe
tweintich
twelve
twi
twins
twintig
twitter
twl
two
txt
type
types
typing
typography
typology
tyskland
tyteca
tz
tɕ
tʃ
u
ua
uboundary
uc
ucla
ucoc
ucoz
ucraina
ucrania
ucs
udalerriak
udm
ue
ug
ugri
ugrians
ugric
ugrische
ugristarum
uh
uhnoe
uhnvirau
ui
uit
uk
ukraina
ukraine
ukrajine
ukrajna
uku
ul
uliginosa
uls
uluni
um
umbellata
umbelliformis
umbilicata
umblicata
ume
umlaut
un
una
uncatum
unciferia
und
under
underside
understand
understanding
undulata
une
unesco
unexpected
unfortunately
ungar
unguiculata
uni
unicode
unidos
uniflora
unifolia
union
unit
united
univ
universal
universita
university
unknown
unnamed
uno
unsubscribe
until
unu
uo
uođi
up
upcoming
update
updated
updates
upload
uploading
uploads
uploadwizard
upon
upper
uppermost
upright
ur
uralic
uralica
urani
uranus
urb
urban
urbes
urbi
urboj
urdu
url
urls
uro
urvilleana
us
usa
usability
usage
usd
use
used
useful
user
userbox
username
users
usersummarybuttonsa
uses
using
uss
ust
ustring
usual
usually
usuan
ut
utc
utriculata
uu
uvaria
uz
v
va
vad
vaginata
vahe
vahl
vai
val
valeton
valida
valley
valoda
value
values
van
vancouver
vanda
vandalism
vandopsis
vangueria
vanilla
vanoverberghii
vanuatu
var
vara
variabilis
variegata
variegatum
various
vas
vasconica
vasquezii
vci
ve
vec
vector
veg
vega
veidne
vel
veleziana
veliko
vell
velutina
venetian
venez
venezuela
venezuelana
veni
venosa
vent
ventricosa
ventricosum
venulosa
venus
venusta
vep
vera
veracruz
verb
verboonenii
verbs
verdc
verdi
verlag
verm
vernixia
vernixioidea
vernonia
verrucosa
versa
versicolor
version
versions
vertical
verticillata
verticordia
very
vespertilio
vesta
vestita
vi
via
vicina
victoria
video
videos
vie
vier
vietnam
vietnamensis
view
viewer
views
vii
viii
vikhondi
vikipediya
viktor
vil
vila
village
villas
ville
villosa
vinacea
vint
vinte
vinti
violacea
virescens
virginalis
virginiana
viridiflora
viridis
virtual
viscosa
visible
visit
vista
visual
visualeditor
visually
vit
vitellina
viti
vittata
vk
vlei
vlimau
vls
vo
vocabulary
vogel
voice
vol
volapu
volcanes
volcano
volume
volunteer
volunteers
vom
von
voor
vora
vorlage
vos
vote
voters
votes
voting
votr
vp
vro
vs
vu
vulgaris
vulpes
vun
vuosilta
vus
vv
vy
w
wa
waechter
wageneri
wagneri
wait
walk
walking
wall
wallich
wallichii
wallisii
walloon
walpers
walravens
walu
wan
wang
wangii
want
wanted
wanting
wants
war
waray
wardii
wariana
warm
warmingia
warningbox
warrakkk
warriors
warscewiczii
warsz
warszewiczii
was
washington
watch
watching
watchlist
watchlists
water
watson
way
ways
wbo
wbstatus
wc
wds
we
weaver
web
webb
weber
webm
website
webster
wedd
wednesday
week
weekly
weeks
weibchen
weight
welcome
welcoming
well
wells
welsh
welw
welwitschii
wena
wendl
wendlandii
wenker
went
wenzelii
were
werneri
wernham
west
westc
western
what
whatamidoing
whatever
when
where
whether
which
whichever
while
white
whitespace
who
why
wi
widdringtonia
wide
width
wien
wiesbaden
wight
wiki
wikibase
wikibooks
wikidata
wikidataselectors
wikigap
wikimania
wikimedia
wikimedians
wikipe
wikipedia
wikipedians
wikipedias
wikipedie
wikipedija
wikis
wikisource
wikisources
wikitable
wikitech
wikitext
wikiversity
wikivoyage
wikivoyages
wiktionary
wild
wildpark
will
willd
williams
williamsii
willing
wilson
wilsonii
win
wind
window
windows
wing
winners
winter
wish
wishes
wishlist
witch
witches
with
within
without
wittm
wm
wmde
wmf
wmru
wo
wolfgang
wolof
woman
women
won
wong
wood
word
words
work
workboard
worked
workflow
working
works
world
would
wp
wptextbox
wrapinurl
wrayi
wright
wrightii
write
writer
writing
written
wroclaw
wrong
wu
wullschlaegelia
wus
wuu
ww
www
x
xa
xeno
xi
xii
xiii
ximenae
xiv
xix
xn
xs
xu
xv
xvi
xvii
xviii
xx
xxi
xxii
xxiii
xxx
xylobium
xytriophora
y
ya
yahoo
yalla
yaroslav
yauaperyensis
yav
ye
year
years
yellow
yerevan
yes
yet
yetmis
yheksa
yi
ying
yks
yksi
yksikko
yn
yo
yoania
yogyakarta
york
yoruba
you
young
your
youtube
yr
yu
yue
yufereff
yuko
yumi
yunnan
yunnanensis
yy
yyyy
z
za
zal
zambia
zaragoza
zdah
ze
zea
zealand
zelenkoa
zen
zentrale
zero
zeuxine
zh
zhu
zhuang
zhzh
zi
zifs
zimbabwe
zingiber
zinnia
ziyaretiana
zo
zollingeri
zone
zones
zoo
zoom
zootrophion
zotero
zu
zucc
zum
zunagensis
zuni
zur
zwei
zygopetalum
zygosepalum
zygostates
zz
{
|
}
~


¡
¢
£
¥
§
¨
©
«
¬
­
®
°
±
²
³
´
¶
·
¹
»
¼
½
¾
¿
×
ß
æ
ææ
ð
ðð
÷
ø
øø
þ
þa
þu
þþ
đ
đo
đđ
ħ
ı
ız
ĸ
ł
ła
ŋ
ŋggaidlohku
ŋŋ
œ
œœ
ƃ
ƅ
ƌ
ƕ
ƚ
ƫ
ƴ
ƶ
ƿ
ǀxam
ǝ
ǥ
ȝ
ȣ
ȥ
ȿ
ɀ
ɂ
ɂɂ
ɇ
ɉ
ɋ
ɍ
ɏ
ɐ
ɑ
ɒ
ɓ
ɔ
ɕ
ɖ
ɖo
ɗ
ɘ
ə
ət
ɛ
ɜ
ɞ
ɟ
ɠ
ɡ
ɢ
ɣ
ɣɣ
ɤ
ɥ
ɦ
ɨ
ɩ
ɪ
ɫ
ɬ
ɮ
ɯ
ɰ
ɲ
ɳ
ɴ
ɵ
ɸ
ɻ
ɽ
ɾ
ɾa
ʀ
ʁ
ʂ
ʃ
ʃt
ʄ
ʈ
ʈʂ
ʉ
ʊ
ʋ
ʌ
ʍ
ʎ
ʏ
ʐ
ʑ
ʒ
ʔ
ʕ
ʙ
ʜ
ʝ
ʟ
ʣ
ʥ
ʦ
ʧ
ʨ
ʰ
ʲ
ʷ
ʹ
ʻ
ʼ
ʾ
ʿ
ˀ
ˆ
ˈ
ˉ
ˊ
ˌ
ː
ːˌ
ˑ
ˑˈ
ˠ
ˡ
ˤ
˥
˧
˨
ˮ
̀
́
̂
̃
̄
̅
̆
̇
̈
̉
̊
̋
̌
̍
̎
̏
̑
̓
̔
̘
̚
̛
̝
̞
̠
̢
̣
̤
̥
̦
̧
̨
̩
̪
̭
̮
̯
̰
̱
̲
̴
̷
̸
̹
͂
͜
͡
ͣ
ͤ
ͦ
ͳ
͵
ͷ
α
ας
β
γ
γα
δ
δε
δι
ε
ζ
η
θ
ι
κ
κα
κατηγορι
κοντα
λ
λεις
λιοι
μ
ν
ντα
ξ
ο
ου
π
πι
πο
προ
ρ
ριοι
ς
σ
σι
σια
σιοι
τ
τα
τε
της
υ
φ
χ
χι
ψ
ω
ϐ
ϑ
ϒ
ϕ
ϖ
ϙ
ϛ
ϝ
ϟ
ϡ
ϰ
ϱ
ϳ
ϵ
ϸ
ϻ
а
аа
аарони
аб
абазин
абар
або
абоп
абрамов
абу
абуо
абуто
абхаз
абхазия
абхазияса
абхазияын
абъячои
ав
авар
авг
август
августа
аверкиевна
авеста
авиаперевозкаяс
авиапредприятиеяслы
авиареи
авиауджъяс
авиационно
авиацияса
авиацияын
авилова
авлык
аврам
аврамов
аврора
австралия
австралияса
австралияын
австрия
австрияса
австрияын
австронезия
авт
авто
автобиографическо
автобус
автомат
автоматически
автомашина
автомобиль
автономии
автономия
автономияа
автономно
автономныи
автопортрет
автор
авторах
автореф
авториз
авторло
авторлысь
авторов
авторъяс
авторъясло
авторъяслысь
авторыс
автотранспорт
автотуи
авъя
агаси
агасо
агафья
агентство
агитация
агни
агния
адам
адамович
адвечная
аддз
аддзам
аддзан
аддзис
аддзисны
аддзо
аддзылі
аддзыны
аддзысьлам
аддзысьло
аделаида
адзва
админ
административно
административное
администратор
администратора
администратори
администраторов
администратором
администрациа
администрации
администрация
администрацияло
администрацияо
администрацияын
адмирал
адольф
адрес
адриа
адыг
адыгеи
адыгея
аз
азбука
азербаи
азии
азия
азияк
азиял
азияло
азияса
азияын
азияысь
азияя
азов
азот
азыма
азьласо
аи
акад
академиа
академии
академик
академическ
академическо
академия
академиял
академияло
академиялысь
академияо
академияса
академияын
академияысь
акан
акант
акань
акв
аквилегия
акинь
акись
акте
актинид
актиноидъяс
актов
актриса
акулина
акун
акуру
акуто
акушерско
акцент
ал
алая
албан
албания
алгонкин
але
александр
александра
александров
александрович
александровна
александровіч
алексеевич
алексеевна
алексеи
алена
алены
алеут
али
алия
алнаш
ало
алтаи
алтмыш
алты
алф
алфавит
алфавита
аль
альбервильын
альберт
альбина
альбомъяс
алько
альманах
альманахъясын
альманахын
альп
альпвывса
альпъяс
альпъясын
альпъясысь
альстре
альт
альфия
альфред
алюминии
аляска
ам
амазонка
амбулатория
америка
америкал
америкалысь
америкаса
америкаын
америки
амир
амитостигма
амур
ан
ана
анакамптис
анализ
анализа
анализу
аналогичен
аналогов
анании
ананьиноса
анараш
анастасия
анаталлис
анатолии
анатольевич
анатольевна
анбур
анбурло
анбуро
анбуръяс
анбуръясын
анбуръясысь
анбурын
анбурыс
анггун
ангелина
англ
англии
англичан
англичанко
англия
англияса
англияын
англо
ангола
анголаын
ангрекум
андеграунда
андеграундо
андорра
андот
андреас
андреев
андреевич
андреевна
андреи
андхра
анектохил
анжелика
анжелос
анимация
анисим
анисимов
анисимович
анисья
анна
аннибале
аннона
анны
анонимныи
ансамбль
ансамбльло
ансамбльо
ансамбльын
ансамбльяс
антила
антилопаяс
антиопа
антициклон
античность
антогонист
антология
антон
антонида
антонина
антонов
антонович
антропологии
антропология
антус
ануфриев
ануфриева
ануфриевич
анфим
аныб
ань
анькытш
аньяс
аньясло
аняби
ао
апогеи
апостол
аппалачи
аппарат
аппаратын
апр
апрель
апреля
аптека
ар
араб
араби
арабко
арабскии
аравия
аравияын
аралия
араукария
арви
аргентина
аргентинаын
аргументы
арест
арестуи
арзамазов
ари
арии
арифметика
арифметические
ариэль
аркадии
аркадьевич
арктика
арктикаын
арланьыс
арлыд
арлыда
армении
армения
арменияса
арменияын
армиало
армиао
армиаын
армии
армия
армияас
армиялы
армияо
армияса
армияын
армияысь
армяна
армянскии
арнас
аро
арсении
арсеньев
арся
арсянь
арт
артавсис
артавсьо
артал
арталан
артало
артеев
артеева
артель
артельо
артемии
артист
артиста
артистка
артистъяс
артистъясо
артм
артмало
артманног
артмас
артмис
артмисны
артмо
артмы
артмыны
арторима
артур
артышто
архангельск
архангельско
архангельского
архангельскои
археография
археол
археолог
археологическо
археология
археологъяс
архив
архивын
архивысь
архиепископа
архипелаг
архипович
архитектор
архитектура
архитектурало
архитектураса
арын
ас
асалан
асвеськ
асвесько
аски
аскиа
аско
аскоцентрум
аслам
асланым
асланыс
аслас
аслыныс
аслыс
аслысп
аслыспо
аслыссикас
аслыссяма
асму
аспект
аспирантало
аспиранто
аспирантура
аспирантурао
аспирантураын
аспирантуру
ассам
ассистент
ассистенто
ассоциация
ассоциацияын
асср
ассьыныс
ассьыс
аст
астероид
астероидло
астероидъяс
астероидъясло
астра
астрахань
астроном
астрономия
астрономияса
астрономъяс
асш
асшо
асъюралан
асъя
асыв
асывввыв
асыввыв
асыввывлань
асыввывса
асыввывсянь
асыввыл
асыввылас
асыввыло
асыввылын
асывланьын
асывнас
асывсянь
асылын
асылыс
асьнымо
асьныс
асьнысо
асьс
асьсо
ася
ат
атлантика
атлантувса
атлас
атлетика
атмосфери
атмосферу
атмосфері
атс
аттьо
ау
аудио
афанасии
афанасьев
афанасьева
афанасьевич
афанасьевна
афганистан
афганистанын
афеландра
афинъяс
афразия
африка
африкаанс
африкал
африкало
африкановна
африкаса
африкаын
африки
ахалцихе
ациантера
ачым
ачыс
ашальчи
аэропорт
аэропортъяс
аэропортын
аэрофлот
ая
б
ба
баб
баба
бабиков
бабин
бабина
бавлісны
багатыр
багратион
бадь
бадье
баженов
баженова
бажуков
база
базао
базаын
базаыс
баи
баканов
бакланов
баку
бакуса
бал
бала
балалаи
баландин
баландина
баланопсъяс
балансо
балде
балерина
балет
бали
балин
балкана
балканъяс
балкар
баллада
балт
балти
балтии
балтика
балтикабердса
балты
баля
балябо
бамана
бан
банан
бангладешын
бандароу
банк
банкнотаяс
баннернои
банту
баныс
баня
бара
барабан
барабанъяс
барак
бараксанов
баракъяс
баренц
баржа
барит
барито
барнс
барышня
бас
баскетбол
басняяс
басо
басса
бассеи
басян
батак
батале
баталов
баталова
батальонса
батиев
батиево
батманов
бать
батьло
батьс
батьсо
батьто
батьыс
батьысло
баффин
бахреи
бахчисараи
башкир
башкортостан
башня
баян
баяркеро
баярса
баяс
бб
бд
бдін
бдінса
бевое
бег
бегут
бедныи
бедь
без
безносиков
безносикова
безносов
безносова
безобразова
безопасносьт
беларус
беларусь
беларусьса
беларусьын
беларусі
белка
бело
белорус
белоруссияса
белыи
белых
бельгия
бельгияын
беляев
бенгал
бенгальскии
бенинын
бенуэ
бер
берба
берг
бергало
бергаліс
берго
берд
бердас
бердо
бердса
бердын
бере
берег
берегас
берего
берегын
березина
березник
беринг
берлин
берри
бертье
бесприданница
бессонов
беш
би
биа
биавиж
биармиа
биармия
биару
биарусо
биатлон
биатлонын
библеи
библиогр
библиографическии
библиография
библиотека
библиотекалы
библиотекаро
библиотекаын
библиотеке
библиотечная
библия
бива
бизнес
бии
био
биобиблиогр
биобиблиограф
биобиблиографическии
биогр
биографии
биографическая
биографическии
биография
биологическо
биология
бипур
бир
бирма
бис
бисауын
бислама
бисны
бисо
биу
бихар
бихерт
бичирок
бияс
благо
благовешенньо
благодарим
благодарностью
благоев
блезянаяс
блетия
ближаи
близько
блин
блог
блок
блока
блокада
блокланд
бнкоми
бны
бо
бобо
боболь
бобракова
бобров
бобслеи
бобув
бобувъясо
бог
бога
богатырях
богданов
богомолов
богородицы
боево
божии
бои
бок
бока
бокас
боко
бокс
бокса
боксе
боксер
боксит
боксито
боксянь
боксяньыс
бокъяс
бокъясас
бокъясын
бокъясыс
бокын
бокыс
бокысь
бол
болгар
болгария
болгарияса
болгарияын
более
боливи
боливия
боливияын
болонья
болото
больничаын
большая
больше
большевик
большевикъяс
большеземельско
большим
большинства
большинстве
большинство
большого
большое
большои
большунов
бомарея
бондаренко
боннетия
бор
борасизи
борган
борганъяс
борд
бордаяс
борди
бордъя
бордъяс
бордъяссо
борис
борисов
борисович
борисовна
борнео
боро
борьбе
босния
босняк
босьт
босьтан
босьтас
босьтло
босьтліс
босьтлісны
босьтны
босьто
босьтто
босьтчис
босьтчисны
босьтчо
босьтчы
босьтчыны
босьтчысь
босьтысь
босьтысьяс
босьтіс
босьтісны
бот
ботаи
боталов
ботан
ботаника
ботсванаын
брагин
браз
бразив
бразилия
бразилияын
бразъяс
браи
брассия
братья
брауи
браун
брахми
брезон
брест
бретт
бригада
бригадао
бригадаса
бригадаын
бригадир
британия
британияло
британияса
британияын
британияысь
бритму
бром
броненосец
бронза
бронислав
брунеи
брыка
брэтт
брюсов
брюссель
бсср
бсэ
бтр
бтыло
бтіс
буб
бубрих
бугаев
будапешт
будапештса
будем
будет
будинос
будут
будущего
будущее
буж
бужо
буи
букв
букве
буквы
букур
було
булычев
булычевл
булышев
булышева
бульвар
бумага
бумажно
бунт
бур
бура
бурако
буракодь
бурд
бурджык
бурджыка
бурдин
бурдо
буретш
буржуазно
бурзера
буркина
буркыв
бурлыкина
бурмантов
бурмо
буро
буров
бурсьылысь
буртор
бурят
бурятия
бус
бутан
бутанын
буткан
буткина
бутырева
бухгалтер
бухта
бухтаяс
бушене
бушкола
бъяс
бъясо
бы
бывают
быд
быдвося
быдла
быдлаті
быдлаын
быдлунъя
быдм
быдмам
быдмас
быдми
быдмис
быдмисны
быдмо
быдмыны
быдмысь
быдо
быдп
быдпо
быдса
быдсикас
быдсяма
быдт
быдтан
быдтасъясыс
быдто
быдтор
быдтылісны
быдтыны
быдтысигкежлас
быдтысьо
быдтысян
быдтісны
быков
быковская
был
была
были
быличка
было
быль
бын
быр
бырис
бырисны
быро
бысь
быт
быто
бытть
быттьо
быть
бэк
бюджет
бюджетного
бюджетысь
бюллетень
бюллетеня
бюроо
бюроын
бюст
в
ва
ваа
ваас
вабергач
вавилин
вавилов
вавывса
вагнер
вад
вадим
вадор
вадорас
вадорса
вадорсянь
вадоръяс
вадоръясс
вадоръясын
вадоръясыс
вадоръясысь
вадорын
вадорыс
вадывел
важ
важвыло
важгорт
важгортса
важно
важо
важся
важъя
важыс
важысянь
вазян
ваи
вак
вакатша
вакууме
валалу
валеи
валентин
валентина
валентиновна
валентины
валер
валериан
валерианович
валерии
валерия
валле
валлон
вало
валы
валысь
вальс
валя
вам
вами
вампиловло
ване
ванеев
ванеева
ванкувер
ванкуверын
вант
вануату
вань
ванькакеро
ваньо
ваня
ванял
вао
вапо
вапытшса
вар
вараи
вариант
варианты
варо
варов
варто
варук
варчч
варччысьяс
варшава
варыш
варышо
варышъяс
варышыс
вас
васа
васизь
василеи
василии
василиса
василия
васильев
васильева
васильевич
васильевна
васо
васса
вась
васька
васьло
васьлысь
васьо
васютов
вася
васянь
ват
ватаманов
ватар
ватикан
ватманов
ватшкано
ваувса
вах
вахан
вахнин
вацлав
вачкыштало
ваш
ваше
вашем
ваши
вашим
ваших
ваыд
ваын
ваыс
ваысь
ваявлісны
ваял
ваяло
ваяс
вв
введение
введенньо
вверху
ввода
вгик
вдаль
вдовии
ве
веб
вевдори
вевдорыс
вевт
вевтть
вевттьо
вевттьысь
вевттяло
вевтырт
вевтырто
вевъя
вега
ведомости
ведомосьтъяс
ведомосьтъясын
ведушо
веж
вежа
вежадыр
вежаи
вежаинъяс
вежалун
вежалунсянь
вежан
вежев
вежис
вежисны
вежл
вежлало
вежласис
вежлась
вежласьо
вежло
вежлыт
вежны
вежо
вежов
вежова
вежон
вежоннас
вежоно
вежонын
вежонысь
вежсис
вежсь
вежсьо
вежтасыс
вежысь
вежысьо
вежысьясо
вез
везде
вези
веи
век
века
векджык
веке
векни
векньыдик
веков
вел
велало
велалісны
великая
великие
великии
великим
велико
великого
великои
великополье
великорусского
вело
велоспорт
вель
вельвичия
вемо
вена
венан
венгер
венгрии
венгрия
венгрияса
венгрияын
венда
венера
венесуэла
венесуэлаын
венет
венеция
вензьо
вениамин
вениаминович
венчаи
вень
веньло
веньлысь
веньо
вепс
вепсскии
вепсъяс
вер
вера
верба
вербена
верд
вердило
вердны
вердо
веретя
верзьо
верк
верко
верм
верман
вермас
вермасис
вермасны
вермасьо
вермис
вермисны
вермо
вермы
вермывліс
вермыло
вермыны
вермысь
вермысьо
вермысьяс
вермысьяслы
вермысьясо
вернония
веро
вероника
вероятностная
версии
версия
верст
версттьо
верстьо
верстяммо
вертеп
вертоле
верую
верхневычегодскии
верхнеи
верхнии
верховно
верховного
верхолузье
вершины
весал
весе
весенние
весиг
весигт
весна
веста
вести
вестник
веськ
веськавло
веськавны
веськал
веськало
веськаліс
веськалісны
весько
веськыд
веськыда
веськыдвыв
веськыдвылын
веськыдладорас
веськыдладорын
весьланчои
весьтас
весьтасъяс
весьто
весьтса
весьтт
весьтын
вет
ветас
ветеран
ветеранъясло
ветеринар
ветеринария
ветеринарно
ветл
ветлан
ветло
ветлы
ветлывло
ветлыны
ветлысь
ветлысьяс
ветлысьяслы
ветліго
ветліс
ветлісны
ветник
ветнико
вето
ветошкин
ветошкина
ветса
ветск
ветско
ветувса
ветъяс
ветъясло
ветъясо
ветымын
ветымыно
ветын
ветысь
ветью
вечно
вешенньо
веши
вешт
вешто
вештісны
вещеи
взаимодеи
взводо
взводса
взгляд
взглядам
ви
вид
виддэз
видел
видео
видз
видза
видзан
видзанін
видзанінъяслы
видзанінын
видзиго
видзисны
видзло
видзлісны
видзму
видзны
видзо
видзчысьны
видзысь
видзысьо
видзысьяс
видзысьясло
видзьяс
видлавны
видлал
видлало
видлаліс
видло
видлыны
виду
виж
вижань
вижаньяс
вижов
вижовго
виз
визин
визиндор
визинын
визув
визувт
визувто
визувтысь
визувъяс
визулын
визывт
визь
визьо
визьсо
визьыс
визьяс
визьяса
визя
визябо
визяорда
вии
вик
викбо
вики
викиданные
викиданных
викимарафоне
викимедиа
викимедии
викинг
википедиа
википедии
википедию
википедия
википедияло
википедияын
википедија
викискладе
викификатор
виктор
виктория
викторович
виленса
вилухина
вилхо
виль
вильгельм
вильно
вильноын
вильня
вильо
вильыш
вильям
вина
винатусь
виниус
винла
виноватые
вины
вио
вир
виртуальная
виртуальныи
вис
висер
висерса
висерын
висерысь
виск
висла
висъяс
вись
висьмис
висьмо
висьо
висьт
висьтавліс
висьтавны
висьтавсьо
висьтал
висьтало
висьталіс
висьтасис
висьтасьо
висьтсо
висьтъяс
висьтъясло
висьтъяссо
висьтъясын
висьтъясыс
висьтын
висьтыс
вит
виталии
витальевич
витальевна
витаня
вито
витсе
виттор
витторло
витторлысь
витторо
витысь
витязев
витязева
вихман
вице
вичко
вичкоас
вичкобердса
вичкодор
вичколо
вичкоо
вичкос
вичкоса
вичкосо
вичкоын
вичкоысь
вичкояс
вичм
вичмис
вичмо
виччысьны
виччысьо
виччысьто
вишера
вишерскии
вияло
вк
вка
вкаи
вклад
вклады
включает
включая
вко
вкп
вкус
вл
владилен
владимир
владимирович
владимировна
владимирса
владислав
влак
власов
власовец
власовна
власть
власьт
власьтлы
власьтъяс
власьтъяслы
влксм
вло
влы
влыто
вм
вман
вместе
вместо
вмис
вмисны
вмо
вмыны
внас
внесолнечных
внести
внешнии
внизу
внимание
внутри
вны
вныръяс
во
воас
вог
воддза
водз
водзас
водзвылас
водзвылын
водзджык
водзджыксо
водзкыв
водзкыви
водзкывсо
водзкывъяссо
водзм
водзмо
водзо
водзсасьо
водзті
водзын
водзынджык
водзынсо
водитель
водно
водню
водскии
воды
водь
воевода
военачальник
военкомат
военкомато
военно
военноначальник
вож
вожа
вожае
вожо
вожса
вожсо
вожъяс
вожъясын
вожъясыс
вожын
вожысь
возвращает
воздушно
возеи
возможно
возможности
возможность
возраста
возрождение
вои
воин
воинско
воис
воисны
вок
вока
вокал
вокализма
вокализме
вокан
вокзал
воко
вокруг
вокуев
вокъяс
вокыс
вол
волас
волга
волгадор
волгоград
волеаи
волеи
волженцев
волим
волков
воло
вологда
вологодские
вологодско
вологодского
вологодскои
володь
волонте
волосница
волосовоса
волоф
волся
волхов
волшебно
волшебныи
волывло
волывлісны
волысь
воль
вольн
вольно
вольо
вольпась
вольсало
вольфрам
воляпук
воліс
волісны
вом
вомас
вомланьын
вомо
вомсянь
вомъяс
вомын
вомынбо
вомынъюр
вона
вонас
вони
воны
воо
вообще
вооруже
вооружонно
вопрос
вопросам
вопросов
вопросу
вопросы
воргашорса
воркута
воркутаса
воркутауголь
воркутаын
воркуты
воробеи
воробье
воробьева
воронеж
ворс
ворса
ворсан
ворсана
ворсанног
ворсантор
ворсанторъяс
ворсны
ворсо
ворсысь
ворсысьыс
ворсысьяс
ворсіс
ворсісны
восо
воспитатель
воспоминания
воссис
восстание
воссь
воссьо
восток
востока
восточнои
восточных
востым
воськовъяс
восьмилетньо
восьса
восьсо
восьт
восьтны
восьто
восьтыны
восьтысь
восьтысьяс
восьтіго
восьтіс
восьтісны
вося
восянь
вот
вото
воторник
воторниксянь
воч
воча
вочас
вочасо
воччыны
вош
воши
вошис
вошо
вошт
вошто
вошысь
воын
воыс
воысь
воюи
воя
воянь
вояс
воясас
воясо
воясса
воясся
вояссянь
воясын
вп
впало
впан
впервые
впере
впечатлениями
впъяс
впыс
врагло
врач
време
времен
времена
времени
временная
временник
временно
время
вроде
вручил
вс
вса
все
всеволод
всегда
всего
всем
всеми
всемирныи
всероссии
всесоюзная
всех
вская
вско
всо
вспомогательныи
вст
встас
всто
встреч
встреча
встрече
встречи
встречу
вступ
вступит
встъяс
встын
встысь
всходы
всьо
всю
вся
всянь
вто
вторая
второго
второе
второи
втором
втюрина
втя
втяяс
ву
вугыля
вудж
вуджан
вуджанінъяс
вуджиго
вуджис
вуджисны
вуджлісны
вуджны
вуджо
вуж
вужвои
вужи
вужкыв
вужкыви
вужъяс
вужъяса
вужъясьо
вузавлісны
вузавны
вузало
вузалісны
вузасьо
вузасьысьяс
вузасьысьяслы
вузасян
вузасянін
вузасянінъяс
вузо
вуктыл
вуктылса
вуктым
вуктымса
вулих
вулкан
вулканъяс
вун
вундан
вундассь
вундо
вунлыто
вуно
вурдов
вурсьо
вурсян
вцик
вчи
вчиса
вш
вшо
въет
въю
въяс
въяслы
въяснас
въясо
въяссо
въясыс
вы
выберут
выбор
выборам
выборах
выборов
выборы
выбрали
выв
вывлань
вывланьо
вывланьын
вывло
вывода
вывса
вывсо
вывсьыс
вывся
вывсянь
вывт
вывтас
вывтасъяс
вывтасінъясо
вывтыр
вывтырыс
вывтырысло
вывті
выглядит
выделены
вызов
вызова
выи
выл
вылад
выланныд
выланыс
вылас
вылегжанин
вылна
выло
вылын
вылынджык
вылыс
вылысас
вылысладорыс
вылысыс
вылысь
выль
выльгорт
выльгортса
выльджык
вылькар
выльлун
выльлунсянь
выльм
выльмо
выльо
выльпо
выльтор
выльторъяс
выльтыдор
выльыб
выльыбын
выльысь
вымская
вымско
вымского
вымь
вын
вына
вынва
выни
выно
вынс
вынсо
вынсь
вынсьо
вынъясло
вынъяслы
выныс
вып
выпуск
выпускники
выражения
выру
выселок
выскажите
высокии
высоких
выставка
выставкаяс
выставкаясо
выставке
выстрел
высшего
высших
высшо
выучеи
выходит
вычегде
вычегды
вычегодская
вычегодско
вычегодскои
выше
вышел
вышка
вышла
вьетнам
вьетнамса
вьетнамын
вяи
вятка
вяткао
вятчанин
вячеслав
вячеславович
вячеславовна
від
відкрито
вікіпэдыя
він
г
га
габо
габов
габова
габовои
габура
габури
габурскых
габуру
габушева
гаваи
гавань
гаврив
гавриил
гаврил
гаврилович
гавыв
гавылын
гаг
гагарин
гагауз
гаги
гагиева
гагра
гагшор
гагъяс
гагъясо
гадаи
гаж
гажа
гажакеро
гажлун
гажлунъяс
гажо
гажъяс
гажын
газ
газет
газета
газетл
газетло
газетлысь
газето
газетса
газетъяс
газетъясло
газетъясын
газеты
газетын
газпром
газпромпереработка
гаи
гаин
гаинын
гаити
гаккен
гал
гала
галадорас
галадорын
галгаи
галев
галерея
галилеи
галина
галины
галис
галичысь
галлии
галлямов
гальперин
гам
гамбияын
гамитин
гамлет
гамса
гамская
гамын
гамысь
ганаын
ганимед
ганс
гантман
гапликов
гара
гарады
гараж
гаранин
гармонь
гарольд
гартч
гаръя
гаръяын
гарь
гарья
гас
гаспарис
гастрохилус
гацак
гач
гашко
гвардеи
гвардия
гвардияса
гватемала
гвиана
гвинея
гвинеяса
гвинеяын
гг
гггг
гда
гдао
гдаса
где
гдін
гдінын
геж
гежо
геи
гектар
гектор
гелии
геліи
гелію
ген
генезис
генерал
генерально
генеральному
гении
геннадии
генрих
гень
геня
географ
географические
географическо
география
геодезия
геолог
геологическо
геология
геолого
геологъяс
георгиевич
георгиевна
георгиевско
георгии
георгина
герасим
герасимов
герасимова
герасимович
герб
герд
герда
гереро
герман
германечьяско
германии
германия
германияса
германияын
герменевтика
герои
героини
героиня
героическо
героя
герстле
герцеговина
герцен
герцена
герценовские
герцман
герчкан
гершель
геч
гибнито
гибралтар
гибридъяс
гигантскии
гидрография
гиж
гижа
гижал
гижалан
гижало
гижаліго
гижан
гижанног
гижи
гижиго
гижис
гижисны
гижло
гижліс
гижлісны
гижны
гижо
гижысь
гижысьл
гижысьло
гижысьлы
гижысьлысь
гижысьо
гижысьяс
гижысьясл
гижысьясло
гижысьяслы
гижысьяслысь
гижысьясо
гиз
гилев
гималаи
гималаяс
гимнадения
гимназия
гимназияын
гимназияысь
гимнастика
гинкго
гипс
гитара
гитис
гитлер
гл
глава
главно
главного
главное
главои
главы
глагол
глагола
глаголов
гладков
глас
гласн
гласных
глафира
глебова
гло
глоссарии
глысь
глэдман
глэдмэн
гляденовоса
гнеи
го
гобо
говк
говоров
говорухина
гоголь
гогольло
год
года
годам
годах
годов
годом
году
годунов
годы
гож
гожи
гожо
гожся
гожумнас
гоз
гози
гознан
гозъя
гозъяло
голб
голикова
головина
голос
голоса
голосенко
голосов
голосование
голосовании
голосования
гольдшмидт
гольфстрим
гольфстримсянь
голяыс
гомель
гонгора
гондурас
гонка
гонкам
гонки
гор
гора
гораа
горань
горбаче
горбунов
горбуновская
горд
гордости
гордость
горе
гореи
горинова
горло
гормо
горн
горно
горо
город
города
городскии
городского
городское
горси
горт
гортаныс
гортас
горто
гортса
гортын
горув
горулын
горчаков
горчакова
горчаковло
горш
горы
горькии
горючо
гос
госиздат
госпитальын
госсовет
госторгло
гость
государственн
государственно
государственного
государственное
государственные
государственныи
государственных
государство
государстволы
государствосянь
гот
готард
готов
гоу
гоуд
гр
гра
грабежова
гравітаціи
град
градове
градови
гражданалы
гражданин
гражданинъяс
гражданск
гражданско
грамм
грамматика
грамматики
грамматические
грамматическои
граммо
грамота
грамотао
грамотно
гран
гранди
гранит
гранитысь
граница
границы
грановскии
грантха
граф
графика
графики
гребенникова
грезд
грездас
грездко
грездло
грездо
грездс
грездса
грездсаяс
грездсо
грездсянь
грездъяс
грездъясас
грездъяско
грездъясын
грездъясысь
грездын
грездыс
грездысь
греи
грек
греко
грен
гренлан
гренланд
гренландия
греция
грецияын
греч
гречин
грибова
грива
гриваын
григории
григорьев
григорьевич
григорьевна
гриш
гриша
гришуня
гро
гроза
груз
грузин
грузинскии
грузия
грузияса
грузияын
грузъяс
групи
группа
группао
группаын
группе
группои
группы
грязнова
гс
гса
гсо
гт
гтор
гу
гуал
гуало
гуалісны
гуандун
гуарани
губ
губернатор
губернии
губерния
губернияса
губернияын
губернияысь
губернские
губерня
губерняло
губерняо
губерняса
губерняын
губерняысь
губерняяс
гуджарат
гуджарати
гудо
гудыр
гул
гулаг
гулъяс
гулю
гулюяс
гуляев
гуляева
гуляи
гуманитарно
гумус
гун
гунгун
гундыр
гур
гурье
гурьев
гусли
гусляр
гусо
гусьо
гусьты
гуся
гусяло
гусяним
гусянимъяс
гусясь
гусятор
гут
гуш
гущин
гуын
гуыс
гъяс
гъясло
гъяслы
гъяслысь
гъясо
гъяссо
гъясын
гъясыс
гъясысь
гы
гыд
гыжи
гыжъя
гыжъяса
гызьо
гылало
гыль
гыля
гым
гын
гыр
гырысь
гырысьджык
гырысьо
гырысьясыс
гыс
гыслысь
гысь
гыч
гыяс
гэл
гэс
гіганти
гігантів
д
да
дабл
дав
даваи
давид
давлісны
давно
давны
давыдов
дагестан
дагестанын
даддьо
даже
даи
дакота
дактиль
дал
далеко
дало
дальнего
дальнеи
дальше
далісны
дам
дама
дан
дана
даниил
данила
данилов
данилова
даниловна
даниэль
дания
данияса
данияын
данног
данного
данное
даннои
данные
данныи
данным
данных
дантор
дань
данін
данінъяс
данінын
дар
дарас
дари
даро
даръя
дарья
дас
даса
дасвояс
дасны
дасо
дасысь
дась
дасьо
дасьт
дасьтан
дасьто
дасьтыло
дасьтыны
дасьтысь
дасьтысьо
дасьтысьяс
дасьтысян
дасьтіго
дасьтіс
дасьтісны
дат
дата
даты
дать
даугава
дача
дачникъяс
дашогуз
даын
даяс
дбо
два
две
движение
движением
движении
движению
движения
двина
двои
двор
дворец
дворечын
дворы
двуж
двужыс
двух
дд
ддельно
дджыка
ддза
ддыри
де
деванагари
девиз
дед
дездемона
деи
дек
декабр
декабря
декамп
декан
декано
декларация
декрет
дел
делаи
делам
делать
делегат
делегато
делегаты
деление
дели
дело
делопроизводительо
дельта
дементьевич
демидов
демин
демобилизация
демобилизируи
демографическии
демократическо
демократия
демченко
демьян
ден
дена
дендробиум
дене
дениз
денис
денисов
день
деньга
депутат
депутато
депутатов
депутатъяс
депутатъясло
депутатъясо
депутаты
дер
дерби
дербиын
дереванно
деревенское
деревенскои
деревне
деревни
деревня
деревья
дерт
десятилетия
дет
детгиз
детдомын
детеи
дети
детинка
детская
детскии
детство
детьми
детям
деятель
деятельности
дж
джа
джавршян
джаго
джан
джанса
джанын
джараи
джеджим
джеи
джек
джен
дженьдо
дженьыд
дженьыда
дженьыдджык
дженьыдик
дженьыдо
джиан
джианъяс
джив
джиян
джованни
джозеф
джон
джордж
джса
джсянь
джувдор
джуджданас
джудждао
джудждаыс
джуджта
джуджыд
джуджыдджык
джуитт
джульетта
джум
джумхури
джъяс
джыдж
джык
джын
джынвыи
джыни
джынъяс
дз
дза
дзал
дзан
дзаяс
дзва
дздо
дзебисны
дзебны
дзебо
дзебсь
дзебсьо
дзебсясь
дзеско
дзескыдіно
дзескыдінын
дзж
дзжо
дзи
дзик
дзико
дзирдал
дзиръя
дзк
дзны
дзо
дзодзо
дзоль
дзольго
дзольгыри
дзользьо
дзолюк
дзоля
дзоляник
дзонг
дзонь
дзоньвидза
дзоньвидзалун
дзоньнас
дзоньтавны
дзоньтало
дзоридз
дзоридзало
дзоридзьяс
дзоридзьяса
дзса
дзуг
дзуги
дзы
дзыд
дзыдджык
дзыдъяс
дзыдысь
дзыс
дзьяс
дзюдо
ди
диакритика
диалект
диалекта
диалектов
диалог
диаметрыс
диана
дивизиа
дивизиаын
дивизия
дивизияло
дивизиялы
дивизияса
дивизияын
диво
дивья
диграфъяс
дизаи
дизельно
дик
дикои
диктант
диктатор
диктор
дин
дина
динамика
динамо
динар
динара
динго
динка
диплом
дипломо
диптерокарп
директор
директора
директорало
директораліс
директоро
директоръяс
дирекцияло
дириже
дис
диск
дисккутан
дискография
дискуссии
дисномия
диссертациа
диссертация
диссертациясо
дистанция
дисциплина
дит
дитан
дитло
дитны
дито
дитч
дитчан
дитчана
дитчис
дитчисны
дитчо
дитчыны
дитысьяс
дитісны
диурис
дифтонгъяс
дихапеталумъяс
дк
дко
дкыв
дкывъяс
дкырко
дл
дла
длаас
длан
длана
дланін
дланінло
дланіно
дланінын
длао
длап
длапо
длас
дласыс
длаті
длаын
длаысь
дло
длы
длывло
длыны
длысь
длысьло
длысьлысь
длысьнас
длысьо
длысьыс
длысьяс
длысьясло
длысьясо
длыт
длыто
для
дліго
дліс
длісны
дм
дма
дмавны
дмал
дмалан
дмало
дмалысь
дмалісны
дмасис
дмасьло
дмасьны
дмасьо
дмитриевич
дмитриевна
дмитриевои
дмитрии
дмитрия
дмо
дму
дмусин
дмыны
дне
дневник
дневникас
дневные
днеи
днепр
днестр
дни
дног
дны
дныс
дня
дням
до
добавить
доблестно
доблесть
доблесьтысь
добрая
добро
доброго
доброумов
добрыи
добряков
дов
дова
довго
довольно
додз
додь
дозм
дозмо
дозорно
дои
докл
доклад
докладо
докладъяс
доклады
доктор
доктора
документ
документально
документации
документация
документъяссо
документъясын
документы
долган
должен
должна
должно
должносьто
должносьтъясын
должносьтын
должны
доллар
доломит
дом
доме
доменико
доменъяс
доменыс
доминикан
домна
домны
домокош
домра
дон
дона
донае
донал
донао
донецк
донъявны
донъяло
донъяліс
доп
дополнительные
дор
дорас
дорвыв
дори
доро
доров
дорова
дорович
доровло
доровна
доровои
дорог
дорога
дороги
доронин
доронина
доропеи
дорофеева
дорса
дорсянь
дорччысь
доръям
доръян
дорын
дорысь
доспехов
достаточно
достижения
достоевскии
доступен
доступны
доцент
доценто
дочка
дочь
дпо
др
дравид
дракула
драма
драмаа
драматург
драматургии
драматургия
драматургъяс
драмаяс
драмы
древнего
древнеи
дрогалина
дрофа
друг
друга
другая
другие
других
другое
другои
другъяс
дружба
дс
дса
дсао
дсо
дсь
дсьо
дсьыныс
дсьыс
дсянь
дт
дто
дтор
дтыбок
дті
ду
дубрава
дубровскии
дув
дувъясо
дугд
дугдо
дугдывто
дугдіс
дугдісны
дукция
дум
дума
думао
думаса
думаю
думъе
думын
думышто
дунаи
дунган
дуркин
дуров
дут
дутов
дух
духов
духова
духовн
духовная
духовно
духовнои
духъяс
душа
души
дч
дча
дчавны
дчалісны
дчан
дчана
дчанао
дчанаторъяс
дчанкыв
дчанкывъяс
дчанлун
дчанлуна
дчанлунсо
дчанлуныс
дчанін
дчаніно
дчанінъяс
дчанінъясло
дчанінъяслы
дчанінъясо
дчанінъясын
дчанінын
дчаніныс
дчанінысь
дчас
дчасны
дчерем
дчи
дчиг
дчигас
дчиго
дчис
дчисны
дчо
дчы
дчывл
дчывло
дчыл
дчыло
дчыліс
дчымо
дчыны
дчысь
дчысьлы
дчысьо
дчысьяс
дчысьясло
дчысьяслы
дчысьясо
дчыто
дъю
дъяс
дъяса
дъясас
дъясо
дъясс
дъяссо
дъясын
дъясыс
дъясысь
ды
дым
дын
дыр
дырджык
дыри
дырся
дыс
дыско
дыслы
дысо
дыссо
дысь
дысьло
дысьлы
дысьлысь
дысьнас
дысьо
дысьяс
дысьясло
дысьяслы
дысьяслысь
дысьясо
дысьяссянь
дыхание
дыш
дыштало
дь
дьяконов
дьяконовло
дьяченко
дэвид
дэн
дюр
дядь
дядьо
дядя
дяк
дяко
дян
ді
діаметр
діасе
діго
дін
діно
дінын
діс
діса
дісны
діюр
діяс
діясло
е
ев
евангелие
евгении
евгения
евгеньевич
евгеньевна
евдокия
евлогии
евразии
евразия
евразияын
евреи
евро
евроаддзо
европа
европак
европал
европало
европалысь
европао
европаса
европасаяс
европаын
европаысь
европеи
европы
егерме
египет
египетын
его
егор
егореи
егорова
егорович
егоровна
еджгов
еджыд
еджыдо
еджыдъяс
еджыдъяслы
единои
едэма
ее
еи
екатерина
екатеринбург
екватора
елена
елизавета
елин
елисеи
елистратов
елохин
елфимова
елькин
елькина
ельцова
ельцовал
ельцовои
ем
емва
емвао
емваса
емд
емдін
емдінса
емдінын
емель
емельян
емен
ему
ен
енбиа
енисеи
енко
енлы
енм
енмам
енмамло
енмо
енмыс
ентыла
енъясо
енэж
енэжва
енэжваяс
енэжо
енэжтас
енэжын
енэжыс
епанешников
епархии
епархия
епим
епископ
епископа
епун
ер
ереван
ереванса
еремеи
ерилов
еринь
ермаков
ермил
ермолин
ермолинло
ершов
ес
есева
есенин
есенинлысь
если
естественно
естествознание
есть
ет
ефим
ефимова
ефимович
еще
ж
жа
жак
жаков
жакова
жаковло
жаковлысь
жаково
жаланін
жало
жан
жанеи
жанр
жанров
жанръяс
жанръясын
жанрын
жар
жариков
жаръяс
жарысь
жас
жва
жданов
ждысьо
же
жеб
жебджык
желание
желательно
железнодорожно
железныи
жемаи
женева
женитьба
женско
женщина
женщины
жеребцов
жеребцова
жером
жж
жи
живая
живе
живешь
живого
живопись
жиделева
жижева
жизни
жизнь
жили
жилин
жилина
жильно
жителеи
жителям
жить
жмудор
жнас
жного
жны
жо
жонь
жоньяс
жсигас
жсян
жсянь
жуг
жуглась
жуго
жугыль
жук
жуков
жукова
жуковло
жуковскии
журавле
журавлева
жури
журио
журн
журнал
журнала
журналист
журналистало
журналистика
журналистикаын
журналисто
журналистъяс
журналистъясло
журналисты
журналло
журнало
журналса
журналъяс
журналъясло
журналъясын
журналын
жъяс
жын
жыннян
жынняно
жыр
жыри
жыръя
жыръяс
жыс
жь
з
за
забелинская
забоев
забоева
забываи
завалинка
заведении
завершила
завершился
завершится
завет
заветно
зависимости
завод
заводит
заводито
заводитч
заводитчигас
заводитчиго
заводитчис
заводитчо
заводитіс
заводитісны
заводло
заводо
заводса
заводъяс
заводъясо
заводъясын
заводын
заводысь
завьялов
загадки
заглавнои
заглавную
заголовка
заголовками
заголовков
заголовком
заголовок
заготовку
задае
задание
задания
заданныи
задать
задачи
задаются
задающему
заезд
заи
закалялась
закар
закон
законодательных
зал
залын
замбези
замбияын
замежно
замены
заметки
занулльо
заозерье
заочно
зап
запань
запасно
запасо
запасъяс
запасъясыс
запасыс
записи
записки
запись
заполнив
заполярно
заполярье
запрос
заптан
запто
заптісны
зарава
заречно
заречье
зарни
зарниа
зарнило
зарнио
зарождение
заря
заседании
заслугаясысь
заслуги
заслуженн
заслуженно
заслуженныи
засухин
затем
затон
затонса
захаренко
захаров
захарович
защиту
заявки
заявление
заявлении
заявления
заявок
заясысь
збыль
збыльвывса
збыльвылас
збыльмо
збыльысь
звание
званиео
званиеяс
звания
званньо
зве
звезда
звездои
звезды
звер
звишо
зво
здесь
здравствуи
здук
зды
зе
зезегов
зеланд
зеландия
зеландияын
зеландын
зеле
зеленец
зеленеч
зеленечса
зеленечын
зеленечысь
зеленцов
земле
земли
землю
земля
земляка
землячестволо
землі
земних
земнои
земноі
земск
земско
земство
земстволо
зенитын
зер
зерлинг
зеро
зз
зи
зиль
зимбабвеын
зимстан
зинаида
зия
зияын
зк
зко
зкост
зкостса
зкотыр
зкотырса
зл
зло
злы
злысь
змеи
змо
знает
знак
знаков
знаменательные
знаменательных
знамя
знание
знании
знания
значение
значении
значения
значит
зная
знича
зо
зоби
зов
зовруд
зои
золотая
золото
золотое
золотои
зон
зона
зонка
зонкаяс
зонмо
зонпоснияслы
зонъяс
зоология
зори
зосима
зоя
зрения
зсо
зубков
зубов
зуд
зуева
зуло
зулу
зумыд
зур
зъяс
зым
зын
зыр
зыран
зыро
зырян
зыряна
зырянало
зыряналысь
зыряне
зырянская
зырянскии
зырянских
зырянско
зырянского
зырянскои
зырянъясын
зыс
зысло
зыслы
зысь
зь
зьо
зьяс
зэв
зэр
зэра
зэрас
зэро
зэръяс
зэрыс
зюзев
зяи
зі
зілис
зілисны
зіль
зільо
зіля
и
иа
ибсенло
ив
иван
ивана
иванов
иванова
иванович
ивановна
иваново
ивановская
ивановско
иваныс
ивашев
иво
иврит
ивуарын
ивук
иг
игас
игбо
игнат
игнатов
игнатова
иго
игоревич
игорь
игра
играи
игры
игушев
ид
ида
идеи
идеология
идиот
идиш
идише
идо
идолъяслы
идолъяссо
иевлев
иеллоустон
иереи
иероглифъяс
иероглифъясо
иерусалим
ижевск
ижемскии
ижемского
ижемцев
ижкар
ижма
ижмы
ижора
ижорскии
из
изба
избежать
избирателя
избр
избран
избранное
избранные
изв
известие
известия
известная
известныи
известным
известняк
извесьт
изд
издание
издании
издания
издат
издательскии
издательство
издорса
изи
изкар
изки
изложении
изменен
изменении
изменения
изображение
изображением
изображении
изображения
изотов
израиль
израильын
изучающих
изучение
изучения
изшом
изъэрд
изъюр
изъюров
изъюрова
изъя
изъяс
изъясо
изьва
изьваи
изьваса
изьватас
изьваын
изьыло
изэрд
ии
иисус
икако
ике
икк
иксора
ил
иланг
или
иливапыс
илля
илляшор
илокано
ильвес
ильи
ильин
ильинична
ильич
ильмари
илья
им
имбирь
име
имеет
имеется
имен
имена
именем
имени
имениеын
именно
имп
император
империи
империя
империяын
имре
имя
ин
инало
инасьто
иначе
инвалидо
инвалидъяс
инга
инд
индан
индекс
индии
индия
индияса
индияын
индо
индокитаи
индонезии
индонезия
индонезияса
индонезияын
индустриально
индустрия
индыны
индысь
индыто
индіс
индісны
инерт
инесса
инженер
инженерно
инженеро
инициальяс
инициативы
инкери
инмас
инна
инним
иннимъяс
инновационно
иннокентия
ино
иногда
инпас
инсбрук
инспектор
инспекторо
институт
института
институтло
институтлысь
институто
институтса
институтъяс
институтын
институтысь
инструктор
инструкторо
инструкции
инструмент
инструменталь
инструментъяс
инструментъясло
инструменты
инта
интаса
интасянь
интеграла
интеллигенция
интерглосса
интересуи
интерлингва
интернат
интернатын
интернационально
интернет
интернете
интерфеи
информатика
информации
информационно
информационного
информационное
информационныи
информацию
информация
инъяс
инъясын
инын
иньва
ио
иоанн
иоанна
иоанно
иовлева
иоганн
иона
ионович
иордания
иосиф
иосифович
ипать
ир
ира
ирае
ирак
иракын
иран
иранын
ирва
ирвел
ирина
иркап
иркутск
ирланд
ирландия
ирландияын
ирландса
иро
ирсь
иртыш
ирым
ис
исаев
исаева
исаков
исане
искандер
исключением
исковто
искусства
искусстве
искусство
искусствовед
искусствоведение
искусствоведениеяса
искусствоо
искусствоса
искусствоын
искусствояс
искусствоясло
искусствоясын
ислало
ислам
ислан
исландия
исландияын
исландса
исны
исп
испан
испани
испания
испанияса
испанияын
испанскии
исполком
исполкомло
исполкомо
исполкомын
исполнитель
исполнительно
исполняющим
использование
использованию
использования
использовать
используется
используи
используются
использующих
испр
исправить
исправления
исследовании
исследования
исследователи
исследователь
исследовательско
ист
истан
истанъяс
истиховская
истомин
истомина
истор
истории
историк
историко
историческ
историческая
исторические
историческии
историческо
историческои
история
историяо
историяса
историясо
историяын
историяыс
историяысь
источник
источники
исчезновения
ит
итал
итали
италии
италия
италияса
италияын
италья
итальян
итальянлань
итар
ительмен
ительменскии
ительно
итл
итло
итны
ито
итоги
иттрии
итч
итчан
итчис
итчо
итчыто
итісны
иу
ифа
их
ич
ичеткин
ичо
иыд
иын
иыс
июль
июля
июнь
июня
ия
ияли
ияс
к
ка
кабала
кабарда
кабил
кабинет
кабо
кабыр
кавалер
кавалеръяс
кавалеръяслы
кавалеры
кавелаарс
кавказ
кавказса
кавказско
кавказын
кага
кагао
кад
кадаи
кадакыв
кадакывл
кадакывло
кадакывъяс
кадакывъясло
кадас
кадколаст
каднас
кадо
кадпасъяс
кадро
кадръяс
кадс
кадсо
кадся
кадсянь
кадсяньыс
кадъя
кадъяс
кадын
кадыс
кадысь
каждои
каждые
каждыи
кажым
кажымса
казакевич
казакова
казандор
казань
казаньса
казаринов
казаринова
казах
казахстан
казахстанса
казахстанын
казлук
казминова
казнь
казуарина
казьтывло
казьтывсьо
казьтыл
казьтылан
казьтылана
казьтыло
казьтышто
казявлывлан
казявлывло
казявны
казял
казялан
казяласны
казяло
каи
как
какао
какие
каких
како
какои
кал
каладения
каланте
калашников
кале
калевала
каледония
каледонияын
календар
календарын
календарь
календаря
кали
калии
каликова
каликовои
калимантан
калимов
калина
калинин
калининград
калипсо
калифорния
калле
каллиопа
каллисто
каллистрат
калмык
калмыкия
калов
калофилл
кальманло
кальо
каля
каляты
кам
кама
камао
камбалов
камбалова
камбоджаын
каменно
каменского
каменщик
камера
камерунын
камилла
каминскии
кампании
кампания
кампинема
камчатка
камчаткао
кан
канада
канадаса
канадаын
канал
каналан
канало
каналъяс
каналъясо
канд
кандидат
кандидато
кандидатов
кандидатско
кандидаты
канев
канева
канкар
канкарса
канкарын
канму
канмулы
канмуо
канмуса
канмуын
канмуяс
канмуясын
каннада
канова
канпас
канса
кансям
канури
кань
као
капитан
капитанская
каплин
капуста
капустин
кар
кара
караб
карабах
карабъяс
каракалпак
каракчиева
карас
каратаи
карачаи
карбас
карбасын
карбердса
каргорт
кардиология
кардор
кардоро
кардорса
кардорсянь
кардорын
карел
карелии
карелия
карелияса
карелияын
карелияысь
карело
карелъяс
карелъясло
карельская
карельские
карельскии
кариб
карика
кариокар
каркытш
каркытшло
каркытшо
каркытшса
каркытшъяс
каркытшын
каркытшысь
карл
карлик
карло
карманов
карманова
кармыльк
карнан
карнатака
каро
карпатъяс
карпов
карпом
карпомъяс
карса
карсо
карсяма
карсянь
карта
картасикт
картаяс
картвел
картинаа
картография
картон
картупель
карты
каръера
каръяс
каръясло
каръяслы
каръясо
каръясын
каръясыс
каръясысь
карын
карыс
карысь
карьера
карьерын
касается
каспи
кассини
кассяна
кастрен
касьо
катаев
катаевло
катакана
каталан
каталог
катальпа
катание
катар
катасетум
категори
категории
категорию
категория
категорияын
категорија
категорія
катер
катерина
кати
каткова
като
католик
католиков
католическо
каттлея
катша
катшасин
катъясын
катыд
катыдпом
катыдпомын
катыдын
катыла
катыласа
катылаын
катэгорыя
каури
кафедра
кафедрал
кафедрао
кафедраса
кафедраын
кафта
ках
кацалапов
кач
качаи
качестве
качо
кашмир
кашуб
каын
каян
каяс
кв
квадратика
квадратики
кваи
квант
кваоар
квартал
кварц
кварцево
кварцит
квать
квенья
квинсленд
квн
кг
кгагъяс
кгпи
ке
кебанъе
кебра
кебраса
кебраын
кебырыб
кевман
кедва
кедвавом
кедвавомса
кежл
кежлас
кежло
кежо
кежысь
кеи
кек
кекур
кекурын
кель
кельо
кельси
кельт
кельчи
кельчиюр
кельыдго
кельыдло
кембри
кемерово
кенияын
кепысьяс
кер
керал
керала
керамзит
керан
керес
керка
керкаас
керкао
керкаса
керкасо
керкасянь
керкаын
керкаыс
керкаысь
керкаяс
керкаяссо
керкаясын
керки
керновса
керо
керчомъя
керчомъяса
керчомъяын
керчомья
кесъял
кет
кетелеерия
кетов
кечуа
кечы
ки
киас
кибра
кид
киев
киевын
кизьо
киколь
кило
килограмм
килограммо
килограммсянь
километр
километра
кильдин
кин
кинас
кингисепп
кинематограф
кино
киноакте
киноаттракцион
кинозал
кинорежиссе
киноса
киносценарист
кинотеатр
кинофильм
кинофильмъяс
кинь
кио
кипарис
кипиев
киподтуи
киподтуя
кипомысь
киппт
кипр
кипрушев
кипрушева
кипъе
кирибати
кирилл
кириллица
кириллицу
кириллическое
кириллович
кирито
кириченко
киро
киров
кировса
кирпич
кирпиченко
кирпичсо
кирпичысь
кирсикт
кирт
кируль
кисляков
киссь
киссьо
кисьмо
кисьт
кисьтан
кисьтана
кисьто
китаи
киуру
киче
кичин
киын
киысь
кияс
кк
кл
клавдия
клавиатура
клавиатуры
клавишаяс
клад
кладбище
класс
класса
классик
классика
классикао
классики
классическ
классическии
классическим
классическо
класслы
классо
классса
классъяс
классъяслы
классъясын
классын
кле
клеи
клеито
клеопатра
климат
климатын
климатыс
климов
климовская
клин
клина
клингон
клочков
клочковлысь
клуб
клубо
клубын
клузия
ключ
клянича
км
кмыло
кмыс
кмысдас
кмысдасо
кмысо
кмыссе
кн
книг
книга
книгаяс
книги
книгои
книж
книжно
книжное
княжество
княжпогост
князев
князь
князя
ко
кобра
ков
кова
ковалев
ковмис
ковмо
ковмывліс
ковскии
ковто
ковтысъяс
ковтысъясын
ковтысын
ковыль
когда
кого
код
кода
кодане
коддьо
кодекс
кодекса
кодзув
кодзувкот
кодзувкотъяс
кодзувлань
кодзувло
кодзувъяс
кодзула
кодзуло
коди
кодко
кодл
кодло
кодлы
кодо
кодом
кодсюро
кодъяс
кодъяско
кодъясл
кодъясло
кодъяслы
кодъясо
кодъясысь
кодь
кодьо
коді
кожва
коз
козин
козинъяс
козлов
козлова
козловало
козлорд
козъя
кои
кок
кока
кокавлывло
кокавны
кокало
кокас
кокконен
кокни
кокниа
кокньо
кокньыда
коковкин
коксуи
коксующо
коксяр
кокъясыс
кокыс
кол
кола
колана
коланлун
колас
коласа
колва
колегов
колегова
колеговская
колесников
колец
коли
колины
колип
колипов
колис
колисны
количество
колкоз
колкозын
коллеги
коллегия
колледж
колледжын
коллектив
коллективизация
коллекционер
коллекцию
коллекция
колльо
коллявны
колляло
коло
коломбо
колорадо
колтта
колумби
колумбия
колумбияын
колхоз
колхозник
колхозникъяс
колхозно
колхозо
колхозса
колхозъяс
колхозын
колхозыс
коль
колье
кольк
кольквиж
кольки
кольксо
кольксьыс
колькъяс
колькъяссо
колькъясыс
кольны
кольо
кольцовлысь
кольчаяс
кольчурин
кольчч
кольччис
кольччисны
кольччо
кольччыны
коля
коляло
колян
коляоз
коляс
колясъяс
колясъяссо
коліс
колісны
ком
команда
командало
командао
командаса
командаын
командаысь
командаясо
командир
командирло
командиро
командныи
командои
командуи
команды
комаров
комбинатын
комбриг
комдив
комедия
комет
комети
коми
комиа
комиавиатранс
комигижысь
комигиз
комиинформ
комил
комило
комимуын
комио
комионлаи
комипермгиз
комиссии
комиссия
комиссияло
комиссияо
комиссияса
комиссияын
комитет
комитета
комитетло
комитето
комитетса
комитетын
комиын
комиысь
комияс
комиясл
комиясло
комияслы
комияслысь
комиясо
коммент
комментариев
комментарии
комментариями
коммуна
коммунально
коммунального
коммунизм
коммунист
коммунистическая
коммунистическо
коммунистъяс
комор
компакт
компания
компас
компаса
компасом
компенсацию
комплекс
комплексно
комплексын
комплект
композитор
композиторов
компонент
компьютер
компьютерло
компьютеров
комса
комсомол
комсомолец
комсомоллысь
комсомольская
комсомольско
кому
комыд
комын
комыно
кон
конаков
конвеи
конго
конгресс
конгресса
конгрессъяс
конда
конденсат
кондратьева
конев
конец
конечно
конкани
конкка
конкурс
конкурса
конкурсе
конкурсло
конкурсо
конкурсъяс
конкурсъясо
конкурсын
коновалов
коновалова
кононов
коносова
консерватория
консерваторияын
конского
консонант
консонантъяс
константин
константинович
конституция
конструктор
конструкцияяс
консультанто
консультативно
консультации
контактов
контактын
контекст
контексте
континентвывса
контора
контораын
контр
контрразведчик
контрреволюционно
конф
конференции
конференция
конференцияяс
конфискуи
конца
конце
концентрат
концерт
концертмеи
концертно
концертъяс
коньках
коньки
конькио
конькова
коньшина
конюхов
конюшня
координат
координаты
координируи
копт
кор
кора
кордильера
кордильераяс
кордильераясл
кордильераяссянь
кордильераясын
кореи
коренных
корея
кореяса
коржа
кори
корис
корисны
коричневое
корк
корко
корнеи
корнелиус
коро
коробеи
коровина
короле
королев
король
корольув
коротаева
корпус
корпуса
корпусын
корректно
корреспондент
корреспондентало
корреспонденто
корсиго
корсикан
корсис
корсия
корсь
корсьны
корсьо
корсюр
корсюро
корсяло
корткеросская
коръя
коръяс
коръясо
коръяссо
коръясыс
коръясысь
корья
коряк
кос
коса
косджык
кослан
косланса
косланын
космодромсянь
космос
косму
коснырева
косо
косов
косова
косово
косолапов
кост
коста
коставло
коставлыто
костарика
костас
косто
кострома
костромин
костромина
костус
костын
костысь
кось
коськ
коськъяс
косьм
косьт
косьтан
косьювом
кот
котельно
котлас
кото
котов
которая
которого
которое
которои
котором
которые
которыи
которых
котравны
котрал
котралан
котрало
котралысь
котралысьяс
котрых
котыр
котыра
котырас
котырись
котырко
котырл
котырло
котырлы
котырлысь
котырнас
котыро
котырса
котырсо
котырт
котыртло
котыртлісны
котыртны
котырто
котыртчис
котыртчисны
котыртчо
котыртысь
котыртысьо
котыртысьяс
котыртысьясло
котыртіс
котыртісны
котыръяс
котыръяслы
котыръясо
котырын
котырыс
котырысь
коч
кочанов
коче
кочев
кочегаро
кошевои
коюшев
коҥго
кпа
кпелле
кпрф
кпсс
кр
крае
краев
краевед
краеведение
краеведческии
краеведческо
краи
краколье
крам
крановщико
красная
красно
красноармееч
краснобор
краснодар
красное
краснои
красноярск
красныи
красоты
кратер
кратеръяс
краткая
краткии
краткое
края
краіны
кредит
кремль
кремнии
кремская
кренделева
креол
крепостно
крест
креста
кресто
крестса
крестсо
крестъяс
крестьян
крестьяна
крестьянало
крестьяналы
крестьяналысь
крестьяне
крестьянин
крестьянка
крестянин
кресьттяна
кресьттянин
кресьтяна
кресьтянало
кресьтяналы
кресьтянаяс
кресьтянин
кречет
кри
кривоще
крио
крироипк
кристаллсяма
кристиан
кристина
кристос
кристосло
кристослы
критик
критика
критическо
криуу
кро
крокодилъяс
кроме
крона
кросс
кротов
круглов
круглых
кружок
кружоко
крукыля
крупнеи
крупская
крут
круто
крутоборка
крым
крымо
крымтотара
крымын
крюков
кряж
крім
ксаи
ксан
ксано
ксеи
ксения
ксы
ксыув
ксыувло
ксьо
кт
кта
ктан
ктанас
ктаыс
кто
ктор
кты
ктыны
ктысь
ктыын
ктіс
ктісны
ку
куа
куб
куба
кубаса
кубок
кувеи
кувсис
кувсисны
кувсьо
кувто
куд
куди
кудряшова
кудряшовои
кудымкар
кудымкаро
кудымкарса
кудымкарын
куж
кужба
кужи
кужо
кужса
кужысь
кузакова
кузебаи
кузебая
кузиванов
кузиванова
кузиник
кузнецов
кузнецова
кузнецово
кузнецовская
кузнеч
кузнечик
кузь
кузьбожева
кузьджык
кузье
кузьма
кузьменкоко
кузьминская
кузьмо
кузьта
кузьтанас
кузьтаыс
кузьты
кузя
кузяыс
куи
куим
куимнан
куимо
куимсе
куимысь
куина
куинь
кук
кукань
куклина
кукуруза
кукушка
кул
кулак
кулаков
кулан
кулига
кулижников
кулик
куликов
куло
кулом
кулома
куломе
куломом
куломская
куломскии
куломского
куломское
културно
куль
культ
культо
культур
культура
культурало
культуралысь
культурао
культураса
культураын
культураяс
культуре
культурно
культурного
культурныи
культурология
культуру
культуры
кулі
куліс
кулісны
кунва
кунваму
кунгин
кунгур
кунед
кунь
куньыб
куо
купаи
купала
купалал
купалалы
купалалысь
купальнича
купеч
купечло
купечьяс
купечьяслы
кур
куратов
куратова
куратовало
куратовл
куратовло
куратовлы
куратовлысь
курган
курд
куро
курорт
курочкин
курс
курсант
курск
курсо
курсъяс
куръя
куръядор
куръяс
куръясянь
куръяяс
курыд
кус
куслыто
кусо
куст
кустаинъяс
кустарники
кустъяс
кустъяса
кут
кутал
кутало
куталысь
кутан
кутантор
кутас
кутасны
кутенаи
кутны
куто
кутра
куття
кутчысь
кутчысьны
кутш
кутшо
кутысь
кутькин
кутіс
кутісны
кучев
кучик
куш
кушман
кушманов
кушмановло
кушнирло
куштысев
куыд
куяс
куясо
кхмер
кхудавади
кхуздул
кчим
кчимдін
къ
къямыс
къямысдас
къямысдасо
къямысо
къямыссе
къяс
кы
кыа
кыао
кыв
кывбердло
кывбертлас
кывбертласъяс
кывбур
кывбура
кывбуралысь
кывбуррез
кывбурсо
кывбуръяс
кывбуръяса
кывбуръясс
кывбуръяссо
кывбуръясын
кывбуръясыс
кывбурын
кывбурыс
кывбурьяс
кыввор
кывворын
кыввужъя
кывзо
кывзыны
кыви
кывк
кывко
кывкуд
кывкудъяс
кывкудъясын
кывкутана
кывкуто
кывкутысь
кывл
кывлань
кывло
кывлы
кывлысь
кывнас
кывны
кывным
кывпод
кывс
кывсо
кывсянь
кывто
кывтор
кывтуялысь
кывтыд
кывтыдпом
кывтэчас
кывтэчасъяс
кывчуко
кывъя
кывъяс
кывъяско
кывъяслань
кывъясло
кывъясо
кывъяссо
кывъясын
кывъясыс
кывъясысь
кыд
кыда
кыдджыка
кыдз
кыдзи
кыдзкар
кыз
кыза
кызвын
кызвыннас
кызвынсо
кызвыныс
кызвынысло
кызвынысьс
кызо
кызтанас
кызь
кызьо
кыи
кыисны
кык
кыка
кыкладор
кыкнан
кыкнанныс
кыко
кыксе
кыкыс
кыкысь
кыл
кыло
кылісны
кым
кымо
кымын
кымынк
кын
кындзи
кынм
кынмывлы
кынмывны
кынмыл
кыно
кынь
кып
кыпало
кыпалышто
кыпо
кыпт
кыпто
кыптіс
кыптісны
кыпыда
кыр
кырвыв
кыргыз
кыргызстан
кыргызстанын
кыри
кырк
кырко
кырлало
кырло
кырныш
кырныша
кырнышъяс
кыро
кырс
кырсь
кырта
кыртаяс
кыртъяс
кырув
кыръяс
кыръяссянь
кыръясын
кыръясыс
кыръясысь
кырымало
кырымаліс
кырымалісны
кыс
кыско
кыскыны
кыссь
кыссьо
кыссян
кысь
кысько
кысян
кысянь
кыт
кыто
кытсюро
кытч
кытчо
кытш
кытшал
кытшлало
кытшло
кытшо
кытшовт
кытшовто
кытшса
кытшсянь
кытшъяс
кытшъясын
кытшын
кытшыс
кытшысь
кытысь
кыті
кыш
кыша
кышо
кыян
кыԓгынкэн
кэ
кэролин
кілометрів
кәмма
л
ла
лабиринт
лаборант
лаборанто
лаборатория
лабораторияо
лабораторияын
лабрадор
лабытнанги
лава
лавка
лавкаяс
лавр
лагеро
лагерын
лад
ладанов
ладмо
ладор
ладорло
ладоро
ладорын
лажане
лажанев
лажмыд
лаз
лазарь
лаи
лак
лакота
лальск
лан
ландшафтъяс
ланка
ланкаын
лантаноидъяс
лань
ланін
ланінъяс
ланінын
лао
лаос
лаосын
лапажерия
ларев
ларевло
ларимин
ларионов
лариса
ларуков
ларын
лас
ласеи
ласича
ласта
ластапом
лат
латвия
латвияса
латвияын
латгал
латин
латина
латиница
латиницы
латинская
латинские
латинскии
латкин
латкина
латкинло
латыпов
латыш
латышев
латышева
латышскии
латышско
латьюдін
лауреат
лахти
лахтио
лахтиса
лач
лача
лаяс
лаясо
лб
лвел
лгинь
лд
лдино
ле
лебедев
лебединая
лебедь
лев
лева
левин
левл
левои
левъяс
легенда
легенды
легков
легковысь
леготин
леди
лежно
лезги
леи
лек
леканов
лекановало
лекановло
лексика
лексики
лексикология
лекция
лекцияяс
лелия
лелькуи
лена
ленин
ленингр
ленинград
ленинградо
ленинградса
ленинградын
ленинлы
ленинса
ленинско
ленинскому
леннаучфильм
ленскии
лента
леонеын
леонид
леонидович
леонов
леонтьев
леонтьевич
лепе
лепча
лермонтов
лермонтовлысь
лес
лесах
леснои
лесопунктын
лесотехническо
леспромхоз
леспромхоза
леспромхозын
лет
летие
летию
летка
леткаса
летом
летопись
ли
лианаяс
либ
либерияын
либо
либретто
лив
ливан
ливингстон
лигатура
лигатураысь
лидер
лидерства
лидия
лиза
лииси
лик
ликасте
лилия
лимбу
лимеров
лимерова
лимитизм
лин
лина
лингала
лингвист
лингвистика
лингвистическии
линия
линкъяс
линукс
линус
липа
липин
липина
лира
лирика
лирикаа
лириодендрон
лирические
лирическо
лирическои
лисовская
лисовскии
лист
листбок
лису
лит
литва
литваын
литератор
литераторы
литератур
литература
литературало
литературалы
литературалысь
литературао
литератураса
литератураын
литератураысь
литературе
литературн
литературная
литературно
литературного
литературном
литературные
литературныи
литературоведом
литературы
литии
литра
литсотруднико
лихаче
лихтенштеи
лица
лицеи
лицензия
личк
личко
личныи
лише
лка
лл
ло
лоас
лобанов
лобанова
лов
лова
ловзис
ловзьо
ловзян
лови
лович
ловна
ловозеро
ловпу
ловсо
ловъю
ловъя
ловъяс
логика
логинов
логинова
логиновъяс
логлан
логос
логотип
логотипыс
лодыгин
лодыгина
лодыгинло
ложбан
лозьва
лои
лоины
лоис
лоисны
лок
локло
локны
локо
локса
локсянь
локт
локтан
локтас
локто
локтысь
локтіс
локтісны
локъяс
локын
локыс
локысь
лома
ломбард
ломзян
ломоватовоса
ломоносов
ломтас
лонган
лонд
лондон
лондонын
лонтара
лоны
лоо
лопъювад
лоркало
лос
лохматиков
лпк
лся
лт
лу
луга
лугавом
луганда
луганск
луд
лудо
лудъяс
лудыков
лудыкова
лужиков
луз
луза
луздор
луздорса
луздорын
луи
луиза
лук
лука
лукерия
лукои
лун
луна
лунас
луначарскии
лунвыв
лунвывлань
лунвывланьо
лунвывланьын
лунвывланьынджык
лунвывса
лунвывсянь
лунвыл
лунвылас
лунвыло
лунвылын
лунвылынджык
лунвылысь
луннас
луно
лунпас
лунс
лунсо
лунся
лунсянь
лунсяньыс
лунш
лунъяс
лунъясас
лунъясо
луны
лунын
луныс
лунь
луораветлан
лусон
луцевич
луча
лучшая
лучше
лучшие
лучших
лушес
лъяс
лы
лыа
лыаа
лыао
лыаты
лывло
лывлісны
лыд
лыда
лыдакывъяс
лыдас
лыддис
лыддисны
лыддь
лыддьо
лыддьыны
лыддьысис
лыддьыссьо
лыддьысь
лыддьысьны
лыддьысьо
лыддьысьысь
лыддьысьысько
лыддьысян
лыддьысянін
лыддьысянінъяс
лыддянтор
лыдм
лыдним
лыднимъяс
лыдо
лыдпас
лыдпаса
лыдпасъяс
лыдсо
лыдын
лыдыс
лыдысь
лыжавом
лыжи
лыжио
лыжные
лыжным
лызлов
лызь
лызьо
лыи
лым
лымва
лымдор
лыми
лымъя
лымъяс
лын
лыны
лыс
лыса
лысва
лыска
лысо
лысся
лыссянь
лысь
лысьло
лысьнас
лысьо
лысьсо
лысьсянь
лысьтысьысь
лысьын
лысьысь
лысьяс
лысьясо
лысьясын
лысяс
лыткин
лыткина
лыткинло
лыткино
лыысь
лыюров
лыяс
ль
львидз
львов
льгым
льду
льдін
лькеро
лькуп
льмисны
льня
льо
льса
льсе
льсянь
льт
льтны
льто
льтуи
льын
льыс
льысь
льяс
льясло
лэ
лэбавны
лэбал
лэбало
лэбалысь
лэбач
лэбачо
лэбачсо
лэбачыс
лэбачысло
лэбачьяс
лэбачьясо
лэбачьясыс
лэбзь
лэбзьо
лэбзьывло
лэбо
лэдз
лэдзан
лэдзанін
лэдзанінын
лэдзис
лэдзисны
лэдзло
лэдзны
лэдзо
лэп
лэпт
лэптало
лэпто
лэптыны
лэптісны
лэчч
лэччо
лэчьяс
люба
любви
любимая
любителеи
любительясло
люблю
любов
любовныи
любовь
любое
любом
любомир
любомирович
людвиг
людеи
люди
людикъяс
людмила
людям
люк
люксембург
люксембургын
люся
лютер
лютерана
лютоев
лютоева
лютоевъяс
люция
лючки
ля
лябовская
лямпа
лян
лянин
ляпин
ляпкыд
ляскасьо
ляшев
лі
лінка
ліны
ліс
лісны
м
ма
маболо
мавританияын
мавто
магадан
магазин
магистр
магистраль
магистрально
магнаи
магнии
магнит
магнита
магнолия
мадагаскар
мадагаскарын
маддяр
маддярмуысь
маддяръяс
маддяръясло
маджа
мадмас
мадонна
маду
мадхья
мадьяр
мадьярму
маегов
маек
маз
мазут
маи
макар
макаренко
макаров
макарова
макаръя
македон
македония
макемаке
мако
макс
максаковка
макси
максим
максимов
максимова
макся
малагаси
малаи
малакка
малань
малап
малахов
малая
малаялам
малева
маленькии
малешор
мали
малиын
мало
малыи
малых
малыхина
мальва
мальо
мальпигия
мальта
мальцев
мальцева
мальчик
мальчики
малі
мам
мама
мамло
мамлок
мамлы
мамлысь
мамныс
мамо
мамонтов
мамсо
мамто
мамченко
мамъяслы
мамыс
мамыско
мамысло
мамыслы
ман
манак
манастыр
манастыро
мандата
мандатысь
мандач
манде
мандинка
манинса
мановск
манси
мансии
мансил
манш
маньси
маньчжур
мао
маори
мар
мара
маранта
марафон
марганец
марганеч
маргарита
марго
марена
мари
марии
марило
мариму
марина
мария
марк
марка
марков
маркова
марковская
маркс
маро
марокко
марс
марса
марсден
марсло
марсянь
март
марта
марте
мартин
мартынов
мартынова
мартыновло
мартюшев
марфа
марш
маршак
маршака
маршал
маршалл
марши
маршрут
маршрутъяс
маръя
маръямоль
марья
мас
маса
масо
масою
масс
массив
массивъяс
массивын
мастеница
мастер
мастеро
мастеров
мастерско
мастерство
мастеръяс
мась
мат
матвеев
матвеи
математик
математика
математическ
математических
математическои
материал
материалам
материале
материалов
материалсо
материалъяс
материалъясын
материалы
материально
материк
материксянь
материкысь
матиас
мато
матын
матынджык
матыно
матыс
матыслун
матысса
матыстчо
мать
матюшев
матіго
матіса
махараштра
махотина
мацук
мач
мачс
машенька
машина
машинао
машинист
машинисто
маыд
маэ
мають
мая
маяк
маяковскии
маяс
маясло
маяслы
маяслысь
має
мбук
мбур
мбыд
мбыдо
мвд
мвош
мгу
мд
мдр
мдф
мдін
мдіно
мдінса
мдінсаяс
мдінын
мдінысь
ме
меви
мегхалая
мегыр
мед
медали
медалистъяс
медало
медаль
медальо
медалью
медальяс
медальясо
медасьлісны
медб
медбо
медбур
медбуръяс
медваж
медведев
медведева
медведевло
медводдза
медводдзао
медводдзаысь
медводдзаысьсо
медводдзаяс
медводз
медвои
медвылыс
медвына
медджуджыд
медицина
медицинско
медкузь
медматыс
медпункт
медся
медсяс
медсясо
медто
медуна
медш
медшо
медъе
медыджыд
медыджыдыс
медым
медічо
межадор
межадорса
межадорын
между
международного
международныи
междуреченск
межеванию
межмуниципально
межо
мезд
мездан
мездлун
мездмо
мездо
мездіго
мезенин
мезенцев
мезень
меи
мексика
мексикаса
мексикаын
мелехин
мелехина
мелия
мелочи
мельников
мельникова
мельнича
мелі
мемориал
мен
менам
менеджмент
мени
меников
мено
менсьым
менуреи
меным
меньше
меню
меня
мер
мераи
мергель
мере
мерия
меркурии
меркурия
меркуріи
мероприятиеяс
мероприятия
меры
места
местаас
меставывса
местао
местасо
местах
местаын
местаыс
местаяс
местаясо
местаясс
местаясын
местаясысь
месте
меститчо
местно
местное
место
местоимения
месторождение
месторождениеын
месяц
месяца
месяцев
мет
мета
метал
металл
металлъясо
метан
метелко
метель
метеостанция
метида
метод
методика
методист
методистало
методисто
методическо
методы
метр
метра
метрао
метро
метрополитен
метрополитенъяс
метшко
механика
механико
механическо
меценат
мечта
мещура
мең
ми
мидз
мизорам
микаи
микаэль
микит
микита
микмак
мико
миков
микова
микол
микронезияло
микст
микул
микулаи
микунь
микуньсянь
микушев
микушева
микушевло
микушево
милиславлевич
милициа
милиция
миллер
миллиард
миллион
мимас
мин
мингале
минеи
минералог
минералогическо
минералогия
минерально
мини
миниатюраяс
минин
министерство
министерстволо
министерствоо
министерствоын
министр
министрло
министро
министръяс
министръясло
минло
мино
миноме
минса
минск
минскии
минскын
минут
минута
минъяс
минъясын
минын
мир
мира
мире
мирло
мирно
миро
мировая
мировоззрение
мировои
мирошниченко
мирса
мирско
мирт
мирын
мис
миссии
миссисипи
миссисипило
миссури
митинг
митреи
митро
митрофан
митрофанович
митрук
мить
митюше
митюшев
митя
мифологических
мифологическо
мифология
мифологияын
мифы
михаи
михаил
михаэль
михель
мича
мичаа
мичае
мичлун
мичм
мичмо
миш
мишарин
мишарина
мишаринъяс
мишина
мишо
мишук
мишурин
миян
миянладорын
миянлы
мияно
миянын
миянысь
мк
мкин
мко
мкот
мкуд
мл
мла
младшо
млн
мло
млрд
млун
млунъяс
млунысь
млы
млысь
мм
мммм
ммо
мн
мнас
мне
мнение
мнением
многих
много
многоборье
многократные
мны
мныс
мо
мобилизуи
мова
мог
мога
могила
могли
могмо
мого
могу
могул
могут
могъяс
могъяссо
могыс
могысь
мод
модель
модест
моди
модуль
модяр
мое
моеи
моему
можегов
может
можете
можно
моз
мозамбикын
мозымов
мозымова
мозын
мозына
мои
моисеенко
мок
мокчои
мокша
мокшало
молдав
молдова
молдоваын
молебен
молибден
молитва
молитваяс
молодая
молоде
молодежи
молодежь
молодцов
молодцовица
молодые
молотов
молчанов
молчанова
мольерло
мольяс
мом
момга
момент
мон
мона
монако
монаколо
монархия
монастырь
монастыря
монгол
монголия
монголияса
монголияын
монголовед
монди
монета
монович
монография
монографияяс
монтана
монумент
мор
морали
моранта
мордва
мордвало
мордовия
мордін
море
моренаяс
моро
мороз
морозов
морозова
морос
морохин
морохина
морско
морт
морта
мортжеребцов
мортл
мортло
мортлы
мортлысь
морто
мортъяс
мортыс
мортысь
морфология
моря
мос
мосин
москва
москвао
москваса
москваын
москве
московского
мотивам
мотивы
моторин
моту
моцарт
мочаев
мошев
моя
мп
мпо
мр
мрамор
мри
мру
мс
мса
мсера
мсо
мсьыс
мсюро
мсянь
мсяньыс
мто
мтор
мтори
мторсо
мторъяс
мторъяссо
мтс
мтыбо
му
муа
муас
мув
мувеж
мувежъяс
мувывтор
мувывтори
мувывторсьыс
мувывторыс
мугорс
мужик
мужич
мужичо
мужчины
муза
музеи
музея
музыка
музыкально
музыкальные
музыкальныи
музыкант
мук
муко
мул
муло
мулы
мулысь
мультимедии
мультфильм
мун
мунан
мунас
муниципал
муниципалитет
муниципалитетувса
муниципально
муниципальное
муниципальных
мунл
мунло
мунліс
мунны
муно
мунысь
мунысьяс
муні
муніго
муніс
мунісны
муо
мупытшкса
мупытшса
муравье
муравьев
мураши
мурман
мурманск
мурома
мурреи
муртса
мус
муса
мусанов
мусерпас
мусерпасъяс
мусерпасъясын
мусерпасын
мусерпасыс
мусин
мусина
мусинпод
мусинъяс
мусинъясыс
мусиныс
мусир
муслун
мусо
муссонъяс
мустафина
мусьыс
мусюр
мусюрад
мусюро
мусюръяс
мусюръясыс
мусянь
мусяньыс
мутас
мутасло
мутасті
мутасъяс
мутасъясын
мутасын
мутасыс
мутнича
муш
мушар
мушо
муыд
муын
муыс
муысь
муяс
муясо
муясс
муясын
муясыс
мцбс
мшо
мъю
мъянмаын
мъяр
мъяс
мъяса
мъяско
мъясло
мъяслы
мъясо
мъяссо
мъяст
мъясын
мъясыс
мъясысь
мы
мывкыд
мыго
мыд
мыджсьо
мыж
мыжа
мыжало
мыжалісны
мыжд
мыждо
мыждісны
мыжсо
мыжто
мыжы
мыи
мыла
мылва
мылд
мылдін
мыльк
мылькъя
мылькъяс
мылькъяса
мын
мынгыткэн
мында
мындаыс
мынто
мынтыны
мынтысь
мыр
мырддьо
мырдо
мыртыю
мыс
мысла
мысли
мысло
мыслы
мысль
мысов
мысса
мысти
мысын
мысь
мытш
мытшо
мытԓыӈӄԓеккэн
мыччо
мыш
мышко
мышку
мышкуыс
мьен
мьянма
мэи
мэр
мэра
мэром
мэтью
мю
між
мінск
міста
н
на
наблюдатель
набор
навахо
наверняка
навигационная
навигация
навколо
наво
нагаи
награда
наградах
наградаяс
наградитлісны
наградито
наградитісны
награды
награжден
над
наде
надеев
надежда
надежды
надз
надо
надрах
нажо
назад
название
названия
назначен
назначение
назначить
наи
наиболее
наименования
нако
накодь
нал
належить
налимов
налимова
наличное
нало
налы
налысь
нам
нама
намаи
намерениях
нами
намибияын
нанаи
нао
напалков
напалкова
написание
написания
написано
написать
например
напрямку
напрямую
нар
нарком
наркомнац
наркомпрос
народ
народа
народе
народн
народная
народно
народного
народное
народнои
народные
народныи
народов
народы
наръян
наръяна
нарьян
нас
наса
населе
население
населения
населенные
насельніцтва
наследие
наста
наставники
насталик
настольнои
настоятель
настоящее
настоящему
настроек
настрои
настук
наступает
настя
насянь
наталия
наталья
наты
натыса
натыын
науатль
наук
наука
наукао
наукаса
наукаын
наукаысь
наукаяс
наукаяса
наукаясло
наукаясса
науки
науру
науч
научн
научно
научного
научнои
научные
научныи
научных
нах
нахлупин
нахова
находящиеся
нац
национал
национальн
национальная
национально
национального
национальнои
национальность
национальносьтъяс
национальныи
национальных
нацистско
нач
начал
начала
начале
начало
началось
начальник
начальнико
начально
начальное
начать
начинается
начинающих
начко
наш
наша
наше
нашего
нашеи
наши
наших
нашу
наын
наысь
ная
наян
наяс
нд
ндебеле
нджык
нджыка
нджыкас
нджыкасо
ндреи
не
неаполь
неб
небе
небзьо
небо
небольшои
небыд
небыдик
нева
невада
неважо
невскии
него
негырысь
недавно
недели
неделю
неджуджыд
недыр
нее
неи
неизвестныи
неименованным
нек
некод
некодлы
некор
некоторые
некоторых
некрасов
некрасова
некрасовлысь
некутш
некутшо
некыдзи
некымын
некымынысь
нельзя
нелямын
нелямыно
нем
немдін
немдінса
немдінын
немецкии
немеч
немечко
немечло
немечьяс
немного
нему
нен
необходимо
необходимости
необязательныи
неофициально
непал
непалын
непонятно
непряева
нептун
нептуна
нептунло
нептуно
нер
нереида
неридз
неркаги
нерсьысь
несанелис
несколько
нестеров
нестерова
нет
нету
нетыр
неуна
нефе
нехорошев
нечаев
нечетных
нешан
неыджыд
неыло
неылын
ни
ниа
ниагара
нибудь
нивх
нившера
нига
нигер
нигерияын
нигерын
нигматуллина
нидерланд
нидерландса
нидерландъяс
нидерландъясса
нидерландъясын
нидерланъясын
нидзувъясо
ние
ниже
низкии
низовцева
низь
нии
ник
ника
никарагуа
никита
никитин
никитина
никитич
никифоров
никифорович
нико
никола
николаевич
николаевна
николаи
николая
николсон
никольско
никонович
никто
никулин
нил
нилогов
ним
нима
нималана
нимало
нимберд
нимвежтасъяс
ними
нимко
нимкывъяс
нимлун
нимлунъяс
ниммез
нимнас
нимо
нимпасъясын
нимпасын
нимс
нимсо
нимсянь
нимт
нимто
нимтыло
нимтыны
нимтісны
нимъяс
нимъясло
нимъяссо
нимъясын
нимъясыс
нимъясысь
нимыс
нимысло
нимысь
нин
нина
нино
нинпу
ниобии
ниппон
ниппонса
нискавуори
нись
нитш
нитшкысь
ниуэ
нифонтов
них
ния
нк
нквд
нко
нл
нло
нлы
нлысь
нмо
нн
нно
нного
нное
ннрот
нные
нныи
нных
но
нобель
нов
новая
новгород
новгородского
новгородскои
новеллаяс
новиаль
новикова
нович
новло
новлыны
новлысь
новлісны
новна
ново
нового
новои
новокузнецк
новосе
новосибирск
новосибирскса
новости
новость
новые
новыи
новым
новыми
новых
ног
нога
ногаи
ноги
ногиев
ногло
ного
ногыс
нои
ноксьо
нолл
ноль
ном
номер
номера
номерами
номерын
номерыс
номъя
номыръясо
номыръясыс
нор
норвег
норвегия
норвегияса
норвегияын
норвегияысь
нормализация
норман
нормаяс
норн
нос
носим
носителеи
носков
носковло
носу
нотофагус
ночи
ношуль
ношульса
ношульын
нояб
ноября
нп
нс
нса
нсо
нсьыс
нсюр
нсюро
нсянь
нт
нто
ну
нув
нужен
нужно
нуис
нуисны
нуль
нулісны
нумерация
нуны
нуо
нур
нутрихин
нуысь
нц
нъяс
нъясас
нъясло
нъясо
нъясс
нъясын
нъясыс
нъясысь
ны
ныв
нывбаба
нывбабало
нывбабаяс
нывбабаясло
нывбабаяслы
нывд
нывдырся
нывкаяс
нывъе
нывъяс
нывъясло
нывъяслы
нывъясо
ные
ныи
ныл
ныло
нылыс
нын
ныр
нырвизь
нырвизьыс
нырвизьяс
нырнас
нырыс
ныс
нысь
ных
нь
ньло
ньо
ньыв
ньывкаи
ньывсер
ньын
ньыс
нью
ньюфаундленд
нэ
нэм
нэмло
нэмо
нэмса
нэмсо
нэмся
нэмсянь
нэмъяс
нэмъясо
нэмъясын
нэмын
нэмыс
нэо
нэху
нюа
нювчим
нювчимса
нювчимын
нюдз
нюдзпоска
нюж
нюжал
нюжало
нюжо
нюи
нюм
нюр
нюрсяло
нюръяс
ня
няв
няи
нянь
няньо
няньсо
няньто
няньыс
няньысь
няньяс
няня
няр
нярбордъяс
нярсиктын
няшабо
ні
ніва
нія
о
оао
об
обдор
обдорса
обелиск
обертання
обертаються
обертається
обеспечению
обеспечить
обзор
обком
обкомло
обкомын
обл
области
областно
область
обласьт
обласьтло
обласьтлысь
обласьто
обласьтса
обласьтъяс
обласьтъяслы
обласьтъясын
обласьтын
обласьтысь
обновить
обновле
обновления
обогатительно
обозрение
обоих
оборона
оборудование
оботуров
обработаи
образ
образование
образовании
образования
образовательного
образовательных
образом
образцов
образцово
образъяс
обратнои
обратную
обрезкова
обрезковало
обрезцов
оброк
обряд
обрядъяс
обсерватория
обсерваторияын
обско
обсудить
обсуждение
обсуждении
обсуждению
обсуждения
обсуждениях
обучения
общ
общая
общеи
общества
общественн
общественник
общественно
общественного
общество
общии
община
общо
объе
объединение
объединении
объект
объекта
объектов
объектъяс
объявлен
объявления
обычаи
обычно
обязанности
ов
оверин
овидии
овл
овло
овлы
овлывл
овлывло
овлыны
овлісны
овм
овмо
овны
ово
овсо
овт
овто
овъяс
овъяссо
овъясыс
овыс
ог
огаи
оглы
огнев
огненное
огни
ого
огонь
огюст
од
ода
одбыла
одежд
одер
одес
одесса
оди
один
одинцов
одм
одна
однако
одного
однои
одыб
одыбо
одыбса
одыбын
ое
ожидаем
оз
озе
ознакомьтесь
озъягса
озыр
озырлун
озырлунъяс
озырмо
озысь
ои
ок
океан
океанвывса
океаниияын
океания
океанияын
океанк
океанл
океанлань
океано
океанса
океансянь
океанъяс
океанын
океанысь
оки
окило
окиль
оклахома
околицы
около
окота
окотапырысь
округ
округа
округса
оксалис
оксиденталь
окситан
окт
октябр
октябрина
октябрса
октябрь
октября
окунев
ол
ола
олам
олан
оланпас
оланпасъяс
оланподув
олантуи
оланін
оланінъяс
оланінъясло
оланіныс
оласног
оласногсо
оласногыс
олег
олеся
олимпиада
олимпиадало
олимпиадаса
олимпиадаын
олимпиадаясын
олимпиаде
олимпии
олимпик
олимпияса
оло
олысь
олысьло
олысьо
олысьыс
олысьяс
олысьясл
олысьясло
олысьяслы
олысьяслысь
олысьясо
олысьяссо
олысьясыс
олысьясысло
олыся
оль
ольга
оліс
олісны
ом
омниглот
омо
омонимъясо
омра
омск
он
она
онас
оне
онега
онегин
они
онлаи
онло
онно
онныи
оно
ономастика
онса
онцидиум
онъяс
онъяслы
онъясо
онъясын
онъясыс
онъясысь
онын
онысь
оньков
оньмо
оо
оон
ооо
опарин
опарина
опера
оперативно
оператор
операциа
операция
описание
описанию
опицеро
оплеснин
оплеснинлы
опонасеи
опонь
определение
опрос
опроса
опубликован
опубликованы
опция
опыт
опыта
опытно
опытных
ор
орбита
орбіт
орбіти
орган
организации
организация
организацияяс
организацияясло
органъяс
органъяслы
органъясын
орд
ордас
орден
ордена
орденло
орденлысь
ордено
орденов
орденсо
орденъяс
орджоникидзе
орди
ордо
ордпу
ордча
ордым
ордын
ордысь
оре
оренбург
ореховскии
орисса
орк
оркестр
оркестрын
оркус
оркын
оро
ортсо
ортсы
ортяков
оруба
оружеи
оружие
орфографическии
орфографию
орфография
орхидея
орчч
орчча
орччо
ос
освоения
осе
осет
осетин
осетинского
осетия
осетияын
осип
осипов
осипова
осипович
османья
основе
основного
основнои
основному
основные
основным
основных
основы
особенности
особо
оссер
оставить
остались
остался
остальные
остальных
остапова
остеоспермум
остров
островов
островскии
от
отас
отбора
отбору
отв
отвагаысь
ответа
ответить
ответы
отвечают
отд
отдел
отделение
отделениеса
отделения
отделенне
отдело
отделса
отделын
отев
отелло
отерма
отец
отечества
отечественная
отечественно
отечественнои
отечественные
отечеством
отзыв
отзывами
отзывов
отзывом
отзывы
отир
открыли
открыт
открытым
отличник
отличникъяс
отметил
относительно
отображается
отображаются
отображение
отображения
отображено
отобраны
отправлено
отражение
отрицательными
отряд
отрядъяс
отрядын
отс
отсавны
отсал
отсало
отсаліс
отсасис
отсасисны
отсасьны
отсасьо
отсасьысь
отсасьысьо
отсасьысьяс
отсасян
отсо
отт
отто
отче
отчизна
отын
оун
офисно
офицер
офицеро
официал
официальн
официально
официальное
официальные
официальныи
оформление
оформления
оформленного
офсетно
охна
охота
оча
оче
очень
очередь
очерк
очерки
очеркъяс
очеркъясыс
очно
ош
ошибка
ошибками
ошк
ошканпасъяс
ошкар
ошко
ошмаотывла
ошъяс
п
па
павел
павленко
павлов
павлова
павлович
павловна
павловния
павлом
паг
пагирев
пад
паджга
паджгаын
падм
пазифее
паи
пак
пакистан
пакистанын
пактал
пакто
пакультет
пакультетса
палаззя
палаззяын
палалеи
палата
пале
палеоазия
палеонтолог
пали
пализа
палкин
палладии
паль
пальма
пальмаяс
пальо
пальшин
паметник
паметникс
паметниксо
паметникъяс
паметь
паметьын
памяти
памятка
памятник
памятники
памятникъяс
памятных
память
пан
панама
панас
панджаби
пандікост
панев
панкратов
панкратова
панкратьев
пано
панорама
пансиг
пансиго
пансис
пансь
пансьо
пантелеева
пантелеи
паныд
паныда
паныдась
паныдасьл
паныдасьло
паныдасьлы
паныдасьлывло
паныдасьлыны
паныдасьлысь
паныдасьліс
панысьяс
паныт
пань
паньо
панюков
панюкова
паніс
папуа
пара
парагваи
парад
паракод
паракодъяс
паралимпиада
паралимпиадаса
параллель
параллельно
параллельныи
параллельсянь
параметр
параметра
параметрами
параметрах
параметров
параметром
параметры
париж
парижын
парк
паркъяс
паркъясын
паркын
парламент
парма
пармао
пармаса
пармаын
пармы
парначе
пароход
пароԓ
партизан
партии
партия
партияо
партияса
партияын
партне
паруса
пархаче
пархачева
парч
парчо
паршуков
паршукова
пары
пас
паса
паси
паскаль
паспом
пассажирско
пассажиръясо
пассатъяс
пассифлора
пассэз
пасъяло
пасъяс
пасыс
пась
пасьварто
паськ
паськавны
паськал
паськало
паськаліс
пасько
паськыд
паськыда
пасьт
пасьта
пасьтала
пасьтаыс
пасьто
патриарх
патриотическо
патриоты
патрон
пау
паула
паулу
пауль
пафиопедилум
пахиподиум
пахлави
пахорукова
пач
пачгин
паш
пашкыр
пашнин
паюсов
пг
пе
певец
пегон
пед
педагог
педагогика
педагогическо
пединститут
пединститутса
пединститутын
педо
педот
педучилишо
педь
пезмо
пекарня
пекин
пекнича
пекничасянь
пекуи
пелысь
пелыськаи
пелысьлысь
пель
пелька
пелькиник
пельо
пельшо
пельыс
пем
пемо
пемыд
пемыдго
пемыдперкаль
пемыдруд
пенсиа
пенсия
пентас
пер
пера
первая
первенство
перво
первого
первои
первом
первомаи
первую
первые
первыи
первым
перевести
перевод
перевода
переводе
переводом
переводчик
переводы
перед
передае
передо
переи
перем
перенаправления
перенести
перепелица
перепелицало
перепеч
переписно
перепись
переписьын
перераб
переработаи
пересмотр
пересмотра
пересмотреть
пересмотру
пери
перигеи
период
перк
перкаль
перкъяс
перм
перми
перминов
пермскии
пермских
пермско
пермского
пермское
пермскои
пермь
пермяк
пермяки
пермяккез
пермяков
пермякъяс
пермякъясло
пермякъясын
пермяцкие
пермяцкии
пермяцко
пермяцкого
пермяцкое
пермяцкои
перна
перо
перс
персидскии
персонажъясо
персоналии
персоналия
перспективно
перспективы
пертас
пертасъяс
перу
перъяло
перъян
перъянін
перъянінын
перым
перымса
перымын
пес
песен
песни
песнь
песня
песо
пестов
песьня
пет
петавло
петавлы
петавлыны
петавліс
петавлісны
петан
петас
петассэз
петасъяс
петер
петерб
петербург
петербургса
петербургын
петк
петко
петны
пето
петр
петра
петрович
петровна
петроград
петроградса
петрозаводск
петрозаводско
петрозаводскса
петрунь
петрухин
петто
петук
петш
петшо
петыр
петыркар
петыркарса
петыркарын
петырса
петысь
петя
петіго
петіс
петісны
пехотно
печали
печатаи
печать
печатьын
печкыны
печо
печора
печораса
печорская
печорскии
печорско
печорского
пешкин
пещера
пи
пиа
пианист
пивкин
пиджин
пик
пико
пиковая
пила
пилао
пилипин
пилиппинса
пилито
пилорама
пиля
пименова
пинега
пино
пинь
пиньинь
пиньиньо
пинькаи
пиня
пио
пионер
пионеръясло
пипу
пир
пис
писания
писар
писаро
писателеи
писатели
писатель
писателя
писать
писо
писцо
письк
писько
письм
письма
письменности
письменность
письменносьт
письмо
питирим
питирима
питю
пишу
пиын
пиыс
пиыско
пиыслы
пиысь
пиян
пиянсо
пияныс
пияныско
пиянысло
пк
пкс
план
плана
планет
планета
планетаса
планетаяс
планете
планети
планетою
планируется
пласто
плата
платина
плато
платон
платояс
платть
плач
плевроталлис
плеи
пленник
плено
плесид
плесовскии
плехов
плита
плитаяс
плодъяс
плосков
плотносьт
плотносьто
плотносьтыс
площадка
площадь
плутон
плутона
плутонло
плутоно
плэсид
пмк
по
победа
победало
пов
поведения
поверхні
повести
повесттез
повесть
повестьяс
повесьт
повесьтъяс
повесьтын
повзь
повзьо
повны
поводдя
поводдяыс
поводу
поволжья
повто
поговорки
погодинло
погост
погостас
погосто
погостын
погостысь
под
пода
подборка
подвиг
подгорье
подде
поддерживает
поддержка
поддержку
поделились
поделитесь
поделиться
подз
подо
подокарп
подоров
подорова
подписал
подписан
подписаться
подписи
подробная
подробнее
подробности
подробную
подсобно
подув
подувсо
подувъяс
подувъясыс
подул
подула
подулало
подулас
подуласьо
подуло
подулын
подулыс
подякы
пое
поезд
поездки
пож
пожаловать
пожалуи
пожег
пожелания
пожеланиях
пожня
пожо
поз
позволяет
позволяла
поздеев
позди
поздравляем
поздысь
поздысьо
пози
позис
позиции
познысо
позс
позсо
позсьыс
позтыкеро
позтырас
позтырсо
позъяс
позъяснысо
позь
позьо
позьто
позяло
позянлун
пои
поиск
поисках
поиски
пока
показ
показаны
покаяние
покои
покча
пол
поле
полевои
полеи
полет
полещиков
полиглоте
полиграф
полиевкт
полико
полина
полинезия
политик
политика
политикао
политикаысь
политическая
политическо
политова
политология
полко
полковник
полкса
полкын
полльо
полномочия
полному
полностью
полную
полныи
половине
положение
полои
полоса
полошуи
полтава
полугрудов
получать
получение
получения
полученные
полученных
получить
пользователеи
пользователям
польша
польшаса
польшаын
полюс
полюсдорса
поля
поляк
поляков
полякова
поляна
полярно
пом
пома
помавны
помавто
помал
помала
помало
помалысь
помалысьяс
помаліс
помалісны
помас
помасиго
помасис
помассьо
помась
помасьо
помещиклысь
помка
помланьо
помни
помо
помочь
помощи
помощь
помощью
помса
помся
помсянь
помто
помъясыс
помын
помыс
помысь
пон
пона
понд
понда
пондо
пондіс
пондісны
пони
пономаре
понъяс
понять
поп
попвасев
попвис
попе
попечителеи
попло
попо
попов
попова
поповл
поповло
поповлы
попово
поповцев
поппе
попугаи
популярная
популярно
популярныи
попъяс
порко
породаяс
порок
поромо
порохня
порошкин
порсь
порт
портал
портале
порталын
портр
портрет
портретсо
портрету
портретъяс
портреты
португал
португалия
португалияын
портъяс
поруб
порфирии
порядку
порядок
пос
посвяще
посе
посетите
поскольку
после
последнего
последнеи
последние
последовательнои
послесл
послесловие
пословицаяс
пословицы
посмотреть
посни
посниджык
поснитори
посньыдик
пособие
пособиеяс
пост
поставить
постижение
постников
посъяс
потандорса
потапов
потас
потасъяс
поташевло
поте
потеминскии
потолицын
потом
потому
потребительско
потребительясло
потш
потшо
походо
поче
почему
почетныи
починок
починокын
почте
почти
пошма
пошта
поэзии
поэзия
поэзиялы
поэма
поэмаяс
поэмы
поэт
поэта
поэтесса
поэтика
поэтическо
поэтл
поэтло
поэтлы
поэто
поэтому
поэтъяс
поэтъясло
поэтъясо
появляться
пояс
пп
пр
прав
права
правда
праве
правила
правило
правильно
правительства
правительство
правительстволо
правки
правл
правление
правлениео
правленньо
право
правописания
правоприменения
православие
православная
православно
православное
прага
прадеш
праздник
праздникко
празднико
праздникъяс
праздничаи
празьник
празьнико
празьничаи
праи
практика
практически
практическои
праскан
преамбула
предание
преданиеяс
предания
предисл
предлагаю
предложение
предложении
предложения
предложениям
предложил
предмет
предметъяс
предназначен
предоставить
предоставление
предприятие
предприятиело
предприятиео
предприятиеяс
предприятиеясло
предприятиеяслы
председатель
председательнас
председательо
председателя
представителеи
представители
представительство
представительствоо
представлении
представлены
предтеченско
презентовали
президент
президента
президентло
президенто
президиум
президиума
президиумло
президиумо
президиумысь
преимущественно
премиа
премиаяс
премии
премия
премияяс
премьер
премьера
преображенньо
преподавательо
преподобно
прерияяс
пресвятои
пресно
пресс
при
прибауткаяс
приблизно
прибора
приведены
привет
привидения
приглашаем
приглашение
пригоршни
приданно
приданым
придаш
прие
приз
призвание
призе
признакъяс
признание
приказ
приказо
прикамья
прикладно
приключениеяс
приключения
прилагательное
приложение
прилузского
прилузье
применение
применению
применены
применяться
пример
примере
примером
примеру
примеръяс
примеры
примета
приметаяс
примеч
примечание
примечания
принимает
принимаются
принцип
принципу
принципы
принял
приняли
принятии
принять
приоритет
приполярно
природа
природно
природы
присвоении
присвоено
присвоены
присоединиться
присоединяи
пристань
приуральско
приуралья
приходса
прицак
причитания
приют
про
пробела
пробелов
пробелы
проблема
проблематика
проблемаяс
проблеме
проблемы
пробно
проведение
проведении
проверка
проверьте
провинцияло
провинцияын
провинцияясын
провод
проводится
проводников
прогимназия
проголосовать
проголосуи
программа
программаяс
программы
прогресс
продвинутым
продолжает
продолжить
продюсер
проект
проекта
проектах
проекте
проекто
проектов
проектом
проекту
проектъяс
проекты
проектын
проза
прозаа
прозаик
прозы
прои
произведение
произведениеяс
произведении
произведения
произведенне
производственно
производстволо
произвольно
происхождение
происхождения
проко
прокопеи
прокопии
прокопьевич
прокопьевка
промах
прометеи
промовмо
промышленник
промышленно
промышленносьт
промышленносьтло
промышленносьтын
проньдор
пропаганда
пропессор
просветительско
просвещение
просвещениеса
просвещения
просит
проспект
простится
просто
пространстве
пространство
простые
просужих
протея
против
противотанко
прото
проф
профессиональн
профессионально
профессионального
профессор
профессора
профессоро
профессура
профиль
проходит
процедурои
процент
процесс
процесса
процессе
процессы
прочее
прочент
прочентыс
прочитаи
прошева
прошлое
прошлом
прошлым
прошу
проще
пруссияын
псевдэрантемум
психолог
психология
психотрия
псков
пти
пу
пуа
пуан
публицист
публицистика
публично
пув
пугаче
пудъя
пудъясьо
пудъясянкыви
пудъясянкывъяс
пузла
пук
пукал
пукалан
пукаланінысь
пукало
пукалысь
пукалысьяс
пукаліс
пуксиг
пуксиго
пуксис
пуксь
пуксьо
пуксяло
пукт
пуктало
пукталісны
пуктана
пуктас
пукто
пуктывлісны
пуктыл
пуктылісны
пуктыны
пуктысь
пуктысьо
пуктысьяс
пуктыто
пуктіго
пуктіс
пуктісны
пулеме
пуло
пуля
пунегов
пунегова
пункт
пунктуация
пунктъяс
пункты
пунктын
пуо
пурт
пуръяс
пуст
пустошь
пустыни
путе
путеводитель
путешественник
путешествие
путешествия
пути
путин
путшкымдін
путь
пучер
пушка
пушкин
пушкинло
пушкинлысь
пушкино
пушту
пушыд
пуысь
пуяс
пуяса
пхе
пшыркоу
пъю
пывсьо
пывсян
пыд
пыдди
пыддиыс
пыдна
пыдо
пыдын
пыдынджык
пыді
пыдіа
пыж
пыжа
пыжо
пыжъяс
пыжъяссо
пызан
пызь
пызьдін
пыисдін
пылаева
пыр
пырало
пыран
пырас
пырджык
пырис
пырисны
пырло
пырліс
пырмо
пырны
пыро
пырся
пырт
пыртны
пырто
пыртто
пыртіс
пыртісны
пырыс
пырысь
пырысьо
пырысьяс
пырысьясо
пыста
пыстин
пыстина
пытшк
пытшкас
пытшко
пытшкын
пытшкысь
пытшса
пычим
пыш
пыши
пышкаи
пышъялан
пышъяло
пышъялысь
пьеса
пьесасо
пьесаын
пьесаяс
пьесаяссо
пьесаясыс
пьесы
пятое
пять
під
після
р
ра
раа
рабиновиц
работ
работа
работает
работать
работе
работнике
работои
работу
работы
рабочеи
рабочо
рабфакын
равлісны
равна
равно
равны
рад
радеи
раджык
радии
радио
радиоактив
радиобиолог
радиокомитетын
радиоузел
радиоын
радиус
радо
радок
радость
радуга
раевсикт
раевская
раевскии
раевско
раз
разало
разбои
разбор
разведка
разведкаса
разведкаын
разведчик
разведчикъяс
разведывательно
развивать
развитие
развитию
развития
разговорник
раздел
раздела
разделе
разделов
различных
размыслов
разно
разнои
разнообразие
разных
разо
разработке
разработки
разыб
разьо
разів
раи
раинъяс
раинъясын
раиса
рака
ракета
ракин
ралан
рало
ралысь
ралысьло
ралысьяс
ралысьясло
ралісны
рам
рамках
ран
ранее
ранито
ранитчис
ранитчо
ранитчыло
ранитчыліс
раннего
раньше
рао
рапас
рапасло
рапасыс
раротонга
рас
раса
раска
раскрытом
расов
располагающаяся
распределение
распутин
рассвет
рассел
расскажите
рассказ
рассказъяс
рассказы
рассмотрение
рассохин
расставит
рассыхаев
расте
ратегова
ратификации
ратных
ратуша
рахмановло
раысь
рая
раяс
рвидзанін
рво
рвоана
рвоны
рвоо
рвосьо
рвыв
ргово
ргуи
рд
рдо
рдов
рдовруд
рдса
ре
реабилитируи
ревизия
ревизияса
ревизско
ревкомло
революциа
революции
революционер
революционно
революция
революциялы
революцияо
регион
региона
регионально
региональнои
регионкостса
регионло
регионов
регионса
регионъяс
регионъяскостса
регионъясын
регионы
регионын
регионысь
регистрируи
регламент
регыд
регыдо
регыдъя
ред
редактируи
редактор
редакторало
редакторло
редакторнас
редакторо
редакторов
редакторыс
редакциеи
редакционно
редакция
редакцияо
редакцияын
редколлегияо
режиссе
резо
результат
результатах
результаты
резцова
реи
рек
река
реке
рекемчук
реки
рекомендации
реконструируи
реконструкции
рекорд
ректор
ректоро
реку
религии
религия
рельеф
рем
ремесленно
ремонтно
репертуаро
репертуарын
репрессируи
репрессия
репрессияяс
респ
республик
республика
республикал
республикало
республикалы
республикалысь
республиканская
республиканскии
республиканско
республиканского
республикао
республикаса
республикаті
республикаын
республикаысь
республикаяс
республике
республики
ресурс
ресурсъяс
ресурсъясыс
ресурсы
ресурсыс
референдум
реформа
рец
рецензия
речи
речкеи
речки
речовин
речовини
речь
решение
решения
рея
рз
рзь
рзьо
ри
риа
риал
рига
рика
рим
римас
римса
римскии
римских
римско
рин
ринло
риннас
рино
ринса
ринъяс
ринын
риныс
ринысь
риняо
рио
рисслер
ритм
рито
ричард
рк
рка
ркань
ркка
ркни
ркоддь
ркодь
ркодя
ркодяс
ркп
ркута
ркутаса
ркутасянь
ркуто
рл
рло
рлун
рлысь
рлэдзысь
рм
рмидз
рмо
рмудор
рнас
рни
рникузя
рнио
рнисикас
рнисикасо
рнисикасъяс
рнисикасъясын
рнисикасын
рнит
рнитны
рнито
рнитчан
рнитчо
рнитіс
рнитісны
рниын
рниыс
рно
рны
рнэмса
ро
роберт
ров
рогаче
рогов
рогова
род
рода
родаків
родановоса
родзини
родился
родина
родины
родная
родник
родники
родное
роднои
родов
родригезия
рождения
рожицын
рожкин
рожков
роза
розе
розмірами
розміром
розои
розьо
розьыс
розя
рои
рок
року
років
роли
роль
рольяс
роман
романа
романло
романсо
романсъяс
романъяс
ромбандеева
рона
рональд
ронго
роно
рос
росмэн
россии
россия
россияло
россиялысь
россияо
россияса
россияын
россияысь
россыпно
ростов
ротаса
ротума
рохин
рохингъя
рохир
роч
роча
рочев
рочева
рочевло
рочмо
рочму
рочмуло
рочмуо
рочмуса
рочмуын
рочо
рочъяс
рочын
рочысь
рочьяс
рочьяслысь
рощевская
рощевскии
рп
рпа
рпас
рпаяс
рпо
рпункт
рр
рс
рса
рсаи
рсикт
рсикто
рских
рско
рсо
рсора
рсфрс
рсфср
рсь
рсьо
рсьыс
рся
рсянь
рсяньыс
рсяыс
рт
рта
рталун
ртан
ртас
ртаса
ртассо
ртасъяс
ртасъясын
ртасын
ртасыс
ртасьо
ртасян
ртвои
рти
рткер
рткеро
ртло
ртны
рто
ртса
рттуи
ртуи
ртулов
ртч
ртчо
ртчыло
ртчылігас
ртъяс
ртъяско
ртъясо
ртъясыско
ртымал
ртымало
ртымдін
ртын
ртыс
ртысь
ртысьясло
рті
ртіго
ртіс
ртісны
ру
руа
руб
рубан
рубеже
рублеи
рубликъ
рубцов
рувики
руд
руда
рудало
рудаяс
рудзо
рудно
рудов
рудовг
рудовго
ружи
руководителем
руководителя
руководства
руководстве
руководство
руководству
рукописеи
рулла
румын
румыния
румынияса
румынияын
румянцев
рунаяс
рупия
рупта
рур
рус
русалка
русанов
руси
русин
русина
русинов
русинова
руслан
русская
русски
русские
русскии
русским
русских
русско
русского
русское
русскои
русском
русскоязычного
русскоязычных
русь
рута
рух
руч
ручильо
ручо
ручьи
ручьяс
руыс
руэллия
руяс
рф
ръи
ръя
ръяо
ръяс
ръясло
ръяслы
ръяслысь
ръясо
ръяссо
ръясын
ръясыс
ръясысь
ръяыс
ръяысь
ры
рыбаке
рыбке
рыд
рыжего
рым
рын
рынджык
рыннас
рынокын
рыньтчис
рыс
рысь
рыт
рытвыв
рытнас
рыто
рытъя
рытъяс
рытыв
рытыввыв
рытыввывса
рытыввывсянь
рытыввыл
рытыввылас
рытыввыло
рытыввылын
рытывсянь
рытывт
рыцарь
рычков
рышкыд
рья
ряд
рязанов
рязань
с
са
саам
саами
саамского
саамы
саанич
саваннаяс
саваннаясын
савва
савваитов
савелии
савельева
савельевич
савенко
савин
савина
савинло
савино
савинова
сад
сада
сади
саду
садъяс
садъясын
садьмо
сажин
сажина
саи
саин
сак
сакара
салдат
салдатъяс
салдатъясо
сало
салтане
сальвадор
сам
самара
самарин
само
самоа
самого
самодии
самое
самои
самоле
самоучители
самоучитель
самые
самыи
сан
сандра
сандрик
сандро
санкт
санныи
санскрит
санта
сантиметр
сантиметра
сантиметро
сантьяго
саньо
саня
сао
сапе
сапиндус
сапо
сапожников
сапота
сар
сара
сараи
саранош
саранск
саратов
сардырся
саридз
саридзвыв
саридзвывса
саридздор
саридзл
саридзло
саридзо
саридзса
саридзсянь
саридзті
саридзуи
саридзъяс
саридзын
саридзыс
саридзьяс
сарло
сарлы
сас
сасъяс
сатира
сатирик
сатурн
сатурна
сатурнло
сатурно
саудса
саураштра
саха
сахалин
сахара
сахараын
сахаров
сахарова
сахарт
саш
саяс
сб
сбербанкло
сберкассаын
сборник
сборникъясын
сборникын
сборно
св
свадьба
сван
свати
сведения
свекл
свердловск
свердловскса
свердловскын
свет
света
свете
светлана
светтьо
свинеч
свободная
свободно
свободное
свободным
свое
своего
своеи
свои
своим
своих
свою
своєі
своі
свыв
свывса
свяжитесь
связанные
связи
связь
святая
священник
священнико
священного
священномученик
сгу
сд
сдаи
сделал
сделана
сделанные
сделано
сделать
сдін
сдінса
сдінын
се
себе
себуан
себя
север
севера
севере
северная
северно
северного
северное
севернои
северные
северныи
северных
северо
сегодня
сегозерских
седна
седокова
седрочев
сезон
сеи
сек
секвои
секретар
секретарало
секретаро
секретарь
сексен
сектор
секторо
секторса
секторын
секунд
секунда
секц
села
селе
селиванов
селиванова
село
селом
сельков
сельско
сельского
сельское
сельсо
сельхозтехника
селюнина
сем
семантика
семе
семеи
семен
семенов
семенович
семенчин
семи
семиков
семилетньо
семинар
семинариа
семинария
семинарияо
семинарияын
семинаро
семинаръяс
семит
семичев
семо
семуков
семуково
семуковын
семь
семьи
семья
семьяас
семьяло
семьянас
семьясо
семьяын
семьяыс
семячков
семяшкин
сен
сенатор
сенегалын
сент
сентябрь
сентября
сенькин
сенькина
сенюков
сер
сера
серам
серамбана
серапима
серафим
серафима
серафимович
серб
сербия
сербияын
сервис
сергеевич
сергеевна
сергеи
сергии
сердитов
сердце
серегов
сереговса
сереговын
середа
середасянь
середине
середины
сержант
сержантлы
серия
серно
серо
серпас
серпаса
серпасал
серпасалан
серпасало
серпасалун
серпасалысь
серпасалысьяс
серпасалысьясло
серпасалі
серпасаліс
серпасалісны
серпасасьны
серпасасьо
серпаскывъяс
серпасторъяс
серпасъяс
серпасъяссо
серпасыс
серти
сертиыс
сессии
сессия
сет
сетавны
сетан
сетас
сетло
сетлісны
сетны
сето
сетсьо
сету
сетч
сеть
сетіс
сетісны
сефард
си
сибелиус
сибири
сибирса
сибирын
сибирь
сибо
сибыд
сибыр
сибырак
сибыро
сибырса
сибырын
сивков
сивкова
сигуд
сигудо
сидзжо
сидо
сидор
сидоров
сидорова
сидя
сизим
сизима
сизимдас
сизимдасо
сизимо
сизимсе
сизь
сизьяс
сизя
сизяб
сизяыб
сик
сикас
сикаса
сикасал
сикасало
сикасо
сикассо
сикасъяс
сикасын
сикасыс
сикким
сико
сикоракса
сикт
сиктас
сиктко
сиктло
сиктлы
сиктлысь
сикто
сиктса
сиктсаяс
сиктсо
сиктсянь
сиктъяс
сиктъясо
сиктъясса
сиктъясын
сиктъясысь
сиктын
сиктыс
сиктысь
сила
сильва
сильвия
сильо
симаков
симаруба
символ
символов
символъяс
симоновло
симпелев
симплокос
симфоническо
син
синва
сингал
сингапур
сингапурын
синдарин
синдор
синема
синицина
синицына
синкымыс
синм
синма
синмао
синмасьо
синмо
синмыс
синнот
синод
синонимъяс
синт
синтаксис
синтаксисысь
синто
синфигурное
синхронно
синхронныи
синъясо
синьцзян
сио
сип
сипертас
сир
сири
сириус
сирия
сирияын
сирпу
система
системало
системао
систематика
системаяс
системе
системи
системы
системі
сись
ситкарев
сиу
сицилия
сияние
ск
ска
сказание
сказка
сказкаясын
сказки
сказок
сканд
скандии
скандинав
скашор
ская
скаяс
скаясо
скаясын
сква
сквер
сквозь
скелетон
ски
скиатлонын
ские
скии
ским
ских
склад
складаються
складає
складається
складом
складын
ско
скобках
скоги
ского
ское
скои
ском
скончалась
скончался
скоростнои
скорость
скотт
скрытом
скуа
скуао
скуаса
скуаын
скульптор
скульптура
скупои
скыд
сл
слав
слава
славы
славян
славяноведения
сладкоштиев
сладкоштиева
слалом
слаповскии
слева
следует
следующие
следующии
следующим
следующих
слияние
сло
слов
слова
словак
словакия
словакияын
словареи
словари
словарных
словарь
словаря
словен
словения
словесности
слово
словом
словообразование
слога
слоган
сложно
слуда
слудаяс
слудаясысь
слудка
служба
службао
службаса
службасо
службаын
службаяс
службы
служит
служитло
служитны
служито
служитысь
служитысьяс
служитіго
служитіс
слун
слунсо
слуныс
случае
случаях
слы
слысь
см
смасьны
смасьо
смерти
смерть
сметанин
сметанина
сми
смилингис
смирнов
смирнова
смогли
смогут
смоленск
смотритель
сна
снаи
снаыс
снг
снегу
снеч
сни
снимаи
снимокъяс
сноуборд
сны
сньыдик
со
соавт
соавтор
соавторъяс
соавторы
собои
собор
собора
собрание
собранньо
собраны
собственно
события
собянин
сов
совдор
совдорысь
совет
совета
совето
советская
советские
советскии
советских
советско
советского
советское
советскои
совешанньо
совпартшколаын
современная
современник
современника
современники
современного
современное
современном
современности
современные
современныи
совсем
совсо
совхоз
совхозло
совхозо
совхозса
совхозын
совчужысь
совчужысьяс
согласен
согласно
согласных
соглашаюсь
сод
содержимое
содержит
содо
содт
содтало
содто
содтыны
содтысисны
содіс
сожалению
создае
создание
создании
создания
создать
созыв
созывын
сои
соколов
соколова
сокращенная
сола
солдат
соликамск
солнечнои
соло
соловье
соломон
соломония
солончака
сомали
сомалии
соми
сомпенг
сон
сонетов
сонетъяс
сонця
сонячноі
сонячніи
сообщение
сообщении
сообщения
сообществ
сообщества
сообществах
сообщество
сообществом
соответственно
соответствии
соответствуют
соответствующего
соответствующии
сопльо
сопов
сор
сора
сораса
сорб
сорваче
сорвачева
сорд
сорди
сорлало
соро
соров
сороки
сорокин
сорокина
соседние
сосна
соснин
сосновка
сосногорск
сосногорско
сосногорскса
сосногорскын
соссяна
сост
состав
состава
составе
состоит
состоится
состояние
состоянии
состояния
сосьва
сот
сотникова
сото
сотрудник
сотруднико
сотрудничества
сотч
сотчис
сотчо
софии
софин
софия
софронитис
софроновло
софья
сохранить
социал
социалистических
социалистическо
социальн
социальная
социально
социолог
социологии
социологические
социология
сочи
сочинении
сочиса
сочиын
союз
союза
союзло
союзса
спартакиада
спас
спасибо
спасо
спасорд
спаспоруб
спаспорубса
спб
спектакль
спектакльын
спектакльысь
спектакльяс
специалист
специалистъяс
специальносьт
специальносьтъяс
спецкурсу
спецкурсысь
спира
спиридон
спиридонов
списка
спискам
списками
списки
списков
список
списокъясын
списокъясысь
списокын
спицов
спк
спо
спорт
спорта
спортзал
спортивно
спортса
спортсмен
спортсменъяс
спортшкола
спортын
способ
справа
справка
справочник
спринт
спринтын
спутник
спутникъяс
спутникъясо
співає
сравнению
сравнительныи
сражении
сразу
сред
среди
среднего
сретенньо
срок
сс
сса
ссо
сср
ссрс
ссср
сссрса
ссылка
ссылками
ссылкаын
ссылки
ссылку
ссылок
ссьыс
ссянь
ссяньыс
ст
ста
став
ставмирса
ставнас
ставныс
ставнысо
ставрополь
ставроссияса
ставс
ставсо
ставсоюзса
ставсьыс
ставыс
стадаяс
стадион
стажируи
стал
стала
стали
сталин
сталинград
сталино
стало
сталь
стан
стандарт
станет
станислав
станислава
становление
станок
станокъяс
станциа
станционныи
станция
станцияын
старая
старик
старина
старинных
старо
старовскии
старославянскии
староста
старт
старцев
старцева
старцево
старшина
старшинао
старшо
старые
стас
статеи
статистика
статистики
статкомитетло
статус
статут
статуто
стать
статье
статьи
статью
статья
статьях
статьяын
статьяяс
ства
ствие
ствиеа
ствия
ствиях
ство
ству
стекло
степан
степанакерт
степанида
степанов
степанова
степанович
степановна
степвыв
степени
степень
степо
степса
степъяс
степь
степьяс
степьясын
стер
стерлитамак
стеро
стес
стефан
стефано
стефанович
стефенс
стивен
стилем
стили
стилистика
стиль
стильо
стильын
стилями
стит
ститны
стито
стихи
стихов
стихотворениеяс
стихотворения
стиххез
стихъяс
стно
сто
стоит
стоколос
столетия
столицы
столов
столповскии
столповского
столярно
стоят
стр
стран
страна
странаын
странаысь
страниц
страница
страницах
странице
страницу
страницы
странички
странник
страну
страны
стратегии
стратегия
страусъяс
стрекоза
стрелитция
стрелко
стрелково
стрелок
стро
строи
строитель
строительно
строительство
строка
строке
строки
строку
стронции
структура
студенеч
студент
студенталіго
студенто
студентов
студентъяс
студентъясло
студентъяслы
студия
студияо
студияса
студияын
ступак
стч
стчис
стчо
стчысь
стчысьяс
сты
стэнли
стяк
стякъяс
стякъясло
су
суахили
субкотыр
субкотырса
субкотыръяс
субо
субувтыр
субъект
субъектло
субэтносъяс
суворов
суворовым
сувт
сувтанін
сувтланін
сувтліс
сувтны
сувто
сувтса
сувтіс
сувтісны
суд
судан
суданын
судзо
судно
судноо
суднояс
судноясо
судоходствоо
судта
судтаа
судтало
судтаын
судтаыс
суи
сук
сукгоева
сулавеси
сулавло
сулал
сулало
сулалысь
сулаліс
суматра
сумах
сунало
сунда
суоми
суомио
суомиса
суомиын
суомиысь
супонеи
супутників
сур
сура
суриана
сурина
суринам
сурма
сурнин
сус
суспу
суткинас
суффикс
суффиксъяс
суханов
суханова
сухоруков
сухум
сушмита
существует
сущности
суэц
схема
сход
сцена
сценарии
сценарист
сценическо
счастье
сче
сша
съезд
съездса
съя
съяс
съясл
съяслы
съяслысь
съясо
съяссо
съясын
съясыс
съясысь
сы
сыв
сывдан
сывлыт
сывлыто
сывъюдор
сыко
сыкомтевчук
сыктгу
сыктыв
сыктывд
сыктывдинская
сыктывдін
сыктывдінкар
сыктывдінса
сыктывдінын
сыктывкар
сыктывкара
сыктывкарбердса
сыктывкаре
сыктывкарко
сыктывкарло
сыктывкарлы
сыктывкаро
сыктывкарса
сыктывкарскии
сыктывкарского
сыктывкарсянь
сыктывкарын
сыктывкарысь
сыктывса
сыл
сылан
сыло
сылы
сылысь
сыліго
сын
сына
сыно
сыо
сыр
сырье
сырьево
сыс
сыскин
сысло
сысола
сысольск
сысольско
сысольскса
сысольскын
сысольскысь
сысь
сысянь
сычуань
сыын
сыысь
сь
сьджык
сьерра
ська
ськаса
сьм
сьо
сьт
сьта
сьтло
сьто
сьтса
сьтъяс
сьтъясын
сьтъясысь
сьтын
сьтэпан
сьыв
сьывлісны
сьывны
сьыд
сьыл
сьылан
сьыланкыв
сьыланкыви
сьыланкывло
сьыланкывъяс
сьыланкывъяса
сьыланкывъясло
сьыланкывъясо
сьыланкывъяссо
сьыланкывъясыс
сьыланъяс
сьыло
сьылысь
сьылысьо
сьылысьяс
сьылысьясло
сьыліс
сьылісны
сьыліыс
сьыны
сьыс
сьысь
сьысьлы
сьысьяс
сэ
сэзь
сэк
сэки
сэкся
сэксянь
сэн
сэнъясын
сэні
сэро
сэсся
сэсянь
сэт
сэто
сэтч
сэтчо
сэтш
сэтшо
сэтъясті
сэтысь
сэтысянь
сэті
сю
сюда
сюжет
сюжетъяс
сюжетыс
сюзев
сюзь
сюзьяс
сюзяыб
сюзяыбын
сюзяыбысь
сюи
сюмо
сюр
сюра
сюраныр
сюраныръяс
сюрес
сюрис
сюрло
сюро
сюрс
сюрса
сюрсо
сюрсысь
сюръя
сюсь
сюся
сюткин
ся
сяв
сявны
сял
сялана
сяло
сяля
сям
сяма
сяммис
сямсо
сямыс
сямысь
сян
сянлю
сянь
сяр
сяри
сідз
сідзжо
сідзи
сідзко
сіи
сісьтыдін
сітбар
т
та
табак
табасаран
таблица
таблице
таблицу
таблицы
тав
таво
тагалог
таджик
таджикистан
таджикистанын
тадз
тадзи
тае
таи
таиланд
таиландын
таити
так
такая
также
такие
таким
таких
тако
також
такои
таком
таланты
талисман
талица
таллинн
таллиннын
талун
талунъя
тальматы
там
тамазигхт
тамара
тамбов
тамил
тамилнад
тан
тана
танганьика
тандзе
танзания
танко
тантал
танцы
таня
тані
тао
тапио
тар
тарабукин
тарабукина
тарабукиналы
тараканов
тарас
тарашкевич
тарко
таро
тарту
тартуса
таскаев
тасмания
тасманияын
тасс
тасьті
тасянь
тат
тато
татч
татчо
татш
татшо
татысь
татьяна
таті
тау
тах
таысь
тбилиси
твер
твидзо
твое
творческ
творческо
творчества
творчестве
творчество
творчествосо
творчествоын
твыв
твылысь
тджык
тдор
тдортны
те
театр
театра
театральная
театрально
театрло
театрлы
театро
театрса
театръяс
театръясло
театрын
тебеньков
тебенькова
тез
текст
текста
тексте
текстов
тексту
текстъяс
тексты
текуса
текущего
тела
телевидение
телевидениеса
телевидениеын
телеграмма
телеграф
телеканал
телеканалысь
телепон
телерадиокомпанияын
телескоп
телеуджтас
телугу
тем
тема
темаа
тематика
тематическии
тематическо
темаыс
теме
температура
тенант
тенанто
теннис
тентюков
тентюкова
теории
теория
теперь
тепло
тер
терентьев
терентьева
терентьевало
терещенко
терминов
терминология
терминъяс
террил
территориально
территориальное
территории
территория
тесь
тетум
тетун
тефия
тех
техник
техника
техникало
техникаын
техникум
техникумо
техникумын
техническо
техническои
технология
течением
теш
тешкодь
тешъяс
ти
тибет
тибетын
тигр
тик
тико
тилаын
тили
тима
тиман
тимана
тимано
тиманско
тимин
тиминло
тимонин
тимофеев
тимофеевич
тимофеевна
тимофеи
тимушев
тимушева
тимшер
тио
тип
типа
типо
типографии
типография
типология
тир
тираж
тиражыс
тираспольскии
тиррен
тисо
тист
тит
титан
титов
титул
тифинаг
тифлис
тихо
тихон
тихонов
тиыс
тияс
тк
тка
ткалы
ткао
ткаченко
ткаыс
ткаяс
ткаясо
тко
ткодь
ткодьлуныс
ткодьо
ткодя
ткодявны
ткодял
ткодялан
ткодяло
ткымын
тл
тлаавл
тлаало
тлаась
тлаасьо
тлан
тлао
тласа
тлаын
тло
тлы
тлыны
тлысь
тлысьны
тлысьо
тлісны
тмо
тмоза
тмуно
тнас
тно
тное
тны
тные
то
тобои
тобольск
тов
товарищество
товарищи
тогда
того
тогоын
тод
тож
тоже
тоз
тои
ток
токарев
токелау
токи
токио
токиоын
толкин
толковыи
толстои
толумния
толысь
толь
только
толя
том
тома
томас
томах
томджык
томлун
томов
томск
тому
томулов
томуловло
томуловлы
томъяслы
томын
тон
тонга
тонна
тоннаысь
тонъяс
тоомас
топ
топо
топографическо
тополь
топонимии
топонимическии
топонимическо
топонимия
топоров
топыд
топыда
топыдлун
тор
тора
тори
торкышто
торлопов
торлопова
торнадо
торопов
торопова
тороповло
торшхавн
торъя
торъяв
торъявл
торъякыв
торъякывъяс
торъял
торъялана
торъяло
торъяліс
торысь
тотара
тотараму
тотараяс
тотем
тоторкатша
тотьма
тотьмаса
тотьмаын
тотэлн
тофалар
тохар
точки
точно
тпом
тпыри
тр
традиции
традиционная
традиция
традицияын
традицияяс
тракт
трактор
тракторист
тракторъяс
трамплинсянь
транскрипции
транскрипцияын
транслитерация
транслитерацияын
транспорт
транспортло
транспорто
транспортса
транспортын
траншеля
трап
трапезников
трасис
траспорто
трась
трасьо
трасян
тре
требует
требуется
трек
тренер
тренеро
тренируи
тренясикт
тренясиктын
третьего
третьяков
третьякова
трея
три
трибельгорн
трибуна
трипан
трипура
тритон
трк
тро
троекуров
троицкии
троицко
троича
тропик
тропикдорса
тропикувса
тропои
трофимов
трофимович
трошев
трошева
труд
труда
трудовая
трудовую
трудодень
труды
труженики
труппао
труппаын
трусов
трухильо
трц
тс
тсвана
тсе
тсо
тсонга
тся
тсяма
тсянь
тсяньыс
тт
ттш
ттшо
ту
туа
туберкуле
тув
тувалу
туввез
туввези
тувсов
тувсовъя
тувт
тувтан
тувтны
тувто
тувтч
тувтчис
тувтчисны
тувтчо
тувтысь
тувтісны
тувъя
туг
туган
тугъя
туи
туис
туискеро
тул
тула
тулан
тулу
тулыс
тулыснас
тулысо
тулысся
тулыссянь
тулысын
тулысь
тун
тунбергия
тунгус
тундра
тундрао
тундраса
тундраын
тундраысь
тундраяс
тундраясын
тундры
тупк
тупкисны
тупко
тупкыны
тупкысис
тупкысьл
тупкысьо
тур
тургенев
тури
туризм
турин
турист
туриясло
туркин
туркина
туркмен
туркменистан
туркменистанын
турков
турку
туркуса
турнир
турок
турубанов
турубановская
турун
туруна
турунвиж
туруно
турунчо
турунъю
турунъяс
турунысь
турция
турцияса
турцияын
туръя
туръяыб
туръяыбын
турышев
турьев
тусь
тусьяс
тусьясо
тусьяссо
тусяпулысь
тут
туша
тушаа
тушанас
тушаыс
тушаысло
туявны
туял
туялан
туяло
туялысь
туялысьо
туялысьяс
туялысьясло
туялысьясо
туяліс
туяна
туясьо
туясян
тфи
тхам
тч
тчан
тчик
тчико
тчис
тчисны
тчо
тчыд
тчыдысь
тчыло
тчыны
тш
тшаи
тшак
тшакъяс
тшапи
тшк
тшко
тшо
тшуго
тшуп
тшупо
тшъя
тшъяяс
тшыг
тшыгла
тшыгъяло
тшыгъялісны
тшык
тшыко
тшын
тъяс
тъясо
ты
тыбо
тыбъю
тыва
тыви
тывъяс
тыдав
тыдал
тыдало
тыдовтч
тыдовтчо
тыдор
тыдорса
тыла
тылаборда
тылабордао
тылаи
тыло
тымсер
тымсерын
тымын
тымыно
тын
тыпу
тыр
тыра
тырвыи
тыриг
тыригкежло
тыриго
тырко
тыркост
тыркостса
тырл
тырло
тырлы
тырлысь
тырмо
тырмы
тырмымо
тырмыны
тырмыто
тыро
тырсикас
тырсо
тырт
тырто
тыръяс
тыръясло
тырын
тырыс
тырыско
тырыслысь
тыс
тысь
тысьясло
тысянь
тысяча
тысячелетия
тыш
тышкасиго
тышкасис
тышкасисны
тышкасьны
тышкасьо
тышкасян
тышло
тышо
тышса
тышъяс
тышъясын
тышын
тышыс
тышысь
тыын
тыыс
тыысь
тыяс
тыяса
тыясын
ть
тьо
тэ
тэзе
тэи
тэко
тэн
тэнгвар
тэно
тэрыб
тэрыба
тэч
тэчало
тэчас
тэчасног
тэчасногыс
тэчасын
тэчасыс
тэчо
тэчысь
тэчысьяс
тэчысьясло
тэчысьяслысь
тюксеи
тюмень
тюменьса
тюрк
тюркия
тюрнин
тянь
ті
тільки
тіс
тісны
тіянлы
у
уаи
убеждениям
убыток
ув
уважаемые
уважением
увдорыс
уведомления
увлань
увса
увтас
увтасъяс
увтасын
увтын
увтыр
увтыррез
увтыръяс
увтырын
увъяс
увъясысь
угандаын
угарит
углеводородно
угоддьо
угор
угорская
угорские
угорскии
угорских
угорского
угров
угровед
угроведение
угроведов
угрозои
уд
удаи
ударник
удж
уджавло
уджавліс
уджавлісны
уджавны
уджал
уджалан
уджало
уджалысь
уджалысьо
уджалысьяс
уджалысьясло
уджалысьяслы
уджалысьяслысь
уджалысьясо
уджалышто
уджаліго
уджаліс
уджалісны
уджас
уджво
уджвывса
удждон
уджо
уджсикас
уджсо
уджсьыс
уджтас
уджтасло
уджтасъяс
уджтасын
уджто
уджъе
уджъяс
уджъясас
уджъяссо
уджъясын
уджъясыс
уджын
уджыс
уджысь
уджышто
удин
удинскии
удит
удито
удитіс
удмурт
удмуртия
удмуртияын
удмуртского
удмуртъяс
удмуртъясло
удобно
удобном
удора
удораса
удоратин
удоратина
удораын
удорса
удэгеи
уег
уезд
уездло
уездно
уездо
уездса
уездсо
уездъяс
уездъясысь
уездын
уездысь
уж
ужга
ужгао
ужгаса
ужгаын
уже
узбек
узбекистан
узбекистанса
узбекистанын
узнаи
узнать
узь
узьло
узьны
узьо
узьто
уи
уикипедия
уилл
уильтин
уильям
ук
указ
указали
указан
указанию
указания
указаннои
указано
указаны
указатель
указо
указывается
указываются
уква
уквавом
укваса
укваын
укваысь
укп
украи
украин
украина
украинал
украинао
украинаса
украинаын
украинаысь
украинеч
украины
украі
укреплению
ул
улад
улас
улис
улича
уличаяс
улляна
уллянаса
уллянаын
уло
улов
улучшении
улын
улынджык
улыс
улысас
улысладорыс
улысыс
улысь
уль
ульныров
ульяна
ульянов
ульянова
ульяновск
ульяновскии
ульяновско
уляшев
уляшева
уляшевло
уляшевъяс
уляшов
умберто
умбриэль
умер
умерла
умляут
умолчанию
ун
уна
уналаті
уналаын
уналы
унао
унап
унасикас
унатор
унаысь
унджык
унджыко
унджыксо
унджыкыс
унджыкысьс
унелма
универсального
университет
университета
университетло
университетлысь
университето
университетса
университетъясын
университетын
университетысь
унтер
уон
уотсон
управление
управлениеын
управлению
управления
управленньо
управляюшо
упражнениеяс
упри
ур
ура
урадник
урал
урала
уралло
урало
уралса
уралын
уральских
уральско
уран
урана
уранло
урано
урась
урасьо
урду
уркаи
урло
уро
уровне
уровня
урожаи
уроках
уроки
урокъяс
урчито
уръяс
ус
уса
усаче
усва
усвавом
усвавомса
усвадор
уси
усинск
усинскса
усис
усисны
ускар
ускаро
условиеяс
условиях
услугаяс
услуги
усогорск
успенньо
успенскии
устав
устава
уставе
установить
установка
установлен
устно
устрои
усть
устье
устюгов
усь
уськ
усько
усьл
усьласьны
усьо
усьысьяс
усян
утвареи
утверждение
утверждении
утверждения
утка
уткасо
уткаыс
уткаысло
уткаяс
уткаясыс
утога
утро
уу
уумманнак
уфа
уфаын
ухо
ухта
ухтаса
ухтаын
ухтинец
ухты
участвовать
участвуи
участие
участием
участия
участко
участник
участника
участники
участников
участниц
участок
участокын
уче
учеб
учебник
учебники
учебникъяс
учебникъясо
учебно
учебное
учебнои
учебных
учен
учение
учено
ученого
ученые
ученыи
училишеын
училишо
училище
училищео
училищеын
училищеяс
училищо
учитель
учительско
учителя
учо
учпедгиз
учреждение
учреждениеяс
учреждении
учреждения
учрежденньо
ушаков
ушел
ушла
уэльс
уэльсын
уэсли
уял
уялан
уяло
уялысь
ф
фабрика
фадеев
фаи
факел
факс
факты
факультет
факультето
факультетса
факультетын
факультетысь
фалалеевич
фалэнопсис
фамилии
фанера
фап
фарер
фарерских
фарси
фасоын
фаткулина
фаузер
фаюс
фго
фе
февр
февраль
февраля
федерал
федерально
федерального
федератив
федерации
федерация
федерацияло
федерацияса
федерацияысь
федина
федор
федоров
федорова
федорович
федосеев
федотович
федюне
федя
феи
фельдшер
фельдшеро
фельдшерско
фельетонист
фельетонъяс
фенно
феодал
феоктиста
феория
фергана
фердинанд
ференц
ферма
фермер
фермерло
фернандес
фестиваль
фестивальо
фестивальын
фестивальяс
фестивальясын
фет
фехтование
фигурно
фиджи
фиджии
физик
физика
физико
физиолог
физиология
физическо
физкультура
физкультурно
фил
филадельфия
филармония
филармонияын
филатова
филезия
филиал
филиала
филиалло
филиало
филиалса
филиалын
филиалысь
филина
филипп
филиппин
филиппинъяс
филиппов
филиппова
филиппович
филлант
филол
филолог
филологиа
филологиаса
филологии
филологическии
филология
филологияса
философ
философии
философия
философияса
философск
фильм
фильмъяс
фин
финал
финалын
финальяс
финансово
финляндии
финляндия
финляндиялы
финляндияса
финляндияын
финн
финно
финноугория
финнъяс
финнъясло
финско
финского
финугор
финъяс
флегонт
флора
флоренция
флорида
флота
флотса
флотын
фобос
фолидота
фольклор
фольклора
фольклоре
фольклорист
фольклористика
фольклорлы
фольклорлысь
фольклорно
фольклоро
фольклорса
фольклорын
фольклорысь
фомин
фон
фона
фонд
фонда
фондло
фондо
фондын
фоне
фонетика
фонтан
форкии
форма
формаа
формат
формата
формате
формаыс
формировании
формулаясын
формы
форум
форуме
фосфор
фосфоритъяс
фото
фотоальбом
фотогалерея
фотографии
фотография
фотомодель
фр
фраи
фракцияяс
франк
франка
франко
франс
франсса
франсуз
франсузко
франц
франциско
францискоын
франция
францияса
францияын
француз
французскии
фреи
фридрих
фриз
фристаи
фролов
фролова
фронт
фронта
фронтло
фронто
фронтовики
фронтъяслысь
фронтъясын
фронтын
фрукта
фрунзе
фукьерия
фула
функции
функцию
функция
фунт
фурлан
фурманов
футарк
футбол
футболист
футболысь
фф
фьордъяс
х
ха
хабариха
хабаровск
хабенария
хадс
хаи
хакас
халыып
хан
хангыль
ханифи
хансэгум
хант
ханты
характер
характеристика
хард
харикло
харон
харута
харьков
хассания
хассельблаттко
хатанзеи
хаумеа
хауса
хеи
хелимскии
хельсинки
хельсинкиса
хельсинкиын
хенвальд
хендрик
хештроффер
химик
химическо
химия
хин
хинди
хирург
хирургия
хиыт
хлеб
хлор
хмар
хмари
хмонг
хніх
ходатаи
ходе
ходьба
хозе
хозяи
хозяинов
хозяинова
хоккеи
холман
холопов
холопова
хоменко
хор
хора
хорват
хорватия
хорватияын
хорло
хормеи
хоро
хорошие
хорошии
хорошо
хорын
хоседа
хотели
хотите
хоть
хотя
хотят
храм
хранит
хрестоматия
хризобаланус
христа
христианско
хром
хроника
хроники
хуанх
худ
худож
художественн
художественно
художественныи
художествоа
художник
худяев
худяков
хуи
хутор
хх
хі
хіх
ц
ца
цаплин
цар
царе
царевне
цария
царияса
царияын
царь
цбс
цвет
цвета
цветами
цветов
цветова
цветтэз
це
цев
цева
цеи
целевои
целиком
целлюлоза
целлюлозно
целогина
цель
целью
цембер
цемент
ценности
центр
центра
централизованная
центральная
центриздат
центром
церера
церии
церкви
церковно
церковных
церковь
цех
цивиле
цивилизации
цик
цикл
цикла
циклон
циклонъяс
цикнохес
цимбидиум
цинк
цинния
циприпедиум
цих
цо
цц
цы
цывунин
цыпанов
ці
ч
ча
чавкан
чавны
чаво
чагин
чадоромцева
чадын
чаи
чакма
чал
чаланов
чаланова
чало
чалысь
чалісны
чам
чаморро
чан
чапаев
чард
чарла
чарлао
чарльз
час
часов
часовня
часословасын
части
частности
часто
частушкаяс
часть
частью
часы
часын
чаще
чджыка
че
чебоксары
чег
чего
чедвик
чел
человек
человека
челябинск
челядь
челядьдыр
челядьдыри
челядьдырся
челядьдырыс
челядько
челядьло
челядьлы
челядьлысь
челядьо
челядьсо
челядьыс
челядьыско
челядя
чем
чемодан
чемпион
чемпионат
чемпионатъяс
чемпионатъясын
чемпионатын
чемпионка
чемпионо
чеп
чер
черань
чердынь
чердін
чере
чередь
через
черемкова
черемковаса
черепанов
чери
черио
черисо
чериыс
черияс
черкес
черкесияын
черненко
чернов
чернова
черногор
черногория
черныб
черныи
черных
чероки
честь
четверг
четвергсянь
четных
четыре
четьи
чеусов
чех
чехия
чехов
чеховло
чехословакия
чечен
чечня
чеччавны
чеччало
чеччышто
чжуан
чи
чиг
чиган
чиго
чикыш
чила
чили
чилимд
чилимдін
чилимдінса
чилиса
чилиын
чильо
чим
чими
чимиаво
чин
чина
чинки
чино
чиновник
чинок
чинто
чиніс
чипан
чипас
чипсано
чирк
чирков
чиркъясо
чис
числа
число
чисны
чистале
чисталев
чит
читае
читальня
читальняо
читателеи
чиуауаса
чичивичи
чл
член
членами
членов
члены
чло
члісны
чм
чны
чо
човса
чожмо
чои
чоло
чорыд
чорыда
чоя
чтение
чтении
чтения
что
чтобы
чув
чуваш
чувашия
чувашму
чувашскии
чувашского
чувашскои
чувашъяс
чувкияссо
чувко
чувьюров
чувьюрова
чугаев
чугаева
чугра
чуграяс
чугун
чуд
чудесно
чудово
чудотвореч
чудь
чуж
чужан
чужанвуж
чужанін
чужанінас
чужаніно
чужанінсо
чужанінын
чужи
чужис
чужисны
чужло
чужліс
чужо
чужт
чужто
чужтысь
чуи
чуистова
чук
чукарева
чукачои
чукилев
чукичева
чукло
чукльо
чукля
чуко
чуковскии
чукот
чуксало
чуксасьо
чуксасян
чукыръяс
чукыръясыс
чулимске
чуманов
чупров
чупровои
чур
чурак
чурвидз
чург
чурка
чут
чуто
чутъяс
чутъяса
чутъясао
чутік
чутіка
чушканзі
чч
ччан
ччо
ччыны
чысь
чысьо
чысьяс
чышко
чышкыны
чышъян
чьяс
ш
ша
шабді
шабле
шаблон
шаблона
шаблонах
шаблоне
шаблонов
шаблонъяс
шаблоны
шаг
шаги
шадрин
шаи
шалысь
шаль
шаман
шаманов
шан
шань
шаньга
шаньгин
шанявскии
шапка
шар
шарапов
шарапова
шарджыни
шарипков
шарлуа
шарыб
шатохин
шатун
шах
шахов
шахова
шаховло
шахсикт
шахта
шахтаров
шахтаын
шахтаясын
шахте
шая
швед
швеи
швеции
швеция
швецияса
швецияын
ше
шеболкин
шебрало
шебырев
шева
шевченколысь
шег
шеги
шед
шедо
шедтасъяс
шее
шежам
шеи
шекспир
шекспирло
шел
шелепанов
шеллябо
шензьо
шенышто
шеппард
шепта
шергин
шергина
шестаков
шесталов
шестое
шесть
шеф
шешуков
шие
шиликова
шин
шинь
шиофок
ширину
ширяев
ших
шиханов
шихова
шишкин
шк
шка
шкамо
шкм
школ
школа
школаас
школало
школалы
школалысь
школао
школаса
школасо
школаын
школаыс
школаысь
школаяс
школаяслы
школаясын
школы
школьника
школьникло
шло
шлыгина
шм
шмо
шмонитан
шмонитана
шмонитысь
шмонь
шо
шобд
шобді
шовинисто
шог
шогман
шожым
шои
шом
шома
шомбургкия
шомгаг
шомсо
шомысов
шомысова
шона
шонал
шонд
шондо
шонді
шондіа
шондібан
шонт
шонто
шоныд
шоныдджык
шор
шори
шоррез
шорсаи
шорт
шоръе
шоръяс
шоссе
шотландия
шотландияын
шотландса
шоу
шоуолтер
шоч
шоча
шочиника
шпортує
шренк
шри
шрифт
шрифтов
шрифтъяс
шрифты
шрифтын
шса
шта
штабса
штабын
штаныс
штатло
штато
штатъяс
штатъясло
штатъясын
штатын
штво
штвосянь
штвоыс
штеи
шти
штип
што
шу
шуало
шуам
шуанног
шуас
шубашкар
шубашкарса
шувгы
шугнан
шуд
шуда
шудо
шуи
шуис
шуисны
шуктомов
шукшинло
шул
шулепов
шуло
шулывло
шуліс
шулісны
шуны
шуо
шура
шурышкар
шусис
шусь
шусьо
шусьыліс
шусьыны
шусяна
шучалин
шучалина
шш
шы
шыасяс
шыбит
шыбито
шыбитчана
шыбитісны
шыбка
шыбкао
шыблало
шыд
шыдо
шызь
шызьо
шыкуд
шылад
шылада
шыладо
шыладор
шыладорса
шыладсо
шыладыс
шыло
шыль
шыльо
шыльыд
шыльыда
шыльыдін
шыльыдінсо
шым
шын
шыо
шыпас
шыпаскуд
шыпаслы
шыпаспо
шыпассо
шыпасъяс
шыпасъясо
шыпасысь
шыпурт
шыр
шыръяс
шыръясо
шыыс
шыяс
шыясо
шь
щ
ща
щаи
ще
щебень
щербаков
щербакова
щербаковло
щербинина
щипачкин
щит
що
щуго
щугор
щукин
щукинло
щщ
ъ
ъъ
ы
ыб
ыбо
ыбпомса
ыбса
ыбъяс
ыв
ывдорса
ывла
ывлавыв
ывлао
ывлаыс
ывло
ывлісны
ывса
ывсьыс
ывсянь
ывъяс
ывъясыс
ыг
ыгыпера
ыд
ыджда
ыджданас
ыдждао
ыдждаыс
ыджыд
ыджыдало
ыджыдвиддзын
ыджыдвиддзысь
ыджыдвидз
ыджыдвидзса
ыджыдджык
ыджыдо
ыджыдты
ыджыдшор
ыджыдъяг
ыджыдыс
ыджыт
ыдпел
ыж
ыжъяс
ыл
ыла
ылас
ылдо
ылнаын
ыло
ылыдз
ылын
ылынджык
ылыс
ылысса
ылысь
ылысянь
ыльо
ылі
ылісны
ым
ын
ыннэн
ыны
ыпъялан
ыр
ырг
ырго
ыркыд
ыркыдджык
ыро
ырсьысьяс
ыс
ысис
ыско
ысло
ыст
ысто
ыстіс
ыстісны
ысь
ысьны
ысьо
ысьяс
ысьясло
ысьяслы
ысян
ытва
ыш
ышо
ышт
ыште
ыы
ь
э
эбо
эвакуируи
эве
эвен
эвенки
эволюционнои
эволюция
эг
эгеи
эдлисло
эдуард
эж
эжа
эжва
эжваа
эжваи
эжвао
эжваса
эжватас
эжо
эжсь
эжъес
эз
эзысь
эзысьо
эзысьысь
эи
эквадор
эквадорын
экватор
экз
экзамен
экзаменъяс
экземпляр
экзопланет
эки
эко
экологическо
экология
экономика
экономикаын
экономикаысь
экономист
экономисто
экономические
экономическо
экран
экранизация
экспедиция
экспедицияо
экспедицияын
экспедицияясо
экспедицияясын
эксперимента
экспериментально
экспресс
эл
электрическо
электронная
электронно
электроннои
электронныи
электростанция
электроэнергия
элемент
элемента
элементъяс
элементы
элеонора
элиас
эллада
эллин
элса
эль
эльбасан
эльбрус
элясисны
элясьо
эм
эмакыв
эмакывло
эманим
эманимл
эмбур
эмбурсо
эмилия
эмо
эмторъяс
эму
эн
энгельс
энергетика
энергетическо
эновт
эновтны
эновто
эновтчис
эновтчо
эновтчыны
энцелад
энцикли
энциклопедии
энциклопедист
энциклопедическии
энциклопедия
энциклопедияын
энь
эньлов
эньыс
эньысло
эньясыс
эпическо
эпос
эпоса
эпосло
эпоха
эпоху
эра
эрангис
эрантес
эрао
эраса
эраст
эрд
эрда
эрзя
эри
эрида
эрнст
эск
эскимос
эско
эском
эскысь
эскысьяс
эсперанто
эст
эстафета
эстафетаын
эстонии
эстония
эстонияса
эстонияын
эстонскии
эстонско
эстонского
эстрадаса
эстрадно
эстъяс
эськ
эсько
эта
этап
этапын
эти
этика
этим
этимологическии
этимология
этих
этнограф
этнографии
этнографическии
этнографическо
этнографическое
этнография
этнографияысь
этнокультурно
этнологии
этнология
этнос
это
этого
этои
этом
этот
эту
этша
этшаджык
эускара
эфиопия
эфиопияса
эфиопияын
эхо
эшмес
эшпаи
эшто
ээ
ю
юал
юало
юан
юано
юантор
юанъяс
юань
юасьо
юбер
юбилеи
юбилею
юван
ювывса
юг
югд
югдо
югдін
югдіно
югдінса
югдінын
югдінысь
югзьо
юго
югов
югославия
югыд
югыдл
югыдладор
югыдлань
югыдъяг
югыт
юджин
юдин
юдина
юдор
южная
южно
юк
юкагир
юкланінъяссо
юкло
юкм
юкны
юко
юксисны
юксь
юксьо
юл
юлев
юлиан
юлии
юлиус
юлия
юло
юль
юмов
юнгфрау
юнеско
юниоръяс
юннань
юнона
юность
юны
юнь
юньнань
юньягинско
юо
юпик
юпитер
юпитерло
юпитеро
юпітер
юпітера
юр
юра
юрало
юралысь
юралысьло
юралысьлысь
юралысьо
юралысьыс
юралысьяс
юраліс
юрас
юрбито
юрган
юргижо
юрго
юренькаи
юри
юридическо
юрии
юриндалысь
юркар
юркаро
юркарса
юркарын
юркарыс
юркин
юрнуо
юро
юрси
юрсикт
юрсикто
юрсиктсянь
юрсиктъяс
юрсипыста
юрсо
юръе
юрыс
юрье
юрьев
юрьевна
юс
юстина
юстиция
юсь
юсьва
юсьяс
юсянь
ютпхин
ютыр
ютырло
ютыро
ютырса
ютырын
ютэи
юхнин
юхнина
юхнинло
юшар
юшкин
юшков
юшкова
юшковло
ющік
юыс
юысь
юю
юяс
юясл
юясло
юяслы
юясті
юясын
юясыс
юясысь
я
яа
ябл
яборов
ябыр
ява
является
являются
явно
яг
яга
ягвыв
ягвывсянь
ягдор
ягель
ягморт
ягноб
ягсянь
ягувты
ягын
ядро
яе
яз
язык
языка
языкам
языках
языке
языки
языков
языковая
языкового
языковои
языковых
языкознания
языком
языку
язьва
яи
як
яка
якии
яков
яковлев
яковлевич
яковлевская
якуб
якуба
якубив
якутия
якутск
які
ям
ямаи
ямал
ямалса
ян
яна
янв
январ
января
янга
янистих
янка
яно
янс
янсо
янук
янцзыцзян
яныс
янін
яо
яп
япет
япон
япония
японияса
японияын
японскии
японско
яран
яранъяс
яранъясло
ярапов
ярасов
ярашъю
ярашъюын
яренск
яренско
яренскса
яренскын
ярко
яркова
ярманга
ярмангаяс
яро
ярослав
ярославль
ярославльын
яръюгыд
яс
яско
ясли
ясло
яслы
яснас
ясно
ясо
яссо
ясыда
ясын
ясыс
ясысь
ятка
яфетическо
ячеи
яя
ђ
є
ѕ
і
із
іноді
інших
інші
іі
ііі
ј
ја
је
љ
њ
ћ
џ
ѡ
ѣ
ѥ
ѧ
ѩ
ѫ
ѭ
ѯ
ѱ
ѳ
ѵ
ѹ
ѻ
ѽ
ѿ
ҋ
ҍ
ғ
ҕ
җ
қ
ҟ
ң
ҥ
ҧ
ҫ
ҫизи
ҭ
ү
үүбүн
ұ
ҳ
ҵ
ҷ
ҷаԝоб
ҹ
һ
ӄ
ӄумыт
ӆ
ӈ
ӈа
ӈолю
ӈопои
ӌ
ӏ
ӕ
ә
әты
ӡ
ө
өи
өҙ
ӷ
ӽ
ԁ
ԃ
ԅ
ԇ
ԉ
ԋ
ԍ
ԏ
ԑ
ԓ
ԛ
ԝ
ԥ
ԫ
ԭ
ԯ
ե
ի
խ
կաղապար
մ
ն
վ
և
ְ
ִ
ֵ
ַ
ָ
ֹ
ּ
ֿ
ׂ
א
או
און
אין
ב
בא
ג
ד
די
ה
ו
ז
זא
ח
ט
טעגא
י
ך
כ
ל
לט
מ
מיט
ן
נ
ס
ע
ערים
ף
פ
צ
ק
קא
קטגוריה
ר
ריע
רײ
ש
שטעט
ת
תבנית
ײ
׳
،
ء
ا
الگو
او
ب
ة
ت
تصنيف
ث
ج
ح
خ
د
دوا
دوه
ذ
ر
رده
ز
زمرہ
س
ش
شهرهای
ص
ض
ط
ظ
ع
غ
ف
ق
قالب
ك
ل
لس
م
مدن
ن
ه
و
ى
ي
ٌ
َ
ُ
ِ
ّ
ٓ
ٔ
ٕ
٠
١
٢
٣
٤
٥
٦
٧
٨
٩
ٶ
ٹ
ٺ
ٻ
ٻولي
پ
چ
ڇ
ڈ
ڏ
ڑ
ژ
ک
گ
ڷ
ں
ھ
ہ
ی
ے
۰
۱
۲
۳
۴
۵
۶
۷
۸
۹
۽
܂
܄
ܐ
ܒ
ܕ
ܗ
ܘ
ܚ
ܠ
ܢ
ܣ
ܥ
ܪ
ܫ
ܬ
ܰ
ܲ
ܳ
ܵ
ܶ
ܸ
ܹ
ܺ
ܼ
ܿ
ހ
ނ
ވ
ފ
ދ
ތ
ަ
ި
ެ
ް
߲
ँ
ं
ः
इ
ई
एक
ऐ
क
ख
ग
च
छ
ज
जनक
झ
ञ
ट
ठ
ड
ढ
ण
त
थ
द
ध
धक
न
प
फ
ब
भ
भट
म
मर
य
र
ल
ळ
व
श
शहर
ष
स
ह
़
ा
ि
ी
ु
ू
ृ
े
ै
ॉ
ो
ौ
्
।
०
१
१०
२
३
४
५
६
७
८
९
ॿ
ঁ
ং
ই
ক
খ
চ
জ
ট
ড
ত
থ
দ
দশ
ধ
ন
প
ব
ম
য
র
ল
শ
ষ
স
হ
়
া
ি
ী
ু
ূ
ে
ৈ
্
০
১
২
৩
৪
৫
৬
৭
৮
৯
ਜ
ਧ
ਪ
ਬ
ਸ
ਾ
ਿ
ੀ
ੰ
ં
ક
ગ
ડ
ત
પ
ય
વ
ા
િ
ી
ુ
્
ଆ
ଚ
ଛ
ଞ
଼
ା
ି
୍
க
ச
ட
ந
ப
ய
ர
ற
ழ
வ
ா
ி
ீ
ு
ெ
்
ௗ
ం
గ
త
ల
స
ి
ు
ె
ే
్
ಂ
ಈ
ಕ
ಟ
ಡ
ತ
ದ
ನ
ಪ
ಬ
ಯ
ರ
ಲ
ಳ
ವ
ಸ
ಾ
ಿ
ು
ೂ
ೆ
್
ೕ
ം
ക
ഗ
ങ
ഞ
ട
ഡ
ത
ദ
പ
ബ
യ
യന
ര
റ
ല
ള
വ
ഷ
സ
ാ
ി
ീ
ു
ൂ
െ
േ
്
ං
ක
ත
ද
න
ව
ශ
ස
්
ා
ි
ු
ෙ
ก
ง
ด
น
บ
ผ
พ
ย
ร
ล
ว
ศ
ส
ห
หมวดหม
อ
ั
า
ิ
ี
ึ
ื
ุ
ู
เม
็
่
้
์
๐
๑
๒
๓
๔
๕
๖
๗
๘
๙
ກ
ບ
ຜ
ພ
ລ
ວ
ອ
ັ
ິ
ີ
ູ
້
ໍ
་
།
༠
༡
༢
༣
༤
༥
༦
༧
༨
༩
ཀ
ཁ
ག
ང
ཏ
ད
ན
པ
བ
མ
འ
ཡ
ར
ལ
ཤ
ས
ཱ
ི
ུ
ེ
ོ
ྐ
ྒ
ྔ
ྦ
ྫ
ྱ
ྲ
ླ
က
ခ
င
စ
ဆ
ည
ဋ
တ
ထ
န
ပ
ဘ
မ
ရ
လ
သ
ါ
ာ
ိ
ီ
ု
ူ
ေ
ဲ
ဴ
ဵ
ံ
း
်
ြ
ွ
ှ
၀
၁
၂
၃
၄
၅
၆
၇
၈
၉
ၜ
ၢ
ၵ
ၸ
ၼ
ၽ
ႁ
ႂ
ႃ
ႅ
ႆ
ႇ
ႈ
႐
႑
႒
႓
႔
႕
႖
႗
႘
႙
არა
და
თარგი
კატეგორია
სულიკო
ქალაქები
წ
ხარ
도시
분류
틀
፡
።
ᛦ
ខ
ភ
ម
រ
ស
ា
ែ
្
ᤌ
ᤐ
ᤕ
ᤠ
ᤢ
ᤰ
ᤱ
ᤴ
᥇
᥈
᥉
᥊
᥋
᥌
᥍
᥎
᥏
ᧈ
ᧉ
᧑
᧒
᧓
᧔
᧕
᧖
᧗
᧘
᧙
᧚
ᨁ
ᨂ
ᨅ
ᨆ
ᨈ
ᨊ
ᨍ
ᨑ
ᨒ
ᨔ
ᨕ
ᨗ
ᨘ
ᨙ
ᨚ
ᨣ
ᨦ
ᨾ
ᩤ
ᩥ
ᩬ
ᩮ
ᩴ
᩵
᩶
᪀
᪁
᪂
᪃
᪄
᪅
᪆
᪇
᪈
᪉
᪐
᪑
᪒
᪓
᪔
᪕
᪖
᪗
᪘
᪙
ᬶ
ᮓ
ᮔ
ᮞ
ᮥ
᮪
ᰛ
ᰧ
ᰩ
ᰵ
ᰶ
᱐
᱑
᱒
᱓
᱔
᱕
᱖
᱗
᱘
᱙
ᱚ
ᱛ
ᱜ
ᱝ
ᱞ
ᱟ
ᱠ
ᱡ
ᱢ
ᱣ
ᱤ
ᱥ
ᱦ
ᱧ
ᱨ
ᱩ
ᱪ
ᱫ
ᱬ
ᱭ
ᱮ
ᱯ
ᱰ
ᱱ
ᱲ
ᱳ
ᱴ
ᱵ
ᱶ
ᱷ
ᱸ
ᱹ
ᱺ
ᱻ
ᱼ
ᱽ
᱾
᱿
ᴅ
ᴋ
ᴍ
ᴘ
ᴛ
ᶁ
᷄
᷅
ᷠ
ẜ
​
‌
‍
‎
‏
‑
–
—
―
‘
’
“
”
„
†
•
…
‰
′
‹
›
⁄
⁠
ⁿ
€
№
™
ⅰ
←
↑
→
↓
↔
↕
↖
↗
↘
↙
↷
−
≈
≤
⊕
③
④
⑦
▲
▼
☉
☾
☿
♀
♂
♃
♄
♆
♇
⚳
⚴
⚵
⚶
⛢
✉
✍
⟨
⟩
⯓
⯰
⯲
ⰵ
ⱡ
ⱥ
ⱦ
ⱨ
ⱪ
ⱬ
ⱳ
ⲉ
ⲏ
ⲓ
ⲙ
ⲛ
ⲣ
ⲧ
ⲭ
ⴰ
ⴱ
ⴳ
ⴷ
ⵆ
ⵉ
ⵌ
ⵍ
ⵎ
ⵏ
ⵔ
ⵖ
ⵜ
ⵣ
⺀
⺄
⺆
⺈
⺊
⺌
⺕
⺝
⺸
⺼
⿰
⿱
⿲
⿳
⿴
⿵
⿶
⿷
⿸
⿹
⿺
⿻
。
《
》
「
」
〢
の
゙
゚
ア
ィ
イ
ゥ
ウ
ェ
オ
カ
キ
ク
コ
サ
シ
ス
タ
ッ
ツ
テ
ト
ヌ
ネ
ヒ
フ
ヘ
ホ
マ
ム
ユ
ラ
リ
レ
ワ
ン
・
ー
ㄅ
ㄆ
ㄇ
ㄈ
ㅱ
ㅸ
ㅹ
ㅿ
ㆀ
ㆁ
ㆄ
ㆅ
ㆆ
ㆍ
ㆎ
㇁
㇂
㇄
㇇
㇈
㇉
㇓
ㇰ
ㇱ
ㇻ
㐁
㐄
㐅
㐌
㐫
㐬
㐭
㐮
㐱
㑒
㒵
㒸
㒼
㓁
㓞
㔾
㕛
㕣
㖾
㘝
㚅
㚇
㚔
㚘
㝉
㝡
㝴
㝵
㞋
㞢
㞷
㠩
㠭
㠯
㡀
㡭
㡿
㢲
㢴
㣇
㣺
㥯
㪅
㫄
㫐
㫒
㫺
㬅
㬎
㬥
㬰
㲋
㳄
㷠
㸒
㸚
㸦
㼌
㼲
㽞
㿟
䀠
䂞
䍃
䏍
䒑
䖍
䖒
䖝
䖵
䙴
䚻
䜌
䝿
䡛
䧹
䪞
一
丁
丂
七
丄
丅
丆
万
丈
三
上
下
丌
不
与
丏
丐
丑
专
且
丕
世
丘
丙
业
东
丞
丢
丣
两
严
並
丨
丩
个
丫
丬
中
丮
丰
丱
串
丵
丶
丷
丸
丹
为
主
丽
丿
乀
乂
乃
久
乆
乇
么
义
之
乌
乍
乎
乏
乐
乑
乔
乖
乗
乘
乙
乚
乛
乜
九
乞
也
习
乡
乳
乾
亀
亅
了
亇
予
争
事
二
亍
于
亏
亐
云
互
亓
五
井
亘
亚
亜
亞
亟
亠
亡
亢
交
亥
亦
产
亨
亩
享
京
亭
亮
亯
亰
亲
亳
亶
亷
人
亻
亼
亾
仁
今
介
仌
从
仐
仑
仒
仓
仔
仕
他
付
仝
代
令
以
任
企
伊
伏
伐
休
会
伯
但
位
何
佘
余
作
你
佥
使
來
侈
侌
侖
侯
侵
便
保
俞
信
修
倉
倍
倒
候
倠
做
備
僉
僕
儿
兀
允
兂
元
兄
充
兆
兇
先
光
兊
克
兌
免
兑
兒
兓
兔
党
兜
兟
入
全
兩
兪
八
公
六
兮
兰
共
关
兵
其
具
典
兹
兼
冀
冂
冃
冄
内
冈
冉
冊
冋
册
再
冎
冏
冐
冒
冓
冖
冗
冘
军
农
冝
冠
冡
冥
冫
冬
冷
几
凡
凢
凵
凶
凷
凸
凹
出
函
凾
刀
刁
刂
刃
刄
刅
分
切
刍
刑
刕
刖
列
刘
则
初
別
利
别
到
制
刺
則
削
剌
前
剡
剽
劉
力
功
加
劦
动
助
劫
劳
劵
勃
勇
勉
勒
動
務
勞
勤
勹
勺
勻
勾
勿
匀
匂
包
匆
匈
匊
匋
匍
匕
化
北
匚
匝
匡
匪
匱
匸
匹
区
医
匽
匿
區
十
卂
千
卄
卅
卆
升
午
卉
半
卌
华
卑
卒
卓
单
卖
南
卜
卝
卞
占
卡
卢
卣
卤
卦
卩
卪
卬
卯
印
危
即
却
卵
卷
卸
卻
厂
厃
厄
历
厈
厉
厌
厓
厘
厚
原
厤
厥
厨
厭
厲
厶
厷
厸
去
厼
厽
叀
参
參
叅
又
叉
及
友
双
反
叐
发
叒
叔
叕
取
受
叚
叜
叟
口
古
句
另
叩
只
召
可
台
叱
史
右
叵
号
司
叹
吂
各
吅
合
吉
吊
吋
同
名
后
吏
向
吕
君
吝
吞
否
含
启
吳
吴
吹
吾
呂
呆
呈
告
员
呙
周
呼
命
咅
和
咎
咠
咢
咨
咸
咼
哀
品
哉
員
哥
哲
唐
商
啇
問
啚
啬
啻
喃
善
喜
喬
單
喿
嗇
噩
嚴
囊
囗
囘
囙
囚
四
回
囟
因
囧
囬
困
囱
囷
固
国
圂
圅
國
圍
圓
土
圡
圣
圥
在
圭
地
圶
圼
坐
坒
坚
坴
垂
垔
垚
埀
埋
城
埶
執
基
堂
堅
堆
堇
堯
場
塞
墨
壘
士
壬
壮
壯
声
壳
壴
壹
壺
壽
夂
处
夅
夆
备
夊
夋
夌
复
夏
夒
夕
外
夗
夘
多
夜
夢
大
夨
天
太
夫
夬
夭
央
失
夲
头
夷
夸
夹
夻
夾
奂
奄
奇
奈
奉
奎
奏
奐
契
奓
奔
奚
奞
奠
奢
奥
奭
女
奴
奻
好
如
妄
妙
妟
妥
妻
妾
姑
委
姜
威
娄
婁
婆
婴
嬰
嬴
子
孑
孔
孕
孖
字
存
孚
孛
孝
孟
季
孤
学
孫
孱
學
宀
宁
宂
它
宅
宇
守
安
宋
完
宏
宓
宗
官
定
宛
宜
宝
客
宣
室
宮
宰
害
家
容
宾
宿
寄
寅
密
富
寒
察
實
寧
審
寫
寬
寮
寸
对
寺
寻
寽
対
寿
封
尃
射
将
將
專
尉
尊
尋
尌
對
小
少
尒
尓
尔
尖
尗
尚
尞
尢
尣
尤
尧
尨
尭
就
尸
尹
尺
尻
尼
尽
尾
尿
局
居
屆
屈
屋
屎
屏
屑
展
屖
屚
属
屠
屡
屬
屮
屯
屰
山
屵
屾
岁
岂
岑
岡
岩
岳
岸
峯
島
崇
崑
崔
崖
崙
崩
嵬
嶲
巂
巛
川
州
巟
巠
巢
巤
工
左
巧
巨
巩
巫
差
己
已
巳
巴
巷
巸
巽
巾
巿
帀
币
市
布
师
希
帚
帛
帝
带
師
席
帶
常
干
平
年
幵
并
幷
幸
幺
幻
幼
幽
幾
广
広
庄
床
底
店
庚
府
度
庫
庭
庶
康
庸
廉
廌
廛
廟
廣
廩
廴
延
廷
建
廾
廿
开
弁
弃
弄
弇
弋
式
弓
弔
引
弗
弘
弜
弟
弥
弦
弱
張
強
强
彊
彌
彎
彐
彑
当
彔
录
彖
彗
彡
形
彥
彦
彧
彭
影
彳
役
彼
往
待
律
後
徑
徒
得
徙
從
復
微
徵
德
心
忄
必
忌
忍
志
忝
忠
忩
快
念
忽
忿
思
怠
怡
急
怱
恆
恒
恩
恭
息
悉
患
悤
悲
悶
情
惠
惡
惢
愁
愈
意
愛
感
慈
慧
慮
憂
憲
應
戀
戈
戉
戊
戋
戌
戍
戎
成
我
戒
戔
或
戚
戠
戢
截
戲
戶
户
戹
戼
戾
房
所
扁
扇
手
扌
才
打
托
执
承
抗
折
抜
拉
拍
拜
拿
掌
推
提
損
摩
撤
擊
攝
支
攴
攵
收
攸
改
放
政
敄
敏
敕
敖
敗
教
敝
敞
敢
散
敦
敫
敬
数
敷
數
斂
文
斉
斊
斗
斤
斥
斩
斬
斯
新
方
於
施
斿
旁
旋
族
无
旡
既
旣
日
旦
旧
旨
早
旬
旱
旲
时
旾
昆
昇
昌
昍
明
昏
易
昔
昗
昜
星
春
昬
是
昱
昴
昷
時
晃
晉
晋
晏
普
景
晶
智
暑
暴
曇
曩
曰
曲
曳
更
曷
書
曹
曼
曾
替
最
朁
會
月
有
朋
服
朔
朕
朗
望
朝
木
朩
未
末
本
札
朮
术
朱
朵
朶
朿
杀
杏
杜
束
条
来
東
杲
杳
松
板
析
林
枚
果
枝
枲
枼
某
柔
查
柬
柰
柴
栄
栗
格
桀
桑
桼
梁
條
梟
梨
棘
棠
棥
森
楚
業
楽
榮
樂
樊
樓
標
模
欠
次
欣
欮
欲
欶
欽
款
歆
歇
歛
止
正
此
步
武
歨
歪
歮
歯
歰
歲
歴
歷
歸
歹
歺
死
殳
段
殷
殸
殹
殺
殻
殿
毀
毋
毌
母
每
毒
比
毕
毚
毛
毳
氏
氐
民
气
氣
水
氵
氶
氷
永
氺
氾
求
汉
汝
汞
江
沃
沓
沙
沝
河
況
泉
法
波
泣
泥
注
泰
洛
津
洪
活
派
流
浦
浪
浮
消
淡
淮
混
清
渚
渠
港
湯
滿
漢
漸
灣
火
灬
灭
灰
灵
灷
炅
炎
炏
炗
炙
炭
為
烈
烏
烝
焉
無
焦
焱
然
煞
熊
熏
燕
營
燮
爪
爫
爭
爯
爰
爱
爲
爵
父
爻
爽
爾
爿
片
牙
牚
牛
牜
牟
牢
牧
牪
特
牽
犀
犬
犭
犮
狂
狄
狊
独
狺
猋
猒
猪
献
獻
玄
率
玉
王
玟
玨
珎
班
現
球
理
琴
瑞
瑟
瑩
環
瓜
瓦
甘
甚
生
産
用
甫
甬
田
由
甲
申
电
甶
男
甸
甹
画
甾
畀
界
畏
畐
留
畜
畟
畢
畧
畨
番
畫
異
畱
當
畺
畾
疊
疋
疌
疑
疒
疾
癶
癸
癹
登
發
白
百
皀
皃
的
皆
皇
皋
皐
皕
皮
皷
皿
盃
盆
盇
盈
益
盍
盎
监
盒
盖
盛
盡
監
盤
盧
目
直
相
盾
省
眇
眉
看
眔
眞
真
眷
眼
眾
着
睘
睪
睿
瞏
瞢
瞿
矍
矛
矞
矢
矣
知
矦
短
石
砲
破
碎
磊
磨
示
礻
礼
神
祟
票
祭
禀
禁
福
禸
禹
禺
离
禽
禾
禿
秀
秃
秉
秋
科
秒
秝
秦
移
程
稟
穀
穌
穴
究
穹
空
穿
突
窄
窒
立
竒
竜
竝
竟
章
童
竹
笑
笠
符
第
筆
等
答
箕
算
管
箴
節
篇
篤
篭
米
粉
粛
粟
粤
粦
粲
粵
糞
糸
糹
系
約
納
素
索
紫
累
細
絜
絫
絲
続
維
綿
線
縣
總
繁
繇
纍
纟
缶
网
罒
罔
罕
罗
罙
罡
罢
罪
署
罷
羅
羊
羌
羍
美
羔
羕
羗
羞
羡
羣
群
義
羲
羸
羽
翁
翏
習
翕
翟
翠
翼
老
耂
考
者
耆
而
耎
耑
耒
耳
耴
耶
耷
聂
聊
联
聖
聚
聶
聿
肀
肃
肅
肉
肖
肙
肥
肩
肯
育
肴
胃
背
胡
胥
能
脊
脩
腐
膚
臣
臤
臧
自
臬
臭
臯
臱
至
致
臺
臼
臽
臾
臿
舀
舂
舄
與
興
舉
舌
舍
舛
舜
舞
舟
航
般
艮
良
色
艸
艹
艾
芒
芔
芬
芮
花
芳
芺
芻
苔
苗
苟
若
苦
英
茶
茸
荅
草
荒
荣
荷
荼
莆
莧
莫
莽
菆
菊
菐
菜
華
萬
落
葉
著
葛
董
葵
蒙
蒦
蒲
蒼
蓋
蓬
蓺
蔑
蔡
蕉
蕭
薄
薛
薦
薰
藍
藏
藥
蘭
虍
虎
虐
虒
虔
處
虖
虗
虘
虚
虛
虜
虞
號
虫
虽
蚤
蚩
蜀
蜜
蟲
蠡
血
行
衍
衛
衣
衤
表
衮
衰
袁
袞
褭
褱
襄
襲
襾
西
覀
要
覃
見
規
覓
覧
親
覽
见
角
解
言
訁
訇
計
記
訪
話
詹
語
誩
諸
議
讠
话
语
读
谷
豆
豈
豊
豐
豕
豖
豙
象
豦
豩
豪
豸
貇
貝
貞
貟
負
貢
貧
貪
貫
責
貳
貴
買
費
賁
資
賈
賏
賓
賔
賛
賞
賢
賣
質
賴
賽
贊
贝
贡
责
货
贯
贲
贵
赖
赞
赤
赦
走
越
趙
足
路
蹇
蹋
躍
身
躬
車
軍
軎
軟
輦
輪
车
辛
辜
辟
辥
辰
辱
農
辵
辶
边
达
过
近
连
迷
追
退
送
逆
逐
通
速
造
逢
連
逮
進
遀
遂
過
道
達
遣
適
遷
選
遺
邊
邑
邕
那
邦
邪
郎
部
郭
都
鄉
鄞
酉
酋
配
酒
酓
釆
采
里
重
野
量
金
釒
鋒
錢
錦
錫
钅
長
镸
长
門
閃
閉
開
閏
閑
閒
間
閔
閵
閻
闌
门
问
间
闷
阅
阑
阜
阝
阿
附
降
陳
隆
隊
隋
隡
隨
隱
隶
隹
隺
隻
隼
隽
难
雀
雁
集
雈
雋
雍
雐
雔
雙
雚
雜
雝
離
難
雨
雩
雪
雲
零
雷
需
霍
霜
霝
霞
霸
靈
靑
青
非
靡
面
靣
革
韋
韓
韦
韭
韯
韱
音
頁
頃
項
須
頗
頡
頻
顛
页
風
颱
风
飛
飞
食
飠
養
饣
首
香
馬
馮
駦
驅
马
骨
高
髟
鬥
鬯
鬲
鬼
魚
魯
鮮
鯉
鱼
鲁
鳥
鳳
鴨
鸟
鹵
鹿
麃
麗
麥
麦
麻
黃
黄
黍
黎
黑
黒
黨
黹
黽
黾
鼎
鼓
鼠
鼻
齊
齋
齐
齒
齿
龍
龙
龜
龟
龠
龰
龱
龴
龵
龶
龷
龸
龹
ꁱ
ꂷ
ꃘ
ꆇ
ꆈ
ꇖ
ꈬ
ꉆ
ꉙ
ꉬ
ꊰ
ꋍ
ꌕ
ꌠ
ꏃ
ꑍ
꒿
ꓐ
ꓑ
ꓒ
ꓓ
ꓔ
ꓕ
ꓖ
ꓗ
ꓘ
ꓙ
ꓚ
ꓛ
ꓜ
ꓝ
ꓞ
ꓟ
ꓠ
ꓡ
ꓢ
ꓣ
ꓤ
ꓥ
ꓦ
ꓧ
ꓨ
ꓩ
ꓪ
ꓫ
ꓬ
ꓭ
ꓮ
ꓯ
ꓰ
ꓱ
ꓲ
ꓳ
ꓴ
ꓵ
ꓶ
ꓷ
ꓸ
ꓹ
ꓺ
ꓻ
ꓼ
ꓽ
꓾
꓿
ꙁ
ꙃ
ꙅ
ꙇ
ꙉ
ꙋ
ꙍ
ꙏ
ꙑ
ꙓ
ꙕ
ꙗ
ꙟ
ꙡ
ꙣ
ꙥ
ꙧ
ꙩ
ꙫ
ꙭ
ꙮ
ꚁ
ꚃ
ꚅ
ꚇ
ꚉ
ꚋ
ꚍ
ꚏ
ꚑ
ꚓ
ꚕ
ꚗ
ꚙ
ꚛ
ꜣ
ꜥ
ꜧ
ꜩ
ꜫ
ꜭ
ꜯ
ꜰ
ꜱ
ꜳ
ꜵ
ꜷ
ꜹ
ꜻ
ꜽ
ꝇ
ꝍ
ꝏ
ꝛ
ꝡ
ꝣ
ꝩ
ꝺ
ꝼ
ꝿ
ꞁ
ꞃ
ꞅ
ꞇ
꞊
ꞌ
ꞑ
ꞓ
ꞗ
ꞡ
ꞣ
ꞥ
ꞧ
ꞩ
ꢜ
ꢬ
ꢰ
ꢱ
ꢵ
ꣃ
꣄
꣐
꣑
꣒
꣓
꣔
꣕
꣖
꣗
꣘
꣙
ꦏ
ꦕ
ꦗ
ꦤ
ꦧ
ꦫ
ꦮ
ꦱ
ꦲ
꧀
꧇
꧐
꧑
꧒
꧓
꧔
꧕
꧖
꧗
꧘
꧙
ꪀ
ꪒ
ꪕ
ꪺ
ꪾ
꪿
ꫀ
꫁
ꫂ
ꫠ
ꫡ
ꫢ
ꫣ
ꫤ
ꫥ
ꫦ
ꫧ
ꫨ
ꫩ
ꫪ
ꫫ
ꫬ
ꫭ
ꫮ
ꫯ
꫰
꫱
ꫲ
ꫳ
ꫴ
ꫵ
ꭲ
ꭶ
ꭹ
ꭺ
ꭼ
ꭿ
ꮃ
ꮅ
ꮑ
ꮒ
ꮕ
ꮙ
ꮚ
ꮜ
ꮝ
ꮠ
ꮡ
ꮣ
ꮤ
ꮧ
ꮳ
ꮶ
ꮷ
ꮼ
ꯀ
ꯁ
ꯂ
ꯃ
ꯄ
ꯅ
ꯆ
ꯇ
ꯈ
ꯉ
ꯊ
ꯋ
ꯌ
ꯍ
ꯎ
ꯏ
ꯐ
ꯑ
ꯒ
ꯓ
ꯔ
ꯕ
ꯖ
ꯗ
ꯘ
ꯙ
ꯚ
ꯛ
ꯜ
ꯝ
ꯞ
ꯟ
ꯠ
ꯡ
ꯢ
ꯣ
ꯤ
ꯥ
ꯦ
ꯧ
ꯨ
ꯩ
ꯪ
꯫
꯬
꯭
꯰
꯱
꯲
꯳
꯴
꯵
꯶
꯷
꯸
꯹

者
艹
ﬓ
ﬔ
ﬕ
ﬖ
ﬗ
️
ﺗ
ﻠ
ﻩ
ﻴ
﻿
，
／
：
？
￼
𐄇
𐄈
𐄉
𐄊
𐄋
𐄌
𐄍
𐄎
𐄏
𐄐
𐄑
𐄒
𐄓
𐄔
𐄕
𐄖
𐄗
𐄘
𐄙
𐄚
𐄛
𐄜
𐄝
𐄞
𐄟
𐄠
𐄡
𐄢
𐄣
𐄤
𐄦
𐄫
𐄬
𐄯
𐅄
𐅅
𐅆
𐅇
𐌀
𐌁
𐌂
𐌃
𐌄
𐌅
𐌇
𐌉
𐌊
𐌋
𐌌
𐌍
𐌐
𐌓
𐌔
𐌕
𐌖
𐌚
𐌝
𐌞
𐌰
𐌲
𐌳
𐌶
𐌹
𐌺
𐌿
𐍂
𐍃
𐍄
𐍈
𐍉
𐎠
𐎡
𐎢
𐎣
𐎤
𐎥
𐎦
𐎧
𐎨
𐎩
𐎪
𐎫
𐎬
𐎭
𐎮
𐎯
𐎰
𐎱
𐎲
𐎳
𐎴
𐎵
𐎶
𐎷
𐎸
𐎹
𐎺
𐎻
𐎼
𐎽
𐎾
𐎿
𐏀
𐏁
𐏂
𐏃
𐒀
𐒈
𐒋
𐒑
𐒒
𐒕
𐒘
𐒛
𐤁
𐤃
𐤉
𐤊
𐤌
𐤍
𐤏
𐤓
𐬀
𐬁
𐬆
𐬉
𐬌
𐬎
𐬑
𐬗
𐬙
𐬚
𐬛
𐬝
𐬞
𐬠
𐬡
𐬢
𐬥
𐬧
𐬬
𐬭
𐬯
𐬰
𐬱
𐬴
𐬵
𐭀
𐭁
𐭂
𐭃
𐭄
𐭅
𐭆
𐭇
𐭈
𐭉
𐭊
𐭋
𐭌
𐭍
𐭎
𐭏
𐭐
𐭑
𐭒
𐭓
𐭔
𐭕
𐭘
𐭙
𐭚
𐭛
𐭜
𐭠
𐭡
𐭢
𐭣
𐭤
𐭥
𐭦
𐭧
𐭨
𐭩
𐭪
𐭫
𐭬
𐭭
𐭮
𐭯
𐭰
𐭱
𐭲
𑃐
𑃑
𑃒
𑃓
𑃔
𑃕
𑃖
𑃗
𑃘
𑃙
𑃚
𑃛
𑃜
𑃝
𑃞
𑃟
𑃠
𑃡
𑃢
𑃣
𑃤
𑃥
𑃦
𑃧
𑃨
𑃰
𑃱
𑃲
𑃳
𑃴
𑃵
𑃶
𑃷
𑃸
𑃹
𑄀
𑄁
𑄂
𑄃
𑄄
𑄅
𑄆
𑄇
𑄈
𑄉
𑄊
𑄋
𑄌
𑄍
𑄎
𑄏
𑄐
𑄑
𑄒
𑄓
𑄔
𑄕
𑄖
𑄗
𑄘
𑄙
𑄚
𑄛
𑄜
𑄝
𑄞
𑄟
𑄠
𑄡
𑄢
𑄣
𑄤
𑄥
𑄦
𑄧
𑄨
𑄩
𑄪
𑄫
𑄬
𑄭
𑄰
𑄱
𑄲
𑄳
𑄴
𑄶
𑄷
𑄸
𑄹
𑄺
𑄻
𑄼
𑄽
𑄾
𑄿
𑅀
𑅁
𑅂
𑅃
𑋰
𑋱
𑋲
𑋳
𑋴
𑋵
𑋶
𑋷
𑋸
𑋹
𑙐
𑙑
𑙒
𑙓
𑙔
𑙕
𑙖
𑙗
𑙘
𑙙
𖩠
𖩡
𖩢
𖩣
𖩤
𖩥
𖩦
𖩧
𖩨
𖩩
𖫐
𖫑
𖫒
𖫓
𖫔
𖫕
𖫖
𖫗
𖫘
𖫙
𖫚
𖫛
𖫜
𖫝
𖫞
𖫟
𖫠
𖫡
𖫢
𖫣
𖫤
𖫥
𖫦
𖫧
𖫨
𖫩
𖫪
𖫫
𖫬
𖫭
𖫰
𖫱
𖫲
𖫳
𖫴
𖫵
🌐
🎉
👩
📲
🗓
🚀
🜨
𠀁
𠀃
𠀆
𠀉
𠀎
𠀐
𠁁
𠁣
𠂆
𠂇
𠂈
𠂉
𠂊
𠂋
𠂎
𠂒
𠂔
𠂛
𠂡
𠂢
𠂤
𠂬
𠂭
𠂹
𠃊
𠃋
𠃌
𠃍
𠃎
𠃑
𠃓
𠃔
𠃜
𠄌
𠄎
𠄠
𠄢
𠆢
𠆥
𠇍
𠈌
𠌵
𠓜
𠔉
𠔥
𠔼
𠔽
𠔿
𠕀
𠕁
𠕋
𠘧
𠘨
𠙻
𠙼
𠚏
𠚒
𠚤
𠚪
𠣏
𠤎
𠤕
𠥓
𠦄
𠦑
𠦝
𠧒
𠧗
𠧪
𠩺
𠪚
𠫓
𠫔
𠫤
𠬛
𠬝
𠬞
𠬢
𠬤
𠬶
𠮛
𠮦
𠮷
𠯑
𠱠
𠳮
𠷎
𡈼
𡉀
𡉵
𡌥
𡍮
𡏳
𡕒
𡕩
𡕰
𡖅
𡗗
𡗜
𡘆
𡘤
𡦂
𡧱
𡨄
𡨸
𡩧
𡬠
𡭽
𡰣
𡰥
𡰪
𡰯
𡰱
𡷈
𡸁
𡿨
𡿩
𡿪
𡿺
𢀖
𢀛
𢀩
𢁙
𢆉
𢆰
𢆶
𢇁
𢇇
𢉖
𢌬
𢌿
𢏚
𢑑
𢑚
𢖻
𢙣
𢛳
𢦏
𢦒
𢧵
𢼄
𢾕
𣁋
𣄼
𣅀
𣅽
𣍘
𣎳
𣎵
𣏋
𣏼
𣗥
𣥂
𣥖
𣦵
𣦼
𣧄
𣪊
𣪠
𣬉
𣳾
𣶒
𤇾
𤊽
𤐫
𤓰
𤔔
𤕨
𤣩
𤰇
𤰔
𤰞
𤴓
𤴔
𤽄
𥁑
𥁕
𥃦
𥃩
𥃭
𥇡
𥑟
𥘅
𥘈
𥝢
𥫗
𥱡
𦈢
𦉪
𦉬
𦉼
𦍌
𦍒
𦎧
𦐇
𦓔
𦔮
𦘒
𦙃
𦚏
𦣝
𦣞
𦣻
𦥑
𦥔
𦥯
𦨉
𦭝
𦰩
𧆞
𧈧
𧘇
𧰨
𧴪
𧴮
𧵩
𧾷
𨸏
𨾴
𩙿
𩠐
𩫏
𩵋
𪉷
𪜀
𪟽
𪠲
𪩲
𫇦
𫔭
𫜸
𫝀
𫠣
𫠩
𫢉
𫥞
𫩏
𫩠
𫪡
𫲽
𫶧
𬀷
𬐘
𬗌
𬙙
𬛸
𬜯
𬟩
𬯁
𬴘
𬺻
𬼉
𬼖
𭀰
𭁈
𭁨
𭅰
𭑈
𭕄
𭗼
𭤨
𭥫
𭻾
𮅕
𮊿
𮍌
𮍏
𮓗
𮥼
𮧮
廾
𰀁
𰀄
𰀈
𰀉
𰀕
𰀠
𰀡
𰀢
𰀪
𰁜
𰃮
𰆊
𰆘
𰋙
𰕎
𰢴
𰧭
𰯲
00--
01--
02--
03--
04--
05--
06--
07--
09--
123--
136--
156--
160--
170--
293--
36--
38--
39--
42--
46--
47--
496--
50--
51--
52--
520--
53--
54--
56--
58--
59--
60--
61--
62--
63--
65--
66--
70--
71--
72--
73--
74--
76--
77--
78--
79--
80--
81--
82--
83--
84--
85--
86--
87--
88--
89--
90--
91--
92--
93--
94--
96--
978--
98--
9856--
99--
a--
aa--
ab--
aband--
ac--
acerif--
acicul--
acro--
act--
acut--
ad--
adam--
aden--
advan--
advo--
ae--
aesc--
aest--
af--
affi--
ag--
agat--
ah--
ai--
air--
ak--
al--
ala--
albi--
albo--
alem--
alex--
all--
alp--
alt--
am--
ama--
ambr--
amin--
amph--
amplex--
ampu--
amygda--
an--
ana--
and--
ang--
anis--
ann--
anom--
ant--
anten--
ao--
ap--
aphy--
app--
aq--
ar--
ara--
arach--
arc--
are--
argen--
arieti--
ariz--
ark--
arri--
art--
arund--
as--
asco--
ast--
astro--
at--
atmosp--
atro--
atta--
attri--
au--
auricu--
aus--
austro--
auto--
auxi--
av--
avai--
aven--
aw--
awah--
axi--
ay--
az--
b--
ba--
bahoru--
bal--
ban--
bapt--
bar--
barb--
bass--
bat--
bay--
be--
beau--
bee--
ben--
ber--
bh--
bi--
bid--
big--
bilobu--
bin--
biog--
bipinn--
bism--
bl--
blep--
bo--
bol--
bor--
bot--
bow--
box--
br--
bra--
brachy--
bracte--
bre--
brevi--
broadc--
brong--
bru--
bu--
bucc--
bud--
bur--
burn--
by--
bø--
c--
ca--
caer--
cal--
calan--
cali--
calo--
calv--
calypt--
camb--
came--
camp--
can--
cap--
car--
caroli--
cass--
cat--
cauc--
caul--
cav--
cay--
ce--
ceci--
ceil--
cele--
cerato--
cere--
ch--
cha--
chamae--
char--
che--
chi--
chiri--
chlo--
cho--
chry--
chryso--
chu--
ci--
cili--
circu--
cirr--
cla--
cli--
clu--
cneo--
co--
cocc--
coch--
coel--
col--
coll--
collab--
colli--
colo--
com--
comp--
con--
condy--
cons--
cor--
cora--
cord--
corn--
cornicul--
coro--
corr--
cory--
corymb--
coryn--
coul--
cra--
cras--
crassi--
cratoxy--
cre--
cri--
crin--
cro--
cru--
cruci--
crypt--
cs--
cu--
cucume--
cult--
cune--
cunning--
cup--
curt--
curv--
cy--
cyan--
cyat--
cyathi--
cyc--
cyg--
cylin--
cyrt--
cze--
d--
da--
dacty--
dah--
dan--
dar--
dasy--
date--
db--
dc--
dd--
de--
dec--
defin--
dem--
den--
der--
des--
desti--
deter--
dh--
di--
dia--
dic--
die--
dil--
dipl--
disc--
disp--
dist--
distri--
div--
diversifo--
dnep--
do--
doc--
doli--
dolicho--
dom--
dr--
dri--
drymo--
du--
dua--
dui--
dupl--
dyn--
dz--
e--
ea--
eat--
ec--
ecalcar--
ed--
ee--
efe--
egi--
ei--
ein--
ej--
ek--
el--
ele--
else--
em--
emer--
en--
end--
ensifo--
enter--
ep--
epi--
epip--
epis--
equi--
er--
erio--
eryth--
erythro--
es--
esper--
et--
etymo--
eu--
euphro--
eur--
eury--
ex--
exc--
exec--
exhi--
expand--
expl--
ez--
f--
fa--
fac--
facili--
fal--
falci--
fan--
far--
fe--
fel--
feld--
fern--
ff--
fi--
file--
fili--
filterby--
fimb--
fj--
fl--
flav--
flu--
fly--
fo--
foet--
fon--
for--
format--
forni--
fr--
fra--
free--
fri--
fried--
frut--
fry--
fu--
fulf--
fund--
fur--
fusco--
fy--
fø--
g--
ga--
gal--
gali--
gan--
gar--
garr--
gas--
ge--
gel--
gemm--
gen--
gene--
genicul--
geo--
gera--
get--
gg--
gh--
gi--
gill--
gl--
glad--
glau--
glazio--
glob--
glos--
gm--
go--
gol--
gor--
gou--
gover--
gr--
grac--
gracil--
gram--
graminif--
gre--
greu--
gro--
gu--
guana--
guer--
gui--
guo--
guokte--
guttul--
gwa--
gymn--
h--
ha--
ham--
han--
har--
has--
hat--
haupt--
he--
hein--
hel--
heli--
henn--
her--
herce--
heu--
hi--
hier--
him--
hint--
hipp--
hirt--
his--
ho--
hoff--
hol--
holly--
homo--
hond--
hover--
hs--
ht--
hu--
humb--
humi--
hund--
hy--
hyacin--
hydr--
hymen--
hyper--
hypo--
hø--
i--
ia--
iac--
iba--
ic--
id--
iden--
ie--
ig--
ii--
ik--
il--
ilo--
im--
imag--
imbric--
in--
ind--
indep--
ing--
integr--
inter--
invest--
io--
iono--
ip--
ir--
iri--
is--
isch--
iso--
iss--
ist--
it--
iter--
iv--
iz--
j--
ja--
jan--
je--
ji--
jo--
ju--
jun--
k--
ka--
kai--
kaj--
kali--
kalo--
kam--
kan--
kar--
kara--
kau--
ke--
kenn--
ker--
kh--
ki--
kina--
kir--
kit--
kk--
kle--
km--
ko--
koe--
kom--
kon--
kor--
kp--
kr--
kra--
kreol--
kreuz--
ks--
ku--
kuh--
kun--
kur--
kv--
kw--
ky--
kye--
kı--
l--
la--
lab--
laca--
lace--
laci--
lam--
lamel--
lan--
lanceol--
lang--
lapp--
las--
lasio--
lat--
lati--
laur--
lav--
law--
laxi--
le--
lea--
leio--
len--
leo--
leontog--
lepi--
lept--
leuc--
leucop--
li--
liber--
ligu--
lin--
lind--
liv--
ll--
llama--
lo--
loj--
long--
lu--
lum--
lute--
luxem--
lv--
ly--
lyo--
m--
ma--
mac--
macro--
madi--
mag--
magni--
mai--
mainsnak--
man--
manu--
mar--
mas--
matu--
mau--
max--
mb--
me--
mean--
med--
meg--
megal--
mel--
mela--
melan--
mem--
men--
mer--
mes--
met--
meta--
mexi--
mi--
mic--
micro--
microblep--
mid--
mil--
min--
mira--
mis--
mit--
mix--
mn--
mo--
mon--
mor--
mp--
ms--
mu--
multi--
mur--
musco--
my--
myrt--
n--
na--
nam--
nan--
natur--
nav--
nb--
nc--
nd--
ne--
nec--
necta--
ned--
nega--
nem--
neo--
nep--
new--
next--
ng--
nga--
ni--
nico--
nie--
nieder--
nigr--
nj--
nn--
no--
nom--
non--
nor--
north--
not--
ns--
nt--
nu--
nuci--
nue--
ny--
o--
oa--
ob--
obli--
oc--
occi--
och--
ochro--
octa--
od--
odonto--
oe--
oestl--
of--
og--
oh--
oi--
ok--
okla--
ol--
oli--
om--
omni--
on--
oo--
op--
ophi--
or--
ora--
oreo--
orni--
orð--
os--
osci--
ot--
ou--
out--
ov--
ox--
oxy--
oxygl--
oy--
p--
pa--
pachy--
pag--
pal--
pall--
palu--
pamp--
pan--
panduri--
pano--
pap--
par--
parvi--
parvifo--
path--
pay--
pe--
pecti--
pelt--
pen--
per--
pet--
pfe--
pflan--
ph--
pha--
pho--
phoen--
phy--
phyll--
pi--
pic--
piem--
pinn--
pit--
pl--
place--
plat--
platy--
plecto--
plei--
pleurot--
pm--
po--
podc--
pol--
poli--
poly--
polya--
pomp--
por--
pos--
possible--
pp--
pr--
pract--
prae--
pras--
pre--
pro--
professions--
ps--
pseu--
pseudo--
pseudod--
pseudos--
psit--
psy--
psycho--
pt--
pter--
pty--
pu--
pub--
pue--
pulv--
pulver--
pur--
put--
py--
q--
qu--
qua--
quadr--
quadri--
que--
qui--
quin--
quinque--
r--
ra--
rah--
ramo--
ran--
raus--
rd--
re--
recru--
recu--
ref--
reg--
regne--
reli--
renan--
renderre--
renders--
reni--
rep--
res--
rev--
rh--
rhod--
rhombi--
rhombo--
rhyn--
ri--
rigi--
rio--
rn--
ro--
robu--
rond--
rostr--
rotundifo--
roy--
roz--
rs--
rt--
ru--
rus--
s--
sa--
sagi--
sah--
sal--
salicifo--
salt--
salz--
sam--
san--
sar--
sarco--
sauvage--
sc--
scab--
scabri--
scel--
sch--
scha--
schi--
schim--
schu--
scint--
sco--
scul--
se--
sea--
sei--
sel--
sem--
sep--
ser--
serru--
ses--
set--
sh--
sha--
she--
shik--
shq--
si--
sie--
sil--
silve--
simp--
simpli--
simplici--
simu--
sin--
sk--
skul--
sl--
slov--
sm--
sn--
so--
sol--
son--
soo--
sora--
sp--
spat--
spathu--
spatu--
sphaer--
spic--
spin--
squa--
sr--
st--
sta--
star--
start--
ste--
stel--
stelid--
sten--
stenop--
ster--
stic--
stip--
sto--
storbri--
str--
stu--
sty--
su--
sua--
sub--
subst--
sud--
sul--
sum--
sun--
suom--
sup--
super--
sur--
susta--
sv--
sw--
swa--
sy--
syd--
syll--
sylv--
symp--
sympho--
syn--
sz--
sø--
t--
ta--
taenio--
tai--
tan--
tapro--
tas--
tax--
te--
tec--
tel--
ten--
tenui--
ter--
tet--
tetra--
th--
tha--
the--
tho--
thu--
thy--
ti--
time--
tj--
tl--
tm--
to--
tond--
tor--
torr--
tort--
tovom--
tr--
tra--
trachy--
trans--
tre--
tri--
tricho--
trigo--
tro--
trulli--
trun--
ts--
tt--
tu--
tul--
tun--
tur--
tv--
ty--
tykk--
typi--
tyr--
u--
ua--
uc--
ug--
uk--
ukra--
ul--
um--
umbo--
un--
unci--
und--
undul--
uni--
unit--
up--
ur--
us--
use--
ut--
uu--
ux--
v--
va--
vagi--
val--
valid--
van--
var--
varie--
vda--
vdal--
ve--
veg--
vel--
ver--
vern--
verr--
verruc--
vers--
vertic--
vest--
vi--
vic--
vie--
vigl--
viki--
vil--
vinc--
vincje--
violaceo--
vir--
viri--
viridi--
vit--
vo--
vol--
volks--
vos--
vu--
vul--
w--
wa--
wald--
wan--
war--
was--
we--
web--
wel--
wens--
whi--
wi--
wiki--
wil--
win--
wo--
wogu--
work--
wot--
wp--
wu--
wy--
x--
xa--
xant--
xanthan--
xantho--
xen--
xerop--
xi--
xu--
y--
ya--
ye--
yi--
yo--
yr--
yu--
z--
za--
ze--
zebr--
zey--
zh--
zi--
zlo--
zo--
zu--
zə--
æ--
ð--
þ--
þa--
đ--
ł--
ŋ--
ƚ--
ƿ--
ǀ--
ǁ--
ǂ--
ǃ--
ɔ--
ɖ--
ə--
ɛ--
ɟ--
ɡ--
ɣ--
ɨ--
ʃ--
ʊ--
ʋ--
ʒ--
ʔ--
ʷ--
β--
γ--
δ--
δε--
ε--
η--
θ--
ι--
κ--
λ--
μ--
ν--
ξ--
ο--
π--
πε--
ρ--
σ--
τ--
τρ--
τυ--
φ--
χ--
ψ--
а--
аа--
аб--
абе--
абу--
ав--
авиа--
авиац--
авто--
аг--
ага--
агро--
ад--
аддз--
адек--
адміні--
аз--
азб--
аи--
ак--
ако--
акроба--
акт--
актив--
акцио--
ал--
але--
алексеев--
аль--
ам--
амба--
амв--
амер--
ан--
ана--
ани--
анти--
аныб--
ар--
арах--
арбу--
аргу--
аргумен--
ари--
арки--
арм--
армянс--
аро--
арт--
архангело--
архи--
архите--
ас--
аспиран--
аст--
асф--
асыв--
ась--
ат--
ата--
атмосфе--
ау--
аудио--
аф--
афр--
ах--
аха--
аэ--
ая--
б--
ба--
баб--
бал--
бальза--
бам--
бан--
бар--
барь--
бас--
баск--
батальо--
бать--
бах--
бе--
бед--
без--
бел--
беле--
белл--
беля--
бен--
бер--
бес--
бесе--
бесплат--
бессмер--
бет--
би--
биб--
биг--
бигно--
биосфе--
бис--
бли--
бо--
боб--
бог--
богос--
бол--
бонд--
бор--
босф--
бот--
бр--
бра--
бран--
брати--
брау--
брош--
бу--
буб--
буд--
бук--
бул--
бун--
бур--
бы--
быдт--
бі--
біль--
в--
ва--
ваг--
вад--
важ--
вал--
валь--
ван--
вар--
вас--
вач--
вая--
вв--
вве--
введен--
ве--
вев--
веж--
век--
вел--
велико--
вен--
вер--
верх--
вет--
вз--
взаимоотноше--
взя--
ви--
вид--
видз--
виз--
визу--
вики--
виног--
винто--
вир--
вис--
вись--
вит--
вичч--
виш--
више--
вия--
вк--
вклю--
вл--
вла--
вм--
вне--
вну--
во--
вогуль--
водз--
воен--
воз--
возгл--
возрас--
вол--
волга--
воло--
вологод--
волыв--
волын--
вом--
воро--
ворс--
воск--
воскре--
воспи--
восс--
восточ--
вось--
воськов--
вот--
вотч--
воча--
вп--
впал--
вра--
вс--
все--
всь--
вто--
ву--
вуж--
вуза--
вун--
вх--
въ--
вы--
выб--
выв--
выдви--
выи--
выль--
вылі--
вынъ--
высо--
выступле--
выш--
вяз--
ві--
від--
г--
га--
гаг--
гадо--
гаж--
гал--
гале--
гам--
гандбол--
гар--
гард--
гас--
гда--
ге--
гель--
ген--
гео--
гер--
герми--
ги--
гиб--
гиг--
гиган--
гид--
гидро--
гиж--
гиль--
гим--
гич--
гл--
глав--
глаз--
гло--
глу--
гне--
го--
гово--
гож--
голл--
голь--
гонча--
гор--
горно--
горт--
гос--
госпита--
госс--
гот--
гр--
гра--
граж--
гре--
грибое--
григо--
гро--
гру--
гт--
гу--
гум--
гун--
гур--
гуран--
гутъ--
гы--
гь--
гіга--
д--
да--
дав--
дагъ--
дал--
дальнево--
дан--
дань--
дар--
дат--
дд--
де--
демон--
департа--
деся--
десяти--
дет--
дефиц--
дж--
джа--
джан--
джод--
джу--
джын--
дз--
дзе--
дзеб--
дзескыді--
дзи--
дзум--
ди--
дин--
дис--
дит--
дитч--
дк--
дл--
дмит--
до--
доб--
доба--
добро--
дов--
дол--
долг--
дон--
донъя--
допол--
дополнитель--
дор--
дори--
доръ--
досто--
доступ--
др--
дра--
драм--
древ--
древне--
дрес--
дс--
дси--
дт--
ду--
дуб--
дум--
душм--
дчан--
дчы--
дъю--
дъяс--
ды--
дь--
дэ--
дю--
дя--
ді--
дін--
е--
ев--
евро--
евсе--
един--
единстве--
ежегод--
еженедель--
ек--
еле--
ен--
енъ--
енэж--
ер--
ермо--
еро--
ес--
есте--
ж--
жа--
жан--
жар--
же--
жж--
жи--
живот--
жизне--
жо--
жов--
жуг--
жы--
жә--
з--
за--
заб--
заве--
заглав--
заимствова--
заинтересов--
законо--
заня--
зап--
запове--
зари--
засе--
зая--
зви--
зву--
зе--
зеп--
зер--
зи--
знамен--
зо--
зон--
зу--
зы--
зын--
зыр--
зяе--
зі--
зіль--
и--
иб--
ив--
ива--
иг--
игу--
ид--
иде--
идентифи--
иж--
иже--
из--
избиратель--
изваиль--
извес--
изложе--
изь--
ил--
илля--
иль--
им--
ин--
инд--
индивиду--
индо--
инициа--
ино--
интер--
интерес--
инфор--
инфраструкт--
ио--
ир--
ис--
исп--
иссле--
исх--
ит--
ите--
ито--
итч--
ич--
к--
ка--
каб--
кад--
каж--
кажи--
каз--
каза--
казь--
казьты--
казьтыш--
казя--
кал--
калли--
каль--
кам--
камен--
кан--
кани--
кань--
капи--
кар--
карбона--
карго--
карто--
каш--
кв--
ква--
квадрат--
кват--
ке--
кев--
кевм--
кер--
керъ--
кет--
ки--
кибер--
киев--
кин--
кино--
киргиз--
кири--
кл--
кле--
км--
кн--
кно--
ко--
коб--
ков--
код--
кое--
кож--
коз--
козь--
кок--
кокъ--
кол--
коло--
коль--
ком--
коман--
коми--
комиссариа--
кон--
конкрет--
консу--
контр--
конь--
коп--
кор--
корен--
корнс--
кос--
кот--
кох--
коч--
кр--
кра--
крас--
кре--
крем--
кри--
крип--
крипто--
кро--
кру--
крымскотатар--
крыс--
ксы--
кті--
ку--
куд--
куз--
кузь--
куим--
кук--
кул--
кула--
кумык--
кур--
курат--
кут--
куч--
кучм--
куш--
кха--
къ--
кы--
кыа--
кыв--
кывсика--
кыд--
кыз--
кык--
кыл--
кын--
кырым--
кыс--
кыш--
кыя--
кь--
кэ--
кі--
кіль--
л--
ла--
лаг--
лагер--
лагеръ--
лад--
лаж--
лан--
ле--
лебе--
лег--
лек--
лексико--
лес--
лесниче--
лесо--
лет--
лето--
ли--
лив--
лик--
линг--
лит--
литов--
лич--
лл--
ло--
лов--
ловзь--
лож--
лок--
лт--
лу--
луб--
луи--
лун--
лы--
лыа--
лыд--
лыж--
лым--
лынь--
лыс--
лысь--
ль--
лэ--
лэбз--
лэдз--
лэч--
лю--
люби--
люс--
лютец--
ля--
м--
ма--
мав--
маг--
макар--
мал--
мале--
маль--
мам--
ман--
мас--
мат--
мах--
машин--
мд--
ме--
мега--
мед--
меж--
между--
мез--
мезд--
мезо--
мек--
мель--
мемуа--
мен--
мер--
месопо--
место--
мет--
мета--
мете--
ми--
микро--
мин--
минер--
мир--
миш--
мк--
мн--
много--
мо--
моби--
мож--
мокча--
мол--
моло--
мон--
мор--
морф--
морфе--
мос--
москов--
мс--
му--
муж--
муз--
музы--
муль--
мун--
мус--
мух--
мъю--
мы--
мын--
мынты--
мыр--
мыс--
мычч--
мыш--
мя--
мяндин--
мі--
н--
на--
наблю--
навигацио--
над--
наз--
наза--
назва--
нази--
наи--
наместниче--
напис--
написан--
нар--
нас--
натур--
нах--
нач--
нд--
не--
нег--
неза--
нек--
нем--
немец--
ненец--
необязатель--
несказоч--
нефт--
нехоже--
ни--
нившер--
ниж--
ним--
нимт--
нимтысян--
нк--
нн--
но--
нов--
ново--
нок--
номыръ--
ноп--
нор--
нос--
нох--
нс--
нсь--
нт--
ну--
нуж--
ныр--
нь--
нэ--
нэм--
ню--
нюж--
нюм--
нюно--
нюр--
ня--
няр--
ні--
о--
об--
обеспече--
обл--
обла--
обоз--
обра--
общ--
обще--
объ--
объя--
обы--
обяз--
обязатель--
ов--
ог--
огро--
од--
одно--
оже--
оз--
озе--
озыр--
ок--
оказ--
окку--
окон--
ол--
ом--
оме--
он--
оо--
оп--
опо--
опре--
ор--
оран--
орг--
оре--
оригиналь--
ос--
от--
отд--
откр--
отноше--
отоб--
отобра--
отс--
отсав--
оу--
офор--
ох--
охот--
оче--
ош--
оши--
ошк--
оя--
п--
па--
павл--
пад--
паж--
пак--
пан--
пара--
парт--
парф--
пас--
пасъя--
пате--
патра--
пах--
пач--
пе--
пед--
пель--
пенсио--
пер--
перву--
пере--
переве--
перевоз--
перевозчи--
перен--
переопре--
перех--
пери--
перм--
персид--
персона--
пес--
пет--
пех--
печ--
печа--
пешни--
пи--
пик--
пили--
пило--
пир--
писто--
питер--
плат--
пле--
пло--
плот--
площ--
по--
побе--
пов--
погиб--
пого--
под--
подроб--
поз--
позна--
пои--
пок--
пол--
поли--
полов--
полу--
полус--
поль--
пом--
пон--
поп--
поро--
пос--
потребите--
пох--
поч--
появи--
пр--
пра--
практ--
пре--
пред--
предложе--
предпо--
предс--
представ--
преж--
презе--
прес--
при--
приве--
прими--
прихо--
приход--
про--
прове--
производст--
просв--
прото--
проф--
пря--
псев--
псих--
пу--
пуані--
пуб--
пуг--
пук--
пур--
путк--
пъю--
пы--
пыді--
пыж--
пыл--
пыр--
пыс--
пытш--
пь--
пя--
пяти--
р--
ра--
рад--
радио--
раз--
разли--
ран--
рас--
распре--
распро--
раство--
рд--
рдан--
рдов--
рдъ--
ре--
реабилитацио--
рег--
ред--
редакт--
резо--
рек--
рекон--
репер--
реч--
реш--
ри--
рин--
риф--
рк--
рл--
рла--
рм--
рни--
рнит--
ро--
ров--
род--
рож--
рожде--
роз--
роп--
рос--
роч--
рп--
рс--
рт--
рти--
ртч--
ру--
руб--
руд--
рудов--
руко--
руч--
рш--
ръя--
ры--
рысь--
рыт--
ряби--
ряд--
рі--
різ--
с--
са--
саам--
саботаж--
сак--
сале--
сам--
само--
сан--
сар--
сатшк--
сб--
сбер--
сберка--
св--
све--
свер--
свидетель--
свир--
свобод--
свое--
свя--
свяще--
сві--
сд--
се--
севас--
седр--
сель--
семантиче--
семи--
сер--
сере--
сет--
си--
сибир--
сиг--
сикт--
силь--
сим--
син--
ск--
ска--
ско--
скри--
скры--
сл--
слав--
сле--
сло--
слово--
слу--
служе--
см--
сми--
смо--
сна--
снег--
снеж--
сни--
со--
соб--
собран--
сов--
сог--
содер--
соз--
сол--
сон--
соответ--
сор--
сорев--
сос--
сот--
сох--
социо--
спе--
спец--
специа--
специаль--
спецпереселене--
спла--
спо--
спряже--
сравни--
сравнитель--
сред--
средне--
сс--
ст--
ста--
ствитель--
сте--
стен--
стипе--
сто--
стре--
струк--
сту--
су--
суб--
суд--
супут--
сур--
сус--
суще--
существитель--
сы--
сыв--
сыс--
сь--
сьпе--
сьт--
сэ--
сю--
сюр--
ся--
сі--
т--
та--
таб--
таг--
так--
талыш--
тан--
тар--
татар--
те--
теле--
тем--
тематиче--
теоре--
теоретиче--
теофр--
теп--
тер--
тетра--
тех--
техниче--
тече--
ти--
тище--
тк--
тка--
тл--
то--
ток--
тол--
том--
тонне--
топо--
тор--
точ--
тр--
тра--
траге--
традиц--
традицио--
тран--
трансл--
тре--
требова--
три--
трост--
тру--
трун--
ту--
туб--
тупля--
тур--
тх--
тч--
тчан--
тш--
тшъя--
ты--
тыв--
тыр--
тысь--
тыяс--
тэ--
тэб--
тэч--
тюмен--
тюр--
тюрк--
тюрь--
тям--
ті--
тө--
у--
убых--
ув--
уве--
увели--
увол--
уго--
угор--
уд--
удале--
уде--
удж--
удор--
уж--
уз--
узь--
ук--
ул--
ули--
улич--
улучше--
уль--
улі--
ун--
уна--
уни--
унив--
универсаль--
унун--
ур--
уро--
уря--
ус--
уст--
усти--
усть--
уся--
утка--
уточ--
ух--
ф--
фа--
фал--
фан--
фанта--
фар--
фасили--
фаш--
фашистъ--
фе--
федо--
феокт--
фет--
фиг--
фид--
фил--
фили--
фин--
финан--
фир--
фло--
фондъ--
фор--
форте--
фото--
фр--
фразе--
фре--
фу--
фун--
функц--
фунъ--
фь--
фьель--
х--
ха--
хаба--
хан--
хара--
хен--
хер--
херсон--
хим--
хо--
хол--
хос--
хот--
хре--
хри--
хриза--
христ--
христиа--
ху--
хуан--
хул--
хьюс--
хіміч--
ц--
ца--
цар--
цах--
це--
цера--
церато--
цефалан--
цир--
цы--
ць--
ці--
ч--
ча--
час--
часту--
чась--
чач--
че--
чеки--
человече--
чер--
чери--
черче--
чечч--
чеш--
чи--
чин--
чип--
чис--
числе--
чл--
чо--
чу--
чув--
чуд--
чуж--
чул--
чунь--
чут--
чух--
чч--
чі--
ш--
ша--
шан--
шар--
шах--
шве--
швед--
ше--
шед--
шер--
шех--
ши--
шил--
шипи--
шипу--
шир--
шишк--
школьникъ--
шлапъ--
шля--
шлях--
шм--
шо--
шор--
шоч--
шпа--
шпи--
шпиц--
шта--
шты--
шу--
шуми--
шы--
шыб--
шымыр--
щ--
ща--
ще--
ъ--
ы--
ыб--
ыв--
ыдж--
ыл--
ыпъя--
ыр--
ыс--
ыст--
ытшк--
ь--
э--
эв--
эва--
эвро--
эг--
эге--
эж--
эжва--
эк--
эко--
экс--
эл--
эле--
элект--
электро--
эль--
эм--
эмб--
эмира--
эн--
энергос--
эпи--
эпиче--
эр--
эри--
эрк--
эс--
эск--
эст--
эста--
эт--
этниче--
этно--
этнофу--
эуфор--
эуфр--
эффе--
ю--
юг--
югыд--
южно--
юзер--
юк--
юр--
юра--
юрби--
юс--
юсь--
я--
явл--
яг--
ягъ--
яз--
языче--
язьви--
як--
яким--
яку--
ям--
ян--
япон--
яре--
яс--
є--
і--
іс--
ј--
је--
ғ--
җ--
қ--
ҡ--
ң--
ҫ--
ү--
ҳ--
ӈ--
ӈыръ--
ӕ--
ә--
ө--
ԁ--
א--
ב--
ד--
ה--
ז--
י--
ל--
מ--
מע--
נ--
ע--
צ--
ר--
ש--
ا--
الم--
ت--
جمه--
د--
دو--
ر--
س--
ش--
قا--
ل--
م--
مە--
ن--
ه--
وی--
ي--
ک--
۱--
ܝ--
आ--
इ--
द--
प--
र--
व--
स--
१--
১--
องในป--
เ--
๑--
བ--
--0
--00
--000
--01
--02
--05
--06
--07
--09
--1
--10
--11
--12
--13
--15
--16
--17
--18
--19
--2
--20
--21
--22
--24
--25
--27
--28
--3
--30
--31
--33
--34
--38
--39
--4
--41
--44
--45
--47
--48
--5
--50
--51
--52
--53
--54
--55
--56
--57
--58
--59
--6
--60
--63
--64
--66
--67
--68
--7
--73
--75
--76
--78
--79
--8
--80
--82
--83
--85
--86
--87
--89
--9
--90
--906
--91
--93
--94
--95
--966
--98
--99
--a
--aa
--aara
--ab
--abia
--abium
--able
--aca
--ace
--acea
--aceae
--aceum
--aceus
--ach
--achii
--ad
--ade
--adenia
--ado
--ae
--aea
--aensis
--ag
--age
--ah
--ai
--ain
--ak
--aka
--al
--ala
--ald
--ale
--alis
--alix
--all
--alo
--alum
--alus
--am
--amma
--an
--ana
--ance
--and
--ands
--anensis
--ani
--ania
--anic
--anica
--anii
--ant
--anta
--antha
--anthus
--anum
--anus
--aq
--ar
--ara
--ard
--ardii
--are
--ari
--aria
--arica
--aries
--arioides
--aris
--arium
--arpa
--ary
--as
--asa
--asi
--asut
--at
--ata
--ate
--ated
--ates
--athon
--ati
--atic
--atii
--ation
--ator
--atum
--atus
--au
--aulis
--aw
--ax
--ay
--b
--ba
--bach
--bae
--bba
--be
--bea
--bel
--bi
--bia
--bility
--bird
--bium
--ble
--bo
--box
--bre
--bris
--bu
--bula
--bum
--bus
--bya
--byvalue
--c
--ca
--caceae
--cal
--calyx
--capa
--ce
--cea
--ceae
--ced
--cens
--censis
--ces
--ceum
--ch
--cha
--chya
--chys
--chyus
--ci
--cifera
--cina
--cing
--ck
--claims
--cle
--co
--cola
--cornis
--cosa
--cs
--ct
--cta
--ctoides
--cu
--cula
--culata
--cum
--cus
--cy
--d
--da
--dactyla
--dae
--dara
--dat
--date
--day
--de
--ded
--dei
--denia
--des
--dh
--di
--dia
--dii
--dio
--dis
--dium
--do
--dor
--dra
--dron
--ds
--du
--dum
--dy
--e
--ea
--eae
--eal
--eals
--ean
--eana
--eb
--ec
--ecta
--ed
--edia
--ee
--eea
--ef
--eg
--eh
--ei
--ej
--ek
--el
--ela
--ele
--ell
--ella
--ellaris
--els
--em
--ema
--ement
--emia
--emon
--en
--ena
--ence
--ene
--enia
--enii
--ens
--ense
--ensis
--ent
--enta
--entosa
--ents
--eo
--eorum
--epala
--epalum
--eq
--er
--era
--eraceae
--erae
--eras
--ere
--erg
--eri
--erica
--ern
--ero
--ers
--erse
--ert
--erted
--ertii
--erum
--erus
--es
--escens
--ese
--esii
--est
--et
--etala
--eti
--etii
--ets
--ett
--etti
--eum
--eus
--ev
--eve
--ew
--ex
--exa
--ey
--eyi
--ez
--ezii
--f
--fa
--fb
--fe
--fen
--fer
--fera
--ff
--fied
--florum
--folia
--frame
--fs
--ft
--ful
--fy
--g
--ga
--gae
--ge
--ged
--gei
--ger
--gera
--geri
--gerie
--gerum
--ges
--gh
--ght
--gi
--gida
--ging
--gis
--gium
--gla
--gle
--glossa
--gma
--go
--gs
--gu
--gue
--gy
--gyna
--gyne
--h
--ha
--hae
--he
--hed
--hen
--hera
--hes
--hi
--hia
--hii
--hila
--hiza
--hk
--hl
--hn
--ho
--hof
--hora
--horst
--hos
--hrift
--ht
--hu
--hun
--hus
--hylla
--hyllum
--i
--ia
--iaca
--iaceae
--iae
--iai
--ial
--ian
--iana
--ianae
--ians
--ianthus
--ianum
--ianus
--ias
--ib
--ibility
--ic
--ica
--ical
--ick
--icola
--ics
--icum
--icus
--id
--ide
--ides
--idium
--ie
--ieae
--iei
--iella
--ier
--ieri
--ies
--ieu
--ifera
--iferum
--ified
--iflora
--ifolia
--ifolius
--iformis
--ify
--ig
--iga
--igate
--ige
--igena
--igera
--igma
--ih
--ii
--iin
--ija
--ijain
--ik
--ika
--iki
--il
--ila
--ilabia
--ilabris
--ile
[...]
