!
"
#
##0
##1
##10
##11
##12
##13
##14
##15
##16
##17
##18
##19
##2
##20
##21
##22
##23
##24
##25
##26
##27
##28
##29
##3
##30
##31
##32
##33
##34
##35
##36
##37
##38
##39
##4
##40
##41
##42
##43
##44
##45
##46
##47
##48
##49
##5
##50
##51
##52
##53
##54
##55
##56
##57
##58
##59
##6
##60
##61
##62
##63
##64
##65
##66
##67
##68
##69
##7
##70
##71
##72
##73
##74
##75
##76
##77
##78
##79
##8
##80
##81
##82
##83
##84
##85
##86
##87
##88
##89
##9
##90
##91
##92
##93
##94
##95
##96
##97
##98
##99
$
%
&
'
(
)
*
+
,
-
.
/
0
00
000
0000
000000001916
000000001917
000000001923
000000001926
000000001927
000000001929
000000001930
000000001931
000000001932
000000001933
000000001934
000000001935
000000001936
000000001937
000000001938
000000001939
000000001940
000000001941
000000001942
000000001944
000000001945
000000001946
000000001947
000000001949
0009
001
002
0031
004
01
011
014
016
02
0212
022
025
02609
029
03
0300
033
0362
04
045
0464
0486
05
0500
06
060
06888
07
0783
0785
08
09
1
10
100
1000
10000
1001
1002
1005
1006
1007
101
1010
1011
1012
1016
1017
1018
1019
102
1020
1021
1023
1024
1025
1028
103
1030
1036
1037
1038
1039
104
1040
1041
1044
1045
1048
105
1050
1052
1055
106
1060
1063
1066
1067
1069
107
1070
1071
1072
1073
1075
1079
108
1080
1086
1088
109
1090
1092
1093
1094
1097
1098
1099
11
110
1100
1103
111
1110
1111
1113
1115
1118
112
1120
1128
113
1130
1136
1137
114
1140
1149
115
1150
1153
1158
116
1160
1161
1163
117
1170
1173
1177
118
1180
1186
1189
119
1190
1199
12
120
1200
1202
1203
1204
1205
1206
1207
1209
121
1210
1215
1216
1219
122
1220
1221
1224
1226
123
1230
1235
1236
124
1240
1245
1248
125
1250
1251
1258
126
1260
1264
127
1270
1273
128
1280
1281
1284
1286
129
1290
1292
1294
13
130
1300
1304
131
1310
1311
1314
1316
132
1320
1325
1326
1329
133
1330
1333
1334
1335
1336
1337
1338
134
1340
1341
1342
1344
1346
1347
1348
1349
135
1350
1351
1356
1357
1358
1359
136
1360
1362
1365
1366
1367
1368
1369
137
1370
1371
1372
1373
1374
1375
1376
1377
1378
1379
138
1380
1381
1382
1383
1384
1385
1386
1387
1388
1389
139
1390
1391
1392
1393
1394
1395
1396
1397
1399
14
140
1400
1401
1402
1404
1405
141
1410
1417
142
1420
1428
143
1430
1433
1436
1439
144
1440
1447
1449
145
1450
1451
146
1460
1463
1469
147
1470
1471
1478
148
1480
149
1490
1492
1493
1494
1495
1499
15
150
1500
1501
1502
1504
1505
1506
1508
151
1510
1512
1514
1515
1516
1517
1519
152
1520
1521
1522
1524
1525
1526
1527
1529
153
1530
1532
1535
1537
1538
1539
154
1540
1542
1547
155
1550
1553
1554
1555
1556
1557
156
1560
1561
1564
1565
1566
157
1570
1571
1572
1573
1575
158
1580
1582
1584
1585
1588
159
1590
1596
1598
1599
16
160
1600
1601
1603
1605
1609
161
1610
1611
1613
1615
1616
1618
162
1620
1623
1624
1628
1629
163
1630
1631
1635
164
1640
1642
1644
1645
1646
1647
1648
165
1650
1652
1657
1658
166
1660
1661
1663
1665
1667
1669
167
1670
1676
1677
168
1680
1682
1683
1685
1687
169
1690
1695
17
170
1700
1702
1703
1704
1707
1708
171
1710
1711
1712
1713
1714
1718
1719
172
1720
1721
1722
1723
1724
1725
1726
1727
1728
1729
173
1730
1731
1732
1733
1734
1735
1736
1737
1738
1739
174
1740
1741
1743
1745
1747
1748
175
1750
1751
1752
1753
1754
1755
1756
1757
1758
1759
176
1760
1761
1762
1763
1764
1765
1767
1768
1769
177
1770
1771
1772
1773
1774
1775
1776
1777
1778
1779
178
1780
1781
1782
1783
1784
1785
1786
1787
1788
1789
179
1790
1791
1792
1793
1794
1795
1796
1797
1798
1799
18
180
1800
1801
1802
1803
1804
1805
1806
1807
1808
1809
181
1810
1811
1812
1813
1814
1815
1816
1817
1818
1819
182
1820
1821
1822
1823
1824
1825
1826
1827
1828
1829
183
1830
1831
1832
1833
1834
1835
1836
1837
1838
1839
184
1840
1841
1842
1843
1844
1845
1846
1847
1848
1849
185
1850
1851
1852
1853
1854
1855
1856
1857
1858
1859
186
1860
1861
1862
1863
1864
1865
1866
1867
1868
1869
187
1870
1871
1872
1873
1874
1875
1876
1877
1878
1879
188
1880
1881
1882
1883
1884
1885
1886
1887
1888
1889
189
1890
1891
1892
1893
1894
1895
1896
1897
1898
1899
19
190
1900
1901
1902
1903
1904
1905
1906
1907
1908
1909
191
1910
1911
1912
1913
1914
1915
1916
1917
1918
1919
192
1920
1921
1922
1923
1924
1925
1926
1927
1928
1929
193
1930
1931
1932
1933
1934
1935
1936
1937
1938
1939
194
1940
1941
1942
1943
1944
1945
1946
1947
1948
1949
195
1950
1951
1952
1953
1954
1955
1956
1957
1958
1959
196
1960
1961
1962
1963
1964
1965
1966
1967
1968
1969
197
1970
1971
1972
1973
1974
1975
1976
1977
1978
1979
198
1980
1981
198182
1982
1983
1984
1985
1986
1987
1988
198860030431
1989
199
1990
1991
1992
1993
1994
1995
1996
1997
1998
1999
2
20
200
2000
2001
2002
2003
2004
2005
2006
2007
2008
2009
201
2010
2011
2012
2013
2014
2015
2016
2017
2018
2019
202
2020
2021
2022
20220322
2023
2025
2028
203
2030
204
2040
205
2050
206
2060
207
2070
208
209
21
210
2100
211
212
2120
213
2134
214
215
2150
216
217
218
219
22
220
2200
221
222
223
224
225
226
227
228
229
23
230
2300
231
232
233
234
235
236
237
238
239
24
240
2400
241
242
243
2438
2439
244
245
246
2464
247
248
249
24942009
25
250
2500
251
252
253
254
255
256
257
258
259
26
260
2600
261
262
263
264
265
266
267
268
269
27
270
2700
271
272
273
274
2743
275
276
277
278
279
28
280
2800
281
282
283
284
285
286
287
288
289
29
290
291
292
293
294
295
296
297
298
299
3
30
300
3000
301
302
303
304
3048
305
3050
306
307
308
309
31
310
3100
311
312
313
314
315
316
317
318
319
32
320
3200
321
322
323
324
325
326
327
328
329
33
330
3300
331
332
333
334
335
336
337
338
339
34
340
3400
341
342
343
344
345
346
347
348
349
35
350
3500
351
352
353
354
355
356
357
358
359
36
360
3600
361
362
363
364
365
366
367
368
369
37
370
3700
371
372
373
374
375
376
377
378
379
38
380
381
382
383
384
385
386
387
388
389
39
390
391
392
393
394
395
396
397
398
399
4
40
400
4000
401
402
403
404
405
406
407
408
409
41
410
411
412
413
414
415
416
417
418
419
42
420
421
422
423
424
425
426
427
428
429
43
430
431
432
433
4331
434
435
436
437
438
439
44
440
441
442
443
4438
444
445
446
447
448
449
45
450
4500
451
452
453
454
455
456
457
458
459
46
460
461
462
463
464
465
466
467
468
469
47
470
471
472
473
474
475
476
477
478
479
48
480
481
482
483
484
485
486
487
488
489
49
490
491
492
493
494
495
496
497
498
499
5
50
500
5000
501
502
503
504
505
506
507
508
509
51
510
511
512
513
514
515
516
517
518
519
52
520
521
522
523
524
525
526
527
528
529
53
530
531
532
533
534
535
536
537
538
539
54
540
541
542
543
544
545
546
547
548
549
55
550
5500
551
552
553
554
555
556
557
558
559
56
560
561
563
564
565
566
567
568
57
570
571
572
573
574
575
576
577
578
579
58
580
581
582
583
584
585
586
587
588
589
59
590
591
592
593
594
595
596
597
598
599
6
60
600
6000
601
602
603
6036
604
605
606
607
608
609
61
610
611
612
613
614
6143
615
616
617
618
619
62
620
622
623
624
624016
625
626
627
628
629
63
630
631
632
633
634
635
636
637
638
639
64
640
641
642
643
644
645
647
648
649
65
650
651
652
65241844001
653
654
655
656
657
658
659
66
660
661
662
663
664
665
666
667
668
6685
669
67
670
671
672
674
675
676
678
68
680
681
682
683
684
685
686
687
688
689
69
690
691
693
694
695
696
697
698
699
7
70
700
7000
701
702
704
705
707
71
710
711
712
713
714
715
716
717
718
719
72
720
721
722
725
727
728
729
73
730
731
732
734
735
736
737
738
739
74
740
741
742
743
744
746
747
748
749
75
750
751
752
753
754
755
756
757
76
760
761
762
76298
763
765
766
767
768
77
770
771
775
776
777
779
78
780
781
782
783
785
786
787
789
79
790
791
792
7929
793
794
795
797
798
799
8
80
800
8000
801
802
804
805
808
809
81
810
811
812
813
814
815
817
818
819
82
820
821
822
823
824
825
827
829
83
830
831
832
833
835
836
837
838
839
84
840
841
842
844
845
8459
846
847
848
8493
85
850
851
85120
852
85270
853
854
855
857
858
86
860
861
862
863
864
866
867
868
869
87
870
872
873
874
875
876
878
879
88
880
882
883
884
884446
885
886
888
89
890
891
892
893
894
895
896
897
898
899
9
90
900
901
902
903
904
906
907
908
909
91
910
911
912
913
914
915
916
917
918
919
92
920
921
922
923
924
925
926
927
9272
929
93
930
931
932
933
934
935
937
938
939
94
940
941
942
9422
943
944
945
948
949
95
950
951
952
953
954
956
958
96
960
961
962
963
964
965
966
967
968
969
97
970
971
972
973
974
975
976
977
977378
978
9781884446054
979
98
980
981
982
983
984
98443
985
986
987
988
989
99
990
991
992
993
994
995
996
997
998
999
99947
99975
:
;
<
=
>
?
@
[
\
]
^
_
`
a
aa
aaf
ab
abb
abba
abbas
abc
abd
abdul
abdullah
abel
about
abraham
abreu
abs
abu
ac
academia
academic
academy
accademia
accademiadellescienze
access
accessed
according
account
ace
acevedo
acosta
act
action
actor
actress
acun
ad
ada
adam
adams
additional
address
adi
admin
administration
administrative
admiral
adolfo
adresa
adria
adriano
advanced
adventure
adventures
ae
aerial
aermacchi
aero
aerodrom
aerodrome
aeromarine
aeronautica
aeronautical
aeronautics
aeronca
aeroplane
aeroporto
aeroprakt
aeropuerto
aeros
aerospace
aerovironment
af
afc
affairs
afghan
afghanistan
afonso
africa
african
after
ag
aga
again
against
age
aged
agencia
agency
ago
aguiar
aguilar
aguilera
aguirre
agusta
agusti
ah
ahmad
ahmed
ai
aichi
aid
air
airborne
airco
aircraft
airdrome
aires
airfield
airline
airlines
airpark
airplane
airport
airship
airspeed
airstrip
airways
ais
aise
aishwarya
aitor
ajay
ak
aka
akaflieg
aki
akl
akti
al
ala
alajuela
alan
alaska
alba
albania
albatros
albert
alberto
album
alca
aldo
aleague
alegre
aleikum
alejandro
aleksandr
aleksei
alenia
aleph
alessandro
alex
alexa
alexander
alexandre
alexis
alfaro
alfonso
alfred
alfredo
ali
alia
alibaba
alicante
aljazeera
alkindi
all
alla
allah
allan
allen
alliance
allocine
alma
almeida
alo
alonso
alpha
alphabet
als
also
alt
alta
alto
alvarado
alves
alvi
alyga
am
amar
amazon
ambassador
ambedkar
ambrosini
ame
america
american
amerika
amir
amo
among
amor
amp
amsterdam
an
ana
analysis
anatoli
ancient
and
andalusia
ander
anderson
andorra
andrade
andre
andrei
andres
andrew
andrey
android
andy
angel
angeles
angola
angulo
ani
animated
animation
anime
ankara
ann
anna
anne
announces
annual
anonsy
another
ans
anthem
anthony
anti
anto
antoinette
anton
antoni
antonio
any
ao
ap
aparecido
apg
api
apollo
app
appendix
appl
apple
application
apr
aprelya
april
aquino
ar
ara
arab
arabia
arabic
arado
arau
araujo
arboleda
arc
arce
arcgis
archive
archived
archives
arctium
are
area
areas
argentina
argentine
argument
argus
arias
ariel
arif
ark
arm
armando
armed
armenia
armenian
army
arnold
arrow
arroyo
arroyos
arsenal
art
arte
arthur
article
articles
artigas
artist
artists
arts
artur
arturo
artyom
arven
arxiv
as
ash
asia
asian
asiaplustj
asier
asp
aspx
assemble
assembly
assis
associated
association
astronomy
asturias
asuncio
at
ata
atlantic
atlas
atle
atomic
attack
atv
au
audio
august
augusto
aurelio
aus
auster
austin
australia
australian
austria
aut
author
authorities
authority
authors
auto
autocad
av
avai
available
avellaneda
avesta
avia
aviatik
aviation
avile
avions
avro
award
awards
away
ay
ayala
ayushmann
az
azerbaijan
azerbaijani
azeri
azevedo
aziz
azərbaycan
b
ba
baba
babelio
baby
bachchan
back
bad
bafta
bahi
bahia
bahrain
baker
baku
bal
balan
balkan
ball
ban
bana
band
bandar
bang
bangladesh
bank
bankı
bar
barakaldo
barbosa
barcelona
barra
barranquilla
barrera
barreto
barrios
barros
bas
base
based
basic
basingstoke
bat
batista
battle
bautek
bay
bayerische
baynes
bb
bbc
bc
bd
be
beach
beagle
beauty
became
becker
become
becomes
bede
bee
beechcraft
been
before
behind
being
bejarano
bel
bele
belgium
belize
bell
bella
bellanca
belle
belo
ben
benezit
beni
benito
benjami
benjamin
bensen
benz
ber
beriev
berkeley
berkshire
berlin
berliner
bermu
bernal
bernard
bernardo
berry
bes
best
beta
between
bevo
beyond
bezirke
bf
bg
bh
bhatt
bi
bibcode
bibliographisches
bibliothe
bieber
big
biggest
bilbao
bill
billboard
billion
billionaires
bin
bio
biografia
biographical
biography
biplane
bir
bird
birth
birthday
bitcoin
biyografi
bla
black
blackburn
blanca
blanco
ble
blica
blimp
bloch
blog
blogspot
blohm
blood
bloomberg
blue
bm
bn
bnf
bo
boa
board
bob
boca
body
boeing
bogota
bolan
boleti
boli
bolivia
bollywood
bonilla
bonomi
book
books
bor
border
borges
boris
borja
borjian
born
borough
boston
bosworth
both
boulton
box
boxofficemojo
boy
boys
br
bradley
branco
brandenburg
brasi
brasil
braunschweig
bravo
brayan
brazil
brazilian
breda
breeze
brian
bridge
brief
brill
brin
britain
britannica
british
brito
broadcasting
broadway
brockhaus
bros
brothers
brown
brozovic
bruce
bruno
bryan
bs
bu
bueno
buenos
buffalo
buffett
building
bulletin
bundesla
burak
bureau
burgos
burkina
burundi
bus
bush
business
bustos
but
buxus
bv
by
c
ca
caballero
cabinet
cable
cabo
cabral
cabrera
cac
cadet
caetano
cafe
caicedo
cairo
caldero
calend
cali
california
call
callao
calvo
camacho
cambridge
cameron
camilo
camp
campbell
campinas
campo
campos
cams
can
canada
canadair
canadian
canberra
candidate
cano
cant
canton
cao
cap
cape
capella
capita
capital
caproni
captain
car
caracas
caracol
cardoso
cardozo
career
cargo
carl
carlo
carlos
carmo
carmona
caro
carolina
carrasco
carrillo
cartagena
cartoon
carvalho
casa
casanova
casas
case
cases
casic
cast
castan
castello
castilian
castillo
castro
cat
catalana
catarina
category
cauca
caudron
caxias
cb
cbs
cc
ccl
cctv
cd
ce
ceiba
celebrity
celso
census
censusindia
center
central
centrasia
centre
century
ceo
ceres
ceroacero
cesar
cf
cgi
ch
cha
chaco
challenger
change
channel
chapter
charles
charlie
chart
charts
chase
che
check
chelsea
chem
chemical
chemistry
chevrolet
chi
chicago
chief
children
chile
chilean
china
chinese
chisholm
cho
choice
chris
christian
christmas
christopher
chronicle
chu
church
ci
cia
cie
cierva
cine
cinema
cio
cirrus
cite
cities
city
citypopulation
ciudad
cius
civil
civilian
cker
cl
cla
class
classic
classical
classification
claude
claudio
clayton
cle
clemente
climate
clinton
club
clube
clubeen
cm
cn
cna
cnbc
cnn
cnt
co
coast
cochabamba
code
coe
coelho
cola
cold
cole
collection
college
collins
colo
colombia
colonia
color
columbia
com
combat
come
comedy
comes
comics
command
commander
commission
committee
common
commons
commonwealth
community
como
comp
companion
company
comparative
comparebrokers
competition
complete
composition
compounds
computer
comune
comuni
con
conceic
concepcio
conde
condor
conference
confirmed
confirms
conflict
congo
congress
consolidated
constitution
contae
contemporary
content
continental
contreras
control
convair
conversion
coordination
copy
cordeiro
cordero
cornell
coronavirus
coronel
corp
corporation
corps
correa
corrientes
corte
corun
cos
cosmos
costa
could
council
counties
countries
country
county
court
cover
covid
cox
cr
crc
creation
creek
crisis
cristia
cristian
cristiano
cristo
croatia
cross
crown
cruiser
cruz
crystal
cs
ct
ctor
cu
cub
cuba
cue
cuesta
cultural
culture
cunha
cup
curitiba
current
curtiss
cut
cv
cw
cx
cyclowiki
cz
czech
czechoslovakia
d
da
dag
daily
dallas
dam
damia
dan
dani
daniel
danilo
danna
danny
dans
dar
dari
dark
darmstadt
dart
darwin
das
dash
data
database
datasets
date
dates
dauersiedlungsraum
david
davis
dawn
day
days
dayton
db
dc
dd
ddw
de
dead
deadline
deal
death
debut
december
declension
deepika
default
defence
defense
defined
definition
deg
del
delage
delfi
delgado
delhi
dell
della
delta
democracy
democratic
demoscope
den
denis
deniz
dennis
department
der
des
design
detail
details
deutsche
development
devgn
dewoitine
dez
dfs
dfw
dgar
dh
di
dia
diamond
diana
dias
dictionary
dictionnaire
did
die
died
diego
dies
different
digital
digitalarchivioricordi
dil
din
dio
diogo
direct
director
directory
dis
discogs
discovery
disney
display
displaystyle
district
ditions
division
diz
dmitri
dmitry
dmoz
do
doc
doctor
documentation
documents
does
dog
doi
dokumentum
domestic
domi
domingo
dominican
don
donald
door
dornier
dos
double
douglas
down
dr
drafs
dragon
drama
dream
dreamworks
dson
dta
du
dua
duarte
dubai
dublin
due
duke
dum
duque
dura
during
durre
dushanbe
dutch
dvd
dw
dynamics
dynasty
e
ea
eagle
early
earth
earthquake
east
eastern
ebay
ebchecked
ec
eclipse
economic
economist
economy
ecuador
ed
eda
eden
edgar
edgardo
edison
edited
edition
editor
eds
edson
edu
eduard
eduardo
education
edward
edwin
ee
efs
eg
egypt
eh
ehir
ein
einwohnerzahl
ek
el
elbasan
elbibhgu
elected
election
elections
electric
electronic
element
elements
eli
elias
elite
elizabeth
ellipse
elon
elsevier
elvis
em
email
emanuel
emerson
emiliano
emilio
emmanuel
empire
en
enciclope
enciclopedia
enciklopedija
encyclopaedia
encyclopedia
encyclopædia
end
energy
eng
engine
engineering
engines
england
english
enpr
enrique
enterprise
entertainment
entre
entry
enzo
epic
episode
epoca
equipa
er
era
eric
erick
ernesto
ero
error
es
escobar
escudero
esmeraldas
espan
espi
espinoza
esporte
essential
est
esta
establishment
estadi
estado
este
esteban
estero
estimated
estimates
estonia
estonian
estrada
et
ethereum
ethnic
ethnologue
eu
eugenio
euronews
europe
european
ev
eva
event
events
ever
everton
every
evolution
ex
example
excel
exchange
exclusive
exe
executive
exist
expand
experimental
explore
explorer
expo
express
externalid
extra
ez
ezequiel
f
fa
fabia
fabiano
fabio
fabri
fabricio
face
facebook
faceted
fact
factbook
factory
facts
facundo
fair
fairchild
fairey
falco
falcon
falconar
fall
falls
false
family
famous
fan
far
faraj
faria
farias
farman
farrokh
fasc
fast
father
fba
fc
fe
features
feb
february
federal
federation
federico
feet
felipe
female
fembio
ferna
fernandes
fernando
ferreira
festival
ff
fi
fiat
fiction
fidel
field
fier
fieseler
fifa
fight
fighter
figueroa
figures
file
files
filho
film
filmaffinity
filmalkotasok
filme
filmek
filmfare
filmportal
films
final
finance
financial
find
fine
fire
first
fisher
five
fl
fla
flag
flash
fleet
fletcher
flight
flores
florida
flow
flughafen
flugzeugbau
flugzeugwerke
fly
flyer
flying
flyvebaatfabrikk
fm
fma
fo
focke
fokker
fonseca
food
football
footballer
for
forbes
force
forces
ford
foreign
form
format
formatdate
former
forms
fort
fortaleza
fortune
forum
foto
fouga
found
foundation
founder
four
fox
fp
fr
frac
fran
franc
france
francis
francisco
franco
frank
franklin
frauendatenbank
fred
free
freebase
freedom
freitas
french
fresh
friedrich
friedrichshafen
friends
friendship
from
front
frontera
frontier
fs
ft
fte
fu
fuentes
full
func
function
fund
futebol
future
fw
g
ga
gabriel
gala
galaxy
gallego
gallery
gamaen
game
games
gandhi
gao
garci
garcia
garden
garrett
garrido
gary
gas
gaspar
gasteiz
gasto
gate
gates
gavilanes
gazeta
gazette
gazetteer
gb
ge
gebietsstand
gec
geldi
gemeinde
gemeinden
gen
genealogics
geneastar
general
generation
gennaio
geo
geographic
geographical
geography
geonames
george
georges
georgia
georgian
ger
gerais
gerard
gerardo
germa
german
germany
geschichte
get
gets
gg
gi
gia
giant
gijo
gil
gilberto
gime
giovanni
girl
girls
girona
gitashenasi
gl
glance
glass
gleif
glider
global
globe
gloster
gm
gmbh
gmm
gmmtv
gnd
gnome
gnu
go
god
goda
godoy
goes
goia
gold
golden
gomes
gonc
gonza
gonzalo
good
goodyear
google
gordon
gorka
gosspravka
got
gotha
gouv
gouvernement
gov
government
governorate
gr
graham
grahame
grameen
grammar
grammy
gran
grand
grande
grant
gre
great
greater
greatest
greece
greek
green
greenwood
gregorio
grey
grigorovich
grob
grosso
group
groups
grove
growth
gru
grup
gruyter
gs
gsi
gt
gu
guadalajara
guarani
guard
guardian
guarulhos
guatemala
guayaquil
guerra
guerrero
guest
guevara
guez
guide
guilherme
guillermo
guimara
gulf
gull
gund
gustavo
gutie
guzma
h
ha
haber
haberleri
habib
had
hai
half
hall
halske
hamilton
hand
handbook
handley
hangeul
hanriot
hans
hansa
happy
haqqında
harbin
hard
harold
harris
harrison
harry
harvard
has
hassan
hathaway
have
havilland
having
hawk
hawking
hayat
haza
hazard
hd
he
head
headword
health
heart
heavy
heinkel
helicopter
helicopters
heliport
hello
help
helsingborg
henri
henrique
henry
her
herald
here
heredia
heritage
hermes
herna
hero
herrera
herrero
hertage
hh
hi
hidalgo
high
higher
hill
hiller
hills
him
hindi
hindu
hindustan
hirth
his
hispano
histoire
historia
historic
historical
history
hit
hits
hl
ho
holland
hollywood
home
homebuilt
homepage
homo
honduras
hong
hope
horacio
horizonte
hornet
hospital
hot
hotel
houndmills
house
how
howard
hp
hr
hrithik
hrsg
hrvatska
htm
html
http
https
hu
hue
huelva
hughes
hugo
hum
human
humberto
hungama
hungary
hurriyet
hurtado
hy
hyderabad
i
ia
ian
iana
iba
ibarra
ibis
ibm
ibn
ic
ica
ice
icon
id
idea
ideal
ideas
identity
ie
if
iga
iglesias
ignacio
igo
igor
ii
iii
ik
ikarus
il
ile
illinois
ilya
im
image
images
imam
imdb
impact
imperial
in
ina
inc
including
independence
independent
index
india
indian
indiana
indiastatedist
indiatimes
indo
indonesia
industrial
industries
industry
ine
info
infobox
information
innamespace
inorganic
inside
insider
instagram
institut
institute
instituto
int
intangible
integrated
intelligence
interfax
internacional
international
internationale
internet
interview
into
introduction
invalid
investor
io
ioc
ion
iota
iowa
ip
ipa
ipatinga
iphone
ipv
ir
iran
iranian
iranica
iranicaonline
iraq
ireland
irib
irish
iron
is
isaac
isbn
isidro
isla
islam
islamic
islamist
island
islands
ismael
iso
israel
iss
issn
issue
issues
istanbul
istat
istorii
it
italia
italian
italiana
italiane
italy
itau
item
itemid
its
itunes
iv
iva
ivan
ivanov
ivchenko
ix
iz
j
ja
jabiru
jack
jackson
jacques
jaime
jair
jairo
jalisco
jam
james
jan
jane
janeiro
january
japan
japanese
jara
jason
java
javi
javier
jazeera
jc
je
jean
jeff
jefferson
jerez
jerry
jersey
jerusalem
jesu
jesus
jet
jewish
jhon
ji
jim
jime
jimmy
jj
jk
jn
jo
joa
joan
joaqui
joel
johan
john
johnny
johnson
jokowi
jon
jonathan
jones
jordan
jordi
jorge
jose
josep
joseph
josue
journal
journey
jp
jpg
jpl
jr
js
ju
jua
juan
judo
julia
julio
july
jumhuriyat
jun
june
junior
just
justice
justin
justo
jɨ
k
ka
kabul
kac
kai
kajol
kam
kaman
kanal
kansas
kapoor
kara
karate
kardashian
karl
kavaje
kaveh
kawanishi
kawasaki
kazakhstan
kazan
ke
kennedy
kevin
key
keystone
kg
khan
khovar
khurrana
ki
kids
killed
kills
kim
kimdir
kindle
kindred
king
kingdom
kinner
kiribati
kiss
kk
klimov
km
kmt
knight
know
known
ko
kolb
kong
konstantin
koolhoven
korc
korea
korean
kp
kr
krasnodar
kremlin
ku
kuch
kumar
kurdish
kus
kuwait
kuznetsov
kyi
kylie
kz
l
la
lac
ladan
lady
laffont
laga
lai
lake
lakes
lan
lancair
land
landing
lang
language
languages
lanu
lanz
laos
lapangan
lara
largest
larry
las
last
late
later
latest
latin
latvijas
launch
lavochkin
law
lawrence
lc
le
lead
leader
leaders
league
leal
leandro
learning
least
lebanon
lee
left
legacy
legal
legend
leiden
leite
leiva
leksikon
lemos
leningrad
lenta
lentoasema
lentokentta
leo
leonard
leonardo
leonel
les
lesotho
let
letov
letter
letters
level
levy
lewis
lex
lexikon
lez
lg
lhasa
li
lia
lib
libertad
liberty
libraries
library
libris
libya
libyan
lide
lietuvos
lieutenant
life
light
like
lima
limited
limo
lincoln
line
link
links
linux
lio
lion
liore
lipa
lipnur
lis
list
literary
literature
lito
little
live
living
lix
liz
lk
lkerung
lkow
ll
llc
ller
llobregat
lo
local
loening
logron
loire
lomas
london
lonely
long
look
lopes
lorenzo
lorraine
los
lost
lotniczy
louis
love
lower
lozano
lp
ls
lson
lt
ltd
lton
lu
lua
luan
lucas
luciano
lufthavn
luftstreitkra
luftwaffe
lugo
lui
luis
luiz
luna
lundy
luque
luz
lv
lvarez
lvaro
lvez
ly
lycoming
lyga
lzmk
m
ma
mac
macchi
maceio
machado
machine
maciel
macmillan
made
madrid
magazine
magic
magnetic
magufuli
mai
maia
mail
main
majmilli
major
majorca
mak
make
makes
making
maksim
mal
maldonado
mali
man
management
manchester
manga
manhattan
mann
manoel
manuel
manufacturing
many
map
maps
mar
maranha
marc
marcel
marcelino
marcelo
march
marchetti
marco
marcos
mare
margaret
mari
maria
mariano
marie
marin
marine
marinens
mario
maritime
mark
market
markets
marlon
marques
mars
marta
marti
martin
martins
marvel
marvin
marx
mary
mas
masjid
mass
master
mata
match
mateo
mateus
matheus
mati
mato
matos
matthew
mauricio
mauro
max
maximiliano
may
mayor
mb
mba
mc
md
me
meaning
med
medeiros
medelli
medellin
media
medical
medicine
medieval
medina
meet
megan
mehmet
meji
mel
melo
member
members
memorial
men
mena
mendes
mendoza
menezes
mer
mercado
mercedes
merino
mesa
meta
metacritic
metal
metropolitan
mexican
mexico
mez
meza
mg
mi
mia
michael
michel
michelle
michigan
microsoft
mid
middle
midwest
miguel
mike
mikel
mikhail
mil
miles
military
miller
million
milliyet
milton
min
mina
minas
minh
mini
ministe
minister
ministre
ministry
minor
mio
miranda
mirror
mise
misiones
miss
mission
mit
mitchell
miyagi
mk
ml
mm
mn
mo
mobil
mobile
model
modern
modi
module
mohamed
mohammad
mohammed
moise
mojo
molina
moma
monde
money
monkeypox
monoplane
montan
monte
monteiro
montero
montes
montevideo
montoya
montreal
moon
mooney
mora
moraes
morais
morales
morane
more
moreira
moreno
morgan
morning
moro
morocco
mort
moscow
moskva
mosque
mosquera
most
moth
mother
motion
motor
motors
mouette
mount
mountain
moura
movement
movie
movies
moya
mp
mr
ms
msk
mt
mtv
mu
muhammad
mulo
multiple
mumbai
mun
mundo
municipal
munzinger
murat
murcia
murillo
murphy
murray
museo
museu
museum
music
musical
musk
muslim
muslims
must
mustafa
mustang
mw
my
myanmar
məlumat
n
na
nach
nacional
nacionalna
nakajima
name
named
names
namespace
naomi
napier
narod
nas
nasa
nascimento
nasco
nasdaq
nat
natco
natioal
nation
national
nationalbibliothek
nationale
nationalencyklopedin
nations
native
nato
natural
nature
naval
navarro
navas
navy
nbc
nbsp
nc
nchen
nchez
ncia
nd
nde
nder
ndez
ndt
ndtv
ne
near
neighbourhood
neil
nelson
nepal
nery
nes
net
netflix
netherlands
neto
network
networks
never
neves
new
news
newsru
next
nez
ng
nga
ngel
ngelo
nguez
nh
ni
nia
niai
nicaragua
nicholas
nick
nickelodeon
nicola
nicolas
nid
nieuport
nigeria
night
nikolai
nimo
nin
nio
nior
nitero
nizhny
nk
nkp
nl
nmhh
nn
nndb
no
nobel
nobelprize
node
noinclude
nominalized
nominations
non
norberto
normal
norman
norske
norte
north
northern
norton
nos
not
notations
note
notes
noticias
noun
nouns
nouveau
nov
nova
november
novo
now
npr
ns
nt
ntv
nu
nuaa
nuclear
nuclei
nueva
nuevo
number
numbers
nunes
ny
nyc
nyilvantartasa
nytimes
nz
o
obama
obituaries
obituary
object
oblast
ocean
och
ochoa
oclc
october
of
off
office
official
oficial
often
og
oh
ohio
oi
oil
ois
ojeda
ok
ol
ola
old
oldid
oldu
oleg
oli
oliva
oliveira
olivera
olivier
olympic
om
omar
on
once
one
oneplus
ones
online
only
onore
ons
ontario
oo
op
opc
open
opens
opera
operation
opposition
option
or
oracle
orange
orden
order
oregon
orellana
org
organization
oriental
origin
original
origins
orlando
oro
ortega
ortiz
oryza
os
oscar
osorio
osprey
ostanhai
osvaldo
oswaldo
ota
other
others
otto
ottobre
oup
our
out
outlook
over
overview
oviedo
own
owners
oxford
oz
ozodagon
ozodi
p
pa
pablo
pac
pacheco
pacific
padilla
page
pagename
pages
pai
pakistan
palace
palacios
palgrave
paliparan
palma
palmas
pamir
pamplona
pan
panama
pantheon
paolo
papa
paper
par
para
paraguay
parai
parana
pardo
paredes
paris
park
parlament
parliament
parnall
parra
pars
part
partido
parts
party
pas
pascual
pasio
passes
past
pat
patricio
patrick
paul
paula
paulino
paulista
paulo
pavel
pavo
paypal
pays
paysandu
paz
pc
pca
pdf
pe
peace
pedro
peerage
pegasus
pen
penguin
people
peoplepopulationandcommunity
peoples
per
peralta
percival
pereira
pereyra
perfect
performance
periodic
persia
persian
person
personal
personen
peru
peruvian
pessoa
peter
peterburg
pez
pfalz
pg
ph
pharma
phd
philip
philippines
phillips
philol
philosophie
philosophy
phoenix
phone
phonetic
photos
php
phu
physical
physics
pi
piaggio
piasecki
picture
pictures
pierre
pilatus
pilot
pin
pineda
pinheiro
pinto
pinyin
pioneer
piper
pipistrel
pires
pitcairn
pitfi
pixar
pizza
pk
pl
place
plan
plane
planet
plant
plata
play
playboy
player
players
plural
plus
pm
pmid
png
po
poet
pogody
point
pol
poland
police
policy
polikarpov
polis
polish
politica
political
politics
politischen
polo
ponce
pop
popolazione
popular
population
populationandmigration
populationestimates
populationestimatesforukenglandandwalesscotlandandnorthernireland
por
port
portal
portillo
porto
portrait
portugal
portuguesa
portuguese
post
potez
pour
power
pp
pr
prado
praga
praha
pratt
pre
pref
prefix
premier
present
presidencia
president
presidente
presidential
presidents
preslib
press
pressa
preto
prezident
price
prieto
prime
prince
princeton
principles
prior
private
prize
pro
proceedings
production
productions
products
professional
professor
profile
prognoz
program
programming
progress
project
projects
proleksis
pronunciation
properties
proposed
protests
protocol
province
provinces
provincial
prudente
ps
pt
pu
public
publication
publications
published
publishers
publishing
pubmed
puerto
punta
pure
putin
pw
pws
px
pyaar
pzl
q
qadınlar
qatar
qiwi
qq
que
queen
quesada
quez
qui
quibdo
quick
quilmes
quin
quintana
quintero
quito
quot
r
ra
race
racer
radag
radio
raf
rafael
rafaela
ragwing
rahman
rai
rainbow
raj
raja
rajput
ral
ram
rami
ramiro
ramo
ramos
ran
rancagua
ranch
rangel
rank
ranking
rankings
ranks
rans
rap
raphael
ras
rate
ration
raton
rau
raul
raven
ray
rayonu
rcio
rd
rdoba
re
rea
read
ready
reagan
real
reas
rebel
rec
recent
recife
record
records
red
rediff
redirect
redlink
ref
reference
references
reg
regatas
regia
region
regional
regioni
regions
regnum
reina
reinaldo
reis
rel
relations
release
released
releases
religion
religions
religious
renan
renato
rene
report
reporter
reports
repu
republic
republican
republika
res
research
residente
resources
results
retrieved
return
reuters
reveals
review
reviews
revolution
rey
reyes
rez
rg
rgio
rho
ri
ria
ribeira
ribeiro
rica
ricardo
rich
richard
rico
rida
rie
right
rights
ring
rio
riot
rise
rita
rito
rivas
river
rivera
rivero
rivers
rk
rkd
rkdartists
rkiye
rkəmli
ro
road
robert
roberto
robin
robinson
robles
robson
rocha
rock
rocket
rodolfo
rodri
rodrigo
rodrigues
rodriguez
rodrome
roe
roge
roger
roglo
rojas
roland
rolando
role
rom
roma
roman
romania
romanizations
romero
ronald
ronaldo
ronautique
room
roosevelt
roport
roque
rosa
rosario
rosas
rose
ross
rostov
rotax
rotc
rotten
round
routledge
roux
roy
royal
rq
rquez
rr
rrez
rrg
rriyet
rs
rsssf
rt
rtsu
ru
rubber
rube
rubio
ruiz
rule
rulers
rules
run
rus
ruslan
russia
russian
ruzgor
rw
rwd
ryan
s
sa
saavedra
sabadell
sabah
sabre
saccharum
sad
sage
sai
said
sailplanes
saint
sal
salamanca
salas
salazar
saleh
sales
salinas
salmon
salmson
salom
salsola
salt
salto
salvador
sam
same
samsung
samuel
san
sandoval
sandro
sankt
sant
santa
santamari
santana
santander
santiago
santo
santos
sao
sar
sara
sarah
saratov
saro
sasanian
sau
saudi
saulnier
saunders
savoia
saw
say
says
sb
sc
scar
sce
scheibe
schleicher
schneider
scholar
school
schu
schuckert
schweizer
science
sciences
scientific
scientists
scott
scout
screen
script
sd
se
sea
seaplane
search
season
sebastia
sebastian
sec
second
secret
section
security
see
segovia
segundo
segura
self
sen
senior
sense
september
ser
sergei
sergey
sergi
sergio
series
serra
serrano
server
service
services
set
seven
seville
sex
sf
sfd
sfr
sfsr
sgs
sh
sha
shah
shark
sharma
she
shell
shenyang
shi
shkode
short
show
shows
shtml
shvetsov
si
sia
siai
side
sident
siemens
sierra
sil
silk
silva
silveira
silver
silvio
simo
simon
simonini
sin
since
singapore
singh
single
singular
sio
sipa
sir
sister
site
sites
six
size
sk
ski
sky
slingsby
sm
small
smith
sncac
sncase
sncaso
snecma
so
soares
sobre
sobytii
soccer
soccerway
soci
social
socie
societe
society
software
soko
sokol
sol
sola
solano
solar
soli
solo
somali
somalia
some
son
song
songs
sons
sony
sor
soria
sosa
soto
sound
soundtrack
source
sousa
south
southern
souza
soviet
sp
spa
space
spacex
spad
spain
span
spanish
speaker
special
species
speculative
speech
speed
spirit
sport
sports
spring
springer
springs
sputnik
sputniknews
sq
squez
sr
ss
ssr
st
sta
staatsbibliothek
staff
stanbul
standard
stanford
stanislav
stanley
star
stars
start
stat
state
states
station
statistical
statistics
statistik
stats
status
ste
step
stephen
sterreichische
steven
stica
still
stock
stockholm
stone
stop
stor
store
stories
story
stp
street
strong
structure
stub
students
studies
studio
studios
study
stuttgart
style
su
sua
subject
subst
success
such
sud
sudan
suiza
sul
sula
sultan
sulzberger
sum
summer
sun
super
superficie
superheavy
support
sur
survey
sus
susceptibility
sushant
suu
sv
svenska
svg
sweden
swedish
swiss
switch
switzerland
sworn
sydney
synthesis
system
systems
t
ta
table
tablesl
tactical
tadzhikistan
tag
tajik
tajikistan
tajiks
take
takes
talent
taliban
talk
talks
tan
tanzania
tapia
tar
tau
tavcifnomaiomuzgoron
tavsifnomaiomuzgoron
taxobox
taxonomic
taylor
tcell
te
tea
team
tech
technical
technologies
technology
teen
tegucigalpa
tehran
teixeira
tejada
tela
tele
telegram
telegraph
telemundo
televisio
television
template
temple
temps
ten
tenerife
tennessee
terbang
terjesztett
term
terminology
terms
terra
territory
tesla
test
texas
text
tez
tg
th
tha
thai
than
that
the
theatre
theguardian
their
them
then
theory
there
these
they
thiago
things
think
third
this
thomas
thompson
thomson
three
through
ti
tiago
tibet
tica
tico
tiger
tiktok
time
times
timestamp
tirana
tirane
title
tj
tm
tnu
to
today
togo
tojnews
tokyo
toledo
tom
toma
tomatoes
tome
tony
toolforge
top
topic
tornado
toro
toronto
torre
torres
total
tour
tourism
tous
town
towns
toyota
tr
tra
tractor
trade
trading
trailer
trans
transfermarkt
transition
translation
translations
transport
travel
tre
tres
tri
tribune
trinidad
true
trujillo
trump
trust
truth
ts
tt
tte
tu
tucuma
tudes
tumani
tunisia
tunisie
turkey
turkic
turkish
turkmenistan
turner
turns
tuvalu
tv
twentieth
twin
twitter
two
type
tzdb
u
ua
uav
uc
udara
udio
uefa
ufc
uganda
uk
ukraine
ukrainian
ul
ultra
ultralights
um
un
una
unai
und
under
une
unesco
unicode
unio
union
united
units
universal
universe
universities
university
unknown
unrecognized
unspecified
until
untranslated
up
update
updated
updates
uploads
upon
upper
ur
urban
uribe
url
uruguay
uruguayan
us
usa
use
used
using
usually
utc
uu
uz
uzbek
uzbekistan
v
va
valde
vale
valencia
valenti
valenzuela
valeri
valle
vallejo
valley
valos
value
values
van
vanuatu
var
varela
vargas
variety
various
vasco
vazhaju
ve
vec
vega
vela
velasco
venezuela
ver
vera
verb
verbs
verde
vergara
verlag
version
very
vez
vi
via
viana
vice
vicente
vickers
victor
victoria
vida
vidal
video
videos
vidya
vie
vieira
viera
view
vigo
vii
viii
viktor
vila
villa
village
villalba
villanueva
villar
vin
vini
vinicius
vio
virginia
virtualbox
vis
visit
vista
visual
vitali
vito
vitor
vitoria
vk
vladikavkaz
vladimir
vladislav
vlore
vo
vodochody
vogue
voice
voices
vol
volgograd
volume
von
voss
vote
vs
vv
vyacheslav
vz
w
wa
wagner
wales
walker
wall
walt
walter
war
warner
warren
wars
was
washington
watch
water
waterfall
waterfalls
watts
way
wayback
we
wealth
weast
weathering
web
website
webster
wedding
week
weekly
welcome
well
welle
wellington
were
wesley
west
western
what
when
where
which
while
white
whitehouse
whitney
who
why
wi
wide
wien
wiesbaden
wife
wiki
wikidata
wikimedia
wikipedia
wikisource
wikiwand
wild
wiley
wilhelm
will
william
williams
willian
wilson
win
windows
wing
wings
winner
winners
wins
wissen
with
without
wo
woman
women
won
word
wordpress
words
work
works
world
worldwaterfalldatabase
would
wp
wright
write
writing
written
wulf
ww
www
x
xa
xavier
xe
xf
xi
xico
xii
xiii
ximo
xiv
xix
xlsx
xp
xs
xv
xvi
xvii
xviii
xx
xxi
xxii
y
ya
yahoo
yale
yas
ye
year
years
yeh
yemen
yeni
yes
yevgeni
yi
yle
yo
yonder
york
you
young
your
youtube
yu
yugoslavia
yunus
yuri
yy
z
za
zambrano
zamora
zapata
zar
zaragoza
zaro
ze
zealand
zee
zel
zeppelin
zero
zi
zip
zone
zones
zquez
zu
zur
zz
{
|
}
~
¡
£
§
©
ª
«
¬
­
®
°
±
²
³
´
µ
·
¹
º
»
¼
½
¾
¿
×
æ
÷
đo
ħ
ı
ın
ł
ŋ
œuvres
ƒ
ƣ
ƶ
ǁ
ɐ
ɑ
ɒ
ɓa
ɓɐwŋ
ɔ
ɕ
ə
ɛ
ɜŋ
ɡ
ɣ
ɨ
ɪ
ɰ
ɲ
ɴ
ɵ
ɹ
ʃ
ʔ
ʔa
ʘ
ʰ
ʲ
ʷ
ʹ
ʺ
ʻ
ʼ
ʾ
ʿ
ˀ
˃
˄
˅
ˈ
ˌ
ː
ːˈ
˗
˚
ˠ
ˤ
˥
˦
˧
˨
˩
̀
́
̂
̃
̄
̆
̇
̈
̉
̊
̋
̌
̑
̓
̔
̚
̛
̝
̞
̟
̠
̣
̥
̦
̧
̨
̩
̪
̭
̯
̱
̲
̸
̹
̻
͂
ͅ
͈
͡
α
β
γ
γος
δ
ε
η
θ
ι
λ
λο
μ
μα
ν
να
ο
ος
π
ρ
ς
σ
τ
τα
υ
φ
χ
ω
а
аа
аб
аба
абад
абади
абаи
абакан
аббос
аббоси
аббосие
абд
абди
абду
абдували
абдувалиев
абдукарим
абдул
абдулазиз
абдулазизхон
абдулаҳад
абдулвосиеви
абдулкарими
абдулло
абдуллоев
абдуллоева
абдуллоевич
абдуллозода
абдуллоҳ
абдуллоҳи
абдуллоҳхон
абдуллоҳхони
абдуллоҷон
абдулмалик
абдулму
абдулмутталиб
абдулфаттоҳ
абдулғани
абдулқодир
абдулқодири
абдулҳаи
абдулҳамид
абдулҳусаи
абдумалик
абдуманнонов
абдумаҷид
абдураззоқ
абдураззоқов
абдурауф
абдурашидов
абдураҳим
абдураҳимов
абдураҳмон
абдураҳмони
абдураҳмонов
абдурраҳими
абдурраҳмон
абдурраҳмони
абдусалом
абдусаломов
абдусаттор
абдуссалом
абдушарифи
абдуқаҳҳор
абдуқодир
абдуқодири
абдуҳалим
абдуҷаббор
абдуҷалил
абе
абел
абзори
абзорҳои
абитолиб
абр
абрамов
абрамович
абраҳам
абрешим
абрешими
абри
аброр
абру
абрҳо
абрҳои
абу
абуабдуллоҳ
абуабдуллоҳи
абуали
абуалии
абубакр
абубакри
абузаби
абулаббос
абулаббоси
абулфазл
абулфазли
абулфараҷи
абулфатҳ
абулфатҳи
абулхаи
абулъалои
абулқосим
абулқосими
абулҳасан
абулҳасани
абулҳусаи
абумансур
абумаҳмуди
абумуслим
абумуслими
абумуслимнома
абунасри
абураи
абусаид
абусаиди
абутолиб
абуҳанифа
абуҷаъфар
абуҷаъфари
абхазистон
абхазия
абхозистон
абҷад
ав
аваз
авали
авангард
авасто
аватар
авв
аввал
аввала
аввалан
аввалаш
аввали
аввалин
аввалинаш
аввалини
аввалинҳо
аввалия
аввалияи
аввалро
аввалҳо
аввалҳои
авг
август
августа
августи
августо
авезов
авеллино
авесто
авестои
авзои
авиатсиони
авиатсионии
авиатсия
авиатсияи
авив
авила
авилес
авлие
авлод
авлоди
авоили
авом
авомили
авохири
аврангзеб
аврора
авроқи
авруосие
аврупо
аврупои
аврупоие
аврупоии
аврупоиҳо
аврупоро
австралия
австралияги
австрия
австрияги
авто
автобус
автобуси
автобусҳо
автобусҳои
автомати
автоматии
автоматика
автомашина
автомобил
автомобилгард
автомобилгарди
автомобили
автомобилии
автомобилҳои
автономи
автономии
автор
автореферат
авторов
авторы
авф
авфи
авфии
авғонов
авҷ
авҷи
агар
агарчи
агенти
агентии
агентства
агентство
агилар
агирре
агломератсияи
агра
аграри
аграрии
агрегати
агрегатҳои
агроном
агрономи
агросаноати
агросаноатии
агустин
ад
ада
адаб
адаби
адабиву
адабие
адабии
адабиро
адабию
адабу
адад
адади
ададро
ададҳо
ададҳои
адам
адами
адамс
адан
адвие
адвия
адвокат
адвокати
адвокатҳо
адвор
аде
адиб
адиби
адибон
адибони
адибону
адигеи
адигея
адл
адлия
адлияи
адлу
административно
администрации
адмирал
адмирали
адо
адои
адолат
адолати
адолатхон
адолф
адолфо
адрас
адрасмон
адреналин
адриан
адриано
адҳам
адҳамов
ае
аждаҳо
аз
азал
азали
азамат
азбаи
азбаски
азербаи
азиз
азизи
азизов
азизова
азии
азим
азиме
азими
азимов
азимова
азия
азият
азми
азнав
азнавсози
азнавсозии
азоб
азоби
азобу
азов
азодори
азон
азони
азро
азхуд
азхудкунии
азҳар
азҳари
аи
аикт
аит
ак
ака
акад
академи
академии
академик
академика
академике
академики
академия
академияи
академияҳои
акашариф
акбар
акбарзод
акбари
акбаров
акбаршоҳ
акино
аккоси
аккредитатсияи
акмал
акнун
акобир
акоста
акрам
акрамов
акс
аксар
аксаран
аксари
аксарият
аксарияти
аксариятро
аксбардори
аксбардории
акси
аксуламали
аксҳо
аксҳои
акт
акте
акти
актриса
актрисаи
актрисаҳо
актуальные
акуня
акустикаи
акушери
акшаи
ал
ала
алабама
алаи
алалхусус
алам
аламут
алан
алапаевскии
алар
алаф
алафзор
алафи
алафҳои
алахусус
алахуэла
алб
алба
албани
албания
албатта
алберт
алберто
албоб
албом
албоми
албомҳои
албурз
алвадор
алвадори
алварес
алваро
алвес
алгебра
алгебрави
алгебраи
алгоритм
алгоритми
алдо
алегре
алеи
алек
алекс
алекса
александер
александр
александра
александри
александров
александрович
александровка
александровна
алексе
алексеев
алексеевич
алексеевск
алексеевская
алексеи
алексис
алексндре
алес
алехандро
алжира
али
алиакбар
алиакбари
алиасғари
алиев
алиева
ализода
алии
аликанте
алимардонов
алимент
алиризо
алиро
алиф
алифбо
алифбои
алихон
аличур
алишер
алишери
алия
алкалоидҳо
алла
аллакаи
аллан
аллен
аллерги
аллергия
аллома
алломаи
аллоҳ
алма
алмаато
алмаатои
алмати
алматы
алмеи
алмилали
алмиллалии
алмос
алмоси
ало
аловуддин
алоку
аломат
аломати
аломату
аломатҳо
аломатҳои
алонсо
алоуддин
алоуддини
алоқа
алоқаи
алоқаманд
алоқаманданд
алоқаманди
алоқамандии
алоқаҳои
алоҳида
алоҳидаги
алоҳидаи
алоҳидаро
алп
алпи
алт
алтаи
алтернативи
алтернативии
алфа
алфаро
алфонко
алфонсо
алфред
алфредо
аль
альбом
алюминии
аляска
алҳол
алҳон
алҷабр
алҷазоир
ам
ама
амазонка
амакаш
амаки
амал
амалан
амалдорони
амале
амали
амалие
амалии
амалисозии
амалия
амалияи
амалкарди
амалкунанда
амалкунандаи
амалро
амалу
амалҳо
амалҳои
амвол
амволи
аме
америка
америкаи
американскои
америки
америкои
ами
амид
амин
аминзода
амини
аминов
аминокислотаҳо
аминҳои
аминҷон
аминҷонов
амир
амири
амирон
амирони
амирро
амирхон
амиршо
амиршоев
амиршоеви
амиршоҳи
амит
амитабҳ
амиша
амиқ
амиқи
амиқтар
аммиак
аммо
аммон
аммонии
амният
амнияти
амон
амонатбонк
амони
амонов
амонова
амонқулова
аморат
аморати
ампелография
ампер
амр
амри
амрико
амрикои
амрикоии
амрикоиро
амрикоиҳо
амрикоро
амрози
амру
амрҳои
амсоли
амстердам
аму
амударе
амуди
амудии
амур
ан
ана
анализ
анализи
аналитики
аналоги
ананас
ананд
анатолевич
анатоли
анатолии
анатолия
анатольевич
анатомия
анатомияи
анбие
анбор
анбори
анборҳои
анбу
анвар
анвари
анвои
анвори
анвоъи
анг
ангарск
ангезаи
ангезандаи
ангезандаҳои
ангезаҳои
ангезиш
ангезиши
ангел
ангела
ангидриди
ангишт
ангишти
ангиштсанг
англ
англии
англис
англиси
англисии
англисиро
англисҳо
англия
англо
ангола
ангу
ангуло
ангур
ангури
ангурро
ангурҳои
ангушт
ангуштарин
ангушти
ангуштон
ангуштони
ангуштпона
анд
андак
андаке
андалеб
андалус
андалусия
андар
андарз
андарзи
андаруни
андерсен
андерсон
андеша
андешаву
андешаи
андешаҳо
андешаҳои
андешида
андешидани
анди
андиҷон
андиҷони
андова
андоз
андоза
андозааш
андозаашон
андозагири
андозагирии
андозае
андозаи
андозаҳои
андозбанди
андози
андозро
андозҳо
андозҳои
андомгон
андоми
андорра
андорри
андохт
андохта
андохтан
андохтани
андра
андраде
андре
андреев
андреевич
андреевскии
андреи
андрес
андро
андромеда
анду
анзоб
анзоби
ани
аниа
анибал
аниматсиони
аниматсионии
аниме
анис
аниси
аниқ
аниқи
анкара
анна
аннин
анонсы
анор
аносири
анри
ансамбл
ансамбли
ансамблҳои
ансар
ансор
ансори
анта
анталия
антана
антарктида
антарктика
антарктике
анти
антибиотикҳо
антиген
антигенҳои
антигуа
антио
антиохи
антиқа
анто
антон
антони
антонио
антропологи
антропологии
антропология
антуан
антус
ану
анушервон
анъана
анъанави
анъанавии
анъанаи
анъанаҳои
анқара
анқо
анҷелес
анҷело
анҷир
анҷом
анҷоми
анҷуман
анҷумани
анҷуманҳои
ао
апаресидо
аполлон
аппарати
аппаратҳои
апр
апрел
апрели
апреля
ар
араб
араби
арабизабони
арабии
арабиро
арабистон
арабистони
арабоязычным
арабро
арабская
арабу
арабҳо
арабҳои
аракс
арал
арасту
араужо
арафа
арафаи
арафот
арақ
арбоб
арбоби
арбобони
арвоҳ
арвоҳи
аргентина
аргентинаги
аргентини
ардабел
ардашер
ардашери
арена
аржанг
арз
арза
арзан
арзанда
арзандаи
арзе
арзи
арзии
арзиш
арзиши
арзишманд
арзишманди
арзишнок
арзишҳо
арзишҳои
арзон
арзу
арзуманян
арзҳои
ариза
аризаи
аризона
арифметика
ариэл
арк
аркадии
аркази
арки
аркони
арктика
арктики
арм
арман
армандо
армани
армании
арманистон
арманистони
арманиҳо
армении
армения
армии
армия
армияи
армуғон
армянскои
арнолд
ароба
аробакаш
арон
арра
арсаи
арсе
арсен
арслон
артабони
арте
артиллери
артиллерии
артиллерия
артинскии
артисти
артиш
артиши
артишҳои
артур
артуро
ару
архангелск
архаринскии
археологи
археологии
археологические
археология
архив
архивированная
архивировано
архимед
архитектура
архитектуры
арча
арчазор
аршади
аряс
арғунун
арҷгузори
ас
асаб
асаби
асабҳо
асабҳои
асад
асадии
асадобод
асадулло
асал
асали
асар
асараш
асаре
асари
асарро
асару
асарҳо
асарҳое
асарҳои
асарҳоро
асарҳояш
асбоб
асбоби
асбобу
асбобҳо
асбобҳои
асеведо
асил
асили
асир
асири
асирони
аскалди
аскар
аскарали
аскари
аскарон
аскарони
асл
аслан
асли
аслиаш
аслиддин
аслии
аслиҳа
аслиҳаи
аслонов
аслу
аслҳо
аснод
асноди
аснои
асо
асозода
асолати
асорат
асорати
асос
асосан
асосгузор
асосгузори
асосгузорони
асосе
асоси
асосиаш
асосии
асосиро
асоснок
асосу
асосҳои
асотир
асотири
асотирии
асп
аспекты
аспи
аспирант
аспиранти
аспирантон
аспирантура
аспирантураи
асппарвари
аспро
аспу
аспҳо
аспҳои
аср
асри
асримие
асрор
асрори
асроров
асрҳо
асрҳои
ассам
ассамблея
ассамблеяи
ассимилятсия
ассис
ассистент
ассистенти
ассотсиатсия
ассотсиатсияи
ассотсиатсияҳои
асср
аст
астаробод
астероид
астиаг
астрахан
астрология
астрономи
астрономии
астрономия
астрономияи
астрофизика
астрофизикаи
асту
асунсион
асфалт
асфалтпу
асъор
асъори
асҳоб
асҳоби
асҷади
ат
ата
атеизм
атеросклероз
ати
атирау
атиқа
атланта
атлантик
атлас
атласи
атлетико
атмосфера
атмосфераи
атмосфери
ато
атобоев
атоев
атои
атом
атоми
атомиаш
атомии
атомҳо
атомҳои
атрие
атроф
атрофаш
атрофи
атрофие
атрофии
атрофро
атсетат
аттестатсионии
аттестатсия
аттор
аттори
атфол
ау
аугсбург
ауданы
аудио
аудит
аудити
аун
аурелио
ауыл
аф
афанди
афарди
афб
афв
афганистан
афганистана
афзал
афзали
афзалият
афзалияти
афзалиятноки
афзоиш
афзоиши
афзол
афзор
афзори
афзуд
афзуда
афзудааст
афзудани
афзун
афина
афканиши
афканишот
афканишоти
афкор
афкори
афкору
афлесун
афлотун
африка
африки
африқо
африқои
афрод
афроде
афроди
афродита
афросие
афру
афсар
афсари
афсарон
афсарони
афсаҳзод
афсона
афсонави
афсонавии
афсонагу
афсонаи
афсонаҳо
афсонаҳои
афсу
афсурдару
афтад
афтиши
афтод
афтода
афтодааст
афтодани
афуров
афшин
афшор
афшураи
афюн
афғон
афғони
афғонистон
афғонистони
афғонистонро
афғонистону
афғонҳо
ахбор
ахбори
ахбороти
ахбору
ахеменидов
ахир
ахиран
ахири
ахли
ахлоқ
ахлоқи
ахлоқии
ахлоқиро
ахлоқию
ахлоқу
ахмад
ахмедов
ахоли
ахтар
ахтаршинос
ахтаршиноси
ахтаршиносии
ахтубинск
ачитскии
аш
аше
ашк
ашки
ашконие
ашраф
ашрафи
ашро
ашроф
ашрофи
ашрофони
ашт
аштархоние
ашти
ашу
ашуров
ашхос
ашхосе
ашхоси
ашъор
ашъораш
ашъорашро
ашъори
ашқобод
аъе
аъзам
аъзами
аъзо
аъзое
аъзои
аъло
аълои
аълом
аълочии
аъмол
аъмоли
аъроб
аъроф
аэропорт
аэропорти
аяла
ағбаи
ағдам
ағлаб
ақал
ақали
ақаллият
ақаллияти
ақаллиятҳои
ақвоми
ақди
ақиб
ақибгоҳ
ақибгоҳи
ақиби
ақибнишини
ақида
ақидаанд
ақидае
ақидаи
ақидаҳо
ақидаҳои
ақл
ақли
ақлу
ақоиди
ақоқие
ақраб
ақсо
аққал
аҳамият
аҳамияти
аҳаммият
аҳаммияти
аҳбоб
аҳвоз
аҳвол
аҳволи
аҳд
аҳди
аҳднома
аҳдномаи
аҳдҳои
аҳе
аҳзоби
аҳком
аҳкоми
аҳли
аҳмад
аҳмадзода
аҳмади
аҳмадия
аҳмадов
аҳмадова
аҳмадхон
аҳмадхонов
аҳмадшоҳ
аҳмадшоҳи
аҳмадҷон
аҳмар
аҳодиси
аҳои
аҳоли
аҳолиаш
аҳолии
аҳолинишин
аҳолинишини
аҳолиро
аҳорун
аҳриман
аҳрор
аҳрори
аҳсан
аҳура
аҷаб
аҷаи
аҷалгие
аҷам
аҷами
аҷдоди
аҷдодони
аҷзи
аҷиб
аҷибе
аҷоиб
аҷоибу
б
ба
бабаев
бабушкин
бавария
бавижа
бавосир
бавосита
багам
бад
бадан
баданаш
бадани
баданро
бадарға
бадастомада
бадахши
бадахшон
бадахшони
бадахшонро
бадбахт
бадбу
бадеи
бадеии
бадеиро
бадеию
бадеият
бадеъ
бадеъи
бадеҳа
бади
бадминтон
бадоеъ
бадоеъу
бадоҳатан
бадр
бадри
бадриддин
бадтар
бадтарин
баду
бае
баз
база
базаи
базел
базм
базми
баи
баиа
бак
бакалавр
бакалаври
бакр
бакри
бактерия
бактерияви
бактерияҳо
бактерияҳои
баку
бакунин
бал
баланд
баланде
баланди
баландиаш
баландиашон
баландии
баландихтисос
баландихтисоси
баландиҳо
баландиҳои
баландку
баландпояи
баландро
баландсифат
баландтар
баландтарин
баландтаринаш
баландтарини
баланду
баландшиддати
баласанян
бале
балет
балети
балетмеи
балетҳои
бали
балкан
балки
бало
балоғат
балоғати
балтика
балтимор
балучистон
балучистони
балуҷистон
балх
балхаш
балхаши
балхи
балхро
балъами
балғам
балҷувон
балҷувони
бам
бан
банаворгирии
банан
банақшагири
банақшагирии
бангалор
бангкок
бангладеш
банглодеш
бангола
банголи
банд
банда
бандагони
бандаи
бандаки
бандакҳои
банданд
бандар
бандари
бандарҳои
банди
бандина
бандинаи
бандпои
банду
бандча
бандҳо
бандҳои
бани
банк
банка
банту
бар
барад
барак
баракалдо
баракат
баракати
баранд
баранда
барандагони
барандаи
баранов
бараш
бараҳман
бараҳна
барбадос
барбара
барбат
барбод
барбоза
барбуда
барвақт
барг
баргардад
баргардон
баргардонад
баргардонд
баргардонда
баргардони
баргардонида
баргардонидани
баргаш
баргашт
баргашта
баргаштааст
баргаштан
баргаштанд
баргаштани
барги
баргирифта
баргу
баргузида
баргузидаи
баргузор
баргузории
баргху
баргҳои
барда
бардавом
бардошт
бардошта
бардоштааст
бардоштан
бардоштанд
бардоштани
бардуру
барзагов
барзие
барзу
бари
барид
барии
барин
барканор
барканории
бармаки
бармаҳал
бармегардад
бармегарданд
бармеояд
бармеоянд
барнаул
барно
барнома
барномави
барномавии
барномаи
барноманависи
барномарези
барномаро
барномасози
барномасозии
барномаҳо
барномаҳои
баро
баробар
баробаранд
баробари
баробарии
баробарҳуқуқии
баровард
бароварда
баровардааст
баровардан
бароварданд
баровардани
бародар
бародараш
бародари
бародарон
бародаронаш
бародарони
барои
барокко
баромад
баромада
баромадаанд
баромадааст
баромадан
баромаданд
баромадани
баромади
баромадҳо
баромадҳои
барон
барор
барорад
барориши
барот
баротов
барояд
бароям
барояш
барояшон
бароқхон
барпо
барра
барранкила
барраси
баррасии
баррасиҳои
баррел
баррето
барриос
барселона
бартанг
бартар
бартараф
бартари
бартарии
бартолд
бартольд
бару
барф
барфи
барфу
бархе
бархост
бархоста
барху
бархурд
бархурдор
барчасби
баръакс
баръакси
барқ
барқарор
барқарории
барқароркунии
барқарорсози
барқарорсозии
барқи
барқии
барқро
барҳам
барҳаме
барҷаста
барҷастаи
барҷастатарин
бас
басе
баси
баскетбол
баски
басо
басомад
басомади
басра
баст
баста
бастаанд
бастааст
бастаи
бастан
бастанд
бастани
басташуда
басти
бат
батареяи
батат
батафсил
батиста
батламиюс
батлимус
батни
баттони
батуми
баффет
бах
бахили
бахром
бахт
бахти
бахтие
бахусус
бахш
бахшад
бахше
бахши
бахшид
бахшида
бахшидааст
бахшидан
бахшиданд
бахшидани
бахшҳо
бахшҳои
бача
бачагон
бачагона
бачагонаи
бачагони
бачадон
бачаи
бачаҳо
бачаҳои
баччан
башар
башарду
башари
башарият
башир
башири
башкортостан
башорат
баъд
баъдан
баъди
баъдии
баъдина
баъдтар
баъдҳо
баъзан
баъзе
баъзеашон
баъзеи
баъзеҳо
баян
баяндаи
бағдод
бағдоди
бағлон
бағоят
бақаи
бақара
бақияи
бақо
бақозода
бақои
баҳ
баҳисобгири
баҳисобгирии
баҳман
баҳмане
баҳо
баҳогузори
баҳодиҳи
баҳодиҳии
баҳодур
баҳодури
баҳои
баҳоия
баҳонаи
баҳор
баҳорак
баҳори
баҳористон
баҳорон
баҳору
баҳоуддин
баҳоуддини
баҳр
баҳра
баҳрабардори
баҳравар
баҳраи
баҳри
баҳриддин
баҳрии
баҳримие
баҳрнаварди
баҳром
баҳроми
баҳру
баҳрҳо
баҳрҳои
баҳс
баҳси
баҳсу
баҳсҳо
баҳсҳои
бда
бдор
бдоркуни
бдоршаванда
бе
беандоза
беасос
беақл
бебаҳо
бевара
бевосита
бевоситаи
бег
бегона
бегонаи
бегуноҳ
бед
бедак
бедил
бедили
бедона
бедонаи
бедор
бедори
бедории
бежан
без
безарар
безопасности
безос
беи
беист
беихтие
бек
бекзода
беки
бекигарии
бекор
бекори
бектоши
бел
беларус
беларуси
беларусь
белая
белгия
белгород
белград
белем
беленицкого
белиз
белинскии
белл
белла
беллен
бело
белогорскии
белозер
белорус
белоруси
белорусия
белоруссия
белорусҳо
белоярскии
беляев
бемор
бемори
бемории
бемориро
бемористон
бемористони
бемориҳо
бемориҳои
беморон
беморони
беморро
беморхона
беморхонаи
беморхонаҳо
бему
бемуҳра
бен
бенаво
беназир
беназири
бенг
бенгали
бензин
бензол
бенин
бенитес
бенито
бениҳоят
беном
бенҷамин
беоб
беохир
бепое
бепул
бер
беранг
бераҳмона
берг
бердиев
бердиева
берег
березник
березовка
берен
бериллии
беринг
беркли
берлин
берлини
берлиоз
берн
бернард
бернардо
бернштеи
бертелс
берун
беруна
берунаи
беруни
берунии
бесабаб
бесаводи
бессарабия
бесутун
бета
бетараф
бетарафи
бетарафии
бетаъсир
бетағи
бетон
бетони
бетховен
бефосила
бех
бехатар
бехатари
бехатарии
бехи
бехоби
бечора
беш
беша
бешазор
бешазори
бешаи
бешаҳои
бешкент
бештар
бештаре
бештари
бештарин
бешубҳа
бешумор
беэътибор
беҳ
беҳад
беҳамто
беҳамтои
беҳаракат
беҳбуди
беҳдошт
беҳдошти
беҳзод
беҳоли
беҳру
беҳтар
беҳтарин
беҳтарини
беҳуда
беҷон
беҷор
би
бибер
биби
бибии
бибиси
библиографи
библиографии
библиография
библиографияи
библиотека
библиотеке
библиотеки
бигзарад
бигзор
бигирад
бигиранд
бигу
бигузорад
бидеҳ
бидиҳад
бидон
бидуни
бидъат
бие
бизе
бизнес
бизнеси
бии
биков
бику
билбао
билл
билли
биллоҳ
билохира
билоятҳои
бими
бимоланд
бимонад
бин
бинад
бинандагон
бини
бинии
биниш
биниши
бинни
бино
бинобар
биное
бинои
бинокори
бинокории
биноҳо
биноҳои
бинт
бинти
бину
био
биографии
биографическии
биография
биокимие
биолог
биологи
биологии
биология
биологияи
биосфера
биофизика
биофизикаи
биохимия
биохимияи
бипаша
бир
бирав
биравад
бирасад
бире
биржа
биржаи
биринҷ
биринҷи
биринҷии
биритоние
бирма
бирмингем
бируни
бис
бисау
бисе
бисмарк
бисмиллоҳ
бист
бистари
бисту
бистум
бисье
бит
битавонад
бихонад
биху
бич
бишев
бишкек
бия
биҳи
биҳишт
биҳишти
биҳо
биҳои
биҷу
благовешенскии
бланко
бласть
ближнего
блог
блоги
блок
блоки
блонскии
блудентс
бо
боб
бобак
бобакон
бобат
бобати
бобби
боби
бобие
бобиев
бобил
бобо
бобоев
бобоева
бобои
бобокалонов
бобохон
бобохонов
бобохоҷаев
бобояш
бобоқулов
бобоҷон
бобоҷонов
бобоҷонова
бобров
бобул
бобуна
бобур
бобурнома
бобҳо
бобҳои
бовар
бовари
боварии
боварҳои
богданов
богдановичскии
боголюбов
богота
богучар
бод
бода
бодаи
боди
бодинҷон
бодиринг
бодия
бодиянишин
бодиққат
бодканд
бодканди
бодо
бодом
бодоми
боду
бодҳои
боева
боз
бозаргони
бозбинишуда
бозгашт
бозгашти
бозгу
боздид
боздиди
боздошт
боздошта
боздоштани
боздошти
бозе
бози
бозигар
бозигари
бозигарон
бозигарони
бозид
бозида
бозидаанд
бозидааст
бозиданд
бозии
бозингари
бозингарони
бозиро
бозича
бозичаи
бозичаҳо
бозичаҳои
бозиҳо
бозиҳои
бозмедорад
бозмонда
бознигаред
бознишаста
бозому
бозор
бозорбои
бозори
бозорҳо
бозорҳои
бозпас
бозрасии
бозсози
бозсозии
бозтоб
бои
боис
боиси
боистеъдод
боистеъдоди
бок
боки
бокс
боку
бол
болае
болгардгоҳи
болдор
более
болезни
боли
боливар
боливие
боливия
болишт
болиғ
болливуд
боло
болои
болоии
болооби
болопу
болоравии
болотар
болотарин
болояш
болу
болшая
болшевик
болшевики
болшевикон
болшие
болшое
болшои
больных
большая
большое
большои
болға
болҳои
бом
бомаҳорат
бомбаборон
бомбаи
бомдод
боми
бомие
бомуваффақият
бон
бона
бонги
бонд
бонди
бондҳ
бони
боние
бонк
бонкдори
бонки
бонкии
бонкҳо
бонкҳои
бонн
бонни
бону
бонувон
бонувони
бонуи
бонуфуз
бонуфузи
бонуфузтарин
бонҳо
бонҳои
бор
бора
бораи
борбад
борбади
борбари
боргоҳи
бордор
боре
бори
борик
борики
борис
борисов
борисович
борисовск
борисоглебск
бориш
бориши
боришоти
боркаш
боркаши
боркашони
бородин
борон
борони
бору
борха
борьба
борьбе
борьбы
борҳо
борҳои
босавод
босазо
босазое
босамари
босмачие
босния
бостон
бостони
бостонии
бостоншинос
бостоншиноси
бостоншиносии
бостоншиносон
бостоншиносони
босуръат
босуръати
босфор
ботаника
ботаникаи
ботаники
ботаникии
ботаҷриба
ботил
ботин
ботини
ботинии
ботсвана
бофанда
бофандаги
бофандагии
бофта
бофтаи
бофтаҳо
бофтаҳои
бохабар
бохан
бохарзи
бохт
бохтар
бохтари
бохтарие
бош
бошад
бошам
бошанд
бошанда
бошандагони
бошгоҳ
бошгоҳи
бошгоҳҳо
бошгоҳҳои
бошед
бошем
боши
бошишгоҳи
бошишгоҳҳои
бошуку
бошуурона
бошқирди
бошқирдистон
боэътимод
боэътимоди
бою
бояд
боязид
боязиди
боғ
боғбон
боғдори
боғи
боғот
боғу
боғча
боғчаи
боғчасарои
боғҳо
боғҳои
боқи
боқиев
боқизода
боқии
боқило
боқимонда
боқимондаи
боқимондаро
боқимондаҳои
боқист
боқия
боқувват
боҳ
боҳашамат
боҳи
боҳомо
боҷ
браво
брагинскии
бразили
бразилия
браи
бранденбург
бранко
брасил
брасилиа
брасов
братск
браун
брегентс
бреи
бренди
брест
бригада
бригадаи
брин
брит
британие
британия
британияи
бритиш
брито
бритоние
бро
брокгауз
брокгауза
бром
бронхҳо
брошюра
бруклин
брунеи
бруно
брюс
брюссел
брянск
бсэ
бу
бувад
буваи
бугера
буд
буда
будаанд
будааст
будаи
будам
будан
буданаш
буданд
будани
будапешт
бударо
буддо
буддои
буддоия
будем
будет
буди
буду
буз
бузи
бузу
бузург
бузургаш
бузургвор
бузурггарин
бузургдошти
бузурге
бузургеро
бузургзода
бузурги
бузургии
бузургиҳои
бузургмеҳр
бузургон
бузургони
бузургро
бузургтар
бузургтарин
бузургтаринаш
бузургтарини
бузургу
буи
бук
булагат
булбул
булгаков
булдон
булоқ
булу
булут
булғори
булғористон
булғория
бум
буми
бумии
бунафш
бунафша
бунгоҳи
бундаҳишн
бундестаг
буне
буни
бур
бурак
бург
бургос
бурд
бурда
бурдаанд
бурдааст
бурдан
бурданд
бурдани
бурди
бурдори
буре
буреи
буржуази
бурида
буридан
буридани
буриши
буркина
буру
бурун
бурунди
бурятия
бурҳон
бурҳони
бурҳонов
бурҳонуддин
бурҷ
бурҷи
бурҷу
бурҷҳо
бурҷҳои
бус
бут
бутамон
бутан
бутефлиқа
бути
бутта
буттаи
буттаҳо
буттаҳои
бутун
бутурлинов
бух
бухарест
бухарского
бухгалтери
бухор
бухори
бухоро
бухорову
бухорои
бухороро
буш
бушаҳр
буэно
буэнос
буя
буғ
буғи
буғум
буғумҳо
буқрот
буҳрони
буҷаи
буҷет
буҷети
бф
бы
бывшии
был
была
были
было
быть
бышев
бэи
бэсеску
бюро
бюрои
бюрократия
бҳатт
бҳилҳо
бҳо
бҳои
бҳутто
в
ва
вабо
вавилов
вавилон
вагарна
вагнер
вадим
вадимович
ваз
вазир
вазири
вазиристони
вазиров
вазирон
вазирони
вазиронро
вазифа
вазифааш
вазифадор
вазифаи
вазифаро
вазифаҳо
вазифаҳои
вазн
вазнаш
вазни
вазнин
вазнини
вазнинии
вазну
вазорат
вазорати
вазорату
вазоратҳо
вазоратҳои
вазъ
вазъи
вазъият
вазъияти
вазъиятро
вазян
ваи
вак
вакб
вакил
вакили
вакилии
вакилон
вакилони
ваколат
ваколатдор
ваколатдори
ваколати
ваколатнома
ваколатҳои
ваксина
ваксинаи
ваксинаҳо
вакт
вакте
вакти
вал
валад
валаматзода
валдес
вале
валекин
валенкия
валенсия
валентин
валентина
валентинович
валеревич
валери
валериан
валерии
валерьевич
вали
валиаҳд
валиаҳди
валид
валиев
вализода
валс
валтер
валуи
ван
ванадии
ванд
вандад
вандакҳои
ванданд
ванди
вандҳо
вандҳои
ванкувер
вануату
ванҷ
ванҷи
вао
вар
варам
варами
варақ
варақаи
варақаҳои
варақи
варақсангҳои
вараҷа
варгас
варзад
варзид
варзида
варзидааст
варзидаи
варзиданд
варзиш
варзишгар
варзишгари
варзишгарон
варзишгарони
варзишгоҳ
варзишгоҳи
варзиши
варзишии
варзоб
вари
вариант
варианти
вариантҳои
варо
варони
варшава
васеи
васеъ
васеъи
васеътар
васеъшавии
васи
васила
василаи
василаҳои
василевич
василевка
василево
васили
василии
васильев
васильевич
васият
васиятнома
васкес
васл
васли
васоили
васоити
васт
васта
вастааст
вастагии
вастагиҳои
вастаи
вастан
вастанд
вастани
васти
вастҳои
васф
васфи
ватан
ватанаш
ватанду
ватани
ватании
ватанро
ватикан
ватслав
ваф
вафо
вафодор
вафодори
вафот
вафоташ
вафоти
вахие
вахон
вахони
вахш
вахши
вахшскои
вахшу
вашгирд
вашингтон
вашкин
вашт
вашти
ваъда
ваъдаи
ваъз
вақоеъ
вақт
вақте
вақти
вақтро
вақту
вақтҳо
вақтҳои
вақф
ваҳдат
ваҳдати
ваҳи
ваҳм
ваҳши
ваҳшие
ваҳшии
ваҳҳоб
ваҳҳобия
ваҳҳобов
ваҷд
ваҷҳ
ваҷҳи
вв
введение
вд
ве
веб
вебгоҳ
вебгоҳи
вебер
вебсаи
вега
веданта
веди
ведомости
вежа
вежагиҳои
веи
век
века
веке
веков
вексел
вектори
вел
веласкес
велес
великая
великии
великои
великоустюг
велингтон
велосипед
велосипедрони
велскии
вен
вена
венгрия
венера
венесуэла
венесуэли
венетсия
вер
вера
верде
верди
вернадскии
вероятностеи
версал
версии
версия
версияи
верт
вертоле
верхнее
верхнеландехов
верхнетоемскии
верхнехав
верхнии
верхняя
верховаж
верховного
верхотурскии
веселовскии
вест
вести
вестминстер
вестник
весь
ветерани
ветеринари
ветеринарии
ветнам
ветнами
вече
взаимодеи
взгляд
ви
виана
виго
вигонич
вид
видал
видатних
видео
видеои
видеоии
видеоҳои
видов
видоъ
видя
виеи
виетнам
виетнами
вижа
вижагии
вижагиҳои
вижае
вижаи
византия
вии
викенте
вики
викианбор
викилуғат
викилуғати
викимедиа
википедиа
википедиаи
википедии
википедия
википедияи
викитека
виктор
виктория
викторович
вил
вила
вилалба
вилегодскии
вилла
вилмерсдорф
вилнюс
вилое
вилоят
вилоятест
вилояти
вилоятии
вилоятро
вилоятҳо
вилоятҳои
вилям
вилҳелм
вин
вингери
виникиус
винограда
виноградовскии
винсент
винтертур
винти
винчи
виолончел
вирди
вироиш
вироиши
вироишот
вирус
вируси
вирусҳо
вирусҳои
вирҷиния
вис
висенте
висконсин
висмут
високово
вист
витали
виталии
витамин
витамини
витаминҳо
витаминҳои
витебск
витегор
виториа
витория
витр
витсе
вице
вич
вичкут
вичлас
вичуг
виштосп
виҷдон
виҷдони
вкд
включая
вконтакте
вкп
влади
владивосток
владикавказ
владимир
владимира
владимирович
владимировка
владислав
власов
власти
власть
вли
влияние
влксм
вм
вместе
вмкб
вновь
внутренних
во
вобаста
вобастаанд
вобастаги
вобастагии
вобастаи
вогузор
вод
води
водии
водиҳо
водиҳои
водор
воениздат
военная
военно
военного
военное
военные
военныи
вожа
вожагон
вожагони
вожагузинии
вожаи
вожаномаи
вожасозии
вожашиносии
вожаҳо
вожаҳои
вожаҷу
вожегод
воз
возеҳ
возраста
вои
воиз
воизи
вокали
вокалии
вокеъ
вокзал
вокзали
вокруг
вокуниш
вокуниши
вола
волаи
волга
волгоград
волеи
воли
волидаи
волидон
волидонаш
волидони
волии
волков
воло
вологда
вологод
володарск
волои
волоияти
волоконовск
волости
волт
волта
волтер
волф
волфрам
вом
вомеху
вомиқу
вон
вонамуд
вони
вонот
воноти
вонотро
воноту
вону
вонҳо
вонҳои
вопасин
вопрос
вопросу
вопросы
ворас
ворид
вориди
воридот
воридоти
воридшави
воридшавии
ворис
вориси
ворисони
воробев
воронеж
вороновское
воронск
вору
ворух
восемь
восеъ
восеъи
восил
восита
воситаи
воситаҳо
воситаҳои
восифи
воспевание
воспеватель
воспевать
воспеваться
воспеть
воспеться
воспитание
воспоминания
восток
востока
востоке
востоковедение
востоковедения
восточная
восточнои
восточныи
воху
вошенгтун
воя
вояи
вояҷер
воқеа
воқеаи
воқеан
воқеанд
воқеаҳо
воқеаҳои
воқеи
воқеии
воқеиро
воқеият
воқеияти
воқеоти
воқеъ
воқиф
воҳаи
воҳаҳои
воҳид
воҳиди
воҳидов
воҳидҳо
воҳидҳои
воҷиб
впервые
времени
время
вс
все
всеволод
всего
всем
всемирная
всемирного
всемирныи
всеобщая
всероссии
всесоюзная
всех
вспевать
вспеть
вступил
вт
вторая
второи
ву
вуд
вуди
вузаро
вузов
вузу
вулкани
вулусволи
вулусволии
вулусволиҳои
вулф
вулқони
вуруд
вуруди
вусъат
вусъати
вучич
вучуд
вуш
вушмгир
вуқу
вуқуфи
вуҷуби
вуҷуд
вуҷуди
вчера
выборах
выборов
выгрузка
выдающихся
вып
выпевание
выпевать
выпеваться
выпеть
выпеться
выпуск
высшая
высшего
высшеи
вышестоящего
вязников
вяткин
вячеслав
вячеславович
г
га
гаага
габон
габриэл
гавазн
гавазни
гаваи
гавана
гаврилово
гавҳар
гавҳари
гагарин
гадо
гадоев
гадои
газ
газак
газаки
газета
газетаи
газеты
гази
газидани
газпром
газро
газу
газҳо
газҳои
гаи
гаити
гала
галактика
галактикаи
галактикаҳо
галаҷазираи
галерея
галереяи
галилеи
галилео
галина
галле
галлии
галлия
гама
гамбия
гамбусаки
гамбускҳо
гамма
гаммерман
гамов
ган
гана
ганг
гангу
ганди
гандора
гандум
гандумак
гандуми
ганҷ
ганҷа
ганҷави
ганҷи
ганҷина
ганҷинаи
гап
гар
гарав
гаравгон
гарави
гард
гарда
гардад
гардан
гарданаи
гарданд
гардани
гарди
гардид
гардида
гардидаанд
гардидааст
гардидан
гардиданд
гардидани
гардиш
гардишгари
гардиши
гардолуд
гардон
гардонад
гардонд
гардонда
гардондааст
гардондани
гардонид
гардонида
гардонидааст
гардониданд
гардонидани
гарду
гардун
гари
гаринскии
гарм
гарми
гармидиҳи
гармидиҳии
гармиду
гармии
гармо
гармои
гармония
гармсер
гармтарин
гарму
гармхона
гармчашма
гарнизони
гаров
гарон
гаронбаҳо
гаронбаҳои
гарони
гарридо
гарсиа
гарсия
гарчанде
гарчи
гаршосп
гаршоспнома
гастеис
гастон
гаусс
гафуров
гач
гачкори
гаш
гашт
гашта
гаштаанд
гаштааст
гаштан
гаштанд
гаштани
гашти
гаҳ
гаҳвора
гаҳвораи
гаҷ
гаҷкори
гваделупа
гвардия
гвардияи
гватемала
гватемали
гвиана
гвинея
гвинеяи
гг
где
ге
гев
гевара
гегел
геи
гектар
гектарро
гелии
гелон
гелони
гелос
гельбке
ген
гена
генеалогия
генерал
генерали
генералии
генератори
генетика
генетикаи
генетики
гени
геннадевич
геннадии
геннадьевич
генри
генрих
генуя
генҳо
генҳои
гео
географи
географии
географические
географических
география
географияи
геодези
геодезии
геодезия
геокимие
геолог
геологи
геологии
геология
геологияи
геометри
геометрии
геометрия
геометрияи
георг
георги
георгиевич
георгиевскии
георгии
геофизика
гер
гераис
герасимов
герман
германии
германия
германияи
герои
герреро
герсог
герсоги
гесу
гети
ги
гибралтар
гибсон
гигиена
гигиенаи
гидроген
гидрологическая
гидрометеоиздат
гидронимҳои
гие
гии
гил
гилберт
гилем
гилермо
гили
гилюрне
гилҳои
гимн
гимназия
гимназияи
гимнастика
гимнастикаи
гимни
гинекологи
гини
гир
гирад
гиранд
гирандаи
гирд
гирда
гирдаи
гирдбод
гирди
гирдиҳамои
гирдоб
гирдовари
гирдоварии
гирдогирди
гирду
гире
гиребон
гиреҳ
гиреҳи
гиреҳҳои
гири
гирии
гирифт
гирифта
гирифтаанд
гирифтааст
гирифтан
гирифтанд
гирифтани
гирифташуда
гирифти
гирифтор
гирифторанд
гирифтори
гирифторони
гироми
гиромидошти
гиршави
гиршавии
гиршуда
гиря
гитара
гиташенаси
гифу
гия
гл
глав
глава
главная
главныи
главы
глазунов
гликоген
глинка
глитсерин
глобали
глобалии
глобус
глобуси
глюкоза
гнеи
го
гобои
гов
гови
говмеш
гову
говҳои
гогол
год
года
годов
году
годы
гои
гол
голи
голл
голландия
голф
голҳо
голҳои
гомбие
гомел
гомес
гоминдан
гон
гонес
гони
гонии
гонкалвес
гонконг
гонсалвес
гонсалес
гонсало
гончаров
гор
гора
горбаче
гордеев
горди
гори
горка
горки
горкии
гормонҳо
горно
город
города
городе
городетс
городишен
городов
городок
городских
городского
городское
городскои
гороховетс
горы
гос
госплани
гост
государств
государства
государственная
государственного
государственное
государственнои
государственныи
государственными
государство
готикаи
готҳо
гоҳ
гоҳе
гоҳи
гоҳо
гоҳшумори
гоҳшумории
гоҳҳо
гоҳҳои
гр
градиенти
граждани
граждании
гражданскои
граи
грам
грамм
грамматика
грамматикаи
грамматики
грамматикии
грамотаи
грамотаҳои
гран
гранада
гранд
гранде
грант
граф
график
графика
графикаи
графики
граче
грегори
греи
гренада
гренландия
грибановск
григоревич
григори
григории
григорьевич
грим
грин
гринвич
грипп
гриппи
грнд
гродно
грознии
гром
гросо
гроссмеи
грудня
грузии
групп
группы
грязоветс
гтез
гу
гуадалахара
гуаи
гуам
гуанчжоу
гуатемала
гуаякил
губ
губернатор
губернатора
губернатори
губернатории
губернии
губерния
губернияи
губкинск
гувориш
гуворо
гувоҳ
гувоҳи
гугк
гуд
гудозиш
гудозиши
гудохта
гуе
гуз
гузар
гузарад
гузаранд
гузаранда
гузаргоҳи
гузаргоҳҳои
гузари
гузариш
гузариши
гузаришҳои
гузаронад
гузаронд
гузаронда
гузарондааст
гузарондани
гузаронид
гузаронида
гузаронидааст
гузаронидан
гузаронидани
гузашт
гузашта
гузаштаанд
гузаштааст
гузаштагон
гузаштагони
гузаштаи
гузаштан
гузаштанд
гузаштани
гузаштаро
гузашти
гузин
гузини
гузорад
гузоранд
гузориш
гузориши
гузоришҳо
гузоришҳои
гузошт
гузошта
гузоштаанд
гузоштааст
гузоштан
гузоштанд
гузоштани
гузошташуда
гуи
гул
гуландом
гулафшон
гулаш
гулбарга
гулбаҳор
гулбоғ
гулбоғи
гулгашт
гулгашти
гулдара
гулдаста
гулдастаи
гулдор
гулду
гулдузи
гулдузии
гуле
гулзор
гулзори
гули
гулистон
гулистони
гулкарам
гулмоҳи
гулназар
гулоб
гулоби
гулобии
гулобод
гулов
гулрез
гулро
гулру
гулрухсор
гулсанг
гулсангҳо
гулсара
гулу
гулхани
гулхона
гулчеҳра
гулчини
гулшан
гулшани
гулшукуфт
гулҳо
гулҳои
гум
гуманитари
гуманитарии
гуманитарные
гумиле
гумон
гумонбар
гумонбаршуда
гумони
гумрук
гумруки
гумрукии
гумшуда
гун
гуна
гунае
гунаи
гунаҳгор
гунаҳкор
гунаҳои
гунбад
гунбади
гунбаз
гунбази
гунд
гундишопур
гундсолор
гуно
гунобод
гуногун
гуногунанд
гуногуне
гуногуни
гуногунии
гуногунранг
гуногунро
гуноҳ
гуноҳи
гунҷишк
гунҷоиши
гурба
гурбаи
гурбаҳо
гург
гурги
гургон
гургони
гурда
гурдаи
гурдаҳо
гурдон
гурдони
гурез
гуреза
гурезагон
гурезаҳо
гурезаҳои
гурехт
гурехта
гурехтанд
гурз
гурзпартои
гури
гуроз
гуру
гурусна
гуруснаги
гуруснагии
гуруҳи
гурҷи
гурҷистон
гурҷистони
гус
гусман
густав
густаво
густарда
густариш
густариши
густерин
густурда
густурдаи
гутерриш
гути
гуфт
гуфта
гуфтаанд
гуфтааст
гуфтаи
гуфтам
гуфтан
гуфтанд
гуфтани
гуфтаҳо
гуфтаҳои
гуфти
гуфтор
гуфтори
гуфтугу
гуфтушунид
гуфтушуниди
гуфтушунидҳои
гуш
гуштии
гуштосп
гуҷарот
гуҷароти
гь
гэс
гюлен
гә
д
да
дааст
даббоғи
дабири
дав
дави
давид
давида
давидан
давиденков
давидович
давлат
давлатдори
давлатдории
давлате
давлатест
давлатзода
давлати
давлативу
давлатии
давлатиро
давлатию
давлатов
давлатро
давлату
давлатшоҳи
давлатҳо
давлатҳои
даво
давои
давом
давомдор
давоми
давомнокии
давомоти
давоҳои
давр
давра
даврае
давраи
давраро
давраш
давраҳо
давраҳои
даври
даврии
даврон
даврони
давронов
давру
дагард
дагарди
дагони
даи
дак
дакан
даки
дакии
дакиро
дакистон
дакка
дакон
дакона
даконаи
даконе
дакони
даконро
дакону
дакро
далв
дале
далел
далели
далелу
далелҳо
далелҳои
далер
далери
дали
далолат
дам
даме
дами
дамидани
дамир
дамованд
дан
дана
данд
дандамаев
дандон
дандонадор
дандони
дандонпизишки
дандонҳо
дандонҳои
дани
данило
данилов
даниэл
дания
данияги
данна
даннои
данные
данным
данных
данте
данғара
данғараи
дао
дар
дара
дарав
дараи
дарак
даранда
дарахт
дарахташ
дарахти
дарахтон
дарахтони
дарахту
дараҳои
дараҷа
дараҷае
дараҷаи
дараҷаҳои
дарбанд
дарбар
дарбор
дарбори
дарборие
дарваза
дарвеш
дарвешалии
дарвеши
дарвешон
дарвин
дарвинизм
дарвоз
дарвоза
дарвозабон
дарвозаи
дарвозаҳои
дарвози
дарвозу
дарвоқеъ
дарг
даргири
даргириҳо
даргириҳои
даргоҳ
даргоҳи
даргузашт
даргузаштааст
даргузаштагони
даргузашти
дард
дарди
дарду
дардҳои
даре
дареғ
дари
дарио
дарк
дарки
даркор
дармон
дармонгоҳ
дармонгоҳи
дармони
дарназардошти
даро
даробод
даров
даровард
дароварда
даровардааст
даровардан
дароварданд
даровардани
дароз
дарози
дарозиаш
дарозиашон
дарозии
дарозмуддат
дарозмуддати
дарозру
дарозтар
дарозтарин
дарозу
дарозумри
даромад
даромада
даромадааст
даромадан
даромаданд
даромадани
даромадгоҳ
даромадгоҳи
даромади
даромадҳо
даромадҳои
дарпаи
дарс
дарсад
дарсади
дарсадро
дарси
дарсии
дарсҳо
дарсҳои
дару
дарун
даруни
дарунии
дарунсу
дархост
дархости
дархостҳои
дарҳамии
дарҳои
дарҳол
дарҷ
дас
даст
даста
дастааш
дастае
дастаи
дастам
дастархон
дастархони
дасташ
дастаҳо
дастаҳои
дастаҷамъи
дастаҷамъии
дастгир
дастгири
дастгирии
дастгоҳ
дастгоҳи
дастгоҳҳо
дастгоҳҳои
дасте
дасти
дастии
дастикам
дастнавис
дастнависи
дастнависҳои
дастнорас
дастоварди
дастовардҳо
дастовардҳои
дастон
дастони
дастпарвари
дастпарварони
дастпу
дастрас
дастраси
дастрасии
дасту
дастур
дастурамал
дастури
дастурии
дастуру
дастурҳои
дастхат
дастхатҳои
дастҳо
дастҷамъи
дат
дата
дати
датт
даф
дафн
дафни
дафтар
дафтари
дафъ
дафъа
дахл
дахлдор
дахлдори
дахлнопазирии
дахолат
дахолати
даш
дашт
дашти
даштиҷум
дашту
даштҳо
даштҳои
даъват
даъвати
даъватҳои
даъво
даъвогар
даъвои
дақ
дақиқ
дақиқа
дақиқаи
дақиқан
дақиқи
даҳ
даҳа
даҳаи
даҳана
даҳанаи
даҳанакии
даҳани
даҳаҳо
даҳбед
даҳбеди
даҳгонаи
даҳи
даҳлези
даҳо
даҳои
даҳон
даҳони
даҳонро
даҳоро
даҳр
даҳсола
даҳсолаи
даҳсолаҳои
даҳум
даҳуми
даҳҳо
даҷла
дбуди
два
двадцать
две
движения
двор
двудольные
двудольных
двух
дгири
дгирии
дгор
дгори
дгории
дгориҳо
дгориҳои
дгорҳои
дгузори
дгузорони
ддмт
ддод
ддол
ддот
ддошт
ддошти
ддоштҳо
ддоштҳои
ддст
ддт
ддтт
ддх
ддҳбст
де
дебоча
дебютант
дебюти
дебютии
дев
деваштич
девган
деви
девон
девона
девонаш
девондарра
девоне
девони
девор
девораи
девори
деворнигораҳои
деворҳо
деворҳои
дег
деги
деи
дек
декабр
декабри
декабря
декан
декани
декарт
декларатсияи
декрет
дел
дела
делгадо
делевск
деление
дело
демет
демографи
демократ
демократи
демократии
демократиро
демократия
демократияи
демократҳо
демокрит
демоскоп
ден
дени
дениз
денис
деннис
день
департаменти
департаментҳои
департмент
депрессияи
депутати
депутатов
депутатҳои
дер
дере
деревня
державна
деринаи
деро
дертар
детеи
детектив
дети
детская
дефис
деятельности
деятельность
деҳ
деҳа
деҳае
деҳаест
деҳаи
деҳаро
деҳаҳо
деҳаҳои
деҳгулон
деҳи
деҳистон
деҳистони
деҳлави
деҳли
деҳнав
деҳот
деҳоти
деҳхудо
деҳқон
деҳқони
деҳқонии
деҳқонобод
деҳқонон
деҳқонони
дж
джаи
джан
джана
джане
джанскои
джеи
джон
джордж
дзюдо
ди
диабети
диагностика
диалектика
диалектики
диалог
диаметраш
диаметри
диана
диапазони
диас
диаспора
диаспораи
дибек
дивизия
дивизияи
диг
дигар
дигараш
дигарашон
дигарбора
дигаргун
дигаргуни
дигаргуниҳои
дигаре
дигареро
дигари
дигарон
дигаронро
дигарро
дигарҳо
дид
дида
дидаанд
дидааст
дидаву
дидаи
дидактики
дидам
дидан
диданд
дидани
дидгоҳи
диди
дидор
дидори
дие
диего
дизаи
дизели
дии
дик
дикорастущие
диктатор
диктатураи
дил
дилам
дилан
дилафру
дилаш
дилбар
дилбари
дилбеҳузури
диле
дили
дилкаш
дилнишин
диловар
диловаров
диловарон
дилоро
дилором
дилрабо
дилро
дилу
дилхоҳ
дилхоҳи
дилшод
дилҳо
димишқ
димна
димнаи
димоғаи
димукротик
дин
дина
динамика
динамикаи
динамики
динамикии
динамо
диндорон
диндорони
дини
динии
диниро
динию
динкард
динор
динори
диноршоев
динро
дину
диншиноси
динҳо
динҳои
диого
дипика
диплом
дипломат
дипломати
дипломатии
дипломатиро
дипломатия
дипломатияи
дипломи
дир
дирафш
дирафши
директор
директори
директорон
директорони
дириже
дироя
диру
дирҳам
дис
диск
диски
диснеи
дисс
диссертатсионии
диссертации
диссертация
дифои
дифоъ
дифоъи
дифференсиали
дифференсиалии
дифференциальных
диққат
диққати
диҳад
диҳам
диҳанд
диҳандагони
диҳед
диҳи
диҷитол
дкард
дкардҳо
дкуни
дкунии
для
дм
дми
дмитри
дмитриев
дмитриевич
дмитриевка
дмитрии
дмт
дн
днеи
днепр
дня
до
дов
довар
довари
довталаб
довталабон
довуд
довуди
договор
договора
дод
дода
додаанд
додааст
додам
додан
доданд
додани
додаст
додашуда
додаҳо
додаҳои
додгоҳ
додгоҳи
додгустари
доди
додситони
доду
додхудоев
додҳо
додҳои
дои
доим
доими
доимии
доимо
доир
доира
доираи
доиратулмаорифи
доираҳои
доиш
доиши
дока
докл
доклад
доклады
докт
доктор
доктора
докторанти
докторантура
доктори
доктории
докториро
докторони
документальныи
документов
документы
должна
должность
долине
долины
доллар
доллари
долларро
долони
дом
дома
доман
домана
доманаи
доманаку
домани
домени
доми
домингес
доминго
доминика
доминикана
доминикани
доминиканского
домод
домоди
домулло
домғон
дон
дона
донад
донаи
донакаш
доналд
донандагони
донандаи
донаҳои
донетск
дони
доние
донист
дониста
донистаанд
донистааст
донистан
донистанд
донистани
дониш
донишгоҳ
донишгоҳи
донишгоҳро
донишгоҳҳо
донишгоҳҳои
дониши
донишкада
донишкадаи
донишкадаҳои
донишманд
донишманди
донишмандон
донишмандони
донишмандону
донишнома
донишномаи
донишномаҳои
донишому
донишро
донишу
донишҳои
донишҷу
доно
донро
дону
дончаи
донҳо
донҳои
доп
допевание
допевать
допеваться
допеть
допеться
дор
дорад
дорам
доранд
доранда
дорандагони
дорандаи
доред
дорем
дори
дории
доро
дорович
дорога
дорои
дороии
дороиҳои
дорост
дору
дорувори
доруи
доруист
дорулмуаллимини
дорусози
дорухона
доруҳо
доруҳои
дорчини
дорчинии
дос
дост
достиев
достоевскии
достон
достони
достонро
достону
достонҳо
достонҳои
дотсент
дотсенти
дотсентон
дохил
дохиланд
дохили
дохиливу
дохилии
дохилиро
дохилию
дохилшави
дохунда
доц
дочь
дош
дошавии
дошт
дошта
доштаанд
доштааст
доштам
доштан
доштанаш
доштанд
доштани
дошуда
доғ
доғи
доғистон
доғистони
доғҳои
доҳа
др
драи
драма
драмави
драмавии
драмаи
драматург
драматурги
драматургия
драматургияи
драмаҳои
драс
древнего
древнеи
древнии
древностеи
древности
древняя
дро
другие
других
дружба
дружбы
дсрт
дтар
дтт
ду
дуарте
дубаи
дублин
дубов
дубора
дубораи
дубров
дубровка
дуввум
дуввуми
дуввумин
дувоздаҳ
дувоздаҳангушта
дувоздаҳгона
дувоздаҳгонаи
дувоздаҳмақом
дувоздаҳум
дувум
дувуми
дувумин
дуглас
дугона
дугонаи
дугоҳ
дуд
дуда
дуди
дудмони
дузд
дузди
дуздида
дуи
дукаратаи
дуке
дукони
дуконии
дуктур
дулло
дуллоев
дуллоҳ
дум
думаи
думаш
думбура
думи
думчааш
дунаи
дунболи
дуне
дуняви
дунявии
дуо
дуои
дуоше
дупалатаги
дур
дура
дуран
дурахши
дурахшон
дурахшони
дурдаст
дурдасти
дурдонаҳои
дуредгари
дури
дурии
дурнамои
дуров
дурри
дуррони
дуртар
дуру
дуруст
дурусти
дурустии
дурушт
дурушти
дус
дусад
дусаду
дусола
дусолаи
дусти
дутарафа
дуто
дутои
дутор
дутори
духтар
духтарак
духтараш
духтарашон
духтарашро
духтаре
духтари
духтарон
духтарони
духтарро
духтур
духтури
духтурон
духтурони
дучанд
дучархасавори
дучор
дучори
душ
душанбе
душанбеи
душанберо
душвор
душвори
душвориҳои
душман
душмани
душманон
душманони
душманро
дуъо
дуэт
дуэти
дуюм
дуюмаш
дуюмдараҷа
дуюми
дуюмин
дуюмро
дуҷинса
дуҷониба
дуҷонибаи
дхона
дхонаи
дшавии
дшуда
дьяконов
дэ
дэвид
дэвис
дэмиан
дю
дюи
дятков
дҳо
дҳои
дә
е
ев
ева
евгеневич
евгени
евгении
евгенио
евгения
евгеньевич
евич
евразии
евреи
евро
евровидение
евровижн
европа
европаи
европеи
европы
его
егор
ед
еда
единая
единиц
ее
ежегодник
еи
екатерина
екатеринбург
ел
елан
елена
елизавета
елизаветаи
елтсин
ем
ему
ен
енбекшиқазоқи
енисеи
енотаевск
енциклопедія
ер
ера
ераи
ереван
еро
ерра
еррес
ершов
ес
еса
есаи
есаҳо
есаҳои
если
ест
естественных
есть
етнам
етнами
ефи
ефрон
ефрона
еще
ж
жаи
жак
жан
жанеи
жанр
жанри
жанрҳо
жанрҳои
жарфо
же
женева
женщин
женщина
женщинах
жи
животных
жигалов
жизни
жизнь
жинирол
жирнов
жирятин
жителеи
жоан
жовтня
жогорку
жозе
жозеф
жоинвилле
жола
жопун
жорж
жосе
жуан
жуков
жуковскии
жуниор
журнал
журнала
журналист
журналисти
журналистика
журналистикаи
журналистон
журналистони
жь
жінок
жә
з
за
зааш
заб
забардасти
забон
забоне
забони
забонии
забонро
забону
забоншинос
забоншиноси
забоншиносии
забоншиносон
забонҳо
забонҳои
забт
забти
забҳ
завитинскии
завод
заводи
заводҳои
заволжск
заволи
завтра
завқ
завқи
завқибеков
завқу
завҷаи
заглавие
загрос
зад
зада
задааст
задан
заданд
задани
задач
задачи
заде
задуху
заи
заиф
зак
закавказия
закарие
закарии
закаспии
заки
закон
закот
закоти
залари
зали
зам
замахшари
замбия
замзам
замима
замимаи
замин
замина
заминаи
заминаҳои
замингие
заминдори
замини
заминии
заминларза
заминларзаи
заминро
замину
заминшиноси
заминшиносии
заминҳо
заминҳои
заминҷунби
замми
замон
замона
замонааш
замонаашро
замонави
замонавии
замонаш
замонашро
замоне
замони
замонро
замону
замонҳо
замонҳои
замора
зан
занад
занаш
занбарг
занбу
занг
занги
зангу
занд
занда
зандаги
зане
занзибар
зани
зании
занон
занона
занонаи
занони
занонро
занону
занро
зану
занҳо
занҳои
занҷир
занҷираи
занҷири
занҷон
запад
запата
запев
запевала
запевалка
запевальщик
запевание
запевать
запеваться
запевка
запевно
запевность
запевныи
запетыи
запеть
запеться
записки
запуска
зар
зарагоса
зарар
зарардида
зарари
зарарнок
зараровар
зараррасон
зараррасони
зараррасонҳо
зараррасонҳои
зарафшон
зарб
зарба
зарбазананда
зарбаи
зарбаҳои
зарбдор
зарбдори
зарби
зарбу
заргар
заргари
заргу
зард
зарди
зардоб
зардоби
зардолу
зардолуи
зардолуро
зардпарвин
зардтоб
зарду
зардушт
зардушти
зардуштие
зардуштия
зардча
зарече
зарин
зариф
заркали
зарнисор
заро
зарра
зарраи
зарраҳо
зарраҳои
заррин
заррина
зарринку
зарринтоҷ
зарубежных
зарубин
зарур
заруранд
зарурат
зарурати
зарури
зарурии
заруриро
зарурияти
зарф
зарфи
зарфҳо
зарфҳои
заршу
заря
заряди
зат
заур
зафар
зафаробод
зах
захаров
захира
захираи
захираҳо
захираҳои
захм
захми
захмҳои
зашакл
зашакли
защита
заъфарон
заъфи
заявил
зағир
заҳаб
заҳаби
заҳири
заҳмат
заҳмати
заҳматкаш
заҳо
заҳои
заҳр
заҳри
заҳрнок
заҳро
заҳролуд
заҳролуди
заҳҳок
зб
збаки
збакистон
збек
збеки
збекии
збекистон
збекистони
збекистонро
збекон
збекҳо
звание
зве
звезда
звено
звенои
згор
згордори
згори
згории
згориро
згорон
згорони
здаҳ
здаҳум
здесь
зе
зеби
зебо
зебову
зебое
зебои
зебоии
зебоишиноси
зебоишиносии
зебоиҳои
зебопари
зеботарин
зебою
зебу
зебумонанд
зебуниссо
зевс
зеи
зеландияи
зеле
зелении
зелинскии
земли
земля
зен
зенит
зер
зергуру
зери
зеризамини
зеризаминии
зерин
зерини
зеринро
зериоби
зеро
зес
зеҳн
зеҳни
зеҳнии
зи
зид
зидди
зиддият
зиддияти
зиддиятҳои
зидон
зидони
зие
зиев
зии
зикр
зикргардида
зикри
зикрие
зикршуда
зилзила
зилзилаи
зимбабве
зиминск
зимистон
зимистона
зимистонаи
зимистонаш
зимистони
зимистонро
зимма
зиммаи
зимнан
зимни
зин
зина
зинаи
зинат
зинати
зинаҳои
зинда
зиндаги
зиндагиаш
зиндагиву
зиндагии
зиндагинома
зиндагиномаи
зиндагиро
зиндагони
зиндагонии
зиндаи
зиндон
зиндонак
зиндони
зира
зирак
зираки
зиреҳпу
зирк
зиро
зироат
зироати
зироаткори
зироаткории
зироатҳо
зироатҳои
зист
зиста
зистааст
зистан
зисти
зистон
зисту
зистшиноси
зич
зичи
зичиаш
зичии
зиш
зишвори
зишвории
зишгоҳ
зишгоҳи
зишгоҳҳои
зиши
зишии
зишт
зишу
зия
зиқи
зиҳои
зиҷи
зку
злинков
зм
змарра
знание
значение
знок
знома
зномаву
зномаи
зноманигор
зноманигори
зноманигории
зноманигорон
зноманигорони
зномаю
зномаҳо
зномаҳои
зо
зобод
зов
зова
зод
зода
зодагони
зодаи
зодгоҳ
зодгоҳаш
зодгоҳи
зодру
зои
зоир
зоиров
зок
зокир
зокиров
зокони
зол
золим
золотая
золотои
зон
зона
зонаи
зонд
зонда
зони
зону
зоология
зоологияи
зор
зори
зорку
зот
зоти
зотҳои
зоча
зоғ
зоқ
зоҳид
зоҳидов
зоҳидон
зоҳир
зоҳиран
зоҳири
зоҳирии
зро
зу
зубаи
зуд
зуди
зудсабз
зудтар
зуком
зулаи
зулло
зуллоев
зулм
зулми
зулму
зулол
зулоли
зулф
зулфи
зулфия
зулфиқор
зулфиқоров
зулҳиҷҷа
зумра
зумрад
зумраи
зурабишвили
зуҳал
зуҳра
зуҳур
зуҳури
зуҳуроти
зхон
зҳо
зҳои
и
иа
иата
иаш
иб
ибараки
ибарра
иблис
ибн
ибни
ибодат
ибодатгоҳ
ибодатгоҳи
ибодати
ибодулло
ибора
ибораи
иборат
иборатанд
ибораҳо
ибораҳои
ибрат
ибри
иброз
ибрози
иброҳим
иброҳими
иброҳимов
иброҳимова
ибт
ибтидо
ибтидои
ибтидоии
ибтидоиро
ибтикори
ива
иваз
ивази
ивазкунии
ивазшавии
иван
ивано
иванов
иванович
ивановка
ивановна
иваново
ивановская
ивановскии
ивнянск
иву
ивуар
иглесяс
игнасио
игор
игоревич
игорь
игр
игры
ид
ида
идалго
идда
иддае
иддао
идеали
идеализми
идеи
идентификатор
идеологи
идеологии
идеология
идеологияи
идея
идеяи
иди
идм
идо
идома
идомаи
идона
идонаи
идора
идораи
идоракунанда
идоракуни
идоракунии
идорашаванда
идорашавандаи
идораҳо
идораҳои
идори
идории
идрис
идрок
идроки
иду
идҳо
идҳои
ие
ижевск
из
иза
изаи
изамини
избран
избранные
известия
известно
изд
издание
издания
издательскии
издательство
издивоҷ
издивоҷи
иззатулло
изи
изменение
изменении
изменения
измир
измит
изобразительного
изотопи
изотопҳои
изофа
изофи
израиля
изтироб
изучение
изучения
изученность
изҳор
изҳори
изҳорот
изҳороти
ии
ик
икао
икроми
икромов
икрянинск
икс
иктисоди
иктисодие
иктишофи
ил
илал
илвес
иле
или
илиада
илиеску
илин
илич
иллат
иллате
иллати
иллатҳои
иллинои
илля
илм
илмаз
илме
илмест
илми
илмиаш
илмиашро
илмиву
илмии
илмиро
илмист
илмию
илмро
илму
илмҳо
илмҳои
илова
иловаги
иловагии
иловаи
иловашуда
иловаҳо
иловаҳои
иловлин
илон
илоҳа
илоҳаи
илоҳи
илоҳие
илоҷи
илтиҳоб
илтиҳоби
илья
иля
илҳом
илҳоми
им
има
име
имеет
имена
имени
имзо
имзои
имие
имкон
имкони
имконият
имконияти
имкониятҳои
имконнопазир
имконоти
имконпазир
имконпазири
имло
имлои
иммуни
иммунитет
иммунология
имову
имоди
имом
имомат
имомати
имомзода
имоми
имомия
имомназар
имомов
имомони
имон
имони
иморат
иморати
иморатҳо
иморатҳои
иморот
имороти
император
императори
императории
империал
империи
империя
империяи
империяҳои
имперотурии
импичмент
имрон
имру
имруз
имсол
имтие
имтиҳон
имтиҳони
имтиҳонҳои
имшаб
имя
ин
ина
инаи
инак
инвестиции
ингилистон
ингл
инглис
инглиси
инглистон
инглисҳо
ингуш
ингушистон
индекс
индекси
индиана
индии
индира
индия
индон
индонезия
инерти
инженер
инженери
ини
инки
инкишоф
инкишофе
инкишофи
инкишофу
инкор
инкори
инноватсиони
инноватсионии
инноватсия
инобат
иностранных
инот
иноти
инро
инсон
инсонду
инсони
инсонии
инсониро
инсоният
инсонро
инсонҳо
инсонҳои
инсоф
инспектори
институт
института
институти
институтҳои
инструктори
инструкция
инструменты
интеграли
интервью
интернат
интернати
интернатсионали
интернет
интернети
интернетии
интерфакс
интерфеи
интизоми
интизор
интизори
интихоб
интихоби
интихобии
интихобкунандагон
интихобкунандагони
интихобкунандагонро
интихобот
интихоботи
интихоботии
интихоботро
интихобшуда
интихобшудаи
интишор
интишори
интишороти
интиқод
интиқоди
интиқодии
интиқол
интиқолдиҳандаи
интиқоли
интиқом
интиҳои
ину
инфироди
инфиродии
информатика
информатсия
информации
информационно
информационное
информационныи
информация
инфрасохтори
инфрасурх
инчунин
иншо
иншои
иншоот
иншооти
иншоотҳои
иншуда
инъикос
инъикоси
инқилоб
инқилоби
инқилобии
инқирози
инҳо
инҳои
инҳоро
инҳоянд
инҷил
инҷо
инҷониб
иоанн
иоганн
ион
иони
ионҳои
иордания
иосиф
иото
иотои
ипирито
ир
ираклии
ирам
иран
ирана
иране
иранских
ирбитскии
ире
ири
ирина
иркаев
иркутск
ирланди
ирландия
ирландияи
иро
ироа
ирода
иродаи
ирон
ирот
ироти
ироту
ироқ
ироқи
ирси
ирсии
ирсият
ирсол
ирсоли
иртибот
иртиботи
иртифоъ
иртифоъи
иру
ирфон
ирфони
ирфонии
иршод
иршоди
ис
исаак
исбот
исботи
исе
искандар
искандари
искандария
искандарку
искандаров
искандарова
искусств
искусства
искусство
ислам
ислама
исламскии
исланди
исландия
ислими
ислом
исломи
исломии
исломиро
исломобод
исломов
исломро
исломшиноси
ислоҳ
ислоҳи
ислоҳот
ислоҳоти
исм
исмат
исмати
исми
исмоил
исмоили
исмоилие
исмоилия
исмоилов
исмоилова
исмоилови
исмҳо
исмҳои
исо
исоев
исоева
исои
исоматов
исп
испани
испании
испания
испаниҳо
исписор
использования
испони
испоние
исро
исроил
исроили
исрор
исроф
иссиқку
исследование
исследовании
исследования
ист
истад
истакон
истамбул
истанбул
истаравшан
истаравшани
истахри
истгоҳ
истгоҳи
истгоҳҳои
истеъдод
истеъдоди
истеъдодҳои
истеъмол
истеъмоли
истеъфо
истеъфои
истеҳкоми
истеҳсол
истеҳсоли
истеҳсолии
истеҳсолкунанда
истеҳсолкунандагони
истеҳсолкунандаи
истеҳсолот
истеҳсолоти
истеҳсолшуда
истибдоди
истиво
истивои
истило
истилогарон
истилогарони
истилои
истилоҳ
истилоҳи
истилоҳот
истилоҳоти
истилоҳҳои
истинод
истироҳат
истироҳати
истисмори
истисно
истиснои
истисқо
истифода
истифодабаранда
истифодабарандагон
истифодабарандагони
истифодабари
истифодабарии
истифодаи
истифодакунандаи
истифодашаванда
истихроҷ
истихроҷи
истиқбол
истиқболи
истиқлол
истиқлоли
истиқлолият
истиқлолияти
истиқомат
истиқомати
истиқоматии
истиқрори
истод
истода
истодаанд
истодааст
истодан
истории
историк
историко
историческая
исторические
историческии
исторических
историческои
история
источник
источникам
источники
источников
исфана
исфанд
исфандие
исфара
исфаҳон
исфаҳони
исфисор
исҳол
исҳоли
исҳоловар
исҳоқ
исҳоқи
исҳоқова
ит
италия
италияви
итар
ити
итлоқ
итминон
итмом
итмоми
итоат
итоати
итоги
итол
итолие
итолияви
итт
иттилои
иттилоот
иттилооти
иттилоотии
иттилоотию
иттилоотро
иттилоъ
иттифоки
иттифоқ
иттифоқи
иттифоқии
иттифоқчие
иттифоқҳои
иттиҳод
иттиҳоди
иттиҳодия
иттиҳодияи
иттиҳодияҳои
иттиҳоми
ифлос
ифлосшавии
ифнс
ифода
ифодагари
ифодаи
ифодакунандаи
ифодаҳои
ифои
ифтитоҳ
ифтитоҳи
ифтихор
ифтихори
ифтихории
ифтихорнома
ифтихорномаи
ифтихорномаҳо
ифтихорномаҳои
их
ихати
ихвонулмуслимин
ихд
ихлос
ихроҷ
ихроҷи
ихтие
ихтилоли
ихтилоф
ихтилофи
ихтилофоти
ихтирои
ихтироот
ихтирооти
ихтироъ
ихтироъкор
ихтироъкори
ихтисор
ихтисораи
ихтисос
ихтисоси
ихтисосҳои
ичкерия
ичро
иш
ишгол
иши
ишкошим
ишкошими
ишон
ишора
ишораи
ишорат
ишораташ
ишорати
ишораҳо
ишораҳои
иштибоҳ
иштие
иштирок
иштирокдори
иштироки
иштироккунандаи
иштирокчи
иштирокчие
иштирокчии
иштиҳо
ишғол
ишғоли
ишқ
ишқи
ишқии
ишқобод
ишқор
ишқори
ишқу
ишҳои
июл
июли
июля
июн
июни
июня
иқасд
иқбол
иқдом
иқдоми
иқлим
иқлимаш
иқлими
иқомат
иқомати
иқрор
иқт
иқтибос
иқтидор
иқтидораш
иқтидори
иқтисод
иқтисоддон
иқтисоддони
иқтисоди
иқтисодиву
иқтисодие
иқтисодии
иқтисодиро
иқтисодию
иқтисодчи
иқтисодчии
иқтисодшинос
иҳам
иҳо
иҳои
иҳота
иҳотаи
иҷлосия
иҷлосияи
иҷоза
иҷозаи
иҷозат
иҷозати
иҷозатнома
иҷозатномаи
иҷозатномаҳои
иҷора
иҷро
иҷрои
иҷроии
иҷроиши
иҷроия
иҷроияи
иҷроияро
иҷрокунанда
иҷрокунандаги
иҷрокунандагони
иҷрокунандаи
иҷтимои
иҷтимоиву
иҷтимоие
иҷтимоии
иҷтимоиро
иҷтимоию
иҷтимоъи
иҷтимоъии
иҷшс
к
ка
кабалеро
кабели
кабинети
кабир
кабири
кабиров
кабиса
кабк
кабки
кабо
кабоб
кабрера
кабу
кабуд
кабуди
кабул
кавкаб
кавкаби
кавкабии
кавказ
кавказа
кавкази
кавказскии
кавокиб
каддафи
кадис
кадом
кадоме
кадоми
кадри
кадрҳо
кадрҳои
каду
кадуи
кае
каждум
казан
казахстан
казахстана
казачинско
казино
каи
как
какао
каксас
кал
калао
калачев
калачеев
калашников
калво
калгари
калдерон
кале
календарь
кали
калид
калиди
калии
калила
калима
калимаву
калимаи
калимаро
калимасози
калимаҳо
калимаҳои
калимоти
калинин
калининград
калисо
калисои
калисоҳо
калисоҳои
калифорния
калифорнияи
калкутта
каловскии
калом
каломи
калон
калонаш
калоне
калони
калониаш
калонии
калонро
калонсол
калонсолон
калонтар
калонтарин
калонтаринаш
калонтаринашон
калонтарини
калону
калонҳаҷм
калонҳаҷми
калсии
калтакалос
калтарош
калтароши
калуга
кальюлаи
кам
камалиддинов
каманд
камар
камарбанди
камари
камаш
камбағал
камбизоат
камбизоати
камбоҷа
камбуди
камбудиҳои
камбуҷия
каме
каменка
каменск
каменскии
камера
камерави
камераи
камераҳои
камерун
камешков
ками
камизяк
камило
камишин
камишловскии
камоби
камол
камола
камоли
камолиддин
камолиддинов
камолов
камолот
камолоти
камолуддин
камон
камони
кампания
кампинас
кампо
кампос
кампус
камтар
камтарин
камтарини
каму
камхуни
камчатка
камшавии
камю
кан
кана
канада
канал
канали
каналҳои
кангурт
кангурти
канд
канда
кандакори
кандакории
кандани
канданиҳои
кандидата
канзас
канзи
кани
канн
каннада
кано
канор
канораи
канораҳои
канори
канории
канскии
канслери
кант
кантата
кантатаи
кантемиров
кантон
кантони
канъон
капитал
капитализм
капиталисти
капитан
капитани
капранов
капур
кар
кара
карабахе
караи
каракас
карам
карамел
каран
карантин
карат
каратаи
каратегина
карачев
карачи
караҷ
карбало
карбогидратҳо
карбогидридҳои
карбон
карбонат
карбонати
карбони
карвалю
каргополскии
кард
карда
кардаам
кардаанд
кардааст
кардаву
кардаи
кардам
кардан
карданаш
карданд
кардани
карданро
кардану
кардаст
кардашуда
кардашян
кардем
карди
кардозо
кардосо
карду
карелия
карераи
карзаи
кари
кариб
карим
каримзода
карими
каримов
каримова
каримович
карина
карл
карли
карло
карлос
кармен
кармина
карнаи
карнатака
карнеги
каролинаи
каромат
кароматов
кароматулло
каротин
карочи
карраско
карс
карт
карта
картахена
картографии
картография
картошка
картошкапарвари
карты
кас
касаба
касабаи
касабланка
касал
касали
касалии
касалиҳо
касалиҳои
касб
касби
касбии
касбиро
касбию
касбу
касбҳои
касе
касерес
касеро
касест
каси
касоне
каспии
касрат
касри
касро
кастани
кастило
кастро
кат
каталог
каталония
катарина
категория
категорияи
категорияҳои
кати
катибаи
катибаҳо
катибаҳои
католики
католикии
католикҳо
катор
катрин
каттақу
каука
каунас
кауфман
каф
кафедра
кафедраи
кафедраро
кафедраҳои
кафедры
кафи
кафида
кафили
кафолат
кафолати
кафолатҳои
качестве
качуг
каш
кашад
кашанд
каши
кашид
кашида
кашидаанд
кашидааст
кашидан
кашиданд
кашидани
каширск
кашиш
кашиши
кашмир
кашмири
кашондан
кашондани
кашф
кашфи
кашфие
кашфу
каъб
каъба
каъбаи
каэтано
каюмарс
кая
каҳкашон
каҳф
каҷ
каҷол
кв
квадрати
квант
кванти
квантии
кварс
кварта
квартет
квартети
квд
квебек
квинсленд
квт
кг
кгб
кдам
кдн
ке
кеара
кебич
кевин
кеген
кеи
келбаҷар
келди
келес
келли
кембриҷ
кендалл
кения
кеннеди
кент
кентукки
кенҷаев
кер
керала
керсти
кесада
кетчуп
кеш
ки
кибдо
кибернетика
кибернетикаи
кие
киев
кии
киив
киквидзен
киле
килограмм
километр
километри
километрии
километрро
ким
киме
кимие
кин
кина
кинг
кингстон
кинематографистони
кинематография
кинематографияи
кинетикии
кинешем
кини
кино
кинои
кинорежиссе
киностудияи
кинотеатр
кинотеатри
кинофестивали
кинофестивалҳои
киноя
кинтана
кипр
киргизии
кирдор
кирдори
киренск
киржач
кирибати
кирилл
кирилли
кириллов
кирм
кирмак
кирми
кирминаи
кирминаҳо
кирмон
кирмони
кирмоншоҳ
кирмоншоҳи
кирмҳои
киро
киров
кирови
кировро
кирои
киром
кироя
кис
киселе
кислота
кислотаи
кислотаҳо
кислотаҳои
кисми
кист
кистон
кит
китаи
китая
кито
китоб
китобат
китобати
китобаш
китобдор
китобдори
китобдории
китобе
китоби
китобро
китобу
китобхона
китобхонаи
китобхонаро
китобхонаҳо
китобхонаҳои
китобшиноси
китобшиносии
китобҳо
китобҳои
китобҳояш
китс
китф
китфи
кифоя
кичменгско
кишвар
кишвараш
кишваре
кишварест
кишвари
кишварро
кишваршиноси
кишваршиносии
кишварҳо
кишварҳое
кишварҳои
кишине
кишмиши
кишоварз
кишоварзи
кишоварзии
кишоварзиро
кишоварзон
кишт
киштзор
киштзори
кишти
киштигард
киштигарди
киштии
киштисози
киштиҳо
киштиҳои
кишту
киі
кл
клаи
клара
кларнет
класс
класса
классик
классика
классики
классикии
классикиро
классикони
классических
классическои
клаудио
клаус
кле
клеи
клеменчич
клет
клетнян
климов
клиника
клиники
клиникии
клинсов
клинтон
клип
клипи
клод
клуб
клуби
клубҳои
ключи
км
кмир
кмт
кн
кнессет
книг
книга
книге
книги
кнр
княз
князи
князии
ко
кобинаи
кобул
кобули
ков
кова
коваи
ковале
ковиши
ковишҳои
ковнти
ково
ковокии
ковров
ковскии
ковус
когда
когон
код
кодекси
коди
коза
козим
козлов
козловскии
кои
коинот
кока
коко
кокс
коктеи
кол
кола
колесников
колефурнее
количество
коллегияи
коллексияи
коллектив
коллективи
коллективҳои
коллеҷ
коллеҷи
коллеҷҳо
коллеҷҳои
колон
колония
колонияи
колорадо
колорадои
колумб
колумби
колумбиа
колумбия
колумбияи
колхоз
колхози
колхозобод
колхозчи
колхозчие
колхозҳои
колчугин
ком
командири
комарич
комаров
комбаи
комбинати
комде
коме
комедияи
коменданти
коми
комил
комилан
комилзода
комили
комилов
комилҳуқуқи
коминтерн
комиссари
комиссариати
комиссарони
комиссия
комиссияи
комиссияҳо
комиссияҳои
комитет
комитета
комитети
комиҷроияи
комментарии
коммерсантъ
коммуна
коммунаи
коммунали
коммунизм
коммунизми
коммуникатсиони
коммуникатсия
коммунист
коммунисти
коммунистии
коммунистическои
коммунистон
коммунистони
комор
компании
компания
компанияи
комплекс
комплекса
комплекси
комплексии
композитор
композитори
композиторон
композиторони
композитсия
композитсияи
композитсияҳои
компютер
компютери
компютерии
компютерҳо
компютерҳои
комсомол
комсомоли
комсомолии
комсомолобод
комсомолск
комсомольская
кон
конан
конвенсия
конвенсияи
конго
конгресс
конгресса
конгресси
конде
конец
кони
конибодом
конибодоми
конкеикан
коннектикут
конодо
коношскии
конрад
консентратсияи
консепсион
консепсияи
консервативи
консерватория
консерваторияи
консерт
консерти
консертии
консертҳо
консертҳои
константин
константинович
константинопол
конститутсиони
конститутсионии
конститутсиониро
конститутсия
конститутсияи
конститутсияро
конституции
конституция
консули
контексте
континент
континентали
континенти
контрабас
контрерас
контроли
контроль
конур
конф
конфедератсияи
конференсия
конференсияи
конференсияҳои
конференции
конференция
конфликтов
конфронс
конфронси
конфронсу
конфронсҳои
конфутсии
конца
конце
конҳо
конҳои
кооперативи
кооперативии
координатаҳои
коп
копия
кор
корам
кораш
корашро
корбар
корбари
корбарон
корбарони
корбаст
корбасти
корбурд
корбурди
корвон
корвони
корвонсарои
коргар
коргардон
коргардони
коргардонии
коргардонҳо
коргардонҳои
коргари
коргарии
коргарон
коргарони
коргоҳ
коргоҳи
коргоҳҳои
коргузори
корд
корди
кордили
кордоба
кордова
коре
кореи
кореро
корея
кореяги
кореягиҳо
кореяи
кори
кориаш
кориашро
корида
кории
кориро
коркард
коркарди
коркуни
коркунони
корм
корманд
корманди
кормандон
кормандони
корнамоиҳои
корнелл
корномаи
короле
королинаи
король
корому
коронавирус
коронавируси
корочан
корпоратсияи
корпуси
корреа
корро
коррупсия
корсаков
кортес
корти
кортҳои
кору
коруня
корфармо
корхона
корхонаву
корхонаи
корхонаҳо
корхонаҳои
коршиноси
коршиносон
коршиносони
корҳо
корҳое
корҳои
корҳоро
кос
коса
косаи
косахонаи
косаҳо
косиби
косибон
косни
косово
косон
косони
коста
кострома
кот
котелников
котиб
котиби
котибот
котиботи
котласкии
котов
которого
которои
которые
которыи
которых
кофарниҳон
кофи
кофир
кофирон
кофия
кофта
кофтукови
кох
кохи
кочи
кочнев
кош
коши
кошикори
кошифи
кошон
кошони
коғаз
коғази
коғазҳои
коҳиш
коҳиши
кпсс
кр
кравчук
краи
красная
краснен
краснии
красноборскии
красноводск
красногвардеи
красногор
краснодар
красное
красноуфимскии
красноярск
красноярскии
краснояруж
красныи
краткая
краткии
края
кредити
кредитии
креи
кремл
кремле
кремнии
кризис
крик
крикиума
крис
кристалл
кристаллбандиаш
кристалли
кристаллии
кристаллҳо
кристаллҳои
кристаллҳояш
кристи
кристиан
кристина
кристобал
кристофер
кришна
крн
кровеи
крови
крои
кроме
крософт
круз
крузеи
крупнеи
крупская
крус
крючков
ксира
ксу
кто
ку
куба
кубаги
куби
кубин
кубо
кубро
куваи
кузнецов
куи
кук
кул
кули
кулинарнои
кулл
куллан
кулли
куллие
куллии
кулоб
кулолгари
кулоли
кулоҳ
кулоҳи
кулу
кулумбия
культур
культура
культуре
культуры
кум
кумак
кумаки
кумар
кумилжен
кумита
кумитаи
кумитаҳои
кун
кунад
кунам
кунанд
кунанда
кунг
кунгу
кунед
кунем
куни
кунун
кунуни
кунунии
куня
кунҷ
кунҷи
кунҷид
кунҷҳои
купер
кур
кура
курави
кураи
курашакл
курган
курд
курдамир
курди
курдистон
курдистони
курдҳо
курие
куритиба
курорти
курс
курси
курсии
курск
курсҳои
курт
курта
куртаи
куртҳои
куруш
куруши
кутаиси
куторга
кутоҳ
кутуби
куфа
куфр
куфру
кучма
кушиш
кушод
кушода
кушодааст
кушодаи
кушоданд
кушодани
кушодашавии
кушоди
кушоние
кушт
кушта
куштан
куштанд
куштани
кушти
куштигири
куштии
куштор
куштори
куҳан
куҳандиз
куҳани
куҳантарин
куҳгилу
куҳи
куҳна
куҳнаи
куҷо
куҷост
кфо
кыргызскои
кыргызстан
кыргызстана
кь
кэмерон
кю
кҷ
кә
л
ла
лаб
лаби
лаблабу
лаблабуи
лабор
лаборант
лаборанти
лаборатори
лаборатория
лабораторияи
лабораторияҳои
лабҳои
лавозимоти
лавҳаи
лавҳаҳои
лавҳи
лагери
лагос
лае
лазери
лаззат
лаззати
лаи
лак
лаки
лаку
лалми
лам
лами
лан
ланг
лангар
лангардараи
лангари
ланд
ланди
ланка
лао
лаос
лаоси
лаппиш
лара
ларо
ларри
лас
ласуф
ласуфи
ласуфон
ласуфони
лат
латвии
латвия
латест
лати
латиф
латифа
латифаҳои
латифзода
латифи
латиши
латофат
латҳо
латҳои
лауреати
лафзи
лахш
лаш
лашкар
лашкари
лашкарие
лашкаркаши
лашкаркашии
лашкаркашиҳои
лаъл
лаъли
лағв
лақаб
лақаби
лақаи
лаҳ
лаҳза
лаҳзае
лаҳзаи
лаҳзаҳои
лаҳи
лаҳистон
лаҳистони
лаҳни
лаҳо
лаҳои
лаҳҷа
лаҳҷаи
лаҳҷаҳои
лвив
лвов
лд
ле
леандро
лебедев
леби
лев
леваканд
левакант
леви
левин
легиони
леди
лежнев
леи
лек
лекарственные
лекин
лексикаи
лексики
лексикон
лексия
лексияҳо
лекции
лена
ленд
ленин
ленина
ленинград
ленинградро
ленини
ленинизм
ленинизми
ленинии
лениннома
ленинобод
ленинро
ленинск
ленск
ленскии
лента
лентаи
леон
леонард
леонардо
леоне
леонел
леонид
леонидович
леонов
лер
лермонтов
лесото
лет
летию
летопись
лех
лечение
лечения
лешуконск
ли
либерал
либерали
либералии
либерия
либие
либия
либо
либос
либоси
либосҳои
либреттои
ливерпул
ливии
лига
лигаи
лидер
лидия
лие
лижаронии
лиза
лии
лик
ликуд
лима
лиман
лимон
лиму
лимфа
лимфоситҳо
лин
лингвистическии
линеи
линколн
лион
лионел
липа
лир
лирика
лирикаи
лирики
лирикии
лиски
лиссабон
лист
лит
литва
литвинскии
литвони
литература
литературе
литературная
литературы
литии
литр
литсеи
литсензия
литсензияи
литсензияҳои
лихтенштеи
лиц
лица
лию
лиҳо
лиҳоз
лиҳози
лка
лксм
лн
ло
лоб
лобачевскии
лоби
лобрегат
лобро
лобу
лов
лович
ловка
лово
ловская
ловскии
лог
логан
логрони
лод
лоди
лодов
лозанна
лозим
лои
лоиқ
лоиҳа
лоиҳавии
лоиҳаи
лоиҳакашии
лоиҳаҳо
лоиҳаҳои
лок
локомотив
лола
лолазор
лолаи
ломоносов
ломоносова
лон
лона
лонаи
лонг
лондон
лондони
лондрина
лони
лонии
лопатин
лопес
лор
лорд
лорен
лоренс
лоренсо
лос
лосано
лот
лоти
лотин
лотини
лотинии
лотҳои
лочин
лоғар
лоқ
лоҳур
лоҳури
лоҳути
лоҳутии
лоҷвард
лро
лс
лу
лубие
лубнон
лубоб
лубобу
луганск
луго
луи
луиз
луис
луиҷи
лука
лукас
лукашенко
луке
луна
луначарскии
лунда
луоби
луобпардаи
луристон
лурҳо
лут
лутфи
лутфулло
лух
луч
лучано
лучоб
луғави
луғавии
луғат
луғати
луғатнома
луғатномаи
луғату
луғатҳои
луғот
ль
любви
любкер
любкеру
любовь
людвиг
людеи
люди
людмила
люис
люксембург
люсия
лютер
ля
лҳо
лҳои
м
ма
мабдаи
мабдаъ
маблағ
маблағгузори
маблағгузории
маблағи
маблағҳои
мабнои
мав
мавзеи
мавзеъ
мавзеъи
мавзеъҳо
мавзеъҳои
мавзу
мавзуи
мавзун
мавзуна
мавзуни
мавиз
мавкеи
мавлави
мавлоно
мавлонов
мавлонова
мавлуда
мавлуди
мавод
маводди
маводи
маводҳои
мавриги
маврид
мавриди
мавридҳо
мавридҳои
мавритания
мавсим
мавсими
мавсимии
мавсимию
мавсум
мавсуф
мавчуд
мавқеи
мавқеъ
мавқеъи
мавқеъҳои
мавҳум
мавҷ
мавҷгир
мавҷи
мавҷуд
мавҷуда
мавҷудаи
мавҷуданд
мавҷудбуда
мавҷуди
мавҷудият
мавҷудияти
мавҷудот
мавҷудоти
мавҷҳои
маг
магар
магистр
магистратура
магистри
магистрро
магма
магмави
магнии
магнити
магнитии
магуфули
мад
мадагаскар
мадад
мадади
мадалиев
мадан
мадани
мадании
маданию
маданият
маданияти
мадди
маджлиси
мадина
мадм
мадоин
мадор
мадори
мадраки
мадрас
мадраса
мадрасаи
мадрасаҳо
мадрасаҳои
мадрид
мадҳ
мадҳи
мадҳури
мае
мажоритари
мазаммат
мазаммати
мазановскии
маздо
мазкур
мазкурро
мазмун
мазмунан
мазмуни
мазмуну
мазмунҳо
мазмунҳои
мазор
мазори
мазорҳои
мазру
мазҳаб
мазҳаби
мазҳабии
мазҳабҳои
мазҳака
мазҳакави
мазҳакавии
мазҳакаи
мазҳакаҳои
мазҳари
маи
маиши
маишии
мак
макадо
макеи
маки
макка
маков
макон
маконе
макони
маконҳои
макотиби
макру
макс
максим
максимально
максмиляно
мактаб
мактаббачагон
мактаби
мактабро
мактабу
мактабхони
мактабҳо
мактабҳои
мактуб
мактуби
мактьютор
макун
малави
малага
малаи
малака
малакаи
малакаҳои
малатие
малая
малаялам
малдив
малдонадо
малена
мали
малие
малии
малик
малика
маликаи
малики
маликов
маликушшуаро
маликшоҳ
маликшоҳи
малиновка
малое
малои
малта
малыи
мамаджанова
мамедов
мамин
мамлакат
мамлакати
мамлакатро
мамлакатҳо
мамлакатҳои
мамну
мамнуъгоҳ
мамнуъгоҳи
мамолик
мамолики
ман
мана
манам
манас
манбаи
манбаъ
манбаъи
манбаъҳо
манбаъҳои
манга
манган
манд
мандат
мандати
мане
манзара
манзараи
манзараҳои
манзил
манзили
манзилҳои
манзум
манзума
манзумаи
манзуми
манзуму
манзур
манзури
мани
манижа
манила
манн
манобеи
манобеъ
манобеъи
манора
манораи
манораҳо
манораҳои
манотиқи
мансаб
мансабдор
мансабдори
мансабдорони
мансаби
мансабҳои
мансуб
мансубанд
мансуби
мансубият
мансубияти
мансур
мансури
мансуров
мантақа
мантия
мантиқ
мантиқи
мантиқии
мантиқу
манту
мантуи
ману
манучеҳр
манучеҳри
мануэл
манфи
манфиат
манфиати
манфиатҳо
манфиатҳои
манфии
манчестер
маншаи
маншаъ
манъ
манъи
манғития
манқул
мао
маони
маориф
маорифи
маорифпарвари
маочие
маош
маоши
мар
маракаи
маранян
марат
марбут
марбута
марбути
марв
марвази
марви
марвон
марворид
марг
маргарет
маргарита
маргаш
марги
марговар
мард
марде
марди
мардон
мардона
мардонаги
мардонаи
мардони
марду
мардум
мардумаш
мардумгие
мардуме
мардуми
мардумии
мардумиро
мардумон
мардумони
мардумро
мардумшиноси
мардумшиносии
мардҳо
маревон
марз
марзи
марзии
марзию
марзу
марзҳои
мари
мариано
мариз
маризи
марии
марин
марина
марино
марио
мария
марк
марка
марказ
марказаш
маркази
марказии
марказиро
марказҳои
маркаи
маркаҳои
маркес
маркетинг
маркетинги
маркио
марко
марковича
маркос
маркс
марксизм
марксисти
маркус
марлон
мармар
мармари
маро
марокаш
марокко
мароми
маросим
маросими
маросимии
маросимҳо
маросимҳои
маротиб
маротиба
маротибаи
маротиби
мароға
мароғи
мароқ
марс
марсел
марсело
марсия
март
марта
мартаба
мартабаи
марти
мартин
мартинес
мартинс
маршал
маршали
маршалл
марши
марям
марғзор
марғзори
марғие
марқади
марҳабо
марҳала
марҳалаи
марҳалаҳои
марҳам
марҳамат
марҳами
марҳила
марҳилаи
марҳилаҳои
марҳум
марҷон
марҷони
мас
масал
масалан
масаласига
масдар
масеҳ
масеҳи
масеҳие
масеҳии
масеҳият
масири
маск
маска
маскав
маскави
маскавро
маскан
маскани
маскун
маскуни
маслиҳат
маслиҳати
маснави
маснавие
маснавии
маснавиҳои
маснадашро
маснади
масну
маснуот
маснуоти
масов
масоил
масоили
масолеҳ
масолеҳи
масолик
масона
масофа
масофаи
масофаҳои
масоҳ
масоҳат
масоҳаташ
масоҳати
масраф
масса
массагетҳо
массаи
массачусетс
массаҳои
массон
маст
мастер
масти
мастон
мастона
мастчоҳ
мастчоҳи
масуният
масунияти
масчо
масштаб
масъала
масъалаи
масъаларо
масъалаҳо
масъалаҳое
масъалаҳои
масъали
масъуд
масъуди
масъул
масъули
масъулият
масъулияташ
масъулияти
масҷид
масҷиди
масҷиду
масҷидулҳаром
масҷидҳо
масҷидҳои
мат
матбаа
матбааи
матбуот
матбуоти
матбуотии
математик
математика
математикаи
математики
математикии
математическая
матео
матер
материали
материализм
материализми
материалов
материалы
материк
материя
матеус
матиас
матин
матлаб
матлуб
матлуба
матн
матне
матни
матнро
матншиноси
матнҳо
матнҳои
мато
матов
матолиби
матоъ
матоъи
матоъро
матоъҳои
матраҳ
маурисио
мауро
мафтун
мафҳум
мафҳуми
мафҳумҳо
мафҳумҳои
махачкала
махдум
махдуми
махзани
махзану
махлут
махлуқот
махмуд
махорка
махрути
махрутшакл
махсум
махсумов
махсус
махсусан
махсусгардонидашудаи
махсусе
махсуси
махсусияти
махсусро
махфи
махфии
мачлиси
маш
машварат
машварати
машваратии
машоихи
машриқ
машриқзамин
машрубот
машъал
машъали
машғул
машғуланд
машғули
машғулияти
машғулиятҳои
машқ
машқи
машқҳо
машқҳои
машҳад
машҳади
машҳун
машҳур
машҳуранд
машҳури
машҳуртарин
машҳуртарини
маъ
маъбад
маъбади
маъбадҳои
маъдан
маъдани
маъдании
маъданро
маъданҳо
маъданҳои
маълул
маълум
маълуманд
маълуми
маълумот
маълумоташ
маълумоте
маълумоти
маълумотнома
маълумотномаи
маълумотро
маълумотҳо
маълумотҳои
маълуму
маъмул
маъмулан
маъмуланд
маъмули
маъмулии
маъмултарин
маъмултарини
маъмулу
маъмун
маъмур
маъмури
маъмуриаш
маъмурии
маъмуриро
маъмурию
маъмурият
маъмурияти
маъмурони
маънави
маънавие
маънавии
маъни
маънидод
маънии
маъниҳои
маъно
маънои
маъноии
маънояш
маъноҳои
маъони
маърази
маърака
маъракаи
маъракаҳо
маъракаҳои
маърифат
маърифати
маърифатии
маъру
маъруф
маъруфанд
маъруфи
маъруфият
маъруфияти
маъруфтарин
маъруфу
маъсуми
маъхази
маъхазҳо
маъхазҳои
маъюби
маъюбон
маъқул
мая
маяк
маяковскии
мағз
мағзаш
мағзи
мағлуб
мағлубият
мағоза
мағозаи
мағозаҳои
мағриб
мақбара
мақбараи
мақбараҳои
мақбули
мақдуни
мақдуния
мақола
мақолаву
мақолае
мақолаи
мақолаю
мақолаҳо
мақолаҳои
мақолаҳояш
мақолот
мақолоти
мақом
мақомаш
мақоми
мақомот
мақомоти
мақомотҳои
мақомро
мақому
мақомҳо
мақомҳои
мақсад
мақсади
мақсаднок
мақсадноки
мақсаду
мақсадҳои
мақсуд
мақсудов
мақулаи
мақъад
маҳ
маҳал
маҳали
маҳалла
маҳаллаи
маҳаллаҳо
маҳаллаҳои
маҳалли
маҳаллии
маҳаллиро
маҳалҳо
маҳалҳои
маҳараштра
маҳбал
маҳбас
маҳбуб
маҳбуба
маҳбуби
маҳбубият
маҳбубияти
маҳбус
маҳв
маҳви
маҳди
маҳдуд
маҳдуди
маҳдудият
маҳдудияти
маҳдудиятҳои
маҳз
маҳин
маҳкам
маҳкамов
маҳкум
маҳкумшуда
маҳлул
маҳлули
маҳлулҳои
маҳмад
маҳмадали
маҳмадов
маҳмадуллоҳ
маҳмадқулов
маҳмуд
маҳмуди
маҳмудов
маҳмудҷон
маҳорат
маҳорати
маҳрум
маҳсуб
маҳсул
маҳсули
маҳсулнокии
маҳсулот
маҳсулоти
маҳсулотҳои
маҳфил
маҳфили
маҳфилҳои
маҳфуз
маҳфузанд
маҷ
маҷалла
маҷаллаву
маҷаллаи
маҷаллаҳо
маҷаллаҳои
маҷбур
маҷбуран
маҷбури
маҷид
маҷидов
маҷлис
маҷлиси
маҷлисҳо
маҷлисҳои
маҷм
маҷмаа
маҷмааи
маҷмаи
маҷмаъ
маҷму
маҷмуаи
маҷмуи
маҷнун
маҷози
маҷолис
маҷори
маҷористон
маҷрои
маҷру
мбар
мбари
мвт
мг
мглин
мгу
ме
меандозад
меандозанд
меандохтанд
меафзояд
меафзоянд
меафзуд
меафтад
меафтанд
мебандад
мебанданд
мебарад
мебаранд
мебардорад
мебардоранд
мебаромад
мебаромаданд
мебарорад
мебароранд
мебарояд
мебароянд
мебастанд
мебахшад
мебахшанд
мебел
мебинад
мебинанд
мебинем
мебозад
мебозанд
мебозид
мебоист
меборад
мебофанд
мебофтанд
мебошад
мебошанд
мебояд
мебуд
мебуранд
мебурд
мебурданд
мева
мевааш
меваашро
мевадор
мевазад
меваи
мевапарвари
меварзад
меварзанд
меварзид
меваю
меваҳо
меваҳои
меваҷот
мегардад
мегарданд
мегардид
мегардиданд
мегардонад
мегардонанд
мегашт
мегаштанд
мегирад
мегиранд
мегирифт
мегирифтанд
мегу
мегузарад
мегузаранд
мегузаронад
мегузаронанд
мегузаронд
мегузашт
мегузаштанд
мегузорад
мегузоранд
мегузошт
мегузоштанд
мегуфт
мегуфтааст
мегуфтанд
мегуяд
мегуянд
мед
медал
медали
медалу
медалҳо
медалҳои
медарорад
медароранд
медарояд
медароянд
медведев
меделин
меди
медиа
медиафаи
медид
медиданд
медина
медихад
медиханд
медицина
медиҳад
медиҳам
медиҳанд
медод
медоданд
медонад
медонанд
медонист
медонистанд
медорад
медорам
медоранд
медошт
медоштанд
меду
мее
между
международная
международного
международнои
международные
международныи
международных
междуреченск
мезад
мезаданд
мезанад
мезананд
мезенск
мезист
мезистанд
мезозои
мезояд
меи
меистад
меистанд
меистод
мекард
мекардаанд
мекардааст
мекардам
мекарданд
мекашад
мекашанд
мекашид
мекашиданд
мекоранд
мексика
мексикаги
мексики
мекско
меку
мекунад
мекунам
мекунанд
мекунем
мекуни
мекушад
мекушояд
мел
мелбурн
меленков
мелиоратсия
мелиса
мелод
мелоди
мелодрамаи
мемоланд
мемонад
мемонанд
мемонд
мен
мена
менависад
менависанд
менавишт
менавиштанд
менавозанд
менавохт
менамояд
менамоянд
менамуд
менамуданд
менделеев
мендес
мендоса
менеҷери
менеҷмент
менеҷменти
менишаст
менишинад
меномад
меноманд
меномиданд
мену
меня
меоварад
меоваранд
меовард
меоварданд
меомад
меомаданд
меомезанд
меому
меорад
меоранд
меофарад
меофарид
меояд
меоянд
мепазад
мепазанд
мепазирад
мепаи
мепарваранд
мепардозад
мепартояд
мепартоянд
мепошанд
мепу
мепурсад
мер
меравад
меравам
мераванд
мерасад
мерасанд
мерасид
мерасиданд
мерасонад
мерасонанд
мерасонд
мерасонданд
мерасониданд
мерафт
мерафтааст
мерафтанд
мерезад
мерезанд
мерехт
мерида
меркел
меронад
мерос
меросгузор
мероси
мерсин
меру
меры
меса
месабзад
месабзанд
месарояд
месароянд
месозад
месозанд
месохт
месохтанд
месси
место
месу
месупорад
месупоранд
метавон
метавонад
метавонанд
метавонед
метавонем
метавонист
метавонистанд
металл
металли
металлов
металлургии
металлургия
металлургияи
металлҳои
метаморфи
метан
метафизика
метеорология
метод
методи
методии
методикаи
методисти
методические
методическое
методологии
методологияи
методы
методҳои
метр
метри
метро
метрои
метрополитен
метрро
мефармояд
мефармоянд
мефаҳмад
мефаҳмонад
мефиристад
мефиристанд
мефуру
мех
механизм
механизми
механизмҳои
механик
механика
механикаи
механики
механикии
мехи
мехико
мехия
мехонад
мехонанд
мехонд
мехонданд
мехост
мехостанд
мехоҳад
мехоҳам
мехоҳанд
меху
мехурад
мехушконанд
мечинанд
мешавад
мешаванд
мешавем
мешинонанд
мешиносанд
мешу
мешуд
мешуда
мешудаанд
мешудааст
мешуданд
мешукуфад
мешуморад
мешуморанд
мешуморид
меъда
меъдаву
меъдаро
меъдаю
меъе
меъмор
меъмори
меъмории
меъморию
меъморон
меъморони
меъроҷ
меғундоранд
меҳвар
меҳвари
меҳисобад
меҳисобанд
меҳмон
меҳмони
меҳмонон
меҳмонони
меҳмонхона
меҳмонхонаи
меҳмонхонаҳо
меҳнат
меҳнатду
меҳнати
меҳнатиро
меҳнаткашон
меҳнаткашони
меҳнатобод
меҳнатободи
меҳр
меҳргон
меҳрдод
меҳри
меҳроб
меҳроби
меҳробод
меҳрободи
меҳру
меҳрубон
меҳрубони
меҷу
мз
ми
мигел
мигуэл
мид
миддин
миддинов
мие
мижгон
миз
мизбони
мизи
мизон
мизони
мизоҷ
мизоҷи
мизоҷон
мизроб
мии
микдори
микел
микробиология
микробҳо
микробҳои
микронезия
микроорганизмҳо
микроорганизмҳои
микрораи
микроскопи
мил
милали
милан
милии
милитсия
милитсияи
милки
миллали
миллат
миллаташ
миллатгарое
миллатгарои
миллати
миллатро
миллату
миллатҳо
миллатҳои
миллер
милли
миллиард
миллиардер
миллиардерҳо
миллиардерҳои
миллии
миллиметр
миллион
миллионер
миллионерҳои
миллиону
миллионҳо
миллиро
миллию
милод
милоди
милтон
мин
мина
минбар
минбари
минбаъд
минбаъда
минбаъдаи
минг
мине
минерал
минерали
минералии
минералогия
минералҳо
минералҳои
мини
министерства
министерство
министр
министра
министров
министром
мино
минск
минтақа
минтақави
минтақавии
минтақае
минтақаи
минтақаро
минтақаҳо
минтақаҳои
минуи
минҳ
мир
мира
мирали
миралиев
мирализода
миранда
мирбобоев
мире
мирза
мирзие
мирзо
мирзоев
мирзоева
мирзозода
мирзои
мирзошоев
мири
мирнии
мирном
миров
мировая
мировои
миростроительство
миррих
мирсаи
мирсаид
мирсаидов
миру
миршакар
мис
миси
мисин
мискин
мисли
мисол
мисоли
мисолҳои
миср
мисраи
мисраъ
мисри
мисрие
мисрро
мисру
мисс
миссисипи
миссияи
миссури
мисқол
митра
митте
михаи
михаил
михаилович
михалево
михаэл
мичиган
мишел
миқдор
миқдоран
миқдоре
миқдори
миқдории
миқе
мл
млн
млрд
мм
ммд
ммм
ммо
мн
мномаи
мо
мобаи
мобили
мобилии
мов
моварои
мовароуннаҳр
мовароуннаҳрро
мовароуннаҳру
мод
мода
модар
модарам
модараш
модарашро
модарзоди
модарзодии
модари
модарии
модарон
модару
модда
моддаи
моддаҳо
моддаҳое
моддаҳои
моддаҳоро
модди
моддии
моддию
модел
модели
моделсозии
моделҳои
модерн
моди
модина
модинааш
модинаи
модул
модули
мое
моеи
моеъ
моеъи
моеъҳо
моеъҳои
может
можно
мозамбик
мозандарон
мозандарони
мозга
мои
моии
моил
мол
молдавия
молдова
моле
молекула
молекулави
молекулаи
молекулаҳо
молекулаҳои
молекули
моли
молибден
молида
молидани
молие
молии
молик
молики
моликият
моликияти
молина
молия
молияви
молиявии
молиявию
молияи
молодая
молоде
молро
молу
молумулки
молҳо
молҳои
моменти
момсен
мон
мона
монад
монако
монанд
монанданд
монанди
монд
монда
мондаанд
мондааст
мондан
монданд
мондани
монеа
монеаи
монеъ
мони
монов
монография
монографияи
монографияҳо
монреал
монро
монте
монтевидео
монтенегро
монтеро
монтес
мор
мора
моралес
мораэс
морган
моргенштерн
море
мореи
морено
морзе
мори
морис
моро
морозов
морфологи
морфологии
морфология
морфологияи
морху
моря
морҳои
моси
москав
москва
москваро
москве
москвы
москера
московскии
московского
московскои
москоу
мост
мотам
мотами
мотсарт
мохи
мошин
мошинасози
мошинаҳои
мошингард
мошингарди
мошини
мошинсози
мошинсозии
мошину
мошинҳо
мошинҳои
моя
мояи
моғие
моқ
моҳ
моҳаги
моҳаи
моҳвораи
моҳе
моҳи
моҳигири
моҳидори
моҳие
моҳии
моҳипарвари
моҳир
моҳирона
моҳият
моҳиятан
моҳияти
моҳиҳо
моҳиҳои
моҳномаи
моҳо
моҳои
моҳона
моҳро
моҳтоб
моҳтоби
моҳу
моҳҳои
моҷаро
моҷарои
мро
мс
мтс
му
муаззам
муаи
муал
муаллим
муаллима
муаллимаи
муаллими
муаллимон
муаллимони
муаллимтаи
муаллиф
муаллифи
муаллифон
муаллифони
муаммар
муаммо
муаммои
муаммоҳои
муаррифи
муаррифии
муаррих
муаррихи
муаррихон
муаррихони
муассир
муассис
муассиса
муассисаи
муассисаҳо
муассисаҳои
муассиси
муассисон
муассисони
мубаддал
мубодила
мубодилаи
муборак
мубораки
мубориз
мубориза
муборизаи
муборизаро
муборизаҳои
муборизи
муборизони
мубоҳиса
мубрами
муваффақ
муваффақи
муваффақият
муваффақияти
муваффақиятҳои
муваффақтарин
муваққат
муваққатан
муваққати
муваққатии
мувози
мувозинати
мувофики
мувофиқ
мувофиқа
мувофиқан
мувофиқанд
мувофиқат
мувофиқати
мувофиқи
муд
мудаввар
мудаввари
мударрис
мударриси
муддат
муддате
муддати
мудел
мудели
мудир
мудири
мудирии
мудирияти
мудирон
мудом
мудофиа
мудофиави
мудофиавии
мудофиаи
мудохилаи
мужда
музаи
музаффар
музди
музеи
музмин
музмини
музокира
музокирот
музокироти
музофот
музофоти
музофотҳои
музыка
музыкальная
музыкальное
музыкальные
музыкальныи
музыки
муи
муиззи
муин
мукааб
мукаммал
мукаммали
мукаррама
мукобили
муколама
муколамаи
мукотиба
мукофот
мукофоти
мукофотонида
мукофотҳо
мукофотҳои
мукҳерҷи
мулаққаб
мулк
мулкест
мулки
мулкҳои
мулло
муллоқандов
муллоҷонов
муллоҷонова
мулоим
мулоқот
мулоқоти
мулоҳиза
мулоҳизаҳо
мулук
мум
мумбаи
муми
мумие
муминов
мумкин
мумтанеъ
мумтоз
мумтози
мун
мунаввар
мунаввара
муназзам
мунаққаш
мунаққид
мунаққиди
мунаққидон
мунаққидони
мунаҷҷим
мунаҷҷими
мундариҷа
мундариҷаи
мунзим
муни
мунира
муниципальным
мунозира
муносиб
муносибат
муносибати
муносибатҳо
муносибатҳои
муносиби
муносиботи
муноқиша
муноқишаи
муноқишаҳои
муноҷот
мунтазам
мунтазами
мунтазар
мунтасир
мунтахаб
мунтахаби
мунташир
мунши
муншии
мунҳо
мунҳои
муовин
муовини
муовинони
муовия
муодилаи
муодилаҳои
муодили
муоина
муоинаи
муолиҷа
муолиҷавии
муолиҷаи
муомила
муомилаи
муомилот
муомилоти
муосир
муосири
муосирро
муошират
муоширати
муоҳидаи
мур
мураббаъ
мураббаъро
мурабби
мураббигари
мураббие
мураббии
мураббо
мураккаб
мураккаби
мурат
мураттаб
мураттиб
мураттиби
мураттибон
мураттибони
мурда
мурдагон
мурдан
мурдод
муриди
муридон
муридони
мурило
муркия
мурманск
мурод
муродали
муроди
муродифи
муродов
муром
мурофиа
мурофиави
мурофиавии
мурофиаи
муроҷиат
муроҷиати
мурраби
мурси
муртазо
муру
мурури
мурч
мурғ
мурғи
мурғоб
мурғоби
мурғон
мусавваби
мусаввараи
мусаввараҳо
мусаввараҳои
мусаввир
мусаввири
мусаллам
мусаллаҳ
мусаллаҳи
мусаллаҳона
мусаллаҳонаи
мусалмон
мусалмони
мусалмонон
мусалмонони
мусанниф
мусаннифи
мусбат
мусбати
мусби
мусбии
мусиқавии
мусиқи
мусиқидон
мусиқидони
мусиқидонон
мусиқидонони
мусиқие
мусиқиест
мусиқии
мусиқиро
мусиқист
мусиқишинос
мусиқишиноси
мусиқишиносон
мусиқишиносони
мусиқию
муслим
муслимин
муслиҳиддин
мусо
мусобиқа
мусобиқаи
мусобиқаҳо
мусобиқаҳои
мусобиқот
мусобиқоти
мусови
мусодира
мусоев
мусоид
мусоидат
мусоиди
мусофир
мусофират
мусофирбари
мусофиркаши
мусофиркашони
мусофирон
мусоҳиба
мусоҳибаи
мусскии
мустамлика
мустамликави
мустамликавии
мустамликадори
мустамликадории
мустамликадорони
мустамликаи
мустамликаҳои
мустанад
мустанади
мустафо
мустақар
мустақил
мустақили
мустақилияти
мустақилона
мустақим
мустақиман
мустақими
мустаҳаб
мустаҳкам
мустаҳками
мустаҳкамии
мусулмон
мусулмони
мусулмонон
мусулмонони
мусулмонҳо
мутааллиқ
мутаассифона
мутаваллид
мутаваффои
мутаваққиф
мутадовилаи
мутакаллимон
мутамарказ
мутаносиб
мутаносибан
мутаносиби
мутараққи
мутарҷим
мутарҷими
мутасаввиф
мутафаккир
мутафаккири
мутафаккирон
мутафаккирони
мутафовит
мутахаллис
мутахассис
мутахассиси
мутахассисон
мутахассисони
муташаккил
муташаккили
мутақобила
мутақобилаи
мутақобили
мутеъ
мутлақ
мутлақи
мутобиқ
мутобиқат
мутобиқати
мутобиқи
мутобиқсозии
мутолиа
мутолиаи
мутолиоти
мутриб
мутриби
мутрибон
мутрибони
муттасил
муттасили
муттаҳам
муттаҳид
муттаҳида
муттаҳидаи
муттаҳидсозии
муттаҳидшавии
мутури
муфассал
муфассали
муфассирон
муфаттиш
муфаттиши
муфид
муфтии
мухаддир
мухаммад
мухаммас
мухбир
мухбири
мухлиси
мухлисон
мухлисони
мухолиф
мухолифат
мухолифати
мухолифи
мухолифин
мухолифини
мухолифон
мухолифони
мухталиф
мухталифе
мухталифи
мухталифро
мухтасар
мухтасари
мухтор
мухтори
мухторияти
мухторов
мучал
муш
мушак
мушаки
мушакии
мушакҳо
мушакҳои
мушарраф
мушаррафа
мушаххас
мушаххаси
мушаххасоти
мушки
мушкил
мушкили
мушкилиҳои
мушкилот
мушкилоти
мушовараи
мушовир
мушовири
мушовирони
мушоракаткунадагони
мушоҳида
мушоҳидаи
мушоҳидаҳои
муштарак
муштараки
муштари
муштарие
муштзани
мушфиқи
муъин
муъмин
муъминобод
муъминободи
муъминов
муъминон
муъовия
муъосир
муътабар
муътабари
муътадил
муътадили
муътазила
муътамад
муътақид
муяссар
муғ
муғул
муғули
муғулистон
муғулон
муғулҳо
муқаддам
муқаддас
муқаддаси
муқаддима
муқаддимави
муқаддимаи
муқаннаъ
муқаррар
муқарраргардида
муқаррари
муқаррарии
муқарраркардаи
муқаррарнамудаи
муқаррароти
муқарраршуда
муқим
муқими
муқимов
муқобала
муқобил
муқобилат
муқобилати
муқобили
муқобилияти
муқоваи
муқовимат
муқовимати
муқоиса
муқоисави
муқоисавии
муқоисаи
муқтадир
муҳаббат
муҳаббати
муҳаддис
муҳаи
муҳаммад
муҳаммадали
муҳаммадалии
муҳаммади
муҳаммадиев
муҳаммадризо
муҳаммадро
муҳаммадшариф
муҳаммадҷон
муҳаммадҷонов
муҳандис
муҳандиси
муҳандисии
муҳандисию
муҳандисони
муҳаррам
муҳаррик
муҳаррики
муҳаррикҳои
муҳаррир
муҳаррири
муҳаррирон
муҳаррирони
муҳаққиқ
муҳаққиқи
муҳаққиқон
муҳаққиқони
муҳиддин
муҳиддинов
муҳидинов
муҳим
муҳиме
муҳими
муҳимме
муҳимми
муҳимро
муҳимтарин
муҳимтарини
муҳит
муҳити
муҳитҳои
муҳлат
муҳлати
муҳокима
муҳокимаи
муҳориба
муҳорибаи
муҳорибаҳо
муҳорибаҳои
муҳосиб
муҳосира
муҳосираи
муҳофиз
муҳофизакор
муҳофизат
муҳофизати
муҳофизи
муҳофизони
муҳоҷир
муҳоҷират
муҳоҷирати
муҳоҷири
муҳоҷирон
муҳоҷирони
муҳр
муҳра
муҳраи
муҳраҳо
муҳраҳои
муҳри
муҳсин
муҳтаво
муҳтавои
муҳтарам
муҳташам
муҳташами
муҷаррад
муҷассама
муҷассамаи
муҷассамаҳои
муҷаҳҳаз
муҷиби
муҷихарфи
муҷрии
муҷтамаи
мфа
мы
мысли
мысль
мэи
мэри
мэриленд
мюллер
мюнхен
мянма
мянмар
мҳои
н
на
нааш
наб
набави
набард
набарди
набардҳои
набера
набераи
набзи
наби
набиев
набиева
набот
наботи
наботот
набототи
набототу
набошад
набошанд
набояд
набоҳат
набуд
набуда
набудааст
набуданд
набудани
нав
наваду
навадум
наварро
навбат
навбати
навбатии
навбаҳор
навбаҳори
навбуне
навгилем
навда
навдаи
навдаҳои
навдаҳояш
наве
наверо
навзод
навзодон
нави
навин
навини
нависанда
нависандагон
нависандагони
нависандаи
навишт
навишта
навиштаанд
навиштааст
навиштаи
навиштан
навиштани
навишташуда
навиштаҳо
навиштаҳои
навиштаҳояш
навиштаҷот
навиштаҷоти
навишти
навлин
наво
навобод
навободи
навовари
навоварона
наводир
навоз
навозанда
навозандаги
навозандагон
навозандагони
навозандаи
навозиш
навозиши
навои
навоии
навоиро
наволок
навор
наворбардори
наворбардории
наворгирии
навори
наворҳои
навохта
навохтани
навоҳии
навоҳои
наврас
навраси
наврасон
наврасони
навро
навру
навсози
навсозии
навтарин
навтарини
навтаъсиси
наву
навшаҳр
навъ
навъе
навъи
навъҳо
навъҳои
навҷавон
нагано
нагардад
нагардид
нагардида
нагардидааст
нагасаки
наги
нагии
нагирифт
нагирифтааст
наградами
награды
награждении
нагу
нагузашта
над
надежда
надида
надим
надиҳад
надод
надода
надодааст
надодан
надорад
надорам
надоранд
надошт
надошта
надоштанд
надоштани
наду
нае
нажод
нажоди
нажодпарасти
назамин
назамини
назар
назарбоев
назардошти
назаре
назарзода
назари
назарие
назарии
назария
назарияви
назариявии
назариявию
назарияи
назарияҳои
назаров
назарова
назарови
назарович
назароти
назаррас
назарраси
назаршо
назаршоев
название
названии
названия
наздаш
назди
наздик
наздиканд
наздики
наздикии
наздикиҳои
наздиконаш
наздикони
наздиктар
наздиктарин
наздику
наздисарҳади
наздисоҳили
назир
назира
назири
назиров
назм
назми
назму
назначен
назокат
назорат
назорати
назри
назриев
наи
наим
наими
нак
накард
накарда
накардаанд
накардааст
накардан
накарданд
накардани
наку
накунад
накунанд
налдо
налмилал
налмилали
налмилалии
налмилалиро
налмиллалии
налхалқи
налхалқии
нам
намад
намак
намаки
намаку
намакҳои
намангон
намангони
намебошад
намегардад
намегирад
намедиҳад
намедиҳанд
намедод
намедонад
намедонам
намедонист
намее
намекард
намекарданд
намекунад
намекунанд
намемонад
намеояд
намеравад
намерасад
намерасонад
наметавон
наметавонад
наметавонанд
наметавонист
наметавонистанд
намехост
намешавад
намешаванд
намешуд
нами
намибия
намии
намнок
намноки
намо
намоди
намое
намоед
намоем
намоз
намозгоҳ
намозгузорон
намозе
намози
намозро
намозҳои
намои
намоии
намоиш
намоишгоҳ
намоишгоҳи
намоишгоҳҳои
намоиши
намоишнома
намоишномаи
намоишномаҳо
намоишномаҳои
намоишҳо
намоишҳои
намонд
намондааст
намояд
намоянд
намоянда
намояндаги
намояндагии
намояндагиҳои
намояндагон
намояндагони
намояндагонро
намояндаи
намуд
намуда
намудаанд
намудааст
намудаи
намудам
намудан
намуданд
намудани
намудаш
намуди
намудор
намудҳо
намудҳои
намуна
намунави
намунавии
намунае
намунаи
намунаҳо
намунаҳое
намунаҳои
нан
нанд
наннаҳраи
наовард
наомад
напев
напевание
напевать
напеваться
напевно
напевность
напевныи
напеть
напеться
наполеон
например
нар
нара
нарав
нарави
нарасад
нарасид
нарасида
нарасидаанд
нарасидааст
нарасидани
нараспев
наргис
наргиси
нариманов
наримон
нарина
нарм
нармафзор
нармафзори
нармбаданҳо
нармбаданҳои
нарми
наро
народа
народная
народно
народного
народнои
народные
народных
народов
народы
нарх
нархи
нархҳо
наршахи
нас
насаб
насаби
насаф
насафи
насб
насби
населе
население
населения
населення
насиби
насим
насименто
насими
насируддини
насиҳат
наск
насл
наследие
наследии
наследия
насли
наслкуши
наслҳо
наслҳои
наср
насри
насриддин
насриддинов
насрии
насрони
насроние
насрулло
насруллоҳ
нассоҷи
настаран
настаълиқ
настоящее
насх
нат
натавонад
натавонист
натавониста
натавонистанд
наталя
натанҳо
наташа
нати
натичаи
натиҷа
натиҷаи
натиҷаҳо
натиҷаҳои
нато
натоиҷи
натрии
наттоқи
натурали
науел
наук
наука
науки
науру
науч
научная
научно
научнои
научные
научныи
научных
наф
нафар
нафарашон
нафаре
нафари
нафарро
нафас
нафаси
нафасии
нафаскаши
нафақа
нафақагир
нафақагири
нафақат
нафақаху
нафаҳот
нафис
нафиса
нафиси
нафоис
нафрат
нафс
нафси
нафт
нафталан
нафти
нафтро
нафту
нафъ
нафъи
нах
нахи
нахл
нахли
нахоҳад
наху
нахуст
нахуствазир
нахуствазири
нахусти
нахустин
нахустинаш
нахустини
нахустнамоиши
нахҳои
нации
национальная
национального
национальнои
национальности
национальные
национальныи
начала
начале
начало
начальник
начандон
наш
наша
нашавад
нашваш
нашви
наших
нашон
нашр
нашраш
нашри
нашрие
нашрия
нашриявии
нашрияи
нашрияҳо
нашрияҳои
нашршуда
нашуд
нашуда
нашудаанд
нашудааст
нашуданд
нашудани
нашъунамо
нашъунамои
ная
нағз
нағмаи
нақб
нақби
нақд
нақди
нақеъи
нақзи
нақл
нақли
нақлие
нақлу
нақси
нақш
нақша
нақшаи
нақшакаши
нақшаҳо
нақшаҳои
нақшбанд
нақшбандия
нақши
нақшофари
нақшро
нақшу
нақшҳо
нақшҳои
нақшҳоро
нақшҳояш
наққош
наққоши
наққошии
наққошиҳои
наҳанг
наҳаҷм
наҳв
наҳви
наҳзати
наҳи
наҳованд
наҳои
наҳор
наҳр
наҳри
наҳҷувон
наҷд
наҷиб
наҷмиддин
наҷмиддинов
наҷмуддини
наҷосат
наҷот
наҷоти
нбо
нг
нгари
нгарон
нги
нгуен
нгузори
нд
нда
ндаланг
ндани
ндр
ндрович
не
неапол
небраска
невада
невес
невис
невскии
невянскии
него
независимости
независимость
неи
нек
неки
некоторые
некоторых
некрасов
неку
нелинеи
нело
нелсон
нем
немецкии
немецкого
немис
немиси
немисҳо
нендес
ненетс
неолит
непал
нептун
нер
нери
неру
неругоҳи
неругоҳҳои
неруи
неруҳои
несколько
несоли
нест
нестам
нестанд
нести
нестор
несту
нет
нетане
нето
нефт
нефти
нефту
нехаев
неш
нештаршакл
неъмат
неъматзода
неъмати
неъматов
неъматулло
неъматҳои
неююрк
неҳру
нзода
ни
ниг
нигар
нигаред
нигарон
нигарони
нигаронида
нигаҳ
нигаҳбон
нигаҳбони
нигаҳдори
нигаҳдории
нигер
нигерия
нигина
нигор
нигора
нигораҳои
нигори
нигористони
нигориш
нигориши
нигошта
нигоштааст
нигоштаҳои
нигоҳ
нигоҳдори
нигоҳдории
нигоҳе
нигоҳи
нигоҳубин
нигоҳубини
нидавлати
нидавлатии
ниддин
нидерл
нидерланд
нидерланди
нидерландия
нидо
нидоев
ние
нижнедевитс
нижнее
нижнесергинскии
нижнеудинск
нижни
нижнии
нижняя
низ
низои
низом
низоми
низомиддин
низомие
низомии
низомиро
низомнома
низомномаи
низомов
низомулмулк
низомҳои
низори
низоъ
низоъҳои
нии
ниигата
ниинисте
ник
ника
никарагуа
никарагуани
никел
ники
никита
никитин
никитини
никол
никола
николае
николаев
николаевич
николаевка
николаевна
николаи
николас
николск
николское
никоноров
никоҳ
никоҳи
нил
нилгун
нилуфар
ним
нимаи
нимбие
ними
нимкураи
нимноқили
нимноқилҳо
нимо
нимои
нимпаи
нимру
нимфаъол
нимҳимоятгар
нимҳимоятгари
нимҷаз
нимҷазира
нимҷазираи
нин
нина
нинас
нинеи
ниро
ниру
нис
нисаи
нисбат
нисбатан
нисбати
нисби
нисбии
нисбияти
ниситорави
нисо
нисоб
нисоби
нисори
нисф
нисфи
нисфиру
нитерои
нитроген
нитрогени
них
нишаст
нишаста
нишастан
нишастани
нишасти
нишастҳои
нишеби
нишебии
нишебиҳои
нишон
нишона
нишонаи
нишонаҳо
нишонаҳои
нишондиҳанда
нишондиҳандаи
нишондиҳандаҳои
нишондод
нишондоди
нишондодҳои
нишони
нишонии
нишонҳои
нишопур
нишопури
нишот
нию
ния
ният
нияти
ниқоб
ниқоби
ниқрис
ниҳамдигари
ниҳамдигарии
ниҳод
ниҳода
ниҳоданд
ниҳоди
ниҳодҳои
ниҳои
ниҳоии
ниҳол
ниҳолаш
ниҳоли
ниҳолҳо
ниҳолҳои
ниҳон
ниҳони
ниҳонии
ниҳоят
ниҳояти
ниҷер
ниҷерия
нка
нн
нные
нныи
нных
но
ноае
ноб
нобаробар
нобаробарии
нобел
нобели
нобелівська
ноби
нобино
нобиғаи
нобовари
ноболиғ
ноболиғон
нобуд
нов
нова
новая
новбон
новгород
новеи
нови
новии
новинки
нович
ново
новоаннин
новобаста
нового
новое
новозибков
новои
новолялинскии
новониколаев
новооскол
новороссии
новосибирск
новостеи
новости
новоусман
новохоперск
новское
новхудо
новые
новыи
новым
новых
ногаҳон
ногаҳони
ного
ногоҳ
ногувор
ногузир
ногусастани
нодида
нодир
нодира
нодири
нодиршоҳ
нодон
нодуруст
нодурусти
ное
ноз
нозанин
нози
нозил
нозим
нозимов
нозир
нозири
нозирони
нозироти
нозои
нозук
нозуки
нозукиҳои
нои
ноиб
ноиби
ноил
нок
ноком
нокоми
нола
нолаи
ном
нома
номаи
номанд
номатлуб
номатлуби
номаш
номашон
номашро
номаълум
номаҳо
номаҳои
номбар
номбаршуда
номбурда
номбурдаи
номвар
номвари
номгу
номгузори
номгузории
номдор
номдори
номе
номз
номзад
номзади
номзадиашро
номзадии
номзадиро
номзадҳо
номзадҳои
номи
номид
номида
номидаанд
номидааст
номидан
номиданд
номии
номинантам
номинатсия
номинатсияи
номнавис
номро
ному
номуаи
номувофиқ
номумкин
номус
номусоид
номусоиди
номҳо
номҳои
нон
нонвои
нони
нонпази
нонро
нону
ноором
ноороми
нопадид
нопурра
нопурраи
нор
норак
норанҷи
норасоии
норберто
норвеги
норвегия
норд
нордон
норин
нормативныи
норматов
норози
норозиги
норозигии
норте
носир
носири
носиров
носирҷон
нот
нотавон
нотаи
нотакрор
нотакрори
нотамом
ноти
ноумед
ноумеди
ноустувор
ноф
нофеъ
нохун
нохуш
ночиз
ночор
ношинос
ношир
ношири
ноябр
ноябри
ноября
ноқил
ноқили
ноқис
ноҳамвор
ноҳия
ноҳияви
ноҳиявии
ноҳияе
ноҳияест
ноҳияи
ноҳияро
ноҳияҳо
ноҳияҳои
ноҷи
ноҷу
нро
нс
нська
нт
нтар
ну
нубувват
нуздаҳ
нуздаҳум
нузули
нуклеат
нукта
нуктаи
нуктаҳои
нукут
нулмилалии
нуму
нунес
нуни
нур
нурали
нуралиев
нуралишо
нурато
нурафшон
нурджанов
нури
нуриддин
нуриддинов
нурии
нуриҳои
нурмуҳаммад
нуробод
нуров
нурсултон
нурулло
нурҳо
нурҳои
нурҷонов
нус
нусаи
нуси
нусия
нусрат
нусратулло
нусха
нусхабардори
нусхаи
нусхаҳои
нусҳо
нутфа
нутқ
нутқи
нуфу
нуфуз
нуфузи
нуфус
нуқра
нуқраги
нуқрагин
нуқраи
нуқси
нуқсонҳои
нуқта
нуқтаи
нуқтаҳои
нуҳ
нуҳсаду
нуҳум
нуҷум
нуҷуми
ншо
ншон
ншстн
нштеи
ны
ные
ныи
ных
нью
ню
нюксен
нютон
няндомск
нҳо
нҳои
о
об
обама
обанбор
обанбори
обанборҳо
обанборҳои
обаш
оббози
обе
обзор
оби
обигарм
обид
обидов
обидова
обидпур
обии
област
областеи
области
областнои
область
обод
ободи
ободии
ободон
ободони
ободонии
ободу
обозначении
обон
обороны
образ
образи
образование
образовании
образования
образованиям
образҳои
обро
обру
обсабзҳо
обу
обучения
обхези
обхокиҳо
обшорон
общая
общеи
общества
общественных
общество
общии
объедине
объект
объекти
объективи
объектҳои
объявил
обязанности
обҳои
ов
ова
овар
оварад
оваранд
овард
оварда
овардаанд
овардааст
овардаи
овардан
оварданд
овардани
овардашуда
овезон
овехта
ович
овиэдо
овоз
овоза
овозаи
овозаҳо
овоздиҳи
овоздиҳии
овози
овозии
овозро
овозхон
овозхони
овозхонии
овозхонони
овозхонҳои
овозҳо
овозҳои
овозҳоро
овони
огае
огоз
огоҳ
огоҳи
огоҳии
огурт
од
ода
одам
одами
одамият
одамон
одамоне
одамони
одамонро
одамро
одаму
одат
одатан
одати
одатҳои
одди
оддии
одесса
оди
одии
одил
одилона
один
одина
одинаев
одиссея
одна
однако
одного
однои
одном
одоб
одоби
одобу
ое
озан
озар
озарб
озарбои
озари
озими
озмоишгоҳ
озмоишгоҳи
озмоиши
озмоишҳои
озмун
озмуни
озмунҳои
озод
озода
озодагон
озоди
озодии
озодихоҳи
озодихоҳии
озодиҳои
озодкунии
озодона
озон
озор
озорбои
озуқа
озуқавори
ои
оид
оиди
оила
оилааш
оилави
оилавии
оиладор
оилаи
оилаҳои
оилнд
оин
оина
оинаи
оини
оиннома
оинномаи
оинҳои
оиша
ок
окато
около
округ
округа
округи
окс
оксиген
оксигени
оксид
оксиди
оксидшавии
оксфорд
окт
октава
октаваи
октябр
октябри
октябрскии
октябрь
октября
ол
олаи
олам
олами
оламие
оламро
олати
олга
олег
олегович
оли
оливеи
оливер
олии
олим
олимаи
олими
олимов
олимон
олимони
олимону
олимпи
олимпиадаи
олимпии
олимхон
олимҷон
олиро
олиташаккул
олиҳаи
олм
олмон
олмони
олмонии
олмониҳо
олмонро
олои
олоско
олот
олоти
олтои
олу
олуболу
олуда
олуча
олхов
олховат
олхонск
ольга
ом
омад
омада
омадаанд
омадааст
омадам
омадан
омаданаш
омаданд
омадани
омадед
омади
омаду
омезиш
омезиши
омехта
омехтаи
омие
омил
омили
омилҳо
омилҳои
омма
оммави
оммавии
оммаи
омода
омодаги
омодагии
омодаи
омодасозии
омонаи
омор
омори
омории
омос
омоси
омосҳои
омск
ому
омударе
омузиши
омул
он
она
онанд
онвақтаи
оне
онегин
онежск
онес
они
оникс
онлаи
онов
онон
ононро
онро
онтарио
онур
ончи
оны
онҳо
онҳое
онҳоро
онҳост
онҳоянд
онҷо
оон
ооо
опевание
опевать
опера
операи
оператор
оператори
оператсиони
оператсионии
операҳои
опеть
описание
описываемои
оппозисиюн
оппозитсиони
определитель
оптика
оптикаи
оптики
оптикии
опыт
ор
орад
оранд
орасио
органи
организации
организация
организм
организми
организмро
организмҳо
организмҳои
органики
органикии
органҳои
орд
ордабоси
орден
ордена
ордени
орденом
ордену
орденҳои
орджоникидзе
орди
ординатори
орду
ордубад
оре
орегон
орезуно
оренбург
орзу
орзуи
орзуҳои
ори
орие
оризаҳои
оризонте
оринҷ
орипов
орис
орисса
ористано
ористоно
ориф
орифи
орифов
орифон
орифона
орифони
орк
оркестр
оркестри
оркестрҳои
орландо
орлов
ормони
ормонҳои
оро
орои
ороиш
ороиши
ороишии
ороишоти
ором
оромгоҳ
оромгоҳи
ороми
оромии
ороста
ортега
ортис
ортодоксии
орфографическии
орҷоникидзе
орҷоникидзеобод
ос
осака
осаки
освалдо
осеб
осебе
осеби
осебҳои
осени
осетияи
оси
осие
осими
осин
осипов
осиф
оск
оскар
осло
осмон
осмони
осмонии
осмонро
осмонҳо
основе
основные
основы
особенности
осоишгоҳ
осоишгоҳи
осоишгоҳҳои
осоишта
осоиштаи
осон
осони
осор
осораш
осоре
осори
осору
осорхона
осорхонаи
осорхонаҳо
осорхонаҳои
оспрингз
остин
остит
остона
остонаи
остони
осторо
остров
острова
островскии
острогожск
осуда
от
ота
отахонова
оташ
оташафру
оташбас
оташборгони
оташи
оташин
оташкада
оташпора
оташро
оташу
оташфишон
оташфишони
оташфишонии
отв
отд
отделение
отделения
отелло
отец
отечественнои
оти
открытия
отношении
отношения
отпевальныи
отпевание
отпевать
отпеваться
отпеть
отряди
отрядҳои
отставку
отто
отче
отчет
оф
офарандаи
офарид
офарида
офаридаанд
офаридааст
офаридааш
офаридаи
офариданд
офаридани
офаридаҳои
офаридаҳояш
офаридгор
офариниш
офариниши
офаринишшиносии
офати
офатҳои
официально
официальном
официальныи
офтоб
офтоби
офтобпараст
офтобро
офтобру
офтобу
офф
ох
охир
охират
охири
охирин
охирини
охирон
охирҳои
охунд
охунов
оценка
очень
очерк
очерки
очерку
очеркҳо
очеркҳои
ош
оше
оши
ошиқ
ошиқи
ошиқин
ошиқон
ошиқона
ошиқонаи
ошкор
ошкоро
ошно
ошнои
ошомидани
ошти
оштии
ошу
ошур
ошхона
ояд
оянд
оянда
ояндаи
ояндаро
оят
ояти
оятуллоҳ
оятҳои
оғлу
оғоз
оғози
оғохон
оғу
оғуз
оқ
оқибат
оқибати
оқибатҳои
оқил
оқилона
оқилонаи
оқои
оқохон
оқсу
оқсуи
оқтеппа
оҳ
оҳаи
оҳак
оҳаксанг
оҳан
оҳанг
оҳангар
оҳангари
оҳангарон
оҳанги
оҳангсоз
оҳангсози
оҳангсозони
оҳангу
оҳангҳо
оҳангҳои
оҳани
оҳанин
оҳану
оҳар
оҳи
оҳиста
оҳу
оҳуи
оҷонсии
оҷонсиҳои
п
па
пабло
павел
павлов
павлович
павловск
павловскии
падар
падараш
падарашро
падари
падару
падид
падида
падидаи
падидаҳо
падидаҳои
падидор
падила
падма
падруд
пае
пажмурда
пажу
пажуҳишгоҳи
пазириши
пазируфт
пазируфта
пазируфтанд
пазируфтани
паи
пак
пакистан
пакистана
пал
палав
паланг
палангон
паласиос
палата
палатаи
палатаҳо
палау
палеозои
палеолит
палеолити
палех
палласов
палма
палмас
палов
памир
памира
памирские
памплона
памяти
памятники
памятников
память
пан
панама
панами
панд
пандемия
пандемияи
панди
панду
панин
панир
панорама
паноҳ
паноҳгоҳ
паноҳгоҳи
паноҳи
пантуркизм
панфилов
панҷ
панҷа
панҷаи
панҷакент
панҷакенти
панҷараи
панҷвақта
панҷгонаи
панҷи
панҷоб
панҷоби
панҷоҳ
панҷоҳу
панҷру
панҷсаду
панҷсола
панҷсолаи
панҷум
панҷуми
панҷумин
панҷшанбе
панҷшер
паола
папа
папаи
папая
папуа
пар
пара
парагваи
паразит
паразити
паразитология
паразитологияи
паразитҳои
параи
параллели
параметр
параметрҳои
парана
паранаэнсе
паранда
парандагон
парандаи
парандапарвари
парандаҳо
парандаҳои
парастиш
парастиши
парастори
парасту
парванда
парвандаи
парвандаҳо
парвандаҳои
парвариш
парвариши
парваришу
парвиз
парвин
парвоз
парвози
парвозҳо
парвозҳои
парвона
парда
пардаи
пардаҳои
пардо
пардохт
пардохта
пардохтааст
пардохтанд
пардохти
пардохтҳои
паредес
парем
парешон
пари
париж
парк
парки
парламент
парламента
парламенти
парлумон
парлумони
парлумонии
парлумонро
пароканда
парокандагии
парокандаи
парра
парранда
паррандагон
паррандаи
паррандаҳо
паррандаҳои
партави
партизани
партии
партия
партиявии
партияи
партоб
партоби
партов
партовҳои
партоев
партофта
партофтан
партофтани
парфянском
парчам
парчами
парҳез
парҳези
пас
пасванд
пасванди
пасвандҳои
паси
паскал
пасон
пасошу
паст
пасти
пастии
пастиҳои
пасттар
пасттарин
пасту
пастхамии
пастхамиҳои
пател
патент
патенти
патологи
патрик
патритсио
пауло
паулу
пахта
пахтаарал
пахтаги
пахтагин
пахтаи
пахтакор
пахтакори
пахтакории
пахтаобод
пахтатозакуни
пахш
пахши
пашинян
пашм
пашми
пашмин
пашту
паштунҳо
паэс
паҳлави
паҳлавии
паҳлавон
паҳлавони
паҳлавонон
паҳлавонони
паҳлу
паҳлуи
паҳлуҳои
паҳн
паҳнбарг
паҳни
паҳнку
паҳновари
паҳнои
паҳноии
паҳншави
паҳншавии
пе
певать
певаться
певец
певица
певичка
певун
певунья
певуче
певучесть
певучии
певческая
певческии
певчество
певчии
педагог
педагоги
педагогии
педагогика
педагогикаи
педагогики
педагогическии
педагогического
педро
пеи
пекин
пектини
пелотас
пение
пенсилвания
пенье
пеня
пер
пералта
первая
первого
первое
первои
первоисточника
первомаи
первые
первыи
первых
перевод
перевода
перед
передаче
переи
переименовании
перепев
перепевание
перепевать
перепеваться
перепевка
перепеть
перепеться
переписи
перепись
перераб
перес
период
перм
пермь
перомуни
персидская
персидскии
персидско
персонажи
персонажҳо
персонажҳои
перспективы
перу
перуи
песельник
песельница
песельныи
песенка
песенник
песенница
песенно
песенность
песенныи
песнетворчество
песни
песнопевец
песнопение
песнословие
песнотворец
песнотворчество
песнь
песня
пестяк
петер
петербург
петербургскии
петербургское
петие
петр
петров
петрович
петровскии
петроград
петрография
петропавловск
петросян
петрушевскии
петушин
петыи
петь
петье
петься
печ
печени
печида
печонида
пеш
пеша
пешаи
пешаки
пешакии
пешбар
пешбарандаи
пешбари
пешбини
пешбинишуда
пешбурди
пешво
пешвое
пешвоз
пешвои
пешгири
пешгирии
пешгу
пешгузаштаи
пешгуфтор
пешдодие
пеши
пешин
пешина
пешинаи
пешини
пешиние
пешкаш
пешкаши
пешниҳод
пешниҳоди
пешниҳодшуда
пешниҳодҳо
пешниҳодҳои
пешоб
пешобдон
пешобро
пешоброн
пешоброҳа
пешовар
пешояндҳои
пешрав
пешрави
пешравии
пешрафт
пешрафта
пешрафтаи
пешрафти
пешсаф
пешсафи
пешсафони
пештар
пештара
пештараи
пештоқ
пештоқи
пешқадам
пешқадами
пи
пианинонавоз
пиво
пие
пиесаҳои
пизишк
пизишки
пизишкии
пии
пиктография
пилла
пиндори
пиндошта
пинеда
пинежск
пини
пинто
пинҳон
пинҳони
пинҳонии
пионери
пир
пиренеи
пирес
пири
пиров
пиромуни
пирон
пирони
пиронсоли
пиру
пирумшоев
пирях
пиряхи
пиряхҳо
пиряхҳои
писанд
писанди
писандида
писар
писараш
писарашро
писарбача
писаре
писари
писарон
писаронаш
писарони
писарро
писару
писатель
писта
письма
питер
питр
питфи
пифагор
пишминскии
пк
пко
плазма
плазмаи
пластики
пластмасса
плата
платина
платон
платформа
платформаи
платформаҳои
плеи
пленуми
плеханов
плисетс
плодоводство
площадь
плюс
по
победа
победителям
поведение
поверхностных
повест
повести
повестҳои
погар
погоды
погост
под
подгоренск
подгот
подоши
подпевала
подпевание
подпеватель
подпевать
подпевка
подпеть
подписал
подполковник
подтанҳо
подшо
подшох
подшоҳ
подшоҳи
подшоҳии
подшоҳон
подшоҳони
пое
поезд
поздняк
пои
поин
поини
поинтар
пок
показателеи
поки
покиза
покистон
покистони
покровка
поку
пол
поле
полиграфии
полизи
полимерҳо
полимерҳои
полинезия
полинезияи
полис
полиси
политехники
политехникии
политиздат
политика
политике
политики
политическая
политические
политическии
политических
политическои
полк
полки
полковник
полковники
полномочии
полныи
поло
положение
полскии
полу
получил
полша
поляки
поляна
помидор
помир
помири
помиру
помощью
пон
понздаҳ
понздаҳум
пони
понте
понғоз
понғози
поп
попевать
попевка
попесенныи
попеть
попи
попов
поповка
популярная
попуо
пора
порае
пораи
пораҳои
порис
порк
порлумон
порлумони
породы
порс
порси
порсигу
порсии
порсо
порт
портал
портали
порти
порто
портр
портрет
портрети
портретҳои
португали
португалия
портҳо
пору
порча
порчаи
порчаҳо
порчаҳои
пос
посад
посбон
посбони
посвященнои
посдори
посдорони
посе
поселение
поселении
поселков
поси
после
последнеи
последнии
пособие
пост
постановление
постоянного
посух
посухи
потенсиали
поче
почему
почеп
починок
почта
почтаи
почти
пош
пошида
пошидани
пошии
пошо
пошху
поэзии
поэма
поэтикаи
поя
пояаш
поягузори
поягузорони
пояи
пояш
пояҳои
права
правда
правители
правительства
правительство
право
православи
православии
прага
прадеш
прадо
праи
практика
практикум
практическои
прасад
предикативи
предмети
предприятии
председатель
президент
президента
президенте
президенти
президентии
президентиро
президентом
президентро
президенты
президентҳои
президиума
президиуме
президиуми
премии
премия
премьер
премьера
премія
пресс
прето
префектураи
префектураҳои
при
приволжск
пригороднии
прието
приложение
прилук
прим
прима
применение
примере
примечания
приморск
принсип
принсипи
принсипҳои
принципы
принял
припев
припевание
припевать
припеваться
припеваючи
припевка
припевочка
припеть
припеться
природа
прити
про
проблема
проблемаи
проблемаҳои
проблемы
проверено
провинции
прогноз
программа
программирования
программы
прогресс
продюсер
продюсери
проект
проекта
произведения
производства
происхождение
прокофев
прокуратура
прокуратураи
прокурор
прокурори
пролетар
пролетари
пролетариат
промышленности
пропевать
пропеваться
пропетие
пропеть
просвещение
простата
протекторати
протестанти
протестантҳо
против
протокол
протоколи
протон
проф
профессор
профессори
профессорон
профили
профиль
профилҳои
прохоров
процессе
процессы
пруссия
псалмопевец
псалмопение
псальмопевец
псиг
психологи
психологии
психология
психологияи
псков
псориаз
птаун
птолемеи
пу
публикации
публикация
публисист
публисисти
публитсист
публитсисти
публитсистии
пудина
пуинт
пул
пулаки
пулакчаҳои
пуле
пулеме
пули
пулии
пулис
пулро
пулҳо
пулҳои
пур
пурарзиш
пурарзиши
пурзу
пури
пуриқтидор
пуриқтидори
пурра
пурраги
пурраи
пурсамар
пурсамари
пурси
пурсид
пурсии
пурсиш
пурсиши
пуршараф
пурқувват
путеводитель
пути
путин
путина
путь
пухта
пухтан
пухтани
пухтунхво
пучак
пучеж
пушаи
пушкин
пушкини
пушт
пуштаку
пушташ
пушти
пуштибони
пуштибонии
пушту
пуэрто
пять
р
ра
раб
раббони
рабек
рабеъ
раби
рабиев
рабои
работ
работе
работи
работы
рабт
рабуда
рав
равад
равалпинди
раванд
раванди
равандҳо
равандҳои
равзанаи
рави
равии
равиро
равиш
равиши
равишҳои
равия
равияи
равияҳои
равнақ
равнақи
равновесия
раво
равобити
раводид
равон
равона
равонаш
равони
равонии
равону
равоншинос
равоншиноси
равоншиносии
равшан
равшани
равшании
равшанфикрони
равған
равғани
равғанҳои
раг
раги
рагҳо
рагҳои
рад
рада
радабандии
радаи
раддабандии
радди
раджабов
ради
радиатсиони
радиатсияи
радикали
радио
радиоактив
радиоактиви
радиову
радиои
радиомавҷҳо
радиотехника
радиошунавони
радиошунавонии
радиуси
радиф
радифи
радифҳои
рае
раев
ражабов
раз
разави
развитие
развитии
развития
раздел
различных
разм
размещение
разми
размии
разных
разъезд
раи
раис
раиси
раисии
раисиҷумҳур
раисиҷумҳури
раисони
раисҷумҳур
раисҷумҳури
рак
ракета
ракеты
раки
ракитян
ракъат
ракъати
рам
рама
рамазон
рамз
рамзи
рамзии
рамзҳо
рамзҳои
рамирес
рамиро
рамон
рамос
ран
ранг
ранга
рангаи
рангаш
ранги
рангин
рангини
рангоранг
рангу
рангубори
рангҳо
рангҳои
ранд
рани
ранкагуа
ранов
ранҷ
ранҷи
ранҷу
рао
раро
рас
расад
расадхона
расадхонаи
расид
расида
расидаанд
расидааст
расидаи
расидан
расиданд
расидани
расм
расман
расми
расмие
расмии
расмият
расму
расмҳо
расмҳои
расо
расонад
расонаи
расонанд
расонаҳо
расонаҳои
расонд
расонда
расондаанд
расондааст
расондан
расонданд
расондани
расонид
расонида
расонидаанд
расонидааст
расонидан
расониданд
расонидани
распев
распевание
распевать
распеваться
распевец
распевка
распевно
распевность
распевныи
распеть
распеться
распоряжение
расс
рассказы
рассом
рассоми
рассомии
рассомон
рассомони
растани
растаниҳои
растении
растения
растениями
расул
расулзода
расули
расулие
расулов
рат
ратгоҳ
ратгоҳи
ратгоҳҳои
рати
ратон
ратсионали
раул
рауф
рафаэл
рафиқ
рафт
рафта
рафтаанд
рафтааст
рафтам
рафтан
рафтанд
рафтани
рафти
рафтор
рафтори
рафтору
рафторҳои
рафту
рафъ
рафъи
рах
рахи
рахимов
рахманинов
рахмон
рахна
рахон
рахҳои
раш
рашид
рашиди
рашт
рашти
раъду
раъи
раъно
рағбат
рағбати
рақ
рақам
рақами
рақамии
рақамҳо
рақамҳои
рақи
рақиб
рақиби
рақибон
рақибони
рақобат
рақобати
рақс
рақси
рақсии
рақсро
рақсу
рақсҳои
рақул
раққос
раққоса
раққосаи
раққоси
раҳ
раҳбар
раҳбари
раҳбарии
раҳбарони
раҳи
раҳим
раҳимбек
раҳимбии
раҳимбоев
раҳимзода
раҳими
раҳимов
раҳмат
раҳмати
раҳматов
раҳматова
раҳматулло
раҳматуллоев
раҳмон
раҳмони
раҳмонов
раҳнамо
раҳнамои
раҳо
раҳои
раҳоро
раҳпаи
раҳсипор
раҷ
раҷаб
раҷабали
раҷабзода
раҷаби
раҷабов
раҷабова
раҷив
рбк
рбо
ргб
рд
рда
рдааст
рдаи
рдамчии
рдан
рданд
рдани
рди
рдор
рдҳо
рдҳои
ре
реаксия
реаксияи
реаксияҳои
реактиви
реактивии
реал
реализм
реализми
реалисти
реальныи
ревир
револютсияи
революции
революция
рег
регар
регби
регзор
реги
региона
регионов
регионы
регистон
регистони
регистри
регу
ред
редаксияи
редактор
редакциеи
редакция
редкол
редонда
реж
режевскои
режим
режими
режиссе
рез
реза
резерфорд
рези
резини
резишгоҳ
резишгоҳи
результате
результаты
реи
рек
река
реки
реклама
рекомендации
рекорд
рекорди
ректор
ректори
релефи
рели
религии
религия
ремесла
ренан
ренато
рене
рентгени
репев
репертуари
реро
рес
ресифе
ресмон
ресмони
республик
республика
республикаи
республике
республики
ресурсов
ресурсы
референдум
рехт
рехта
рехтани
речи
реша
решаи
решакан
решашинохтии
решаҳои
решение
решении
решения
реҷаи
ри
риа
рибеи
ривас
ривер
ривера
риверо
ривлин
ривое
ривоят
ривояте
ривояти
ривоятҳо
ривоятҳои
ривоҷ
ривоҷи
ривоҷу
рига
рид
ридавлати
ридавлатии
ридиҳанда
рие
ризо
ризоев
ризои
ризоият
ризоияти
ризоқулихони
рии
риимкон
рика
рикаги
рикардо
рико
рим
рима
риман
риманқул
рими
римиҷоз
римодди
римоддии
римскии
римустақим
римуқаррари
рин
ринавбатии
ринизоми
рином
рио
риодди
риорганики
риос
риоя
риояи
рирасми
рирасмии
рирасон
рирасони
риро
рис
рисола
рисолае
рисолаи
рисолат
рисолати
рисолатун
рисолаҳо
рисолаҳои
ристони
рита
ритик
ритм
ритми
рифаъол
рихтер
ричард
ричашмдошт
риш
ришгарон
риши
ришие
ришта
риштаи
риштаҳои
ришчие
ришқа
ришҳо
ришҳои
рию
рия
рияи
риқонуни
риқонунии
риҳо
риҳои
рк
ркп
ркуни
ркунии
рматов
рмуҳаммади
рн
рнс
рнч
ро
роб
роберт
роберто
роби
робиаи
робин
робинсон
робита
робитаи
робитаҳои
робод
ров
рова
ровари
ровен
рови
ровие
ровии
рогнедин
род
родезиаи
родник
родолфо
родриге
родригек
родригес
родриго
рое
рождения
роз
роза
рози
розиги
розигии
розия
розиқов
рои
роиҷ
рок
рока
роквори
роквории
роке
роки
року
рокҳои
роландо
роли
роль
ром
рома
роман
романи
романов
романс
романсҳо
романтизм
романтики
романтикии
романҳои
ромео
ромеро
ромин
ромит
ромити
ромненскии
рон
рона
роналд
роналдо
ронанда
ронандаи
ронд
ронда
рондааст
рондан
ронданд
рондани
рони
ронкуни
ронкунии
роншавии
рообод
роободи
рос
роса
росарио
россии
россия
россияи
россияро
россошан
рост
роста
рости
росткунҷа
росткунҷаи
ростов
ростови
рот
рота
ротеппа
рох
рохас
рохбари
рохбарии
рохи
рохии
роша
роштқалъа
роғ
роғун
роққум
роҳ
роҳандози
роҳандозии
роҳат
роҳати
роҳаш
роҳбар
роҳбари
роҳбарии
роҳбарикунанда
роҳбарикунандаи
роҳбарият
роҳбарияти
роҳбарон
роҳбарони
роҳе
роҳи
роҳнамо
роҳнамои
роҳнамоии
роҳо
роҳои
роҳпаи
роҳрав
роҳро
роҳсози
роҳу
роҳхат
роҳхати
роҳҳо
роҳҳои
роҷер
роҷеъ
рп
рпа
рр
рро
рру
рсдрп
рсола
рсолаи
рсс
рсфср
рт
ртар
ртсу
ру
руанда
рубен
рубинскии
рубио
рубл
рублеи
рубли
рубоб
рубоби
рубои
рубоие
рубоии
рубоиҳо
рубоиҳои
руд
рудаки
руднян
рудолф
руз
рузи
руи
руис
рукни
рукнҳои
руководство
рулло
руллоев
рум
румас
руми
румие
румини
руминия
румиҳо
румонтики
румынии
руни
рус
русзабон
руси
русии
русиро
русия
русияву
русияи
русияро
руслан
русро
руссия
русская
русские
русскии
русских
русско
русского
русское
русскои
русском
рустам
рустами
рустамов
рустани
рустании
рустанипарвари
рустаниро
рустаниҳо
рустаниҳое
рустаниҳои
рустаниҳоро
русто
рустои
рустоҳои
русу
русуми
русҳо
рут
рутба
рутбаи
рутбаҳои
рух
рухи
рухсатии
рухшона
ручеи
рушд
рушде
рушди
рушду
руғ
руғи
руғҳо
руғҳои
руқ
руҳ
руҳи
рф
рхаи
рхон
рхона
ры
рынок
рэи
рэп
рэпер
рюр
рязан
рғон
рғони
рғонтеппа
рғули
рҳ
рҳизби
рҳо
рҳои
с
са
саакашвили
сабаб
сабабгори
сабаби
сабабҳо
сабабҳои
сабадел
сабақ
саббоҳ
сабз
сабза
сабзавор
сабзавот
сабзавоти
сабзавоткори
сабзалиева
сабзанов
сабзи
сабзида
сабзиш
сабзиши
сабзтоб
сабзу
сабк
сабки
сабку
сабо
сабоҳ
сабоҳат
сабр
сабру
сабт
сабти
сабтиномшуда
сабтҳои
сабу
сабук
сабукду
сабуки
сабуктар
сабҳа
саввум
савганд
савганде
савганди
савдо
савдои
савин
савинская
савияи
савияҳои
савод
саводи
саводноки
савол
саволи
саволу
саволҳои
савор
савора
савораи
савори
савр
саврон
савсан
савт
савти
савту
саг
саги
сад
сада
садаи
садама
садамаи
садаф
садақа
садаҳои
садбарг
садбарги
садди
саддом
сади
садо
садои
садонок
садорати
садоро
садояш
садоқат
садоҳо
садоҳои
садр
садри
садриддин
садруддини
садсолаҳо
саду
садҳо
сае
сазовор
сазовори
саи
саид
саида
саидали
саидзода
саиди
саидмурод
саидмуродов
саидов
саидович
саидқул
саитама
сак
саки
сакои
сакоиҳо
саксония
сактаи
сал
салазар
салаллоҳу
салам
саламанка
салас
салвадор
салиб
салиби
салим
салими
салимов
салинас
салла
салмон
салмони
салом
саломат
саломати
саломатии
салоҳ
салоҳиддин
салоҳият
салоҳияти
салоҳиятҳои
салтанат
салтанате
салтанати
салтанатии
салто
салқин
салҷуқи
салҷуқие
сам
самад
самадов
самаки
самар
самара
самарабахш
самараи
самаранок
самараноки
самаранокии
самари
самарканд
самарқанд
самарқанди
самарқандро
самарқанду
самбо
самбои
сами
самиев
самими
самимият
самимона
самин
самоа
самоаи
самои
самоле
самт
самти
самтҳои
самуэл
самыи
самых
сан
сана
санавбар
санад
санади
санадҳо
санадҳои
санаи
санам
санандаҷ
санаҳои
санг
сангвор
санги
сангин
сангини
сангинов
санглох
сангту
сангу
сангфарш
сангҳо
сангҳои
сандра
сандро
санду
сандуқи
санитари
санитарию
санкт
сано
саноат
саноати
саноатии
саноеи
саноеъ
санои
санскр
санскрит
санскрити
сант
санта
сантана
сантандер
сантиметр
санто
сантос
сантяго
санчес
санъат
санъати
санъаткори
санъатро
санъатшинос
санъатшиноси
санъатҳои
санъо
санҷаи
санҷар
санҷид
санҷида
санҷиш
санҷиши
саодат
саодати
сар
сара
сараввал
саразм
саразми
сарам
саранҷом
саратов
саратон
саратони
сарахбори
сарахси
сараш
сарашро
сарбадорон
сарбанд
сарбанди
сарбаста
сарбоз
сарбози
сарбозон
сарбозони
сарбозро
сарв
сарвазир
сарвазири
сарвазирон
сарвазирони
сарвазирро
сарвар
сарвари
сарварии
сарварони
сарват
сарвати
сарватманд
сарватманди
сарватмандон
сарватмандтарин
сарватҳои
сарви
сарвиноз
сарвобод
саргарми
саргаҳи
саргузашт
саргузашти
саргузаштҳои
саргурд
сард
сардабири
сардафтари
сарди
сардиния
сардириже
сардор
сардори
сардории
сардорони
сарду
сардухтури
сарез
сареъ
сарзамин
сарзамине
сарзамини
сарзаминҳои
сарзаниш
сари
сариағаш
саривақт
саридораи
сарикиштии
сариосие
сарипул
сарисинагии
сарихосори
саричашма
саричашмаи
сария
саркаши
саркоргардони
саркотиби
сарку
сарлавҳа
сарлавҳаи
сарлашкар
сарлашкари
сарлашкарони
сармо
сармои
сармоя
сармоягузори
сармоягузории
сармояи
сармуаллим
сармураббии
сармутахассис
сармутахассиси
сармуҳандиси
сармуҳаррир
сармуҳаррири
сарнавишт
сарнавишти
сарнагун
сарнагунии
сароб
сарои
сароида
саромади
саромадони
сарони
саросар
саросари
сароянда
сарояндаги
сарояндагии
сарояндагон
сарояндагони
сарояндаи
сарпарасти
сарпарастии
сарпу
саррае
сарредаксияи
сарро
сарсухани
сартарошхона
сару
сарукор
сарулибоси
сарф
сарфармондеҳи
сарфароз
сарфи
сарфу
сарходими
сарчашма
сарчашмаи
сарчашмаҳо
сарчашмаҳои
саршавии
саршиноси
саршор
саршумори
саршумории
саръ
сарқанд
сарқонун
сарқонуни
сарҳад
сарҳадди
сарҳади
сарҳадии
сарҳадҳои
сарҳанг
сасанидском
сат
сати
сатмадор
сатмадори
сатмадорон
сатмадорони
сато
сатр
сатри
сатрҳои
саттор
сатторзода
саттори
сатторов
сату
сатурн
сатшинос
сатшиноси
сатшиносии
сатяҷит
сатҳ
сатҳаш
сатҳи
сатҳои
сатҳҳои
сауд
сауди
саул
саф
сафави
сафавие
сафар
сафарали
сафарбар
сафари
сафармурод
сафармуҳаммад
сафарнома
сафаров
сафарҳо
сафарҳои
сафед
сафеда
сафедаи
сафедаҳо
сафедаҳои
сафеди
сафедор
сафедпу
сафедтоб
сафи
сафиева
сафина
сафинаи
сафир
сафири
сафирони
сафо
сафол
сафоли
сафорат
сафорати
сафоратхонаи
сафун
саффи
саффорие
сафҳаи
сафҳои
сахалин
сахароза
саховат
сахт
сахте
сахти
сахтиаш
сахту
саъд
саъди
саъдиев
саъдии
саъдулло
саъдуллоев
саъи
саъид
саъю
сағир
сақфи
саққиз
саққо
саҳ
саҳа
саҳар
саҳеҳ
саҳеҳи
саҳифа
саҳифаи
саҳифаҳо
саҳифаҳои
саҳл
саҳм
саҳмгузори
саҳми
саҳмия
саҳмияҳо
саҳмияҳои
саҳна
саҳнави
саҳнавии
саҳнагузори
саҳнаи
саҳнаҳои
саҳни
саҳоба
саҳобагони
саҳомии
саҳро
саҳрои
саҳроии
саҳҳоми
саҳҳомии
саҷда
сб
сборник
сбук
сведения
свердловск
свет
света
светлана
светлояр
свобода
свободненскии
свое
своего
своеи
свои
своих
свою
своҳили
связи
се
себ
себастиан
себастян
себи
себистон
себу
себя
сев
севастопол
севвум
северного
севернои
северо
севиле
севинч
севум
севумин
сегменти
сеговия
сегодня
сегона
сегонаи
сегоҳ
сегундо
сегура
седо
сезар
сездаҳум
сеи
сеиба
сектори
секунҷа
секунҷаи
сел
села
селе
селевкие
селексия
селексияи
селен
сели
селиванов
селлюлоза
село
сельского
сельское
сельскохозяи
семашко
семе
семеи
семенов
семеновская
семент
семилук
семинари
семинарҳо
семинарҳои
семоҳаи
семь
сен
сена
сенария
сенарияи
сенат
сенати
сенатор
сенатори
сенегал
сензура
сент
сентнер
сентябр
сентябри
сентября
сер
серафимович
сераҳоли
серби
сербистон
сербия
сервер
серге
сергеевич
сергеи
сердце
сержант
сержанти
сери
сериал
сериали
серие
серии
серишевскии
серия
серкан
сермаҳсул
сернам
сероб
серобу
серовскии
серра
серрано
серу
серхио
сершира
сершох
сершумор
сершумори
серғизо
серҳаракати
серҳосил
сесад
сесаду
сесола
сессияи
сети
сетор
сеул
сехи
сешанбе
сеюм
сеюми
сеюмин
сеюмро
сеяки
сеҳрнок
сзи
си
сибир
сибири
сиву
сигнали
сигналҳои
сигор
сида
сиддиқ
сиднеи
сидқи
сие
сиерра
сии
сиистон
сикка
сиккаҳои
сикли
сил
силва
силвио
сили
силитсии
силоҳ
силоҳи
силоҳҳои
силсила
силсилави
силсилавии
силсилаи
силсилаку
силсилафилм
силсилафилми
силсилафилмҳо
силсилафилмҳои
силсилаҳои
силу
силы
сим
симарро
сими
симиганҷи
симин
симнон
симнони
симо
симоб
симои
симон
симоҳои
симпозиуми
симпозиуму
симпозиумҳои
симурғ
симфони
симфонии
симфония
симфонияи
симҷури
син
сина
синааш
синаи
синамо
синамогарони
синамои
синамоии
сингапур
сингл
сингли
сингх
сингҳ
синд
синдроми
сини
синнашон
синни
синну
сино
синои
синон
синоп
синоро
синт
синтаксис
синтаксиси
синтез
синтези
синф
синфи
синфҳои
сипар
сипари
сипаршакл
сипас
сипаҳбад
сипаҳсолор
сипаҳсолори
сипеҳр
сипоҳ
сипоҳи
сипоҳие
сипурз
сир
сирдаре
сириллик
сиришта
сирк
сирки
сирко
сиро
сироят
сирояте
сирояти
сироятии
сироҷ
сироҷиддин
сирпие
сирри
сирф
сисерт
систем
система
системаи
систематика
системаҳо
системаҳои
системе
системи
системы
систон
ситам
сити
ситоди
ситоиш
ситоиши
ситора
ситорави
ситорагон
ситорагони
ситораи
ситорашиноси
ситораҳо
ситораҳои
ситораҳоро
ситруси
ситсилия
сиудад
сифат
сифатан
сифати
сифатҳо
сифатҳои
сифот
сифоти
сифр
сиэмт
сиэрра
сиэст
сиэтл
сию
сиюм
сиғаи
сиҳат
сиҳҳати
ск
ска
скандинавия
ская
ские
скии
скифҳо
ских
ско
скобелев
сковородинскии
ского
ское
скои
ском
скончался
скота
скотт
скрипка
скрябин
славяни
славянии
славянскии
сладкопевец
сладкопевно
сладкопевность
сладкопевныи
сладкопение
слобода
слободка
слободо
словаки
словакия
словари
словарь
словени
словения
слово
служба
случаи
слюдянск
см
сман
смерти
сми
смирнов
смит
смм
смоленск
сн
снг
снт
сны
со
соавт
соавтор
соавторстве
соат
соати
соато
соатро
соату
соатҳои
собин
собир
собири
собиров
собирова
собит
собиқ
собиқадори
собиқадорони
собиқаи
собиқи
собрание
собун
собуни
событии
события
сов
совет
совета
совете
совети
советии
советию
советская
советскии
советских
советского
советскои
советҳо
советҳои
сови
современная
современного
современнои
современном
современность
современные
современныи
современных
совхоз
совхози
согда
согдии
согласно
сода
содаву
содаи
содатарин
содатаринҳо
содда
содир
содирот
содироти
содирхон
содиршуда
содиқ
содиқи
содиқов
содиқова
содот
соев
соединенные
соз
созад
созанд
созанда
созандаи
созгор
создание
сози
созии
созиш
созиши
созишнома
созишномаи
созишномаҳо
созишномаҳои
созию
созмон
созмоне
созмони
созмонии
созмонҳои
сознавози
созу
созҳо
созҳои
сои
соиб
соири
сокин
сокини
сокинон
сокинонаш
сокинони
сокол
соколов
соколова
сол
сола
солааш
солаги
солагиаш
солагии
солаи
соларо
солгарди
соле
солеҳ
солеҳов
соли
солие
солиев
солик
солим
солими
солимии
солис
солист
солномаи
соломон
солона
солонаи
солор
солро
солу
солхои
солху
солшумории
солҳо
солҳои
сом
сомали
сомеа
соми
сомон
сомона
сомонаи
сомонаҳои
сомони
сомоние
сомонии
сомониро
сон
соната
сонатаи
сони
сония
сониян
сонто
сообщение
сообщения
соответствии
сопрано
сорбон
сория
соро
сорок
сорта
соса
сосновка
сосони
сосоние
сост
состав
состава
составе
составители
состояние
сотим
сото
сотрудничество
сотсиал
сотсиализм
сотсиалисти
сотсиалистии
соуза
соф
софи
софия
сохиби
сохт
сохта
сохтаанд
сохтааст
сохтаи
сохтан
сохтанд
сохтани
сохташуда
сохтвожаи
сохти
сохтмон
сохтмони
сохтмонии
сохтмону
сохтмонҳои
сохтор
сохтори
сохтории
сохторҳои
сохту
сохтумони
социалистическая
социалистических
социальная
социально
социальнои
соч
сочи
сочинении
сочинения
союз
союза
союзных
соя
сояи
соқи
соқинома
соқит
соҳа
соҳави
соҳавии
соҳаи
соҳаро
соҳаҳо
соҳаҳои
соҳиб
соҳибаш
соҳибдевон
соҳиби
соҳибистиқлол
соҳибистиқлоли
соҳибистиқлолии
соҳибихтие
соҳибкор
соҳибкори
соҳибкории
соҳибкорон
соҳибкорони
соҳибов
соҳибони
соҳил
соҳили
соҳилҳо
соҳилҳои
спартак
спб
спевать
спеваться
спевка
спектакли
спектаклҳои
спектр
спектри
спектроскопияи
спеть
спеться
специальности
спид
спин
спирт
спирти
список
спитаман
спитамен
сплава
сплавов
спорт
спорта
справка
справочная
справочник
спутник
сред
среде
среди
среднеахтубинск
средневековая
среднего
среднеи
средние
среднии
средняя
сро
сс
сср
ссср
ст
ставропол
стадион
стал
стала
стали
сталин
сталинабад
сталинград
сталини
сталинобод
сталлоне
стандарт
стандарти
стандартии
стандартҳои
станет
станислав
становление
становления
стансияи
стансияҳои
станция
старая
старии
стародуб
старое
старооскол
старополтавск
старшина
статеи
статистика
статистике
статистики
статистическии
статистических
статус
статье
статьи
статья
сташ
стб
ств
ства
стве
ственных
ствие
ствия
ство
стдори
стдорони
стдошта
стдоштааш
стдоштаи
стеи
степан
степанакерт
степанович
степени
стер
стери
сти
стив
стивен
стии
стипендияи
стихи
стию
стлохи
стмурод
стмуҳаммадов
сто
стов
стокҳолм
столица
столицы
стон
стона
стонаи
стонаш
стони
стороны
стр
страбон
страи
стран
странах
стране
страница
страницы
страны
страсбург
стратеги
стратегии
стратегия
стратегияи
стреи
стресс
стрит
стро
строи
строительства
структура
структуры
сту
студентов
студия
студияи
студияҳои
стэнфорд
стюарт
су
суарес
субот
суботи
субтропики
субтропикии
субъект
субъекти
субъективи
субъективии
субъектҳои
субҳ
субҳи
субҳон
субҳони
суворов
суд
суддин
суди
судии
судманд
судогод
судон
судони
судху
судя
судяи
судҳои
сужаи
сужет
сужети
сужетҳои
суздал
сузем
суи
суис
сукунат
сукунати
сукут
сула
сулаи
сулеи
сули
сулола
сулолаи
сулолаҳои
султон
султони
султонии
султонободи
султонов
султонҳои
сулук
сулфа
сулфат
сулфати
сулфур
сулҳ
сулҳи
сулҳу
сум
сумалак
суман
суманак
сумоли
сун
сунани
сунати
сунбул
сунбула
суни
суннат
суннати
суннатии
суннатҳои
сунни
сунъи
сунъии
суол
суперҷоми
супорад
супорид
супорида
супоридани
супориш
супориши
супоришҳои
супурд
супурда
супурданд
супурдани
сур
сура
сураж
сураи
сурат
сурате
сурати
суратҳои
сураҳои
сурб
сурби
суре
сури
сурие
суринам
сурия
сурияи
сурма
сурнаи
суровикин
суроғаи
суру
суруд
суруда
сурудааст
сурудани
сурудаҳои
суруди
сурудро
суруду
сурудхони
сурудҳо
сурудҳои
сурур
сурфа
сурфаи
сурх
сурхакон
сурхи
сурхоб
сурхондаре
сурхро
сурхру
сурхтоб
сурху
сурхча
суръат
суръати
сус
суст
сусти
сустии
сут
суто
сутуда
сутун
сутуни
сутунмуҳра
сутунҳо
сутунҳои
суфи
суфие
суфии
суфия
суфраи
суфта
суффикс
сухан
суханвари
суханварони
сухангу
сухани
суханони
суханро
суханрони
суханронии
суханрониҳои
суханҳои
сухоложскии
сухуми
сучони
суғд
суғди
суғдие
суғдии
суғдро
суғурта
суғуртаи
суқрот
суқут
суқути
суҳаи
суҳбат
суҳбати
суҳраварди
суҳроб
сфанд
сфанди
сфандон
сфандони
сша
съезд
съезди
сын
сэ
сэм
сэмюэл
сюжети
сюита
сюитаи
сюитаҳои
сюр
сюрих
ся
сямжен
січня
сҳо
сҳш
т
та
тааллуқ
таалуқ
таассуроти
таб
табаддулот
табаддулоти
табар
табари
табаристон
табаров
табассум
табақ
табақа
табақабандии
табақаи
табақаҳои
табақи
табақот
табақоти
таббохи
табдил
табдиле
табдили
таби
табиат
табиатан
табиати
табиатро
табиату
табиатшиноси
табиатшиносии
табиб
табиби
табибон
табибони
табии
табиие
табиии
табииро
табиист
табиию
табиъи
табл
таблак
табларза
таблиғ
таблиғи
таблиғот
таблиғоти
таблиғотии
табобат
табобати
табодули
табор
табори
таборинскии
табошар
табрез
табрези
табрик
табъ
табъи
табъу
тав
таваллуд
таваллудаш
таваллуди
таваррум
тавассути
таваққуф
таваҷҷу
таваҷҷуҳ
таваҷҷуҳи
тавба
тавдинскии
тавзеҳ
тавзеҳи
тавзеҳот
тавзеҳоти
тавилдара
тавлид
тавлиди
тавозуни
тавон
тавонад
тавони
тавонист
тавонистааст
тавонистанд
тавоно
тавонои
тавоноии
таворих
тавр
тавре
таври
таврот
тавсеа
тавсеаи
тавсиф
тавсифи
тавсифоти
тавсия
тавсияи
тавсияҳо
тавсияҳои
тавъам
тавҳид
тавҳиди
таг
тагали
таги
тадаз
тадбир
тадбири
тадбирҳо
тадбирҳои
тадвин
тадвини
тадж
таджики
таджикистан
таджикистана
таджикистане
таджиков
таджикская
таджикскии
таджикских
таджикско
таджикского
таджикскои
таджикском
тадрис
тадриси
тадриҷ
тадриҷан
тадқ
тадқиқ
тадқиқи
тадқиқот
тадқиқоти
тадқиқотии
тадқиқотчие
тадқиқотчии
тадқиқотҳо
тадқиқотҳои
тазаккур
тази
тазкира
тазкираи
тазкиранависон
тазкиранигор
тазкират
тазкирату
тазкираҳо
тазкираҳову
тазкираҳои
тазод
тазоҳурот
тазоҳуроти
таи
таиланд
таиланди
так
такаллум
также
таки
таклиф
такмил
такмиле
такмили
такмилу
такое
такомул
такомули
такон
такони
такрор
такроран
такрори
такси
таксим
таксона
такя
такягоҳи
тал
талаб
талабагон
талаби
талабот
талаботи
талаботҳои
талабху
талас
талаф
талафоти
талаффуз
талаффузи
талбак
талискии
талко
таллин
талов
талол
талош
талоши
талошҳои
талоқ
талх
талха
талхадон
талғар
талқин
талқини
там
тамаддун
тамаддуни
тамаддунҳо
тамаддунҳои
таманно
тамара
тамаркуз
тамашк
тамбов
тамбовскии
тамдид
тами
тамили
тамим
тамоку
тамом
тамоман
тамоми
тамомияти
тамос
тамоси
тамошо
тамошобин
тамошобини
тамошобинон
тамошобинони
тамошобинонро
тамошои
тамоюл
тамоюли
тамоюлҳои
тамрин
тамсили
тамғаи
тан
тана
танааш
таназзул
таназзули
танаи
танаффус
танаффуси
танаш
танбу
танг
танга
тангаи
тангаҳо
тангаҳои
танги
танд
тандурусти
тандурустии
танзания
танзим
танзими
тани
танки
таносуб
таносуби
таносул
таносули
тантанави
тантанаи
тантанаҳои
тану
танхо
танқид
танқиди
танҳо
танҳои
таоло
таом
таоми
таомҳои
тар
тарабхона
тарабхонаи
тарабхонаҳо
тараннум
тараннуми
тарас
тараф
тарафаи
тарафаш
тарафдори
тарафдории
тарафдоронаш
тарафдорони
тарафи
тарафҳо
тарафҳои
тарашшу
тараққи
тараққие
тараққии
тарбия
тарбияви
тарбиявии
тарбияи
тарбият
тарбияти
тарбод
тарбуз
тарз
тарзи
тарзу
тарзҳои
тари
тарин
тариқ
тариқа
тариқаи
тариқат
тариқати
тариқи
тарк
тарканда
тарки
таркиб
таркибаш
таркибашон
таркиби
таркибии
таркиботи
таркибҳои
таркиш
таркиши
тармим
тармими
тарног
таровеҳ
тарона
таронаи
таронасаро
таронаҳо
таронаҳои
таронаҳояш
тарошида
тарошидани
тарроҳи
тарроҳии
тарс
тарси
тарсу
тартиб
тартиби
тартибот
тартиботи
тартибу
тарту
тару
тарху
тарғиб
тарғибгари
тарғиби
тарғиботи
тарғибу
тарқишҳои
тарҳ
тарҳи
тарҳрези
тарҳрезии
тарҳҳои
тарҷ
тарҷеъбанд
тарҷимаи
тарҷума
тарҷумаву
тарҷумаи
тарҷумаиҳоли
тарҷумаҳои
тарҷумон
тарҷумони
тас
тасаввур
тасаввури
тасаввурот
тасаввуроти
тасаввуф
тасаввуфи
тасаввуфро
тасарруф
тасарруфи
тасвиб
тасвир
тасвири
тасвирии
тасвироти
тасвирҳо
тасвирҳои
тасдиқ
тасдиқи
тасдиқшудаи
таскин
таслим
таслими
тасма
тасмаи
тасмим
тасмими
тасниф
таснифи
таснифоти
тасодуфан
тасодуфи
тасриф
тасрифи
тасрифкуни
тасс
тасхир
тасҳеҳ
тасҳеҳи
татбиқ
татбиқи
тате
татяна
тафаккур
тафаккури
тафовут
тафовути
тафовутҳои
тафсилоти
тафсир
тафсири
тафсирии
тафсирҳои
тафсон
тафтиш
тафтиши
тафтишот
тафтишоти
тафтишотии
тахаи
тахаллус
тахаллусаш
тахаллуси
тахассус
тахассуси
тахассусии
тахм
тахмин
тахминан
тахмини
тахористон
тахт
тахта
тахтаи
тахтапушт
тахташ
тахти
тахтро
тахту
таш
ташаббус
ташаббуси
ташаббускор
ташаббускори
ташаббускорони
ташаббусҳои
ташаккул
ташаккуле
ташаккули
ташаккулу
ташбеҳ
ташвиш
ташвиқ
ташвиқи
ташвиқоти
ташвиқу
ташкент
ташкентская
ташкил
ташкиле
ташкили
ташкилии
ташкилию
ташкилкунандаи
ташкилот
ташкилоти
ташкилоту
ташкилотчии
ташкилотҳо
ташкилотҳои
ташкилу
ташнаги
ташон
ташриф
ташрифи
ташро
ташхис
ташхиси
таъ
таъбир
таъбири
таъи
таъин
таъиноти
таъкид
таъкиди
таълим
таълимгоҳ
таълими
таълимиву
таълимии
таълимиро
таълимию
таълимот
таълимоташ
таълимоти
таълимро
таълиму
таълиф
таълифаш
таълифи
таълифот
таълифоти
таълифу
таъми
таъмин
таъмини
таъминкунандаи
таъминоти
таъмир
таъмири
таъмиру
таъоло
таъриф
таърифи
таърифҳои
таърих
таърихан
таърихи
таърихиву
таърихие
таърихии
таърихиро
таърихию
таърихнигор
таърихнигори
таърихнигории
таърихнигорон
таърихнигорони
таърихро
таъриху
таърихшинос
таърихшиноси
таъсир
таъсирбахш
таъсири
таъсироти
таъсис
таъсисаш
таъсисе
таъсиси
таътил
таъхир
таъқиб
таъқиби
таъҷили
тағи
тағии
тағир
тағире
тағирот
тағироти
тағои
тақ
тақвим
тақвими
тақвият
тақвияти
тақво
тақдим
тақдир
тақдири
тақлид
тақлиди
тақозо
тақозои
тақр
тақрибан
тақриз
тақсим
тақсими
тақсимот
тақсимоти
тақсимшавии
таҳ
таҳаввул
таҳаввули
таҳаввулот
таҳаввулоти
таҳаммул
таҳвил
таҳвили
таҳдид
таҳдиди
таҳия
таҳиягар
таҳиягари
таҳияи
таҳиякунанда
таҳиякунандаи
таҳким
таҳкими
таҳкурсии
таҳлил
таҳлилгари
таҳлили
таҳлилии
таҳлилу
таҳм
таҳмдор
таҳми
таҳмина
таҳнишастҳои
таҳримҳо
таҳримҳои
таҳрир
таҳрири
таҳририяи
таҳриру
таҳсил
таҳсилашро
таҳсили
таҳсилот
таҳсилоти
таҳсилро
таҳти
таҳшин
таҳшини
таҳқир
таҳқиқ
таҳқиқи
таҳқиқии
таҳқиқот
таҳқиқоташ
таҳқиқоти
таҳқиқотии
таҳқиқотҳои
таҳқиқу
таҳҷои
таҷаллии
таҷассум
таҷассуми
таҷдид
таҷдиди
таҷдиду
таҷзия
таҷзияи
таҷлил
таҷлили
таҷовуз
таҷовузи
таҷовузкорона
таҷриба
таҷрибави
таҷрибавии
таҷрибаи
таҷрибаому
таҷрибаҳо
таҷрибаҳои
таҷҳизот
таҷҳизоти
тбилиси
тбм
тв
твер
твиттер
творчества
творчество
те
театр
театри
театрии
театрро
театру
театрҳо
театрҳои
тебя
тегусигалпа
тед
тез
тези
тезтар
тезу
теи
текст
текста
тектоники
тектоникии
тел
тела
телевизион
телевизиони
телевизионии
телевизиюнии
телевизор
телеграф
телекоммуникатсиони
телекоммуникатсия
теленовелаи
телескоп
телескопи
телефон
телефони
телефонии
телефония
телефонҳои
телугу
тем
темур
темури
темурие
темурмалик
тенант
тенанти
тенденции
тенерифе
теннис
тенор
тенори
теодор
теоремаи
теории
теория
теппа
теппаи
теппаҳо
теппаҳои
тер
терапия
тереза
терек
терминали
терминов
терминология
термодинамика
тернов
территориальное
территориальных
территории
терроризм
террористи
террористии
тест
тести
тех
техас
техника
техникаи
техники
техникии
техникуми
техническии
технолог
технологи
технологии
технология
технологияи
технологияҳои
теъдод
теъдоде
теъдоди
теғ
теғи
теҳрон
теҳрони
ти
тиб
тибб
тибби
тиббии
тиббию
тибет
тибети
тибқи
тигзос
тие
тиев
тии
тилло
тиллои
тиллоии
тило
тиловат
тилои
тилоии
тилоро
тим
тими
тимори
тимсоли
тимсоҳ
тимур
тимуридов
тимҳои
тин
тинг
тинги
тиндинскии
тип
типа
типи
типография
типология
типологияи
тир
тира
тирамоҳ
тирамоҳи
тирана
тирандози
тирандозии
тирборон
тиреза
тири
тирмиз
тирмизи
тиру
титан
титаник
тифл
тифли
тифлис
тия
тиҷорат
тиҷорати
тиҷоратии
тиҷоратиро
тиҷоратию
тиҷори
тиҷории
тка
тматов
тну
то
тоаш
тоб
тоба
тобаго
тобеи
тобеияти
тобеъ
тобеъи
тоби
тобистон
тобистона
тобистонаи
тобистонаш
тобистони
тобиши
тобишҳои
тобовар
тов
това
товн
товус
того
тоза
тозаги
тозагии
тозае
тозаи
тозаинтихоби
тозакунии
този
тозие
тои
тоиров
тоифаи
ток
токаш
токдори
токембрии
токзор
токи
токио
токпарвари
токунун
толга
толедо
толиб
толиби
толибон
толие
толис
толиши
толиқон
толковыи
толливуд
толор
толори
толорҳои
толстои
только
том
томактаби
томас
томах
томе
томи
томили
томирис
томск
томҳои
тон
тонга
тони
тонна
топ
топоним
топоними
тор
торафт
тори
тории
торик
торики
торихи
торнамои
торо
тороби
торонто
торрес
торт
тору
торумор
торҳо
торҳои
тотем
тоти
тотор
тотори
тотористон
тоторҳо
тоторҳои
тоун
тохаристана
тохтутози
тош
тошев
тошканд
тошканди
тошкандро
тошкент
тошматов
тоқ
тоқи
тоқии
тоқиҳо
тоқиҳои
тоқҳои
тоҳ
тоҳе
тоҳи
тоҳир
тоҳири
тоҳирие
тоҳиров
тоҳмуддат
тоҳмуддати
тоҳтар
тоҳтарин
тоҳу
тоҷ
тоҷи
тоҷибоев
тоҷиддин
тоҷиев
тоҷик
тоҷики
тоҷикии
тоҷикиро
тоҷикис
тоҷикист
тоҷикистон
тоҷикистони
тоҷикистонии
тоҷикистонро
тоҷикистону
тоҷикию
тоҷикнишин
тоҷикнишини
тоҷикобод
тоҷикободи
тоҷикон
тоҷикони
тоҷиконро
тоҷикро
тоҷику
тоҷикфилм
тоҷир
тоҷири
тоҷирон
тоҷирони
тоҷнома
тоҷу
тр
трабзон
традиции
традиция
тракта
трактат
трактор
трактори
тракторҳои
трамваи
трамп
транскрипсияи
транспорта
траян
тре
треи
трес
трести
три
тригонометри
трии
триллери
тринидад
триполи
тро
трои
троитски
троллеи
трон
тропики
тропикии
троя
труба
трубчев
труд
труда
трудов
трудовои
труды
трухило
тс
тсария
тсахури
тт
ттинген
ту
тубо
тува
тувалу
тугма
тугмаи
тугулимскии
туи
тул
тула
тули
тулкибос
тулмуқаддас
тулу
тулун
тулҳикма
туман
тумани
тун
тунд
тунду
тунис
туниса
тунук
тунуки
тур
турб
турбати
турдиев
тури
туризм
туризми
турин
туринскии
туристи
туристии
турк
туркевич
туркзабон
турки
туркии
туркиро
туркистон
туркистони
туркия
туркияи
туркияро
туркм
туркман
туркманбоши
туркмани
туркманистон
туркманистони
туркманобод
туркманҳо
туркменистан
туркменистана
туркон
туркони
турку
туркҳо
туркҳои
туро
турова
турон
турсун
турсунзода
турсунзодаи
турсунзодаро
турсунов
турции
турция
турш
турши
туси
туст
тут
тути
туфаи
тухм
тухмаш
тухмдон
тухми
тухмии
тухмшакл
туғаи
туғе
туғрал
туҳмат
туҳфа
туҳфаи
туҳфату
туҳфаҳо
тчики
тшинос
тшиноси
тшиносии
тшиносони
ты
тыс
тэтчер
тюмен
тяго
тҳо
тҳои
тҷк
тә
у
уаи
уарес
убаи
убии
убур
убури
уваи
уганда
угро
уд
удинск
удт
уезд
уезди
уелва
уелс
уефа
уже
уз
узб
узбаки
узбакистон
узбек
узбеки
узбекистан
узбекистана
узбекистон
узбекҳо
узв
узви
узвият
узвияти
узву
узвҳо
узвҳои
уи
уилсон
уилям
уилямс
указ
указания
указатель
укази
укр
украи
украин
украина
украини
украины
украинҳо
украі
укроин
укроини
уксус
ул
уламо
уламои
улан
улица
ултрабунафш
улум
улуми
улуғбек
улуғзода
уляновск
ум
умавие
умаи
умар
умари
умаров
умарова
умарови
умархон
умберто
умдаи
умдатан
умед
умеди
умер
уми
умин
уммавие
уммат
уммати
уммон
умон
умр
умраш
умрашро
умри
умро
умум
умуман
умуми
умумиаш
умумиашон
умумибашари
умумибашарии
умумии
умумиитифоқи
умумииттифоқи
умумииттифоқии
умумимиллии
умумиро
умумирусиягии
умумихалқи
умумихалқии
умумият
умумияти
умумиҷаҳони
умумиҷаҳонии
умумиҷумҳурияви
умури
умқаш
умқи
ун
унвон
унвони
унвонҳои
унвонҷу
унеч
универсали
университет
университета
университети
унс
унсур
унсури
унсурҳо
унсурҳои
уолл
уолт
уолтер
уоррен
управление
управления
управленияи
ур
уравнении
урал
уран
урбах
урганҷ
ургут
урдибиҳишт
урду
урдун
уре
урегулировании
урмави
уро
уротеппа
уртадо
уругваи
уругуаи
урупо
урфи
урфу
уршалим
урюпинск
ус
условиях
условности
услуб
услуби
услубии
услубшиноси
услубҳои
усманов
усмон
усмони
усмонов
усмонова
усмонҷон
усолск
усораи
успенскии
уст
уствазири
усто
устод
устодаш
устоди
устодон
устодона
устодонаи
устодони
устоев
устои
устон
устони
устонҳои
устопирие
устохонаи
устоҳо
устоҳои
устрои
устувонашакл
устувор
устувори
устувории
устура
устураҳои
устурлоб
устурлоби
устуролее
устухон
устухони
устухонҳои
усть
устюжен
устянск
усул
усули
усулу
усулҳо
усулҳои
ут
утби
ути
утоқи
утоқҳои
утриш
утриши
утрор
уттар
уф
уфа
уфар
уфари
уфтода
уфуқ
уфуқи
уч
участие
участников
участок
учащихся
уче
учебник
учебно
учебное
учение
ученые
уш
ушаков
ушел
ушшоқ
уэлс
уэлси
уэсте
уқе
уқлидус
уқоб
уқоби
уҳда
уҳдадор
уҳдадори
уҳдадории
уҳдадориҳои
уҳдаи
ф
фа
фаб
фабиан
фабио
фабрикаи
фабрисио
фаввора
фаввораи
фаввораҳо
фавран
фаври
фаврии
фавт
фавти
фавтид
фавтида
фавтидаанд
фавтидааст
фавтидагон
фавтиданд
фавқулода
фавқулодаи
фавқулодда
фавқулоддаи
фазилат
фазилати
фазл
фазлиддин
фазлу
фазо
фазои
фазоии
фаи
фак
факат
фактор
факты
факулта
факултаи
факултаҳои
факултет
факултети
факултетҳои
факундо
фалак
фалаки
фаластин
фаластини
фалаҷ
фалокат
фалсафа
фалсафаи
фалсафаро
фалсафи
фалсафии
фалсафию
фан
фанни
фанновари
фанноварии
фано
фантазия
фантастики
фанҳо
фанҳои
фаолият
фар
фарадеи
фараж
фарангии
фараҳ
фарбеҳ
фарбеҳи
фарвардин
фард
фарде
фарди
фардии
фардо
фаре
фарз
фарзанд
фарзандаш
фарзанди
фарзандон
фарзандонаш
фарзандони
фарзи
фарзин
фарзия
фарзияи
фарзияҳои
фарзона
фарзонаи
фарид
фаридун
фаридуни
фаришта
фариштагон
фариштаи
фармоиш
фармоиши
фармон
фармондеҳ
фармондеҳаш
фармондеҳи
фармондеҳии
фармондеҳони
фармони
фармонравое
фармонравои
фармонҳои
фармуд
фармуда
фармудааст
фармудаи
фаро
фаровон
фаровоне
фаровони
фаровонии
фарогир
фарогири
фарогирии
фарози
фарому
фаронса
фаронсави
фаронсавии
фаронсавиро
фаронсавиҳо
фаронсаро
фарорасии
фарох
фароянди
фароғат
фароғати
фароғатии
фароҳам
фаррух
фаррухи
фарсанг
фарсах
фархор
фархори
фарш
фарши
фаръи
фаръии
фарғона
фарғонаи
фарғони
фарқ
фарқи
фарқият
фарқияти
фарқкунандаи
фарҳанг
фарҳанги
фарҳангии
фарҳангистони
фарҳангию
фарҳангномаи
фарҳангу
фарҳангшиноси
фарҳангҳо
фарҳангҳои
фарҳат
фарҳод
фарҳоди
фасл
фасли
фаслҳо
фаслҳои
фасо
фасод
фасоди
фат
фатво
фатири
фатҳ
фатҳи
фатҳулло
фатҳуллоҳ
фауст
фахр
фахри
фахриддин
фахрии
фахруддин
фахруддини
фашизм
фашисти
фашистон
фаъол
фаъоли
фаъолият
фаъолияташ
фаъолияташро
фаъолияти
фаъолиятро
фаъолиятҳои
фаъолона
фаъолонаи
фаъолони
фақат
фақеҳ
фақеҳи
фақеҳон
фақеҳони
фақир
фақр
фаҳанги
фаҳим
фаҳми
фаҳмид
фаҳмида
фаҳмидани
фаҳмиши
фаҳмо
фаҷр
фе
февр
феврал
феврали
февраля
федерали
федералии
федеративи
федеративии
федератсия
федератсияи
федерации
федерация
федерико
федероли
федеролии
федор
федченко
феи
феликс
феодали
фердинанд
фереи
фермаи
ферменти
ферментҳо
ферментҳои
фермери
ферми
фернандес
фернандо
фестивал
фестивали
фестивалҳои
феъл
феълан
феъли
феълии
феълҳо
феълҳои
феҳрасти
феҳрист
феҳристи
фз
фи
фигуеи
фигуэро
фиддин
фиддинов
фиддинҳоҷи
фидел
фидои
фие
физик
физика
физикави
физикаву
физикаи
физикаю
физикдон
физикдони
физики
физикии
физикию
физико
физиологи
физиологии
физиология
физиологияи
физических
физическои
физули
фии
фикр
фикри
фикрии
фикру
фикрҳои
фил
филаделфия
филармонияи
филд
фили
филиал
филиали
филиалҳои
филиз
филизз
филиззи
филиззот
филиззоти
филизи
филип
филипп
филиппин
филиппини
филм
филмбардори
филме
филми
филмнома
филмномаи
филмноманавис
филмноманависи
филмро
филмсози
филмҳо
филмҳое
филмҳои
филол
филолог
филологи
филологии
филология
филологияи
философ
философии
философия
философская
философские
философскии
филуредо
филфил
фильм
филю
фин
финал
финали
фини
финланд
финландия
финляндия
фирдавс
фирдавси
фирдавсии
фиреб
фиристод
фиристода
фиристодаи
фиристодан
фиристоданд
фиристодани
фирор
фирори
фироқи
фиру
фиръавн
фирқаи
фирқаҳои
фисад
фитр
фитрат
фитри
фифа
фишер
фишор
фишори
фишорҳои
фишурда
фия
фияти
фиқҳ
фиқҳи
фиқҳии
фиқҳу
фиҷи
фк
флавио
флаг
фланенго
флеи
флора
флоренсия
флорес
флорида
флот
флоти
фозил
фозилов
фозилова
фозилу
фои
фоида
фоидаи
фоиданок
фоиданоки
фоиз
фоиза
фоизи
фоизро
фокс
фолз
фолклор
фолклори
фолклории
фоминская
фон
фонд
фонда
фондаре
фонди
фондии
фондҳои
фонетика
фонетики
фони
фонсека
фор
форам
форарлберг
форбс
форд
форе
форест
фориғ
фориғуттаҳсили
форм
форма
формати
форме
формирование
формирования
формула
формулаи
формулаҳои
формы
фороби
форс
форси
форсигу
форсизабон
форсизабони
форсизабонони
форсии
форсиро
форсию
форсро
форсу
форсҳо
форт
форталеза
фортепиани
фортепиано
фортепианои
форум
форуми
фосила
фосилави
фосилаи
фосилаҳои
фосфат
фосфор
фотеҳ
фотима
фотимие
фотиҳа
фото
фотографии
фотосинтез
фош
фоҷиа
фоҷиави
фоҷиаи
фр
фразеологии
фраи
фраксияи
франк
франки
франклин
франко
франкфурт
франс
франсави
франсиско
франсия
франсуа
франции
франция
франческо
фред
фредерик
фреи
фридрих
фролов
фронт
фронтера
фронти
фруктоза
фрунзе
фрунзеи
фрэнк
фрэнсис
фсб
фт
фта
фтаанд
фтааст
фтагон
фтаи
фтам
фтан
фтанд
фтани
фтаро
фти
фтшуда
фтҳои
фу
фукуока
фулло
фуллоев
фулузи
функсия
функсияи
функсияҳо
функсияҳои
функции
фунт
фурманов
фурот
фурс
фурсат
фурсати
фурт
фуру
фуруд
фурудгоҳ
фурудгоҳи
фурудгоҳҳои
фуруди
фуруши
фут
футбол
футболбоз
футболбози
футболбозони
футболи
футболии
фуэнтес
х
ха
хабар
хабаргузории
хабардор
хабари
хабарии
хабарнигор
хабарнигори
хабарнигории
хабарнигорони
хабаровск
хабарҳо
хабарҳои
хави
хавкин
хавориҷ
хавф
хавфи
хавфнок
хадамот
хадамоти
хадиҷа
хае
хазандаҳо
хазар
хазина
хазинаи
хазон
хаи
хакасия
хакимов
хал
халал
халалдор
халиков
халил
халилов
халиско
халифа
халифаев
халифаи
халифаҳо
халифаҳои
халиҷ
халиҷи
халиҷҳои
халки
халос
халта
халқ
халқи
халқии
халқиро
халқист
халқият
халқияти
халқиятҳои
халқро
халқу
халқҳо
халқҳои
хам
хама
хамаи
хами
хамида
хамин
хамир
хамири
хамирро
хамиртуруш
хамон
хамса
хан
ханда
хандаи
хандидан
хандон
хани
ханкенди
ханои
хар
хара
харабалинск
харакати
характери
характеристика
харби
харбуза
харбузаи
харгу
хари
харид
харида
харидани
хариди
харидор
харидори
хариду
харита
харитаи
харитаҳои
харков
хароб
харобаҳои
хароби
харовск
хароҷот
хароҷоти
хартум
харҷ
харҷи
хасанак
хаста
хастанд
хат
хатар
хатари
хатарнок
хатгири
хатгирии
хати
хатиб
хатлон
хатлони
хатлону
хатм
хатми
хатмкардагони
хатмкардаи
хатмкунандагони
хатмкунандаи
хатна
хатнасур
хато
хатои
хатсаи
хатти
хаттии
хаттот
хаттоти
хаттотии
хату
хатҳо
хатҳои
хачмаз
хашм
хашмгин
хашми
хе
хева
хезад
хеи
хел
хеле
хели
хело
хелсинборг
хелҳои
херардо
херес
херсон
хесус
хеч
хеш
хеши
хешовандон
хешовандони
хешро
хештан
хешу
хи
хива
хидмат
хидматгор
хидмати
хидматнишондодаи
хидматрасони
хидматрасонии
хидматрасониҳои
хидматчие
хидматҳо
хидматҳои
хидматҳояш
хие
хизмат
хизмати
хизматнишондодаи
хизматрасони
хизматрасонии
хизматчи
хизматчие
хизматчии
хизматҳои
хизр
хилофат
хилофати
хилофи
хименес
химии
химик
химические
химия
химияви
химиявии
химияи
хингоб
хиндустон
хира
хирад
хиради
хирадманд
хирман
хирмани
хирона
хирохито
хироҷ
хироҷи
хирс
хирси
хислат
хислати
хислату
хислатҳои
хисор
хисрав
хистеварз
хит
хитоб
хитои
хихон
хишт
хишти
хиштҳои
хлор
хлорид
хлориди
хо
хоан
хоб
хобгоҳ
хоби
хобида
ховалинг
ховар
ховари
ход
ходжиматов
ходими
ходимони
хозяи
хои
хок
хока
хокаи
хокаш
хоки
хокистар
хокистари
хокистарии
хокистарранг
хокистарранги
хоккеи
хокро
хоку
хокшиноси
хокшиносии
хокҳои
хол
холи
холид
холии
холис
холиқ
холиқзода
холиқов
холматов
холматови
холмогор
холмуродов
холо
холов
холҳои
холҷу
хом
хоманаи
хоми
хому
хон
хона
хонааш
хонавода
хонаводааш
хонаводаги
хонаводагии
хонаводаи
хонаву
хонаги
хонадон
хонадони
хонадор
хонае
хонаи
хонанд
хонанда
хонандагон
хонандагони
хонандаи
хонандаро
хонаро
хонатан
хонақоҳ
хонақоҳи
хонаҳо
хонаҳои
хонд
хонда
хондаанд
хондааст
хондан
хонданд
хондани
хони
хонивор
хонигарии
хонии
хониш
хониши
хонум
хонуми
хонҳои
хопкинс
хор
хоразм
хоразми
хоразмшоҳ
хоразмшоҳи
хоразмшоҳие
хорв
хорвати
хорватия
хорди
хореографи
хореографии
хори
хориҷ
хориҷа
хориҷаи
хориҷи
хориҷие
хориҷии
хориҷиро
хоро
хорпуштак
хоруғ
хорхе
хос
хоса
хосаи
хосанд
хосе
хоси
хосият
хосияти
хосиятҳои
хосор
хосро
хосса
хоссе
хосси
хост
хоста
хостанд
хости
хостори
хосу
хосэ
хотами
хотима
хотимаи
хотир
хотира
хотираи
хотираҳои
хотири
хотирмон
хотирнишон
хотироти
хохол
хошок
хоэл
хоя
хояндаҳо
хоқони
хоқонии
хоҳ
хоҳад
хоҳам
хоҳанд
хоҳар
хоҳараш
хоҳари
хоҳарон
хоҳарони
хоҳед
хоҳем
хоҳи
хоҳиш
хоҳиши
хоҷа
хоҷаги
хоҷагидори
хоҷагидории
хоҷагии
хоҷагиҳо
хоҷагиҳои
хоҷаев
хоҷаи
хоҷали
христиан
христиани
христианҳои
христофор
хром
хромосомаҳо
хрусталнии
хт
хта
хтаанд
хтааст
хтаи
хтак
хтан
хтанд
хтани
хти
хтор
ху
хуаким
хуан
хуб
хубе
хуби
хубон
хубтар
хубу
худ
худам
худаш
худашон
худашро
худдори
худжанд
худи
худидораи
худидоракунии
худкор
худкуши
худмухтор
худмухтори
худо
худованд
худованди
худое
худои
худому
худоро
худост
худоҳои
худрав
худрави
худравҳои
худро
худру
худсарона
худуди
худшиноси
худшиносии
хузистон
хук
хуки
хукумати
хулафои
хулбук
хулио
хулоса
хулосае
хулосаи
хулосаҳои
хум
хумаи
хумб
хумдони
хумори
хун
хунгард
хуне
хуни
хунин
хунофар
хунрави
хунравии
хунрези
хунро
хунтаи
хунук
хунуки
хур
хурд
хурде
хурди
хурдиаш
хурдии
хурдод
хурдодбеҳ
хурдро
хурдсол
хурдсоли
хурдтар
хурдтарин
хурду
хурмо
хуроквори
хуросон
хуросони
хуросонро
хуросону
хуррам
хурсанд
хурсанди
хуру
хуруҷ
хуруҷи
хуршед
хуршеда
хуршеди
хусаи
хусеи
хусрав
хусрави
хусравони
хуст
хусус
хусусан
хусуси
хусусие
хусусии
хусусият
хусусияти
хусусиятҳо
хусусиятҳои
хутба
хуттал
хутталон
хуф
хуфта
хуш
хушбахт
хушбахти
хушбахтона
хушбу
хуши
хушк
хушки
хушкигард
хушкии
хушксоли
хушку
хушнавис
хушнависи
хушсифат
хуштаъм
хушу
хушунат
хушқадам
хушҳол
хуқуқи
хуҷанд
хуҷанди
хуҷандии
хуҷандро
хуҷанду
хх
хь
хә
ц
цев
центр
центра
центразия
центральная
центральнои
центральныи
церемонии
цзы
цивилизации
цик
цк
цә
ч
ча
чабоғи
чавес
чавоб
чаву
чагодошен
чад
чаи
чак
чакан
чакана
чаки
чакка
чаман
чан
чанак
чанг
чанги
чангоб
чангол
чангу
чанд
чанде
чандин
чандон
чандра
чануби
чап
чапи
чаппа
чапу
чарб
чарбу
чарлз
чарли
чарм
чармгари
чарми
чаро
чаров
чарогоҳ
чарогоҳҳо
чарогоҳҳои
чароғ
чароғи
чароғҳои
чарх
чархаи
чархбол
чархи
чархҳои
час
часпак
часпида
части
часть
чат
чаушеску
чашм
чашма
чашмаи
чашмам
чашмасор
чашмасори
чашмаҳо
чашмаҳои
чашми
чашмони
чашмро
чашму
чағатои
чағоние
чаҳо
чаҳои
чаҳор
чаҳорум
чаҳоруми
чаҳорумин
чаҳорчу
че
чел
человек
человека
челси
челябинск
чем
чемпионат
чемпионати
чемпионатҳои
чемпиони
чен
ченаки
ченкунии
ченнаи
червня
через
черемховск
череповетс
чернишков
черногория
черноярск
черняев
чернян
четве
четыре
чех
чехи
чехия
чехов
чехословакия
чечен
чеченистон
чеченҳо
чеш
чеҳра
чеҳраи
чеҳраҳои
чжи
чи
чиба
чивого
чигунагии
чид
чида
чидаанд
чидааст
чидан
чиданд
чидани
чие
чиев
чиз
чизе
чизеро
чизи
чизро
чизҳо
чизҳои
чикаго
чил
чилдараи
чилдухтарон
чилдухтарони
чиле
чили
чилиги
чиллаи
чилу
чилум
чимканд
чин
чингиз
чингизие
чингизхон
чини
чинии
чиниҳо
чинор
чинҳои
чиро
числе
численность
число
чист
чистон
чиҳил
чкалов
чкаловск
чо
чодар
чои
чок
чоки
чон
чонда
чони
чонида
чонидани
чоп
чопи
чопии
чопра
чопро
чор
чорабини
чорабинии
чорабиниҳо
чорабиниҳои
чораи
чораҳо
чораҳои
чорбоғ
чорбоғи
чорво
чорводор
чорводори
чорводории
чорвои
чоргоҳ
чордара
чордаҳум
чорку
чоркунҷа
чормағз
чормағзак
чормағзи
чорроҳаи
чорсаду
чорсу
чорум
чоруми
чорумин
чорумро
чорчу
чоршанбе
чоряки
чорҷу
чоч
чоҳ
чоҳи
чоҳҳои
что
чтобы
чу
чудо
чуз
чуи
чукотка
чумча
чун
чунин
чунинанд
чунки
чунон
чуноне
чунонки
чунончи
чуст
чусти
чуқур
чуқури
чуқурии
ш
ша
шааш
шаб
шабака
шабакави
шабакаи
шабакаҳо
шабакаҳои
шабаҳ
шабе
шабеҳ
шабеҳи
шаби
шаблон
шаблони
шаблонҳои
шабнам
шабнами
шабона
шабонаи
шабонару
шабору
шабоҳат
шабоҳати
шабу
шабҳо
шабҳои
шав
шавад
шавам
шаванд
шавед
шави
шавкат
шаву
шавқ
шавқи
шавқовар
шавқу
шавҳар
шавҳараш
шавҳари
шагулаш
шагули
шад
шадид
шадидан
шадиди
шае
шаи
шак
шакалод
шакар
шакл
шаклан
шаклаш
шаклгирии
шакле
шакли
шаклу
шаклҳои
шакури
шакҳо
шалинскии
шалғам
шам
шамахи
шамол
шамоли
шамс
шамси
шамсиддин
шамсиддини
шамсиев
шамсов
шамсуддин
шамшер
шамшери
шамъ
шамъи
шан
шанбе
шанд
шанда
шанхаи
шар
шарае
шараф
шарафи
шарбат
шарбати
шариат
шариати
шарик
шарики
шарикии
шарикони
шарипов
шариф
шарифзода
шарифи
шарифов
шарифова
шарифович
шарифҷон
шарки
шарл
шарлоттенбург
шарм
шарма
шароб
шароби
шароит
шароите
шароити
шароитҳои
шарон
шарофат
шарофати
шарофиддин
шарт
шартан
шарте
шарти
шартии
шартнома
шартномави
шартномаи
шартномаҳо
шартномаҳои
шартҳои
шаршар
шаршара
шаршарае
шаршараи
шаршараҳо
шаршараҳои
шаръ
шаръан
шаръи
шарқ
шарқи
шарқиаш
шарқии
шарқиро
шарқро
шарқтар
шарқу
шарқшинос
шарқшиноси
шарқшиносии
шарқшиносони
шарҳ
шарҳи
шарҳиҳоли
шарҳу
шаст
шасту
шастум
шато
шатранҷ
шафати
шафақ
шафтолу
шаффоф
шафқат
шах
шахри
шахс
шахсан
шахсе
шахсеро
шахсест
шахси
шахсии
шахсият
шахсияти
шахсиятҳо
шахсиятҳои
шахсон
шахсоне
шахсони
шахсро
шаш
шашмақом
шашсаду
шашум
шашуми
шашумин
шаъбон
шаъбони
шаъну
шая
шағал
шағол
шаҳва
шаҳват
шаҳвони
шаҳзода
шаҳид
шаҳиди
шаҳидон
шаҳло
шаҳобов
шаҳобуддинов
шаҳодат
шаҳодати
шаҳодатнома
шаҳодатномаи
шаҳои
шаҳр
шаҳрак
шаҳраки
шаҳракҳо
шаҳракҳои
шаҳрванд
шаҳрванди
шаҳрвандии
шаҳрвандиро
шаҳрвандон
шаҳрвандони
шаҳрвандонро
шаҳрдори
шаҳрдории
шаҳре
шаҳрест
шаҳрзод
шаҳри
шаҳривар
шаҳрие
шаҳрии
шаҳринав
шаҳринави
шаҳрисабз
шаҳристон
шаҳристонест
шаҳристони
шаҳристонҳои
шаҳриту
шаҳритус
шаҳрро
шаҳрсози
шаҳру
шаҳрҳо
шаҳрҳои
швед
шведи
швеи
шветсия
ше
шебекин
шева
шеваи
шеваҳои
шевченко
шевченкоро
шеи
шекснин
шекспир
шел
шелехов
шенкур
шер
шерак
шерали
шервон
шервони
шери
шерлок
шероз
шерози
шесть
шет
шеър
шеъраш
шеъргу
шеърду
шеъре
шеъри
шеърии
шеърию
шеърро
шеъру
шеърҳо
шеърҳои
шеърҳояш
ши
шиа
шиаҳо
шибит
шид
шида
шидааст
шидаи
шидан
шиданд
шидани
шиддат
шиддати
шие
шизуока
шии
шикаи
шикам
шикамаш
шиками
шиканҷа
шикаст
шикаста
шикастаи
шикастан
шикастани
шикасти
шикор
шикори
шикорчи
шикорчие
шикоят
шикояти
шиллер
шим
шимановскии
шимла
шимол
шимолгони
шимоли
шимолии
шимолиро
шимолтар
шимолу
шин
шинг
шино
шиновари
шиноварии
шинонда
шинондан
шинондани
шинос
шиноси
шиносномаи
шиносои
шиносоии
шинохт
шинохта
шинохтаи
шинохтани
шинохти
шиор
шиори
шир
шираи
ширеш
шири
ширин
ширини
ширинкор
ширинов
ширину
ширинча
шириншо
шириншоҳ
ширк
ширкат
ширкати
ширкаткунандаи
ширкатро
ширкатҳо
ширкатҳои
ширмоҳи
ширу
ширху
шитоб
шитоби
шифо
шифобахш
шифобахши
шифобахшии
шифои
шифоҳи
шифоҳии
шифргузори
ших
шиш
шиша
шишаи
шишаш
шишаҳои
шиши
шишҳо
шишҳои
шиъа
шиҳгоҳи
шиҳоби
шиҳобҳо
школа
школе
школы
шма
шмидт
шнои
шноии
шо
шоби
шовалиева
шогирд
шогирдаш
шогирди
шогирдон
шогирдонаш
шогирдони
шогирдону
шод
шоди
шодие
шодиев
шодии
шодию
шодмон
шодмони
шодравон
шое
шои
шоир
шоира
шоираи
шоире
шоири
шоирии
шоирон
шоирона
шоирони
шоирону
шоирро
шоиру
шоиста
шоистаи
шок
шоки
шокир
шокиров
шокиҳои
шоли
шом
шоми
шомил
шомиланд
шомили
шон
шона
шонад
шонанд
шонда
шонздаҳум
шони
шонида
шоние
шопур
шопури
шостакович
шотемур
шотланди
шотландия
шоу
шофеи
шофеъи
шох
шоха
шохаи
шохаҳои
шохдор
шохи
шохоби
шохобҳои
шоху
шохҳои
шояд
шоҳ
шоҳаншоҳ
шоҳаншоҳи
шоҳаншоҳии
шоҳдухтар
шоҳзода
шоҳзодаи
шоҳи
шоҳигарии
шоҳид
шоҳиди
шоҳии
шоҳин
шоҳини
шоҳиҷаҳон
шоҳмансур
шоҳмансури
шоҳмот
шоҳмурод
шоҳназар
шоҳнома
шоҳон
шоҳона
шоҳони
шоҳону
шоҳро
шоҳроҳи
шоҳрух
шоҳруххон
шоҳтемур
шре
шрек
шри
шро
шт
штаб
штат
штати
штаты
шташ
шти
шту
штуттгарт
шу
шуаро
шуарои
шубҳа
шуд
шуда
шудаанд
шудааст
шудаву
шудаи
шудам
шудан
шуданаш
шуданд
шудани
шуданро
шудаст
шудгор
шуди
шуду
шуи
шукри
шуку
шукуров
шукуфаи
шукуфоии
шукуфон
шумо
шумон
шумор
шумора
шумораи
шумораҳои
шумори
шуморида
шуморо
шумурда
шун
шунаванда
шунавандагон
шунавандагони
шунавандаи
шунавида
шунавои
шуни
шунида
шунидан
шунидани
шунҳои
шуои
шурави
шуриши
шурои
шуру
шуста
шустан
шустани
шустушу
шутур
шутури
шуур
шуури
шуш
шуша
шуши
шуъба
шуъбаи
шуъбаҳои
шуълаи
шуғл
шуғли
шуғнон
шуғнони
шуҳрат
шуҳрате
шуҳрати
шуҳратманд
шуҷоат
шуҷоатнок
шуҷоъ
шь
шҳо
шҳои
шә
щ
ъ
ъа
ъаи
ъат
ъати
ъба
ъбаи
ъгоҳ
ъгоҳи
ъе
ъи
ъмин
ъмон
ъро
ътадил
ътадили
ъҳо
ъҳои
ы
ылных
ылов
ь
э
эгеи
эд
эдвард
эдвин
эдгар
эдгардо
эдельман
эдер
эдисон
эдит
эдуард
эдуардо
эе
эзиди
эзоҳ
эзоҳи
эи
эквадор
эквадори
экватор
экватори
эквиваленти
экз
эклиптика
экологи
экологии
экология
экологияи
экономика
экономики
экономические
экономическии
экономических
экономического
экран
экрани
экс
эксмо
экспедитсия
экспедитсияи
экспедитсияҳои
экспедиции
эксперт
эксперти
экспресс
эктор
экуадор
эл
элвис
электри
электрии
электрики
электрикии
электромагнити
электромагнитии
электрон
электрони
электронии
электроника
электроникаи
электронная
электронныи
электронҳо
электронҳои
электротехника
электротехники
элемент
элементи
элементов
элементы
элементҳо
элементҳои
эли
элиас
элизабет
элитаи
элок
элом
элчин
эмануэл
эмил
эмилио
эмиляно
эмин
эмирата
эммануэл
эмомали
эмт
энгелс
энгельс
энди
эндокрини
эндрю
энер
энергетика
энергетикаи
энергетики
энергетикии
энергия
энергияи
энерҷи
энрике
энрикес
энсиклопеди
энсиклопедии
энсиклопедия
энсиклопедияи
энтони
энциклопедии
энциклопедическии
энциклопедия
энциклопедияи
эпидемиология
эпизод
эпизоди
эпики
эпоси
эпоха
эпохи
эпоху
эр
эра
эраи
эраҷ
эрвин
эргаш
эргашев
эргашева
эрдуғон
эредия
эрик
эрикк
эритрея
эркин
эрнан
эрнандес
эрнекто
эрнест
эрнст
эрон
эронзамин
эрони
эроние
эронии
эронинажод
эрониро
эронитабор
эрониҳо
эронро
эрону
эроншиноси
эррера
эртил
эсанбои
эсеки
эскобар
эсмералдас
эсперанто
эспиноса
эст
эстебан
эстетики
эстетикии
эстони
эстонии
эстония
эстрада
эстрадаи
эстради
эстрадии
эти
этика
этимологическии
этники
этникии
этнографи
этнографии
этнография
этнографияи
этнология
это
этого
этои
этом
этот
этрапи
эфиопия
эфир
эфири
эфирҳои
эфрон
эхирит
эхо
эшон
эшони
эшонро
эълом
эъломия
эъломияи
эълон
эълони
эътибор
эътибори
эътидол
эътилоф
эътилофи
эътимод
эътимоди
эътироз
эътирозгарон
эътирози
эътирозҳо
эътирозҳои
эътироф
эътирофи
эътирофнашудаи
эътирофшудаи
эътиқод
эътиқоди
эътиқодоти
эҳдо
эҳе
эҳром
эҳсон
эҳсос
эҳсоси
эҳсосот
эҳсосоти
эҳтие
эҳтимол
эҳтимолан
эҳтимоли
эҳтимолии
эҳтимолияти
эҳтимоми
эҳтиром
эҳтироми
эҷод
эҷоди
эҷодиаш
эҷодие
эҷодии
эҷодиро
эҷодию
эҷодкардаи
эҷодкор
эҷодкори
эҷодкорони
ю
юань
юб
юби
юбилеи
юго
югославия
юдаков
южа
южная
южно
южного
южнои
юл
юлдошев
юлдуз
юли
юлиан
юлиани
юлии
юлия
юм
юми
юмин
юмро
юн
юнаи
юнеско
юнисеф
юнон
юнони
юноние
юнонии
юнониҳо
юнону
юнус
юнусов
юнучқа
юра
юрев
юреветс
юревич
юри
юридики
юрии
юриши
юрьевич
юсупов
юсупова
юсуф
юсуфбеков
юсуфзода
юсуфи
юсуфов
юсуфова
я
является
ягон
ягона
ягонаги
ягонагии
ягонаи
ягоне
ягони
ягонҳои
яд
ядро
ядрои
яз
язд
язди
язид
язык
языка
языках
языке
языки
языков
языкознания
языком
языку
язғулом
яи
як
якбора
якдигар
якдигарро
якдилона
яке
якеро
яки
якил
якка
якканавози
яккачини
яклухт
яклухти
якоб
яков
яковлев
яковлевич
якпалатаги
якранг
яксаду
яксола
яксолаи
яксон
яктарафа
якто
яктои
яку
якум
якуми
якумин
якумро
якуним
якхела
якхелаи
якчанд
якчоя
якшанбе
якшанбеи
якҷинса
якҷо
якҷоя
якҷояги
якҷояи
якҷояшавии
ялдо
ям
ямаи
ямало
яман
ямани
ян
янв
январ
январи
января
янги
янгон
янд
янда
яндагони
яндаи
яндекс
яне
яни
янкунандаи
янкунии
янро
янукович
яншуда
яншудаи
яп
японии
япония
яр
ярко
ярослав
ярославл
яроқ
яроқи
ясно
ят
яти
ятим
ятсен
ях
яхбанди
яхбандии
яхбастаи
яхи
яхмос
яш
яшт
яштҳо
яъне
яъқуб
яъқуби
яъқубов
яғноб
яғноби
яқин
яҳе
яҳуд
яҳуди
яҳудие
яҳудии
є
ѕ
і
інформаціі
ј
љ
њ
џ
џь
ґ
ғ
ғадуди
ғадудҳои
ғазаб
ғазаби
ғазал
ғазали
ғазалие
ғазалсарои
ғазалу
ғазалҳо
ғазалҳои
ғаззоли
ғазна
ғазнави
ғазнавие
ғазни
ғаи
ғалаба
ғалабаи
ғалае
ғалла
ғалладона
ғаллакори
ғам
ғамбар
ғамбари
ғамбарон
ғамгин
ғами
ғамма
ғаму
ғамхори
ғани
ғаниев
ғании
ғано
ғарб
ғарби
ғарбии
ғарбиро
ғарбро
ғарбтар
ғарбу
ғариб
ғариби
ғарм
ғарқ
ғасб
ғасби
ғафлат
ғафс
ғафси
ғафсиаш
ғафсии
ғафур
ғафуров
ғафурови
ғафуровро
ғаффор
ғаффоров
ғаффорова
ғаюр
ғгу
ғи
ғие
ғижак
ғиждувон
ғижжак
ғижжаки
ғизо
ғизои
ғизоии
ғии
ғилофаки
ғин
ғли
ғози
ғозие
ғозималик
ғоиб
ғоибов
ғоибона
ғоибонаи
ғолиб
ғолибан
ғолиби
ғолибон
ғолибони
ғончи
ғор
ғорат
ғоратгари
ғори
ғофил
ғоя
ғояви
ғоявии
ғояи
ғояҳо
ғояҳои
ғу
ғубор
ғужбаш
ғулом
ғуломдори
ғуломи
ғуломов
ғуломова
ғуломон
ғуломони
ғун
ғунд
ғунча
ғур
ғурбат
ғури
ғурие
ғурм
ғуру
ғуруби
ғурур
ғурури
ғурҳо
ғусл
ҕ
ҕь
ҕә
қ
қа
қабат
қабати
қабатҳои
қабзият
қабзияти
қабил
қабила
қабилави
қабилавии
қабилаи
қабилаҳо
қабилаҳои
қабили
қабл
қаблан
қабли
қаблии
қабоили
қабр
қабри
қабристон
қабристони
қабул
қабули
қабулшуда
қави
қавии
қавитар
қавл
қавле
қавли
қавм
қавми
қавмии
қавму
қавмҳои
қавонини
қавс
қад
қадам
қадами
қадамҳои
қадамҷои
қадар
қадаш
қади
қадим
қадима
қадимаи
қадими
қадимии
қадимро
қадимтарин
қадимтарини
қадимулаи
қадр
қадрдони
қадре
қадри
қадриддин
қадру
қаз
қазақстан
қазвин
қазвини
қаззофи
қазо
қазову
қазои
қазон
қазоқ
қазоқи
қазоқистон
қазоқистони
қазоқҳо
қаи
қал
қалам
қаламдод
қалами
қаламрав
қаламрави
қаламравҳо
қаламравҳои
қаламфур
қаламфури
қаламча
қаландар
қаландаров
қалб
қалбаки
қалби
қали
қалъа
қалъаги
қалъае
қалъаи
қалъаро
қалъачаи
қалъаҳо
қалъаҳои
қамар
қамари
қанд
қандаҳор
қанди
қандро
қанноди
қаноат
қаноти
қара
қарабоғ
қарабоғи
қаратол
қаратоғ
қаратоғи
қарақалпоқистон
қарбулоқ
қарз
қарздиҳанда
қарздор
қарзи
қарзии
қарзови
қарзҳои
қариб
қарн
қарни
қарнҳои
қаро
қаробат
қаробоев
қароку
қарор
қароргоҳи
қарордод
қарордоди
қарордошта
қароре
қарори
қарорҳо
қарорҳои
қаросои
қаротегин
қаротегину
қарохоние
қарши
қасам
қасд
қасдан
қасди
қасида
қасидаи
қасидаҳо
қасидаҳои
қасидаҳояш
қасоид
қасоиди
қаср
қасри
қасру
қасрҳо
қасрҳои
қат
қатар
қати
қатл
қатли
қатор
қатораи
қатори
қаторку
қаторҳои
қатра
қатраҳои
қатрон
қатъ
қатъи
қатъии
қатъиян
қатънома
қатъномаи
қатъномаҳои
қафас
қафаси
қафо
қафои
қафқоз
қафқози
қашқадаре
қаъри
қаҳва
қаҳваранг
қаҳвахона
қаҳрамон
қаҳрамони
қаҳрамонии
қаҳрамонон
қаҳрамонони
қаҳрамонҳо
қаҳрамонҳои
қаҳҳор
қаҳҳори
қаҳҳоров
қи
қибла
қие
қизил
қизилқум
қимат
қиматбаҳо
қимати
қиматнок
қиматҳои
қир
қироат
қироати
қирғ
қирғиз
қирғизи
қирғизистон
қирғизистонро
қирғизҳо
қирғизҳои
қисм
қисман
қисмат
қисмате
қисмати
қисматҳои
қисме
қисми
қисмҳо
қисмҳои
қисса
қиссаву
қиссаи
қиссаҳо
қиссаҳои
қитъа
қитъаи
қитъаҳо
қитъаҳои
қишлоқ
қишлоқи
қишри
қишрҳои
қличева
қо
қобил
қобили
қобилият
қобилияти
қобилиятҳои
қобилов
қобилова
қобус
қобуснома
қодир
қодири
қодиров
қодирова
қози
қозии
қозиғурт
қоида
қоидаи
қоидаҳо
қоидаҳои
қоил
қоим
қолаби
қолабҳои
қолин
қолинбофи
қомат
қомати
қомуси
қонеъ
қонун
қонунбарор
қонунгузор
қонунгузори
қонунгузории
қонуни
қонунии
қонуният
қонунияти
қонуниятҳои
қонунро
қонуну
қонунҳо
қонунҳои
қораи
қори
қорун
қосим
қосими
қосимов
қосимова
қотеъ
қотили
қофия
қошуқ
қошуқи
қошуқча
қошғар
қошғари
қоҳира
қоҷор
қрим
қу
қуб
қубов
қубод
қубодие
қубурҳо
қубурҳои
қувва
қуввазие
қувваи
қувваозмои
қувват
қуввати
қувваҳои
қуддус
қудрат
қудрати
қудратро
қудс
қудси
қулаи
қулла
қуллаи
қуллаҳои
қулфинаи
қум
қуми
қумсангир
қундуз
қуния
қураи
қурама
қурби
қурбон
қурбонали
қурбони
қурбоние
қурбонии
қурбонов
қурбонова
қурва
қурси
қуртуба
қуръон
қуръони
қуръонро
қурғонтеппа
қут
қутаи
қутб
қутби
қутбуддини
қути
қутраш
қутри
қутти
қуттии
қушунҳои
қушчи
қь
қә
ҟ
ҟь
ҟә
ң
ҧ
ҩ
ҭ
ҭә
ү
ұ
ҳ
ҳа
ҳабашистон
ҳабдаҳум
ҳабиб
ҳабибов
ҳабибулло
ҳабс
ҳабси
ҳаваи
ҳавас
ҳаваси
ҳаваскорони
ҳавел
ҳавз
ҳавза
ҳавзааш
ҳавзаи
ҳавзаҳои
ҳавзи
ҳавзҳои
ҳавли
ҳавлии
ҳаво
ҳавогард
ҳавогарди
ҳавогардҳо
ҳаводиси
ҳаводорони
ҳавои
ҳавоии
ҳаволии
ҳавонаварди
ҳавопаи
ҳаворо
ҳавқал
ҳад
ҳадаф
ҳадафи
ҳадафҳо
ҳадафҳои
ҳадде
ҳадди
ҳадис
ҳадиси
ҳадисро
ҳадисҳо
ҳадисҳои
ҳадя
ҳае
ҳаждаҳ
ҳаз
ҳазал
ҳазлу
ҳазм
ҳазми
ҳазор
ҳазора
ҳазораи
ҳазораҳо
ҳазорвожаи
ҳазорон
ҳазорсола
ҳазорсолаи
ҳазору
ҳазорчашма
ҳазорҳо
ҳазрат
ҳазрати
ҳазратқулов
ҳазф
ҳаи
ҳаити
ҳакам
ҳаками
ҳакамон
ҳаким
ҳакимзода
ҳакими
ҳакимии
ҳакимов
ҳакимова
ҳаккоки
ҳал
ҳалаб
ҳалво
ҳалвои
ҳалим
ҳалима
ҳалимов
ҳалкунанда
ҳалли
ҳаллу
ҳаловард
ҳалок
ҳалокат
ҳалол
ҳалқа
ҳалқаи
ҳам
ҳама
ҳамави
ҳамаги
ҳамагон
ҳамагона
ҳамагони
ҳамагонии
ҳамад
ҳамадон
ҳамадони
ҳамаи
ҳамакнун
ҳамал
ҳамаро
ҳамару
ҳамасола
ҳамасрони
ҳаматарафа
ҳамаҷониба
ҳамаҷонибаи
ҳамбастаги
ҳамбастагии
ҳамбург
ҳамватанони
ҳамвор
ҳамвора
ҳамвори
ҳамвории
ҳамвориҳо
ҳамвориҳои
ҳамгироии
ҳамдам
ҳамдамов
ҳамди
ҳамдигар
ҳамдигарро
ҳаме
ҳамеша
ҳамешагии
ҳамешасабз
ҳамешасабзи
ҳамза
ҳамзамон
ҳамид
ҳамида
ҳамидов
ҳамилтон
ҳамин
ҳамкор
ҳамкори
ҳамкории
ҳамкориро
ҳамкориҳо
ҳамкориҳои
ҳамкорони
ҳамл
ҳамла
ҳамлагар
ҳамлагари
ҳамлаи
ҳамлаҳои
ҳамлу
ҳаммарз
ҳаммом
ҳаммуалифи
ҳаммуаллиф
ҳаммуаллифи
ҳаммуаллифии
ҳамном
ҳамноми
ҳамовозии
ҳамоиши
ҳамоишҳои
ҳамон
ҳамоно
ҳамонҷо
ҳамосаи
ҳамоси
ҳамоҳанг
ҳамоҳанги
ҳамоҳангии
ҳамоҳангсози
ҳамоҳангсозии
ҳамроев
ҳамроҳ
ҳамроҳи
ҳамроҳии
ҳамсадо
ҳамсар
ҳамсараш
ҳамсари
ҳамсарон
ҳамсарҳад
ҳамсоя
ҳамсояи
ҳамсуҳбат
ҳамчу
ҳамчун
ҳамчунин
ҳамчунон
ҳамқаламии
ҳан
ҳанафи
ҳанг
ҳангом
ҳангоме
ҳангоми
ҳандаса
ҳандасаи
ҳандаси
ҳанзи
ҳанифа
ҳаннофер
ҳанс
ҳану
ҳануз
ҳар
ҳаракат
ҳаракати
ҳаракаткунанда
ҳаракатҳои
ҳарби
ҳарбие
ҳарбии
ҳарбиро
ҳарбию
ҳарвард
ҳаргиз
ҳаргуна
ҳарду
ҳариф
ҳаролд
ҳаром
ҳароммағз
ҳарор
ҳарорат
ҳарораташ
ҳарорати
ҳароратҳои
ҳарос
ҳарру
ҳарсолаи
ҳарф
ҳарфи
ҳарфҳо
ҳарфҳои
ҳархела
ҳарчанд
ҳарчи
ҳасад
ҳасан
ҳасанду
ҳасани
ҳасанов
ҳасанова
ҳасанови
ҳасина
ҳасрат
ҳасрати
ҳассос
ҳассосияти
ҳаст
ҳаста
ҳастаи
ҳастаии
ҳастам
ҳастанд
ҳасти
ҳастии
ҳастишиноси
ҳат
ҳати
ҳатман
ҳатми
ҳатмии
ҳатмист
ҳатто
ҳафрие
ҳафт
ҳафта
ҳафтавори
ҳафтае
ҳафтаи
ҳафтаномаи
ҳафтку
ҳафтод
ҳафтоду
ҳафтодум
ҳафтпу
ҳафтру
ҳафтсаду
ҳафтсола
ҳафтум
ҳафтуми
ҳафтумин
ҳахоманиши
ҳахоманишие
ҳахоманишиҳо
ҳашарот
ҳашароти
ҳашт
ҳаштод
ҳаштоду
ҳаштсаду
ҳаштум
ҳаштуми
ҳаштумин
ҳаяҷон
ҳақ
ҳақи
ҳақиқат
ҳақиқати
ҳақиқатро
ҳақиқи
ҳақиқии
ҳақназар
ҳақоиқ
ҳаққи
ҳаққони
ҳаҷ
ҳаҷв
ҳаҷви
ҳаҷвии
ҳаҷвнигори
ҳаҷм
ҳаҷман
ҳаҷмаш
ҳаҷми
ҳда
ҳдоман
ҳдт
ҳе
ҳезум
ҳеи
ҳелсинки
ҳенри
ҳерман
ҳеродот
ҳерсеговина
ҳертсоговин
ҳест
ҳеч
ҳеҷ
ҳзод
ҳи
ҳидоят
ҳидояти
ҳидроген
ҳидрогени
ҳие
ҳизб
ҳизби
ҳизбии
ҳизбию
ҳизбро
ҳизбу
ҳизбҳо
ҳизбҳои
ҳии
ҳиит
ҳикмат
ҳикмати
ҳикое
ҳикоя
ҳикояву
ҳикояи
ҳикоят
ҳикояти
ҳикоятҳои
ҳикояҳо
ҳикояҳои
ҳикояҳояш
ҳил
ҳилл
ҳилманд
ҳилол
ҳилоли
ҳиммат
ҳиммати
ҳимолои
ҳимоя
ҳимояи
ҳимоят
ҳимояти
ҳинд
ҳинди
ҳиндии
ҳиндро
ҳинду
ҳиндуаврупои
ҳиндуе
ҳиндуия
ҳиндукуш
ҳиндустон
ҳиндустони
ҳиндустонро
ҳиндухитои
ҳиндуҳо
ҳиндуҳои
ҳини
ҳирави
ҳиро
ҳирот
ҳироти
ҳирфаи
ҳирфаии
ҳис
ҳисоб
ҳисоббарор
ҳисоббарори
ҳисоббарории
ҳисоби
ҳисобида
ҳисобкунии
ҳисобот
ҳисоботи
ҳисобу
ҳисобҳо
ҳисобҳои
ҳисор
ҳисорак
ҳисори
ҳисорро
ҳисору
ҳисса
ҳиссагузори
ҳиссаи
ҳиссачаи
ҳиссачаҳои
ҳиссаҳои
ҳисси
ҳиссие
ҳистон
ҳистони
ҳистонии
ҳитлер
ҳифз
ҳифзи
ҳифозат
ҳифозати
ҳиш
ҳишгари
ҳишгарон
ҳишгоҳ
ҳишгоҳи
ҳиши
ҳишҳо
ҳишҳои
ҳию
ҳияи
ҳиҷо
ҳиҷоз
ҳиҷои
ҳиҷр
ҳиҷрат
ҳиҷри
ҳиҷрии
ҳк
ҳкиш
ҳкт
ҳкч
ҳлат
ҳлати
ҳли
ҳна
ҳнаи
ҳнит
ҳо
ҳоди
ҳодизода
ҳодиса
ҳодисаву
ҳодисаи
ҳодисаро
ҳодисаҳо
ҳодисаҳои
ҳодисоти
ҳое
ҳоз
ҳозима
ҳозир
ҳозира
ҳозиразамон
ҳозираи
ҳозирин
ҳои
ҳоити
ҳоказо
ҳоким
ҳокими
ҳокимият
ҳокимияти
ҳокимиятро
ҳокимон
ҳокимони
ҳоккаидо
ҳол
ҳоланд
ҳолат
ҳолате
ҳолати
ҳолатро
ҳолатҳо
ҳолатҳое
ҳолатҳои
ҳолаш
ҳоле
ҳоли
ҳолиаш
ҳолланд
ҳолланди
ҳолландия
ҳолливуд
ҳолмс
ҳоло
ҳомер
ҳомид
ҳомидов
ҳомие
ҳомии
ҳомил
ҳомила
ҳомилаги
ҳомиладор
ҳомили
ҳон
ҳондурас
ҳондураси
ҳони
ҳоние
ҳонии
ҳониро
ҳонконг
ҳоннаварди
ҳоннавардон
ҳонро
ҳопкинс
ҳори
ҳоро
ҳорун
ҳосил
ҳосилаш
ҳосилаҳои
ҳосили
ҳосилнокии
ҳосилот
ҳосилхез
ҳосилшавии
ҳосилшуда
ҳотам
ҳотами
ҳотамов
ҳоти
ҳофиз
ҳофиза
ҳофизаи
ҳофизи
ҳофизон
ҳофизони
ҳошим
ҳошими
ҳошимов
ҳошияи
ҳояш
ҳоҷат
ҳоҷи
ҳоҷибоев
ҳоҷие
ҳоҷиев
ҳоҷиматов
ҳпу
ҳра
ҳрат
ҳрати
ҳро
ҳрон
ҳрони
ҳсор
ҳсори
ҳст
ҳтоб
ҳу
ҳуваи
ҳувияти
ҳуд
ҳудуд
ҳудуди
ҳудудии
ҳудуду
ҳудудҳои
ҳузур
ҳузури
ҳукм
ҳукми
ҳукмр
ҳукмрон
ҳукмрони
ҳукмрониаш
ҳукмронии
ҳукмронони
ҳукмфармо
ҳукумат
ҳукуматдории
ҳукуматдорони
ҳукумати
ҳукуматии
ҳукуматро
ҳукуматҳо
ҳукуматҳои
ҳукумронии
ҳулбук
ҳумо
ҳумоюн
ҳун
ҳунар
ҳунари
ҳунарии
ҳунарманд
ҳунарманди
ҳунармандон
ҳунармандони
ҳунарнамои
ҳунарнамоии
ҳунарпеша
ҳунарпешаги
ҳунарпешагон
ҳунарпешагони
ҳунарпешазанҳои
ҳунарпешаи
ҳунарпешаро
ҳунарпешаҳо
ҳунарпешаҳои
ҳунарро
ҳунару
ҳунарҳои
ҳурмузгон
ҳурмузд
ҳуруфи
ҳусаи
ҳусеи
ҳусн
ҳусни
ҳусну
ҳут
ҳуш
ҳушанг
ҳушдор
ҳуше
ҳуши
ҳуқуқ
ҳуқуқбуне
ҳуқуқваи
ҳуқуқи
ҳуқуқие
ҳуқуқии
ҳуқуқиро
ҳуқуқро
ҳуқуқу
ҳуқуқшинос
ҳуқуқшиноси
ҳуқуқшиносии
ҳуқуқшиносиро
ҳуқуқэҷодкуни
ҳуқуқҳо
ҳуқуқҳои
ҳуҷаи
ҳуҷра
ҳуҷраи
ҳуҷраҳо
ҳуҷраҳои
ҳуҷум
ҳуҷуми
ҳуҷумкуни
ҳуҷҷат
ҳуҷҷати
ҳуҷҷатии
ҳуҷҷатҳо
ҳуҷҷатҳои
ҳфа
ҳхдт
ҳшиноси
ҳюго
ҳқ
ҳҳо
ҳҳои
ҳә
ҵ
ҵә
ҷ
ҷа
ҷаббор
ҷабборов
ҷабр
ҷабраил
ҷабрдида
ҷабҳа
ҷабҳаи
ҷабҳаҳои
ҷав
ҷавдор
ҷавзо
ҷавоб
ҷавобгари
ҷавобгарии
ҷавобгу
ҷавоби
ҷавод
ҷавон
ҷавоне
ҷавони
ҷавонии
ҷавонмарди
ҷавонон
ҷавонони
ҷавононро
ҷавонро
ҷавонтарин
ҷавоҳирот
ҷавфи
ҷавҳар
ҷавҳари
ҷадвал
ҷадвали
ҷадвалҳои
ҷади
ҷадид
ҷадиди
ҷадидия
ҷаев
ҷаз
ҷазб
ҷазира
ҷазираи
ҷазираро
ҷазираҳо
ҷазираҳои
ҷазо
ҷазои
ҷазоро
ҷазоҳои
ҷаи
ҷакарта
ҷаласа
ҷаласаи
ҷаласаҳои
ҷалб
ҷалби
ҷалил
ҷалилов
ҷалол
ҷалоли
ҷалолиддин
ҷалолиддини
ҷалолобод
ҷалолуддин
ҷалолуддини
ҷам
ҷамил
ҷамму
ҷамоаи
ҷамоат
ҷамоатест
ҷамоати
ҷамоатҳо
ҷамоатҳои
ҷамоаҳои
ҷамол
ҷамоли
ҷамолиддин
ҷамоҳири
ҷамшед
ҷамъ
ҷамъбаст
ҷамъбасти
ҷамъи
ҷамъият
ҷамъияти
ҷамъиятиву
ҷамъиятии
ҷамъиятиро
ҷамъиятию
ҷамъиятро
ҷамъиятшиноси
ҷамъиятшиносии
ҷамъиятҳои
ҷамъовари
ҷамъоварии
ҷамъомади
ҷамъомадҳои
ҷан
ҷанбаи
ҷанбаҳои
ҷанг
ҷангал
ҷангалзор
ҷангалзори
ҷангали
ҷангалҳо
ҷангалҳои
ҷанги
ҷангие
ҷангии
ҷанговар
ҷанговари
ҷанговарон
ҷанговарони
ҷангро
ҷангу
ҷангҳо
ҷангҳои
ҷангҷу
ҷанд
ҷанин
ҷанини
ҷаннат
ҷаноби
ҷанобилов
ҷану
ҷануб
ҷануби
ҷанубии
ҷанубиро
ҷанубтар
ҷанубу
ҷанҷол
ҷанҷоли
ҷарае
ҷари
ҷарима
ҷароҳат
ҷароҳати
ҷароҳатҳои
ҷарроҳ
ҷарроҳи
ҷарроҳии
ҷасади
ҷасорат
ҷастин
ҷасур
ҷафо
ҷашн
ҷашнвораи
ҷашнвораҳои
ҷашни
ҷашнии
ҷашну
ҷашнҳо
ҷашнҳои
ҷашс
ҷаъфар
ҷаъфари
ҷаҳаннам
ҷаҳида
ҷаҳидан
ҷаҳиш
ҷаҳо
ҷаҳолат
ҷаҳон
ҷаҳонбини
ҷаҳонбинии
ҷаҳонгир
ҷаҳони
ҷаҳоние
ҷаҳонии
ҷаҳониро
ҷаҳонишави
ҷаҳоннамо
ҷаҳонро
ҷбв
ҷдмм
ҷдо
ҷеи
ҷек
ҷексон
ҷеннер
ҷерси
ҷетисои
ҷефферсон
ҷи
ҷиби
ҷибути
ҷигар
ҷигари
ҷидда
ҷиддан
ҷидди
ҷиддии
ҷидду
ҷиззах
ҷии
ҷилавгири
ҷилва
ҷилвагар
ҷилд
ҷилди
ҷилдҳои
ҷилику
ҷило
ҷилодор
ҷилои
ҷилояш
ҷим
ҷимми
ҷимоди
ҷин
ҷинои
ҷиноии
ҷиноят
ҷинояти
ҷиноятии
ҷинояткор
ҷинояткори
ҷиноятҳо
ҷиноятҳои
ҷиноҳи
ҷинс
ҷинси
ҷинсии
ҷинсҳои
ҷиргатол
ҷирми
ҷирмҳои
ҷисм
ҷисми
ҷисмони
ҷисмонии
ҷисму
ҷисмҳо
ҷисмҳои
ҷиэ
ҷияни
ҷиҳат
ҷиҳати
ҷиҳатҳо
ҷиҳатҳои
ҷиҳод
ҷиҳози
ҷмандон
ҷмм
ҷмшс
ҷо
ҷоан
ҷобир
ҷобс
ҷованни
ҷовид
ҷовидон
ҷовидона
ҷовидони
ҷода
ҷодаи
ҷоду
ҷое
ҷоест
ҷозеф
ҷозиба
ҷозибаи
ҷозибаҳои
ҷои
ҷоиз
ҷоиза
ҷоизадори
ҷоизаи
ҷоизаро
ҷоизаҳо
ҷоизаҳои
ҷолиб
ҷолибе
ҷолиби
ҷолинус
ҷом
ҷома
ҷомаи
ҷомбул
ҷомеа
ҷомеаи
ҷомеаро
ҷомеашиноси
ҷомеаҳои
ҷомеи
ҷомеъ
ҷомеъа
ҷомеъаи
ҷомеъи
ҷомеъу
ҷоми
ҷон
ҷонам
ҷонатан
ҷонвар
ҷонвари
ҷонварон
ҷонварони
ҷони
ҷониб
ҷонибдори
ҷонибдории
ҷонибдорони
ҷонибек
ҷониби
ҷонишин
ҷонишини
ҷонишинҳои
ҷониҳо
ҷонни
ҷонон
ҷонро
ҷонс
ҷонсон
ҷону
ҷонҳо
ҷопон
ҷопони
ҷордан
ҷори
ҷории
ҷорист
ҷоро
ҷорҷ
ҷорҷия
ҷосим
ҷост
ҷосуси
ҷоти
ҷояш
ҷоғи
ҷс
ҷск
ҷсп
ҷт
ҷу
ҷуброн
ҷуброни
ҷуваи
ҷувори
ҷуворимакка
ҷудо
ҷудогона
ҷудогонаи
ҷудои
ҷудоии
ҷудонашавандаи
ҷудошавии
ҷуду
ҷудуи
ҷуз
ҷузви
ҷузеппе
ҷузъ
ҷузъи
ҷузъие
ҷузъии
ҷузъу
ҷузъҳои
ҷули
ҷум
ҷумалу
ҷумла
ҷумлаанд
ҷумлаи
ҷумлаҳои
ҷумхурии
ҷумъа
ҷумъабои
ҷумъаев
ҷумъаи
ҷумҳу
ҷумҳур
ҷумҳури
ҷумҳурии
ҷумҳуриро
ҷумҳурияви
ҷумҳуриявии
ҷумҳурият
ҷумҳуриҳо
ҷумҳуриҳои
ҷунаи
ҷунбиш
ҷунбиши
ҷунбишҳои
ҷуръат
ҷурғот
ҷурҷ
ҷурҷони
ҷустан
ҷустуҷу
ҷуфт
ҷуфти
ҷуғ
ҷуғрофи
ҷуғрофие
ҷуғрофии
ҷуғрофия
ҷуғрофияи
ҷфо
ҷхдк
ҷхч
ҷхшб
ҷчи
ҷшс
ҷшфс
ҷшфср
ҷқк
һ
ҽ
ҿ
ә
ӡ
ӡә
ө
է
։
ְ
ִ
ֵ
ֶ
ַ
ָ
ֹ
ּ
ֿ
א
ב
ג
ד
ה
ו
ח
ט
י
כ
ל
ם
מ
ן
נ
ע
פ
ר
ת
،
؛
؟
ء
ا
اء
اب
ابن
ابو
ات
اثار
احمد
احوال
اد
ادب
ادبیات
ار
از
اس
استان
اسلام
اسلامی
اطلس
افغانستان
ال
الا
الدين
الدین
الرحمن
الریاض
العربية
القاهرة
الل
الله
المعارف
المللی
الن
ام
امام
ان
انگلیسی
اه
اول
اي
اکبر
ای
ایالات
ایتالیا
ایران
ب
با
باد
بخش
بر
بریتانیا
بزرگ
بشار
بن
به
بو
بيانی
بيروت
بی
بیروت
بین
ة
ت
تا
تاریخ
ترجمە
تفکیک
تقسیمات
تهران
ث
ج
جامع
جلال
جلد
جماعت
جمعیت
جمهوری
جهان
ح
حسن
حسین
حمد
خ
خان
خبرگزاری
خلق
خليفة
خوشنويسان
د
دانش
دانشنامه
دانشنامە
داي
دب
در
دریایی
دمشق
دهخدا
دوشنبه
دوم
ذ
ر
را
رایانه
رة
رةالمعارف
ري
ز
زاد
زبان
زمین
س
سال
سرشماری
سلطنتی
سمرقندی
سورة
سوم
سید
ش
شاه
شاهنامه
شبه
شد
شده
شرح
شعر
شمس
شناسی
شهر
شهرستان
شوروی
شیرازی
ص
صخره
صفا
ض
ط
ظ
ع
عبد
عبدالله
علم
علوم
علي
علی
عمر
عن
غ
ـ
ف
فارس
فارسی
فرانسه
فرهنگ
فرهنگنامە
فرودگاه
في
فی
فیلم
ق
قاره
قم
ك
ل
لمان
م
ما
متحده
محافظة
محمد
محمود
مریکا
مشارکت
مشهد
من
مهدي
مهدی
موسیقي
موسیقی
می
ن
ناحیە
نامه
نتایج
نیروی
ه
ها
های
هـ
هند
هنر
هوایی
و
وا
وب
ول
ولاية
ولایت
ون
وه
ویکی
ى
ي
يس
يل
يم
ين
يه
ً
ٌ
ٍ
َ
ُ
ِ
ّ
ْ
ٓ
ٔ
ٕ
٠
١
٢
٣
٧
٨
٩
٫
٬
ٰ
پ
پاکستان
پدیا
پدیای
چ
چاپ
چهارم
چین
ژ
ک
کابل
کتاب
کردن
کشوری
کنندگان
که
گ
گستر
گیتاشناسی
ی
یا
ۖ
ۗ
ۚ
۝
۱
۱۲
۱۳
۱۳۴۵
۱۳۷۵
۱۳۷۷
۱۳۷۸
۱۳۸۰
۱۳۸۳
۱۳۸۷
۱۳۸۹
۲
۲۰۰۰
۲۰۰۲
۲۰۰۴
۲۰۰۵
۲۰۰۶
۲۰۰۷
۲۰۱۴
۳
۴
۵
۶
۷
۸
۹
ހ
ނ
ރ
ބ
ކ
އ
ވ
މ
ފ
ދ
ތ
ލ
ގ
ސ
ޒ
ަ
ާ
ި
ު
ެ
ޭ
ޮ
ް
ँ
ं
ः
अ
आ
ई
क
ख
ग
घ
च
ज
ट
ड
ण
त
थ
द
ध
न
प
फ
ब
भ
म
य
र
ल
व
श
ष
स
ह
़
ा
ि
ी
ु
ू
ृ
े
ै
ॉ
ो
ौ
्
।
ং
ক
খ
গ
চ
ছ
জ
ট
ড
ত
থ
দ
ধ
ন
প
ফ
ব
ভ
ম
য
র
ল
শ
ষ
স
হ
়
া
ি
ী
ু
ূ
ে
্
ৗ
ৰ
ਜ
ਦ
ਪ
ਬ
ਮ
ਲ
ਸ
਼
ਾ
ਿ
ੀ
ੁ
ੇ
ੰ
ੱ
ક
ગ
દ
ન
પ
મ
ય
ર
લ
વ
શ
સ
ા
િ
ી
ે
ો
્
க
ச
ட
த
ன
ப
ம
ய
ர
ற
ல
ழ
வ
ா
ி
ீ
ு
ெ
ே
ை
்
ం
క
గ
జ
ట
డ
త
ద
న
ప
బ
మ
య
ర
ల
వ
శ
స
ా
ి
ీ
ు
ె
ే
్
ಂ
ಕ
ಗ
ಜ
ಟ
ಡ
ಣ
ತ
ದ
ನ
ಪ
ಬ
ಮ
ರ
ಲ
ಳ
ವ
ಾ
ಿ
ು
ೂ
ೆ
್
ೕ
ം
ക
ച
ട
ത
ന
പ
ബ
മ
യ
ര
ല
ള
വ
സ
ാ
ി
ീ
ു
േ
്
ක
ත
න
ප
ර
ල
ව
ශ
්
ා
ි
ී
ු
ෙ
ก
ค
ง
จ
ช
ด
ต
ท
น
บ
พ
ภ
ม
ย
ร
ล
ว
ส
อ
ั
า
ิ
ี
ึ
ื
ุ
ู
็
่
้
๊
์
ກ
ຄ
ງ
ດ
ນ
ອ
ັ
ິ
ີ
ື
ຸ
ົ
່
້
ໍ
་
།
ཀ
ག
ང
ཆ
ན
པ
བ
མ
ར
ལ
ས
ི
ུ
ེ
ོ
ྒ
ྱ
ྲ
က
ခ
င
စ
ဆ
ည
ထ
န
ပ
မ
ယ
ရ
လ
ာ
ိ
ီ
ု
ေ
ံ
့
း
္
်
ျ
ြ
ွ
ក
ង
ដ
ត
ទ
ន
ប
ភ
ម
យ
រ
ល
ស
ហ
អ
ា
ិ
ី
ុ
ូ
ើ
េ
ំ
៊
់
្
ᵛ
ᶎ
​
‌
‍
‎
‏
‐
‑
‒
–
—
―
‖
‘
’
‚
“
”
„
†
•
…
‧
‰
′
″
‹
›
⁄
⁡
₨
€
ℓ
№
™
←
↑
→
↔
↷
⇄
⇨
∈
∑
−
∙
√
∞
∩
≈
≡
≤
≥
⋅
⋯
③
④
⑦
─
┌
╟
╡
╢
╦
╬
█
◆
◊
♠
ⲁ
ⴰ
ⵉ
ⵍ
ⵎ
ⵏ
⺀
⺄
⺆
⺈
⺊
⺌
⺕
⺝
⺸
⺼
⿰
⿱
⿲
⿳
⿴
⿵
⿶
⿷
⿸
⿹
⿺
⿻
、
。
「
」
〢
あ
い
う
え
か
き
く
け
こ
さ
し
す
せ
た
ち
つ
て
と
な
に
の
は
ひ
へ
ほ
ま
も
ゅ
よ
ら
り
る
れ
わ
を
ん
゙
゚
ァ
ア
ィ
イ
ウ
ェ
オ
カ
キ
ク
コ
サ
シ
ス
セ
ソ
タ
チ
ッ
ツ
テ
ト
ナ
ニ
ネ
ノ
ハ
ヒ
フ
ヘ
ホ
マ
ム
メ
ャ
ユ
ョ
ヨ
ラ
リ
ル
レ
ロ
ン
ヶ
・
ー
㇁
㇂
㇄
㇇
㇈
㇉
㇓
㐁
㐄
㐅
㐌
㐫
㐬
㐭
㐮
㐱
㑒
㒵
㒸
㒼
㓁
㓞
㔾
㕛
㕣
㖾
㘝
㚅
㚇
㚔
㚘
㝉
㝡
㝴
㝵
㞋
㞢
㞷
㠩
㠭
㠯
㡀
㡭
㡿
㢲
㢴
㣇
㣺
㥯
㪅
㫄
㫐
㫒
㫺
㬅
㬎
㬥
㬰
㲋
㳄
㷠
㸒
㸚
㸦
㼌
㼲
㽞
㿟
䀠
䂞
䍃
䏍
䒑
䖍
䖒
䖝
䖵
䙴
䚻
䜌
䝿
䡛
䧹
䪞
一
丁
丂
七
丄
丅
丆
万
丈
三
上
下
丌
不
与
丏
丐
丑
专
且
丕
世
丘
丙
业
东
丞
丢
丣
两
严
並
丨
丩
个
丫
丬
中
丮
丰
丱
串
丵
丶
丷
丸
丹
为
主
丽
丿
乀
乂
乃
久
乆
乇
么
义
之
乌
乍
乎
乏
乐
乑
乔
乖
乗
乘
乙
乚
乛
乜
九
乞
也
习
乡
乳
乾
亀
亅
了
亇
予
争
事
二
亍
于
亏
亐
云
互
亓
五
井
亘
亚
亜
亞
亟
亠
亡
亢
交
亥
亦
产
亨
亩
享
京
亭
亮
亯
亰
亲
亳
亶
亷
人
亻
亼
亾
什
仁
今
介
仌
从
仐
仑
仒
仓
仕
他
付
仙
仝
代
令
以
仮
任
企
伊
伏
伐
休
会
伯
但
位
佐
何
佘
余
作
佥
使
來
侈
侌
侖
侯
侵
便
保
俞
信
修
倉
倍
候
倠
備
僉
僕
儿
兀
允
兂
元
兄
充
兆
兇
先
光
兊
克
兌
免
兑
兒
兓
兔
党
兜
兟
入
全
兩
兪
八
公
六
兮
兰
共
关
兵
其
具
典
兹
兼
冀
冂
冃
冄
内
冈
冉
冊
冋
册
再
冎
冏
冐
冒
冓
冖
冗
冘
军
农
冝
冡
冥
冫
冬
冷
几
凡
凢
凵
凶
凷
凸
凹
出
函
凾
刀
刁
刂
刃
刄
刅
分
切
刍
刑
刕
刖
列
刘
则
初
別
利
别
到
制
刺
則
削
剌
前
剡
剽
劉
力
功
加
劦
助
劫
劳
劵
勃
勇
勉
勒
動
務
勞
勢
勤
勹
勺
勻
勾
勿
匀
匂
包
匆
匈
匊
匋
匍
匕
化
北
匚
匝
匡
匪
匱
匸
匹
区
医
匽
匿
區
十
卂
千
卄
卅
卆
升
午
卉
半
卌
华
卑
卒
卓
单
卖
南
卜
卝
卞
占
卡
卢
卣
卤
卦
卩
卪
卬
卯
印
危
即
却
卵
卷
卸
卻
厂
厃
厄
历
厈
厉
厌
厓
厘
厚
原
厤
厥
厨
厭
厲
厶
厷
厸
去
厼
厽
县
叀
参
參
叅
又
叉
及
友
双
反
叐
发
叒
叔
叕
取
受
叚
叜
叟
口
古
句
另
叩
只
召
可
台
叱
史
右
叵
号
司
叹
吂
各
吅
合
吉
吊
吋
同
名
后
吏
向
吕
君
吝
吞
否
含
启
吳
吴
吹
吾
呂
呆
呈
告
员
呙
周
命
咅
和
咎
咠
咢
咨
咸
咼
哀
品
哈
哉
員
哥
哲
唐
商
啇
問
啚
啬
啻
喀
善
喜
喬
單
喿
嗇
噩
嚴
囊
囗
囘
囙
囚
四
回
囟
因
囧
囬
困
囱
囷
固
国
圂
圅
國
圍
圓
土
圡
圣
圥
在
圭
地
圶
场
圼
坐
坒
坚
坴
垂
垔
垚
埀
埃
埋
城
埶
執
基
堂
堅
堆
堇
堯
報
場
塔
塚
塞
墨
壘
士
壬
壯
声
壳
壴
壹
壺
壽
夂
处
夅
夆
备
夊
夋
夌
复
夏
夒
夕
外
夗
夘
多
夜
夢
大
夨
天
太
夫
夬
夭
央
失
夲
头
夷
夸
夹
夻
夾
奂
奄
奇
奈
奉
奎
奏
奐
契
奓
奔
奚
奞
奠
奢
奥
奭
女
奴
她
奻
好
如
妄
妙
妟
妥
妻
妾
姑
委
姜
威
娄
婁
婴
嬰
嬴
子
孑
孔
孕
孖
字
存
孚
孛
孝
孟
季
孤
学
孫
孱
學
宀
宁
宂
它
宅
宇
守
安
宋
完
宏
宓
宗
官
定
宛
宜
宝
客
宣
室
宮
宰
害
家
容
宾
宿
寄
寅
密
富
寒
察
寧
審
寫
寬
寮
寸
对
寺
寻
寽
対
寿
封
尃
射
将
將
專
尉
尊
尋
尌
對
小
少
尒
尓
尔
尖
尗
尚
尞
尢
尣
尤
尧
尨
尭
就
尸
尹
尺
尻
尼
尽
尾
尿
局
居
屈
屋
屎
屏
屑
展
屖
屚
属
屠
屡
屬
屮
屯
屰
山
屵
屾
岁
岂
岐
岑
岡
岩
岳
岸
峯
島
崇
崎
崑
崔
崖
崙
崩
嵬
嶲
巂
巛
川
州
巟
巠
巢
巤
工
左
巧
巨
巩
巫
差
己
已
巳
巴
巷
巸
巽
巾
巿
帀
市
布
希
帚
帛
帝
带
師
席
帯
帶
常
干
平
年
幵
并
幷
幸
幺
幻
幼
幽
幾
广
庁
広
庄
床
底
店
庚
府
度
庫
庭
庶
康
庸
廉
廌
廛
廣
廩
廴
延
廷
建
廾
廿
开
弁
弃
弄
弇
弋
式
弓
弔
引
弗
弘
弜
弟
弥
弦
弱
張
強
强
彊
彌
彎
彐
彑
当
彔
录
彖
彗
彡
形
彥
彦
彧
彭
彳
役
彼
往
待
律
後
徒
得
徙
從
御
復
微
徳
徵
德
心
忄
必
忌
忍
志
忝
忠
忩
快
念
忽
忿
思
怠
急
怱
恆
恒
恩
恭
息
悉
患
悤
悲
悶
情
惠
惡
惢
愁
愈
意
愛
感
慈
慧
慮
憂
憲
應
戀
戈
戉
戊
戋
戌
戍
戎
成
我
戒
戔
或
戚
戠
戢
截
戲
戶
户
戸
戹
戼
戾
房
所
扁
扇
手
扌
才
打
托
执
承
折
报
拉
拜
拿
指
掌
推
提
摩
撃
支
攴
攵
收
攸
改
放
政
敄
敏
敕
敖
敗
教
敝
敞
敢
散
敦
敫
敬
数
敷
數
斂
文
斉
斊
斗
斤
斥
斩
斬
斯
新
方
於
施
斿
旁
旋
族
无
旡
既
旣
日
旦
旧
旨
早
旬
旱
旲
时
旾
昆
昇
昌
昍
明
昏
易
昔
昗
昜
星
春
昬
是
昱
昴
昷
時
晃
晋
晏
普
景
晶
智
暑
暴
曇
曩
曰
曲
曳
更
曷
書
曹
曼
曾
替
最
朁
會
月
有
朋
服
朔
朕
朗
望
朝
木
朩
未
末
本
札
朮
术
朱
朵
朶
机
朿
杀
李
杏
村
杜
束
条
来
東
杲
杳
松
析
林
枚
果
枝
枲
枼
某
柔
查
柬
柰
柴
査
栗
株
根
桀
桑
桼
梁
條
梟
梨
棘
棠
棥
森
楚
業
楽
概
榮
樂
樊
橋
機
欠
次
欣
欮
欲
欶
欽
款
歆
歇
歌
歛
止
正
此
步
武
歨
歪
歮
歯
歰
歲
歴
歷
歸
歹
歺
死
殳
段
殷
殸
殹
殺
殻
殿
毋
毌
母
毎
每
毒
比
毕
毚
毛
毳
氏
氐
民
气
氣
水
氵
氶
氷
永
氺
氾
求
汝
汞
江
沃
沓
沖
沙
沝
沢
河
油
治
沼
泉
法
波
泣
泥
泰
洛
津
洪
洲
活
派
流
浜
浦
浪
浮
海
淡
淮
清
渚
渠
港
湖
湯
滿
漢
漫
漸
潟
火
灬
灭
灰
灵
灷
炅
炎
炏
炗
炙
炭
為
烈
烏
烝
焉
無
焦
焱
然
煞
熊
熏
燕
營
燮
爪
爫
爭
爯
爰
爱
爲
爵
父
爻
爽
爾
爿
片
版
牙
牚
牛
牜
牟
牢
牧
牪
牽
犀
犬
犭
犮
狂
狄
狊
独
[...]
