!
"
#
##0
##1
##10
##11
##12
##13
##14
##15
##16
##17
##18
##19
##2
##20
##21
##22
##23
##24
##25
##26
##27
##28
##29
##3
##30
##31
##32
##33
##34
##35
##36
##37
##38
##39
##4
##40
##41
##42
##43
##44
##45
##46
##47
##48
##49
##5
##50
##51
##52
##53
##54
##55
##56
##57
##58
##59
##6
##60
##61
##62
##63
##64
##65
##66
##67
##68
##69
##7
##70
##71
##72
##73
##74
##75
##76
##77
##78
##79
##8
##80
##81
##82
##83
##84
##85
##86
##87
##88
##89
##9
##90
##91
##92
##93
##94
##95
##96
##97
##98
##99
$
%
&
'
(
)
*
+
,
-
.
/
0
00
000
0000
000000
001
002
003
004
006
008000
01
02
03
04
045
05
06
07
0783
08
09
1
10
100
1000
10000
1001
1005
1006
101
1010
1012
1015
1016
1018
102
1020
1021
1024
1025
103
1030
1036
1037
104
1040
1048
105
1050
1054
1055
106
1066
1067
107
1070
1072
1073
108
1080
109
1097
11
110
1100
111
112
1128
113
114
1141
115
1150
1158
116
1160
1161
117
118
119
12
120
1200
1203
1204
1206
1207
121
1215
1219
122
1220
1221
123
1230
1234
124
1240
125
1250
126
1260
127
128
1280
129
13
130
1300
131
1311
132
1326
133
1330
1333
1335
134
1340
1341
1344
1346
1348
135
1350
1356
1357
136
1360
1362
1365
1368
1369
137
1370
1371
1372
1373
1374
1375
1376
1377
1378
138
1380
1381
1382
1383
1384
1385
1386
1387
1388
1389
139
1390
1393
1395
1399
14
140
1400
1402
141
142
143
1433
1436
144
145
1450
146
1463
1469
147
148
149
1492
1493
15
150
1500
1501
1502
1506
151
1510
152
1520
1524
1525
1526
153
1530
154
1540
155
1556
156
157
1570
158
1582
1584
1585
159
1598
1599
16
160
1600
1603
1605
161
1613
1616
162
163
1630
164
1642
1645
1646
165
1650
1658
166
1660
167
1676
1677
168
169
17
170
1700
1703
1707
1708
171
1712
172
1720
1722
1724
1725
1727
173
1730
1732
1736
174
1740
1747
1748
175
1750
1752
1753
1755
1756
1758
1759
176
1762
1764
1765
1768
177
1770
1774
1775
1776
1778
1779
178
1780
1781
1782
1783
1785
1786
1787
1788
1789
179
1791
1792
1793
1794
1795
1796
1797
1798
1799
18
180
1800
1801
1802
1803
1804
1805
1806
1807
1808
1809
181
1810
1811
1812
1813
1814
1815
1816
1817
1818
1819
182
1820
1821
1822
1823
1824
1825
1826
1827
1828
1829
183
1830
1831
1832
1833
1834
1835
1836
1837
1838
1839
184
1840
1841
1842
1843
1844
1845
1846
1847
1848
1849
185
1850
1851
1852
1853
1854
1855
1856
1857
1858
1859
186
1860
1861
1862
1863
1864
1865
1866
1867
1868
1869
187
1870
1871
1872
1873
1874
1875
1876
1877
1878
1879
188
1880
1881
1882
1883
1884
1885
1886
1887
1888
1889
189
1890
1891
1892
1893
1894
1895
1896
1897
1898
1899
19
190
1900
1901
1902
1903
1904
1905
1906
1907
1908
1909
191
1910
1911
1912
1913
1914
1915
1916
1917
1918
1919
192
1920
1921
1922
1923
1924
1925
1926
1927
1928
1929
193
1930
1931
1932
1933
1934
1935
1936
1937
1938
1939
194
1940
1941
1942
1943
1944
1945
1946
1947
1948
1949
195
1950
1951
1952
1953
1954
1955
1956
1957
1958
1959
196
1960
1961
1962
1963
1964
1965
1966
1967
1968
1969
197
1970
1971
1972
1973
1974
1975
1976
1977
1978
1979
198
1980
1981
1982
1983
1984
1985
1986
1987
1988
1989
199
1990
1991
1992
1993
1994
1995
1996
1997
1998
1999
2
20
200
2000
2001
2002
2003
2004
2005
2006
2007
2008
2009
201
2010
2011
2012
2013
2014
2015
2016
2017
2018
2019
202
2020
2021
2022
2023
2028
203
2030
204
205
206
207
208
209
21
210
2100
211
212
213
2134
214
215
216
217
218
219
22
220
2200
221
222
223
224
225
226
227
228
229
23
230
2300
231
232
233
234
235
236
237
238
239
24
240
2400
241
242
243
2438
244
245
246
247
248
249
25
250
2500
251
252
253
254
255
256
257
258
259
26
260
2600
261
262
263
264
265
266
267
268
269
27
270
2700
271
272
273
274
2743
275
276
277
278
279
28
280
2800
281
282
283
284
285
286
287
288
289
29
290
291
292
293
294
295
296
297
298
299
3
30
300
3000
301
302
303
304
3048
305
306
307
308
309
31
310
3100
311
312
313
314
315
316
3166
317
318
319
32
320
3200
321
322
323
324
325
326
327
328
329
33
330
3300
331
332
333
334
335
336
337
338
339
34
340
3400
341
342
343
344
345
346
347
348
349
35
350
3500
351
352
353
354
355
356
357
358
359
36
360
3600
361
362
363
364
365
366
367
368
369
37
370
371
372
373
374
375
376
377
378
379
38
380
381
382
383
384
385
386
387
388
389
39
390
391
392
393
394
395
396
397
398
399
4
40
400
4000
401
402
403
404
405
406
407
408
409
41
410
411
412
413
414
415
416
417
418
419
42
420
421
422
423
424
425
426
427
428
429
43
430
431
432
433
434
435
436
437
438
439
44
440
441
442
443
444
445
446
447
448
449
45
450
4500
451
452
453
454
455
456
457
458
459
46
460
461
462
463
464
465
467
468
469
47
470
471
472
473
474
475
476
477
478
479
48
480
481
482
483
484
485
486
487
488
489
49
490
491
492
493
495
496
497
498
499
5
50
500
5000
501
502
503
504
505
506
507
508
509
51
510
511
512
513
514
515
516
517
518
519
52
520
521
522
523
524
525
526
527
528
529
53
530
531
532
533
534
535
536
537
538
539
54
540
541
542
543
544
545
546
547
548
549
55
550
5500
551
552
553
554
555
556
557
558
559
56
560
561
563
564
565
567
568
569
57
570
571
572
573
574
575
576
577
578
579
58
580
581
582
584
585
586
588
589
59
590
591
592
594
595
596
597
598
599
6
60
600
6000
601
602
603
604
605
606
608
609
61
610
611
612
613
614
6143
616
618
619
62
620
621
622
623
624
625
626
628
629
63
630
631
632
633
634
636
637
638
639
64
640
642
643
644
645
649
65
650
651
652
653
654
655
656
657
658
659
66
660
661
662
664
666
667
668
67
670
671
672
674
675
677
678
679
68
680
681
682
683
684
685
686
687
688
689
69
690
691
693
694
695
697
698
699
7
70
700
7000
701
702
704
705
707
708
71
710
711
712
713
715
716
718
72
720
721
722
724
725
728
729
73
730
731
732
734
736
737
738
739
74
740
741
742
743
744
745
746
747
748
749
75
750
751
752
753
754
755
756
757
76
760
761
762
764
765
766
768
77
770
775
776
777
78
780
782
783
785
786
787
789
79
791
792
793
794
797
799
8
80
800
8000
801
802
804
805
808
809
81
810
812
813
814
815
817
818
819
82
820
821
822
823
824
825
827
828
83
830
831
833
836
839
84
840
841
842
844
845
847
848
849
85
850
852
853
854
855
856
858
86
860
8601
862
863
864
866
87
870
871
872
873
874
875
878
879
88
880
884
885
886
888
89
890
891
892
895
896
898
899
9
90
900
9000
901
902
904
906
907
91
910
911
912
913
914
915
917
918
919
92
920
921
922
923
925
926
927
929
93
930
931
932
933
934
935
938
94
940
941
943
944
945
948
95
950
951
952
953
954
955
956
957
958
959
96
960
961
963
964
966
967
968
969
97
970
971
972
973
974
975
976
977
978
979
98
980
981
982
983
984
985
986
987
988
989
99
990
991
992
993
994
995
996
997
998
999
99947
9999
99999
:
;
<
=
>
?
@
\
^
_
`
a
aa
aaa
aakhmedova
ab
abbr
abbreviated
abbreviation
abbreviations
abbrevs
abc
able
ablo
ablon
ablono
about
above
abs
absolute
abu
ac
academia
academic
academy
accept
acceptable
accepted
accepts
access
accessdate
accessed
accessibility
accessible
accesskey
according
account
accounts
achieve
achieved
acosta
acre
across
act
action
actions
active
activeusers
activity
actor
acts
actual
actually
ad
adam
add
addclass
addcss
added
adding
addition
additional
addpubcat
address
adds
addtypesascolor
adj
adm
admin
administrative
administrator
administrators
admins
adria
advance
advanced
adventures
ae
aek
ael
aerial
aero
aeronautica
aeronautical
aeroplane
aeroporto
aeropuerto
aerospace
af
afc
affects
affricate
afg
afghanistan
afl
africa
african
after
ag
again
against
age
aged
agency
ago
agusti
ahli
ai
aichi
air
aircraft
airdrome
aires
airline
airlines
airplane
airport
airports
airways
ajax
ak
akaflieg
al
ala
alan
alave
alb
alba
albacete
albatros
albert
alberto
album
albums
alcala
aldosivi
aleikum
alejandro
aleksandr
aleksei
alert
alex
alexander
alexandre
alexis
alfonso
alfredo
algeciras
algeria
ali
alianza
alias
aliases
aliasesp
alibaba
alicante
align
alignbars
all
alla
allow
allowed
allowing
allows
alma
almagro
almeida
almeri
almirante
alone
along
alonso
alpha
alphabet
alphabetically
already
als
also
alt
altcat
alter
alternate
alternative
although
altitude
alveolar
alves
always
alzira
am
amador
amateur
amazon
ambiguous
ambox
ame
america
american
among
amor
amount
amounts
ampere
amure
amusement
an
ana
analysis
anchor
ancient
and
anderson
andorra
andrade
andre
andrei
andreu
android
angeles
angle
animal
animation
anime
ankara
annual
anonsy
anorthosis
another
answer
ant
anthem
antigua
antlers
anto
antofagasta
anton
antonio
any
anything
anzoa
api
apoel
apollon
apologies
appear
appearance
appearances
appears
append
appendchild
appendsnaks
appendto
apple
applicable
application
applications
applied
applies
apply
appropriate
approval
approximately
aprelya
april
ar
arab
arabi
arabic
arado
aragua
arau
arc
architecture
archive
archived
archivedate
archives
archiveurl
are
area
areas
arg
argentina
argentine
argentino
args
argsi
argsk
argsv
argument
arguments
ariel
aris
arm
armando
armed
arms
army
arol
around
array
arrow
arroyo
arsenal
art
arte
article
articles
artist
artists
arts
arturo
artwork
arxiv
aryan
aryansogd
arz
as
asia
asian
asin
ask
asociacio
asp
assembly
assert
assigned
associac
associated
association
assume
ast
asteras
at
ata
ates
athens
athlete
athletes
athletic
athletics
atlanta
atlante
atlantic
atlas
atle
atletico
atmosphere
atomic
attack
attempt
attention
attr
attraction
attribute
attributes
attribution
atv
au
audax
audio
august
augusto
aurora
aus
auster
australia
australian
austria
aut
author
authority
authorlink
authors
auto
autocollapse
automated
automatic
automatically
aux
av
avai
available
ave
average
avia
aviation
avile
avions
avoid
award
awarded
awards
away
az
azerbaijan
azul
b
ba
baba
babel
baby
back
background
backgroundcolors
bad
bahi
baku
bal
balboa
balompie
band
bandar
bandera
bangladesh
bank
banner
bar
barbosa
barcelona
bardata
barra
barranquilla
barrel
barrels
bas
basconia
base
baseball
based
basic
basket
basketball
bat
batista
battle
battles
bay
bb
bbc
bbl
bc
bd
bdi
be
beach
because
become
becomes
beechcraft
been
before
begin
beginning
begins
behalf
behavior
behaviour
beijing
being
beira
bel
belenenses
belgium
belgorod
belgrano
bell
bella
bellanca
bellmare
below
ben
beni
benidorm
bento
ber
berkshire
berlin
bernard
best
beta
betis
better
between
beyond
bf
bg
bgr
bh
bi
bibcode
bibliography
big
bih
bilbao
billboard
billion
bin
binomial
bio
biography
biolog
bir
birth
bit
bk
black
blackburn
blacklist
blanca
blanco
blank
ble
block
blocked
blocks
blog
blohm
blue
blurb
bm
bn
bo
boa
board
boat
boca
bodies
body
bodyclass
boeing
bold
bolded
bollywood
bolognesi
bonm
bonomi
book
books
boolean
border
borders
borja
born
boston
bosworth
bot
botafogo
both
bots
bottom
boulton
bound
boundaries
bowl
bowler
box
boxes
boyaca
boys
br
bra
bracket
brackets
braga
branch
brazil
break
breda
breed
bridge
brief
brill
britain
britannica
british
broadcasting
broken
bros
brothers
brown
browselinks
browser
browsers
bruno
bs
btn
btu
bu
bucaramanga
budget
buenos
bug
build
builder
building
buildings
built
builtin
bulgaria
bureau
bureaucrat
bus
business
but
button
buttons
bwv
by
byrne
byte
c
ca
caballero
cabinet
cabrera
caceren
caf
cairo
cal
calcio
calculate
calculated
caldas
calend
calendar
cali
california
call
callback
called
calling
calls
calorie
cambridge
came
camera
camp
campaign
campos
can
canada
canadian
candidate
candidates
cannot
cant
canvas
cap
capacity
capital
capitalization
capitalized
capped
caproni
caps
captain
caption
captioned
capture
car
carabobo
caracas
caracol
card
cards
care
career
cargo
carlos
carolina
cartagena
cartoon
carvalho
casa
case
cases
castello
castillo
castro
casualties
cat
catalogue
catch
categories
categorisation
categorization
category
categorytoc
cats
caudron
cause
causes
cb
cbs
cc
cctv
cd
cduc
ce
celaya
cell
cells
census
center
centimetre
central
centre
centro
century
ceres
cerro
certain
ceuta
cf
cfg
cgi
ch
cha
chalaco
championship
championships
change
changed
changes
changing
channel
chapter
char
character
characteristics
characters
charles
chart
charter
chartvis
che
check
checked
checking
checks
checktype
chelny
chemical
chevrolet
chicago
chico
chief
child
children
chile
chilean
china
chinese
chira
chivas
chl
chn
cho
choice
choose
chosen
christian
chronological
chronology
church
cia
cija
cine
cinema
cio
circle
circulation
circumstances
citation
citations
cite
cited
citetb
cities
citing
citizenship
city
ciudad
civil
civilian
cl
claim
claims
clara
class
classes
classical
classification
claudio
clean
cleanup
clear
click
clicking
close
closed
closing
club
clube
clubeen
clubs
cm
cnn
co
coach
coached
coaches
coaching
coachyear
coast
coat
coba
cobreloa
cobresal
cod
code
coded
codes
coe
coi
coins
col
colegio
collaboration
collapse
collapsed
collapsible
collapsiblebox
collected
collection
collections
college
colo
colombia
colon
color
colorist
colors
colour
cols
colspan
colstyle
columbia
columbus
column
columns
com
combat
combatant
combatants
combination
combined
come
comercial
comic
comics
coming
comma
command
commander
commands
commas
comment
commented
comments
commercial
committee
common
commonly
commons
commonscat
commonwealth
communities
community
como
compact
companies
company
compare
comparison
competition
competitions
complete
completed
complex
component
components
composer
composite
composition
compostela
computer
comune
comunicaciones
con
concat
concepcio
concept
condition
conduct
conf
conference
config
configuration
conflict
conflicts
congo
congress
conjunction
conquense
consadole
consensus
consider
considered
consistent
console
consolidated
consonant
constituency
construction
contact
contain
container
containing
contains
content
contentcat
contents
contest
context
continent
continental
continue
contrast
contribution
contributions
contributor
contributors
control
convair
convention
conventions
conversion
conversions
convert
converted
converter
converting
converts
coord
coordinate
coordinates
copied
copy
copyright
core
cornell
corner
coronel
corp
corporacio
corporate
corporation
corps
correct
correctly
corresponding
cortulua
coruler
corun
cos
cosmos
cost
costa
could
coulomb
council
count
counter
counties
countries
country
county
course
court
cover
covered
covid
cpu
cpv
cq
cr
create
created
createelement
creates
creating
creation
creative
creator
creators
credited
crew
cricket
crime
cristian
cristo
criteria
critical
croatia
cross
cruz
cs
cska
css
csstext
ctor
cu
cub
cube
cubic
cuenca
cuft
cultural
culture
cup
cur
currency
current
currently
currenttitle
cursor
curtiss
custom
customary
cut
cuta
cv
cvr
cvt
cy
cyclowiki
cyp
cze
czech
czechoslovakia
d
da
dab
daewoo
daily
dallas
dam
damia
dan
daniel
danilo
dans
dar
dari
dark
darkgrey
darmstadt
das
dash
data
database
dataset
datatype
datavalue
date
dated
dateformat
datepart
dates
david
davis
day
days
db
dc
dd
de
dead
dealing
death
debug
debut
debutmo
debuts
debutyr
dec
december
decimal
decimals
decision
decode
deep
def
default
defaults
defensor
define
defined
definition
definitions
defunct
deg
degree
degrees
deities
del
delete
deleted
deletion
delgado
delhi
delimited
delivery
delta
dem
demo
den
denis
denomination
denominator
density
department
depend
dependencies
depending
deportes
deportiva
deportivo
deprecated
depth
der
des
desc
descfields
describe
described
describes
describing
description
descriptions
descriptive
design
designated
designation
designations
designed
designer
desired
desportiva
detail
detailed
details
detect
detected
determine
determined
determines
deu
deutsche
developed
developer
developers
development
device
df
dh
di
diagram
dialog
diameter
dias
dictionary
did
die
died
diego
diff
difference
different
digit
digital
digits
digo
dil
dim
dimensions
dimitrovgrad
din
dinamo
dir
direct
direction
directly
director
dis
disable
disabled
disambig
disambiguation
discuss
discussion
discussions
disney
disp
display
displayed
displaying
displays
dissent
distance
distinguish
distribution
district
districts
div
division
divisions
diz
dji
dl
dm
dma
dmitri
dms
dnk
do
doc
doctitle
doctor
document
documentation
documented
documents
does
doesn
dog
doi
doing
dolgoprudny
dom
domain
domestic
domi
don
done
dornier
dos
dot
double
douglas
down
download
doxa
dr
drafs
draft
drafting
dragon
draw
dreamworks
driver
drop
drug
drz
ds
dsh
dt
dts
du
dual
dubai
due
dummy
dump
dundee
duplicate
duration
during
durre
dushanbe
dv
dvd
dx
dynamo
dynasty
e
each
eagle
earlier
earliest
early
earth
easier
easily
east
eastern
easy
ec
economic
economy
ecu
ecuador
ed
edit
edited
editing
edition
editions
editor
editors
edits
edu
eduardo
education
edłoha
ee
effect
efs
eg
egy
egypt
ehir
either
ejective
ejido
ek
el
elbibhgu
elche
election
elections
electorate
electric
electronvolt
element
elements
elevation
elite
else
elseif
em
email
embargo
embedded
embedding
emblem
emiliano
emilio
empire
employees
empty
en
enable
enabled
enal
enclosed
encode
encoded
encyclopaedia
encyclopedia
encyclopædia
end
ended
ending
endishmo
endishyr
ends
endyear
energia
energiya
energy
enforcement
eng
engine
engineering
engines
england
english
enough
enrique
ensc
ensure
enter
entered
entering
entertainment
entire
entities
entity
entityid
entries
entry
env
envigado
environment
enwiki
eo
episode
episodes
equal
equals
equidad
equivalent
er
era
eri
ernesto
err
errmsg
error
errors
es
escape
esgrima
espan
especially
esporte
esportiva
esportivo
est
established
establishment
esteban
estoril
estudiantes
et
etal
etc
eth
ethnic
ethnikos
eu
europa
europe
european
ev
even
event
events
ever
everton
every
everyone
everything
ex
exact
exactly
example
examples
except
exception
exceptions
exchange
exclude
exclusive
exec
exist
existing
exists
expand
expanded
expandtemplate
expansion
expected
experience
experiment
experimental
expiry
explanation
explorer
exponent
export
express
expressed
expression
ext
extended
extension
external
extra
extract
extremadura
ez
ezequiel
f
fa
fabia
face
facebook
fact
factor
factory
facundo
fail
fails
fair
fairchild
fairey
falcon
fall
falls
false
famagusta
fame
family
fanaa
fantasy
faq
far
farad
farman
fatih
fbc
fbt
fc
fe
feature
featured
features
february
federal
federation
federico
feedback
feel
feet
felipe
female
ferna
fernandes
fernando
ferreira
ferro
ferrovia
festival
fetch
few
ff
ffcc
ffd
fff
ffff
ffffff
fi
fiat
fiction
fictional
field
fieldgoals
fields
fifa
fifth
figueirense
figueres
figure
figures
file
filename
files
filho
fill
filled
film
filmfare
films
filname
filter
fin
final
financial
find
fine
finish
fire
first
fisher
fit
five
fix
fixed
fk
fl
flag
flags
flamengo
flash
fleet
flex
flight
flip
float
floor
flores
florida
flowering
flughafen
flugzeugbau
flugzeugwerke
fluminense
fly
flying
fm
fmt
focke
focus
folk
folklore
follow
followed
following
follows
font
fonts
fontsize
foo
food
foot
football
footballer
footbot
footer
footnotes
for
forbes
force
forces
forcetoc
foreign
form
formal
format
formatdate
formatlink
formatnum
formats
formatsnak
formatted
formatter
formatting
formed
former
forms
formula
fort
forum
forward
found
foundation
founded
founder
four
fourth
fox
fr
fra
frac
fraction
fractions
fragment
frame
frameless
framework
franc
france
francis
francisco
franco
franklin
free
freedom
french
frequency
frequently
fricative
friedrichshafen
frm
from
front
frontale
frp
ft
fte
fu
fuel
full
fullargs
fullname
fully
func
funcs
function
functionality
functions
further
futbol
futebol
future
fw
g
ga
gaa
gab
gabriel
gadget
gadgets
gadgetwatchlist
gal
galaxy
gallery
gallon
gama
game
games
garci
gas
gasto
gate
gauge
gauges
gazetteer
gb
gbr
ge
gec
geldi
gen
gene
general
generally
generate
generated
generates
generating
generation
generic
genre
genres
genus
geo
geographic
geographical
geography
geonames
george
georges
georgia
gerardo
germa
german
germany
get
getafe
getargs
getbeststatements
getcode
getcontentlanguage
getcurrentframe
getcurrenttitle
getelementbyid
getentity
getentityobject
getlabel
getparent
gets
getsitelink
gettitle
getvalue
gfc
gha
gi
giannina
gif
gijo
gimna
gimnasia
gimp
girl
gis
gitashenasi
give
given
gives
giving
gje
gl
global
globe
globus
gloster
gm
gmatch
gmbh
gnu
go
goal
goals
goes
going
gold
golden
gomes
gonc
gonza
gonzalo
good
google
got
gov
governance
governing
government
gpcm
gr
gram
grameen
gramenet
grand
grant
grants
graphic
grater
gray
grc
gre
great
greater
greatest
greek
green
gregorian
grey
grid
gridcolor
ground
group
groups
gsub
gu
guadalajara
guarani
guard
guayana
guerrero
guez
guide
guidelines
guilas
guilherme
guillermo
gustavo
gutie
guy
h
ha
haber
haberleri
had
hai
half
hall
hand
handle
handled
handler
handley
hands
hapoel
happen
happy
hard
harvard
has
hash
hathaway
hatipog
hatnote
have
havilland
having
hayat
hcard
hd
he
head
header
headers
heading
headquarters
health
heart
heating
heavy
height
heinkel
held
helicopter
helipad
hello
help
helper
hemisphere
henri
henrique
henry
her
here
heritage
herna
hero
herrera
hertage
hertz
hex
hi
hidden
hiddencat
hide
higgins
high
higher
highest
highly
highway
highways
hill
him
hires
hirth
his
hispano
historic
historical
history
hits
hlist
ho
hockey
hold
holding
holds
holiday
holidays
hollywood
home
homebuilt
homepage
homo
hong
honorific
hook
hope
horizontal
horse
horsepower
hospital
host
hot
hotcat
hour
hours
house
hover
how
however
hp
hr
href
hrv
hsb
hth
htm
html
http
https
hu
hua
huachipato
huelva
hugo
huila
hum
human
hun
hundreds
hungary
huraca
hurling
hy
hyphen
hyphenated
hyphens
hz
i
ia
ibm
ibn
ibrahim
ic
icasa
ice
icon
icons
id
idea
ideally
ideas
idem
identical
identification
identified
identifier
identifiers
identify
idn
ids
idx
ie
ietf
if
ig
ignacio
ignore
ignored
igor
ii
iii
ikarus
il
ile
ilicitano
illumination
im
image
imageleft
images
imagesize
imdb
img
immediately
imp
impact
impaired
imperial
impgal
implementation
implemented
implements
import
important
imprint
improve
improvements
in
ina
inactive
inarray
inc
inch
inches
incident
include
included
includes
including
inclusion
income
incorrect
increase
increment
ind
indent
independent
independiente
index
indexof
india
indian
indicate
indicated
indicates
indicator
indirect
individual
individually
individuals
indonesia
industrial
industries
industry
inflation
info
infobox
infoboxes
infocards
information
inherit
init
initial
initially
initials
inkscape
inline
innerhtml
inout
input
inputyear
insert
inserted
inside
instagram
install
installation
instance
instances
instead
institute
institution
instituto
instructions
int
intangible
integer
integral
intended
inter
interact
interested
interface
internacional
internal
international
internazionale
internet
interview
interwiki
inti
into
intro
introduction
invalid
inversed
invisible
invocation
invoke
invoked
involved
io
ip
ipa
ipairs
ipatinga
iphone
ipv
iquique
iquitos
ir
iraklis
iran
iranian
iranica
irapuato
irc
ireland
irib
irish
irl
irn
is
isbn
isempty
isl
islam
islamic
island
islands
ismn
isn
isnotempty
iso
isr
israel
issn
issue
issues
istanbul
istat
istorii
it
ita
italia
italian
italiano
italic
italicized
italics
item
itemid
items
its
itself
ituano
iv
iva
ivan
iw
iwrm
ix
izhevsk
j
ja
jack
jacques
jaime
jakarta
jam
james
jan
january
japan
japanese
jara
java
javascript
javi
javier
jean
jefferson
jerez
jersey
jesu
jesus
jet
jime
jo
joa
joaqui
john
join
joins
jokowi
jonathan
jones
jor
jorge
jose
joule
journal
journals
jpeg
jpg
jpn
jquery
jr
js
json
jstor
ju
juan
julia
julian
julio
july
june
junior
juniors
just
justify
juventud
jv
k
ka
kamaz
kanal
kandahar
kanji
kansas
kashima
kashiwa
kastrioti
katokopias
kawasaki
kaz
kazakhstan
ke
keep
ken
kept
key
keys
keywords
kf
kg
khabarovsk
khan
khovar
ki
kilogram
kilograms
kilometer
kilometers
kilometre
kilometres
kilowatt
kim
king
kingdom
kings
kinonews
kirby
kj
kk
km
kmt
kn
know
knowledge
known
ko
komsomolsk
kong
konstantin
korea
korean
kr
krasnoyarsk
krylia
ks
ku
kuch
kv
kw
kyoto
l
la
lab
label
labels
lack
lacrosse
lady
laguna
lake
lakes
land
lang
langcode
langs
language
languages
lapangan
large
larger
largest
larnaca
las
last
lat
latd
late
later
latest
latin
latitude
latm
latter
lauderdale
law
lay
layer
layers
layout
laysummary
lb
lc
lccn
ldu
le
lead
leader
leaders
leading
league
leandro
leap
learn
learning
least
leave
leaving
leejack
left
legal
legend
legislation
legislative
legislature
leiden
leipzig
leiria
len
length
leningrad
lenta
leo
leonardo
leonel
lepe
les
less
let
letter
letters
levadiakos
levante
level
lex
lez
li
libertad
library
libraryutil
libya
license
lie
lietuvos
lieutenant
life
light
lightgrey
like
likely
lim
lima
limassol
limit
limitations
limited
limits
limsub
linares
line
linear
lines
linfo
link
linkcurrent
linked
linkf
linking
linkprev
links
linux
lio
lions
list
listed
listing
listings
lists
listtype
liter
literature
lithuania
litre
little
live
living
lix
lk
ll
lleida
ln
lo
load
loaddata
loaded
loader
loading
lobos
loc
local
located
location
locations
locator
locmap
locomotive
log
logged
logical
login
logo
logos
logron
logs
lokomotiv
lon
london
long
longd
longer
longitude
look
looking
looks
lookup
loop
lopes
lorca
lorenzo
los
loss
lost
louis
love
loves
low
lower
lowercase
lson
lt
ltd
ltu
lu
lua
luanco
lucas
lucena
luch
luciano
lufthavn
luftstreitkra
luftwaffe
lui
luis
luiz
lum
luna
luquen
lv
lvarez
lvaro
lvez
lycoming
lyrics
m
ma
mac
maccabi
macchi
mach
machine
made
madrid
mafumet
magallanes
magazine
magdalena
magic
magnitude
mail
main
mainsnak
maint
maintenance
major
majority
make
makes
makewikilink
making
maksim
mal
malaguen
male
mall
mallorca
man
management
manager
manchester
mandatory
manga
manual
manually
manuel
manufacturer
manufacturing
many
map
maps
mar
maracaibo
marc
marcelo
march
marchetti
marco
marcos
margin
marguments
mari
mariano
marine
marino
mario
mark
marked
marker
market
marks
marksize
markup
mars
marte
marti
martin
martins
marvel
mary
masjid
mask
mass
master
match
matches
matching
material
materials
math
mathematical
mathematics
matheus
mati
matter
mauricio
mauro
mausoleum
max
maximiliano
maximum
may
maybe
mb
mbox
mc
md
me
mean
meaning
means
meant
measurement
measurements
medal
medals
medelli
media
mediawiki
medical
medina
medium
meet
mehmet
melo
member
members
membership
memory
men
mendoza
mention
mentioned
menu
mercury
merge
merged
message
messages
met
meta
metadata
metatable
meter
meters
method
methods
metre
metres
metric
metro
mex
mexican
mexico
mez
mf
mg
mhatnote
mi
miami
michael
michel
microformat
microformats
microsoft
mid
middle
might
miguel
mikhail
mil
milano
mile
miles
military
million
millonarios
min
mind
mine
mineros
mini
minimal
minimum
minister
minor
minus
minute
minutes
mio
miranda
mirande
mise
mismatch
miss
missing
mission
mit
mj
mk
ml
mli
mlt
mm
mn
mne
mo
mobile
mod
mode
model
modern
modify
module
modules
mohammad
mol
molar
moldova
mole
monobook
montenegro
monterrey
montevideo
month
months
montt
monument
moon
morales
more
moreno
morning
mos
moscow
mosque
most
motor
motors
motto
mountain
mountains
mouse
move
moved
movement
moves
movie
moz
mp
mr
ms
msg
mt
mtv
mu
much
mult
multi
multiple
multiplier
mun
municipal
municipalities
murat
murcia
mus
museo
museu
museum
music
musical
muslim
must
mutually
mw
my
mydoom
n
na
naberezhnye
nacional
nah
nakajima
nam
name
named
names
namespace
namespaces
naming
nan
nap
narod
nasa
nasal
nascimento
nasco
nasdaq
natco
natioal
nation
national
nationality
nations
native
natural
nature
naval
navarro
navbar
navbox
navigation
navy
ncaa
nchen
nchez
nd
ndez
ne
nea
near
nearest
necessarily
necessary
need
needed
needs
negative
neither
nelson
nepal
nested
net
netball
netflix
netherlands
network
never
new
newline
newrawmessage
news
newsletter
newspaper
newspapers
newwithsimpleabbrs
next
nez
neza
nfl
ng
nga
ngel
nguez
nh
nhl
ni
nia
nicaragua
nickelodeon
nickname
nicknames
nicola
nieuport
night
nihat
nikolai
nil
nin
nine
nio
nior
nix
nizhny
nj
nk
nl
nld
nm
nn
no
nocat
node
nodes
noeditsection
nominee
non
none
nor
normal
normally
norman
north
northern
norton
not
notable
notation
note
noted
notes
nothing
notice
notify
notoc
nova
novelda
november
novembro
novgorod
novokubansk
now
nowiki
nowrap
ns
nt
nu
nuco
nuevo
null
num
number
numbered
numbering
numberol
numbers
numdot
numeral
numerals
numerator
numeric
numerical
nums
numsep
numtext
ny
nz
nzl
o
obj
object
objects
oblast
oc
occupation
occurred
occurs
ocean
ocinsoutput
oclc
october
octubre
odd
odessa
oe
oeste
of
off
office
officer
official
offset
ofi
often
og
ogg
oh
oil
ok
ol
old
oldid
oleg
oli
olimpia
olimpo
oliveira
olot
olympiacos
olympiakos
olympic
olympics
om
omar
omit
omitted
on
once
one
oneplus
ones
ongoing
online
only
ontario
ontinyent
oo
op
opacity
open
opened
opening
openstreetmap
opera
operating
operation
operations
operator
operators
opt
option
optional
optionally
options
opts
or
orange
order
ordered
orders
ordinal
oregon
org
organisation
organization
organizations
orientation
orig
origargs
origin
original
originally
orihuela
orlando
oro
ortiz
os
osaka
oscar
ostanhai
osvaldo
other
others
otherwise
our
ourense
out
output
outputs
outside
outvalue
over
overall
overflow
override
overview
oviedo
own
owner
owners
oxford
oz
ozodi
p
pa
pablo
pacific
pad
padding
padlock
page
pagename
pages
pagetype
pair
pairs
pak
pakistan
palace
palamo
palatal
palencia
palestino
paliparan
palmas
pam
pan
panama
panathinaikos
panoramio
paok
par
para
param
parameter
parameters
paramorder
params
parent
parententityids
parentheses
parentnode
parentsnaks
pargs
paris
park
parks
parliament
parms
parse
parsed
parseparam
parser
part
participants
participate
participation
particular
particularly
parties
parts
party
pas
pass
passed
passes
passing
password
past
paste
pasting
pasto
path
patricio
patriotas
pattern
patterns
paul
paulo
pavel
paypal
paz
pc
pcall
pd
pdf
pe
peace
pedro
pen
pending
people
peoples
per
percent
percentage
pereira
performance
performed
period
periodical
periods
persia
persian
person
personal
persons
pertain
peter
petersburg
petrolera
pez
pfc
pframe
pg
ph
phase
philosophy
phoenix
phone
photo
photographic
photos
php
physical
pi
piaggio
picture
pictures
pid
piece
pierre
pilot
pink
pinto
pinyin
pipe
piped
piper
pixel
pixels
pl
place
placed
placeholder
places
placing
plain
plan
planned
plant
plantilla
plants
plata
plate
platform
play
played
player
players
playing
plays
plaza
please
plotarea
plotdata
plugin
plural
plus
pm
pmc
pmid
png
po
pobla
podatki
pogody
point
points
pol
poland
polar
police
policies
policy
polideportivo
polikarpov
polis
polish
political
politics
poly
pop
popular
population
por
port
portal
portals
portimonense
portion
porto
portrait
portugal
portuguesa
pos
position
positional
positions
positive
possible
possibly
post
postcondition
postfix
postscript
potez
potosi
pound
pounds
power
powers
pp
pr
practice
pradesh
praha
praia
pre
prec
precede
preceded
preceding
precise
precision
precondition
predecessor
predefinic
predloga
prefer
preferable
preferably
preference
preferences
preferred
prefix
prefixed
prefixedtext
prefixes
preload
preprocess
preprocesssinglearg
present
presentation
presented
preserved
preset
president
presidential
preslib
press
pressure
presumable
preunit
prev
prevendyear
prevent
preview
previous
previously
pri
price
primarily
primary
prime
principal
print
prior
private
pro
probably
problem
problems
process
processing
produce
produced
producer
produces
product
production
productions
products
professional
profile
prognoz
program
programming
progress
project
projectcode
projection
projects
pronunciation
prop
proper
properly
properties
property
propertyid
proposal
proposals
proposed
props
prose
protected
protection
protectionobj
protein
protocol
prototype
provide
provided
provides
providing
province
provinces
provincial
prt
prudente
ps
pskov
pt
pub
public
publication
publications
published
publisher
publishers
publishing
pubmed
puebla
puerto
puertollano
pumas
punctuation
purge
purpose
purposes
push
pushpin
put
putting
pws
px
pxxx
pywikipedia
pzl
q
qgis
qid
qiwi
qu
qualifier
qualifiers
quality
quantity
que
queen
quere
query
question
questions
quez
quick
quindi
quito
quote
quotes
qxxx
r
ra
rabe
race
racing
radio
radius
rafael
rail
railway
railways
ram
rami
ramo
ramos
ran
random
rang
range
rangers
ranges
rank
ranking
ranks
rare
rarely
raster
rate
rather
rating
ratio
rau
raw
rawget
rayo
rcd
rd
rdoba
re
read
readable
reader
readers
reading
ready
real
really
reason
reasons
receive
received
recent
recognize
recognized
recommended
record
records
recreativa
recreativo
rect
red
redirect
redirects
reduce
redundant
ref
refer
reference
referenced
references
referendum
refs
regardless
regatas
regex
regexp
regia
region
regional
regions
register
registered
registration
regnum
regular
relate
related
relations
relative
release
released
relevant
reliable
relief
religion
religious
rem
remains
remember
remove
removed
renato
render
rendered
rendering
rene
rep
repeat
repeated
replace
replaced
replacement
replaces
report
reports
represent
representative
represented
representing
republic
req
request
requested
requests
require
required
requirements
requires
res
research
resolution
resources
resp
respectively
responsible
rest
result
resultheight
resulting
results
resultwidth
ret
retired
retrieved
return
returned
returns
retval
rev
revenue
reverse
review
reviews
revised
revision
revisions
reyes
reysol
rez
rfc
rft
rg
rgb
rho
ri
ria
ribeiro
rica
ricardo
richard
rico
rida
ride
right
rights
rinfo
rio
riot
rise
risk
river
rivera
rivers
rk
rkiye
rl
rn
ro
road
roads
robert
roberto
robot
rocha
rock
rodolfo
rodri
rodrigo
rodrigues
rojas
role
roles
roma
roman
romania
romero
root
roport
roque
rosa
rou
round
rounded
rounding
rounds
route
routes
routledge
row
rowargs
rowindex
rows
rowspan
royal
royalty
rrez
rsd
rt
ru
rube
rubio
rugby
ruiz
rule
ruler
rulerend
rulerlink
rulerstart
rules
run
running
runs
runway
rus
russia
russian
rwa
ryan
ryazan
s
sa
sablon
saccharum
safe
sailplanes
saint
salamanca
salmon
salom
salvador
salyut
sam
samara
same
sample
samsung
samuel
san
sandbox
sanga
sant
santa
santana
santander
santiago
santos
sapporo
sar
sasanian
satellite
saturn
sau
saudi
save
saved
savoia
saw
say
says
sb
sbp
sc
scale
scaled
scalemajor
scaleminor
scar
sce
schedule
scheme
scholar
school
schools
schweizer
science
sciences
scientific
scientist
sco
scope
score
scotland
screen
screenshot
script
scripts
sd
se
sea
search
searchengvar
searching
season
seats
sebastia
sec
second
secondary
seconds
secretary
sect
section
sections
security
see
seen
select
selected
selecting
selection
self
selfref
semi
sen
senior
sense
sensitive
sent
sentence
sep
separate
separated
separator
separators
sepc
september
sequence
sequences
serena
sergei
sergey
sergio
serial
series
serve
served
server
service
services
session
set
setmetatable
sets
setting
settings
settlement
setup
seven
several
sevilla
sfondo
sh
sha
shaded
shadow
shadows
shah
shanghai
share
shared
she
sheet
shield
shift
ship
shonan
short
shortcut
shortname
shot
should
show
showing
shown
shows
shtml
si
side
sidebar
sides
siemens
siena
sigfig
sign
signature
signed
significant
significantly
silva
silver
similar
simple
simply
sin
since
sing
singapore
single
singles
singular
sio
sister
site
sitelink
sites
six
sixth
size
sizes
sjabloon
sk
ska
skabelon
ski
skin
skip
skoda
sky
sl
slash
sld
slice
slingsby
sm
small
smaller
smena
smith
snak
snaks
snaktype
snippets
snið
so
soares
sobytii
soccer
sochi
social
socie
society
sofia
software
sokol
solar
solid
solo
some
someone
something
sometimes
son
song
songs
sony
soon
soroush
sorry
sort
sortable
sorted
sorting
sortkey
sound
soundfile
source
sourced
sources
south
southern
souza
sovetov
soviet
sp
spa
space
spaces
spacex
spacing
spain
span
spanish
spartak
speaker
special
species
specific
specifically
specified
specifies
specify
specifying
speed
spell
spelling
spellings
spin
spirit
split
spoken
sport
sporting
sportivo
sports
spouse
sputnik
sq
sqft
sql
squad
square
sr
src
srtm
ss
st
staff
stage
stamp
stampa
stan
stanbul
stand
standard
standards
star
stars
start
started
starting
starts
startyear
stat
state
stated
statement
statements
states
static
station
statistics
stats
status
stay
step
steps
stica
still
stishyr
stock
stop
stor
storage
store
stories
story
stp
str
strategy
street
strict
strikers
string
strings
strip
structure
stub
students
studies
studio
studios
study
style
styles
su
sua
sub
subcat
subcategories
subcategory
subdivision
subject
subjectspace
submit
subpage
subpages
subscription
subst
substitute
substituted
substr
substring
subtemplate
subtemplates
subtitle
subunit
succeeded
success
successful
successor
such
sucre
sud
sudan
suffix
suggested
suggestions
suit
suitable
sul
sultan
sum
summarize
summary
summer
sun
sup
super
superunit
supplied
supply
support
supported
supports
suppress
sur
sure
surface
surname
survey
sv
sverdlovsk
svg
svk
svn
swe
swedish
swiss
switch
sydney
sym
symbol
symbols
synonyms
syntax
syr
sysop
system
systems
syzran
t
ta
tab
table
tables
tabletools
tadzhikistan
tag
tags
tail
tajik
tajikistan
take
taken
takes
talk
tall
talleres
tambov
target
targs
taro
task
tasks
tavcifnomaiomuzgoron
tavsifnomaiomuzgoron
taxa
taxobox
taxon
tbilisi
tbol
td
te
tea
team
teams
tech
technical
technology
tecos
teen
tegui
tehran
tel
telegram
telemundo
television
temp
temperature
templat
template
templatedata
templates
templatestyles
temple
temuco
ten
tender
tenerife
tennis
terbang
term
terminal
terms
terrassa
territory
teruel
tesla
test
testcases
testing
tests
teuta
texas
text
textcolor
textdata
tez
tf
tg
tgentry
th
tha
than
thank
thanks
that
the
theatre
their
them
theme
themselves
then
theory
there
therefore
thermal
these
thesis
thessaloniki
theta
they
thiago
thing
things
think
third
this
thispage
thomas
those
though
thousand
thousands
three
through
thumb
thumbnail
thus
ti
tica
ticker
tico
tie
tigers
tigres
till
time
timeaxis
times
timestamp
tiro
title
titled
titleobj
titles
titlestyle
tj
tjk
tl
tls
tm
tmp
tn
tnavbar
tnt
to
toc
today
todo
together
tojnews
tokyo
toledo
tolima
toll
toluca
toma
ton
tonne
tonumber
too
tool
toolbar
tools
tooltip
top
topic
topics
topographic
toppdoma
toronto
torpedo
torque
torrelavega
torres
tostring
total
tour
tournament
town
toyota
tpb
tr
track
tracking
tracks
trade
traditional
trailing
train
trans
transcluded
transclusion
translate
translatearg
translated
translatewiki
translation
translations
translator
transparency
transparent
transport
travel
tre
treated
tree
tries
trim
tripoli
truck
true
trustees
try
ts
tt
tu
tucuma
tun
tur
turkey
turkish
turn
tv
twenty
twice
two
tx
txantiloi
txt
tyers
type
typeof
types
typical
typically
u
ua
uanl
uc
ucam
ucoc
ucode
uda
udara
ufa
ufc
ug
ui
uk
ukraine
ul
un
uname
uncertainty
und
undefined
under
understand
unicode
unido
unio
union
unique
unit
unitcode
united
units
universal
universe
universidad
universitario
university
unix
unknown
unless
unnamed
unnecessary
unpack
unranked
unreviewed
unrounded
until
unused
up
update
updated
updates
upload
uploading
upon
upper
upright
ur
ural
uri
uriutil
url
ury
us
usa
usage
use
used
useful
usename
user
userbox
userboxes
username
userpage
users
uses
usgal
using
usoz
ustring
usual
usually
ut
utc
util
utilities
utils
utype
uz
uzbek
uzbekistan
v
va
val
valencia
valid
validate
validation
valinfo
valle
vallecano
vallejo
valley
value
valuefunc
values
van
vancouver
vandalism
var
vargas
variable
variables
variant
variants
various
vasco
ve
vec
vecindario
vector
vega
vehicle
vehicles
veidne
velar
ven
venezuela
venue
veracruz
verdy
veria
verified
version
versions
vertical
vertigo
very
vi
via
vice
vicente
victor
victoria
video
vieira
view
vii
viii
viktor
vila
villa
village
villanueva
villarreal
vilnius
vin
vio
visible
visit
vista
visual
visualeditor
visually
vito
vladimir
vladislav
vladivostok
vlsergey
voice
voiced
voiceless
voices
vol
volga
volleyball
volt
volume
volumes
volunteers
von
vorlage
voronezh
voss
vote
votes
voting
vowel
vs
w
wa
wales
wall
walt
walter
wanderers
want
wanted
war
warn
warner
warnes
warning
wars
warsaw
was
washington
watch
watchlist
water
waterfall
waterfalls
way
ways
wd
wdeconfig
we
web
webkit
website
websites
week
weekly
weeks
wef
weight
welcome
well
wellington
were
west
western
wgaction
wglangprefs
wgnamespacenumber
wgs
wgscript
what
whatever
wheel
when
where
whether
which
while
white
whitelist
whitespace
who
whole
whose
why
wide
widely
width
wiki
wikibase
wikidata
wikieditor
wikilink
wikilinked
wikilinks
wikimedia
wikimedians
wikipage
wikipedia
wikipedias
wikiproject
wikis
wikisource
wikitext
wikiwand
will
william
williams
wilson
win
window
windows
wing
winner
winning
wins
winter
wish
wishes
wishlist
with
within
without
wmf
wolverine
women
won
word
words
work
working
works
world
worldwaterfalldatabase
would
wp
wptextbox
wrap
wrapped
wrapper
wrappers
wrestling
wright
write
writer
writers
writing
written
wrong
wulf
www
x
xa
xanthi
xi
xii
xiii
xiv
xix
xml
xp
xsampa
xv
xvi
xvii
xviii
xx
xxi
xxx
y
ya
yahoo
yandex
yas
yaz
yd
ye
year
yearbc
years
yellow
yenisey
yes
yesno
yet
yevgeni
yi
yields
yle
yo
yokohama
york
you
young
your
yourself
youth
youtube
yu
yue
yuri
yyyy
z
za
zaf
zamora
zaragoza
zealand
zel
zenit
zero
zeros
zh
zhemchuzhina
zone
zones
zoom
zquez
zu
zulia
zur
{
|
}
~
¡
¢
£
¥
§
©
«
¬
­
®
°
±
²
³
´
µ
·
¹
º
»
¼
½
¾
¿
×
æ
ð
÷
ø
ħ
ı
ın
ŋ
œ
ƣ
ƶ
ǀ
ǁ
ǂ
ǃ
ɐ
ɑ
ɒ
ɔ
ɕ
ɘ
ə
ɛ
ɜ
ɞ
ɟ
ɡ
ɣ
ɤ
ɨ
ɪ
ɯ
ɲ
ɵ
ɶ
ɹ
ʂ
ʃ
ʇ
ʈ
ʉ
ʊ
ʌ
ʏ
ʐ
ʒ
ʔ
ʖ
ʗ
ʘ
ʝ
ʡ
ʰ
ʱ
ʲ
ʷ
ʻ
ʼ
ʾ
ʿ
ˀ
˄
˅
ˈ
ˌ
ː
ːː
ˑ
˔
˕
˖
˗
˞
ˤ
̀
́
̂
̃
̄
̅
̆
̇
̈
̉
̊
̋
̌
̓
̔
̛
̜
̝
̞
̟
̠
̣
̥
̦
̧
̨
̩
̪
̫
̬
̯
̱
̲
̵
̸
̹
̺
̽
͂
͍
͜
͡
α
β
γ
δ
ε
η
θ
λ
μ
ν
ο
π
προ
ρ
ς
σ
τ
τυπο
υ
φ
χ
ω
а
аа
аб
аба
абад
абади
абаи
аббос
аббоси
аббосие
абд
абди
абдували
абдувалиев
абдул
абдулазиз
абдулазизхон
абдулаҳад
абдулвосиев
абдулло
абдуллоев
абдуллоева
абдуллоевич
абдуллозода
абдуллоҳ
абдуллоҳи
абдуллоҳхон
абдулмалик
абдулмутталиб
абдулқодир
абдулқодири
абдулҳаи
абдулҳамид
абдумалик
абдураззоқов
абдурашидов
абдураҳим
абдураҳмон
абдураҳмони
абдураҳмонов
абдурраҳими
абдурраҳмон
абдурраҳмони
абдусалом
абдусаттор
абдушарифи
абдуқодир
абдуҳалим
абдуҷаббор
абе
абел
абзор
абзори
абзорҳои
абк
абр
абрамов
абраҳам
абрешим
абрешими
абри
аброр
абру
абрҳои
абу
абуабдуллоҳ
абуабдуллоҳи
абуали
абуалии
абубакр
абубакри
абузаби
абулаббоси
абулфазл
абулфазли
абулхаи
абулқосим
абулқосими
абулҳасан
абулҳасани
абумансур
абумуслим
абумуслими
абунасри
абураи
абусаид
абусаиди
абуҳанифа
абхазистон
абхазия
абхозистон
абҷад
ав
аваз
аваи
авангард
авасто
авв
аввал
аввала
аввалан
аввали
аввалин
аввалинаш
аввалини
аввалия
аввалияи
аввалро
аввалҳо
аввалҳои
авг
август
августа
августи
августо
аве
авеланеда
авеллино
аверс
авесто
авестои
авзои
авиатсиони
авиатсионии
авиатсия
авиатсияи
авив
авила
авлие
авлод
авлоди
авоили
авохири
аврангзеб
авроқи
авруосие
аврупо
аврупои
аврупоии
аврупоиҳо
аврупоро
австралия
австрия
автобус
автобусҳо
автобусҳои
автодор
автомати
автоматии
автоматически
автоматическое
автомобил
автомобилгард
автомобилгарди
автомобили
автомобилии
автомобилҳои
автономи
автономии
автор
автора
авторитетных
авторы
авф
авфи
авғонов
авҷ
авҷи
агар
агарчи
агенти
агентии
агила
агломератсияи
агра
аграри
аграрии
агрегати
агрениасан
агрикола
агроном
агрономи
агросаноати
агросаноатии
агустин
ад
ада
адаб
адаби
адабиву
адабие
адабии
адабиро
адабию
адад
адади
ададҳо
ададҳои
адам
адами
адамс
адан
адвие
адвия
адвокат
адвокати
адвор
аде
адиб
адиби
адибон
адибони
адибону
адигеи
адигея
адлия
адлияи
адлу
административно
административныи
администратор
администратора
администратором
адмирал
адмирали
адо
адои
адолат
адолати
адолф
адолфо
адрасмон
адреналин
адрес
адриан
адриано
адҳам
ае
аждаҳо
аз
азали
азамат
азбаи
азбаски
азербаи
азиз
азизи
азизов
азизова
азии
азим
азиме
азими
азимов
азия
азият
азми
азнавсози
азнавсозии
азоб
азоби
азов
азодори
азон
азони
азро
азул
азхуд
азхудкунии
азҳар
аи
аикт
ак
ака
акад
академи
академии
академик
академика
академике
академики
академикҳои
академия
академияи
академияҳои
акаденика
акбар
акбари
аккоси
аккредитатсияи
акмал
акнун
акобир
акоста
акрам
акрамов
акс
аксар
аксаран
аксари
аксарият
аксарияти
аксбардори
аксбардории
акси
аксуламали
аксҳо
аксҳои
акт
акте
актриса
актрисаи
актрисаҳо
актуальные
акустикаи
акушери
ал
алабама
алавес
алагуано
алаи
алалхусус
аламут
алан
аланиа
алапаевскии
алар
алаф
алафи
алафҳои
алахусус
алахуэленсе
алба
албани
албания
албасете
албатта
алберт
алберто
албион
албоб
албом
албоми
албомҳо
албомҳои
албурз
алвадор
алвадори
алварес
алваро
алвес
алгебра
алгебрави
алгебраи
алгоритм
алгоритми
алдосиви
алегре
алеи
алекс
алекса
александер
александр
александра
александри
александров
александрович
александровка
алексеев
алексеевич
алексеевск
алексеи
алексис
алексндре
алес
алехандро
алжира
али
алиакбари
алиев
алиева
ализода
алии
аликанте
алиризо
алиро
алиф
алифбо
алифбои
алифбоҳо
алихон
алишер
алишери
алия
алкоркон
алкояно
алла
аллакаи
аллен
аллерги
аллома
алломаи
аллоҳ
алма
алмаато
алмаатои
алмагро
алмати
алматы
алмеи
алмерия
алмилали
алмиллалии
алмос
алмоси
ало
алоку
аломат
аломати
аломатҳо
аломатҳои
алонсо
алоуддин
алоқа
алоқаи
алоқаманд
алоқаманданд
алоқаманди
алоқамандии
алоқаҳои
алоҳида
алоҳидаги
алоҳидаи
алп
алпи
алт
алтаи
алтернативи
алфа
алфонко
алфред
алфредо
аль
альбом
алюминии
алюминия
алянса
аляска
алҳол
алҷазоир
ам
ама
амазонка
амакаш
амаки
амал
амалан
амалдорони
амале
амали
амалие
амалии
амалисозии
амалия
амалияи
амалкунанда
амалкунандаи
амалро
амалҳо
амалҳои
амбурго
амвол
амволи
аме
америка
америкаи
американскои
америки
америкои
ами
амид
амин
аминзода
амини
аминов
аминокислотаҳо
амир
амири
амирон
амирони
амирхон
амиршоев
амит
амитабҳ
амиқ
амиқи
амкар
аммиак
аммо
аммонии
амният
амнияти
амон
амонатбонк
амонов
аморат
аморати
аморебиета
ампаю
ампдория
ампелография
ампер
амр
амри
амрико
амрикои
амрикоии
амрикоиро
амрикоиҳо
амрикоро
амрози
амру
амсоли
амстердам
аму
амударе
амуди
амудии
амур
ан
ана
анализ
анализи
аналогично
ананд
анапа
анаполис
анатолевич
анатолии
анатомия
анатомияи
анбор
анбори
анбу
анвар
анвари
анвои
анвори
анвоъи
анг
ангарск
ангезаи
ангезандаи
ангезандаҳои
ангезаҳои
ангезиш
ангел
ангишт
ангишти
ангиштсанг
англ
англии
англис
англисзабон
англиси
англисии
англисиро
англисҳо
англия
ангола
ангур
ангури
ангурро
ангурҳо
ангушт
ангушти
ангуштон
ангуштони
анд
андак
андаке
андалеб
андалус
андалусия
андар
андарз
андарзи
андаруни
андерсон
андес
андеша
андешаи
андешаҳо
андешаҳои
андешида
анди
андиҷон
андиҷони
андоз
андоза
андозааш
андозаашон
андозагири
андозагирии
андозае
андозаи
андозаҳои
андозбанди
андози
андозҳо
андозҳои
андомгон
андорра
андорри
андохт
андохта
андохтан
андохтани
андраде
андре
андреев
андреевич
андреи
андрес
анду
анерикано
анжи
анзоб
анзоби
ани
аниа
анибал
аниенсе
аниматсиони
аниматсионии
аниме
анис
аниқ
анкара
анна
аннин
анонсы
анор
аносири
анри
ансамбл
ансамбли
ансамблҳои
ансори
анта
анталия
антана
антарктида
антарктика
антарктике
анти
антибиотикҳо
антигуа
антиохи
анто
антон
антонио
антоняна
антофагаста
антропология
антус
ану
анфол
анъана
анъанави
анъанавии
анъанаи
анъанаҳои
анқара
анҷелес
анҷир
анҷом
анҷоми
анҷуман
анҷумани
анҷуманҳои
ао
апаресидо
аполлон
аппарати
аппаратҳои
апр
апрел
апрели
апреля
ар
араб
араби
арабиасос
арабизабон
арабии
арабиро
арабистон
арабистони
арабро
арабу
арабҳо
арабҳои
аракс
арал
арапиракенсе
арапонгас
арасту
араужо
арафаи
арафот
арақ
арбоб
арбоби
арбобони
аргентина
аргентинаги
аргентини
аргументы
ардабел
ардашери
аренас
аржанг
арз
арза
арзанда
арзандаи
арзе
арзи
арзии
арзиш
арзиши
арзишманд
арзишҳои
арзон
арзҳои
ариза
аризаи
ариэл
ариҷа
арк
аркадии
арки
аркони
арктика
армавир
арман
армандо
армани
армании
арманистон
арманистони
арманиҳо
армии
армия
армияи
арнолд
аррои
арсаи
арсенал
арск
арслон
артабони
арте
артинскии
артисти
артиш
артиши
артишҳои
артур
артуро
ару
архангелск
архаринскии
архентино
архентинос
археологи
археологии
археологические
археология
архив
архитектура
арча
аряс
арғунун
ас
асаб
асаби
асабҳои
асад
асадии
асадулло
асал
асали
асар
асараш
асаре
асари
асарро
асару
асарҳо
асарҳое
асарҳои
асарҳояш
асбоб
асбоби
асбобу
асбобҳо
асбобҳои
асеведо
асил
асили
асир
асири
асирони
аскалди
аскар
аскари
аскарони
асл
аслан
асли
аслиаш
аслиддин
аслии
аслиҳа
аслиҳаи
аслҳо
асноди
аснои
асо
асозода
асокясион
асолати
асорат
асорати
асос
асосан
асосгузор
асосгузори
асосгузорони
асосе
асоси
асосиасан
асосиаш
асосии
асосиро
асоснок
асосҳои
асотир
асотири
асотирии
асп
аспекты
аспи
аспирант
аспиранти
аспирантура
аспирантураи
асппарвари
аспро
аспҳо
аспҳои
аср
асри
асримие
асрор
асрори
асроров
асрҳо
асрҳои
ассамблея
ассамблеяи
ассимилятсия
ассис
ассистент
ассистенти
ассотсиатсия
ассотсиатсияи
ассотсиатсияҳои
аст
астаробод
астиаг
астрахан
астрономи
астрономии
астрономия
астрофизика
астрофизикаи
асту
асунсион
асфалт
асфалтпу
асъор
асъори
асҳоб
асҳоби
ат
ата
аталанта
атенас
атеросклероз
ати
атирау
атиқа
атланта
атланте
атлантик
атлас
атласи
атлетик
атлетика
атлетико
атлэтико
атмосфера
атмосфераи
атмосфери
ато
атобоев
атоев
атои
атом
атоми
атомиаш
атомии
атомҳо
атомҳои
атроф
атрофаш
атрофи
атрофие
аттор
ау
аугсбург
аудас
аудио
аудит
аукас
аун
аурич
аурора
ауыл
аф
афанди
афганистан
афганистана
афзал
афзалият
афзалияти
афзалиятноки
афзоиш
афзоиши
афзол
афзор
афзори
афзуд
афзуда
афзудааст
афзудани
афзун
афина
афканишот
афканишоти
афкор
афкори
афлесун
афлотун
африка
африки
африқо
африқои
афрод
афроде
афроди
афродита
афросие
афру
афсар
афсари
афсарони
афсаҳзод
афсона
афсонави
афсонавии
афсонаи
афсонаҳо
афсонаҳои
афтад
афтиши
афтод
афтода
афтодааст
аффриката
афшин
афшор
афшураи
афғон
афғони
афғонистон
афғонистони
афғонистонро
афғонистону
афғонҳо
ахбор
ахбори
ахбороти
ахир
ахиран
ахлоқ
ахлоқи
ахлоқии
ахлоқу
ахмедов
ахоли
ахтар
ахтаршиноси
ахтаршиносии
ахтубинск
ачитскии
аш
аше
ашк
ашки
ашконие
ашраф
ашрафи
ашроф
ашрофи
ашрофони
ашт
аштархоние
ашти
ашу
ашхос
ашхосе
ашхоси
ашъор
ашъораш
ашъорашро
ашъори
ашқобод
аъе
аъзам
аъзами
аъзо
аъзое
аъзои
аъло
аълом
аълочии
аъмол
аъмоли
аъроф
аъузу
аэропорт
аэропорти
ағбаи
ағдам
ағлаб
ақал
ақали
ақаллияти
ақаллиятҳои
ақвом
ақвоми
ақди
ақиб
ақибгоҳи
ақибнишини
ақида
ақидае
ақидаи
ақидаҳо
ақидаҳои
ақл
ақли
ақлу
ақоиди
ақоқие
ақраб
аққал
аҳамият
аҳамияти
аҳаммият
аҳаммияти
аҳбоб
аҳвоз
аҳвол
аҳволи
аҳд
аҳди
аҳднома
аҳдномаи
аҳдҳои
аҳе
аҳзоби
аҳкоми
аҳли
аҳмад
аҳмадзода
аҳмади
аҳмадов
аҳмадова
аҳмадшоҳ
аҳмадшоҳи
аҳмадҷон
аҳмар
аҳодиси
аҳои
аҳоли
аҳолиаш
аҳолии
аҳолинишин
аҳолинишини
аҳолиро
аҳорун
аҳриман
аҳрор
аҳрори
аҳура
аҷаб
аҷалгие
аҷам
аҷами
аҷдоди
аҷдодони
аҷзи
аҷиб
аҷоиб
аҷоибу
б
ба
бабаев
бабушкин
бавария
бавижа
бавосир
бавосита
бад
бадалона
бадан
баданаш
бадани
баданро
бадарға
бадахос
бадахши
бадахшон
бадахшони
бадахшонро
бадеи
бадеии
бадеиро
бадеию
бадеъ
бади
бадминтон
бадоеъ
бадоеъу
бадри
бадтар
бае
база
базаи
базе
базм
базми
баи
баиа
бак
бакалавр
бакалаври
бакр
бактерияҳо
бактерияҳои
баку
баланд
баланде
баланди
баландиаш
баландиашон
баландии
баландихтисос
баландиҳои
баландку
баландро
баландтар
баландтарин
баландтаринаш
баландтарини
баланду
баландшиддати
баласанян
бале
балеарес
балет
балети
балетмеи
бали
балкан
балки
бало
баломпедика
баломпие
балоғат
балоғати
балтика
балтимор
балучистон
балучистони
балуҷистон
балх
балхаш
балхи
балъами
балғам
балҷувон
балҷувони
бам
бан
бана
банан
банақшагири
банақшагирии
бангалор
бангкок
бангладеш
банглодеш
бангола
банголи
бангу
банд
банда
бандаи
бандакҳои
банданд
бандар
бандари
бандарҳои
банди
бандина
бандинаи
бандпои
банду
бандҳои
бани
банк
банков
банфиелд
банфиэлд
бар
барад
барак
баракалдо
баракат
баракати
баранд
баранда
барандагони
барандаи
бараш
барбадос
барбара
барбаренсе
барбат
барбоза
барбуда
барвақт
барг
баргардад
баргардон
баргардонад
баргардонд
баргардонида
баргардонидани
баргаш
баргашт
баргашта
баргаштан
баргаштанд
барги
баргирифта
баргу
баргузида
баргузидаи
баргузор
баргузории
баргҳои
бардавом
бардошт
бардошта
бардоштан
бардоштанд
бардоштани
бардуру
баред
барзие
барзу
бари
барид
барии
барин
барканор
барканории
бармаҳал
бармегардад
бармегарданд
бармеояд
барнаул
барнечеа
барно
барнома
барномави
барномавии
барномаи
барномарези
барномаро
барномасози
барномасозии
барномаҳо
барномаҳои
баро
баробар
баробари
баробарии
баробарҳуқуқии
баровард
бароварда
баровардааст
баровардан
бароварданд
баровардани
бародар
бародараш
бародари
бародарон
бародарони
бародаршаҳрҳо
барои
баромад
баромада
баромадаанд
баромадааст
баромадан
баромаданд
баромадани
баромади
баромадҳо
баромадҳои
барон
барорад
барориши
барот
баротов
барояд
барояш
барояшон
барпо
барра
барранкила
барраси
баррасии
баррасиҳои
барселона
бартанг
бартар
бартараф
бартари
бартарии
бартолд
бартольд
бару
баруэри
барф
барфи
барфу
бархе
бархост
бархоста
барху
бархурдор
баръакс
баръакси
барқ
барқарор
барқарории
барқароркунии
барқарорсози
барқарорсозии
барқи
барқии
барқро
барҳам
барҳаме
барҳамху
барҷаста
барҷастаи
барҷастатарин
бас
басе
басел
баскетбол
баски
басо
басомади
басра
бассеи
баст
баста
бастааст
бастан
бастанд
бастани
басти
бат
батиста
батни
баттони
баффет
бах
бахт
бахти
бахтие
бахусус
бахш
бахшад
бахшбанди
бахшбандии
бахше
бахши
бахшид
бахшида
бахшидааст
бахшидан
бахшиданд
бахшидани
бахшҳо
бахшҳои
бача
бачагон
бачагона
бачагонаи
бачагони
бачадон
бачаи
бачаҳо
бачаҳои
баччан
башар
башарду
башари
башарият
башир
баъд
баъдан
баъди
баъдии
баъдина
баъдтар
баъдҳо
баъзан
баъзе
баъзеашон
баъзеи
баъзеҳо
баяндаи
бағдод
бағдоди
бағлон
бағоят
бақаи
бақара
бақияи
бақо
бақозода
бақои
баҳисобгири
баҳисобгирии
баҳман
баҳо
баҳогузори
баҳодиҳи
баҳодиҳии
баҳодур
баҳои
баҳонаи
баҳор
баҳорак
баҳори
баҳористон
баҳорон
баҳору
баҳоуддин
баҳоуддини
баҳр
баҳра
баҳрабардори
баҳравар
баҳраи
баҳри
баҳриддин
баҳрии
баҳрнаварди
баҳром
баҳроми
баҳру
баҳрҳо
баҳрҳои
баҳс
баҳси
баҳсу
баҳсҳо
баҳсҳои
бда
бдор
бдоршаванда
бе
беандоза
беасос
бевосита
бевоситаи
бегона
бегонаи
бегуноҳ
бед
бедил
бедона
бедор
бедори
бедории
бежан
без
безарар
безопасности
беи
бек
беки
бекигарии
бекор
бекори
бела
беларус
беларуси
белгия
белгород
белград
белграно
белен
беленицкого
белиз
белинскии
белл
бело
белогорскии
белозер
белорус
белоруси
белоруссия
белорусҳо
белоярскии
бемор
бемори
бемории
бемористон
бемористони
бемориҳо
бемориҳои
беморон
беморони
беморро
беморхона
беморхонаи
беморхонаҳо
бен
беназир
беназири
бенгали
бензин
бензол
бенин
бенитес
бениҳоят
бенто
бенфика
бенҷамин
беохир
бепул
бер
беранг
бераҳмона
берг
бердиев
бере
березовка
бериллии
беркли
беркшир
берлин
берлини
бернард
бернардо
бертелс
берун
беруна
берунаи
беруни
берунии
бесаводи
бессарабия
бесутун
бета
бетараф
бетарафи
бетаъсир
бетағи
бетис
бетон
бетховен
бех
бехатар
бехатари
бехатарии
бехи
бехпие
бечора
беш
бешазор
бешазори
бешаи
бешаҳои
бештар
бештаре
бештари
бештарин
бешубҳа
беэътибор
беҳ
беҳад
беҳамто
беҳамтои
беҳбуди
беҳдошт
беҳдошти
беҳзод
беҳру
беҳтар
беҳтарин
беҳтарини
беҳуда
беҷошавии
би
бибер
биби
бибиси
библиографи
библиографии
библиография
библиографияи
библиотека
библиотеки
бигзор
бигирад
бигиранд
бигу
бидиҳад
бидон
бидуни
бие
бизнес
бии
биков
билбао
билл
биллоҳ
билохира
билоятҳои
бимонад
бин
бингаред
бини
бинии
биниши
бинни
бино
бинобар
биное
бинои
бинокори
бинокории
биноҳо
биноҳои
бинти
бину
био
биографии
биография
биокимие
биолог
биологи
биологии
биология
биологияи
биологони
биосфера
биотехнологии
биофизика
биофизикаи
биохимия
бипаша
бир
бирасад
бире
биржа
биржаи
биринҷ
биринҷи
биринҷии
бирма
бисау
бисе
бисмиллоҳ
бист
бистари
бисту
бистум
бисье
бит
биху
бич
бишев
бишкек
биҳи
биҳишт
биҳишти
биҳои
благовешенскии
бланко
блог
блоги
блок
блока
блоки
блокировки
блоков
блооминг
бо
боб
бобак
бобакон
бобат
бобати
бобби
боби
бобие
бобил
бобо
бобоев
бобои
бобокалонов
бобохонов
бобохоҷаев
бобояш
бобоқулов
бобоҷон
бобоҷонов
бобров
бобул
бобуна
бобур
бобурнома
бобҳои
бовар
бовари
боварии
боварҳои
богдановичскии
боголюбов
богота
богучар
бод
бода
бодаи
боди
бодиринг
бодиянишин
бодканд
бодканди
бодом
бодоми
боду
бодҳои
боз
бозбинишуда
бозгашт
бозгашти
бозгу
боздид
боздошт
боздошта
боздоштани
боздошти
бозе
бози
бозигар
бозигари
бозигарон
бозигарони
бозид
бозида
бозидаанд
бозидааст
бозиданд
бозии
бозингари
бозингарони
бозиро
бозича
бозичаҳо
бозичаҳои
бозиҳо
бозиҳои
бозмедорад
бозмонда
бознигаред
бозому
бозор
бозорбои
бозори
бозорҳои
бозпас
бозрасии
бозсози
бозсозии
бозтоб
бои
боис
боиси
боистеъдод
бок
бока
бокс
боку
бол
болае
болгардгоҳи
более
болезни
боли
боливар
боливие
боливия
болиғ
болливуд
боло
болои
болоии
болона
болооби
болопу
болоравии
болотар
болотарин
болояш
болу
болшая
болшевикон
болшие
болшое
болшои
большая
больше
большинстве
большои
болға
болҳои
бом
бомаҳорат
бомбаи
бомдод
боми
бомие
бомуваффақият
бон
бонди
бондҳ
бони
боние
бонк
бонки
бонкии
бонкҳо
бонкҳои
бонни
бону
бонувон
бонувони
бонуи
бонуфуз
бонуфузи
бонуфузтарин
бонҳо
бонҳои
бор
бора
бораи
борбад
борбади
борбари
боргоҳи
бордо
бордор
боре
бори
борик
борики
борис
борисович
борисовск
борисоглебск
бориш
бориши
боришоти
боркаш
боркаши
бородин
борон
борони
боруссия
борха
борьба
борьбе
борьбы
борҳо
босазо
босамари
босмачие
босния
бостон
бостони
бостонии
бостоншинос
бостоншиноси
бостоншиносии
бостоншиносон
босуръат
босуръати
бот
ботаника
ботаникаи
ботаники
ботаникии
ботафого
боти
ботил
ботин
ботини
ботинии
ботов
ботсвана
ботҳо
бофандаги
бофта
бофтаи
бофтаҳо
бофтаҳои
бохабар
бохан
бохт
бохтар
бохтари
бохтарие
бош
бошад
бошам
бошанд
бошанда
бошандагони
бошгоҳ
бошгоҳи
бошгоҳҳо
бошгоҳҳои
бошед
боши
бошишгоҳи
бошуку
бошқирдистон
боэътимод
боэътимоди
бояд
боғ
боғдори
боғи
боғу
боғча
боғчаи
боғҳо
боғҳои
боқи
боқиев
боқизода
боқимонда
боқимондаи
боқимондаро
боқимондаҳои
боқия
боҳ
боҳашамат
боҳомо
браво
брага
брагантино
брагинскии
бразили
бразилия
браи
бранко
брасил
брасилиа
брасилиенсе
брасов
братислава
братск
браузер
браун
брашов
брегентс
бреи
бремен
бренди
брест
бригада
бригадаи
брин
британие
британия
британияи
бритоние
бро
брокгауза
брунеи
бруно
бруске
брухас
брюс
брюссел
брянск
бу
буависта
буавишта
бувад
буваи
бугера
буд
буда
будаанд
будааст
будаи
будам
будан
буданаш
буданд
будани
будапешт
бударо
буддо
буддои
буддоия
будет
буди
буду
будут
буз
бузи
бузург
бузургаш
бузургвор
бузургдошти
бузурге
бузургзода
бузурги
бузургии
бузургиҳо
бузургиҳои
бузургон
бузургони
бузургро
бузургтар
бузургтарин
бузургтарини
бузургу
буи
букв
буквы
букурешти
булагат
булбул
булдон
булл
буллс
булу
булут
булғори
булғористон
булғория
бум
буми
бумии
бунафш
бунафша
бунгоҳи
бундестаг
буне
бур
бурак
бург
бургос
бурд
бурда
бурдаанд
бурдааст
бурдан
бурданд
бурдани
бурди
бурдори
буре
буреи
буржуази
бурида
буридан
буридани
буриши
буркина
буру
бурун
бурятия
бурҳон
бурҳони
бурҳонов
бурҳонуддин
бурҷ
бурҷи
бурҷу
бурҷҳо
бурҷҳои
бутан
бутефлиқа
бути
бутта
буттаи
буттаҳои
бутун
бутурлинов
бух
бухарест
бухгалтери
бухор
бухори
бухоро
бухорову
бухорои
бухороро
буш
бушаҳр
буэнос
буғ
буғи
буғум
буқрот
буҳрони
буҷаи
буҷет
буҷети
бф
бы
был
была
были
было
быть
бышев
бэи
бэсеску
бюлис
бюрои
бҳо
бҳои
бҳутто
в
ва
вабо
вавилов
вавилон
вагнер
вадим
важно
вазир
вазири
вазирон
вазирони
вазиронро
вазифа
вазифааш
вазифадор
вазифаи
вазифаро
вазифаҳо
вазифаҳои
вазн
вазнаш
вазни
вазнин
вазнини
вазорат
вазорати
вазорату
вазоратҳо
вазоратҳои
вазъ
вазъи
вазъият
вазъияти
ваи
вак
вакил
вакили
вакилон
вакилони
ваколат
ваколатдор
ваколатдори
ваколати
ваколатҳои
ваксина
ваксинаи
вакт
вакти
вал
валад
валадолид
валаматзода
валдес
валдивия
вале
валекано
валенкия
валенсия
валентин
валеревич
валери
валериан
валерии
валехо
вали
валиаҳд
валиаҳди
валид
вализода
валс
валуи
вам
ван
ванд
вандад
вандакҳои
вандализм
вандализма
ванданд
вандерерс
ванди
вандҳо
вандҳои
ванкувер
вануату
ванҷ
ванҷи
вао
вар
варам
варами
варақ
варақаи
варақаҳои
варақсангҳои
вараҷа
варгас
варзид
варзида
варзидааст
варзидаи
варзиданд
варзиш
варзишгар
варзишгари
варзишгарон
варзишгарони
варзишгоҳ
варзишгоҳи
варзиши
варзишии
варзоб
вари
вариант
варианти
вариантҳои
варшава
вас
васеи
васеъ
васеъи
васеътар
васеъшавии
васила
василаи
василаҳои
василевич
василии
васият
васкес
васко
васл
васли
васоили
васоити
васт
васта
вастагиҳои
вастаи
вастан
вастанд
вастани
васти
вастшави
вастҳои
васф
васфи
ватан
ватанаш
ватанду
ватани
ватании
ватикан
ватслав
ваф
вафо
вафодор
вафот
вафоташ
вафоти
вахие
вахон
вахш
вахши
вахшро
вахшу
вашгирд
ваше
вашеи
вашингтон
вашкин
вашт
вашти
ваъда
ваъдаи
ваъз
вақоеъ
вақт
вақте
вақти
вақтро
вақтҳо
вақтҳои
вақф
ваҳдат
ваҳдати
ваҳи
ваҳши
ваҳшие
ваҷд
ваҷҳ
ваҷҳи
вв
введение
вверху
ве
веб
вебгоҳ
вебгоҳи
вебер
вебсаи
вега
ведомости
вежа
веи
век
века
веке
веков
вексел
вектори
вел
веласкес
велес
великая
великии
великоустюг
велингтон
велскии
вен
вена
венгрия
венесуэла
венесуэли
венетсия
вера
веракрус
верде
верди
верона
вероятностеи
версии
версию
версия
версияи
вертоле
верхнего
верхнеи
верхнеландехов
верхнесалдинскии
верхнетоемскии
верхнехав
верхнии
верхняя
верховаж
верховного
верхотурскии
вест
вестерн
вестминстер
вестник
весь
ветерани
ветеринари
ветнам
вече
взаимодеи
ви
виго
вигонич
вид
вида
видал
виде
видео
видеои
видеоии
видов
видоъ
виды
видя
виеи
виетнам
вижа
вижагиҳои
вижаи
византия
вии
викенте
вики
викианбор
викиданные
викиданных
викидода
викилуғат
викимаълумот
викимедиа
википедиа
википедиаи
википедии
википедию
википедия
википедияи
викискладе
викитека
викификатор
виктор
виктория
викторович
вил
вила
виларреал
вилегодскии
вилла
вилмерсдорф
вилнюс
вилоят
вилояти
вилоятии
вилоятро
вилоятҳо
вилоятҳои
вилстерманн
вилям
вилҳелм
вин
виникиус
винограда
виноградовскии
винсент
винтертур
винчи
виня
виолончел
вироиш
вироиши
вироишот
вироишҳо
вирус
вируси
вирусҳо
вирусҳои
вирҷиния
вис
висенте
висконсин
виста
виталии
витамини
витаминҳо
витаминҳои
витебск
витегор
виториа
витория
витр
витяз
вице
вич
вичуг
виҷдон
вкд
вклад
включает
включая
вконтакте
вкп
владивосток
владикавказ
владимир
владимирович
владислав
влазни
власти
власть
вле
вли
влияние
влксм
вм
вместе
вместо
вмкб
вне
внешние
внизу
внимание
внутренних
внутри
во
вобаста
вобастаанд
вобастаги
вобастагии
вобастаи
вогузор
води
водии
водиҳо
водиҳои
водор
военная
военное
вожа
вожаи
вожаномаи
вожашиноси
вожаҳо
вожаҳои
вожегод
возвращает
возеҳ
возможно
возможности
возможность
вои
воизи
вокали
вокеъ
вокзал
вокуниш
вокуниши
волга
волгар
волгоград
волеи
волжски
воли
волидаи
волидон
волидонаш
волидони
волии
вологда
вологод
володарск
волои
волоияти
волоконовск
волости
волта
волтер
волфрам
вомеху
вон
вони
вонот
воноти
вонотро
воноту
вонҳои
вопасин
вопрос
вопросу
вопросы
ворид
вориди
воридот
воридоти
воридшавии
ворис
вориси
ворисони
воробев
воронеж
вороновское
воронск
вору
ворух
восеъ
восита
воситаи
воситаҳои
восифи
воспользоваться
восток
востока
восточная
восточнои
воху
вошенгтун
воя
вояи
воқеа
воқеаи
воқеан
воқеанд
воқеаҳо
воқеаҳои
воқеи
воқеии
воқеият
воқеияти
воқеоти
воқеъ
воқиф
воҳаҳои
воҳид
воҳиди
воҳидов
воҳидҳо
воҳидҳои
воҷиб
вп
впервые
времени
время
вс
все
всегда
всего
всеи
всем
всемирного
всемирныи
всесоюзная
всех
вставить
вставки
всю
вторая
второго
второе
второи
ву
вуди
вузаро
вузов
вузу
вулкани
вулусволи
вулусволии
вулқони
вуруд
вуруди
вусъат
вусъати
вучич
вучуд
вуш
вушмгир
вуқу
вуқуфи
вуҷуби
вуҷуд
вуҷуди
вчера
вы
выборах
выборов
вывод
вывода
выводится
вызов
вызова
вып
выпуск
выравнивание
высоких
высота
высоты
высшая
выше
вэранополис
вязников
вячеслав
вячеславович
г
га
габон
габриэл
гава
гаваи
гаврилово
гавҳар
гавҳари
гагарин
гадо
гадоев
газ
газак
газаки
газета
газетаи
газеты
гази
газовик
газпром
газу
газҳо
газҳои
гаи
гаити
галактика
галактикаи
галактикаҳо
галактоза
галерея
галилеи
галилео
галина
галлии
гама
гамбусаки
гамма
гаммерман
ган
гана
ганг
ганди
гандум
гандуми
ганҷ
ганҷа
ганҷави
ганҷи
ганҷина
ганҷинаи
гап
гар
гарав
гаравгон
гарави
гард
гарда
гардад
гардан
гарданаи
гарданд
гардани
гарди
гардид
гардида
гардидаанд
гардидааст
гардидан
гардиданд
гардидани
гардиш
гардишгари
гардишгарии
гардиши
гардолуд
гардон
гардонад
гардонд
гардонда
гардондааст
гардондани
гардонид
гардонида
гардонидааст
гардонидани
гардонидашудаи
гардун
гари
гаринскии
гарм
гарми
гармидиҳии
гармии
гармо
гармои
гармсер
гармтарин
гарму
гарнизони
гаров
гарон
гаронбаҳо
гаронбаҳои
гарони
гарсиа
гарсиласо
гарсия
гарчанде
гарчи
гастон
гастрити
гаусс
гафуров
гач
гашт
гашта
гаштаанд
гаштааст
гаштан
гаштанд
гаштани
гашти
гаҳ
гаҳвора
гаҳвораи
гаҷ
гваделупа
гвардия
гвардияи
гватемала
гватемали
гвиана
гвинея
гвинеяи
гг
гггг
где
ге
геи
гектар
гектарро
гелон
гелони
гелос
ген
гена
генерал
генерали
генералии
генератори
генетика
генетикаи
генетики
геннадевич
геннадии
геноа
генри
гент
генуя
генҳо
генҳои
географи
географии
географические
географических
география
географияи
геодези
геокимие
геологи
геологии
геология
геологияи
геометри
геометрии
геометрия
геометрияи
георг
георги
георгии
гер
гераис
герб
герман
германии
германия
героев
герои
герреро
гесу
гети
ги
гибралтар
гигиенаи
гидроген
гидронимҳои
гие
гии
гил
гилермо
гили
гилюрне
гилҳои
гимназия
гимназияи
гимнастикаи
гини
гир
гирад
гиранд
гирандаи
гирд
гирда
гирдбод
гирди
гирдиҳамои
гирдовари
гирду
гиреҳ
гиреҳи
гиреҳҳои
гири
гирии
гирифт
гирифта
гирифтаанд
гирифтааст
гирифтан
гирифтанд
гирифтани
гирифташуда
гирифти
гирифтор
гирифторанд
гирифтори
гирифторони
гирок
гироми
гиршави
гиршавии
гиршуда
гиря
гитара
гиташенаси
гифу
гихуэло
гия
гл
глав
глава
главная
главныи
главных
главы
гласныи
гликоген
глинка
глобали
глобалии
глобус
глобуси
глухои
глюкоза
гнеи
го
гоа
гобои
гов
гови
гогол
год
года
годах
годов
годои
году
годы
гои
гол
голи
голл
голосов
голосование
голосования
голф
голҳо
голҳои
гомбие
гомел
гомес
гон
гонес
гони
гонии
гонкалвес
гонсалвес
гонсалес
гонсало
гор
гора
горбаче
гордеев
горди
горка
горки
горкии
гормонҳо
горняк
город
города
городе
городетс
городишен
городов
городское
городскои
гороховетс
гос
гост
государств
государства
государственного
государственнои
государственныи
гот
готикаи
готҳо
гоҳ
гоҳе
гоҳи
гоҳо
гоҳшумори
гоҳшумории
гоҳҳо
гоҳҳои
гр
граждани
граждании
граи
грам
грамм
грамматика
грамматикаи
грамматики
грамотаи
грамотаҳои
гран
гранада
гранд
гранде
границы
грант
граф
графика
графикаи
графики
греи
гремио
гренада
гренио
гренландия
грибановск
григоревич
григории
грин
гринвич
грипп
гродно
грозни
грознии
гром
групп
группа
группы
грэмми
грязоветс
гтез
гу
гуабира
гуадалахара
гуаи
гуам
гуанчжоу
гуапилес
гуарани
гуаратингэта
гуатемала
губернатор
губернатори
губернатории
губернаторов
губернии
губерния
губернияи
губкин
губкинск
гуворо
гувоҳ
гувоҳи
гудозиш
гудозиши
гудохта
гузар
гузарад
гузаргоҳи
гузаргоҳҳои
гузари
гузариш
гузариши
гузаронд
гузаронда
гузарондани
гузаронид
гузаронида
гузаронидааст
гузаронидан
гузаронидани
гузашт
гузашта
гузаштаанд
гузаштааст
гузаштагон
гузаштагони
гузаштаи
гузаштан
гузаштанд
гузаштани
гузашти
гузин
гузини
гузорад
гузоред
гузориш
гузориши
гузоришҳо
гузоришҳои
гузошт
гузошта
гузоштаанд
гузоштааст
гузоштан
гузоштанд
гузоштани
гузошташуда
гуи
гул
гулафшон
гулаш
гулгашти
гулдаста
гулдор
гулду
гулдузи
гуле
гулзор
гули
гулистон
гулистони
гулмоҳи
гулназар
гулоби
гулобод
гулов
гулрез
гулрухсор
гулсанг
гулсангҳо
гулсара
гулу
гулхани
гулчеҳра
гулчини
гулшан
гулшани
гулҳо
гулҳои
гум
гуманитари
гуманитарии
гумон
гумрук
гумруки
гумрукии
гумшуда
гун
гуна
гунае
гунаи
гунаҳгор
гунаҳкор
гунаҳои
гунбади
гунбаз
гунбази
гунд
гундишопур
гундсолор
гунобод
гуногун
гуногунанд
гуногуне
гуногуни
гуногунии
гуногунро
гуноҳ
гуноҳи
гунҷишк
гунҷоиши
гурба
гурбаи
гург
гургон
гургони
гурда
гурдаи
гурдаҳо
гурдон
гурез
гуреза
гурезагон
гурезаҳо
гурехт
гурехта
гурзандози
гурзпартои
гуроз
гуру
гуруснаги
гуруҳи
гурҷи
гурҷистон
гурҷистони
гус
густаво
густарда
густариш
густариши
густерин
густурда
густурдаи
гутерриш
гути
гуфт
гуфта
гуфтаанд
гуфтааст
гуфтаи
гуфтам
гуфтан
гуфтанд
гуфтани
гуфтаҳои
гуфти
гуфтор
гуфтори
гуфтугу
гуфтушунид
гуфтушуниди
гуштосп
гуҷарот
гэс
гюлен
д
да
дабири
дав
дави
давид
давидан
давлат
давлатдори
давлатдории
давлате
давлати
давлатии
давлатиро
давлатию
давлатов
давлатро
давлату
давлатшоҳи
давлатҳо
давлатҳои
даво
давои
давом
давоми
давомнокии
давр
давра
давраи
давраро
давраш
давраҳо
давраҳои
даври
даврии
даврон
даврони
давронов
давру
дае
даже
даи
дак
дакан
даки
дакии
дакиро
дакистон
дакка
дакон
дакона
дакони
дакону
дакро
далв
далел
далели
далелҳо
далелҳои
далер
далери
далолат
дальнеи
дам
даме
дами
дамидани
дамир
дамованд
дан
данд
дандамаев
дандон
дандонадор
дандони
дандонпизишки
дандонҳо
дандонҳои
дани
данило
данилов
даниэл
дания
данияги
данна
данного
даннои
данном
данные
данныи
данным
данных
данте
данубио
данғара
дао
дар
дара
дараи
дарак
дарахт
дарахташ
дарахти
дарахтон
дарахтони
дарахту
дараҳои
дараҷа
дараҷае
дараҷаи
дараҷаҳои
дарбанд
дарбар
дарбор
дарбораи
дарбори
дарборие
дарваза
дарвеш
дарвешалии
дарвеши
дарвешон
дарвин
дарвоз
дарвоза
дарвозабон
дарвозабонони
дарвозаи
дарвозаҳои
дарвози
дарг
даргири
даргириҳои
даргоҳ
даргоҳи
даргузашт
даргузаштааст
даргузаштагон
даргузаштагони
даргузашти
даргузаштҳо
дард
дарди
дарду
даре
дари
дарио
дарк
дарки
даркор
дармон
дармонгоҳи
дармони
дарназардошти
даро
даробод
даров
даровард
дароварда
даровардааст
дароварданд
даровардани
дароз
дарози
дарозиаш
дарозиашон
дарозии
дарозмуддат
дарозмуддати
дарозру
дарозтарин
дарозумри
даромад
даромада
даромадан
даромаданд
даромадани
даромадгоҳ
даромадгоҳи
даромади
дарпаи
дарс
дарсад
дарсади
дарси
дарсии
дарсҳо
дарсҳои
дару
дарун
даруни
дарунии
дарунсу
дархост
дархости
дархостҳо
дархостҳои
дарҳои
дарҳол
дарҷ
дас
даст
даста
дастае
дастаи
дастархон
дастархони
дасташ
дастаҳо
дастаҳои
дастаҷамъи
дастаҷамъии
дастгир
дастгири
дастгирии
дастгоҳ
дастгоҳи
дастгоҳҳо
дастгоҳҳои
дасте
дасти
дастии
дастнавис
дастнависи
дастнависҳои
дастнорас
дастоварди
дастовардҳо
дастовардҳои
дастони
дастпарвари
дастпарварони
дастрас
дастраси
дастрасии
дасту
дастур
дастурамал
дастурамали
дастури
дастуру
дастурҳо
дастурҳои
дастхат
дастхатҳои
дастҳо
дастҷамъи
дат
дата
датт
дату
даты
дать
даф
дафн
дафни
дафтар
дафтари
дафъ
дафъа
дахл
дахлдор
дахлдори
дахлнопазирии
дахолат
дахолати
даш
дашт
дашти
даштиҷум
дашту
даштҳо
даштҳои
даъват
даъвати
даъватҳои
даъво
даъвои
дақ
дақиқ
дақиқа
дақиқаи
дақиқан
дақиқи
даҳ
даҳа
даҳаи
даҳана
даҳанаи
даҳанакии
даҳаҳои
даҳбед
даҳбеди
даҳгонаи
даҳи
даҳо
даҳон
даҳони
даҳр
даҳсола
даҳсолаи
даҳсолаҳо
даҳсолаҳои
даҳум
даҳуми
даҳҳо
дбуди
два
две
движения
двои
двор
двумя
двух
дгири
дгирии
дгор
дгори
дгории
дгориҳо
дгориҳои
дгорҳои
дгузори
дд
ддмт
ддод
ддол
ддот
ддошт
ддошти
ддоштҳо
ддоштҳои
ддт
ддтт
ддх
ддҳбст
де
дебюти
дебютии
дев
деваштич
деви
девон
девона
девонаш
девоне
девони
девонсолор
девонсолорон
девор
девораи
девори
деворҳо
деворҳои
дег
деги
деи
дек
декабр
декабри
декабря
декан
декани
декарт
декрет
дел
делать
делгадо
делевск
деление
дело
делфин
демет
демографи
демография
демократ
демократа
демократи
демократии
демократия
демократияи
демократҳо
демокрит
демоскоп
ден
дениз
денис
день
департаменти
департаментҳои
департмент
депортес
депортива
депортиво
депортиу
депутати
депутатҳои
дер
дере
деревня
деринаи
деро
дертар
деспортива
деспортиво
деспортус
детеи
дефенса
дефенсор
дефенсорес
деятельности
деятельность
деҳ
деҳа
деҳае
деҳаест
деҳаи
деҳаро
деҳаҳо
деҳаҳои
деҳи
деҳлави
деҳли
деҳот
деҳоти
деҳхудо
деҳқон
деҳқони
деҳқонии
деҳқонобод
деҳқонон
деҳқонони
дж
джаи
джами
джана
джон
дзержинск
ди
диабети
диалектики
диалог
диапазон
диапазони
диас
диаспора
диаспораи
дибек
дивизия
дивизияи
диг
дигар
дигараш
дигаргун
дигаргуниҳои
дигаре
дигареро
дигари
дигарон
дигаронро
дигарро
дигарҳо
дид
дида
дидаанд
дидааст
дидаву
дидаи
дидактики
дидам
дидан
диданд
дидани
дидгоҳи
диди
дидор
дидори
дие
диего
дизаи
дии
дикорастущие
диктатураи
дил
дилам
дилаш
дилбар
дилбари
дили
дилнишин
дилором
дилро
дилу
дилхоҳ
дилхоҳи
дилшод
дилҳо
димишқ
димна
димоғаи
димукротик
дин
дина
динамикаи
динамики
динамо
диндорон
диндорони
дини
динии
диниро
динию
динор
диноршоев
динро
дину
диншиноси
динҳо
динҳои
дипика
диплом
дипломат
дипломати
дипломатии
дипломатияи
дипломи
дирафш
дирафши
директор
директори
директорон
директорони
дириже
диру
дирҳам
диски
дискография
диснеи
дисс
диссертатсионии
дите
дифои
дифоъ
дифоъи
дифференсиали
дифференсиалии
диққат
диққати
диҳад
диҳанд
диҳед
дкуни
дкунии
для
дмитри
дмитриев
дмитриевич
дмитрии
дмт
днеи
днепр
дня
до
добавить
добавление
добавляет
добросовестного
дов
довар
довари
довуд
довуди
договор
договора
дод
дода
додаанд
додааст
додам
додан
доданд
додани
додаст
додашуда
додаҳо
додаҳои
додгоҳ
додгоҳи
доди
доду
додҳо
додҳои
дои
доим
доими
доимии
доимо
доир
доира
доираи
доираҳои
доиш
доиши
доишҳо
дока
доклады
докт
доктор
доктора
докторанти
доктори
доктории
докториро
докторони
документации
долас
долгота
должен
должна
должно
должность
должны
долины
доллар
доллари
долларро
долони
дом
доман
домана
доманаи
доманаку
домани
домени
доменҳои
доми
домингес
доминго
доминика
доминикана
домод
домоди
домулло
дон
дона
донад
донаи
доналд
донандаи
донаҳои
донетск
дони
доние
донист
дониста
донистаанд
донистааст
донистан
донистанд
донистани
донистаниҳо
дониш
донишгоҳ
донишгоҳи
донишгоҳро
донишгоҳҳо
донишгоҳҳои
дониши
донишкада
донишкадаи
донишкадаҳои
донишманд
донишманди
донишмандон
донишмандони
донишнома
донишномаи
донишномаҳо
донишномаҳои
донишому
донишу
донишҳои
донишҷу
доно
дону
дончаи
донҳо
донҳои
доп
дополнительные
дор
дорад
дорадос
дорам
доранд
дорандагон
дорандагони
дорандаи
доред
дорем
дори
дории
доро
дорович
дорои
дороии
дороиҳои
дорост
дортмунд
дору
дорувори
доруи
дорусози
дорухона
доруҳо
доруҳои
дорчинии
дос
дост
достаточно
достон
достони
достонҳо
достонҳои
доступ
дотсент
дотсенти
дохил
дохиланд
дохили
дохилии
дохилиро
дохилшави
дохунда
дош
дошавии
дошт
дошта
доштаанд
доштааст
доштам
доштан
доштанаш
доштанд
доштани
дошуда
доғ
доғи
доғистон
доғистони
доғҳои
доҳа
др
драгон
драма
драмави
драмавии
драмаи
драматург
драматурги
драматургия
драматургияи
драмаҳои
драс
древнего
древнеи
древняя
дро
другие
другим
другими
других
другого
другое
другои
другом
дружба
дсрт
дтар
ду
дуарте
дубаи
дубов
дубора
дубров
дуввум
дуввуми
дуввумин
дувоздаҳ
дувоздаҳангушта
дувоздаҳгона
дувоздаҳмақом
дувум
дувуми
дувумин
дуглас
дугона
дугоҳ
дуд
дуда
дудмони
дузди
дуи
дукаратаи
дуке
дукони
дуктур
дулло
дуллоев
дуллоҳ
дум
думаи
думаш
думи
думчааш
дунаи
дунболи
дуне
дуняви
дуо
дуои
дупалатаги
дур
дура
дурахшон
дурахшони
дурдаст
дури
дурнамои
дуров
дуррес
дуртар
дуру
дуруст
дурусти
дурустии
дурушт
дус
дусад
дусола
дусти
дутарафа
дутор
дутори
духтар
духтараш
духтаре
духтари
духтарон
духтарони
духтур
духтури
духтурони
дучор
дучори
душ
душанбе
душанберо
душвор
душвори
душвориҳои
душман
душмани
душманон
душманони
душманро
дуъо
дуэт
дуэти
дуюм
дуюмаш
дуюмдараҷа
дуюми
дуюмин
дуюмро
дуҷинса
дуҷониба
дуҷонибаи
дшавии
дшуда
дьяконов
дэ
дэвид
дэмиан
дюи
дятков
дҳо
дҳои
е
ев
ева
евгеневич
евгени
евгении
евич
ево
евро
евровижн
европа
европаи
европеи
его
ед
еда
единица
ее
еи
екатерина
екатеринбург
ел
елан
елена
елетс
елизавета
елизаветаи
елиста
елтсин
ем
ему
ен
ена
енбекшиқазоқи
енисеи
енотаевск
ер
ера
ереван
ержипе
еро
ерра
еррес
ертанзиню
ертквуеи
ершов
ес
еса
есаи
есаҳо
есаҳои
если
еспорте
еспортес
еспортива
еспортиво
еспортэ
ест
естественных
есть
етнам
етнами
ефи
ефрона
еще
ж
жак
жан
жанеи
жанр
жанри
жанрҳо
жанрҳои
жарфо
же
желательно
жемчужина
женева
жермен
животных
жигалов
жизни
жизнь
жирнов
жиронден
жирятин
жоан
жозе
жозеф
жоинвилле
жола
жопун
жорж
жосе
жуан
жувентуде
жувентус
жуков
жуковскии
жуниор
журнал
журнала
журналист
журналисти
журналистика
журналистикаи
журналистон
журналистони
з
за
зааш
заб
забон
забоне
забони
забонии
забонро
забону
забоншинос
забоншиноси
забоншиносии
забоншиносон
забонҳо
забонҳои
забт
забти
зависимости
завитинскии
завод
заводи
заводҳои
заволжск
заволи
завтра
завқ
завқи
завқу
завҷаи
заглавнои
заголовка
заголовков
заголовком
заголовок
заготовка
загреб
загрос
зад
зада
задааст
задан
задана
заданд
задани
задание
задать
задач
задачи
заде
задуху
заи
заиф
зак
закавказия
закарие
закаспии
заки
закон
закот
закоти
залари
зали
зам
замбия
замзам
замима
замимаи
замин
замина
заминаи
заминаҳои
заминдори
замини
заминии
заминларза
заминларзаи
заминларзаҳо
заминро
замину
заминшиноси
заминшиносии
заминҳо
заминҳои
заминҷунби
замми
замон
замона
замонааш
замонави
замонавии
замонаш
замоне
замони
замонро
замону
замонҳо
замонҳои
замора
зан
занад
занаш
занбу
занг
занги
зангу
занд
занда
зандаги
зане
занесе
зани
зании
занон
занона
занонаи
занони
занонро
занону
занро
зану
занҳо
занҳои
занҷир
занҷири
занҷон
западного
записеи
записи
записки
запись
заполняется
запрос
запуска
запятои
зар
зарагоса
зарар
зарари
зараровар
зараррасон
зараррасони
зараррасонҳо
зараррасонҳои
зарафшон
зарб
зарба
зарбаи
зарбдор
зарбдори
зарби
зарбу
заргар
заргари
заргу
зард
зарди
зардоби
зардолу
зардолуи
зардтоб
зарду
зардушт
зардушти
зардуштие
зардуштия
зардча
зарече
зариф
заркали
зарнисор
заро
зарра
зарраи
зарраҳо
зарраҳои
заррин
зарринку
зарринтоҷ
зарур
зарурат
зарурати
зарури
зарурии
заруриро
зарурияти
зарф
зарфи
зарфҳо
зарфҳои
заря
заряди
затем
зафар
зафаробод
зах
захира
захираи
захираҳо
захираҳои
захм
захми
захмҳои
зашакл
зашакли
заъфарон
заъфи
зағир
заҳаби
заҳмат
заҳмати
заҳо
заҳои
заҳр
заҳри
заҳрнок
заҳролуд
заҳролуди
заҳҳок
зб
збакистон
збек
збеки
збекии
збекистон
збекистони
збекҳо
звание
зве
звезда
звонкии
згор
згордори
згори
згории
згорон
згорони
здании
здаҳ
здесь
зе
зебо
зебову
зебое
зебои
зебоии
зебоишиноси
зебоишиносии
зеботарин
зебу
зебуниссо
зевс
зеи
зеландияи
зелении
зеленоград
земли
земля
зенит
зер
зергуру
зери
зеризамини
зеризаминии
зерин
зерини
зеринро
зериоби
зеро
зерсаҳифаҳои
зес
зеҳни
зи
зид
зидди
зиддият
зиддияти
зиддиятҳои
зидон
зидони
зие
зиев
зии
зикр
зикри
зикрие
зикршуда
зил
зилзила
зилзилаи
зимбабве
зиминск
зимистон
зимистона
зимистонаи
зимистонаш
зимистони
зимистонро
зимма
зиммаи
зимнан
зимни
зина
зинаи
зинат
зинаҳои
зинда
зиндаги
зиндагиаш
зиндагии
зиндагинома
зиндагиномаи
зиндагиро
зиндагони
зиндагонии
зиндаи
зиндон
зиндони
зира
зираки
зиреҳпу
зиро
зироат
зироати
зироаткори
зироатҳои
зист
зиста
зисти
зистон
зистшиноси
зич
зичи
зичиаш
зичии
зиш
зишвори
зишвории
зишгоҳ
зишгоҳи
зишгоҳҳои
зиши
зишии
зишиносони
зишу
зия
зиқи
зиҷи
злинков
зм
знак
знака
знаки
знамя
знании
значение
значением
значении
значения
знома
зномаву
зномаи
зноманигор
зноманигори
зноманигории
зноманигорон
зноманигорони
зномаҳо
зномаҳои
зо
зобод
зов
зод
зода
зодагон
зодагони
зодаи
зодгоҳ
зодгоҳаш
зодгоҳи
зодру
зои
зоиров
зокир
зокиров
зокони
золим
золотая
золотои
зон
зона
зонаи
зону
зоология
зоологияи
зор
зори
зот
зоти
зотҳои
зоқ
зоҳидов
зоҳидон
зоҳир
зоҳиран
зоҳири
зоҳирии
зрения
зро
зу
зубаи
зуд
зуди
зудсабз
зудтар
зуи
зулаи
зулло
зуллоев
зулм
зулми
зулму
зулол
зулф
зулфи
зулфия
зулфиқор
зулфиқоров
зумра
зумрад
зумраи
зурабишвили
зурих
зуҳал
зуҳра
зуҳур
зуҳури
зуҳуроти
зҳо
зҳои
и
иа
иата
иб
ибараки
иберия
иблис
ибн
ибни
ибодат
ибодатгоҳ
ибодатгоҳи
ибодати
ибора
ибораи
иборат
иборатанд
ибораҳои
ибрат
ибри
иброз
иброҳим
иброҳими
иброҳимов
ибт
ибтидо
ибтидои
ибтидоии
ибтидоиро
ибтикори
ибҳомзудои
ива
иваз
ивази
ивазкунии
ивазшавии
иван
иванов
иванович
ивановка
ивановна
иваново
ивановскии
ивнянск
ивуар
игнасио
игор
игоревич
игр
игрок
игроков
игры
игуасу
игхинс
ид
ида
идалго
иддае
иддао
иде
идеали
идеализми
идеи
идентификатор
идеологи
идеологии
идеология
идеологияи
идея
идеяи
иди
идм
идо
идома
идомаи
идона
идонаи
идора
идораи
идоракуни
идоракунии
идорашаванда
идораҳо
идораҳои
идори
идории
идрис
идрок
идроки
идҳо
идҳои
ие
ижевск
из
изаи
изамини
избран
избранные
известия
изд
издание
издания
издательство
издивоҷ
издивоҷи
иззатулло
изи
изменение
изменении
изменения
измерения
измир
изображение
изображением
изображении
изображения
изотопи
изотопҳо
изотопҳои
изофа
изофи
израиля
изучение
изучения
изҳор
изҳори
изҳорот
изҳороти
ии
ик
икао
икроми
икрянинск
икс
иктисоди
иктишофи
ил
илал
илвес
иле
или
илиада
илин
илич
иллат
иллати
иллатҳои
иллинои
иллюстрации
илм
илмест
илми
илмиаш
илмиву
илмии
илмиро
илмист
илмию
илмро
илму
илмҳо
илмҳои
илова
иловаги
иловагии
иловаи
иловаҳо
иловаҳои
иловлин
илон
илоҳа
илоҳаи
илоҳи
илоҳие
илтиҳоб
илтиҳоби
иля
илҳом
им
има
име
имеет
имена
именем
имени
именно
иметь
имеют
имзо
имзои
имкон
имкони
имконият
имконияти
имкониятҳои
имконнопазир
имконоти
имконпазир
имло
имлои
иммуни
иммунитет
иммунология
имом
имомат
имомати
имомзода
имоми
имомов
имон
имони
иморат
иморати
иморатҳо
иморатҳои
иморот
имороти
импакт
император
императори
императории
императорского
империал
империи
империя
империяи
имперотурии
импичмент
имрон
имру
имруз
имсол
имтие
имтиҳон
имтиҳони
имтиҳонҳои
имшаб
имя
ин
ина
инак
иначе
инглис
инглиси
инглисизабон
инглистон
ингуна
ингушетия
ингушистон
индекс
индекси
индепендиенте
индепендиэнте
индиана
индии
индира
индия
индонезия
инженер
ини
инки
инкишоф
инкишофе
инкишофи
инкишофу
инкор
инкори
инноватсиони
инноватсия
инобат
иногда
иностранных
инот
иноти
инро
инсон
инсонду
инсони
инсонии
инсониро
инсоният
инсонро
инсоншиноси
инсонҳо
инсоф
институт
института
институти
институто
институтҳои
инструктори
инструменты
интер
интервики
интервью
интернасионал
интернат
интернати
интернатсионали
интернет
интернети
интернетии
интерфеи
интизоми
интизор
интизори
интихоб
интихоби
интихобии
интихобкунандагон
интихобот
интихоботи
интихоботии
интихоботро
интихобшуда
интихобшудаи
интишор
интишори
интишороти
интиқод
интиқоди
интиқодии
интиқол
интиқоли
интиқом
интиҳои
инфироди
инфиродии
информатика
информатсия
информации
информационныи
информацию
информация
инфрасохтори
инфрасурх
инчунин
иншо
иншои
иншоот
иншооти
иншоотҳо
иншоотҳои
иншуда
инъикос
инъикоси
инқилоб
инқилоби
инқилобии
инҳо
инҳои
инҳоро
инҳоянд
инҷил
инҷо
инҷониб
инҷоро
ион
иони
ионҳои
иосиф
иото
иотои
ипирито
ипорте
ир
ирам
иран
ирана
иране
ирати
ирбитскии
ире
ири
ирина
иркутск
ирланди
ирландия
ирландияи
иро
ироа
ироаи
ирода
иродаи
ирон
ирот
ироти
ироту
ироқ
ироқи
ирси
ирсии
ирсол
ирсоли
иртибот
иртиботи
иртифоъ
иртифоъи
иртиш
иру
ирфон
ирфони
ирфонии
иршод
ис
исаак
исбот
исботи
исе
исидро
искажения
искандар
искандари
искандария
искандарку
искандаров
искандарова
исключением
искра
искусства
искусство
ислам
ислама
исламскии
исландия
ислими
ислом
исломи
исломии
исломиро
исломобод
исломов
исломро
ислоҳ
ислоҳи
ислоҳот
ислоҳоти
исм
исмат
исмати
исми
исмоил
исмоили
исмоилие
исмоилия
исмоилов
исмоилова
исмоилови
исмҳои
исо
исоев
исоева
исои
исоматов
испани
испания
испаниҳо
исполнение
использован
использование
использованием
использовании
использования
использовать
использоваться
использует
используется
используи
используются
испоние
исроил
исроили
исрор
иссиқку
исследование
исследовании
исследования
ист
истад
истакон
истамбул
истанбул
истаравшан
истаравшани
истахри
истгоҳ
истгоҳи
истгоҳҳои
истеъдод
истеъдоди
истеъмол
истеъмоли
истеъфо
истеъфои
истеҳкоми
истеҳсол
истеҳсоли
истеҳсолии
истеҳсолкунанда
истеҳсолкунандагони
истеҳсолкунандаи
истеҳсолот
истеҳсолоти
истивои
истило
истилогарони
истилои
истилоҳ
истилоҳи
истилоҳот
истилоҳоти
истинод
истироҳат
истироҳати
истисно
истиснои
истисқо
истифода
истифодабаранда
истифодабарандагон
истифодабарандагони
истифодабари
истифодабарии
истифодаи
истифодакунандаи
истифодашаванда
истихроҷ
истихроҷи
истиқбол
истиқболи
истиқлол
истиқлоли
истиқлолият
истиқлолияти
истиқомат
истиқомати
истиқоматии
истиқрори
истода
истодаанд
истодааст
истодан
истории
историко
историческая
исторические
историческии
исторических
история
источник
источника
источникам
источниках
источники
источников
истра
исфана
исфанд
исфандие
исфара
исфаҳон
исфаҳони
исходныи
исҳол
исҳоли
исҳоловар
исҳоқ
исҳоқи
исҳоқова
ит
италия
италяно
итар
ити
итминон
итмом
итмоми
итоат
итоати
итог
итоги
итолие
иттилои
иттилоот
иттилооте
иттилооти
иттилоотии
иттилоъ
иттифоқ
иттифоқи
иттифоқии
иттифоқчие
иттифоқҳои
иттиҳод
иттиҳоди
иттиҳодияи
иттиҳодияҳои
иттиҳоми
итуано
итумбиара
ифлос
ифлосшавии
ифода
ифодаи
ифодакунандаи
ифодаҳои
ифои
ифтитоҳ
ифтитоҳи
ифтихор
ифтихори
ифтихории
ифтихорномаи
ифтихорномаҳо
ифтихорномаҳои
их
ихат
ихати
ихд
ихроҷ
ихроҷи
ихтие
ихтилоли
ихтилоф
ихтилофи
ихтилофоти
ихтирои
ихтироот
ихтирооти
ихтироъ
ихтироъкори
ихтисор
ихтисос
ихтисоси
ихтисосҳои
ичони
иш
иши
ишкошим
ишкошими
ишон
ишора
ишораи
ишорат
ишорати
ишораҳо
ишораҳои
иштибоҳ
иштирок
иштирокдори
иштирокдорони
иштироки
иштироккунандаи
иштирокчи
иштирокчие
иштирокчии
иштиҳо
ишғол
ишғоли
ишқ
ишқи
ишқии
ишқобод
ишқори
ишқу
ишҳои
июл
июли
июля
июн
июни
июня
иқасд
иқбол
иқдом
иқдоми
иқлим
иқлимаш
иқлими
иқомат
иқомати
иқрор
иқтибос
иқтибосҳо
иқтидор
иқтидори
иқтисод
иқтисоддон
иқтисоддонҳо
иқтисоде
иқтисоди
иқтисодиву
иқтисодие
иқтисодии
иқтисодиро
иқтисодию
иқтисодчи
иқтисодшиносони
иҳам
иҳо
иҳои
иҳота
иҳотаи
иҷлосияи
иҷоза
иҷозаи
иҷозат
иҷозати
иҷозатнома
иҷозатномаи
иҷозатномаҳои
иҷора
иҷро
иҷрои
иҷроии
иҷроиши
иҷроия
иҷроияи
иҷроияро
иҷрокунанда
иҷрокунандаи
иҷтимои
иҷтимоиву
иҷтимоие
иҷтимоии
иҷтимоиро
иҷтимоию
иҷтимоъи
иҷшс
к
ка
кабалеро
кабели
кабинети
кабир
кабири
кабк
кабки
кабофриенсе
кабрера
кабу
кабуд
кабуди
кабул
кавеш
кавкаби
кавкабии
кавказ
кавкази
кавказтрансгаз
кавокиб
кавычки
каглиари
кагошима
кадис
кадом
кадоме
кадоми
кадр
кадри
кадрҳо
кадрҳои
каду
кадуи
кае
каждого
каждои
каждыи
казан
казахстан
казахстана
казачинско
каи
каират
как
какао
какарита
какие
какого
какои
каксас
кал
калао
калачев
калачеев
калденсе
калдерон
калера
кали
калиди
калии
калила
калима
калимаи
калимаҳо
калимаҳои
калинин
калининград
калисо
калисои
калисоҳо
калисоҳои
калифорния
калкутта
каловскии
калом
каломи
калон
калонаш
калоне
калони
калонии
калонро
калонсол
калонсолон
калонтар
калонтарин
калонтаринаш
калонтарини
калону
калонҳаҷм
калонҳаҷми
калсии
калтакалос
калтарош
калтароши
калуга
калчо
кам
каманд
камар
камарбанди
камаш
камбағал
камбизоат
камбизоати
камбоҷа
камбуди
камбудиҳои
камбуҷия
каме
каменка
каменск
каменскии
камера
камерави
камераи
камераҳои
камерун
камешков
ками
камизяк
камило
камишин
камишловскии
камоби
камол
камоли
камолиддин
камолов
камолот
камолоти
камон
камони
кампания
кампинас
кампиненсе
кампо
кампос
кампус
камтар
камтарин
каму
камхуни
камю
кан
канагава
канада
канал
канали
каналҳои
кангурт
кангурти
канд
канда
кандакори
кандакории
кандани
канданиҳои
кандидата
кандидатов
кандидаты
канзас
канзи
кани
канн
каннада
канор
канораи
канораҳои
канори
канории
канслери
кант
кантата
кантатаи
кантемиров
кантон
кануас
капекуэнсе
капибарибе
капитализм
капитан
капитани
капранов
капур
капята
кар
кара
караи
каракас
карам
каран
карантин
карат
каратегина
карачев
караҷ
карбогидратҳо
карбон
карбонат
карбонати
карбони
карвалю
каргополскии
кард
карда
кардаанд
кардааст
кардаву
кардаи
кардам
кардан
карданаш
карданд
кардани
карданро
кардаст
кардашуда
кардашян
кардед
кардем
карди
кардозо
карду
карелия
карераи
кари
кариб
карим
каримзода
каримов
каримова
карл
карло
карлос
кармелита
кармен
карнаи
карнатака
карнеги
каролинаи
кароматулло
каротин
карочи
каррил
карт
карта
картахена
картахинес
карте
карточка
карточки
картошка
карты
кас
касаба
касабаи
касал
касали
касалии
касалиҳо
касалиҳои
касб
касби
касбии
касбу
касбҳо
касбҳои
касе
касерес
касеро
касест
каси
каскавел
касоне
каспии
касри
касро
кастила
кастило
кастро
кат
катаиб
каталано
каталог
катандувенсе
катания
категории
категорию
категория
категорияи
категорияҳои
катибаи
катибаҳои
католика
католики
католикии
католикҳо
катор
каука
каунас
каунти
кауфман
каф
кафедра
кафедраи
кафедраҳои
кафи
кафолат
кафолати
кахамарка
качестве
качуг
каш
кашад
кашанд
каши
кашид
кашида
кашидаанд
кашидааст
кашидан
кашиданд
кашидани
каширск
кашиши
кашмир
кашмири
кашондан
кашондани
кашф
кашфи
кашфие
каъба
каэтано
каюмарс
кая
каҳкашон
каҳф
каҷ
каҷол
кв
квадрати
кванти
квантии
квартети
квд
квинсленд
квт
кг
кгб
кдн
ке
кеара
кебич
кевин
кеген
кеи
келбаҷар
келес
кембриҷ
кемерово
кендалл
кения
кеннеди
кент
кентрал
кентро
кентукки
кенҷаев
кер
керала
кеш
ки
кие
киев
кии
киив
кикаго
киквидзен
киле
килмес
килограмм
километр
километри
километрии
километрро
килота
ким
киме
кимие
кин
кинг
кинематографияи
кинешем
кини
кино
киноакадемии
кинои
кинопродюсерҳои
киностудияи
кинотеатр
кинотеатри
кинофестивали
киноя
кипр
кирдор
кирдори
киренск
киржач
кирибати
кирилл
кирилли
кириллов
кирм
кирмак
кирми
кирминаи
кирминаҳо
кирмон
кирмони
кирмоншоҳ
кирмҳои
киро
киров
кирови
кировро
кирои
киром
кис
кислота
кислотаи
кислотаҳо
кислотаҳои
кист
кит
китаи
китая
кито
китоб
китобат
китобати
китобаш
китобдор
китобдори
китобе
китоби
китобро
китобу
китобхона
китобхонаи
китобхонаҳо
китобхонаҳои
китобшиноси
китобшиносии
китобҳо
китобҳои
китобҳояш
китс
китф
китфи
кифоя
кичменгско
кишвар
кишвараш
кишваре
кишварест
кишвари
кишварро
кишваршиноси
кишваршиносии
кишварҳо
кишварҳое
кишварҳои
кишине
кишмиши
кишоварз
кишоварзи
кишоварзии
кишоварзиро
кишоварзон
кишт
киштзор
киштзори
кишти
киштигард
киштии
киштисози
киштиҳо
киштиҳои
кишту
кл
клаи
клара
кларнет
кларо
класс
класса
классик
классики
классикии
классикони
клаудио
клаус
кле
клеи
клет
клетнян
климов
клиники
клиникии
клинсов
клинтон
клипи
клод
клуб
клубе
клуби
клубэ
клуж
ключи
км
кмв
кн
кнессет
книг
книга
книги
книгу
княз
князи
ко
кобинаи
кобул
кобули
ков
кова
коваи
ковие
ковокии
ковров
ковскии
ковус
когда
код
кода
кодекси
коди
коза
кои
коимбра
коинот
кокимбо
кол
кола
колефурнее
количества
количество
коллегияи
коллексияи
коллективи
коллективҳои
коллеҷ
коллеҷи
коллеҷҳо
коллеҷҳои
коло
колома
коломна
колон
колония
колонияи
колонки
колорадо
колумб
колумби
колумбия
колумбияи
колхоз
колхози
колхозобод
колхозчи
колхозчие
колчугин
ком
команда
командири
комарич
комбаи
комбинати
коме
комедияи
комерсио
коми
комил
комилан
комилзода
комили
комилов
коминтерн
комиссари
комиссариати
комиссарони
комиссия
комиссияи
комиссияҳо
комиссияҳои
комитет
комитета
комитети
комиҷроияи
комментарии
коммерсантъ
коммуна
коммунаи
коммунали
коммунизм
коммунизми
коммуникатсиони
коммуникатсия
коммунист
коммунисти
коммунистии
коммунистон
коммунистони
компании
компания
компанияи
комплекс
комплекси
комплексии
композитор
композитори
композиторон
композиторони
композитсия
композитсияи
компютер
компютери
компютерии
компютерҳо
компютерҳои
комсомол
комсомоли
комсомолии
комсомолобод
комсомолск
комуникасионес
кон
конвенсия
конвенсияи
конго
конгресс
конгресси
конде
кони
конибодом
конибодоми
конкеикан
коннектикут
конодо
коношскии
консепсион
консепсияи
консервативи
консерватория
консерваторияи
консерт
консерти
консертии
консертҳо
консертҳои
константин
константинович
константиновскии
константинопол
конститутсиони
конститутсионии
конститутсия
конститутсияи
конститутсияро
конституции
консули
контексте
континентали
контрабас
контрерас
контроли
конф
конфедератсияи
конференсияи
конференсияҳои
конференции
конфликта
конфликтов
конфронс
конфронси
конфронсҳои
конфутсии
конфуциева
конца
конце
конҳо
конҳои
кооперативи
кооперативии
координат
координатаҳо
координатаҳои
координаты
коп
копирования
копия
кор
кора
корам
кораш
корбар
корбари
корбарии
корбарон
корбароне
корбарони
корбаст
корбасти
корбурд
корбурди
корбурдҳо
корвон
корвони
корвонсарои
коргар
коргардон
коргардони
коргардонии
коргардонҳо
коргардонҳои
коргари
коргарии
коргарон
коргарони
коргоҳ
коргоҳи
коргоҳҳои
коргузории
корд
корди
кордили
кордоба
кордова
коре
кореи
корея
кореяги
кореягиҳо
кореяи
кори
кориаш
кориашро
кории
коринтианс
коритиба
коркард
коркарди
коркунони
корманд
корманди
кормандон
кормандони
корнамоиҳои
корнелл
корнома
корномаи
королинаи
корому
коронавирус
коронавируси
корочан
корпоратсияи
корпуси
корреа
коррекаминос
корро
коррозия
коррупсия
корсаков
кортес
корти
кортҳои
кору
коруня
корфармо
корхона
корхонаи
корхонаҳо
корхонаҳои
корче
коршиноси
коршиносон
коршиносони
корҳо
корҳои
корҳоро
кос
коса
косаи
косаҳо
косиби
косибон
косово
коста
кострома
кот
котелников
котиб
котиби
котибони
котибот
котиботи
котласкии
котов
которая
которого
которое
которои
котором
которую
которые
которыи
которым
которых
котситҳо
кофарниҳон
кофи
кофир
кофта
кофтукови
кох
кохи
кочи
коши
кошикори
кошифи
кошон
кошони
коғаз
коғази
коғазҳои
коҳиш
коҳиши
кпсс
кр
кравчук
краи
краков
красная
краснен
краснии
красноборскии
красноводск
красногвардеи
красногор
краснодар
красное
краснои
красноуфимскии
красноярск
красноярскии
краснояруж
красную
красныи
краткая
краткии
края
креи
кремл
крик
крикиума
крис
кристал
кристалл
кристалли
кристаллҳои
кристиан
кристина
кристобал
кристофер
критерии
кришна
крн
крои
кроме
круз
крузеи
круи
крупнеи
крус
кс
ксд
ксеретс
ксира
ксу
кто
ку
куба
кубаги
кубан
куби
кубин
кубо
кубро
куваи
кузбасс
куи
кук
кукеси
кул
кули
кулинарнои
кулл
куллан
кулли
куллие
куллии
кулоб
кулолгари
кулоли
културал
кулумбия
культур
культура
культуре
культуры
кум
кумак
кумаки
кумар
кумилжен
кумита
кумитаи
кумитаҳои
кун
кунад
кунам
кунанд
кунанда
кунгу
кунед
кунем
куни
кунун
кунуни
кунунии
куня
кунҷ
кунҷи
кунҷид
кунҷҳои
кура
курави
кураи
курган
курд
курди
курдистон
курдистони
курдҳо
курие
курико
куритиба
курс
курси
курсивом
курсии
курск
курсҳои
курт
куртаи
куртс
куруш
куруши
кутаиси
кутск
кутуби
куфа
кучма
кушиш
кушод
кушода
кушодааст
кушодаи
кушоданд
кушодани
кушодашавии
кушоди
кушоние
кушт
кушта
куштанд
куштани
кушташуда
кушти
куштии
куштор
куштори
куэнка
куҳан
куҳандиз
куҳани
куҳантарин
куҳгилу
куҳи
куҳна
куҳнаи
куҷо
кф
кэмерон
кҷ
л
ла
лаб
лаби
лаблабу
лаблабуи
лаборант
лаборанти
лаборатори
лаборатория
лабораторияи
лабораторияҳои
лавозимоти
лавҳаи
лавҳаҳои
лагери
лагостера
лагуна
лада
лае
лаззат
лаи
лак
лакалле
лаки
лалми
лам
ланг
лангар
лангари
ланд
ланка
ланус
лао
лаос
лара
ларри
лас
ласуф
ласуфи
ласуфон
ласуфони
лат
латвия
латест
лати
латиф
латифи
латофат
латсио
латҳо
латҳои
лауреати
лауреатов
лафзи
лахш
лаш
лашкар
лашкари
лашкарие
лашкаркаши
лашкаркашии
лаъл
лаъли
лағв
лақаб
лақаби
лақаи
лаҳза
лаҳзаи
лаҳзаҳои
лаҳистон
лаҳистони
лаҳни
лаҳо
лаҳои
лаҳҷаи
лаҳҷаҳои
лвив
ле
леандро
лебедев
леби
лев
левакант
леванте
левои
леганес
легиони
леже
лежнев
леи
лек
лекарственные
лекин
лексикаи
лексия
лекции
ленд
ленин
ленинград
ленинградро
ленини
ленинизм
ленинии
ленинобод
ленинро
ленинск
ленск
ленскии
лента
лентаи
леон
леонард
леонардо
леоне
леонел
леонеса
леонид
леонов
лер
лермонтов
лесото
лет
летию
летопись
лех
лечение
лечче
лешуконск
ли
либерал
либерали
либералии
либерия
либертад
либие
либия
либо
либос
либоси
либосҳои
либреттои
ливерпул
ливорно
лига
лигаи
лиги
лидеров
лидия
лие
лижаронии
лии
лик
ликуд
лима
лиман
лимени
лимон
лиму
лимфа
лин
линеи
линенсе
линии
линколн
лион
липа
липетск
лир
лирикаи
лирики
лирикии
лиски
лиссабон
лист
литва
литвинскии
литвони
литература
литературы
литр
литсеи
литсензия
лихтенштеи
лиц
лица
лицензии
лише
лишь
лиҳоз
лиҳози
лково
лн
ло
лоб
лоби
лобос
лобро
лов
лович
ловка
ловскии
логан
логотип
логрони
лод
лоди
лодов
лозим
лои
лоиқ
лоиҳа
лоиҳаи
лоиҳакашии
лоиҳаҳо
лоиҳаҳои
лок
локомотив
лола
лолазор
ломоносов
лон
лона
лонаи
лонг
лондон
лондони
лондрина
лони
лонии
лопес
лор
лорд
лоренсо
лорка
лос
лот
лота
лоти
лотин
лотини
лотинии
лотҳои
лочин
лоҳур
лоҳури
лоҳути
лоҳутии
лоҷвард
лро
лс
лу
лубие
лубнон
лубоб
луверденсе
лугано
луго
луи
луиз
луис
лука
лукас
луке
лукени
луна
луначарскии
луобпардаи
луристон
лутфан
лутфи
лутфулло
лух
луховитси
луч
лучано
лучоб
лучше
лучшее
лучшии
луғави
луғавии
луғат
луғати
луғатнома
луғатномаи
луғот
луҳанск
лш
лы
любви
любовь
любого
любое
любои
любом
любым
людвиг
людеи
люди
людмила
люис
люксембург
лютер
люфтет
ля
лячи
лҳо
лҳои
м
ма
мабдаи
маблағ
маблағгузори
маблағгузории
маблағи
маблағҳои
мав
мавзеи
мавзеъ
мавзеъҳои
мавзу
мавзун
мавиз
мавлави
мавлоно
мавлонова
мавлуди
мавод
маводди
маводи
маводҳои
мавриги
маврид
мавриди
мавридҳо
мавридҳои
мавритания
мавсим
мавсими
мавсуф
мавчуд
мавқеи
мавқеъ
мавқеъи
мавҷ
мавҷи
мавҷуд
мавҷуда
мавҷудаи
мавҷуданд
мавҷудбуда
мавҷуди
мавҷудият
мавҷудияти
мавҷудот
мавҷудоти
мавҷҳои
магар
магдагачинскии
магистр
магистратура
магистри
магнии
магнити
магнитии
магуфули
мад
мадагаскар
мадад
мадади
мадан
мадани
мадании
маданият
маданияти
мадди
мадина
мадор
мадори
мадрас
мадраса
мадрасаи
мадрасаҳо
мадрасаҳои
мадрид
мадуреи
мадҳ
мадҳи
мазаммат
мазановскии
маздо
мазкур
мазкурро
мазмун
мазмуни
мазмуну
мазмунҳо
мазмунҳои
мазор
мазори
мазоҳиби
мазҳаб
мазҳаби
мазҳабии
мазҳабҳои
мазҳака
мазҳакави
мазҳакавии
мазҳакаи
мазҳакаҳои
мазҳари
маи
маиши
мак
макара
макаэ
маки
макка
маккаби
макон
макони
маконҳои
макотиби
макс
максим
максмиляно
мактаб
мактаббачагон
мактаби
мактабро
мактабу
мактабхони
мактабҳо
мактабҳои
мактуб
мактуби
макун
малави
малага
малаи
малакаи
малатие
малая
малаялам
малдонадо
мали
малие
малии
малик
малика
маликаи
маликшоҳи
малое
малои
малорка
малта
мамлакат
мамлакати
мамлакатро
мамлакатҳо
мамлакатҳои
мамну
мамнуъ
мамнуъгоҳ
мамнуъгоҳи
мамолик
мамолики
ман
мана
манагуа
манам
манбаи
манбаъ
манбаъи
манбаъҳо
манбаъҳои
манга
манган
манд
мандат
мандати
манзара
манзараи
манзараҳои
манзил
манзили
манзилҳои
манзум
манзумаи
манзуми
манзур
манзури
мани
манижа
манобеи
манобеъ
манобеъи
манора
манораи
манораҳои
манотиқи
мансаб
мансабдор
мансабдори
мансабдорони
мансаби
мансабҳои
мансуб
мансубанд
мансуби
мансубияти
мансур
мансури
мансуров
манта
мантақа
мантиқ
мантиқи
мантиқии
ману
манучеҳр
мануэл
манфи
манфиат
манфиати
манфиатҳои
манфии
манчестер
маншаи
манъ
манъи
манғития
мао
маони
маориф
маорифи
маорифпарвари
маорифшиносони
маочие
маош
маоши
мар
маракаи
маранян
марат
маратон
марбела
марбут
марбута
марбути
марв
марвази
марви
марворид
марг
маргарита
маргаш
марги
мард
марде
марди
мардон
мардона
мардонаги
мардонаи
мардони
мардум
мардумаш
мардумгие
мардуме
мардуми
мардумии
мардумон
мардумони
мардумро
мардумшиноси
мардумшиносии
мардҳо
марз
марзи
марзии
марзию
марзҳои
мари
мариано
марии
марилиа
марин
марина
марино
марио
маритимо
мария
марк
марказ
марказаш
маркази
марказии
марказиро
марказҳои
маркаи
маркаҳои
маркес
маркетинг
маркетинги
марко
маркос
маркс
марксизм
марксисти
маркус
мармар
мармари
маро
марокаш
маросим
маросими
маросимии
маросимҳо
маросимҳои
маротиба
маротиби
марс
марсел
марсело
марсилио
март
марта
мартаба
мартабаи
марти
мартин
мартинес
мартинс
маршал
маршали
марши
марям
марғзор
марғзори
марҳала
марҳалаи
марҳалаҳои
марҳами
марҳила
марҳилаи
марҳилаҳои
марҳум
марҷон
марҷони
мас
масалан
масеҳ
масеҳи
масеҳие
масеҳии
масеҳият
масир
масири
маск
маска
маскав
маскавро
маскан
маскун
маскуни
маслиҳат
маслиҳати
маснави
маснавии
маснавиҳои
маснадашро
маснади
масну
маснуоти
масоили
масолеҳ
масолеҳи
масона
масофа
масофаи
масофаҳои
масоҳ
масоҳат
масоҳаташ
масоҳати
масса
массагетҳо
массаи
массачусетс
маст
масти
мастон
мастчоҳ
масунияти
масчо
масштаб
масъала
масъалаи
масъаларо
масъалаҳо
масъалаҳои
масъуд
масъуди
масъул
масъули
масъулият
масъулияти
масҷид
масҷиди
масҷиду
масҷидулҳаром
масҷидҳо
масҷидҳои
мат
матбаа
матбааи
матбуот
матбуоти
матбуотии
математик
математика
математикаи
математики
математикии
матер
материал
материали
материализм
материалов
материалы
материк
матеус
матиас
матлаб
матлуб
матн
матни
матншиноси
матнҳо
матнҳои
матов
матолиб
матолиби
матоъ
матоъи
матоъҳои
матраҳ
маурисио
мауро
мафтун
мафҳум
мафҳуми
мафҳумҳо
мафҳумҳои
махадаонда
махачкала
махдуми
махзани
махзану
махлуқот
махорка
махрутшакл
махсум
махсус
махсусан
махсусе
махсуси
махсусро
махфи
махфии
мачлиси
машварат
машварати
машоихи
машриқ
машриқзамин
машрубот
машук
машъал
машғул
машғуланд
машғули
машғулияти
машғулиятҳои
машқ
машқи
машқҳои
машҳад
машҳади
машҳур
машҳуранд
машҳури
машҳуртарин
машҳуртарини
маъ
маъбад
маъбади
маъбадҳои
маъдан
маъдани
маъдании
маъданҳои
маълум
маълуманд
маълумот
маълумоташ
маълумоте
маълумоти
маълумотнома
маълумотномаи
маълумотро
маълумотҳо
маълумотҳои
маълуму
маъмул
маъмулан
маъмуланд
маъмули
маъмулии
маъмултарин
маъмултарини
маъмун
маъмур
маъмури
маъмурии
маъмуриро
маъмурию
маъмурият
маъмурияти
маъмурони
маънави
маънавие
маънавии
маъни
маънидод
маънии
маъно
маънои
маънояш
маъноҳои
маърази
маърака
маъракаи
маъракаҳо
маъракаҳои
маърифат
маърифати
маърифатии
маъру
маъруф
маъруфи
маъруфият
маъруфияти
маъруфтарин
маъсуми
маъхазҳо
маъхазҳои
маъқул
мая
маяковскии
мағз
мағзаш
мағзи
мағлуб
мағлубият
мағоза
мағозаи
мағозаҳои
мағриб
мақбара
мақбараи
мақбараҳо
мақбараҳои
мақдуни
мақдуния
мақола
мақолаву
мақолае
мақолаи
мақоларо
мақолаҳо
мақолаҳое
мақолаҳои
мақолаҳоро
мақолаҳояш
мақолот
мақолоти
мақом
мақоми
мақомот
мақомоти
мақомотҳои
мақому
мақомҳо
мақомҳои
мақсад
мақсади
мақсаднок
мақсаду
мақсадҳои
мақсуд
мақулаи
маҳ
маҳал
маҳали
маҳалла
маҳаллаи
маҳаллаҳо
маҳаллаҳои
маҳалли
маҳаллии
маҳаллиро
маҳалҳо
маҳалҳои
маҳараштра
маҳбал
маҳбас
маҳбуб
маҳбуба
маҳбуби
маҳв
маҳви
маҳди
маҳдуд
маҳдуди
маҳдудият
маҳдудияти
маҳдудиятҳои
маҳз
маҳин
маҳкам
маҳкамов
маҳкум
маҳкумшуда
маҳлул
маҳлули
маҳлулҳои
маҳмад
маҳмадали
маҳмуд
маҳмуди
маҳмудов
маҳмудҷон
маҳорат
маҳорати
маҳрум
маҳсуб
маҳсули
маҳсулнокии
маҳсулот
маҳсулоти
маҳсулотҳои
маҳфил
маҳфили
маҳфилҳои
маҳфуз
маҳфузанд
маҷ
маҷалла
маҷаллаи
маҷаллаҳо
маҷаллаҳои
маҷбур
маҷбуран
маҷбури
маҷид
маҷидов
маҷлис
маҷлиси
маҷлисҳои
маҷмаа
маҷмааи
маҷмаи
маҷму
маҷмуаи
маҷмуи
маҷнун
маҷози
маҷолис
маҷори
маҷористон
маҷрои
маҷру
мбар
мбари
мвд
мвт
мг
мглин
мгу
ме
меандозад
меандозанд
меафзояд
меафтад
мебандад
мебанданд
мебарад
мебаранд
мебардорад
мебарорад
мебароранд
мебарояд
мебароянд
мебастанд
мебахшад
мебахшанд
мебел
мебинад
мебинанд
мебинем
мебозад
мебозанд
мебоист
меборад
мебошад
мебошанд
мебояд
мебуд
мебуранд
мебурд
мебурданд
мева
мевааш
мевадиҳанда
мевазад
меваи
меварзад
меварзанд
меварзид
меваю
меваҳо
меваҳои
меваҷот
мегардад
мегарданд
мегардид
мегардиданд
мегардонад
мегардонанд
мегашт
мегирад
мегиранд
мегирифт
мегирифтанд
мегу
мегузарад
мегузаранд
мегузаронад
мегузаронанд
мегузаронд
мегузашт
мегузаштанд
мегузорад
мегузоранд
мегузоштанд
мегуфт
мегуфтааст
мегуфтанд
мегуяд
мегуянд
мед
медал
медали
медалу
медалҳо
медалҳои
медарорад
медароранд
медарояд
медведев
меделин
медиа
медид
медиданд
медина
медихад
медиҳад
медиҳанд
медод
медоданд
медонад
медонанд
медонист
медонистанд
медорад
медорам
медоранд
медошт
медоштанд
меду
мее
между
международная
международнои
международные
международныи
междуреченск
мезад
мезаданд
мезанад
мезананд
мезенск
мезист
мезистанд
мезозои
меи
меистад
меистанд
меистод
мекард
мекардаанд
мекардааст
мекарданд
мекашад
мекашанд
мекашид
мекашиданд
мекоранд
мексика
мексикаги
мекско
меку
мекунад
мекунам
мекунанд
мекунед
мекунем
мекушад
мекушояд
мелбурн
мелгар
меленков
мелила
мелиоратсия
мелипила
мелод
мелоди
мемоланд
мемонад
мемонанд
мемонд
менависад
менависанд
менавишт
менавохт
менамояд
менамоянд
менамуд
менамуданд
менделеев
мендес
мендоса
менее
менеҷери
менеҷмент
менеҷменти
менишинад
меномад
меноманд
меномиданд
мену
меня
меоварад
меоваранд
меовард
меоварданд
меомад
меомаданд
меому
меорад
меоранд
меофарад
меояд
меоянд
мепазад
мепазанд
мепаи
мепарваранд
мепардозад
мепошанд
мепу
мер
меравад
мераванд
мерасад
мерасанд
мерасид
мерасонад
мерасонанд
мерасонд
мерафт
мерафтанд
мерезад
мерезанд
мерида
меридиан
меридиана
меркел
мерло
меронад
мерос
мероси
меру
меса
месабзад
месабзанд
месарояд
месароянд
месозад
месозанд
месохт
месохтанд
мест
местала
месте
место
месу
месупоранд
месяц
мета
метавон
метавонад
метавонанд
метавонед
метавонем
метавонист
метавонистанд
металл
металлами
металли
металлов
металлург
металлургии
металлургия
металлургияи
металлҳои
металурҳ
метан
метапан
метафизика
метка
метки
метод
методи
методии
методикаи
методические
методическое
методологияи
методы
методҳои
метр
метри
метро
метрои
метрополитен
метрро
мефармояд
мефармоянд
мефаҳмонад
мефиристад
мефиристанд
мефуру
механизм
механизми
механизмҳои
механик
механика
механикаи
механики
механикии
мехи
мехико
мехонад
мехонанд
мехонд
мехонданд
мехост
мехостанд
мехоҳад
мехоҳам
мехоҳанд
меху
мехушконанд
мечеть
мешавад
мешавадсистемаи
мешаванд
мешинонанд
мешиносанд
мешу
мешуд
мешуда
мешудаанд
мешудааст
мешуданд
мешукуфад
мешуморад
мешуморанд
меъда
меъдаву
меъдаро
меъдаю
меъе
меъмор
меъмори
меъмории
меъморон
меъморони
меъроҷ
меғундоранд
меҳвар
меҳвари
меҳисобанд
меҳмон
меҳмони
меҳмонон
меҳмонони
меҳмонхона
меҳмонхонаи
меҳмонхонаҳо
меҳнат
меҳнатду
меҳнати
меҳнатиро
меҳнаткашон
меҳнаткашони
меҳнатобод
меҳнатободи
меҳр
меҳргон
меҳрдод
меҳри
меҳроб
меҳроби
меҳробод
меҳру
меҳрубон
меҷу
мз
ми
миами
мигел
мигелито
миддин
миддинов
мие
миз
мизбони
мизи
мизон
мизони
мизоҷ
мизоҷи
мии
микдори
микел
микробиология
микронезия
микроорганизмҳо
мил
милали
милан
милии
милитсия
милитсияи
миллали
миллат
миллаташ
миллатгарое
миллатгарои
миллати
миллатҳо
миллатҳои
миллер
милли
миллиард
миллиардер
миллиардерҳои
миллии
миллиметр
миллион
миллионерҳои
миллиону
миллионҳо
миллиро
миллию
милод
милоди
милтон
мин
мина
минбар
минбари
минбаъд
минбаъда
минбаъдаи
минг
мине
минерал
минерали
минералии
минералогия
минералҳо
минералҳои
минерос
мини
минимум
министр
министра
министров
миннесота
мино
минск
минтақа
минтақави
минтақавии
минтақае
минтақаи
минтақаро
минтақаҳо
минтақаҳои
мир
мира
мирали
мирализода
мирамар
миранда
мире
мирзие
мирзо
мирзоев
мирзозода
мирзои
мири
мирном
мировои
миростроительство
миррих
мирсаид
миршакар
мис
миси
мисин
мисионес
мисли
мисол
мисоли
мисолҳо
миср
мисраи
мисраъ
мисри
мисрие
мисрро
мисс
миссури
мисқол
митос
митра
митте
михаи
михаил
михаилович
мичиган
мишел
мияги
миқдор
миқдори
миқе
мк
мкртчян
мл
млн
млрд
мм
ммд
ммм
ммо
мн
мне
многие
многих
много
мо
мобаи
мобили
мобилии
мов
моварои
мовароуннаҳр
мовароуннаҳру
мовскии
могут
мод
модар
модарам
модараш
модарзоди
модари
модарии
модарон
модару
модда
моддаи
моддаҳо
моддаҳое
моддаҳои
моддаҳоро
модди
моддии
моддию
модел
модели
моделҳои
моди
модина
модинааш
модул
модули
модуль
модуля
модулҳо
мое
моеи
моеъ
моеъи
может
можете
можи
можно
мозамбик
мозандарон
мозандарони
мои
моида
моии
моил
мол
молдавия
молдова
молекула
молекулави
молекулаи
молекулаҳо
молекулаҳои
моли
молида
молие
молии
молик
молики
моликият
моликияти
молина
молия
молияви
молиявии
молиявию
молияи
молоде
молро
молу
молумулки
молҳо
молҳои
момент
момсен
мон
монад
монако
монанд
монанди
монаркас
монастырева
монд
монда
мондаанд
мондааст
мондан
монданд
мондани
монеъ
мони
монов
монография
монографияи
монографияҳо
монреал
монро
монте
монтевидео
монтерреи
мор
мора
моралес
мордовиа
море
мореи
морелия
морено
морзе
мори
моро
морон
морфология
морфологияи
моря
моси
москва
москваро
москве
москвы
москера
московскии
москоу
мост
мотагуа
мотам
мотами
мотсарт
мохи
мошин
мошинасози
мошингард
мошингарди
мошини
мошинсози
мошинсозии
мошину
мошинҳо
мошинҳои
моя
мояи
моғие
моқ
моҳ
моҳаги
моҳвораи
моҳе
моҳи
моҳигири
моҳидори
моҳие
моҳии
моҳипарвари
моҳир
моҳирона
моҳият
моҳиятан
моҳияти
моҳиҳо
моҳиҳои
моҳномаи
моҳо
моҳои
моҳона
моҳро
моҳу
моҳҳо
моҳҳои
моҷарои
мро
мс
му
муаи
муаллим
муаллимаи
муаллими
муаллимон
муаллимони
муаллимтаи
муаллиф
муаллифи
муаллифон
муаллифони
муаммар
муаммо
муаммои
муаммоҳои
муаррифи
муаррифии
муаррих
муаррихи
муаррихон
муаррихони
муассир
муассис
муассиса
муассисаи
муассисаҳо
муассисаҳои
муассиси
муассисон
муассисони
мубаддал
мубодила
мубодилаи
муборак
мубориз
мубориза
муборизаи
муборизаро
муборизаҳои
муборизи
муборизони
мубрами
муваффақ
муваффақи
муваффақият
муваффақияти
муваффақиятҳои
муваффақтарин
муваққат
муваққатан
муваққати
муваққатии
мувози
мувозинати
мувофики
мувофиқ
мувофиқа
мувофиқан
мувофиқат
мувофиқати
мувофиқи
муд
мудаввар
мударрис
мударриси
муддат
муддате
муддати
мудели
муделҳои
мудир
мудири
мудирии
мудирияти
мудирон
мудирони
мудофиа
мудофиави
мудофиавии
мудофиаи
музаи
музаффар
музди
музеи
музмин
музмини
музокира
музокирот
музокироти
музофот
музофоти
музофотҳои
музыка
музыкальнои
музыкальные
муи
муиззи
муин
мукааб
мукаммал
мукаммали
мукаррама
муколама
муколамаи
мукофот
мукофоти
мукофотонида
мукофоту
мукофотҳо
мукофотҳои
мулаққаб
мулк
мулкест
мулки
мулкҳои
мулло
муллоҷонов
мулоим
мулоқот
мулоқоти
мулоҳиза
мулук
мум
мумбаи
муми
мумие
мумкин
мумтанеъ
мумтоз
мумтози
мун
мунаввара
муназзам
мунаққид
мунаққиди
мунаққидон
мунаққидони
мунаҷҷим
мунаҷҷими
мундариҷа
мундариҷаи
мунзим
муни
мунисипал
мунозира
муносиб
муносибат
муносибати
муносибатҳо
муносибатҳои
муноқиша
муноқишаи
муноқишаҳо
муноқишаҳои
муноҷот
мунтазам
мунтазами
мунтахаб
мунтахаби
мунташир
мунши
муншии
мунҳо
мунҳои
муовин
муовини
муовинони
муовия
муодилаи
муодилаҳои
муоина
муоинаи
муолиҷа
муолиҷавии
муолиҷаи
муомила
муомилот
муомилоти
муосир
муосири
муосирон
муосирро
муошират
муоширати
мур
мураббаъ
мурабби
мураббигари
мураббие
мураббии
мураббо
мураккаб
мураккаби
мураттаб
мураттиб
мураттиби
мураттибон
мурда
мурдагон
мурдод
муриди
муридони
мурило
муркия
мурманск
мурод
муроди
муродов
муром
мурофиави
мурофиавии
мурофиаи
муроҷиат
муроҷиати
мурраби
мурси
муртазо
мурури
мурч
мурғ
мурғи
мурғоб
мурғоби
мурғон
мусаввараи
мусаввараҳои
мусаввир
мусаллаҳ
мусаллаҳи
мусаллаҳона
мусаллаҳонаи
мусалмон
мусалмони
мусалмонон
мусалмонони
мусбат
мусбати
мусби
мусиқи
мусиқидон
мусиқидони
мусиқидонон
мусиқидонони
мусиқии
мусиқиро
мусиқишинос
мусиқишиноси
мусиқишиносони
муслим
муслиҳиддин
мусо
мусобиқа
мусобиқаи
мусобиқаҳо
мусобиқаҳои
мусобиқот
мусобиқоти
мусодира
мусоид
мусоидат
мусоиди
мусофир
мусофират
мусофирбари
мусофиркаши
мусофирон
мусоҳиба
мусоҳибаи
мустамлика
мустамликави
мустамликадори
мустамликадории
мустамликадорони
мустамликаи
мустамликаҳои
мустанад
мустанади
мустафо
мустақар
мустақил
мустақили
мустақилияти
мустақилона
мустақим
мустақиман
мустақими
мустаҳкам
мустаҳками
мусулмон
мусулмони
мусулмонон
мусулмонони
мутааллиқ
мутаассифона
мутаваффои
мутаваққиф
мутамарказ
мутаносиб
мутаносибан
мутаносиби
мутараққи
мутарҷим
мутарҷими
мутафаккир
мутафаккири
мутафаккирон
мутафаккирони
мутафовит
мутахаллис
мутахассис
мутахассиси
мутахассисон
мутахассисони
муташаккил
муташаккили
мутақобила
мутақобилаи
мутақобили
мутеъ
мутлақ
мутлақи
мутобиқ
мутобиқат
мутобиқати
мутобиқи
мутолиа
мутолиаи
мутолиоти
мутриб
мутриби
мутрибон
мутрибони
муттасил
муттаҳам
муттаҳид
муттаҳида
муттаҳидаи
муттаҳидсозии
муттаҳидшавии
муфассал
муфассали
муфаттиш
муфид
мухаддир
мухаммад
мухаммас
мухбири
мухлисон
мухлисони
мухолиф
мухолифат
мухолифати
мухолифи
мухолифин
мухолифини
мухолифон
мухолифони
мухталиф
мухталифе
мухталифи
мухтасар
мухтасари
мухтор
мухтори
мухторияти
мухторов
мучал
муш
мушак
мушаки
мушакҳо
мушакҳои
мушарраф
мушаххас
мушаххаси
мушаххасоти
мушкил
мушкили
мушкилот
мушкилоти
мушовараи
мушовир
мушовири
мушовирони
мушоҳида
мушоҳидаи
мушоҳидаҳои
муштарак
муштараки
муштари
муштарие
муштзани
мушфиқи
муъмин
муъминобод
муъминон
муъовия
муътабар
муътабари
муътадил
муътадили
муътамад
муътақид
муяссар
муғ
муғул
муғули
муғулистон
муғулҳо
муқаддам
муқаддас
муқаддаси
муқаддима
муқаддимави
муқаддимаи
муқаннаъ
муқаррар
муқаррари
муқаррарии
муқаррарнамудаи
муқаррароти
муқарраршуда
муқим
муқими
муқимов
муқобала
муқобил
муқобилат
муқобилати
муқобили
муқобилияти
муқоваи
муқовимат
муқовимати
муқоиса
муқоисави
муқоисавии
муқоисаи
муҳаббат
муҳаббати
муҳаи
муҳаммад
муҳаммади
муҳаммадиев
муҳаммадризо
муҳаммадшариф
муҳаммадҷон
муҳандис
муҳандиси
муҳандисии
муҳаррик
муҳаррики
муҳаррикҳои
муҳаррир
муҳаррири
муҳаррирон
муҳаққиқ
муҳаққиқи
муҳаққиқон
муҳаққиқони
муҳиддин
муҳиддинов
муҳим
муҳими
муҳимме
муҳимми
муҳимро
муҳимтарин
муҳимтарини
муҳит
муҳити
муҳлат
муҳлати
муҳокима
муҳокимаи
муҳориба
муҳорибаи
муҳорибаҳои
муҳосира
муҳосираи
муҳофиз
муҳофизакор
муҳофизат
муҳофизатгарони
муҳофизати
муҳофизи
муҳофизони
муҳоҷир
муҳоҷират
муҳоҷирати
муҳоҷирон
муҳоҷирони
муҳр
муҳра
муҳраи
муҳраҳо
муҳраҳои
муҳри
муҳсин
муҳтаво
муҳтавои
муҳтарам
муҳташам
муҳташами
муҷаррад
муҷассама
муҷассамаи
муҷассамаҳои
муҷаҳҳаз
мы
мысли
мэи
мэри
мэриленд
мюзикл
мюнхен
мянма
мянмар
мҳо
мҳои
н
на
нааш
наб
набави
набард
набарди
набардҳои
набераи
наби
набиев
набиева
наботи
наботот
набототи
набототу
набошад
набошанд
набояд
набуд
набуда
набуданд
набудани
нав
наварро
навбат
навбати
навбатии
навбаҳор
навбаҳори
навбуне
навгилем
навдаи
навдаҳои
навдаҳояш
наве
наверо
навзод
нави
навигационнои
навин
навини
нависанда
нависандагон
нависандагони
нависандаи
нависандаҳои
нависед
навишт
навишта
навиштаанд
навиштааст
навиштаи
навиштан
навиштани
навишташуда
навиштаҳо
навиштаҳои
навиштаҳояш
навиштаҷот
навиштаҷоти
навишти
навиштҳо
навлин
наво
навобод
навободи
навовари
навовариҳо
навоз
навозанда
навозандаги
навозандагон
навозандагони
навозандаи
навозиши
навои
навор
наворбардори
наворбардории
наворгирии
навори
наворҳои
навохта
навохтани
навоҳии
навоҳои
наврас
навраси
наврасон
наврасони
навро
навру
навсози
навсозии
навтарин
навтарини
навтаъсиси
наву
навшаҳр
навъ
навъе
навъи
навъҳо
навъҳои
нагано
нагардад
нагардид
нагардидааст
нагасаки
наги
нагии
нагирифтааст
наград
награды
награждении
нагузашта
над
надежда
надида
надим
надиҳад
надо
надод
надода
надодааст
надорад
надорам
надоранд
надошт
надошта
надоштанд
надоштани
надписи
надпись
нае
нажмите
нажод
нажоди
нажодпарасти
назамин
назар
назарбоев
назардошти
назаре
назарзода
назари
назарие
назарии
назария
назарияви
назариявии
назарияи
назарияҳои
назаров
назарова
назарови
назароти
назаррас
назарраси
назаршоев
название
названием
названии
названия
назди
наздик
наздиканд
наздики
наздикии
наздикони
наздиктар
наздиктарин
наздику
наздисарҳади
назир
назири
назм
назми
назму
назначение
назорат
назорати
назран
назри
назриев
наи
наиболее
наим
нак
накард
накарда
накардаанд
накардааст
накардан
накарданд
накардани
наку
накунад
накунанд
накунед
наличии
налмилали
налмилалии
налмилалиро
налмиллалии
налхалқи
налхалқии
налчик
нам
намак
намаки
намаку
намакҳои
намангон
намангони
намебошад
намегардад
намегирад
намедиҳад
намедод
намедонад
намее
намекард
намекарданд
намекунад
намекунанд
намеояд
намеравад
намерасад
наметавон
наметавонад
наметавонанд
наметавонист
наметавонистанд
намехост
намешавад
намешаванд
намешуд
нами
намибия
намии
намнок
намо
намоди
намое
намоед
намоем
намоз
намозгоҳ
намозгузорон
намози
намозро
намозҳои
намои
намоии
намоиш
намоишгоҳи
намоишгоҳҳои
намоиши
намоишнома
намоишномаи
намоишноманависони
намоишномаҳо
намоишномаҳои
намоишҳо
намоишҳои
намонд
намондааст
намояд
намоянд
намоянда
намояндаги
намояндагии
намояндагиҳои
намояндагон
намояндагони
намояндаи
намуд
намуда
намудаанд
намудааст
намудаи
намудам
намудан
намуданд
намудани
намудаш
намуди
намудор
намудҳо
намудҳои
намуна
намунае
намунаи
намунаҳо
намунаҳое
намунаҳои
нан
нанд
наннаҳраи
наовард
написания
наполеон
наполи
например
нар
нара
нарав
нарави
нарасад
нарасида
нарасидааст
нарасидани
наргис
наргиси
нариманов
наримон
нарина
нарм
нармафзор
нармафзори
нармафзорҳои
нармбаданҳо
нарми
наро
народа
народная
народнои
народные
народов
народы
нарушении
нарушения
нарх
нархи
нархҳо
наршахи
нас
насаб
насаби
насабҳои
насаф
насафи
насб
насби
населе
население
населения
насиби
насим
насименто
насими
насионал
насируддини
насиҳат
насл
наследие
наследии
наследия
насли
наслҳо
наслҳои
наср
насри
насриддин
насриддинов
насрони
насроние
насрулло
насруллоҳ
нассоҷи
настаълиқ
настоящего
настоящее
настрои
нат
натавонад
натавонист
натавонистанд
наталя
натанҳо
наташа
нати
натичаи
натиҷа
натиҷаи
натиҷаҳо
натиҷаҳои
нато
натоиҷи
натрии
натурали
наук
наука
науки
науру
наутико
науч
научно
научного
научное
научнои
научныи
научных
наф
нафар
нафарашон
нафаре
нафари
нафарро
нафас
нафаси
нафаскаши
нафақа
нафақагири
нафақат
нафақаху
нафаҳот
нафиси
нафоис
нафрат
нафс
нафси
нафт
нафталан
нафти
нафту
нафъ
нафъи
нах
нахи
нахл
нахли
находится
находка
находятся
нахоҳад
наху
нахуст
нахуствазир
нахуствазири
нахусти
нахустин
нахустинаш
нахустини
нахустнамоиши
нахҳои
нации
национальная
национального
национальнои
национальности
национальные
национальныи
национальных
начала
начале
начало
начальник
начандон
начиная
наш
нашавад
нашваш
нашви
нашон
нашр
нашри
нашрие
нашрия
нашрияи
нашрияҳо
нашрияҳои
нашршуда
нашуд
нашуда
нашудаанд
нашудааст
нашуданд
нашудани
нашъунамо
ная
нағз
нақб
нақби
нақд
нақди
нақзи
нақл
нақли
нақлие
нақси
нақш
нақша
нақшаи
нақшакаши
нақшаҳо
нақшаҳои
нақшбандия
нақши
нақшофари
нақшро
нақшу
нақшҳо
нақшҳои
нақшҳоро
наққош
наққоши
наққошии
наҳаҷм
наҳв
наҳви
наҳзати
наҳи
наҳои
наҳр
наҳри
наҳҷувон
наҷд
наҷиб
наҷмиддин
наҷмуддини
наҷот
наҷоти
нба
нбо
нг
нгари
нги
нгуен
нгузори
нд
нда
ндани
не
неапол
небраска
невада
невел
невис
невскии
невянскии
него
нее
независимости
неи
нек
некакс
неки
некоторые
некоторых
неку
нелинеи
нело
нелсон
нельзя
нем
немецкии
немис
немиси
немисҳо
ненетс
необходимо
необходимости
необязательныи
неолит
непал
непосредственно
нептун
нер
нери
неру
неругоҳи
неругоҳҳои
неруи
неруҳои
нескольких
несколько
нест
нестанд
нести
нестор
несту
нет
нетане
нето
нетрополитано
нефт
нефтехимик
нефти
нехаев
нештаршакл
неъмат
неъматов
неъматулло
неҳру
нзода
ни
ниг
нигар
нигаред
нигарон
нигарони
нигаронида
нигаҳ
нигаҳбони
нигаҳдори
нигаҳдории
нигер
нигерия
нигина
нигор
нигораҳо
нигори
нигористон
нигористони
нигориш
нигориши
нигошта
нигоштааст
нигоҳ
нигоҳдори
нигоҳдории
нигоҳе
нигоҳи
нигоҳубин
нигоҳубини
нидавлати
нидавлатии
ниддин
нидерланд
нидерланди
нидерландия
нидо
нидоев
ние
ниже
нижневартовск
нижнего
нижнедевитс
нижнеилимск
нижнекамск
нижнесергинскии
нижнеудинск
нижни
нижнии
нижняя
низ
низои
низом
низоми
низомиддин
низомие
низомии
низомиро
низомнома
низомномаи
низомов
низомулмулк
низомҳои
низори
низоъ
низоъҳои
нии
ниигата
ниинисте
ник
ника
никарагуа
никарагуани
никел
никита
никитин
никол
никола
николаев
николаевич
николаевка
николаи
николас
николск
николское
никоноров
никоҳ
никоҳи
нил
нилгун
нилуфар
ним
нимаи
нимбие
ними
нимкураи
ниммуҳофизатгарони
нимноқили
нимо
нимпаи
нимфаъол
нимҷазира
нимҷазираи
нина
нинас
нинеи
нирасол
нирин
ниро
ниру
нис
нисбат
нисбатан
нисбати
нисби
нисбии
нисбияти
нисо
нисоб
нисоби
нисори
нисф
нисфи
нитроген
них
ничего
нишаст
нишаста
нишастан
нишастани
нишасти
нишаҳри
нишеби
нишебии
нишебиҳои
нишон
нишона
нишонаи
нишонаҳо
нишонаҳои
нишондиҳанда
нишондиҳандаи
нишондиҳандаҳои
нишондод
нишондоди
нишондодҳои
нишони
нишонии
нишонҳои
нишопур
нишопури
нию
ния
ният
нияти
ниқрис
ниҳод
ниҳода
ниҳоди
ниҳодҳои
ниҳои
ниҳоии
ниҳол
ниҳоли
ниҳолҳои
ниҳон
ниҳони
ниҳоят
ниҷерия
нная
нного
ннои
нные
нныи
нным
нных
но
ноае
ноб
нобаробар
нобел
нобели
ноби
нобино
нобовари
ноболиғ
нобуд
нов
нова
новая
новбари
новгород
новеи
нови
новии
нович
ново
новоаннин
новобаста
нового
новое
новозибков
новои
новокузнетск
новолялинскии
новониколаев
новооскол
новоризонтино
новороссии
новосибирск
новости
новотроитск
новоусман
новохоперск
новочеркасск
новское
новую
новхудо
новые
новыи
новых
ногаҳон
ногаҳони
ного
ногувор
ногузир
нодир
нодири
нодиршоҳ
нодуруст
нодурусти
ное
ноз
нозанин
нози
нозил
нозим
нозир
нозири
нозирони
нозироти
нозои
нозук
нозукиҳои
нои
ноиб
ноиби
ноил
нок
ноком
нокоми
нола
ном
нома
номаи
номатлуб
номаш
номашро
номаълум
номаҳо
номаҳои
номбар
номбаршуда
номбурда
номвар
номгу
номгузори
номгузории
номгузориҳои
номдор
номдори
номер
номера
номз
номзад
номзади
номзадиашро
номзадии
номзадиро
номзадҳо
номзадҳои
номи
номид
номида
номидаанд
номидааст
номиданд
номии
номинантам
номинатсия
номинатсияи
номинатсияҳои
номинации
номнавис
номро
ному
номуаи
номувофиқ
номумкин
номҳо
номҳои
нон
нони
нону
ноором
нопадид
нопурра
нор
норак
норанҷи
норасоии
норвегия
норд
норин
норози
норозиги
норозигии
норте
норуэсте
носир
носири
носиров
носирҷон
носовои
носта
нотавон
нотаи
нотакрор
нотакрори
нотамом
ноти
ноустувор
ноф
нофеъ
нохун
нохуш
ночиз
ночор
ношир
ношири
ноябр
ноябри
ноября
ноқил
ноқили
ноҳамвор
ноҳия
ноҳияви
ноҳиявии
ноҳияе
ноҳияест
ноҳияи
ноҳияро
ноҳияҳо
ноҳияҳои
ноҷи
нро
нс
нт
нтар
ну
нужен
нужно
нуктаи
нуктаҳои
нукут
нулмилалии
нуманкия
нуму
нуни
нур
нурали
нуралиев
нуралишо
нурато
нурафшон
нурджанов
нури
нуриддин
нуриҳои
нуробод
нуров
нурулло
нурҳо
нурҳои
нурҷонов
нус
нуси
нусия
нусратулло
нусха
нусхабардори
нусхаи
нусхаҳои
нусҳо
нутфа
нутқ
нутқи
нуфуз
нуфузи
нуэва
нуқра
нуқраги
нуқрагин
нуқраи
нуқси
нуқсонҳои
нуқта
нуқтаи
нуқтаҳои
нуҳ
нуҷум
нуҷуми
ншстн
нштеи
ны
ные
ныи
ныне
ных
нью
ню
нюкасл
нюксен
нютон
няндомск
нҳо
нҳои
о
об
обама
обанбор
обанбори
обанборҳо
обанборҳои
обаш
оббози
обе
обзор
оби
обигарм
обид
обидов
обидпур
обии
област
областеи
области
область
обод
ободи
ободон
ободонии
ободу
обозначения
обон
обработки
образ
образи
образование
образования
образом
образҳои
обратите
обро
обру
обсабзҳо
обсуждение
обсуждении
обсуждения
обу
обучения
обхези
обшорон
общая
общеи
общем
общества
общественных
общество
общие
объе
объедине
объект
объекта
объекти
объективи
объектов
объекты
объектҳо
объектҳои
обычно
обязательно
обязательныи
обҳои
ов
ова
оварад
оваранд
овард
оварда
овардаанд
овардааст
овардан
оварданд
овардани
овардашуда
овехта
овиедо
овиэдо
овоз
овоза
овозаи
овозаҳо
овоздиҳанда
овоздиҳандаи
овоздиҳи
овоздиҳии
овози
овозии
овозхон
овозхони
овозхонии
овозхонони
овозхонҳои
овозҳо
овозҳои
овозҳоро
овони
огоҳ
огоҳи
огоҳии
од
одам
одами
одамон
одамоне
одамони
одамонро
одамро
одаму
одат
одатан
одати
одатҳои
одди
оддии
одесса
оди
одии
одил
один
одина
одинаев
одна
однако
одним
одно
одновременно
одного
однои
одном
одну
одоб
одоби
одобу
ое
оесте
озар
озарбои
озари
озмоишгоҳ
озмоишгоҳи
озмоиши
озмоишҳои
озмун
озмуни
озмунҳои
означает
озод
озода
озодагон
озоди
озодии
озодихоҳи
озодихоҳии
озодиҳои
озодкунии
озодона
озорбои
озуқавори
ои
оид
оиди
оила
оилааш
оилави
оилавии
оиладор
оилаи
оилаҳои
оилнд
оин
оина
оинаи
оини
оиннома
оинномаи
оиша
ок
окато
окаяма
океан
около
окончания
округ
округи
окс
оксиген
оксиди
оксидшавии
оксфорд
окт
октаваи
октябр
октябри
октябрскии
октября
ол
ола
олам
олами
оламро
олариа
олати
олга
олд
олег
олегович
оли
оливеи
оливер
олии
олим
олимаи
олимаҳо
олими
олимов
олимон
олимони
олимону
олимпи
олимпиа
олимпиадаи
олимпии
олимпия
олимпо
олимхон
олимҷон
олиро
олмедо
олмон
олмони
олмонии
олмониҳо
олмонро
олои
олоско
олот
олоти
олтои
олу
олуболу
олуда
олуча
олхов
олховат
олхонск
олэмпик
ом
омад
омада
омадаанд
омадааст
омадан
омаданд
омадани
омади
омезиш
омезиши
омехта
омехтаи
омие
омил
омили
омилҳо
омилҳои
омма
оммави
оммавии
оммаи
омода
омодаги
омодагии
омодасозии
омонаи
омор
омори
омории
омос
омоси
омосҳои
омск
ому
омударе
омузиши
омул
он
она
онанд
оне
онежск
онес
они
онлаи
оно
онов
онон
ононро
онро
онсе
онтарио
ончи
онҳо
онҳое
онҳоро
онҳост
онҳоянд
онҷо
оон
опера
операи
оператори
оператсиони
оператсионии
операҳои
описание
описания
оппозисиюн
оппозитсиони
определе
определение
оптика
оптики
оптикии
опыт
ор
орад
оранд
орасио
органи
организации
организация
организм
организми
организмро
организмҳо
организмҳои
органики
органикии
орд
ордабоси
орден
ордена
ордени
орденом
ордену
орденҳо
орденҳои
орди
ординатори
орду
ордубад
оре
орегон
орезуно
оренбург
орехово
орзу
орзуи
орзуҳои
ори
орие
оризонте
оринҷ
орис
орисса
ористано
ористоно
ориф
орифи
орифов
орифон
ориэнте
орк
оркестр
оркестри
орландо
оро
орои
ороиш
ороиши
ороишии
ороишоти
орокаба
ором
оромгоҳ
оромгоҳи
ороми
ороста
ортега
ортис
ортодоксии
орҷоникидзе
орҷоникидзеобод
ос
осака
осасуна
освалдо
осеб
осеби
осени
осетияи
оси
осие
осиедаде
осими
осин
осипов
осиэдадэ
оск
оскар
оскол
осло
осмон
осмони
осмонҳо
основания
основе
основного
основнои
основные
основным
основных
основы
особенно
особенности
особого
осоишгоҳ
осоишгоҳи
осоишта
осоиштаи
осон
осони
осор
осораш
осори
осорно
осору
осорхона
осорхонаи
осорхонаҳо
осорхонаҳои
оспиталет
остальных
остин
остона
остонаи
остров
островскии
острогожск
осуда
осуществляется
от
ота
оташ
оташбас
оташборгони
оташи
оташин
оташро
оташфишон
оташфишони
оташфишонии
отв
отделение
отделения
отдельных
отелло
оти
отличие
относительно
относится
отношении
отношения
отображаемыи
отображается
отображаются
отображение
отображения
отряди
отсутствует
отто
оф
офарид
офарида
офаридаанд
офаридааст
офаридаи
офариданд
офаридани
офаридаҳои
офаридгор
офариниш
офариниши
офаринишшиносии
офатҳои
официальныи
оформление
оформления
офтоб
офтоби
офтобпараст
офтобро
офтобру
офф
ох
охир
охират
охири
охирин
охирини
охирон
охирҳои
охунов
очень
очерк
очерки
очерку
очеркҳо
очеркҳои
ош
оше
оши
ошибка
ошибки
ошибок
ошиқ
ошиқи
ошиқон
ошиқона
ошиқонаи
ошкор
ошкоро
ошно
ошнои
ошомидани
ошти
оштии
ошу
ошур
ошхона
ошхонаи
ояд
оянд
оянда
ояндаи
оят
ояти
оятуллоҳ
оятҳои
оғоз
оғози
оғу
оқибат
оқибати
оқибатҳои
оқил
оқилов
оқилона
оқилонаи
оқсу
оқсуи
оҳаксанг
оҳан
оҳанг
оҳангар
оҳангари
оҳангарон
оҳанги
оҳангсоз
оҳангсози
оҳангсозони
оҳангу
оҳангҳои
оҳани
оҳанин
оҳаннис
оҳану
оҳар
оҳиста
оҳу
оҷонсии
оҷонсиҳои
п
па
пабло
павел
павлович
павловск
павловскии
падар
падараш
падарашро
падари
падару
падид
падида
падидаи
падидаҳо
падидаҳои
падидор
падруд
пае
пажу
пажуҳишгоҳи
пазириши
пазируфт
пазируфта
пазируфтанд
паи
пак
пакистана
пакука
палав
паланг
паласиос
палата
палатаи
палеолит
палеолити
палермо
палестино
палех
палласов
палма
палмас
палнеи
палов
памир
памира
памплона
памяти
памятники
пан
панама
панами
панд
пандемияи
панду
панели
панин
панорама
паноҳ
паноҳгоҳ
паноҳгоҳи
паноҳи
пантуркизм
панфилов
панҷ
панҷаи
панҷакент
панҷакенти
панҷвақта
панҷгонаи
панҷи
панҷоб
панҷоби
панҷоҳ
панҷру
панҷсолаи
панҷум
панҷуми
панҷумин
панҷшанбе
панҷшер
папа
пар
пара
парагваи
паразит
паразитология
паразитологияи
параи
параллели
параметр
параметра
параметрами
параметре
параметри
параметров
параметром
параметру
параметры
параметрҳо
параметрҳои
парана
паранаэнсе
паранда
парандагон
парандаи
парандапарвари
парандаҳо
парандаҳои
парастиш
парастиши
парасту
парванда
парвандаи
парвандаҳо
парвандаҳои
парвариш
парвариши
парвиз
парвин
парвоз
парвози
парвозҳои
парвона
парда
пардаи
пардаҳои
пардохт
пардохта
пардохтааст
пардохтанд
пардохти
пардохтҳои
парем
парешон
пари
париж
парк
парки
парламент
парламенти
парлумон
парлумони
парлумонии
парлумонро
парма
пароканда
парра
парранда
паррандаҳо
партави
партизани
партии
партия
партиявии
партияи
партоб
партоби
партов
партовҳои
партоев
партофта
партофтани
парфянском
парчам
парчами
парчамҳо
парчамҳои
парҳез
парҳези
пас
пасванд
пасванди
пасвандҳои
паси
паскал
пасо
пасон
пасошу
паст
пасти
пастии
пасттар
пасттарин
пасту
пастхамии
пасуш
патент
патенти
патологи
патрик
патритсио
патрулирующего
паулиста
пауло
паулу
пахта
пахтаарал
пахтаги
пахтагин
пахтаи
пахтакор
пахтакори
пахтакорони
пахтаобод
пахтатозакуни
пахш
пахши
пашм
пашми
пашту
паштунҳо
паҳлави
паҳлавии
паҳлавон
паҳлавони
паҳлу
паҳлуи
паҳлуҳои
паҳн
паҳнбарг
паҳни
паҳнку
паҳнои
паҳншави
паҳншавии
пе
педагог
педагоги
педагогии
педагогика
педагогикаи
педагогическии
педагогического
педро
пеи
пекин
пектин
пектини
пелотас
пенаполенсе
пенза
пенсилвания
пеня
пенярол
пер
первая
первого
первое
первои
первом
первомаи
первые
первыи
первым
первых
перевод
перевода
перед
переи
перенаправление
перенаправлении
перенаправления
перепись
перес
перехода
период
перм
перомуни
персидско
персонажҳои
персоналии
перспективы
перу
перуи
пестисидҳо
пестяк
петербург
петр
петров
петрович
петроград
петрозаводск
петролеро
петропавловск
петушин
печонида
пеш
пеша
пешаи
пешаки
пешакии
пешбар
пешбари
пешбарии
пешбини
пешбинишуда
пешбурди
пешво
пешвое
пешвоз
пешвои
пешгири
пешгирии
пешгу
пешгузаштаи
пешгуфтор
пешдодие
пеши
пешин
пешина
пешинаи
пешини
пешкаш
пешкаши
пешниҳод
пешниҳоди
пешниҳодшуда
пешниҳодҳо
пешниҳодҳои
пешоб
пешобдон
пешоброн
пешоброҳа
пешовар
пешрав
пешрави
пешравии
пешрафт
пешрафта
пешрафтаи
пешрафти
пешсаф
пешсафи
пешсафони
пештар
пештара
пештоқ
пештоқи
пешқадам
пешқадами
пи
пианинонавоз
пие
пиедрас
пиесаҳои
пизишк
пизишки
пизишкии
пизишкони
пии
пикселях
пилла
пинежск
пинто
пинҳон
пинҳони
пинҳонии
пионери
пир
пиранга
пири
пиромуни
пирони
пиру
пирях
пиряхи
пиряхҳо
пиряхҳои
писанд
писанди
писар
писараш
писаре
писари
писарон
писаронаш
писарони
писару
писатель
писать
писта
питер
питтсбург
питфи
пифагор
пишминскии
пк
пкс
плаза
плазма
планируется
пластики
плата
плате
платенсе
платформа
платформаи
плеи
пленуми
плисетс
площадь
плюс
по
победителям
поведение
поведения
повест
повести
поворин
погар
погоды
погост
под
подгоренск
поддерживает
подолск
подписи
подпись
подробнее
подстраницы
подтанҳо
подшоҳ
подшоҳи
подшоҳии
подшоҳон
подшоҳони
подъе
пое
поезд
пожалуи
позволяет
пои
поин
поини
поинтар
поиск
поиска
пок
пока
показано
показателеи
показать
показывает
поки
покистон
покистони
поку
пол
поле
полимерҳо
полинезия
полис
полиси
политехники
политехникии
политика
политики
политическая
политические
политическои
полк
полки
полковник
полковники
полностью
полныи
поло
половине
положение
положения
полскии
полу
получение
получения
получил
получить
полушария
полша
пользователи
полюса
поля
поляна
помидор
помир
помири
помиру
помощи
помощью
пон
понздаҳ
понте
понтеведра
понферрадина
понғоз
поп
попечителеи
попи
попов
попуо
пора
порае
пораи
пораҳои
порвенир
порис
порк
порлумон
порлумони
поррес
порс
порси
порсигу
порсии
порт
портал
портали
портени
порти
портива
портиво
портинг
портленд
порто
портр
портрет
портрети
португал
португали
португалия
португэза
портҳо
пору
порча
порчаи
порчаҳо
порчаҳои
порядке
порядок
пос
посад
посбони
посвященнои
посдори
посдорони
посе
поселение
поси
поскольку
после
последнеи
последнии
посмотреть
пособие
пост
постановление
посух
потенсиали
потоси
поче
почему
почеп
починок
почта
почтаи
почти
пош
пошида
пошидани
пошии
пошо
пошху
поэзии
поэма
поэтому
поя
пояаш
поягузори
поягузорони
пояи
пояснительная
пояш
пояҳои
прав
права
правда
правил
правила
правилам
правилами
правило
правильно
правительства
правительство
править
правки
право
правои
правок
православи
православии
прага
прадеш
праи
практика
практическои
прасад
предложения
предмет
предназначен
президент
президента
президенте
президенти
президентии
президентиро
президентом
президентро
президентҳо
президентҳои
президиуме
президиуми
премии
премия
премьер
пресс
прета
прето
префектураи
префектураҳои
при
приволжск
пригороднии
приложение
прима
применение
применения
применяется
пример
примере
примеры
примечания
приморск
принимает
принсипи
принсипҳои
принципы
про
проблема
проблемаҳои
проблемы
проверка
проверки
провинкял
прогноз
программа
программы
прогресо
прогресс
продюсер
продюсери
продюсерони
проект
проекта
проекте
проектов
проекции
проекция
произведения
происходит
происхождение
прокофев
прокуратура
прокуратураи
прокурор
прокурори
пролетар
промышленности
просмотр
просто
пространства
пространстве
пространство
протекторати
протестанти
против
протокол
протоколи
проф
профессор
профессори
профессорон
профили
прохоров
процентах
пруссия
псиг
психологи
психологии
психология
психологияи
псков
пу
публикации
публисист
публисисти
публитсисти
пуке
пул
пули
пулии
пулис
пулҳо
пулҳои
пумас
пункт
пункта
пунтаренас
пур
пурарзиш
пурзу
пури
пуриқтидори
пурра
пурраги
пурраи
пурсамар
пурси
пурсид
пурсии
пурсиш
пурсиши
пурсишҳои
пурқувват
пусан
пустои
путе
пути
путин
путь
пухта
пухтан
пухтани
пухтунхво
пучеж
пушаи
пушкин
пушт
пуштаку
пушти
пуштибони
пуштибонии
пушту
пуэбла
пуэрто
пятигорск
р
ра
раббони
рабек
рабиев
рабои
работ
работа
работает
работать
работе
работи
работы
рабт
рав
равад
раванд
раванди
равандҳо
равандҳои
равен
рави
равии
равиро
равиш
равиши
равишҳои
равия
равияи
равияҳои
равнақ
равнақи
равно
раво
равобити
равон
равона
равонаш
равони
равонии
равону
равоншинос
равоншиноси
равоншиносии
равшан
равшани
равшании
равған
равғани
раг
раги
рагҳо
рагҳои
рад
рада
радабандии
радаи
раддабандии
радди
раджабов
радикали
радио
радиоактив
радиоактиви
радиои
радиотехника
радиошунавони
радиошунавонии
радиуси
радиф
радифи
радифҳои
рае
раев
раз
разави
развитие
развитии
развития
раздел
раздела
разделах
разделе
разделов
разделы
различные
различных
разм
размер
размера
разметки
размещение
разми
размии
разных
разрешения
раи
раис
раиси
раисиҷумҳур
раисиҷумҳури
раисони
раисҷумҳури
рак
ракета
ракеты
раки
ракитян
ракъат
ракъати
рам
рама
рамазон
раменскои
рамз
рамзи
рамзии
рамзҳо
рамзҳои
рамирес
рамиро
рамон
рамоненсе
рамос
рампла
ран
ранг
ранга
рангаи
рангаш
ранги
рангин
рангини
рангоранг
рангу
рангҳо
рангҳои
ранд
ранее
рани
ранов
ранхерс
ранҷ
рао
рапид
рапидс
раро
рас
расад
расадхона
расадхонаи
расид
расида
расидаанд
расидааст
расидан
расиданд
расидани
расинг
расм
расман
расми
расмие
расмии
расмият
расму
расмҳо
расмҳои
расо
расонад
расонаи
расонанд
расонаҳо
расонаҳои
расонд
расонда
расондааст
расондан
расонданд
расондани
расонид
расонида
расонидааст
расонидан
расониданд
расонидани
распоряжение
расс
рассом
рассоми
рассомии
рассомон
рассомони
растаниҳои
растении
растения
расул
расули
расулов
расче
рат
ратгоҳи
ратгоҳҳои
рати
раул
рауф
рафаэл
рафаэла
рафиқ
рафт
рафта
рафтаанд
рафтааст
рафтан
рафтанд
рафтани
рафти
рафтор
рафтори
рафтору
рафторҳои
рафту
рафъ
рафъи
рах
рахи
рахимов
рахон
рахҳои
раш
рашид
рашиди
рашт
рашти
раъд
раъду
раъи
раъно
рағбат
рағбати
рақам
рақами
рақамии
рақамҳо
рақамҳои
рақи
рақиб
рақиби
рақибони
рақобат
рақобати
рақс
рақси
рақсии
рақсро
рақсу
рақсҳои
раққос
раққоса
раққосаи
раққосаҳои
раққоси
раҳ
раҳбар
раҳбари
раҳбарии
раҳбарони
раҳим
раҳимбии
раҳимзода
раҳими
раҳимов
раҳмат
раҳматов
раҳматуллоев
раҳмон
раҳмони
раҳмонов
раҳнамои
раҳо
раҳои
раҳоро
раҷ
раҷаб
раҷаби
раҷабов
раҷабова
рб
рбо
ргб
рд
рда
рдааст
рдаи
рдамчии
рдан
рданд
рдани
рди
рдор
рдҳои
ре
реаксия
реаксияи
реаксияҳои
реактиви
реактивии
реал
реализации
реализми
реалисти
реаниматсияи
реверс
ревир
револушен
револютсияи
революции
рег
регар
регатас
регзор
реги
регион
региона
регистон
регистони
регистри
ред
редаксияи
редактирования
редактор
редонда
режевскои
режими
режиссе
реза
резини
резишгоҳи
результат
результате
реи
реки
реклама
рекомендации
рекомендуется
рекорди
рекордҳои
рекреатива
рекреативо
ректор
ректори
релеф
релефи
рели
ремо
ренато
рене
ренсе
рентгени
рентистас
репев
репертуари
реро
рес
ресенде
ресифе
ресмон
республик
республика
республикаи
республике
республики
ресурсы
реус
рехт
рехта
рехтани
реша
решаи
решашинохтии
решаҳои
решение
решении
решения
реҷаи
ри
риа
рибеи
ривадавия
ривас
ривер
ривера
ривлин
ривое
ривоят
ривояте
ривояти
ривоятҳо
ривоятҳои
ривоҷ
ривоҷи
ривоҷу
рига
рид
ридавлати
рие
риздвяни
ризо
ризои
ризоият
ризоияти
рии
риимкон
рика
рикаги
рикардо
рико
рил
рим
риманқул
римодди
римоддии
римскии
римустақим
рин
ринавбатии
ринизоми
рином
рио
риодди
риорганики
риос
риоя
риояи
рирасми
рирасмии
рирасон
рирасони
риро
рис
рисола
рисолае
рисолаи
рисолати
рисолаҳо
рисолаҳои
рита
ритм
рифаъол
ричард
ричашмдошт
риш
ришгарон
риши
ришие
ришта
риштаи
риштаҳои
ришқа
ришҳо
ришҳои
рию
рия
риқонуни
риқонунии
риҳо
риҳои
рк
ркарата
ркп
ркуни
ркунии
рматов
рмуҳаммади
рн
рнч
ро
роб
роберт
роберто
роби
робиаи
робита
робитаи
робитаҳои
робод
робот
ров
рова
ровари
ровен
рови
ровие
ровии
рогнедин
род
рода
родник
родолфо
родриге
родригек
родригес
родриго
рое
рождения
роз
роза
рози
розигии
розия
розиқов
рои
роиҷ
рок
рока
роквори
роки
рокҳои
роландо
роли
роль
ром
рома
роман
романи
романс
романсҳо
романтизм
романтики
романтикии
романҳои
ромео
ромеро
ромит
ромити
ромненскии
рон
рона
роналд
роналдо
роналду
ронандаи
ронд
ронда
рони
ронкунии
роншавии
рообод
роса
росарио
россии
россия
россияи
россошан
рост
роста
рости
росткунҷа
ростов
ростселмаш
рот
рота
ротеппа
ротор
рох
рохас
рохбари
рохи
рохос
роша
роштқалъа
роғ
роғун
роққум
роҳ
роҳандози
роҳандозии
роҳат
роҳати
роҳбар
роҳбари
роҳбарии
роҳбарикунанда
роҳбарикунандаи
роҳбарият
роҳбарияти
роҳбарон
роҳбарони
роҳе
роҳи
роҳнамо
роҳнамои
роҳо
роҳои
роҳпаи
роҳро
роҳу
роҳхат
роҳхати
роҳҳо
роҳҳои
роҷер
роҷеъ
рп
рр
рро
рсдрп
рсола
рсолаи
рсс
рсфср
рт
ртар
ртиз
ртс
ртсу
ру
руанда
рубен
рубин
рубио
рубл
рублеи
рубли
рубоб
рубоби
рубои
рубоие
рубоиҳо
рудаки
руднян
рудолф
руз
рузи
руи
руис
рукни
рукнҳои
руководство
рулло
рум
руми
румие
румини
руминия
румонтики
румынии
рус
русал
руси
русии
русиро
русичи
русия
русияву
русияи
русияро
руслан
русро
русская
русские
русскии
русских
русско
русского
русское
русскои
русском
рустам
рустами
рустани
рустании
рустанипарвари
рустаниро
рустаниҳо
рустаниҳои
рустаниҳоро
русто
рустои
рустоҳои
русу
русҳо
рут
рутба
рутбаи
рутбаҳои
рух
рухи
рухсатии
рухшона
рушд
рушде
рушди
рушду
руғ
руғи
руғҳо
руғҳои
руқ
руҳ
руҳи
рф
рхон
рхона
ры
рэгатас
рэкрэатива
рэкрэативо
рэп
рюр
ряд
ряда
рядом
рязан
рғон
рғони
рғонтеппа
рғули
рҳ
рҳизби
рҳо
рҳои
с
са
сабаб
сабабгори
сабаби
сабабҳо
сабабҳои
сабадел
сабақ
сабз
сабзавор
сабзавот
сабзавоти
сабзавоткори
сабзанов
сабзи
сабзиш
сабзиши
сабзтоб
сабк
сабки
сабку
сабо
сабоҳ
сабр
сабт
сабти
сабтиномшуда
сабтҳои
сабу
сабук
сабукду
сабуки
сабҳа
саввум
савганд
савганде
савдо
савдои
савин
савияи
савод
саводи
саводноки
савол
саволи
саволҳои
савор
савора
савораи
савори
савр
саврон
савсан
савт
савти
саг
саги
сад
сада
садаи
садама
садамаи
садақа
садаҳои
садбарг
садбарги
садди
садо
садои
садонок
садонокҳо
садоқат
садоҳои
садри
садриддин
садсолаҳо
саду
садҳо
сае
сазовор
сазовори
саи
саид
саидали
саидзода
саиди
саидмуродов
саидов
саидқул
саитама
сак
сакоиҳо
сактаи
сал
салвадор
салиб
салиби
салим
салими
салимов
салмон
салмони
салом
саломат
саломати
саломатии
салоҳ
салоҳиддин
салоҳият
салоҳияти
салоҳиятҳои
салт
салтанат
салтанате
салтанати
салют
салҷуқи
салҷуқие
сам
самад
самадов
самаки
самар
самара
самарабахш
самараи
самаранок
самараноки
самаранокии
самарканд
самарқанд
самарқанди
самарқандро
самарқанду
самбо
сами
самиев
самими
самимият
самоаи
самого
самои
самоле
самостоятельно
самсун
самт
самти
самтҳои
самуэл
самыи
самых
сан
сана
санавбар
санад
санади
санадҳо
санадҳои
санаи
санам
санаҳои
санг
сангвор
санги
сангин
сангини
сангинов
санглох
сангту
сангу
сангфарш
сангҳо
сангҳои
санду
сандуқи
санитари
санкт
саноат
саноати
саноатии
саноеи
санои
санскрит
сант
санта
сантандер
сантиметр
санто
сантос
сантяго
санчес
санъат
санъати
санъаткори
санъаткорҳои
санъатро
санъатшиноси
санъатҳои
санъо
санҷаи
санҷар
санҷид
санҷида
санҷиш
санҷиши
саодат
саодати
саприсса
сар
сара
сараввал
саразм
сарам
саранди
саранск
саранҷом
саратов
саратон
саратони
сараш
сарашро
сарбадорон
сарбанд
сарбанди
сарбоз
сарбози
сарбозон
сарбозони
сарбозро
сарв
сарвазир
сарвазири
сарвазирон
сарвазирони
сарвазирро
сарвар
сарвари
сарварии
сарварони
сарват
сарвати
сарватманд
сарватманди
сарватмандтарин
сарватҳои
сарви
саргаҳи
саргузашти
сард
сардабири
сарди
сардиния
сардор
сардори
сардории
сардорони
сардухтури
сарез
сареъ
сарзамин
сарзамине
сарзамини
сарзаминҳои
сари
сариағаш
саривақт
саридораи
сариосие
сарисинагии
сарихосор
сарихосори
саричашма
саричашмаи
сария
саркаши
сарку
сарлавҳа
сарлавҳаи
сарлашкари
сармиэнто
сармо
сармои
сармоя
сармоягузори
сармоягузории
сармояи
сармуаллим
сармурабби
сармураббии
сармутахассиси
сармуҳандиси
сармуҳаррир
сармуҳаррири
сарнавишт
сарнавишти
сарнагун
сарнагунии
сарои
сароида
саромадони
сарони
саросар
саросари
сароянда
сарояндаги
сарояндагии
сарояндагон
сарояндагони
сарояндаи
сарояндаҳо
сарояндаҳои
сарпарасти
сарпарастии
сарпу
саррае
сарредаксияи
сарро
сарсухани
сарсфиэлд
сартарошхона
сару
сарукор
сарулибоси
сарф
сарфармондеҳи
сарфароз
сарфи
сарфу
сарходими
сарчашма
сарчашмаи
сарчашмаҳо
сарчашмаҳои
саршавии
саршиноси
саршор
саршумори
саршумории
саръ
сарқанд
сарқонун
сарқонуни
сарҳад
сарҳадди
сарҳади
сарҳадии
сарҳадҳои
сарҳанг
сарҳисоби
сасанидском
сат
сати
сатмадор
сатмадори
сатмадорон
сатмадорони
сато
сатр
сатри
сатрҳои
саттор
саттори
сатторов
сату
сатурн
сатшинос
сатшиноси
сатшиносии
сатяҷит
сатҳ
сатҳи
сатҳои
сатҳҳои
сауд
сауди
сафави
сафавие
сафар
сафарали
сафарбар
сафари
сафармуҳаммад
сафаров
сафарҳо
сафарҳои
сафед
сафеда
сафедаи
сафедаҳо
сафедаҳои
сафеди
сафедор
сафедпу
сафедтоб
сафи
сафиева
сафина
сафир
сафири
сафирони
сафо
сафол
сафоли
сафорати
сафоратхонаи
саффорие
сафҳа
сафҳаи
сафҳои
сахалин
сахалинск
сахароза
саховат
сахт
сахти
сахтиаш
саъд
саъди
саъдиев
саъдии
саъдулло
саъи
саъид
саъю
сағир
сақфи
саҳ
саҳа
саҳар
саҳеҳ
саҳеҳи
саҳифа
саҳифаи
саҳифаро
саҳифаҳо
саҳифаҳои
саҳм
саҳмгузори
саҳми
саҳмия
саҳмияҳо
саҳмияҳои
саҳна
саҳнави
саҳнаи
саҳнаҳои
саҳни
саҳомии
саҳро
саҳрои
саҳҳоми
саҳҳомии
саҷда
сб
сборник
сбук
св
сведения
свердловск
сверху
света
светлана
светлояр
свободненскии
свое
своего
своеи
свои
своих
свою
связанные
связи
сд
сделать
се
себ
себастиан
себастян
себе
себи
себистон
себя
сев
севастопол
севвум
север
северного
севила
севиле
севум
сегодня
сегона
сегонаи
сегоҳ
сезар
сеи
сеиба
сектори
секунҷа
секунҷаи
секции
сел
селаху
селе
селевкие
селедон
селексия
селексияи
сели
селиванов
селидя
село
селта
сельского
сельское
сельскохозяи
семе
семеи
семент
семилук
семинари
семинарҳои
семоҳаи
сен
сена
сенарияи
сенат
сенати
сенатор
сенатори
сенегал
сензура
сент
сентнер
сентрал
сентро
сентябр
сентябри
сентября
сер
серафимович
сераҳоли
серби
сербистон
сербия
сервер
сергап
сергеевич
сергеи
серена
сержант
сержанти
сериал
сериали
серие
серии
серишевскии
серия
серкан
сернам
сероб
серовскии
серпухов
серрано
серро
серхио
сершира
сершох
сершумор
сершумори
серье
серғизо
серҳосил
сессияи
сестао
сети
сеул
сехи
сеюм
сеюми
сеюмин
сеюмро
сеяки
сеҳрнок
си
сибир
сибири
сибиряк
сиву
сигнали
сигналҳои
сиддиқ
сиднеи
сидқи
сие
сиенкяно
сиерра
сии
сиистон
сикка
сиккаҳои
сил
силва
сили
силитсии
силоҳ
силоҳи
силоҳҳои
силсила
силсилаи
силсилафилм
силсилафилми
силсилафилмҳо
силсилафилмҳои
силсилаҳои
силу
силы
сим
символ
символов
символы
сими
симнон
симо
симоб
симои
симон
симоҳои
симпозиуми
симпозиумҳои
симпсон
симфони
симфонии
симфония
симфонияи
син
сина
синаи
синалоа
синамо
синамогарон
синамогарони
синамои
синамоии
сингапур
сингли
синглҳо
сингҳ
синд
сини
синни
синну
сино
синои
синоро
синт
синтаксис
синтаксиси
синтез
синтези
синф
синфи
синфҳои
сипари
сипас
сипаҳбад
сипаҳсолор
сипаҳсолори
сипоҳ
сипоҳи
сипоҳие
сипурз
сир
сирдаре
сириллик
сирк
сирки
сирко
сиро
сироят
сирояте
сирояти
сироятии
сироҷ
сироҷиддин
сирри
сирф
сисерт
сислеи
систем
система
системаи
системаҳои
системе
системи
системы
систон
ситам
сити
ситоди
ситоиш
ситоиши
ситора
ситораи
ситорашиноси
ситораҳо
ситораҳои
ситруси
ситуации
сиудад
сифат
сифати
сифатҳои
сифоти
сифр
сиэмт
сиэрра
сиэтл
сию
сиҳат
сиҳҳати
ск
ска
ская
скенд
ские
скии
скифҳо
ских
ско
скобелев
скобках
скобки
сковородинскии
ского
ское
скои
ском
скотт
скрипка
славяни
славянии
славянскии
слева
следует
следующие
следующии
следующим
следующих
слобода
слободо
слов
слова
словакия
словари
словарь
словения
слово
службы
случае
случаев
случаи
случаях
слюдянск
см
смерти
сми
смирнов
смит
смм
смоленск
смысл
сн
сначала
снг
сноски
снт
сны
со
соавт
соавтор
соавторстве
соат
соати
соатҳои
собин
собир
собиров
собирова
собит
собиқ
собиқадори
собиқадорони
собиқаи
собиқи
собои
собрание
собун
событии
события
сов
совет
совета
совети
советии
советию
советская
советскии
советских
советского
советскои
советҳо
современная
современного
современнои
современном
современные
современныи
современных
совхоз
совхози
согдии
согласия
согласно
согласныи
сода
содаву
содаи
содда
содержание
содержания
содержать
содержимое
содержит
содир
содирот
содироти
содирхон
содиқ
содиқи
содиқов
содовик
содот
соз
созад
созанд
созанда
созандаи
созгор
создавать
создае
создан
создание
создании
создания
создать
сози
созии
созиш
созиши
созишнома
созишномаи
созишномаҳо
созишномаҳои
созию
созмон
созмоне
созмони
созмонҳо
созмонҳои
сознавози
созу
созҳо
созҳои
сои
соиб
соири
сок
сокин
сокини
сокинон
сокинони
сокол
соколов
сокращение
соксер
сокял
сол
сола
солаги
солагиаш
солагии
солаи
соларо
солгарди
соле
солеҳ
солеҳов
соли
солие
солиев
солик
солим
солими
солимии
солис
солномаи
соло
соломон
солона
солонаи
солор
солро
солу
солхои
солху
солшумории
солҳо
солҳои
сомали
соми
сомон
сомона
сомонаи
сомонаҳои
сомони
сомоние
сомонии
сон
соната
сони
сония
сониян
сонсонате
сонто
сообщение
сообщения
сообщества
сообществом
соответственно
соответствии
соответствует
соответствующего
соответствующеи
соответствующие
соответствующии
соответствующих
сорбон
соро
сорта
соса
сосиедад
сосони
сосоние
сост
состав
составе
состояние
состоянии
сотим
сото
сотсиал
сотсиализм
сотсиалисти
сотсиалистии
соуза
соф
софи
софия
сохт
сохта
сохтаанд
сохтааст
сохтаи
сохтан
сохтанд
сохтани
сохташуда
сохти
сохтмон
сохтмони
сохтмонии
сохтмону
сохтор
сохтори
сохтории
сохторҳои
сохту
сохтумони
социально
сочи
сочинения
союз
союза
соя
сояи
соқит
соҳа
соҳави
соҳавии
соҳаи
соҳаро
соҳаҳо
соҳаҳои
соҳиб
соҳибдевон
соҳиби
соҳибистиқлол
соҳибистиқлоли
соҳибистиқлолии
соҳибихтие
соҳибкор
соҳибкори
соҳибкории
соҳибкорон
соҳибкорони
соҳибов
соҳибони
соҳил
соҳили
соҳилҳои
сп
спартак
спб
спектаклҳои
спектри
специально
специальные
спид
спирант
спирт
спирти
списка
списке
списки
списков
список
спитаман
спитамен
сплава
сплавов
спорт
спорта
спортакадемклуб
спортиво
спортинг
спортс
способ
справа
справочная
справочник
спутник
сразу
среде
среди
среднеахтубинск
среднего
среднеи
средние
средняя
сро
срок
сс
сср
ссср
ссылка
ссылками
ссылки
ссылкои
ссылку
ссылок
ст
ста
ставится
ставить
ставропол
стал
сталин
сталинабад
сталинград
сталини
сталинобод
стандарт
стандарти
стандартии
стандартҳои
станислав
стансияи
стансияҳои
станции
стар
старая
стари
старии
стародуб
старое
старооскол
старополтавск
статеи
статистика
статистики
статистических
статус
статуса
стать
статье
статьи
статью
статья
статьях
сташ
стб
ств
ства
ственных
ствие
ствии
ствия
ство
стдорони
стдоштаи
степанакерт
степанович
степени
стер
стери
стерлитамак
сти
стив
стивен
стии
стили
стиль
стихи
стию
стлохи
стмурод
стмуҳаммадов
стоит
стокҳолм
стон
стона
стонаи
стонаш
стони
сторон
стороны
стр
страбон
стран
страна
страниц
страница
страницах
странице
страницу
страницы
страны
страсбург
стратеги
стратегии
стратегия
стратегияи
стриоти
стрит
стро
строк
строка
строке
строки
строку
стронхест
структура
структуры
сту
студентов
студия
студияи
студияҳои
стэнфорд
су
суарес
субот
субтропики
субтропикии
субъект
субъекти
субъективи
субъектҳои
субҳ
субҳи
субҳон
суд
суддин
суди
судии
судманд
судогод
судон
судони
судху
судҳои
сужа
сужети
суздал
сузем
суи
сукунат
сукунати
сукут
сула
сулаи
сулола
сулолаи
сулолаҳои
султон
султони
султонобод
султонов
султонҳои
сулфат
сулфати
сулфур
сулҳ
сулҳи
сулҳу
суман
суманак
сумоли
сун
сунани
сунбула
суннат
суннати
суннатии
суннатҳои
сунни
сунъи
сунъии
суперҷоми
супорад
супорид
супорида
супоридани
супориш
супориши
супоришҳои
супурд
супурда
супурданд
супурдани
сур
сура
сураж
сураи
сурат
сурате
сурати
суратҳои
сураҳои
сурб
сури
суринам
сурия
сурма
сурнаи
суровикин
суроғаи
суру
суруд
суруда
сурудааст
сурудани
сурудаҳои
суруди
сурудро
суруду
сурудхони
сурудҳо
сурудҳои
сурур
сурфа
сурх
сурхи
сурхоб
сурхондаре
сурхро
сурхру
сурхтоб
сурхча
суръат
суръати
суст
сусти
сут
сутуда
сутун
сутуни
сутунҳо
сутунҳои
суфи
суфие
суфии
суфия
суфраи
суфта
сухан
суханвари
суханварони
сухангу
сухани
суханони
суханрони
суханронии
суханҳои
сухоложскии
сухуми
сучони
существует
существуют
суғд
суғди
суғдие
суғурта
суғуртаи
суқрот
суқут
суқути
суҳаи
суҳбат
суҳбати
суҳраварди
суҳроб
сфанд
сфанди
сфандони
счвахер
сче
сша
съезд
съезди
сюжети
сюита
сюитаи
ся
сямжен
сҳо
сҳш
т
та
тааллуқ
таалуқ
таассуроти
таб
табаддулот
табаддулоти
табари
табаристон
табаров
табақ
табақа
табақаи
табақаҳои
табақи
табақоти
табдил
табдили
таби
табиат
табиати
табиатшиноси
табиатшиносии
табиб
табиби
табибон
табибони
табии
табиие
табиии
табииро
табиист
табиию
табиъи
табл
табларза
таблиц
таблица
таблице
таблицу
таблицы
таблиғ
таблиғи
таблиғот
таблиғоти
табобат
табобати
табодули
табори
таборинскии
табрез
табрези
табрик
табъ
табъи
табъу
тав
таваллуд
таваллудаш
таваллуди
таваллудшудагон
таваррум
тавассути
таваққуф
таваҷҷу
таваҷҷуҳ
таваҷҷуҳи
тавба
тавдинскии
тавзеҳ
тавзеҳи
тавзеҳот
тавзеҳоти
тавилдара
тавлид
тавлиди
тавозуни
тавон
тавонад
тавонист
тавонистааст
тавонистанд
тавоно
тавонои
тавоноии
таворих
тавр
тавре
таври
таврот
тавсеа
тавсеаи
тавсиф
тавсифи
тавсифот
тавсифоти
тавсия
тавсияи
тавсияҳои
тавъам
тавҳид
тавҳиди
таг
таганрог
таги
тадаз
тадбир
тадбири
тадбирҳо
тадбирҳои
тадвин
тадвини
тадж
таджики
таджикистан
таджикистана
таджикистане
таджиков
таджикская
таджикскии
таджикско
таджикского
таджикскои
таджикском
тадрис
тадриси
тадриҷан
тадқиқ
тадқиқи
тадқиқот
тадқиқоти
тадқиқотии
тадқиқотҳои
тае
тази
тазкира
тазкираи
тазкиранигор
тазкират
тазкирату
тазкираҳо
тазкираҳову
тазкираҳои
тазоҳурот
тазоҳуроти
таи
таиланд
так
такаллум
такая
также
такие
таким
таких
таклиф
такмил
такмили
такмилу
такого
такое
такои
таком
такомул
такомули
такон
такони
такоҳанг
такрор
такроран
такрори
таксона
таксонов
такуарембо
такуари
такя
такягоҳи
тал
талаб
талабагон
талаби
талабот
талаботи
талаботҳои
талас
талаф
талафоти
талаффуз
талаффузи
талбак
талерес
талискии
талка
талко
таллин
талов
талол
талош
талоши
талошҳои
талоқ
талх
талхадон
талғар
талқин
там
тамаддун
тамаддуни
тамаддунҳо
тамаддунҳои
тамара
тамаркуз
тамашк
тамбов
тамбовскии
тамдид
тамоку
тамом
тамоман
тамоми
тамос
тамошо
тамошобин
тамошобинон
тамошобинони
тамошобинонро
тамошобоб
тамошои
тамоюли
тамрин
тамғаи
тан
тана
танааш
таназзул
таназзули
танаи
танаффус
танаш
танбу
танг
танга
тангаи
тангаҳо
тангаҳои
танги
тандурусти
тандурустии
танзания
танзим
танзими
тани
танке
танки
таносуб
таносуби
таносул
таносули
тантанави
тантанаи
тантанаҳои
тану
танхо
танқид
танқиди
танҳо
танҳои
таоло
таом
таоми
таомҳои
тар
тарабхона
тарабхонаи
тараннум
тараннуми
тараф
тарафаи
тарафдор
тарафдори
тарафдории
тарафдорони
тарафи
тарафҳо
тарафҳои
тараққи
тараққие
тараққии
тарбия
тарбияви
тарбиявии
тарбияи
тарбият
тарбияти
тарбод
тарз
тарзи
тарзу
тарзҳои
тари
тарин
тариқ
тариқаи
тариқат
тариқати
тариқи
тарк
тарканда
тарки
таркиб
таркибаш
таркибашон
таркиби
таркибии
таркиботи
таркибҳои
таркиш
таркиши
тармим
тармими
тарног
таровеҳ
тарона
таронаи
таронаҳо
таронаҳои
таррагона
тарроҳи
тарроҳии
тарс
тарси
тартиб
тартиби
тартибот
тартиботи
тару
тарғиб
тарғиби
тарғиботи
тарғибу
тарҳ
тарҳи
тарҳрези
тарҳрезии
тарҷума
тарҷумаву
тарҷумаи
тарҷумаҳо
тарҷумаҳои
тарҷумон
тарҷумони
тарҷумонҳои
тас
тасаввур
тасаввурот
тасаввуроти
тасаввуф
тасаввуфи
тасаввуфро
тасарруф
тасарруфи
тасвиб
тасвир
тасвири
тасвирии
тасвирҳо
тасвирҳои
тасдиқ
тасдиқи
таскин
таслим
таслими
тасма
тасмим
тасмими
тасниф
таснифи
таснифот
таснифоти
тасодуфан
тасодуфи
тасс
тасхир
тасҳеҳи
татбиқ
татбиқи
тате
татяна
таубате
тауро
тафаккур
тафаккури
тафовут
тафовути
тафсилоти
тафсир
тафсири
тафсирии
тафсирҳои
тафсон
тафтиш
тафтиши
тафтишот
тафтишоти
тахаи
тахаллус
тахаллусаш
тахаллуси
тахассус
тахассуси
тахмин
тахминан
тахмини
тахористон
тахт
тахта
тахтаи
тахташ
тахти
тахтро
тахту
тахтҳои
таш
ташаббус
ташаббуси
ташаббускори
ташаббусҳои
ташаккул
ташаккуле
ташаккули
ташаккулу
ташаккур
ташбеҳ
ташвиш
ташвиқ
ташвиқи
ташвиқоти
ташкент
ташкил
ташкиле
ташкили
ташкилии
ташкилию
ташкилот
ташкилоти
ташкилоту
ташкилотҳо
ташкилотҳои
ташриф
ташхис
ташхиси
таъ
таъбир
таъбири
таъи
таъин
таъкид
таълим
таълими
таълимии
таълимиро
таълимию
таълимот
таълимоти
таълиму
таълиф
таълифаш
таълифи
таълифот
таълифоти
таъми
таъмин
таъмини
таъминоти
таъмир
таъмири
таъмиру
таъриф
таърифи
таърих
таърихан
таърихи
таърихиву
таърихии
таърихиро
таърихию
таърихнигор
таърихнигори
таърихнигории
таърихнигорон
таъриху
таърихшинос
таърихшиносони
таъсир
таъсирбахш
таъсири
таъсироти
таъсис
таъсисаш
таъсисе
таъсиси
таътил
таъхир
таъқиб
таъқиби
таъҷили
тағи
тағир
тағире
тағирот
тағироти
тағои
тақ
тақвим
тақвими
тақвият
тақвияти
тақдим
тақдир
тақдири
тақлид
тақлиди
тақозо
тақозои
тақр
тақрибан
тақриз
тақризҳо
тақсим
тақсими
тақсимот
тақсимоти
тақсимшавии
таҳ
таҳаввул
таҳаввули
таҳаввулот
таҳаввулоти
таҳвил
таҳвили
таҳдид
таҳдиди
таҳия
таҳиягар
таҳиягари
таҳияи
таҳким
таҳкими
таҳкурсии
таҳлил
таҳлили
таҳлилии
таҳлилу
таҳм
таҳмдор
таҳмина
таҳнишастҳои
таҳримҳо
таҳримҳои
таҳрир
таҳрири
таҳририяи
таҳсил
таҳсилашро
таҳсили
таҳсилот
таҳсилоти
таҳсилро
таҳти
таҳшин
таҳшини
таҳқир
таҳқиқ
таҳқиқи
таҳқиқот
таҳқиқоти
таҳқиқотии
таҳқиқотҳои
таҳқиқу
таҳҷои
таҷассум
таҷассуми
таҷдид
таҷдиди
таҷдиду
таҷзия
таҷзияи
таҷлил
таҷлили
таҷовуз
таҷовузи
таҷриба
таҷрибави
таҷрибавии
таҷрибаи
таҷрибаому
таҷрибаҳо
таҷрибаҳои
таҷҳизот
таҷҳизоти
тбилиси
тв
твер
творчества
творчество
те
театр
театри
театрии
театру
театрҳо
театрҳои
тегусигалпа
тед
тез
тези
тезу
теи
текла
текника
текст
текста
тексте
текстилшчик
тектоники
текущеи
тел
тела
телевизион
телевизиони
телевизионии
телевизиюнии
телеграф
телеком
телекоммуникатсия
теленовелаи
телескоп
телетеатр
телефон
телефони
телефонии
телефонҳои
телугу
тем
тема
теме
темперлеи
темур
темури
темурие
темурмалик
темы
тенант
тенанти
тенденции
тенерифе
теннис
тенор
теодор
теоремаи
теории
теория
теппа
теппаи
теппаҳо
теппаҳои
тер
тербуни
тереза
терек
терминали
терминов
терминология
термодинамика
тернов
территории
терроризм
террористи
террористии
тести
тесь
тех
техас
техника
техникаи
техники
техникии
техникуми
техническии
технологи
технологии
технология
технологияи
технологияҳои
течение
теъдод
теъдоде
теъдоди
теғ
теғи
теҳрон
теҳрони
ти
тиб
тибб
тибби
тиббии
тиббию
тибет
тибети
тибуронес
тибқи
тигзос
тигре
тигрес
тие
тии
тилло
тиллои
тило
тилои
тилоии
тилоро
тим
тими
тимори
тимсоли
тимсоҳ
тимур
тимҳои
тин
тинг
тинги
тиндинскии
тип
типа
типи
типологияи
тир
тира
тирамоҳ
тирамоҳи
тирана
тирандози
тирандозии
тираспол
тирборон
тире
тири
тирмиз
тирмизи
тиро
тиру
титан
титаник
тифл
тифли
тифлис
тихуана
тиҷорат
тиҷорати
тиҷоратии
тиҷори
тиҷории
тматов
тнои
тну
тные
тных
то
тоаш
тоб
тобеи
тобеияти
тобеъ
тобеъи
тобистон
тобистона
тобистонаи
тобистони
тобиши
тобишҳои
тобовар
тов
товн
тогда
тоглиатти
того
тоза
тозаги
тозае
тозаи
тозие
тои
тоифаи
ток
токаш
токдори
токзор
токио
токпарвари
толедо
толиб
толибон
толие
толис
толиши
толиқон
толор
толори
толорҳои
толстои
толука
только
том
томактаби
томас
томах
томба
томбенсе
томе
томи
томили
томирис
томск
тому
томҳои
тон
тондела
тони
тонна
топ
топик
тор
торафт
тори
тории
торик
торики
торино
торихи
тороби
торонто
торпедо
торрес
торумор
торҳои
тосно
тот
тотем
тотор
тотори
тотористон
тоторҳо
тоун
тохтутози
точек
точка
точки
точкои
точку
тош
тошев
тошканд
тошканди
тошкандро
тошкент
тошматов
тоқ
тоқи
тоқии
тоқиҳои
тоҳ
тоҳе
тоҳи
тоҳир
тоҳири
тоҳирие
тоҳиров
тоҳмуддат
тоҳтар
тоҷ
тоҷи
тоҷиддин
тоҷик
тоҷики
тоҷикии
тоҷикиро
тоҷикист
тоҷикистон
тоҷикистони
тоҷикистонии
тоҷикистонро
тоҷикистону
тоҷикнишин
тоҷикнишини
тоҷикобод
тоҷикон
тоҷикони
тоҷиконро
тоҷикро
тоҷику
тоҷикфилм
тоҷир
тоҷири
тоҷирон
тоҷирони
тоҷу
тр
традиции
трактор
тракторҳои
трамваи
трамп
траян
тре
требования
требованиям
требуется
трезе
треи
тренер
тренеров
трес
трести
третии
три
триллери
тринидад
триполи
тристан
тро
трои
троитски
троллеи
тропики
тропикии
труба
трубчев
труда
труды
тс
тсария
тсахури
тся
тт
ту
тува
тугмаи
тугулимскии
туи
тукуман
тул
тула
тули
тулкибос
тулмуқаддас
тулу
тулуз
тулун
тун
тунд
тунис
тунук
тунуки
тупи
тур
турб
турдиев
тури
туризм
туризми
турин
туринскии
туристи
турк
туркзабон
турки
туркии
туркистон
туркистони
туркия
туркияи
туркм
туркман
туркманбоши
туркмани
туркманистон
туркманобод
туркманҳо
туркменистана
туркон
турку
туркҳо
туркҳои
туро
турова
турон
турсун
турсунзода
турсунзодаи
турсунзодаро
турсунов
турш
турши
туси
туст
тут
туфаи
тухм
тухмаш
тухмдон
тухми
туғрал
туҳмат
туҳфа
туҳфаи
тчики
тшинос
тшиноси
тшиносии
ты
тыс
тюмен
тяго
тҳо
тҳои
у
уаи
уанкаи
уанл
уарал
уарес
уаско
уат
убаи
убераба
уберландиа
убленсе
убур
убури
увидеть
уганда
угол
угро
уд
удаление
удалению
удаления
удалить
удине
удинск
удт
уезд
уезди
уелва
уелс
уеска
уефа
уже
уз
узб
узбаки
узбакистон
узбеки
узбекистан
узбекистана
узбекистон
узв
узви
узвият
узвияти
узву
узвҳо
узвҳои
уи
уилсон
уилям
ук
укажите
указ
указан
указание
указанием
указания
указано
указать
укази
указывается
указывать
укес
укр
украи
украина
украини
украины
украинҳо
украі
укроин
укроини
ул
уламо
уламои
улан
улица
ултрабунафш
улум
улуми
улуғбек
улуғзода
уляновск
ум
умавие
умаи
умар
умари
умаров
умарова
умархон
умберто
умдаи
умдатан
умед
умеди
уми
умин
уммавие
уммат
уммон
умолчанию
умон
умр
умраш
умри
умро
умум
умуман
умуми
умумиаш
умумибашари
умумибашарии
умумии
умумииттифоқи
умумииттифоқии
умумимилли
умумиро
умумихалқи
умумихалқии
умумияти
умумиҷаҳони
умумиҷаҳонии
умумиҷумҳурияви
умури
умқи
ун
уна
унвон
унвони
унвонҳо
унвонҳои
унвонҷу
унеч
униан
универсали
универсидад
университарио
университария
университет
университета
университети
унидет
унидо
унидос
унион
унитед
унс
унсур
унсури
унсурҳо
унсурҳои
уолл
уолт
уолтер
уоррен
управления
ур
уравнении
уракан
урал
уралан
уран
урганҷ
урдибиҳишт
урду
урдун
уре
урегулировании
урмави
уро
уровень
уровня
уротеппа
уругваи
уругуаи
урупо
урфу
уршалим
урюпинск
ус
условиях
услуб
услуби
услубҳои
усманов
усмон
усмони
усмонов
усолск
усораи
успенскии
уссурии
уст
устава
уствазири
усто
устод
устодаш
устоди
устодон
устодона
устодонаи
устодони
устоев
устои
устон
устони
устонҳои
устохонаи
устоҳои
устрои
устувор
устувори
устувории
устурлоб
устухон
устухони
устухонҳои
устюжен
устянск
усул
усули
усулу
усулҳо
усулҳои
ут
утби
утверждения
ути
утоқи
утриш
утрор
уттар
уфа
уфтода
уфуқи
учали
участие
участков
участник
участника
участникам
участниками
участники
участников
участником
участнику
участок
уче
учебник
учебно
учебное
уш
ушшоқ
уэ
уэи
уэлси
уэсте
уқе
уқлидус
уқоб
уқоби
уҳда
уҳдадор
уҳдадории
уҳдадориҳои
уҳдаи
ф
фа
фабиан
фабио
фабрикаи
фаввора
фаввораҳо
фавран
фаври
фаврии
фавт
фавти
фавтид
фавтида
фавтидаанд
фавтидааст
фавтидагон
фавтидагони
фавтиданд
фавқулода
фавқулодаи
фавқулодда
фавқулоддаи
фазилати
фазл
фазлиддин
фазлу
фазо
фазои
фазоии
фаи
фак
факат
факел
фактор
факулта
факултаи
факултаҳо
факултаҳои
факултет
факултети
факултетҳо
факултетҳои
факундо
фалак
фалаки
фаластин
фалаҷ
фалсафа
фалсафаи
фалсафашиносони
фалсафи
фалсафии
фалсафию
фамилии
фамилия
фан
фанни
фанновари
фано
фантазия
фантастики
фанҳои
фаолият
фар
фараҳ
фарбеҳ
фарбеҳи
фарвардин
фард
фарди
фардии
фардо
фаре
фарз
фарзанд
фарзандаш
фарзанди
фарзандон
фарзандонаш
фарзандони
фарзи
фарзия
фарзияи
фарзона
фарзонаи
фаридун
фаришта
фариштагон
фариштаи
фармоиш
фармоиши
фармон
фармондеҳ
фармондеҳаш
фармондеҳи
фармондеҳии
фармондеҳони
фармони
фармонравои
фармонҳои
фармуд
фармуда
фаро
фаровон
фаровоне
фаровони
фарогир
фарогири
фарогирии
фарому
фаронса
фаронсави
фаронсавии
фаронсавиҳо
фаронсаро
фарох
фароянди
фароғат
фароғати
фароғатии
фароҳам
фаррух
фаррухи
фархор
фарш
фарши
фаръи
фаръии
фарғона
фарғонаи
фарғони
фарқ
фарқи
фарқият
фарқияти
фарқкунандаи
фарҳанг
фарҳанги
фарҳангии
фарҳангистони
фарҳангию
фарҳангу
фарҳангшиноси
фарҳангҳо
фарҳангҳои
фарҳат
фарҳод
фарҳоди
фас
фасл
фасли
фаслҳо
фаслҳои
фасо
фасод
фасоди
фат
фатво
фатҳ
фатҳи
фатҳуллоҳ
фахри
фахрии
фахруддин
фахруддини
фашизм
фашисти
фашистон
фаъол
фаъоли
фаъолият
фаъолияташ
фаъолияташро
фаъолияти
фаъолиятҳои
фаъолона
фаъолонаи
фаъолони
фақат
фақеҳ
фақеҳи
фақеҳон
фақир
фаҳанги
фаҳмид
фаҳмида
фаҳмидани
фаҳмиши
фаҷр
фбк
фе
фебреро
февр
феврал
феврали
февраля
федерал
федерали
федералии
федеративи
федеративии
федератсия
федератсияи
федерации
федерико
федероли
федеролии
федченко
феи
феликс
феодали
фердинанд
фереи
ферменти
ферментҳо
ферментҳои
фермери
фернандес
фернандо
ферро
ферровиариа
феррол
фестивал
фестивали
фестивалҳои
феъл
феълан
феъли
феълии
феълҳои
феҳрист
феҳристи
феҳристҳо
фз
фи
фигуеи
фиддин
фиддинов
фидел
фие
физик
физика
физикави
физикаву
физикаи
физикаю
физикдон
физики
физикии
физико
физиологи
физиологии
физиология
физиологияи
физическои
фии
фикр
фикри
фикру
фикрҳои
фил
филаделфия
филармонияи
филд
филиал
филиали
филиалҳои
филиз
филиззи
филиззот
филиззоти
филизи
филип
филипп
филиппин
филиппини
филм
филмбардори
филме
филми
филмнома
филмномаи
филмноманавис
филмноманависи
филмноманависон
филмноманависони
филмро
филмшиноси
филмҳо
филмҳое
филмҳои
филол
филолог
филологи
филологии
филология
филологияи
филологони
философии
философия
философские
филуредо
фильм
филю
финал
финали
фини
финланд
финландия
финляндия
фирдавс
фирдавси
фиреб
фиристод
фиристода
фиристодаи
фиристоданд
фиристодани
фирор
фирори
фирпо
фиру
фирқаи
фирқаҳои
фитр
фитрат
фитри
фифа
фишер
фишор
фишори
фишурда
фиэр
фия
фияти
фиқҳ
фиқҳи
фиқҳии
фиҷи
фк
флаг
флага
фланенго
флеи
флора
флоренсия
флорес
флорида
флот
флота
флоти
флуниненсе
флямурт
фнм
фозил
фозилова
фоида
фоидаи
фоиданок
фоиданоки
фоиз
фоизи
фоизро
фокс
фолклор
фолклори
фоминск
фон
фона
фонд
фонда
фондаре
фонди
фондҳои
фонетика
фони
фонсека
фоот
фоотбал
фоотбалл
фор
форам
форарлберг
форбс
форд
форе
форентина
фориғ
форм
форма
формат
формате
формати
форматирования
форме
формирование
формирования
формула
формулаи
формулы
формы
фороби
форс
форси
форсизабон
форсизабони
форсизабонони
форсии
форсиро
форсию
форсро
форсу
форсҳо
форт
форталеза
фортепиани
фортепиано
фортепианои
фортуна
форум
форуми
фосила
фосилави
фосилаи
фосилаҳои
фосфор
фотеҳ
фотима
фотиҳа
фото
фотографии
фотосинтез
фош
фоҷиа
фоҷиаи
фр
фраи
фраксияи
франк
франклин
франко
франкфурт
франс
франсави
франсиско
франсия
франсуа
франции
франция
фредерик
фреи
фридрих
фролов
фронт
фронти
фрунзе
фрэнк
фрэнсис
фсб
фт
фта
фтаанд
фтааст
фтагон
фтаи
фтан
фтанд
фтани
фти
фтҳои
фу
фукуока
фуллоев
функсияи
функсияҳо
функсияҳои
функции
функция
фунт
фурманов
фурот
фурс
фурсат
фурсати
фурт
фуру
фуруд
фурудгоҳ
фурудгоҳи
фурудгоҳҳо
фурудгоҳҳои
фуруди
фут
футбол
футболбоз
футболбози
футболбозон
футболбозони
футболи
футболу
футебол
футэбол
фуэнлабрада
фуэнтес
х
ха
хабар
хабаргузории
хабардор
хабари
хабарии
хабарнигор
хабарнигори
хабарнигории
хабарнигорон
хабарнигорони
хабаровск
хабарҳо
хабарҳои
хави
хавкин
хавф
хавфи
хавфнок
хадамот
хадамоти
хадиҷа
хае
хазандаҳо
хазар
хазина
хазинаи
хаи
хакимов
халал
халалдор
халиков
халил
халилов
халиско
халифа
халифаи
халиҷ
халиҷи
халиҷҳои
халос
халта
халқ
халқи
халқии
халқиро
халқист
халқият
халқияти
халқиятҳои
халқро
халқу
халқҳо
халқҳои
хам
хамаи
хамида
хамир
хамири
хамса
хан
ханда
хар
харабалинск
характери
харби
харбуза
харгу
харид
харида
харидани
хариди
харидор
харидори
хариду
харита
харитаи
харитаҳо
харитаҳои
харкив
харков
хароб
харобаҳои
харовск
хароҷот
хароҷоти
хартум
харҷ
харҷи
хаста
хат
хатар
хатари
хатарнок
хатгирии
хати
хатлон
хатлони
хатлону
хатм
хатми
хатмкардагони
хатмкардаи
хатмкунандагони
хатмкунандаи
хато
хатои
хатсаи
хатти
хаттии
хаттот
хаттоти
хаттотони
хатҳо
хатҳои
хашм
хашмгин
хашми
хаэн
хе
хева
хезад
хеи
хел
хеле
хело
хелҳои
хенерал
херардо
херес
хесус
хетафе
хеш
хешовандон
хешовандони
хешро
хештан
хешу
хи
хидмат
хидматгор
хидмати
хидматнишондодаи
хидматрасони
хидматрасонии
хидматрасониҳои
хидматчие
хидматҳо
хидматҳои
хидматҳояш
хие
хизмат
хизмати
хизматнишондодаи
хизматрасони
хизматрасонии
хизматчи
хизматчие
хизматҳои
хилофат
хилофати
хилофи
хименес
химии
химик
химия
химияви
химиявии
химияи
химки
химнасия
химнастик
хиндустон
хира
хирад
хиради
хирадманд
хиро
хирона
хироҷ
хирс
хирси
хислати
хислатҳои
хисрав
хит
хитоб
хитои
хихон
хишт
хишти
хиштҳои
хлор
хлориди
хо
хоб
хобгоҳ
хоби
хобида
ховалинг
ховар
ховари
ходжиматов
ходими
ходимони
хозяи
хок
хока
хокаи
хокаш
хоки
хокистар
хокистари
хокистарранг
хокистарранги
хоккеи
хоку
хокшиноси
хокҳои
хол
холи
холид
холис
холиқ
холиқов
холматов
холмогор
холмуродов
холо
холов
холҷу
хом
хоманаи
хоми
хому
хон
хона
хонааш
хонавода
хонаводааш
хонаводаги
хонаводаи
хонаги
хонадон
хонадони
хонадор
хонае
хонаи
хонанд
хонанда
хонандагон
хонандагони
хонандаи
хонаро
хонатан
хонақоҳ
хонақоҳи
хонаҳо
хонаҳои
хонд
хонда
хондааст
хондан
хондани
хони
хонивор
хонигарии
хонии
хониш
хониши
хонум
хонуми
хонҳои
хопкинс
хор
хоразм
хоразми
хоразмшоҳ
хоразмшоҳие
хорватии
хорватия
хореографии
хори
хориҷ
хориҷа
хориҷи
хориҷие
хориҷии
хориҷиро
хоро
хорпуштак
хоруғ
хорхе
хос
хоса
хосе
хоси
хосият
хосияти
хосиятҳо
хосиятҳои
хосор
хосро
хосса
хоссе
хосси
хост
хостори
хотами
хотима
хотимаи
хотир
хотира
хотираи
хотираҳои
хотири
хотироти
хотите
хотя
хохол
хояндаҳо
хоқони
хоқонии
хоҳ
хоҳад
хоҳам
хоҳанд
хоҳар
хоҳараш
хоҳари
хоҳарон
хоҳем
хоҳи
хоҳиш
хоҳиши
хоҷа
хоҷаги
хоҷагидори
хоҷагидории
хоҷагии
хоҷагиҳои
хоҷаев
хоҷаи
хоҷали
хрусталнии
хт
хта
хтааст
хтаи
хтак
хтан
хтанд
хтани
хтор
ху
хуаким
хуан
хуарес
хуб
хубе
хуби
хубон
хубтар
хубу
хувентуд
худ
худаш
худашон
худашро
худдори
худжанд
худи
худидораи
худидоракунии
худкор
худкуши
худмухтори
худо
худованд
худованди
худое
худои
худому
худоро
худрав
худрави
худро
худру
худуди
худшиноси
худшиносии
хузистон
хук
хукумати
хулафои
хулио
хулоса
хулосае
хулосаи
хулосаҳои
хумаи
хумб
хун
хуни
хунин
хуниорс
хунравии
хунро
хунук
хунуки
хурд
хурде
хурди
хурдии
хурдод
хурдодбеҳ
хурдро
хурдсол
хурдсоли
хурдтар
хурдтарин
хурду
хурмо
хуросон
хуросони
хуросонро
хуросону
хуррам
хурсанд
хурсанди
хуру
хуруҷ
хуруҷи
хуршед
хуршеди
хусрав
хусрави
хусравони
хустикия
хусус
хусусан
хусуси
хусусии
хусусият
хусусияти
хусусиятҳо
хусусиятҳои
хутба
хуттал
хухуи
хуш
хушбахт
хушбахти
хушбахтона
хушбу
хуши
хушк
хушки
хушкигард
хушкии
хушксоли
хушку
хушнависи
хушсифат
хуштаъм
хушунат
хуқуқи
хуҷанд
хуҷанди
хуҷандии
хуҷандро
хх
хюндаи
ц
цвет
цвета
целью
центр
центра
центральная
центральнои
церковь
цитата
цитаты
ч
ча
чавес
чаву
чагодошен
чад
чаи
чак
чаки
чакка
чалатенанго
чаман
чан
чанг
чанги
чангоб
чанд
чанде
чандин
чандон
чандра
чап
чапи
чарб
чарбу
чарлз
чарли
чарм
чарми
чаро
чарогоҳ
чароғи
чарх
чархбол
чархи
часпида
части
частности
часто
часть
чашм
чашма
чашмаи
чашмасор
чашмасори
чашмаҳо
чашмаҳои
чашми
чашмони
чашмро
чағатои
чағоние
чаҳо
чаҳои
чаҳор
чаҳормаҳол
чаҳорум
чаҳоруми
чаҳорумин
чаҳорчу
че
чел
челни
человек
человека
челси
челябинск
чем
чемпионат
чемпионати
чемпионатҳои
чемпиони
чемпионов
чен
ченаки
ченкунии
ченнаи
через
черемховск
череповетс
чернишков
черногория
черноморетс
черноярск
чернян
четве
четыре
чех
чехи
чехия
чехов
чехословакия
чеченистон
чеҳра
чеҳраи
чеҳраҳои
чжи
чи
чиба
чигунагии
чид
чида
чидааст
чиданд
чидани
чиев
чиз
чизе
чизеро
чизи
чизро
чизҳо
чизҳои
чикаго
чил
чилдара
чилдухтарон
чилдухтарони
чиле
чили
чилиги
чилу
чимканд
чин
чинг
чингиз
чингизхон
чини
чинии
чиниҳо
чинор
чиро
чисел
числа
числе
число
числом
чист
чистон
чита
читателя
читта
чиҳил
чкалов
чо
чои
чон
чонда
чони
чонида
чонидани
чоп
чопи
чопии
чопра
чопшуда
чор
чорабини
чорабинии
чорабиниҳо
чорабиниҳои
чораи
чораҳо
чораҳои
чорбоғ
чорбоғи
чорво
чорводори
чорводории
чорвои
чордара
чорку
чоркунҷа
чормағз
чормағзи
чоррило
чорроҳаи
чорсу
чорум
чоруми
чорумин
чорчу
чоршанбе
чоряки
чорҷу
чоч
чоҳ
чтение
что
чтобы
чу
чудо
чуи
чукотка
чун
чунин
чунки
чунон
чуноне
чунонки
чунончи
чуньцю
чуст
чусти
чуқур
чуқурии
чяпас
ш
ша
шааш
шаб
шабака
шабакави
шабакаи
шабакаҳои
шабе
шабеҳ
шабеҳи
шаби
шаблон
шаблона
шаблонами
шаблонах
шаблоне
шаблони
шаблонов
шаблоном
шаблону
шаблоны
шаблонҳо
шаблонҳои
шабнами
шабона
шабонаи
шабонару
шабору
шабоҳат
шабоҳати
шабу
шабҳои
шав
шавад
шавам
шаванд
шавед
шавкат
шавқ
шавқи
шавқу
шавҳар
шавҳараш
шавҳари
шагулаш
шад
шадид
шадидан
шадиди
шаи
шак
шакар
шакл
шаклан
шакли
шаклу
шаклҳои
шакури
шалинскии
шалғам
шамахи
шамол
шамс
шамси
шамсиддин
шамсуддин
шамшер
шамшери
шамъ
шамъи
шан
шанбе
шанд
шанда
шанхаи
шар
шарае
шараф
шарафи
шарбат
шарбати
шариат
шариати
шарик
шарики
шарикони
шарипов
шариф
шарифзода
шарифи
шарифов
шарифова
шарки
шарл
шарлоттенбург
шарма
шароб
шароби
шароит
шароите
шароити
шароитҳои
шарон
шарофати
шарофиддин
шарт
шартан
шарте
шарти
шартии
шартнома
шартномаи
шартномаҳои
шартҳои
шаршара
шаршарае
шаршараи
шаршараҳо
шаршараҳои
шаръ
шаръи
шарқ
шарқи
шарқии
шарқиро
шарқтар
шарқу
шарқшинос
шарқшиноси
шарқшиносии
шарқшиносони
шарҳ
шарҳи
шарҳиҳоли
шарҳу
шарҳҳо
шаст
шасту
шатранҷ
шафати
шафтолу
шаффоф
шафқат
шах
шахри
шахс
шахсан
шахсе
шахсеро
шахсест
шахси
шахсии
шахсият
шахсияти
шахсиятҳо
шахсиятҳои
шахсон
шахсоне
шахсони
шахсро
шахтар
шаш
шашмақом
шашум
шашуми
шашумин
шаъну
шая
шағал
шаҳид
шаҳиди
шаҳидон
шаҳобов
шаҳодат
шаҳодати
шаҳодатнома
шаҳодатномаи
шаҳои
шаҳр
шаҳрак
шаҳраки
шаҳракҳо
шаҳракҳои
шаҳрванд
шаҳрванди
шаҳрвандии
шаҳрвандиро
шаҳрвандон
шаҳрвандони
шаҳрвандонро
шаҳрдори
шаҳре
шаҳрест
шаҳрзод
шаҳри
шаҳривар
шаҳрие
шаҳрии
шаҳринав
шаҳрисабз
шаҳристон
шаҳристонест
шаҳристони
шаҳристонҳо
шаҳристонҳои
шаҳриту
шаҳритус
шаҳрро
шаҳрсози
шаҳру
шаҳрҳо
шаҳрҳои
шведи
швеи
шветсия
ше
шебекин
шеваи
шеваҳо
шеваҳои
шевченко
шевченкоро
шеи
шексна
шекснин
шекспир
шел
шелехов
шенкур
шер
шерали
шервон
шервони
шери
шероз
шерози
шет
шеър
шеъраш
шеъргу
шеъре
шеъри
шеърии
шеърию
шеърро
шеъру
шеърҳо
шеърҳои
шеърҳояш
ши
шиа
шид
шида
шидааст
шидаи
шидан
шиданд
шидани
шиддат
шиддати
шие
шизуока
шии
шикаи
шикам
шикаст
шикаста
шикастани
шикасти
шикор
шикори
шикорчие
шикоят
шикояти
шиллер
шим
шимановскии
шимол
шимолгони
шимоли
шимолии
шимолиро
шимолтар
шимолу
шин
шинг
шинник
шино
шиновари
шинондан
шинос
шиноси
шиносномаи
шиносои
шиносони
шинохт
шинохта
шинохтаи
шинохтани
шинохти
шиори
шир
шираи
шири
ширин
ширина
ширини
ширину
шириншоҳ
ширины
ширкат
ширкати
ширкаткунандаи
ширкатро
ширкатҳо
ширкатҳои
широта
ширу
ширху
шитоб
шитоби
шифо
шифобахш
шифобахши
шифои
шифоҳи
шифоҳии
шифргузори
ших
шиш
шиша
шишаи
шиши
шишҳои
шиъа
шиҳгоҳи
шиҳоби
шиҳобҳо
шк
шкодер
школа
школы
шкумбини
шма
шмидт
шнои
шноии
шо
шоби
шовалиева
шогирд
шогирди
шогирдон
шогирдонаш
шогирдони
шод
шоди
шодие
шодиев
шодмон
шодмони
шодравон
шое
шои
шоир
шоира
шоираи
шоири
шоирии
шоирон
шоирона
шоирони
шоирону
шоирро
шоиру
шоиста
шоистаи
шоки
шокир
шокиров
шокиҳои
шоли
шом
шоми
шомил
шомиланд
шомили
шон
шона
шонанд
шонда
шони
шонида
шоние
шопур
шопури
шотемур
шотланди
шотландия
шоу
шофеи
шофеъи
шох
шоха
шохаи
шохаҳои
шохдор
шохи
шохоби
шохобҳои
шоху
шояд
шоҳ
шоҳаншоҳ
шоҳаншоҳи
шоҳаншоҳии
шоҳзода
шоҳзодаи
шоҳи
шоҳигарии
шоҳид
шоҳиди
шоҳии
шоҳин
шоҳмансур
шоҳмот
шоҳназар
шоҳнома
шоҳон
шоҳона
шоҳони
шоҳроҳи
шоҳрух
шоҳруххон
шоҳтемур
шре
шрек
шри
шро
шт
штаб
штандард
штат
штати
шташ
шти
шту
штуттгарт
шу
шуаро
шуарои
шубҳа
шуд
шуда
шудаанд
шудааст
шудаву
шудам
шудан
шуданаш
шуданд
шудани
шуданро
шудаст
шудгор
шуи
шукри
шуку
шукуров
шукуфаи
шукуфоии
шумо
шумон
шумор
шумора
шумораи
шумораҳои
шумори
шуморида
шуморо
шумурда
шунаванда
шунавандагон
шунавандаи
шунавои
шуни
шунида
шунидани
шунҳои
шуои
шурави
шурои
шуру
шуста
шустан
шустани
шустушу
шутур
шутури
шуур
шуури
шухрат
шуш
шуша
шуши
шуъба
шуъбаи
шуъбаҳои
шуғл
шуғли
шуғнон
шуғнони
шуҳрат
шуҳрате
шуҳрати
шуҷоат
шуҷоатнок
шуҷоъ
шче
шҳо
щ
ъ
ъаи
ъат
ъати
ъба
ъбаи
ъгоҳ
ъгоҳи
ъи
ъмин
ъмон
ътадил
ътадили
ъҳо
ъҳои
ы
ь
э
эвертон
эгеи
эд
эдвард
эдвин
эдгар
эдуард
эдуардо
эзиди
эзоҳ
эи
эквадор
эквадори
экватори
экз
экологи
экологии
экология
экологияи
экономика
экономики
экономические
экран
экрани
экс
экспедитсия
экспедитсияи
экспедитсияҳои
экспедиции
эктор
экуадор
эл
элб
элвис
элдархонов
элденсе
электри
электрии
электрики
электрикии
электромагнити
электромагнитии
электрон
электрони
электронии
электроника
электроникаи
электронная
электронҳо
электронҳои
электротехника
электротехники
элемент
элемента
элементи
элементов
элементы
элементҳо
элементҳои
эли
элиас
элизабет
элок
элоки
элом
эмануэл
эмелек
эмил
эмилио
эмиляно
эмин
эмомали
эмт
энгелс
энгельс
энгленд
эндрю
энергетика
энергетикаи
энергетики
энергетикии
энергии
энергия
энергияи
энрике
энсиклопеди
энсиклопедии
энсиклопедия
энсиклопедияи
энтони
энциклопедии
энциклопедическии
энциклопедия
энциклопедияи
эпики
эпоси
эпоха
эр
эра
эраҷ
эргаш
эрдуғон
эредия
эредяно
эрик
эркин
эркулес
эрмоса
эрнан
эрнандес
эрнекто
эрон
эронзамин
эрони
эроние
эронии
эронинажод
эронитабор
эронро
эрону
эроншиноси
эррера
эртил
эсанбои
эсгрима
эсеки
эскобар
эсмералдас
эспани
эспанол
эспаня
эсперанто
эспиноса
эсполи
эспортиу
эст
эстебан
эстели
эстетики
эстетикии
эстони
эстония
эстрада
эстради
эстрадии
эстудянтес
эта
эти
этим
этимология
этих
этники
этникии
этнографи
этнографии
этнография
этнографияи
этнология
это
этого
этои
этом
этот
этрапи
эту
эфиопия
эфир
эфири
эфрон
эхирит
эхо
эшон
эшони
эшонро
эълом
эъломия
эъломияи
эълон
эълони
эътибор
эътибори
эътиборнок
эътидол
эътилоф
эътилофи
эътимод
эътимоди
эътироз
эътирозгарон
эътирози
эътирозҳо
эътирозҳои
эътироф
эътирофи
эътирофнашудаи
эътиқод
эътиқоди
эҳдо
эҳе
эҳсон
эҳсос
эҳсоси
эҳсосот
эҳсосоти
эҳтие
эҳтимол
эҳтимолан
эҳтимоли
эҳтимолии
эҳтиром
эҳтироми
эҷод
эҷоди
эҷодиаш
эҷодие
эҷодии
эҷодию
эҷодкори
ю
юб
юби
ювенту
югославия
южа
южно
южного
юлдошев
юлдуз
юли
юлиан
юлии
юм
юми
юмин
юмро
юн
юнаи
юнеско
юнисеф
юнон
юнони
юноние
юнонии
юнониҳо
юнону
юнус
юнусов
юрев
юреветс
юревич
юри
юридики
юрии
юриши
юсупов
юсуф
юсуфи
юсуфов
юсуфова
я
является
являются
явно
ягон
ягона
ягонаги
ягонагии
ягонаи
ягони
ягонҳои
яд
ядро
ядрои
яе
яз
язд
язди
язид
язык
языка
языках
языке
языки
языков
языковои
языковых
языком
языку
яи
як
якбора
якдигар
якдигарро
якдилона
яке
якеро
яки
якил
якка
якканавози
яккачини
яклухт
якмандатии
яков
яковлев
яковлевич
яксаду
яксола
яксолаи
яксон
яктарафа
якто
яктои
яку
якум
якуми
якумин
якумро
якуним
якхела
якчанд
якшанбе
якшанбеи
якҷо
якҷоя
якҷояги
якҷояи
якҷояшавии
ялдо
ям
ямаи
яман
ямани
ян
янв
январ
январи
января
янг
янгон
янд
янда
яндагони
яндаи
яндекс
яне
яни
янкунандаи
янкунии
янро
янукович
яншуда
японии
япония
яр
ярославл
ясно
ят
ятим
ятсен
ях
яхбастаи
ячеи
яш
яъне
яъқуб
яъқуби
яғноб
яғноби
яқин
яҳе
яҳуди
яҳудие
яҳудии
є
і
ғ
ғадуди
ғадудҳои
ғазаб
ғазал
ғазали
ғазалие
ғазалу
ғазалҳо
ғазалҳои
ғаззоли
ғазна
ғазнави
ғазнавие
ғазни
ғаи
ғалаба
ғалабаи
ғалае
ғалат
ғалла
ғалладона
ғаллакори
ғам
ғамбар
ғамбари
ғамбарон
ғами
ғамма
ғаму
ғамхори
ғани
ғаниев
ғании
ғано
ғарб
ғарби
ғарбии
ғарбиро
ғарбтар
ғариб
ғарм
ғарқ
ғасби
ғафс
ғафси
ғафсиаш
ғафсии
ғафуров
ғафурови
ғаффор
ғаффоров
ғаюр
ғгу
ғи
ғие
ғиждувон
ғижжак
ғижжаки
ғизо
ғизои
ғизоҳо
ғии
ғли
ғози
ғозие
ғоиб
ғоибона
ғоибонаи
ғолиб
ғолибан
ғолиби
ғолибон
ғолибони
ғончи
ғор
ғорат
ғори
ғоя
ғояви
ғоявии
ғояи
ғояҳои
ғу
ғулом
ғуломдори
ғуломи
ғуломов
ғуломова
ғуломон
ғуломони
ғун
ғур
ғури
ғурие
ғуруби
ғурур
ғурҳо
қ
қа
қабат
қабати
қабатҳои
қабзияти
қабил
қабила
қабилави
қабилавии
қабилаи
қабилаҳо
қабилаҳои
қабили
қабл
қаблан
қабли
қаблии
қабоили
қабр
қабри
қабристони
қабул
қабули
қабулшуда
қави
қавитар
қавл
қавли
қавм
қавми
қавмии
қавму
қавмҳои
қавонини
қавс
қад
қадам
қадами
қадамҳои
қадамҷои
қадар
қади
қадим
қадима
қадимаи
қадими
қадимии
қадимро
қадимтарин
қадимтарини
қадимулаи
қадр
қадрдони
қадре
қадри
қадриддин
қазвин
қазвини
қаззофи
қазо
қазои
қазон
қазоқ
қазоқи
қазоқистон
қазоқистони
қазоқҳо
қаи
қал
қалам
қаламдод
қалами
қаламрав
қаламрави
қаламравҳои
қаламфур
қаламфури
қаламча
қаландаров
қалб
қалбаки
қалби
қалъа
қалъаги
қалъаи
қалъаро
қалъачаи
қалъаҳо
қалъаҳои
қамар
қамари
қанд
қандаҳор
қанди
қандро
қанноди
қаноат
қарабоғ
қарабоғи
қаратол
қаратоғ
қаратоғи
қарақалпоқистон
қарбулоқ
қарз
қарздор
қарзи
қарзии
қарзови
қарзҳои
қариб
қарн
қарни
қарнҳои
қаро
қаробат
қаробоев
қароку
қарор
қароргоҳи
қарордод
қарордоди
қарори
қарорҳо
қарорҳои
қаросои
қаротегин
қарохоние
қарши
қасам
қасд
қасдан
қасди
қасида
қасидаи
қасидаҳо
қасидаҳои
қасоид
қаср
қасри
қасрҳо
қасрҳои
қат
қатар
қати
қатл
қатли
қатор
қатораи
қатори
қаторку
қаторҳои
қатра
қатраҳои
қатъ
қатъи
қатъии
қатъиян
қатънома
қатъномаи
қатъномаҳои
қафаси
қафо
қафои
қафқоз
қафқози
қашқадаре
қаъри
қаҳва
қаҳваранг
қаҳвахона
қаҳрамон
қаҳрамони
қаҳрамонии
қаҳрамонон
қаҳрамонони
қаҳрамонҳо
қаҳрамонҳои
қаҳҳор
қаҳҳоров
қи
қибла
қие
қизил
қимат
қиматбаҳо
қимати
қиматнок
қиматҳои
қироат
қироати
қирғиз
қирғизи
қирғизистон
қирғизҳо
қирғизҳои
қисм
қисман
қисмат
қисмате
қисмати
қисматҳои
қисме
қисми
қисмҳо
қисмҳои
қисса
қиссаву
қиссаи
қиссаҳо
қиссаҳои
қитъа
қитъаи
қитъаҳо
қитъаҳои
қишлоқ
қишлоқи
қишри
қишрҳои
қличева
қобил
қобили
қобилияти
қобилиятҳои
қобилова
қобуснома
қодир
қодири
қодиров
қодирова
қози
қозии
қозиғурт
қоида
қоидаи
қоидаҳо
қоидаҳои
қоил
қолаби
қолабҳои
қолинбофи
қомат
қомуси
қонеъ
қонун
қонунбарор
қонунгузор
қонунгузори
қонунгузории
қонуни
қонунии
қонуният
қонунияти
қонуниятҳои
қонунро
қонунҳо
қонунҳои
қори
қорун
қосим
қосимов
қосимова
қотеъ
қофия
қошуқ
қошуқча
қошғар
қоҳира
қоҷор
қрим
қу
қуб
қубов
қубодие
қубурҳои
қувва
қувваи
қувват
қувваҳои
қудрат
қудрати
қудратро
қудс
қулаи
қуллаи
қуллаҳои
қум
қуми
қумсангир
қундуз
қуния
қураи
қурама
қурби
қурбон
қурбонали
қурбони
қурбоние
қурбонии
қурбонов
қурбонова
қуръон
қуръони
қуръонро
қурғонтеппа
қут
қутаи
қутби
қути
қутраш
қутри
қутти
қуттии
қуттиҳо
қушунҳои
ң
ҳ
ҳа
ҳабиб
ҳабибулло
ҳабс
ҳабси
ҳаваи
ҳавас
ҳаваси
ҳаваскорони
ҳавел
ҳавз
ҳавза
ҳавзаи
ҳавзаҳои
ҳавзи
ҳавзҳои
ҳавли
ҳавлии
ҳаво
ҳавогард
ҳавогарди
ҳавогардҳо
ҳаводиси
ҳаводорони
ҳавои
ҳавоии
ҳавола
ҳаволаҳои
ҳавонаварди
ҳавопаи
ҳаворо
ҳавошиноси
ҳад
ҳадаф
ҳадафи
ҳадафҳо
ҳадафҳои
ҳадде
ҳадди
ҳадис
ҳадиси
ҳадя
ҳае
ҳаз
ҳазал
ҳазм
ҳазор
ҳазора
ҳазораи
ҳазорон
ҳазорсолаи
ҳазору
ҳазорҳо
ҳазрат
ҳазрати
ҳазф
ҳаи
ҳаити
ҳаифа
ҳаками
ҳаким
ҳакимзода
ҳакими
ҳакимов
ҳакимова
ҳаккоки
ҳал
ҳалаб
ҳалво
ҳалвои
ҳалим
ҳалимов
ҳалкунанда
ҳалли
ҳаллу
ҳалок
ҳалокат
ҳалол
ҳалқа
ҳалқаи
ҳам
ҳама
ҳамави
ҳамаги
ҳамагон
ҳамагона
ҳамагони
ҳамагонии
ҳамад
ҳамадон
ҳамадони
ҳамаи
ҳамакнун
ҳамал
ҳамаро
ҳамару
ҳамасола
ҳамасрони
ҳаматарафа
ҳамаҷониба
ҳамбастаги
ҳамбастагии
ҳамбург
ҳамвор
ҳамвора
ҳамвори
ҳамвории
ҳамвориҳо
ҳамвориҳои
ҳамгироии
ҳамдам
ҳамдамов
ҳамди
ҳамдигар
ҳамдигарро
ҳаме
ҳамеша
ҳамешасабз
ҳамза
ҳамзамон
ҳамид
ҳамида
ҳамилтон
ҳамин
ҳамкор
ҳамкори
ҳамкории
ҳамкориҳо
ҳамкориҳои
ҳамл
ҳамла
ҳамлагар
ҳамлаи
ҳамлаҳои
ҳамлу
ҳаммарз
ҳаммом
ҳаммуалифи
ҳаммуаллиф
ҳаммуаллифи
ҳаммуаллифии
ҳамном
ҳамноми
ҳамовозии
ҳамоиши
ҳамоишҳои
ҳамон
ҳамоно
ҳамосаи
ҳамоси
ҳамоҳанг
ҳамоҳанги
ҳамоҳангсози
ҳамоҳангсозии
ҳамроев
ҳамроҳ
ҳамроҳи
ҳамроҳии
ҳамсадо
ҳамсадоҳо
ҳамсар
ҳамсараш
ҳамсари
ҳамсарон
ҳамсарҳад
ҳамсоя
ҳамсояи
ҳамчу
ҳамчун
ҳамчунин
ҳамчунон
ҳамқаламии
ҳан
ҳанафи
ҳанг
ҳангом
ҳангоме
ҳангоми
ҳандаса
ҳандасаи
ҳандаси
ҳанифа
ҳанс
ҳану
ҳануз
ҳап
ҳар
ҳаракат
ҳаракати
ҳаракаткунанда
ҳаракатҳои
ҳарби
ҳарбие
ҳарбии
ҳарбиро
ҳарбию
ҳарвард
ҳаргиз
ҳаргуна
ҳарду
ҳариф
ҳаром
ҳароммағз
ҳарор
ҳарорат
ҳарорати
ҳарос
ҳарру
ҳарф
ҳарфи
ҳарфҳо
ҳарфҳои
ҳархела
ҳарчанд
ҳарчи
ҳасад
ҳасан
ҳасанду
ҳасани
ҳасанов
ҳасанова
ҳасина
ҳасрат
ҳассос
ҳаст
ҳаста
ҳастаи
ҳастаии
ҳастам
ҳастанд
ҳастед
ҳасти
ҳастии
ҳат
ҳати
ҳатман
ҳатми
ҳатмии
ҳатмист
ҳатто
ҳафрие
ҳафт
ҳафта
ҳафтае
ҳафтаи
ҳафтаномаи
ҳафтку
ҳафтод
ҳафтум
ҳафтуми
ҳафтумин
ҳахоманиши
ҳахоманишие
ҳахоманишиҳо
ҳашарот
ҳашароти
ҳашт
ҳаштум
ҳаштуми
ҳаяҷон
ҳақ
ҳақи
ҳақиқат
ҳақиқати
ҳақиқатро
ҳақиқи
ҳақиқии
ҳаққи
ҳаққони
ҳаҷ
ҳаҷв
ҳаҷви
ҳаҷвии
ҳаҷм
ҳаҷман
ҳаҷмаш
ҳаҷми
ҳбанди
ҳда
ҳдоман
ҳдт
ҳе
ҳезум
ҳеи
ҳелла
ҳенри
ҳеродот
ҳерсеговина
ҳертсоговин
ҳест
ҳеч
ҳеҷ
ҳзод
ҳи
ҳидоят
ҳидояти
ҳидроген
ҳие
ҳизб
ҳизби
ҳизбии
ҳизбию
ҳизбро
ҳизбу
ҳизбҳо
ҳизбҳои
ҳии
ҳиит
ҳикмат
ҳикмати
ҳикое
ҳикоя
ҳикояву
ҳикояи
ҳикоят
ҳикояти
ҳикоятҳои
ҳикояҳо
ҳикояҳои
ҳикояҳояш
ҳилл
ҳилол
ҳилоли
ҳимолои
ҳимоя
ҳимояи
ҳимоят
ҳимояти
ҳинд
ҳинди
ҳиндии
ҳинду
ҳиндуаврупои
ҳиндуе
ҳиндуия
ҳиндукуш
ҳиндустон
ҳиндустони
ҳиндустонро
ҳиндуҳо
ҳиндуҳои
ҳини
ҳирави
ҳиро
ҳирот
ҳирошима
ҳирфаи
ҳирфаии
ҳис
ҳисоб
ҳисоббарор
ҳисоби
ҳисобида
ҳисобкунии
ҳисобот
ҳисоботи
ҳисобу
ҳисобҳо
ҳисобҳои
ҳисор
ҳисори
ҳисорро
ҳисору
ҳисса
ҳиссаи
ҳиссачаҳои
ҳиссаҳои
ҳисси
ҳиссие
ҳистон
ҳистони
ҳитлер
ҳифз
ҳифзи
ҳифозат
ҳиш
ҳишгари
ҳишгоҳи
ҳиши
ҳишҳо
ҳишҳои
ҳию
ҳияи
ҳиҷо
ҳиҷоз
ҳиҷои
ҳиҷрат
ҳиҷри
ҳиҷрии
ҳк
ҳкиш
ҳкт
ҳкч
ҳлат
ҳлати
ҳли
ҳна
ҳнаи
ҳнит
ҳо
ҳоди
ҳодизода
ҳодиса
ҳодисаи
ҳодисаҳо
ҳодисаҳои
ҳое
ҳоз
ҳозима
ҳозир
ҳозира
ҳозиразамон
ҳозираи
ҳозирин
ҳои
ҳоит
ҳоити
ҳоказо
ҳоким
ҳокими
ҳокимият
ҳокимияти
ҳокимиятро
ҳокимон
ҳокимони
ҳоккаидо
ҳол
ҳолат
ҳолате
ҳолати
ҳолатро
ҳолатҳо
ҳолатҳое
ҳолатҳои
ҳоле
ҳоли
ҳолиаш
ҳолланд
ҳолланди
ҳолливуд
ҳоло
ҳомер
ҳомид
ҳомидов
ҳомие
ҳомии
ҳомила
ҳомилаги
ҳон
ҳондурас
ҳондураси
ҳони
ҳоние
ҳонии
ҳониро
ҳонконг
ҳоннаварди
ҳонро
ҳоншиноси
ҳопкинс
ҳори
ҳоро
ҳорун
ҳосил
ҳосилаҳои
ҳосили
ҳосилнокии
ҳосилхез
ҳосилшуда
ҳотам
ҳотами
ҳотамов
ҳоти
ҳофиз
ҳофиза
ҳофизаи
ҳофизи
ҳофизон
ҳофизони
ҳошим
ҳошими
ҳошимов
ҳошияи
ҳояш
ҳоҷат
ҳоҷи
ҳоҷибоев
ҳоҷие
ҳпу
ҳрат
ҳрати
ҳро
ҳрон
ҳрони
ҳсор
ҳсори
ҳтоб
ҳу
ҳуваи
ҳуд
ҳудуд
ҳудуди
ҳудудии
ҳудудҳои
ҳузур
ҳузури
ҳукм
ҳукми
ҳукмр
ҳукмрон
ҳукмрони
ҳукмрониаш
ҳукмронии
ҳукумат
ҳукуматдорон
ҳукуматдорони
ҳукумати
ҳукуматии
ҳукуматро
ҳукуматҳо
ҳукуматҳои
ҳукумронии
ҳулбук
ҳумо
ҳумоюн
ҳун
ҳунар
ҳунари
ҳунарии
ҳунарманд
ҳунарманди
ҳунармандон
ҳунармандони
ҳунарнамои
ҳунарнамоии
ҳунарпеша
ҳунарпешаги
ҳунарпешагон
ҳунарпешагони
ҳунарпешазанони
ҳунарпешазанҳо
ҳунарпешазанҳои
ҳунарпешаи
ҳунарпешаку
ҳунарпешамардони
ҳунарпешаро
ҳунарпешаҳо
ҳунарпешаҳои
ҳунарро
ҳунару
ҳунарҳо
ҳунарҳои
ҳурмузгон
ҳуруфи
ҳусаи
ҳусеи
ҳусн
ҳусни
ҳусну
ҳут
ҳуше
ҳуқуқ
ҳуқуқбуне
ҳуқуқваи
ҳуқуқи
ҳуқуқие
ҳуқуқии
ҳуқуқиро
ҳуқуқро
ҳуқуқу
ҳуқуқшинос
ҳуқуқшиноси
ҳуқуқшиносии
ҳуқуқшиносони
ҳуқуқэҷодкуни
ҳуқуқҳои
ҳуҷаи
ҳуҷра
ҳуҷраи
ҳуҷраҳои
ҳуҷум
ҳуҷуми
ҳуҷумкунандагони
ҳуҷумкунандаони
ҳуҷҷат
ҳуҷҷатгузори
ҳуҷҷати
ҳуҷҷатии
ҳуҷҷатҳо
ҳуҷҷатҳои
ҳфа
ҳхдт
ҳшиноси
ҳшинохти
ҳюго
ҳҳо
ҳҳои
ҷ
ҷа
ҷаббор
ҷабборов
ҷабраил
ҷабрдида
ҷабҳаи
ҷабҳаҳои
ҷав
ҷавзо
ҷавоб
ҷавобгари
ҷавобгарии
ҷавобгу
ҷавоби
ҷавод
ҷавон
ҷавона
ҷавони
ҷавонии
ҷавонмарди
ҷавонон
ҷавонони
ҷавононро
ҷавонро
ҷавонтарин
ҷавфи
ҷавҳар
ҷавҳари
ҷадвал
ҷадвали
ҷадвалҳои
ҷади
ҷадид
ҷадиди
ҷадидия
ҷаев
ҷаз
ҷазира
ҷазирави
ҷазираи
ҷазираҳо
ҷазираҳои
ҷазо
ҷазои
ҷазоро
ҷаи
ҷакарта
ҷаласа
ҷаласаи
ҷаласаҳои
ҷалб
ҷалби
ҷалил
ҷалилов
ҷалол
ҷалолиддин
ҷалолиддини
ҷалолобод
ҷалолуддин
ҷалолуддини
ҷам
ҷамил
ҷамму
ҷамоаи
ҷамоат
ҷамоатест
ҷамоати
ҷамоатҳо
ҷамоатҳои
ҷамоаҳои
ҷамол
ҷамоли
ҷамоҳири
ҷамшед
ҷамъ
ҷамъбаст
ҷамъбасти
ҷамъи
ҷамъият
ҷамъияти
ҷамъиятиву
ҷамъиятии
ҷамъиятиро
ҷамъиятию
ҷамъиятро
ҷамъиятшиноси
ҷамъиятҳои
ҷамъовари
ҷамъоварии
ҷамъомади
ҷан
ҷанбаи
ҷанбаҳои
ҷанг
ҷангал
ҷангалзор
ҷангали
ҷангалҳо
ҷангалҳои
ҷанги
ҷангие
ҷангии
ҷанговар
ҷанговари
ҷанговарон
ҷанговарони
ҷангро
ҷангу
ҷангҳо
ҷангҳои
ҷангҷу
ҷанин
ҷанини
ҷаннат
ҷаноби
ҷану
ҷануб
ҷануби
ҷанубии
ҷанубиро
ҷанубтар
ҷанубу
ҷарае
ҷарима
ҷароҳат
ҷароҳати
ҷарроҳ
ҷарроҳи
ҷарроҳии
ҷасади
ҷастин
ҷасур
ҷашн
ҷашнвораи
ҷашнвораҳои
ҷашни
ҷашнии
ҷашну
ҷашнҳо
ҷашнҳои
ҷаъфар
ҷаъфари
ҷаҳаннам
ҷаҳон
ҷаҳонбини
ҷаҳонбинии
ҷаҳонгир
ҷаҳони
ҷаҳоние
ҷаҳонии
ҷаҳониро
ҷаҳоннамо
ҷаҳонро
ҷбв
ҷдмм
ҷдо
ҷеи
ҷек
ҷексон
ҷеннер
ҷерси
ҷетисои
ҷефферсон
ҷи
ҷиби
ҷибути
ҷигар
ҷигари
ҷидда
ҷидди
ҷиддии
ҷидду
ҷиззах
ҷии
ҷилавгири
ҷилд
ҷилди
ҷилдҳои
ҷилику
ҷило
ҷилодор
ҷилои
ҷилояш
ҷимми
ҷин
ҷинои
ҷиноии
ҷиноят
ҷинояти
ҷиноятии
ҷинояткори
ҷиноятҳо
ҷиноятҳои
ҷиноҳи
ҷинс
ҷинси
ҷинсии
ҷинсҳои
ҷиргатол
ҷирми
ҷирмҳои
ҷисм
ҷисми
ҷисмони
ҷисмонии
ҷисмҳо
ҷисмҳои
ҷияни
ҷиҳат
ҷиҳати
ҷиҳатҳои
ҷиҳод
ҷиҳози
ҷмм
ҷмо
ҷмшс
ҷо
ҷобир
ҷобс
ҷованни
ҷовид
ҷовидон
ҷовидона
ҷода
ҷодаи
ҷоду
ҷое
ҷозе
ҷозеф
ҷозиба
ҷозибаи
ҷозибаҳои
ҷои
ҷоиз
ҷоиза
ҷоизаву
ҷоизадори
ҷоизаи
ҷоизаро
ҷоизаҳо
ҷоизаҳои
ҷолиб
ҷолибе
ҷолиби
ҷолинус
ҷом
ҷома
ҷомаи
ҷомбул
ҷомеа
ҷомеаи
ҷомеаро
ҷомеашиноси
ҷомеаҳои
ҷомеи
ҷомеъ
ҷомеъа
ҷоми
ҷон
ҷонам
ҷонатан
ҷонвари
ҷонварон
ҷонварони
ҷони
ҷониб
ҷонибдори
ҷонибдории
ҷонибдорони
ҷонибек
ҷониби
ҷонишин
ҷонишини
ҷонишинҳои
ҷониҳо
ҷонни
ҷонон
ҷонро
ҷонс
ҷонсон
ҷону
ҷонҳо
ҷопон
ҷопони
ҷори
ҷории
ҷорист
ҷоро
ҷорҷ
ҷорҷия
ҷост
ҷосуси
ҷоти
ҷояш
ҷс
ҷск
ҷсп
ҷт
ҷу
ҷуброн
ҷуваи
ҷувори
ҷуворимакка
ҷудо
ҷудогона
ҷудогонаи
ҷудои
ҷудонашавандаи
ҷудошавии
ҷуду
ҷудуи
ҷуз
ҷузви
ҷузеппе
ҷузъ
ҷузъи
ҷузъие
ҷузъу
ҷузъҳои
ҷули
ҷулфа
ҷум
ҷумла
ҷумлаи
ҷумлаҳои
ҷумхурии
ҷумъа
ҷумъабои
ҷумъаев
ҷумъаи
ҷумҳу
ҷумҳур
ҷумҳури
ҷумҳурии
ҷумҳуриро
ҷумҳурияви
ҷумҳуриявии
ҷумҳурият
ҷумҳуриҳо
ҷумҳуриҳои
ҷунаи
ҷунбиши
ҷунбишҳои
ҷурғот
ҷурҷони
ҷустан
ҷусторҳои
ҷустуҷу
ҷуфт
ҷуфти
ҷуғрофи
ҷуғрофие
ҷуғрофии
ҷуғрофия
ҷуғрофияи
ҷхдк
ҷшс
ҷшфс
ҷшфср
ҷқк
ә
ө
կաղապար
։
מ
،
؛
؟
ء
ا
اء
اب
ابن
اة
ات
اث
اج
اح
احمد
احوال
اخ
اد
ادب
ادبیات
اذ
ار
از
اس
استان
اسلام
اسلامی
اش
اص
اض
اط
اطلس
اع
اغ
اف
اق
اك
ال
الا
الت
الث
الد
الدین
الذ
الر
الریاض
الز
الس
الش
الص
الض
الط
الظ
القاهرة
الل
الله
المعارف
المللی
الن
الگو
ام
ان
اه
او
اي
ای
ایالات
ایتالیا
ایران
ب
بخش
بریتانیا
بزرگ
بشار
بن
به
بيروت
بیروت
بین
ة
ت
تا
تاریخ
تهران
ث
ج
جلد
جمهوری
جهان
ح
خ
خوشنويسان
د
دانشنامه
دانشنامە
داي
در
دریایی
دمشق
دهخدا
ذ
ر
رة
رةالمعارف
ز
زاد
س
ش
شبه
شده
شرح
ص
ض
ط
ظ
ع
عبد
علي
علی
غ
ـ
ـي
ف
فارسی
فرانسه
فرهنگ
فرودگاه
في
ق
قاره
قالب
ك
ل
لا
لمان
لن
م
متحده
محمد
مریکا
مشارکت
مهدی
موسیقی
ن
نت
ند
نز
نف
نك
نیروی
ه
های
هـ
هند
هوایی
و
وء
وا
وب
وت
وح
ود
ور
وس
وط
وع
وف
وق
وك
ول
وم
ون
وه
ویکی
ى
ي
يب
يت
يث
يح
يد
ير
يز
يس
يع
يف
يق
يك
يل
يم
ين
يه
ً
ٌ
ٍ
َ
ُ
ِ
ّ
ْ
ٓ
ٔ
ٕ
٠
١
٢
٣
٧
٫
٬
پ
پاکستان
پدیا
چ
چاپ
کانادا
کتاب
کنندگان
گناباد
گیتاشناسی
ی
۱
۱۳۴۵
۱۳۸۰
۱۳۸۳
۲
۲۰۰۴
۲۰۰۶
۲۰۰۷
۲۰۱۴
۳
۴
۵
۶
۷
۸
۹
ނ
ަ
ް
ँ
ं
आ
ई
क
ग
च
ज
ट
ड
ढ
त
द
न
प
ब
भ
म
य
र
ल
व
श
ष
स
ह
़
ा
ि
ी
ु
ू
े
ो
्
।
ঁ
ং
ক
খ
গ
চ
জ
ট
ত
দ
ন
প
ব
ভ
ম
মপ
য
র
ল
শ
স
হ
়
া
ি
ী
ু
ে
্
ા
க
ச
ட
த
ந
ன
ப
ர
வ
ா
ி
ு
ே
ை
்
మ
ల
స
ా
ి
ు
ూ
్
ಂ
ಟ
ನ
ಪ
ಲ
ಾ
ಿ
ು
ೆ
್
ೕ
ം
ഫലക
ര
ാ
ി
്
ක
ත
න
ප
ර
ල
ව
ස
්
ා
ැ
ි
ී
ෙ
ั
ิ
ี
ู
แบบ
แม
่
้
์
င
န
ာ
ိ
ု
ံ
း
်
თარგი
틀
ទ
រ
ា
ំ
័
្
ᵊ
ᵏ
ᵑ
ᵛ
ᵝ
ᶎ
ᶢ
​
‌
‍
‎
‏
‑
‒
–
—
‖
‘
’
“
”
„
†
•
…
‰
′
″
‼
⁄
⁰
₤
€
ℓ
№
←
↑
→
↓
↔
↷
−
∙
√
∞
∩
≈
≡
≤
≥
⊕
⊗
⊛
⋅
③
④
⑦
◄
◌
☉
☺
☼
♘
♠
♣
♥
♦
⚝
⺀
⺄
⺆
⺈
⺊
⺌
⺕
⺝
⺸
⺼
⿰
⿱
⿲
⿳
⿴
⿵
⿶
⿷
⿸
⿹
⿺
⿻
、
。
『
』
〢
う
と
の
ら
゙
ア
イ
カ
コ
ス
タ
ツ
テ
ト
フ
ユ
ル
ン
ー
㇁
㇂
㇄
㇇
㇈
㇉
㇓
㐁
㐄
㐅
㐌
㐫
㐬
㐭
㐮
㐱
㑒
㒵
㒸
㒼
㓁
㓞
㔾
㕛
㕣
㖾
㘝
㚅
㚇
㚔
㚘
㝉
㝡
㝴
㝵
㞋
㞢
㞷
㠩
㠭
㠯
㡀
㡭
㡿
㢲
㢴
㣇
㣺
㥯
㪅
㫄
㫐
㫒
㫺
㬅
㬎
㬥
㬰
㲋
㳄
㷠
㸒
㸚
㸦
㼌
㼲
㽞
㿟
䀠
䂞
䍃
䏍
䒑
䖍
䖒
䖝
䖵
䙴
䚻
䜌
䝿
䡛
䧹
䪞
一
丁
丂
七
丄
丅
丆
万
丈
三
上
下
丌
不
与
丏
丐
丑
专
且
丕
世
丘
丙
业
东
丞
丢
丣
两
严
並
丨
丩
个
丫
丬
中
丮
丰
丱
串
丵
丶
丷
丸
丹
为
主
丽
丿
乀
乂
乃
久
乆
乇
么
义
之
乌
乍
乎
乏
乐
乑
乔
乖
乗
乘
乙
乚
乛
乜
九
乞
也
习
乡
乳
乾
亀
亅
了
亇
予
争
事
二
亍
于
亏
亐
云
互
亓
五
井
亘
亚
亜
亞
亟
亠
亡
亢
交
亥
亦
产
亨
亩
享
京
亭
亮
亯
亰
亲
亳
亶
亷
人
亻
亼
亾
仁
今
介
仌
从
仐
仑
仒
仓
仕
他
付
仝
代
令
以
任
企
伊
伏
伐
休
会
伯
但
位
何
佘
余
作
佥
使
來
侈
侌
侖
侯
侵
便
保
俞
信
修
倉
倍
候
倠
備
僉
僕
儿
兀
允
兂
元
兄
充
兆
兇
先
光
兊
克
兌
免
兑
兒
兓
兔
党
兜
兟
入
全
兩
兪
八
公
六
兮
兰
共
关
兵
其
具
典
兹
兼
冀
冂
冃
冄
内
冈
冉
冊
冋
册
再
冎
冏
冐
冒
冓
冖
冗
冘
军
农
冝
冡
冥
冫
冬
冷
几
凡
凢
凵
凶
凷
凸
凹
出
函
凾
刀
刁
刂
刃
刄
刅
分
切
刍
刑
刕
刖
列
刘
则
初
別
利
别
到
制
刺
則
削
剌
前
剡
剽
劉
力
功
加
劦
助
劫
劳
劵
勃
勇
勉
勒
動
務
勞
勤
勹
勺
勻
勾
勿
匀
匂
包
匆
匈
匊
匋
匍
匕
化
北
匚
匝
匡
匪
匱
匸
匹
区
医
匽
匿
區
十
卂
千
卄
卅
卆
升
午
卉
半
卌
华
卑
卒
卓
单
卖
南
卜
卝
卞
占
卡
卢
卣
卤
卦
卩
卪
卬
卯
印
危
即
却
卵
卷
卸
卻
厂
厃
厄
历
厈
厉
厌
厓
厘
厚
原
厤
厥
厨
厭
厲
厶
厷
厸
去
厼
厽
叀
参
參
叅
又
叉
及
友
双
反
叐
发
叒
叔
叕
取
受
叚
叜
叟
口
古
句
另
叩
只
召
可
台
叱
史
右
叵
号
司
叹
吂
各
吅
合
吉
吊
吋
同
名
后
吏
向
吕
君
吝
吞
否
含
启
吳
吴
吹
吾
呂
呆
呈
告
员
呙
周
命
咅
和
咎
咠
咢
咨
咸
咼
哀
品
哉
員
哥
哲
唐
商
啇
問
啚
啬
啻
善
喜
喬
單
喿
嗇
嘉
噩
嚴
囊
囗
囘
囙
囚
四
回
囟
因
囧
囬
困
囱
囷
固
国
圂
圅
國
圍
圓
土
圡
圣
圥
在
圭
地
圶
场
圼
坐
坒
坚
坴
垂
垔
垚
埀
埋
埶
執
基
堂
堅
堆
堇
堯
塞
墨
壘
士
壬
壯
声
壳
壴
壹
壺
壽
夂
处
夅
夆
备
夊
夋
夌
复
夏
夒
夕
外
夗
夘
多
夜
夢
大
夨
天
太
夫
夬
夭
央
失
夲
头
夷
夸
夹
夻
夾
奂
奄
奇
奈
奉
奎
奏
奐
契
奓
奔
奚
奞
奠
奢
奥
奭
女
奴
奻
好
如
妄
妙
妟
妥
妻
妾
姑
委
姜
威
娄
婁
婴
嬰
嬴
子
孑
孔
孕
孖
字
存
孚
孛
孝
孟
季
孤
学
孫
孱
學
宀
宁
宂
它
宅
宇
守
安
宋
完
宏
宓
宗
官
定
宛
宜
宝
客
宣
室
宮
宰
害
家
容
宾
宿
寄
寅
密
富
寒
寛
察
寧
審
寫
寬
寮
寸
对
寺
寻
寽
対
寿
封
尃
射
将
將
專
尉
尊
尋
尌
對
小
少
尒
尓
尔
尖
尗
尚
尞
尢
尣
尤
尧
尨
尭
就
尸
尹
尺
尻
尼
尽
尾
尿
局
居
屈
屋
屎
屏
屑
展
屖
屚
属
屠
屡
屬
屮
屯
屰
山
屵
屾
岁
岂
岑
岡
岩
岳
岸
峯
島
崇
崑
崔
崖
崙
崩
嵬
嶲
巂
巛
川
州
巟
巠
巢
巤
工
左
巧
巨
巩
巫
差
己
已
巳
巴
巷
巸
巽
巾
巿
帀
市
布
希
帚
帛
帝
带
師
席
帶
常
干
平
年
幵
并
幷
幸
幺
幻
幼
幽
幾
广
広
庄
床
底
店
庚
府
度
庫
庭
庶
康
庸
廉
廌
廛
廣
廩
廴
延
廷
建
廾
廿
开
弁
弃
弄
弇
弋
式
弓
弔
引
弗
弘
弜
弟
弥
弦
弱
張
強
强
彊
彌
彎
彐
彑
当
彔
录
彖
彗
彡
形
彥
彦
彧
彭
彳
役
彼
往
待
律
徒
得
徙
從
復
微
徳
徵
心
忄
必
忌
忍
志
応
忝
忠
忩
快
念
忽
忿
思
怠
急
怱
恆
恒
恩
恭
息
悉
患
悤
悲
悶
惠
惡
惢
愁
愈
意
愛
感
慈
慧
慮
慶
憂
憲
應
戀
戈
戉
戊
戋
戌
戍
戎
成
我
戒
戔
或
戚
戠
戢
截
戲
戶
户
戹
戼
戾
房
所
扁
扇
手
扌
才
打
托
执
承
折
拉
拜
拿
掌
推
提
摩
支
攴
攵
收
攸
改
放
政
敄
敏
敕
敖
敗
敝
敞
敢
散
敦
敫
敬
数
敷
數
斂
文
斉
斊
斗
斤
斥
斩
斬
斯
新
方
於
施
斿
旁
旋
族
无
旡
既
旣
日
旦
旧
旨
早
旬
旱
旲
时
旾
昆
昇
昌
昍
明
昏
易
昔
昗
昜
星
春
昬
是
昱
昴
昷
時
晃
晋
晏
普
景
晶
智
暑
暦
暴
曇
曩
曰
曲
曳
更
曷
書
曹
曼
曾
替
最
朁
會
月
有
朋
服
朔
朕
朗
望
朝
木
朩
未
末
本
札
朮
术
朱
朵
朶
机
朿
杀
杏
杜
束
条
来
東
杲
杳
松
析
林
枚
果
枝
枲
枼
某
柔
查
柬
柰
柴
栗
桀
桑
桼
梁
條
梟
梨
棘
棠
棥
森
楚
業
楽
榮
樂
樊
欠
次
欣
欮
欲
欶
欽
款
歆
歇
歛
止
正
此
步
武
歨
歪
歮
歯
歰
歲
歴
歷
歸
歹
歺
死
殳
段
殷
殸
殹
殺
殻
殿
毋
毌
母
每
毒
比
毕
毚
毛
毳
氏
氐
民
气
氣
水
氵
氶
氷
永
氺
氾
求
汝
汞
江
沃
沓
沙
沝
治
泉
法
波
泣
泥
泰
洛
洪
活
派
流
浦
浪
浮
淡
淮
清
渚
渠
湯
滿
漸
火
灬
灭
灰
灵
灷
炅
炎
炏
炗
炙
炭
為
烈
烏
烝
焉
無
焦
焱
然
煞
熊
熏
燕
營
燮
爪
爫
爭
爯
爰
爱
爲
爵
父
爻
爽
爾
爿
片
牙
牚
牛
牜
牟
牢
牧
牪
牽
犀
犬
犭
犮
狂
狄
狊
独
狺
猋
猒
猪
献
獻
玄
率
玉
王
玟
玨
珎
班
琴
瑟
瑩
瓜
瓦
甘
甚
生
産
用
甫
甬
田
由
甲
申
电
甶
男
甸
甹
画
甾
畀
界
畏
畐
留
畜
畟
畢
畧
畨
番
畫
異
畱
當
畺
畾
疊
疋
疌
疑
疒
疾
癶
癸
癹
登
發
白
百
皀
皃
的
皆
皇
皋
皐
皕
皮
皷
皿
盃
盆
盇
盈
益
盍
盎
监
盒
盖
盛
盡
監
盤
盧
目
直
相
盾
省
眇
眉
看
眔
眞
真
眷
眼
眾
着
睘
睪
睿
瞏
瞢
瞿
矍
矛
矞
矢
矣
知
矦
短
石
破
碎
磊
磨
示
礻
礼
祟
票
祭
禀
禁
禄
禸
禹
禺
离
禽
禾
禿
秀
秃
秉
秋
科
秝
秦
移
稟
穀
穌
穴
究
穹
空
穿
突
窄
窒
立
竒
竜
竝
竟
章
童
竹
笑
笠
第
筆
等
答
箕
算
箴
節
篤
篭
米
粉
粛
粟
粤
粦
粲
糞
糸
糹
系
約
納
素
索
紫
累
細
絜
絫
絲
維
綿
縣
繇
纍
纟
缶
网
罒
罔
罕
罗
罙
罡
罢
罪
署
罷
羅
羊
羌
羍
美
羔
羕
羗
羞
羡
羣
群
義
羲
羸
羽
翁
翏
習
翕
翟
翠
翼
老
耂
考
者
耆
而
耎
耑
耒
耳
耴
耶
耷
聂
聊
聖
聚
聶
聿
肀
肃
肅
肉
肖
肙
肥
肩
肯
育
肴
胃
背
胡
胥
能
脊
脩
膚
臣
臤
臧
自
臬
臭
臯
臱
至
致
臺
臼
臽
臾
臿
舀
舂
舄
與
興
舉
舌
舍
舛
舜
舞
舟
般
艮
良
色
艸
艹
艾
芒
芔
芬
芮
花
芳
芺
芻
苔
苗
苟
若
苦
英
茶
茸
荅
草
荒
荣
荼
莆
莧
莫
莽
菆
菊
菐
華
萬
落
葉
著
葛
董
葵
蒙
蒦
蒼
蓋
蓬
蓺
蔑
蔡
蕉
蕭
薄
薛
薦
薰
藍
藏
藥
蘭
虍
虎
虐
虒
虔
處
虖
虗
虘
虚
虛
虜
虞
虫
虽
蚤
蚩
蜀
蜜
蟲
蠡
血
行
衍
衛
衣
衤
表
衮
衰
袁
袞
褭
褱
襄
襾
西
覀
要
覃
見
規
覓
覧
親
覽
见
角
解
言
訁
訇
計
詹
誩
諸
讠
谷
豆
豈
豊
豐
豕
豖
豙
象
豦
豩
豪
豸
貇
貝
貞
貟
負
貢
貧
貪
貫
責
貳
貴
買
費
賁
資
賈
賏
賓
賔
賛
賞
賢
賣
質
賴
贊
贝
贡
责
贯
贲
贵
赖
赞
赤
赦
走
越
足
路
蹇
身
躬
車
軍
軎
軟
輦
车
辛
辜
辟
辥
辰
辱
農
辵
辶
边
达
过
近
连
迷
追
退
送
逆
逐
通
速
造
逢
連
逮
進
遀
遂
過
道
達
遣
適
遷
遺
邊
邑
邕
那
邦
邪
郎
部
郭
都
鄉
酉
酋
配
酓
釆
采
里
重
野
量
金
釒
錢
钅
長
镸
长
門
閃
閉
開
閏
閑
閒
間
閔
閵
閻
闌
门
间
闷
阑
阜
阝
阿
降
陳
隆
隊
隋
隡
隨
隱
隶
隹
隺
隻
隼
隽
难
雀
雁
集
雈
雋
雍
雐
雔
雙
雚
雜
雝
離
難
雨
雩
雪
雲
零
雷
需
霍
霜
霝
霞
霸
靈
靑
青
非
靡
面
靣
革
韋
韦
韭
韯
韱
音
頁
頃
項
須
頗
頡
頻
顛
页
風
风
飛
飞
食
飠
養
館
饣
首
香
馬
馮
駦
马
骨
高
髟
鬥
鬯
鬲
鬼
魚
魯
鮮
鱼
鲁
鳥
鳳
鸟
鹵
鹿
麃
麗
麥
麦
麻
黃
黄
黍
黎
黑
黒
黨
黹
黽
黾
鼎
鼓
鼠
鼻
齊
齋
齐
齒
齿
龍
龙
龜
龟
龠
龰
龱
龴
龵
龶
龷
龸
龹
ꞑ




者
艹
ﷺ
ﺍ
ﺎ
﻿
，
？
￼
𠀁
𠀃
𠀆
𠀉
𠀎
𠀐
𠁁
𠁣
𠂆
𠂇
𠂈
𠂉
𠂊
𠂋
𠂎
𠂒
𠂔
𠂛
𠂡
𠂢
𠂤
𠂬
𠂭
𠂹
𠃊
𠃋
𠃌
𠃍
𠃎
𠃑
𠃓
𠃔
𠃜
𠄌
𠄎
𠄠
𠄢
𠆢
𠆥
𠇍
𠈌
𠌵
𠓜
𠔉
𠔥
𠔼
𠔽
𠔿
𠕀
𠕁
𠕋
𠘧
𠘨
𠙻
𠙼
𠚏
𠚒
𠚤
𠚪
𠣏
𠤎
𠤕
𠥓
𠦄
𠦑
𠦝
𠧒
𠧗
𠧪
𠩺
𠪚
𠫓
𠫔
𠫤
𠬛
𠬝
𠬞
𠬢
𠬤
𠬶
𠮛
𠮦
𠮷
𠯑
𠱠
𠳮
𠷎
𡈼
𡉀
𡉵
𡌥
𡍮
𡏳
𡕒
𡕩
𡕰
𡖅
𡗗
𡗜
𡘆
𡘤
𡧱
𡨄
𡩧
𡬠
𡭽
𡰣
𡰥
𡰪
𡰯
𡰱
𡷈
𡸁
𡿨
𡿩
𡿪
𡿺
𢀖
𢀛
𢀩
𢁙
𢆉
𢆰
𢆶
𢇁
𢇇
𢉖
𢌬
𢌿
𢏚
𢑑
𢑚
𢖻
𢙣
𢛳
𢦏
𢦒
𢧵
𢼄
𢾕
𣁋
𣄼
𣅀
𣅽
𣍘
𣎳
𣎵
𣏋
𣏼
𣗥
𣥂
𣥖
𣦵
𣦼
𣧄
𣪊
𣪠
𣬉
𣳾
𣶒
𤇾
𤊽
𤐫
𤓰
𤔔
𤕨
𤣩
𤰇
𤰔
𤰞
𤴓
𤴔
𤽄
𥁑
𥁕
𥃦
𥃩
𥃭
𥇡
𥑟
𥘅
𥘈
𥝢
𥫗
𥱡
𦈢
𦉪
𦉬
𦉼
𦍌
𦍒
𦎧
𦐇
𦓔
𦔮
𦘒
𦙃
𦚏
𦣝
𦣞
𦣻
𦥑
𦥔
𦥯
𦨉
𦭝
𦰩
𧆞
𧈧
𧘇
𧰨
𧴪
𧴮
𧵩
𧾷
𨸏
𨾴
𩙿
𩠐
𩫏
𩵋
𪉷
𪜀
𪟽
𪠲
𪩲
𫇦
𫔭
𫜸
𫝀
𫠣
𫠩
𫢉
𫥞
𫩏
𫩠
𫪡
𫲽
𫶧
𬀷
𬐘
𬗌
𬙙
𬛸
𬜯
𬟩
𬯁
𬴘
𬺻
𬼉
𬼖
𭀰
𭁈
𭁨
𭅰
𭑈
𭕄
𭗼
𭤨
𭥫
𭻾
𮅕
𮊿
𮍌
𮍏
𮓗
𮥼
𮧮
廾
𰀁
𰀄
𰀈
𰀉
𰀕
𰀠
𰀡
𰀢
𰀪
𰁜
𰃮
𰆊
𰆘
𰋙
𰕎
𰢴
𰧭
𰯲
00--
006--
01--
02--
03--
04--
05--
06--
07--
08--
09--
109--
249--
64--
66--
71--
72--
73--
77--
79--
80--
83--
85--
86--
88--
90--
94--
a--
aa--
ab--
above--
ac--
accom--
ach--
act--
ad--
adapt--
add--
advan--
ae--
aero--
af--
affi--
affili--
ag--
ah--
ai--
air--
ak--
al--
ala--
ali--
all--
alt--
am--
an--
ana--
ance--
anniver--
anno--
announce--
ant--
any--
app--
appe--
append--
appro--
approxi--
aqu--
ar--
arc--
archaeo--
arg--
args--
as--
asse--
assi--
ast--
at--
au--
auto--
av--
ay--
az--
b--
ba--
back--
bad--
bal--
bar--
bas--
base--
be--
bec--
ben--
ber--
bh--
bi--
bib--
biblio--
bil--
bio--
bir--
bit--
bla--
bo--
body--
boli--
bos--
box--
br--
bro--
broad--
brow--
bu--
budd--
buk--
bull--
bur--
by--
c--
ca--
cal--
calcu--
can--
cap--
car--
cat--
cc--
ce--
cele--
cent--
cer--
ch--
cha--
chair--
chall--
check--
cho--
chri--
ci--
cie--
cit--
cite--
cl--
claim--
club--
cni--
co--
coach--
code--
col--
com--
con--
contr--
contri--
cor--
cori--
cr--
crim--
cs--
cu--
cur--
cy--
cyli--
d--
da--
data--
date--
dateof--
de--
dec--
dedi--
def--
del--
demo--
den--
der--
des--
dh--
di--
diac--
dipl--
dis--
distri--
dm--
dni--
do--
doc--
dor--
dr--
dre--
du--
dy--
e--
ec--
ed--
edit--
eff--
eg--
ek--
el--
elec--
eligi--
em--
emer--
en--
encour--
end--
eng--
equ--
er--
err--
error--
es--
et--
ethno--
eu--
euro--
ev--
eval--
ex--
expl--
ext--
f--
fa--
fabr--
fav--
fe--
fer--
fetch--
ff--
fi--
figh--
file--
find--
first--
fl--
flag--
flo--
fm--
fo--
font--
foot--
for--
format--
fos--
fr--
fre--
free--
friend--
ft--
fu--
full--
func--
fuw--
g--
ga--
gal--
gar--
gaz--
ge--
gen--
geo--
ger--
gesc--
get--
gi--
giga--
gio--
gl--
gm--
go--
good--
gover--
gr--
gra--
grad--
group--
gu--
h--
ha--
har--
has--
haw--
he--
head--
hel--
her--
hi--
hide--
high--
histo--
ho--
home--
hor--
html--
hu--
hum--
hunga--
hy--
i--
ia--
ic--
id--
if--
ig--
il--
illu--
im--
image--
img--
imp--
in--
ind--
inde--
influ--
info--
inst--
instru--
int--
inter--
io--
ip--
ir--
is--
iso--
it--
itti--
iv--
iw--
j--
ja--
je--
jer--
jim--
jo--
join--
jor--
js--
ju--
jud--
junc--
k--
ka--
kad--
kal--
kar--
kard--
kart--
kate--
ke--
key--
kha--
khi--
kho--
khu--
ki--
kilo--
kle--
kn--
ko--
kr--
ku--
kı--
l--
la--
lab--
label--
lan--
land--
lang--
last--
lat--
lau--
laz--
lb--
le--
li--
lin--
line--
ling--
link--
list--
ll--
llan--
lo--
lon--
lt--
lu--
ly--
m--
ma--
mac--
mag--
main--
make--
mal--
man--
map--
mar--
max--
may--
mb--
mc--
me--
mega--
memo--
men--
menu--
mer--
mess--
meta--
metro--
mi--
micr--
mid--
mil--
milli--
min--
mir--
mix--
mm--
mo--
mol--
mong--
mono--
mont--
mor--
mos--
mp--
mu--
muha--
multi--
mur--
my--
n--
na--
nar--
nav--
nd--
ne--
new--
next--
ng--
ni--
nn--
no--
node--
non--
nor--
ns--
nt--
nu--
num--
ny--
o--
obs--
obser--
obta--
oc--
occa--
off--
ok--
ol--
old--
om--
on--
only--
op--
open--
opt--
or--
os--
other--
out--
over--
p--
pa--
pac--
page--
pal--
pala--
palme--
pan--
par--
parent--
parse--
patr--
pay--
pe--
per--
petr--
petro--
ph--
phil--
phy--
pi--
pl--
po--
por--
post--
pr--
pre--
pref--
pri--
pro--
ps--
pt--
pu--
pul--
pun--
pur--
py--
q--
qu--
r--
ra--
radi--
raim--
raw--
ray--
rcu--
rd--
re--
recom--
red--
ref--
reg--
remo--
render--
rent--
res--
result--
ret--
rg--
ri--
ro--
ronauti--
row--
rt--
ru--
ry--
s--
sa--
sal--
sam--
san--
sar--
sc--
sch--
se--
sea--
sec--
self--
semi--
ser--
set--
sex--
sh--
sha--
short--
show--
si--
simp--
situ--
sk--
sky--
sl--
slav--
slo--
sm--
sn--
so--
sol--
solu--
some--
sort--
sp--
spe--
spec--
sports--
sq--
squ--
sr--
ss--
st--
stavro--
ste--
str--
strip--
stu--
sty--
su--
sub--
subse--
suff--
sug--
sum--
summary--
sun--
sup--
super--
sur--
swim--
sy--
t--
ta--
table--
talk--
te--
ten--
ter--
test--
text--
tg--
th--
the--
this--
ti--
time--
title--
tl--
to--
tog--
top--
tor--
tr--
track--
trad--
trans--
tri--
tril--
tro--
ts--
tu--
tur--
tuto--
twe--
ty--
type--
u--
uc--
ug--
ul--
ultr--
ump--
un--
under--
unit--
univ--
up--
ur--
us--
use--
user--
ut--
uz--
v--
va--
val--
var--
ve--
ven--
ver--
vi--
viet--
vio--
virg--
vo--
volzh--
vor--
vul--
vya--
w--
wa--
wal--
war--
we--
weat--
web--
wg--
wiki--
wil--
with--
wol--
wom--
wor--
work--
wp--
wro--
x--
xa--
xi--
y--
ya--
ye--
yo--
yu--
z--
za--
ze--
zh--
zoo--
zu--
ı--
ə--
ʷ--
τ--
а--
аа--
аб--
аба--
абар--
абд--
абду--
абдул--
абдуман--
абдур--
абдураз--
абдус--
абе--
абит--
абори--
абр--
абстр--
абу--
абул--
ав--
аве--
авиа--
авит--
австр--
авто--
автом--
автоном--
авқ--
аг--
ага--
агент--
аги--
аглом--
агр--
агрега--
агротех--
агу--
ад--
аде--
адсо--
аж--
аз--
азнав--
аи--
ак--
ака--
аккред--
акроб--
акс--
аксул--
акт--
актив--
акту--
ал--
ала--
алам--
алаф--
але--
алж--
али--
алкал--
аллер--
алме--
ало--
алп--
алт--
алтер--
аль--
альтер--
ам--
ама--
амал--
аме--
амир--
амиқ--
амон--
амонатгу--
амр--
амфи--
ан--
ана--
анг--
анге--
ангид--
анд--
андер--
ани--
анта--
анти--
антро--
антропо--
ану--
анҷ--
ао--
ап--
апа--
апу--
ар--
ара--
араб--
арбитраж--
аргумен--
аре--
арифме--
арк--
арм--
арме--
армян--
ароб--
арти--
артил--
архи--
архитек--
арғу--
арҷгу--
ас--
асаб--
асил--
асл--
асо--
асп--
аст--
астроло--
ат--
ата--
ато--
атри--
атсе--
атте--
аттестатс--
атф--
ау--
аф--
афана--
афзо--
афрохта--
ах--
ахеме--
ахтар--
аш--
ашк--
ашу--
ашъ--
аъ--
аъло--
аэр--
аэро--
ағ--
ақ--
ақл--
аҳ--
аҳк--
аҷ--
аҷдо--
аҷи--
б--
ба--
баб--
бавуҷуд--
баг--
бад--
бадал--
бадаст--
бадеъуз--
баз--
бак--
бал--
бала--
баланд--
бам--
бан--
банавор--
бапти--
бар--
бара--
баранге--
бараф--
бараҳ--
барг--
барз--
барза--
барна--
баро--
барқ--
бас--
бат--
бах--
баш--
башкорто--
баъ--
баъди--
бағ--
баҳ--
бдор--
бе--
бева--
бед--
без--
беинт--
бек--
беки--
бекор--
бел--
беля--
бен--
бер--
берд--
берди--
бесс--
бех--
беш--
бешик--
беғ--
беҳ--
беҳар--
би--
биб--
биби--
библи--
биг--
бид--
бил--
било--
бин--
био--
биографиче--
бир--
бисм--
бист--
бит--
битав--
бл--
бла--
ближ--
бло--
блу--
бо--
бобо--
бог--
бод--
боз--
бозар--
бои--
бол--
боло--
болше--
боль--
большин--
бом--
бомба--
бон--
бонк--
бор--
бос--
бот--
ботлоқ--
бошиш--
боғ--
боғи--
боҳ--
боҷ--
бр--
бранден--
бре--
бри--
бро--
бру--
бу--
буд--
буз--
бул--
бум--
бун--
бунда--
бунҷи--
бур--
бурун--
бут--
буф--
бух--
буэ--
бы--
быв--
бэ--
бю--
бюл--
бюрок--
бҳа--
бҳи--
в--
ва--
важ--
ваз--
вак--
вал--
ван--
ванд--
вар--
вас--
василь--
васл--
васт--
вахш--
ваҳ--
вв--
ве--
век--
вел--
вели--
великоб--
вен--
вер--
верх--
верхов--
вещ--
вз--
взгл--
взрыв--
ви--
вид--
видео--
визу--
вики--
вил--
вила--
вин--
вир--
вирту--
вис--
виш--
вклю--
вла--
влас--
вн--
вне--
внеш--
вну--
внутрен--
во--
вод--
воен--
вожа--
воз--
возв--
вои--
вокаль--
вол--
воло--
вон--
вор--
ворид--
воспит--
воспомина--
восс--
восстановле--
восточ--
вп--
вре--
време--
вс--
все--
ву--
вул--
вхо--
вы--
выб--
выз--
вызы--
выполне--
выраже--
выс--
высказы--
вят--
г--
га--
габ--
гав--
газ--
гал--
гала--
гам--
гамбу--
ган--
ганд--
гап--
гар--
гард--
гарм--
гарми--
гач--
гаҷ--
ге--
гел--
ген--
гео--
геоф--
гер--
ги--
гиб--
гидрав--
гидро--
гил--
гимн--
гин--
гинеколо--
гипер--
гипо--
гир--
гирд--
гире--
гисс--
гит--
гл--
глаз--
глит--
глобаль--
глобу--
глу--
гно--
го--
гов--
гол--
голд--
голл--
голов--
гон--
гор--
гос--
госпи--
гот--
гоҳ--
гр--
град--
граж--
граждан--
графиче--
гре--
грече--
гри--
гроз--
грос--
гру--
гу--
гуа--
губ--
гуво--
гузар--
гузор--
гул--
гулу--
гум--
гумани--
гун--
гуп--
гур--
гус--
гушти--
гуҷа--
гю--
д--
да--
даб--
дав--
даг--
дадо--
дак--
дал--
даль--
дам--
дан--
дар--
дара--
дарбар--
дард--
дарс--
даст--
дат--
дах--
даш--
дағ--
даҳ--
даҷ--
двига--
движе--
дд--
де--
дев--
девор--
дег--
дезоксири--
дек--
декор--
дел--
ден--
депар--
дер--
десяти--
десятич--
детс--
деҳ--
деҳи--
деҳка--
дж--
джан--
ди--
диагно--
диалек--
диаме--
дид--
дикта--
дил--
дими--
дин--
дио--
дир--
диск--
дисп--
дифференциаль--
дми--
до--
доб--
доба--
добавле--
добро--
дов--
договар--
дод--
додгус--
доди--
додси--
докумен--
дол--
дом--
дон--
дона--
доп--
дополне--
дополни--
допус--
дор--
дору--
дорул--
дохили--
др--
дра--
древ--
дру--
друж--
ду--
дуб--
дуд--
дуз--
дум--
дуо--
дуп--
дур--
дуред--
дус--
дуст--
дэ--
дю--
е--
ев--
евро--
ед--
един--
единствен--
ел--
ем--
ен--
енер--
ер--
ес--
ест--
ефи--
ефр--
ж--
жар--
же--
желез--
железно--
женщ--
жи--
живо--
жил--
жир--
жит--
жо--
жур--
з--
за--
заб--
забар--
забол--
забт--
зав--
зага--
загр--
зад--
зак--
закате--
зал--
зам--
заме--
замин--
зан--
зап--
запад--
заповед--
заполне--
зар--
зард--
зарегистр--
зару--
зарубеж--
защ--
зая--
заяв--
заявле--
зб--
збек--
зве--
зе--
зебо--
зеле--
зер--
зи--
зидди--
зикр--
зин--
зире--
зист--
зиш--
зм--
зна--
значи--
зо--
зои--
зон--
зоотех--
зотпар--
зу--
зуб--
зуд--
зул--
и--
иа--
иб--
ибод--
ибодат--
иваз--
иг--
игл--
игнор--
ид--
ида--
иде--
идора--
ие--
из--
изд--
издатель--
изоанти--
изоб--
ии--
ик--
ил--
илм--
ило--
иль--
им--
име--
имзо--
имом--
ин--
индепе--
индивиду--
индус--
инерси--
иностран--
иноязыч--
инспе--
инструмен--
инсу--
инте--
интегр--
интел--
интер--
инти--
интихоб--
инфрасо--
инъ--
инқи--
ио--
ион--
ир--
иран--
ирти--
ис--
исклю--
иску--
ислом--
исм--
исо--
испан--
ист--
истиб--
историче--
исход--
исқ--
ит--
ита--
итальян--
итти--
иф--
ифр--
ифрот--
их--
ич--
иш--
иштирок--
ишғол--
ишқ--
иғ--
иқ--
иқти--
иҷ--
иҷро--
иҷт--
к--
ка--
каб--
каби--
кав--
кад--
каж--
каз--
казак--
кал--
кален--
кали--
калон--
кам--
каме--
кан--
кап--
капи--
капитал--
кар--
кара--
карбогидр--
каром--
карт--
карто--
кас--
кат--
катар--
кау--
каф--
каче--
каш--
кашф--
каҳ--
каҷ--
кв--
квадрат--
квар--
кве--
кг--
ке--
кел--
кен--
кер--
ки--
киб--
кибер--
киев--
кик--
кил--
ким--
кин--
кинг--
кинемато--
кинети--
кино--
кир--
кис--
китоб--
киш--
кл--
клав--
клавиа--
кле--
клип--
клю--
км--
кн--
кно--
ко--
коб--
ков--
код--
коз--
кол--
колес--
ком--
комил--
комме--
комп--
компу--
компью--
кон--
конкре--
конкрет--
конструк--
консул--
контр--
коп--
кор--
коргу--
корот--
кос--
коса--
космиче--
космо--
кот--
коч--
кошғ--
коэффи--
коҳи--
кр--
крас--
крат--
кре--
кред--
крем--
кри--
кримина--
крипто--
крит--
кру--
круп--
кры--
кс--
ку--
куб--
куз--
кузнет--
кул--
кум--
кун--
куп--
кур--
кура--
курд--
кут--
кх--
кыргыз--
кэ--
кю--
кя--
л--
ла--
лаб--
лав--
лаво--
лак--
лам--
лап--
лар--
лас--
лат--
лах--
лағ--
лағж--
лаҳ--
ле--
лев--
лег--
леги--
лек--
лекси--
лен--
лео--
лет--
ли--
либ--
лик--
лим--
лимфоси--
лин--
линг--
лингвистиче--
литерат--
литератур--
лицен--
лич--
лн--
ло--
лоб--
лов--
лод--
лок--
лон--
лор--
лоғ--
лу--
луж--
луоб--
лух--
луч--
луғат--
луқ--
ль--
лю--
люб--
ля--
м--
ма--
маб--
мав--
маг--
мага--
магни--
маго--
мад--
мажори--
маз--
мак--
макед--
мал--
малак--
мале--
маликуш--
мало--
мамад--
ман--
манза--
манъ--
мар--
марз--
марш--
марғи--
мас--
масъ--
мат--
математиче--
маф--
мафк--
мах--
махсус--
мач--
маш--
маъ--
мағ--
мақ--
маҳ--
маҳбу--
маҷ--
мг--
ме--
меаф--
мебар--
мева--
мега--
мегу--
мед--
медар--
медицин--
меж--
мекс--
мел--
мен--
мене--
мени--
мень--
меоме--
мепа--
мепинд--
мер--
мета--
метез--
метеороло--
мефаҳ--
мех--
меч--
мешу--
меҳ--
меҳр--
ми--
мидд--
миж--
миз--
мик--
микр--
микро--
мил--
мин--
мини--
мир--
мирзо--
мис--
мит--
миха--
мичу--
мк--
мл--
мм--
мн--
мне--
множе--
мо--
мод--
мода--
модар--
модер--
моз--
мол--
моле--
мон--
моне--
мони--
моно--
моноса--
монумен--
мор--
мос--
московс--
моҳ--
моҳи--
моҷа--
мс--
му--
муа--
муаз--
муб--
муд--
муж--
муз--
музы--
мук--
муко--
мул--
мулло--
мулт--
мултип--
мум--
мун--
муоҳи--
мур--
мурур--
мус--
муса--
мусал--
мусам--
муси--
мусс--
муста--
мусуль--
мусульман--
мут--
мута--
мутакал--
мутан--
мутас--
мутақ--
муф--
муфас--
мух--
муш--
муъ--
муғ--
муғҷа--
муқ--
муқа--
муқова--
муқта--
муҳ--
муҳар--
муҳи--
муҳо--
муҳоси--
муҷ--
муҷа--
муҷи--
муҷо--
муҷоҳи--
муҷт--
мэ--
мэр--
мюл--
н--
на--
наб--
набар--
наблю--
нав--
нави--
нагор--
над--
наз--
назди--
назна--
назо--
назы--
наи--
нак--
нал--
наложе--
нам--
наме--
намед--
намем--
нан--
напи--
нар--
нара--
нархгу--
нас--
наср--
нат--
наф--
нафас--
нафт--
нах--
нахуст--
национ--
началь--
наш--
нашъ--
наъ--
нағ--
нақ--
нақш--
нақшу--
наҳ--
наҳо--
наҷ--
наҷо--
наҷот--
нг--
нд--
нда--
не--
нев--
недоп--
неза--
неи--
неименова--
нек--
нем--
немец--
нео--
необ--
необязатель--
неру--
несв--
несущ--
неш--
ни--
ниг--
ниж--
низ--
ник--
нил--
ним--
них--
нише--
ниқ--
но--
нов--
новел--
ново--
нодир--
ном--
номи--
нон--
нор--
нормаль--
носи--
нс--
нт--
ну--
нуж--
нуз--
нук--
нул--
нумерова--
нур--
нури--
нус--
нуқ--
нуҳ--
ню--
о--
об--
обеспе--
оби--
обновле--
обо--
обу--
общ--
обще--
общест--
объя--
обыч--
обяз--
обязатель--
ов--
ове--
овр--
ог--
од--
одам--
оз--
ози--
озм--
озод--
озу--
ои--
оин--
ок--
окс--
ол--
ола--
олам--
оли--
ом--
оме--
ому--
он--
оно--
оп--
опи--
оппо--
опублик--
ор--
орато--
орган--
орд--
ори--
оригиналь--
орк--
ормон--
оро--
ос--
осе--
осеб--
основ--
осталь--
от--
ота--
оташ--
отдель--
отечествен--
отклю--
откры--
отме--
отноше--
отоб--
отсут--
оф--
офар--
офаранда--
офиц--
официаль--
офор--
оформлен--
ох--
охан--
охун--
оцен--
оче--
ош--
ошу--
оғ--
оғох--
оқ--
оқох--
п--
па--
пав--
пад--
падар--
паж--
пажу--
пак--
пал--
палео--
пам--
памят--
пан--
панд--
панҷ--
пар--
пара--
парвар--
пардо--
парти--
пас--
паси--
паст--
пат--
патрул--
патрулиро--
пах--
паш--
паҳ--
паҳн--
пе--
пен--
пер--
пере--
перемен--
персид--
петро--
печ--
пеш--
пи--
пие--
пикс--
пикто--
пил--
пин--
пинд--
пир--
пиро--
пирон--
писар--
пись--
пиш--
пла--
пласт--
плат--
пле--
пли--
площ--
плу--
пневм--
по--
поб--
пов--
под--
подоб--
подпи--
пож--
поз--
пози--
позицион--
пок--
покров--
пол--
поли--
полиса--
политиче--
поль--
пом--
пон--
поп--
популяр--
пор--
порси--
пос--
пост--
потенц--
поч--
пош--
поэ--
поя--
пр--
празд--
практи--
практиче--
пре--
пред--
предложе--
предос--
предсе--
предста--
предупреж--
преж--
преимущ--
прес--
прже--
при--
приве--
приз--
приклад--
приме--
про--
прове--
произ--
произве--
производ--
произволь--
проте--
пру--
прям--
псев--
пси--
психо--
псо--
пу--
пуб--
пудр--
пул--
пулак--
пур--
путе--
пуч--
пят--
р--
ра--
раб--
рав--
равон--
раг--
рад--
радиатс--
радио--
раз--
рак--
рам--
ран--
ранг--
рас--
распро--
рат--
ратси--
рафо--
рах--
раъ--
рақ--
раҳ--
раҷ--
рб--
рд--
рда--
ре--
реви--
рег--
регул--
ред--
редакт--
реж--
рез--
реза--
рекон--
реп--
рес--
ресур--
рефе--
реша--
ри--
рид--
риди--
риз--
рим--
рин--
рис--
риф--
рич--
риш--
рк--
рн--
ро--
роб--
род--
рож--
роз--
ром--
ромиш--
рон--
рост--
рот--
рох--
роҳ--
рп--
рт--
ру--
руб--
руд--
руз--
руков--
руковод--
рум--
рун--
рус--
руси--
руту--
рух--
руҳ--
ры--
рын--
рыноч--
с--
са--
саб--
сабз--
сабт--
сав--
савдо--
савия--
саг--
сад--
садо--
саид--
сак--
сал--
сам--
сан--
сана--
санг--
сар--
сари--
сарму--
сарни--
саро--
сат--
саунд--
саф--
сафар--
сафед--
сафо--
сафорат--
сах--
сахт--
саъ--
сағ--
сақ--
саҳ--
саҳм--
саҳоба--
сб--
сбор--
св--
све--
свет--
связ--
связан--
сд--
се--
себ--
сев--
сег--
сел--
селекс--
семе--
сен--
сенария--
сер--
сертифи--
сеҳ--
си--
сиг--
сид--
сик--
сил--
силсила--
сим--
сими--
симферо--
син--
сино--
синф--
синх--
сипар--
сир--
сит--
ситс--
сиф--
сияҳ--
ск--
ска--
сканд--
ско--
скрип--
скры--
сл--
сла--
слав--
[...]
