!
"
#
##a
##aa
##ab
##ac
##ad
##ae
##af
##ag
##ah
##ai
##aj
##ak
##al
##am
##an
##ao
##ap
##aq
##ar
##as
##at
##au
##av
##aw
##ax
##ay
##az
##b
##ba
##bb
##bc
##bd
##be
##bf
##bg
##bh
##bi
##bj
##bk
##bl
##bm
##bn
##bo
##bp
##bq
##br
##bs
##bt
##bu
##bv
##bw
##bx
##by
##bz
##c
##ca
##cb
##cc
##cd
##ce
##cf
##cg
##ch
##ci
##cj
##ck
##cl
##cm
##cn
##co
##cp
##cq
##cr
##cs
##ct
##cu
##cv
##cw
##cx
##cy
##cz
##d
##da
##db
##dc
##dd
##de
##df
##dg
##dh
##di
##dj
##dk
##dl
##dm
##dn
##do
##dp
##dq
##dr
##ds
##dt
##du
##dv
##dw
##dx
##dy
##dz
##e
##ea
##eb
##ec
##ed
##ee
##ef
##eg
##eh
##ei
##ej
##ek
##el
##em
##en
##eo
##ep
##eq
##er
##es
##et
##eu
##ev
##ew
##ex
##ey
##ez
##f
##fa
##fb
##fc
##fd
##fe
##ff
##fg
##fh
##fi
##fj
##fk
##fl
##fm
##fn
##fo
##fp
##fq
##fr
##fs
##ft
##fu
##fv
##fw
##fx
##fy
##fz
##g
##ga
##gb
##gc
##gd
##ge
##gf
##gg
##gh
##gi
##gj
##gk
##gl
##gm
##gn
##go
##gp
##gq
##gr
##gs
##gt
##gu
##gv
##gw
##gx
##gy
##gz
##h
##ha
##hb
##hc
##hd
##he
##hf
##hg
##hh
##hi
##hj
##hk
##hl
##hm
##hn
##ho
##hp
##hq
##hr
##hs
##ht
##hu
##hv
##hw
##hx
##hy
##hz
##i
##ia
##ib
##ic
##id
##ie
##if
##ig
##ih
##ii
##ij
##ik
##il
##im
##in
##io
##ip
##iq
##ir
##is
##it
##iu
##iv
##iw
##ix
##iy
##iz
##j
##ja
##jb
##jc
##jd
##je
##jf
##jg
##jh
##ji
##jj
##jk
##jl
##jm
##jn
##jo
##jp
##jq
##jr
##js
##jt
##ju
##jv
##jw
##jx
##jy
##jz
##k
##ka
##kb
##kc
##kd
##ke
##kf
##kg
##kh
##ki
##kj
##kk
##kl
##km
##kn
##ko
##kp
##kq
##kr
##ks
##kt
##ku
##kv
##kw
##kx
##ky
##kz
##l
##la
##lb
##lc
##ld
##le
##lf
##lg
##lh
##li
##lj
##lk
##ll
##lm
##ln
##lo
##lp
##lq
##lr
##ls
##lt
##lu
##lv
##lw
##lx
##ly
##lz
##m
##ma
##mb
##mc
##md
##me
##mf
##mg
##mh
##mi
##mj
##mk
##ml
##mm
##mn
##mo
##mp
##mq
##mr
##ms
##mt
##mu
##mv
##mw
##mx
##my
##mz
##n
##na
##nb
##nc
##nd
##ne
##nf
##ng
##nh
##ni
##nj
##nk
##nl
##nm
##nn
##no
##np
##nq
##nr
##ns
##nt
##nu
##nv
##nw
##nx
##ny
##nz
##o
##oa
##ob
##oc
##od
##oe
##of
##og
##oh
##oi
##oj
##ok
##ol
##om
##on
##oo
##op
##oq
##or
##os
##ot
##ou
##ov
##ow
##ox
##oy
##oz
##p
##pa
##pb
##pc
##pd
##pe
##pf
##pg
##ph
##pi
##pj
##pk
##pl
##pm
##pn
##po
##pp
##pq
##pr
##ps
##pt
##pu
##pv
##pw
##px
##py
##pz
##q
##qa
##qb
##qc
##qd
##qe
##qf
##qg
##qh
##qi
##qj
##qk
##ql
##qm
##qn
##qo
##qp
##qq
##qr
##qs
##qt
##qu
##qv
##qw
##qx
##qy
##qz
##r
##ra
##rb
##rc
##rd
##re
##rf
##rg
##rh
##ri
##rj
##rk
##rl
##rm
##rn
##ro
##rp
##rq
##rr
##rs
##rt
##ru
##rv
##rw
##rx
##ry
##rz
##s
##sa
##sb
##sc
##sd
##se
##sf
##sg
##sh
##si
##sj
##sk
##sl
##sm
##sn
##so
##sp
##sq
##sr
##ss
##st
##su
##sv
##sw
##sx
##sy
##sz
##t
##ta
##tb
##tc
##td
##te
##tf
##tg
##th
##ti
##tj
##tk
##tl
##tm
##tn
##to
##tp
##tq
##tr
##ts
##tt
##tu
##tv
##tw
##tx
##ty
##tz
##u
##ua
##ub
##uc
##ud
##ue
##uf
##ug
##uh
##ui
##uj
##uk
##ul
##um
##un
##uo
##up
##uq
##ur
##us
##ut
##uu
##uv
##uw
##ux
##uy
##uz
##v
##va
##vb
##vc
##vd
##ve
##vf
##vg
##vh
##vi
##vj
##vk
##vl
##vm
##vn
##vo
##vp
##vq
##vr
##vs
##vt
##vu
##vv
##vw
##vx
##vy
##vz
##w
##wa
##wb
##wc
##wd
##we
##wf
##wg
##wh
##wi
##wj
##wk
##wl
##wm
##wn
##wo
##wp
##wq
##wr
##ws
##wt
##wu
##wv
##ww
##wx
##wy
##wz
##x
##xa
##xb
##xc
##xd
##xe
##xf
##xg
##xh
##xi
##xj
##xk
##xl
##xm
##xn
##xo
##xp
##xq
##xr
##xs
##xt
##xu
##xv
##xw
##xx
##xy
##xz
##y
##ya
##yb
##yc
##yd
##ye
##yf
##yg
##yh
##yi
##yj
##yk
##yl
##ym
##yn
##yo
##yp
##yq
##yr
##ys
##yt
##yu
##yv
##yw
##yx
##yy
##yz
##z
##za
##zb
##zc
##zd
##ze
##zf
##zg
##zh
##zi
##zj
##zk
##zl
##zm
##zn
##zo
##zp
##zq
##zr
##zs
##zt
##zu
##zv
##zw
##zx
##zy
##zz
$
%
&
'
(
)
*
+
,
-
.
/
0
00
000
0000
000000001917
000000001923
000000001929
000000001930
000000001931
000000001932
000000001933
000000001934
000000001935
000000001936
000000001937
000000001938
000000001939
000000001940
000000001941
000000001945
000000001947
0009
001
0031
01
011
014
02
025
02609
03
0300
033
04
0464
0486
05
06
060
07
0783
0785
08
09
0a
0b
0c
0d
0e
0f
0g
0h
0i
0j
0k
0l
0m
0n
0o
0p
0q
0r
0s
0t
0u
0v
0w
0x
0y
0z
1
10
100
1000
10000
1001
1002
1005
1006
1007
101
1010
1012
1016
1017
1018
1019
102
1020
1021
1024
1025
103
1030
1036
1037
1038
104
1040
1041
1045
1048
105
1050
1055
106
1060
1063
1066
1067
107
1070
1072
1073
1075
108
1080
1086
109
1090
1093
1097
1098
1099
11
110
1100
1103
111
1110
1118
112
1120
1128
113
1130
1136
114
1140
1149
115
1150
1158
116
1160
1163
117
1170
1177
118
1180
1186
119
1190
12
120
1200
1203
1204
1206
1207
121
1210
1215
1219
122
1220
1221
123
1230
124
1240
1245
125
1250
1258
126
1260
1264
127
1270
128
1280
129
1290
13
130
1300
131
1310
1311
1314
132
1320
1325
1326
133
1330
1333
1334
1335
1336
1337
134
1340
1341
1342
1344
1346
1347
1348
135
1350
1351
1356
1357
1358
136
1360
1362
1365
1366
1368
1369
137
1370
1371
1372
1373
1374
1375
1376
1377
1378
138
1380
1381
1382
1383
1384
1385
1386
1387
1388
1389
139
1390
1391
1392
1393
1395
1399
14
140
1400
1402
141
1410
1417
142
1420
143
1430
1433
1436
144
1440
1449
145
1450
146
1460
1463
1469
147
1470
1471
148
1480
149
1490
1492
1493
1494
15
150
1500
1501
1502
1506
151
1510
1512
1515
1517
1519
152
1520
1524
1525
1526
1527
153
1530
1535
154
1540
1542
155
1550
1553
1554
1556
156
1560
1561
1565
157
1570
1571
1573
158
1580
1584
1585
1588
159
1590
1598
1599
16
160
1600
1603
1605
161
1610
1613
1616
162
1620
163
1630
164
1640
1642
1645
1646
1647
165
1650
1658
166
1660
1667
1669
167
1670
1676
1677
168
1680
1682
1683
169
1690
17
170
1700
1703
1707
1708
171
1710
1711
1712
1713
1719
172
1720
1722
1723
1724
1725
1727
173
1730
1731
1732
1734
1736
1737
1739
174
1740
1741
1743
1745
1747
1748
175
1750
1752
1753
1754
1755
1756
1757
1758
1759
176
1760
1762
1763
1764
1765
1767
1768
177
1770
1771
1772
1773
1774
1775
1776
1777
1778
1779
178
1780
1781
1782
1783
1784
1785
1786
1787
1788
1789
179
1790
1791
1792
1793
1794
1795
1796
1797
1798
1799
18
180
1800
1801
1802
1803
1804
1805
1806
1807
1808
1809
181
1810
1811
1812
1813
1814
1815
1816
1817
1818
1819
182
1820
1821
1822
1823
1824
1825
1826
1827
1828
1829
183
1830
1831
1832
1833
1834
1835
1836
1837
1838
1839
184
1840
1841
1842
1843
1844
1845
1846
1847
1848
1849
185
1850
1851
1852
1853
1854
1855
1856
1857
1858
1859
186
1860
1861
1862
1863
1864
1865
1866
1867
1868
1869
187
1870
1871
1872
1873
1874
1875
1876
1877
1878
1879
188
1880
1881
1882
1883
1884
1885
1886
1887
1888
1889
189
1890
1891
1892
1893
1894
1895
1896
1897
1898
1899
19
190
1900
1901
1902
1903
1904
1905
1906
1907
1908
1909
191
1910
1911
1912
1913
1914
1915
1916
1917
1918
1919
192
1920
1921
1922
1923
1924
1925
1926
1927
1928
1929
193
1930
1931
1932
1933
1934
1935
1936
1937
1938
1939
194
1940
1941
1942
1943
1944
1945
1946
1947
1948
1949
195
1950
1951
1952
1953
1954
1955
1956
1957
1958
1959
196
1960
1961
1962
1963
1964
1965
1966
1967
1968
1969
197
1970
1971
1972
1973
1974
1975
1976
1977
1978
1979
198
1980
1981
198182
1982
1983
1984
1985
1986
1987
1988
198860030431
1989
199
1990
1991
1992
1993
1994
1995
1996
1997
1998
1999
1a
1b
1c
1d
1e
1f
1g
1h
1i
1j
1k
1l
1m
1n
1o
1p
1q
1r
1s
1t
1u
1v
1w
1x
1y
1z
2
20
200
2000
2001
2002
2003
2004
2005
2006
2007
2008
2009
201
2010
2011
2012
2013
2014
2015
2016
2017
2018
2019
202
2020
2021
2022
2025
203
2030
204
205
2050
206
2060
207
2070
208
209
21
210
2100
211
212
213
2134
214
215
2150
216
217
218
219
22
220
2200
221
222
223
224
225
226
227
228
229
23
230
2300
231
232
233
234
235
236
237
238
239
24
240
2400
241
242
243
2438
2439
244
245
246
2464
247
248
249
25
250
2500
251
252
253
254
255
256
257
258
259
26
260
2600
261
262
263
264
265
266
267
268
269
27
270
2700
271
272
273
274
2743
275
276
277
278
279
28
280
2800
281
282
283
284
285
286
287
288
289
29
290
291
292
293
294
295
296
297
298
299
2a
2b
2c
2d
2e
2f
2g
2h
2i
2j
2k
2l
2m
2n
2o
2p
2q
2r
2s
2t
2u
2v
2w
2x
2y
2z
3
30
300
3000
301
302
303
304
3048
305
3050
306
307
308
309
31
310
3100
311
312
313
314
315
316
317
318
319
32
320
3200
321
322
323
324
325
326
327
328
329
33
330
3300
331
332
333
334
335
336
337
338
339
34
340
3400
341
342
343
344
345
346
347
348
349
35
350
3500
351
352
353
354
355
356
357
358
359
36
360
3600
361
362
363
364
365
366
367
368
369
37
370
3700
371
372
373
374
375
376
377
378
379
38
380
381
382
383
384
385
386
387
388
389
39
390
391
392
393
394
395
396
397
398
399
3a
3b
3c
3d
3e
3f
3g
3h
3i
3j
3k
3l
3m
3n
3o
3p
3q
3r
3s
3t
3u
3v
3w
3x
3y
3z
4
40
400
4000
401
402
403
404
405
406
407
408
409
41
410
411
412
413
414
415
416
417
418
419
42
420
421
422
423
424
425
426
427
428
429
43
430
431
432
433
435
436
437
438
44
440
441
442
443
4438
444
446
447
448
449
45
450
4500
451
452
454
455
456
457
458
459
46
460
461
462
463
464
465
468
469
47
470
471
472
473
474
475
476
477
478
479
48
480
481
482
483
484
485
486
487
488
489
49
490
491
492
493
495
496
497
498
499
4a
4b
4c
4d
4e
4f
4g
4h
4i
4j
4k
4l
4m
4n
4o
4p
4q
4r
4s
4t
4u
4v
4w
4x
4y
4z
5
50
500
5000
501
502
503
504
505
506
507
508
509
51
510
511
512
513
514
515
516
517
518
519
52
520
521
522
523
524
525
526
527
528
529
53
530
531
532
533
534
535
536
537
538
539
54
540
541
542
543
544
545
546
547
548
549
55
550
551
552
553
554
555
556
558
559
56
560
561
563
564
565
567
568
57
570
571
572
573
574
575
576
577
578
579
58
580
581
582
584
585
586
587
588
59
590
591
592
594
595
596
597
598
599
5a
5b
5c
5d
5e
5f
5g
5h
5i
5j
5k
5l
5m
5n
5o
5p
5q
5r
5s
5t
5u
5v
5w
5x
5y
5z
6
60
600
6000
601
602
603
6036
604
605
606
608
609
61
610
611
612
613
614
6143
615
616
618
619
62
620
622
623
624
624016
625
626
628
629
63
630
631
632
633
634
635
638
639
64
640
642
643
644
645
648
649
65
650
651
652
65241844001
654
655
656
657
658
66
660
661
662
664
665
666
667
668
6685
67
670
671
672
675
676
678
68
680
682
683
685
686
688
69
690
691
694
696
699
6a
6b
6c
6d
6e
6f
6g
6h
6i
6j
6k
6l
6m
6n
6o
6p
6q
6r
6s
6t
6u
6v
6w
6x
6y
6z
7
70
700
7000
701
702
704
705
71
710
711
712
713
714
715
716
72
720
721
722
725
728
73
730
731
732
736
737
738
739
74
740
741
747
748
749
75
750
751
752
753
754
755
756
757
76
760
761
762
76298
763
765
766
767
768
77
770
775
776
777
78
780
781
782
783
785
786
787
79
790
792
7929
797
798
799
7a
7b
7c
7d
7e
7f
7g
7h
7i
7j
7k
7l
7m
7n
7o
7p
7q
7r
7s
7t
7u
7v
7w
7x
7y
7z
8
80
800
8000
801
802
804
805
808
809
81
810
811
812
813
814
815
817
818
819
82
820
821
822
823
824
825
827
829
83
830
831
833
835
836
839
84
840
841
842
844
845
847
848
8493
85
850
851
85120
852
85270
853
855
86
860
861
862
863
864
866
867
869
87
870
872
873
874
875
878
879
88
880
882
884
884446
888
89
890
891
892
893
894
895
896
898
899
8a
8b
8c
8d
8e
8f
8g
8h
8i
8j
8k
8l
8m
8n
8o
8p
8q
8r
8s
8t
8u
8v
8w
8x
8y
8z
9
90
900
901
902
903
904
907
908
91
910
911
912
913
914
915
918
919
92
920
921
922
923
925
927
9272
929
93
930
931
932
933
934
935
938
939
94
940
941
942
9422
943
944
945
95
950
951
952
953
954
956
958
96
960
961
963
964
965
966
967
969
97
970
971
972
973
974
975
976
977
977378
978
98
980
981
982
983
984
98443
985
986
987
988
99
990
991
992
993
994
997
998
999
99947
99975
9a
9b
9c
9d
9e
9f
9g
9h
9i
9j
9k
9l
9m
9n
9o
9p
9q
9r
9s
9t
9u
9v
9w
9x
9y
9z
:
;
<
=
>
?
@
[
[CLS]
[MASK]
[PAD]
[SEP]
[UNK]
\
]
^
_
`
a
a0
a1
a2
a3
a4
a5
a6
a7
a8
a9
aa
aaf
ab
abb
abbas
abc
abdul
abdullah
abel
about
abraham
abs
abu
ac
academia
academic
academy
access
accessed
according
ace
acevedo
acosta
act
action
actor
actress
acuna
ad
adam
adams
additional
admin
adolfo
adresa
adrian
adriano
advanced
adventure
adventures
ae
aerial
aermacchi
aero
aerodrome
aeromarine
aeronautica
aeronautical
aeronautique
aeronca
aeroplane
aeroport
aeroporto
aeropuerto
aeros
aerospace
aerovironment
af
afc
affairs
afghan
afghanistan
afonso
africa
african
after
ag
again
against
age
aged
agencia
agency
ago
aguiar
aguilar
aguilera
aguirre
agusta
agustin
ah
ahmad
ahmed
ai
aichi
aid
air
airborne
airco
aircraft
airdrome
aires
airfield
airline
airlines
airpark
airplane
airport
airship
airspeed
airstrip
airways
aishwarya
aitor
aj
ajay
ak
akaflieg
akl
akti
al
alajuela
alan
albania
albatros
albert
alberto
album
aldo
aleague
alegre
aleikum
alejandro
aleksandr
aleksei
aleph
alessandro
alex
alexa
alexander
alexandre
alexis
alfaro
alfonso
alfred
alfredo
ali
alibaba
alicante
alkindi
all
allah
allan
allen
alliance
allocine
almeida
alonso
alpha
alphabet
also
alt
alta
alvarado
alvarez
alvaro
alves
alvi
alyga
am
amar
amazon
ambedkar
ambrosini
america
american
amerika
amir
amo
among
amor
amp
an
ana
analysis
ancient
and
andalusia
ander
anderson
andorra
andrade
andre
andrei
andres
andrew
andrey
android
andy
angel
angeles
angelo
angola
angulo
anibal
animation
anime
ankara
ann
anna
anne
announces
annual
anonsy
another
anthem
anthony
anti
antoinette
anton
antoni
antonio
any
ao
ap
aparecido
apg
api
app
appendix
appl
apple
application
aprelya
april
aq
aquino
ar
arab
arabia
arabic
arado
araujo
arce
arcgis
archive
archived
archives
arctium
are
area
areas
argentina
argentine
argument
argus
arias
ariel
arif
armando
armed
armenia
army
arnold
arrow
arroyo
arsenal
art
artestaran
arthur
article
articles
artist
artists
arts
artur
arturo
artyom
arven
arxiv
as
asia
asian
asiaplustj
ask
asp
aspx
assemblee
assis
associated
association
astronomy
asuncion
at
ata
atlantic
atlas
atletico
atomic
attack
atv
au
audio
august
augusto
aurelio
auster
austin
australia
australian
austria
austrian
aut
author
authorities
authority
authors
av
avai
available
avalos
avellaneda
avesta
avia
aviatik
aviation
avila
aviles
avions
avro
aw
award
awards
away
ax
ay
ayala
ayushmann
az
azerbaijan
azevedo
azərbaycan
b
b0
b1
b2
b3
b4
b5
b6
b7
b8
b9
ba
baba
babelio
baby
bachchan
back
bad
baez
bafta
bahia
baker
baku
balkan
ball
ban
band
bandar
bang
bangladesh
bank
bankı
bar
barakaldo
barbara
barbosa
barcelona
barra
barranquilla
barrera
barreto
barrios
barros
base
based
basic
basingstoke
bat
batista
battle
bavarian
bay
bb
bbc
bc
bd
be
beach
beagle
becker
become
becomes
bede
bee
beechcraft
been
before
being
bel
belem
belgium
belize
bell
bella
bellanca
belle
belo
ben
benin
benitez
benito
benjamin
bensen
beriev
berkeley
berkshire
berlin
berliner
bermudez
bernal
bernard
bernardo
best
beta
between
bezirke
bf
bg
bh
bhatt
bi
bibcode
bibliographisches
bibliotheque
bieber
big
bilbao
bill
billboard
billion
bin
bio
biography
biplane
bir
bird
birth
birthday
bitcoin
biyografi
bj
bk
bl
black
blackburn
blanco
bleriot
blimp
bloch
blog
blogspot
blohm
bloomberg
blue
bm
bn
bnf
bo
boa
board
boca
body
boeing
bogota
boletin
bolivar
bolivia
bollywood
bonilla
bonomi
book
books
bor
border
borges
boris
borja
born
borough
boston
bosworth
both
boulton
box
boxofficemojo
boy
boys
bp
bq
br
branco
brandenburg
brasilia
bravo
brayan
brazil
break
breda
breeze
brian
brief
brill
brin
britain
britannica
british
brito
broadcasting
broadway
brockhaus
bros
brothers
brown
brozovic
bruno
bryan
bs
bt
bu
bueno
buenos
buffett
building
bundeslander
burak
bureau
burgos
burkina
burundi
bus
business
but
buxus
bv
bw
bx
by
bz
c
c0
c1
c2
c3
c4
c5
c6
c7
c8
c9
ca
caballero
cable
cabral
cabrera
cac
caceres
cadet
cadiz
caicedo
cairo
calderon
calend
cali
california
call
callao
calvo
camacho
cambridge
cameron
camilo
camp
campbell
campinas
campo
campos
cams
can
canada
canadair
canadian
canberra
cano
cant
canton
cao
cap
capital
capitan
caproni
captain
car
caracas
caracol
cardoso
cardozo
cargo
carl
carlo
carlos
carmona
carrasco
carrillo
cartagena
cartoon
carvalho
casa
case
cases
casic
cast
castilian
castillo
castro
cat
catalana
catarina
category
cauca
caudron
cb
cbs
cc
ccl
cctv
cd
ce
ceiba
celebrity
census
censusindia
center
central
centrasia
centre
centurion
century
ceroacero
cesar
cf
cg
cgi
ch
change
channel
chapter
charles
chart
chavez
check
chelsea
chem
chemical
chemistry
chi
chicago
chief
children
chile
chilean
china
chinese
chisholm
choice
chris
christian
christmas
christopher
chronicle
ci
cia
cierva
cine
cinema
cirrus
cite
cities
city
citypopulation
ciudad
civil
civilian
cj
ck
cl
class
classic
classical
claude
claudio
clayton
climate
clinton
club
clube
clubeen
cm
cn
cnn
co
coast
cochabamba
code
coelho
cola
cold
collection
college
colombia
colon
color
columbia
com
combat
comedy
comics
command
commander
commission
committee
common
commons
commonwealth
community
comp
company
comparebrokers
competition
complete
composition
compounds
computer
comune
comuni
con
conceicao
concepcion
conde
condor
conference
conflict
congress
consolidated
constitution
contae
contemporary
content
contreras
control
convair
conversion
copy
cordeiro
cordero
cordoba
cornell
coronavirus
coronel
corp
corporation
corps
correa
corrientes
cortes
coruna
cos
cosmos
costa
cotton
could
council
counties
countries
country
county
court
cover
covid
cp
cq
cr
crc
creation
creek
crisis
cristian
cristiano
cristobal
cross
cruz
crystal
cs
csfd
ct
cu
cub
cuba
cuesta
cultural
culture
cunha
cup
curitiba
current
curtiss
cv
cw
cx
cy
cyclowiki
cz
czechoslovakia
d
d0
d1
d2
d3
d4
d5
d6
d7
d8
d9
da
daily
dallas
dam
damian
dan
dani
daniel
danilo
danna
danny
dans
dar
dario
dark
darmstadt
dart
darwin
das
data
database
datasets
date
dates
dauersiedlungsraum
david
davis
dawn
day
days
dayton
db
dc
dd
de
dead
deadline
deal
death
debut
december
declension
defence
defense
defined
definition
del
delage
delgado
delhi
dell
della
delta
democracy
democratic
demoscope
den
denis
deniz
department
der
des
design
detail
details
deutsche
development
devgn
dewoitine
df
dfs
dg
dh
di
dia
diamond
dias
diaz
dictionary
dictionnaire
did
die
diego
dies
different
digital
digitalarchivioricordi
dil
din
diogo
direct
director
directory
discogs
discovery
disney
display
displaystyle
district
division
dj
dk
dl
dm
dmitri
dmitry
dmoz
dn
do
doc
documentation
documents
does
dog
doi
dokumentum
domestic
domingo
dominguez
dominican
don
donald
door
dornier
dos
double
douglas
down
dp
dq
dr
drafs
dragon
drama
dream
dreamworks
ds
dt
dta
du
dua
duarte
due
duran
during
durres
dushanbe
dv
dvd
dw
dx
dy
dynamics
dz
e
e0
e1
e2
e3
e4
e5
e6
e7
e8
e9
ea
eagle
early
earth
east
eastern
eb
ec
echo
eclipse
economic
economist
economy
ecuador
ed
eden
eder
edgar
edgardo
edison
edition
editions
edson
edu
eduard
eduardo
education
edward
edwin
ee
ef
efs
eg
egypt
eh
ei
ein
einwohnerzahl
ej
ek
el
elbasan
elbibhgu
elected
election
elections
electric
element
elements
elias
elite
elizabeth
elon
elsevier
elvis
em
email
emanuel
emerson
emiliano
emilio
emmanuel
empire
en
enciclopedia
enciklopedija
encyclopaedia
encyclopedia
encyclopædia
end
energy
eng
engine
engineering
engines
england
english
enpr
enrique
enterprise
entertainment
entre
enzo
eo
ep
episode
epoca
eq
equipa
er
eric
erick
ernesto
error
es
escobar
escudero
esmeraldas
espanol
espinoza
espirito
esporte
essential
est
establishment
estadistica
estado
este
esteban
estimated
estimates
estonia
estrada
et
ethereum
ethnic
ethnologue
eu
eugenio
euronews
europe
european
ev
eva
event
ever
everton
every
evolution
ew
ex
example
excel
exchange
exclusive
executive
exist
expand
experimental
explore
explorer
express
externalid
ey
ez
ezequiel
f
f0
f1
f2
f3
f4
f5
f6
f7
f8
f9
fa
fabian
fabiano
fabio
fabricio
facebook
fact
factbook
factory
facts
facundo
fair
fairchild
fairey
falcon
falconar
fall
falls
false
family
famous
fan
far
faraj
farias
farman
farrokh
fasc
fast
father
fb
fba
fc
fd
fe
feb
february
federal
federation
federico
feet
felipe
felix
female
fembio
fernandes
fernandez
fernando
ferreira
festival
ff
fg
fh
fi
fiat
fiction
fidel
field
fier
fieseler
fifa
figueroa
figures
file
files
filho
film
filmaffinity
filmalkotasok
filme
filmek
filmfare
filmportal
films
final
finance
financial
find
fine
fire
first
fisher
five
fj
fk
fl
flag
flash
flavio
fleet
fletcher
flight
flores
florida
flow
flughafen
flugzeugbau
flugzeugwerke
fly
flyer
flying
flyvebaatfabrikk
fm
fma
fn
fo
focke
fokker
fonseca
food
football
footballer
for
forbes
force
forces
ford
foreign
form
format
formatdate
former
fort
fortaleza
fortune
forum
found
foundation
founder
four
fox
fp
fq
fr
frac
fran
franca
francaise
france
francis
francisco
franco
francois
frank
franklin
frauendatenbank
free
freebase
freedom
freitas
french
fresh
friedrich
friedrichshafen
friendship
from
front
frontera
frontier
fs
ft
fu
fuentes
full
func
function
fund
fur
futbol
futebol
future
fv
fw
fx
fy
fz
g
g0
g1
g2
g3
g4
g5
g6
g7
g8
g9
ga
gabriel
gallego
gallery
galvez
game
games
gandhi
garcia
garden
garrido
gasteiz
gaston
gate
gates
gazeta
gazetteer
gb
gc
gd
ge
gebietsstand
gecti
geldi
gemeinde
gemeinden
gen
geneastar
general
generation
gennaio
geo
geographic
geographical
geography
geonames
george
georges
georgia
georgian
gerais
gerard
gerardo
german
germany
gerson
geschichte
get
gets
gf
gg
gh
gi
giant
gijon
gil
gilberto
gimenez
giovanni
girl
girls
girona
gitashenasi
gj
gk
gl
glass
gleif
glider
global
globe
gloster
gm
gmbh
gmm
gmmtv
gn
gnd
gnome
gnu
go
god
goda
godoy
goes
goiania
gold
golden
gomes
gomez
goncalves
gonzalez
gonzalo
good
goodyear
google
gordon
gorkəmli
gosspravka
got
gotha
gouv
gouvernement
gov
government
governorate
gp
gq
gr
grahame
grameen
grammy
gran
grand
grande
grant
great
greater
greatest
greece
greek
green
greenwood
gregorio
gremio
grey
grob
grosso
group
groups
grove
growth
grup
gs
gsi
gt
gu
guadalajara
guarani
guard
guardian
guatemala
guayaquil
guerra
guerrero
guevara
guide
guilherme
guillermo
guimaraes
gulf
gund
gustavo
gutierrez
guzel
guzman
gv
gw
gx
gy
gz
h
h0
h1
h2
h3
h4
h5
h6
h7
h8
h9
ha
haber
haberleri
habib
had
hai
hall
halske
hamilton
hand
handbook
handley
hangeul
hans
hansa
happy
haqqında
harbin
hard
harold
harris
harrison
harvard
has
hathaway
have
havilland
having
hawk
hawking
hayat
hazard
hb
hc
hd
he
head
headword
health
heart
heavy
hector
heinkel
helicopter
helicopters
heliport
hello
help
helsingborg
henri
henrique
henriquez
henry
her
herald
here
heredia
heritage
hernan
hernandez
hero
herrera
herrero
hertage
hf
hg
hh
hi
hidalgo
high
hill
hiller
him
hindi
hindu
hindustan
hirth
his
hispano
histoire
historia
historical
history
hit
hits
hj
hk
hl
hm
hn
ho
holland
hollywood
home
homebuilt
homepage
homo
honduras
hope
horacio
horizonte
hospital
hot
hotel
houndmills
house
how
howard
hp
hq
hr
href
hrithik
hrsg
hrvatska
hs
ht
htm
html
http
https
hu
hue
hughes
hugo
hum
human
humberto
hungama
hungary
hurriyet
hurtado
hv
hw
hx
hy
hz
i
i0
i1
i2
i3
i4
i5
i6
i7
i8
i9
ia
ian
iana
ib
ibarra
ibis
ibm
ibn
ic
ica
ice
icon
id
idea
ie
if
ig
iglesias
ignacio
igor
ih
ii
iii
ij
ik
ikarus
il
ile
ilya
im
image
images
imam
imdb
impact
imperial
in
inaki
inc
including
independent
index
india
indian
indiana
indiatimes
indo
indonesia
industrial
industries
industry
info
infobox
information
inigo
innamespace
inorganic
input
inside
insider
instagram
institut
institute
instituto
int
intangible
intelligence
interfax
internacional
international
internationale
internet
interview
into
introduction
invalid
investor
io
ioc
ion
iowa
ip
ipa
ipatinga
iphone
ipv
iq
ir
iran
iranian
iranica
iranicaonline
iraq
ireland
irib
irish
is
isaac
isbn
isidro
islam
islamic
islamist
island
islands
ismael
iso
israel
iss
issn
issue
istanbul
istat
istorii
it
italia
italian
italiana
italiane
italy
itau
item
itemid
its
iu
iv
ivan
ivanov
ivchenko
iw
ix
iy
iz
j
j0
j1
j2
j3
j4
j5
j6
j7
j8
j9
ja
jabiru
jack
jackson
jacques
jaime
jair
jairo
jalisco
jam
james
jan
janeiro
january
japan
japanese
jara
jason
java
javi
javier
jb
jc
jd
je
jean
jefferson
jerez
jerusalem
jesus
jet
jewish
jf
jg
jh
jhon
ji
jim
jimenez
jimmy
jing
jj
jk
jl
jm
jn
jo
joan
joao
joaquin
joel
johan
john
johnny
johnson
jokowi
jon
jonathan
jones
jordan
jordi
jorge
jose
joseph
josue
journal
journey
jp
jpg
jpl
jq
jr
js
jt
ju
juan
judo
julian
julio
july
jumhuriyat
jun
june
junior
just
justice
justin
justo
jv
jw
jx
jy
jz
jɨ
k
k0
k1
k2
k3
k4
k5
k6
k7
k8
k9
ka
kabul
kai
kajol
kaman
kanal
kapoor
kara
karate
kardashian
karl
kavaje
kaveh
kawanishi
kawasaki
kazan
kb
kc
kd
ke
kevin
key
keystone
kf
kg
kh
khan
khovar
khurrana
ki
kids
killed
kim
kimdir
kindle
kindred
king
kingdom
kinner
kiribati
kiss
kj
kk
kl
klimov
km
kmt
kn
know
known
ko
kokuki
kolb
kong
konstantin
koolhoven
korce
korea
korean
kp
kq
kr
kremlin
ks
kt
ku
kuch
kuznetsov
kv
kw
kx
ky
kyi
kylie
kz
l
l0
l1
l2
l3
l4
l5
l6
l7
l8
l9
la
lac
ladan
lady
lai
lake
lakes
lancair
land
landing
lang
language
languages
lanus
laos
lapangan
lara
largest
larry
las
last
late
latecoere
later
latest
latin
latvijas
launch
lavochkin
law
lawrence
lb
lc
ld
le
leader
leaders
league
leandro
learning
least
lee
left
legal
legend
leiden
leite
leksikon
lemos
leningrad
lenta
lentokentta
leo
leon
leonardo
leonel
les
lesotho
let
letov
letter
letters
levy
lewis
lexikon
lf
lg
lh
lhasa
li
lib
libertad
liberty
library
libris
libya
libyan
lide
lietuvos
lieutenant
life
light
like
lima
limited
limon
lincoln
line
link
links
linux
lion
liore
lipa
list
literary
literature
lito
little
live
living
lj
lk
ll
llc
lm
ln
lo
local
loening
login
logrono
loire
london
lonely
long
look
lopes
lopez
lorenzo
los
lost
lotniczy
louis
love
lozano
lp
lq
lr
ls
lt
ltd
lu
lua
lucas
luciano
lufthavn
luftstreitkrafte
luftwaffe
lugo
luis
luiz
luna
lundy
luque
luz
lv
lw
lx
ly
lycoming
lyga
lz
lzmk
m
m0
m1
m2
m3
m4
m5
m6
m7
m8
m9
ma
mac
macchi
maceio
machado
machine
maciel
made
madrid
magazine
magic
magnetic
mai
maia
mail
main
majmilli
major
majorca
make
makes
making
maksim
mal
malaga
maldonado
mali
man
management
manchester
manga
mann
manoel
manuel
manufacturing
many
map
maps
mar
maranhao
marc
marcelo
march
marchetti
marcio
marco
marcos
mare
maria
mariano
marie
marin
marine
marinens
mario
mark
market
markets
marlon
marques
marquez
mars
marta
marti
martin
martinez
martins
marvel
marvin
marx
mary
mas
masjid
mass
master
mata
match
mateo
mateus
matheus
mathias
matias
mato
matos
matthew
mauricio
mauro
max
maximiliano
may
mayor
mb
mc
md
me
med
medellin
media
medical
medicine
medina
meet
megan
mejia
melo
member
members
memorial
men
mena
mendes
mendez
mendoza
menezes
mercado
mercedes
merida
merino
mesa
meta
metacritic
metal
metropolitan
mexican
mexico
meza
mf
mg
mh
mi
mia
michael
michel
michigan
microsoft
mid
middle
miguel
mikel
mikhail
mil
miles
military
miller
million
milliyet
milton
min
mina
minas
minh
mini
minister
ministere
ministre
ministry
minor
miranda
mirror
mise
misiones
miss
mission
mit
mitchell
miyagi
mj
mk
ml
mm
mn
mo
mobile
model
modern
module
mohamed
mohammad
mohammed
moises
mojo
molina
moma
monde
money
monoplane
monte
monteiro
montero
montes
montevideo
montoya
montreal
mooney
mora
moraes
morais
morales
morane
more
moreira
moreno
morgan
morning
morocco
moron
mort
moscow
moskva
mosque
mosquera
most
moth
mother
motor
motors
mouette
mountain
moura
movie
movies
moya
mp
mq
mr
ms
msk
mt
mtv
mu
muhammad
multiple
mumbai
munchen
mundo
municipal
muniz
munoz
munzinger
murat
murcia
murillo
murphy
murray
museo
museu
museum
music
musk
muslim
muslims
must
mustang
mv
mw
mx
my
myanmar
mysql
mz
məlumat
n
n0
n1
n2
n3
n4
n5
n6
n7
n8
n9
na
nach
nacional
nakajima
name
named
names
namespace
naomi
napier
narod
nasa
nascimento
nasco
nasdaq
natco
natioal
nation
national
nationale
nationalencyklopedin
nations
nato
natural
nature
naval
navarro
navas
navy
nb
nbc
nbsp
nc
nd
ndt
ndtv
ne
near
neighbourhood
nelson
nepal
nery
nestor
net
netflix
neto
network
networks
never
neves
new
news
newsru
next
nf
ng
nh
ni
niai
nicaragua
nicholas
nick
nickelodeon
nicolas
nieuport
nigeria
night
nikolai
nj
nk
nkp
nl
nm
nmhh
nn
no
nobel
nobelprize
node
noi
noinclude
nominalized
nominations
non
norman
norte
north
northern
nos
not
notations
note
notes
noun
nouveau
nov
nova
november
novo
now
np
nq
nr
ns
nt
ntv
nu
nuclear
nuclei
nueva
nuevo
number
numbers
nunes
nunez
nv
nw
nx
ny
nyc
nyilvantartasa
nytimes
nz
o
o0
o1
o2
o3
o4
o5
o6
o7
o8
o9
oa
ob
obama
object
oblast
oc
ocean
ochoa
oclc
october
od
oe
of
off
office
official
oficial
often
og
oh
ohio
oi
oil
oj
ojeda
ok
ol
ola
old
oldid
oldu
oleg
oli
oliveira
olivera
olivier
om
omar
on
once
one
oneplus
online
only
ons
ontario
oo
op
open
opera
operation
opposition
option
oq
or
orden
order
oregon
org
organization
origin
original
orlando
oro
ortega
ortiz
oryza
os
oscar
osorio
osprey
ostanhai
osvaldo
oswaldo
ot
other
others
otto
ottobre
ou
oup
our
out
ov
over
oviedo
ow
own
owners
ox
oxford
oy
oz
ozodagon
ozodi
p
p0
p1
p2
p3
p4
p5
p6
p7
p8
p9
pa
pablo
pac
pacheco
pacific
package
padilla
paez
page
pagename
pages
pagina
pais
pakistan
palacios
paliparan
palma
palmas
pamplona
pan
panama
paolo
paper
par
para
paraguay
paraiba
parana
pardo
paredes
paris
park
parlament
parliament
parnall
parra
part
partido
party
pas
pascual
pasion
passes
password
past
patricio
patrick
paul
paula
paulo
pavel
paypal
pays
paysandu
paz
pb
pc
pca
pd
pdf
pe
peace
pedro
peerage
pegasus
pena
people
peoplepopulationandcommunity
peoples
per
peralta
percival
pereira
pereyra
perez
performance
periodic
persia
persian
person
personal
personen
peru
pessoa
peter
peterburg
pf
pfalz
pg
ph
pharma
philip
philippines
philol
philosophy
phoenix
phone
phonetic
photos
php
physical
physics
pi
piaggio
piasecki
picture
pictures
pierre
pilatus
pilot
pineda
pinheiro
pinto
pinyin
pioneer
piper
pipistrel
pires
pitcairn
pitfi
pizza
pj
pk
pl
place
plan
planet
plant
plata
play
playboy
player
players
plural
plus
pm
pmid
pn
png
po
pogody
point
pol
poland
police
policy
polikarpov
polish
political
politics
politischen
ponce
pop
popolazione
popular
population
populationandmigration
populationestimates
populationestimatesforukenglandandwalesscotlandandnorthernireland
por
port
portal
portillo
porto
portrait
portugal
post
potez
pour
power
pp
pq
pr
praga
praha
pratt
pref
prefix
premier
present
presidencia
president
presidente
presidential
presidents
preslib
press
preto
prezident
prieto
prime
prince
princeton
private
prize
pro
production
products
professional
professor
profile
prognoz
program
programming
progress
project
projects
proleksis
properties
protests
province
provinces
prudente
ps
pt
pu
public
publications
published
publishers
publishing
pubmed
puerto
punta
pure
putin
pv
pw
pws
px
py
pyaar
pz
pzl
q
q0
q1
q2
q3
q4
q5
q6
q7
q8
q9
qa
qadınlar
qatar
qb
qc
qd
qe
qf
qg
qh
qi
qj
qk
ql
qm
qn
qo
qp
qq
qr
qs
qt
qu
que
queen
quesada
quilmes
quinonez
quintana
quintero
quito
quot
qv
qw
qx
qy
qz
r
r0
r1
r2
r3
r4
r5
r6
r7
r8
r9
ra
race
racer
radag
radio
raf
rafael
ragwing
rai
rainbow
raj
raja
rajput
ram
ramirez
ramiro
ramon
ramos
rancagua
ranch
rangel
rank
ranking
rankings
rans
raphael
raton
raul
raven
ray
rayonu
rb
rc
rd
re
read
ready
reagan
real
recent
recife
record
records
red
rediff
redlink
ref
reference
references
regia
region
regional
regioni
regions
register
regnum
reina
reinaldo
reis
relations
release
releases
religion
religions
religious
renan
renato
rene
report
reporter
reports
republic
republica
republican
republika
republique
res
research
residente
resources
results
retrieved
return
reuters
reveals
review
reviews
revolution
rey
reyes
rf
rg
rh
rhone
ri
ribeirao
ribeiro
rica
ricardo
richard
rico
right
rights
rio
rios
rise
rivas
river
rivera
rivero
rivers
rj
rk
rkdartists
rl
rm
rn
ro
road
robert
roberto
robin
robinson
robles
robson
rocha
rock
rocket
rodolfo
rodrigo
rodrigues
rodriguez
roe
roger
rogerio
roglo
rojas
roland
rolando
role
rom
roma
roman
romania
romanizations
romero
romulo
ronald
ronaldo
roosevelt
roque
rosa
rosario
ross
rotax
rotc
rotten
round
routledge
roux
row
roy
royal
rp
rq
rr
rs
rsssf
rt
ru
rubber
ruben
rubio
ruiz
rules
run
rus
russia
russian
ruzgor
rv
rw
rwd
rx
ry
ryan
rz
s
s0
s1
s2
s3
s4
s5
s6
s7
s8
s9
sa
saavedra
sabadell
saccharum
sad
sai
said
sailplanes
saint
sal
salamanca
salar
salas
salazar
sales
salinas
salmon
salmson
salom
salsola
salto
salvador
sam
same
samsung
samuel
san
sanchez
sandoval
sandro
sankt
sant
santa
santamaria
santana
santander
santiago
santo
santos
sao
sar
sara
saro
sasanian
saudi
saul
saulnier
saunders
savoia
saw
say
says
sb
sc
scene
scheibe
schleicher
schneider
scholar
school
schuckert
schweizer
science
sciences
scientific
scott
scout
screen
script
sd
se
sea
seaplane
search
season
sebastian
sec
second
secret
security
see
segovia
segundo
segura
sen
september
sergei
sergey
sergio
series
serra
serrano
server
service
services
set
seven
seville
sf
sfr
sfsr
sg
sgs
sh
shah
sharma
she
shenyang
shi
shkoder
short
show
shows
shtml
shvetsov
si
siai
side
siemens
sierra
sil
silva
silveira
silver
silvio
simon
simonini
sin
since
singapore
singh
single
sio
sir
sister
site
sites
six
size
sj
sk
sky
sl
slingsby
sm
small
smith
sn
sncase
snecma
so
soares
sobre
sobytii
soccer
soccerway
social
societe
society
software
soko
sokol
sol
solar
solis
solo
some
son
song
songs
sons
sony
soria
sosa
soto
sound
soundtrack
source
sousa
south
southern
souza
soviet
sp
spa
space
spacex
spad
spada
spain
span
spanish
special
speculative
speech
speed
spirit
sport
sports
spring
springer
springs
sputnik
sputniknews
sq
sr
ss
ssr
st
stanbul
standard
stanford
stanley
star
stars
start
stat
state
states
station
statistical
statistics
statistik
stats
statues
status
stephen
steven
still
stock
stockholm
stone
stop
store
story
str
street
string
strip
structure
stub
studies
studio
studios
study
stuttgart
style
su
suarez
subject
subst
success
such
sud
sudan
suiza
sul
sula
sultan
sum
summer
sun
super
superficie
superheavy
sur
survey
susceptibility
sushant
suu
sv
svenska
svg
sw
sweden
swedish
swiss
switch
switzerland
sx
sy
sydney
system
systems
sz
t
t0
t1
t2
t3
t4
t5
t6
t7
t8
t9
ta
table
tablesl
tactical
tadzhikistan
tag
tajik
tajikistan
tajiks
take
takes
talent
taliban
talks
tan
tanzania
tapia
tau
tavcifnomaiomuzgoron
tavsifnomaiomuzgoron
taxobox
taylor
tb
tc
td
te
tea
team
tech
technologies
technology
teen
tegucigalpa
tehran
teixeira
telegram
telegraph
telemundo
television
template
temple
temps
ten
tenerife
terbang
terjesztett
term
terms
terra
tesla
test
texas
text
tf
tg
th
thai
than
that
the
theatre
theguardian
their
them
then
theory
there
these
they
thiago
think
third
this
thomas
thompson
three
through
ti
tiago
tibet
tiktok
time
times
timestamp
tirana
tirane
title
tj
tk
tl
tm
tn
tnu
to
today
togo
tojnews
tokyo
toledo
tom
tomas
tomatoes
tome
tony
toolforge
top
topic
tornado
toro
toronto
torres
total
tour
tous
town
towns
tp
tq
tr
tractor
trading
trailer
transfermarkt
transition
translation
translations
transport
travel
tres
tri
tribune
true
trujillo
trump
truth
ts
tt
tu
tucuman
tumani
tunisia
tunisie
turk
turkey
turkish
turkiye
turkmenistan
turner
tuvalu
tv
tw
twin
twitter
two
tx
ty
type
tz
tzdb
u
u0
u1
u2
u3
u4
u5
u6
u7
u8
u9
ua
uav
ub
uc
ud
udara
ue
uefa
uf
ufc
ug
uganda
uh
ui
uj
uk
ukraine
ukrainian
ul
ultra
um
un
una
und
under
une
unesco
unicode
union
united
units
universal
universe
universities
university
unknown
unrecognized
unspecified
uo
up
update
uploads
uq
ur
urban
url
uruguay
uruguayan
us
usa
use
used
user
using
usually
ut
utc
uu
uv
uw
ux
uy
uz
uzbek
uzbekistan
v
v0
v1
v2
v3
v4
v5
v6
v7
v8
v9
va
valdes
valencia
valentin
valenzuela
valeri
valid
valle
vallejo
valley
value
van
vanuatu
var
varela
vargas
variety
various
vasco
vasquez
vazhaju
vazquez
vb
vc
vd
ve
vec
vega
velasquez
velazquez
velez
venezuela
vera
verb
verde
verlag
version
very
vf
vg
vh
vi
via
viana
vicente
vickers
victor
victoria
vidal
video
videos
vieira
viera
view
vigo
vii
viii
viktor
vila
villa
village
villalba
villanueva
vin
vinicius
virginia
vis
vista
visual
vitali
vitor
vitoria
vj
vk
vl
vladikavkaz
vladimir
vlore
vm
vn
vo
vodochody
voice
voices
vol
volgograd
volume
von
voss
vp
vq
vr
vs
vt
vu
vv
vw
vx
vy
vyacheslav
vz
w
w0
w1
w2
w3
w4
w5
w6
w7
w8
w9
wa
wagner
wales
wall
walt
walter
war
warner
warren
wars
was
washington
wast
watch
water
waterfall
waterfalls
watts
way
wb
wc
wd
we
weast
weathering
web
website
webster
wedding
week
weekly
welcome
welle
wellington
were
wesley
west
western
wf
wg
wh
what
when
where
which
while
white
whitehouse
whitney
who
why
wi
wien
wiki
wikidata
wikimedia
wikipedia
wikiwand
wild
wiley
wilhelm
will
william
williams
willian
wilson
win
windows
wing
wings
winners
wins
wissen
with
without
wj
wk
wl
wm
wn
wo
woman
women
won
word
wordpress
words
work
works
world
worldwaterfalldatabase
would
wp
wq
wr
wright
write
writing
ws
wt
wu
wulf
wv
ww
www
wx
wy
wz
x
x0
x1
x2
x3
x4
x5
x6
x7
x8
x9
xa
xavier
xb
xc
xd
xe
xf
xg
xh
xi
xii
xiii
xiv
xix
xj
xk
xl
xlsx
xm
xn
xo
xp
xq
xr
xs
xt
xu
xv
xvi
xvii
xviii
xw
xx
xxi
xxii
xy
xz
y
y0
y1
y2
y3
y4
y5
y6
y7
y8
y9
ya
yahoo
yb
yc
yd
ye
year
years
yeni
yevgeni
yf
yg
yh
yi
yj
yk
yl
ym
yn
yo
york
you
young
your
youtube
yp
yq
yr
ys
yt
yu
yugoslavia
yunus
yuri
yv
yw
yx
yy
yz
z
z0
z1
z2
z3
z4
z5
z6
z7
z8
z9
za
zambrano
zamora
zapata
zaragoza
zarate
zb
zc
zd
ze
zealand
zee
zeppelin
zero
zf
zg
zh
zi
zip
zj
zk
zl
zlin
zm
zn
zo
zones
zp
zq
zr
zs
zt
zu
zuniga
zur
zv
zw
zx
zy
zz
{
|
}
~
¡
£
§
©
ª
«
¬
®
°
±
²
³
´
µ
·
¹
º
»
¼
½
¿
×
ß
æ
ð
÷
ø
þ
đ
ħ
ı
ın
ł
ŋ
œ
ƒ
ƣ
ƶ
ǁ
ǝ
ɐ
ɑ
ɒ
ɓ
ɓa
ɓɐwŋ
ɔ
ɕ
ɗ
ə
ɚ
ɛ
ɜ
ɜŋ
ɡ
ɣ
ɦ
ɨ
ɪ
ɫ
ɭ
ɯ
ɰ
ɲ
ɴ
ɵ
ɹ
ɾ
ʀ
ʁ
ʂ
ʃ
ʈ
ʉ
ʊ
ʋ
ʌ
ʎ
ʏ
ʐ
ʑ
ʒ
ʔ
ʔa
ʘ
ʙ
ʰ
ʲ
ʷ
ʹ
ʺ
ʻ
ʼ
ʾ
ʿ
ˀ
˄
˅
ˈ
ˌ
ː
ːˈ
˗
ˠ
˥
˦
˧
˨
˩
α
β
γ
δ
ε
ζ
η
θ
ι
κ
λ
λογος
μ
ν
ξ
ο
π
ρ
ς
σ
τ
υ
φ
χ
ψ
ω
а
аа
аб
абад
абади
абаи
аббос
аббоси
аббосиен
абд
абди
абду
абдували
абдувалиев
абдукарим
абдул
абдулазиз
абдулазизхон
абдулаҳад
абдулвосиеви
абдулло
абдуллоев
абдуллоева
абдуллоевич
абдуллозода
абдуллоҳ
абдуллоҳи
абдуллоҳхон
абдуллоҳхони
абдуллоҷон
абдулмалик
абдулмутталиб
абдулқодир
абдулқодири
абдулҳаи
абдулҳамид
абдулҳусаини
абдумалик
абдумаҷид
абдураззоқ
абдураззоқов
абдурашидов
абдураҳим
абдураҳимов
абдураҳмон
абдураҳмони
абдураҳмонов
абдурраҳими
абдурраҳмон
абдурраҳмони
абдусалом
абдусаломов
абдусаттор
абдушарифи
абдуқодир
абдуҳалим
абдуҷаббор
абдуҷалил
абел
абети
абзори
абитолиб
абр
абрамов
абраҳам
абрешим
абрешими
абри
аброр
абру
абрҳо
абрҳои
абу
абуабдуллоҳ
абуабдуллоҳи
абуали
абуалии
абубакр
абубакри
абудовуд
абузаби
абуисҳоқи
абулаббос
абулаббоси
абулфазл
абулфазли
абулфараҷи
абулфатҳ
абулхаир
абулқосим
абулқосими
абулҳасан
абулҳасани
абумансур
абумаҳмуди
абумуслим
абумуслими
абумуслимнома
абумуҳаммад
абунаср
абунасри
абураиҳони
абусаид
абусаиди
абутолиб
абуҳанифа
абуҷаъфар
абуҷаъфари
абхазистон
абхазия
абхозистон
абҷад
ав
аваз
авали
авангард
авасто
аватар
авв
аввал
аввала
аввалан
аввали
аввалин
аввалинаш
аввалини
аввалинҳо
аввалия
аввалияи
аввалро
аввалҳо
аввалҳои
авг
август
августа
августи
августо
авезов
авеллино
авесто
авестои
авзои
авиатсиони
авиатсионии
авиатсия
авиатсияи
авив
авила
авлие
авлод
авлоди
авоили
авомили
авохири
аврангзеб
авроқи
авруосие
аврупо
аврупои
аврупоиен
аврупоии
аврупоиҳо
аврупоро
австралия
австралияги
австрия
австрияги
авто
автобус
автобуси
автобусҳо
автобусҳои
автомати
автоматии
автомобил
автомобилгард
автомобилгарди
автомобили
автомобилии
автомобилҳои
автономи
автономии
автор
автореферат
авторов
авторы
авф
авфи
авғонов
авҷ
авҷи
агар
агарчи
агенти
агентии
агентства
агентство
агилар
агломератсияи
агра
аграри
аграрии
агрегати
агроном
агрономи
агросаноати
агросаноатии
агустин
ад
ада
адаб
адаби
адабиву
адабиет
адабиети
адабиетро
адабиету
адабиетшинос
адабиетшиноси
адабиетшиносии
адабии
адабиро
адабию
адабу
адад
адади
ададҳо
ададҳои
адам
адами
адамс
адан
адвиет
адвия
адвокат
адвокати
адвор
аден
адени
адиб
адиби
адибон
адибони
адибону
адигея
адл
адлия
адлияи
адлу
административно
администрации
адмирал
адмирали
адо
адои
адолат
адолати
адолатхон
адолф
адолфо
адрасмон
адреналин
адриан
адриано
адҳам
адҳамов
аен
аждаҳо
аз
азал
азали
азамат
азбаски
азербаиджан
азербаиджана
азербаиджанскои
азиз
азиза
азизи
азизов
азизова
азии
азим
азиме
азими
азимов
азимова
азия
азият
азми
азнав
азнавсозии
азоб
азоби
азобу
азов
азодори
азон
азони
азро
азхуд
азхудкунии
азҳар
аи
аиб
аибдор
аибдоршаванда
аивазян
аивон
аивони
аидаҳо
аием
аиеми
аиер
аикт
аиленд
аин
аинан
аини
аинии
аиниро
аиният
аиова
аирес
аит
аитматов
аича
аичи
аишу
аиюб
аиюби
ак
ака
акад
академи
академии
академик
академика
академике
академики
академия
академияи
академияҳои
акашариф
акбар
акбарзод
акбари
акбаршоҳ
аккоси
аккредитатсияи
акмал
акнун
акобир
акоста
акрам
акрамов
акс
аксар
аксаран
аксари
аксарият
аксарияти
аксбардори
аксбардории
акси
аксуламали
аксҳо
аксҳои
акт
актер
актери
актерии
актриса
актрисаи
актрисаҳо
актуальные
акуня
акустикаи
акушери
ал
алабама
алаиҳи
алаиҳис
алалхусус
алам
аламут
алан
алапаевскии
алар
алаф
алафи
алафҳои
алахусус
алахуэла
алба
албани
албания
албатта
алберт
алберто
албоб
албом
албоми
албурз
алвадор
алвадори
алварес
алваро
алвес
алгебра
алгебрави
алгебраи
алгоритм
алгоритми
алдо
алегре
алеикум
алек
алекс
алекса
александер
александр
александра
александри
александров
александрович
александровка
александровна
алексеев
алексеевич
алексеевск
алексеи
алексис
алексндре
алес
алехандро
алжира
али
алиакбар
алиакбари
алиасғари
алиев
алиева
ализода
алии
аликанте
алимардонов
алимент
алиризо
алиро
алиф
алифбо
алифбои
алихон
аличур
алишер
алишери
алия
алкалоидҳо
алла
аллакаи
аллан
аллен
аллерги
аллергия
аллома
алломаи
аллоҳ
алма
алмаато
алмаатои
алмати
алматы
алмеида
алмилали
алмиллалии
алмос
алмоси
алмосии
ало
аловуддин
алокули
аломат
аломати
аломатҳо
аломатҳои
алонсо
алоуддин
алоқа
алоқаи
алоқаманд
алоқаманданд
алоқаманди
алоқамандии
алоқаҳои
алоҳида
алоҳидаги
алоҳидаи
алоҳидаро
алп
алпи
алт
алтаи
алтернативи
алтернативии
алфа
алфаро
алфонко
алфред
алфредо
аль
альбом
алюминии
алюминиии
аляска
алҳол
алҳон
алҷабр
алҷазоир
ам
ама
амазонка
амакаш
амаки
амал
амалан
амалдорони
амале
амали
амалиет
амалиети
амалиетҳои
амалии
амалисозии
амалия
амалияи
амалкунанда
амалкунандаи
амалро
амалу
амалҳо
амалҳои
амвол
амволи
америка
америкаи
американскои
америки
америкои
амид
амин
аминзода
амини
аминов
аминокислотаҳо
аминҷон
амир
амири
амирон
амирони
амирхон
амиршо
амиршоев
амиршоеви
амиршоҳи
амит
амитабҳ
амиша
амиқ
амиқи
амиқтар
аммиак
аммо
аммонии
амният
амнияти
амон
амонатбонк
амони
амонов
амонова
аморат
аморати
ампелография
ампер
амр
амри
амрико
амрикои
амрикоии
амрикоиро
амрикоиҳо
амрикоро
амрози
амру
амсоли
амстердам
аму
амударе
амуди
амудии
амур
ан
ана
анализ
анализи
аналитики
аналоги
ананас
ананд
анатолевич
анатоли
анатолии
анатольевич
анатомия
анатомияи
анбор
анбори
анбуҳи
анвар
анвари
анвои
анвори
анвоъи
анг
ангезаи
ангезандаи
ангезандаҳои
ангезаҳои
ангезиш
ангезиши
ангел
ангидриди
ангишт
ангишти
ангиштсанг
англ
англииского
англииском
англис
англиси
англисии
англисиро
англисҳо
англия
ангола
ангуло
ангур
ангури
ангурро
ангурҳои
ангушт
ангуштарин
ангушти
ангуштон
ангуштони
ангуштпона
анд
андак
андаке
андалеб
андалус
андалусия
андар
андарз
андарзи
андаруни
андерсен
андерсон
андеша
андешаву
андешаи
андешаҳо
андешаҳои
андешида
андешидани
анди
андиҷон
андиҷони
андова
андоз
андоза
андозааш
андозаашон
андозагири
андозагирии
андозае
андозаи
андозаҳои
андозбанди
андози
андозҳо
андозҳои
андомгон
андоми
андорра
андорри
андохт
андохта
андохтан
андохтани
андраде
андре
андреев
андреевич
андреевскии
андреи
андрес
андро
андухта
андуҳ
анзоб
анибал
аниматсиони
аниматсионии
аниме
анис
аниси
аниқ
аниқи
анкара
анна
аннин
анонсы
анор
аносири
анри
ансамбл
ансамбли
ансамблҳои
ансар
ансори
анта
анталия
антана
антарктида
антарктика
антарктике
антибиотикҳо
антиген
антигуа
антио
антиохи
антиқа
анто
антон
антони
антонио
антропологи
антропологии
антропология
антус
анушервон
анъана
анъанави
анъанавии
анъанаи
анъанаҳои
анқара
анҷелес
анҷело
анҷир
анҷом
анҷоми
анҷуман
анҷумани
анҷуманҳои
ао
апаресидо
аполлон
аппарати
аппаратҳои
апр
апрел
апрели
апреля
ар
араб
араби
арабизабони
арабии
арабиро
арабистон
арабистони
арабро
арабу
арабҳо
арабҳои
арал
арасту
араужо
арафа
арафаи
арафот
арақ
арбоб
арбоби
арбобони
арвоҳ
арвоҳи
аргентина
аргентинаги
аргентини
ардабел
ардашер
ардашери
арена
аржанг
арз
арза
арзанда
арзандаи
арзеби
арзебии
арзи
арзии
арзиш
арзиши
арзишманд
арзишманди
арзишҳои
арзон
арзу
арзҳои
ариза
аризаи
ариэл
арк
аркадии
аркази
арки
аркони
арктика
арктики
арман
армандо
армани
армании
арманистон
арманистони
арманиҳо
армении
армения
армии
армия
армияи
арнолд
ароба
аробакаш
арон
арра
арсаи
арслон
артабони
артем
артиллерия
артинскии
артисти
артиш
артиши
артишҳои
артур
артуро
аруз
арузи
арузии
арус
аруси
арусии
архангелск
архаринскии
археологи
археологии
археологические
археология
архив
архивированная
архитектура
арча
аряс
арғунун
ас
асаб
асаби
асабҳо
асабҳои
асад
асадии
асадулло
асал
асали
асар
асараш
асаре
асари
асарро
асару
асарҳо
асарҳое
асарҳои
асарҳояш
асбоб
асбоби
асбобу
асбобҳо
асбобҳои
асеведо
асил
асили
асир
асири
асирони
аскалди
аскар
аскари
аскарон
аскарони
асл
аслан
асли
аслиаш
аслиддин
аслии
аслиҳа
аслиҳаи
аслҳо
аснод
асноди
аснои
асо
асозода
асолати
асорат
асорати
асос
асосан
асосгузор
асосгузори
асосгузорони
асоси
асосиаш
асосии
асосиро
асоснок
асосу
асосҳои
асотир
асотири
асотирии
асп
аспекты
аспи
аспирант
аспиранти
аспирантон
аспирантура
аспирантураи
асппарвари
аспро
аспу
аспҳо
аспҳои
аср
асри
асримиенаги
асримиенагии
асрор
асрори
асроров
асрҳо
асрҳои
ассам
ассамблея
ассамблеяи
ассимилятсия
ассис
ассистент
ассистенти
ассотсиатсия
ассотсиатсияи
ассотсиатсияҳои
асср
аст
астаробод
астрахан
астрология
астрономи
астрономии
астрономия
астрономияи
астрофизика
астрофизикаи
асту
асунсион
асфалт
асфалтпуш
асъор
асъори
асҳоб
асҳоби
асҷади
ат
ата
атеизм
атеросклероз
атиқа
атланта
атлантик
атлас
атласи
атлетико
атмосфера
атмосфераи
атмосфери
ато
атобоев
атоев
атои
атом
атоми
атомиаш
атомии
атомҳо
атомҳои
атроф
атрофаш
атрофи
атрофиен
аттестатсионии
аттестатсия
аттор
атфол
ау
аугсбург
аудио
аудит
аун
ауыл
аф
афанди
афб
афганистан
афганистана
афзал
афзалият
афзалияти
афзалиятноки
афзоиш
афзоиши
афзор
афзори
афзуд
афзуда
афзудааст
афзудани
афзун
афина
афканиши
афканишот
афканишоти
афкор
афкори
афкору
афлесун
афлотун
африка
африки
африқо
африқои
афрод
афроде
афроди
афросиеб
афсар
афсари
афсарон
афсарони
афсаҳзод
афсона
афсонави
афсонавии
афсонаи
афсонаҳо
афсонаҳои
афсус
афтад
афтиши
афтод
афтода
афтодааст
афтодани
афшин
афшор
афшураи
афюн
афғон
афғони
афғонистон
афғонистони
афғонистонро
афғонистону
афғонҳо
ахбор
ахбори
ахбороти
ахбору
ахеменидов
ахир
ахиран
ахли
ахлоқ
ахлоқи
ахлоқии
ахлоқу
ахматова
ахмедов
ахтар
ахтаршинос
ахтаршиноси
ахтаршиносии
ахтубинск
ачитскии
аш
аше
ашее
ашеи
ашеро
ашеҳои
ашк
ашки
ашкониен
ашраф
ашрафи
ашроф
ашрофи
ашрофони
ашт
аштархониен
ашти
ашур
ашуров
ашурова
ашхос
ашхосе
ашхоси
ашъор
ашъораш
ашъорашро
ашъори
ашқобод
аъену
аъзам
аъзами
аъзо
аъзоени
аъзои
аъло
аълом
аълочии
аъмол
аъмоли
аъроб
аъроф
аэропорт
аэропорти
ағбаи
ағдам
ағлаб
ақал
ақали
ақаллияти
ақаллиятҳои
ақвоми
ақди
ақиб
ақибгоҳи
ақибнишини
ақида
ақидаанд
ақидае
ақидаи
ақидаҳо
ақидаҳои
ақл
ақли
ақлу
ақоиди
ақоқие
ақраб
аққал
аҳамият
аҳамияти
аҳаммият
аҳаммияти
аҳбоб
аҳвоз
аҳвол
аҳволи
аҳд
аҳди
аҳднома
аҳдномаи
аҳдҳои
аҳкоми
аҳли
аҳмад
аҳмадзода
аҳмади
аҳмадов
аҳмадова
аҳмадшоҳ
аҳмадшоҳи
аҳмадҷон
аҳмар
аҳодиси
аҳоли
аҳолиаш
аҳолии
аҳолинишин
аҳолинишини
аҳолиро
аҳорун
аҳриман
аҳрор
аҳрори
аҳсан
аҳура
аҷаб
аҷам
аҷами
аҷдоди
аҷдодони
аҷзи
аҷиб
аҷоиб
аҷоибу
б
ба
бабаев
бабушкин
бавария
бавижа
бавосир
бавосита
бад
бадан
баданаш
бадани
баданро
бадарға
бадастомада
бадахши
бадахшон
бадахшони
бадахшонро
бадеи
бадеии
бадеиро
бадеию
бадеият
бадеъ
бадеҳа
бади
бадминтон
бадоеъ
бадоеъу
бадр
бадри
бадриддин
бадтар
бадтарин
баези
баезҳо
баезҳои
баен
баенгари
баени
баеноти
бает
баети
база
базаи
базм
базми
баи
баиа
баизашакл
баизашакли
баикал
баикаловскии
баиконур
баин
баиналмилали
баиналмилалии
баиналмилалиро
баиналмиллалии
баиналхалқи
баиналхалқии
баинаннаҳраин
баини
баинидавлати
баинидавлатии
баиниситорави
баинулмилалии
баирақи
баирон
баирут
баит
баити
баитори
баитории
баитро
баитулмуқаддас
баитҳо
баитҳои
баиъат
баиҳақ
баиҳақи
бак
бакалавр
бакалаври
бакр
бактерия
бактерияви
бактерияҳо
бактерияҳои
баку
бакунин
баланд
баланде
баланди
баландиаш
баландиашон
баландии
баландихтисос
баландихтисоси
баландиҳои
баландкуҳ
баландкуҳи
баландкуҳҳо
баландро
баландтар
баландтарин
баландтаринаш
баландтарини
баланду
баландшиддати
баласанян
бале
балет
балети
балетҳои
бали
балкан
балки
бало
балоғат
балоғати
балтика
балтимор
балучистон
балучистони
балх
балхаш
балхаши
балхи
балхро
балъами
балғам
балҷувон
балҷувони
бам
бан
банан
банақшагири
банақшагирии
бангалор
бангкок
бангладеш
банглодеш
бангола
банголи
банд
банда
бандагони
бандаи
бандаки
бандакҳои
банданд
бандар
бандари
бандарҳои
банди
бандинаи
бандпоиҳо
банду
бандҳои
бани
банк
банка
бар
барад
барак
баракалдо
баракат
баракати
баранд
баранда
барандагони
барандаи
баранов
бараш
бараҳна
барбадос
барбара
барбат
барбод
барбоза
барбуда
барвақт
барг
баргардад
баргардон
баргардонад
баргардонд
баргардонида
баргардонидани
баргаш
баргашт
баргашта
баргаштан
баргаштанд
барги
баргирифта
баргу
баргузида
баргузидаи
баргузор
баргузории
баргҳои
барда
бардавом
бардошт
бардошта
бардоштааст
бардоштан
бардоштанд
бардоштани
бардуруғ
барзагов
барзиед
барзу
бари
барид
барии
барин
барканор
барканории
бармаки
бармаҳал
бармегардад
бармегарданд
бармеояд
бармеоянд
барнаул
барно
барнома
барномави
барномавии
барномаи
барноманависи
барномарези
барномаро
барномасози
барномасозии
барномаҳо
барномаҳои
баро
баробар
баробари
баробарии
баробарҳуқуқии
баровард
бароварда
баровардааст
баровардан
бароварданд
баровардани
бародар
бародараш
бародари
бародарон
бародарони
барои
барокко
баромад
баромада
баромадаанд
баромадааст
баромадан
баромаданд
баромадани
баромади
баромадҳо
баромадҳои
барон
барот
баротов
барояд
барояш
барояшон
барпо
барра
барранкила
барраси
баррасии
баррасиҳои
баррел
баррето
барриос
барселона
бартанг
бартар
бартараф
бартари
бартарии
бартолд
бартольд
баруихатгирии
барф
барфи
барфу
бархе
бархост
бархоста
бархурд
бархурди
бархурдор
барчасби
баръакс
баръакси
барқ
барқарор
барқароркунии
барқарорсозии
барқи
барқии
барқро
барҳам
барҷаста
барҷастаи
барҷастатарин
бас
басе
баскетбол
баски
басо
басомади
басра
баст
баста
бастааст
бастан
бастанд
бастани
басти
бат
батафсил
батиста
батлимус
батни
баттони
батуми
баффет
бах
бахили
бахром
бахт
бахти
бахтиер
бахтиери
бахусус
бахш
бахшад
бахше
бахши
бахшид
бахшида
бахшидааст
бахшидан
бахшиданд
бахшидани
бахшҳо
бахшҳои
бача
бачагон
бачагона
бачагонаи
бачагони
бачадон
бачаи
бачаҳо
бачаҳои
баччан
башар
башардустона
башари
башарият
башири
башкортостан
баъд
баъдан
баъди
баъдии
баъдина
баъдтар
баъдҳо
баъзан
баъзе
баъзеашон
баъзеи
баъзеҳо
баян
баяндаи
бағдод
бағдоди
бағлон
бағоят
бақаидгири
бақаидгирии
бақара
бақияи
бақо
бақозода
бақои
баҳ
баҳисобгири
баҳисобгирии
баҳман
баҳманер
баҳо
баҳогузори
баҳодиҳи
баҳодиҳии
баҳодур
баҳои
баҳонаи
баҳор
баҳорак
баҳори
баҳористон
баҳорон
баҳору
баҳоуддин
баҳоуддини
баҳр
баҳра
баҳрабардори
баҳравар
баҳраин
баҳри
баҳриддин
баҳрии
баҳрнаварди
баҳром
баҳроми
баҳру
баҳрҳо
баҳрҳои
баҳс
баҳси
баҳсу
баҳсҳои
бе
беандоза
беасос
бебаҳо
бевара
бевосита
бевоситаи
бегона
бегонаи
бегуноҳ
бед
бедак
бедил
бедили
бедона
бедонаи
бедор
бедори
бедории
бежан
без
безарар
безопасности
беи
беирут
беихтиер
бек
бекзода
беки
бекигарии
бекор
бекори
бел
беларус
беларуси
беларусь
белая
белгия
белгород
белград
беленицкого
белиз
белинскии
белл
белла
беллен
бело
белогорскии
белозер
белорус
белоруси
белорусия
белоруссия
белорусҳо
белоярскии
беляев
бемор
бемори
бемории
бемориро
бемористон
бемористони
бемориҳо
бемориҳои
беморон
беморони
беморро
беморхона
беморхонаи
беморхонаҳо
бемуҳра
бен
бенаво
беназир
беназири
бенг
бензин
бензол
бенин
бенитес
бениҳоят
бенҷамин
беоб
беохир
бепарво
бепул
беранг
бераҳмона
берг
бердиев
бердиева
берег
березник
березовка
берен
бериллии
беринг
беркли
берлин
берлини
берн
бернард
бернардо
бертелс
берун
беруна
берунаи
беруни
берунии
бесабаб
бесаводи
бесутун
бета
бетараф
бетаъсир
бетағиир
бетон
бетони
бетховен
бех
бехабар
бехатар
бехатари
бехатарии
бехи
бечора
беш
беша
бешазор
бешазори
бешаи
бешаҳои
бешкент
бештар
бештаре
бештари
бештарин
бешубҳа
беэътибор
беҳ
беҳад
беҳамто
беҳамтои
беҳаракат
беҳбуди
беҳдошт
беҳдошти
беҳзод
беҳруз
беҳтар
беҳтарин
беҳтарини
беҳуда
беҷор
би
бибер
биби
бибиси
библиографи
библиографии
библиография
библиографияи
библиотека
библиотеке
библиотеки
бигзарад
бигзор
бигирад
бигиранд
бигу
бидиҳад
бидон
бидуни
бидъат
бие
биебон
биебони
биебонҳо
биебонҳои
бизе
бизнес
бии
биков
билбао
билл
биллоҳ
билохира
билоятҳои
бимонад
бин
бинад
бини
бинии
биниши
бинни
бино
бинобар
бинои
бинокори
бинокории
биноҳо
биноҳои
бинт
бинти
бинушанд
био
биографии
биографическии
биография
биокимиеи
биолог
биологи
биологии
биология
биологияи
биосфера
биофизика
биофизикаи
биохимия
биохимияи
бипаша
бирав
бирасад
бирен
биржаи
биринҷ
биринҷи
биринҷии
бирма
бис
бисау
бисер
бисеранд
бисере
бисереро
бисери
бисерии
бисериҳо
бисерсола
бисерсолаи
бисертар
бисерҳизби
бисмарк
бисмиллоҳ
бист
бистари
бисту
бистум
бисьер
бит
бихуранд
бич
бишкек
биҳи
биҳишт
биҳишти
благовешенскии
бланко
бласть
ближнего
блог
блок
блоки
блонскии
блудентс
бо
боб
бобак
бобакон
бобат
бобати
боби
бобиен
бобил
бобо
бобоев
бобои
бобокалонов
бобохонов
бобохоҷаев
бобояш
бобоқулов
бобоҷон
бобоҷонов
бобров
бобул
бобуна
бобур
бобурнома
бобҳои
бовар
бовари
боварии
боварҳои
богдановичскии
боголюбов
богота
богучар
бод
бода
боди
бодинҷон
бодиринг
бодиянишин
бодканд
бодо
бодом
бодоми
боду
бодҳои
боз
бозаргони
бозбинишуда
бозгашт
бозгашти
бозгу
боздид
боздошт
боздошта
боздоштани
боздошти
бозефт
бозефти
бозефтҳои
бози
бозигар
бозигари
бозигарон
бозигарони
бозид
бозида
бозидаанд
бозидааст
бозиданд
бозии
бозингари
бозингарони
бозиро
бозича
бозичаҳо
бозичаҳои
бозиҳо
бозиҳои
бозмедорад
бозмонда
бознигаред
бозор
бозори
бозорҳои
бозпас
бозрасии
бозсози
бозсозии
бозтоб
бои
боигони
боигонии
боидибек
боии
боиматов
боис
боиси
боистеъдод
боичечак
боиқаро
бок
боки
бокс
боку
бол
болаеқат
болгардгоҳи
более
болезни
боли
боливар
боливиеи
боливия
болиғ
болливуд
боло
болои
болоии
болооби
болоравии
болотар
болотарин
болояш
болу
болшая
болшевик
болшевики
болшевикон
болшие
болшое
болшои
большая
большои
болға
болҳои
бом
бомаҳорат
бомбаи
бомдод
боми
бомиен
бомуваффақият
бон
бона
бонги
бонди
бондҳ
бонк
бонкдори
бонки
бонкии
бонкҳо
бонкҳои
бонн
бонни
бону
бонувон
бонувони
бонуи
бонуфуз
бонуфузи
бонуфузтарин
бор
бора
бораи
борбад
борбади
борбари
боргоҳи
бордор
боре
бори
борик
борики
борис
борисович
борисовск
борисоглебск
бориш
боришот
боришоти
боркаш
боркаши
боркашони
бородин
борон
борони
борха
борьба
борьбе
борьбы
борҳо
босазо
босазое
босамари
босмачиен
босния
бостон
бостони
бостонии
бостоншинос
бостоншиноси
бостоншиносии
бостоншиносон
босуръат
босуръати
ботаника
ботаникаи
ботаники
ботаникии
ботил
ботин
ботини
ботинии
ботсвана
бофандаги
бофта
бофтаи
бофтаҳо
бофтаҳои
бохабар
бохан
бохт
бохтар
бохтари
бохтариени
бош
бошад
бошам
бошанд
бошандагони
бошгоҳ
бошгоҳи
бошгоҳҳо
бошгоҳҳои
бошед
бошем
боши
бошишгоҳи
бошишгоҳҳои
бошукуҳ
бошқирди
бошқирдистон
боэътимод
боэътимоди
бою
бояд
боязид
боғ
боғбон
боғдори
боғи
боғот
боғу
боғча
боғчаи
боғчасарои
боғҳо
боғҳои
боқи
боқиев
боқизода
боқии
боқимонда
боқимондаи
боқимондаро
боқимондаҳои
боқист
боқия
боҳашамат
боҳомо
браво
брагинскии
бразили
бразилия
браиан
бранко
брасил
брасилиа
брасов
братск
браузер
браун
брегентс
бренди
брест
бригада
бригадаи
брин
брит
британия
британияи
бритиш
брито
бритоние
бритониеи
бритониеии
брокгауз
брокгауза
брунеи
бруно
брюс
брюссел
брянск
бсэ
бу
бувад
бугера
буд
буда
будаанд
будааст
будаи
будам
будан
буданаш
буданд
будани
будапешт
бударо
будаст
буддо
буддои
буддоия
будем
будет
буди
буду
будут
буз
бузи
бузу
бузург
бузургаш
бузургвор
бузургдошти
бузурге
бузургеро
бузургзода
бузурги
бузургии
бузургиҳои
бузургмеҳр
бузургон
бузургони
бузургро
бузургтар
бузургтарин
бузургтарини
бузургу
буи
буии
буиир
бук
булагат
булбул
булгаков
булдон
булур
булури
булут
булғори
булғористон
булғория
бум
буми
бумии
бунафш
бунафша
бунгоҳи
бундаҳишн
бундестаг
бунед
бунедгузори
бунедгузорони
бунеди
бунедии
буненгузори
буни
бур
бурак
бургос
бурд
бурда
бурдаанд
бурдааст
бурдан
бурданд
бурдани
бурдори
буреискии
буржуази
бури
бурида
буридан
буридани
буриши
буркина
бурун
бурунди
бурятия
бурҳон
бурҳони
бурҳонов
бурҳонуддин
бурҷ
бурҷи
бурҷу
бурҷҳо
бурҷҳои
буса
бустон
бустони
бутамон
бутан
бутефлиқа
бути
бутта
буттаи
буттаҳои
бутун
бутурлинов
бух
бухарест
бухарского
бухгалтери
бухор
бухори
бухоро
бухорову
бухорои
бухороро
буш
бушаҳр
буэнос
буя
буғ
буғи
буғум
буқрот
буҳрон
буҳрони
буҷаи
буҷет
буҷети
бф
бывшии
был
была
были
было
быть
бэи
бэсеску
бюро
бюрои
бюрократия
бҳатт
бҳилҳо
бҳутто
в
ва
вабо
вавилов
вавилон
вагарна
вагнер
вадим
вадимович
вазир
вазири
вазиристони
вазиров
вазирон
вазирони
вазифа
вазифааш
вазифадор
вазифаи
вазифаро
вазифаҳо
вазифаҳои
вазн
вазнаш
вазни
вазнин
вазнини
вазнинии
вазорат
вазорати
вазорату
вазоратҳо
вазоратҳои
вазъ
вазъи
вазъият
вазъияти
ваи
ваиро
ваирон
ваироншавии
вакил
вакили
вакилон
вакилони
ваколат
ваколатдор
ваколатдори
ваколати
ваколатнома
ваколатҳои
ваксина
ваксинаҳо
вакт
вакте
вакти
вал
валад
валаматзода
валдес
вале
валенкия
валенсия
валентин
валентинович
валеревич
валери
валериан
валерии
валерьевич
вали
валиаҳд
вализода
валс
валтер
валуиск
ван
ванкувер
вануату
ванҷ
ванҷи
вао
вар
варам
варами
варақ
варақаи
варақаҳои
варақи
варақсангҳои
вараҷа
варгас
варзид
варзида
варзидааст
варзидаи
варзиданд
варзиш
варзишгар
варзишгари
варзишгарон
варзишгарони
варзишгоҳ
варзишгоҳи
варзиши
варзишии
варзоб
вариант
варианти
вариантҳои
варо
вароруд
варшава
васеи
васеъ
васеъи
васеътар
васеъшавии
васи
васила
василаи
василаҳои
василевич
василево
василии
васильев
васильевич
васият
васиятнома
васкес
васл
васли
васоили
васоити
васф
васфи
ватан
ватанаш
ватандусти
ватани
ватании
ватанро
ватикан
ватслав
ваф
вафо
вафодор
вафодори
вафот
вафоташ
вафоти
вахон
вахш
вахши
вахшу
вашгирд
вашингтон
вашкин
вашт
вашти
ваъда
ваъдаи
вақоеъ
вақт
вақте
вақти
вақтро
вақтҳо
вақтҳои
ваҳдат
ваҳдати
ваҳи
ваҳши
ваҳҳоб
ваҷд
ваҷҳ
ваҷҳи
вв
введение
вд
веб
вебгоҳ
вебгоҳи
вебер
вебсаити
вега
веданта
веди
ведомости
веиделевск
веисман
век
века
веке
веков
вексел
вектори
вел
веласкес
велес
великая
великии
великои
великоустюг
велингтон
велскии
вена
венгрия
венера
венесуэла
венесуэли
венетсия
вера
верди
вероятностеи
версии
версия
версияи
верт
верхнее
верхнеландехов
верхнетоемскии
верхнехав
верхнии
верхняя
верховаж
верховного
верхотурскии
весны
вест
вести
вестминстер
вестник
весь
ветерани
ветеринари
ветеринарии
ветнам
ветнами
взгляд
ви
виана
виго
вигонич
вид
видал
видатних
видео
видеои
видеоии
видоъ
виеира
виетнам
виетнами
вижа
вижагиҳои
вижаи
византия
викенте
вики
викианбор
викилуғат
викимедиа
википедиа
википедиаи
википедии
википедия
википедияи
виктор
виктория
викторович
вил
вила
вилалба
вилегодскии
вилла
вилмерсдорф
вилнюс
вилоят
вилояти
вилоятии
вилоятро
вилоятҳо
вилоятҳои
вилям
вилҳелм
вин
вингери
виникиус
винограда
виноградовскии
винсент
винти
винчи
виолончел
вирди
вироиш
вироиши
вироишот
вирус
вируси
вирусҳо
вирҷиния
вис
висенте
висконсин
високово
вист
витали
виталии
витамин
витамини
витаминҳо
витаминҳои
витебск
витегор
виториа
витория
витр
вице
вич
вичкут
вичлас
вичуг
виштосп
виҷдон
виҷдони
вкд
включая
вконтакте
вкп
влади
владивосток
владикавказ
владимир
владимира
владимирович
владислав
власов
власти
власть
вли
влияние
влксм
вм
вместе
вместо
вмкб
вновь
во
вобаста
вобастаанд
вобастаги
вобастагии
вобастаи
вогузор
вод
води
водии
водиҳо
водиҳои
водор
воениздат
военная
военно
военного
военное
военныи
вожа
вожагони
вожагузинии
вожаи
вожаномаи
вожасозии
вожаҳо
вожаҳои
вожаҷу
вожегод
возеҳ
возраста
вои
воизи
воина
воины
вокали
вокеъ
вокзал
вокруг
вокуниш
вокуниши
вола
волаи
волга
волгоград
волеибол
воли
волидаин
волидаини
волидон
волидонаш
волидони
волии
волков
воло
вологда
вологод
володарск
волои
волоияти
волоконовск
волости
волта
волтер
волфрам
вом
вомехурад
вомехуранд
вомиқу
вопасин
вопросу
вопросы
ворас
ворид
вориди
воридот
воридоти
воридшавии
ворис
вориси
ворисони
воробев
воронеж
ворух
восеъ
восил
восита
воситаи
воситаҳои
восифи
воспевание
воспеватель
воспевать
воспеваться
воспеть
воспеться
воспоминания
восток
востока
востоке
востоковедения
восточная
восточнои
вохурд
вохурда
вохури
вохурии
вошенгтун
воя
вояи
воқеа
воқеаи
воқеан
воқеанд
воқеаҳо
воқеаҳои
воқеи
воқеии
воқеият
воқеияти
воқеоти
воқеъ
воқиф
воҳаҳои
воҳид
воҳиди
воҳидов
воҳидҳо
воҳидҳои
воҷиб
впервые
времен
времени
время
все
всего
всем
всемирного
всемирныи
всеобщая
всероссиискои
всесоюзная
всех
вспевать
вспеть
вступил
вт
вторая
второи
ву
вуд
вуди
вузаро
вузов
вузу
вулкани
вулусволи
вулусволии
вулусволиҳои
вулф
вулқони
вуруд
вуруди
вусъат
вусъати
вучич
вучуд
вушмгир
вуқуфи
вуқуъ
вуҷуби
вуҷуд
вуҷуди
вчера
вы
выборах
выборов
выгрузка
выдающихся
вып
выпевание
выпевать
выпеваться
выпеть
выпеться
выпуск
высшая
высшего
высшеи
вышестоящего
вязников
вячеслав
вячеславович
г
га
гаага
габон
габриэл
гавазн
гаврилово
гавҳар
гавҳари
гагарин
гадо
гадоев
газ
газак
газаки
газета
газетаи
гази
газидани
газпром
газу
газҳо
газҳои
гаи
гаиана
гаити
гала
галактика
галактикаи
галактикаҳо
галилеи
галилео
галина
галлии
галлия
гама
гамбусаки
гамбускҳо
гамма
гаммерман
ган
гана
ганг
ганди
гандум
гандумак
гандуми
ганҷ
ганҷа
ганҷави
ганҷи
ганҷина
ганҷинаи
гап
гар
гарав
гаравгон
гарави
гард
гарда
гардад
гардан
гарданаи
гарданд
гардани
гарди
гардид
гардида
гардидаанд
гардидааст
гардидан
гардиданд
гардидани
гардиш
гардиши
гардолуд
гардон
гардонад
гардонд
гардонда
гардондааст
гардондани
гардонид
гардонида
гардонидааст
гардонидани
гардун
гари
гаринскии
гарм
гарми
гармидиҳии
гармии
гармо
гармои
гармсер
гармтарин
гарму
гармчашма
гарнизони
гарон
гаронбаҳо
гаронбаҳои
гарсиа
гарсия
гарчанде
гарчи
гаршосп
гастеис
гастон
гаусс
гафуров
гач
гашт
гашта
гаштаанд
гаштааст
гаштан
гаштанд
гаштани
гашти
гаҳ
гаҳвора
гаҳвораи
гаҷ
гваделупа
гвардия
гвардияи
гватемала
гватемали
гвиана
гвинея
гвинеяи
гг
где
ге
гев
гевара
гегел
геитс
гектар
гектарро
гелии
гелон
гелони
гелос
гельбке
ген
гена
генеалогия
генерал
генерали
генералии
генератори
генетика
генетикаи
генетики
гени
геннадевич
геннадии
геннадьевич
генри
генрих
генуя
генҳо
генҳои
гео
географи
географии
географические
географических
география
географияи
геодези
геодезии
геодезия
геологи
геологии
геология
геологияи
геометри
геометрии
геометрия
геометрияи
георг
георги
георгиевич
георгиевскии
георгии
гераис
герасимов
герман
германии
германия
герои
герреро
гесу
гесуи
гете
гети
геттинген
ги
гибралтар
гигиенаи
гидроген
гидрологическая
гидрометеоиздат
гидронимҳои
гиеҳ
гиеҳест
гиеҳи
гиеҳҳои
гил
гилем
гилермо
гили
гилюрне
гилҳои
гимн
гимназия
гимназияи
гимнастикаи
гимни
гини
гир
гирад
гиранд
гирандаи
гирд
гирда
гирдбод
гирди
гирдоб
гирдовари
гирду
гиребон
гиреҳ
гиреҳи
гиреҳҳои
гирифт
гирифта
гирифтаанд
гирифтааст
гирифтан
гирифтанд
гирифтани
гирифташуда
гирифти
гирифтор
гирифтори
гирифторони
гироми
гиря
гитара
гиташенаси
гифу
гия
гл
глав
глава
главная
главныи
главы
глазунов
гликоген
глинка
глобали
глобалии
глобус
глобуси
глюкоза
го
гобои
гов
гови
говмеш
говҳои
гогол
год
года
годов
году
годы
гоианиа
гоиас
гол
голи
голл
голф
голҳо
голҳои
гомбие
гомел
гомес
гоминдан
гон
гонес
гонконг
гонсалвес
гонсалес
гонсало
гор
гора
горбачев
гордеев
горди
горка
горки
горкии
гормонҳо
город
города
городе
городетс
городишен
городов
городок
городских
городского
городское
городскои
гороховетс
гос
государств
государства
государственная
государственного
государственное
государственнои
государственныи
государственными
государство
готикаи
готҳо
гоҳ
гоҳе
гоҳи
гоҳо
гоҳшумори
гоҳшумории
гр
граждани
граждании
гражданского
граиворонск
грам
грамм
грамматика
грамматикаи
грамматики
грамотаи
грамотаҳои
гран
гранада
гранд
гранде
грант
граф
графика
графикаи
графики
грачев
греи
гренада
гренландия
грибановск
григоревич
григори
григории
григорьевич
грин
гринвич
грипп
гриппи
грнд
гродно
грознии
гром
грузии
группы
грязоветс
гу
гуадалахара
гуаиякил
гуам
гуанчжоу
гуатемала
гуаякил
губ
губернатор
губернатора
губернатори
губернатории
губернии
губерния
губернияи
губкинск
гуворо
гувоҳ
гувоҳи
гугк
гуд
гудозиш
гудозиши
гудохта
гуе
гуем
гуен
гузар
гузарад
гузаргоҳи
гузаргоҳҳои
гузари
гузариш
гузариши
гузаронад
гузаронд
гузаронда
гузарондани
гузаронид
гузаронида
гузаронидааст
гузаронидан
гузаронидани
гузашт
гузашта
гузаштаанд
гузаштааст
гузаштагон
гузаштагони
гузаштаи
гузаштан
гузаштанд
гузаштани
гузаштаро
гузашти
гузорад
гузоранд
гузориш
гузориши
гузоришҳо
гузоришҳои
гузошт
гузошта
гузоштаанд
гузоштааст
гузоштан
гузоштанд
гузоштани
гузошташуда
гуи
гуииши
гуиши
гуишҳои
гул
гуландом
гулафшон
гулаш
гулбоғ
гулбоғи
гулгашт
гулгашти
гулдара
гулдаста
гулдор
гулдузи
гулдузии
гулзор
гулзори
гули
гулистон
гулистони
гулмоҳи
гулназар
гулоб
гулоби
гулобии
гулобод
гулов
гулрез
гулро
гулрухсор
гулсара
гулу
гулугоҳи
гулхани
гулчеҳра
гулчини
гулшан
гулшани
гулҳо
гулҳои
гум
гуманитари
гуманитарии
гуманитарные
гумон
гумонбар
гумони
гумрук
гумруки
гумрукии
гумшуда
гун
гуна
гунае
гунаи
гунаҳгор
гунаҳкор
гунбади
гунбаз
гунбази
гунд
гундсолор
гунобод
гуногун
гуногунанд
гуногуне
гуногуни
гуногунии
гуногунро
гуноҳ
гуноҳи
гунҷишк
гур
гурба
гурбаи
гург
гургон
гургони
гурда
гурдаҳо
гурдон
гурез
гуреза
гурезагон
гурезаҳо
гурехт
гурехта
гурехтанд
гурзпартои
гури
гуристони
гурусна
гуруснаги
гуруғли
гуруҳ
гуруҳе
гуруҳи
гуруҳии
гуруҳро
гуруҳҳо
гуруҳҳои
гурхона
гурғули
гурҷи
гурҷистон
гурҷистони
гус
гусман
гусола
густаво
густарда
густариш
густариши
густурда
гусфанд
гусфанди
гусфандон
гусфандони
гутиеррес
гуфт
гуфта
гуфтаанд
гуфтааст
гуфтаи
гуфтам
гуфтан
гуфтанд
гуфтани
гуфтаҳои
гуфти
гуфтор
гуфтори
гуфтугу
гуфтугуи
гуфтушунид
гуш
гуша
гушаву
гушаи
гушанишини
гушаҳои
гуши
гушт
гушташ
гушти
гуштии
гуштосп
гушту
гушу
гуяд
гуям
гуянд
гуянда
гуяндагони
гуҷарот
гуҷароти
гь
гэс
гюлен
д
да
даббоғи
дабири
дав
дави
давид
давидан
давиденков
давидович
давлат
давлатдори
давлатдории
давлате
давлатзода
давлати
давлатии
давлатиро
давлатию
давлатов
давлатро
давлату
давлатшоҳи
давлатҳо
давлатҳои
даво
давои
давом
давомдор
давоми
давомнокии
давомоти
давоҳои
давр
давра
давраи
давраро
давраш
давраҳо
давраҳои
даври
даврии
даврон
даврони
давронов
давру
даи
даир
даири
дакан
дакка
далв
далел
далели
далелҳо
далелҳои
далер
далери
далолат
дам
даме
дами
дамидани
дамир
дамованд
дан
данд
дандамаев
дандон
дандонадор
дандони
дандонпизишки
дандонҳо
дандонҳои
дани
данило
данилов
даниэл
дания
данияги
данна
даннои
данные
данным
данных
данте
данғара
данғараи
дао
дар
дара
дарав
дараи
дарак
дарахт
дарахташ
дарахти
дарахтон
дарахтони
дарахту
дараҳои
дараҷа
дараҷае
дараҷаи
дараҷаҳои
дарбар
дарбор
дарбори
дарбориен
дарваза
дарвеш
дарвешалии
дарвеши
дарвешон
дарвин
дарвоз
дарвоза
дарвозабон
дарвозаи
дарвозаҳои
дарвози
дарвоқеъ
дарг
даргоҳ
даргоҳи
даргузашт
даргузаштааст
даргузаштагони
даргузашти
дард
дарди
дарду
даре
дарее
дареи
дареии
дарефт
дарефти
дареча
даречаи
дареҳо
дареҳои
дари
дарио
дарк
дарки
даркор
дармон
дармонгоҳ
дармонгоҳи
дармони
дарназардошти
даровард
дароварда
даровардааст
дароварданд
даровардани
дароз
дарози
дарозиаш
дарозиашон
дарозии
дарозмуддат
дарозруя
дарозруяи
дарозтар
дарозтарин
дарозу
дарозумри
даромад
даромада
даромадан
даромаданд
даромадани
даромадгоҳ
даромадгоҳи
даромади
дарс
дарсад
дарсади
дарсадро
дарси
дарсии
дарсҳо
дарсҳои
дару
дарун
даруни
дарунии
дархост
дархости
дархостҳои
дарҳои
дарҳол
дарҷ
дас
даст
даста
дастае
дастаи
дастархон
дастархони
дасташ
дастаҳо
дастаҳои
дастаҷамъи
дастаҷамъии
дастгир
дастгири
дастгирии
дастгоҳ
дастгоҳи
дастгоҳҳо
дастгоҳҳои
дасти
дастии
дастнавис
дастнависи
дастнависҳои
дастнорас
дастоварди
дастовардҳои
дастон
дастони
дастпарвари
дастпарварони
дастрас
дастраси
дастрасии
дасту
дастур
дастури
дастурии
дастуру
дастурҳои
дастхат
дастхатҳои
дастҳо
дастҷамъи
дат
даф
дафн
дафни
дафтар
дафтари
дафъ
дафъа
дахл
дахлдор
дахлдори
дахлнопазирии
дахолат
дахолати
дашт
дашти
даштиҷум
дашту
даштҳо
даштҳои
даъват
даъвати
даъватҳои
даъво
даъвогар
даъвои
дақ
дақиқ
дақиқа
дақиқаи
дақиқан
дақиқи
даҳ
даҳа
даҳаи
даҳана
даҳанаи
даҳанакии
даҳаҳо
даҳбед
даҳбеди
даҳгонаи
даҳи
даҳон
даҳони
даҳр
даҳсола
даҳсолаи
даҳсолаҳои
даҳум
даҳуми
даҳҳо
два
две
двор
двудольные
двудольных
двух
ддмт
ддод
ддол
ддот
ддст
ддт
ддтт
ддх
ддҳбст
де
дебоча
дебютант
дебюти
дебютии
дев
деваштич
девган
деви
девон
девона
девонаш
девоне
девони
девор
девораи
девори
деворҳо
деворҳои
дег
деги
дек
декабр
декабри
декабря
декан
декани
декарт
декларатсияи
декрет
дел
делгадо
деление
дело
демет
демографи
демократ
демократи
демократии
демократия
демократияи
демократҳо
демокрит
демоскоп
дени
дениз
денис
день
департаменти
департаментҳои
департмент
депутати
депутатҳои
дер
дере
державна
деринаи
дертар
детеи
детская
дефис
деятельности
деятельность
деҳ
деҳа
деҳае
деҳаест
деҳаи
деҳаро
деҳаҳо
деҳаҳои
деҳгулон
деҳи
деҳистон
деҳистони
деҳлави
деҳли
деҳот
деҳоти
деҳхудо
деҳқон
деҳқони
деҳқонии
деҳқонобод
деҳқонон
деҳқонони
дж
джон
джордж
дзюдо
ди
диабети
диагностика
диалектика
диалектики
диалог
диаметраш
диаметри
диапазони
диас
диаспора
диаспораи
дивизия
дивизияи
диг
дигар
дигараш
дигарашон
дигарбора
дигаргун
дигаргуни
дигаргуниҳои
дигаре
дигареро
дигари
дигарон
дигаронро
дигарро
дигарҳо
дид
дида
дидаанд
дидааст
дидаву
дидаи
дидактики
дидам
дидан
диданд
дидани
дидгоҳи
диди
дидор
дидори
диего
диер
диери
дизаин
дизаини
дии
дикорастущие
диктатураи
дил
дилам
дилаш
дилбар
дилбари
дилбеҳузури
дили
дилнишин
диловар
диловаров
дилором
дилрабо
дилро
дилу
дилхоҳ
дилхоҳи
дилшод
дилҳо
димишқ
димна
димнаи
димоғаи
димукротик
дин
дина
динамика
динамикаи
динамики
динамо
диндорон
диндорони
дини
динии
диниро
динию
динор
диноршоев
динро
дину
диншиноси
динҳо
динҳои
диого
дипика
диплом
дипломат
дипломати
дипломатии
дипломатия
дипломатияи
дипломи
дир
дирафш
директор
директори
директорони
дирижер
дирижери
дироя
дируз
дирҳам
дис
диски
диснеи
дисс
диссертатсионии
дифои
дифоъ
дифоъи
дифференсиали
дифференсиалии
дия
диққат
диққати
диҳад
диҳанд
для
дм
дми
дмитри
дмитриев
дмитриевич
дмитриевка
дмитрии
дмт
днепр
дня
до
довар
довари
довуд
довуди
договор
договора
дод
дода
додаанд
додааст
додам
додан
доданд
додани
додаст
додашуда
додаҳо
додаҳои
додгоҳ
додгоҳи
додгустари
доди
додихудо
доду
доим
доими
доимии
доимо
доир
доира
доираи
доиратулмаорифи
доираҳои
дока
доклад
доклады
докт
доктор
доктора
докторанти
докторантура
доктори
доктории
докториро
докторони
документов
документы
должна
должность
долины
доллар
доллари
долларро
долони
дом
дома
доман
домана
доманаи
доманакуҳҳо
доманакуҳҳои
домани
домени
доми
домингес
доминго
доминика
доминикана
доминикани
доминиканского
домод
домоди
домулло
домғон
дон
дона
донад
донаи
донакаш
доналд
донандаи
донаҳои
донетск
дони
донист
дониста
донистаанд
донистааст
донистан
донистанд
донистани
дониш
донишгоҳ
донишгоҳи
донишгоҳро
донишгоҳҳо
донишгоҳҳои
дониши
донишкада
донишкадаи
донишкадаҳои
донишманд
донишманди
донишмандон
донишмандони
донишмандону
донишнома
донишномаи
донишномаҳои
донишро
донишу
донишҳои
донишҷу
донишҷуен
донишҷуени
донишҷуенро
донишҷуи
доно
дону
доп
допевание
допевать
допеваться
допеть
допеться
дор
дорад
дорам
доранд
доранда
дорандагони
дорандаи
доред
дорем
дори
доро
дорои
дороии
дороиҳои
дорост
дору
дорувори
доруи
дорусози
дорухона
доруҳо
доруҳои
дос
достиев
достон
достони
достонро
достону
достонҳо
достонҳои
дотсент
дотсенти
дохил
дохиланд
дохили
дохилии
дохилиро
дохилшави
дохунда
дош
дошт
дошта
доштаанд
доштааст
доштам
доштан
доштанаш
доштанд
доштани
доғ
доғи
доғистон
доғистони
доғҳои
доҳа
др
драма
драмави
драмавии
драмаи
драматург
драматурги
драматургия
драматургияи
драмаҳои
древнего
древнеи
древностеи
древности
древняя
другие
других
дружба
дружбы
дсрт
дтт
ду
дуарте
дубаи
дубаити
дубора
дубораи
дубров
дубровка
дуввум
дуввуми
дуввумин
дувоздаҳ
дувоздаҳангушта
дувоздаҳгона
дувоздаҳгонаи
дувоздаҳмақом
дувоздаҳум
дувум
дувуми
дувумин
дуглас
дугона
дугонаи
дугоҳ
дуд
дуда
дуди
дудмони
дузандаги
дузах
дузд
дузди
дуи
дукаратаи
дуке
дукон
дукони
дуконии
дуконҳои
дуктур
дулона
дум
думаи
думаш
думбура
думи
думчааш
дунаи
дунболи
дуне
дунеи
дунеро
дуняви
дуо
дуои
дур
дура
дурахшон
дурахшони
дурдаст
дурдонаҳои
дури
дурнамои
дуров
дуртар
дуру
дуруст
дурусти
дурустии
дурушт
дуруғ
дус
дусад
дусаду
дусола
дусолаи
дуст
дусташ
дустдорони
дустдошта
дустдоштааш
дустдоштаи
дусти
дустии
дустию
дустмурод
дустмуҳаммадов
дустон
дустона
дустонаш
дустони
дутарафа
дуто
дутор
дутори
духта
духтани
духтар
духтарак
духтараш
духтарашон
духтарашро
духтаре
духтари
духтарон
духтарони
духтарро
духтур
духтури
духтурон
духтурони
дучанд
дучор
дучори
душ
душанбе
душанбеи
душанберо
душвор
душвори
душвориҳои
души
душман
душмани
душманон
душманони
душманро
дуъо
дуэт
дуэти
дуюм
дуюмаш
дуюмдараҷа
дуюми
дуюмин
дуюмро
дуҷинса
дуҷониба
дьяконов
дэвид
дэмиан
дю
дятков
е
ебад
ебанд
ебои
ев
ева
еваи
евари
евгеневич
евгени
евгении
евгенио
евгения
евгеньевич
евич
евон
евони
евро
евровидение
европа
европаи
европы
его
егор
ед
едбуд
едбуди
едгор
едгори
едгории
едгориҳо
едгориҳои
едгорҳои
еддошт
еддошти
еддоштҳо
еддоштҳои
еде
еди
единиц
едкард
едкардҳо
едовар
едовари
едрас
едҳо
ее
ездаҳ
ездаҳум
екатерина
екатеринбург
елан
елена
елизавета
ему
ен
енбекшиқазоқи
енисеи
енотаевск
енциклопедія
ер
ердамчии
ереван
ери
ерии
ерирасон
ерирасони
ерматов
ермуҳаммади
ерон
ерони
еру
ершов
ес
если
естественных
есть
ефрон
ефрона
ефт
ефта
ефтаанд
ефтааст
ефтан
ефтанд
ефтани
еще
еқуб
еқубов
еқут
еқути
ж
жак
жан
жанеиро
жанр
жанри
жанрҳо
жанрҳои
жарфо
же
женева
женщин
женщинах
животных
жигалов
жизни
жизнь
жинирол
жирнов
жирятин
жителеи
жоан
жогорку
жозе
жозеф
жола
жопун
жорж
жосе
жуан
жуков
жуковскии
жуниор
журнал
журнала
журналист
журналисти
журналистика
журналистикаи
журналистон
журналистони
жь
жінок
з
за
заб
забон
забоне
забони
забонии
забонро
забону
забоншинос
забоншиноси
забоншиносии
забоншиносон
забонҳо
забонҳои
забт
забти
завод
заводи
заводҳои
заволжск
заволи
завтра
завқ
завқи
завқу
завҷаи
заглавие
загрос
зад
зада
задааст
задан
заданд
задани
задач
задачи
заде
задухурд
задухурди
задухурдҳои
заид
заил
заинаб
заиниддин
заитун
заиф
зак
закавказия
закариеи
закон
закот
закоти
залари
зам
замбия
замзам
замима
замимаи
замин
замина
заминаи
заминаҳои
замини
заминии
заминларза
заминларзаи
заминро
замину
заминшиноси
заминшиносии
заминҳо
заминҳои
заминҷунби
замми
замон
замона
замонааш
замонаашро
замонави
замонавии
замонаш
замонашро
замоне
замони
замонро
замону
замонҳо
замонҳои
замора
зан
занад
занаш
занбур
занбури
занбурпарвари
занбуруғи
занбуруғҳо
занбуруғҳои
занг
занги
занд
зане
занзибар
зани
занон
занона
занонаи
занони
занонро
занону
занро
зану
занҳо
занҳои
занҷир
занҷири
занҷон
запад
запата
запев
запевала
запевалка
запевальщик
запевание
запевать
запеваться
запевка
запевно
запевность
запевныи
запетыи
запеть
запеться
записки
запуска
зар
зарагоса
зарар
зарардида
зарари
зарарнок
зараровар
зараррасон
зараррасони
зараррасонҳо
зараррасонҳои
зарафшон
зарб
зарба
зарбазананда
зарбаи
зарбдор
зарбдори
зарби
зарбу
заргари
зард
зарди
зардоб
зардоби
зардолу
зардолуи
зардпарвин
зардтоб
зардузи
зардушт
зардушти
зардуштиен
зардуштия
зардча
зарече
зарин
зариф
заркали
зарнисор
зарра
зарраи
зарраҳо
зарраҳои
заррин
заррина
зарринкуб
зарринтоҷ
зарубин
зарур
заруранд
зарурат
зарурати
зарури
зарурии
заруриро
зарурияти
зарф
зарфи
зарфҳо
зарфҳои
заря
заряди
заур
зафар
зафаробод
захира
захираи
захираҳо
захираҳои
захм
захми
захмҳои
защита
заъфарон
заъфи
зағир
заҳаби
заҳмат
заҳмати
заҳматкаш
заҳр
заҳри
заҳрнок
заҳролуд
заҳролуди
заҳҳок
звание
звезда
звенои
здесь
зеби
зебо
зебову
зебое
зебои
зебоии
зебоишиноси
зебоишиносии
зебоиҳои
зебопари
зеботарин
зебу
зебуниссо
зевс
зеискии
зеландияи
зелении
зелинскии
земли
земля
зер
зергуруҳи
зери
зеризамини
зеризаминии
зерин
зерини
зеринро
зериоби
зеро
зеҳни
зеҳнии
зи
зид
зидди
зиддият
зиддияти
зиддиятҳои
зие
зиед
зиеда
зиеданд
зиеде
зиедеро
зиеди
зиедро
зиедтар
зиедулло
зиедшавии
зиеев
зиеи
зиеиен
зиеиени
зиен
зиени
зиерат
зиератгоҳ
зиератгоҳи
зиератгоҳҳои
зиерати
зиефат
зикр
зикри
зикршуда
зилзила
зилзилаи
зимбабве
зиминск
зимистон
зимистона
зимистонаи
зимистонаш
зимистони
зимистонро
зимма
зиммаи
зимнан
зимни
зина
зинаи
зинат
зинаҳои
зинда
зиндаги
зиндагиаш
зиндагиву
зиндагии
зиндагинома
зиндагиномаи
зиндагиро
зиндагони
зиндагонии
зиндаи
зиндон
зиндони
зира
зираки
зиреҳпуш
зирк
зироат
зироати
зироаткори
зироатҳои
зист
зиста
зистааст
зистан
зисти
зистшиноси
зич
зичи
зичиаш
зичии
зишт
зиқи
зиҷи
злинков
зм
значение
зо
зод
зода
зодагони
зодаи
зодгоҳ
зодгоҳаш
зодгоҳи
зодрузи
зоиров
зокир
зокиров
зокони
зол
золим
золотои
зону
зоология
зоологияи
зор
зори
зот
зоти
зотҳои
зоғ
зоҳид
зоҳидов
зоҳидон
зоҳир
зоҳиран
зоҳири
зоҳирии
зубаидов
зуд
зуди
зудсабз
зудтар
зуком
зулаихо
зулм
зулми
зулму
зулол
зулф
зулфи
зулфия
зулфиқор
зулфиқоров
зулҳиҷҷа
зумра
зумрад
зумраи
зур
зурабишвили
зури
зуровари
зуҳал
зуҳра
зуҳро
зуҳур
зуҳури
зуҳуроти
и
иа
иата
ибараки
ибарра
иблис
ибн
ибни
ибодат
ибодатгоҳ
ибодатгоҳи
ибодати
ибодулло
ибора
ибораи
иборат
иборатанд
ибораҳои
ибрат
ибри
иброз
ибрози
иброҳим
иброҳими
иброҳимов
иброҳимова
ибт
ибтидо
ибтидои
ибтидоии
ибтидоиро
ибтикори
ива
иваз
ивази
ивазшавии
иван
иванов
иванович
ивановка
ивановна
иваново
ивановскии
ивнянск
ивуар
игнасио
игор
игоревич
игорь
игры
ид
идда
иддае
иддао
идеали
идеализми
идеи
идентификатор
идеологи
идеологии
идеология
идеологияи
идея
идеяи
иди
идм
идома
идомаи
идона
идора
идораи
идоракуни
идоракунии
идорашаванда
идорашавандаи
идораҳо
идораҳои
идори
идории
идрис
идрок
идроки
идҳо
идҳои
иел
иелат
иелатест
иелати
иелатҳо
иелатҳои
иелот
иелоти
иелотҳои
из
избран
избранные
известия
изд
издание
издания
издательство
издивоҷ
издивоҷи
иззатулло
изменение
изменения
измир
изображение
изобразительного
изотопи
изотопҳои
изофа
изофи
израиля
изтироб
изучение
изучения
изученность
изҳор
изҳори
изҳорот
изҳороти
ии
иилмаз
ик
икао
икроми
икромов
икрянинск
икс
иктисоди
иктишофи
ил
илал
илвес
иле
илес
или
илиада
илиеску
илин
илич
иллат
иллати
иллатҳои
иллиноис
илм
илме
илмест
илми
илмиаш
илмиашро
илмиву
илмии
илмиро
илмист
илмию
илмро
илму
илмҳо
илмҳои
илова
иловаги
иловагии
иловаи
иловаҳо
иловлин
илон
илоҳа
илоҳи
илоҳиет
илоҳиети
илоҷи
илтиҳоб
илтиҳоби
илья
иля
илҳом
илҳоми
им
има
имеет
имен
имени
имеют
имзо
имзои
имкон
имкони
имконият
имконияти
имкониятҳои
имконнопазир
имконоти
имконпазир
имконпазири
имло
имлои
иммуни
иммунитет
иммунология
имову
имом
имомат
имомати
имомзода
имоми
имомов
имон
имони
иморат
иморати
иморатҳо
иморатҳои
иморот
имороти
император
императори
императории
империи
империя
империяи
имперотурии
импичмент
имрон
имруз
имруза
имрузаи
имрузи
имрузҳо
имсол
имтиез
имтиезҳои
имтиҳон
имтиҳони
имтиҳонҳои
имшаб
имя
ин
инак
ингл
инглис
инглиси
инглистон
ингуш
ингушистон
индекс
индекси
индиана
индии
индира
индия
индонезия
инерти
инженер
инженери
инки
инкишоф
инкишофи
инкишофу
инкор
инкори
инноватсиони
инноватсионии
инноватсия
инобат
иностранных
инот
инро
инсон
инсондусти
инсони
инсонии
инсониро
инсоният
инсонро
инсонҳо
инсонҳои
инсоф
институт
института
институти
институтҳои
инструктори
инструменты
инсулин
интеграли
интервью
интернат
интернати
интернатсионали
интернет
интернети
интернетии
интизоми
интизор
интизори
интихоб
интихоби
интихобии
интихобкунандагон
интихобот
интихоботи
интихоботии
интихоботро
интихобшуда
интихобшудаи
интишор
интишори
интишороти
интиқод
интиқоди
интиқодии
интиқол
интиқолдиҳандаи
интиқоли
интиқом
интиҳои
инфироди
инфиродии
информатика
информатсия
информации
информационно
информационное
информационныи
информация
инфрасохтори
инфрасурх
инчунин
иншо
иншои
иншоот
иншооти
иншоотҳои
инъикос
инъикоси
инқилоб
инқилоби
инқилобии
инҳо
инҳоро
инҳоянд
инҷил
инҷо
инҷониб
ио
иоганн
иогурт
иод
ион
иони
ионҳои
иорк
иосиф
иото
иотои
ипирито
ир
ирам
иран
ирана
иране
ирбитскии
ирина
иркутск
ирланди
ирландия
ирландияи
ироа
ирода
иродаи
ирон
ироқ
ироқи
ирси
ирсии
ирсият
ирсол
ирсоли
иртибот
иртиботи
иртифоъ
иртифоъи
ирфон
ирфони
ирфонии
иршод
ис
исаак
исбот
исботи
исен
исени
искандар
искандари
искандария
искандаркул
искандаров
искандарова
искусств
искусства
искусство
ислам
ислама
исламскии
исландия
ислими
ислом
исломи
исломии
исломиро
исломобод
исломов
исломро
ислоҳ
ислоҳи
ислоҳот
ислоҳоти
исм
исмат
исмати
исми
исмоил
исмоили
исмоилиен
исмоилия
исмоилов
исмоилова
исмоилови
исмҳои
исо
исоев
исоева
исои
исоматов
исп
испанд
испани
испании
испания
испаниҳо
исписор
использования
использовать
используется
испоние
испониеи
исроил
исроили
исрор
исроф
иссиқкул
исследование
исследовании
исследования
ист
истад
истакон
истамбул
истанбул
истаравшан
истаравшани
истахри
истгоҳ
истгоҳи
истгоҳҳои
истеъдод
истеъдоди
истеъдодҳои
истеъмол
истеъмоли
истеъфо
истеъфои
истеҳкоми
истеҳсол
истеҳсоли
истеҳсолии
истеҳсолкунанда
истеҳсолкунандагони
истеҳсолкунандаи
истеҳсолот
истеҳсолоти
истивои
истило
истилогарон
истилогарони
истилои
истилоҳ
истилоҳи
истилоҳот
истилоҳоти
истилоҳҳои
истинод
истироҳат
истироҳати
истисно
истиснои
истисқо
истифода
истифодабаранда
истифодабарандагон
истифодабарандагони
истифодабари
истифодабарии
истифодаи
истифодакунандаи
истихроҷ
истихроҷи
истиқбол
истиқболи
истиқлол
истиқлоли
истиқлолият
истиқлолияти
истиқомат
истиқомати
истиқоматии
истиқрори
истод
истода
истодаанд
истодааст
истодан
истории
историко
историческая
исторические
историческии
исторических
историческои
история
источник
источникам
источники
исфана
исфанд
исфандиер
исфара
исфаҳон
исфаҳони
исҳол
исҳоли
исҳоловар
исҳоқ
исҳоқи
исҳоқова
ит
италия
италияви
итар
итмом
итмоми
итоат
итоати
итоги
итол
итолие
итолиеви
итолиеи
итт
иттилои
иттилоот
иттилооти
иттилоотии
иттилоотию
иттилоотро
иттилоъ
иттифоки
иттифоқ
иттифоқи
иттифоқии
иттифоқҳои
иттиҳод
иттиҳоди
иттиҳодия
иттиҳодияи
иттиҳодияҳои
иттиҳоми
ифлос
ифнс
ифода
ифодагари
ифодаи
ифодакунандаи
ифодаҳои
ифои
ифтитоҳ
ифтитоҳи
ифтихор
ифтихори
ифтихории
ифтихорнома
ифтихорномаи
ифтихорномаҳо
ифтихорномаҳои
их
ихд
ихлос
ихроҷ
ихроҷи
ихтиер
ихтиеран
ихтиери
ихтиерии
ихтилоли
ихтилоф
ихтилофи
ихтилофоти
ихтирои
ихтироот
ихтирооти
ихтироъ
ихтироъкор
ихтироъкори
ихтисор
ихтисос
ихтисоси
ихтисосҳои
ичро
иш
ишгол
ишкошим
ишкошими
ишон
ишора
ишораи
ишорат
ишорати
ишораҳо
ишораҳои
иштибоҳ
иштирок
иштирокдори
иштироки
иштироккунандаи
иштирокчи
иштирокчиен
иштирокчиени
иштирокчии
иштиҳо
ишғол
ишғоли
ишқ
ишқи
ишқор
ишқори
ишқу
июл
июли
июля
июн
июни
июня
иқбол
иқдом
иқдоми
иқлим
иқлимаш
иқлими
иқомат
иқомати
иқрор
иқт
иқтибос
иқтидор
иқтидори
иқтисод
иқтисоддон
иқтисоддони
иқтисоди
иқтисодиву
иқтисодиет
иқтисодиети
иқтисодии
иқтисодиро
иқтисодию
иқтисодчи
иқтисодчии
иқтисодшинос
иҳота
иҳотаи
иҷлосияи
иҷозаи
иҷозат
иҷозати
иҷозатнома
иҷозатномаи
иҷозатномаҳои
иҷора
иҷро
иҷрои
иҷроии
иҷроиши
иҷроия
иҷроияи
иҷроияро
иҷрокунанда
иҷрокунандаги
иҷрокунандагони
иҷрокунандаи
иҷтимои
иҷтимоиву
иҷтимоии
иҷтимоиро
иҷтимоию
иҷтимоъи
иҷшс
к
ка
кабалеро
кабели
кабинети
кабир
кабири
кабиров
кабиса
кабк
кабки
кабоб
кабрера
кабуд
кабуди
кабул
кабутар
кавкаби
кавкабии
кавказ
кавказа
кавкази
кавказскии
кавокиб
кадар
кадис
кадом
кадоме
кадоми
кадри
кадрҳо
кадрҳои
каду
кадуи
каениен
казан
казахстан
казахстана
казачинско
казино
каи
каид
каиковус
каинозои
каиседо
каифияти
каихусрав
каиҳо
каиҳон
каиҳони
каиҳонии
каиҳоннаварди
каиҳоннавардон
как
какао
каксас
калао
калачев
калачеев
калво
калдерон
календарь
кали
калид
калиди
калии
калила
калима
калимаву
калимаи
калимасози
калимаҳо
калимаҳои
калинин
калининград
калисо
калисои
калисоҳо
калисоҳои
калифорния
калифорнияи
калкутта
калом
каломи
калон
калонаш
калоне
калони
калонии
калонро
калонсол
калонсолон
калонтар
калонтарин
калонтаринаш
калонтарини
калону
калонҳаҷм
калонҳаҷми
калсии
калтакалос
калуга
кальюлаид
кам
каманд
камар
камарбанди
камари
камаш
камбағал
камбизоат
камбизоати
камбоҷа
камбуди
камбудиҳои
камбуҷия
каме
каменка
каменск
каменскии
камера
камерави
камераи
камераҳои
камерун
камешков
ками
камизяк
камило
камишин
камишловскии
камоби
камол
камоли
камолиддин
камолиддинов
камолов
камолот
камолоти
камолуддин
камон
камони
кампания
кампинас
кампо
кампос
кампус
камтар
камтарин
камтарини
каму
камхуни
камчатка
камшавии
камю
кан
кана
канада
канал
канали
каналҳои
кангурт
кангурти
канд
канда
кандакори
кандакории
кандани
канданиҳои
кандидата
канзас
канзи
канн
каннада
кано
канор
канораи
канораҳои
канори
канории
канскии
канслери
кант
кантата
кантатаи
кантемиров
кантон
кантони
канъон
капитализм
капиталисти
капитан
капитани
капранов
капур
кар
кара
карабахе
каракас
карам
карамел
каран
карантин
карат
каратегина
карачев
караҷ
карбогидратҳо
карбон
карбонат
карбонати
карбони
карвалю
каргополскии
кард
карда
кардаанд
кардааст
кардаву
кардаи
кардам
кардан
карданаш
карданд
кардани
карданро
кардаст
кардашуда
кардашян
кардем
карди
кардозо
карду
карелия
кари
кариб
карим
каримзода
каримов
каримова
каримович
карл
карли
карло
карлос
кармен
кармина
карнаи
карнатака
карнеги
каролинаи
каромат
кароматов
кароматулло
каротин
карочи
карс
карт
карта
картахена
картографии
картография
картошка
картошкапарвари
карты
кас
касаба
касабаи
касал
касали
касалии
касалиҳо
касалиҳои
касб
касби
касбии
касбу
касбҳои
касе
касерес
касеро
касест
каси
касоне
каспии
касри
касро
кастило
кастро
кат
каталог
каталония
катарина
категория
категорияи
категорияҳои
кати
катибаи
катибаҳо
катибаҳои
католики
католикии
католикҳо
катор
каттақурғон
катъ
каука
каунас
кауфман
каф
кафедра
кафедраи
кафедраҳои
кафедры
кафи
кафида
кафолат
кафолати
качестве
качуг
кашад
кашанд
кашид
кашида
кашидаанд
кашидааст
кашидан
кашиданд
кашидани
каширск
кашиши
кашмир
кашмири
кашондан
кашондани
кашф
кашфи
кашфиет
кашфиети
кашфу
каъба
каэтано
каюмарс
кая
каҳкашон
каҳф
каҷ
каҷол
кб
кв
квадрати
кванти
квантии
кварс
кварта
квартети
квд
квебек
квинсленд
квт
кг
кгб
кдн
ке
кеара
кебич
кевин
кеген
кеин
келбаҷар
келес
келн
кембриҷ
кендалл
кения
кеннеди
кент
кентукки
кенҷаев
керсти
кетчуп
кеш
ки
кибернетика
киев
киерустами
кии
киквидзен
киле
килограмм
километр
километри
километрии
километрро
ким
кимегаров
кимеи
кимие
кимиеви
кимиевии
кимиеи
кимиеии
кимиешиноси
кин
кинг
кингстон
кинематографистони
кинематография
кинематографияи
кинетикии
кинешем
кинионес
кино
кинои
киностудияи
кинотеатр
кинотеатри
кинофестивали
киноя
кипр
киргизии
кирдор
кирдори
киренск
киржач
кирибати
кирилл
кирилли
кириллов
кирм
кирмак
кирми
кирминаи
кирминаҳо
кирмон
кирмони
кирмоншоҳ
кирмҳои
киро
киров
кирови
кировро
кирои
киром
кис
кислота
кислотаи
кислотаҳо
кислотаҳои
кисми
кист
кистон
кит
китая
кито
китоб
китобат
китобати
китобаш
китобдор
китобдори
китобдории
китобе
китоби
китобро
китобу
китобхона
китобхонаи
китобхонаҳо
китобхонаҳои
китобшиноси
китобҳо
китобҳои
китобҳояш
китс
китф
китфи
кифоя
кичменгско
кишвар
кишвараш
кишваре
кишварест
кишвари
кишварро
кишваршиноси
кишваршиносии
кишварҳо
кишварҳое
кишварҳои
кишинев
кишмиши
кишоварз
кишоварзи
кишоварзии
кишоварзиро
кишоварзон
кишт
киштзор
киштзори
кишти
киштигард
киштии
киштисози
киштиҳо
киштиҳои
кишту
киів
ккал
клара
кларнет
класса
классик
классики
классикии
классикиро
классикони
классических
классическои
клаудио
клаус
клеменчич
клет
клетнян
климов
клиника
клиники
клиникии
клинсов
клинтон
клип
клод
клуб
клуби
ключи
км
кмир
кмт
кн
кнессет
книг
книга
книге
книги
кнр
княз
князи
князии
ко
кобинаи
кобул
кобули
коваи
ковалева
ковнти
ковокии
ковров
ковус
когда
когон
код
кодекси
коди
коза
козим
козлов
козловскии
коинот
коко
коктеили
кол
кола
колесников
колефурнее
коллегияи
коллексияи
коллектив
коллективи
коллективҳои
коллеҷ
коллеҷи
коллеҷҳои
колон
колония
колонияи
колорадо
колумб
колумби
колумбиа
колумбия
колхоз
колхози
колхозобод
колхозчи
колчугин
ком
командири
комарич
комбинати
комде
комеб
комебии
комебиҳои
комедияи
комерон
коми
комил
комилан
комилзода
комили
комилов
коминтерн
комиссари
комиссариати
комиссарони
комиссия
комиссияи
комиссияҳо
комиссияҳои
комитет
комитета
комитети
комиҷроияи
комментарии
коммерсантъ
коммуна
коммунаи
коммунали
коммунизм
коммунизми
коммуникатсиони
коммуникатсия
коммунист
коммунисти
коммунистии
коммунистическои
коммунистони
компании
компания
компанияи
комплекс
комплекса
комплекси
комплексии
композитор
композитори
композиторон
композиторони
композитсия
композитсияи
композитсияҳои
компютер
компютери
компютерии
компютерҳо
компютерҳои
комсомол
комсомоли
комсомолии
комсомолск
кон
конвенсия
конвенсияи
конго
конгресс
конгресса
конгресси
конде
конец
кони
конибодом
конибодоми
конкеикан
коннектикут
конодо
коношскии
консепсион
консепсияи
консерватория
консерваторияи
консерт
консерти
консертии
консертҳо
консертҳои
константин
константинович
константинопол
конститутсиони
конститутсионии
конститутсия
конститутсияи
конституции
конституция
консули
контексте
континент
континентали
контрабас
контрерас
контроли
контроль
конф
конфедератсияи
конференсия
конференсияи
конференсияҳои
конференции
конфронс
конфронси
конфронсу
конфронсҳои
конфутсии
конца
конце
конҳо
конҳои
кооперативи
кооперативии
координатаҳои
копия
кор
корам
кораш
корашон
корбар
корбари
корбарон
корбарони
корбаст
корбасти
корбурд
корбурди
корвон
корвони
корвонсарои
коргар
коргардон
коргардони
коргардонии
коргардонҳо
коргардонҳои
коргари
коргарии
коргарон
коргарони
коргоҳ
коргоҳи
коргоҳҳои
коргузори
корд
корди
кордоба
кордова
коре
кореи
корея
кореяги
кореягиҳо
кореяи
кори
кориаш
кориашро
кории
кориро
коркард
коркарди
коркуни
коркунони
корм
корманд
корманди
кормандон
кормандони
корнамоиҳои
корнелл
корномаи
королев
королинаи
король
коромуз
коромузи
коронавирус
корочан
корпоратсияи
корпуси
корреа
корро
коррупсия
корсаков
кортес
корти
кору
коруня
корфармо
корхона
корхонаи
корхонаҳо
корхонаҳои
коршиноси
коршиносон
коршиносони
корҳо
корҳои
корҳоро
кос
коса
косаи
косахонаи
косаҳо
косиби
косибон
косово
косони
коста
кострома
кот
котелников
котиб
котиби
котиботи
котласкии
котов
которая
которое
которои
которые
которыи
которых
кофарниҳон
кофи
кофир
кофирон
кофта
кофтукови
кох
кохи
кочи
кочнев
коши
кошикори
кошифи
кошон
кошони
коғаз
коғази
коғазҳои
коҳиш
коҳиши
кпсс
кравчук
краи
красная
краснен
краснии
красноборскии
красноводск
красногвардеиск
красногор
краснодар
красное
красноуфимскии
красноярск
красноярскии
краснояруж
красныи
краткая
краткии
края
кредити
кремл
кремнии
крик
крикиума
крис
кристалл
кристалли
кристаллии
кристаллҳои
кристаллҳояш
кристиан
кристина
кристобал
кристофер
кришна
крн
крови
кроме
круз
крузеиро
крус
крючков
кто
ку
куба
кубаги
куби
кубин
кубо
кубодов
кубро
куваит
кудак
кудаки
кудакии
кудакистон
кудакон
кудакона
кудаконаи
кудаконе
кудакони
кудаконро
кудакону
кудакро
куза
кузнецов
куи
куибишев
куибышев
куитун
кук
куксу
кул
кули
кулинарнои
кулл
куллан
кулли
куллиет
куллиети
куллии
кулоб
кулоби
кулобро
кулобу
кулолгари
кулоли
кулоҳи
кулумбия
культур
культура
культуре
культуры
кулҳо
кулҳои
кумак
кумаки
кумар
кумилжен
кумита
кумитаи
кумитаҳои
кун
кунад
кунам
кунанд
кунгу
кундаланг
кунед
кунем
куни
кунун
кунуни
кунунии
куня
кунҷ
кунҷи
кунҷид
кунҷҳои
купер
кур
кура
курави
кураи
курашакл
курган
курд
курди
курдистон
курдистони
курдҳо
куриеи
куритиба
курпа
курс
курси
курсии
курск
курсҳои
курт
курта
куртаи
куруш
куруши
кутаиси
куторга
кутоҳ
кутоҳе
кутоҳи
кутоҳмуддат
кутоҳмуддати
кутоҳтар
кутоҳтарин
кутуби
куфа
куфи
куфр
куфта
куфтаи
куч
куча
кучаву
кучаи
кучак
кучаки
кучаров
кучаҳо
кучаҳои
кучи
кучид
кучида
кучидааст
кучиданд
кучма
кучонда
кучонида
кушидааст
кушиш
кушиши
кушишҳои
кушод
кушода
кушодааст
кушодаи
кушоданд
кушодани
кушодашавии
кушоди
кушон
кушониен
кушт
кушта
куштан
куштанд
куштани
кушти
куштии
куштор
куштори
куҳ
куҳан
куҳандиз
куҳани
куҳантарин
куҳгилуя
куҳдоман
куҳе
куҳзод
куҳи
куҳии
куҳистон
куҳистони
куҳна
куҳнаи
куҳсор
куҳсори
куҳу
куҳҳо
куҳҳои
куҷо
кыргызскои
кыргызстан
кь
кэмерон
кҷ
л
ла
лаб
лаби
лаблабу
лаблабуи
лабор
лаборант
лаборанти
лаборатори
лаборатория
лабораторияи
лабораторияҳои
лавозимоти
лавҳаи
лавҳаҳои
лагери
лагос
лазери
лаззат
лаи
лаик
лаили
лаило
лаис
лак
лаку
лалми
ланг
лангар
лангари
ланка
лаос
лара
ларри
лас
лат
латвии
латвия
латиф
латифа
латифзода
латифи
латиши
латофат
лауреати
лафзи
лахш
лашкар
лашкари
лашкариени
лашкаркаши
лашкаркашии
лаъл
лаъли
лањзае
лағв
лақаб
лақаби
лақаи
лаҳза
лаҳзаи
лаҳзаҳои
лаҳи
лаҳистон
лаҳистони
лаҳни
лаҳҷаи
лаҳҷаҳои
лвов
ле
леандро
лебедев
лев
левакант
леви
левин
легиони
леди
лежнев
леиден
леик
леипсиг
леитенант
леитенанти
лек
лекарственные
лекин
лексикаи
лексикон
лексия
лексияҳо
лекции
лена
ленин
ленина
ленинград
ленинградро
ленини
ленинизм
ленинизми
ленинии
ленинобод
ленинро
ленинск
ленск
ленскии
лента
лентаи
леон
леонард
леонардо
леоне
леонел
леонид
леонидович
леонов
лермонтов
лесото
лет
летию
летопись
лех
лечение
лешуконск
ли
либерал
либерали
либералии
либерия
либие
либия
либо
либос
либоси
либосҳои
либреттои
ливерпул
лига
лигаи
лидер
лидия
лиза
лии
лик
ликуд
лима
лиман
лимон
лиму
лимфа
лингвистическии
линколн
лион
липа
лир
лирика
лирикаи
лирики
лирикии
лиски
лиссабон
лист
лит
литва
литвинскии
литвони
литература
литературная
литературы
литр
литсеи
литсеии
литсензия
литсензияҳои
лица
лиҳоз
лиҳози
лксм
ло
лобачевскии
лобрегат
лог
логан
логронио
лозим
лои
лоиқ
лоиҳа
лоиҳаи
лоиҳакашии
лоиҳаҳо
лоиҳаҳои
лок
локомотив
лола
лолазор
лолаи
ломоносов
лона
лонаи
лонг
лондон
лондони
лондрина
лопатин
лопес
лорд
лорен
лоренсо
лос
лот
лотин
лотини
лотинии
лочин
лоғар
лоҳур
лоҳури
лоҳути
лоҳутии
лоҷвард
лу
лубие
лубиеиҳо
лубнон
лубоб
луганск
луи
луиз
луис
луиҷи
лука
лукас
лукашенко
луке
лулаи
лулаҳои
луна
лунда
луоби
луобпардаи
луристон
лус
лут
лутфи
лутфулло
лух
лухтак
луч
лучано
лучоб
луғави
луғавии
луғат
луғати
луғатнома
луғатномаи
луғату
луғот
любви
любкер
любкеру
любовь
людвиг
людеи
люди
людмила
люис
люксембург
лютер
ля
м
ма
мабдаи
маблағ
маблағгузори
маблағгузории
маблағи
маблағҳои
мабнои
мав
мавзеи
мавзеъ
мавзеъҳои
мавзуи
мавзун
мавзуни
мавзуоти
мавзуъ
мавзуъи
мавзуъҳои
мавзуҳои
мавиз
мавлави
мавлоно
мавлонова
мавлуда
мавлуди
мавод
маводди
маводи
маводҳои
мавриги
маврид
мавриди
мавридҳо
мавридҳои
мавритания
мавсим
мавсими
мавсимии
мавсимию
мавсум
мавсуф
мавчуд
мавқеи
мавқеъ
мавқеъи
мавҳум
мавҷ
мавҷгир
мавҷи
мавҷуд
мавҷуда
мавҷудаи
мавҷуданд
мавҷуди
мавҷудият
мавҷудияти
мавҷудот
мавҷудоти
мавҷҳои
магар
магистр
магистратура
магистри
магнии
магнити
магнитии
магуфули
мадагаскар
мадад
мадади
мадалиев
мадан
мадани
мадании
маданию
маданият
маданияти
мадди
мадина
мадоин
мадор
мадори
мадрас
мадраса
мадрасаи
мадрасаҳо
мадрасаҳои
мадрид
мадҳ
мадҳи
мадҳури
мажоритари
мазаммат
мазаммати
мазановскии
маздо
мазкур
мазкурро
мазмун
мазмуни
мазмуну
мазмунҳо
мазмунҳои
мазор
мазори
мазҳаб
мазҳаби
мазҳабии
мазҳабҳои
мазҳака
мазҳакави
мазҳакавии
мазҳакаи
мазҳакаҳои
мазҳари
маи
маиами
маида
маидаи
маидон
маидони
маидончаи
маидонҳои
маии
маикл
маикровеив
маил
маили
маилу
маимун
маимунҳо
маимунҳои
маин
маина
маинаи
маиор
маиори
маисара
маиши
маия
мак
макадо
макеио
макка
макон
макони
маконҳои
макотиби
макс
максим
максимально
максмиляно
мактаб
мактаббачагон
мактаби
мактабро
мактабу
мактабхони
мактабҳо
мактабҳои
мактуб
мактуби
мактьютор
макун
малави
малага
малаизия
малаии
малака
малакаи
малакаҳои
малая
малаялам
малдонадо
малена
мали
малие
малии
малик
малика
маликаи
маликушшуаро
маликшоҳи
малое
малта
мамин
мамлакат
мамлакати
мамлакатро
мамлакатҳо
мамлакатҳои
мамнуъ
мамнуъгоҳ
мамнуъгоҳи
мамолик
мамолики
ман
манам
манбаи
манбаъ
манбаъҳо
манбаъҳои
манга
манган
мандат
мандати
манзара
манзараи
манзараҳои
манзил
манзили
манзилҳои
манзум
манзумаи
манзуми
манзуму
манзур
манзури
мани
манижа
манила
манн
манобеи
манобеъ
манобеъи
манора
манораи
манораҳои
манотиқи
мансаб
мансабдор
мансабдори
мансабдорони
мансаби
мансабҳои
мансуб
мансубанд
мансуби
мансубият
мансубияти
мансур
мансури
мансуров
мантақа
мантиқ
мантиқи
мантиқии
мантиқу
ману
манучеҳр
манучеҳри
мануэл
манфи
манфиат
манфиати
манфиатҳои
манфии
манчестер
маншаи
маншаъ
манъ
манъи
манғития
манқул
мао
маони
маориф
маорифи
маорифпарвари
маош
маоши
мар
маранян
марат
марбут
марбута
марбути
марв
марвази
марви
марворид
марг
маргарет
маргарита
маргаш
марги
марговар
мард
марде
марди
мардон
мардона
мардонаги
мардонаи
мардони
марду
мардум
мардумаш
мардумгиеҳ
мардуме
мардуми
мардумии
мардумон
мардумони
мардумро
мардумшиноси
мардумшиносии
мардҳо
маревон
марз
марзи
марзии
марзию
марзу
марзҳои
мари
мариано
мариз
марин
марина
марино
марио
мария
марк
марказ
марказаш
маркази
марказии
марказиро
марказҳои
маркаи
маркаҳои
маркес
маркетинг
маркетинги
маркио
марко
марковича
маркос
маркс
марксизм
марксисти
маркус
мармар
мармари
маро
марокаш
марокко
мароми
маросим
маросими
маросимии
маросимҳо
маросимҳои
маротиба
маротибаи
маротиби
мароға
мароғи
марс
марсел
марсело
март
марта
мартаба
мартабаи
марти
мартин
мартинес
мартинс
маршал
маршали
марши
марям
марғзор
марғзори
марҳабо
марҳала
марҳалаи
марҳалаҳои
марҳами
марҳила
марҳилаи
марҳилаҳои
марҳум
марҷон
марҷони
мас
масал
масалан
масдар
масеҳ
масеҳи
масеҳиен
масеҳиени
масеҳии
масеҳият
масири
маск
маска
маскав
маскавро
маскан
маскани
маскун
маскуни
маслиҳат
маслиҳати
маснави
маснавии
маснавиҳои
маснадашро
маснади
маснуи
маснуоти
маснуъ
масов
масоил
масоили
масолеҳ
масолеҳи
масолик
масона
масофа
масофаи
масофаҳои
масоҳ
масоҳат
масоҳаташ
масоҳати
масса
массагетҳо
массаи
массачусетс
маст
масти
мастон
мастона
мастчоҳ
мастчоҳи
масунияти
масчо
масштаб
масъала
масъалаи
масъаларо
масъалаҳо
масъалаҳое
масъалаҳои
масъуд
масъуди
масъул
масъули
масъулият
масъулияташ
масъулияти
масҷид
масҷиди
масҷиду
масҷидулҳаром
масҷидҳо
масҷидҳои
мат
матбаа
матбааи
матбуот
матбуоти
матбуотии
математик
математика
математикаи
математики
математикии
математическая
матер
материали
материализми
материалов
материалы
материк
матеус
матиас
матин
матлаб
матлуб
матлуба
матн
матне
матни
матнро
матншиноси
матнҳо
матнҳои
мато
матолиби
матоъ
матоъи
матоъҳои
матраҳ
маурисио
мауро
мафтун
мафҳум
мафҳуми
мафҳумҳо
мафҳумҳои
махдум
махдуми
махзани
махзану
махлут
махлуқот
махмуд
махорка
махрутшакл
махсум
махсумов
махсус
махсусан
махсусе
махсуси
махсусро
махфи
махфии
мачлиси
машварат
машварати
машгул
машоихи
машриқ
машриқзамин
машрубот
машъал
машъали
машғул
машғуланд
машғули
машғулияти
машғулиятҳои
машқ
машқи
машқҳои
машҳад
машҳади
машҳун
машҳур
машҳуранд
машҳури
машҳуртарин
машҳуртарини
маъ
маъбад
маъбади
маъбадҳои
маъдан
маъдани
маъдании
маъданҳо
маъданҳои
маълул
маълум
маълуманд
маълуми
маълумот
маълумоташ
маълумоте
маълумоти
маълумотнома
маълумотномаи
маълумотро
маълумотҳо
маълумотҳои
маълуму
маъмул
маъмулан
маъмуланд
маъмули
маъмулии
маъмултарин
маъмулу
маъмун
маъмур
маъмури
маъмуриаш
маъмурии
маъмуриро
маъмурию
маъмурият
маъмурияти
маъмурони
маънави
маънавиети
маънавии
маъни
маънидод
маънии
маъниҳои
маъно
маънои
маънояш
маъноҳои
маърази
маърака
маъракаи
маъракаҳо
маъракаҳои
маърифат
маърифати
маърифатии
маъруза
маърузаҳо
маърузаҳои
маъруф
маъруфи
маъруфият
маъруфияти
маъруфтарин
маъсуми
маъхазҳо
маъхазҳои
маъқул
мая
маяк
маяковскии
мағз
мағзаш
мағзи
мағлуб
мағоза
мағозаи
мағозаҳои
мағриб
мақбара
мақбараи
мақбараҳои
мақдуни
мақдуния
мақола
мақолаву
мақолае
мақолаи
мақолаҳо
мақолаҳои
мақолаҳояш
мақолот
мақолоти
мақом
мақоми
мақомот
мақомоти
мақому
мақомҳо
мақомҳои
мақсад
мақсади
мақсаднок
мақсадноки
мақсаду
мақсадҳои
мақсуд
мақулаи
маҳ
маҳал
маҳали
маҳалла
маҳаллаи
маҳаллаҳо
маҳаллаҳои
маҳалли
маҳаллии
маҳаллиро
маҳалҳо
маҳалҳои
маҳараштра
маҳбал
маҳбас
маҳбуб
маҳбуба
маҳбуби
маҳбубияти
маҳв
маҳви
маҳди
маҳдуд
маҳдуди
маҳдудияти
маҳдудиятҳои
маҳз
маҳин
маҳкам
маҳкамов
маҳкум
маҳкумшуда
маҳлул
маҳлули
маҳлулҳои
маҳмад
маҳмадали
маҳмадуллоҳ
маҳмадқулов
маҳмуд
маҳмуди
маҳмудов
маҳмудҷон
маҳорат
маҳорати
маҳрум
маҳсуб
маҳсули
маҳсулнокии
маҳсулот
маҳсулоти
маҳсулотҳои
маҳфил
маҳфили
маҳфилҳои
маҳфуз
маҳфузанд
маҷ
маҷалла
маҷаллаву
маҷаллаи
маҷаллаҳо
маҷаллаҳои
маҷбур
маҷбуран
маҷбури
маҷид
маҷидов
маҷлис
маҷлиси
маҷлисҳо
маҷлисҳои
маҷм
маҷмаа
маҷмааи
маҷмаи
маҷмаъ
маҷмуа
маҷмуае
маҷмуаи
маҷмуаҳои
маҷмуи
маҷмуъ
маҷмуъаи
маҷмуъи
маҷнун
маҷози
маҷолис
маҷори
маҷористон
маҷрои
маҷруҳ
мвт
мг
мглин
мгу
ме
меандозад
меандозанд
меафзояд
меафзоянд
меафзуд
меафтад
мебандад
мебанданд
мебарад
мебаранд
мебардорад
мебаромад
мебарорад
мебароранд
мебарояд
мебароянд
мебастанд
мебахшад
мебахшанд
мебел
мебинад
мебинанд
мебинем
мебозад
мебозанд
мебозид
мебоист
меборад
мебофанд
мебошад
мебошанд
мебояд
мебуд
мебуранд
мебурд
мебурданд
мева
мевааш
меваашро
мевазад
меваи
меварзад
меварзанд
меварзид
меваю
меваҳо
меваҳои
меваҷот
мегардад
мегарданд
мегардид
мегардиданд
мегардонад
мегардонанд
мегашт
мегаштанд
мегирад
мегиранд
мегирифт
мегирифтанд
мегузарад
мегузаранд
мегузаронад
мегузаронанд
мегузаронд
мегузашт
мегузаштанд
мегузорад
мегузоранд
мегузошт
мегузоштанд
мегуфт
мегуфтааст
мегуфтанд
мегуяд
мегуям
мегуянд
мед
медал
медали
медалу
медалҳо
медалҳои
медарорад
медароранд
медарояд
медведев
меделин
медиа
медид
медиданд
медина
медихад
медиханд
медицина
медиҳад
медиҳам
медиҳанд
медод
медоданд
медонад
медонанд
медонист
медонистанд
медорад
медорам
медоранд
медошт
медоштанд
медузанд
медухтанд
меебад
меебанд
меефт
меефтанд
между
международная
международного
международнои
международные
международныи
междуреченск
мезад
мезаданд
мезанад
мезананд
мезенск
мезист
мезистанд
мезозои
меистад
меистанд
меистод
мекард
мекардаанд
мекардааст
мекардам
мекарданд
мекашад
мекашанд
мекашид
мекашиданд
мекоранд
мексика
мексикаги
мексики
мекско
мекунад
мекунам
мекунанд
мекунед
мекунем
мекуни
мекушад
мекушояд
мел
мелбурн
меленков
мелиоратсия
мелод
мелоди
мелодрамаи
мемоланд
мемонад
мемонанд
мемонд
мен
мена
менависад
менависанд
менавишт
менавозанд
менавохт
менамояд
менамоянд
менамуд
менамуданд
менделеев
мендес
мендоса
менеҷери
менеҷмент
менеҷменти
менишаст
менишинад
меномад
меноманд
меномиданд
менушанд
меня
меоварад
меоваранд
меовард
меоварданд
меомад
меомаданд
меомезанд
меомузад
меомузанд
меомухт
меомухтанд
меорад
меоранд
меофарад
меояд
меоянд
мепазад
мепазанд
мепазирад
мепаивандад
мепаиванданд
мепаиваст
мепарваранд
мепардозад
мепартоянд
мепошанд
мепурсад
мепушанд
мепушиданд
мепушонанд
меравад
меравам
мераванд
мерасад
мерасанд
мерасид
мерасиданд
мерасонад
мерасонанд
мерасонд
мерафт
мерафтааст
мерафтанд
мерезад
мерезанд
мерида
меркел
меронад
мерос
меросгузор
мероси
мерсин
меруяд
меруянд
меса
месабзад
месабзанд
месарояд
месароянд
месозад
месозанд
месохт
месохтанд
место
месупоранд
метавон
метавонад
метавонанд
метавонед
метавонем
метавонист
метавонистанд
металл
металли
металлов
металлургии
металлургия
металлургияи
металлҳои
метаморфи
метан
метеорология
метод
методи
методии
методикаи
методические
методическое
методологияи
методы
методҳои
метр
метри
метро
метрои
метрро
мефармояд
мефармоянд
мефаҳмонад
мефиристад
мефиристанд
мех
механизми
механизмҳои
механик
механика
механикаи
механики
механикии
мехи
мехико
мехонад
мехонанд
мехонд
мехонданд
мехост
мехостанд
мехоҳад
мехоҳам
мехоҳанд
мехурад
мехуранд
мехушконанд
мешавад
мешаванд
мешинонанд
мешиносанд
мешуд
мешуда
мешудаанд
мешудааст
мешуданд
мешукуфад
мешуморад
мешуморанд
мешуянд
меъда
меъдаву
меъдаро
меъдаю
меъер
меъери
меъерии
меъерию
меъерҳо
меъерҳои
меъмор
меъмори
меъмории
меъморию
меъморон
меъморони
меъроҷ
меғундоранд
меҳвари
меҳисобанд
меҳмон
меҳмони
меҳмонон
меҳмонони
меҳмонхона
меҳмонхонаи
меҳмонхонаҳо
меҳнат
меҳнати
меҳнатиро
меҳнаткашон
меҳнаткашони
меҳнатобод
меҳнатободи
меҳр
меҳргон
меҳрдод
меҳри
меҳроб
меҳроби
меҳробод
меҳру
меҳрубон
меҳрубони
меҷушонанд
меҷуяд
ми
мигел
мигуэл
мид
мие
миен
миена
миенааш
миеназамин
миенаи
миенарав
миенарави
миенаро
миенаҳаҷм
миенаҳои
миени
миз
мизбони
мизи
мизон
мизони
мизоҷи
микдори
микел
микробиология
микробҳои
микронезия
микроорганизмҳо
микроскопи
мил
милали
милан
милии
милитсия
милитсияи
милки
миллали
миллат
миллаташ
миллатгарои
миллати
миллатро
миллату
миллатҳо
миллатҳои
миллер
милли
миллиард
миллии
миллиметр
миллион
миллионерҳои
миллиону
миллионҳо
миллиро
миллию
милод
милоди
милтон
мин
мина
минбар
минбари
минбаъд
минбаъда
минбаъдаи
минвол
минерал
минерали
минералии
минералогия
минералҳо
минералҳои
мини
министерства
министерство
министр
министра
министров
министром
мино
минск
минтақа
минтақави
минтақавии
минтақае
минтақаи
минтақаро
минтақаҳо
минтақаҳои
минуи
мир
мира
мирали
миралиев
мирализода
миранда
мирбобоев
мире
мирзиеев
мирзо
мирзоев
мирзоева
мирзозода
мирзои
мирзошоев
мири
миров
мировая
мировои
миррих
мирсаид
миру
миршакар
мис
миси
мисин
мисли
мисол
мисоли
миср
мисраи
мисраъ
мисри
мисриен
мисрро
мисс
миссури
мисқол
михаил
михаилов
михаилович
михаиловка
михаиловскии
михаэл
мичиган
мишел
миқдор
миқдоре
миқдори
миқеси
мл
млн
млрд
мм
ммд
ммм
ммо
мн
много
мо
мобаил
мобаин
мобаини
мобили
мобилии
моварои
мовароуннаҳр
мовароуннаҳрро
мовароуннаҳру
могут
мод
мода
модар
модарам
модараш
модарзоди
модари
модарии
модарон
модару
модда
моддаи
моддаҳо
моддаҳое
моддаҳои
моддаҳоро
модди
моддии
моддию
модел
модели
моделсозии
моделҳои
моди
модина
модинааш
модул
модули
моеи
моеъ
моеъи
моеъҳо
моеъҳои
может
можно
мозамбик
мозандарон
мозандарони
мозга
мои
моизес
моил
мол
молдавия
молдова
молекула
молекулави
молекулаи
молекулаҳо
молекулаҳои
моли
молибден
молида
молидани
молии
молик
молики
моликият
моликияти
молина
молия
молияви
молиявии
молиявию
молияи
молодая
молодежи
молро
молу
молумулки
молҳо
молҳои
моменти
мон
монад
монако
монанд
монанданд
монанди
монд
монда
мондаанд
мондааст
мондан
монданд
мондани
монеа
монеъ
мони
монография
монографияи
монреал
монро
монте
монтевидео
монтенегро
монтеро
мор
мора
моралес
мораэс
морган
море
мореира
морено
морзе
мори
морис
моро
морфологи
морфология
морфологияи
моря
моси
москав
москва
москваро
москве
москвы
москера
московскии
московскои
москоу
мост
мотам
мотами
мотсарт
мохи
мошин
мошинасози
мошинаҳои
мошингард
мошингарди
мошини
мошинро
мошинсози
мошинсозии
мошину
мошинҳо
мошинҳои
моя
мояи
моҳ
моҳаги
моҳвораи
моҳе
моҳи
моҳигири
моҳидори
моҳиен
моҳии
моҳипарвари
моҳир
моҳирона
моҳият
моҳиятан
моҳияти
моҳиҳо
моҳиҳои
моҳномаи
моҳона
моҳро
моҳу
моҳҳои
моҷарои
му
муаззам
муаиян
муаияне
муаияни
муаиянкунандаи
муаиянкунии
муаиянро
муал
муаллим
муаллима
муаллимаи
муаллими
муаллимон
муаллимони
муаллиф
муаллифи
муаллифон
муаллифони
муаммар
муаммо
муаммои
муаммоҳои
муаррифи
муаррифии
муаррих
муаррихи
муаррихон
муаррихони
муассир
муассис
муассиса
муассисаи
муассисаҳо
муассисаҳои
муассиси
муассисон
муассисони
мубаддал
мубодила
мубодилаи
муборак
мубориз
мубориза
муборизаи
муборизаро
муборизаҳои
муборизи
муборизони
мубрами
муваффақ
муваффақи
муваффақият
муваффақияти
муваффақиятҳои
муваффақтарин
муваққат
муваққатан
муваққати
муваққатии
мувози
мувозинати
мувофики
мувофиқ
мувофиқа
мувофиқан
мувофиқат
мувофиқати
мувофиқи
муд
мудаввар
мудаввари
мударрис
мударриси
муддат
муддате
муддати
мудели
муди
мудир
мудири
мудирии
мудирияти
мудирон
мудом
мудофиа
мудофиави
мудофиавии
мудофиаи
музаффар
музди
музеи
музеии
музмин
музмини
музокирот
музокироти
музофот
музофоти
музофотҳои
музыка
музыкальная
музыкальное
музыкальные
музыкальныи
музыки
муи
муиззи
муии
муин
муисафед
муиҳои
мукааб
мукаммал
мукаммали
мукаррама
мукобили
муколама
муколамаи
мукофот
мукофоти
мукофотонида
мукофотҳо
мукофотҳои
мукҳерҷи
мулаққаб
мулк
мулкест
мулки
мулкҳои
мулло
муллоҷонов
муллоҷонова
мулоим
мулоқот
мулоқоти
мулоҳиза
мулук
мум
мумбаи
муми
муминов
мумкин
мумтанеъ
мумтоз
мумтози
мун
муназзам
мунаққаш
мунаққид
мунаққиди
мунаққидон
мунаққидони
мунаҷҷим
мунаҷҷими
мундариҷа
мундариҷаи
мунзим
муниос
мунира
муниса
муниципальным
мунозира
муносиб
муносибат
муносибати
муносибатҳо
муносибатҳои
муноқиша
муноқишаи
муноқишаҳои
муноҷот
мунтазам
мунтазами
мунтазар
мунтахаб
мунтахаби
мунташир
мунши
муншии
муовин
муовини
муовинони
муовия
муодилаи
муодилаҳои
муодили
муоина
муоинаи
муолиҷа
муолиҷавии
муолиҷаи
муомила
муомилаи
муомилот
муомилоти
муосир
муосири
муосирро
муошират
муоширати
муоҳидаи
мур
мураббаъ
мурабби
мураббигари
мураббии
мураббо
мураккаб
мураккаби
мурат
мураттаб
мураттиб
мураттиби
мураттибон
мурда
мурдагон
мурдан
мурдод
муриди
муридон
муридони
мурило
муркия
мурманск
мурод
муродали
муроди
муродифи
муродов
муром
мурофиа
мурофиави
мурофиавии
мурофиаи
муроҷиат
муроҷиати
мурраби
мурси
муртазо
мурури
мурч
мурғ
мурғи
мурғоб
мурғоби
мурғон
мусавваби
мусаввараҳои
мусаввир
мусаввири
мусаллаҳ
мусаллаҳи
мусаллаҳона
мусаллаҳонаи
мусалмон
мусалмони
мусалмонон
мусалмонони
мусаннифи
мусбат
мусбати
мусби
мусбии
мусиқи
мусиқидон
мусиқидони
мусиқидонони
мусиқии
мусиқиро
мусиқист
мусиқишинос
мусиқишиноси
мусиқишиносон
мусиқишиносони
мусиқию
муслим
муслиҳиддин
мусо
мусобиқа
мусобиқаи
мусобиқаҳо
мусобиқаҳои
мусобиқот
мусобиқоти
мусодира
мусоев
мусои
мусоид
мусоидат
мусоиди
мусофир
мусофират
мусофирбари
мусофиркаши
мусофирон
мусоҳиба
мусоҳибаи
мустамлика
мустамликавии
мустамликадори
мустамликадории
мустамликадорони
мустамликаи
мустамликаҳои
мустанад
мустанади
мустафо
мустақар
мустақил
мустақили
мустақилияти
мустақилона
мустақим
мустақиман
мустақими
мустаҳкам
мустаҳками
мусулмон
мусулмони
мусулмонон
мусулмонони
мусулмонҳо
мутааллиқ
мутаассифона
мутаваффои
мутадовилаи
мутакаллимон
мутамарказ
мутаносиб
мутаносибан
мутаносиби
мутараққи
мутарҷим
мутарҷими
мутафаккир
мутафаккири
мутафаккирони
мутафовит
мутахаллис
мутахассис
мутахассиси
мутахассисон
мутахассисони
муташаккил
мутақобила
мутақобилаи
мутақобили
мутеъ
мутлақ
мутлақи
мутобиқ
мутобиқат
мутобиқати
мутобиқи
мутолиа
мутолиаи
мутолиоти
мутриб
мутриби
мутрибон
мутрибони
муттасил
муттаҳам
муттаҳид
муттаҳида
муттаҳидаи
муттаҳидсозии
муттаҳидшавии
мутури
муфассал
муфассали
муфаттиш
муфид
мухаддир
мухаммад
мухаммас
мухбири
мухлисон
мухлисони
мухолиф
мухолифат
мухолифати
мухолифи
мухолифин
мухолифини
мухолифон
мухолифони
мухталиф
мухталифе
мухталифи
мухтасар
мухтасари
мухтор
мухтори
мухторияти
мухторов
мучал
муш
мушак
мушаки
мушакҳо
мушакҳои
мушарраф
мушаррафа
мушаххас
мушаххаси
мушки
мушкил
мушкили
мушкилот
мушкилоти
мушовараи
мушовир
мушовири
мушовирони
мушоракаткунадагони
мушоҳида
мушоҳидаи
мушоҳидаҳои
муштарак
муштараки
муштари
муштариен
муштариени
муштзани
мушфиқи
муъин
муъмин
муъминобод
муъминободи
муъминов
муъминон
муъовия
муъосир
муътабар
муътабари
муътадил
муътадили
муътазила
муътамад
муътақид
муътақиданд
муъҷам
муъҷизаи
муяссар
муғ
муғул
муғули
муғулистон
муғулон
муғулҳо
муқаддам
муқаддас
муқаддаси
муқаддима
муқаддимави
муқаддимаи
муқаннаъ
муқаррар
муқаррари
муқаррарии
муқаррарнамудаи
муқаррароти
муқарраршуда
муқим
муқими
муқимов
муқобала
муқобил
муқобилат
муқобилати
муқобили
муқобилияти
муқоваи
муқовимат
муқовимати
муқоиса
муқоисави
муқоисавии
муқоисаи
муқтадир
муҳаббат
муҳаббати
муҳаддис
муҳаие
муҳаммад
муҳаммади
муҳаммадиев
муҳаммадризо
муҳаммадшариф
муҳаммадҷон
муҳаммадҷонов
муҳандис
муҳандиси
муҳандисии
муҳандисию
муҳаррам
муҳаррик
муҳаррики
муҳаррикҳои
муҳаррир
муҳаррири
муҳаррирон
муҳаққиқ
муҳаққиқи
муҳаққиқон
муҳаққиқони
муҳиддин
муҳиддинов
муҳидинов
муҳим
муҳими
муҳимме
муҳимми
муҳимро
муҳимтарин
муҳимтарини
муҳит
муҳити
муҳитҳои
муҳлат
муҳлати
муҳокима
муҳокимаи
муҳориба
муҳорибаи
муҳорибаҳои
муҳосиб
муҳосира
муҳосираи
муҳофиз
муҳофизакор
муҳофизат
муҳофизати
муҳофизи
муҳофизони
муҳоҷир
муҳоҷират
муҳоҷирати
муҳоҷирон
муҳоҷирони
муҳр
муҳра
муҳраи
муҳраҳо
муҳраҳои
муҳри
муҳсин
муҳтавои
муҳтарам
муҳташам
муҳташами
муҷаррад
муҷассама
муҷассамаи
муҷассамаҳои
муҷаҳҳаз
муҷиби
муҷихарфи
мфа
мы
мысли
мысль
мэи
мэри
мэриленд
мюнхен
мянма
мянмар
н
на
наб
набави
набард
набарди
набардҳои
набера
набераи
набзи
наби
набиев
набиева
набот
наботи
наботот
набототи
набототу
набошад
набошанд
набояд
набоҳат
набуд
набуда
набудааст
набуданд
набудани
нав
наваду
навадум
наварро
навбат
навбати
навбатии
навбаҳор
навбаҳори
навбунед
навгилем
навда
навдаи
навдаҳои
навдаҳояш
наве
наверо
навзод
нави
навин
навини
нависанда
нависандагон
нависандагони
нависандаи
навишт
навишта
навиштаанд
навиштааст
навиштаи
навиштан
навиштани
навишташуда
навиштаҳои
навиштаҳояш
навиштаҷот
навиштаҷоти
навишти
навлин
наво
навобод
навободи
навовари
навозанда
навозандаги
навозандагон
навозандагони
навозандаи
навозиш
навозиши
навои
навоии
наволок
навор
наворбардори
наворбардории
наворгирии
навори
наворҳои
навохта
навохтани
навоҳии
навоҳои
наврас
навраси
наврасон
наврасони
навро
навруз
наврузи
наврузнома
навсози
навсозии
навтарин
навтарини
навтаъсиси
наву
навшаҳр
навъ
навъе
навъи
навъҳо
навъҳои
навҷавон
нагардад
нагардид
нагардидааст
нагасаки
нагирифтааст
наградами
награды
награждении
нагузашта
над
надежда
надида
надим
надод
надода
надодааст
надодан
надорад
надорам
надоранд
надошт
надошта
надоштанд
надоштани
наефт
наефта
наефтааст
нажод
нажоди
нажодпарасти
назар
назарбоев
назардошти
назаре
назарзода
назари
назариети
назарии
назария
назарияви
назариявии
назарияи
назарияҳои
назаров
назарова
назарови
назаррас
назарраси
назаршо
назаршоев
название
названии
названия
наздаш
назди
наздик
наздиканд
наздики
наздикии
наздиконаш
наздикони
наздиктар
наздиктарин
наздику
наздисарҳади
назир
назири
назиров
назм
назми
назму
назначен
назокат
назорат
назорати
назри
назриев
наи
наиза
наим
наичаҳои
наишакар
накард
накарда
накардаанд
накардааст
накардан
накарданд
накардани
наку
накукори
накунад
накунанд
нам
намак
намаки
намаку
намакҳои
намангон
намангони
намебошад
намегардад
намегирад
намедиҳад
намедод
намедонад
намедонам
намедонист
намеебад
намекард
намекарданд
намекунад
намекунанд
намемонад
намеояд
намеравад
намерасад
наметавон
наметавонад
наметавонанд
наметавонист
наметавонистанд
намехост
намешавад
намешаванд
намешуд
нами
намибия
намии
намнок
намноки
намо
намоди
намоед
намоем
намоен
намоени
намоенро
намоз
намозгоҳ
намозгузорон
намози
намозро
намозҳои
намои
намоиш
намоишгоҳи
намоишгоҳҳои
намоиши
намоишнома
намоишномаи
намоишномаҳо
намоишномаҳои
намоишҳо
намоишҳои
намонд
намондааст
намояд
намоянд
намоянда
намояндаги
намояндагии
намояндагиҳои
намояндагон
намояндагони
намояндагонро
намояндаи
намуд
намуда
намудаанд
намудааст
намудаи
намудам
намудан
намуданд
намудани
намудаш
намуди
намудор
намудҳо
намудҳои
намуна
намунавии
намунае
намунаи
намунаҳо
намунаҳое
намунаҳои
нан
наовард
наомад
напев
напевание
напевать
напеваться
напевно
напевность
напевныи
напеть
напеться
наполеон
например
нар
нара
нарасад
нарасид
нарасида
нарасидаанд
нарасидааст
нарасидани
нараспев
наргис
наргиси
нариманов
наримон
нарина
нарм
нармафзор
нармафзори
нармбаданҳо
нарми
народа
народная
народно
народного
народнои
народные
народных
народов
народы
нарх
нархи
нархҳо
наршахи
нас
насаб
насаби
насаф
насафи
насб
насби
население
населения
насиби
насим
насименто
насими
насируддини
насиҳат
насл
наследие
наследии
наследия
насли
наслҳо
наслҳои
наср
насри
насриддин
насриддинов
насрони
насрулло
насруллоҳ
нассоҷи
настаран
настаълиқ
настоящее
натавонад
натавонист
натавонистанд
наталя
натанҳо
наташа
натичаи
натиҷа
натиҷаи
натиҷаҳои
нато
натоиҷи
натрии
наттоқи
натурали
науел
наук
наука
науки
науру
науч
научная
научно
научнои
научныи
научных
наф
нафар
нафарашон
нафаре
нафари
нафарро
нафас
нафаси
нафасии
нафаскаши
нафақа
нафақагир
нафақагири
нафақат
нафаҳот
нафис
нафиси
нафоис
нафрат
нафс
нафси
нафт
нафталан
нафти
нафту
нафъ
нафъи
нах
нахи
нахл
нахли
находится
нахоҳад
нахуд
нахуст
нахуствазир
нахуствазири
нахусти
нахустин
нахустинаш
нахустини
нахустнамоиши
нахутак
нахҳои
нации
национальная
национального
национальнои
национальности
национальныи
начала
начале
начало
начальник
начандон
наш
наша
нашавад
нашваш
нашви
нашр
нашри
нашриет
нашриети
нашрия
нашрияи
нашрияҳо
нашрияҳои
нашуд
нашуда
нашудаанд
нашудааст
нашуданд
нашудани
нашъунамо
нашъунамои
нағз
нақб
нақби
нақд
нақди
нақеъи
нақл
нақли
нақлиет
нақлиети
нақлиетии
нақлу
нақси
нақш
нақша
нақшаи
нақшакаши
нақшаҳо
нақшаҳои
нақшбанд
нақшбандия
нақши
нақшофари
нақшро
нақшу
нақшҳо
нақшҳои
нақшҳоро
наққош
наққоши
наққошии
наҳанг
наҳв
наҳви
наҳзати
наҳр
наҳри
наҳҷувон
наҷд
наҷиб
наҷмиддин
наҷмуддини
наҷот
наҷоти
нбо
нги
нгуен
ндр
ндрович
не
неапол
небраска
невада
невис
невскии
невянскии
независимости
независимость
нек
неки
некоторые
некоторых
неку
некуаҳволии
нело
нелсон
нем
немецкии
немецкого
немис
немиси
немисҳо
нендес
ненетс
неолит
непал
нептун
неру
неругоҳ
неругоҳи
неругоҳҳои
неруе
неруеи
неруи
неруҳо
неруҳои
несколько
несоли
нест
нестам
нестанд
нести
нестор
несту
нет
нетанеҳу
нето
нефт
нефти
нефту
нехаев
неш
нештаршакл
неъмат
неъматзода
неъмати
неъматов
неъматулло
неъматҳои
неҳру
ни
ниг
нигар
нигаред
нигариста
нигарон
нигарони
нигаронида
нигаҳ
нигаҳбони
нигаҳдори
нигаҳдории
нигер
нигерия
нигина
нигор
нигора
нигори
нигористони
нигориш
нигориши
нигошта
нигоштааст
нигоштаҳои
нигоҳ
нигоҳдори
нигоҳдории
нигоҳе
нигоҳи
нигоҳубин
нигоҳубини
нидерланд
нидерланди
нидерландия
нидо
нидоев
ние
ниегон
ниегони
ниез
ниези
ниезов
ниезҳои
нижнедевитс
нижнее
нижнесергинскии
нижнеудинск
нижни
нижнии
нижняя
низ
низои
низом
низоми
низомиддин
низомиен
низомиени
низомии
низомиро
низомнома
низомномаи
низомов
низомулмулк
низомҳои
низори
низоъ
низоъҳои
нии
ниигата
ник
никарагуа
никарагуани
никел
никита
никитин
никитини
никол
никола
николаев
николаевич
николаевка
николаевна
николаи
николас
николск
николское
никоноров
никоҳ
никоҳи
нил
нилгун
нилуфар
ним
нимаи
ними
нимкураи
нимноқили
нимноқилҳо
нимо
нимпаикараи
нимфаъол
нимҳимоятгар
нимҳимоятгари
нимҷаз
нимҷазира
нимҷазираи
нин
нина
нинас
нинеиро
нируҳои
нисбат
нисбатан
нисбати
нисби
нисбии
нисбияти
нисо
нисоб
нисоби
нисори
нисф
нисфи
нитерои
нитроген
нитрогени
них
нишаст
нишаста
нишастан
нишастани
нишасти
нишастҳои
нишеби
нишебии
нишебиҳои
нишон
нишона
нишонаи
нишонаҳо
нишонаҳои
нишондиҳанда
нишондиҳандаи
нишондиҳандаҳои
нишондод
нишондоди
нишондодҳои
нишони
нишонҳои
нишопур
нишопури
нию
ният
нияти
ниқоби
ниқрис
ниҳод
ниҳода
ниҳоданд
ниҳоди
ниҳодҳои
ниҳои
ниҳоии
ниҳол
ниҳолаш
ниҳоли
ниҳолҳо
ниҳолҳои
ниҳон
ниҳони
ниҳонии
ниҳоят
ниҳояти
ниҷер
ниҷерия
но
ноаен
ноб
нобаробар
нобаробарии
нобел
нобели
нобелівська
нобино
нобовари
ноболиғ
нобуд
нов
нова
новая
новбон
новгород
новии
нович
ново
новоаннин
новобаста
нового
новое
новозибков
новои
новониколаев
новооскол
новосибирск
новостеи
новости
новоусман
новохоперск
новхудо
новые
новыи
новым
новых
ногаҳон
ногаҳони
ногоҳ
ногувор
ногузир
нодир
нодира
нодири
нодиршоҳ
нодуруст
нодурусти
ноз
нозанин
нози
нозил
нозим
нозимов
нозир
нозири
нозирони
нозироти
нозук
нозуки
нозукиҳои
нои
ноиб
ноиби
ноии
ноил
нок
ноком
нокоми
нола
ном
нома
номаи
номатлуб
номаш
номашон
номашро
номаълум
номаҳо
номаҳои
номбар
номбаршуда
номбурда
номбурдаи
номвар
номгузори
номгузории
номгуи
номдор
номдори
номз
номзад
номзади
номзадиашро
номзадии
номзадиро
номзадҳо
номзадҳои
номи
номид
номида
номидаанд
номидааст
номидан
номиданд
номии
номинантам
номинатсия
номинатсияи
номро
ному
номуаиян
номувофиқ
номумкин
номус
номусоид
номусоиди
номҳо
номҳои
нон
нони
нонпази
нону
ноором
нопурра
нор
норак
норанҷи
норасоии
норвеги
норвегия
норд
норин
нормативныи
норматов
норози
норозиги
норозигии
норте
носир
носири
носиров
носирҷон
нотавон
нотаи
нотакрор
нотакрори
нотамом
ноумед
ноумеди
ноустувор
ноф
нофеъ
нохун
нохуш
ночиз
ночор
ношир
ношири
ноябр
ноябри
ноября
ноқили
ноқис
ноҳамвор
ноҳия
ноҳияви
ноҳиявии
ноҳияе
ноҳияест
ноҳияи
ноҳияро
ноҳияҳо
ноҳияҳои
ноҷи
нст
ну
нуги
нугтез
нужно
нуздаҳ
нуздаҳум
нукта
нуктаи
нуктаҳои
нукут
нуму
нумуи
нунес
нуниес
нур
нурали
нуралиев
нуралишо
нурато
нурджанов
нури
нуриддин
нуриддинов
нуриҳои
нурмуҳаммад
нуробод
нуров
нурулло
нурҳо
нурҳои
нурҷонов
нусрат
нусратулло
нусха
нусхабардори
нусхаи
нусхаҳои
нутфа
нутқ
нутқи
нуфуз
нуфузи
нуфус
нушидан
нушидани
нушоки
нушокиҳои
нуъмон
нуъмонов
нуқра
нуқраги
нуқрагин
нуқраи
нуқси
нуқсонҳои
нуқта
нуқтаи
нуқтаҳои
нуҳ
нуҳи
нуҳсаду
нуҳум
нуҷум
нуҷуми
ншстн
нью
ню
нюксен
нютон
няндомск
о
об
обама
обанбор
обанбори
обанборҳо
обаш
оббози
обе
обери
оберии
обзор
оби
обигарм
обид
обидов
обидпур
обии
област
областеи
области
областнои
область
обод
ободи
ободии
ободон
ободони
ободонии
ободу
обозначении
обон
образ
образи
образование
образовании
образования
образованиям
образҳои
обро
обру
обруи
обрую
обсабзҳо
обу
обучения
обхези
обшорон
общая
общества
общественных
общество
общии
объект
объекти
объективи
объектҳои
объявил
обязанности
обҳои
ов
оварад
оваранд
овард
оварда
овардаанд
овардааст
овардан
оварданд
овардани
овардашуда
овезон
овехта
овиэдо
овоз
овоза
овозаи
овозаҳо
овоздиҳи
овоздиҳии
овози
овозии
овозро
овозхон
овозхони
овозхонии
овозхонони
овозхонҳои
овозҳо
овозҳои
овозҳоро
овони
огае
огоз
огоҳ
огоҳи
огоҳии
од
одам
одами
одамон
одамоне
одамони
одамонро
одамро
одаму
одат
одатан
одати
одатҳои
одди
оддии
одесса
оди
одии
одил
один
одина
одинаев
одна
однако
одного
однои
одном
одоб
одоби
одобу
ое
озан
озар
озарб
озарбоиҷон
озарбоиҷони
озарбоиҷониҳо
озарбоиҷонро
озарбоиҷонҳо
озари
озими
озмоишгоҳ
озмоишгоҳи
озмоиши
озмоишҳои
озмун
озмуни
озмунҳои
озод
озода
озодагон
озоди
озодии
озодихоҳи
озодихоҳии
озодиҳои
озодкунии
озодона
озор
озорбоиҷон
озуқа
озуқавори
ои
оид
оиди
оиин
оиини
оиинҳои
оила
оилааш
оилави
оилавии
оиладор
оилаи
оилаҳои
оилнд
оин
оина
оинаи
оини
оиннома
оинномаи
оиша
ок
окато
около
округ
округа
округи
окс
оксиген
оксиди
оксидшавии
оксфорд
окт
октава
октаваи
октябр
октябри
октябрскии
октября
олам
олами
оламро
олати
олга
олег
олегович
оли
оливеира
оливер
олии
олим
олимаи
олими
олимов
олимон
олимони
олимону
олимпи
олимпиадаи
олимпии
олимхон
олимҷон
олиро
олм
олмон
олмони
олмонии
олмониҳо
олмонро
олои
олоско
олот
олоти
олтои
олу
олуболу
олуда
олуча
олхов
олховат
олхонск
ом
омад
омада
омадаанд
омадааст
омадан
омаданаш
омаданд
омадани
омади
омаду
омезиш
омезиши
омехта
омехтаи
омиена
омил
омили
омилҳо
омилҳои
омма
оммави
оммавии
оммаи
омода
омодаги
омодагии
омодасозии
омонаи
омор
омори
омории
омос
омоси
омосҳои
омск
ому
омударе
омузгор
омузгори
омузгории
омузгориро
омузгорон
омузгорони
омузиш
омузишгоҳ
омузишгоҳи
омузишгоҳҳои
омузиши
омузишии
омузишу
омул
омухт
омухта
омухтаанд
омухтааст
омухтан
омухтани
он
она
онанд
онвақтаи
оне
онегин
онежск
они
оникс
онлаин
онлаини
оно
онон
ононро
онро
онтарио
онур
онхо
ончи
онњо
онҳо
онҳое
онҳоро
онҳост
онҳоянд
онҷо
оон
ооо
опевание
опевать
опера
операи
оператор
оператори
оператсиони
операҳои
опеть
описание
описываемои
оппозисиюн
оптика
оптики
оптикии
опыт
ор
орад
оранд
орасио
органи
организации
организация
организм
организми
организмро
организмҳо
организмҳои
органики
органикии
орд
орден
ордена
ордени
орденом
ордену
орденҳои
орди
ординатори
орду
ордубад
оре
орегон
орезуно
орел
оренбург
орзу
орзуи
орзуҳои
ори
орие
ориеи
ориеиҳо
ориен
ориени
ориено
оризаҳои
оризонте
орис
ористано
ористоно
ориф
орифи
орифов
орифон
орифони
оркестр
оркестри
оркестрҳои
орландо
ормонҳои
оро
орои
ороиш
ороиши
ороишии
ороишоти
ором
оромгоҳ
оромгоҳи
ороми
оромии
ороста
ортега
ортис
ортодоксии
орфографическии
орҷоникидзе
орҷоникидзеобод
ос
осака
освалдо
осеб
осеби
осебҳои
осетияи
осие
осиеб
осиеби
осиеи
осиеии
осими
осин
осипов
оскар
осло
осмон
осмони
осмонии
осмонҳо
основе
основные
основы
особенности
осоишгоҳ
осоишгоҳи
осоишта
осон
осони
осор
осораш
осори
осору
осорхона
осорхонаи
осорхонаҳо
осорхонаҳои
остин
остит
остона
остонаи
осторо
остров
островскии
острогожск
осуда
от
ота
оташ
оташбас
оташборгони
оташи
оташин
оташпора
оташро
оташфишон
оташфишони
оташфишонии
отв
отд
отделение
отделения
отелло
отечественнои
отношении
отношения
отпевальныи
отпевание
отпевать
отпеваться
отпеть
отряди
отставку
отто
отчет
оф
офарандаи
офарид
офарида
офаридаанд
офаридааст
офаридааш
офаридаи
офариданд
офаридани
офаридаҳои
офаридаҳояш
офаридгор
офариниш
офариниши
офаринишшиносии
офати
офатҳои
официально
официальныи
офтоб
офтоби
офтобпараст
офтобро
офтобруя
офф
ох
охир
охират
охири
охирин
охирини
охирон
охирҳои
охунов
оценка
очень
очерк
очерки
очерку
очеркҳо
очеркҳои
ош
ошена
ошенаи
оши
ошибка
ошиқ
ошиқи
ошиқон
ошиқона
ошиқонаи
ошкор
ошкоро
ошно
ошнои
ошомидани
ошти
оштии
ошуби
ошубҳои
ошур
ошхона
ояд
оянд
оянда
ояндаи
ояндаро
оят
ояти
оятуллоҳ
оятҳои
оғоз
оғози
оғохон
оғуши
оқибат
оқибати
оқибатҳои
оқил
оқилона
оқилонаи
оқсу
оқсуи
оҳак
оҳаксанг
оҳан
оҳанг
оҳангар
оҳангари
оҳангарон
оҳанги
оҳангсоз
оҳангсози
оҳангсозони
оҳангу
оҳангҳои
оҳани
оҳанин
оҳану
оҳар
оҳиста
оҳу
оҳуи
оҷонсии
п
па
пабло
павел
павлов
павлович
павловск
павловскии
падар
падараш
падарашро
падари
падару
падид
падида
падидаи
падидаҳо
падидаҳои
падидор
падма
падруд
паем
паембар
паембари
паеми
паемномаи
пажушиҳгоҳи
пажуҳиш
пажуҳишгари
пажуҳишгоҳ
пажуҳишгоҳи
пажуҳиши
пажуҳишҳо
пажуҳишҳои
пазириши
пазируфт
пазируфта
пазируфтанд
паи
паиванд
паивандакҳои
паиванди
паивандҳо
паивандҳои
паиваст
паиваста
паивастагиҳои
паивастаи
паивастан
паивастанд
паивастани
паивасти
паивастҳои
паигири
паидарпаи
паидарпаии
паидо
паидоиш
паидоиши
паидост
паидошавии
паидошуда
паии
паииҳам
паикар
паикараи
паимон
паимони
паирав
паирави
паиравии
паиравонаш
паиравони
паисанду
паиғамбар
паиғамбари
паиғамбарон
пак
пакистана
палав
паланг
паласиос
палата
палатаи
палау
палеозои
палеолит
палеолити
палех
палласов
палма
палмас
палов
памир
памира
памирские
памплона
памяти
памятники
памятников
пан
панама
панами
панд
пандемияи
панди
панду
панин
панир
панорама
паноҳ
паноҳгоҳ
паноҳгоҳи
паноҳи
пантуркизм
панфилов
панҷ
панҷаи
панҷакент
панҷакенти
панҷвақта
панҷгонаи
панҷи
панҷоб
панҷоби
панҷоҳ
панҷоҳу
панҷруд
панҷсаду
панҷсола
панҷсолаи
панҷум
панҷуми
панҷумин
панҷшанбе
панҷшер
паола
папа
папая
пар
пара
парагваи
паразит
паразити
паразитология
паразитологияи
паразитҳои
параиба
параллели
параметр
параметрҳои
парана
паранаэнсе
паранда
парандагон
парандаи
парандаҳо
парандаҳои
парастиш
парастиши
парастори
парасту
парванда
парвандаи
парвандаҳо
парвандаҳои
парвариш
парвариши
парвиз
парвин
парвоз
парвози
парвозҳои
парвона
парда
пардаи
пардаҳои
пардохт
пардохта
пардохтааст
пардохтанд
пардохти
пардохтҳои
паредес
парем
парешон
пари
париж
парк
парки
парламент
парламенти
парлумон
парлумони
парлумонии
парлумонро
пароканда
парокандаи
парра
парранда
паррандагон
паррандаҳо
партави
партизани
партии
партия
партиявии
партияи
партоб
партоби
партов
партовҳои
партоев
партофта
партофтани
парфянском
парчам
парчами
парҳез
парҳези
пас
пасванд
пасванди
пасвандҳои
паси
паскал
пасон
пасошурави
паст
пасти
пастии
пасттар
пасттарин
пасту
пастхамии
пател
патент
патенти
патологи
патрик
патритсио
пауло
пахта
пахтаарал
пахтаги
пахтагин
пахтаи
пахтакор
пахтакори
пахтакории
пахтаобод
пахтатозакуни
пахш
пахши
пашм
пашми
пашту
паштунҳо
паэс
паҳлави
паҳлавии
паҳлавон
паҳлавони
паҳлу
паҳлуи
паҳлуҳои
паҳн
паҳнбарг
паҳни
паҳнкуҳи
паҳнои
паҳншави
паҳншавии
пе
певать
певаться
певец
певица
певичка
певун
певунья
певуче
певучесть
певучии
певческая
певческии
певчество
певчии
педагог
педагоги
педагогии
педагогика
педагогикаи
педагогики
педагогическии
педагогического
педро
пеиҷ
пекин
пектини
пелотас
пение
пенсилвания
пенье
пеня
пер
пералта
первая
первого
первое
первои
первомаискии
первые
первыи
первых
перевод
перевода
перед
передаче
переира
перепев
перепевание
перепевать
перепеваться
перепевка
перепеть
перепеться
переписи
перепись
перераб
перес
период
перм
пермь
перомуни
персидская
персидско
персонажҳои
перспективы
перу
перуи
песельник
песельница
песельныи
песенка
песенник
песенница
песенно
песенность
песенныи
песнетворчество
песни
песнопевец
песнопение
песнословие
песнотворец
песнотворчество
песнь
песня
пестяк
петер
петербург
петие
петр
петри
петров
петрович
петроград
петропавловск
петросян
петрушевскии
петушин
петыи
петь
петье
петься
печ
печида
печонида
пеш
пеша
пешаи
пешаки
пешакии
пешбар
пешбари
пешбини
пешбинишуда
пешбурди
пешво
пешвоени
пешвоз
пешвои
пешгири
пешгирии
пешгуи
пешгуии
пешгуфтор
пешдодиен
пеши
пешин
пешина
пешинаи
пешини
пешкаш
пешкаши
пешниҳод
пешниҳоди
пешниҳодшуда
пешниҳодҳо
пешниҳодҳои
пешоб
пешобдон
пешобро
пешоброн
пешоброҳа
пешовар
пешояндҳои
пешрав
пешрави
пешравии
пешрафт
пешрафта
пешрафтаи
пешрафти
пешсаф
пешсафи
пешсафони
пештар
пештара
пештоқ
пештоқи
пешқадам
пешқадами
пи
пианинонавоз
пиво
пиеда
пиедагард
пиедагарди
пиедагони
пиез
пиези
пиела
пиер
пиеса
пиесаи
пиесаҳо
пиесаҳои
пизишк
пизишки
пизишкии
пилла
пиндошта
пинеда
пинежск
пиниин
пинто
пинҳон
пинҳони
пинҳонии
пионери
пир
пиренеи
пирес
пири
пиромуни
пирон
пирони
пиронсоли
пируз
пирузи
пирузии
пирумшоев
пирях
пиряхи
пиряхҳо
пиряхҳои
писанд
писанди
писар
писарам
писараш
писаре
писари
писарон
писаронаш
писарони
писатель
писта
письма
питер
питр
питфи
пифагор
пишминскии
пк
пко
плазма
пластики
плата
платина
платформаи
пленуми
плисетс
плодоводство
плюс
по
победа
победителям
поверхностных
повест
повести
повестҳои
погар
погоды
погост
под
подгоренск
подгот
подоши
подпевала
подпевание
подпеватель
подпевать
подпевка
подпеть
подтанҳо
подшо
подшох
подшоҳ
подшоҳи
подшоҳии
подшоҳон
подшоҳони
поезд
поен
поени
поении
поеноби
поентар
поздняк
пои
поиафзол
поиафзор
поига
поигоҳ
поигоҳи
поигоҳҳои
поидор
поидории
поии
поин
поини
поинтар
поитахт
поитахташ
поитахти
поитахтро
поиҳо
поиҳои
поиҳояш
пок
показателеи
поки
покистон
покистони
покровка
поку
пол
полимерҳо
полимерҳои
полис
полиси
политехники
политехникии
политиздат
политика
политики
политическая
политические
политических
политическои
полк
полки
полковник
полковники
полныи
поло
положение
полскии
полу
получил
полша
поляки
поляна
помидор
помир
помири
помиру
помощью
понздаҳ
понздаҳум
понғоз
поп
попевать
попевка
попесенныи
попеть
попи
попов
поповка
популярная
попуо
пора
порае
пораи
пораҳои
порис
порк
порлумон
порлумони
породы
порс
порси
порсигу
порсии
порт
портал
портали
порто
портр
портрет
портрети
портретҳои
португали
португалия
портҳо
пору
порча
порчаи
порчаҳо
порчаҳои
пос
посад
посбон
посбони
посвященнои
посдори
посдорони
поселение
поселении
поси
после
пособие
пост
постановление
постоянного
посух
почему
почеп
починок
почта
почтаи
почти
пош
пошида
пошидани
пошо
пошхурии
поэзии
поэма
поэтому
поя
пояаш
поягузори
поягузорони
пояи
пояш
пояҳои
права
правда
правительства
правительство
право
православи
православии
прага
прадеш
практика
практикум
практическои
прасад
предикативи
предмети
президент
президента
президенте
президенти
президентии
президентом
президентро
президенты
президентҳои
президиума
президиуме
президиуми
премия
премьер
премія
пресс
прето
префектураи
префектураҳои
при
приволжск
пригороднии
приложение
прим
прима
применение
пример
примере
примечания
приморск
принсипи
принсипҳои
принципы
принял
припев
припевание
припевать
припеваться
припеваючи
припевка
припевочка
припеть
припеться
природа
прити
про
проблема
проблемаи
проблемаҳои
проблемы
проверено
провинции
прогноз
программа
программирования
программы
прогресс
продюсер
продюсери
проект
проекта
произведения
производства
происхождение
прокофев
прокуратура
прокуратураи
прокурор
прокурори
пролетар
пролетари
пролетариат
промышленности
пропевать
пропеваться
пропетие
пропеть
просвещение
простата
просто
протекторати
протестанти
протестантҳо
против
протокол
протоколи
проф
профессор
профессори
профессорон
профили
прохоров
прохорова
процессе
процессы
пруссия
псалмопевец
псалмопение
псальмопевец
психологи
психологии
психология
психологияи
псков
пу
публисист
публисисти
публитсист
публитсисти
публитсистии
пудина
пуенамоии
пул
пулаки
пуле
пули
пулии
пулис
пулод
пулоди
пулодов
пулҳо
пулҳои
пур
пурарзиш
пурзур
пури
пуриқтидор
пуриқтидори
пурра
пурраги
пурраи
пурсамар
пурсид
пурсиш
пурсиши
пурқувват
пусида
пуст
пусташ
пусти
пустлохи
пустро
путеводитель
пути
путин
путина
путь
пухта
пухтан
пухтани
пухтунхво
пучак
пучеж
пушид
пушида
пушидааст
пушидаи
пушидан
пушидани
пушиши
пушкин
пушонида
пушт
пуштакуҳи
пушташ
пушти
пуштибони
пуштибонии
пушту
пуэрто
пять
р
ра
раб
раббони
рабеъ
рабиев
работ
работи
работы
рабт
рав
равад
равалпинди
раванд
раванди
равандҳо
равандҳои
равиш
равиши
равишҳои
равия
равияи
равияҳои
равнақ
равнақи
раво
равобити
равон
равона
равони
равонии
равону
равоншинос
равоншиноси
равоншиносии
равшан
равшани
равшании
равған
равғани
равғанҳои
раг
раги
рагҳо
рагҳои
рад
рада
радабандии
радаи
раддабандии
радди
раджабов
радиатсияи
радикали
радио
радиоактив
радиоактиви
радиои
радиомавҷҳо
радиотехника
радиошунавони
радиошунавонии
радиуси
радиф
радифи
радифҳои
раесат
раесати
ражабов
раз
разави
развитие
развитии
развития
раздел
различных
разм
размещение
разми
размии
разных
разъезд
раи
раион
раиона
раиони
раионов
раис
раиси
раисиҷумҳур
раисиҷумҳури
раисони
раисҷумҳури
раит
ракета
ракеты
ракитян
ракъат
ракъати
рам
рама
рамазон
рамз
рамзи
рамзии
рамзҳои
рамирес
рамиро
рамон
рамос
ран
ранг
ранга
рангаи
рангаш
ранги
рангин
рангини
рангоранг
рангу
рангҳо
рангҳои
рани
ранкагуа
ранов
ранҷ
ранҷи
ранҷу
рао
рас
расад
расадхона
расадхонаи
расид
расида
расидаанд
расидааст
расидан
расиданд
расидани
расм
расман
расми
расмии
расмият
расму
расмҳо
расмҳои
расо
расонад
расонаи
расонанд
расонаҳо
расонаҳои
расонд
расонда
расондаанд
расондааст
расондан
расонданд
расондани
расонид
расонида
расонидаанд
расонидааст
расонидан
расониданд
расонидани
распев
распевание
распевать
распеваться
распевец
распевка
распевно
распевность
распевныи
распеть
распеться
распоряжение
расс
рассказы
рассом
рассоми
рассомии
рассомон
рассомони
растани
растаниҳои
растении
растения
растениями
расул
расулзода
расули
расулиен
расулов
раул
рауф
рафаэл
рафиқ
рафт
рафта
рафтаанд
рафтааст
рафтам
рафтан
рафтанд
рафтани
рафти
рафтор
рафтори
рафтору
рафторҳои
рафту
рафъ
рафъи
рах
рахи
рахимов
рахманинов
рахҳои
рашид
рашиди
рашт
рашти
раъду
раъи
раъии
раъипурси
раъипурсии
раъно
рағбат
рағбати
рақам
рақами
рақамии
рақамҳо
рақамҳои
рақиб
рақиби
рақибони
рақобат
рақобати
рақс
рақси
рақсии
рақсро
рақсу
рақсҳои
раққос
раққоса
раққосаи
раққоси
раҳ
раҳбар
раҳбари
раҳбарии
раҳбарони
раҳи
раҳим
раҳимбии
раҳимбоев
раҳимзода
раҳими
раҳимов
раҳмат
раҳматов
раҳматулло
раҳматуллоев
раҳмон
раҳмони
раҳмонов
раҳнамо
раҳнамои
раҳо
раҳои
раҳсипор
раҷ
раҷаб
раҷаби
раҷабов
раҷабова
рбк
ргб
ре
реаксия
реаксияи
реаксияҳои
реактиви
реал
реализми
реалисти
реальныи
ревир
револютсияи
революции
революция
рег
регар
регзор
реги
региона
регистон
регистони
регистри
ред
редаксияи
редактор
редакциеи
редакция
редкол
редонда
реж
режевскои
режими
режиссер
режиссери
реза
резини
резишгоҳ
резишгоҳи
результате
реи
реиган
реин
реина
реиналдо
реис
реитинг
реитинги
рек
река
реки
реклама
рекомендации
рекорди
ректор
ректори
релефи
религии
релиефи
ремесла
ренато
рене
рентгени
репев
репертуари
ресифе
ресмон
ресмони
республик
республика
республикаи
республике
республики
ресурсы
рехт
рехта
рехтани
реша
решаи
решашинохтии
решаҳои
решение
решении
решения
реҷаи
ри
риа
рибеиран
рибеиро
ривас
ривер
ривера
риверо
ривоети
ривоят
ривояте
ривояти
ривоятҳо
ривоятҳои
ривоҷ
ривоҷи
ривоҷу
рига
рид
риез
риези
риезидон
риезидони
риезиет
риезии
риесати
ризо
ризоев
ризои
ризоият
ризоияти
рии
рика
рикаги
рикардо
рико
рим
рими
римскии
рио
риос
риоя
риояи
рис
рисола
рисолае
рисолаи
рисолат
рисолати
рисолаҳо
рисолаҳои
рита
ритм
рихтер
ричард
риш
ришта
риштаи
риштаҳои
ришқа
ркп
рнч
ро
роберт
роберто
робиаи
робин
робита
робитаи
робитаҳои
ровен
рови
ровии
рогнедин
род
родезиаи
родник
родолфо
родриге
родригек
родригес
родриго
роена
роенаи
рождения
роз
роза
рози
розигии
розия
розиқов
рои
роигон
роигони
роиҷ
рок
року
роландо
роли
роль
ром
рома
роман
романи
романс
романсҳо
романтизм
романтики
романтикии
романҳои
ромео
ромеро
ромин
ромит
ромити
ромненскии
рон
роналд
роналдо
ронанда
ронандаи
ронд
ронда
рондан
ронданд
роса
росарио
россии
россииская
россиискии
россииских
россииско
россиискои
россия
россияи
россияро
россошан
рост
роста
рости
росткунҷа
росткунҷаи
ростов
рота
рох
рохас
рохбари
роша
роштқалъа
роњ
роњи
роғ
роғун
роҳ
роҳандози
роҳандозии
роҳат
роҳати
роҳбар
роҳбари
роҳбарии
роҳбарикунанда
роҳбарикунандаи
роҳбарият
роҳбарияти
роҳбарони
роҳи
роҳнамо
роҳнамои
роҳро
роҳу
роҳхат
роҳхати
роҳҳо
роҳҳои
роҷер
роҷеъ
рп
рсдрп
рсс
рсфср
рт
ртсу
ру
руанда
рубару
рубен
рубинскии
рубио
рубл
рублеи
рубли
рубоб
рубоби
рубои
рубоиет
рубоиети
рубоии
рубоиҳо
рубоиҳои
рубоҳ
руд
руда
рудаи
рудаки
рудакии
рудакиро
рудаҳо
руди
руднян
рудолф
рудхонаи
рудҳои
руендани
руз
руза
рузаи
рузгор
рузгордори
рузгори
рузе
рузи
рузиев
рузио
рузмарра
рузнома
рузномаву
рузномаи
рузноманигор
рузноманигори
рузноманигории
рузноманигорон
рузноманигорони
рузномаҳо
рузномаҳои
рузона
рузонаи
рузро
рузу
рузҳо
рузҳои
руи
руидод
руидоди
руидодҳо
руидодҳои
руизамини
руии
руимол
руипуш
руис
руихат
руихати
рукни
рукнҳои
руководство
рукуъ
рум
румас
руми
румиен
румини
руминия
румиҳо
румонтики
румынии
рус
руси
русии
русиро
русия
русияву
русияи
русияро
руслан
русро
русская
русские
русскии
русских
русско
русского
русское
русскои
русском
русскому
рустам
рустами
рустамов
рустани
рустании
рустаниро
рустаниҳо
рустаниҳое
рустаниҳои
рустаниҳоро
русто
рустои
рустоҳои
русу
русуми
русҳо
рутба
рутбаи
рутбаҳои
рух
рухи
рухсатии
рухшона
рушан
рушд
рушди
рушду
рушнои
рушноии
рушон
рушони
руяш
руҳ
руҳи
руҳии
руҳияи
руҳони
руҳониен
руҳониени
руҳонии
руҳу
рф
рхаимс
рюр
рязан
рҳ
с
са
сабаб
сабабгори
сабаби
сабабҳо
сабабҳои
сабадел
сабақ
саббоҳ
сабз
сабза
сабзавор
сабзавот
сабзавоти
сабзавоткори
сабзанов
сабзи
сабзида
сабзиш
сабзиши
сабзтоб
сабк
сабки
сабку
сабо
сабоҳ
сабоҳат
сабр
сабру
сабт
сабти
сабтиномшуда
сабтҳои
сабук
сабукдуш
сабуки
сабуктар
сабҳа
саввум
савганд
савганди
савдо
савдои
савин
савияи
савод
саводи
саводноки
савол
саволи
саволу
саволҳои
савор
савора
савораи
савори
савр
савсан
савт
савти
саг
саги
сад
сада
садаи
садама
садамаи
садаф
садақа
садаҳои
садбарг
садбарги
садди
садо
садои
садонок
садорати
садояш
садоқат
садоҳои
садр
садри
садриддин
саду
садҳо
саеҳат
саеҳати
сазовор
сазовори
саид
саида
саидали
саидзода
саиди
саидмурод
саидмуродов
саидмуъмин
саидов
саидович
саидулло
саидқул
саиед
саиер
саиера
саиераи
саиераҳо
саиераҳои
саиери
саиеҳ
саиеҳи
саиеҳии
саиеҳон
саиеҳони
саиид
саиидо
саимиддинов
саир
саирам
саири
саиру
саит
саитама
саите
саити
саитҳои
саиф
саифиддин
саифиддинов
саифуллоев
саиқал
сакои
сакоиҳо
сактаи
салазар
салаллоҳу
салам
саламанка
салвадор
салиб
салиби
салим
салими
салимов
салмон
салмони
салом
саломат
саломати
саломатии
салоҳ
салоҳиддин
салоҳият
салоҳияти
салоҳиятҳои
салтанат
салтанате
салтанати
салтанатии
салто
салҷуқи
салҷуқиен
сам
самад
самадов
самаки
самар
самара
самарабахш
самараи
самаранок
самараноки
самаранокии
самари
самарканд
самарқанд
самарқанди
самарқандро
самарқанду
самбо
самиев
самими
самимият
самоа
самои
самолети
самолетҳои
самт
самти
самтҳои
самуэл
самыи
самых
сан
сана
санавбар
санад
санади
санадҳо
санадҳои
санаи
санам
санандаҷ
санаҳои
санг
сангвор
санги
сангин
сангини
сангинов
санглох
сангтуда
сангу
сангфарш
сангҳо
сангҳои
сандро
сандуқи
санитари
санитарию
санкт
саноат
саноати
саноатии
саноеи
саноеъ
санои
санскрит
санскрити
сант
санта
сантана
сантандер
сантиметр
санто
сантос
сантяго
санчес
санъат
санъати
санъаткори
санъатро
санъатшинос
санъатшиноси
санъатҳои
санҷаи
санҷар
санҷид
санҷида
санҷиш
санҷиши
саодат
саодати
сар
сара
сараввал
саразм
саразми
сарам
саранҷом
саратов
саратон
саратони
сарахси
сараш
сарашро
сарбадорон
сарбанд
сарбанди
сарбоз
сарбози
сарбозон
сарбозони
сарбозро
сарв
сарвазир
сарвазири
сарвазирони
сарвазирро
сарвар
сарвари
сарварии
сарварони
сарват
сарвати
сарватманд
сарватманди
сарватмандтарин
сарватҳои
сарви
сарвобод
саргаҳи
саргузашти
саргузаштҳои
саргурд
сард
сардабири
сардафтари
сарди
сардиния
сардор
сардори
сардории
сардорони
сардухтури
сарез
сареъ
сарзамин
сарзамине
сарзамини
сарзаминҳои
сари
сариағаш
саривақт
саридораи
сариосие
сарисинагии
сарихосори
саричашмаи
саркаши
саркуб
саркуби
сарлавҳаи
сарлашкари
сармо
сармои
сармоя
сармоягузори
сармоягузории
сармояи
сармуаллим
сармураббии
сармутахассиси
сармуҳандиси
сармуҳаррир
сармуҳаррири
сарнавишт
сарнавишти
сарнагун
сарнагунии
сарои
сароида
саромадони
сарони
саросар
саросари
сароянда
сарояндаги
сарояндагии
сарояндагон
сарояндагони
сарояндаи
сарпарасти
сарпарастии
сарпуши
сарраесати
сарредаксияи
сарро
сартарошхона
сару
сарукор
сарф
сарфармондеҳи
сарфароз
сарфи
сарфу
сарходими
сарчашма
сарчашмаи
сарчашмаҳо
сарчашмаҳои
саршавии
саршиноси
саршор
саршумори
саршумории
саръ
сарқанд
сарқонун
сарқонуни
сарҳад
сарҳадди
сарҳади
сарҳадии
сарҳадҳои
сарҳанг
сасанидском
сатр
сатри
сатрҳои
саттор
сатторзода
саттори
сатторов
сатҳ
сатҳаш
сатҳи
сатҳҳои
сауд
сауди
саф
сафави
сафавиен
сафар
сафарали
сафарбар
сафари
сафармурод
сафармуҳаммад
сафарнома
сафаров
сафарҳо
сафарҳои
сафед
сафеда
сафедаи
сафедаҳо
сафедаҳои
сафеди
сафедор
сафедпустон
сафедтоб
сафи
сафиева
сафина
сафир
сафири
сафо
сафол
сафоли
сафорати
саффи
саффориен
сафҳаи
сафҳои
сахалин
саховат
сахт
сахти
сахтиаш
сахту
саъд
саъди
саъдиев
саъдии
саъдулло
саъдуллоев
саъи
саъю
сағир
сақфи
саққиз
саҳ
саҳа
саҳар
саҳеҳ
саҳеҳи
саҳифа
саҳифаи
саҳифаҳо
саҳифаҳои
саҳм
саҳмгузори
саҳми
саҳмияҳо
саҳмияҳои
саҳна
саҳнави
саҳнаи
саҳнаҳои
саҳни
саҳоба
саҳомии
саҳро
саҳрои
саҳроии
саҳҳоми
саҳҳомии
саҷда
сб
сборник
сведения
свердловск
свет
света
светлана
светлояр
свободненскии
своего
своеи
свои
своиства
своих
свою
своҳили
связи
сдт
се
себ
себастиан
себастян
себи
себя
сев
севастопол
севвум
северного
северо
севиле
севум
сегодня
сегона
сегонаи
сегоҳ
сезар
сездаҳум
сеиба
сеишел
сектори
секунҷа
секунҷаи
сел
села
селе
селевкиен
селексия
селексияи
селен
сели
селиванов
селлюлоза
село
сельского
сельское
сельскохозяиственных
семашко
семен
семенов
семенович
семеновская
семент
семилук
семинари
семинарҳои
семоҳаи
семь
сен
сена
сенарияи
сенат
сенати
сенатор
сенатори
сенегал
сензура
сент
сентнер
сентябр
сентябри
сентября
сер
серафимович
сераҳоли
серби
сербия
сервер
серге
сергеевич
сергеи
сержант
сержанти
сериал
сериали
серишевскии
серия
серкан
сернам
сероб
серовскии
серрано
серхио
сершира
сершох
сершумор
сершумори
серғизо
серҳосил
сесад
сесаду
сессияи
сети
сетор
сеул
сехи
сешанбе
сеюм
сеюми
сеюмин
сеюмро
сеяки
сеҳрнок
си
сибир
сибири
сиву
сигнали
сигналҳои
сигор
сиддиқ
сиднеи
сидқи
сиевуш
сиерра
сиесат
сиесати
сиесатмадор
сиесатмадори
сиесатмадорон
сиесатмадорони
сиесатшинос
сиесатшиноси
сиесатшиносии
сиеси
сиесиву
сиесие
сиесии
сиесиро
сиесию
сиеҳ
сиеҳи
сиеҳтоб
сиеҳу
сиистон
сикка
сиккаҳои
сикли
сил
силва
сили
силитсии
силоҳ
силоҳи
силоҳҳои
силсила
силсилави
силсилаи
силсилафилм
силсилафилми
силсилафилмҳо
силсилафилмҳои
силсилаҳои
силу
силы
сим
сими
симин
симнон
симо
симоб
симои
симон
симоҳои
симпозиуми
симпозиуму
симпозиумҳои
симфони
симфонии
симфония
симфонияи
син
сина
синааш
синаи
синамо
синамогарони
синамои
синамоии
сингапур
сингли
сингх
сингҳ
синд
синдроми
сини
синни
синну
сино
синои
синон
синоро
синт
синтаксис
синтаксиси
синтез
синтези
синф
синфи
синфҳои
сипар
сипари
сипаршакл
сипас
сипаҳбад
сипаҳсолор
сипаҳсолори
сипоҳ
сипоҳи
сипоҳиен
сипоҳиени
сипурз
сир
сирдаре
сириллик
сирк
сирки
сирко
сироят
сироятефтагон
сирояти
сироятии
сироҷ
сироҷиддин
сирпиез
сирри
сирф
сисерт
систем
система
системаи
системаҳои
системе
системи
системы
систон
ситам
сити
ситоди
ситоиш
ситоиши
ситора
ситорави
ситораи
ситорашиноси
ситораҳо
ситораҳои
ситруси
ситсилия
сиудад
сифат
сифатан
сифати
сифатҳо
сифатҳои
сифоти
сифр
сиэмт
сиэрра
сиэст
сиэтл
сию
сиюм
сиҳат
скифҳо
скобелев
сковородинскии
скончался
скота
скотт
скрипка
славяни
славянии
славянскии
сладкопевец
сладкопевно
сладкопевность
сладкопевныи
сладкопение
слобода
слободо
словаки
словакия
словари
словарь
словени
словения
слово
служба
случае
слюдянск
см
смерти
сми
смирнов
смит
смм
смоленск
сн
снг
снт
со
соавт
соавтор
соавторстве
соат
соати
соато
соату
соатҳои
собин
собир
собиров
собирова
собит
собиқ
собиқадори
собиқадорони
собиқаи
собиқи
собрание
собун
событии
сов
совет
совета
совети
советии
советию
советская
советскии
советских
советского
советскои
современная
современного
современнои
современном
современные
современныи
современных
совхоз
совхози
согда
согласно
сода
содаву
содаи
содда
содир
содирот
содироти
содирхон
содиқ
содиқи
содиқов
содот
соединенные
соз
созад
созанд
созанда
созандаи
созгор
создание
сози
созии
созиш
созишнома
созишномаи
созишномаҳо
созишномаҳои
созию
созмон
созмони
созмонии
созмонҳои
сознавози
созу
созҳо
созҳои
сои
соиб
соии
соири
сокин
сокини
сокинон
сокинонаш
сокинони
сокол
соколов
соколова
сол
сола
солааш
солаги
солагиаш
солагии
солаи
соларо
солгарди
соле
солеҳ
солеҳов
соли
солиев
солиени
солик
солим
солими
солимии
солис
солномаи
соловьев
соломон
солона
солонаи
солор
солро
солу
солхои
солхурда
солшумории
солҳо
солҳои
сом
сомали
сомеа
соми
сомон
сомона
сомонаи
сомонаҳои
сомони
сомониен
сомонии
сомониро
сон
соната
сонатаи
сони
сонитар
сония
сониян
сонто
сообщение
сообщения
соответствии
сопрано
сорбон
сория
соро
сорок
сорта
соса
сосновка
сосони
сосониен
сост
состав
составе
состояние
сотим
сото
сотсиал
сотсиализм
сотсиалисти
сотсиалистии
соуза
соф
софи
софия
сохт
сохта
сохтаанд
сохтааст
сохтаи
сохтан
сохтанд
сохтани
сохташуда
сохтвожаи
сохти
сохтмон
сохтмони
сохтмонии
сохтмону
сохтмонҳои
сохтор
сохтори
сохтории
сохторҳои
сохту
сохтумони
социалистических
социально
социальнои
соч
сочи
сочинении
сочинения
союз
союза
союзных
соя
сояи
соқи
соқинома
соқит
соҳа
соҳави
соҳавии
соҳаи
соҳаҳо
соҳаҳои
соҳиб
соҳибдевон
соҳиби
соҳибистиқлол
соҳибистиқлоли
соҳибистиқлолии
соҳибихтиер
соҳибихтиерии
соҳибкор
соҳибкори
соҳибкории
соҳибкорон
соҳибкорони
соҳибов
соҳибони
соҳил
соҳили
соҳилҳо
соҳилҳои
спартак
спб
спевать
спеваться
спевка
спектакли
спектаклҳои
спектр
спектри
спектроскопияи
спеть
спеться
специальности
спид
спирт
спирти
список
спитаман
спитамен
сплава
сплавов
спорт
спорта
справка
справочная
справочник
спутник
сред
среде
среди
среднеахтубинск
среднего
среднеи
среднии
средняя
сс
сср
ссср
ст
ставропол
стал
стала
стали
сталин
сталинабад
сталинград
сталини
сталинобод
стандарт
стандарти
стандартии
стандартҳои
станислав
становление
становления
стансияи
стансияҳои
станция
старая
старии
стародуб
старое
старооскол
старополтавск
статеи
статистика
статистике
статистики
статистическии
статистических
статус
статье
статьи
статья
стб
степанакерт
степанов
степанович
степени
стив
стивен
стипендияи
стихи
сто
стокҳолм
столица
столицы
стороны
стр
страбон
страикер
стран
стране
страница
страницы
страны
страсбург
стратеги
стратегии
стратегияи
стресс
стрит
строительства
строка
строки
структура
структуры
студентов
студия
студияи
студияҳои
стэнфорд
стюарт
су
суарес
субот
субтропики
субтропикии
субъект
субъекти
субъективи
субъектҳои
субҳ
субҳи
субҳон
субҳони
суворов
суд
суди
судии
судманд
судогод
судон
судони
судхур
судяи
судҳои
сужаи
сужети
сузан
сузанда
сузани
суздал
сузем
сузи
сузиш
сузишвори
сузишвории
сузиши
сузон
сузоқ
суи
суии
суиқасд
сукунат
сукунати
сукут
сула
сулаимон
сулаимони
сулаимонов
сули
сулола
сулолаи
сулолаҳои
султон
султони
султонов
султонҳои
сулук
сулфа
сулфат
сулфати
сулфур
сулҳ
сулҳи
сулҳу
сум
сумалак
суманак
сумоли
сун
сунани
сунбула
суннат
суннати
суннатии
суннатҳои
сунни
сунъи
сунъии
суперҷоми
супорад
супорид
супорида
супоридани
супориш
супориши
супоришҳои
супурд
супурда
супурданд
супурдани
сур
сура
сураж
сураи
сураие
сурат
сурате
сурати
суратҳои
сураҳои
сурб
сури
суринам
сурином
сурия
сурма
сурнаи
суровикин
сурох
сурохи
сурохии
суруд
суруда
сурудааст
сурудани
сурудаҳои
суруди
сурудро
суруду
сурудхони
сурудҳо
сурудҳои
сурур
суруш
сурфа
сурфаи
сурх
сурхакон
сурхи
сурхоб
сурхондаре
сурхондареи
сурхро
сурхруда
сурхтоб
сурхча
суръат
суръати
сус
суст
сусти
сут
суто
сутуда
сутун
сутуни
сутунмуҳра
сутунҳо
сутунҳои
суфи
суфиен
суфиени
суфии
суфия
суфраи
суфта
сух
сухан
суханвари
суханварони
сухангуи
сухани
суханони
суханро
суханрони
суханронии
суханрониҳои
суханҳои
сухоложскии
сухт
сухта
сухтани
сухтор
сухуми
сучони
существует
суғд
суғди
суғдиен
суғдро
суғурта
суғуртаи
суқрот
суқут
суқути
суҳаили
суҳбат
суҳбати
суҳраварди
суҳроб
сша
съезд
съезди
сын
сэм
сэмюэл
сюжети
сюита
сюитаи
сюр
сямжен
сҳш
т
та
тааллуқ
таалуқ
таассуроти
таб
табаддулот
табаддулоти
табар
табари
табаристон
табаров
табассум
табақ
табақа
табақабандии
табақаи
табақаҳои
табақи
табақоти
табдил
табдили
таби
табиат
табиатан
табиати
табиатро
табиату
табиатшиноси
табиатшиносии
табиб
табиби
табибон
табибони
табии
табиии
табииро
табиист
табиию
таблак
табларза
таблиғ
таблиғи
таблиғот
таблиғоти
табобат
табобати
табодули
табор
табори
таборинскии
табрез
табрези
табрик
табъ
табъи
табъу
тав
таваллуд
таваллудаш
таваллуди
таваррум
тавассути
таваққуф
таваҷҷуҳ
таваҷҷуҳи
тавба
тавдинскии
тавзеҳ
тавзеҳи
тавзеҳот
тавзеҳоти
тавилдара
тавлид
тавлиди
тавозуни
тавон
тавонад
тавонист
тавонистааст
тавонистанд
тавоно
тавонои
тавоноии
таворих
тавр
тавре
таври
таврот
тавсеа
тавсеаи
тавсиф
тавсифи
тавсифоти
тавсия
тавсияи
тавсияҳо
тавсияҳои
тавъам
тавҳид
тавҳиди
тагали
таги
тадбир
тадбири
тадбирҳо
тадбирҳои
тадвин
тадвини
тадж
таджики
таджикистан
таджикистана
таджикистане
таджиков
таджикская
таджикскии
таджикско
таджикского
таджикскои
таджикском
тадрис
тадриси
тадриҷан
тадқ
тадқиқ
тадқиқи
тадқиқот
тадқиқоти
тадқиқотии
тадқиқотҳои
тазкира
тазкираи
тазкиранигор
тазкират
тазкирату
тазкираҳо
тазкираҳову
тазкираҳои
тазоҳурот
тазоҳуроти
таи
таиван
таиер
таиера
таиери
таиерии
таии
таиланд
таиланди
таир
таифи
таишет
так
такаллум
также
таклиф
такмил
такмили
такмилу
такое
такомул
такомули
такон
такони
такрор
такроран
такрори
такси
таксона
такя
такягоҳи
тал
талаб
талабагон
талаби
талабот
талаботи
талаботҳои
талабхуҷа
талас
талаф
талафоти
талаффуз
талаффузи
талбак
талискии
талко
таллин
талов
талош
талоши
талошҳои
талоқ
талх
талхадон
талғар
талқин
талқини
там
тамаддун
тамаддуни
тамаддунҳо
тамаддунҳои
таманно
тамара
тамаркуз
тамашк
тамбов
тамбовскии
тамоку
тамом
тамоман
тамоми
тамомияти
тамос
тамошо
тамошобин
тамошобинон
тамошобинони
тамошобинонро
тамошои
тамоюл
тамоюли
тамрин
тамғаи
тан
тана
танааш
таназзул
таназзули
танаи
танаффус
танаш
танбур
танбури
танг
танга
тангаи
тангаҳо
тангаҳои
танги
тандурусти
тандурустии
танзания
танзим
танзими
тани
танки
таносуб
таносуби
таносул
таносули
тантанави
тантанаи
танур
танури
танхо
танқид
танқиди
танҳо
танҳои
таоло
таом
таоми
таомҳои
тар
тарабхонаи
тарабхонаҳо
тараннум
тараннуми
тарас
тараф
тарафаин
тарафаш
тарафдори
тарафдории
тарафдорони
тарафи
тарафҳо
тарафҳои
тарашшуҳи
тараққи
тараққиет
тараққиети
тараққии
тарбия
тарбияви
тарбиявии
тарбияи
тарбият
тарбияти
тарбод
тарбуз
тарз
тарзи
тарзу
тарзҳои
тари
тариқ
тариқаи
тариқат
тариқати
тариқи
тарк
тарканда
тарки
таркиб
таркибаш
таркибашон
таркиби
таркибии
таркиботи
таркибҳои
таркиш
таркиши
тармим
тармими
тарног
таровеҳ
тарона
таронаи
таронаҳо
таронаҳои
тарошида
тарошидани
тарроҳи
тарроҳии
тарс
тарси
тарсу
тартиб
тартиби
тартибот
тартиботи
тартибу
тарту
тару
тархури
тарғиб
тарғиби
тарғиботи
тарғибу
тарҳ
тарҳи
тарҳрези
тарҳрезии
тарҷ
тарҷеъбанд
тарҷума
тарҷумаву
тарҷумаи
тарҷумаҳои
тарҷумон
тарҷумони
тасаввур
тасаввурот
тасаввуроти
тасаввуф
тасаввуфи
тасаввуфро
тасарруф
тасарруфи
тасвиб
тасвир
тасвири
тасвирии
тасвироти
тасвирҳо
тасвирҳои
тасдиқ
тасдиқи
таскин
таслим
таслими
тасма
тасмаи
тасмим
тасмими
тасниф
таснифи
таснифоти
тасодуфан
тасодуфи
тасриф
тасрифи
тасрифкуни
тасс
тасхир
тасҳеҳи
татбиқ
татбиқи
тате
татяна
тафаккур
тафаккури
тафовут
тафовути
тафовутҳои
тафсир
тафсири
тафсирии
тафсирҳои
тафсон
тафтиш
тафтиши
тафтишот
тафтишоти
тафтишотии
тахаиюли
тахаллус
тахаллусаш
тахаллуси
тахассус
тахассуси
тахм
тахмин
тахминан
тахмини
тахористон
тахт
тахта
тахтаи
тахтапушт
тахти
тахту
таш
ташаббус
ташаббуси
ташаббускори
ташаккул
ташаккулебии
ташаккули
ташаккулу
ташаккур
ташбеҳ
ташвиш
ташвиқ
ташвиқи
ташвиқоти
ташвиқу
ташкент
ташкил
ташкилебии
ташкили
ташкилии
ташкилию
ташкилот
ташкилоти
ташкилоту
ташкилотчии
ташкилотҳо
ташкилотҳои
ташкилу
ташнаги
ташриф
ташрифи
ташхис
ташхиси
таъ
таъбир
таъбири
таъиид
таъиин
таъиини
таъиинот
таъииноти
таъииншуда
таъин
таъкид
таъкиди
таълим
таълими
таълимии
таълимиро
таълимию
таълимот
таълимоти
таълиму
таълиф
таълифаш
таълифи
таълифот
таълифоти
таъми
таъмин
таъмини
таъминкунандаи
таъминоти
таъмир
таъмири
таъмиру
таъоло
таъриф
таърифи
таърих
таърихан
таърихи
таърихиву
таърихии
таърихиро
таърихию
таърихнигор
таърихнигори
таърихнигории
таърихнигорон
таъриху
таърихшинос
таърихшиноси
таъсир
таъсирбахш
таъсири
таъсироти
таъсис
таъсисаш
таъсисеби
таъсисебии
таъсиси
таътил
таъхир
таъқиб
таъқиби
таъҷили
тањи
тағиир
тағииребанда
тағииребии
тағиири
тағиирот
тағиироти
тағиироту
тағииру
тағир
тағиребии
тағирот
тағироти
тақ
тақвим
тақвими
тақвият
тақвияти
тақво
тақдим
тақдир
тақдири
тақлид
тақлиди
тақозо
тақозои
тақр
тақрибан
тақриз
тақсим
тақсими
тақсимот
тақсимоти
тақсимшавии
таҳ
таҳаввул
таҳаввули
таҳаввулот
таҳаввулоти
таҳаммул
таҳвил
таҳвили
таҳдид
таҳдиди
таҳия
таҳиягар
таҳиягари
таҳияи
таҳиякунандаи
таҳким
таҳкими
таҳкурсии
таҳлил
таҳлили
таҳлилии
таҳлилу
таҳм
таҳмдор
таҳми
таҳмина
таҳнишастҳои
таҳрир
таҳрири
таҳририяи
таҳсил
таҳсилашро
таҳсили
таҳсилот
таҳсилоти
таҳсилро
таҳти
таҳшин
таҳшини
таҳқир
таҳқиқ
таҳқиқи
таҳқиқии
таҳқиқот
таҳқиқоти
таҳқиқотии
таҳқиқотҳои
таҳқиқу
таҳҷои
таҳҷоии
таҷассум
таҷассуми
таҷдид
таҷдиди
таҷдиду
таҷзия
таҷзияи
таҷлил
таҷлили
таҷовуз
таҷовузи
таҷовузкорона
таҷриба
таҷрибави
таҷрибавии
таҷрибаи
таҷрибаомузии
таҷрибаҳо
таҷрибаҳои
таҷҳизот
таҷҳизоти
тбилиси
тбм
тв
твер
твиттер
творчества
творчество
те
театр
театри
театрии
театру
театрҳо
театрҳои
тег
тега
теги
тегусигалпа
тез
тези
тезтар
тезу
теиков
теиксира
теилор
текст
текста
тектоники
тел
тела
телевизион
телевизиони
телевизионии
телевизор
телеграф
телекоммуникатсиони
телекоммуникатсия
теленовелаи
телескоп
телескопи
телефон
телефони
телефонии
телефонҳои
телугу
тем
темур
темури
темуриен
темуриени
темурмалик
тенденции
тенерифе
теннис
тенор
теодор
теоремаи
теории
теория
теппа
теппаи
теппаҳо
теппаҳои
тер
тереза
терминали
терминов
терминология
термодинамика
тернов
территориальное
территориальных
территории
терроризм
террористи
террористии
тести
тех
техас
техника
техникаи
техники
техникии
техникуми
техническии
технолог
технологи
технологии
технологическии
технология
технологияи
технологияҳои
теъдод
теъдоде
теъдоди
теғ
теғи
теҳрон
теҳрони
ти
тиб
тибб
тибби
тиббии
тиббию
тибет
тибети
тибқи
тигзос
тилло
тиллои
тиллоии
тило
тилои
тилоии
тилоро
тим
тими
тимори
тимсоли
тимсоҳ
тимур
тимуридов
тимҳои
тин
тип
типа
типи
типография
типология
типологияи
тир
тира
тирамоҳ
тирамоҳи
тирана
тирандози
тирандозии
тирборон
тиреза
тири
тирмиз
тирмизи
тиру
титан
титаник
тифл
тифли
тифлис
тиҷорат
тиҷорати
тиҷоратии
тиҷори
тиҷории
тну
то
тоаш
тоб
тобеи
тобеияти
тобеъ
тобеъи
тоби
тобистон
тобистона
тобистонаи
тобистони
тобиши
тобишҳои
тобовар
товн
того
тоза
тозаги
тозае
тозаи
тозаинтихоби
тои
тоиров
тоифаи
ток
токаш
токдори
токембрии
токзор
токио
токпарвари
толедо
толиб
толибон
толис
толиқон
толор
толори
толорҳои
толстои
только
том
томактаби
томас
томах
томе
томи
томили
томирис
томск
томҳои
тон
тони
тонна
топ
топоним
тор
торафт
тори
тории
торик
торики
торихи
торо
тороби
торонто
торрес
торт
торумор
торҳои
тотем
тотор
тотори
тотористон
тоторҳо
тоун
тохаристана
тохтутози
тош
тошев
тошканд
тошканди
тошкандро
тошкент
тошматов
тоқ
тоқи
тоқии
тоқиҳои
тоҳир
тоҳири
тоҳириен
тоҷ
тоҷи
тоҷибоев
тоҷиддин
тоҷиев
тоҷик
тоҷики
тоҷикии
тоҷикиро
тоҷикист
тоҷикистон
тоҷикистони
тоҷикистонии
тоҷикистонро
тоҷикистону
тоҷикию
тоҷикнишин
тоҷикнишини
тоҷикобод
тоҷикободи
тоҷикон
тоҷикони
тоҷиконро
тоҷикро
тоҷику
тоҷикфилм
тоҷир
тоҷири
тоҷирон
тоҷирони
тоҷнома
тоҷу
тр
трабзон
традиции
традиция
тракта
трактат
трактор
тракторҳои
трамп
транскрипсияи
траян
трес
трести
трех
три
трии
триллери
тринидад
триполи
троитски
тропики
тропикии
троя
труба
трубчев
труд
труда
трудовои
труды
трухило
тсахури
тт
ту
туб
туби
тубо
тува
тувалу
тугма
тугмаи
тугулимскии
туда
тудаи
туена
туи
туии
туичиев
тул
тула
тулаш
тулеби
тули
тулкибос
тулони
тулонии
тулуи
тулун
тулуъ
тулуъи
туман
тумани
тумор
тунд
тунис
тунук
тунуки
туп
тупи
тур
тураев
турб
турбати
турдиев
тури
туризм
туризми
турин
туринскии
туристи
туристии
турк
туркзабон
турки
туркии
туркистон
туркистони
туркия
туркияро
туркм
туркман
туркманбоши
туркмани
туркманистон
туркманистони
туркманобод
туркманҳо
туркменистан
туркменистана
туркон
туркони
турку
туркҳо
туркҳои
туро
турова
турон
турони
турсун
турсунзода
турсунзодаи
турсунзодаро
турсунов
турции
турш
турши
тус
туси
туст
тут
тути
туфаили
туфон
туфони
тухм
тухмаш
тухмдон
тухми
тухмии
тую
туғрал
туҳмат
туҳфа
туҳфаи
туҳфат
туҳфату
ты
тыс
тэтчер
тюмен
тяго
тҷк
у
уарес
убаид
убаиди
убаидулло
убаидуллоев
убаидуллоҳ
убур
убури
уганда
угро
уд
удт
уезд
уезди
уелс
уефа
уже
уз
узб
узбаки
узбакистон
узбек
узбеки
узбекии
узбекистан
узбекистана
узбекистон
узбекистони
узбекистонро
узбекон
узбекҳо
узв
узви
узвият
узвияти
узву
узвҳо
узвҳои
уилсон
уилям
уилямс
уиғур
уиғури
уиғурҳо
указ
указания
указатель
укази
укр
украиина
украина
украини
украины
украинҳо
украіни
укроин
уксус
уктам
ул
уламо
уламои
улан
улица
улмасов
ултрабунафш
улум
улуми
улуғбек
улуғзода
улҷабоев
ум
умавиен
умар
умари
умаров
умарова
умарови
умберто
умдаи
умдатан
умед
умеди
умер
уми
умин
уммат
уммон
умон
умр
умраш
умри
умро
умум
умуман
умуми
умумиаш
умумиашон
умумибашари
умумибашарии
умумии
умумиитифоқи
умумииттифоқи
умумииттифоқии
умумиро
умумихалқи
умумихалқии
умумият
умумияти
умумиҷаҳони
умумиҷаҳонии
умумиҷумҳурияви
умури
умқи
ун
унвон
унвони
унвонҳои
унвонҷу
унеч
универсали
университет
университета
университети
унс
унсур
унсури
унсурҳо
унсурҳои
уолт
уолтер
уоррен
управление
управления
ур
уравнении
урал
уран
урбах
урганҷ
ургут
урдибиҳишт
урду
урдуи
урдун
урен
урмави
уро
уротеппа
уртадо
уругваи
уругваии
уругуаи
урунов
урупо
урфи
урфу
уршалим
урюпинск
ус
условиях
условности
услуб
услуби
услубшиноси
услубҳои
усмон
усмони
усмонов
усмонова
усмонҷон
усолск
усораи
успенскии
уст
уствазири
усто
устод
устодаш
устоди
устодон
устодона
устодонаи
устодони
устоев
устои
устон
устони
устонҳои
устохонаи
устоҳо
устоҳои
устувор
устувори
устувории
устура
устурлоб
устурлоби
устуролее
устухон
устухони
устухонҳои
усть
устюжен
устянск
усул
усули
усулу
усулҳо
усулҳои
ут
утби
ути
утоқи
утоқҳои
утриш
утрор
уттар
уф
уфа
уфар
уфтода
уфуқи
участников
участок
учащихся
учебник
учебно
учебное
учение
ученые
ученых
уш
ушаков
ушел
ушшоқ
уэлси
уэсте
уянд
уқенус
уқенуси
уқенусия
уқенусҳо
уқлидус
уқоб
уқоби
уҳда
уҳдадор
уҳдадори
уҳдадории
уҳдадориҳои
уҳдаи
ф
фа
фаб
фабиан
фабио
фабрикаи
фабрисио
фаввора
фаввораи
фаввораҳо
фавран
фаври
фаврии
фавт
фавти
фавтид
фавтида
фавтидааст
фавтидагон
фавтиданд
фавқулода
фавқулодаи
фавқулодда
фавқулоддаи
фазилати
фазл
фазлиддин
фазлу
фазо
фазои
фазоии
фаиз
фаизали
фаизи
фаизиев
фаизобод
фаизулло
фаизуллоев
фаил
фаиласуф
фаиласуфи
фаиласуфон
фаиласуфони
фаили
фаилҳои
фаисал
фак
факат
фактор
факты
факулта
факултаи
факултаҳои
факултет
факултети
факултетҳои
факундо
фалак
фалаки
фаластин
фалаҷ
фалокат
фалокати
фалсафа
фалсафаи
фалсафаро
фалсафи
фалсафии
фалсафию
фан
фанни
фанновари
фано
фантазия
фанҳо
фанҳои
фар
фарадеи
фараж
фарбеҳ
фарбеҳи
фарвардин
фард
фарде
фарди
фардии
фардо
фаред
фареди
фарз
фарзанд
фарзандаш
фарзанди
фарзандон
фарзандонаш
фарзандони
фарзи
фарзия
фарзияи
фарзона
фарзонаи
фаридун
фаридуни
фаришта
фариштагон
фариштаи
фармоиш
фармоиши
фармон
фармондеҳ
фармондеҳаш
фармондеҳи
фармондеҳии
фармондеҳони
фармони
фармонравои
фармонҳои
фармуд
фармуда
фармудааст
фаро
фаровон
фаровоне
фаровони
фаровонии
фарогир
фарогири
фарогирии
фаромуш
фаромуши
фаронса
фаронсави
фаронсавии
фаронсавиҳо
фаронсаро
фарох
фароянди
фароғат
фароғати
фароғатии
фароҳам
фаррух
фаррухи
фарсанг
фархор
фархори
фарш
фарши
фаръи
фаръии
фарғона
фарғонаи
фарғони
фарқ
фарқи
фарқият
фарқияти
фарқкунандаи
фарҳанг
фарҳанги
фарҳангии
фарҳангистони
фарҳангию
фарҳангу
фарҳангшиноси
фарҳангҳо
фарҳангҳои
фарҳат
фарҳод
фарҳоди
фасл
фасли
фаслҳо
фаслҳои
фасо
фасод
фасоди
фатво
фатири
фатҳ
фатҳи
фатҳулло
фатҳуллоҳ
фахр
фахри
фахриддин
фахрии
фахруддин
фахруддини
фашизм
фашисти
фашистон
фаъол
фаъоли
фаъолият
фаъолияташ
фаъолияташро
фаъолияти
фаъолиятҳои
фаъолона
фаъолонаи
фаъолони
фақат
фақеҳ
фақеҳи
фақеҳон
фақир
фаҳанги
фаҳмид
фаҳмида
фаҳмидани
фаҳмиши
фаҳмо
фаҷр
фе
февр
феврал
феврали
февраля
федерали
федералии
федеративи
федеративии
федератсия
федератсияи
федерации
федерико
федероли
федеролии
федор
федорович
федченко
феисбук
феликс
феодали
фердинанд
фереира
фермаи
ферментҳо
ферментҳои
фермери
ферми
фернандес
фернандо
фестивал
фестивали
фестивалҳои
феъл
феълан
феъли
феълии
феълҳо
феълҳои
феҳрист
феҳристи
фз
фи
фигуэро
фидел
физик
физика
физикави
физикаву
физикаи
физикаю
физикдон
физикдони
физики
физикии
физикию
физико
физиологи
физиологии
физиология
физиологияи
физули
фикр
фикри
фикру
фикрҳои
фил
филаделфия
филармонияи
филд
филиал
филиали
филиалҳои
филиз
филиззи
филиззот
филиззоти
филизи
филип
филипп
филиппин
филиппини
филм
филмбардори
филме
филми
филмнома
филмномаи
филмноманавис
филмноманависи
филмро
филмсози
филмҳо
филмҳое
филмҳои
филол
филолог
филологи
филологии
филология
филологияи
философии
философия
философские
философскии
филуредо
филфил
фильм
филю
фин
финал
финали
фини
финланд
финландия
финляндия
фирдавс
фирдавси
фиреб
фиристод
фиристода
фиристодаи
фиристоданд
фиристодани
фирор
фирори
фируз
фируза
фирқаи
фирқаҳои
фисад
фитр
фитрат
фитри
фифа
фишор
фишори
фишурда
фиқҳ
фиқҳи
фиқҳии
фиҷи
флавио
флаг
фланенго
флеита
флора
флоренсия
флорес
флорида
флот
флоти
фозил
фозилова
фозилу
фоида
фоидаи
фоиданок
фоиданоки
фоиз
фоизи
фоизро
фокс
фолз
фолклор
фолклори
фон
фонд
фонда
фонди
фондҳои
фонетика
фонетики
фони
фонсека
фор
форам
форарлберг
форбс
форд
фореби
фориғ
фориғуттаҳсили
форм
форма
формати
формирование
формирования
формула
формулаи
формулаҳои
формы
фороби
форс
форси
форсизабон
форсизабони
форсизабонони
форсии
форсиро
форсию
форсро
форсу
форсҳо
форт
форталеза
фортепиани
фортепиано
фортепианои
форум
форуми
фосила
фосилави
фосилаи
фосилаҳои
фосфор
фотеҳ
фотима
фотиҳа
фото
фотографии
фотосинтез
фош
фоҷиа
фоҷиаи
фр
фразеологии
фраи
фраксияи
франк
франки
франклин
франко
франкфурт
франс
франсави
франсиско
франсия
франсуа
франции
франция
франческо
фредерик
фреитас
фридрих
фролов
фронт
фронтера
фронти
фрунзе
фрунзеи
фрэнк
фрэнсис
фсб
фу
фукуока
фулузи
функсия
функсияи
функсияҳо
функсияҳои
функции
функция
фунт
фурманов
фурот
фурс
фурсат
фурсати
фурт
фуру
фуруд
фурудгоҳ
фурудгоҳи
фурудгоҳҳои
фуруди
фурузон
фурупошии
фурухт
фурухта
фуруш
фурушанда
фуруши
фуруғи
фут
футбол
футболбоз
футболбози
футболбозони
футболи
футболии
футуҳоти
фуэнтес
х
ха
хабар
хабаргузории
хабари
хабарии
хабарнигор
хабарнигори
хабарнигории
хабаровск
хабарҳо
хабарҳои
хавиер
хавкин
хавориҷ
хавф
хавфи
хавфнок
хадамот
хадамоти
хадиҷа
хаел
хаели
хазандаҳо
хазар
хазина
хазинаи
хазон
хаибер
хаием
хаима
хаине
хаир
хаири
хаирия
хаиро
хаиру
хаирулло
хаируллоев
хакасия
хакимов
хал
халал
халалдор
халиков
халил
халилов
халиско
халифа
халифаев
халифаи
халифаҳо
халифаҳои
халиҷ
халиҷи
халиҷҳои
халки
халос
халта
халқ
халқи
халқии
халқиро
халқист
халқият
халқияти
халқиятҳои
халқро
халқу
халқҳо
халқҳои
хам
хамаи
хамин
хамир
хамири
хамиртуруш
хамон
хамса
хан
ханда
хандаи
хандон
ханкенди
ханои
хар
хара
харабалинск
характери
характеристика
харби
харбуза
харбузаи
харгуш
харид
харида
харидани
хариди
харидор
харидори
хариду
харита
харитаи
харитаҳои
харков
хароб
харобаҳои
хароби
харовск
хароҷот
хароҷоти
хартум
харҷ
харҷи
хаста
хат
хатар
хатари
хатарнок
хати
хатлон
хатлони
хатм
хатми
хатмкардагони
хатмкардаи
хатмкунандагони
хатмкунандаи
хатна
хатнасур
хато
хатои
хатсаири
хатсаирҳои
хатти
хаттии
хаттот
хаттоти
хаттотии
хату
хатҳои
хачмаз
хашм
хашмгин
хашми
хева
хезад
хел
хеле
хело
хелсинборг
хелҳои
херардо
херес
хесус
хеч
хеш
хеши
хешовандон
хешовандони
хешро
хештан
хешу
хи
хива
хидмат
хидматгор
хидмати
хидматнишондодаи
хидматрасони
хидматрасонии
хидматрасониҳои
хидматҳо
хидматҳои
хидматҳояш
хиебон
хиебони
хиебонҳои
хиенат
хизмат
хизмати
хизматнишондодаи
хизматрасони
хизматчи
хизматчиени
хизматҳои
хилофат
хилофати
хилофи
хименес
химии
химик
химические
химия
химияви
химиявии
химияи
хиндустон
хира
хирад
хиради
хирадманд
хирмани
хирона
хирохито
хироҷ
хирс
хирси
хислат
хислати
хислатҳои
хисор
хисрав
хистеварз
хит
хитоб
хитои
хитоии
хихон
хишт
хишти
хиштҳои
хлор
хлориди
хо
хоан
хоб
хобгоҳ
хоби
хобида
ховалинг
ховар
ховари
ход
ходжиматов
ходими
ходимони
хозяиства
хок
хока
хокаи
хокаш
хоки
хокистар
хокистари
хокистарранг
хокистарранги
хоккеи
хоку
хокшиноси
хокшиносии
хокҳои
хол
холи
холид
холии
холис
холиқ
холиқзода
холиқов
холматов
холматови
холмогор
холмуродов
холо
холов
холҷураев
хом
хоманаи
хоми
хомуш
хомуши
хон
хона
хонааш
хонавода
хонаводааш
хонаводаги
хонаводаи
хонаги
хонадон
хонадони
хонадор
хонае
хонаи
хонанд
хонанда
хонандагон
хонандагони
хонандаи
хонаро
хонатан
хонақоҳ
хонақоҳи
хонаҳо
хонаҳои
хонд
хонда
хондаанд
хондааст
хондан
хондани
хони
хонивор
хонигарии
хонии
хониш
хониши
хонум
хонуми
хонҳои
хопкинс
хор
хоразм
хоразми
хоразмшоҳ
хоразмшоҳиен
хорв
хорвати
хорватия
хорди
хореографии
хори
хориҷ
хориҷа
хориҷи
хориҷиен
хориҷии
хориҷиро
хоро
хорпуштак
хоруғ
хорхе
хос
хоса
хосе
хоси
хосият
хосияти
хосиятҳои
хосор
хосро
хосса
хоссе
хосси
хост
хоста
хостанд
хостори
хосэ
хотима
хотимаи
хотир
хотира
хотираи
хотираҳои
хотири
хотирмон
хотирнишон
хотироти
хотя
хохол
хоя
хояндаҳо
хоқони
хоқонии
хоҳ
хоҳад
хоҳам
хоҳанд
хоҳар
хоҳараш
хоҳари
хоҳарон
хоҳарони
хоҳем
хоҳи
хоҳиш
хоҳиши
хоҷа
хоҷаги
хоҷагидори
хоҷагидории
хоҷагии
хоҷагиҳои
хоҷаев
хоҷаи
хоҷали
христиан
христиани
христофор
хром
хромосомаҳо
хрусталнии
ху
хуаким
хуан
хуб
хубе
хуби
хубон
хубтар
хубу
худ
худам
худат
худаш
худашон
худашро
худдори
худжанд
худи
худидораи
худидоракунии
худкор
худкуши
худмухтори
худо
худованд
худованди
худое
худоен
худоени
худоер
худои
худоиназар
худоиназаров
худомузи
худоро
худрав
худрави
худро
худруи
худуди
худшиноси
худшиносии
хузистон
хуи
хук
хукумати
хулаи
хулафои
хулаҳои
хулбук
хулио
хулоса
хулосае
хулосаи
хулосаҳои
хум
хумаини
хумб
хумдони
хун
хуни
хунин
хунравии
хунрези
хунро
хунук
хунуки
хур
хурд
хурда
хурдан
хурданд
хурдани
хурде
хурди
хурдии
хурдод
хурдодбеҳ
хурдро
хурдсол
хурдсоли
хурдтар
хурдтарин
хурду
хуриш
хурмо
хурок
хурока
хуроквори
хуроки
хурокҳои
хуросон
хуросони
хуросонро
хуросону
хуррам
хурсанд
хурсанди
хурус
хуруҷ
хуруҷи
хуршед
хуршеда
хуршеди
хусрав
хусрави
хусравони
хусус
хусусан
хусуси
хусусии
хусусият
хусусияти
хусусиятҳо
хусусиятҳои
хутба
хуттал
хутталон
хуш
хушааш
хушагулаш
хушагули
хушаи
хушбахт
хушбахти
хушбахтона
хушбуи
хуши
хушк
хушки
хушкигард
хушкии
хушксоли
хушку
хушнавис
хушнависи
хушсифат
хуштаъм
хушунат
хушқадам
хушҳол
хуқанд
хуқуқи
хуҷанд
хуҷанди
хуҷандии
хуҷандро
хуҷанду
хх
ц
центр
центральная
центральнои
цивилизации
цикла
ч
ча
чавес
чавоб
чагодошен
чад
чаиковскии
чак
чакка
чаман
чан
чанг
чанги
чангоб
чангол
чанд
чанде
чандин
чандон
чап
чапи
чаппа
чапу
чарб
чарбу
чарлз
чарли
чарм
чармгари
чарми
чаро
чарогоҳ
чарогоҳҳо
чароғ
чароғи
чарх
чархбол
чархи
чархҳои
часпак
часпида
части
часть
чашм
чашма
чашмаи
чашмам
чашмасор
чашмасори
чашмаш
чашмаҳо
чашмаҳои
чашми
чашмони
чашмро
чашму
чағатои
чағониен
чаҳор
чаҳорум
чаҳоруми
чаҳорумин
чаҳорчубаи
человек
человека
челси
челябинск
чем
чемпионат
чемпионати
чемпионатҳои
чемпиони
чен
ченаки
ченкунии
ченнаи
через
черемховск
череповетс
чернишков
черногория
черноярск
черняев
чернян
четыре
чех
чехи
чехия
чехов
чехословакия
чечен
чеченистон
чеш
чеҳра
чеҳраи
чеҳраҳои
чжи
чи
чиба
чигунагии
чида
чиз
чизе
чизеро
чизи
чизро
чизҳо
чизҳои
чикаго
чил
чилдараи
чилдухтарон
чилдухтарони
чиле
чили
чилиги
чилу
чин
чингиз
чингизхон
чини
чинии
чинор
чиро
числе
численность
число
чист
чиҳил
чкалов
чкаловск
чо
чои
чоии
чоиник
чоихона
чоихонаи
чок
чоп
чопи
чопии
чопра
чопро
чор
чорабини
чорабиниҳо
чорабиниҳои
чораҳо
чораҳои
чорбоғ
чорбоғи
чорво
чорводор
чорводори
чорводории
чорвои
чордара
чордаҳум
чоркунҷа
чоркуҳ
чормағз
чормағзи
чорроҳаи
чорсаду
чорсу
чорум
чоруми
чорумин
чорумро
чорчубаи
чоршанбе
чоряки
чорҷуи
чоч
чоҳ
что
чтобы
чу
чуб
чуби
чубин
чубини
чубу
чудо
чуи
чукотка
чумча
чун
чунин
чунки
чунон
чуноне
чунонки
чунончи
чупон
чуст
чусти
чутка
чуқур
чуқури
чуқурии
ш
ша
шаб
шабака
шабакаи
шабакаҳои
шабаҳ
шабе
шабеҳ
шабеҳи
шаби
шаблон
шаблони
шаблонҳои
шабнам
шабнами
шабона
шабонаи
шабонаруз
шабонарузи
шаборуз
шабоҳат
шабоҳати
шабу
шабҳо
шабҳои
шав
шавад
шавам
шаванд
шавед
шави
шавкат
шавқ
шавқи
шавқовар
шавқу
шавҳар
шавҳараш
шавҳари
шадид
шадидан
шадиди
шаибони
шаибониен
шаитон
шаих
шаихи
шаихони
шак
шакалод
шакар
шакл
шаклан
шакли
шаклу
шаклҳои
шакури
шалинскии
шалғам
шамахи
шамол
шамоли
шамс
шамси
шамсиддин
шамсиев
шамсуддин
шамшер
шамшери
шамъ
шамъи
шанбе
шанхаи
шар
шараф
шарафи
шарбат
шарбати
шариат
шариати
шарик
шарики
шарикони
шарипов
шариф
шарифзода
шарифи
шарифов
шарифова
шарифович
шарифҷон
шарки
шарл
шарлоттенбург
шарм
шарма
шароб
шароби
шароит
шароити
шароитҳои
шарон
шарофат
шарофати
шарофиддин
шарт
шартан
шарте
шарти
шартнома
шартномаи
шартномаҳои
шартҳои
шаршара
шаршарае
шаршараи
шаршараҳо
шаршараҳои
шаръ
шаръи
шарқ
шарқи
шарқиаш
шарқии
шарқиро
шарқтар
шарқу
шарқшинос
шарқшиноси
шарқшиносии
шарқшиносони
шарҳ
шарҳи
шарҳиҳоли
шарҳу
шаст
шасту
шастум
шатранҷ
шафати
шафақ
шафтолу
шаффоф
шафқат
шах
шахри
шахс
шахсан
шахсе
шахсеро
шахсест
шахси
шахсии
шахсият
шахсияти
шахсиятҳои
шахсон
шахсоне
шахсони
шахсро
шаш
шашмақом
шашсаду
шашум
шашуми
шашумин
шаъну
шағал
шағол
шаҳват
шаҳид
шаҳиди
шаҳидон
шаҳло
шаҳобов
шаҳобуддинов
шаҳодат
шаҳодати
шаҳодатнома
шаҳодатномаи
шаҳр
шаҳрак
шаҳраки
шаҳракҳо
шаҳракҳои
шаҳрванд
шаҳрванди
шаҳрвандии
шаҳрвандиро
шаҳрвандон
шаҳрвандони
шаҳрвандонро
шаҳрдори
шаҳре
шаҳрест
шаҳрзод
шаҳри
шаҳривар
шаҳриер
шаҳрии
шаҳринав
шаҳрисабз
шаҳристон
шаҳристонест
шаҳристони
шаҳристонҳои
шаҳритус
шаҳрро
шаҳрсози
шаҳру
шаҳрҳо
шаҳрҳои
швед
шведи
швеисария
швеитсария
шветсия
шебекин
шеваи
шеваҳои
шевченко
шевченкоро
шекснин
шекспир
шелехов
шенкур
шер
шерак
шерали
шервон
шервони
шери
шероз
шерози
шесть
шеър
шеъраш
шеъргуи
шеъре
шеъри
шеърии
шеърию
шеърро
шеъру
шеърҳо
шеърҳои
шеърҳояш
ши
шиа
шиаҳо
шиддат
шиддати
шизуока
шикаи
шикам
шикамаш
шиками
шиканҷа
шикаст
шикаста
шикастани
шикасти
шикор
шикори
шикорчи
шикорчиен
шикоят
шикояти
шиллер
шим
шимановскии
шимла
шимол
шимолгони
шимоли
шимолии
шимолиро
шимолтар
шимолу
шин
шинг
шино
шиновари
шинондан
шинос
шиносномаи
шиносои
шиносоии
шинохт
шинохта
шинохтаи
шинохтани
шинохти
шиори
шир
шираи
ширеш
шири
ширин
ширини
ширинов
ширинча
шириншоҳ
ширкат
ширкати
ширкаткунандаи
ширкатро
ширкатҳо
ширкатҳои
ширу
ширхур
ширхурон
шитоб
шитоби
шифо
шифобахш
шифобахши
шифои
шифоҳи
шифоҳии
шифргузори
шиша
шишаи
шиъа
шиҳоби
шиҳобҳо
школа
школе
школы
шма
шмидт
шо
шовалиева
шогирд
шогирди
шогирдон
шогирдонаш
шогирдони
шод
шоди
шодиев
шодию
шодмон
шодмони
шодравон
шоен
шоени
шоир
шоира
шоираи
шоире
шоири
шоирии
шоирон
шоирона
шоирони
шоирону
шоирро
шоиру
шоиста
шоистаи
шокир
шокиров
шоли
шом
шоми
шомил
шомиланд
шомили
шон
шона
шонздаҳум
шопур
шопури
шотемур
шотланди
шотландия
шоу
шофеи
шофеъи
шох
шоха
шохаи
шохаҳои
шохдор
шохи
шохоби
шохобҳои
шоху
шояд
шоҳ
шоҳаншоҳ
шоҳаншоҳи
шоҳаншоҳии
шоҳдухтар
шоҳзода
шоҳзодаи
шоҳи
шоҳигарии
шоҳид
шоҳиди
шоҳии
шоҳин
шоҳини
шоҳмансур
шоҳмот
шоҳназар
шоҳнома
шоҳон
шоҳона
шоҳони
шоҳроҳи
шоҳруд
шоҳрух
шоҳруххон
шоҳтемур
шредер
шрек
шри
штаб
штати
штаты
штуттгарт
шу
шуаро
шуарои
шубҳа
шуд
шуда
шудаанд
шудааст
шудаву
шудам
шудан
шуданаш
шуданд
шудани
шуданро
шудаст
шудгор
шуди
шуду
шуи
шукр
шукри
шукуров
шукуфаи
шукуфоии
шукуҳи
шумо
шумон
шумор
шумора
шумораи
шумораҳои
шумори
шуморида
шуморо
шумурда
шунаванда
шунавандагон
шунавандаи
шунавида
шунавои
шунида
шунидан
шунидани
шуои
шур
шурави
шуравии
шуравиро
шурбо
шури
шурии
шуриш
шуришгарон
шуриши
шуришиен
шуришҳо
шуришҳои
шуро
шуроб
шурои
шурообод
шуроободи
шуроҳо
шуроҳои
шуру
шуруъ
шуста
шустан
шустани
шутур
шуур
шуури
шух
шухи
шуш
шуша
шуши
шуъба
шуъбаи
шуъбаҳо
шуъбаҳои
шуълаи
шуғл
шуғли
шуғнон
шуғнони
шуҳрат
шуҳратер
шуҳрати
шуҳратманд
шуҷоат
шуҷоатнок
шуҷоъ
шә
щ
ъ
ы
ь
э
эгеи
эд
эдвард
эдвин
эдгар
эдгардо
эдельман
эдуард
эдуардо
эелат
эзиди
эзоҳ
эи
эилер
эинштеин
эир
эквадор
эквадори
экватори
экз
экологи
экологии
экология
экологияи
экономика
экономики
экономические
экономических
экономического
экран
экрани
экс
эксмо
экспедитсия
экспедитсияи
экспедитсияҳои
экспедиции
эктор
экуадор
эл
элвис
электри
электрии
электрики
электрикии
электромагнити
электромагнитии
электрон
электрони
электронии
электроника
электроникаи
электронная
электронныи
электронҳо
электронҳои
электротехника
электротехники
элемент
элементи
элементов
элементы
элементҳо
элементҳои
элиас
элизабет
элитаи
элок
элом
эмануэл
эмил
эмилио
эмиляно
эмин
эммануэл
эмомали
эмт
энгелс
энгельс
эндрю
энер
энергетика
энергетикаи
энергетики
энергетикии
энергия
энергияи
энерҷи
энрике
энсиклопеди
энсиклопедии
энсиклопедия
энсиклопедияи
энтони
энциклопедии
энциклопедическии
энциклопедия
энциклопедияи
эпизод
эпики
эпоси
эпоха
эпохи
эпоху
эр
эра
эраҷ
эргаш
эрдуғон
эредия
эрик
эркин
эрнан
эрнандес
эрнекто
эрнст
эрон
эронзамин
эрони
эрониен
эрониени
эронии
эронинажод
эрониро
эронитабор
эронро
эрону
эроншиноси
эррера
эртил
эсанбоии
эсекиел
эскобар
эсмералдас
эсперанто
эспиноса
эст
эстебан
эстетики
эстетикии
эстони
эстонии
эстония
эстрада
эстради
эстрадии
этика
этимологическии
этники
этникии
этнографи
этнографии
этнография
этнографияи
этнология
это
этого
этои
этом
этот
этрапи
эфиопия
эфир
эфири
эфрон
эхирит
эхо
эшон
эшони
эшонро
эълом
эъломия
эъломияи
эълон
эълони
эътибор
эътибори
эътидол
эътилоф
эътилофи
эътимод
эътимоди
эътироз
эътирозгарон
эътирози
эътирозҳо
эътирозҳои
эътироф
эътирофи
эътирофнашудаи
эътирофшудаи
эътиқод
эътиқоди
эҳдо
эҳе
эҳеи
эҳсон
эҳсос
эҳсоси
эҳсосот
эҳсосоти
эҳтиет
эҳтиети
эҳтиеҷ
эҳтиеҷмандон
эҳтиеҷоти
эҳтимол
эҳтимолан
эҳтимоли
эҳтимолии
эҳтиром
эҳтироми
эҷод
эҷоди
эҷодиаш
эҷодиет
эҷодиеташ
эҷодиети
эҷодии
эҷодию
эҷодкардаи
эҷодкор
эҷодкори
ю
юань
юго
югославия
юдаков
южа
южная
южно
южного
южнои
юлдошев
юлдуз
юлиан
юлиани
юлии
юм
юми
юмин
юмро
юн
юнаитед
юнеско
юнисеф
юнон
юнони
юнониен
юнонии
юнониҳо
юнону
юнус
юнусов
юрев
юреветс
юревич
юри
юридики
юрии
юриши
юрьевич
юсупов
юсупова
юсуф
юсуфзода
юсуфи
юсуфов
я
является
ягон
ягона
ягонаги
ягонагии
ягонаи
ягоне
ягони
ягонҳои
яд
ядро
ядрои
яз
язд
язди
язид
язык
языка
языках
языке
языки
языков
языкознания
языком
языку
як
якбора
якдигар
якдигарро
якдилона
яке
якеро
яки
якка
якканавози
яклухт
якоб
яков
яковлев
яковлевич
якранг
яксаду
яксола
яксолаи
яксон
яктарафа
якто
яктои
якум
якуми
якумин
якумро
якуним
якхела
якчанд
якшанбе
якшанбеи
якҷо
якҷоя
якҷояги
якҷояи
якҷояшавии
ялдо
ямаика
ямало
яман
ян
янв
январ
январи
января
янгон
яндекс
янукович
яп
японии
япония
яр
ярослав
ярославл
яроқи
ясно
ятим
ятсен
ях
яхбанди
яхбастаи
яхи
яхмос
яш
яшт
яштҳо
яъне
яъқуб
яъқуби
яъқубов
яғноб
яғноби
яқин
яҳе
яҳеев
яҳуд
яҳуди
яҳудиен
яҳудиени
яҳудии
є
ѕ
і
інформаціі
ј
љ
љарроњи
љо
љои
њ
њам
њама
њамаи
њамин
њамон
њангоми
њар
њељ
њозир
њол
њоло
ћ
џ
ѣ
ґ
ғ
ғадуди
ғадудҳои
ғазаб
ғазал
ғазали
ғазалиет
ғазалиети
ғазалу
ғазалҳо
ғазалҳои
ғаззоли
ғазна
ғазнави
ғазнавиен
ғазни
ғаиб
ғаир
ғаира
ғаираро
ғаират
ғаираҳо
ғаири
ғаиридавлати
ғаиридавлатии
ғаириимкон
ғаириманқул
ғаиримиҷоз
ғаиримодди
ғаиримоддии
ғаиримустақим
ғаиринавбатии
ғаиринизоми
ғаириодди
ғаириорганики
ғаирирасми
ғаирирасмии
ғаирифаъол
ғаиричашмдошт
ғаириқонуни
ғаириқонунии
ғалаба
ғалабаи
ғалаени
ғалла
ғалладона
ғаллакори
ғам
ғамгин
ғами
ғамма
ғаму
ғамхори
ғани
ғаниев
ғании
ғано
ғарб
ғарби
ғарбии
ғарбиро
ғарбтар
ғарбу
ғариб
ғариби
ғарм
ғарқ
ғасб
ғасби
ғафлат
ғафс
ғафси
ғафсиаш
ғафсии
ғафур
ғафуров
ғафурови
ғаффор
ғаффоров
ғаффорова
ғаюр
ғиесуддин
ғижак
ғиждувон
ғижжак
ғижжаки
ғизо
ғизои
ғииринизоми
ғози
ғозиен
ғоиб
ғоибов
ғоибона
ғоибонаи
ғолиб
ғолибан
ғолиби
ғолибон
ғолибони
ғончи
ғор
ғорат
ғори
ғофил
ғоя
ғояви
ғоявии
ғояи
ғояҳо
ғояҳои
ғубор
ғузаи
ғулом
ғуломдори
ғуломи
ғуломов
ғуломова
ғуломон
ғуломони
ғун
ғунд
ғунча
ғур
ғури
ғуриен
ғуруби
ғурур
ҕ
җ
қ
қа
қабат
қабати
қабатҳои
қабзият
қабзияти
қабил
қабила
қабилави
қабилавии
қабилаи
қабилаҳо
қабилаҳои
қабили
қабл
қаблан
қабли
қаблии
қабоили
қабр
қабри
қабристони
қабул
қабули
қабулшуда
қави
қавии
қавитар
қавл
қавли
қавм
қавми
қавмии
қавму
қавмҳои
қавонини
қавс
қад
қадам
қадами
қадамҳои
қадар
қади
қадим
қадима
қадимаи
қадими
қадимии
қадимро
қадимтарин
қадимтарини
қадимулаием
қадр
қадрдони
қадре
қадри
қаз
қазвин
қазвини
қаззофи
қазо
қазову
қазои
қазон
қазоқ
қазоқи
қазоқистон
қазоқистони
қазоқҳо
қаи
қаид
қаиди
қаироққум
қалам
қаламдод
қалами
қаламрав
қаламрави
қаламравҳои
қаламфур
қаламфури
қаламча
қаландар
қаландаров
қалб
қалби
қалъа
қалъаги
қалъаи
қалъаро
қалъачаи
қалъаҳои
қамар
қамари
қанд
қандаҳор
қанди
қанноди
қаноат
қаноти
қарабоғ
қарабоғи
қаратол
қаратоғ
қаратоғи
қарақалпоқистон
қарбулоқ
қарз
қарздор
қарзи
қарзии
қарзови
қарзҳои
қариб
қарни
қарнҳои
қаро
қаробат
қарокул
қарор
қароргоҳи
қарордод
қарордоди
қарордошта
қарори
қарорҳо
қарорҳои
қаросои
қаротегин
қаротегину
қарохониен
қарши
қасам
қасд
қасдан
қасди
қасида
қасидаи
қасидаҳо
қасидаҳои
қасоид
қаср
қасри
қасрҳо
қасрҳои
қатар
қатл
қатли
қатор
қатори
қаторкуҳ
қаторкуҳи
қаторкуҳҳои
қаторҳои
қатра
қатраҳои
қатъ
қатъи
қатъии
қатъиян
қатънома
қатъномаи
қатъномаҳои
қафас
қафаси
қафо
қафои
қафқоз
қафқози
қашқадаре
қашқадареи
қаъри
қаҳва
қаҳваранг
қаҳвахона
қаҳрамон
қаҳрамони
қаҳрамонии
қаҳрамонон
қаҳрамонони
қаҳрамонҳо
қаҳрамонҳои
қаҳҳор
қаҳҳоров
қи
қибла
қием
қиемат
қиеми
қиемиддин
қиемов
қиес
қиеси
қизил
қимат
қиматбаҳо
қимати
қиматнок
қиматҳои
қир
қироат
қироати
қирғ
қирғиз
қирғизи
қирғизистон
қирғизҳо
қирғизҳои
қисм
қисман
қисмат
қисмате
қисмати
қисматҳои
қисме
қисми
қисмҳо
қисмҳои
қисса
қиссаву
қиссаи
қиссаҳо
қиссаҳои
қитъа
қитъаи
қитъаҳо
қитъаҳои
қишлоқ
қишлоқи
қишри
қличева
қо
қобили
қобилияти
қобилиятҳои
қобилова
қобуснома
қодир
қодири
қодиров
қодирова
қози
қозии
қоида
қоидаи
қоидаҳо
қоидаҳои
қоил
қолаби
қолабҳои
қолинбофи
қомат
қомати
қомуси
қонеъ
қонун
қонунбарор
қонунгузор
қонунгузори
қонунгузории
қонуни
қонунии
қонуният
қонунияти
қонуниятҳои
қонунро
қонунҳо
қонунҳои
қори
қорун
қосим
қосими
қосимов
қосимова
қотеъ
қофия
қошуқ
қошуқи
қошуқча
қошғар
қошғари
қоҳира
қоҷор
қрим
қу
қубодиен
қубодиени
қубурҳои
қувва
қуввазиедкуни
қувваи
қувват
қуввати
қувваҳои
қудрат
қудрати
қудратро
қудс
қуллаи
қуллаҳои
қум
қуми
қумсангир
қундуз
қуния
қураиш
қурама
қурби
қурбон
қурбонали
қурбони
қурбониен
қурбониени
қурбонии
қурбонов
қурбонова
қурва
қурси
қуръон
қуръони
қуръонро
қурғон
қурғонтеппа
қутаиба
қутб
қутби
қутраш
қутри
қутти
қуттии
қушун
қушуни
қушунҳои
қушчи
қуқанд
қә
ҟ
ҡ
ң
ҧ
ҩ
ҫ
ҭ
ү
ұ
ҳ
ҳа
ҳабашистон
ҳабдаҳум
ҳабиб
ҳабибов
ҳабибулло
ҳабс
ҳабси
ҳаваии
ҳавас
ҳаваси
ҳаваскорони
ҳавел
ҳавз
ҳавза
ҳавзааш
ҳавзаи
ҳавзаҳои
ҳавзи
ҳавзҳои
ҳавли
ҳавлии
ҳаво
ҳавогард
ҳавогарди
ҳавогардҳо
ҳаводиси
ҳаводорони
ҳавои
ҳавоии
ҳаволии
ҳавонаварди
ҳавопаимо
ҳавопаимои
ҳавопаимоии
ҳавопаимоҳои
ҳаворо
ҳавқал
ҳад
ҳадаф
ҳадафи
ҳадафҳои
ҳадде
ҳадди
ҳадис
ҳадиси
ҳадисҳои
ҳадя
ҳает
ҳаетан
ҳаеташ
ҳаети
ҳаетии
ҳаетро
ҳаету
ҳаз
ҳазал
ҳазм
ҳазми
ҳазор
ҳазора
ҳазораи
ҳазорвожаи
ҳазорон
ҳазорсола
ҳазорсолаи
ҳазору
ҳазорҳо
ҳазрат
ҳазрати
ҳазратқулов
ҳаи
ҳаиат
ҳаиати
ҳаивон
ҳаивони
ҳаивонот
ҳаивоноти
ҳаивонотро
ҳаивоноту
ҳаивонҳо
ҳаивонҳои
ҳаидар
ҳаидаробод
ҳаидаров
ҳаиен
ҳаиз
ҳаикали
ҳаикалтарош
ҳаикалтароши
ҳаират
ҳаирон
ҳаиси
ҳаити
ҳаитолиен
ҳаиъати
ҳакам
ҳаками
ҳаким
ҳакимзода
ҳакими
ҳакимии
ҳакимов
ҳакимова
ҳаккоки
ҳал
ҳалаб
ҳалво
ҳалвои
ҳалим
ҳалима
ҳалимов
ҳалкунанда
ҳалли
ҳаллу
ҳалок
ҳалокат
ҳалол
ҳалқа
ҳалқаи
ҳам
ҳама
ҳамави
ҳамаги
ҳамагон
ҳамагона
ҳамагони
ҳамагонии
ҳамад
ҳамадон
ҳамадони
ҳамаи
ҳамакнун
ҳамал
ҳамаро
ҳамаруза
ҳамасола
ҳамасрони
ҳаматарафа
ҳамаҷониба
ҳамаҷонибаи
ҳамбастаги
ҳамбастагии
ҳамбург
ҳамвор
ҳамвора
ҳамвори
ҳамвории
ҳамвориҳо
ҳамвориҳои
ҳамгироии
ҳамдам
ҳамдамов
ҳамди
ҳамдигар
ҳамдигарро
ҳаме
ҳамеша
ҳамешасабз
ҳамза
ҳамзамон
ҳамид
ҳамида
ҳамидов
ҳамилтон
ҳамин
ҳамкор
ҳамкори
ҳамкории
ҳамкориҳо
ҳамкориҳои
ҳамл
ҳамла
ҳамлагар
ҳамлагари
ҳамлаи
ҳамлаҳои
ҳамлу
ҳаммарз
ҳаммом
ҳаммуалифи
ҳаммуаллиф
ҳаммуаллифи
ҳаммуаллифии
ҳамном
ҳамноми
ҳамовозии
ҳамоиши
ҳамоишҳои
ҳамон
ҳамоно
ҳамосаи
ҳамоси
ҳамоҳанг
ҳамоҳанги
ҳамоҳангсози
ҳамоҳангсозии
ҳамроев
ҳамроҳ
ҳамроҳи
ҳамроҳии
ҳамсадо
ҳамсар
ҳамсараш
ҳамсари
ҳамсарон
ҳамсарҳад
ҳамсоя
ҳамсояи
ҳамчу
ҳамчун
ҳамчунин
ҳамчунон
ҳамқаламии
ҳанафи
ҳанг
ҳангом
ҳангоме
ҳангоми
ҳандаса
ҳандасаи
ҳандаси
ҳанзи
ҳанифа
ҳанс
ҳануз
ҳар
ҳаракат
ҳаракати
ҳаракаткунанда
ҳаракатҳои
ҳарби
ҳарбии
ҳарбиро
ҳарбию
ҳарвард
ҳаргиз
ҳаргуна
ҳарду
ҳариф
ҳаром
ҳароммағз
ҳарор
ҳарорат
ҳарорати
ҳароратҳои
ҳарос
ҳарруза
ҳаррузаи
ҳарф
ҳарфи
ҳарфҳо
ҳарфҳои
ҳархела
ҳарчанд
ҳарчи
ҳасад
ҳасан
ҳасандуст
ҳасани
ҳасанов
ҳасанова
ҳасанови
ҳасина
ҳасрат
ҳассос
ҳассосияти
ҳаст
ҳаста
ҳастаи
ҳастаии
ҳастам
ҳастанд
ҳасти
ҳастии
ҳат
ҳатман
ҳатми
ҳатмии
ҳатмист
ҳатто
ҳафриет
ҳафриети
ҳафт
ҳафта
ҳафтае
ҳафтаи
ҳафтаномаи
ҳафткул
ҳафтод
ҳафтоду
ҳафтодум
ҳафтпуст
ҳафтруд
ҳафтсаду
ҳафтсола
ҳафтум
ҳафтуми
ҳафтумин
ҳахоманиши
ҳахоманишиен
ҳахоманишиҳо
ҳашарот
ҳашароти
ҳашт
ҳаштод
ҳаштоду
ҳаштсаду
ҳаштум
ҳаяҷон
ҳақ
ҳақиқат
ҳақиқати
ҳақиқатро
ҳақиқи
ҳақиқии
ҳақназар
ҳаққи
ҳаққони
ҳаҷ
ҳаҷв
ҳаҷви
ҳаҷвии
ҳаҷвнигори
ҳаҷм
ҳаҷман
ҳаҷмаш
ҳаҷми
ҳдт
ҳего
ҳезум
ҳенри
ҳеродот
ҳерсеговина
ҳертсоговин
ҳеч
ҳеҷ
ҳи
ҳидоят
ҳидояти
ҳидроген
ҳидрогени
ҳизб
ҳизби
ҳизбии
ҳизбию
ҳизбро
ҳизбу
ҳизбҳо
ҳизбҳои
ҳиит
ҳикмат
ҳикмати
ҳикоет
ҳикоети
ҳикоя
ҳикояву
ҳикояи
ҳикоят
ҳикояти
ҳикоятҳои
ҳикояҳо
ҳикояҳои
ҳикояҳояш
ҳилл
ҳилол
ҳилоли
ҳимолои
ҳимоя
ҳимояи
ҳимоят
ҳимояти
ҳинд
ҳинди
ҳиндии
ҳинду
ҳиндуаврупои
ҳиндуия
ҳиндукуш
ҳиндустон
ҳиндустони
ҳиндустонро
ҳиндуҳо
ҳиндуҳои
ҳини
ҳирави
ҳирот
ҳироти
ҳирфаи
ҳирфаии
ҳис
ҳисоб
ҳисоббарор
ҳисоббарори
ҳисоби
ҳисобида
ҳисобкунии
ҳисобот
ҳисоботи
ҳисобу
ҳисобҳо
ҳисобҳои
ҳисор
ҳисори
ҳисорро
ҳисору
ҳисса
ҳиссаи
ҳиссачаҳои
ҳиссаҳои
ҳисси
ҳиссиет
ҳиссиети
ҳитлер
ҳифз
ҳифзи
ҳифозат
ҳиҷо
ҳиҷоз
ҳиҷои
ҳиҷрат
ҳиҷри
ҳиҷрии
ҳк
ҳкиш
ҳкт
ҳкч
ҳли
ҳнит
ҳо
ҳоди
ҳодизода
ҳодиса
ҳодисаи
ҳодисаҳо
ҳодисаҳои
ҳоз
ҳозима
ҳозир
ҳозира
ҳозиразамон
ҳозираи
ҳозирин
ҳои
ҳоити
ҳоким
ҳокими
ҳокимият
ҳокимияти
ҳокимиятро
ҳокимон
ҳокимони
ҳоккаидо
ҳол
ҳолат
ҳолате
ҳолати
ҳолатро
ҳолатҳо
ҳолатҳое
ҳолатҳои
ҳоле
ҳоли
ҳолиаш
ҳолланд
ҳолланди
ҳолливуд
ҳоло
ҳомер
ҳомид
ҳомидов
ҳомии
ҳомила
ҳомилаги
ҳомиладор
ҳомили
ҳондурас
ҳондураси
ҳонконг
ҳори
ҳорун
ҳосил
ҳосилаҳои
ҳосили
ҳосилнокии
ҳосилхез
ҳосилшуда
ҳотам
ҳотами
ҳотамов
ҳофиз
ҳофиза
ҳофизаи
ҳофизи
ҳофизон
ҳофизони
ҳошим
ҳошими
ҳошимов
ҳошияи
ҳоҷат
ҳоҷи
ҳоҷибоев
ҳоҷиматов
ҳу
ҳувияти
ҳудуд
ҳудуди
ҳудудии
ҳудудҳои
ҳузур
ҳузури
ҳукм
ҳукми
ҳукмр
ҳукмрон
ҳукмрони
ҳукмрониаш
ҳукмронии
ҳукмронони
ҳукумат
ҳукуматдории
ҳукуматдорони
ҳукумати
ҳукуматии
ҳукуматро
ҳукуматҳо
ҳукуматҳои
ҳукумронии
ҳулбук
ҳумоюн
ҳунар
ҳунари
ҳунарии
ҳунарманд
ҳунарманди
ҳунармандон
ҳунармандони
ҳунарнамои
ҳунарнамоии
ҳунарпеша
ҳунарпешаги
ҳунарпешагон
ҳунарпешагони
ҳунарпешазанҳои
ҳунарпешаи
ҳунарпешаро
ҳунарпешаҳо
ҳунарпешаҳои
ҳунарро
ҳунару
ҳунарҳои
ҳурмузгон
ҳурмузд
ҳуруфи
ҳусаин
ҳусаини
ҳусеин
ҳусеинзода
ҳусеини
ҳусеинов
ҳусн
ҳусни
ҳусну
ҳут
ҳуш
ҳушер
ҳуши
ҳуқуқ
ҳуқуқбунед
ҳуқуқваиронкунии
ҳуқуқи
ҳуқуқие
ҳуқуқии
ҳуқуқиро
ҳуқуқро
ҳуқуқу
ҳуқуқшинос
ҳуқуқшиноси
ҳуқуқшиносии
ҳуқуқэҷодкуни
ҳуқуқҳои
ҳуҷаира
ҳуҷаираи
ҳуҷаираҳо
ҳуҷаираҳои
ҳуҷра
ҳуҷраи
ҳуҷраҳо
ҳуҷраҳои
ҳуҷум
ҳуҷуми
ҳуҷумкуни
ҳуҷҷат
ҳуҷҷати
ҳуҷҷатии
ҳуҷҷатҳо
ҳуҷҷатҳои
ҳхдт
ҳюго
ҳқ
ҵ
ҷ
ҷа
ҷаббор
ҷабборов
ҷабр
ҷабраил
ҷабрдида
ҷабҳаи
ҷабҳаҳои
ҷав
ҷавдор
ҷавзо
ҷавоб
ҷавобгари
ҷавобгарии
ҷавобгу
ҷавоби
ҷавон
ҷавоне
ҷавони
ҷавонии
ҷавонмарди
ҷавонон
ҷавонони
ҷавононро
ҷавонро
ҷавонтарин
ҷавфи
ҷавҳар
ҷавҳари
ҷадвал
ҷадвали
ҷадвалҳои
ҷадид
ҷадиди
ҷадидия
ҷаз
ҷазира
ҷазираи
ҷазираро
ҷазираҳо
ҷазираҳои
ҷазо
ҷазои
ҷазоиир
ҷазоро
ҷаиҳони
ҷаиҳун
ҷаласа
ҷаласаи
ҷаласаҳои
ҷалб
ҷалби
ҷалил
ҷалилов
ҷалол
ҷалоли
ҷалолиддин
ҷалолиддини
ҷалолобод
ҷалолуддин
ҷалолуддини
ҷам
ҷамму
ҷамоаи
ҷамоат
ҷамоатест
ҷамоати
ҷамоатҳо
ҷамоатҳои
ҷамоаҳои
ҷамол
ҷамоли
ҷамолиддин
ҷамоҳири
ҷамшед
ҷамъ
ҷамъбаст
ҷамъбасти
ҷамъи
ҷамъият
ҷамъияти
ҷамъиятиву
ҷамъиятии
ҷамъиятиро
ҷамъиятию
ҷамъиятро
ҷамъиятшиноси
ҷамъиятшиносии
ҷамъиятҳои
ҷамъовари
ҷамъоварии
ҷамъомади
ҷан
ҷанбаи
ҷанбаҳои
ҷанг
ҷангал
ҷангалзор
ҷангали
ҷангалҳо
ҷангалҳои
ҷанги
ҷангии
ҷанговар
ҷанговари
ҷанговарон
ҷанговарони
ҷангро
ҷангу
ҷангҳо
ҷангҳои
ҷанин
ҷанини
ҷаннат
ҷаноби
ҷанобилов
ҷануб
ҷануби
ҷанубии
ҷанубиро
ҷанубтар
ҷанубу
ҷараен
ҷараени
ҷараенҳои
ҷарима
ҷароҳат
ҷароҳати
ҷароҳатҳои
ҷарроҳ
ҷарроҳи
ҷарроҳии
ҷасади
ҷасорат
ҷастин
ҷасур
ҷашн
ҷашнвораи
ҷашнвораҳои
ҷашни
ҷашнии
ҷашну
ҷашнҳо
ҷашнҳои
ҷаъфар
ҷаъфари
ҷаҳаннам
ҷаҳон
ҷаҳонбини
ҷаҳонбинии
ҷаҳонгир
ҷаҳони
ҷаҳониен
ҷаҳонии
ҷаҳониро
ҷаҳоннамо
ҷаҳонро
ҷбв
ҷдмм
ҷдо
ҷеимс
ҷек
ҷексон
ҷеннер
ҷерси
ҷетисои
ҷефферсон
ҷи
ҷибути
ҷигар
ҷигари
ҷидда
ҷиддан
ҷидди
ҷиддии
ҷидду
ҷиззах
ҷилавгири
ҷилд
ҷилди
ҷилдҳои
ҷиликул
ҷило
ҷилодор
ҷилои
ҷилояш
ҷим
ҷимми
ҷимоди
ҷин
ҷинои
ҷиноят
ҷинояти
ҷиноятии
ҷинояткори
ҷиноятҳо
ҷиноятҳои
ҷинс
ҷинси
ҷинсии
ҷинсҳои
ҷиргатол
ҷирми
ҷирмҳои
ҷисм
ҷисми
ҷисмони
ҷисмонии
ҷисму
ҷисмҳо
ҷисмҳои
ҷиэ
ҷияни
ҷиҳат
ҷиҳати
ҷиҳатҳои
ҷиҳод
ҷиҳози
ҷмм
ҷмшс
ҷо
ҷобир
ҷобс
ҷованни
ҷовид
ҷовидон
ҷовидона
ҷовидони
ҷода
ҷодаи
ҷоду
ҷое
ҷозеф
ҷозиба
ҷозибаи
ҷозибаҳои
ҷои
ҷоигир
ҷоигиранд
ҷоигиршави
ҷоигиршавии
ҷоигиршуда
ҷоигоҳе
ҷоигоҳи
ҷоигузин
ҷоигузини
ҷоиз
ҷоиза
ҷоизадори
ҷоизаи
ҷоизаро
ҷоизаҳо
ҷоизаҳои
ҷоии
ҷоиивазкунии
ҷоиизаи
ҷоиро
ҷоиҳо
ҷоиҳои
ҷолиб
ҷолибе
ҷолиби
ҷолинус
ҷом
ҷома
ҷомаи
ҷомбул
ҷомеа
ҷомеаи
ҷомеаро
ҷомеашиноси
ҷомеаҳои
ҷомеи
ҷомеъ
ҷомеъа
ҷомеъу
ҷоми
ҷон
ҷонам
ҷонатан
ҷонвари
ҷонварон
ҷонварони
ҷони
ҷониб
ҷонибдори
ҷонибдории
ҷонибдорони
ҷонибек
ҷониби
ҷонишин
ҷонишини
ҷонишинҳои
ҷонни
ҷонон
ҷонс
ҷонсон
ҷону
ҷопон
ҷопони
ҷордан
ҷори
ҷории
ҷорист
ҷоро
ҷорҷ
ҷорҷия
ҷост
ҷосуси
ҷояш
ҷс
ҷск
ҷсп
ҷт
ҷу
ҷуброн
ҷуброни
ҷуваини
ҷувори
ҷуворимакка
ҷудо
ҷудогона
ҷудогонаи
ҷудои
ҷудонашавандаи
ҷудошавии
ҷуду
ҷудуи
ҷуз
ҷузви
ҷузъ
ҷузъи
ҷузъиети
ҷузъу
ҷузъҳои
ҷуи
ҷуибор
ҷуии
ҷум
ҷумалу
ҷумла
ҷумлаи
ҷумлаҳои
ҷумхурии
ҷумъа
ҷумъабои
ҷумъаев
ҷумъаи
ҷумҳур
ҷумҳури
ҷумҳурии
ҷумҳуриро
ҷумҳурияви
ҷумҳуриявии
ҷумҳурият
ҷумҳуриҳо
ҷумҳуриҳои
ҷунаиди
ҷунбиш
ҷунбиши
ҷунбишҳои
ҷур
ҷура
ҷурабек
ҷурабои
ҷураев
ҷурахон
ҷурғот
ҷурҷ
ҷурҷони
ҷустан
ҷустуҷу
ҷустуҷуи
ҷустуҷуии
ҷустуҷуҳои
ҷуфт
ҷуфти
ҷуш
ҷушоби
ҷушонда
ҷушонида
ҷуғ
ҷуғрофи
ҷуғрофие
ҷуғрофиеи
ҷуғрофиеии
ҷуғрофии
ҷуғрофия
ҷуғрофияи
ҷхдк
ҷшс
ҷшфс
ҷшфср
ҷқк
ҹ
һ
ҽ
ҿ
ӄ
ӏ
ӕ
ә
ӡ
ө
ӽ
ԥ
ա
բ
գ
դ
ե
զ
է
ը
թ
ժ
ի
լ
խ
ծ
կ
հ
ձ
ղ
ճ
մ
յ
ն
շ
ո
չ
պ
ջ
ռ
ս
վ
տ
ր
ց
ւ
փ
ք
ֆ
և
։
א
ב
ג
ד
ה
ו
ז
ח
ט
י
ך
כ
ל
ם
מ
ן
נ
ס
ע
ף
פ
צ
ק
ר
ש
ת
ײ
،
؛
؟
ء
ا
اء
اب
اباد
ابشار
ابن
ابو
ات
اثار
احمد
احوال
اد
ادب
ادبیات
ار
از
ازاد
اس
استان
اسلام
اسلامی
اطلس
افغانستان
ال
الدين
الدین
الریاض
العربية
القاهرة
القران
الل
الله
المان
المعارف
الن
ام
امام
امریکا
ان
اول
اي
اکبر
ای
ایالات
ایتالیا
ایران
ب
با
بخش
بریتانیا
بزرگ
بن
به
بيانی
بيروت
بی
بیروت
ة
ت
تا
تاریخ
ترجمە
تفکیک
تقسیمات
تهران
ث
ج
جلال
جلد
جماعت
جمعیت
جمهوری
جهان
ح
حسن
حسین
خ
خان
خلق
خوشنويسان
د
دانش
دانشنامه
دانشنامە
دايرة
دايرةالمعارف
در
دریایی
دمشق
دهخدا
ذ
ر
رایانه
ز
زبان
زمین
س
سال
سرشماری
سلطنتی
سمرقندی
سورة
سوم
سید
ش
شبه
شرح
شعر
شناسی
شهر
شهرستان
شوروی
ص
صخره
ض
ط
ظ
ع
عبد
عبدالله
علي
علی
عن
غ
ـ
ف
فارسی
فرانسه
فرهنگ
في
فی
فیلم
ق
قاره
قم
ك
ل
لا
م
متحده
محمد
محمود
مشارکت
مشهد
من
مهدي
مهدی
موسیقی
می
ن
ناحیە
نامه
نتایج
نیروی
ه
ها
های
هـ
هند
هوایی
و
وا
وب
ول
ولاية
ولایت
ون
ویکی
ى
ي
يم
ين
يه
٠
١
٢
٣
٤
٥
٦
٧
٨
٩
٫
٬
ٱ
ٹ
ټ
پ
پاکستان
پدیا
ځ
څ
چ
چاپ
چهارم
چین
ڈ
ډ
ڊ
ړ
ږ
ژ
ښ
ک
کابل
کتاب
کردن
کشوری
کنندگان
ګ
گ
گیتاشناسی
ں
ڼ
ھ
ہ
ۇ
ۈ
ۋ
ی
ۍ
ې
ے
ە
۰
۱
۱۳
۱۳۴۵
۱۳۷۵
۱۳۷۷
۱۳۷۸
۱۳۸۰
۱۳۸۳
۱۳۸۷
۱۳۸۹
۲
۲۰۰۲
۲۰۰۴
۲۰۰۵
۲۰۰۶
۲۰۰۷
۲۰۱۴
۳
۴
۵
۶
۷
۸
۹
ܐ
ܘ
ܚ
ܝ
ܠ
ܡ
ܢ
ܣ
ܪ
ܬ
ݒ
ހ
ނ
ރ
ބ
ކ
އ
ވ
މ
ފ
ދ
ލ
ގ
ސ
ޒ
अ
आ
इ
ई
उ
ए
ओ
क
ख
ग
च
ज
झ
ट
ठ
ड
ण
त
थ
द
ध
न
प
फ
ब
भ
म
य
र
ल
ळ
व
श
ष
स
ह
।
অ
আ
ই
উ
এ
ও
ক
খ
গ
ঘ
ঙ
চ
ছ
জ
ট
ড
ণ
ত
থ
দ
ধ
ন
প
ফ
ব
ভ
ম
য
র
ল
শ
ষ
স
হ
ৰ
ਜ
ਦ
ਪ
ਬ
ਮ
ਰ
ਲ
ਸ
અ
ક
ગ
ચ
જ
દ
ન
પ
બ
મ
ય
ર
લ
વ
શ
સ
இ
க
ங
ச
ட
ண
த
ந
ன
ப
ம
ய
ர
ற
ல
ள
ழ
வ
క
గ
చ
జ
ట
డ
త
ద
న
ప
బ
మ
య
ర
ల
వ
శ
స
ಅ
ಕ
ಗ
ಜ
ಟ
ಡ
ಣ
ತ
ದ
ನ
ಪ
ಬ
ಮ
ಯ
ರ
ಲ
ಳ
ವ
ಸ
അ
ക
ച
ട
ണ
ത
ദ
ന
പ
ബ
മ
യ
ര
ല
ള
വ
സ
ක
ජ
ට
ත
න
ප
ය
ර
ල
ව
ශ
ස
ก
ข
ค
ง
จ
ช
ซ
ญ
ณ
ด
ต
ถ
ท
ธ
น
บ
ป
ผ
พ
ฟ
ภ
ม
ย
ร
ล
ว
ศ
ษ
ส
ห
ฬ
อ
ฯ
ะ
า
ำ
เ
แ
โ
ใ
ไ
ๆ
ກ
ຂ
ຄ
ງ
ຈ
ຊ
ຍ
ດ
ທ
ນ
ບ
ປ
ພ
ມ
ລ
ວ
ສ
ຫ
ອ
ະ
າ
ຽ
ເ
ແ
ໂ
ໄ
་
།
ཀ
ག
ང
ཆ
ད
ན
པ
བ
མ
འ
ར
ལ
ས
က
ခ
င
စ
ဆ
ည
တ
ထ
န
ပ
ဘ
မ
ယ
ရ
လ
သ
အ
ა
ბ
გ
დ
ე
ვ
ზ
თ
ი
კ
ლ
მ
ნ
ო
პ
რ
ს
ტ
უ
ფ
ქ
ღ
ყ
შ
ც
ძ
წ
ჭ
ხ
ჯ
ᄀ
ᄁ
ᄂ
ᄃ
다
ᄄ
ᄅ
ᄆ
ᄇ
ᄈ
ᄉ
ᄊ
ᄋ
ᄌ
ᄎ
ᄏ
ᄐ
ᄑ
ᄒ
하
ᅡ
ᅢ
ᅣ
ᅥ
ᅦ
ᅧ
ᅨ
ᅩ
ᅪ
ᅭ
ᅮ
ᅯ
ᅱ
ᅲ
ᅳ
ᅴ
ᅵ
ᆨ
ᆫ
ᆯ
ᆷ
ᆸ
ᆼ
መ
ማ
ረ
ራ
ር
ስ
ባ
ት
ን
አ
ክ
የ
ያ
ፊ
ፍ
ក
គ
ង
ច
ដ
ត
ទ
ន
ប
ព
ភ
ម
យ
រ
ល
វ
ស
ហ
អ
ᠠ
ᵛ
ᶎ
‐
‑
‒
–
—
―
‖
‘
’
‚
“
”
„
†
•
…
‧
‰
′
″
‹
›
⁄
₨
€
ℓ
№
™
←
↑
→
↔
↷
⇄
⇨
∈
∑
−
∙
√
∞
∩
≈
≡
≤
≥
⋅
⋯
③
④
⑦
─
┌
╟
╦
╬
█
◆
♠
ⲁ
ⴰ
ⵉ
ⵏ
⺀
⺄
⺆
⺈
⺊
⺌
⺕
⺝
⺸
⺼
⿰
⿱
⿲
⿳
⿴
⿵
⿶
⿷
⿸
⿹
⿺
⿻
、
。
」
〢
あ
い
う
え
か
き
く
こ
さ
し
す
せ
た
ち
つ
て
と
な
に
の
は
ひ
ほ
ま
よ
ら
り
る
れ
わ
を
ん
ァ
ア
ィ
イ
ウ
ェ
オ
カ
キ
ク
コ
サ
シ
ス
セ
ソ
タ
チ
ッ
ツ
テ
ト
ナ
ニ
ネ
ハ
ヒ
フ
ヘ
ホ
マ
ム
メ
ャ
ユ
ョ
ラ
リ
ル
レ
ロ
ン
ヶ
・
ー
㇁
㇂
㇄
㇇
㇈
㇉
㇓
㐁
㐄
㐅
㐌
㐫
㐬
㐭
㐮
㐱
㑒
㒵
㒸
㒼
㓁
㓞
㔾
㕛
㕣
㖾
㘝
㚅
㚇
㚔
㚘
㝉
㝡
㝴
㝵
㞋
㞢
㞷
㠩
㠭
㠯
㡀
㡭
㡿
㢲
㢴
㣇
㣺
㥯
㪅
㫄
㫐
㫒
㫺
㬅
㬎
㬥
㬰
㲋
㳄
㷠
㸒
㸚
㸦
㼌
㼲
㽞
㿟
䀠
䂞
䍃
䏍
䒑
䖍
䖒
䖝
䖵
䙴
䚻
䜌
䝿
䡛
䧹
䪞
一
丁
丂
七
丄
丅
丆
万
丈
三
上
下
丌
不
与
丏
丐
丑
专
且
丕
世
丘
丙
业
东
丞
丢
丣
两
严
並
丨
丩
个
丫
丬
中
丮
丰
丱
串
丵
丶
丷
丸
丹
为
主
丽
丿
乀
乂
乃
久
乆
乇
么
义
之
乌
乍
乎
乏
乐
乑
乔
乖
乗
乘
乙
乚
乛
乜
九
乞
也
习
乡
乳
乾
亀
亅
了
亇
予
争
事
二
亍
于
亏
亐
云
互
亓
五
井
亘
亚
亜
亞
亟
亠
亡
亢
交
亥
亦
产
亨
亩
享
京
亭
亮
亯
亰
亲
亳
亶
亷
人
亻
亼
亾
什
仁
今
介
仌
从
仐
仑
仒
仓
仕
他
付
仙
仝
代
令
以
仮
任
企
伊
伏
伐
休
会
伯
但
位
佐
何
佘
余
作
佥
使
來
侈
侌
侖
侯
侵
便
保
俞
信
修
倉
倍
候
倠
備
僉
僕
儿
兀
允
兂
元
兄
充
兆
兇
先
光
兊
克
兌
免
兑
兒
兓
兔
党
兜
兟
入
全
兩
兪
八
公
六
兮
兰
共
关
兵
其
具
典
兹
兼
冀
冂
冃
冄
内
冈
冉
冊
冋
册
再
冎
冏
冐
冒
冓
冖
冗
冘
军
农
冝
冡
冥
冫
冬
冷
几
凡
凢
凵
凶
凷
凸
凹
出
函
凾
刀
刁
刂
刃
刄
刅
分
切
刍
刑
刕
刖
列
刘
则
初
別
利
别
到
制
刺
則
削
剌
前
剡
剽
劉
力
功
加
劦
助
劫
劳
劵
勃
勇
勉
勒
動
務
勞
勤
勹
勺
勻
勾
勿
匀
匂
包
匆
匈
匊
匋
匍
匕
化
北
匚
匝
匡
匪
匱
匸
匹
区
医
匽
匿
區
十
卂
千
卄
卅
卆
升
午
卉
半
卌
华
卑
卒
卓
单
卖
南
卜
卝
卞
占
卡
卢
卣
卤
卦
卩
卪
卬
卯
印
危
即
却
卵
卷
卸
卻
厂
厃
厄
历
厈
厉
厌
厓
厘
厚
原
厤
厥
厨
厭
厲
厶
厷
厸
去
厼
厽
叀
参
參
叅
又
叉
及
友
双
反
叐
发
叒
叔
叕
取
受
叚
叜
叟
口
古
句
另
叩
只
召
可
台
叱
史
右
叵
号
司
叹
吂
各
吅
合
吉
吊
吋
同
名
后
吏
向
吕
君
吝
吞
否
含
启
吳
吴
吹
吾
呂
呆
呈
告
员
呙
周
命
咅
和
咎
咠
咢
咨
咸
咼
哀
品
哈
哉
員
哥
哲
唐
商
啇
問
啚
啬
啻
善
喜
喬
單
喿
嗇
噩
嚴
囊
囗
囘
囙
囚
四
回
囟
因
囧
囬
困
囱
囷
固
国
圂
圅
國
圍
圓
土
圡
圣
圥
在
圭
地
圶
场
圼
坐
坒
坚
坴
垂
垔
垚
埀
埃
埋
城
埶
執
基
堂
堅
堆
堇
堯
報
塔
塚
塞
墨
壘
士
壬
壯
声
壳
壴
壹
壺
壽
夂
处
夅
夆
备
夊
夋
夌
复
夏
夒
夕
外
夗
夘
多
夜
夢
大
夨
天
太
夫
夬
夭
央
失
夲
头
夷
夸
夹
夻
夾
奂
奄
奇
奈
奉
奎
奏
奐
契
奓
奔
奚
奞
奠
奢
奥
奭
女
奴
奻
好
如
妄
妙
妟
妥
妻
妾
姑
委
姜
威
娄
婁
婴
嬰
嬴
子
孑
孔
孕
孖
字
存
孚
孛
孝
孟
季
孤
学
孫
孱
學
宀
宁
宂
它
宅
宇
守
安
宋
完
宏
宓
宗
官
定
宛
宜
宝
客
宣
室
宮
宰
害
家
容
宾
宿
寄
寅
密
富
寒
察
寧
審
寫
寬
寮
寸
对
寺
寻
寽
対
寿
封
尃
射
将
將
專
尉
尊
尋
尌
對
小
少
尒
尓
尔
尖
尗
尚
尞
尢
尣
尤
尧
尨
尭
就
尸
尹
尺
尻
尼
尽
尾
尿
局
居
屈
屋
屎
屏
屑
展
屖
屚
属
屠
屡
屬
屮
屯
屰
山
屵
屾
岁
岂
岑
岡
岩
岳
岸
峯
島
崇
崎
崑
崔
崖
崙
崩
嵬
嶲
巂
巛
川
州
巟
巠
巢
巤
工
左
巧
巨
巩
巫
差
己
已
巳
巴
巷
巸
巽
巾
巿
帀
市
布
希
帚
帛
帝
带
師
席
帯
帶
常
干
平
年
幵
并
幷
幸
幺
幻
幼
幽
幾
广
広
庄
床
底
店
庚
府
度
庫
庭
庶
康
庸
廉
廌
廛
廣
廩
廴
延
廷
建
廾
廿
开
弁
弃
弄
弇
弋
式
弓
弔
引
弗
弘
弜
弟
弥
弦
弱
張
強
强
彊
彌
彎
彐
彑
当
彔
录
彖
彗
彡
形
彥
彦
彧
彭
彳
役
彼
往
待
律
徒
得
徙
從
復
微
徳
徵
德
心
忄
必
忌
忍
志
忝
忠
忩
快
念
忽
忿
思
怠
急
怱
恆
恒
恩
恭
息
悉
患
悤
悲
悶
情
惠
惡
惢
愁
愈
意
愛
感
慈
慧
慮
憂
憲
應
戀
戈
戉
戊
戋
戌
戍
戎
成
我
戒
戔
或
戚
戠
戢
截
戲
戶
户
戸
戹
戼
戾
房
所
扁
扇
手
扌
才
打
托
执
承
折
拉
拜
拿
掌
推
提
摩
支
攴
攵
收
攸
改
放
政
敄
敏
敕
敖
敗
敝
敞
敢
散
敦
敫
敬
数
敷
數
斂
文
斉
斊
斗
斤
斥
斩
斬
斯
新
方
於
施
斿
旁
旋
族
无
旡
既
旣
日
旦
旧
旨
早
旬
旱
旲
时
旾
昆
昇
昌
昍
明
昏
易
昔
昗
昜
星
春
昬
是
昱
昴
昷
時
晃
晋
晏
普
景
晶
智
暑
暴
曇
曩
曰
曲
曳
更
曷
書
曹
曼
曾
替
最
朁
會
月
有
朋
服
朔
朕
朗
望
朝
木
朩
未
末
本
札
朮
术
朱
朵
朶
机
朿
杀
杏
村
杜
束
条
来
東
杲
杳
松
析
林
枚
果
枝
枲
枼
某
柔
查
柬
柰
柴
査
栗
株
根
桀
桑
桼
梁
條
梟
梨
棘
棠
棥
森
楚
業
楽
榮
樂
樊
欠
次
欣
欮
欲
欶
欽
款
歆
歇
歌
歛
止
正
此
步
武
歨
歪
歮
歯
歰
歲
歴
歷
歸
歹
歺
死
殳
段
殷
殸
殹
殺
殻
殿
毋
毌
母
毎
每
毒
比
毕
毚
毛
毳
氏
氐
民
气
氣
水
氵
氶
氷
永
氺
氾
求
汝
汞
江
沃
沓
沙
沝
沢
河
治
沼
泉
法
波
泣
泥
泰
洛
津
洪
洲
活
派
流
浜
浦
浪
浮
海
淡
淮
清
渚
渠
港
湖
湯
滿
漸
火
灬
灭
灰
灵
灷
炅
炎
炏
炗
炙
炭
為
烈
烏
烝
焉
無
焦
焱
然
煞
熊
熏
燕
營
燮
爪
爫
爭
爯
爰
爱
爲
爵
父
爻
爽
爾
爿
片
版
牙
牚
牛
牜
牟
牢
牧
牪
牽
犀
犬
犭
犮
狂
狄
狊
独
狺
猋
猒
猪
献
獻
玄
率
玉
王
玟
玨
珎
班
理
琴
瑟
瑩
瓜
瓦
甘
甚
生
産
用
甫
甬
田
由
甲
申
电
甶
男
甸
甹
町
画
甾
畀
界
畏
畐
留
畜
畟
畢
畧
畨
番
畫
異
畱
當
畺
畾
疊
疋
疌
疑
疒
疾
癶
癸
癹
登
發
白
百
皀
皃
的
皆
皇
皋
皐
皕
皮
皷
皿
盃
盆
盇
盈
益
盍
盎
监
盒
盖
盛
盡
監
盤
盧
目
直
相
盾
省
眇
眉
看
県
眔
眞
真
眷
眼
眾
着
睘
睪
睿
瞏
瞢
瞿
矍
矛
矞
矢
矣
知
矦
短
石
破
碎
磊
磨
示
礻
礼
社
神
祟
票
祭
禀
禁
福
禸
禹
禺
离
禽
禾
禿
秀
秃
秉
秋
科
秝
秦
移
稟
穀
穌
穴
究
穹
空
穿
突
窄
窒
立
竒
竜
竝
竟
章
童
竹
笑
笠
第
筆
等
答
箕
算
箴
節
篤
篭
米
粉
粛
粟
粤
粦
粲
糞
糸
糹
系
約
納
素
索
紫
累
細
絜
絫
統
絲
維
綿
縣
繇
纍
纟
统
维
缶
网
罒
罔
罕
罗
罙
罡
罢
罪
署
罷
羅
羊
羌
羍
美
羔
羕
羗
羞
羡
羣
群
義
羲
羸
羽
翁
翏
習
翕
翟
翠
翼
老
耂
考
者
耆
而
耎
耑
耒
耳
耴
耶
耷
聂
聊
聖
聚
聶
聿
肀
肃
肅
肉
肖
肙
肥
肩
肯
育
肴
胃
背
胡
胥
能
脊
脩
膚
臣
臤
臧
自
臬
臭
臯
臱
至
致
臺
臼
臽
臾
臿
舀
舂
舄
與
興
舉
舌
舍
舛
舜
舞
舟
般
艮
良
色
艸
艹
艾
芒
芔
芬
芮
花
芳
芺
芻
苏
苔
苗
苟
若
苦
英
茶
茸
荅
草
荒
荣
荼
莆
莧
莫
莽
菆
菊
菐
華
萬
落
葉
著
葛
董
葵
蒙
蒦
蒼
蓋
蓬
蓺
蔑
蔡
蕉
蕭
薄
薛
薦
薰
藍
藏
藥
蘇
蘭
虍
虎
虐
虒
虔
處
虖
虗
虘
虚
虛
虜
虞
虫
虽
蚤
蚩
蜀
蜜
蟲
蠡
血
行
衍
衛
衣
衤
表
衮
衰
袁
袞
褭
褱
襄
襾
西
覀
要
覃
見
規
覓
覧
親
覽
见
角
解
言
訁
訇
計
詹
語
誩
調
諸
讠
语
谷
豆
豈
豊
豐
豕
豖
豙
象
豦
豩
豪
豸
貇
貝
貞
貟
負
貢
貧
貪
貫
責
貳
貴
買
費
賀
賁
資
賈
賏
賓
賔
賛
賞
賢
賣
質
賴
贊
贝
贡
责
贯
贲
贵
赖
赞
赤
赦
走
越
足
路
蹇
身
躬
車
軍
軎
軟
輦
车
辛
辜
辟
辥
辰
辱
農
辵
辶
边
达
过
近
连
迷
追
退
送
逆
逐
通
速
造
逢
連
逮
進
遀
遂
過
道
達
遣
適
遷
遺
邊
邑
邕
那
邦
邪
郎
部
郭
都
鄉
酉
酋
配
酓
釆
采
里
重
野
量
金
釒
錢
钅
長
镸
长
門
閃
閉
開
閏
閑
閒
間
閔
閵
閻
闌
门
问
间
闷
阑
阜
阝
阪
阳
阿
降
陳
陽
隆
隊
隋
隡
隨
隱
隶
隹
隺
隻
隼
隽
难
雀
雁
集
雈
雋
雍
雐
雔
雙
雚
雜
雝
離
難
雨
雩
雪
雲
零
雷
需
霍
霜
霝
霞
霸
靈
靑
青
非
靡
面
靣
革
韋
韦
韭
韯
韱
音
頁
頃
項
須
頗
頡
頻
顛
页
風
风
飛
飞
食
飠
飯
養
館
饣
首
香
馬
馮
駦
马
骨
高
髟
鬥
鬯
鬲
鬼
魚
魯
鮮
鱼
鲁
鳥
鳳
鸟
鹵
鹿
麃
麗
麥
麦
麻
黃
黄
黍
黎
黑
黒
黨
黹
黽
黾
鼎
鼓
鼠
鼻
齊
齋
齐
齒
齿
龍
龙
龜
龟
龠
龰
龱
龴
龵
龶
龷
龸
龹
ꞑ
ꭰ
ꭴ
ꭶ
ꭹ
ꮝ
ꮣ
ꮧ
者
艹
ﷺ
ﺍ
ﺎ
ﺫ
ﻟ
ﻪ
？
￼
�
𐌰
𐌴
𐌹
𐌻
𐌼
𐌽
𐌿
𐍃
𐍄
𠀁
𠀃
𠀆
𠀉
𠀎
𠀐
𠁁
𠁣
𠂆
𠂇
𠂈
𠂉
𠂊
𠂋
𠂎
𠂒
𠂔
𠂛
𠂡
𠂢
𠂤
𠂬
𠂭
𠂹
𠃊
𠃋
𠃌
𠃍
𠃎
𠃑
𠃓
𠃔
𠃜
𠄌
𠄎
𠄠
𠄢
𠆢
𠆥
𠇍
𠈌
𠌵
𠓜
𠔉
𠔥
𠔼
𠔽
𠔿
𠕀
𠕁
𠕋
𠘧
𠘨
𠙻
𠙼
𠚏
𠚒
𠚤
𠚪
𠣏
𠤎
𠤕
𠥓
𠦄
𠦑
𠦝
𠧒
𠧗
𠧪
𠩺
𠪚
𠫓
𠫔
𠫤
𠬛
𠬝
𠬞
𠬢
𠬤
𠬶
𠮛
𠮦
𠮷
𠯑
𠱠
𠳮
𠷎
𡈼
𡉀
𡉵
𡌥
𡍮
𡏳
𡕒
𡕩
𡕰
𡖅
𡗗
𡗜
𡘆
𡘤
𡧱
𡨄
𡩧
𡬠
𡭽
𡰣
𡰥
𡰪
𡰯
𡰱
𡷈
𡸁
𡿨
𡿩
𡿪
𡿺
𢀖
𢀛
𢀩
𢁙
𢆉
𢆰
𢆶
𢇁
𢇇
𢉖
𢌬
𢌿
𢏚
𢑑
𢑚
𢖻
𢙣
𢛳
𢦏
𢦒
𢧵
𢼄
𢾕
𣁋
𣄼
𣅀
𣅽
𣍘
𣎳
𣎵
𣏋
𣏼
𣗥
𣥂
𣥖
𣦵
𣦼
𣧄
𣪊
𣪠
𣬉
𣳾
𣶒
𤇾
𤊽
𤐫
𤓰
𤔔
𤕨
𤣩
𤰇
𤰔
𤰞
𤴓
𤴔
𤽄
𥁑
𥁕
𥃦
𥃩
𥃭
𥇡
𥑟
𥘅
𥘈
𥝢
𥫗
𥱡
𦈢
𦉪
𦉬
𦉼
𦍌
𦍒
𦎧
𦐇
𦓔
𦔮
𦘒
𦙃
𦚏
𦣝
𦣞
𦣻
𦥑
𦥔
𦥯
𦨉
𦭝
𦰩
𧆞
𧈧
𧘇
𧰨
𧴪
𧴮
𧵩
𧾷
𨸏
𨾴
𩙿
𩠐
𩫏
𩵋
𪉷
𪜀
𪟽
𪠲
𪩲
𫇦
𫔭
𫜸
𫝀
𫠣
𫠩
𫢉
𫥞
𫩏
𫩠
𫪡
𫲽
𫶧
𬀷
𬐘
𬗌
𬙙
𬛸
𬜯
𬟩
𬯁
𬴘
𬺻
𬼉
𬼖
𭀰
𭁈
𭁨
𭅰
𭑈
𭕄
𭗼
𭤨
𭥫
𭻾
𮅕
𮊿
𮍌
𮍏
𮓗
𮥼
𮧮
廾
𰀁
𰀄
𰀈
𰀉
𰀕
𰀠
𰀡
𰀢
𰀪
𰁜
𰃮
𰆊
𰆘
𰋙
𰕎
𰢴
𰧭
𰯲
0--
00--
000--
0000--
001--
01--
011--
02--
03--
04--
05--
06--
07--
08--
09--
1--
113--
118--
2--
249--
3--
4--
43--
5--
6--
7--
72--
73--
74--
77--
79--
8--
80--
83--
85--
88--
9--
90--
91--
94--
978--
99--
a--
aa--
ab--
abs--
ac--
acci--
ad--
adje--
ae--
aeri--
aero--
af--
afri--
ag--
ah--
ai--
air--
aj--
ak--
akad--
al--
alba--
alci--
ali--
alka--
all--
alt--
am--
amba--
an--
ana--
ance--
anim--
ao--
ap--
aq--
ar--
aran--
arch--
aris--
art--
as--
asse--
astr--
astu--
at--
au--
av--
aw--
ax--
ay--
az--
b--
ba--
back--
bala--
bald--
balt--
ban--
bar--
bast--
bat--
bd--
be--
begi--
bel--
ben--
berg--
bert--
bh--
bi--
bian--
biblio--
bio--
bir--
bl--
bo--
bor--
br--
brig--
brit--
bu--
budd--
bull--
by--
ca--
cala--
calc--
camb--
can--
car--
casa--
casc--
cass--
cat--
cd--
ce--
cele--
cent--
cere--
cf--
ch--
champ--
chan--
chap--
char--
chav--
cher--
chi--
ci--
cita--
cl--
clem--
clou--
cn--
co--
coll--
com--
communi--
con--
contr--
corn--
corr--
cr--
crea--
cris--
crit--
cs--
cu--
cy--
cz--
d--
da--
daug--
de--
deci--
decl--
defe--
del--
demo--
den--
des--
dh--
di--
dia--
diff--
disc--
dist--
dj--
do--
dr--
du--
dw--
dy--
ea--
eb--
ec--
eche--
ed--
edit--
ee--
ef--
eg--
ei--
ek--
el--
elec--
elli--
em--
emer--
en--
ep--
eq--
er--
es--
esca--
espi--
est--
et--
eu--
euro--
ev--
ex--
extr--
ey--
ez--
f--
fa--
fan--
far--
fe--
feat--
ferr--
fi--
fich--
figh--
figu--
film--
finl--
fl--
flam--
flor--
flug--
fly--
fo--
foll--
for--
fr--
fras--
free--
frei--
ft--
fu--
ga--
gali--
gall--
ge--
gen--
geo--
gh--
gi--
gil--
gj--
gl--
glor--
go--
gonz--
gr--
grad--
gram--
gros--
gs--
gu--
guar--
guer--
gy--
gyro--
ha--
harb--
has--
he--
heli--
hell--
her--
hi--
ho--
holi--
home--
hone--
hono--
hu--
hum--
hy--
ia--
ib--
ibra--
ic--
ice--
id--
iden--
identi--
ie--
if--
ig--
ii--
ik--
il--
illi--
illu--
im--
in--
incor--
indepe--
indi--
india--
indu--
infi--
infl--
inter--
inva--
inve--
io--
ip--
ir--
is--
isti--
it--
iu--
iv--
iy--
iz--
j--
ja--
je--
jenn--
jet--
jh--
ji--
jo--
jon--
jp--
js--
ju--
jun--
k--
ka--
kad--
kali--
kata--
kath--
kaza--
ke--
kh--
khor--
ki--
kilo--
kl--
kn--
ko--
koku--
kr--
kras--
krasno--
ku--
kult--
ky--
kı--
l--
la--
lac--
laur--
le--
legi--
leo--
li--
lib--
ling--
lite--
ll--
lo--
locat--
lour--
lu--
ly--
m--
ma--
mac--
maga--
magn--
magu--
mai--
mal--
man--
mar--
mas--
mate--
maur--
mb--
mc--
me--
med--
men--
mess--
mi--
micr--
mid--
mil--
mira--
mo--
mong--
mont--
move--
mr--
mu--
mult--
my--
n--
na--
nc--
nd--
ne--
new--
news--
ng--
ni--
nn--
no--
ns--
nu--
ny--
oa--
ob--
obit--
obse--
oc--
od--
odul--
oe--
of--
og--
oh--
oi--
ok--
ol--
oli--
om--
on--
op--
open--
or--
orie--
os--
ot--
ou--
out--
ov--
over--
ow--
ox--
oy--
oz--
p--
pa--
pala--
pan--
par--
para--
pas--
pe--
pell--
peni--
per--
petr--
ph--
phil--
phys--
pi--
pira--
pl--
plat--
po--
pr--
pract--
prec--
pred--
pres--
prim--
pro--
ps--
pu--
py--
qa--
qi--
qo--
qu--
quest--
quil--
quin--
ra--
rai--
re--
rece--
ref--
regi--
regu--
rela--
repu--
requ--
res--
resis--
reve--
rh--
ri--
rich--
ro--
roto--
rt--
ru--
ry--
s--
sa--
sacr--
sal--
sam--
san--
sar--
satu--
sc--
sche--
schr--
schu--
schw--
scie--
scot--
se--
sea--
sele--
sen--
seve--
sh--
si--
simp--
sk--
sky--
sl--
slov--
sm--
sn--
so--
soci--
sol--
solut--
sp--
spea--
spec--
sq--
sr--
st--
stan--
stud--
su--
sum--
sun--
sur--
sv--
sw--
sy--
symp--
synt--
sz--
t--
ta--
tala--
tan--
tara--
taxo--
tc--
te--
tele--
temp--
terr--
tg--
th--
the--
thou--
ti--
to--
torr--
tr--
tradit--
trai--
tran--
trea--
tri--
ts--
tu--
tv--
tw--
ty--
ub--
uc--
ud--
ug--
uk--
ul--
ultra--
um--
un--
univ--
univer--
up--
ur--
us--
ut--
uy--
uz--
v--
va--
vald--
vallad--
van--
var--
ve--
vent--
vi--
via--
villa--
vis--
vl--
vlad--
vo--
vol--
voro--
vu--
wa--
war--
we--
wh--
wi--
wiki--
wo--
wr--
wu--
wy--
xa--
xe--
xi--
xo--
xu--
xx--
ya--
ye--
yi--
yo--
yu--
yı--
za--
ze--
zh--
zi--
zo--
zu--
æ--
đ--
ŋ--
ɐ--
ɗ--
ə--
ɡ--
ɣ--
ɪ--
ɾ--
ʂ--
ʃ--
ʔ--
γ--
τ--
а--
аа--
аб--
аба--
абар--
абд--
абду--
абдул--
абдур--
абе--
абзор--
аби--
або--
абоне--
абори--
абр--
абстр--
абу--
абул--
ав--
авер--
авиа--
авит--
авиц--
австр--
авто--
авҷ--
аг--
ага--
аге--
аги--
аглом--
агр--
агре--
агрегат--
агротех--
агу--
ад--
аде--
ади--
ае--
аж--
аз--
азим--
азнав--
азо--
аи--
аиб--
ак--
ака--
акк--
аккумуля--
акро--
акс--
аксул--
акт--
актин--
акту--
ал--
ала--
алаф--
але--
али--
аллер--
ало--
алп--
алт--
аль--
алғ--
ам--
ама--
амал--
аме--
амен--
амил--
амир--
амлок--
амон--
амонатгу--
амор--
амп--
амр--
амфи--
амшос--
ан--
ана--
анак--
анаэр--
анг--
анге--
ангио--
анд--
анес--
ани--
анк--
анкилос--
аном--
анти--
антр--
антро--
антропо--
ану--
анъ--
анҷи--
ао--
ап--
апа--
апел--
ар--
ара--
араб--
араби--
аре--
арифме--
арк--
арм--
арти--
артил--
арус--
архи--
архитек--
арғ--
арғу--
арҷгу--
ас--
асад--
асл--
асо--
асп--
аспак--
аспер--
аст--
астер--
астро--
ат--
ата--
ате--
ато--
атри--
атсе--
ау--
аф--
афана--
афро--
афрохта--
афсур--
афти--
ах--
ахси--
аш--
ашк--
аштар--
ашур--
ашъ--
аъ--
аъло--
аэр--
аэро--
аю--
аюб--
ая--
ағ--
ақ--
ақл--
ақо--
аҳ--
аҳк--
аҳром--
аҳу--
аҷ--
аҷи--
б--
ба--
баамал--
баб--
бавуҷуд--
баг--
бад--
бадал--
бадаст--
бадеъуз--
бадо--
баз--
бази--
баи--
баинал--
баини--
баитул--
бак--
бал--
бала--
балан--
баланд--
балуҷи--
бам--
бан--
банавор--
бап--
бар--
бараф--
бараҳ--
баргар--
барз--
бари--
барна--
баро--
барқ--
бас--
бат--
баф--
бах--
бахш--
баш--
баъ--
баъди--
бағ--
баҳ--
баҳам--
бе--
бева--
бед--
без--
беи--
беинти--
бек--
беки--
бекор--
бел--
бен--
бер--
берд--
берди--
бере--
бес--
бесс--
бест--
бет--
бех--
бечуну--
бењ--
беғ--
беҳ--
би--
биб--
биби--
библи--
биг--
бид--
бие--
бик--
бил--
било--
бин--
био--
бир--
бис--
бисер--
бист--
бит--
битав--
биш--
бл--
бла--
блас--
бле--
бли--
ближ--
бло--
бн--
бо--
бобо--
бог--
бод--
боз--
бои--
бол--
боло--
боль--
бом--
бомба--
бон--
бор--
борбар--
бос--
бот--
ботлоқ--
бош--
бошу--
боғ--
бр--
бра--
бранден--
браҳ--
бре--
бри--
бро--
брон--
брошю--
бру--
брук--
бу--
буд--
буз--
буи--
бук--
бул--
бун--
бунҷи--
бур--
бури--
бурун--
бут--
буф--
буэ--
бы--
бэ--
бю--
бюл--
в--
ва--
вазе--
вазнбар--
ваи--
вал--
вали--
ван--
вар--
вас--
васеъ--
васл--
ватан--
вах--
ваҳ--
вв--
ве--
веб--
вед--
век--
вел--
великоб--
вен--
вер--
вереща--
верх--
вес--
весе--
веч--
вз--
взаимоде--
взя--
ви--
видео--
визу--
вик--
вики--
викифи--
вил--
вила--
вин--
виногр--
вио--
вир--
вирту--
вис--
вит--
виш--
вклю--
вла--
вн--
вну--
во--
воб--
воев--
вожа--
воз--
возв--
возмож--
возне--
вои--
вол--
воло--
вом--
вор--
ворид--
воро--
вос--
воскре--
воспи--
восс--
вр--
вру--
вс--
все--
вт--
ву--
вул--
вур--
вы--
выс--
высо--
выст--
вьет--
вяз--
вят--
г--
га--
габ--
гав--
газ--
гаи--
гал--
гала--
гали--
гам--
ган--
ганд--
ганҷ--
гап--
гар--
гард--
гарм--
гарми--
гас--
гастроэн--
гач--
гаҷ--
гва--
ге--
геи--
гел--
гемогл--
ген--
генер--
гео--
гер--
гетеро--
ги--
гиб--
гидр--
гидрав--
гидро--
гиеҳ--
гил--
гин--
гинеко--
гип--
гипер--
гипо--
гир--
гирд--
гирдо--
гисс--
гисто--
гит--
гл--
глау--
гле--
глико--
глис--
глит--
глу--
глю--
гне--
го--
гов--
гол--
голл--
гон--
гор--
гос--
госпи--
гот--
гоҳ--
гр--
граж--
гражданс--
гре--
грен--
гри--
гриф--
груп--
гу--
гуар--
губ--
гуво--
гуд--
гуз--
гузар--
гуи--
гул--
гулу--
гум--
гуман--
гун--
гуп--
гур--
гуруҳ--
гус--
гут--
гутер--
гуш--
гуя--
гян--
д--
да--
дав--
дадо--
даи--
дал--
даль--
дам--
дан--
дар--
даре--
дарс--
даст--
дах--
даш--
дағ--
даҳ--
даҳшат--
даҷ--
дви--
двига--
движе--
де--
дев--
девор--
дег--
дек--
дел--
ден--
депар--
депу--
дер--
дет--
детек--
детс--
дех--
дея--
деҳ--
деҳи--
деҳка--
дж--
джаи--
дже--
ди--
диа--
дид--
диер--
дизе--
дик--
дикта--
дил--
дилаф--
дин--
дис--
диск--
диф--
диффе--
диҳ--
днепро--
до--
доб--
дов--
довт--
довталаб--
договар--
дод--
додо--
додси--
доду--
доира--
доку--
докумен--
дол--
долж--
дом--
дон--
дор--
дору--
дорул--
дос--
достоевс--
дохили--
др--
дра--
древ--
дром--
дру--
друж--
ду--
дуб--
дуд--
дул--
дум--
дун--
дуо--
дур--
дуред--
дуру--
дуст--
дух--
ды--
дэ--
дю--
е--
ев--
евро--
егип--
ед--
еди--
ежегод--
екат--
ел--
ели--
елт--
ен--
ер--
ере--
ери--
ес--
ефи--
ефре--
ефт--
ж--
жан--
жар--
же--
желез--
железно--
жер--
жи--
жив--
живо--
живот--
жид--
жил--
жит--
жу--
жул--
жун--
жур--
з--
за--
заб--
забар--
забо--
забт--
зав--
заво--
заврақ--
заит--
зак--
зал--
зам--
замин--
замингиеҳ--
зан--
занг--
зап--
запо--
заповед--
зар--
зарб--
зарбул--
зас--
засе--
защ--
зая--
зв--
здравоох--
зе--
зебо--
зебу--
зен--
зер--
зи--
зидди--
зикр--
зин--
зир--
зире--
зна--
зо--
зод--
зол--
зон--
зоо--
зоотех--
зор--
зот--
зу--
зуб--
зуд--
зуз--
зул--
зун--
зур--
зуҳ--
и--
иа--
иб--
ив--
иваз--
иг--
игл--
игна--
игр--
ид--
иде--
иди--
идора--
ие--
из--
издательс--
изо--
изоб--
изу--
ии--
иил--
ик--
ил--
илм--
иль--
им--
имзо--
иммуно--
имом--
ин--
инди--
индивиду--
инос--
инсон--
инспе--
интел--
интен--
интер--
инфекц--
инфраструк--
инъ--
ио--
иор--
иоҳан--
ир--
ирак--
ирти--
ис--
иса--
исен--
ислом--
исм--
исо--
исп--
исполни--
использо--
ист--
истиб--
историо--
ит--
ита--
итт--
иф--
ифр--
ифрот--
их--
ихвонул--
ич--
ичке--
иш--
ишғол--
ишқ--
иғ--
иҷ--
иҷо--
иҷро--
иҷти--
к--
ка--
каб--
кав--
кад--
каж--
каз--
каи--
кал--
кала--
калаш--
кале--
калла--
кало--
калон--
кам--
кан--
кап--
капи--
кар--
кара--
карбогидр--
кас--
каска--
кат--
катта--
кау--
каф--
ках--
кач--
каш--
кашф--
каҳ--
каҷ--
кв--
квар--
кве--
ке--
кев--
кел--
кемб--
кеме--
кен--
кер--
ки--
киб--
кил--
кило--
ким--
кимие--
кин--
кинемато--
кино--
кир--
кис--
кисе--
китаис--
китоб--
киш--
кл--
кла--
клави--
кле--
кли--
кло--
км--
кн--
книж--
ко--
коб--
ков--
ковиш--
код--
кок--
кол--
ком--
коме--
комен--
комил--
комп--
компу--
компью--
кон--
конов--
консерва--
конституц--
консул--
контр--
конф--
коп--
кор--
кос--
коса--
космо--
кот--
коф--
коч--
кош--
кошғ--
коэффит--
коҳи--
кр--
кра--
крас--
красно--
крат--
кре--
кри--
кримина--
крио--
крипто--
кро--
кру--
круп--
крупс--
кры--
ку--
куб--
куве--
куз--
кузне--
кузнет--
кузь--
кук--
кул--
кум--
кун--
куп--
кур--
курд--
кут--
кух--
куч--
куча--
куш--
куҳ--
куҳна--
кэ--
кю--
көк--
л--
ла--
лаб--
лав--
лаи--
лак--
лакҳ--
лам--
лан--
ланд--
ланда--
лап--
лар--
лат--
лах--
лаъ--
лағ--
лағж--
лаҳ--
ле--
лев--
лег--
лез--
леи--
лек--
лекси--
лексико--
лен--
лео--
лес--
лет--
ли--
либ--
лив--
лиж--
лик--
лим--
лимфос--
лин--
линг--
лит--
лиф--
лихтенш--
лич--
ло--
лоб--
лои--
лок--
лом--
лон--
лор--
лу--
луж--
лук--
луоб--
лус--
луч--
луғат--
луқ--
ль--
лю--
люби--
ля--
м--
ма--
маб--
мав--
маг--
магни--
маго--
мад--
маж--
маз--
мазо--
маи--
мак--
макед--
мал--
мала--
мало--
мам--
мама--
мамад--
ман--
манза--
манъ--
мар--
мас--
масъ--
мат--
мате--
маф--
мах--
махач--
махсус--
мач--
маш--
маъ--
маъю--
мањ--
мағ--
мақ--
мақъ--
маҳ--
маҳбу--
маҳв--
маҳмад--
маҷ--
мг--
ме--
меаф--
мебар--
мева--
мега--
мед--
медар--
медицинс--
меж--
между--
меи--
[...]
