!
"
#
##a
##aa
##ab
##ac
##ad
##ae
##af
##ag
##ah
##ai
##aj
##ak
##al
##am
##an
##ao
##ap
##aq
##ar
##as
##at
##au
##av
##aw
##ax
##ay
##az
##b
##ba
##bb
##bc
##bd
##be
##bf
##bg
##bh
##bi
##bj
##bk
##bl
##bm
##bn
##bo
##bp
##bq
##br
##bs
##bt
##bu
##bv
##bw
##bx
##by
##bz
##c
##ca
##cb
##cc
##cd
##ce
##cf
##cg
##ch
##ci
##cj
##ck
##cl
##cm
##cn
##co
##cp
##cq
##cr
##cs
##ct
##cu
##cv
##cw
##cx
##cy
##cz
##d
##da
##db
##dc
##dd
##de
##df
##dg
##dh
##di
##dj
##dk
##dl
##dm
##dn
##do
##dp
##dq
##dr
##ds
##dt
##du
##dv
##dw
##dx
##dy
##dz
##e
##ea
##eb
##ec
##ed
##ee
##ef
##eg
##eh
##ei
##ej
##ek
##el
##em
##en
##eo
##ep
##eq
##er
##es
##et
##eu
##ev
##ew
##ex
##ey
##ez
##f
##fa
##fb
##fc
##fd
##fe
##ff
##fg
##fh
##fi
##fj
##fk
##fl
##fm
##fn
##fo
##fp
##fq
##fr
##fs
##ft
##fu
##fv
##fw
##fx
##fy
##fz
##g
##ga
##gb
##gc
##gd
##ge
##gf
##gg
##gh
##gi
##gj
##gk
##gl
##gm
##gn
##go
##gp
##gq
##gr
##gs
##gt
##gu
##gv
##gw
##gx
##gy
##gz
##h
##ha
##hb
##hc
##hd
##he
##hf
##hg
##hh
##hi
##hj
##hk
##hl
##hm
##hn
##ho
##hp
##hq
##hr
##hs
##ht
##hu
##hv
##hw
##hx
##hy
##hz
##i
##ia
##ib
##ic
##id
##ie
##if
##ig
##ih
##ii
##ij
##ik
##il
##im
##in
##io
##ip
##iq
##ir
##is
##it
##iu
##iv
##iw
##ix
##iy
##iz
##j
##ja
##jb
##jc
##jd
##je
##jf
##jg
##jh
##ji
##jj
##jk
##jl
##jm
##jn
##jo
##jp
##jq
##jr
##js
##jt
##ju
##jv
##jw
##jx
##jy
##jz
##k
##ka
##kb
##kc
##kd
##ke
##kf
##kg
##kh
##ki
##kj
##kk
##kl
##km
##kn
##ko
##kp
##kq
##kr
##ks
##kt
##ku
##kv
##kw
##kx
##ky
##kz
##l
##la
##lb
##lc
##ld
##le
##lf
##lg
##lh
##li
##lj
##lk
##ll
##lm
##ln
##lo
##lp
##lq
##lr
##ls
##lt
##lu
##lv
##lw
##lx
##ly
##lz
##m
##ma
##mb
##mc
##md
##me
##mf
##mg
##mh
##mi
##mj
##mk
##ml
##mm
##mn
##mo
##mp
##mq
##mr
##ms
##mt
##mu
##mv
##mw
##mx
##my
##mz
##n
##na
##nb
##nc
##nd
##ne
##nf
##ng
##nh
##ni
##nj
##nk
##nl
##nm
##nn
##no
##np
##nq
##nr
##ns
##nt
##nu
##nv
##nw
##nx
##ny
##nz
##o
##oa
##ob
##oc
##od
##oe
##of
##og
##oh
##oi
##oj
##ok
##ol
##om
##on
##oo
##op
##oq
##or
##os
##ot
##ou
##ov
##ow
##ox
##oy
##oz
##p
##pa
##pb
##pc
##pd
##pe
##pf
##pg
##ph
##pi
##pj
##pk
##pl
##pm
##pn
##po
##pp
##pq
##pr
##ps
##pt
##pu
##pv
##pw
##px
##py
##pz
##q
##qa
##qb
##qc
##qd
##qe
##qf
##qg
##qh
##qi
##qj
##qk
##ql
##qm
##qn
##qo
##qp
##qq
##qr
##qs
##qt
##qu
##qv
##qw
##qx
##qy
##qz
##r
##ra
##rb
##rc
##rd
##re
##rf
##rg
##rh
##ri
##rj
##rk
##rl
##rm
##rn
##ro
##rp
##rq
##rr
##rs
##rt
##ru
##rv
##rw
##rx
##ry
##rz
##s
##sa
##sb
##sc
##sd
##se
##sf
##sg
##sh
##si
##sj
##sk
##sl
##sm
##sn
##so
##sp
##sq
##sr
##ss
##st
##su
##sv
##sw
##sx
##sy
##sz
##t
##ta
##tb
##tc
##td
##te
##tf
##tg
##th
##ti
##tj
##tk
##tl
##tm
##tn
##to
##tp
##tq
##tr
##ts
##tt
##tu
##tv
##tw
##tx
##ty
##tz
##u
##ua
##ub
##uc
##ud
##ue
##uf
##ug
##uh
##ui
##uj
##uk
##ul
##um
##un
##uo
##up
##uq
##ur
##us
##ut
##uu
##uv
##uw
##ux
##uy
##uz
##v
##va
##vb
##vc
##vd
##ve
##vf
##vg
##vh
##vi
##vj
##vk
##vl
##vm
##vn
##vo
##vp
##vq
##vr
##vs
##vt
##vu
##vv
##vw
##vx
##vy
##vz
##w
##wa
##wb
##wc
##wd
##we
##wf
##wg
##wh
##wi
##wj
##wk
##wl
##wm
##wn
##wo
##wp
##wq
##wr
##ws
##wt
##wu
##wv
##ww
##wx
##wy
##wz
##x
##xa
##xb
##xc
##xd
##xe
##xf
##xg
##xh
##xi
##xj
##xk
##xl
##xm
##xn
##xo
##xp
##xq
##xr
##xs
##xt
##xu
##xv
##xw
##xx
##xy
##xz
##y
##ya
##yb
##yc
##yd
##ye
##yf
##yg
##yh
##yi
##yj
##yk
##yl
##ym
##yn
##yo
##yp
##yq
##yr
##ys
##yt
##yu
##yv
##yw
##yx
##yy
##yz
##z
##za
##zb
##zc
##zd
##ze
##zf
##zg
##zh
##zi
##zj
##zk
##zl
##zm
##zn
##zo
##zp
##zq
##zr
##zs
##zt
##zu
##zv
##zw
##zx
##zy
##zz
$
%
&
'
(
)
*
+
,
-
.
/
0
00
000
0000
000001
000002
0004
001
00151
002
00238
0026
003
0035
0036
004
0041
00536
006
0061
00611
0068
00709
0090
01
010
0106
011
012
0130
0131
014
0141
0144
015
0155
0169
0188
0197
0198
02
0214
0216
0238
0251
0263
0276
0279
028
0295
03
030
0302
0303
0314
0315
03150
035
037
0373
0378
0384
0389
0395
04
042
0432
05
054
06
07
074
078
08
09
095
098
0a
0b
0c
0d
0e
0f
0g
0h
0i
0j
0k
0l
0m
0n
0o
0p
0q
0r
0s
0t
0u
0v
0w
0x
0y
0z
1
10
100
1000
10000
1001
1002
1007
1009
101
101490
1015
1016
1017
1018
102
1020
1023
1024
103
1030
1034
1035
1038
104
1040
105
1050
105192847
1054
106
1060
1063
1066
1067
107
1070
1071
107212659
1073
107343683
108
1080
1085
10855166
1086
1088
109
1090
1093
1095
1097
11
110
1100
1101
110250907
1103
1105
111
1111
111411657
112
1125
1126
1127
1128
1129
113
1130
1136
1137
1139
114
1140
1142
1143
1146
1147
115
1150
1154
1157
1158
1159
116
1160
1162
1167
117
1170
1173
11789729
118
1180
1185
1186
1187
119
1190
1194
1194038
1195
1196
1198
12
120
1200
1202
1204
1205
121
1212
1214
1215
1216
1218
1219
122
1220
1223
1225
1229
123
1230
1234
1235
1237
1238
124
1240
1241
1247
1248
125
1250
1252
1253
1254
1256
126
1260
1261
1263
1264
1266
1267
127
1270
128
1280
1282
1284
1285
129
1290
1291
1295
1296
13
130
1300
1305
1308
1309
131
1310
1314
131454
1318
1319
132
1320
13219454
1325
1326
1328
133
1330
1337
134
1340
1341
1345
1346
1347
1348
1349
135
1350
1353
13550863
1356
136
1360
1365
1368
137
1370
1371
1373513
1375
1377
1378
138
1380
1382
1384
1385
1386
1387
1388
1389
139
1390
1391
1392
1394
1395
1396
1397
1398
1399
14
140
1400
1401
1402
1404
1405
1406
1407
1409
141
1410
1411
1413
1414
1415
1417
1418
1419
142
1420
1422
1424
1425
1427
143
1430
1431
1432
1433
1434
1435
1436
1437
1439
144
1440
1441
1443
1444
1445
1447
1448
145
1450
1452
1453
1453477
1455
1456
1457
1458
1459210
146
1460
1461
1464
1466106
1467
1468
1469
147
1470
1471
1474
1475
1476
1477
1478
1479
148
1480
1481
1482
1483
1485
1486
1488
149
1490
1491
1492
1493
1494
1495
1496
1497
1498
1499
15
150
1500
1501
1502
1503
1504
1505
1506
1507
1508
1509
151
1510
1511
1512
1513
1514
1515
1516
1517
1518
1519
152
1520
1521
1522
1523
1524
15241312
1525
1526
1527
1528
1529
153
1530
1531
1532
1533
1534
1535
1536
1537
1538
1539
154
1540
1541
1542
1543
1544
1545
1546
1547
1547776
1548
1549
155
1550
1551
1552
1553
1554
1555
1556
1557
1558
1559
156
1560
1561
1562
1563
1564
1565
1566
1567
1568
1569
157
1570
15706812
1571
1572
1573
1574
1575
1576
1577
1578
1579
158
1580
1581
1582
1583
1584
1585
1586
1587
1588
1589
159
1590
1591
1592
1593
1594
1595
1596
1597
1598
1599
16
160
1600
1601
1602
1603
1604
1605
1606
1607
1608
1609
161
1610
1611
1612
1613
1614
1615
1616
1617
1618
1619
162
1620
1621
1622
1623
1624
1625
1626
1627
1628
1629
163
1630
1631
1632
16323066
1633
1634
1635
1636
1637
1638
1639
164
1640
1641
1642
1643
1644
1645
1646
1647
1648
1649
165
1650
1651
1652
1653
1654
1655
1656
1657
1658
1659
166
1660
1661
1662
1663
1664
1665
1666
1667
1668
1669
167
1670
1671
1672
1673
1674
1675
1676
1677
1678
1679
168
1680
1681
1682
1683
1684
1685
1686
1687
1688
1689
169
1690
1691
1692
1693
1694
1695
1696
1697
1698
1699
17
170
1700
1701
170109
1702
1703
1704
1705
1706
1707
1708
1709
171
1710
1711
1712
1713
1714
1715
1716
1717
1718
1719
172
1720
1721
1722
1723
1724
1724971
1725
1726
1727
1728
1729
17299517
173
1730
1731
1732
1733
1734
1735
1736
1737
17378135
1738
1739
174
1740
1741
1742
1743
1744
1745
1746
1747
1748
1749
175
1750
1751
1752
1753
1754
1755
1756
1757
1758
1759
176
1760
1761
1762
1763
1764
1765
1766
1767
1768
1768199
1769
177
1770
1771
1772
1773
1774
1775
1776
1777
1778
1779
178
1780
1781
1782
1783
1784
1785
1786
1787
1788
1789
179
1790
1791
1792
1793
1794
1795
1796
1797
1798
1798125
1799
18
180
1800
1801
1802
1803
1804
1805
1806
1807
1808
1809
181
1810
1811
1812
1813
1814
1815
1816
1817
1818
1819
182
1820
1821
1822
1823
1824
1825
1826
1827
1828
1829
183
1830
1831
1832
1833
1834
1835
1836
1837
1838
1839
184
1840
1841
1842
1843
1844
1845
1846
1847
1848
1849
185
1850
1851
1852
1853
1854
1855
1856
1857
1858
1859
186
1860
1861
1862
1863
1864
1865
1866
1867
1868
1868372
1869
18696256
187
1870
1871
1872
1873
1874
1875
1876
1877
1878
1879
188
1880
1881
1882
1883
1884
1885
1886
1887
1888
1889
189
1890
1891
1892
1893
1894
1895
1896
1897
1898
1899
19
190
1900
1901
1902
1903
1904
1905
1906
1907
1908
1909
191
1910
1911
1912
1913
1914
1915
1916
1917
1918
1919
192
1920
1921
1922
1923
1924
1925
1926
1927
1928
1929
193
1930
1931
1932
1933
1934
1935
193563
1936
19368470
1937
1938
1939
194
1940
1941
1942
1943
1944
1945
1946
1947
1948
1949
195
1950
1951
1952
1953
1954
1955
1956
1957
1958
1959
196
1960
1960551
1961
1962
1963
1964
1965
1966
1967
1968
1969
197
1970
1971
1972
1973
1974
1975
1976
1977
1978
1979
198
1980
1981
1982
1983
1984
19847326
19847329
1985
1986
1987
1988
1989
199
1990
19908137
1991
1992
1993
19938912
1994
1995
1996
1997
1998
1999
1a
1b
1c
1d
1e
1f
1g
1h
1i
1j
1k
1l
1m
1n
1o
1p
1q
1r
1s
1t
1u
1v
1w
1x
1y
1z
2
20
200
2000
2001
2002
2003
2004
2005
2006
2007
2008
2009
201
2010
2011
2012
2013
2014
2015
2016
2017
2018
2019
202
2020
2021
2022
203
204
205
206
207
208
209
21
210
2100
211
212
213
214
21401824
21431157
215
216
217
217595
218
219
22
220
2200
221
222
223
224
225
226
22681075
227
228
229
23
230
2300
231
232
233
234
235
236
237
237227
238
239
24
240
2400
241
242
24255573
243
244
2449070
245
246
2464
247
248
249
24933120
2494649
25
250
2500
251
252
253
254
255
256
256507
257
258
25856
2586178
259
26
260
261
262
2624680
2629164
263
264
265
265049
266
2664168
267
268
269
27
270
271
272
273
27302
274
275
276
277
278
279
28
280
2807
281
2818964
282
283
284
285
286
287
288
2886420
289
29
290
291
292
293
294
295
296
297
298
29861311
299
2a
2b
2c
2d
2e
2f
2g
2h
2i
2j
2k
2l
2m
2n
2o
2p
2q
2r
2s
2t
2u
2v
2w
2x
2y
2z
3
30
300
3000
30059240
301
302
303
304
304037
305
306
307
308
309
31
310
3100478
311
312
313
314
315
316
317
318
319
31964
32
320
321
322
323
324
325
326
327
328
32859555
329
33
330
331
332
333
334
335
336
337
338
339
34
340
341
342
343
344
345
346
347
348
349
35
350
3500
351
352
353
354
355
356
3561957
357
358
359
36
360
361
362
3621644
363
364
365
36578
366
367
368
369
37
370
371
372
373
37312
374
375
376
377
378
379
379406
38
380
381
382
383
384
384602
385
386
387
388
389
39
390
391
392
393
394
395
3950665
396
397
398
399
3a
3b
3c
3d
3e
3f
3g
3h
3i
3j
3k
3l
3m
3n
3o
3p
3q
3r
3s
3t
3u
3v
3w
3x
3y
3z
4
40
400
4000
401
402
403
404
405
406
407
408
409
41
410
411
412
413
4135787
414
415
416
417
418
419
42
420
421
422
423
4239850
424
4249594
425
426
427
428
429
43
430
431
432
433
434
435
436
437
438
439
44
440
441
442
443
444
445
446
447
448
449
45
450
4500
451
452
453
454
455
456
457
458
459
46
460
461
462
463
464
464633
465
466
467
468
469
47
470
471
472
473
474
475
476
477
478
479
48
480
481
482
483
484
485
486
487
488
489
49
490
491
492
493
494
495
496
497
498
499
4a
4b
4c
4d
4e
4f
4g
4h
4i
4j
4k
4l
4m
4n
4o
4p
4q
4r
4s
4t
4u
4v
4w
4x
4y
4z
5
50
500
5000
501
502
503
504
504063
505
506
5061737
507
508
509
51
510
511
512
513
514
515
516
517
518
519
52
520
521
522
523
523716
524
525
526
527
528
529
53
530
531
532
533
534
535
536
537
5375741
538
539
54
540
541
542
543
544
545
546
547
547473
548
54837
549
55
550
551
552
553
554
555
556
558
559
56
560
561
56239490
563
564
565
566
56691875
567
568
569
57
570
571
572
573
574
575
576
577
578
579
58
580
581
582
583
584
585
586
587
588
589
59
590
591
592
593
595
596
597
598
599
5a
5b
5c
5d
5e
5f
5g
5h
5i
5j
5k
5l
5m
5n
5o
5p
5q
5r
5s
5t
5u
5v
5w
5x
5y
5z
6
60
600
6000
601
602
602358
603
6036
604
605
606
607
608
61
610
611
612
613
61356138
615
616
617
618
62
620
621
623
624
625
628
629
63
630
6302
63056
631
632
633
635
636
637
6374
637413
638
639
64
640
641
642
644
645
648
648625
649
65
650
652
6520738
653
654
656
659
66
660
664
665807
667
668
67
670
671
67129259
672
674
676
679
68
680
6828
683713
684
685
687
688
69
690
691
694
694826
696
699
6a
6b
6c
6d
6e
6f
6g
6h
6i
6j
6k
6l
6m
6n
6o
6p
6q
6r
6s
6t
6u
6v
6w
6x
6y
6z
7
70
700
7000
702
703
704
7090
71
710
711
712
713
714
715
717
718
719
719880
72
720
727
73
730
73268604
736
737
74
740
745
748
75
750
752
75653886
76
760
7603543
761
763
764739
765
768
77
772
773
774
77541206
78
780
79
792
797
7a
7b
7c
7d
7e
7f
7g
7h
7i
7j
7k
7l
7m
7n
7o
7p
7q
7r
7s
7t
7u
7v
7w
7x
7y
7z
8
80
800
8000
802
808
81
810
810196
814
82
820
821
826
829984
83
830
830106
84
840
843
8459
85
850
85177
85270
855
85700
858
86
860
863
864
866
87
870
87317
876
878
879
88
880
882
884446
887
888
89
890
894
895
896
8a
8b
8c
8d
8e
8f
8g
8h
8i
8j
8k
8l
8m
8n
8o
8p
8q
8r
8s
8t
8u
8v
8w
8x
8y
8z
9
90
900
9000
907
91
911
912
92
920
924
925
93
930
936
94
940
944
945
95
950
953
95382
955
95606922
96
960
96022943
961
962
963
965
966
968
97
970
976
977378
978
98
980
985
987
98769076
988
99
990
9955
997
9986
999
9a
9b
9c
9d
9e
9f
9g
9h
9i
9j
9k
9l
9m
9n
9o
9p
9q
9r
9s
9t
9u
9v
9w
9x
9y
9z
:
;
<
=
>
?
@
[
[CLS]
[MASK]
[PAD]
[SEP]
[UNK]
\
]
^
_
`
a
a0
a1
a2
a3
a4
a5
a6
a7
a8
a9
aa
ab
abablewo
abc
abies
about
abs
ac
academia
academic
academie
academy
accademiadellescienze
accessed
acer
acremonium
act
acta
action
ad
adam
adams
adele
administration
adolf
adsabs
adventure
ae
af
affairs
afghanistan
africa
african
aftanazy
after
ag
again
against
age
agency
ages
agriculture
ah
ai
air
airlines
airport
aj
ak
akademie
akademii
akl
al
alan
alba
albert
album
albums
ale
aleksander
aleksandr
alex
alexander
alfred
ali
alice
all
alla
alle
allen
allgemeine
alliance
allmovie
allmusic
allocine
alpha
als
also
alzheimer
am
amazon
america
american
amnesty
among
amphora
amsterdam
an
analysis
ancient
and
anderson
andersson
andre
andrea
andreas
andrew
android
andrzej
angeles
anglo
ann
anna
anne
anniversary
announces
annual
another
antarctic
anthony
anti
anton
antoni
antonio
ao
ap
apg
apple
application
april
aq
ar
arab
arbre
archaeological
archaeology
arche
archinform
architecture
archive
archives
archivio
archiwum
arctic
are
area
argentina
argentino
ark
armenia
armenian
armenians
arms
army
around
arp
array
ars
art
arte
arthur
article
articles
artist
artists
arts
as
ascobolus
asia
asian
asp
aspx
associated
association
asteraceae
asteroid
asteroids
astro
astronomical
astronomy
astrophysical
at
athletes
atlantic
atlas
attack
attacks
au
audi
auf
auflage
august
aus
ausgewahlten
australia
australian
austria
author
authorities
authority
authors
auto
av
aw
award
awards
ax
ay
az
azerbaijan
azərbaycan
b
b0
b1
b2
b3
b4
b5
b6
b7
b8
b9
ba
back
bad
bafta
baker
balance
ball
baltic
band
bank
bankı
bar
barbara
barcelona
barrow
base
based
basic
basingstoke
basketball
battle
bay
bb
bbc
bc
bd
be
beatles
beck
been
before
begin
bei
being
bel
belarus
belarusian
belisrael
bell
belsat
belta
ben
benezit
benjamin
benth
benz
berkeley
berlin
bernard
beru
best
beta
between
beweb
beyond
bf
bg
bh
bi
białorusi
białoruskie
białystok
bibcode
bible
bibliographisches
biblioteka
bibliotheque
big
bildid
bill
billboard
bin
bio
biografico
biograficzny
biographical
biographie
biographisches
biography
biology
bioshock
birds
birth
bis
bj
bk
bknajmpv
bl
black
blackwell
blog
blood
blue
blues
bm
bmw
bn
bnf
bo
board
body
boeing
boiss
book
books
border
boston
botanical
box
boy
bp
bq
br
bradysia
brasław
brian
brief
brill
britain
britannica
british
broadcasting
broadway
brockhaus
bros
brothers
brown
brozovic
bruce
bruno
bs
bsu
bt
bu
budapest
budzma
building
bulgaria
bull
bulletin
bureau
business
but
bv
bw
bx
by
byzantine
bz
c
c0
c1
c2
c3
c4
c5
c6
c7
c8
c9
ca
california
call
cambridge
campaign
campbell
can
canada
canadian
cancer
capetiens
capital
captain
car
card
career
carex
carl
carlo
carlos
carolingiens
carter
case
cases
cast
castle
cat
catalana
catalog
catalogue
catholic
cb
cbs
cc
cd
cdot
ce
cell
cenangium
census
center
central
centre
centuries
century
cesar
cetraria
cf
cfilm
cg
cgi
ch
challenge
champion
champions
championship
change
channel
chapter
charles
charlotte
chart
charts
chemical
chemistry
chess
chi
chicago
chief
children
china
chinese
choice
chris
christian
christopher
chronicle
church
ci
cia
cinema
circ
circle
cit
cite
cities
city
civil
civilization
cj
ck
cl
clark
class
classic
classical
classification
claude
climate
clio
club
cm
cn
cnn
co
coast
code
codex
cold
collection
college
collins
color
columbia
com
combat
come
command
commission
committee
common
commons
community
companion
company
comparative
complete
computer
comune
con
concerning
conference
conflict
congo
congress
conservation
constant
constitution
contemporary
content
contest
control
conway
cornell
coronavirus
corporation
cortinarius
cos
costa
council
countries
country
county
court
courtney
covid
cp
cq
cr
creative
crisis
critical
critics
cross
crown
cs
csfd
ct
ctg
cu
cuetracker
cultural
culture
cultures
cup
current
cv
cw
cx
cy
cz
czech
czesc
d
d0
d1
d2
d3
d4
d5
d6
d7
d8
d9
da
dacrymyces
daedalea
daily
dan
dance
daniel
dans
darin
dark
das
data
database
date
datos
david
davis
dawnych
day
days
db
dc
dd
de
dead
deadline
deal
death
december
deep
default
defense
degli
dei
del
dell
della
delle
delta
dem
democracy
den
denis
denkwurdigen
department
der
derby
des
description
design
det
detail
details
deutsche
deutschen
deutschland
development
df
dg
dh
di
dictionary
dictionnaire
did
die
dies
different
digital
din
diplodia
diptera
director
directory
discogs
discovery
disease
disney
displaystyle
disponibile
distribution
district
division
dizionario
dj
djvu
dk
dl
dla
dm
dn
dna
dnia
do
doc
docs
documents
doi
dom
domowina
don
donald
doom
dos
dot
dots
double
douglas
down
dp
dq
dr
dragon
dream
drive
druk
drupal
ds
dt
du
duke
duniłowicze
during
duty
dv
dvd
dw
dx
dy
dz
dzieje
dziejow
dzisienski
e
e0
e1
e2
e3
e4
e5
e6
e7
e8
e9
ea
early
earth
east
eastern
eb
eberhardt
ec
eclipse
eclipses
economic
economics
economy
ed
edge
edinburgh
edited
edition
editions
editor
eds
edu
education
edward
ee
eesti
ef
effect
effects
eg
egypt
eh
ei
ein
eine
einer
einstein
ej
ek
el
election
elections
electronic
elisabeth
elizabeth
em
empire
en
enciclopedia
enciklopedija
enciklopediju
encyclopaedia
encyclopedia
encyclopædia
encyklopedia
end
energy
engineering
england
english
entertainment
enthaltend
entry
entyloma
environment
enzyklopadie
eo
ep
episode
eq
er
era
erebia
eric
erik
ernest
ernst
es
esa
eso
esperanto
espn
essays
est
et
etc
ethiopia
ethiopian
ethnic
ethnologue
eu
eugene
eur
euro
europa
europaea
europe
european
eurovision
ev
eva
evans
event
events
ever
evidence
evolution
ew
ex
exclusive
expedition
experty
explore
express
extragalactic
ey
ez
f
f0
f1
f2
f3
f4
f5
f6
f7
f8
f9
fa
face
facebook
fact
factbook
facts
fair
fall
false
families
family
far
fauna
fb
fbref
fc
fd
fe
feb
february
federal
federation
felix
fembio
ferdinand
festival
ff
fg
fh
fi
fiat
fichefilm
fiction
field
fifa
fight
fighters
fighting
figures
file
files
film
filmaffinity
filmportal
films
final
financial
find
fine
finland
fire
first
fis
fischer
fisher
five
fj
fk
fl
flag
flight
flora
fly
fm
fn
fo
folklore
folkmangd
food
football
footballfacts
for
forbes
force
forces
ford
foreign
forest
forlag
formation
former
formowanie
forum
found
foundation
four
fourth
fox
fp
fq
fr
frac
francaise
france
francesco
francis
francisco
francois
frank
frankfurt
franz
frauendatenbank
fred
frederick
free
freebase
freedom
french
friedrich
from
front
fs
ft
fu
full
fullcredits
fur
futbol
future
fv
fw
fx
fy
fz
g
g0
g1
g2
g3
g4
g5
g6
g7
g8
g9
ga
gabriel
gaddafi
galaxies
galaxy
gallery
game
games
gamespot
gamma
garcia
garden
gardens
gary
gas
gay
gazeta
gazetteer
gb
gc
gd
ge
geboren
gelebt
gemeinden
gemeindeverzeichnis
gen
genealogics
genealogy
geneastar
genera
general
generation
genetic
genocide
genus
geograficzny
geographic
geonames
geonet
georg
george
georges
georgia
geos
gerard
german
germany
germplasm
geschichte
gesellschaft
get
gewirkt
gf
gfx
gg
gh
gi
giovanni
girl
gizycki
gj
gk
gks
gl
global
gm
gmbh
gmina
gn
gnu
go
god
gods
gold
golden
golf
gonzalez
good
google
gordon
gorkəmli
gov
government
gp
gq
gr
graham
grammar
gran
grand
grande
granicy
grant
grave
gray
great
greatest
greece
greek
green
greenwood
gregory
grin
group
groups
grove
grup
grupo
gruyter
grzebien
gs
gt
gu
guardian
guardians
guide
guignardia
gustav
gv
gw
gx
gy
gz
głowny
h
h0
h1
h2
h3
h4
h5
h6
h7
h8
h9
ha
haben
had
hair
half
hall
hand
handbook
hans
haqqında
hard
harper
harris
harrison
harry
harvard
has
haslo
hat
have
hb
hbar
hc
hd
he
head
health
heart
hedvig
heidelberg
heinrich
heliconius
hello
helminthosporium
henri
henry
her
herald
herbert
here
heritage
hermann
hero
heroes
hf
hg
hh
hi
higgins
high
hill
his
histoire
historia
historic
historical
historii
history
historyczne
hit
hitler
hits
hj
hk
hl
hm
hms
hn
ho
holland
hollywood
holocaust
holothuria
holy
home
homo
hook
hopkins
hot
hotel
houndmills
house
how
howard
hp
hq
hr
href
hrsg
hrvatska
hs
ht
htm
html
http
https
hu
hubble
hudson
hugh
human
hung
hungarian
hunt
hunter
huntford
hv
hw
hx
hy
hydroptila
hylesinus
hymenoptera
hz
i
i0
i1
i2
i3
i4
i5
i6
i7
i8
i9
ia
ian
iana
iau
ib
ibid
ibm
ibu
ic
icarus
ice
ich
id
identification
identity
ie
if
ig
ign
ih
ii
iii
ij
ik
il
illustrated
im
image
images
imdb
impact
imperial
in
inc
independence
independent
index
india
indian
indians
indo
indonesia
industry
infinite
info
information
infty
innych
inside
instagram
institut
institute
institution
instytut
int
intel
interactive
interfax
international
internationale
internet
internetowy
interview
into
introduction
io
ip
ipa
ipac
iphone
ipv
iq
ir
iran
iraq
iraqi
iras
ireland
irish
iron
is
isbn
isis
islam
islamic
island
islands
iso
israel
iss
issn
issue
ist
istat
it
italia
italian
italiana
italy
item
its
itunes
iu
iv
ivan
iw
ix
iy
iz
j
j0
j1
j2
j3
j4
j5
j6
j7
j8
j9
ja
jack
jackson
jacob
jacques
jaho
jak
james
jan
jana
jane
january
januszowo
japan
japanese
java
jazeera
jazz
jb
jc
jd
je
jean
jerusalem
jerzy
jewish
jezuitach
jf
jg
jh
ji
jim
jj
jk
jl
jm
jn
jo
joachim
joe
johan
johann
johannes
john
johnson
jon
jonathan
jones
jose
josef
joseph
journal
journey
jozef
jp
jpl
jq
jr
js
jt
ju
juan
julian
julius
july
june
jupiter
jurkowski
just
justice
jv
jw
jx
jy
jz
k
k0
k1
k2
k3
k4
k5
k6
k7
k8
k9
ka
kab
kaiserthums
kali
kamunikat
kara
karabakh
karl
katalog
kazimierz
kb
kc
kcpg
kd
ke
kelly
ken
kenneth
kevin
kew
key
kf
kg
kh
ki
kieslowski
kiev
kill
killed
kim
kindred
king
kingdom
kings
kit
kj
kk
kl
km
kn
knihi
know
knowledge
ko
koch
koln
kommun
kommuner
korea
korean
kp
kq
kr
krajow
krakow
krakowie
kresach
krolestwa
kronlandern
krzysztof
ks
ksiestwa
kt
ku
kug
kultur
kunst
kurier
kurt
kv
kw
kx
ky
kyrkoarkiv
kz
l
l0
l1
l2
l3
l4
l5
l6
l7
l8
l9
la
laboratory
lady
lake
lam
lambda
lan
land
lang
langle
language
languages
lars
las
last
lat
latach
late
later
latin
latvia
latvijas
law
lawrence
lb
lc
ld
ldots
le
leader
league
least
lebensskizzen
lee
left
legacy
legend
leiden
leipzig
leksikon
lenta
leo
leon
les
let
letters
lewis
lex
lexikon
lf
lg
lh
li
lib
libero
library
libris
libya
libyan
lietuviu
lietuvos
life
light
like
lim
limited
limits
lincoln
line
link
linnaeus
linux
list
lit
literature
litewski
litewskie
litewskiego
lithuania
lithuanian
little
litwy
live
livejournal
lives
living
lj
lk
ll
lm
ln
lo
local
log
london
long
look
lord
los
lost
louis
louise
love
low
lp
lq
lr
ls
lt
ltd
lu
lublin
lucilia
ludnosci
ludwig
luis
lunar
lundy
lutz
lv
lw
lwow
lx
ly
lz
m
m0
m1
m2
m3
m4
m5
m6
m7
m8
m9
ma
mac
machine
macmillan
mactutor
made
madonna
madrid
magazine
magic
magyar
mai
mail
main
major
mak
make
making
malczyce
mali
man
management
manuel
many
map
maps
mar
marc
march
marco
mare
margaret
maria
marie
marine
mario
maritime
mark
market
mars
marshall
martin
marvel
mary
mass
massacre
master
masters
mathbb
mathbf
mathcal
mathematics
mathrm
matter
matthew
max
maxim
may
mayor
mb
mc
mcg
mcgee
md
me
measures
med
media
medical
medicine
medien
medieval
meduza
mega
member
members
memorial
memory
men
mercedes
mercury
merkmalen
metacritic
metal
metro
metropolitan
mexico
mf
mg
mh
mi
michael
michał
michel
microsoft
middle
miejscowosci
mike
mil
milano
military
mill
miller
million
min
minister
ministere
ministry
minor
minsk
mission
mit
mj
mk
ml
mm
mn
mo
mobile
mode
model
modern
mojo
molecular
monde
monuments
moon
moore
more
moscow
most
mother
motion
motor
mount
movement
movie
movies
mp
mpc
mq
mr
ms
mt
mtv
mu
muller
mun
munchen
munst
munzinger
murphy
murray
musee
museum
music
muzeum
mv
mw
mx
my
mz
məlumat
n
n0
n1
n2
n3
n4
n5
n6
n7
n8
n9
na
nabla
nach
nacional
nad
nagorno
najnowsze
nam
name
named
names
narod
nas
nasa
nashaniva
nat
nation
national
nationale
nationalism
nations
native
nato
natural
nature
nauk
naukowe
naval
naviny
navy
nb
nba
nc
nd
ne
near
need
neil
nelson
nes
nestor
net
network
neue
never
new
news
newsru
next
nf
nfl
ng
ngc
nh
ni
nia
nicholas
nicolas
nie
night
nina
nintendo
nj
nk
nl
nlb
nm
nn
nndb
no
nobel
nobelprize
nobleprize
nom
nomenclature
nominations
non
norman
norske
north
northern
norway
nos
not
note
notes
nova
novel
november
novosti
now
np
npm
nq
nr
ns
nt
nu
nuclear
nukat
number
numbers
nv
nw
nx
ny
nyc
nytimes
nz
o
o0
o1
o2
o3
o4
o5
o6
o7
o8
o9
oa
ob
obr
observations
observatory
oc
och
ochrony
ocl
oclc
october
od
oder
oe
oesterreich
of
off
office
official
og
oh
oi
oil
oj
ok
oktmo
ol
old
olympedia
olympic
olympics
om
omega
on
one
onepage
online
onliner
only
ontology
oo
op
open
openstreetmap
opera
operation
operatorname
oq
or
orchis
order
org
organization
orientalis
origin
original
origins
os
oscar
ossolinskich
osterreichischen
ot
other
otto
ottoman
ou
oup
our
out
ov
over
overview
ow
ox
oxford
oy
oz
p
p0
p1
p2
p3
p4
p5
p6
p7
p8
p9
pa
pacific
page
pages
pakistan
pal
palace
pan
paolo
paper
papers
par
para
paris
park
parliament
part
partial
partie
partner
party
pas
past
patrick
paul
pawet
pb
pc
pd
pdf
pe
peace
pedro
peerage
penguin
people
peoples
per
period
person
personal
personen
peru
peter
pf
pg
pgc
ph
phi
philip
philippe
philosophy
photo
photos
php
phyllosticta
phys
physical
physics
pi
picea
picture
pictures
pierre
pietro
pinus
piotr
pj
pk
pl
place
plan
planet
planetary
planets
plant
plants
play
player
players
playstation
plik
plus
pm
pmid
pn
po
poa
pod
pogranicza
point
poland
police
policy
polish
political
politics
politisch
polsce
polska
polski
polskich
polskie
polskiego
polskiej
pop
pope
popular
population
populations
populus
por
pornhub
port
portal
portrait
portugal
poshta
post
pour
power
powiat
powiaty
poz
pozajscie
poznan
pp
pq
pr
prac
praha
pravo
pre
preisner
premier
premiere
present
president
press
pressball
prime
prince
princeton
print
prisa
prix
prize
pro
problem
proc
proceedings
product
production
produkte
prof
professional
professor
profile
program
programme
project
properties
protests
province
provincia
prunus
przeglad
przez
ps
psi
psl
pt
ptc
pu
pub
public
publications
published
publishers
publishing
punk
pv
pw
pwn
px
py
pz
q
q0
q1
q2
q3
q4
q5
q6
q7
q8
q9
qa
qadınlar
qb
qc
qd
qe
qf
qg
qh
qi
qj
qk
ql
qm
qn
qo
qp
qq
qquad
qr
qs
qt
qu
quad
quantum
quartal
que
queen
quercus
quest
qui
qv
qw
qx
qy
qz
r
r0
r1
r2
r3
r4
r5
r6
r7
r8
r9
ra
race
racing
rada
radio
radzima
rangle
ranking
rankings
rar
ray
rb
rc
rd
re
read
real
rebel
rebels
record
records
red
redakcija
ref
reference
region
regional
regions
register
regnum
regulation
reich
relations
release
releases
religion
religious
renaissance
report
reporter
reports
reprint
republic
res
research
resolution
resources
restrictive
result
results
retrieved
return
reuters
rev
review
reviews
revised
revolution
rex
rf
rg
rh
rho
ri
ribes
rich
richard
ricordi
right
rightarrow
rights
riket
rio
rise
river
rj
rk
rkd
rkdartists
rl
rm
rn
ro
road
robert
robertson
robinson
rock
rocznik
roger
rok
roku
role
rolling
rom
roma
roman
rome
ronald
rosa
rose
roth
rotten
routledge
royal
rp
rq
rr
rs
rt
ru
rudolf
rus
rusi
russell
russia
russian
rv
rw
rx
ry
ryan
ryanair
rz
rzeczypospolitej
s
s0
s1
s2
s3
s4
s5
s6
s7
s8
s9
sa
saint
salix
salon
sam
samuel
san
sanctions
sant
santa
sao
sarah
saros
saxon
say
says
sb
sba
sbb
sbc
sc
schmadel
schmidt
school
sci
science
sciences
scientific
score
scotland
scott
scottish
sd
se
sea
search
season
second
secret
section
sector
security
see
segreteria
seit
selbstandigen
selby
selected
seligman
senat
senatopracowania
seniunija
september
series
server
service
services
set
sets
settipani
seven
sex
sf
sg
sh
shakespeare
shanghai
ships
shock
shoot
short
show
shtml
si
sia
side
sie
sigma
silver
sim
simbad
simon
simulium
sin
since
sindaco
single
singles
sir
site
sites
situation
six
size
sj
sk
skoda
skorowidz
sky
skyscraperpage
sl
slounik
sm
small
smith
sn
snac
snooker
so
soc
soccerbase
soccerway
sochaczew
social
societe
society
software
solar
soldiers
some
son
song
songs
sons
sony
soul
sound
soundtrack
source
sources
south
southern
soviet
sp
space
spain
special
species
speculative
speech
sphagnum
sport
sports
spot
spring
springer
sputnik
sq
sqrt
sr
ss
st
staff
stan
standard
stanford
stanisław
stanley
star
stars
stat
state
statement
states
station
statistical
statistics
statistika
statistikportal
status
statystyczny
steam
stefan
stephen
steve
steven
still
sto
stockholm
stone
stop
store
storico
stories
story
str
street
strike
structure
stuart
studia
studies
studio
studios
study
stuttgart
style
su
subject
submarines
subsp
sudan
sullivan
sum
summary
summer
sun
super
support
sur
survey
sv
svaboda
svenska
svenskagravar
svenskt
sverige
sveriges
sw
sweden
swedish
swiatowej
swift
sx
sy
sydney
sygn
syn
syria
syrian
system
systems
sz
szpoper
szto
słowianskich
słownik
t
t0
t1
t2
t3
t4
t5
t6
t7
t8
t9
ta
table
tacitus
tadeusz
tak
take
takes
talks
target
tatort
tau
taxonomy
taylor
tb
tc
td
te
team
teams
technology
telegraph
television
ten
terra
terror
texas
text
tf
tg
th
than
that
the
theatre
their
theory
there
thesaurus
theta
they
things
third
this
thomas
thompson
thor
thought
three
through
ti
tigray
till
tilletia
tim
time
times
titan
title
tityus
tj
tk
tl
tm
tn
to
today
tom
tomatoes
top
topic
toronto
total
tour
tournament
tous
tower
town
toyota
tp
tq
tr
track
trade
tradition
traditional
trans
transfermarkt
translated
translation
travel
tree
tribe
tribuna
trifolium
tron
troops
true
trump
trust
ts
tt
tu
turkey
turkish
turner
tut
tv
tw
twitter
two
tx
ty
type
typus
tyromyces
tz
tzdb
u
u0
u1
u2
u3
u4
u5
u6
u7
u8
u9
ua
ub
uber
uc
ud
ue
uefa
uf
ug
ugc
uh
ui
uj
uk
ukraine
ukrainian
ul
ultimate
ultra
um
un
und
undefined
under
une
unesco
union
united
universal
universe
universitat
universite
university
uniwersytetu
unix
unspecified
uo
up
update
updated
uq
ur
urban
url
urocystis
urzad
us
usa
use
user
using
ut
utc
utricularia
uu
uv
uw
ux
uy
uz
v
v0
v1
v2
v3
v4
v5
v6
v7
v8
v9
va
vaccinium
valley
van
var
varepsilon
variety
varphi
vb
vc
vcc
vd
ve
vec
venezia
verbascum
verlag
veronica
version
very
vf
vg
vh
vi
via
vicia
victor
victoria
video
vie
vienna
vietnam
view
views
vii
viii
villa
village
villeneuve
vilniaus
vilnius
viola
violence
virtual
virus
visual
vita
vizier
vj
vk
vl
vladimir
vm
vn
vo
voice
vol
volkswagen
volume
vom
von
vp
vq
vr
vs
vt
vu
vulgaris
vv
vw
vx
vy
vyriausioji
vz
w
w0
w1
w2
w3
w4
w5
w6
w7
w8
w9
wa
wales
walker
wall
walt
walter
wam
war
warfare
warner
wars
warszawa
warszawie
was
washington
watch
water
watson
way
wb
wc
wd
we
weapons
web
webcitation
weber
website
week
weekly
welche
welle
welt
were
werner
west
western
wf
wg
wh
what
wheeler
when
where
which
white
who
why
wi
wide
wiedzy
wieku
wielkiego
wien
wies
wiki
wikidata
wikipedia
wild
wilejka
wilejski
wilenska
wilenski
wiley
wilhelm
will
willd
william
williams
wilno
wilson
win
windows
winners
wins
winter
wissen
with
without
wj
wk
wl
wm
wn
wo
wojewodztwo
wojnie
wola
wolf
wolff
wolfgang
wolumin
woman
women
wood
word
work
working
works
world
worldsnooker
worowo
woyniłłowicz
wp
wq
wr
wright
writer
wrocław
ws
wschodniej
wspomnienia
wt
wu
wurden
wurzbach
wv
ww
www
wx
wy
wyd
wydawnictwo
wykaz
wz
władysław
x
x0
x1
x2
x3
x4
x5
x6
x7
x8
x9
xa
xb
xbox
xc
xd
xe
xf
xg
xh
xi
xii
xiii
xiv
xix
xj
xk
xl
xlsx
xm
xn
xo
xp
xq
xr
xs
xt
xu
xv
xvi
xvii
xviii
xw
xx
xxi
xxii
xxiii
xxiv
xxv
xxvi
xxx
xy
xz
y
y0
y1
y2
y3
y4
y5
y6
y7
y8
y9
ya
yahoo
yale
yb
yc
yd
ye
year
years
yf
yg
yh
yi
yj
yk
yl
ym
yn
yo
york
you
young
your
youtube
yp
yq
yr
ys
yt
yu
yv
yw
yx
yy
yz
z
z0
z1
z2
z3
z4
z5
z6
z7
z8
z9
za
zb
zbigniew
zc
zd
zdziechowski
ze
zealand
zeit
zeitschrift
zeitung
zf
zg
zh
zi
ziemia
ziemiach
zj
zk
zl
zm
zn
zo
zone
zones
zp
zq
zr
zs
zt
zu
zum
zur
zv
zviazda
zw
zwg
zx
zy
zz
{
|
}
~
¡
£
¦
§
©
«
®
¯
°
±
²
³
´
·
º
»
¼
½
¾
×
ß
æ
ð
ø
þ
đ
ħ
ı
ł
ŋ
œ
ɐ
ɑ
ɒ
ɔ
ɕ
ə
ɛ
ɡ
ɣ
ɨ
ɪ
ɲ
ɹ
ɾ
ʁ
ʃ
ʊ
ʋ
ʌ
ʒ
ʰ
ʲ
ʷ
ʹ
ʻ
ʼ
ʿ
ˈ
ˌ
ː
˙
ˠ
΄
α
β
γ
δ
ε
ζ
η
θ
ι
κ
λ
μ
ν
ξ
ο
π
ρ
ς
σ
τ
υ
φ
χ
ψ
ω
ϕ
ϵ
а
аа
ааліты
аан
аат
ааэ
аб
аба
абавязак
абавязаны
абавязацельствау
абавязкам
абавязкау
абавязкова
абавязковаи
абавязковым
абавязку
абавязкі
абаев
абазначае
абазначаецца
абазначаюць
абазначэнне
абазначэння
абазначэннямі
абазначэнні
абаленскі
абалонка
абалонкі
абапал
абапіраецца
абапірауся
абапіраючыся
абараняе
абаранялі
абараняу
абараняць
абараніла
абараніу
абараніць
абарачэнне
абарачэння
абарона
абаронаи
абароне
абаронены
абарону
абаронца
абаронцам
абаронцау
абаронцы
абарончаи
абарончы
абарончых
абарончыя
абароны
абарот
абарыгенау
абацтва
абацтве
абвешчана
абвешчаная
абвешчаны
абвясціла
абвясцілі
абвясціу
абвясціць
абвяшчае
абвяшчалася
абвяшчау
абвяшчауся
абвяшчэнне
абвяшчэння
абвінавацілі
абвінаваціу
абвінавачаны
абвінавачвалі
абвінавачванне
абвінавачванняу
абвінавачванні
абгрунтаванне
абгрунтавау
абд
абдул
абдэль
абед
абедзве
абедзвюх
абеду
абеліск
абкама
аблажыу
абламскі
абласная
абласнога
абласнои
абласны
абласным
абласных
абласцеи
абласцямі
абласцях
аблвыканкама
аблога
аблогу
аблогі
аблозе
аблокау
аблокі
абломкі
аблямоукаи
аблічча
абліччы
абмежавана
абмежаванаи
абмежаваная
абмежаванне
абмежавання
абмежаванняу
абмежаванні
абмежаваны
абмежаваным
абмежаваныя
абмен
абмену
абмеркаванне
абмеркавання
абмываецца
абмяжоувае
абмяжоуваецца
абнауленне
абнесены
або
абодва
абодвух
абое
абоз
абрад
абрадау
абрадзе
абраду
абрады
абраз
абраза
абразоу
абразы
абрала
абралі
абрам
абрамавіч
абрамовіч
абрана
абраная
абранне
абрання
абраны
абраным
абраных
абраныя
абрау
абраць
абрысы
абсалютна
абсалютнаи
абсалютная
абсалютны
абсе
абсерваторыя
абсерваторыі
абслугоувае
абслугоуванне
абслугоування
абставін
абставінах
абставіны
абсталявана
абсталяванне
абсталяваннем
абсталявання
абсталяваны
абстрэл
абстрэлу
абу
абумовіла
абумоулена
абумоулены
абурэнне
абутак
абутку
абхазіі
абшар
абшары
абшчын
абшчына
абшчыны
абы
абяцае
абяцанне
абяцау
абірае
абіраецца
абірауся
абіраюцца
авалодалі
авалодау
авалодаць
авальнаи
авальныя
авангард
аварыі
августа
авен
авес
авечак
авечкі
авт
автор
автореферат
авіякампанія
авіякампаніі
авіяцыинага
авіяцыинаи
авіяцыиная
авіяцыины
авіяцыиных
авіяцыя
авіяцыяи
авіяцыі
аг
ага
агароджа
агароджаи
агароджы
агароднікі
агата
агая
агент
агента
агентам
агентау
агентство
агенты
агенцтва
агламерацыі
агляд
аглядальнік
аглядау
аглядзе
агляду
агнем
агню
агнястрэльнаи
агні
агонь
аграгарадка
аграгарадку
аграгарадок
аграном
аграрна
аграрнаи
аграрная
аграрны
аграрных
агрэсіі
агул
агулам
агульна
агульнага
агульнае
агульнаи
агульная
агульную
агульны
агульным
агульнымі
агульных
агульныя
агінскага
агінскі
агінскіх
агітацыю
агітацыі
ад
ада
адабрала
адам
адама
адамавіч
адамам
адамовіч
адамовіча
адаптацыі
адбор
адборачным
адбору
адбудаваны
адбудзецца
адбываецца
адбывалася
адбываліся
адбывау
адбывауся
адбывацца
адбываюцца
адбылася
адбылося
адбыліся
адбыуся
адбыцца
адбіваецца
адбілася
адбілі
адбітак
адбіу
адбіць
адв
адвагу
адважны
адважыуся
адвакат
адваката
адвакатам
адвакатау
адваротны
адваротным
адвярнууся
адгор
адгэтуль
аддавалі
аддавау
аддаваць
аддадзена
аддадзены
аддае
аддала
аддаленых
аддалі
аддам
аддау
аддаць
аддаюць
аддаючы
аддзел
аддзела
аддзелам
аддзелау
аддзеле
аддзелены
аддзелу
аддзелы
аддзяленне
аддзяленнем
аддзялення
аддзяленняу
аддзяленні
аддзяляе
адз
адзежы
адзенне
адзення
адзенні
адзнака
адзнакаи
адзнаку
адзнакі
адзначае
адзначаецца
адзначалася
адзначалі
адзначана
адзначаны
адзначау
адзначаюцца
адзначаюць
адзначыла
адзначылі
адзначыу
адзначыуся
адзначыць
адзін
адзінага
адзінае
адзінаи
адзінак
адзінаццаць
адзіная
адзінка
адзінкавыя
адзінкаи
адзінкамі
адзінку
адзінкі
адзіноце
адзіночным
адзіночныя
адзінства
адзіную
адзіны
адзіным
адзінымі
адзіныя
адк
адказ
адказала
адказалі
адказам
адказау
адказаць
адказвае
адказвау
адказваць
адказваюць
адказнасць
адказнасці
адказны
адказным
адказных
адказныя
адказу
адказы
адкладамі
адкладау
адкладах
адклады
адкрывае
адкрываецца
адкрываюцца
адкрыла
адкрылася
адкрылі
адкрыта
адкрытага
адкрытае
адкрытаи
адкрытая
адкрытую
адкрыты
адкрытым
адкрытымі
адкрытых
адкрытыя
адкрыу
адкрыуся
адкрыцце
адкрыццем
адкрыцця
адкрыццяу
адкрыцці
адкрыць
адкуль
адлегласць
адлегласці
адлюстравана
адлюстраванне
адлюстравання
адлюстраваны
адлюстравау
адлюстроувае
адлюстроуваецца
адлюстроувау
адлюстроуваць
адлюстроуваюць
адлік
адліку
адмауленне
адмауляе
адмауляецца
адмауляліся
адмауляу
адмауляуся
адмена
адменена
адменены
адмены
адметнаи
адметная
адметны
адметныя
административно
адмова
адмову
адмовы
адмовілася
адмовіліся
адмовіу
адмовіуся
адмовіцца
адмоуна
адмоуны
адмоуныя
адмыслова
адмысловага
адмысловаи
адмысловая
адмысловы
адмысловым
адмысловых
адмысловыя
адмяніу
адмяніць
адміністратар
адміністратарам
адміністрацыина
адміністрацыинага
адміністрацыинае
адміністрацыинаи
адміністрацыинаму
адміністрацыиная
адміністрацыиную
адміністрацыины
адміністрацыиным
адміністрацыиных
адміністрацыиныя
адміністрацыю
адміністрацыя
адміністрацыяи
адміністрацыі
адмірал
адмірала
адміралцеиства
адна
аднавіла
аднавілася
аднавілі
аднавіліся
аднавіу
аднавіць
аднагадовая
аднагадовыя
аднагалосна
аднаго
аднадольных
аднадольныя
аднае
адназначна
аднаименнага
аднаименнаи
аднаименная
аднаименны
аднаименным
аднак
аднаму
аднапавярховы
аднаполыя
аднауленне
аднауленнем
аднаулення
аднауленні
адначасна
адначасова
аднесены
аднесці
адно
аднои
адноичы
аднолькава
аднолькаваи
аднолькавы
аднолькавых
аднолькавыя
адносна
адноснаи
адноснасці
адносная
адносяцца
адносяць
адносілася
адносіліся
адносін
адносінамі
адносінау
адносінах
адносіны
адносіуся
адносіцца
адносіць
адноулена
адноуленага
адноуленая
адноулены
адну
адны
адным
аднымі
адных
аднэи
аднясення
адольф
адольфа
адпаведна
адпаведнага
адпаведнае
адпаведнаи
адпаведнасць
адпаведнасці
адпаведную
адпаведны
адпаведным
адпаведнымі
адпаведных
адпаведныя
адпавядае
адпавядала
адпавядалі
адпавядау
адпавядаць
адпавядаюць
адпачынак
адпачынку
адпачыць
адпомсціць
адпор
адправілася
адправілі
адправіліся
адправіу
адправіуся
адправіцца
адправіць
адпраулена
адпраулены
адпрауляецца
адпрауляюцца
адпу
адраджэнне
адраджэння
адраджэньне
адраджэньня
адразу
адрас
адрасе
адрасоу
адрасу
адрасы
адрозненне
адрознення
адрозненняу
адрозненні
адрознівае
адрозніваецца
адрознівалася
адрозніваліся
адрознівауся
адрознівацца
адрозніваць
адрозніваюцца
адрозніваюць
адрозніць
адрокся
адрыу
адрыян
адрыяна
адрыятычнага
адрэзак
адставанне
адстауку
адстаукі
адстауцы
адступаць
адступленне
адступлення
адступілі
адступіу
адступіць
адсутнасць
адсутнасцю
адсутнасці
адсутнічае
адсутнічаюць
адсюль
адтуль
адтуліны
адукацыинаи
адукацыины
адукацыиных
адукацыиныя
адукацыю
адукацыя
адукацыяи
адукацыі
адхіленне
адхілення
адхіленні
адхілены
адхіліу
адценне
адценнем
адценняу
адчувае
адчуваецца
адчувала
адчувалі
адчуванне
адчувау
адчуваць
адчуваюць
адчуу
адчынена
адчынены
адчыніу
адшукаць
адыграла
адыгралі
адыграу
адыгрывае
адыгрывала
адыгрывалі
адыгрываюць
адыджэ
адысея
адысці
адыход
адыходзяць
адыходзіць
адыходу
адышла
адышлі
адышоу
адэса
адэсе
адэскаи
адэская
адэсы
аж
ажаніуся
ажаніцца
ажно
ажыццеулена
ажыццеулены
ажыццявіу
ажыццявіць
ажыццяуленне
ажыццяулення
ажыццяуленні
ажыццяуляе
ажыццяуляецца
ажыццяулялася
ажыццяулялі
ажыццяуляу
ажыццяуляць
ажыццяуляюцца
ажыццяуляюць
аз
азбука
аздабленне
аздаблення
аздоблены
азер
азерамі
азерау
азерах
азерб
азербаиджан
азербаиджана
азербаиджане
азербаиджанскага
азербаиджанскаи
азербаиджанская
азербаиджанскі
азерны
азеры
азии
азначае
азначала
азначаць
азначаюць
азначэнне
азначэння
азначэнні
азот
азоту
азірнууся
азію
азія
азіяцкаи
азіяцкіх
азіі
аи
аиртон
аирэс
аица
аицец
аицоу
аичынаи
аичыннаи
аичынная
аичынную
аичынных
аичыны
ак
ака
акад
академии
академия
акадэміи
акадэмік
акадэміка
акадэмікам
акадэмічнага
акадэмічнаи
акадэмічны
акадэмічным
акадэмічных
акадэмію
акадэмія
акадэміяи
акадэміі
аказала
аказалася
аказалі
аказаліся
аказання
аказау
аказауся
аказаць
аказвае
аказваецца
аказвала
аказвалі
аказвау
аказваць
аказваюць
акалічнасць
акалічнасці
акафісты
акварэлі
аквітаніі
акмолінскаи
акна
акно
акном
акон
аконнымі
аконных
аконныя
акрамя
акруг
акруга
акругаи
акругах
акруговага
акруговаи
акруговы
акругу
акругі
акружана
акружаны
акружнасці
акружэння
акрузе
аксана
аксм
акт
акта
актам
актау
актах
актму
актрыса
актрысаи
актрысы
акту
актуальныя
акты
актывіст
актывістау
актывісты
актыуна
актыунага
актыунае
актыунаи
актыунасць
актыунасці
актыуная
актыуную
актыуны
актыуным
актыуных
актыуныя
акуляры
акунь
акупавана
акупаванаи
акупаваная
акупаваны
акупаваных
акупантамі
акупантау
акупанты
акупацыинаи
акупацыиных
акупацыиныя
акупацыя
акупацыяи
акупацыі
акупіравана
акупіраванаи
акупіраваны
акурат
акуратна
акушэрскі
акце
акцер
акцера
акцерам
акцерау
акцеры
акции
акцыи
акцыю
акцыя
акцыянернага
акцыянернае
акцыях
акцыі
акцэнт
акцябрскага
акцябрскі
акцябрскім
акі
акіян
акіяна
акіянам
акіянау
акіяне
акіяніі
ал
ала
алаев
алампиев
алан
алб
албанскаи
албанія
албаніі
албо
алгарытм
алгебра
алгебры
але
алег
алега
алеем
алеи
алекс
алекса
александр
александра
александрович
александровіч
александрыискага
александрыя
александрыі
алексеев
алексеевич
алексеи
алексіевіч
ален
алена
аленаи
алены
алень
аленя
аленяу
алепа
алесандра
алесандрыя
алесь
алеся
алею
алея
алеі
алжыр
алжыра
алжыры
алиев
алкаголю
алма
алматы
алонса
алтаи
алтар
алтара
алтарнаи
алтаром
алтароу
алтары
алфавіт
алфавіта
алфавіту
аль
альба
альбеда
альберт
альберта
альбо
альбом
альбома
альбомам
альбомау
альбоме
альбому
альбомы
альбрэхт
альбрэхта
альгерд
альгерда
альжбета
альма
альманах
альпау
альпах
альпы
альта
альтэрнатыунаи
альтэрнатыуны
альфа
альфонс
альфонса
альфрэд
альфрэда
альянс
альянсу
алякса
аляксандар
аляксандр
аляксандра
аляксандравіч
аляксандравіча
аляксандрам
аляксандрауна
аляксандру
аляксандры
аляксеевіч
аляксееу
аляксееуна
аляксеи
аляксея
аляска
аляскі
аляхновіч
алі
алімпіискага
алімпіискаи
алімпіиская
алімпіискі
алімпіискім
алімпіискіх
алімпіискія
алімпіядзе
алімпіяды
аліса
алістэр
аліуе
ам
амаль
аман
амар
аматар
аматарам
аматарау
аматары
амбулаторыя
амерыка
амерыкана
амерыканскага
амерыканскае
амерыканскаи
амерыканская
амерыканскую
амерыканскі
амерыканскім
амерыканскімі
амерыканскіх
амерыканскія
амерыканцау
амерыканцы
амерыку
амерыкі
амерыцы
амністыі
амстэрдам
амстэрдаме
амундсен
амундсена
амур
ан
ана
аналаг
аналагічна
аналагічная
аналагічны
аналагічных
аналагічныя
анализ
аналогіі
аналы
аналіз
аналізе
аналізу
аналітычнаи
анастасія
анат
анатолевіч
анатолии
анатоль
анатольевіч
анатоля
анатоміі
анг
ангел
ангела
англ
англа
англіискага
англіискае
англіискаи
англіиская
англіиску
англіискую
англіискі
англіискім
англіискіх
англіискія
англічан
англічанамі
англічане
англічанін
англію
англія
англіяи
англіі
анголы
анджэи
анджэлес
анджэлеса
анджэлесе
андрамеда
андреевич
андреи
андрэ
андрэа
андрэева
андрэевіч
андрэем
андрэеуна
андрэи
андрэю
андрэя
андэрсан
анексіяи
анел
анела
анелау
ани
аникин
анлаин
анна
анненков
анры
ансамбль
ансамбля
ансамблі
ант
анталогія
антанты
антаніна
антарктыды
антарыа
античности
анто
антон
антона
антонавіч
антонам
антонау
антоні
антоніа
антоніи
антонія
антось
антрапалогіі
антуан
антыех
антыеха
антысавецкаи
антычнага
антычнаи
антычнасці
антычных
антычныя
ані
анімацыины
анімэ
анішчанка
ап
апавядае
апавяданне
апавядання
апавяданняу
апавяданнях
апавяданні
ападкау
ападкі
апазіцыиных
апазіцыю
апазіцыя
апазіцыяи
апазіцыі
апаладор
апалон
апалона
апалчэнне
апалчэння
апанасавіч
апанент
апарат
апарата
апаратам
апаратау
апарату
апаратуры
апараты
апараце
апекаи
апеку
апекуном
апекі
аператар
аператара
аператарау
аператыуна
аператыунага
аператыунаи
аперацыи
аперацыинаи
аперацыиных
аперацыю
аперацыя
аперацыяи
аперацыях
аперацыі
аплаты
аповесцеи
аповесць
аповесці
апольскага
апораи
апорнага
апорных
апоры
апостал
апостала
апосталау
апосталы
апостальскаи
апостальскі
апошнюю
апошняга
апошняе
апошняи
апошняя
апошні
апошнім
апошнімі
апошніх
апошнія
апрануты
апрацаваны
апрацоувалі
апрацоука
апрацоуку
апрацоукі
апрацоуцы
апрача
апреля
апроч
апсіда
апсідаи
апсіды
аптычнаи
аптычных
аптэка
апублікавала
апублікавалі
апублікавана
апублікаванага
апублікаваная
апублікаваны
апублікаваных
апублікаваныя
апублікавау
апулія
апускаецца
апушаныя
апынулася
апынуліся
апынууся
апынуушыся
апынуцца
апытання
апярэнне
апісана
апісанаи
апісанне
апісаннем
апісання
апісанні
апісаны
апісау
апісаць
апісвае
апісваецца
апісванаи
апісвау
апісваюцца
апісваюць
ар
ара
араб
араба
арабамі
арабау
арабскага
арабскаи
арабская
арабскі
арабскім
арабскіх
арабскія
арабы
аравія
аравіі
арагона
арачным
арачнымі
арачныя
арашэння
арбіта
арбіту
арбіты
арбіце
арган
арганізавала
арганізавалі
арганізавана
арганізаванага
арганізаванаи
арганізаваная
арганізаваны
арганізавау
арганізаваць
арганізатар
арганізатарам
арганізатарау
арганізатары
арганізацыи
арганізацыина
арганізацыинага
арганізацыю
арганізацыя
арганізацыяи
арганізацыямі
арганізацыяу
арганізацыях
арганізацыі
арганізм
арганізма
арганізмау
арганізме
арганізмы
арганізоувау
арганізуе
арганічна
арганічнага
арганічнаи
арганічных
арганічныя
аргенціна
аргенціне
аргенцінскі
аргенціны
аргументы
арда
арджанікідзэ
арды
аренду
арк
арка
аркадзь
аркадзя
аркамі
аркестр
аркестра
аркестрам
аркестры
арктыкі
аркуш
аркуша
аркушы
аркі
арла
арлова
арлоу
арлоускаи
арлоускі
арлы
арм
армеискага
армеискі
армении
армения
арменію
арменія
арменіі
армии
армия
армян
армяна
армяне
армянскага
армянскае
армянскаи
армянская
армянскі
армянскім
армянскіх
армянскія
арміи
армію
армія
арміяи
арміі
арнамент
арнаментам
арнольд
арол
арсенал
арсенала
арт
артем
артуа
артур
артура
артыкул
артыкула
артыкулам
артыкуламі
артыкулау
артыкулах
артыкуле
артыкулу
артыкулы
артылерыискага
артылерыискаи
артылерыиская
артылерыискі
артылерыискіх
артылерыискія
артылерыя
артылерыяи
артылерыі
артыст
артыста
артыстау
артыстка
артысты
арфаграфіі
арх
архангел
архангела
архангельскаи
арханела
археалагічнага
археалагічнаи
археалагічная
археалагічны
археалагічным
археалагічных
археалагічныя
археалогія
археалогіі
археолаг
археолагамі
археолагау
археолагі
археологии
археология
архив
архивировано
архивное
архитекторов
архитекторы
архитектура
архитектуры
архібіскуп
архібіскупа
архібіскупам
архіва
архівавана
архівау
архівах
архіве
архівы
архідыяцэзія
архідыяцэзіі
архіепіскап
архіепіскапа
архімандрыт
архімандрыта
архіпелаг
архіпелага
архіпелагу
архітэктар
архітэктара
архітэктарам
архітэктарамі
архітэктарау
архітэктары
архітэктура
архітэктурна
архітэктурнага
архітэктурнае
архітэктурнаи
архітэктурная
архітэктурны
архітэктурным
архітэктурных
архітэктурныя
архітэктуру
архітэктуры
архіу
архіуная
архіуных
архіуныя
арцем
арцыбіскуп
аршанскага
аршанскаи
аршанская
аршанскі
аршанскім
аршын
аршыца
арыгінал
арыгінала
арыгінале
арыгінальнага
арыгінальнаи
арыгінальная
арыгінальны
арыгінальным
арыгінальных
арыгінальныя
арыентавана
арыентаванаи
арыентаваны
арыентацыя
арыентацыі
арыстакратыі
арыстоцель
арыстоцеля
арышт
арыштавалі
арыштавана
арыштаваны
арыштаваных
арыштаваныя
арыштаваць
арыштам
арышту
арышты
арэал
арэала
арэна
арэнаи
арэндзе
арэнду
арэнды
арэне
арэны
арэх
арэхі
ас
аса
асабліва
асаблівага
асаблівае
асабліваи
асаблівасцеи
асаблівасць
асаблівасцю
асаблівасцямі
асаблівасцяу
асаблівасці
асаблівая
асаблівую
асаблівы
асаблівым
асаблівых
асаблівыя
асабняк
асабовага
асабіста
асабістага
асабістае
асабістаи
асабістая
асабістую
асабісты
асабістым
асабістых
асабістыя
асада
асака
асамблея
асамблеі
асацыяцыи
асацыяцыю
асацыяцыя
асацыяцыяи
асацыяцыі
асваення
асвета
асветнік
асветнікі
асветніцкаи
асветніцтва
асветы
асвечаны
асвятленне
асвятлення
асвяціу
асвячоны
асвячэнне
асеціі
асманскага
асманскаи
асманская
аснавання
аснова
асноваи
асновах
аснове
аснову
асновы
асноу
асноунага
асноунае
асноунаи
асноуная
асноуную
асноуны
асноуным
асноунымі
асноуных
асноуныя
асоб
асоба
асобаи
асобам
асобамі
асобау
асобах
асобе
асобна
асобнага
асобнае
асобнаи
асобная
асобную
асобны
асобным
асобнымі
асобных
асобныя
асобнікау
асобу
асобы
асобін
асобіны
аспект
аспекты
аспірантура
аспірантуру
аспірантуры
асср
аст
асталося
асталіся
астанкі
астаповіч
астатняе
астатняи
астатняя
астатні
астатнім
астатнімі
астатніх
астатнія
астауся
астравамі
астравах
астравецкага
астравецкім
астравоу
астравы
астравыя
астранамічнага
астранамічных
астранаут
астраном
астраномам
астраномія
астраноміі
астрель
астрог
астроускага
астроускі
астэроід
астэроіда
астэроідау
асуджаны
асуджаных
асуджаныя
асуджэннем
асудзілі
асудзіу
асцерагаючыся
асцярожна
асьветы
асяроддзе
асяроддзем
асяроддзя
асяроддзяу
асяроддзі
асяродку
асіміляцыі
асінаука
асіповіцкага
асіповіцкім
асіповічы
асістэнт
асістэнта
асістэнтам
ат
ата
атака
атакавалі
атакавау
атакаваць
атаку
атакі
атама
атаман
атамана
атамау
атамнаи
атамная
атамны
атамных
атамы
атачаюць
атлантычнага
атлантычны
атлантычным
атлас
атласа
атлетике
атлетыка
атлетыцы
атмасфера
атмасферу
атмасферы
атол
атон
атона
атрад
атрада
атрадам
атрадамі
атрадау
атрадзе
атраду
атрады
атрымае
атрымала
атрымалася
атрымалі
атрымана
атрыманне
атрымання
атрыманні
атрыманы
атрыманых
атрыманыя
атрымау
атрымауся
атрымаушы
атрымаць
атрымлівае
атрымліваецца
атрымлівала
атрымлівалі
атрымлівау
атрымліваць
атрымліваюць
атыраускаи
аугуст
аугуста
аугустам
аугусцін
аудые
аудыторыі
аул
аула
ауле
аурэліи
ауса
аустра
аустраліискага
аустраліискі
аустралію
аустралія
аустраліі
аустрыискага
аустрыискаи
аустрыиская
аустрыискі
аустрыискім
аустрыискіх
аустрыискія
аустрыю
аустрыя
аустрыяи
аустрыі
аут
аутабіяграфія
аутабіяграфіі
аутадарог
аутадарога
аутадарогі
аутадарозе
аутакефальнаи
аутамабіль
аутамабільнага
аутамабільнаи
аутамабільная
аутамабільны
аутамабільным
аутамабільных
аутамабільныя
аутамабіля
аутамабіляу
аутамабілі
аутаматызацыі
аутаматычна
аутаматычнага
аутаматычнаи
аутаматычная
аутаномнага
аутаномнаи
аутаномная
аутаномны
аутаномных
аутаномію
аутаномія
аутаноміі
аутапартрэт
аутар
аутара
аутарам
аутарамі
аутарау
аутарскага
аутарскім
аутарскіх
аутарскія
аутарства
аутару
аутары
аутарытэт
аутарытэтнага
аутобус
аутобуса
аутобусау
аутобусы
ауторак
аф
афанасьеу
афанасіи
афарбаваныя
афарбоука
афарбоукаи
афарбоуку
афарбоукі
афармленне
афармлення
афармленні
афганскаи
афганістан
афганістана
афганістане
афонсу
аформлены
аформіу
африка
афрыка
афрыканскага
афрыканскаи
афрыканскі
афрыканскіх
афрыку
афрыкі
афрыцы
афін
афінах
афіны
афіцыина
афіцыинага
афіцыинае
афіцыинаи
афіцыиная
афіцыиную
афіцыины
афіцыиным
афіцыинымі
афіцыиных
афіцыиныя
афіцэр
афіцэра
афіцэрам
афіцэрамі
афіцэрау
афіцэры
ах
ахапіла
ахапіу
ахвотна
ахвяр
ахвяра
ахвяраванні
ахвяравау
ахвяраи
ахвярам
ахвярамі
ахвярау
ахвяру
ахвяры
ахмед
ахова
аховаи
ахове
ахову
аховы
ахоплівае
ахоплівала
ахопліваюць
ахоуваецца
ахоунаи
ахоуны
ахоуных
ахоуныя
ахрышчаны
ахрэм
ацаніу
ацаніць
аце
ацэнак
ацэнка
ацэнках
ацэнку
ацэнкі
ацэнцы
ацэньваецца
ачко
ачкоу
ачкі
ачысткі
аш
ашаляваныя
ашмянскага
ашмянскі
ашмянскім
ашмяны
аэрадром
аэрадрома
аэрапорт
аэрапорта
аэрапорце
аэс
ая
б
ба
баас
баб
баба
бабка
бабовыя
бабруиск
бабруиска
бабруискага
бабруискаи
бабруиску
бабруискі
бабруискім
бабры
бабуля
бабулі
бабы
бабінец
баварскага
баварскаи
баварская
баварскі
баварыя
баварыі
багам
багамольнікава
багародзіцкая
багародзіцы
багаслова
багаслоу
багаслоуя
багата
багатага
багатае
багатаи
багатая
багатую
багаты
багатым
багатымі
багатых
багатыя
багацце
багаццем
багацця
багацці
багдад
багдадзе
багдан
багдана
багдановіч
багдановіча
багеміі
багоу
багуслау
багушэвіч
багушэвіча
багі
багіня
багіні
бад
бадаи
бадуэн
бадэн
баевікамі
баевікоу
баевікі
баеу
баз
база
базаваи
базавая
базавых
базаи
базар
базе
базу
базуецца
базы
базіліка
базілікі
баи
баикал
баикі
баицоу
баицы
бакавои
бакавы
бакавымі
бакавых
бакавыя
бакалаура
бакамі
баках
бакоу
баксер
бактэрыи
бактэрыі
баку
бакі
бал
бала
балада
балады
баланс
балансу
балау
балаховіча
балг
балгарау
балгарскага
балгарскаи
балгарская
балгарскі
балгарскіх
балгарскія
балгары
балгарыю
балгарыя
балгарыі
балет
балета
балетмаистар
балканах
балканскага
балканскіх
балкон
балот
балота
балотамі
балотах
балотная
балотны
балотных
балотныя
балоты
балоце
балтыискага
балтыискі
балтыискім
балтыі
балы
баль
бальніца
бальніцу
бальніцы
бальшавік
бальшавікамі
бальшавікоу
бальшавікі
бальшавіцкага
бальшавіцкаи
балюча
баляслава
баляслау
балі
балівіі
баліць
бамбардзірам
бамбардзіроукі
бан
банапарт
бангладэш
банда
бандарчык
бандарэнка
банды
банк
банка
банкам
банкау
банкаускаи
банкноты
банку
банкі
банту
бапц
бар
бара
барабан
барабанам
барабане
барабаны
барада
бараду
барадулін
баранавіцкага
баранавіцкаи
баранавіцкі
баранавіцкім
баранавіч
баранавічах
баранавічы
бараноускі
бараніць
барау
барацьба
барацьбе
барацьбои
барацьбу
барацьбы
барбара
барбары
бардо
баркі
барок
барока
барон
барона
барселона
барселоне
барселоны
барсукі
баршчэускага
баршчэускі
бары
барыс
барыса
барысава
барысаве
барысавіч
барысау
барысаускага
барысаускаи
барысаускі
барысаускім
барысюк
бас
басеин
басеина
басеинау
басеине
баскау
баскетбаліст
баскетболе
баскетбольны
басовішча
батальен
батальена
батальенам
батальенау
батальену
батальены
батанік
батаніка
батанікі
батанічнага
батанічны
батарэи
батарэя
батарэі
баторыя
батыст
батыста
батэ
бацька
бацькам
бацькамі
бацькаушчына
бацькаушчыне
бацькаушчыну
бацькаушчыны
бацькоу
бацьку
бацькі
бач
бачаць
бачачы
бачна
бачнаи
бачнасці
бачная
бачны
бачныя
бачу
бачыла
бачылі
бачым
бачыу
бачыце
бачыць
бачыш
баш
баюся
баючыся
бая
баявая
баявога
баявое
баявои
баявую
баявы
баявым
баявымі
баявых
баявыя
баяліся
баяр
баяры
баярын
баяуся
баях
баяцца
баі
баіцца
бвк
бгк
бгу
бдпу
бду
бе
бег
бегла
беглі
бегу
бегчы
беднага
беднаи
беднасці
беднаты
бедная
бедны
бедным
бедных
бедныя
бежанцау
без
бездакорную
беззаганнага
безопасности
безумоуна
беи
бек
бел
бела
белавежскаи
белавежская
белага
белае
белаз
белаи
белапан
белару
беларус
беларуса
беларусам
беларусамі
беларусау
беларуси
беларуск
беларуска
беларускага
беларускае
беларускаи
беларускамоунаи
беларускаму
беларуская
беларуску
беларускую
беларускі
беларускім
беларускімі
беларускіх
беларускія
беларусоу
беларуссю
беларусцы
беларусы
беларусь
беларусьфільм
беларусі
беларусізацыі
беласток
беластоку
беластоцкага
беластоцкаи
белая
белкартаграфія
белкартография
белниидад
белова
белорус
белорусов
белоруссии
белоруссия
белорусская
белорусские
белорусскии
белорусских
белорусско
белорусского
белорусское
белорусскои
белорусы
белпошта
белсат
белсэ
белта
белтэлерадыекампанія
белую
белшыны
белы
белыи
белым
белымі
белых
белыя
бельгіискі
бельгія
бельгіі
бельскага
бельскі
белэн
беліца
беліцк
бен
бенгазі
бенедыкт
бенедыкта
бенуа
београд
бераг
берага
берагавая
берагавои
берагам
берагах
берагоу
берагу
берагі
беразе
беразіно
бераставіцкім
берасцеискага
берасцеискі
берасцеискім
берг
бергама
берклі
беркут
берлін
берліна
берліне
берлінскага
берлінскаи
берлінская
берлінскі
берлінскім
бернар
бернард
бернарда
бернардзінцау
бесарабіі
беспарадкау
беспарадкі
беспаспяхова
бесперапынна
беспрацоуя
бетону
бешанковіцкага
бешанковіцкім
бешанковічы
би
библиотека
биогр
биографии
биографическии
биография
биологическии
битва
бка
благачынне
блак
блакады
блакітнага
блакітнаи
блакітная
блакітны
блакітным
блакітныя
бледна
блинова
блог
блок
блока
блокау
блоку
блокі
блуа
блытаць
блэк
бляск
бляскам
бляску
бліжэи
бліжэишаи
бліжэишая
бліжэишы
бліжэишых
бліжэишыя
блізка
блізкага
блізкае
блізкаи
блізкасць
блізкасці
блізкая
блізкі
блізкім
блізкімі
блізкіх
блізкія
блізняты
блізу
бліскучы
бліскучыя
бмп
бнп
бнр
бнту
бнф
бо
боб
бобр
бог
бога
богам
богдан
богу
богуш
боепрыпасау
боепрыпасы
божа
божага
божае
божаи
божая
божы
божым
бои
боика
боикі
боися
бок
бока
бокам
боку
бокі
более
болезни
болеи
болсун
боль
больш
большага
большае
большаи
большасць
большасцю
большасці
большасьць
большасьці
большая
больше
большои
большую
большы
большым
большых
большыя
болю
болі
бомба
бомбы
бон
бона
бонч
бор
бора
борис
борт
борце
борьба
борьбы
боскаи
боснія
босніі
бостан
ботаническии
ботанічны
боты
бохан
бою
бпс
бпі
бра
брава
брагинского
брагін
брагіна
брагінскага
брагінскім
бразільскі
бразілія
бразіліі
бракгауза
брала
бралі
брама
брамаи
брамнік
брамніка
брамнікам
брамнікау
браму
брамы
брандэнбург
брандэнбурга
бранск
бранскаи
бранскую
браніслава
браніслау
браслау
браслаускага
браслаускі
браслаускім
брат
брата
братам
братамі
братка
браткі
братоу
брату
браты
братэрства
брау
браун
брауна
брауншваиг
браце
брацкаи
брацкая
брацтва
браць
браціславе
брашуры
брест
брестская
брестскии
брестского
брестское
брестскои
брно
бровар
бровки
бровы
брод
брокгауз
брокгауза
бронза
бронзавага
бронзавая
бронзавы
бронзавым
бронзавых
бронзавыя
бронзу
бронзы
броука
броукі
бругэ
бруна
брус
брусель
бруселі
брушка
брыгад
брыгада
брыгадаи
брыгадзе
брыгаду
брыгады
брыль
брытанскага
брытанскаи
брытанская
брытанскі
брытанскім
брытанскімі
брытанскіх
брытанскія
брытанцау
брытанцы
брытанія
брытаніі
брэик
брэикам
брэикау
брэикі
брэслау
брэст
брэста
брэсце
брэсцкага
брэсцкае
брэсцкаи
брэсцкая
брэсцкі
брэсцкім
брэтані
бсг
бсср
бсэ
бтр
бу
бубны
буг
буга
буда
будавалася
будавалі
будаваліся
будаванне
будавау
будавауся
будаваць
будапешт
будапешта
будапешце
будаунік
будаунікоу
будауніцтва
будауніцтвам
будауніцтве
будауніцтву
будаунічага
будаунічаи
будаунічы
будаунічым
будаунічых
будаунічыя
будет
будеть
будзе
будзем
будзеце
будзеш
будзь
будзьма
будзьце
будкін
будны
будова
будове
будову
будовы
будоулі
буду
будуе
будуецца
будут
будуть
будуць
будучага
будучаи
будучы
будучым
будучыню
будучыня
будучыні
будучых
будучыя
будуюцца
будуюць
буды
будызм
будызму
будынак
будынка
будынкам
будынкамі
будынкау
будынках
будынку
будынкі
буиная
буинеишы
буинеишых
буинеишыя
буинога
буиное
буинои
буиную
буины
буиным
буинымі
буиных
буиныя
буиніцкага
бук
бука
булак
булдаков
булыка
бульба
бульбу
бульбы
бульвар
бульвары
буманн
бунд
бунда
бунт
бунту
бур
бура
бурага
бураи
буракоу
буракі
бурая
бурбон
бургундыя
бургундыі
буржуазія
буржуазіі
буркіна
бурундзі
буры
бурыя
бусел
бутэлькі
бухта
бухты
бухце
буш
бушмар
буэнас
бцр
бы
бывае
бываи
бываице
бывала
бывалі
бывау
бываюць
быдла
бык
быка
быкава
быкау
быкоу
был
была
былая
были
было
былога
былое
былои
былую
былъ
былы
былым
былых
былыя
былі
быт
бытавога
бытавых
бытавыя
быти
быту
быть
быу
быушы
быхау
быхаускага
быхаускім
быццам
быцце
быцця
быць
бэ
бэк
бэкэра
бэн
бэта
бюджэт
бюджэту
бюлетэнь
бюро
бюст
бягуць
бягучага
бягучы
бяда
бяду
бядуля
бядулі
бяды
бяжыць
бяз
бязумоуна
бялград
бялградзе
бялкоу
бялку
бялкі
бялова
бялыніцкага
бялыніцкім
бялявіна
бяроза
бярозавыя
бярозаука
бярозаускага
бярозаускі
бярозаускім
бярозка
бярозы
бяруць
бяры
бярэ
бярэзіна
бярэзінскага
бярэзінскім
бярэзіны
бярэцца
бясконца
бяспека
бяспеку
бяспекі
бяспецы
бясплатна
бясспрэчна
бі
біблеискіх
біблеискія
біблію
біблія
бібліяграфія
бібліятэк
бібліятэка
бібліятэкаи
бібліятэку
бібліятэкі
бібліятэцы
бібліі
біелаг
біенале
бізнес
бізнесмен
бізнесу
біл
біла
білет
більярда
білі
бін
бінэм
біржа
біржы
біскуп
біскупа
біскупам
біскупау
біскупства
біскупы
біт
бітва
бітваи
бітвау
бітвах
бітве
бітву
бітвы
біу
біцца
біць
біч
біябібліягр
біябібліяграфічны
біяграфічны
біяграфія
біяграфіі
біялагічнага
біялагічнаи
біялагічны
біялагічных
біялогія
біялогіі
біятлоне
біяхімік
біяхіміі
в
ва
вав
вавілон
вага
вагаецца
ваганняу
ваганні
вагнер
вагнера
вагои
вагон
вагона
вагонау
вагоны
вагу
вагі
вада
вадаем
вадаема
вадаемау
вадаемах
вадаемы
вадазбор
вадазбору
вадаліу
вадарод
вадароду
вадаспад
вадасховішча
вадасховішчы
вадзе
вадзяны
вадзяныя
вадзім
вадкасць
вадкасці
вадкіх
вадои
вадою
ваду
вады
вае
ваенна
ваеннага
ваеннае
ваеннаи
ваеннапалонных
ваеннаслужачых
ваенная
ваенную
ваенны
ваенным
ваеннымі
ваенных
ваенныя
важна
важнае
важнаи
важнасць
важнасці
важная
важнеишых
важнеишыя
важную
важны
важным
важнымі
важных
важныя
важыць
ваз
ваза
вазапісец
вазе
вазы
вазьму
вазьмі
ваина
ваине
ваинои
ваину
ваины
ваиніловіч
ваиніловіча
ваисковага
ваисковае
ваисковаи
ваисковая
ваисковец
ваисковую
ваисковы
ваисковым
ваисковых
ваисковыя
ваискоуцамі
ваискоуцау
ваискоуцы
вак
вакал
вакаліст
вакзал
вакзала
вакно
вакол
ваколіц
ваколіцах
ваколіцы
вакууме
вал
вала
валагодскаи
валадар
валадара
валадарання
валадароу
валадарскага
валадарства
валам
валамі
валапас
валасамі
валасоу
валасцеи
валасы
валасінкамі
валахіі
вале
валенсія
валер
валерии
валерыи
валерыя
валовіч
валодае
валодала
валодалі
валоданне
валодання
валоданні
валодау
валодаць
валодаюць
валожынскага
валожынскім
валокнау
валокі
валоу
валуа
валун
валы
валынскага
валынскаи
валынская
валынскі
валынскім
валынь
валыні
валь
вальдэмар
вальмавым
вальтэр
вальтэра
валют
валюта
валюты
валянцін
валянціна
валянцінавіч
валяр
вам
вамі
ван
вана
вандроукі
ваньковіч
вар
вараб
варагау
варанец
варанецкі
варашылава
вармінска
варожа
варожаи
варожасць
варожасці
варожы
варожых
варожыя
варонеж
варонежскаи
варот
варотамі
вароты
варта
вартавыя
вартасцю
вартасці
варту
варты
варунках
варункі
варце
варшава
варшаве
варшаву
варшавы
варшаускага
варшаускаи
варшаускі
варшаускім
варыянт
варыянтам
варыянтау
варыянтах
варыянту
варыянты
варыянце
варыяцыі
вас
васалам
василии
васильевич
васьмярык
васьмі
васьмігранным
васі
васілевіч
васілевічы
васілек
васілем
васілеуна
васілеускі
васіль
васільевіч
васільеу
васільеуна
васілька
васількоу
васілю
васіля
ватыкан
ватыкана
ваука
ваукавыск
ваукавыскага
ваукавыску
ваукавыскі
ваукавыскім
ваукоу
ваукі
вацлава
вацлау
вацік
вачамі
вачах
вачмі
вачох
вачыма
вачэи
ваш
ваша
вашага
вашаи
вашкевіч
вашу
вашы
вашым
вашынгтон
вашынгтона
вашынгтоне
вашых
вая
ваявалі
ваявау
ваяваць
ваявода
ваяводам
ваяводства
ваяводствау
ваяводстве
ваяводы
ваяроу
вв
введение
вднг
ве
веб
вебер
ведае
ведаем
ведаеце
ведаеш
ведала
ведалі
ведама
ведамасці
ведамства
веданне
ведау
ведаць
ведаю
ведаюць
ведаючы
ведзьма
ведомости
веды
веж
вежа
вежаи
вежамі
вежау
вежу
вежы
век
века
веке
веков
вектар
вектара
веку
великая
великие
великии
великого
великое
великои
вельмі
веліжскім
велізарнаи
велізарная
велізарную
велізарны
велізарныя
велікапольскага
веліч
велічынеи
велічынь
велічыню
велічыня
велічыні
вена
венг
венгерскага
венгерскаи
венгерская
венгерскі
венгерскім
венгерскіх
венгерскія
венграу
венгры
венгрыю
венгрыя
венгрыяи
венгрыі
вене
венера
венеры
венесуэла
венесуэле
венесуэлы
венета
венецыю
венецыя
венецыянскага
венецыянскаи
венецыі
венскага
венскаи
венскі
венскім
вену
вены
вер
вера
вераб
верабеи
вераванняу
вераванні
веравызнання
верагодна
верагоднасць
вераи
вераніка
веранікі
верас
верасень
верасня
верасні
верасьня
вераць
вердзі
вердэ
вермахта
вернасць
вернасці
вернер
вернецца
вернулся
вернута
вернуты
верны
верным
верных
вернікам
вернікау
вернікі
верст
версіи
версію
версія
версіяи
версіях
версіі
верталет
верталетау
верталеты
вертыкальна
вертыкальнаи
вертыкальных
вертыкальныя
вертыкалі
веру
верфі
верх
верхам
верхнее
верхнюю
верхняга
верхнядзвінскага
верхнядзвінскім
верхняе
верхняи
верхняя
верхні
верхнім
верхніх
верхнія
верхов
верховного
верш
верша
вершам
вершамі
вершау
вершах
вершы
веры
верылі
верыу
верыць
весак
весела
веска
вескаи
вескамі
весках
веску
вескі
веснік
вест
вестак
вестготау
вести
вестка
вестку
весткі
вестник
вестфалія
вестыбюль
весцы
весці
весь
вета
веткаускага
веткаускім
ветрам
ветру
ветры
ветэран
ветэранау
ветэрынарнаи
ветэрынарны
ветэрынарыі
веу
вецер
веча
вечар
вечара
вечарам
вечары
вече
вечернии
вечна
вечнага
вечнае
вечназяленыя
вечнаи
вечная
вечны
вечным
вечныя
вжо
взгляд
вид
видатних
видео
виктор
виленскои
вильна
вильнюс
виноградов
виталии
витебск
витебска
витебская
витебскии
витебского
витебскои
вк
вка
вкл
вкп
владимир
владимира
владимирович
владислав
власов
власти
власть
вмс
вмф
внесении
вновь
вну
во
вобл
воблака
воблакі
вобласць
вобласцю
вобласці
вобраз
вобраза
вобразау
вобразе
вобразу
вобразы
вогнішча
вогнішчы
вод
вода
водазабеспячэння
водамі
водар
водарасцеи
водарасці
водах
водгук
водгукі
водзяцца
водле
водлугъ
водна
воднага
воднаи
водная
водны
водные
водныи
водным
водных
водныя
воды
военачальнік
воениздат
военная
военно
военного
военное
военнои
военные
военныи
военных
вожык
воз
возглавил
возера
возерам
возеры
возьме
воин
воина
воинамі
воинау
воинах
воине
воины
воиск
воиска
воискам
воискамі
воискау
воисках
воиску
воискі
воит
воита
воицех
воицеха
вока
вокам
вокладцы
вокнамі
вокнау
вокнах
вокны
вокруг
вол
волава
воласць
воласці
волат
волга
волгі
воли
волкава
волкау
вольга
вольгі
вольна
вольнага
вольнае
вольнаи
вольная
вольны
вольным
вольных
вольныя
вольскага
вольскі
вольф
вольфа
вольфганг
волю
воля
воляи
волі
вон
вонкава
вонкавага
вонкаваи
вонкавы
вонкавым
вонкавых
вонкавыя
вонкі
воп
вопратка
вопратку
вопраткі
вопратцы
вопрос
вопросах
вопросов
вопросу
вопросы
вопыт
вопытам
вопыту
вораг
ворага
ворагам
ворагамі
ворагау
ворагу
ворагі
воранаускага
воранаускім
воронов
восем
восенню
восень
восені
воск
воспоминания
восток
востока
восточная
восточно
восточнои
востра
вострава
востравам
востраве
востраи
вострау
вострая
востры
вострым
вострымі
вострых
вострыя
вось
восьмаи
восьмы
восьмым
восі
восіпавіч
вот
воук
воуны
вочкі
вочы
вояджэр
воін
воіна
воінам
воінау
воінскае
воінскаи
воінскіх
воінскія
воіны
впс
времен
времени
время
вроцлау
вряду
врядъ
вс
все
всего
всем
всемирная
всех
вси
вся
вторая
второи
ву
вугал
вугаль
вугалю
вугла
вуглавымі
вуглавыя
вуглах
вуглом
вуглоу
вуглы
вугляроду
вузел
вузкае
вузкаи
вузкая
вузкі
вузкім
вузкімі
вузкіх
вузкія
вузла
вузлом
вузлоу
вузлы
вузов
вул
вулкан
вулкана
вулканау
вулканы
вулканічнага
вулканічнае
вуліц
вуліца
вуліцаи
вуліцамі
вуліцах
вуліцу
вуліцы
вулічных
вулічныя
вунь
вунія
вуніі
вуп
вусені
вуснаи
вуснау
вусны
вусце
вусця
вусці
вусы
вусікі
вуха
вучань
вучнем
вучня
вучням
вучнямі
вучняу
вучні
вучобу
вучобы
вучонага
вучонаи
вучоны
вучоным
вучонымі
вучоных
вучоныя
вучылася
вучылі
вучыліся
вучылішча
вучылішчау
вучылішчы
вучыу
вучыуся
вучыцца
вучыць
вучэб
вучэбна
вучэбнага
вучэбнаи
вучэбны
вучэбных
вучэльня
вучэльні
вучэнне
вучэння
вучэнняу
вучэнні
вушы
вушэи
входят
въ
вы
выбар
выбарамі
выбарау
выбарах
выбару
выбарчага
выбарчаи
выбарчых
выбаршчыкау
выбары
выбачаице
выборы
выбралі
выбрана
выбранае
выбраны
выбраных
выбраныя
выбрау
выбраць
выбух
выбуху
выбухі
выбылі
выбыу
выбірае
выбіраецца
выбіралася
выбірауся
выбіраць
выбіраюцца
выбітны
выбітных
выбітныя
вывад
вываду
выведзена
выведзены
вывезены
вывезлі
вывесці
вывеу
выводзіць
вывучае
вывучала
вывучалі
вывучаны
вывучау
вывучаць
вывучаюць
вывучыу
вывучыць
вывучэнне
вывучэннем
вывучэнню
вывучэння
вывучэнні
вывяржэнне
выгляд
выглядае
выглядала
выглядам
выглядау
выглядаць
выглядаюць
выглядзе
выгляду
выгналі
выгнанне
выгнання
выгнанні
выгнаны
выгнау
выгрузка
выд
выдавала
выдавалася
выдавалі
выдаваліся
выдавау
выдавауся
выдаваць
выдавец
выдавецкаи
выдавецкая
выдавецкі
выдавецтва
выдавецтвам
выдавецтве
выдадзена
выдадзеная
выдадзены
выдадзеных
выдадзеныя
выдае
выдаецца
выдала
выдалення
выдалі
выданне
выданнем
выдання
выданнямі
выданняу
выданнях
выданні
выданы
выданьне
выданьня
выданьні
выдаткау
выдаткі
выдатна
выдатнага
выдатнаи
выдатную
выдатны
выдатным
выдатнымі
выдатных
выдатныя
выдатнік
выдау
выдауцом
выдаць
выдачы
выдаюцца
выдающихся
выдзелена
выдзелены
выдзяляецца
выдзяляюцца
выдзяляюць
выезд
выезду
выехала
выехалі
выехау
выехаць
выжыу
вызвалена
вызваленне
вызвалення
вызваленні
вызваленчага
вызваленчаи
вызвалены
вызваленыя
вызваленьне
вызваленьня
вызваляецца
вызвалілі
вызваліу
вызваліцца
вызваліць
вызначае
вызначаецца
вызначалася
вызначальнік
вызначалі
вызначаліся
вызначана
вызначанага
вызначанаи
вызначаная
вызначаны
вызначаных
вызначаныя
вызначау
вызначауся
вызначаць
вызначаюцца
вызначаюць
вызначыла
вызначылі
вызначыу
вызначыуся
вызначыць
вызначэнне
вызначэння
вызначэнні
выигравау
выиграла
выигралі
выиграу
выиграушы
выиграць
выидзе
выисці
выишау
выишаушы
выишла
выишлі
выказала
выказалі
выказаліся
выказана
выказау
выказауся
выказаць
выказвае
выказваліся
выказвау
выканала
выканалі
выканана
выкананая
выкананне
выкананнем
выканання
выкананні
выкананы
выкананых
выкананыя
выканау
выканауца
выканауцам
выканауцау
выканауцы
выканаучага
выканаучаи
выканаучая
выканаучы
выканаучым
выканаць
выканкама
выканкома
выкапняу
выкапні
выкарыстана
выкарыстанне
выкарыстаннем
выкарыстання
выкарыстанні
выкарыстаны
выкарыстаныя
выкарыстау
выкарыстаць
выкарыстоувае
выкарыстоуваецца
выкарыстоувала
выкарыстоувалася
выкарыстоувалі
выкарыстоуваліся
выкарыстоувау
выкарыстоувауся
выкарыстоувацца
выкарыстоуваць
выкарыстоуваюцца
выкарыстоуваюць
выкарыстоуваючы
выкладае
выкладала
выкладанне
выкладання
выкладау
выкладаць
выкладзена
выкладзены
выкладчык
выкладчыка
выкладчыкам
выкладчыкау
выкладчыкі
выкладчыцкаи
выклау
выключана
выключаны
выключна
выключнаи
выключыць
выключэнне
выключэннем
выключэння
выклік
выклікае
выклікаецца
выклікала
выклікалі
выклікана
выкліканы
выкліканых
выкліканыя
выклікау
выклікаць
выклікаюць
выконвае
выконваецца
выконвала
выконвалі
выконваліся
выконвау
выконваць
выконваюцца
выконваюць
выконваючы
выконваючым
выкраданне
выкуп
выкупу
выкупіу
вылет
вылетау
вылету
вылецеу
вылучае
вылучаецца
вылучалася
вылучаліся
вылучана
вылучаны
вылучауся
вылучаюцца
вылучаюць
вылучылася
вылучыу
вылучыць
вылучэнне
вылучэння
вылілася
вылічальнаи
вылічэнні
вымагае
вымауленне
вымаулення
вымауляецца
вымусіла
вымусілі
вымусіу
вымушана
вымушаны
вымушаныя
вымяраецца
вымярэнне
вымярэння
вымярэнняу
вымярэнні
вынаишау
вынаходнік
вынаходніцтва
вынаходства
вынес
вынесены
выносіць
выняткам
вынік
вынікае
вынікам
вынікамі
вынікау
выніках
выніку
вынікі
вып
выпадае
выпадак
выпадкам
выпадкау
выпадках
выпадкова
выпадковых
выпадку
выпадкі
выпала
выплаты
выплаціць
выпрабаванняу
выпрабаванні
выправіць
выпраменьванне
выпраменьвання
выпрамянення
выпуск
выпускае
выпускаецца
выпускаліся
выпускау
выпускауся
выпускаць
выпускаюцца
выпускнік
выпускнікоу
выпускнікі
выпуску
выпусціла
выпусцілі
выпусціу
выпусціць
выпушчана
выпушчаная
выпушчаны
выпушчаныя
выпіць
выраб
вырабам
вырабау
вырабе
выраблена
выраблены
вырабленыя
вырабляе
вырабляецца
вырабляла
выраблялася
выраблялі
вырабляліся
вырабляуся
вырабляць
вырабляюцца
вырабляюць
вырабу
вырабы
выраз
выразам
выразау
выразна
выразнаи
выразнасць
выразнасці
выразны
выразныя
выразу
выразы
вырас
вырасла
выраслі
вырастае
выратаванне
выратавання
выратавау
выратаваць
вырашае
вырашальны
вырашальным
вырашана
вырашаны
вырашаць
вырашыла
вырашылі
вырашыу
вырашыць
вырашэнне
вырашэння
вырашэнні
вырошчваецца
вырошчвалі
вырошчванне
вырошчвання
вырошчваюць
высадзіліся
высадзіуся
высадкі
высакосны
высветлілася
высветліць
выслана
высланы
выснову
высновы
высока
высокага
высокае
высокаи
высокая
высокую
высокі
высокім
высокімі
высокіх
высокія
высоцкі
выстава
выставак
выставах
выставе
выставка
выставы
выставіу
выстау
выстаука
выстауках
выстаукі
выстаулены
выстауцы
выступ
выступае
выступала
выступалі
выступау
выступаць
выступаюць
выступаючы
выступленне
выступлення
выступленняу
выступленні
выступу
выступы
выступіла
выступілі
выступіу
выступіць
высунуу
высш
высшая
высших
высылкі
высілкі
вытанчаных
вытворных
вытворныя
вытворца
вытворцам
вытворцау
вытворцы
вытворча
вытворчага
вытворчае
вытворчаи
вытворчасць
вытворчасцю
вытворчасці
вытворчы
вытворчых
вытворчыя
выток
вытокау
вытоку
вытокі
вытрымала
вытрымау
выхаванец
выхаванне
выхавання
выхаванні
выхад
выхадам
выхадзе
выхадзіу
выхадзіць
выхаду
выхадцамі
выхадцау
выхадцы
выхады
выходзяць
выходзячы
выходзіла
выходзілі
выходзіу
выходзіць
выхоувауся
выцягнутая
выцягнуты
выцягнуу
выцякае
выш
вышау
вышеи
вышла
вышлі
вышынеи
вышынь
вышыню
вышыня
вышынях
вышыні
вышэи
вышэишага
вышэишае
вышэишаи
вышэишая
вышэишую
вышэишы
вышэишым
вышэишых
вышэишыя
выява
выяваи
выявамі
выяву
выявы
выявіла
выявілася
выявілі
выявіліся
выявіу
выявіуся
выявіць
выяу
выяулена
выяуленая
выяуленне
выяулення
выяуленчага
выяуленчае
выяуленчым
выяуленчых
выяулены
выяуленых
выяуленыя
выяуляе
выяуляецца
выяуляу
выяуляюцца
выяуляюць
вэб
вэньбо
вюртэмберг
вядзе
вядзенне
вядзення
вядзецца
вядома
вядомага
вядомае
вядомаи
вядомасць
вядомая
вядомую
вядомы
вядомым
вядомымі
вядомых
вядомыя
вядуцца
вядуць
вядучаи
вядучая
вядучы
вядучым
вядучымі
вядучых
вядучыя
вяземскім
вязень
вязняу
вякоу
вякі
вял
вяла
вялася
вялося
вялі
вялізны
вялізныя
вялікабрытанію
вялікабрытанія
вялікабрытаніяи
вялікабрытаніі
вялікага
вялікадня
вялікае
вялікаи
вялікалітоускі
вялікаму
вялікасці
вялікаю
вялікая
вялікдзень
вялікую
вялікі
вялікім
вялікімі
вялікіх
вялікія
вяліся
вялічка
вянок
вяночак
вярба
вярнула
вярнулася
вярнулі
вярнуліся
вярнуу
вярнууся
вярнуушыся
вярнуцца
вярнуць
вяртаецца
вярталіся
вяртанне
вяртання
вяртанні
вяртауся
вяртацца
вяртаюцца
вярхоунага
вярхоунаи
вярхоуная
вярхоуны
вярхоуным
вярхоуях
вярхоуі
вярчэння
вяршыню
вяршыня
вяршыняи
вяршыні
вяршэнства
вяселая
вяселка
вяселле
вяселля
вяселлі
вяселы
вяселыя
вяскова
вясковага
вясковаи
вясковая
вясковы
вясковых
вясковыя
вяскоуцау
вяскоуцы
вясна
вяснои
вясною
вясну
вясны
вятрак
вятроу
вятры
вячаслава
вячаслау
вячеслав
вячэра
вячэрняи
вячэрні
вячэру
вячэры
вяшчанне
вяшчання
ві
віа
від
віда
відавочна
відам
відамі
відау
відах
відаць
відзаускага
відзе
відзы
віду
віды
відэа
відэакліп
візантыискага
візантыискаи
візантыискі
візантыискім
візантыискіх
візантыяи
візантыі
візіт
візіту
вікарыи
віктар
віктара
віктаравіч
віктарам
віктарауна
вікторыя
вікторыі
вікі
вікікрыніцах
вікінгау
вікіпедыя
вікіпедыі
вікіпэдыя
вікісховішчы
вікіцытатніку
віла
віле
вілеика
вілеискага
вілеискаи
вілеискі
вілеискім
вілем
віленскага
віленскае
віленскаи
віленская
віленскую
віленскі
віленскім
віленскіх
віленскія
віленшчыне
віленшчыны
вілы
вільгаці
вільгельм
вільгельма
вільгельмам
вільготнасць
вільготнасці
вільготны
вільготным
вільготных
вільготныя
вільню
вільнюс
вільнюса
вільнюсе
вільнюскага
вільня
вільні
віліі
він
віна
вінаваты
вінаватым
вінаград
вінаградау
вінаграду
вінніцкаи
віно
вінтоукі
віну
вінцэнт
вінцэнта
вінчы
віны
віні
вір
вірджынія
віртуальны
вірус
віруса
вірусау
вісла
віслы
вісіць
віта
віталь
віталя
вітаут
вітаута
вітаутам
вітольд
віцебск
віцебска
віцебскага
віцебскае
віцебскаи
віцебскам
віцебская
віцебску
віцебскую
віцебскі
віцебскім
віцебшчыне
віцебшчыны
віцэ
віцязь
віч
вічы
вішнеускага
вішнявецкага
вішнявецкі
г
га
габрусь
габрыэль
габсбургау
гавань
гавані
гавары
гаварыла
гаварылася
гаварылі
гаварыу
гаварыць
гавора
гаворак
гавораць
гаворачы
гаворка
гаворку
гаворкі
гаворцы
гаворыцца
гаворыць
гаврилов
гагарына
гагарынскім
гадавая
гадавы
гадавіны
гадамі
гадах
гадз
гадзін
гадзіна
гадзіне
гадзіннік
гадзіннікау
гадзіну
гадзіны
гадовага
гадоваи
гадовая
гадовую
гадовы
гадовым
гадоу
гадох
гаду
гады
газ
газа
газаваи
газавых
газау
газе
газет
газета
газетаи
газетах
газету
газеты
газеце
газу
газы
газэта
газэты
гаи
гал
гала
галава
галаве
галавои
галавою
галаву
галавы
галактык
галактыка
галактыкі
галамі
галандскага
галандскаи
галандскі
галандскіх
галандыя
галандыі
галасаванне
галасаваннем
галасавання
галасаванні
галасоу
галасы
галаунога
галауны
галауныя
гале
галена
галерэю
галерэя
галерэі
галовамі
галовы
галодны
галосны
галосных
галосныя
галоу
галоука
галоукаи
галоукі
галоунага
галоунае
галоунаи
галоунакамандуючага
галоунакамандуючы
галоунакамандуючым
галоуная
галоуную
галоуны
галоуным
галоунымі
галоуных
галоуныя
галубка
галубовіч
галы
гальфстрым
гальцы
галілеа
галілеи
галілея
галін
галіна
галінак
галінамі
галінастае
галінах
галіне
галінкі
галінои
галіну
галіны
галіцка
галіцкага
галіцкі
галіцыі
галіі
гама
гамарня
гамбург
гамбургу
гамер
гамера
ган
ганак
ганараваны
ганаровага
ганаровае
ганароваи
ганаровая
ганаровы
ганаровым
ганаровымі
ганаровых
ганаровыя
гандаль
гандбаліст
гандболе
гандбольнаи
гандзі
гандлева
гандлевага
гандлевае
гандлеваи
гандлевая
гандлевую
гандлевы
гандлевым
гандлевымі
гандлевых
гандлевыя
гандлем
гандлю
гандляроу
гандляры
гандлі
ганзага
ганка
ганкам
ганконг
ганконга
ганку
ганна
ганнаи
ганне
ганну
ганны
гановер
ганс
гануля
ганцавічы
ганчарык
гапон
гапоненка
гар
гара
гарадамі
гарадах
гараджан
гараджане
гарадзенскага
гарадзенскі
гарадзец
гарадзея
гарадзішча
гарадзішчанскага
гарадзішчы
гарадка
гарадку
гарадок
гарадоу
гарадох
гарадоцкага
гарадоцкі
гарадоцкім
гарадская
гарадскога
гарадское
гарадскои
гарадскую
гарадскі
гарадскім
гарадскіх
гарадскія
гарады
гаральд
гарамі
гарантыі
гарах
гараць
гарачае
гарачаи
гарачая
гарачы
гарачым
гарачых
гарачыя
гарбаты
гарбачова
гарбачоу
гарвыканкама
гардзіенка
гардзіцкі
гаркама
гармат
гармата
гарматы
гармоніі
гарнізон
гарнізона
гарнізоны
гародні
гародніна
гародніну
гародніны
гарои
гарох
гарсавета
гарсія
гарт
гару
гаршчок
гары
гарызантальна
гарызантальнаи
гарызантальных
гарызонт
гарыць
гарэлка
гарэлку
гарэлкі
гарэцкага
гарэцкі
гаспадар
гаспадара
гаспадарак
гаспадарамі
гаспадарка
гаспадаркаи
гаспадарку
гаспадаркі
гаспадаром
гаспадароу
гаспадарскі
гаспадарства
гаспадару
гаспадарцы
гаспадарчага
гаспадарчае
гаспадарчаи
гаспадарчая
гаспадарчы
гаспадарчым
гаспадарчых
гаспадарчыя
гаспадары
гаспадыня
гаспадыні
гасподняга
гасцеи
гасцях
гасцінец
гасцініца
гасцініцы
гатня
гатова
гатовая
гатовы
гатовыя
гатоу
гатоунасць
гатоунасці
гатункау
гатункі
гатуюць
гатычнага
гатычны
гатычным
гатэль
гаурыла
гаурылавіч
гая
гаі
гаіці
гвалт
гвалтам
гвалтоуна
гвалту
гвардзеискага
гвардзеискаи
гвардзеиская
гвардзеискі
гвардия
гвардыя
гвардыі
гвінея
гвінеі
гг
гданьск
гданьска
гданьску
где
гдзе
гдр
гду
ге
геаграфічна
геаграфічнага
геаграфічнае
геаграфічнаи
геаграфічны
геаграфічным
геаграфічных
геаграфічныя
геаграфія
геаграфіі
геадэзічных
геалагічнаи
геалагічны
геалагічных
геалогіі
геаметрычнаи
геаметрычных
геаметрыя
геаметрыі
гедзіміна
гедроица
геи
гек
гектара
гектарау
ген
генадзь
генадзя
генау
генацыд
генацыду
генеалогія
генерал
генерала
генералам
генералау
генералу
генералы
генеральнага
генеральнаи
генеральная
генерального
генеральны
генеральным
генетыкі
генетычна
генетычныя
генкін
генры
генрык
генрыка
генрых
генрыха
генрыхам
генрыху
генуя
генуі
генштаба
геніюш
географ
географии
географические
географическии
географических
география
геолаг
геолага
георг
георга
георгиевскии
георгии
георгіевіч
георгіеуская
георгіи
георгія
герадот
геральдыка
геральдычны
герань
геранім
гераніма
герасімовіч
гераізм
гераіня
гераіні
герб
герба
гербам
гербау
гербе
герберт
гербу
гербы
геркулес
герман
германа
германии
германскага
германскае
германскаи
германская
германскі
германскім
германскімі
германскіх
германскія
германцау
германію
германія
германіяи
германіі
героем
герои
герою
героя
героям
героямі
герояу
героі
гертруда
герцаг
герцага
герцагавіна
герцагавіны
герцагам
герцагау
герцагства
герцагіня
гестапа
гесэн
гета
гетау
гетман
гетмана
гетманам
гетэ
гкнп
гл
глабальная
глав
глава
главная
главного
главное
главныи
главои
главы
гладка
гладкая
гладкі
гладкія
глазга
глеб
глеба
глебава
глебазнауства
глебау
глебах
глебе
глебу
глебы
гледача
гледачоу
гледжання
гледзячы
гленарван
глобус
глупства
глускім
глуха
глухі
глухім
глухіх
глыб
глыбеи
глыбока
глыбокага
глыбокае
глыбокаи
глыбокая
глыбокую
глыбокі
глыбокім
глыбокімі
глыбокіх
глыбокія
глыбоцкага
глыбоцкі
глыбоцкім
глыбінеи
глыбіню
глыбіня
глыбінях
глыбіні
гляджу
глядзела
глядзелі
глядзеу
глядзець
глядзяць
глядзі
глядзіце
глядзіць
глянуу
глянь
глінкі
глінскі
гліны
гміна
гміне
гміну
гміны
гневу
гнезды
гнеу
гномау
гнязда
гняздо
го
гогаля
год
года
годам
годах
годдзе
годдзю
годдзя
годзе
годнасць
годнасці
годов
году
годы
гол
голад
голаду
голае
голас
голасам
голасе
голасна
голасу
голау
голос
голуб
голубеу
голы
голыя
гольштэин
гоман
гомелем
гомель
гомельскага
гомельскаи
гомельская
гомельского
гомельскои
гомельскі
гомельскім
гомеля
гомелі
гонар
гонарам
гонару
гонка
гонках
гонкі
гонцы
гончыя
гор
гора
горад
горада
горадабудауніцтва
горадам
горадзе
горадні
гораду
горам
горах
горацкага
горацкі
горацкім
горача
горка
горкага
горках
горки
горкі
горла
горна
горнага
горнаи
горная
горны
горным
горнымі
горных
горныя
город
города
городов
городского
горскі
горш
горы
гос
госпад
госпада
госпадзе
государства
государственная
государственного
государственное
государственнои
государственныи
государство
госць
госця
госці
готфрыд
готыкі
гпу
гр
гра
грабніца
грабніцы
гравер
гравюр
гравюра
гравюры
гравітацыинага
гравітацыі
град
града
градусау
грады
грае
гражданских
гразі
грам
грамад
грамада
грамадзе
грамадзян
грамадзянам
грамадзянамі
грамадзяне
грамадзянскага
грамадзянскае
грамадзянскаи
грамадзянская
грамадзянскую
грамадзянскі
грамадзянскім
грамадзянскіх
грамадзянскія
грамадзянства
грамадзянін
грамадзяніна
грамадзянінам
грамадска
грамадскага
грамадскае
грамадскаи
грамадскасці
грамадская
грамадскую
грамадскі
грамадскім
грамадскімі
грамадскіх
грамадскія
грамадства
грамадствам
грамадстве
грамаду
грамады
грамата
граматаи
граматамі
грамату
граматы
граматыка
граматыку
граматыкі
грамаце
грамыка
гран
гранат
гранаты
гранд
границ
грант
гранта
грані
граніт
граніту
граніц
граніца
граніцу
граніцы
грау
граф
графа
графам
графау
графства
графствау
графстве
графу
графы
графік
графіка
графікі
графіня
графіні
графіцы
графічны
графічных
графічныя
грахоу
грахі
граць
грашоваи
грашовая
грашовую
грашовых
грашовыя
грашыма
граюць
грду
григории
григорьевич
гриневич
грицкевич
гродзенскага
гродзенскаи
гродзенская
гродзенскі
гродзенскім
гродзеншчыны
гродна
гродне
гродненского
гродненскои
гродно
грознага
грозны
гром
громыко
грос
грошаи
грошау
грошеи
грошы
гру
груба
грудзеи
грудзьмі
грудзях
грудзі
груз
грузавы
грузавых
грузавыя
грузау
грузу
грузінскага
грузінскаи
грузінская
грузінскі
грузія
грузіі
грунт
грунтоуна
грунту
грунтуецца
грунтуючыся
грунты
грунце
груп
група
групавы
групаи
групамі
групах
групе
груповак
групоука
групоукамі
групоуку
групоукі
группа
группы
групу
групы
груша
грушы
грушэцкі
грыб
грыба
грыбоу
грыбы
грыгарыянскім
грыгор
грыгорыи
грыгорыя
грызуноу
грын
грыцкевіч
грэка
грэкамі
грэкау
грэкі
грэм
грэмі
грэнландыя
грэнландыі
грэх
грэцкага
грэцкі
грэцыю
грэцыя
грэцыі
грэч
грэчаскага
грэчаскаи
грэчаская
грэчаскую
грэчаскі
грэчаскім
грэчаскіх
грэчаскія
гу
гуарані
губ
губа
губанов
губернатар
губернатара
губернатарам
губернатарства
губернии
губерния
губернскага
губернскі
губернскім
губерню
губерня
губерняу
губернях
губерні
губерніі
губляе
губы
губэрні
гуга
гузік
гук
гука
гукам
гукау
гукнуу
гуку
гукі
гулец
гульнеи
гульню
гульня
гульнявога
гульнявои
гульнявы
гульнявых
гульняу
гульнях
гульні
гульца
гульцом
гульцоу
гульцу
гульцы
гуляе
гуляла
гулялі
гуляу
гуляць
гуляюць
гуляючы
гуманізму
гуманіст
гуманітарнага
гуманітарнаи
гуманітарны
гуманітарных
гумар
гумару
гумно
гур
гурт
гурта
гуртам
гуртка
гурткоу
гурткі
гурток
гуртоу
гурту
гурты
гурце
гусак
густа
густава
густау
густая
густои
густы
густым
густыя
гусцяра
гусі
гута
гутарак
гутарка
гутарку
гутаркі
гутарцы
гучанне
гучання
гучаць
гучна
гучыць
гц
гэ
гэи
гэндон
гэс
гэта
гэтага
гэтаго
гэтае
гэтаи
гэтак
гэтаксама
гэтакі
гэтаму
гэтая
гэткага
гэткае
гэткаи
гэткая
гэткую
гэткі
гэткім
гэткіх
гэткія
гэту
гэтулькі
гэтую
гэты
гэтым
гэтымі
гэтых
гэтыя
гі
гібель
гібелі
гігіены
гігін
гідра
гіл
гілевіч
гільдыі
гільем
гімн
гімна
гімназію
гімназія
гімназіі
гімнам
гімны
гіне
гінуць
гіпотэза
гіпотэзу
гіпотэзы
гіст
гістарычна
гістарычнага
гістарычнае
гістарычнаи
гістарычная
гістарычную
гістарычны
гістарычным
гістарычнымі
гістарычных
гістарычныя
гістарыяграфія
гістарыяграфіі
гісторык
гісторыка
гісторыкам
гісторыкамі
гісторыкау
гісторыкі
гісторыю
гісторыя
гісторыяи
гісторыі
гітара
гітары
гітарыст
гітлер
гітлера
гітлераускімі
гітлерауцамі
гітлерауцы
гітліна
гітоу
д
да
дабра
дабрабыт
дабрабыту
дабрауся
дабрацца
дабро
дабудаваны
дабіцца
даваи
даваице
давала
давалі
давау
даваць
давед
даведаліся
даведауся
даведаушыся
даведацца
даведка
даведнік
давер
даверу
давесці
давеу
даводзілася
даводзіцца
даводзіць
даволі
давыд
давыда
давядзецца
давялося
давід
давіда
дагавор
дагавора
дагаворам
дагаворау
дагавору
дагаворы
дагон
дагэтуль
дададзены
дадае
дадаецца
даданнем
дадатак
дадаткам
дадаткова
дадатковага
дадатковае
дадатковаи
дадатковую
дадатковы
дадатковым
дадатковымі
дадатковых
дадатковыя
дадатку
дадау
дадаць
дадаюць
дадаючы
дадаізм
дадзена
дадзенага
дадзенае
дадзенаи
дадзеная
дадзены
дадзеным
дадзенымі
дадзеных
дадзеныя
дадому
дадуць
дае
даецца
дажджоу
дажджу
дажджы
дазваляе
дазваляецца
дазваляла
дазвалялася
дазвалялі
дазваляу
дазваляюць
дазвол
дазволена
дазволу
дазволіла
дазволілі
дазволіу
дазволіушы
дазволіць
даи
даисці
даице
даишла
даишло
даишлі
даишоу
дак
даказана
даказау
даказаць
даклад
дакладзе
дакладна
дакладнага
дакладнае
дакладнаи
дакладнасць
дакладнасцю
дакладнасці
дакладная
дакладнеи
дакладны
дакладным
дакладных
дакладныя
даклады
дактароу
дактары
дактрыны
дакум
дакумент
дакумента
дакументальнага
дакументальная
дакументальны
дакументальных
дакументальныя
дакументам
дакументамі
дакументау
дакументах
дакументацыі
дакументы
дакуменце
дал
дала
далеи
далеишага
далеишае
далеишаи
далеишы
далеишым
далеишых
далеишыя
далека
далекага
далекаи
далекасць
далекі
далекім
далекіх
далекія
дало
далоні
далучаецца
далучана
далучаны
далучаюцца
далучылася
далучыліся
далучыу
далучыуся
далучыцца
далучыць
далучэнне
далучэння
далучэнні
даль
далярау
далі
далін
даліна
далінаи
далінамі
далінах
даліне
даліну
даліны
дам
дама
дамагацца
дамагліся
дамагчыся
дамамі
дамаск
дамаска
дамах
дамен
дамена
даменіка
дамова
дамове
дамову
дамовы
дамовіліся
дамовіцца
дамогся
дамоу
дамоуленасці
дамы
дамінавау
дамінга
дамінуе
дамінік
дамініка
дамініканцау
дан
дана
данецкаи
данецкая
данные
данных
данскога
дантэ
даных
даныя
даніла
данілавіч
данілка
данілы
даніну
даніны
даніэль
данію
данія
даніяи
даніі
данііл
дап
дапам
дапамагае
дапамагала
дапамагалі
дапамагау
дапамагаць
дапамагаюць
дапамагла
дапамагло
дапамаглі
дапамагчы
дапамажыце
дапамог
дапамога
дапамогаи
дапамогаю
дапамогу
дапамогі
дапаможа
дапаможнаи
дапаможны
дапаможных
дапаможныя
дапаможнік
дапаможнікау
дапамозе
дапрац
дапускаецца
дапусціу
дапусціць
дар
даравау
дарагабужскаи
дарагая
дарагі
дарагіх
дарагія
дарма
дарог
дарога
дарогаи
дарогамі
дарогах
дарогу
дарогі
дарожкі
дарожнага
дарозе
дарослага
дарослым
дарослых
дарослыя
даручана
даручыу
даручэнні
дары
дарэмна
дарэчы
дасканала
дасканаласці
даследавалі
даследаванне
даследаваннем
даследавання
даследаваннямі
даследаванняу
даследаваннях
даследаванні
даследаваны
даследавау
даследаваць
даследванняу
даследванні
даследуе
даследчага
даследчаи
даследчая
даследчы
даследчык
даследчыка
даследчыкам
даследчыкамі
даследчыкау
даследчыкі
даследчым
даследчых
даследчыя
даслоуна
дастаеускага
дасталася
дастаткова
дастатковаи
дастау
дастаукі
дастаулены
дастаць
даступна
даступная
даступны
даступныя
дасць
дасье
дасьць
дасюль
дасягае
дасягаецца
дасягала
дасягаць
дасягаюць
дасягненне
дасягненнем
дасягнення
дасягненняу
дасягненні
дасягнула
дасягнулі
дасягнута
дасягнуты
дасягнуу
дасягнуушы
дасягнуць
дат
дата
датаваны
датаи
дату
датуецца
датуль
датуюцца
даты
датычна
датычыцца
датычыць
датэрмінова
дау
даугаты
даугі
даужынеи
даужыню
даужыня
даужыні
даужэи
даунеи
дауно
дауніны
дауніх
даунія
даушы
дах
дахам
дахамі
дахаты
дахау
даход
даходау
даходзіла
даходзілі
даходзіу
даходзіць
даходу
даходы
даху
дахі
дацк
дацкага
дацкаи
дацкая
дацкі
дацкім
даць
дацэнт
дацэнта
дацэнтам
дачка
дачкои
дачку
дачкі
дачок
дачцы
дачцэ
дачы
дачыненне
дачынення
дачыненні
дашкевіч
дашчэнту
даю
даюць
даючы
два
дванаццаць
дванаццаці
двара
дваран
дваране
дваранскага
дваранскіх
дваранства
дваранін
дварах
дваром
двароу
двары
дварэ
дваццаць
дваццаці
дваіх
две
движение
движения
двое
двоичы
двор
дворышча
двох
двудольные
двум
двума
двух
двухбаковая
двухгадовы
двухдольных
двухдольныя
двухпавярховы
двухразовы
двухсхільным
де
дегтярев
декабря
дел
дела
делам
деление
дело
делу
дембовецкого
денис
день
депутатов
деревни
державна
детеи
дети
деятельности
деятельность
дж
джавані
джад
джаз
джо
джозеф
джон
джона
джонам
джонс
джонса
джонсан
джордж
джорджа
джорджыя
джузэпэ
джульета
джулія
джыбуці
джымі
джын
джэимс
джэимса
джэимсам
джэимі
джэин
джэк
джэксан
джэрсі
джэфры
дз
дзве
дзверы
дзвесце
дзвюма
дзвюх
дзвярах
дзвярыма
дзвярэи
дзвіна
дзвіны
дзе
дзева
дзевы
дзевяць
дзевяці
дзед
дзеда
дзеду
дзеинасць
дзеинасцю
дзеинасці
дзеинасьць
дзеинасьці
дзеинічае
дзеинічала
дзеинічалі
дзеинічау
дзеинічаць
дзеинічаюць
дзекуць
дзела
дзеля
дзеляцца
дзеляць
дзеліцца
дзеліць
дзен
дзеннаи
дзенны
дзеннік
дзенніку
дзеннікі
дзень
дзес
дзесь
дзесьці
дзесяткау
дзесяткі
дзесяць
дзесяці
дзесяцігоддзе
дзесяцігоддзя
дзесяцігоддзяу
дзесяцігоддзі
дзесяцін
дзесяціны
дзетак
дзеткі
дзецьмі
дзецям
дзеці
дзеючага
дзеючаи
дзеючую
дзеючы
дзеючым
дзеючых
дзеянне
дзеяннем
дзеяння
дзеяннямі
дзеянняу
дзеяннях
дзеянні
дзеяслова
дзеясловау
дзеяслоу
дзеяч
дзеяча
дзеячам
дзеячамі
дзеячау
дзеячоу
дзеячы
дзеі
дзмітрыевіч
дзмітрыем
дзмітрыеу
дзмітрыи
дзмітрыя
дзьве
дзьверы
дзьвіны
дзю
дзюба
дзявоцтве
дзядзька
дзядзькам
дзядзьку
дзядзькі
дзядок
дзядоу
дзядуля
дзяды
дзякуи
дзякую
дзякуючы
дзяленне
дзялення
дзям
дзямідаускім
дзянікіна
дзяніс
дзянісау
дзярж
дзяржава
дзяржаваи
дзяржавамі
дзяржавах
дзяржаве
дзяржаву
дзяржавы
дзяржау
дзяржауна
дзяржаунага
дзяржаунае
дзяржаунаи
дзяржаунаму
дзяржаунасці
дзяржауная
дзяржауную
дзяржауны
дзяржауным
дзяржаунымі
дзяржауных
дзяржауныя
дзяржынскага
дзяржынскі
дзяржынскім
дзярнова
дзярновіч
дзясяткау
дзясяткі
дзятлаускага
дзятлаускім
дзяучат
дзяучаты
дзяучына
дзяучынаи
дзяучынак
дзяучыне
дзяучынка
дзяучынку
дзяучынкі
дзяучыну
дзяучыны
дзяцеи
дзяцінства
дзяцінстве
дзі
дзіва
дзіды
дзіка
дзікага
дзікае
дзікаи
дзікая
дзікі
дзікім
дзікіх
дзікія
дзін
дзіна
дзіркі
дзісенск
дзісенскага
дзісна
дзісько
дзіуна
дзіуная
дзіуны
дзіуным
дзіуныя
дзіце
дзіцем
дзіця
дзіцятка
дзіцяці
дзіцяча
дзіцячага
дзіцячаи
дзіцячая
дзіцячы
дзіцячым
дзіцячых
дзіцячыя
дикорастущие
динамо
диссертации
дка
для
дмитриевич
дмитрии
дна
дне
днеи
днем
днепр
днепра
днепрапятроускаи
дни
днк
дно
дном
днр
дню
дня
днямі
дняпра
дняпро
дняпром
дняпроускага
дняпры
днястра
дні
до
доблесную
доблесць
добра
добраахвотна
добраахвотнікам
добраахвотнікау
добрага
добрае
добраи
добраупарадкаванне
добрая
добрушскага
добрушскім
добрую
добры
добрым
добрымі
добрых
добрыя
догляду
дождж
доилідства
доказ
доказам
доказау
доказы
доктар
доктара
доктарам
доктарскаи
доктарскую
доктор
доктора
документов
документы
докшыцкага
докшыцкі
докшыцкім
докшыцы
дол
долар
долара
доларау
долготович
должности
долю
доля
доляи
долі
дом
дома
домам
доме
дому
дон
дона
дональд
доне
дону
доп
дорага
дорога
дороги
досвед
досведу
доступ
доступа
доступу
досыць
досіць
дот
доуг
доуга
доугага
доугае
доугаи
доугая
доугую
доугі
доугім
доугімі
доугіх
доугія
доужылася
доужыуся
доужыцца
доунар
дочкі
дошак
дошка
дошку
дошкі
дошцы
доэрці
дпу
др
драгічынскага
драгічынскім
драздоу
дразды
драко
дракон
драма
драматург
драматурга
драматургіі
драматычнага
драматычнаи
драматычны
драматычным
драматычных
драматычныя
драме
драмы
драпежных
драпежнікау
драпежнікі
драулянага
драулянаи
драуляная
драуляную
драуляны
драуляным
драулянымі
драуляных
драуляныя
драуніна
драуніны
драчык
древнего
древнеи
древнеиших
древнии
древних
древностеи
древности
древняя
дробау
дробна
дробнага
дробнае
дробнаи
дробная
дробны
дробным
дробнымі
дробных
дробныя
дровы
дрозд
дроу
друг
друга
другая
другие
других
другога
другое
другои
другому
другую
другі
другім
другімі
другіх
другія
дружба
дружбы
дружна
дружына
дружыны
друк
друкавала
друкавалася
друкаваліся
друкаваных
друкаваныя
друкавау
друкавауся
друкавацца
друкаваць
друкарню
друкарня
друкарні
друку
друкуе
друкуецца
друцк
друцкі
друцкіх
друя
дрыбінскім
дрыса
дрэва
дрэваапрацоучаи
дрэвам
дрэвамі
дрэвау
дрэвах
дрэве
дрэвы
дрэздэн
дрэздэне
дрэнна
дрэннага
дрэнны
дрэу
ду
дуа
дуб
дуба
дубавец
дубль
дубля
дубовыя
дуброва
дубровенскім
дуброука
дуброуна
дубы
дубянецкі
дубільныя
дуглас
дугі
дуда
дудар
дудка
дуды
дужа
дужках
дум
дума
думае
думаеце
думаеш
думак
думала
думалі
думау
думаць
думаю
думаюць
думаючы
думе
думка
думкаи
думкамі
думках
думку
думкі
думу
думцы
думы
дунаи
дуная
дункан
дунілавіцкага
дунін
дуніна
дурань
дурны
дух
духа
духавенства
духам
духау
духаушчынскім
духоуна
духоунага
духоунае
духоунаи
духоуная
духоуную
духоуны
духоуным
духоуных
духоуныя
духу
духі
дучыц
душ
душа
душои
душою
душу
душы
дуэт
ды
дыбоускі
дывізіен
дывізіена
дывізіене
дывізіи
дывізію
дывізія
дывізіяи
дывізіі
дыега
дызаин
дызаинер
дызаинерау
дызаину
дызель
дыи
дык
дыктатуры
дым
дымоу
дыму
дынама
дынаміка
дынамікі
дынастыи
дынастыю
дынастыя
дынастыяи
дынастыі
дыпламат
дыпламатычнаи
дыпламатычных
дыпламатычныя
дыплом
дыпломам
дырыжор
дырэктар
дырэктара
дырэктарам
дырэктарау
дырэктывы
дырэкцыі
дысертацыи
дысертацыю
дысертацыя
дысертацыі
дыск
дыска
дыскау
дыскрымінацыі
дыску
дыскусіи
дыскусіі
дыскі
дыслакацыі
дыстанцыях
дыстанцыі
дысцыплін
дысцыпліна
дысцыплінах
дысцыпліны
дыферэнцыяльных
дыханне
дыхання
дыягностыкі
дыялект
дыялектау
дыялектах
дыялекту
дыялекты
дыялекце
дыялог
дыялогу
дыяметр
дыяметра
дыяметрам
дыяметры
дыяна
дыяпазон
дыяпазоне
дыяпазону
дыяспара
дыяспары
дыяцэзія
дыяцэзіі
дэ
дэбют
дэбютавала
дэбютавау
дэбютны
дэвід
дэвіда
дэвіз
дэвізам
дэвіс
дэвіса
дэга
дэи
дэил
дэкан
дэкана
дэканам
дэканат
дэканата
дэкаратыуна
дэкаратыунага
дэкаратыунаи
дэкаратыуная
дэкаратыуны
дэкаратыуным
дэкаратыунымі
дэкаратыуных
дэкаратыуныя
дэкарацыі
дэкарыраваны
дэкларацыю
дэкларацыя
дэкларацыі
дэкор
дэкору
дэкрэт
дэкрэтам
дэла
дэлегат
дэлегатам
дэлегатау
дэлегаты
дэлегацыю
дэлегацыя
дэлегацыі
дэль
дэльта
дэльты
дэльце
дэлі
дэмабілізаваны
дэмабілізацыі
дэмакратау
дэмакраты
дэмакратычнага
дэмакратычнаи
дэмакратычная
дэмакратычную
дэмакратычны
дэмакратычных
дэмакратычныя
дэмакратыю
дэмакратыя
дэмакратыі
дэманстрантау
дэманстрацыя
дэманстрацыі
дэманструе
дэн
дэні
дэпартамент
дэпартамента
дэпартаментау
дэпартаменце
дэпартацыі
дэпо
дэпрэсіі
дэпутат
дэпутата
дэпутатам
дэпутатамі
дэпутатау
дэпутаты
дэр
дэрбі
дэсант
дэсантнаи
дэталеи
дэталяу
дэталі
дэфіцыт
дюсш
е
ева
евангелле
евангелля
евангеллях
евангеллі
евангелістау
евгении
европа
европеискои
европы
евіч
еган
его
егу
егіпет
егіпецкага
егіпецкаи
егіпецкі
егіпецкіх
егіпецкія
егіпта
егіптам
егіпце
едзе
единиц
еду
едуць
ее
ежа
ежаи
ежу
ежы
езд
езда
ездам
ездау
ездзе
ездзіу
ездзіць
езду
езды
езна
езнаи
езную
езны
езным
езных
езныя
езуса
езуітау
езуіты
езуіцкага
езуіцкаи
езуіцкі
езуіцкім
езуіцкіх
езэф
еи
екатеринбург
ект
екта
ектам
ектамі
ектау
ектах
екты
ела
елена
елка
елкі
ельнінска
ельнінскім
ельскага
ельского
ельскі
ельскім
елі
елізавета
елізаветы
ем
емам
емау
еме
емена
емна
емнаи
емонт
ему
емы
емістасць
ен
ена
енциклопедія
епархии
епархія
епархіі
епіскап
епіскапа
епіскапам
епіскапау
епіскапы
ер
ера
ерам
ерау
ереван
ерк
ерка
ерку
ермаловіч
еру
ерш
еры
ерэван
ерэвана
ерэване
ес
еса
есе
если
ест
естли
естъ
есть
есу
есць
есці
есы
есьць
етн
етнам
етнама
етнаме
етнамскаи
етра
еу
еука
еуна
еура
еурабачанне
еурабачання
еурабачанні
еуразіі
еурапарламента
еурапеискага
еурапеискае
еурапеискаи
еурапеиская
еурапеискую
еурапеискі
еурапеискім
еурапеискімі
еурапеискіх
еурапеискія
еурапеицамі
еурапеицау
еурапеицы
еурарадые
еурасаюза
еуропа
еуропаи
еуропе
еуропу
еуропы
еускага
еуфрасінні
ефрасінні
ефрон
ефрона
ехала
ехалі
ехау
ехаць
ецца
еш
ешчэ
еще
ею
ж
жа
жаб
жаба
жабы
жабінкаускім
жадае
жадалі
жаданне
жаданнем
жадання
жаданні
жадау
жадаюць
жадаючы
жазеф
жазэ
жак
жака
жакевіч
жалеза
жалезабетонных
жалезнага
жалезнаи
жалезная
жалезны
жалезным
жалезных
жалезныя
жаль
жалю
жамоицкага
жамоицкі
жамоиць
жамоиці
жан
жана
жанаты
жанеира
жанна
жаночага
жаночае
жаночаи
жаночая
жаночую
жаночы
жаночым
жаночых
жаночыя
жанр
жанрау
жанрах
жанру
жанры
жанчын
жанчына
жанчынаи
жанчынам
жанчынамі
жанчыне
жанчыну
жанчыны
жанэира
жаніуся
жаніх
жаніха
жаніцца
жар
жарт
жарты
жаунерау
жаунеры
жаутавата
жах
жахау
жаху
ждановіч
же
железнодорожные
женщинах
животных
жизни
жизнь
жлобін
жлобінскага
жлобінскім
жн
жнівень
жніуня
жніуні
жодзіна
жонак
жонду
жонка
жонкаи
жонкаю
жонку
жонкі
жонцы
жорж
жорстка
жорсткага
жорсткае
жорсткаи
жорсткасці
жорсткі
жорсткім
жорсткіх
жорсткія
жоута
жоутага
жоутаи
жоутая
жоуты
жоутым
жоутымі
жоутых
жоутыя
жуан
жуана
жук
жука
жукава
жукау
жукоу
жукоускі
жукі
журавель
журнал
журнала
журналіст
журналіста
журналістам
журналістау
журналістка
журналісты
журналістыкі
журы
жъ
жы
жыва
жывапіс
жывапісам
жывапісе
жывапісец
жывапісу
жывапісца
жывая
жыве
жывел
жывела
жывелагадоуля
жывелагадоуляи
жывелагадоулі
жывеламі
жывелу
жывелы
жывельнага
жывельны
жывем
жывога
жывое
жывои
жывот
жыву
жывуць
жывучы
жывую
жывы
жывым
жывымі
жывых
жывыя
жыгімонт
жыгімонта
жыгімонтам
жыдоу
жыды
жыла
жылле
жыллева
жылля
жыло
жылога
жылы
жылым
жылымі
жылых
жылыя
жылі
жыркоускім
жыта
жыткавіцкага
жыткавіцкім
жыткавічы
жытла
жытло
жытлы
жытомірскаи
жыу
жыуленне
жых
жыхар
жыхара
жыхарам
жыхарамі
жыхарау
жыхароу
жыхарства
жыхары
жыцце
жыццеваи
жыццевы
жыццевых
жыццем
жыццю
жыцця
жыццядзеинасці
жыцці
жыць
жыцьце
жыцьцем
жыцьця
жыцьці
жэ
жэневе
жінок
з
за
заалогіі
заапарк
заб
забавы
забалацце
забалочанаи
забалочаная
забалочаных
забалочаныя
забараняе
забаранялася
забаранілі
забараніу
забарона
забароне
забаронена
забаронены
забароненыя
забарону
забароны
забастоука
забастоукі
забеспячэнне
забеспячэннем
забеспячэння
забеспячэнні
забоиства
забоиствам
забоиствау
забоистве
забоиствы
забоица
забоицы
забор
забрала
забралі
забрау
забраць
забруджвання
забудавана
забудаванаи
забудова
забудову
забудовы
забыліся
забыты
забыуся
забяспечвае
забяспечваецца
забяспечвала
забяспечвалі
забяспечвау
забяспечваць
забяспечваюць
забяспечыла
забяспечыу
забяспечыць
забівае
забівалі
забіваць
забіваюць
забіла
забілі
забірае
забіта
забітага
забіты
забітымі
забітых
забітыя
забіу
забіушы
забіць
заваевы
завальнюк
заваявала
заваявалі
заваявана
заваяванне
заваявання
заваяваны
заваяваных
заваявау
заваяваць
заве
завершана
завершаная
завершаны
завершаным
завеу
завецца
завод
завода
заводам
заводау
заводах
заводзе
заводу
заводы
завочна
завулак
завулка
завулку
завуцца
завуць
завяршае
завяршаецца
завяршыла
завяршылася
завяршыліся
завяршыу
завяршыуся
завяршыць
завяршэнне
завяршэннем
завяршэння
завяршэнні
завіша
загаварыу
загад
загадала
загадам
загадана
загадау
загадвае
загадвау
загадзе
загадзя
загадкі
загаду
загадчык
загадчыка
загадчыкам
загады
загаловак
загл
загор
заграб
загрузіць
загубілі
загінула
загінулым
загінулых
загінулі
загінуу
загінуушым
загінуушых
задавальненне
задавальнення
задаволены
заданне
заданняу
заданні
задаць
задач
задача
задачаи
задачамі
задачу
задачы
задняга
задняи
задняя
задні
заднім
задніх
заднія
задоуга
задума
задумы
задушана
зазвычаи
заимае
заимаецца
заимала
заималася
заималі
заималіся
заимау
заимауся
заимацца
заимаць
заимаюцца
заимаюць
заимаючы
заимаючыся
заисці
заицау
заишоу
заказ
заказау
заказнік
заказніка
заканадауства
заканадауствам
заканадаустве
заканадаучага
заканадаучаи
заканадаучая
заканадаучы
заканадаучых
заканадаучыя
заканамернасці
заканчваецца
заканчэнне
заканчэння
заканчэнні
закарпацкаи
заклад
закладзена
закладзены
заклау
заключаецца
заключалася
заключана
заключаны
заключылі
заключыу
заключыць
заключэнне
заключэння
заключэнні
заклік
заклікае
заклікала
заклікалі
заклікам
закліканы
заклікау
заклікі
закон
закона
законам
законамі
законапраект
законау
законах
законе
законным
законов
закону
закончыу
законы
закрыта
закрыты
закрытым
закрыцце
закрыцця
закрычау
зал
зала
залаи
залатая
залатога
залатое
залатои
залатую
залаты
залатым
залатымі
залатых
залатыя
залау
залах
зале
залежала
залежаць
залежнасць
залежнасці
залежнасьці
залежыць
залескага
залессе
залесскии
залоз
залозы
залу
залы
залі
заліва
залівам
заліве
заліку
заліу
залічаны
замак
замах
замаху
замацавалася
замацавана
замацаваны
замацавауся
замацавацца
замежжа
замежнага
замежнаи
замежная
замежны
замежным
замежнымі
замежных
замежныя
замежнікау
замена
заменена
заменены
замену
замены
замест
замка
замкаваи
замкавая
замкавы
замкам
замкау
замку
замкі
замове
заможных
замок
замошша
замуж
замужам
замчышча
замяніла
замянілі
замяніу
замяніушы
замяніць
замярзае
занадта
занесена
занесены
заняла
занялі
заняпад
заняпаду
занята
занятак
занятасці
занятая
заняткам
заняткамі
заняткау
заняткі
заняты
занятых
занятыя
заняу
заняуся
заняушы
заняцца
заняцця
заняць
заолаг
зап
запаведнік
запаведніка
запавет
запавету
запавеце
западно
западнои
запазычаны
запаленне
запар
запарожскаи
запас
запасау
запасе
запасных
запасу
запасы
запатрабавала
запатрабавалі
запатрабавау
записки
запланаваны
заплатити
заплаціць
заполле
запольскага
запольскі
запрасілі
запрасіу
запрауды
запрашэнне
запрашэнні
запрошаны
запуск
запуску
запушчаны
запыт
запытала
запытанне
запытау
запытауся
запіс
запісала
запісалі
запісам
запісана
запісаны
запісаныя
запісау
запісах
запісаць
запісваецца
запісе
запіскі
запісу
запісы
зара
зарабіу
зарад
зарада
зарадау
зараду
заражэння
зараз
зараснікі
зарастае
заручыны
зары
зарэгістравана
зарэгістраваны
зарэгістраваных
зарэгістраваныя
зарэчча
заря
засаду
заселена
заселены
заслауе
заслаускага
заслуг
заслугі
заслужанага
заслужаная
заслужаны
засмяяуся
заснавала
заснавальнік
заснавальніка
заснавальнікам
заснавальнікамі
заснавальнікау
заснавальнікі
заснавалі
заснавана
заснаванага
заснаванае
заснаванаи
заснаваная
заснаванне
заснавання
заснаванні
заснаваную
заснаваны
заснаваных
заснаваныя
заснавау
заснаваць
заснуу
застава
заставалася
заставаліся
заставауся
заставацца
застаецца
засталася
засталося
засталіся
застанецца
застаука
застауся
застаушыся
застацца
застаюцца
застаючыся
заступнік
заступніка
заступнікам
заступніцтва
засценак
засяленне
засялялі
зат
затое
затрымалі
затрымання
затрыманні
затрыманы
затрыманых
затрыманыя
затрымаць
затым
заувага
заувагі
зауважае
зауважаны
зауважыла
зауважылі
зауважыу
зауважыць
заужды
зауседы
заутра
зафіксавана
зафіксаваны
зах
захавала
захавалася
захавалі
захаваліся
захаванне
захаваннем
захавання
захаванні
захаваны
захаваных
захаваныя
захавау
захавауся
захаваушы
захаваць
захад
захадам
захадзе
захаду
захады
захапленне
захапленнем
захапленні
захапляуся
захапіла
захапілі
захапіу
захапіуся
захапіушы
захапіць
захар
захарау
захацелася
захацеу
захварэу
захворванне
захворвання
захворванняу
захворваннях
захворванні
заход
заходзіць
заходне
заходнееурапеискіх
заходнепаморскага
заходнюю
заходняга
заходняе
заходняи
заходняя
заходні
заходнім
заходнімі
заходніх
заходнія
заходу
захоп
захопе
захоплена
захоплены
захопленых
захопленыя
захопнікамі
захопнікау
захопу
захоувае
захоуваецца
захоувала
захоувалася
захоувалі
захоуваліся
захоуванне
захоування
захоувау
захоувауся
захоуваць
захоуваюцца
захоуваюць
захоуваючы
захоча
зацверджана
зацверджаны
зацвердзіла
зацвердзіу
зацвярджэнне
зацвярджэння
зацвярджэнні
зацьменне
зацьменнем
зацьмення
зацьменняу
зацьменні
зацікавіуся
зацікаулены
зачацця
зачынена
зачынены
зачынілі
защитник
заява
заяваи
заяве
заяву
заявы
заявіла
заявілі
заявіу
заявіушы
заяуку
заяуляе
заяуляу
заяц
зб
збавіцеля
збег
збегчы
збліжэнне
збліжэння
зблізіуся
збожжа
збожжавых
збожжавыя
збоку
збольшага
збор
зборам
зборау
зборах
зборкі
зборнаи
зборная
зборную
зборных
зборныя
зборнік
зборніка
зборнікау
зборніках
зборніку
зборнікі
збору
зборы
зброю
зброя
зброяи
зброі
збудавалі
збудавана
збудаванне
збудавання
збудаванняу
збудаванні
збудаваны
збудавау
збігнеу
збілі
збірае
збіраецца
збіралася
збіральніцтва
збіралі
збіраліся
збірау
збірауся
збірацца
збіраць
збіраюцца
збіраюць
збіты
збіу
збіцця
зв
зважаючы
звалася
звальнення
звалі
зваліся
зваліуся
званага
званае
званаи
званая
звания
званне
званнем
звання
званняу
званні
званок
званую
званы
званым
званых
званыя
званіца
званіцаи
званіцы
звар
зварот
зваротам
зваротны
зваротным
звароту
звароты
звароце
звауся
звацца
зваць
зведала
звезда
звезды
звер
звера
зверху
звестак
звесткамі
звестках
звесткі
звольнены
звон
звонку
звычаи
звычаина
звычаинага
звычаинае
звычаинаи
звычаиная
звычаиную
звычаины
звычаиным
звычаинымі
звычаиных
звычаиныя
звычаю
звычаяу
звычаі
звыш
звязана
звязанаи
звязаная
звязаны
звязаных
звязаныя
звязаць
звязвае
звязваецца
звязваюць
звязда
звяна
звяржэння
звярнулася
звярнуліся
звярнуу
звярнууся
звярнуцца
звярнуць
звяроу
звяртаецца
звярталіся
звяртауся
звяртацца
звілістае
звілістая
згаданы
згадвае
згадваецца
згадванне
згадваюцца
згаджаецца
згадзіуся
згадзіцца
згадка
згадкі
згарання
згарэла
згарэу
згода
згодзе
згодзен
згодна
згодны
згоду
згоды
згубіу
згуляла
згуляу
згуляушы
згуляць
згуртаванне
згуртавання
здабывалі
здабываюць
здабыла
здабытак
здабытку
здабыу
здабыцця
здабыць
здабыча
здабычаи
здабычу
здабычы
здавалася
здавауся
здавацца
здагадка
здагадку
здагадкі
здаецца
здалек
здалеку
здалося
здаліся
здановіч
здаралася
здараюцца
здаровага
здаровы
здароу
здароуе
здароуем
здароуя
здарылася
здарыуся
здарыцца
здарэнне
здарэння
здарэнні
здау
здауна
здауся
здацца
здаць
здачы
здзеиснена
здзеиснены
здзеисніла
здзеиснілі
здзеисніу
здзеисніць
здзяиснення
здзяисненні
здзяисняе
здзяисняецца
здзяиснялі
здзяисняць
здзівіуся
здзіуленне
здолела
здолелі
здолеу
здольнасць
здольнасцю
здольнасці
здольная
здольны
здольных
здольныя
здрадзе
здраду
здрады
здымаецца
здымак
здымауся
здымкау
здымках
здымкі
зеландыя
зеландыі
зелинскии
зелянюк
земле
землетрасенне
землетрасення
землеуладальнікау
земли
землю
земля
землякам
землякоу
землямі
земляробства
земляробствам
земляу
землях
землі
земнаводных
земскага
земскі
земскіх
земскія
зеніт
зерне
зеуса
ззаду
зла
злавіць
злачынства
злачынствау
злачынствах
злачынствы
злачынцау
злева
злегку
зледзянення
зло
злодзеи
злосна
злосць
злосці
злотых
злучае
злучаецца
злучана
злучанага
злучаны
злучаным
злучаных
злучаныя
злучаюцца
злучаюць
злучылася
злучыць
злучэнне
злучэння
злучэнняу
злучэнні
злы
злых
зліваюцца
зліцце
зліцця
зліцці
злічэння
зм
змагаецца
змагалася
змагаліся
змаганне
змагання
змаганні
змаганьне
змаганьня
змагауся
змагацца
змагаюцца
змагла
змаглі
змачинская
змеи
змен
змена
зменаи
зменамі
зменау
змене
зменена
зменены
зменнаи
змену
зменшылася
змены
змест
зместам
зместу
змесціва
змешаных
змешчана
змешчаны
змешчаныя
змеі
змова
змове
змову
змовы
змог
змогуць
зможа
змрок
змроку
змушаны
змяненне
змянення
змяненняу
змяненні
змяншаецца
змяншэння
змяняе
змяняецца
змянялася
змяняцца
змяняць
змяняюцца
змяніла
змянілася
змянілі
змяніліся
змяніу
змяніуся
змяніушы
змяніць
змясціу
змяшчае
змяшчаецца
змяшчала
змяшчаліся
змяшчау
змяшчаюцца
змяшчаюць
змяя
змітрок
зміцер
зн
знае
знаемства
знаемы
знаемых
знаемыя
знаеміцца
знаисці
знаисьці
знаишла
знаишлі
знаишоу
знаишоушы
знак
знака
знакам
знакамі
знакамітага
знакамітаи
знакамітая
знакаміты
знакамітым
знакамітых
знакамітыя
знакау
знаку
знакі
знамя
знание
знау
знаходак
знаходжанне
знаходжання
знаходзяцца
знаходзяць
знаходзячыся
знаходзілася
знаходзілі
знаходзіліся
знаходзім
знаходзіу
знаходзіуся
знаходзіцца
знаходзіць
знаходка
знаходкі
знаць
знаці
знача
значна
значнага
значнае
значнаи
значнасць
значнасці
значная
значную
значны
значным
значнымі
значных
значныя
значыла
значыцца
значыць
значэнне
значэннем
значэння
значэнняу
значэнні
значэньне
значэньня
знаю
знесены
знешне
знешнюю
знешняга
знешняи
знешняя
знешні
знешнім
знешніх
знешнія
зноидзе
зноидзена
зноидзены
зноидзеных
зноидзеныя
зносках
зносін
зносінах
зносіны
зноу
знутры
зняволенне
зняволення
зняволенні
зняволены
зняволеных
знялася
знялі
знята
зняты
знятыя
зняу
зняуся
зняцця
зняць
зніжаецца
зніжэнне
зніжэння
знізу
знізілася
знік
знікае
знікаюць
знікла
зніклі
знікненне
знікнення
знішчальнік
знішчальнікау
знішчальнікі
знішчана
знішчаны
знішчыла
знішчылі
знішчыу
знішчыушы
знішчыць
знішчэнне
знішчэння
знішчэнні
зо
золата
золатам
зон
зона
зонаи
зонах
зоне
зону
зоны
зор
зорак
зорка
зоркаи
зоркамі
зорку
зоркі
зорнага
зорнаи
зорная
зорны
зорных
зорныя
зоры
зоська
зосю
зося
зосі
зоя
зраблю
зрабіла
зрабілася
зрабілі
зрабіліся
зрабіу
зрабіуся
зрабіушы
зрабіць
зразу
зразумела
зразумелі
зразумеу
зразумець
зрауняу
зроблена
зробленая
зроблены
зробленых
зробленыя
зробім
зробіць
зробіш
зрок
зроку
зруб
зруинаваны
зрушэнне
зрынуты
зрэдку
зрэшты
зуб
зубамі
зубоу
зубр
зубра
зубы
зусім
зша
зъ
зыгмунт
зыход
зыходзячы
зыходзіць
зыходу
зычных
зычныя
зь
зьвязаны
зьезд
зьезду
зьмест
зьместу
зьявілася
зьявіліся
зьявіуся
зьяуляецца
зьяуляюцца
зэльвенскім
зяленага
зяленае
зяленаи
зяленая
зялены
зяленым
зяленымі
зяленых
зяленыя
зямель
зямельнага
зямельнаи
зямельны
зямельных
зямельныя
зямлеи
зямлею
зямлю
зямля
зямлі
зямнога
зямнои
зямным
зямных
зянон
зяць
зіл
зіма
зімбабвэ
зімовага
зімоваи
зімовы
зімовых
зімовыя
зімои
зімою
зіму
зімуе
зімуюць
зімы
зінаіда
зірнуу
и
иа
иас
иван
ивана
иванов
иванович
иг
игорь
игрока
игроками
игроков
игроком
игры
идзе
идуць
иеговы
иж
ижъ
из
избрания
избранные
известия
известно
изд
издание
издании
издания
издательскии
издательство
изменении
изменениях
икі
ил
или
илл
иллюстрированная
иллюстрированныи
илья
им
имена
имени
именье
именья
империи
имъ
имя
ин
инглот
иностранных
институт
института
интервью
интернет
интерфакс
информации
информационныи
информация
иорк
иосиф
ираке
ирина
искусств
искусства
искусство
искі
ислочь
исполнительного
использование
испр
исследование
исследовании
исследования
ист
истории
историко
историческая
исторические
историческии
исторических
историю
история
итоги
их
ихъ
ишчэ
июля
июня
к
ка
кааліцыю
кааліцыя
кааліцыі
кааперацыі
каардынат
каардынатамі
каардынаты
каардынацыі
каб
каба
кабінет
кабінета
кабінеце
кабіны
кава
кавалак
кавалева
кавалер
кавалеры
кавалерыискага
кавалерыискаи
кавалерыискі
кавалерыя
кавалерыі
кавалеу
кавалкау
кавалкі
каваль
кавалі
кавер
кавы
каго
кадастр
кадафі
каддафи
кадрау
кадры
кадэнцыя
кадэты
кадэцкі
кае
кажа
кажаш
кажу
кажух
кажуць
кажучы
кажы
каз
каза
казак
казакамі
казакоу
казакі
казала
казалі
казанскага
казанскаи
казанскі
казань
казані
казармы
казау
казахскаи
казахстан
казахстана
казахстане
казахстанскаи
казацкага
казацтва
казаць
казка
казку
казкі
казлова
казлоу
казлоускі
казну
казны
казімір
казіміра
казімірам
казіно
каи
каизераускаи
как
какава
кал
каланізацыі
каланістамі
каланістау
каланісты
каланіяльнаи
каланіяльных
каланіяльныя
каларада
каласоускі
каласы
калгас
калгаса
калгасау
калгасе
калгасу
калгасы
кале
калег
калегамі
калегі
калегіум
калегіума
калегіуме
калегія
калегіяи
калегіі
каледж
каледжа
каледжы
калектыва
калектывам
калектывау
калектыве
калектыву
калектывы
калектывізацыі
калектыу
калектыунаи
калектыуных
калекцыи
калекцыю
калекцыя
калекцыянер
калекцыях
калекцыі
калена
календа
календара
календары
календарь
калені
кало
калодзеж
калон
калона
калонамі
калоны
калоніи
калонію
калонія
калоніяи
калоніямі
калоніях
калоніі
калужскаи
калумб
калумбія
калумбіі
калчак
калчака
кальца
кальцо
кальцыю
каля
каляды
каляндар
каляровага
каляроваи
каляровая
каляровых
каляровыя
каляіны
калі
калібра
калідор
калідоры
каліна
калінкавіцкага
калінкавіцкім
калінкавічы
каліноускага
каліноускі
калініна
калінінградскаи
калінінскаи
калісь
калісьці
каліфарніискім
каліфорнія
каліфорніі
кам
каманд
каманда
камандаванне
камандаваннем
камандаванню
камандавання
камандавау
камандаи
камандамі
камандзе
камандзір
камандзіра
камандзірам
камандзірау
камандзіры
каманднага
камандны
камандным
камандных
камандор
каманду
камандуючага
камандуючы
камандуючым
каманды
камароу
камбоджы
камбінат
камбіната
камбінацыі
камедыя
камедыі
камендант
каменданта
каменем
каменка
каменнага
каменнаи
каменная
каменны
каменным
каменнымі
каменных
каменныя
каменскага
каменскі
камент
каментары
каментарыі
камень
каменю
каменя
камені
камер
камера
камеру
камерун
камерцыинага
камерцыинаи
камерцыины
камерцыиных
камерцыиныя
камеры
каметы
камп
кампазітар
кампазітара
кампазітарам
кампазітарау
кампазіцыи
кампазіцыю
кампазіцыя
кампазіцыяи
кампазіцыі
кампакт
кампактная
кампанент
кампанентау
кампаненты
кампаніи
кампанію
кампанія
кампаніяи
кампаніямі
кампаніі
кампартыі
кампенсацыю
кампенсацыі
кампетэнцыі
камплект
кампус
камсамола
камсамольскаи
камсамольская
каму
камун
камуна
камунальнага
камунальнаи
камуне
камуны
камунізму
камунікацыи
камунікацыі
камуністамі
камуністау
камуністы
камуністычнага
камуністычнаи
камуністычная
камуністычную
камуністычны
камуністычных
камянеу
камянец
камянецкага
камянецкім
камянямі
камяні
камяністых
камяніца
камісар
камісара
камісарам
камісарау
камісарыят
камісарыята
камісіи
камісію
камісія
камісіяи
камісіі
камітэт
камітэта
камітэтам
камітэтау
камітэту
камітэты
камітэце
кан
канада
канадзе
канадзец
канадскага
канадскаи
канадская
канадскі
канаду
канады
канал
канала
каналам
каналамі
каналау
канале
каналы
каналізаванае
каналізаваная
кананічнага
канвенцыя
канвенцыі
канверт
канвои
канвою
кангрэгацыя
кангрэгацыі
кангрэс
кангрэса
кангрэсам
кангрэсе
кангрэсу
канд
кандзі
кандидата
кандрат
кандрусевіч
кандыдат
кандыдата
кандыдатам
кандыдатау
кандыдатуру
кандыдатуры
кандыдаты
кандыдацкую
кандыдацкіх
канектыкут
канец
канечнасці
канзас
канкрэтнага
канкрэтнаи
канкрэтных
канкурэнцыі
канон
каноэ
кансель
кансерватарау
кансерваторыю
кансерваторыі
кансерватыунаи
канскага
кансолі
канстанцыя
канстанцін
канстанціна
канстанцінавіч
канстанцінам
канстанцінопаль
канстанцінопальскага
канстанцінопальскі
канстанцінопаля
канстанцінопалі
канструктар
канструкцыи
канструкцыю
канструкцыя
канструкцыі
канстытуцыинага
канстытуцыинаи
канстытуцыины
канстытуцыю
канстытуцыя
канстытуцыяи
канстытуцыі
кансультант
кансультантам
кансультацыі
кансі
кант
кантакт
кантактау
кантакту
кантакты
кантакце
кантата
канто
кантон
кантона
кантонау
канторы
кантракт
кантракта
кантралюе
кантралюецца
кантралявала
кантралявалі
кантралявау
кантраляваць
кантролем
кантроль
кантролю
кантры
кантынгент
кантынгенту
кантынент
кантынента
кантынентальнага
кантынентальнаи
кантынентальны
кантыненце
кантэкст
кантэксце
канф
канфедэрацыя
канфедэрацыі
канферэнцыи
канферэнцыю
канферэнцыя
канферэнцыях
канферэнцыі
канфесіи
канфлікт
канфліктау
канфлікту
канфлікты
канфлікце
канфігурацыі
канфіскаваны
канфіскацыі
канца
канцамі
канцах
канцлагер
канцлер
канцлера
канцлерам
канцом
канцоу
канцу
канцы
канцылярыя
канцылярыі
канцэнтрацыя
канцэнтрацыі
канцэпцыю
канцэпцыя
канцэпцыі
канцэрн
канцэрна
канцэрт
канцэрта
канцэртау
канцэртах
канцэртнаи
канцэртная
канцэртны
канцэрты
канцэрце
канці
канчаецца
канчатак
канчаткова
канчатковага
канчатковае
канчатковаи
канчатковы
канчатковым
канюшына
каня
кані
кап
капеек
капенгаген
капенгагене
каперніка
капліца
капліцу
капліцы
капуста
капусты
капылова
капылоу
капыль
капыльскага
капыльскім
капэла
капэлы
капялюш
капітал
капіталу
капіталізму
капітан
капітана
капітанам
капітуляцыі
кар
кара
карабах
карабаха
карабахскаи
карабаху
карабель
караблеу
карабля
караблях
караблі
карагандзінскаи
каралева
каралеваи
каралеву
каралевы
каралем
каралеу
каралеускага
каралеускае
каралеускаи
каралеуская
каралеускую
каралеускі
каралеускім
каралеускіх
каралеускія
каралеуства
каралеуствам
каралеуствау
каралеустве
караль
каралю
караля
каралямі
каралі
караліна
караліны
каранаваны
каранацыя
каранацыі
каранеу
каранямі
карані
карась
караткевіч
караткевіча
карацеи
карачы
кардымаускім
кардынал
кардынала
кардыналам
кардыналау
карл
карла
карлам
карлас
карлсруэ
карлу
карлюкевіч
карма
кармавых
кармавыя
кармелітау
кармэн
кармянскім
карміць
карніз
карнізам
карнізамі
карнікі
карнілава
каробачка
каробка
карова
каровы
карои
кароль
карона
каронаи
кароне
кароннага
каронны
карону
кароны
кароткага
кароткае
кароткаи
кароткаметражны
кароткая
кароткі
кароткім
кароткімі
кароткіх
кароткія
кароу
карпарацыя
карпарацыі
карпат
карпатах
карпаты
карпачева
карпусоу
карпусы
карскага
карскі
карт
карта
картатэцы
картах
картка
картку
картографа
карту
карты
картэр
картэс
картэса
кару
карупцыі
карце
карцін
карціна
карцінаи
карцінах
карціне
карцінная
карціну
карціны
карчма
карчме
карчмы
кары
карыбскага
карыбскім
карызна
карын
карынтыі
карыснаи
карысных
карысныя
карыстаецца
карысталася
карыстальніка
карыстальнікам
карыстальнікау
карыстальнікі
карысталіся
карыстанне
карыстання
карыстауся
карыстацца
карыстаюцца
карыстаючыся
карысць
карысці
карысьць
карычнева
карычневага
карычневая
карычневы
карычневыя
карьеру
карэискаи
карэліцкага
карэліцкім
карэлія
карэліі
карэннага
карэннае
карэнных
карэнныя
карэнішча
карэнішчам
карэспандэнт
карэспандэнтам
карэя
карэі
каса
касманаут
касманаутау
касмічнага
касмічнаи
касмічная
касмічны
касмічным
касмічных
касмічныя
каспар
каспара
каспіискага
кастр
кастра
кастрычнік
кастрычніка
кастрычніку
кастрычніцкага
кастрычніцкаи
кастрычніцкая
кастусь
кастуся
кастыліі
касу
касцеи
касцел
касцела
касцелам
касцелау
касцеле
касцелу
касцелы
касцюк
касцюковіцкага
касцюковіцкім
касцюм
касцюма
касцюмы
касцюшка
касцюшкі
касы
касьцел
касіні
кат
ката
катаванняу
катал
каталог
каталога
каталогу
каталоніі
каталік
каталікамі
каталікоу
каталікі
каталіцкага
каталіцкае
каталіцкаи
каталіцкая
каталіцкую
каталіцкі
каталіцкім
каталіцкіх
каталіцкія
каталіцтва
каталіцызм
катар
катарына
катастрофа
катастрофы
катлавіна
катлавіны
като
католікау
каторага
каторае
катораи
каторая
каторую
каторы
каторые
каторым
каторых
каторыя
каты
катынь
катэгарычна
катэгорыи
катэгорыю
катэгорыя
катэгорыях
катэгорыі
катэнарыя
катэхізіс
кау
кауказ
кауказа
кауказе
кауказскага
кауказскаи
кауказскі
каунас
каунасе
кафедра
кафедраи
кафедральнага
кафедральны
кафедральным
кафедрау
кафедру
кафедры
кафэ
каханаи
каханне
кахання
каханоускі
кацел
кацярына
кацярынаи
кацярыны
кашалева
кашалеускага
кашалеуская
кашалеускім
каштавала
кашталян
кашталяна
каштоунасцеи
каштоунасць
каштоунасцяу
каштоунасці
каштоуны
каштоунымі
каштоуных
каштоуныя
кашулю
кашулі
кашы
каэфіцыент
кая
каяловіч
каір
каіры
кб
кв
квадрат
квадрата
квадратны
квадратных
кваліфікацыинага
кваліфікацыины
кваліфікацыиным
кваліфікацыю
кваліфікацыя
кваліфікацыі
квантаваи
квантавая
квартал
квартала
кварталау
квартале
кварталы
кватэр
кватэра
кватэру
кватэры
квебек
кветак
кветка
кветкавая
кветкавых
кветкавыя
кветкамі
кветку
кветкі
квт
квіслінг
кг
кгды
кдб
ке
кевін
кеистута
кеит
кеитылін
кельн
кембрыджы
кемераускаи
кен
кенэдзі
кеніі
кепска
кераміка
керамікі
киев
кино
кинопоиск
кирилла
киселева
киселевскии
киів
кк
кл
клавішныя
кладбище
клапаціцца
кларк
клас
класа
класау
класах
класе
классических
классическои
класу
класы
класік
класіка
класікі
класіфікацыя
класіфікацыі
класіцызму
класічнага
класічнаи
класічная
класічную
класічны
класічным
класічных
класічныя
клаудзіи
клаудзія
клаус
клеин
клен
клетак
клетка
клетках
клетку
клеткі
клетцы
клецк
клецкага
клецкі
клецкім
клод
клопат
клопату
клуб
клуба
клубам
клубау
клубах
клубе
клубу
клубы
ключ
ключа
ключавых
ключом
ключоу
ключы
клясы
кляштар
кляштара
кляштары
кліент
кліентау
клімавіцкага
клімавіцкім
клімат
кліматам
клімату
кліматычных
клімау
клімаускім
клімент
клімента
клінцоускаи
клінікі
клінічнаи
клінічная
кліп
кліч
кліча
клічаускім
клічуць
км
кмд
кмк
кн
кндр
книг
книга
книги
книжка
кнр
кнуда
княгіня
княгіні
княжацкага
княжацкі
княжества
князем
князеу
князь
князю
князя
князям
князямі
князі
княства
княствам
княствау
княстве
княствы
кніг
кніга
кнігадрукавання
кнігазбор
кнігаи
кнігамі
кнігах
кнігу
кнігі
кніжак
кніжка
кніжку
кніжкі
кніжнаи
кніжная
кніжны
кнізе
ко
кобрын
кобрынскага
кобрынскі
кобрынскім
ковель
ковенскаи
когда
кого
код
кода
коды
кодэкс
кодэкса
кодэксу
кожнага
кожнае
кожнаи
кожнаму
кожная
кожную
кожны
кожным
кожныя
коз
кол
кола
колам
коламі
колас
коласа
колау
колах
коле
колер
колерам
колерамі
колерау
колеру
колеры
колечы
коли
колл
коллегии
коллегия
колы
кольвекъ
колькасна
колькасць
колькасцю
колькасцях
колькасці
колькасьць
колькі
кольца
кольцападобнае
кольцау
кольцы
коля
колішняга
колішняи
колішняя
колішні
ком
кома
команды
комаров
комиссии
комитет
комитета
комментарии
коммерсантъ
компактна
комплекс
комплекса
комплексам
комплексау
комплексе
комплексным
комплексу
комплексы
комсомольская
кому
комі
коміксау
конан
конга
конеи
конкурс
конкурса
конкурсау
конкурсах
конкурсе
конкурсу
конна
конны
конрад
конрада
константин
консул
консула
консулам
консульства
контексте
контр
контракт
контракта
контракты
контратакі
контррэвалюцыинаи
конф
конференции
конференция
конца
конь
коні
коп
копіи
копію
копія
копіі
корань
кораня
коратка
корбут
корвін
корм
корму
кормяцца
корміцца
король
корпус
корпуса
корпусам
корпусе
корпусу
корсак
корсакава
коршунава
косава
космас
космасе
космасу
коста
костак
косткі
косць
косці
косцік
косы
кот
котов
которая
которого
которое
которые
которыи
которых
коуна
коуне
кошак
кошка
кошкі
кошт
коштам
коштау
кошту
кошык
кп
кпб
кпзб
кпк
кпсс
кра
кравец
крае
краеваи
краевасцю
краем
краеу
краи
краиняи
краині
краинім
кракава
кракаве
кракау
кракаускага
кракаускі
крам
крама
крамау
крамах
краме
крамля
крамы
крапіва
крапівы
крас
краса
красавік
красавіка
красавіку
краснадарскага
краснае
краснаперка
краснапольскага
краснапольскім
красная
краснаярскага
краснаярскім
краснои
красны
красныи
краснінскім
красоускі
красы
кратар
краткая
краткии
крауцэвіч
краучанка
краю
края
краявід
краявіды
краязнавец
краязнауства
краязнауца
краязнаучага
краязнаучы
краязнаучым
краях
краі
краін
краіна
краінаи
краінам
краінамі
краінах
краіне
краіну
краіны
кровазабеспячэнне
крок
крокам
крокау
кроку
крокі
крон
крона
кропак
кропка
кропкаи
кропку
кропкі
кроплі
кропцы
кроу
кру
круг
круга
круглага
круглае
круглаи
круглая
круглы
круглымі
круглых
круглыя
круглянскага
круглянскім
кругом
кругі
крузе
крук
крумкачы
крупскага
крупскі
крупскім
крус
крута
круціцца
кручэння
крушынскага
крушынскі
крушэнне
крушэння
крывавы
крывая
крывеи
крывею
крывои
крывы
крыві
крывічоу
крывічы
крыж
крыжа
крыжакамі
крыжакоу
крыжакі
крыжам
крыжамі
крыжаузвіжанская
крыжовага
крыжовы
крыжоу
крыжы
крызіс
крызісу
крык
крыкам
крыкнуу
крыкі
крыла
крыламі
крылау
крылах
крыле
крыло
крылом
крылы
крым
крыма
крыме
крымскага
крымскаи
крымскатат
крымскіх
крыму
крымінальнага
крымінальнаи
крымінальная
крымінальную
крымінальны
крымінальным
крымінальных
крыніц
крыніца
крыніцаи
крыніцамі
крыніцах
крыніцу
крыніцы
крыс
крыстафер
крысціна
крысціян
крысціяна
крыт
крыта
крытык
крытыка
крытыкавау
крытыкаи
крытыкау
крытыку
крытыкі
крытыцы
крытычна
крытычны
крытычных
крытычныя
крыуда
крыуду
крыуды
крыху
крычалі
крычау
крычаускага
крычаускім
крычаць
крычыць
крышталеу
крышталь
крышталі
крыштаф
крыштафа
крэисер
крэисеры
крэпак
крэпасць
крэпасцю
крэпасці
крэпка
крэсла
кс
ксендз
ксенія
ксяндза
ксяндзоу
кто
ку
куб
куба
кубак
кубе
кубка
кубкау
кубку
кубы
кувеит
куды
кузава
кузау
кузнецов
кузня
кузняцоу
кузьма
кузьміч
куибышава
кук
кука
кукуруза
кукурузы
кулагін
кулак
кулаком
куль
культ
культавых
культу
культур
культура
культураи
культуралогія
культурамі
культурна
культурнага
культурнае
культурнаи
культурная
культурную
культурны
культурным
культурнымі
культурных
культурныя
культуру
культуры
культывуецца
куля
кулямет
кулямета
куляметау
куляметы
куляшова
кулі
кулібін
кун
кунеа
кунцэвіч
купал
купала
купалам
купалле
купалу
купалы
купец
куплю
купляць
куплі
купца
купцоу
купцы
купэ
купіу
купіць
кур
курапаты
курган
кургана
кургане
курганны
курганоу
курганы
курдау
курорт
курс
курса
курсау
курсах
курсе
курскаи
курсу
курсы
курт
курфюрст
курфюрста
куры
курыі
курьер
курэи
куст
кустоу
кусты
кут
кутку
куток
куторга
кутузава
кухню
кухня
кухні
куце
кушаль
куяуска
кшталту
къ
кызылардзінскаи
кыргызстан
кыргызстана
кэтрын
кюры
кі
кібернетыкі
кідае
кідаецца
кідалі
кіданні
кідау
кіева
кіевам
кіеве
кіета
кіеу
кіеускага
кіеускае
кіеускаи
кіеуская
кіеускі
кіеускім
кіеускіх
кіламетр
кіламетрау
кіламетрах
кіламетры
кіль
кім
кінаакадэміі
кінакрытыкау
кінапрэміі
кінарэжысер
кінастудыі
кінатэатр
кінатэатра
кінатэатры
кінаузнагародамі
кінафестываль
кінафестывалю
кінафестывалі
кінг
кінематаграфічных
кінематаграфіі
кінематографа
кіно
кінула
кінулася
кінулі
кінуліся
кінуу
кінууся
кінуць
кінь
кіпення
кіпр
кіпра
кіпры
кір
кіра
кірава
кіравала
кіравалася
кіравалі
кіраванне
кіраваннем
кіравання
кіраванні
кіравау
кіраваць
кіраунік
кірауніка
кіраунікамі
кірауніком
кіраунікоу
кірауніку
кіраунікі
кірауніцтва
кірауніцтвам
кірауніцтве
кірауніцтву
кіраускага
кіраускаи
кіраускім
кірмаш
кірмашы
кіроуца
кіроуцы
кіруе
кіруецца
кірунак
кірункам
кірункау
кірунках
кірунку
кірункі
кіруюць
кіруючага
кіруючаи
кіруючая
кіруючы
кіруючых
кіруючыя
кірыл
кірыла
кірылавіч
кірылы
кірыліцы
кісель
кісларод
кіслароду
кіслата
кіслаты
кіслот
кіслоты
кісялеу
кіт
кіта
кітаем
кітаи
кітаискага
кітаискаи
кітаиская
кітаискі
кітаискім
кітаискіх
кітаискія
кітаицау
кітаицы
кітая
кітаі
кітоу
кішкі
кішэні
кія
л
ла
лабановіч
лабановіча
лабараторыю
лабараторыя
лабараторыяи
лабараторыі
лава
лавы
лавілі
лавіць
лагатып
лагер
лагера
лагерау
лагерах
лагеры
лагоиск
лагоискага
лагоискім
лагуна
лагчыннага
лад
ладам
ладзе
ладзілі
ладзіць
ладу
лазар
лазара
лазня
лазні
лазука
лакальных
лакаматыва
лакаматыу
лакотка
лакоткі
ламаносава
ламбардыя
ландшафт
ландшафтау
ландшафту
ландшафты
ланкі
ланцуг
ланцуга
ланцугоу
ланцугу
ланцугі
ланцэтнае
лапаткамі
лапаткі
лапці
лапы
ларсен
лары
ларыса
ларэнца
лас
ласка
ласкава
ласкавы
ласку
ласкі
ласла
ластоускага
ластоускі
лася
лат
латарынгіі
латвіискаи
латвіискі
латвію
латвія
латвіі
латино
латыні
латышонак
латышоу
латышскаи
лау
лаука
лаукі
лаура
лауры
лаурэат
лаурэата
лаурэатам
лаурэатау
лаурэнціи
лаурэнція
лаурэш
лауцы
лац
лацыа
лацінкаи
лацінкі
лацінскага
лацінскае
лацінскаи
лацінская
лацінскую
лацінскі
лацінскім
лацінскіх
лацінскія
лгбт
ле
леа
леанард
леанарда
леанід
леаніда
леанідавіч
леапольд
леапольда
лебедев
лебедзева
лебедзеу
лебедзь
лев
левага
левае
леваи
левая
левы
левым
левых
левыя
леві
левін
лег
легенд
легенда
легендарнага
легендарны
легендзе
легенды
легка
легкаатлет
легкаатлетка
легкага
легкаи
легкая
легкои
легкі
легкім
легкіх
легкія
легіен
легіена
лед
ледавік
ледавіка
ледавіковага
ледавіковых
ледавікоу
ледавікі
ледам
ледзе
ледзь
ледзьве
леду
лезненскага
лезненскім
леиб
леипцыг
леипцыгу
леитэнант
леитэнанта
лекавая
лекавых
лекавыя
лекар
лекара
лекарам
лекарау
лекарственные
лекау
лексіка
лексікі
лекции
лекцыи
лекцыя
лекцыі
лекі
лельчыцкім
лельчыцы
лемцюгова
лемцюговаи
лен
лена
лене
ленинград
лента
лену
ленін
леніна
ленінград
ленінграда
ленінградзе
ленінградскага
ленінградскаи
ленінградская
ленінградскі
ленінградскім
ленінскага
ленінскаи
ленінская
ленінскі
ленінскім
леніну
леон
леона
леонид
леонэ
лепеи
лепель
лепельскага
лепельскі
лепельскім
лепш
лепшага
лепшае
лепшаи
лепшая
лепшую
лепшы
лепшым
лепшымі
лепшых
лепшыя
лес
леса
лесам
лесвіца
лесвіцы
лесе
лесная
лесу
лесы
лесік
лет
лета
летам
летапіс
летапісау
летапісах
летапісе
летапісец
летапісу
летапісы
летию
летнии
летняга
летняи
летняя
летні
летнім
летніх
летнія
летопись
летчык
летчыкау
леу
лешч
ли
ливии
лившиц
лига
листы
лит
литва
литве
литвы
литература
литературная
литературы
литовско
литовского
литовскои
лицах
лксмб
лле
лна
ло
лоб
логвінау
логіка
логікі
лодак
лодзьскага
лодзі
лодка
лодкі
лоеускага
ложа
ложак
ложка
ложкау
ложку
ложы
лозунг
лоика
локі
лонг
лондан
лондана
лондане
лонданскага
лонданскаи
лонданскі
лонданскім
лорд
лорда
лорэнц
лорэнца
лос
лось
лотар
лоу
лоурэнс
лошыца
лу
луг
лугавая
луганскаи
лугах
лугоу
лугі
луж
лужкі
лужыцкіх
лук
лука
лукас
лукаш
лукаша
лукашанец
лукашенко
лукашэвіч
лукашэнка
лукашэнку
лукашэнкі
лукі
лунінец
лунінецкага
лунінецкім
луцкевіч
луцкевіча
луцыи
луч
лучковымі
луі
луіджы
луіза
луізы
луіс
лы
лыжка
ль
льва
львова
львове
львовіч
львом
львоу
львоускага
львоускаи
львоуская
львоускі
львів
льня
льскі
льюіс
лэдзі
лэиблам
лэнд
лю
люба
любанскага
любанскім
любань
любая
любичев
любкер
любкеру
люблю
люблін
любліне
люблінскага
люблінскаи
любов
любовь
любові
любога
любое
любои
любоу
любоую
любую
любы
любым
любых
любыя
любяць
любіла
любілі
любіу
любіць
люд
людвіг
людвіга
людвік
людвіка
людеи
людзеи
людзьмі
людзям
людзях
людзі
люди
людмила
людміла
людовік
людовіка
людовікам
людскія
люду
люк
люксембург
люксембурга
люксембургу
люлі
люстэрка
лютага
лютаускаи
люты
лютым
лютэр
лютэра
лютэранскаи
лютэранская
лютэранства
люфтвафэ
ля
лявон
лявона
ляглі
лягчэи
ляды
ляжала
ляжалі
ляжау
ляжаць
ляжыць
лялек
лямпы
лян
лясамі
лясах
лясная
ляснога
ляснои
лясны
лясным
лясных
лясныя
лясніцкага
лясніцкі
лясніцтва
лясоу
лясы
ляхавіцкага
ляхавіцкі
ляхавіцкім
ляхавічы
ляціць
лячэнне
лячэння
лячэнні
ляшчынскага
ляшчэня
лі
ліба
ліберальна
ліберальнаи
лібрэта
ліван
лівана
ліване
лівонскаи
лівоніі
лівіискаи
лівія
лівіі
ліг
ліга
лігу
лігурыя
лігі
ліда
лідар
лідара
лідарам
лідарамі
лідарау
лідарства
лідары
лідзе
лідзія
лідскага
лідскі
лідскім
ліды
ліен
ліза
лізавета
лізаветы
лізе
лік
лікам
лікамі
лікау
ліквідавана
ліквідаваны
ліквідаваць
ліквідацыю
ліквідацыя
ліквідацыі
ліку
лікі
лім
лімарыус
лін
ліна
лінгвіст
лінгвістыкі
лінеина
лінеинае
лінеинаи
лінеины
лінеиных
лінеиныя
лінзападобная
лінкальн
лінь
лініи
лінію
лінія
лініяи
лініямі
лініях
лініі
ліп
ліпа
ліпень
ліпеня
ліпені
ліпы
ліра
лірыка
лірыкі
ліс
лісабон
лісоускі
ліст
ліста
лістамі
лістапад
лістапада
лістападзе
лістах
лісток
лістом
лістоу
лісты
лісце
лісцевых
лісцем
лісця
лісці
лісіца
літ
літар
літара
літараи
літаральна
літарамі
літаратар
літаратарау
літаратары
літаратур
літаратура
літаратуразнавец
літаратуразнауства
літаратуразнауца
літаратураи
літаратурна
літаратурнага
літаратурнае
літаратурнаи
літаратурная
літаратурную
літаратурны
літаратурным
літаратурных
літаратурныя
літаратуру
літаратуры
літару
літары
літва
літве
літвои
літву
літвы
літвінау
літвіны
літоуска
літоускага
літоускае
літоускаи
літоускаму
літоуская
літоускую
літоускі
літоускім
літоускімі
літоускіх
літоускія
літоуцау
літоуцы
літрау
літургічных
літургіі
ліушыц
ліха
ліхтар
ліхтэнштэин
ліхтэнштэина
ліцэи
ліцэнзію
ліцэнзіі
ліцэя
ліцэі
лічацца
лічаць
лічачы
лічба
лічбаваи
лічбавых
лічбамі
лічбау
лічбу
лічбы
лічу
лічыла
лічылася
лічылі
лічыліся
лічынак
лічынкі
лічыу
лічыуся
лічыцца
лічыць
ліштвамі
ліштвах
ліштвы
м
ма
маа
маары
мабыць
мабільных
мабілізаваны
мабілізацыі
мага
магазін
магазіны
магдалена
магдэбургскае
магла
магло
маглі
магнатау
магнаты
магнацкіх
магнус
магнуса
магнітнага
магнітнае
магнітнаи
магнітны
магнітным
магнітных
магу
магуаир
магутнага
магутнаи
магутнасць
магутнасцю
магутнасці
магутная
магутную
магутны
магутным
магутнымі
магутных
магутныя
магчыма
магчымага
магчымае
магчымаи
магчымасцеи
магчымасць
магчымасцю
магчымасцяу
магчымасці
магчымасьць
магчымасьці
магчымая
магчымы
магчымым
магчымых
магчымыя
магіл
магіла
магілаи
магіле
магілева
магілеве
магілеу
магілеускага
магілеускае
магілеускаи
магілеуская
магілеускую
магілеускі
магілеускім
магілеушчыне
магілеушчыны
магілу
магілы
магістр
магістра
магістраль
магістралі
магіі
мадам
мадонна
мадрыд
мадрыдзе
мадыфікацыи
мадыфікацыя
мадыфікацыі
мадэллю
мадэль
мадэлявання
мадэляу
мадэлях
мадэлі
мадэрн
мадэрнізацыя
мадэрнізацыі
мае
маеи
маем
маемасць
маемасцю
маемасці
маентак
маентка
маенткам
маенткамі
маенткау
маентках
маентку
маенткі
маер
маера
мает
маеть
маеце
маецца
маеш
маз
мазавецкага
мазаіка
мазаікі
мазурскага
мазыр
мазыра
мазырскага
мазырскаи
мазырскі
мазырскім
мазыры
маи
маиго
маик
маикл
маикла
маиму
маине
маисеи
маисея
маистар
маистра
маистрам
маистрамі
маистроу
маистры
маистэрню
маистэрня
маистэрняу
маистэрнях
маистэрні
маистэрства
мак
макар
макарава
макарау
макарэвіч
макаукаи
макед
македонскага
македонскаи
македонскі
македонія
македоніі
макрына
макс
макса
максвела
максим
максім
максіма
максімавіч
максімальна
максімальнага
максімальнаи
максімальная
максімальную
максімальны
максімум
максімуму
максіміліян
максіміліяна
мал
мала
маладая
маладзежнаи
маладзечанскага
маладзечанскаи
маладзечанскі
маладзечанскім
маладзечна
маладзечне
маладняк
маладога
маладое
маладои
маладому
маладосць
маладосці
маладую
малады
маладым
маладымі
маладых
маладыя
малаизія
малаизіі
малака
малако
малаком
маланка
маланкі
малапольскага
малая
малаіта
малдавіі
малдаускаи
малдауская
малдова
малдове
малдовы
малекул
малекулы
малекулярнаи
маленства
маленстве
маленькага
маленькаи
маленькая
маленькую
маленькі
маленькім
маленькімі
маленькіх
маленькія
малер
малера
малея
мало
малога
малодшага
малодшаи
малодшая
малодшы
малодшым
малодшых
малое
малои
малочнаи
малочная
малочны
малочныя
малпау
малую
малы
малые
малым
малымі
малых
малыя
мальдзіс
мальдзіса
мальме
мальта
мальты
малюе
малюнак
малюнка
малюнкам
малюнкамі
малюнкау
малюнках
малюнку
малюнкі
малюскау
малявання
малявау
маляваць
малі
малінаука
малітва
малітву
малітвы
малітоунаи
малітоуная
маліцца
мама
мамка
мамэнт
ман
мана
манаграфіи
манаграфія
манаграфіі
манака
манарх
манарха
манархам
манархау
манархі
манархія
манархіі
манаства
манастыр
манастыра
манастыроу
манастыру
манастыршчынскім
манастыры
манах
манахам
манахау
манахі
мангльс
манголау
манголы
мангольскага
мангольскаи
манголія
манголіі
мандат
манеры
манет
манета
манетны
манеты
манро
мантаж
манумент
манументальнаи
мануфактура
мануфактуры
мануэль
манчэстэр
манька
манэ
манюшкі
маніторынгу
маніфест
мар
мара
маравіі
марак
маракоу
маральна
маральнага
маральнаи
маральных
маральныя
маралі
мараплавец
маргарыта
маргарыты
маргарэт
марзе
мария
марк
марка
маркавіч
маркаи
маркам
маркау
маркграф
марке
маркетынгу
маркс
маркса
марксізму
марку
маркі
маркіз
мармур
мармуру
марна
мароз
марозава
марозау
марока
марс
марса
марсе
марсель
марская
марскога
марское
марскои
марскую
марскі
марскім
марскімі
марскіх
марскія
март
марта
мартын
марцэлеу
марцін
марціна
марцінкевіч
марцінкевіча
марціновіч
марш
маршал
маршала
маршалак
маршалка
маршалкам
маршрут
маршрутау
маршруту
маршруты
маршруце
маршы
мары
марыа
марыля
марына
марыс
марыся
марыу
марыю
марыя
марыяи
марыян
марыяна
марыі
мас
маса
масава
масавага
масавае
масаваи
масавая
масавы
масавым
масавымі
масавых
масавыя
масаи
масачусетс
масе
маска
масква
маскве
масквои
маскву
масквы
маскоуска
маскоускага
маскоускае
маскоускаи
маскоуская
маскоускую
маскоускі
маскоускім
маскоускіх
маскоускія
маскі
масла
маст
мастак
мастака
мастакамі
мастаком
мастакоу
мастаку
мастакі
мастацка
мастацкага
мастацкае
мастацкаи
мастацкая
мастацкую
мастацкі
мастацкім
мастацкіх
мастацкія
мастацтва
мастацтвазнавец
мастацтвазнауства
мастацтвазнауца
мастацтвам
мастацтвау
мастацтве
мастацтву
мастачка
мастачкі
мастоу
мастоускім
масты
мастэрс
масу
масы
масіва
масівау
масіву
масівы
масіу
мат
матар
математики
материалов
материалы
матка
матку
маткі
матрос
матросау
матросы
матрыца
матрыцы
матфея
матч
матча
матчау
матчах
матчу
матчы
матчынаи
матывамі
матывау
матывах
матывы
матылек
матылькоу
матылі
матыу
матэматык
матэматыка
матэматыку
матэматыкі
матэматыцы
матэматычнага
матэматычнаи
матэматычная
матэматычны
матэматычным
матэматычных
матэматычныя
матэр
матэрыял
матэрыялам
матэрыяламі
матэрыялау
матэрыялах
матэрыяле
матэрыялу
матэрыялы
матэрыяльна
матэрыяльнага
матэрыяльнаи
матэрыяльную
матэрыяльных
матэрыяльныя
матэрыі
маузалеи
маулення
мауляу
маур
маура
маучалі
маучанне
маучау
маучаць
маучы
маучыць
махамед
махнуу
мацвеевіч
мацвеи
мацвея
мацеи
мацеры
мацерыка
мацея
мацкевіч
мацнеи
мацярык
маці
мацільда
маша
маштаб
маштабах
маштабе
маштабу
машын
машына
машынабудаванне
машынабудавання
машынабудаунічы
машыне
машыну
машыны
машэрава
маю
мають
маюцца
маюць
маючы
мая
маяк
маякоускага
маямі
маі
маім
маіх
мвд
мвт
мг
мгу
мгц
мдб
мду
ме
мед
медалем
медалеу
медаль
медаля
медалямі
медалі
меджду
медзь
медзі
медиа
меду
медык
медыка
медыцына
медыцыне
медыцынскага
медыцынскае
медыцынскаи
медыцынская
медыцынскую
медыцынскі
медыцынскім
медыцынскіх
медыцынскія
медыцыну
медыцыны
медычы
медыя
медыяфаилау
медыяфаилы
меер
меж
межамі
межау
межах
между
междунар
международного
международнои
международныи
межы
меисца
меисцы
мекленбург
мексіка
мексіканскага
мексікі
мексіцы
мел
мела
мелася
мележа
мелодыя
мелодыі
мельнік
мельнікау
мелі
меліся
меліярацыиных
меліярацыиныя
меліярацыі
мемарыял
мемарыяла
мемарыяльнаи
мемарыяльная
мемарыяльны
мемарыяльныя
мемуарау
мемуарах
мемуары
мемуарыст
менавіта
менеджар
менеджмент
менеджменту
менеи
менск
менска
менскага
менскае
менскаи
менску
менскі
менскім
менш
меншага
меншаи
меншасцеи
меншасць
меншасцяу
меншасці
меншая
меншую
меншы
меншым
меншых
меншыя
меню
меня
мер
мера
мерапрыемства
мерапрыемствау
мерапрыемствах
мерапрыемствы
мерах
меркавалася
меркавалі
меркавана
меркаванне
меркавання
меркаванняу
меркаванні
меркавау
меркаваць
меркурыи
меркурыя
мерскага
мерскім
мертвы
мертвым
мертвых
мертвыя
меру
мерфі
меры
мерыдыянальнаи
месапатаміі
мест
места
местау
месте
место
месты
месца
месцазнаходжанне
месцазнаходжання
месцам
месцамі
месцау
месцах
месце
месцы
месцяцца
месцілася
месціцца
месье
месяц
месяца
месяцавага
месяцавы
месяцам
месяцау
месяцы
метад
метадалогіі
метадам
метадамі
метадау
метаду
метады
метадычнаи
метадычны
метадычных
метал
металау
металу
металургія
металургіі
металы
металічнаи
металічны
металічным
металічных
металічныя
мети
метод
методы
методыка
методыкі
метр
метра
метрапалітэн
метрапалітэна
метрау
метро
метры
метрыкі
метэарыт
меу
меуся
мех
механізацыі
механізм
механізмау
механізму
механізмы
механік
механіка
механікі
механіцы
механічнага
механічнаи
механічная
механічны
механічных
механічныя
мехіка
мець
мецэнат
меч
мечыслау
мзс
ми
мид
милости
министерства
министерство
министров
минобороны
минск
минска
минская
минске
минские
минскии
минского
минское
минскои
мир
мира
мире
мировая
мировои
мифы
михаил
михаила
михаилович
мк
мкм
мкс
млекакормячых
млн
млрд
млын
млына
млыны
мм
мн
мне
многа
многае
много
многім
многімі
многіх
многія
мнои
мноства
мноствам
мноствау
мностве
мною
мнс
мо
мова
мовазнавец
мовазнауства
моваи
мовамі
мовау
мовах
моваю
мове
мову
мовы
мог
могилев
могилевская
могилевского
могилевскои
могуць
могілак
могілев
могілках
могілкі
могільнік
мода
модуль
модуля
моды
можа
можам
можаце
можаш
может
можна
мозг
мозга
мозгу
мои
моладзевага
моладзеваи
моладзевую
моладзевых
моладзь
моладзі
молат
молата
молатава
молодая
молодечненскои
момант
момантам
момантау
моманту
моманты
монография
монтэ
мора
морам
морау
морах
морган
море
морфаметрычныя
морфометрические
моры
морыс
москва
москве
москвы
московскии
московского
мост
моста
мостам
мосце
моу
моунага
моунаи
моуных
моуныя
моучкі
мох
моц
моцарт
моцарта
моцна
моцнага
моцнае
моцнаи
моцная
моцную
моцны
моцным
моцнымі
моцных
моцныя
моцы
мошчы
моя
мсціслава
мсціслау
мсціслаускага
мсціслаускі
мсціслаускім
мтз
мтс
мтсг
му
мугаджары
мугір
мудрага
мудрасць
мудрасці
мудры
муж
мужа
мужам
мужнасць
мужнасці
мужу
мужчын
мужчына
мужчынам
мужчынамі
мужчынскага
мужчынскае
мужчынскаи
мужчынская
мужчынскую
мужчынскі
мужчынскім
мужчынскіх
мужчынскія
мужчыны
мужык
мужыка
мужыкоу
мужыкі
мужыцкаи
муз
музеем
музеи
музеины
музеиных
музею
музея
музеяу
музеях
музеі
музыка
музыкаи
музыкальная
музыкант
музыканта
музыкантау
музыканты
музыкау
музыку
музыкі
музыцы
музычна
музычнага
музычнае
музычнаи
музычная
музычную
музычны
музычным
музычных
музычныя
мук
мука
муку
мукі
мультфільм
муниципального
муниципальным
муниципальных
муніцыпальнага
муніцыпальнае
муніцыпальны
муніцыпальных
муніцыпалітэт
муніцыпалітэта
мур
мура
мураванага
мураванаи
мураваная
мураваны
мураваных
мураваныя
мурауева
мурауеу
мурашак
мурашка
мурашкі
муроу
муроукі
муры
мус
мусаліні
мустафа
мусульман
мусульманамі
мусульмане
мусульманскага
мусульманскаи
мусульманскіх
мусяць
мусіла
мусілі
мусіу
мусіць
мух
муха
мухавец
мухамад
мухамед
мухамеда
мухі
мучанікау
мушу
мы
мыла
мыс
мыса
мысе
мыслення
мысли
мысль
мыслі
мытнага
мыш
мышцы
мышы
мэбля
мэблі
мэи
мэин
мэн
мэр
мэра
мэрам
мэры
мэт
мэта
мэтаи
мэтамі
мэтау
мэтах
мэтаю
мэту
мэты
мэце
мэцью
мюнхен
мюнхена
мюнхене
мя
мядзведзеу
мядзведзь
мядзведзя
мядзведзіца
мядзел
мядзельскага
мядзельскім
мяжа
мяжои
мяжу
мяжуе
мяжы
мякаць
мяккаи
мяккая
мяккі
мяккім
мяккіх
мяккія
мяне
мянушка
мянушку
мянушкі
мянушцы
мяняецца
мяняліся
мяркуе
мяркуецца
мяркуюць
мяркуючы
мяса
мясам
мяст
мястэчак
мястэчка
мястэчкам
мястэчках
мястэчку
мястэчкі
мясцовага
мясцовае
мясцоваи
мясцовасць
мясцовасці
мясцовая
мясцовую
мясцовы
мясцовым
мясцовымі
мясцовых
мясцовыя
мясцін
мясцінах
мясціны
мяфодзія
мяцеж
мяцежнікау
мяч
мяча
мячамі
мячом
мячоу
мячы
мячэць
мячэці
мяшок
мяшчан
мяшчане
мяшчанства
мі
міг
мігрантау
міграцыя
міграцыі
між
міжваеннаи
міжваенны
міжзем
міжземнага
міжземнамор
міжземнаморскі
міжземным
міжнар
міжнароднага
міжнароднае
міжнароднаи
міжнародная
міжнародную
міжнародны
міжнародным
міжнароднымі
міжнародных
міжнародныя
міжрэччы
мікала
мікалаева
мікалаевіч
мікалаевіча
мікалаем
мікалаеуна
мікалаеускага
мікалаеускаи
мікалаеуская
мікалаеускі
мікалаи
мікалаю
мікалая
мікеланджэла
мікола
міколы
мікраарганізмау
мікрабіялогіі
мікрараен
мікрараена
мікрараенау
мікрараене
мікіта
мікітавіч
міла
мілан
мілана
мілане
міласэрнасці
мілаш
мілая
мілер
мілы
міль
мільен
мільена
мільенау
мільены
мільярда
мільярдау
мілі
міліцыя
міліцыі
міма
мімаволі
мін
міна
мінабароны
мінас
мінгарвыканкама
міндоуга
мінерал
мінералау
мінеральных
мінеральныя
мінск
мінска
мінскага
мінскае
мінскаи
мінскам
мінская
мінскпраект
мінску
мінскую
мінскі
мінскім
мінскіх
мінскія
мінула
мінулага
мінулае
мінулым
мінулых
мінуушчыны
міны
міні
мінімальнаи
мінімальная
мінімум
міністр
міністра
міністрам
міністрау
міністру
міністры
міністэрства
міністэрствам
міністэрствау
міністэрстве
міністэрству
мініяцюры
мір
міра
мірам
мірнага
мірнае
мірнаи
мірны
мірным
мірных
мірныя
міронавіч
мірскага
мірскі
міру
міры
міс
містэр
місуры
місіи
місіс
місісіпі
місію
місія
місіянерау
місіянеры
місіі
мітрапаліт
мітрапаліта
мітрапалітам
мітраполія
мітраполіі
мітынг
мітынгу
мітынгі
міф
міфа
міфалагічная
міфалогія
міфалогіі
міфау
міфы
міха
міхаилавіч
міхаилавіча
міхаилау
міхаилауна
міхаилауская
міхал
міхала
міхалка
міхась
міхася
міхаіл
міхаіла
міхаілам
міхаілу
міцкевіч
міцкевіча
мічыган
мішэль
н
на
наагул
наадварот
набажэнства
набажэнствау
набажэнствы
набегау
набегі
набліжаецца
набліжэнні
набор
набору
наборы
набрала
набрау
набраушы
набраць
набывае
набываць
набываюць
набыла
набыло
набылі
набыта
набыты
набыу
набыцце
набыцця
набыць
набярэжнаи
набярэжная
нав
нава
навагрудак
навагрудка
навагрудку
навагрудскага
навагрудскі
навагрудскім
навадугінскім
навазыбкаускага
навакол
наваколлях
наваколлі
навакольнага
навакольнае
навакольным
навакольных
навакольныя
навальніца
навальніцы
наваполацк
наваполацка
наваполацкага
наваполацку
навара
навары
наваселкаускага
наваселкі
нават
наведала
наведалі
наведау
наведаць
наведвае
наведвала
наведвальнікау
наведвалі
наведванне
наведвання
наведвау
наведваць
наведваюць
навекі
навелы
наверсе
наверх
навет
навечно
навокал
навошта
навук
навука
навукаи
навуках
навукова
навуковага
навуковае
навуковаи
навуковая
навуковец
навуковую
навуковы
навуковым
навуковымі
навуковых
навуковыя
навукоуца
навукоуцам
навукоуцамі
навукоуцау
навукоуцы
навуку
навукі
навум
навуменка
навуцы
навучаецца
навучалася
навучальна
навучальнага
навучальнаи
навучальная
навучальны
навучальным
навучальных
навучальныя
навучаліся
навучанне
навучання
навучанні
навучауся
навучыуся
навучэнцау
навыкі
навігацыі
навін
навіна
навіны
навіцкі
навіч
нага
нагадвае
нагадвала
нагадваюць
нагамі
нагах
нагляд
наглядам
нагляду
нагоды
нагор
нагорна
нагрудны
нагрузкі
нагу
нагі
над
надавала
надавалася
надавалі
надавау
нададзена
нададзены
надае
надаецца
надалеи
наданне
надання
надау
надаць
надаюць
надвор
надворны
наделении
надзвычаи
надзвычаина
надзвычаинага
надзвычаинае
надзвычаинаи
надзвычаины
надзвычаиным
надзвычаиных
надзею
надзея
надзеяи
надзеі
надмагілле
надоуга
надпіс
надпісам
надпісамі
надпісау
надпісы
надрукавана
надрукаваны
надрукаваныя
надрукавау
надсана
надта
нажом
нажы
назад
назаужды
назауседы
назаутра
назва
назваи
назвала
назвалі
назвамі
названа
названага
названаи
названая
названии
названия
названы
названых
названыя
назвау
назваушы
назвах
назваць
назваю
назве
назву
назвы
наземных
наземныя
назначаны
назначении
назоу
назоунік
назоунікау
назоунікі
называе
называецца
называлася
называлі
называліся
называу
называуся
называцца
называць
называюцца
называюць
называючы
назіраецца
назіралася
назіральніка
назіральнікау
назіранне
назірання
назіранняу
назіранні
назірау
назірауся
назіраць
назіраюцца
наи
наиболеи
наибольш
наибольшага
наибольшае
наибольшаи
наибольшая
наибольшую
наибольшы
наибольшым
наибольшых
наибольшыя
наибуинеишага
наибуинеишае
наибуинеишаи
наибуинеишая
наибуинеишы
наибуинеишым
наибуинеишымі
наибуинеишых
наибуинеишыя
наиважнеишым
наиважнеишых
наиважнеишыя
наивышэишага
наивышэишаи
наивышэишая
наивышэишую
наивышэишы
наивышэишым
наивышэишыя
наивялікшы
наивялікшых
наилепшае
наилепшая
наилепшую
наилепшы
наилепшым
наилепшых
наилепшыя
наименне
наимення
наименняу
наименш
наименшая
наимітау
наиперш
наисвяцеишага
наисвяцеишаи
наистарэишая
наистарэишы
наистарэишым
наистарэишых
наичасцеи
нак
наканечнікі
наклад
накладам
наколькі
наконт
накрыты
накшталт
накіравала
накіравалі
накіраваліся
накіравана
накіраваная
накіраваны
накіраваных
накіраваныя
накіравау
накіравауся
накіраваць
накіроуваецца
накіроуваліся
накірунку
наладзіць
налева
належала
належалі
належау
належаць
належным
належыла
належылі
належыу
належыць
налічвае
налічваецца
налічвала
налічвалася
налічвалі
налічвау
нам
намаганням
намаганнямі
намаганняу
намаганні
намалявана
намаляваная
намаляваны
намаляваныя
намалявау
наменклатуры
намер
намерам
намеры
намеснік
намесніка
намеснікам
намеснікау
намеснікі
намесніцтва
намі
намібіі
намінаваны
наміналам
намінацыи
намінацыя
намінацыямі
намінацыях
намінацыі
нан
нанб
нанес
нанесены
нанесла
нанеслі
нанесці
нанова
наносіць
нансен
нансена
нанясення
наогул
напад
нападам
нападау
нападзе
нападнік
нападніка
нападу
напады
напалеон
напалеона
напалеонам
напалеонаускіх
напалову
напалі
напау
напачатку
наперад
наперадзе
напои
напояу
напоі
напр
направа
напрамак
напрамкам
напрамкау
напрамках
напрамку
напрамкі
напрацягу
напружанасць
напружанасці
напружанне
напружання
напрыклад
напэуна
напярэдадні
напісала
напісалі
напісана
напісанае
напісанаи
напісаная
напісанне
напісання
напісанні
напісаны
напісаных
напісаныя
напісау
напісаць
нар
нарада
нараджэнне
нараджэння
нараджэнні
нарадзе
нарадзіла
нарадзілася
нарадзіліся
нарадзіуся
нарады
нарауне
нарач
нарбут
нарв
нарва
нарвегію
нарвегія
нарвегіі
нарвежскага
нарвежскаи
нарвежская
нарвежскі
нарвежскім
наркам
наркама
наркамата
нармальнага
нармальнаи
нармандыі
нарматыуны
нарніі
народ
народа
народам
народамі
народау
народжаная
народжаны
народзе
народна
народнага
народнае
народнаи
народнасці
народная
народного
народнои
народном
народную
народны
народным
народнымі
народных
народныя
народов
народу
народы
нароуні
нарыс
нарысау
нарысы
нарэшце
нас
наса
насаджэнні
насамрэч
насевіч
насекомых
населенага
население
населения
населенного
населенных
населення
населены
населеным
населеных
населеныя
насельнікау
насельнікі
насельніцтва
насельніцтвам
насельніцтву
насенне
насеннем
насення
наследие
наста
настау
настаунік
настауніка
настаунікам
настаунікамі
настаунікау
настауніку
настаунікі
настауніца
настауніцаи
настауніцкаи
настауніцкая
настауніцкую
настауніцкі
настауніцы
настаунічау
настаяцелем
настаяцель
настоивау
настолькі
настрои
настрою
настрояу
настроі
наступ
наступальнаи
наступленне
наступлення
наступнага
наступнае
наступнаи
наступная
наступную
наступны
наступным
наступнымі
наступных
наступныя
наступствау
наступствы
наступу
наступіла
наступіу
насуперак
насупраць
насустрач
насъ
насыпау
насякомымі
насякомых
насякомыя
насяленьне
насяленьня
насяляе
насялялі
насяляюць
насіла
насілі
насіу
насіць
ната
наталля
наталлі
наталья
наталя
нататкі
нато
натоуп
натоупу
натрыю
натуральна
натуральнага
натуральнае
натуральнаи
натуральная
натуральны
натуральным
натуральных
натуральныя
натураліст
натуры
натхнення
нау
наугародскаи
наузамен
наук
наука
науки
наукова
наукола
науменко
наумысна
наупрост
наурад
наутылус
наутылуса
науч
научно
научное
научнои
научныи
научных
нафта
нафтан
нафтана
нафту
нафты
нахіл
нахілу
нац
национальная
национального
национальнои
национальныи
нацыи
нацыстамі
нацыстау
нацысты
нацысцкаи
нацыю
нацыя
нацыянал
нацыянальна
нацыянальнага
нацыянальнае
нацыянальнаи
нацыянальнаму
нацыянальнасцеи
нацыянальнасці
нацыянальнасьці
нацыянальная
нацыянальную
нацыянальны
нацыянальным
нацыянальнымі
нацыянальных
нацыянальныя
нацыяналізм
нацыяналізму
нацыяналістау
нацыі
націск
націскам
націску
нача
начала
начале
начало
начальнік
начальніка
начальнікам
начальнікау
начальства
начны
начынне
наш
наша
нашага
нашае
нашаи
нашаму
нашая
наше
нашего
нашеи
наши
наших
нашмат
нашого
нашто
нашу
нашчадак
нашчадкам
нашчадкамі
нашчадкау
нашчадкі
нашы
нашым
нашымі
нашых
нашыя
нашэсця
наявного
наяунасць
наяунасцю
наяунасці
наяуных
нба
нгаб
ндр
нді
не
неабходна
неабходнаи
неабходнасць
неабходнасцю
неабходнасці
неабходная
неабходную
неабходны
неабходным
неабходных
неабходныя
неаготыкі
неад
неадкладна
неаднаразова
неадушаулены
неаліту
неапаль
неапаля
неапалі
неафіцыина
неафіцыины
неба
небам
небе
небудзь
небяспека
небяспеку
небяспекі
небяспецы
небяспечны
небяспечным
небяспечных
небяспечныя
невель
невыразныя
невысакосны
невядома
невядомага
невядомаи
невядомая
невядомы
невядомым
невядомых
невядомыя
невялікага
невялікае
невялікаи
невялікая
невялікую
невялікі
невялікім
невялікімі
невялікіх
невялікія
невялічкі
негатыуна
него
недаика
недалека
недалька
недастаткова
недаступная
недахоп
недахопам
недахопау
недахопу
недахопы
недели
недзе
незадаволенасць
незадаволены
незадоуга
незаконным
незалежна
незалежнага
незалежнае
незалежнаи
незалежнасць
незалежнасці
незалежнасьць
незалежнасьці
незалежная
незалежную
незалежны
незалежным
незалежнымі
незалежных
незалежныя
незалежніцкаи
незвычаина
незвычаинаи
незвычаины
незвычаиныя
незнаемы
неик
неикага
неикае
неикаи
неикая
неикую
неикі
неикім
неикіх
неикія
неитральнаи
неитралітэт
неитронау
неитрына
некалькі
некалькімі
некалькіх
некалі
некаторага
некаторае
некатораи
некаторая
некаторую
некаторы
некаторым
некаторымі
некаторых
некаторыя
некоторые
некоторых
некрашэвіч
некуды
нелегальна
нелегальнаи
нельга
нем
немагчыма
немагчымасць
немагчымасці
немагчымым
неман
немана
неманам
немане
немауля
немец
немцам
немцамі
немцау
немцы
ненадоуга
непадалек
непадалеку
непасрэдна
непасрэднага
непасрэднаи
непасрэдны
непасрэдным
непрызнанаи
непрыяцеля
нептун
нептуна
нервоваи
нервы
нерон
нерона
нерухома
нес
неслі
несцяровіч
несці
нет
неузабаве
неускага
неуская
неускі
неф
нефа
нефы
нехта
нечага
нечакана
нечым
нешматлікіх
нешматлікія
нешта
неяк
ни
николаевич
николаи
николая
них
нка
нкав
нквд
нкус
нкі
нм
нне
ння
но
нобелеускага
нобелеускаи
нобелеуская
нобелеускую
нобелеускі
нова
новага
новагародскага
новагародскі
новае
новаи
новак
новаму
новаутворанага
новая
нове
новиков
нового
новое
новои
новополоцк
новосибирск
новостеи
новости
новую
новы
новые
новыи
новым
новымі
новых
новыя
нові
новік
новікау
ног
ногі
нож
ножкі
ножцы
нон
норм
норма
нормау
нормы
нос
носа
носам
носьбіт
носьбіта
носьбітамі
носьбітау
носьбіты
носяць
носіцца
носіць
ноты
ноугарад
ноугарада
ноугарадзе
ноч
ноччу
ночы
ноября
нсдап
нск
нская
нскі
ну
нуль
нулю
нуля
нумар
нумара
нумарам
нумарамі
нумарацыя
нумарацыі
нумароу
нумару
нумары
нумізматыка
нур
нутро
нфвт
нфк
нфл
нхл
нцы
ны
нь
ньне
нью
ньютан
ньютана
ньюфаундленд
нэд
нэма
ня
нябеснага
нябеснаи
нябесных
нябожчыка
нябожчыкау
нявеста
нявесты
няволю
няволі
нявы
нявызн
нягледзячы
нядауна
нядауняга
нядзелю
нядзеля
нядзелі
нядолі
нядоуга
нязменна
нязменным
нязначна
нязначная
нязначныя
някляеу
ням
няма
нямала
нямецка
нямецкага
нямецкае
нямецкаи
нямецкая
нямецку
нямецкую
нямецкі
нямецкім
нямецкімі
нямецкіх
нямецкія
нямеччыне
нямногіх
няможна
няміга
нянавісць
нянавісці
няправільна
няпрауда
нярэдка
нясвіж
нясвіжа
нясвіжскага
нясвіжскаи
нясвіжскі
нясвіжскім
нясвіжы
нясе
нястачы
нясуць
няудала
няудалага
няудалаи
няудачу
няудачы
няужо
няухільна
няхаи
няшмат
няшчасны
няшчасце
ні
нібы
нібыта
ніва
ніве
нівка
ніводзін
ніводнага
ніводнаи
ніводная
ніводны
нівы
нігер
нігера
нігерыі
нідзе
нідэрл
нідэрландау
нідэрландах
нідэрландскага
нідэрландскаи
нідэрландскі
нідэрланды
ніе
ніжагародскаи
ніжнесілезскага
ніжнюю
ніжняга
ніжняе
ніжняи
ніжняя
ніжні
ніжнім
ніжніх
ніжнія
ніжэи
ніжэишых
ніжэишыя
нізка
нізкага
нізкаи
нізкая
нізкі
нізкім
нізкімі
нізкіх
нізкія
нізіна
нізіне
нізінныя
нізіны
ніка
нікалаеу
нікалас
нікаля
нікарагуа
нікога
нікола
ніколі
нікому
нікуды
нікі
ніл
ніла
нільс
німа
ніна
ніткі
ніхто
нічога
нічым
нічыпар
нічыі
нішамі
нішто
нішы
нія
ніяк
ніякага
ніякае
ніякаи
ніякі
ніякіх
ніякія
о
об
обаль
обер
обзор
областеи
области
областного
областнои
область
обозрение
обороны
образование
образовании
образования
образованиям
образованных
общ
общая
общегеографическии
общеи
общества
общество
объединении
объекты
объявил
обі
ого
ода
один
одно
одного
ое
озер
озера
озеро
ои
около
округа
октябрь
октября
олаф
олафа
олег
олма
ольга
олівер
он
она
онечны
они
онлаин
оного
онъ
оон
ооо
оопт
оп
опер
опера
операции
опернага
оперная
оперны
оперу
оперы
описание
описания
описано
определитель
оптыка
оптыкі
опыт
ор
орган
органа
органам
органамі
органау
органах
организации
организация
органов
органы
організацыі
орда
ордара
ордена
орды
ордэн
ордэна
ордэнам
ордэнамі
ордэнау
ордэну
ордэны
оружие
оружия
орша
оршы
освобождение
оскар
оскара
осла
основные
основных
основы
особенности
ост
остров
островецкого
ось
от
ота
отв
отд
отдел
отечественная
отечественнои
отношении
отношения
отс
отца
отчет
отъ
оуруцкім
оф
официально
официальныи
офіс
ох
охотника
охраны
очерк
очерки
п
па
паабяцау
паазер
паала
паасобку
паасобных
паасобныя
пабачыу
пабачыць
пабег
пабла
паблізу
пабудавалі
пабудавана
пабудаванага
пабудаванаи
пабудаваная
пабудаваны
пабудаваным
пабудаваных
пабудаваныя
пабудавау
пабудаваць
пабудова
пабудоваи
пабудовамі
пабудове
пабудову
пабудовы
пабудоу
пабывау
пав
павагаи
павагу
павагі
павал
паварот
павароту
паведамленне
паведамлення
паведамленняу
паведамленні
паведамляе
паведамляецца
паведамлялася
паведамлялі
паведамляу
паведамляюць
паведаміла
паведамілі
паведаміу
паведаміць
павел
павелічэнне
павелічэннем
павелічэння
павелічэнні
павер
паверсе
паверх
паверха
паверхау
паверхах
паверхню
паверхня
паверхняи
паверхняу
паверхні
паверху
паверхі
павет
павета
паветау
паветах
паветра
паветрам
паветрана
паветранага
паветранаи
паветраная
паветраную
паветраны
паветраным
паветраных
паветраныя
паветры
павету
паветы
павеу
павеце
павлович
паводак
паводзін
паводзінамі
паводзіны
паводка
паводкі
паводле
павольна
паволі
павышанаи
павышэнне
павышэння
павялі
павялічана
павялічаны
павялічвае
павялічваецца
павялічвалася
павялічылася
павялічыу
павялічыуся
павялічыць
павярнуу
павярнууся
павярховы
павярховыя
павятовага
павятовы
павятовым
павятовых
павільен
павінен
павінна
павіннасці
павінны
пагаварыць
пагадзілася
пагадзіліся
пагадзіуся
пагадзіцца
пагадненне
пагадненнем
пагаднення
пагадненняу
пагадненні
паганель
паглынання
пагляд
паглядау
паглядзела
паглядзеу
паглядзець
паглядзі
пагоня
пагоні
пагорак
пагоркау
пагоршылася
пагост
пагражае
пагражала
пагражалі
пагражау
пагранічнаи
пагранічных
пагроза
пагрозаи
пагрозу
пагрозы
пад
падабаецца
падабалася
падабенства
падаваць
пададзена
пададзены
падае
падаецца
падазрэнні
падала
падалі
паданне
падання
паданняу
паданні
падаравау
падарвалі
падарожжа
падарожжау
падарожжы
падарожнік
падарожнікау
падарожнікі
падарожнічау
падарунак
падарункі
падарыу
падатак
падаткау
падатку
падаткі
падау
падаулення
падауся
падаць
падачы
падаюцца
падаюць
падаючы
падбярэзскі
падвергліся
падвеска
падвескі
падводнага
падводнаи
падводная
падводных
падводныя
падвоиная
падвышанаи
падвяргалася
падвяргаліся
падвяргауся
падвід
падгрупа
падгрупы
падданых
падзеи
падзел
падзелам
падзелау
падзеле
падзелена
падзелены
падзеленых
падзеленыя
падзелу
падземны
падземных
падземныя
падзенне
падзення
падзею
падзея
падзеяи
падзеям
падзеямі
падзеях
падзеі
падзолістыя
падзяка
падзяку
падзякі
падзяляе
падзяляецца
падзялялася
падзяляліся
падзяляюцца
падзяляюць
падзялілі
падзяліу
падзяліць
падкаморы
падкарпацкага
падкрэслівае
падкрэслівау
падкрэсліу
падкрэсліць
падлеткау
падлога
падлогу
падлогі
падлозе
падлягае
падлягаюць
падляскага
падляшша
падліку
падмурак
падмурку
падножжа
паднялася
паднялі
падняліся
падняты
падняу
падняуся
падняцца
падняцце
падняць
падобна
падобнага
падобнае
падобнаи
падобная
падобную
падобны
падобным
падобнымі
падобных
падобныя
падольскі
падоужана
падоужаны
падоужаныя
падоужна
падоужнаи
падоужыу
падпалкоунік
падпалкоуніка
падпарадкавана
падпарадкаванне
падпарадкавання
падпарадкаванні
падпарадкаваны
падпарадкаваныя
падпарадкаваць
падпарадкоуваецца
падпарадкоуваліся
падпарадкоувацца
падпарадкоуваюцца
падполле
падполля
падпольнага
падпольнаи
падпольную
падпісала
падпісалі
падпісана
падпісанне
падпісаннем
падпісання
падпісаны
падпісау
падпісаушы
падпісаць
падрабязна
падрабязнасці
падрабязнеи
падраздзяленне
падраздзяленнем
падраздзялення
падраздзяленнямі
падраздзяленняу
падраздзяленні
падручнік
падручніка
падручнікау
падручнікі
падрыхт
падрыхтавала
падрыхтавана
падрыхтаваны
падрыхтаваныя
падрыхтавау
падрыхтаваць
падрыхтоука
падрыхтоукаи
падрыхтоуку
падрыхтоукі
падрыхтоуцы
падскарбі
падставаи
падставе
падставу
падставы
падстау
падстраунікаваи
падсямеиства
падтрымала
падтрымалі
падтрыманне
падтрымання
падтрыманы
падтрымау
падтрымаць
падтрымка
падтрымкаи
падтрымку
падтрымкі
падтрымлівае
падтрымліваецца
падтрымлівала
падтрымлівалі
падтрымлівау
падтрымліваць
падтрымліваюць
падтрымцы
падуанскага
падумау
падумаць
падуі
падчас
падымаецца
падыход
падыходам
падыходзяць
падыходзіу
падыходзіць
падыходу
падыходы
падышла
падышлі
падышоу
паездак
паездку
паездкі
паехала
паехалі
паехау
паехаць
пажар
пажарам
пажарау
пажарнаи
пажару
пажары
паз
пазбавіу
пазбавіуся
пазбавіцца
пазбавіць
пазбаулення
пазбаулены
пазбауленыя
пазбегнуць
пазваночных
пазднякоу
пазнае
пазнаемілася
пазнаеміуся
пазнаеміцца
пазналі
пазнання
пазнау
пазнаць
пазначае
пазначаецца
пазначана
пазначаны
пазначэнне
пазначэння
пазнеи
пазнеишых
пазнеишыя
пазняк
пазухах
пазыкі
пазьнеи
пазірау
пазіцыи
пазіцыю
пазіцыя
пазіцыях
пазіцыі
паиду
паисці
паишла
паишло
паишлі
паишоу
пак
паказ
паказала
паказальнік
паказальнікі
паказалі
паказана
паказанні
паказаны
паказау
паказаушы
паказаць
паказвае
паказваецца
паказвала
паказвалі
паказвау
паказваць
паказваюць
паказваючы
паказу
паказчык
паказчыкам
паказчыкау
паказчыку
паказчыкі
пакаленне
пакалення
пакаленняу
пакаленні
пакаранне
пакарання
пакаранні
пакараны
пакараць
пакет
пакета
пакладзены
паклады
паклала
паклалі
пакланенне
пакласці
паклау
паклікау
пакои
паколькі
пакоя
пакояу
пакоях
пакоі
пакрова
пакроускаи
пакроуская
пакроускі
пакрывае
пакрываюць
пакрысе
пакрыта
пакрытанасенныя
пакрытая
пакрыты
пакрытыя
пакрыцце
пакрыццем
пакрыцця
пакуль
пакут
пакутавау
пакутуе
пакуты
пакідае
пакідалі
пакідау
пакідаць
пакідаюць
пакідаючы
пакінула
пакінулі
пакінуты
пакінутыя
пакінуу
пакінуушы
пакінуць
пакістан
пакістана
пакістане
пал
пала
палавога
палавои
палавы
палавых
палавыя
палавіна
палавіне
палавіну
палавіны
палажыу
палажэнне
палажэння
палажэнняу
палажэнні
палажэньне
паласа
паласе
паласои
паласу
паласы
палат
палата
палатаи
палатна
палатне
палатно
палату
палаты
палау
палац
палаца
палацава
палацам
палацау
палаце
палацу
палацца
палацы
палеаліту
палепшыць
палескага
палескаи
палеская
палескі
палескія
палессе
палесся
палессі
палесціна
палесціне
палесціну
палесціны
палет
палетау
палету
палеты
палеу
палец
палеце
палка
палкаводзец
палкаводца
палком
палкоу
палкоунік
палкоуніка
палкоунікам
палку
палкі
палова
паловаи
палове
палову
паловы
паломніцтва
палон
палоне
палоннымі
палонных
палону
палос
палосамі
палоскамі
палоскі
палосы
палотнау
палотны
палотнішча
палтаускаи
пальма
пальмы
пальцам
пальцамі
пальцау
пальцы
палявалі
паляванне
паляваннем
палявання
паляванні
палявая
палявога
палявои
палявы
палявых
палявыя
паляк
палякам
палякамі
палякау
палякоу
палякі
палямі
паляна
палянах
паляны
паляпшэнне
паляпшэння
палярнага
палярнаи
палярная
палярны
палярных
паляунічы
паляунічых
паляунічыя
палях
паляцеу
палі
паліва
паліклініка
палікрат
паліна
паліталогіі
палітбюро
палітолаг
палітык
палітыка
палітыкаи
палітыкау
палітыку
палітыкі
палітыцы
палітычна
палітычнага
палітычнае
палітычнаи
палітычная
палітычную
палітычны
палітычным
палітычнымі
палітычных
палітычныя
паліцыю
паліцыя
паліцыяи
паліцыі
паліць
паліцэискага
паліцэискі
паліцэискіх
паліцэискія
палічылі
палічыу
пам
памалу
памежжа
памежнаи
памежны
памежных
памежныя
паменшыць
памер
памерам
памерамі
памерау
памерах
памерла
памерлага
памерлых
памерлі
памеру
памерці
памеры
памешчык
памешчыка
памешчыкау
памор
паморскага
памочнік
памочніка
памочнікам
памрэ
памылак
памылка
памылкова
памылковы
памылку
памылкі
памыліуся
памяншаецца
памяншэнне
памяншэння
памятаць
памятаю
памяти
памятная
памятник
памятники
памятников
памятны
памятных
памятныя
память
памяць
памяці
памяшканне
памяшкання
памяшканнямі
памяшканняу
памяшканнях
памяшканні
паміж
памірае
пан
пана
панавала
панавалі
панаванне
панавання
панавау
панам
панамі
панарама
пандэміі
пане
паненка
панес
панесла
панеслі
панк
панна
панны
пано
панове
паноу
панскага
панскаи
панскі
панскім
панскіх
панскія
панства
пану
пануе
пануючаи
паны
панэлі
панядзелак
панятоускага
паняцце
паняцця
паняццяу
паняцці
пані
паніч
пап
папа
папам
папараць
папау
папе
папер
папера
паперу
паперы
паплечнік
паплечнікау
папова
папоу
папоуніу
папрасіла
папрасіу
папраукі
папскаи
папскі
папу
папуа
папулярнага
папулярнаи
папулярнасць
папулярнасцю
папулярнасці
папулярная
папулярны
папулярным
папулярнымі
папулярных
папулярныя
папулярызацыі
папуляцыя
папуляцыі
папы
папяроваи
папярэджанне
папярэдне
папярэдняга
папярэдняе
папярэдняи
папярэдні
папярэднік
папярэдніка
папярэднікам
папярэднікау
папярэднім
папярэдніх
папярэднія
пар
пара
паравоз
паравы
парад
парадак
парадзе
парадкавы
парадкам
парадкау
парадку
парадкі
параду
парады
паражэнне
паражэннем
паражэння
паражэнняу
паражэнні
паразу
паразы
параи
паралельна
паралельных
паралельныя
паралелі
параметрау
параметры
парамі
паранены
параненымі
параненых
параненыя
параскева
параслі
парасткау
парасткі
параунальна
параунанне
параунання
параунанні
параф
парафіи
парафія
парафіі
параіу
париж
парк
парка
паркавага
паркавы
паркам
паркау
парках
парку
паркі
парламент
парламента
парламентам
парламенту
парламенце
парламенцкаи
парламенцкая
парламенцкіх
парламенцкія
парог
парога
парод
парода
пародамі
пароды
парозе
паром
парт
партал
партала
парталам
партале
партии
партия
партнера
партнерам
партнерамі
партнерау
партнерства
партнеры
партоу
партрэт
партрэта
партрэтам
партрэтау
партрэты
партугальска
партугальскага
партугальскаи
партугальская
партугальскі
партугальцы
партугалія
партугаліі
парты
партызан
партызана
партызанам
партызанамі
партызанау
партызанскага
партызанскаи
партызанская
партызанскую
партызанскі
партызанскім
партызанскіх
партызанскія
партызаны
партыи
партыинага
партыинаи
партыиную
партыины
партыиных
партыиныя
партыю
партыя
партыяи
партыямі
партыях
партыі
пару
паручнік
парушае
парушаюць
парушэнне
парушэннем
парушэння
парушэнняу
парушэнні
пары
парыж
парыжа
парыжскага
парыжскаи
парыжскі
парыжскім
парыжы
парэчча
пас
пасаг
пасад
пасада
пасадах
пасаджаны
пасадзе
пасадзілі
пасадзіу
пасадку
пасадкі
пасаду
пасады
пасажырау
пасажырскі
пасажырскіх
пасажырскія
пасажыры
пасведчанне
пасвечаны
пасе
пасеву
паседжанні
паселак
паселка
паселкау
паселках
паселку
паселкі
паселішча
паселішчау
паселішчах
паселішчы
паскарэнне
паскарэння
пасла
паслалі
пасланне
пасланні
пасланы
паслау
паслаць
паслом
паслоу
паслуг
паслугі
паслужыла
паслужылі
паслужыу
паслухаць
паслы
пасля
пасляваенны
пасляваенныя
паслядоуна
паслядоунасць
паслядоунасці
паслядоунікау
паслядоунікі
паслядыпломнаи
пасляслоуі
пасмяротна
пасол
пасольства
паспалітаи
паспалітая
паспалітую
паспела
паспелі
паспеу
паспешна
паспрабавала
паспрабавалі
паспрабавау
паспрабаваць
паспрыяла
паспяхова
паспяховага
паспяховае
паспяховаи
паспяховы
паспяховым
паспяховых
паспяховыя
пасродкам
пассавета
паст
паста
паставак
паставы
паставіла
паставілі
паставіу
паставіць
пастаменце
пастанавіу
пастанова
пастановаи
пастановак
пастанове
пастанову
пастановы
пастаноу
пастаноука
пастаноукі
пастаноуцы
пастаноушчык
пастаукі
пастаулена
пастауленая
пастаулены
пастауленых
пастауленыя
пастаускага
пастаускі
пастаускім
пастаянна
пастаяннага
пастаяннае
пастаяннаи
пастаянная
пастаянную
пастаянны
пастаянным
пастаянных
пастаянныя
паступае
паступалі
паступаць
паступаюць
паступлення
паступова
паступовае
паступіла
паступілі
паступіу
паступіць
пасты
пасудзіны
пасхалія
пасцелі
пасылае
пасьля
пасяджэнне
пасяджэння
пасяджэнняу
пасяджэннях
пасяджэнні
пасяленне
пасялення
пасяленняу
пасяленні
пасяленцау
пасялковага
пасялковаи
пасялковых
пасялілася
пасяліліся
пасяліуся
пасярод
пасярэдзіне
паталогіі
патлумачыу
паток
патокау
патоку
патокі
патоцкі
патрабавала
патрабавалася
патрабавалі
патрабаванне
патрабаваннем
патрабаванням
патрабаваннямі
патрабаванняу
патрабаванні
патрабавау
патрабаваць
патрабуе
патрабуецца
патрабуюць
патрабуючы
патрапіла
патрапілі
патрапіу
патрапіць
патрон
патронау
патроху
патрыетау
патрык
патрыка
патрыярх
патрыярха
патрыярхам
патрыярхата
патрыярхату
патрыятычнага
патрыятычныя
патрэб
патрэба
патрэбау
патрэбен
патрэбна
патрэбны
патрэбным
патрэбныя
патрэбу
патрэбы
патэнт
патэнтау
патэнцыял
патэнцыялу
пау
пауабаронца
пауабаронцы
паувострава
паувостравам
паувостраве
паувострау
паугадзіны
паугода
пауднева
паудневага
паудневае
паудневаи
паудневая
паудневую
паудневы
паудневым
паудневых
паудневыя
паудня
пауз
паузуноу
паула
паулава
паулавіч
пауладарскаи
паулам
паулау
паулауна
паулауская
паулу
пауль
паулюк
паулі
паулін
паулінка
пауналецця
паунамоцны
паунамоцным
паунамоцтвамі
паунамоцтвау
паунамоцтвы
пауночна
пауночнав
пауночнага
пауночнае
пауночнаи
пауночная
пауночную
пауночны
пауночным
пауночных
пауночныя
пауплывала
пауплывалі
пауплывау
паусаніи
паустае
паустала
паусталі
паустанне
паустаннем
паустання
паустанняу
паустанні
паустанцам
паустанцамі
паустанцау
паустанцы
паустаньне
паустаньня
паустаньні
паустау
паусюдна
паусюль
паутара
паутарае
паутараюцца
паутары
паутарыу
пауторна
пауфінал
пауфінале
пауфіналу
пауфінальным
паушар
пах
пахавальны
пахавальня
пахавалі
пахавана
пахаванне
пахавання
пахаванняу
пахаванні
пахаваны
пахаваных
пахаваныя
пахам
паход
паходау
паходах
паходжанне
паходжання
паходжанні
паходзе
паходзяць
паходзіла
паходзілі
паходзіу
паходзіць
паходу
паходы
паху
пац
пацверджана
пацверджанне
пацверджання
пацверджаны
пацвердзіла
пацвердзілі
пацвердзіу
пацвярджае
пацвярджаецца
пацвярджаюць
пацеркі
пацыентау
пацягнула
пацярпела
пацярпелым
пацярпелых
пацярпелі
пацярпеу
паціху
пач
пачакаи
пачала
пачалася
пачало
пачалося
пачалі
пачаліся
пачата
пачатак
пачаткам
пачаткау
пачатках
пачатковага
пачатковаи
пачатковая
пачатковую
пачатковы
пачатковым
пачатковых
пачатковыя
пачатку
пачаткі
пачаты
пачау
пачауся
пачаушы
пачаць
пачне
пачнуць
пачула
пачулі
пачуу
пачууся
пачуушы
пачуцце
пачуццем
пачуцця
пачуццяу
пачуцці
пачуць
пачуцьце
пачынае
пачынаецца
пачынала
пачыналася
пачынальнікау
пачыналі
пачынау
пачынауся
пачынаць
пачынаюцца
пачынаюць
пачынаючы
пачынкаускім
паша
пашаны
пашкевіч
пашков
пашкоджана
пашкоджанняу
пашкоджанні
пашкоджаны
пашкоу
пашпарт
паштоваи
паштовая
паштовы
паштовых
паштовыя
пашы
пашыраецца
пашыралася
пашырана
пашыраная
пашыраны
пашыраных
пашыраныя
пашырылася
пашырыу
пашырыуся
пашырыць
пашырэнне
пашырэннем
пашырэння
пашырэнні
паэзію
паэзія
паэзіі
паэм
паэма
паэме
паэму
паэмы
паэт
паэта
паэтам
паэтау
паэтка
паэту
паэты
паэтычнаи
паэтычны
паэтычных
паэтычныя
паэтэса
паядынак
паядынку
паясоу
паясы
пд
пдп
пе
певень
пегас
педагагічнага
педагагічнае
педагагічнаи
педагагічны
педагагічным
педагагічных
педагагічныя
педагог
педагогики
педагогікі
педра
педру
пеизаж
пеизажы
пекла
пекін
пекіне
пенальці
пенсільванія
пенсію
пенсіі
пер
пераабраны
пераадолець
перабрауся
перабудавана
перабудаваны
перабудова
перабудовы
перабіу
пераваг
перавага
перавагаи
перавагу
перавагі
пераважае
пераважалі
пераважаюць
пераважна
пераважнаи
пераважная
пераварот
перавароту
пераведзена
пераведзены
перавезена
перавезены
перавесці
перавеу
перавод
пераводу
перавозак
перавозкі
перавысіла
перавышае
перавышала
перавышаюць
перавялі
перагаворау
перагаворы
перагледжанага
перад
перадавалася
перадаваліся
перадаваць
перададзена
перададзены
перададзеныя
перадае
перадаецца
перадала
перадалі
перадау
перадаць
перадач
перадача
перадачаи
перадачу
перадачы
перадаюцца
перадаюць
перадгор
перадусім
пераезду
пераемнік
пераемніка
пераемнікам
пераехала
пераехалі
пераехау
пераехаць
перажывае
перажыла
перажыу
пераиграу
пераименавана
пераименаваная
пераименаванні
пераименаваны
пераисці
пераишла
пераишло
пераишлі
пераишоу
перакананы
пераканау
пераканаць
перакл
пераклад
перакладаецца
перакладам
перакладамі
перакладау
перакладах
перакладзе
перакладзена
перакладзены
перакладу
перакладчык
перакладчыка
перакладчыца
пераклады
пераклалі
пераклау
перакрыта
перакрыты
пералік
пераліку
пералічаны
пералічаных
перамагае
перамагла
перамаглі
перамагчы
перамовау
перамовах
перамовы
перамог
перамога
перамогаи
перамогу
перамогшы
перамогі
пераможаны
пераможца
пераможцам
пераможцамі
пераможцау
пераможцы
перамозе
перамоу
перамычкаи
перамяшчэнне
перамяшчэння
перамір
пераназвана
пераназваны
перанес
перанесена
перанесены
перанеслі
перанесці
перанос
пераносу
пераносіць
пераняу
перападрыхтоукі
пераправы
пераправіуся
перапрацоукі
перапрацоуцы
перапынак
перапынкамі
перапынку
перапыніу
перапіс
перапіска
перапіску
перапісу
пераселены
пераслед
пераследу
перастала
перасталі
перастау
перасякае
перасякаецца
перасякаюць
перасяленне
перасялення
перасяленцамі
перасяленцау
перасяленцы
перасялілася
перасяліліся
перасяліуся
перасячэння
ператвараецца
ператварылася
ператварыліся
ператварыу
ператварыуся
ператварыць
ператварэнне
ператварэння
ператворана
ператвораны
пераузыходзіць
пераутварэнне
пераутварэння
пераутварэнняу
пераутварэнні
пераутворана
пераутвораны
пераход
пераходам
пераходзе
пераходзяць
пераходзячы
пераходзіла
пераходзілі
пераходзіу
пераходзіць
пераходнага
пераходны
пераходу
пераходы
перац
перашкаджае
перашкаджала
перашкаджаць
перашкод
перашкодзіла
перашкодзіць
перашкоды
пераязджае
первая
первого
первои
первые
первыи
первых
перевод
перед
передъ
переименовании
переписи
перепись
перепісу
перераб
перешел
период
пермскага
перс
персанаж
персанажа
персанажау
персанажы
персанал
персаналу
персанальная
персанальных
персанальныя
персау
персеи
перспективы
перспектыве
перспектывы
персідскага
персідскаи
персідскі
персідскім
персіі
перу
перш
першага
першае
першаи
першакрыніцы
першамаискага
першамаискаи
першамаиская
першамаискі
першаму
першапачаткова
першапачатковага
першапачатковаи
першапачатковая
першапачатковы
першапачатковым
першаснаи
першая
першую
першы
першым
першымі
першынства
першынстве
першынство
першых
першыя
перы
перыметры
перыяд
перыяда
перыядам
перыядау
перыядзе
перыяду
перыяды
перыядычна
перыядычнаи
перыядычных
песень
песни
песню
песня
песняи
песнямі
песняры
песняу
песнях
песні
песьню
песьня
песьні
петербург
петр
петра
петраград
петраградзе
петров
петрович
петроград
петруся
петрыкау
петрыкаускага
петрыкаускім
петэр
пецярбург
пецярбурга
пецярбургскага
пецярбургскаи
пецярбургскую
пецярбургскі
пецярбургскім
пецярбургу
пецярбурзе
печ
печані
печы
письма
письмо
пк
пл
плаванию
плаванне
плавання
плаванні
пладовых
пладовыя
пладоу
плады
плазмы
плакала
плакат
плакау
плакаць
план
плана
планавала
планавалася
планавалі
планаванне
планавання
планавау
планам
планау
планах
плане
планет
планета
планету
планеты
планеце
планк
планка
планоука
плантариум
плантацыі
плану
плануе
плануецца
планы
планіровачна
планіроука
планіроукі
пласкагор
пласт
пласта
пластом
пластоу
пласты
пластыка
пласцінка
пласцінкі
пласціны
плата
плато
платон
платона
плату
платформа
платформе
платформы
платы
плаулення
плацдарм
плацдарма
плацілі
плаціна
плаціны
плаціць
плач
плача
плачу
племені
племя
плен
плечы
плод
плоскае
плоскаи
плоскасць
плоскасці
плоская
плоскі
плоскімі
плоскія
плот
плотка
плошча
плошчаи
плошчау
плошчу
плошчы
плутарх
плыве
плывец
плылі
плынь
плыняу
плыні
плыучыха
плэи
плюс
пляжы
плям
пляма
плямамі
плямен
пляменамі
пляменау
пляменнік
пляменніка
пляменнікам
плямены
плямы
плян
пляц
пляцовак
пляцоука
пляцоуку
пляцоукі
пляцоуцы
пляцы
плячах
плячо
плячыма
пліскага
пліт
пліта
пліты
пн
пнв
пнр
пнс
по
побач
победы
побыт
побыту
побыце
поверхностных
повесть
повиненъ
погибли
погибших
погляд
поглядам
поглядау
поглядах
погляду
погляды
пограничья
под
подзвіг
подписал
подписали
подписании
подпіс
подпісам
подпісау
подпісы
подъ
позвы
позна
познань
познані
позняга
позняи
позні
познім
позніх
познія
позірк
поидзе
поидзем
поидуць
поима
поиме
покинул
покинули
покрыва
покрытосеменные
покі
пол
пола
поласць
поласці
полацак
полацк
полацка
полацкага
полацкае
полацкаи
полацкая
полацку
полацкі
полацкім
полацкіх
полацкія
поле
полем
полесье
политиздат
политика
политики
политическая
политическои
полк
полное
полномочии
половине
полоцк
полоцкии
полу
полымя
поль
польны
польск
польска
польскага
польскае
польскаи
польскаму
польская
польску
польскую
польскі
польскім
польскімі
польскіх
польскія
польшча
польшчаи
польшчу
польшчы
полюс
полюса
полюсе
поля
полі
політычных
політэхнічнага
політэхнічны
політэхнічным
помачы
помню
помнік
помніка
помнікам
помнікамі
помнікау
помніках
помніку
помнікі
помста
помсты
поп
попел
попелу
попов
попул
популярная
попыт
попыту
пор
пораху
порт
порта
портал
портам
портреты
порту
порты
поруч
порце
порцік
порцікам
порядка
поселка
поселков
после
последние
пособие
поспех
поспехам
поспехау
поспеху
поспехі
пост
постановление
постаць
постаці
постоянного
посуд
посуду
пот
потам
потым
потэр
поудзень
поудня
поудні
поуна
поунага
поунае
поунаи
поунасцю
поунач
поуначы
поуная
поуную
поуны
поуным
поуных
поуныя
поусць
почему
пошта
пошты
пошук
пошукау
пошуках
пошуку
пошукі
пояс
пояса
поясам
поясе
ппс
пр
пра
праабражэнская
прабачэння
праблем
праблема
праблемаи
праблемамі
праблемах
праблеме
праблему
праблемы
прабыу
прабіцца
прав
права
праваабаронца
праваабарончы
праваахоуных
прававога
прававои
прававы
прававым
прававых
прававыя
правага
правадыр
правадыра
правадыром
правадыроу
правадырствам
правадыры
правае
правазнауства
праваи
правам
правамі
праванса
правапіс
правапісу
праваслауе
праваслаунага
праваслаунае
праваслаунаи
праваслауная
праваслауную
праваслауны
праваслауным
праваслаунымі
праваслауных
праваслауныя
праваслауя
правасуддзя
правах
правая
правда
праве
праведзена
праведзенага
праведзены
праведзеных
праведзеныя
праверана
правераная
праверка
праверкі
праверыць
правесці
правеу
правеушы
правительства
право
правовои
праводзяцца
праводзяць
праводзячы
праводзіла
праводзілася
праводзілі
праводзіліся
праводзіу
праводзіуся
праводзіцца
праводзіць
правомъ
православная
православнои
правоу
праву
правую
правы
правым
правых
правыя
правядзенне
правядзеннем
правядзення
правядзенні
правяла
правялі
правіл
правіла
правіламі
правілау
правілах
правілы
правільна
правільны
правінцыи
правінцыю
правінцыя
правінцыяи
правінцыямі
правінцыях
правінцыі
прага
прагаласавала
прагаласавалі
прагляд
прагляду
праграм
праграма
праграмавання
праграмаи
праграмах
праграме
праграмнага
праграмнае
праграму
праграмы
прагрэс
прагрэсу
прагу
прагі
прад
прадаваць
прададзена
прададзены
прадалі
прадау
прадаць
прадзюсар
прадзюсарам
прадм
прадмесце
прадмесця
прадмесці
прадмет
прадмета
прадметам
прадметамі
прадметау
прадметы
прадмова
прадмове
прадмовы
прадпрыемства
прадпрыемствам
прадпрыемствамі
прадпрыемствау
прадпрыемствах
прадпрыемстве
прадпрыемствы
прадпрымальнік
прадпрымальнікау
прадпрымальніцтва
прадставіла
прадставілі
прадставіу
прадставіць
прадстаулена
прадстауленая
прадстауленне
прадстаулення
прадстауленні
прадстаулены
прадстауленыя
прадстауляе
прадстауляла
прадстаулялі
прадстауляу
прадстауляць
прадстауляюць
прадстаунік
прадстауніка
прадстаунікам
прадстаунікамі
прадстауніком
прадстаунікоу
прадстаунікі
прадстауніца
прадстауніцтва
прадугледжана
прадугледжвае
прадугледжвала
прадугледжвалася
прадугледжвау
прадукт
прадуктам
прадуктамі
прадуктау
прадукту
прадукты
прадукцыинасці
прадукцыю
прадукцыя
прадукцыі
прадухілення
прадухіліць
праезд
праезду
праект
праекта
праектаванне
праектавання
праектаванні
праектам
праектау
праектах
праектных
праекту
праекты
праекце
праемамі
праемау
праемы
пражскага
пражскаи
пражскі
пражывае
пражывала
пражывалі
пражывання
пражывау
пражываюць
пражыу
праз
празаік
празе
праиграла
праиграу
праиграушы
праисці
праишла
праишло
праишлі
праишоу
праишоушы
праказау
пракат
пракаце
пракладзена
пракладзены
пракоп
пракоф
практ
практыка
практыкаи
практыку
практыкі
практыцы
практычна
практычнага
практычнаи
практычная
практычную
практычны
практычных
практычныя
пракуратура
пракуратуры
пракурор
пракурора
пралетарыяту
пралягае
праліва
пралівам
праліве
праліу
прама
прамавугольнага
прамавугольнае
прамавугольнаи
прамавугольная
прамавугольны
прамавугольным
прамавугольнымі
прамавугольных
прамавугольныя
прамалінеинаи
прамая
прамежак
прамежку
прамень
праметэи
прамова
прамоваи
прамове
прамову
прамовы
прамовіу
прамога
прамое
прамои
прамы
прамым
прамымі
прамыслова
прамысловага
прамысловае
прамысловаи
прамысловасць
прамысловасці
прамысловасьць
прамысловасьці
прамысловая
прамысловы
прамысловым
прамысловых
прамысловыя
прамых
прамыя
прамянеу
прамяні
праміле
прановіч
пранікае
пранікненне
пранікнення
прапаведнік
прапаганда
прапаганду
прапаганды
прападобнага
прапала
прапанавала
прапанавалі
прапанавана
прапанаваны
прапанавау
прапанаваць
прапанова
прапановаи
прапанове
прапанову
прапановы
прапаноу
прапаноувалася
прапаноувалі
прапаноувау
прапануе
прапануюць
прапау
прапорцыі
прапрацавау
прапусціу
прапушчаныя
прарок
прарока
прарокау
прарыву
прарыу
прарэзаны
прарэктар
прасачыць
прасвятои
праселкаваи
праславіуся
прасоуванне
прасоування
прасочваецца
праспект
праспекта
праспектам
праспекце
прастол
прастола
прастор
прастора
прастораваи
прасторах
прастору
прасторы
прасцеи
прасценках
прасіла
прасілі
прасіу
прасіць
пратакол
пратаколы
прататып
прататыпам
пратокаи
пратэктарат
пратэст
пратэстантау
пратэстанты
пратэстанцкаи
пратэстанцкіх
пратэстау
пратэстоуцау
пратэстоуцы
пратэсту
пратэстуючых
пратэсты
прау
прауда
праудзе
праудзівы
прауду
прауды
прауленне
праулення
праф
прафесар
прафесара
прафесарам
прафесарау
прафесары
прафесіина
прафесіинага
прафесіинаи
прафесіиная
прафесіиную
прафесіины
прафесіиным
прафесіиных
прафесіиныя
прафесіяналау
прафесіі
прафсаюза
прафсаюзау
прафілактыкі
прах
праход
праходжанне
праходжання
праходжанні
праходзяць
праходзячы
праходзіла
праходзілі
праходзіу
праходзіць
праходу
прац
праца
працавала
працавалі
працавау
працаваць
працаи
працамі
працаунікоу
працах
працоунага
працоунаи
працоуная
працоуную
працоуны
працоуным
працоуных
працоуныя
працу
працуе
працуюць
працуючы
працы
працэдура
працэдуры
працэнт
працэнтау
працэс
працэсам
працэсамі
працэсар
працэсау
працэсах
працэсе
працэсу
працэсы
працяг
працягам
працягвае
працягваецца
працягвала
працягвалася
працягвалі
працягваліся
працягвау
працягвауся
працягваць
працягваюцца
працягваюць
працягваючы
працяглага
працяглаи
працягласць
працягласцю
працягласці
працяглы
працяглым
працяглых
працяглыя
працягнула
працягнулася
працягнулі
працягнуу
працягнуць
працягу
працякае
працякаюць
праціунік
праціуніка
праціунікам
праціунікау
праціуніку
праціунікі
прачнууся
прачытау
прачытаць
прашу
прашэнне
праявы
праявіу
праяуленыя
праяуляецца
праіснавала
праіснавау
пред
предисл
представительных
президент
президента
президиума
премии
премьер
преобразовании
пресс
при
применение
природа
природы
присвоении
про
пробашч
пробашчам
проблема
проблемы
проверено
программа
программе
прогресс
продаж
продажау
продажу
продажы
продка
продкамі
продкау
продкі
продлил
продлили
проект
проза
прозвішча
прозвішчам
прозвішчау
прозвішчы
прозе
прозы
проидзе
производства
прокудин
промыслу
промыслы
пропаведзі
пропуску
проса
просвещение
просвещения
проста
простага
простае
простаи
простая
простую
просты
простым
простымі
простых
простыя
просьбаи
просьбе
просьбу
просьбы
просяць
просіць
протаіерэи
против
протчым
проф
профессора
профіль
профілю
прохарау
прохвіч
прохоров
прохорова
проц
процант
проці
процівагу
процілеглым
проціу
прудок
пружанскага
пружанскі
пружанскім
пружаны
прускага
прускаи
прускі
прусію
прусія
прусіяи
прусіі
пры
прыбалтыкі
прыбалтыцы
прыблізна
прыбор
прыборау
прыборы
прыбраць
прыбудавана
прыбудаваны
прыбыла
прыбылі
прыбытак
прыбыткау
прыбытку
прыбыткі
прыбыу
прыбыцця
прыбыцці
прыбярэжнаи
прыбярэжных
прыбярэжныя
прывад
прыватнага
прыватнае
прыватнаи
прыватнасці
прыватная
прыватную
прыватны
прыватным
прыватнымі
прыватных
прыватныя
прыведзена
прыведзены
прыведзеныя
прывез
прывезены
прывезлі
прывесці
прывеу
прыводзяцца
прыводзяць
прыводзіла
прыводзіцца
прыводзіць
прывык
прывядзе
прывяла
прывяло
прывялі
прывід
прывілеи
прывілеяу
прывілеі
прывітанне
прыгавораны
прыгажосць
прыгажосці
прыгажуня
прыгарадзе
прыгарадных
прыгатавання
прыгнету
прыгод
прыгоды
прыгожа
прыгожага
прыгожаи
прыгожая
прыгожую
прыгожы
прыгожым
прыгожых
прыгожыя
прыгоннага
прыгонных
прыгону
прыдатныя
прыдворнага
прыдворнаи
прыдворны
прыдворным
прыдворных
прыднястроускаи
прыдумау
прыезду
прыем
прыемау
прыемна
прыемны
прыемным
прыему
прыемы
прыехала
прыехалі
прыехау
прыехаць
прыз
прызавы
прызавых
прызваны
прызер
прызерам
прызерка
прызнавалі
прызнавау
прызнавауся
прызнаваць
прызнае
прызнаецца
прызнала
прызналі
прызнана
прызнаная
прызнанне
прызнання
прызнанні
прызнаны
прызнаныя
прызнау
прызнауся
прызнацца
прызнаць
прызначае
прызначаецца
прызначалася
прызначаліся
прызначана
прызначаная
прызначаны
прызначаных
прызначаныя
прызначауся
прызначаюцца
прызначылі
прызначыу
прызначыць
прызначэнне
прызначэннем
прызначэння
прызначэнні
прызнаюць
прыидзе
прыидзецца
прыисці
прыишла
прыишло
прыишлося
прыишлі
прыишоу
прыишоуся
прыишоушы
прыклад
прыкладам
прыкладамі
прыкладау
прыкладзе
прыкладна
прыкладная
прыкладнога
прыкладнои
прыкладных
прыкладу
прыклады
прыкмет
прыкметаи
прыкметна
прыкметны
прыкметы
прыкмеце
прыкра
прылад
прылада
прыладаи
прыладамі
прыладу
прылады
прылеглых
прылеглыя
прылягае
прылічаны
прымае
прымаецца
прымала
прымалі
прымау
прымаць
прымаюцца
прымаюць
прымаючы
прыме
прымеркаваны
прыметнік
прымусова
прымусіла
прымусілі
прымусіу
прымусіць
прымушае
прымушаны
прымыкае
прымыкаюць
прымяненне
прымянення
прымяняецца
прымяняюцца
прыналежнасць
прыналежнасці
прынамсі
прынес
прынесла
прынеслі
прынесці
прыносяць
прыносілі
прыносіць
прынц
прынца
прынцам
прынцып
прынцыпам
прынцыпамі
прынцыпау
прынцыпах
прынцыпе
прынцыпова
прынцыпу
прынцыпы
прынцэса
прынцэсаи
прынцэсы
прыняла
прыняло
прынялі
прынята
прынятаи
прынятая
прыняты
прынятым
прынятых
прынятыя
прыняу
прыняушы
прыняцце
прыняццем
прыняцця
прыняцці
прыняць
прыпадае
прыпынак
прыпыначны
прыпыначным
прыпынку
прыпяць
прыпяці
прыпісваецца
прыпісваюць
прырода
прыродазнауства
прыродазнаучых
прыродаи
прыродзе
прыроднага
прыроднаи
прыродны
прыродным
прыродных
прыродныя
прыроду
прыроды
прырост
прысваенні
прысвечана
прысвечанаи
прысвечаная
прысвечаную
прысвечаны
прысвечаных
прысвечаныя
прысвоена
прысвоены
прысвоиваецца
прысвоіу
прысвяціу
прыстань
прыстасаванне
прыстасаваны
прыстау
прыстаука
прыстаукі
прыступілі
прыступіу
прыступіць
прысуд
прысуджаецца
прысуджана
прысуджаны
прысудзіу
прысуду
прысутнасць
прысутнасці
прысутных
прысутнічае
прысутнічала
прысутнічалі
прысутнічау
прысутнічаць
прысутнічаюць
прысягу
прысягі
прытвор
прыток
прытокам
прытокамі
прытокау
прытоку
прытокі
прытрымліваецца
прытрымлівауся
прытрымлівацца
прытрымліваюцца
прытулак
прытулку
прытым
прыхаджан
прыход
прыхода
прыходам
прыходау
прыходзе
прыходзяць
прыходзілася
прыходзілі
прыходзіу
прыходзіцца
прыходзіць
прыходская
прыходу
прыходы
прыхільнасць
прыхільнік
прыхільнікам
прыхільнікамі
прыхільнікау
прыхільнікі
прыцягвае
прыцягвауся
прыцягвацца
прыцягненне
прыцягнення
прыцягнула
прыцягнуу
прыцягнуць
прычым
прычын
прычына
прычынаи
прычынамі
прычынах
прычыне
прычыну
прычыны
прышлося
прышлі
прышоу
прыязджае
прыязджалі
прыязджау
прыярытэт
прэзентацыя
прэзентацыі
прэзідыум
прэзідыума
прэзідэнт
прэзідэнта
прэзідэнтам
прэзідэнтау
прэзідэнту
прэзідэнты
прэзідэнце
прэзідэнцкаи
прэзідэнцкіх
прэзідэнцкія
прэзідэнцтва
прэм
прэміи
прэмію
прэмія
прэміяи
прэміі
прэпаратау
прэпараты
прэс
прэса
прэсе
прэснаи
прэсных
прэстыжных
прэсы
прэтэндаваць
прэтэндэнтау
прэтэнзіи
прэтэнзіі
прэфект
прэфектура
прэфектуры
прэч
пс
псалма
псалмы
псалом
псалтыр
псальма
псальмау
псеуда
псеуданім
псеуданімам
псеуданімы
пскова
пскоу
пскоускаи
псы
псіха
псіхалагічнаи
псіхалагічных
псіхалогія
псіхалогіі
псіхолаг
пталамея
птушак
птушка
птушкамі
птушку
птушкі
пу
пуацье
публікаваліся
публікавау
публікацыи
публікацыю
публікацыя
публікацыі
публікуе
публікі
публіцы
публіцыст
публіцыстычных
публічна
публічнага
публічнаи
публічная
публічных
публічныя
пуд
пудоу
пузыны
пункт
пункта
пунктам
пунктамі
пунктау
пунктах
пунктов
пункту
пункты
пункце
пупышкі
пустазелле
пусты
пустыня
пустыні
пусцілі
пусціу
путеводитель
пути
путь
пух
пухавіцкага
пухавіцкі
пухавіцкім
пухліны
пуховичского
пуці
пуцін
пуціна
пушкін
пушкіна
пушча
пушчу
пушчы
пуэбла
пуэрта
пфальц
пціч
пчол
пчолы
пшаніца
пшаніцы
пыл
пылу
пытае
пытаецца
пытанне
пытаннем
пытання
пытанням
пытаннямі
пытанняу
пытаннях
пытанні
пытаньне
пытаньня
пытаньні
пэн
пэры
пэрыод
пэуна
пэунага
пэунае
пэунаи
пэуная
пэуне
пэуную
пэуны
пэуным
пэунымі
пэуных
пэуныя
пяе
пялевіна
пялесткау
пялесткі
пярну
пяро
пярсценак
пярсценка
пярсценкау
пярун
пярэдняга
пярэдняи
пярэдняя
пярэдні
пярэднім
пярэдніх
пярэднія
пяском
пяскоу
пяску
пяскі
пясок
пясчана
пясчанае
пясчаных
пясчаныя
пясьняр
пятага
пятае
пятаи
пятая
пятнаццаць
пятнаццаці
пятніцкая
пятніцу
пятра
пятро
пятрова
пятровіч
пятровіча
пятром
пятроу
пятроуна
пятроускі
пятру
пятрусь
пятую
пяты
пятым
пять
пяхота
пяхотнага
пяхотнаи
пяхотная
пяхотны
пяхотных
пяхотныя
пяхоты
пяцера
пяццю
пяць
пяцьдзесят
пяці
пячатка
пячаткі
пячор
пячора
пячорах
пячору
пячоры
пяюць
пі
піва
піи
пік
піка
пікаса
піку
пілот
пілота
пілотау
пілоты
пілсудскага
пілсудскі
пільна
пілястрамі
пілястры
пілі
піліп
піліпавіч
пінск
пінска
пінскага
пінскаи
пінская
пінску
пінскі
пінскім
піньінь
піпін
піраміда
піраміды
піратау
піры
пісала
пісалі
пісаліся
пісання
пісар
пісара
пісау
пісаць
пісталет
пісьма
пісьме
пісьменнасць
пісьменнасці
пісьменнік
пісьменніка
пісьменнікам
пісьменнікау
пісьменнікі
пісьменніца
пісьменніцы
пісьменства
пісьмо
пісьмоваи
пісьмовасць
пісьмовая
пісьмовы
пісьмовых
пісьмовыя
пісьмом
пісьмы
піт
пітнои
пітэр
пітэра
піу
піць
піша
пішацца
пішу
пішуцца
пішуць
пія
піянер
піянерау
піяніст
р
ра
раб
рабамі
рабкор
работ
работа
работаи
работах
работнік
работнікау
работнікі
работу
работы
рабоу
рабоце
рабоча
рабочага
рабочаи
рабочая
рабочы
рабочым
рабочымі
рабочых
рабочыя
рабства
рабы
рабі
рабіла
рабілася
рабілі
рабіліся
рабіна
рабіу
рабіуся
рабіць
рава
рагатаи
рагачоу
рагачоускага
рагачоускі
рагачоускім
рагвалода
рагнеда
рагоиша
рагу
рад
рада
радавога
радавод
радавы
радаи
радам
радамі
радасна
радасць
радасцю
радасці
радасьць
радах
радзе
радзеи
радзівіл
радзівіла
радзівілам
радзівілау
радзівілы
радзіма
радзімаи
радзіме
радзіму
радзімы
радзіуся
ради
радио
радка
радкоу
радку
радкі
радовішча
радовішчау
радовішчы
радок
радоу
раду
рады
радые
радыестанцыя
радыестанцыі
радыкальна
радыкальных
радыус
радыяцыі
раен
раена
раенам
раенамі
раенау
раенах
раене
раеннага
раеннаи
раенная
раенны
раенным
раенных
раенныя
раену
раены
раз
разабраны
разабрацца
разам
разанскаи
разараныя
разарваны
разарвау
разбурана
разбураны
разбурылі
разбурыць
разбурэнне
разбурэння
разбурэнні
разбілі
разбіта
разбіты
разбіу
разбіць
развагі
разважанні
разважау
разведка
разведку
разведкі
разведчык
развитие
развития
развіваецца
развівалася
развіваліся
развівау
развівауся
развівацца
развіваць
развіваюцца
развіта
развітаи
развітанне
развітая
развіты
развітым
развітых
развітыя
развіу
развіцце
развіццем
развіццю
развіцця
развіцці
разгар
разгарнулася
разгарнуу
разгледзеу
разгледзець
разгляд
разглядае
разглядаецца
разглядалася
разглядалі
разглядаліся
разглядау
разглядауся
разглядацца
разглядаць
разглядаюцца
разглядаюць
разглядзе
разгляду
разгону
разгортваецца
разграмілі
разграміу
разгром
разгромлены
разгрому
раздельнолепестные
раздзел
раздзела
раздзелау
раздзеле
раздзелы
разе
разлік
разлікау
разліку
разлічана
разлічаны
разлічвау
размауляе
размаулялі
размауляць
размауляюць
размах
размер
размеркаванне
размеркавання
размеркаванні
размеркаваны
размешчана
размешчанага
размешчанае
размешчанаи
размешчаная
размешчаны
размешчаным
размешчанымі
размешчаных
размешчаныя
размнажаецца
размнажэнне
размнажэння
размова
размову
размовы
размясцілася
размясцілі
размясціліся
размясціуся
размясціць
размяшчаецца
размяшчалася
размяшчаліся
размяшчауся
размяшчаюцца
размяшчэнне
размяшчэннем
размяшчэння
размяшчэнні
разнавіднасць
разнавіднасці
разнастаинасць
разнастаинасцю
разнастаинасці
разнастаиная
разнастаины
разнастаинымі
разнастаиных
разнастаиныя
разня
разовы
разоу
разрабавалі
разрабаваны
разрад
разрадзе
разраду
разрезе
разрыву
разрыу
разрэзе
разу
разумее
разумеецца
разумелі
разуменне
разумення
разуменні
разумеу
разумець
разумею
разумеюць
разумеючы
разумны
разы
разыходзяцца
разышліся
разьба
разьбои
разьвіцьце
разьвіцьця
разьдзел
раи
раивыканкама
раикама
раион
раиона
раионе
раионного
раионов
раит
рак
рака
ракавіны
ракако
ракау
ракацы
ракет
ракета
ракетамі
ракетны
ракетных
ракеты
ракои
раку
ракі
рама
раман
рамана
раманава
раманавых
раманавіч
раманам
раманау
раманах
рамане
рамантызму
рамантычнаи
раману
раманы
рамеснікау
рамеснікі
рамествау
рамествы
рамках
рамкі
рамонт
рамонтна
рамонту
рамонце
рамы
рамяство
ран
рана
ранг
рангу
ранеи
ранеишага
ранеишае
ранеишаи
ранеишаму
ранеишая
ранеишы
ранеишым
ранеишых
ранеишыя
раненне
раненні
ранняга
ранняе
ранняи
ранняя
ранні
раннім
ранніх
раннія
раны
раніца
раніцаи
раніцу
раніцы
раптам
раптоуна
рас
раса
расаваи
расеиска
расеискаи
расеискі
расеискіх
расеі
расказау
расказаць
расказвае
расказвау
расклад
раскол
расколу
раскопак
раскопках
раскопкі
раскрывае
раскрываецца
расла
расло
раслі
раслін
расліна
раслінаводства
раслінамі
раслінах
расліннага
расліннасць
расліннасцю
расліннасці
раслінны
раслінным
раслінных
расліну
расліны
расонскага
расонскім
расоны
распавеу
распавядае
распад
распаду
распалася
распараджэнне
распараджэннем
распараджэнняу
распараджэнні
распасціраецца
распаусюджана
распаусюджанаи
распаусюджаная
распаусюджанне
распаусюджання
распаусюджаны
распаусюджаным
распаусюджаных
распаусюджаныя
распаусюджваецца
распаусюджвалася
распаусюджваліся
распаусюджванне
распаусюджваннем
распаусюджванню
распаусюджвання
распаусюджвацца
распаусюджваюцца
распаусюдзілася
распаусюдзіліся
распаусюдзіуся
распауся
распачала
распачалі
распачата
распачаты
распачау
распачаць
распрацавала
распрацавалі
распрацавана
распрацаваная
распрацаваны
распрацаваныя
распрацавау
распрацаваць
распрацовак
распрацоувае
распрацоувау
распрацоука
распрацоукаи
распрацоуку
распрацоукі
распрацоуцы
распрацоушчыкау
распушчаны
рассеянае
рассказы
расследаванне
расследавання
расследаванні
расстался
расстралялі
расстраляны
расстраляныя
расстрэл
расстрэлу
рассялення
раства
раствараецца
растении
растения
растлумачыу
растлумачыць
растове
расторг
растоу
растоускаи
растуць
расход
расце
расці
расціслау
расчеты
расчлянены
расы
расьце
расіиска
расіискага
расіискае
расіискаи
расіискаму
расіиская
расіискую
расіискі
расіискім
расіискімі
расіискіх
расіискія
расію
расія
расіяи
расіі
ратуша
ратушы
рау
раунавагі
раунамерна
раунд
раунда
раундзе
раунін
рауніна
раунінах
рауніне
раунінны
рауніну
рауніны
рафаэль
рафаэля
рахунак
рахунку
рацыя
рацэ
рачная
рачнога
рачнои
рачны
рачных
рачныя
рашоткі
рашуча
рашыу
рашэнне
рашэннем
рашэння
рашэнняу
рашэнні
раю
раян
раіса
рб
рбк
реальныи
революции
революция
рег
регионы
ред
редактор
редакциеи
редакционныи
редакция
редкол
реестр
режим
режима
рек
река
республик
республика
республике
республики
ресурс
ресурсы
речи
речнои
речы
решение
решении
решения
риа
рк
рка
ркп
ркі
рнк
ро
роберт
роберта
робертам
робертсан
робяцца
робяць
робячы
робін
робіцца
робіць
ровам
ровенскаи
рог
рогі
род
рода
родам
родау
роджэр
родзе
родины
роднага
роднае
роднаи
родная
родную
родны
родным
родных
родныя
роду
роды
рождения
роза
рознага
рознагалоссі
рознае
рознаи
рознаму
рознасць
розную
розны
розным
рознымі
розных
розныя
розніца
розніцы
розум
розумам
розуму
розыгрыш
розыгрышам
розыгрышу
розыгрышы
рои
рок
рока
року
рокъ
роль
ролю
роля
роляу
ролях
ролі
рома
роман
роні
рос
роса
росквіт
росквіту
рославльскии
рославльского
рослаульскім
роспачы
роспуску
роспіс
роспісы
россии
россииская
россииские
россиискии
россииских
россииского
россиискои
россия
рост
ростам
ростов
росту
рось
рот
рота
ротмістр
роту
роты
роу
роуна
роунае
роунаи
роунасць
роунасці
роуная
роуную
роуны
роуным
роунымі
роуных
роуныя
роце
рпц
рсдрп
рсза
рскі
рсфср
рсча
ру
руб
рубеж
рубель
рубенс
рубенса
рублеу
рубля
рублі
рубяжы
руд
руда
рудзенск
рудня
руднянскім
рудні
руднік
рудольф
рудольфа
руды
ружа
ружовага
ружовы
ружовым
ружовыя
ружы
рук
рука
рукавы
рукамі
рукапіс
рукапісау
рукапісах
рукапісных
рукапісу
рукапісы
рукау
руках
руководство
рукои
рукою
руку
рукі
рулем
рум
румынскага
румынскаи
румынская
румынскі
румынію
румынія
румыніяи
румыніі
румянцава
рунь
руп
рус
русак
руси
руск
руска
рускага
рускае
рускаи
руская
руску
рускую
рускі
рускім
рускімі
рускіх
рускія
руслан
русо
русск
русская
русские
русскии
русских
русско
русского
русское
русскои
русском
рустам
русь
русі
русіфікацыі
рух
руха
рухавік
рухавіка
рухавікамі
рухавіком
рухавікоу
рухавікі
рухаецца
рухам
рухамі
рухау
рухацца
рухаюцца
рухомага
руху
рухі
руцэ
ручаем
ручаеу
ручаи
ручая
ручаі
ручкі
рушыла
рушылі
рушыу
рушыць
руінах
руіны
рф
ры
рыа
рыб
рыба
рыбаи
рыбак
рыбакоу
рыбалоуства
рыбалоуствам
рыбнаи
рыболова
рыбу
рыбы
рывер
рыга
рыгор
рыгора
рыгоравіч
рыгорам
рыгорауна
рыгору
рыгу
рыгі
рыжскага
рыжскаи
рыжскі
рыжскім
рыжы
рызе
рызыкі
рык
рыка
рыкі
рым
рыма
рымам
рыме
рымлян
рымлянамі
рымляне
рымска
рымскага
рымскае
рымскаи
рымская
рымскую
рымскі
рымскім
рымскіх
рымскія
рыму
рынак
рыначнаи
рынка
рынкау
рынках
рынку
рынкі
рыс
рыса
рысаи
рысамі
рысау
рысу
рысы
рысь
рытм
рытмічна
рыторыкі
рытуалы
рыф
рыхтавалі
рыхтаваліся
рыхтавау
рыхтавауся
рыхтавацца
рыхтуе
рыхтуецца
рыцар
рыцара
рыцарау
рыцары
рычард
рычарда
рычы
рыштунку
рэ
рэабілітаваны
рэабілітацыі
рэакцыи
рэакцыю
рэакцыя
рэакцыі
рэал
рэальна
рэальнага
рэальнае
рэальнаи
рэальнасць
рэальнасці
рэальная
рэальны
рэальным
рэальных
рэальныя
рэалізавана
рэалізаваны
рэалізаваць
рэалізацыю
рэалізацыя
рэалізацыі
рэалізму
рэарганізавана
рэарганізаваны
рэарганізацыі
рэвалюцыина
рэвалюцыинага
рэвалюцыинаи
рэвалюцыиная
рэвалюцыиную
рэвалюцыины
рэвалюцыиным
рэвалюцыиных
рэвалюцыиныя
рэвалюцыю
рэвалюцыя
рэвалюцыяи
рэвалюцыянер
рэвалюцыянерау
рэвалюцыі
рэволюцыі
рэвізіинаи
рэвізіі
рэгент
рэгента
рэгентам
рэгламентам
рэгулюе
рэгуляванне
рэгулявання
рэгулярна
рэгулярнага
рэгулярнаи
рэгулярны
рэгулярных
рэгулярныя
рэгіен
рэгіена
рэгіенам
рэгіенау
рэгіенах
рэгіене
рэгіену
рэгіены
рэгістрацыю
рэгістрацыя
рэгістрацыі
рэгіянальнага
рэгіянальнаи
рэгіянальная
рэгіянальны
рэгіянальным
рэгіянальных
рэгіянальныя
рэд
рэдагавау
рэдактар
рэдактара
рэдактарам
рэдактары
рэдакцыины
рэдакцыю
рэдакцыя
рэдакцыяи
рэдакцыі
рэдка
рэдкал
рэдкалегія
рэдкалегіі
рэдкая
рэдкі
рэдкім
рэдкімі
рэдкіх
рэдкія
рэек
рэестр
рэестры
рэж
рэжым
рэжымам
рэжымау
рэжыме
рэжыму
рэжысер
рэжысера
рэжысерам
рэжысерау
рэзалюцыю
рэзалюцыя
рэзалюцыі
рэзананс
рэзервацыі
рэзерву
рэзка
рэзкага
рэзкае
рэзкі
рэзкім
рэзідэнцыю
рэзідэнцыя
рэзідэнцыяи
рэзідэнцыі
рэи
рэик
рэикі
рэин
рэина
рэис
рэисы
рэитынг
рэитынгавага
рэитынгавы
рэитынгавым
рэитынгавых
рэитынгу
рэиха
рэихстага
рэк
рэкамендацыі
рэкамендуецца
рэкамі
рэканструкцыю
рэканструкцыя
рэканструкцыі
рэканструяваны
рэках
рэкламы
рэкорд
рэкордау
рэктар
рэктара
рэктарам
рэкі
рэлаксін
рэле
рэльеф
рэльефу
рэлігіи
рэлігіина
рэлігіинага
рэлігіинае
рэлігіинаи
рэлігіиная
рэлігіиную
рэлігіины
рэлігіиным
рэлігіинымі
рэлігіиных
рэлігіиныя
рэлігію
рэлігія
рэлігіяи
рэлігіі
рэліз
рэнесансу
рэнэ
рэпертуар
рэпертуары
рэпрэсаваныя
рэпрэсіи
рэпрэсіі
рэпутацыю
рэпіна
рэспу
рэспубл
рэспублік
рэспубліка
рэспублікаи
рэспубліканскага
рэспубліканскае
рэспубліканскаи
рэспубліканская
рэспубліканскі
рэспубліканскім
рэспубліканскіх
рэспубліку
рэспублікі
рэспубліцы
рэстаран
рэстаурацыя
рэстаурацыі
рэсурс
рэсурсамі
рэсурсау
рэсурсы
рэтраспектыуна
рэфармацыі
рэферэндум
рэферэндуме
рэферэндуму
рэформ
рэформа
рэформаи
рэформау
рэформе
рэформу
рэформы
рэха
рэцэнзія
рэцэнзіі
рэч
рэчау
рэчаіснасць
рэчаіснасці
рэчаісных
рэчка
рэчку
рэчкі
рэчцы
рэччу
рэчы
рэчыва
рэчывам
рэчывамі
рэчывау
рэчывы
рэчыца
рэчыцкага
рэчыцкаи
рэчыцкі
рэчыцкім
рэчыцы
рэчышча
рэчышчы
рэшт
рэшта
рэштак
рэшткамі
рэшткау
рэшткі
рэшту
рэшце
с
са
сааут
сааутар
сааутарстве
сааутары
сабак
сабака
сабаку
сабакі
сабалеускі
сабе
сабои
сабор
сабора
саборам
саборау
сабору
саборы
сабою
сабрала
сабралася
сабралі
сабраліся
сабрана
сабраны
сабраных
сабраныя
сабрау
сабрауся
сабраушы
сабраць
сава
савет
савета
саветам
саветау
саветнік
саветніка
саветнікам
савету
саветы
савеце
савецка
савецкага
савецкае
савецкаи
савецкая
савецкую
савецкі
савецкім
савецкімі
савецкіх
савецкія
савы
савіцкі
савіч
савічы
сага
сагановіч
сагі
сад
сада
садавіны
садам
садама
садах
садзе
садзеинічала
садзеинічалі
садзеинічанне
садзеинічання
садзеинічанні
садзеинічау
садзіцца
садовая
садовых
садок
садоу
садружнасць
садружнасці
саду
сады
сажалка
сажалкі
сажняу
саит
саита
саитам
саитау
саите
саиты
саице
сак
сакавік
сакавіка
сакавіку
сакалова
сакалоу
сакалоускі
сакральная
сакратар
сакратара
сакратаром
сакратарыят
сакратарыята
сакрэт
саксен
саксонскага
саксонія
саксоніі
сала
салавеи
саламон
саламона
салауеу
салах
салдат
салдата
салдатам
салдатамі
салдатау
салдаты
салдацкіх
саленасць
салецтвау
салецтвы
салодкі
саломы
салон
салона
салоне
сальвадор
саліван
салівана
салігорск
салігорскага
салігорску
салігорскі
салігорскім
салідарнасць
салідарнасці
саліст
салістка
сам
сама
самаабароны
самавызначэнне
самага
самагубства
самагубствам
самае
самаи
самак
самакіраванне
самакіравання
самалет
самалета
самалетам
самалетау
самалетах
самалеты
самалеце
самалі
саманазва
самара
самасвядомасці
самастоина
самастоинага
самастоинае
самастоинаи
самастоинасць
самастоинасці
самастоиная
самастоиную
самастоины
самастоиным
самастоиных
самастоиныя
самая
самец
сами
самка
самкі
само
самоа
самога
самого
самои
самому
саму
самуэль
самую
самуіл
самца
самцоу
самцы
самъ
самы
самым
самымі
самых
самыя
самі
самім
саміх
сан
санаторыи
сандрыкамі
санкт
санкцыи
санкцыі
санскр
сант
санта
сантыметрау
санча
санько
сані
сапега
сапегау
сапегі
сапр
сапрана
сапрапелем
сапрауднага
сапрауднае
сапрауднаи
сапрауднасці
сапраудная
сапраудную
сапраудны
сапраудным
сапраудных
сапраудныя
сапрауды
сар
сара
сарака
саранск
сарас
сараса
саратаускаи
саратова
сардзінія
сардэчна
сарока
сартоу
сарты
сары
сасланы
саслоуя
саслоуяу
саставу
састау
саступае
саступау
саступаючы
саступкі
саступіла
саступіу
саступіушы
саступіць
сасудау
сатурн
сатурна
сатыры
сау
саугас
саугаса
саудаускаи
саудауская
саука
саундтрэк
саусім
саут
саучанка
сафонава
сафонаускага
сафонаускім
сафі
сафіискага
сафія
сафіі
саха
сахалін
сахары
сацукевіч
сацыелаг
сацыял
сацыялогія
сацыялогіі
сацыяльна
сацыяльнага
сацыяльнае
сацыяльнаи
сацыяльная
сацыяльную
сацыяльны
сацыяльным
сацыяльных
сацыяльныя
сацыялізм
сацыялізму
сацыялістау
сацыялісты
сацыялістычнага
сацыялістычнаи
сацыялістычная
сацыялістычную
сацыялістычны
сацыялістычных
сачанка
сачыненні
сачыу
сачыць
саша
саюз
саюза
саюзам
саюзау
саюзе
саюзнаи
саюзных
саюзныя
саюзнікам
саюзнікамі
саюзнікау
саюзнікі
саюзу
саюзы
сб
сбм
сборник
сборнои
сбп
св
сва
свабод
свабода
свабодзе
свабодна
свабоднага
свабоднае
свабоднаи
свабодная
свабодны
свабодным
свабодных
свабодныя
свабоду
свабоды
свае
сваеи
сваею
сваиго
сваиму
сваркі
сваю
свая
сваяк
сваяка
сваякамі
сваякоу
сваякі
сваяцтва
сваім
сваімі
сваіх
сведак
сведении
сведения
сведкам
сведкау
сведкі
сведчанне
сведчаннем
сведчанняу
сведчанні
сведчаць
сведчыла
сведчыць
свежы
свежым
свежыя
свет
света
светам
светапогляду
светла
светлавы
светлавых
светлага
светлагорск
светлагорскага
светлагорскі
светлагорскім
светлаи
светлая
светлы
светлых
светлыя
свету
свеце
свецкага
свецкае
свецкаи
свецкіх
свецкія
свечкі
свидетелеи
свобода
свободныи
свое
своеасабліваи
своеасаблівы
своеасаблівым
своего
своее
своеи
своечасова
свои
своиму
своискаи
своих
своихъ
свою
свядома
свядомасць
свядомасці
связи
свярдлова
свярдлоускаи
свят
свята
святам
святаполк
святаполка
святар
святара
святаром
святароу
святары
святаслава
святаслау
святау
святая
святкаванне
святкавання
святла
святлана
святланы
святле
святло
святлом
свято
святога
святого
святое
святои
святому
святочныя
святую
святы
святым
святыню
святыня
святыні
святых
святыя
свяцілішча
свяціцеля
свяшчэннага
свяшчэннаи
свяшчэнная
свінеи
свінні
свіслацкага
свіслацкім
свіслач
свіслачы
свіфт
сдпг
сдюшар
се
себасцьян
себасцьяна
себе
себя
севастопаль
севастопаля
север
севера
северо
севершчыны
сего
сегодня
седан
седзячы
сее
сезар
сезон
сезона
сезонам
сезонау
сезонах
сезоне
сезону
сезоны
сеи
сеим
сеима
сек
секс
сексуальнаи
сексуальных
сексуальныя
сектар
сектара
сектары
секунд
секунду
секунды
секцыи
секцыя
секцыі
сел
села
селау
селе
селекцыі
село
селы
сельсавет
сельсавета
сельсаветау
сельсаветы
сельсавеце
сельскага
сельскагаспадарчага
сельскагаспадарчаи
сельскагаспадарчая
сельскагаспадарчую
сельскагаспадарчы
сельскагаспадарчым
сельскагаспадарчых
сельскагаспадарчыя
сельскае
сельскаи
сельская
сельских
сельского
сельскохозяиственных
сельскую
сельскі
сельскіх
сельскія
сельсовета
сельсоветов
селянін
селяніна
селі
селішча
селішчы
сем
семага
семаи
семка
семухі
семы
семым
семінарыю
семінарыя
семінарыі
сен
сена
сенажаці
сенат
сената
сенатар
сенатарам
сенатарау
сенаце
сенненскага
сенненскім
сення
сенняшняга
сенняшні
сент
сентября
сенцы
сены
сер
сера
серабра
серабро
сераду
серб
сербау
сербск
сербскага
сербскаи
сербская
сербскі
сербскіх
сербскія
сербы
сербію
сербія
сербіяи
сербіі
сервер
сергеевич
сергеи
сергіи
сердце
серж
серия
серп
серы
серыи
серыю
серыя
серыяи
серыял
серыяла
серыяле
серыямі
серыі
сестрамі
сестры
сесці
сесія
сесіі
сетак
сети
сетка
сеткаи
сетках
сетку
сеткі
сетцы
сеу
сеюць
сеяны
си
сибири
сил
силы
сирии
систем
система
системы
ск
ска
скажа
скажам
скажаш
скажу
скажы
скажыце
сказ
сказа
сказала
сказалі
сказана
сказанні
сказау
сказаушы
сказаць
сказе
сказы
скаи
скал
скала
скалах
скале
скалы
скалістых
скалістыя
сканау
скандал
скандынавіі
скандынаускаи
скандынаускіх
сканцэнтравана
сканцэнтраваны
сканчэння
сканчэнні
скар
скарацілася
скараціу
скараціць
скарачаецца
скарачэнне
скарачэння
скарачэнні
скарб
скарбау
скарбу
скарбы
скаргу
скаргі
скарочана
скарочаны
скарына
скарыну
скарыны
скарыстауся
скарыстаушыся
скарыстацца
скарыстаць
скарэи
скасавана
скасаванага
скасаванне
скасавання
скасаванні
скасаваны
скасаваных
скасавау
скаутау
скача
скачках
сквер
скверы
склад
склада
складае
складаецца
складала
складалася
складальнік
складалі
складаліся
складам
складана
складанага
складанае
складанаи
складанасць
складанасці
складаная
складанне
складання
складанні
складаную
складаны
складаным
складанымі
складаных
складаныя
складау
складауся
складах
складацца
складаць
складаюцца
складаюць
складзе
складзена
складзеная
складзены
складзеныя
складнік
складнікау
складоваи
складоу
складу
склады
склала
склалася
склалі
склаліся
скласці
склау
склауся
склеп
склепе
скляпеннем
скляпеннямі
скляпенні
склікання
скліканняу
скліканы
склікау
склікаць
скобла
скокі
сколькі
скончана
скончаны
скончыла
скончылася
скончылі
скончыліся
скончыу
скончыуся
скончыушы
скончыцца
скончыць
сконэ
скоп
скопішча
скора
скорасць
скорасці
скорины
скот
скота
скрозь
скрыжаванне
скрыжавання
скрыжаванні
скрыні
скрыпач
скрыпка
скрыпкі
скрыпцы
скуль
скульптар
скульптара
скульптарам
скульптары
скульптур
скульптура
скульптураи
скульптурная
скульптуру
скульптуры
скур
скура
скураи
скуратовіч
скуру
скуры
скі
сківіцы
скінуты
скінуу
скінуць
скіраваны
скірмунт
скірмунта
сл
слаба
слабада
слабадскога
слабазвілістая
слабапраточнае
слабасць
слабая
слабодка
слабы
слабым
слабых
слабыя
слав
слава
славакія
славакіі
славацк
славацкага
славацкаи
славацкая
славацкі
славе
славенск
славенія
славеніі
славу
славутасці
славуты
славы
славян
славяне
славянскага
славянскае
славянскаи
славянская
славянские
славянскі
славянскім
славянскіх
славянскія
славіцца
славіі
слаеу
слаугарадскага
слаугарадскім
слауны
слаявіна
слаі
след
следавікі
следам
следства
следствам
следчага
следчы
слез
слезы
слесарам
слобода
слов
слова
словам
словамі
словарь
словау
словах
слове
слово
словы
слои
слон
слонім
слоніма
слоніме
слонімскага
слонімскаи
слонімская
слонімскі
слонімскім
слоу
слоун
слоунік
слоуніка
слоунікам
слоуніку
слуг
слуга
слугі
служаць
служачага
служачых
служба
службаи
службау
службе
службоваи
[...]
