!
"
#
##0
##1
##10
##11
##12
##13
##14
##15
##16
##17
##18
##19
##2
##20
##21
##22
##23
##24
##25
##26
##27
##28
##29
##3
##30
##31
##32
##33
##34
##35
##36
##37
##38
##39
##4
##40
##41
##42
##43
##44
##45
##46
##47
##48
##49
##5
##50
##51
##52
##53
##54
##55
##56
##57
##58
##59
##6
##60
##61
##62
##63
##64
##65
##66
##67
##68
##69
##7
##70
##71
##72
##73
##74
##75
##76
##77
##78
##79
##8
##80
##81
##82
##83
##84
##85
##86
##87
##88
##89
##9
##90
##91
##92
##93
##94
##95
##96
##97
##98
##99
$
%
&
'
(
)
*
+
,
-
.
/
0
00
000
0000
000001
000002
0004
001
00151
002
00238
0026
003
0035
0036
004
0041
005
00536
006
0061
00611
0068
00709
0090
00996
01
010
0106
011
012
0130
0131
014
0141
0144
015
0155
0169
0188
019
0197
0198
02
0214
0216
0238
0251
0263
0276
0277
0279
028
0295
03
030
0302
0303
031
0314
0315
03150
035
037
0373
0378
0384
0389
039
0395
04
042
0432
044
0487
049
05
054
06
07
074
078
08
082
09
095
098
1
10
100
1000
10000
1001
1002
1007
1009
101
101490
1015
1016
1017
1018
102
1020
1023
1024
103
1030
1034
1035
1038
104
1040
1046
105
1050
105192847
1052
1054
1056
106
1060
1061
1063
1066
1067
107
1070
1071
107212659
1073
107343683
1076
108
1080
1081905
1085
10855166
1086
1088
109
1090
1093
1094
1095
1097
1098
11
110
1100
1101
110250907
1103
1105
111
1110
1111
111411657
112
1120
1125
1126
1127
1128
1129
113
1130
1134
1136
1137
1139
114
1140
1142
1143
1146
1147
115
1150
1151
1152
1154
1156
1157
1158
1159
116
1160
1162
1167
117
1170
1173
1177
11789729
118
1180
1185
1186
1187
1189
119
1190
1194
1194038
1195
1196
1198
1199
12
120
1200
1202
1204
1205
1206
1207
1208
121
1210
1212
1214
1215
1216
1217
1218
1219
122
1220
1222
1223
1225
1229
123
1230
1234
1235
1237
1238
1239
124
1240
1241
1246
1247
1248
125
1250
1252
1253
1254
1256
126
1260
1261
1263
1264
1264934
1265
1266
1267
127
1270
1273
1279
128
1280
1282
1284
1285
1287
1288
129
1290
1291
1295
1296
13
130
1300
1305
1307
1308
1309
131
1310
1314
131454
1316
1318
1319
132
1320
13219454
1325
1326
1328
133
1330
1337
134
1340
1341
1342
13422577
1343
1345
1346
1347
1348
1349
135
1350
1351
1353
1354
13550863
1356
136
1360
1362
1364
1365
1368
137
1370
1371
1373513
1375
1377
1378
1379
138
1380
1381
1382
1384
1385
1386
1387
1388
1389
139
1390
1391
1392
1394
1395
1396
1397
1398
1399
14
140
1400
1401
1402
1404
1405
1406
1407
1409
141
1410
1411
1412
1413
1414
1415
1416
1417
1418
1419
142
1420
1422
1424
1425
1427
1429
143
1430
1431
1432
1433
1434
1435
1436
1437
1439
144
1440
1441
1443
1444
1445
1446
1447
1448
1449
145
1450
1451
1452
1453
1453477
1454
1455
1456
1457
1458
1459
1459210
146
1460
1461
1462
1463
1464
1465
1466
1466106
1467
1468
1469
147
1470
1471
1472
1473
1474
1475
1476
1477
1478
1479
148
1480
1481
1482
1483
1484
1485
1486
1487
1488
149
1490
1491
1492
1493
1494
1495
1496
1497
1498
1499
15
150
1500
1501
1502
1503
1504
1505
1506
1507
1508
1509
151
1510
1511
1512
1513
1514
1515
1516
1517
1518
1519
152
1520
1521
1522
1523
1524
15241312
1525
1526
1527
1528
1529
153
1530
1531
1532
1533
1534
1535
1536
1537
1538
1539
154
1540
1541
1542
1543
1544
1545
1546
1547
1547776
1548
1549
155
1550
1551
1552
1553
1554
1555
1556
1557
1558
1559
156
1560
1561
1562
1563
1564
1565
1566
1567
1568
1569
157
1570
15706812
1571
1572
1573
1574
1575
1576
1577
1578
1579
158
1580
1581
1582
1583
1584
1585
1586
1587
1588
1589
159
1590
1591
1592
1593
1594
1595
1596
1597
1598
1599
16
160
1600
1601
1602
1603
1604
1605
1606
1607
1608
1609
161
1610
1611
1612
1613
1614
1615
1616
1617
1618
1619
162
1620
1621
1622
1623
1624
1625
1626
1627
1628
1629
163
1630
1631
1632
16323066
1633
1634
1635
1636
1637
1638
1639
1639616
164
1640
1641
1642
1643
1644
1645
1646
1647
1648
1649
165
1650
1651
1652
1653
1654
1655
1656
1657
1658
1659
166
1660
1661
1662
1663
1664
1665
1666
1667
1668
1669
167
1670
1671
1672
1673
1674
1675
1676
1677
1678
1679
168
1680
1681
1682
1683
1684
1685
1686
1687
1688
1689
169
1690
1691
1692
1693
1694
1695
1696
1697
1698
1699
17
170
1700
1701
170109
1702
1703
1704
1705
1706
1707
1708
1709
171
1710
1711
1712
1713
1714
1715
1716
1717
1718
1719
172
1720
1721
1722
1723
1724
1724971
1725
1726
1727
1728
1729
17299517
173
1730
1731
1732
1733
1734
1735
1736
1737
17378135
1738
1739
174
1740
1741
1742
1743
1744
1745
1746
1747
1748
1749
175
1750
1751
1752
1753
1754
1755
1756
17565097
1757
1758
1759
176
1760
1761
1762
1763
1764
1765
1766
1767
1768
1768199
1769
177
1770
1771
1772
1773
1774
1775
1776
1777
1778
1779
178
1780
1781
1782
1783
1784
1785
1786
1787
1788
1789
1789619
179
1790
1791
1792
1793
1794
1795
1796
1797
1798
1798125
1799
18
180
1800
1801
1802
1803
1804
1805
1806
1807
1808
1809
181
1810
1811
1812
1813
1814
1815
1816
1817
1818
1819
182
1820
1821
1822
1823
1824
1825
1826
1827
1828
1829
183
1830
1831
1832
1833
1834
1835
1836
1837
1838
1839
184
1840
1841
1842
1843
1844
18446
1845
1846
1847
1848
1849
185
1850
1851
1852
1853
1854
1855
1856
1857
1858
1859
186
1860
1861
1862
1863
1864
1865
1866
1867
1868
1868372
1869
18696256
187
1870
1871
1872
1873
1874
1875
1876
1877
1878
1879
188
1880
1881
1882
1883
1884
1885
1886
1887
1888
1889
189
1890
1891
1892
1893
1894
1895
1896
1897
1898
1899
19
190
1900
1901
1902
1903
1904
1905
1906
1907
1908
1909
191
1910
1911
1912
1913
1914
1915
1916
1917
1918
1919
192
1920
1921
1922
1923
1924
1925
1926
1927
1928
1929
193
1930
1931
1932
1933
1934
1935
193563
1936
19368470
1937
1938
1939
194
1940
1941
1942
1943
1944
1945
1946
1947
1948
1949
195
1950
1951
1952
1953
1954
1955
1956
1957
1958
1959
196
1960
1960551
1961
1962
1963
1964
1965
1966
1967
1968
1969
197
1970
1971
1972
1973
1974
1975
1976
1977
1978
1979
198
1980
1981
1982
1983
1984
19847326
19847329
1985
1986
1987
1988
1989
199
1990
19908137
1991
1992
1993
19938912
1994
1995
1996
1997
1998
1999
2
20
200
2000
2001
2002
2003
2004
2005
2006
2007
2008
2009
201
2010
2011
2012
2013
2014
2015
2016
2017
2018
2019
202
2020
2021
2022
2023
203
2030
204
205
206
207
208
209
21
210
2100
211
212
213
214
21401824
214195
21431157
215
216
217
217595
218
219
22
220
2200
221
222
223
224
225
226
22681075
227
228
229
23
230
2300
231
232
233
234
235
236
237
237227
23766566
238
239
24
240
2400
241
242
24255573
243
244
2449070
245
246
2464
247
248
249
24933120
2494649
25
250
2500
251
252
253
254
255
256
256507
257
258
25856
2586178
259
26
260
2600
261
262
2624680
2629164
263
264
265
265049
266
2664168
267
268
269
27
270
271
272
273
27302
274
275
276
277
278
279
28
280
2800
2807
281
2818964
282
283
284
285
286
287
288
2886420
289
29
290
291
292
293
294
295
296
297
298
29861311
299
3
30
300
3000
30059240
301
302
303
304
304037
305
306
307
308
309
31
310
3100478
311
312
313
314
315
316
317
318
319
31964
32
320
3200
321
322
323
324
325
326
327
328
32859555
329
33
330
331
33102669
332
333
334
335
336
337
338
339
34
340
3407324
341
342
34217
343
344
345
346
347
348
349
35
350
3500
351
352
353
354
355
356
3561957
357
358
359
36
360
361
362
3621644
363
364
365
36578
366
367
368
369
37
370
371
372
373
37312
374
375
376
377
378
379
379406
38
380
381
382
383
384
384602
385
386
387
388
389
39
390
391
392
393
394
395
3950665
396
397
398
399
4
40
400
4000
401
402
403
404
405
406
4065721
407
408
409
41
410
411
412
413
4135787
414
415
416
417
418
419
42
420
421
422
423
4239850
424
4249594
425
426
427
428
429
429032
43
430
431
432
43295
433
4331
434
435
436
437
438
439
44
440
441
442
443
444
445
446
447
448
449
45
450
4500
451
452
453
454
455
456
457
458
459
46
460
461
462
463
464
464633
465
466
467
468
469
47
470
471
472
473
474
475
476
477
478
479
48
480
481
482
483
484
485
486
487
488
489
49
490
491
492
493
494
495
496
497
498
499
5
50
500
5000
501
502
503
504
504063
505
506
5061737
507
508
509
51
510
511
512
513
514
5145336
515
516
517
518
519
52
520
521
522
523
523716
524
525
526
527
528
529
53
530
531
532
533
534
535
536
537
5375741
538
539
54
540
541
542
543
544
545
546
547
547473
548
54837
549
55
550
551
552
553
554
555
556
558
559
56
560
561
562
56239490
563
564
565
566
56691875
567
568
569
57
570
571
572
573
574
575
576
577
578
579
58
580
581
582
583
584
585
586
587
588
589
59
590
591
592
593
594
595
596
597
598
599
6
60
600
6000
601
602
602358
603
6036
604
605
606
607
608
609
61
610
611
612
613
61356138
614
615
616
617
618
62
620
621
622
623
624
625
626
628
629
63
630
6302
63056
631
632
633
634
635
636
637
6374
637413
638
639
64
640
641
64166606
642
643
644
645
648
648625
649
65
650
652
6520738
653
654
655
656
659
66
660
661
664
665807
666
667
668
67
670
671
67129259
672
673
674
675
676
678
679
68
680
682
6828
683713
684
685
686
687
688
69
690
691
694
694826
696
699
7
70
700
7000
701
702
703
704
705
7090
71
710
711
712
713
714
715
717
718
719
719880
72
720
727
73
730
73268604
734
736
737
74
740
745
746368
748
75
750
751
752
75653886
76
760
7603543
761
763
764739
765
768
77
770
772
773
774
775
77541206
776
78
780
79
792
797
8
80
800
8000
802
808
81
810
810196
814
817
82
820
821
826
829984
83
830
830106
8339
84
840
843
8459
85
850
85177
85270
855
85700
858
86
860
862
863
864
866
87
870
87317
875
876
877
878
879
88
880
882
884446
885
886
887
888
89
890
894
895
896
9
90
900
9000
901
904
907
91
911
912
915
92
920
921
924
925
9272
928
93
930
936
937
94
940
944
945
95
950
9501509
951
953
95382
955
95606922
96
960
96022943
961
962
963
965
966
968
9684
969
97
970
971
975
976
977378
978
9781884446054
98
980
985
987
98769076
988
989
99
990
992
9955
997
9986
999
:
;
<
=
>
?
@
[
\
]
^
_
`
a
aa
aall
aan
ab
abablewo
abc
abies
abo
about
abraham
abs
ac
academia
academic
academy
accademiadellescienze
access
accessed
account
acer
acremonium
act
acta
action
active
activities
activity
ad
adam
adams
address
adele
administration
adobe
adolf
adsabs
advance
advanced
adventure
ae
af
affairs
afghanistan
africa
african
aftanazy
after
ag
again
against
age
agency
ages
agreement
agriculture
ai
aid
air
aircraft
airlines
airport
ais
aise
aj
ajs
ak
akademie
akademii
akl
al
alan
alba
albert
alberto
album
albums
ale
aleksander
aleksandr
alex
alexander
alexandre
alfred
algemene
ali
alice
all
alla
allan
alle
allen
allgemeine
alliance
allium
allmovie
allmusic
allocine
alpha
als
also
alzheimer
am
amaryllidaceae
amazon
ame
america
american
amnesty
among
amphora
amsterdam
an
ana
analysis
ancient
and
andere
anderson
andersson
andre
andrea
andreas
andrew
android
andrzej
angeles
angelica
angiosperm
anglo
ani
animal
animation
ann
anna
annals
anne
anniversary
announced
announces
annual
another
ans
ant
antarctic
anthony
anti
antoine
anton
antoni
antonio
antwerp
any
ao
ap
apg
api
appendix
apple
application
applications
approved
april
ar
arab
arbre
archaeological
archaeology
arche
archinform
architecture
archive
archived
archives
archivio
archiwum
arctic
are
area
argentina
argentino
ark
armenia
armenian
armenians
arms
army
arnold
around
arp
array
ars
art
arte
arthur
article
articles
artikel
artist
artists
arts
as
ascobolus
ascophanus
ascq
asia
asian
asp
aspx
assemble
assembly
associated
association
asteraceae
asteroid
asteroids
astro
astronomical
astronomy
astrophysical
astrophysics
at
athletes
atlantic
atlas
attack
attacks
au
audi
audio
auf
auflage
august
aus
ausgewa
australia
australian
austria
author
authorities
authority
authors
auto
aux
av
ava
available
avec
aviation
award
awards
az
azerbaijan
azərbaycan
b
ba
bac
back
background
bad
bafta
baker
balance
ball
baltic
band
bank
bankı
bar
barbara
barcelona
baron
barrow
barry
bas
base
based
basic
basingstoke
basketball
battle
bay
bayerische
bb
bbc
bc
bd
bdl
be
beatles
because
beck
become
been
before
begin
beginning
behind
bei
being
bel
belarus
belarusian
belgian
belgie
belgique
belgium
belisrael
bell
belsat
belta
ben
benezit
benjamin
benth
benz
ber
berg
berkeley
berlin
bernard
beru
best
bestuur
beta
better
between
beweb
beyond
bf
bg
bgbm
bi
białorusi
białoruskie
białystok
bibcode
bible
bibliographisches
biblioteka
bibliothe
big
bij
bildid
bill
billboard
bin
bio
biografia
biografico
biograficzny
biographical
biographie
biographisches
biography
biology
bioshock
birds
birth
bis
bknajmpv
bl
black
blackwell
blog
blood
blue
blues
bmw
bnf
bo
board
body
boeing
boh
boiss
book
books
border
boston
botanical
both
box
boy
boz
br
bradysia
branch
brandenburg
brasław
brazil
brian
bridge
brief
brill
britain
britannica
british
broadcasting
broadway
brockhaus
bros
brothers
brown
brozovic
bruce
bruno
brussel
brussels
bruxelles
bs
bsu
bu
budapest
budget
budzie
budzma
building
bulgaria
bull
bulletin
bupleurum
bureau
business
but
by
byli
byu
byzantine
był
była
było
c
ca
california
call
cambridge
camera
campaign
campbell
can
canada
canadian
cancer
cap
cape
capital
captain
car
card
career
carex
carl
carlo
carlos
carolingiens
carter
case
cases
cast
castle
cat
catalana
catalog
catalogue
category
catherine
catholic
cave
cb
cbs
cc
cd
cdot
ce
cell
celtic
cenangium
census
center
central
centre
centuries
century
certain
cetraria
cfilm
cgi
ch
cha
challenge
champion
champions
championship
change
changes
channel
chapter
chapters
charles
charlotte
chart
charter
charts
che
chemical
chemistry
chen
chess
chi
chicago
chief
children
china
chinese
choc
choice
chris
christian
christopher
chronicle
chto
church
ci
cia
cie
cinema
cio
circ
circle
cit
cite
cities
city
civic
civil
civilization
ck
cker
cl
claims
clark
class
classic
classical
classification
claude
cle
climate
clio
close
club
cluster
cm
cn
cnn
co
coast
code
codex
cohen
cold
cole
collaboration
collection
collections
college
collins
color
columbia
com
combat
come
comics
coming
command
commission
committee
common
commons
communication
communications
community
companion
company
comparative
complete
complex
computer
comune
con
concerning
conference
conflict
congo
congress
connect
cons
conseil
conservation
constant
constitution
contact
contemporary
content
contest
control
conway
core
cornell
coronavirus
corporation
cortinarius
cos
costa
could
council
count
countries
country
county
course
court
courtney
covid
cp
cr
cre
create
created
creation
creative
crisis
critical
critics
cross
crown
cs
ct
ctg
cu
cuetracker
cultural
culture
cultures
cup
current
cy
cz
cze
czech
d
da
dacrymyces
daedalea
daily
dan
dance
dane
daniel
dans
darin
dark
das
dat
data
database
date
datos
david
davis
dawnych
day
days
db
dc
de
dead
deadline
deal
death
dec
december
decision
declaration
deep
default
defence
defense
degli
dei
del
dell
della
delle
delta
dem
democracy
democratic
den
denis
denkwu
department
der
derby
derek
des
description
design
det
detail
details
deutsch
deutsche
deutschen
deutschland
dev
development
deze
di
dia
dict
dictionary
dictionnaire
did
die
diego
dies
different
digital
din
diplodia
diptera
direct
director
directory
discogs
discovery
disease
disney
displaystyle
disponibile
distribution
district
dit
ditions
diversity
division
dizionario
dj
djvu
dk
dla
dna
dnia
do
doc
docs
document
documentation
documents
does
doi
dom
domain
domainfalsefalse
domainpublic
domowina
don
donald
doom
door
dos
dot
dots
double
douglas
down
download
dq
dr
dragon
dream
drive
druk
drupal
ds
dt
du
dublin
due
duke
duniłowicze
during
dus
dutch
duty
dvd
dw
dx
dy
dyk
dz
działalnos
dzie
dzieje
dziejo
dziennik
dzisien
dztwa
dztwo
dzy
e
ea
each
early
earth
east
eastern
ebchecked
eberhardt
ec
eclipse
eclipses
economic
economics
economist
economy
ed
edge
edinburgh
edit
edited
edition
editions
editor
editorial
editors
eds
edu
education
edward
ee
een
eesti
effect
effective
effects
egypt
ei
ein
eine
einer
einstein
ej
ek
el
elder
election
elections
electronic
elements
elisabeth
elizabeth
elsevier
em
embassy
emma
empire
en
enciclope
enciclopedia
enciklopedija
enciklopediju
encyclopaedia
encyclopedia
encyclopædia
encyklopedia
end
energy
eng
engineering
england
english
entertainment
enthaltend
entry
entyloma
environment
enzyklopa
ep
epic
episode
er
era
erebia
erfgoed
eric
erik
ernest
ernst
es
esa
eske
eso
espan
esperanto
espn
essays
essential
est
et
etc
ethiopia
ethiopian
ethnic
ethnologue
eu
eur
euro
europa
europaea
europe
european
euroradio
eurovision
eva
evans
even
event
events
ever
every
evidence
evil
evolution
ex
excel
exclusive
expedition
experience
experty
explore
explorer
express
external
extragalactic
eye
f
fa
face
facebook
fact
factbook
facts
fair
fall
false
families
family
fantasy
far
fauna
fbref
fc
fe
feat
features
feb
february
federal
federation
felix
fellows
fembio
ferdinand
fest
festival
ff
fi
fiat
fichefilm
fico
fiction
field
fifa
fight
fighters
fighting
figures
file
files
film
filmaffinity
filmportal
films
final
finance
financial
find
fine
finland
fire
first
fis
fischer
fisher
five
flag
flash
flemish
flight
flora
flowering
fly
fm
fo
focus
folklore
folkmangd
following
food
football
footballfacts
footballstat
for
forbes
force
forces
ford
foreign
forest
form
format
formation
former
formowanie
forum
foto
found
foundation
four
fourth
fox
fr
fra
frac
franc
france
francesco
francis
francisco
franciszek
frank
frankfurt
franklin
franz
frauendatenbank
fred
frederick
free
freebase
freedom
french
friedrich
friends
fritz
from
front
fu
full
fullcredits
fund
futbol
future
g
ga
gabriel
gaddafi
galaxies
galaxy
gallery
game
games
gamespot
gamma
gao
garden
gardens
gary
gas
gay
gazeta
gazetteer
gdan
ge
geboren
geen
geert
geertivp
gegen
gelebt
gemeinden
gemeindeverzeichnis
gen
gender
gene
genealogics
genealogy
geneastar
genera
general
generation
genetic
geni
genocide
genus
geograficzny
geographic
geographical
geography
geonames
geonet
georg
george
georges
georgia
geos
german
germany
germplasm
geschichte
gesellschaft
get
gets
getty
gewirkt
gfx
ghost
giant
giovanni
girl
giuseppe
give
giz
gks
glam
global
globe
gm
gmbh
gmina
gnu
go
goal
god
gods
goes
gold
golden
golf
good
google
gordon
gould
gov
government
gr
graham
grammar
gran
grand
grande
granicy
grant
grants
grave
gray
great
greatest
greece
greek
green
greenwood
gregory
grin
group
groups
grove
growth
gru
grup
grupo
gruyter
grzebien
gu
guardian
guardians
guerre
guide
guignardia
gustav
gło
h
ha
haben
had
hair
half
hall
hamburg
hamilton
hand
handbook
hans
haqqında
hard
harold
harper
harris
harrison
harry
harvard
has
haslo
hat
have
hbar
hd
he
head
health
heart
heavy
hebben
hedvig
heeft
heidelberg
heinrich
held
heliconius
heliophanus
hello
helminthosporium
help
henri
henry
henryk
her
herald
herbarz
herbert
here
heritage
hermann
hero
heroes
het
heta
hg
hi
hierarchy
higgins
high
hil
hill
hip
his
histoire
historia
historic
historical
historii
history
historyczne
hit
hitler
hits
hl
hlten
hm
hms
ho
holland
hollywood
holocaust
holothuria
holy
home
homo
hook
hope
hopkins
host
hot
hotel
houndmills
house
how
howard
hr
href
hrsg
hrvatska
htm
html
http
https
hu
hubble
hudson
hugh
hugo
human
hun
hung
hungarian
hunt
hunter
huntford
hydroptila
hylesinus
hymenoptera
i
ia
ian
iana
iau
ib
ibid
ibm
ibu
ic
icarus
ice
ich
id
identification
identity
ie
ieee
ieho
if
ign
ignacy
ii
iii
ik
il
illustrated
im
image
images
imdb
impact
imperial
important
in
inc
including
independence
independent
index
india
indian
indians
indo
indonesia
industry
infinite
info
information
infty
innych
ins
insects
inside
instagram
institut
institute
institution
institutions
instytut
int
intangible
intel
intelligence
inter
interactive
interfax
internal
international
internationale
internet
internetowy
interview
into
introduction
invasion
io
ios
ip
ipa
ipac
iphone
ipv
ir
iran
iranian
iraq
iraqi
iras
ireland
irish
iron
is
isbn
isis
islam
islamic
island
islands
iso
israel
iss
issn
issue
issues
ist
istat
it
italia
italian
italiana
italiani
italy
item
items
its
itunes
iu
ius
iv
ivan
ix
iz
j
ja
jaar
jack
jackson
jacob
jacques
jaho
jaje
jak
james
jamu
jan
jana
jane
january
januszowo
jany
japan
japanese
jas
java
jazeera
jazz
je
jean
jeffrey
jerusalem
jerzy
jewish
jezuici
jezuitach
jezus
jim
jo
joachim
joe
johan
johann
johannes
john
johnson
join
joins
jon
jonathan
jones
jordan
jos
jose
josef
joseph
journal
journey
jp
jpl
jr
jsonapi
ju
juan
julia
julian
julius
july
june
jupiter
jurkowski
jury
just
justice
jw
k
ka
kab
kaiserthums
kaj
kali
kamunikat
kan
kara
karabakh
karl
karol
kas
katalog
kau
kaz
kazimierz
kcpg
ke
kelly
ken
kenneth
kevin
kew
key
ki
kies
kiev
kill
killed
kim
kindred
king
kingdom
kings
kino
kit
klaus
kniaz
kniazia
knihi
know
knowledge
known
ko
koch
koda
kommun
kommuner
kon
korea
korean
kos
kosovo
kp
kraj
krajo
krako
krakow
krakowie
kresach
kro
kronla
krzysztof
ks
ksia
ksie
kto
ku
kug
kultur
kultura
kultury
kunnen
kunst
kurier
kurt
kutno
kyiv
kyrkoarkiv
kz
l
la
lab
laboratory
lada
ladan
lady
lake
lam
lambda
lan
land
lang
langle
language
languages
large
largest
lars
las
last
lat
latach
late
later
latest
latin
latvia
latvijas
launch
law
lawrence
lb
ldots
le
leader
league
learning
least
leben
lebensskizzen
led
leden
lee
left
legacy
legal
legend
leiden
leipzig
leksikon
lenta
leo
lepidoptera
les
less
lestwa
let
letter
letters
level
lewis
lex
lexikon
lez
li
lib
libero
libraries
library
libre
libris
libya
libyan
license
lid
lie
lietuviu
lietuvos
life
light
like
lim
limited
limits
lincoln
line
link
linked
links
linnaeus
linnean
linux
lisa
list
lists
lit
literature
litewski
litewskie
litewskiego
lithuania
lithuanian
little
litwy
live
livejournal
lives
living
ll
ller
ln
lo
local
localities
location
log
london
long
look
lord
los
lost
louis
louise
love
loves
low
lowski
lp
lt
ltd
lu
lublin
lucilia
ludnos
ludwig
luis
lunar
lundy
lutz
luxembourg
lv
lwo
lzmk
m
ma
mac
machine
macmillan
mactutor
made
madonna
madrid
mag
magazine
magic
magyar
mai
mail
main
maja
major
mak
make
makes
making
malczyce
mali
man
management
manager
manchester
manhattan
mann
manual
manuel
many
map
maps
mar
marc
march
marco
mare
margaret
mari
maria
marie
marine
mario
maritime
mark
market
mars
marshall
martin
marvel
mary
mass
massacre
master
masters
material
materials
mathbb
mathbf
mathcal
mathematical
mathematics
mathrm
matter
matthew
maurice
max
maxim
may
mayor
maz
mc
mcg
mcgee
md
me
measures
med
medal
media
medical
medicine
medien
medieval
meduza
meer
meet
meeting
meetings
mega
member
members
membership
membres
memorial
memory
men
mercedes
mercury
merkmalen
met
meta
metacritic
metal
metro
metropolitan
mexico
mey
meyer
mg
mi
michael
michał
michel
michigan
microsoft
mid
middle
mie
miejscowos
might
mike
mil
milan
milano
military
mill
millennium
miller
million
min
mind
ministe
minister
ministry
minor
minsk
missing
mission
mit
mitchell
mk
mm
mn
mo
mobile
mode
model
modern
moet
mojo
molecular
monde
money
monitor
month
monthly
monuments
moon
moore
more
morning
morris
moscow
most
mother
motion
motor
mount
movement
movie
movies
moz
mp
mpc
mr
ms
mtv
mu
much
multiple
mun
munst
munzinger
murphy
murray
muse
museum
museums
music
must
muz
muzeum
my
məlumat
n
na
nabla
nach
nacional
nacionalna
nad
nagorno
naja
najnowsze
nam
name
named
names
narcissus
narod
narodu
nas
nasa
nashaniva
nat
nation
national
nationalbibliothek
nationale
nationalism
nations
native
nato
natural
nature
nauk
naukowe
naval
naviny
navy
nba
nchen
nd
ndern
ndigen
ne
near
need
neil
nelson
nes
nestor
net
netherlands
network
neue
never
new
news
newsletter
newsru
next
nf
nfl
ng
ngc
nh
ni
nia
nic
nica
nicholas
nicolas
nie
niet
night
nigra
nija
nin
nina
nintendo
nl
nlb
nn
nndb
no
nobel
nobelprize
nobleprize
nom
nomenclature
nominations
nominees
non
norman
norske
north
northern
norway
nos
not
note
notes
notre
nous
nouveau
nov
nova
novel
november
novosti
now
nowy
npm
nr
ns
nt
nu
nuclear
nukat
number
numbers
ny
nyc
nych
nytimes
nz
o
object
objects
obr
observations
observatory
och
ochrony
ocl
oclc
oct
october
od
oder
oesterreich
of
off
offensive
office
official
officials
og
oh
ohio
oil
ois
ok
oktmo
ol
old
oliver
olympedia
olympic
olympics
om
omega
on
one
onepage
online
onliner
only
ons
ont
ontology
ook
op
opac
opc
open
openstreetmap
opera
operation
operations
operatorname
option
or
orchis
order
orders
org
organisation
organisations
organise
organised
organization
orientalis
origin
original
origins
os
oscar
ot
other
others
otto
ottoman
ou
oup
our
out
over
overline
overview
own
oxford
oy
p
pa
pac
pacific
packed
pad
page
pages
pakistan
palace
pamie
pan
pana
panorama
pantheon
paolo
paper
papers
par
para
paris
park
parliament
part
partial
participants
participation
partie
parties
partner
partners
party
pas
past
patrick
pau
paul
pavel
pawet
pays
paz
pc
pdf
pe
peace
pedro
peerage
penguin
people
peoples
per
period
persian
person
personal
personen
personnes
perspective
peru
peter
peut
pg
pgc
ph
phd
phi
phil
philadelphia
philip
philippe
philosophical
philosophy
photo
photos
php
phyllosticta
phylogeny
phys
physical
physics
pi
picea
picture
pictures
pie
pierre
piers
pies
pietro
pinus
piotr
pl
place
plan
planet
planetary
planets
plant
plants
plantsoftheworldonline
platforms
play
player
players
playstation
plik
pls
plus
pm
pmid
po
poa
pod
pogranicza
point
poland
pole
police
policy
polish
political
politics
politisch
polsce
polska
polski
polskich
polskie
polskiego
polskiej
pop
pope
popular
population
populations
populus
por
pornhub
port
portal
portrait
portugal
pos
poshta
position
possible
post
pour
power
powiat
powiaty
poz
poznan
pp
pq
pr
prac
practice
praha
prau
praz
pre
preisner
premie
premier
present
presentation
president
press
pressball
price
prime
prince
princess
princeton
print
prisa
private
prix
prize
prn
pro
problem
problems
proc
proceedings
process
processing
product
production
produkte
prof
professional
professor
profil
profile
program
programme
project
projecten
projects
projets
proleksis
properties
protests
province
provincia
provincial
prunus
przegla
przewodnik
przez
ps
psi
psl
pt
ptc
pu
pub
public
publication
publications
published
publishers
publishing
punk
pwn
py
q
qadınlar
qquad
qu
quad
quantum
quartal
que
queen
quercus
query
quest
question
questions
qui
r
ra
race
racing
rada
radio
radzima
raf
ral
rangle
ranking
rankings
rar
ras
ration
ray
raz
rd
rdigen
re
read
real
rebel
rebels
rec
recent
record
records
red
redakcija
ref
reference
reform
regel
region
regional
regions
register
regnum
regulation
reich
related
relations
release
releases
religion
religious
renaissance
renault
rene
report
reporter
reports
reprint
republic
request
res
research
resident
resistance
resolution
resources
respublikasının
restrictive
result
results
retrieved
return
reuters
rev
review
reviews
revised
revolution
rex
rez
rg
rho
ri
ria
ribes
rich
richard
ricordi
right
rightarrow
rights
riket
ring
rings
rio
rise
rite
river
rkd
rkdartists
rkəmli
rlag
rn
ro
road
robert
robertiens
robertson
robin
robinson
rock
rocznik
roger
rok
roku
role
rolling
rom
roma
romaine
roman
rome
ronald
ros
rosa
rose
ross
roth
rotten
round
routledge
rovingiens
royal
rs
rt
ru
rudolf
rule
rules
run
rus
rusi
russell
russia
russian
russula
ry
ryan
ryanair
rzeczypospolitej
s
sa
safety
saint
sales
salix
salon
sam
same
samuel
san
sanctions
sant
santa
sar
sarah
saros
saxon
say
says
sb
sba
sbb
sbc
sc
schmadel
schmidt
school
schools
sci
science
sciences
scientific
scientists
score
scotland
scott
scottish
screen
se
sea
search
season
second
secret
secretary
section
sector
security
see
segreteria
seit
selbsta
selby
selected
self
seligman
senat
senatopracowania
seniu
september
serbia
series
server
service
services
ses
session
sessions
set
sets
settipani
seven
several
sex
sfd
shakespeare
shanghai
share
she
sheet
ships
shock
shoot
short
should
show
shtml
si
sia
side
sie
sigma
sign
silva
silver
sim
simbad
simon
simple
simulium
sin
since
sindaco
single
singles
sir
site
sites
situation
six
siz
size
sj
sk
ska
ski
skich
skie
skiego
skiej
skorowidz
sky
skyscraperpage
slounik
sm
small
smith
snac
snooker
so
soc
soccer
soccerbase
soccerway
sochaczew
social
socie
society
sofia
software
solar
soldier
soldiers
some
son
song
songs
sons
sont
sony
soul
sound
soundtrack
source
sources
sous
south
southern
soviet
sp
space
spain
spanish
speak
special
species
speculative
speech
sphagnum
spider
spiegel
spo
sport
sports
spot
sprache
spring
springer
sputnik
sqrt
sr
ss
st
sta
staatsbibliothek
stadt
staff
stage
stan
stand
standard
stanford
stanisław
stanley
star
stars
start
stat
state
statement
states
station
statistical
statistics
statistik
statistika
statistikportal
status
statystyczny
ste
steam
stefan
stephen
sterreich
sterreichischen
steve
steven
still
sto
stockholm
stone
stop
stopklatka
storage
store
storia
storico
stories
storm
story
str
strategic
strategy
street
strike
strq
structure
stuart
students
studia
studies
studio
studios
study
stuttgart
stwa
stwo
style
su
subject
submarines
subsp
such
sudan
suite
sullivan
sum
summary
summer
sun
sunday
super
support
sur
survey
sv
svaboda
svenska
svenskagravar
svenskt
sverige
sveriges
sweden
swedish
swift
sydney
sygn
syn
syria
syrian
system
systems
szko
szlachty
szpoper
szto
słowian
słownik
t
ta
table
tacitus
tadeusz
tak
take
takes
talk
talks
tam
target
tau
taxonomy
taylor
te
team
teams
teatr
tech
technical
technology
telegram
telegraph
telescope
television
temps
ten
ter
term
terra
terror
test
texas
text
texts
tg
th
than
that
the
theatre
their
them
then
theory
there
thesaurus
these
theta
they
things
third
this
thomas
thompson
thomson
thon
thor
those
thought
three
through
ti
tiens
tigray
till
tilletia
tim
time
times
titan
title
tityus
tn
to
today
together
tolki
tolkien
tom
tomatoes
too
tools
top
topic
toronto
tort
tot
total
tour
tournament
tous
towarzystwa
tower
town
toyota
tq
tr
tra
track
trade
tradition
traditional
train
training
trans
transactions
transfermarkt
translated
translation
travel
tre
tree
trek
tribe
tribuna
tribune
trifolium
tron
troops
true
trump
trust
try
ts
tt
tu
turkey
turkish
turner
tut
tv
twentieth
twitter
two
ty
tym
type
types
typus
tyromyces
tzdb
u
ua
uc
uefa
ugc
uit
uk
ukraine
ukrainian
ultimate
ultra
um
un
una
und
undefined
under
une
unesco
unicat
union
unit
united
universal
universe
universidad
universita
universite
university
uniwersytetu
unix
unspecified
up
update
updated
upload
uploads
ur
urban
url
urocystis
urza
urze
us
usa
usb
use
used
user
users
using
ut
utc
utricularia
uz
v
va
vaccinium
valley
van
var
varepsilon
variety
various
varphi
vcc
ve
vec
ved
venezia
verbascum
vereniging
vergadering
verlag
veronica
version
very
vi
via
vicia
vickers
victims
victor
victoria
video
vie
vienna
vietnam
view
views
vii
viii
villa
village
villeneuve
vilniaus
vilnius
vincent
viola
violence
virtual
virus
vision
visual
vita
vizier
vladimir
vo
voice
vol
volkswagen
volume
volunteer
volunteers
vom
von
voor
vote
vous
vs
vulgaris
vulica
vv
vy
vyriausioji
vzw
w
wa
wales
walker
wall
walt
walter
wam
wang
want
war
warfare
warner
wars
warszawa
warszawie
was
washington
watch
water
watson
wave
way
wd
we
weapons
web
webcitation
weber
website
week
weekly
weeks
welche
welcome
weliki
welikoho
well
welle
welsh
welt
werden
were
werner
west
western
what
wheeler
when
where
which
white
who
why
wi
wiatowej
wide
wie
wiedzy
wieku
wielkiego
wien
wies
wiki
wikidata
wikimedia
wikipe
wikipedia
wild
wilejka
wilejski
wilen
wiley
wilhelm
will
willd
william
williams
wilno
wilson
win
windows
winner
winners
winning
wins
winter
wissen
with
within
without
wm
wmbe
wmf
wny
wo
wojewo
wojnie
wola
wolf
wolff
wolfgang
wolumin
woman
women
won
wood
word
worden
wordt
work
working
works
workshop
world
worldsnooker
worldwide
worowo
would
woyniłłowicz
wp
wright
write
writer
writing
written
wrocław
wschodniej
wspo
wspomnienia
wu
wurden
wurzbach
www
wyd
wydawnictwo
wykaz
władysław
x
xbox
xi
xii
xiii
xiv
xix
xlsx
xml
xv
xvi
xvii
xviii
xx
xxi
xxii
xxiii
xxiv
xxv
xxvi
xxvii
xxx
y
ya
yahoo
yale
yc
ych
ycki
ycy
year
years
yet
ym
yn
yna
york
you
young
your
youtube
yu
yz
z
za
zalez
zbigniew
ze
zealand
zef
zeit
zeitschrift
zeitung
ziemia
ziemiach
zijn
zone
zones
zu
zum
zur
zviazda
zw
zwg
{
|
}
~
¡
£
¦
§
¨
©
«
­
®
¯
°
±
²
³
´
·
¹
º
»
¼
½
¾
×
æ
ð
ø
ı
ł
ɔ
ə
ɛ
ʃ
ʒ
ʰ
ʲ
ʷ
ʹ
ʻ
ʼ
ʿ
ˈ
ˌ
ː
˙
ˠ
̀
́
̂
̃
̄
̅
̆
̇
̈
̉
̊
̋
̌
̏
̑
̓
̔
̛
̣
̥
̦
̧
̨
̪
̯
̱
̶
̸
͂
ͅ
͡
΄
α
β
γ
δ
ε
ζ
η
θ
ι
λ
μ
ν
ξ
ο
π
ρ
ς
σ
τ
της
υ
φ
χ
ψ
ω
ϕ
ϵ
а
аа
ааліты
аан
аат
ааэ
аб
аба
абавязак
абавязаны
абавязау
абавязацельствау
абавязкам
абавязкау
абавязкова
абавязковаи
абавязковы
абавязковым
абавязку
абавязкі
абаев
абазначае
абазначаецца
абазначаюць
абазначэнне
абазначэння
абазначэннямі
абазначэнні
абаи
абаленскі
абалонка
абалонкаи
абалонкі
абапал
абапе
абапіраецца
абапірау
абапіраюцца
абапіраючыся
абараняе
абараняла
абаранялі
абараняу
абараняць
абараніла
абараніу
абараніць
абарачэнне
абарачэння
абарона
абаронаи
абароне
абаронены
абарону
абаронца
абаронцам
абаронцау
абаронцы
абарончага
абарончаи
абарончы
абарончых
абарончыя
абароны
абарот
абароту
абарыгенау
абацтва
абацтве
абвешчана
абвешчаная
абвешчаны
абвясціла
абвясцілі
абвясціу
абвясціць
абвяшчае
абвяшчалася
абвяшчаліся
абвяшчау
абвяшчэнне
абвяшчэння
абвяшчэнні
абвінавау
абвінавацілі
абвінаваціу
абвінавачаны
абвінавачаных
абвінавачвалі
абвінавачванне
абвінавачвання
абвінавачванняу
абвінавачванні
абвінавачвау
абгрунтаванне
абгрунтавання
абгрунтавау
абгрунтоу
абд
абдул
абдэль
абед
абедзве
абедзвюх
абедзьве
абеду
абезгалоу
абеліск
абкама
аблажылі
аблажыу
абламскі
абласная
абласнога
абласнои
абласны
абласным
абласных
абласцеи
абласцямі
абласцях
аблвыканкама
аблога
аблогу
аблогі
аблозе
аблокау
аблокі
абломкі
аблямоу
аблічча
абліччы
абмежавана
абмежаванаи
абмежаваная
абмежаванне
абмежавання
абмежаванняу
абмежаванні
абмежаваны
абмежаваным
абмежаваныя
абмежавау
абмежаваць
абмен
абмену
абмеркаванне
абмеркавання
абмеркаванні
абмываецца
абмяжоу
абмяркоу
абнау
абнесены
абноу
абняу
або
абодва
абодвума
абодвух
абое
абоз
абрад
абрадау
абрадзе
абраду
абрады
абраз
абраза
абразок
абразом
абразоу
абразы
абрала
абралі
абрам
абрамавіч
абрамовіч
абрана
абранага
абраная
абранне
абрання
абраны
абраным
абраных
абраныя
абрау
абраць
абрысы
абрэвіятура
абсалютна
абсалютнаи
абсалютная
абсалютную
абсалютны
абсе
абсерваторыя
абсерваторыі
абследавау
абслугоу
абставін
абставінах
абставіны
абстале
абсталявана
абсталяванне
абсталяваннем
абсталявання
абсталяваны
абстаноу
абстрэл
абстрэлу
абу
абумовіла
абумоу
абурэнне
абутак
абутку
абуховіч
абхазіі
абшар
абшары
абшчын
абшчына
абшчыне
абшчыну
абшчыны
абы
абыи
абыходзіцца
абышоу
абярнуу
абяцае
абяцалі
абяцанне
абяцау
абірае
абіраецца
абірау
абіраюцца
авалодалі
авалодау
авалодаць
авальнаи
авальныя
авангард
аварыи
аварыі
август
августа
аве
авен
авечак
авечкі
авт
автор
автореферат
авінье
авіякампанія
авіякампаніі
авіяу
авіяцыи
авіяцыя
авіяцыяи
авіяцыі
аг
ага
агароджа
агароджаи
агароджы
агароднікі
агата
агая
агент
агента
агентам
агентау
агентство
агенты
агенцтва
агламерацыі
агледзеу
агляд
аглядальнік
аглядау
аглядзе
агляду
агне
агню
агнястрэльнаи
агні
агонь
аграгарадка
аграгарадку
аграгарадок
аграном
аграрна
аграрнага
аграрнаи
аграрная
аграрны
аграрных
агрэсіу
агрэсіі
агул
агулам
агульна
агульнаадукацыи
агульнаваи
агульнага
агульнадзяржау
агульнае
агульнаеу
агульнаи
агульная
агульную
агульны
агульным
агульнымі
агульных
агульныя
агінскага
агінскі
агінскіх
агітацыи
агітацыю
агітацыі
ад
ада
адабрала
адабралі
адабрау
адабраць
адазвау
адам
адама
адамавіч
адамам
адамау
адамовіч
адамовіча
адамс
адаму
адаптацыі
адбор
адборачным
адбору
адбудаваны
адбудзецца
адбываецца
адбывалася
адбываліся
адбывау
адбывацца
адбываюцца
адбылася
адбылося
адбыліся
адбыу
адбыцца
адбіваецца
адбілася
адбілі
адбітак
адбіты
адбіу
адбіць
адв
адвагу
адвагі
адважны
адважыу
адвакат
адваката
адвакатам
адвакатау
адваротны
адваротным
адве
адвярнуу
адгор
адгукнуу
адгуляу
адгэтуль
аддавалі
аддавау
аддаваць
аддадзена
аддадзены
аддае
аддаецца
аддаи
аддала
аддаленых
аддалі
аддам
адданасць
адданы
аддау
аддаць
аддаюць
аддаючы
аддзел
аддзела
аддзелам
аддзелау
аддзеле
аддзелены
аддзелу
аддзелы
аддзяленне
аддзяленнем
аддзялення
аддзяленняу
аддзяленні
аддзяляе
адз
адзежы
адзенне
адзення
адзенні
адзнака
адзнакаи
адзнаку
адзнакі
адзначае
адзначаецца
адзначалася
адзначалі
адзначаліся
адзначана
адзначаны
адзначау
адзначаюцца
адзначаюць
адзначыла
адзначылі
адзначыу
адзначыць
адзін
адзінага
адзінае
адзінаи
адзінак
адзінаццаць
адзінаццаці
адзіная
адзінка
адзінкавыя
адзінкаи
адзінкамі
адзінку
адзінкі
адзіноце
адзіночнага
адзіночным
адзіночныя
адзінства
адзіную
адзіны
адзіным
адзінымі
адзіныя
адк
адказ
адказала
адказалі
адказам
адказау
адказаць
адказвае
адказвала
адказвалі
адказвау
адказваць
адказваюць
адказваючы
адказнасць
адказнасці
адказны
адказным
адказных
адказныя
адказу
адказы
адкб
адкладамі
адкладау
адкладах
адклады
адкрывае
адкрываецца
адкрываюцца
адкрыла
адкрылася
адкрылі
адкрыліся
адкрыта
адкрытага
адкрытае
адкрытаи
адкрытая
адкрытую
адкрыты
адкрытым
адкрытымі
адкрытых
адкрытыя
адкрыу
адкрыцце
адкрыцця
адкрыццяу
адкрыцці
адкрыць
адкуль
адкінуу
адлегласць
адлегласці
адлюстравана
адлюстраванне
адлюстраваннем
адлюстравання
адлюстраваны
адлюстравау
адлюстроу
адлік
адліку
адліу
адмау
адмена
адменена
адменены
адмену
адмены
адметнаи
адметная
адметны
адметныя
административно
адмова
адмову
адмовы
адмовілася
адмовіліся
адмовіу
адмовіцца
адмоу
адмыслова
адмысловага
адмысловаи
адмысловая
адмысловую
адмысловы
адмысловым
адмысловых
адмысловыя
адмяніу
адмяніць
адміністратар
адміністратара
адміністратарам
адміністрацыи
адміністрацыю
адміністрацыя
адміністрацыяи
адміністрацыі
адмірал
адмірала
адміралцеи
адна
аднабаковым
аднавяскоу
аднавіла
аднавілася
аднавілі
аднавіліся
аднавіу
аднавіць
аднагадовая
аднагадовыя
аднагалосна
аднаго
аднадольных
аднадольныя
аднае
адназначна
аднаи
аднак
аднаму
аднапавярховы
аднаполыя
аднастаи
аднау
адначасна
адначасова
аднесены
аднесці
адно
аднои
аднолькава
аднолькаваи
аднолькавы
аднолькавых
аднолькавыя
адносна
адноснаи
адноснасці
адносная
адносяцца
адносяць
адносілася
адносілі
адносіліся
адносін
адносінамі
адносінау
адносінах
адносіны
адносіу
адносіцца
адносіць
адноу
адну
адны
адным
аднымі
адных
аднэи
аднясення
аднім
адозвы
адольф
адольфа
адпаведна
адпаведнага
адпаведнае
адпаведнаи
адпаведнасць
адпаведнасці
адпаведная
адпаведную
адпаведны
адпаведным
адпаведнымі
адпаведных
адпаведныя
адпавядае
адпавядала
адпавядалі
адпавядау
адпавядаць
адпавядаюць
адпачынак
адпачынку
адпачыць
адпомсціць
адпор
адправілася
адправілі
адправіліся
адправіу
адправіцца
адправіць
адпрау
адпрацоу
адпу
адпушчаны
адраджэнне
адраджэння
адраджэньне
адраджэньня
адрадзіць
адразу
адрамантаваны
адрас
адрасе
адрасоу
адрасу
адрасы
адрачэння
адрозненне
адрознення
адрозненняу
адрозненні
адрознівае
адрозніваецца
адрознівалася
адрозніваліся
адрознівау
адрознівацца
адрозніваць
адрозніваюцца
адрозніваюць
адрозніць
адрокся
адрыу
адрыян
адрыяна
адрыятычнага
адрэзак
адрэстау
адставанне
адстау
адстои
адступаць
адступленне
адступлення
адступленні
адступілі
адступіу
адступіць
адсутнасць
адсутнасцю
адсутнасці
адсутнічае
адсутнічаюць
адсюль
адтуль
адтуліна
адтуліну
адтуліны
адукацыи
адукацыю
адукацыя
адукацыяи
адукацыі
адушау
адхіленне
адхілення
адхіленні
адхілены
адхіліу
адценне
адценнем
адценняу
адчаи
адчувае
адчуваецца
адчувала
адчувалася
адчувалі
адчуванне
адчувау
адчуваць
адчуваю
адчуваюць
адчуваючы
адчуу
адчынена
адчынены
адчыніліся
адчыніу
адчыніць
адшукаць
адыграла
адыгралі
адыграу
адыгрывае
адыгрывала
адыгрывалі
адыгрывау
адыгрываюць
адыджэ
адыи
адысея
адысці
адыход
адыходзяць
адыходзілі
адыходзіць
адыходу
адышла
адышлі
адышоу
адэса
адэсе
адэскаи
адэская
адэсы
ае
аж
ажаніу
ажаніцца
ажно
ажыу
ажыцце
ажыццявіу
ажыццявіць
ажыццяу
ажэшка
аз
азбука
азвау
аздабленне
аздаблення
аздарау
аздоблены
аздобленыя
азе
азерб
азербаи
азии
азнае
азначае
азначала
азначау
азначаць
азначаюць
азначэнне
азначэння
азначэнні
азот
азоту
азоу
азірнуу
азію
азія
азіяцкаи
азіяцкіх
азіі
аи
ак
ака
акад
академии
академик
академия
акадэміи
акадэмік
акадэміка
акадэмікам
акадэмічнага
акадэмічнаи
акадэмічны
акадэмічным
акадэмічных
акадэмічныя
акадэмію
акадэмія
акадэміяи
акадэміі
аказала
аказалася
аказалі
аказаліся
аказанне
аказання
аказау
аказаць
аказвае
аказваецца
аказвала
аказвалі
аказвау
аказваць
аказваюцца
аказваюць
акаи
акалічнасць
акалічнасці
аканом
акау
акафісты
акварэлі
аквітаніі
акмолінскаи
акна
акне
акно
акном
акон
аконнымі
аконных
аконныя
акрамя
акруг
акруга
акругаи
акругах
акруговага
акруговаи
акруговы
акругу
акругі
акружана
акружаны
акружнасць
акружнасці
акружэння
акрузе
аксана
аксе
аксм
аксіе
акт
акта
актам
актамі
актау
актах
актму
актов
актрыса
актрысаи
актрысы
акту
актуальные
актуальныя
акты
актывіст
актывістау
актывісты
актыу
акуляры
акунь
акупавалі
акупавана
акупаванаи
акупаваная
акупаваны
акупаваных
акупантамі
акупантау
акупанты
акупацыи
акупацыя
акупацыяи
акупацыі
акупіравана
акупіраванаи
акупіраваны
акурат
акуратна
акушэрскі
акце
акции
акцыи
акцыю
акцыя
акцыянернага
акцыянернае
акцыях
акцыі
акцэнт
акцябрскага
акцябрскі
акцябрскім
акі
акіслення
акіян
акіяна
акіянам
акіянау
акіяне
акіяну
акіяніі
ал
ала
алаев
алампиев
алан
алб
албанскаи
албанія
албаніі
албо
алгарытм
алгебра
алгебры
але
алег
алега
алегавіч
алеем
алеи
алекс
алекса
александр
александра
александрович
александровіч
александроу
александрыи
александрыя
александрыі
алексеев
алексеевич
алексеи
алексіевіч
ален
алена
аленаи
алену
алены
алень
аленя
аленяу
алені
алепа
алесандра
алесандрыя
алесь
алеся
алею
алея
алеі
алжыр
алжыра
алжыры
алиев
алкаголю
алма
алматы
алонса
алоу
алтаи
алтар
алтара
алтарнаи
алтаром
алтароу
алтары
алтая
алфавіт
алфавіта
алфавіту
алфавіце
аль
альба
альбеда
альберт
альберта
альбо
альбом
альбома
альбомам
альбомау
альбоме
альбому
альбомы
альбрэхт
альбрэхта
альгерд
альгерда
альжбета
альма
альманах
альпау
альпах
альпы
альпіи
альта
альтэрнатыу
альфа
альфонс
альфонса
альфрэд
альфрэда
альхоу
альшэу
альянс
альянсу
алякса
аляксандар
аляксандр
аляксандра
аляксандравіч
аляксандравіча
аляксандрам
аляксандрау
аляксандру
аляксандры
аляксеевіч
аляксеем
аляксееу
аляксеи
аляксея
аляска
аляскі
аляхновіч
аляхновіча
алі
алімпіи
алімпіядзе
алімпіяды
аліса
алістэр
аліу
ам
амаль
аман
амана
амар
амарылісавыя
аматар
аматарам
аматарау
аматары
амбулаторыя
амбіцыи
амерыка
амерыкана
амерыканскага
амерыканскае
амерыканскаи
амерыканская
амерыканскую
амерыканскі
амерыканскім
амерыканскімі
амерыканскіх
амерыканскія
амерыканцау
амерыканцы
амерыку
амерыкі
амерыцы
амністыі
амстэрдам
амстэрдаме
амундсен
амундсена
амур
амурскаи
ан
ана
аналаг
аналагічна
аналагічная
аналагічны
аналагічных
аналагічныя
анализ
аналогіі
аналы
аналіз
аналізе
аналізу
аналітычнаи
анастасія
анат
анатолевіч
анатолии
анатоль
анатольевіч
анатоля
анатоліі
анатоміі
анг
ангел
ангела
англ
англа
англамоу
англии
англіи
англічан
англічанамі
англічане
англічанін
англію
англія
англіяи
англіі
анголы
анджэи
анджэла
анджэлес
анджэлеса
анджэлесе
андрамеда
андреевич
андреевскии
андреи
андрэ
андрэа
андрэева
андрэевіч
андрэем
андрэеу
андрэи
андрэю
андрэя
андэрсан
ане
анексіяи
анексіі
анжуи
ани
аникин
анлаи
анна
анненков
анры
ансамбль
ансамбля
ансамблі
ант
анталогія
антанты
антаніна
антарктыды
антарыа
антверпен
античности
анто
антон
антона
антонавіч
антонам
антонау
антонович
антоні
антоніа
антоніи
антонія
антось
антрапалогіі
антраполаг
антуан
анты
антые
антыльскіх
антысавецкаи
антысавецкую
антысавецкія
антыу
антычнага
антычнаи
антычнасці
антычных
антычныя
антыяхіи
ануфрыеу
ані
анікеи
анімацыи
анімэ
анішчанка
ап
апавядае
апавяданне
апавядання
апавяданняу
апавяданнях
апавяданні
апавяданьне
апавяданьні
ападкау
ападкі
апазіцыи
апазіцыю
апазіцыя
апазіцыяи
апазіцыі
апаладор
апалон
апалона
апалчэнне
апалчэння
апанас
апанасавіч
апанент
апанента
апарат
апарата
апаратам
апаратау
апарату
апаратуры
апараты
апараце
апе
апекаи
апеку
апекуном
апекі
апеляцыи
аператар
аператара
аператарам
аператарау
аператыу
аперацыи
аперацыю
аперацыя
аперацыяи
аперацыях
аперацыі
аплаты
аповесцеи
аповесць
аповесці
апольскага
апораи
апорнага
апорны
апорных
апоры
апостал
апостала
апосталау
апосталы
апостальскаи
апостальская
апостальскі
апоу
апошнюю
апошняга
апошняе
апошняи
апошняму
апошняя
апошні
апошнім
апошнімі
апошніх
апошнія
апрануты
апрануу
апрау
апрацаваны
апрацоу
апрача
апреля
апроч
апсіда
апсідаи
апсіды
аптычнага
аптычнаи
аптычных
аптычныя
аптэка
апублікавала
апублікавалі
апублікавана
апублікаванага
апублікаванаи
апублікаваная
апублікаваны
апублікаваных
апублікаваныя
апублікавау
апулія
апускаецца
апусціу
апушаныя
апынулася
апынуліся
апынуу
апынуцца
апытання
апярэдзіу
апярэнне
апісана
апісанаи
апісанне
апісаннем
апісання
апісанні
апісаны
апісаных
апісау
апісаць
апісвае
апісваецца
апісванаи
апісвау
апісваюцца
апісваюць
ар
ара
араб
араба
арабамі
арабау
арабскага
арабскаи
арабская
арабскі
арабскім
арабскіх
арабскія
арабы
аравіи
аравія
аравіі
арагона
арак
арамеи
аранжыроу
арачным
арачнымі
арачных
арачныя
арашэння
арбіта
арбіту
арбіты
арбіце
арган
арганау
арганізавала
арганізавалі
арганізавана
арганізаванага
арганізаванаи
арганізаваная
арганізаваны
арганізаваныя
арганізавау
арганізаваць
арганізатар
арганізатарам
арганізатарау
арганізатары
арганізацыи
арганізацыю
арганізацыя
арганізацыяи
арганізацыямі
арганізацыяу
арганізацыях
арганізацыі
арганізм
арганізма
арганізмау
арганізме
арганізмы
арганізоу
арганізуе
арганічна
арганічнага
арганічнаи
арганічных
арганічныя
аргенціна
аргенціне
аргенцінскі
аргенціны
аргумент
аргументы
арда
ардан
арджанікідзэ
арды
аренду
аренды
арк
арка
аркадзь
аркадзя
аркаи
аркамі
аркестр
аркестра
аркестрам
аркестры
арктыкі
аркуш
аркуша
аркушы
аркі
арла
арлова
арлом
арлоу
арлы
арм
армавір
армеи
армении
армения
арменію
арменія
арменіяи
арменіі
армии
армия
армян
армяна
армяне
армянскага
армянскае
армянскаи
армянская
армянскі
армянскім
армянскіх
армянскія
арміи
армію
армія
арміяи
арміі
арнамент
арнаментам
арнольд
арол
арсенал
арсенала
арт
артем
артуа
артур
артура
артыкул
артыкула
артыкулам
артыкуламі
артыкулау
артыкулах
артыкуле
артыкулу
артыкулы
артылерыи
артылерыю
артылерыя
артылерыяи
артылерыі
артыст
артыста
артыстау
артыстка
артысты
артэфакты
арфаграфіі
арх
архангел
архангела
архангельск
архангельскаи
архане
археалагічнага
археалагічнаи
археалагічная
археалагічны
археалагічным
археалагічных
археалагічныя
археалогія
археалогіі
археолаг
археолагамі
археолагау
археолагі
археологии
археология
архив
архивировано
архивное
архитекторов
архитекторы
архитектура
архитектуры
архібіскуп
архібіскупа
архібіскупам
архіва
архівавана
архівау
архівах
архіве
архівы
архідыяцэзія
архідыяцэзіі
архіепіскап
архіепіскапа
архіепіскапам
архімандрыт
архімандрыта
архіпелаг
архіпелага
архіпелагу
архірэи
архітэктар
архітэктара
архітэктарам
архітэктарамі
архітэктарау
архітэктары
архітэктура
архітэктурна
архітэктурнага
архітэктурнае
архітэктурнаи
архітэктурная
архітэктурны
архітэктурным
архітэктурных
архітэктурныя
архітэктуру
архітэктуры
архіу
арце
арцыбіскуп
аршанскага
аршанскаи
аршанская
аршанскі
аршанскім
аршын
аршыца
арыгінал
арыгінала
арыгінале
арыгінальнага
арыгінальнаи
арыгінальная
арыгінальную
арыгінальны
арыгінальным
арыгінальных
арыгінальныя
арые
арыентавана
арыентаванаи
арыентаваны
арыентацыя
арыентацыі
арыи
арыстакратыі
арыстоцель
арыстоцеля
арышт
арыштавалі
арыштавана
арыштаваны
арыштаваных
арыштаваныя
арыштаваць
арыштам
арыштоу
арышту
арышты
арэал
арэала
арэна
арэнаи
арэндзе
арэнду
арэнды
арэне
арэну
арэны
арэх
арэхау
арэхі
арэшак
ас
аса
асабліва
асаблівага
асаблівае
асабліваи
асаблівасцеи
асаблівасць
асаблівасцю
асаблівасцямі
асаблівасцяу
асаблівасці
асаблівасьці
асаблівая
асаблівую
асаблівы
асаблівым
асаблівых
асаблівыя
асабняк
асабовага
асабіста
асабістага
асабістае
асабістаи
асабістая
асабістую
асабісты
асабістым
асабістых
асабістыя
асада
асака
асамблея
асамблеі
асау
асацыяцыи
асацыяцыю
асацыяцыя
асацыяцыяи
асацыяцыі
асваенне
асваення
асвеи
асвета
асветнік
асветнікі
асветніцкаи
асветніцтва
асветы
асвечана
асвечаны
асвои
асвятленне
асвятлення
асвяціу
асвячоны
асвячэнне
асе
асеу
асеціі
аскерка
асмалоу
асманскага
асманскаи
асманская
аснавання
аснова
асноваи
асновах
аснове
аснову
асновы
асноу
асоб
асоба
асобаи
асобам
асобамі
асобау
асобах
асобе
асобна
асобнага
асобнае
асобнаи
асобная
асобную
асобны
асобным
асобнымі
асобных
асобныя
асобнік
асобнікау
асобнікі
асобу
асобы
асобін
асобіны
аспект
аспекты
аспірант
аспірантура
аспірантуру
аспірантуры
асср
аст
аставалася
астаецца
асталася
асталося
асталіся
астанкі
астап
астаповіч
астатнюю
астатняе
астатняи
астатняя
астатні
астатнім
астатнімі
астатніх
астатнія
астау
астацца
астравамі
астравах
астравец
астравецкага
астравецкім
астравоу
астравы
астравыя
астравіцян
астранамічнага
астранамічных
астранау
астраном
астраномам
астраномы
астраномія
астраноміі
астрау
астрель
астрог
астрожскі
астроу
астрыд
астэроід
астэроіда
астэроідау
асуджаны
асуджаных
асуджаныя
асуджэннем
асудзілі
асудзіу
асцерагаючыся
асцярожна
асьветы
асяродак
асяроддзе
асяроддзем
асяроддзя
асяроддзяу
асяроддзі
асяродкам
асяродку
асіміляцыі
асінау
асіповіцкага
асіповіцкім
асіповічы
асірыи
асірыі
асістэнт
асістэнта
асістэнтам
ат
ата
атака
атакавалі
атакавау
атакаваць
атаку
атакі
атам
атама
атаман
атамана
атамау
атамнаи
атамная
атамны
атамных
атамы
атачаюць
атлантычнага
атлантычны
атлантычным
атлас
атласа
атлетике
атлетыка
атлетыцы
атмасфера
атмасферу
атмасферы
атол
атон
атона
атрад
атрада
атрадам
атрадамі
атрадау
атрадзе
атраду
атрады
атрымае
атрымаем
атрымала
атрымалася
атрымалі
атрымана
атрыманаи
атрыманая
атрыманне
атрымання
атрыманні
атрыманы
атрыманых
атрыманыя
атрымау
атрымаць
атрымлівае
атрымліваецца
атрымлівала
атрымлівалі
атрымлівау
атрымліваць
атрымліваюць
атрымоу
атынкаваны
атырау
атэлье
атэстацыи
ау
аул
аула
ауле
аф
афанасьеу
афанасіи
афарбаваныя
афарбоу
афармленне
афармлення
афармленні
афганскаи
афганістан
афганістана
афганістане
афонсу
аформлены
аформіу
африка
афрыка
афрыканскага
афрыканскаи
афрыканская
афрыканскі
афрыканскіх
афрыку
афрыкі
афрыцы
афін
афінах
афіны
афіцыи
афіцэр
афіцэра
афіцэрам
афіцэрамі
афіцэрау
афіцэры
ах
ахапіла
ахапіу
ахарактарызавау
ахвотна
ахвяр
ахвяра
ахвяраванняу
ахвяраванні
ахвяравау
ахвяраи
ахвярам
ахвярамі
ахвярау
ахвяру
ахвяры
ахеи
ахеменідау
ахмед
ахова
аховаи
ахове
ахову
аховы
ахоплівае
ахоплівала
ахопліваюць
ахоу
ахрышчаны
ахрэм
ацанілі
ацаніу
ацаніць
аце
ацэнак
ацэнены
ацэнка
ацэнках
ацэнку
ацэнкі
ацэнцы
ацэньваецца
ацэньвау
ачко
ачкоу
ачкі
ачысткі
ачысціць
аш
ашаляваныя
ашмянскага
ашмянскі
ашмянскім
ашмяны
аэрадром
аэрадрома
аэрадроме
аэрапорт
аэрапорта
аэрапорце
аэс
ая
б
ба
баас
баб
баба
бабка
бабовыя
баброу
бабруи
бабры
бабуля
бабулі
бабы
бабінец
баварскага
баварскаи
баварскі
баварыю
баварыя
баварыі
бавау
бавоу
багам
багамольнікава
багамі
багародзіцкая
багародзіцы
багаслау
багаслова
багаслоу
багата
багатага
багатае
багатаи
багатая
багатую
багаты
багатым
багатымі
багатых
багатыя
багацеи
багацце
багаццем
багацця
багацці
багацьце
багдад
багдадзе
багдан
багдана
багданау
багдановіч
багдановіча
багеміі
багоу
баграціе
багуслау
багушэвіч
багушэвіча
багушэу
багі
багіня
багіні
багіра
бад
бадаи
бадзе
бадуэн
бадэн
бае
баевікамі
баевікоу
баевікі
баз
база
базаваи
базавая
базавых
базаи
базар
базе
базу
базуецца
базы
базіліка
базілікі
баи
бак
бакавои
бакавы
бакавымі
бакавых
бакавыя
бакалау
бакамі
баках
бакоу
баксе
бактэрыи
бактэрыі
баку
бакі
бал
бала
балада
балады
баланс
балансу
балатавау
балау
балаховіча
балг
балгарау
балгарскага
балгарскаи
балгарская
балгарскі
балгарскіх
балгарскія
балгары
балгарыю
балгарыя
балгарыяи
балгарыі
бале
балеи
балет
балета
балетмаи
балетнаи
балеты
балканах
балканскага
балканскіх
балканы
балкон
балонні
балот
балота
балотамі
балотах
балотная
балотны
балотных
балотныя
балоты
балоце
балтии
балты
балтыи
балтыі
балу
балы
баль
бальніца
бальніцу
бальніцы
бальшавік
бальшавікамі
бальшавікоу
бальшавікі
бальшавіцкага
бальшавіцкаи
балюча
баляслава
баляслау
балі
балівіі
баліць
бамбардзір
бамбардзірам
бамбардзіроу
бан
банапарт
банапарта
бангладэш
банда
бандарчык
бандарэнка
банды
банк
банка
банкам
банкау
банкноты
банку
банкі
банту
бапц
бар
бара
барабан
барабанам
барабане
барабаны
барада
бараду
барадулін
барадуліна
баран
баранавіцкага
баранавіцкаи
баранавіцкі
баранавіцкім
баранавіч
баранавічах
баранавічы
баранау
барановичского
бараноу
барані
бараніу
бараніць
барау
барацьба
барацьбе
барацьбои
барацьбу
барацьбы
барбара
барбары
барбікен
барвенак
бардо
баркоу
баркі
барок
барока
барон
барона
бароу
барселона
барселоне
барселоны
барсукі
бартэк
баршчоу
баршчэу
бары
барые
барыкады
барыс
барыса
барысава
барысаве
барысавіч
барысау
барысевіч
барысенка
барысюк
бас
басеи
баскау
баскетбаліст
баскетболе
баскетбольны
басніи
басовішча
бастые
баталье
батанік
батаніка
батанікі
батанічнага
батанічны
батанічным
батарэи
батарэя
батарэі
батлеи
баторыя
батыст
батыста
батэ
бау
бах
баха
бахрэи
бахчысараи
бацька
бацькам
бацькамі
бацькау
бацькоу
бацьку
бацькі
бацюшка
бач
бачаць
бачачы
бачна
бачнаи
бачнасці
бачная
бачны
бачным
бачныя
бачу
бачыла
бачылі
бачым
бачыу
бачыце
бачыць
бачыш
баюся
баючыся
бая
баявая
баявога
баявое
баявои
баявую
баявы
баявым
баявымі
баявых
баявыя
баялася
баяліся
баяр
баярау
баяры
баярын
баяу
баях
баяцца
баі
баіцца
бвк
бгк
бгсха
бгу
бдпу
бду
бе
бег
бегла
беглі
бегу
бегчы
беднага
беднаи
беднасці
беднаты
бедная
бедны
бедным
бедных
бедныя
бежанцау
без
бездакорную
беззаганнага
безнадзеи
безназоу
безопасности
безумоу
беи
бек
бел
бела
белавежскаи
белавежская
белага
белагвардзеи
белае
белаз
белаи
белапан
белару
беларус
беларуса
беларусазнау
беларусам
беларусамі
беларусау
беларуси
беларуск
беларуска
беларускага
беларускаго
беларускае
беларускаи
беларускамоу
беларускаму
беларуская
беларуску
беларускую
беларускі
беларускім
беларускімі
беларускіх
беларускія
беларусоу
беларуссю
беларусцы
беларусы
беларусь
беларусьфільм
беларусі
беларусізацыі
беласток
беластоку
беластоцкага
беластоцкаи
белау
белая
белдзяржпраект
белкартаграфія
белкартография
белниидад
белова
белорус
белорусов
белоруссии
белоруссия
белорусская
белорусские
белорусскии
белорусских
белорусско
белорусского
белорусское
белорусскои
белорусы
белпошта
белсат
белсэ
белта
белтэлекам
белтэлерадые
белую
белшыны
белы
белыи
белым
белымі
белых
белыя
бель
бельгіи
бельгію
бельгія
бельгіі
бельскага
бельскі
белэн
беліца
беліцк
бен
бенгазі
бенедыкт
бенедыкта
бенуа
београд
бер
бераг
берага
берагавая
берагавои
берагам
берагах
берагоу
берагу
берагі
беразе
беразоу
беразіно
бераставіцкім
берастоу
берасцеи
берасьцеи
берг
бергама
бергман
бере
березня
берклі
беркут
берлін
берліна
берліне
берлінскага
берлінскаи
берлінскі
берлінскім
бернар
бернард
бернарда
бернардзінцау
берта
бесарабіі
беспазваночных
беспарадкау
беспарадкі
беспартыи
беспаспяхова
бесперапынна
беспрацоу
бессэнсоу
бетону
бетховена
бешанковіцкага
бешанковіцкім
бешанковічы
бжастоу
би
библиотека
биобиблиографическии
биогр
биографии
биографическии
биография
биологическии
битва
бка
бквт
бл
бла
блага
благаслау
благачынне
блакаду
блакады
блакітнага
блакітнаи
блакітная
блакітны
блакітным
блакітныя
блам
бле
бледна
бледны
блинова
блог
блок
блока
блокау
блоку
блокі
блуа
блы
блытаць
блэк
блюз
бляск
бляскам
бляску
бліжэи
блізка
блізкага
блізкае
блізкаи
блізкасць
блізкасці
блізкая
блізкі
блізкім
блізкімі
блізкіх
блізкія
блізняты
блізу
блімбер
бліскучы
бліскучыя
бм
бмп
бнк
бнп
бнр
бнту
бнф
бо
боб
бобр
бобруи
бог
бога
богам
богаяу
богдан
богу
богуш
боем
боепрыпасау
боепрыпасы
божа
божага
божае
божаи
божая
божую
божы
божым
божыя
бои
бок
бока
бокам
боку
бокі
боле
более
болезни
болеи
болем
болсун
боль
больных
больш
большага
большае
большаи
большасць
большасцю
большасці
большасьць
большасьці
большая
больше
большои
большую
большы
большым
большых
большыя
болю
болі
бомба
бомбы
бон
бона
бонч
бор
бора
борис
боркі
борт
бору
борце
боры
борьба
борьбе
борьбы
боскаи
боснія
босніі
бостан
ботаническии
ботанічны
боты
боу
бохан
бочка
бочкі
бою
бпла
бпс
бпі
бра
брава
брагинского
брагін
брагіна
брагінскага
брагінскім
бразільскі
бразілія
бразіліі
браи
бракгау
брала
бралі
брама
брамаи
брамнік
брамніка
брамнікам
брамнікау
браму
брамы
брандэнбург
брандэнбурга
бранск
бранскаи
браніслава
браніслау
браслау
брат
брата
братам
братамі
братка
браткі
браток
братоу
брату
браты
братэрства
брау
браун
браце
брацкаи
брацкая
брацлау
брацтва
браць
браціславе
брашур
брашуры
браян
брест
брестская
брестскии
брестского
брестское
брестскои
брно
бровар
бровки
бровы
брод
брокгауз
брокгауза
бронетранспарце
бронза
бронзавага
бронзавая
бронзавы
бронзавым
бронзавых
бронзавыя
бронзу
бронзы
броу
бругэ
брук
бруна
брус
брусель
бруселі
брушка
брыгад
брыгада
брыгадаи
брыгадзе
брыгаду
брыгады
брыль
брытанскага
брытанскае
брытанскаи
брытанская
брытанскую
брытанскі
брытанскім
брытанскімі
брытанскіх
брытанскія
брытанцау
брытанцы
брытанія
брытаніі
брэи
брэслау
брэст
брэста
брэсце
брэсцкага
брэсцкае
брэсцкаи
брэсцкая
брэсцкі
брэсцкім
брэтань
брэтані
бсг
бсдп
бсср
бсэ
бт
бтр
бу
бубны
буг
буга
буда
будавалася
будавалі
будаваліся
будаванне
будавау
будаваць
будапешт
будапешта
будапешце
будау
будет
будеть
будзе
будзем
будзеце
будзеш
будзь
будзько
будзьма
будзьце
будзіць
будкін
буднага
будны
будова
будове
будову
будовы
будоу
будслау
буду
будуе
будуецца
будут
будуть
будуць
будучага
будучае
будучаи
будучая
будучы
будучым
будучыню
будучыня
будучыні
будучых
будучыя
будуюцца
будуюць
буды
будызм
будызму
будыи
будынак
будынка
будынкам
будынкамі
будынкау
будынках
будынку
будынкі
буи
бук
бука
булак
булгакау
булдаков
буле
булыка
бульба
бульбу
бульбы
бульвар
бульвары
буманн
бунд
бунда
бунт
бунтау
бунту
бур
бура
бурага
бураи
буракоу
буракі
бурау
бурая
бурбон
бурбонау
бургундыя
бургундыі
буржуазнаи
буржуазія
буржуазіі
буркіна
буру
бурундзі
буры
бурыя
бус
буса
бусау
бусел
бутэльку
бутэлькі
бухарэст
бухта
бухты
бухце
буш
буша
бушмар
буэнас
бцоу
бцр
бцы
бы
бывае
бываи
бывала
бывалі
бывау
бываюць
бывшии
бывших
быдгашч
быдла
бык
быка
быкава
быкау
быкоу
был
была
былая
были
было
былога
былое
былои
былую
былъ
былы
былым
былымі
былых
былыя
былі
быт
бытавога
бытавои
бытавых
бытавыя
быти
быту
быть
быу
быхау
быццам
быцце
быцця
быць
бышава
бышау
бэ
бэи
бэк
бэкэра
бэн
бэта
бюджэт
бюджэту
бюлетэнь
бюро
бюст
бягуць
бягучага
бягучы
бяда
бяднеи
бяду
бядуля
бядулі
бяды
бяжыць
бяз
бяздзеи
бязумоу
бялград
бялградзе
бяле
бялкоу
бялку
бялкі
бялова
бялыніцкага
бялыніцкім
бялявіна
бяляеу
бяроза
бярозавыя
бярозау
бярозка
бярозы
бяруць
бяры
бярэ
бярэзіна
бярэзінскага
бярэзінскім
бярэзіны
бярэцца
бясколерныя
бясконца
бяспека
бяспеку
бяспекі
бяспецы
бясплатна
бясспрэчна
бяссце
бі
біблеи
біблію
біблія
бібліяграфія
бібліятэк
бібліятэка
бібліятэкаи
бібліятэку
бібліятэкі
бібліятэцы
бібліі
біе
біенале
бізнес
бізнесмен
бізнесу
біл
біла
білет
більярда
білі
біліся
бін
бінэм
біржа
біржы
біскуп
біскупа
біскупам
біскупау
біскупства
біскупы
біт
бітва
бітваи
бітвау
бітвах
бітве
бітву
бітвы
біу
біцца
біць
біч
біябібліягр
біябібліяграфічны
біяграфічны
біяграфія
біяграфіі
біялагічна
біялагічнага
біялагічнаи
біялагічны
біялагічных
біялагічныя
біялогія
біялогіі
біятлоне
біяхімік
біяхіміі
в
ва
вав
ваве
вавілон
ваг
вага
вагаецца
вагаи
ваганняу
ваганні
вагнер
вагнера
вагои
вагон
вагона
вагонау
вагоны
вагу
вагі
вада
вадае
вадазбор
вадазбору
вадаліу
вадарод
вадароду
вадаспад
вадасховішча
вадасховішчы
вадзе
вадзяны
вадзяныя
вадзім
вадим
вадкасць
вадкасці
вадкіх
вадои
вадою
ваду
вады
вае
ваенна
ваеннага
ваеннае
ваеннаи
ваеннапалонных
ваеннаслужачых
ваенная
ваенную
ваенны
ваенным
ваеннымі
ваенных
ваенныя
ваецца
важае
важана
важаны
важау
важаць
важліва
важна
важнага
важнае
важнаи
важнасць
важнасці
важная
важнеи
важную
важны
важным
важнымі
важных
важныя
важыла
важылі
важыу
важыць
ваз
ваза
вазапісец
вазе
вазоу
вазы
вазьму
вазьмі
ваи
вак
вакал
вакальна
вакаліст
вакарэи
вакзал
вакзала
вакзале
вакно
вакол
ваколіц
ваколіцах
ваколіцы
ваконцэ
вакууме
вал
вала
валагодскаи
валадар
валадара
валадарання
валадаром
валадароу
валадарскага
валадарства
валам
валамі
валанце
валапас
валасамі
валаскамі
валасоу
валасцеи
валасы
валася
валасінкамі
валау
валахіі
вале
валеи
валенсія
валенсіі
валентин
валер
валерии
валеры
валерыи
валерыя
валовіч
валодае
валодала
валодалі
валоданне
валодання
валоданні
валодау
валодаць
валодаюць
валожын
валожынскага
валожынскі
валожынскім
валокнау
валокі
валоу
валуа
валун
валуноу
валы
валынскага
валынскаи
валынская
валынскі
валынскім
валынь
валыні
валь
вальдэмар
вальжан
вальмавым
вальс
вальтэр
вальтэра
валют
валюта
валюты
валянцін
валянціна
валянцінавіч
валяр
валі
валіи
валіся
вам
вамі
ван
вана
вандроу
ванне
ваннем
вання
ванні
вань
ваньковіч
ваня
вар
вараб
варагау
варанец
варанецкі
варашылава
варашылау
варваліся
варванне
варвання
варвары
варламау
вармінска
варожа
варожаи
варожасць
варожасці
варожы
варожых
варожыя
варона
варонеж
варонежскаи
варот
варотамі
вароты
варта
вартавых
вартавыя
вартаи
вартасць
вартасцю
вартасці
вартау
варту
варты
варунках
варункі
варце
варшава
варшаве
варшаву
варшавы
варшау
варыянт
варыянтам
варыянтау
варыянтах
варыянту
варыянты
варыянце
варыяцыі
вас
васабленне
васалам
василии
васильевич
васцю
васылькіу
васьме
васьмярык
васьмі
васьмігранным
васі
васіле
васілевіч
васілевічы
васілеу
васіль
васільева
васільевіч
васільеу
васілька
васількоу
васількі
васілю
васіля
васілішкау
ватыкан
ватыкана
вау
ваход
вахода
ваходжання
ваходзе
ваходзяць
ваходзіла
ваходзілі
ваходзіу
ваходзіць
ваходу
ваходы
вацлава
вацлау
вацца
ваць
вацік
вачамі
вачах
вачмі
вачох
ваччу
вачыма
вачэи
ваш
ваша
вашага
вашае
вашаи
вашкевіч
вашу
вашы
вашым
вашынгтон
вашынгтона
вашынгтоне
вашых
вашыя
ваюцца
ваюць
ваючы
ваючыся
вая
ваявалі
ваявау
ваяваць
ваявода
ваяводам
ваяводства
ваяводствау
ваяводстве
ваяводы
ваяроу
ваяу
вв
введение
ввс
вднг
ве
веб
вебер
вебера
вегетатыу
вед
ведае
ведаем
ведаеце
ведаеш
ведаи
ведала
ведалі
ведама
ведамасці
ведамства
ведамі
веданне
ведау
ведаць
ведаю
ведаюць
ведаючы
ведзена
ведзены
ведзеныя
ведзьма
ведомости
веды
веж
вежа
вежаи
вежамі
вежау
вежу
вежы
веи
век
века
веке
веков
вектар
вектара
веку
великая
великие
великии
великих
великого
великои
вельмі
веліжскім
велізарнаи
велізарная
велізарную
велізарны
велізарныя
велікапольскага
веліч
велічыне
велічынь
велічыню
велічыня
велічыні
вен
вена
венг
венгерскага
венгерскаи
венгерская
венгерскую
венгерскі
венгерскім
венгерскіх
венгерскія
венграу
венгры
венгрыю
венгрыя
венгрыяи
венгрыі
вене
венера
венеры
венесуэла
венесуэле
венесуэлы
венета
венецыю
венецыя
венецыянскага
венецыянскаи
венецыі
венскага
венскаи
венскі
венскім
вену
вены
вер
вера
вераб
верабеи
вераванняу
вераванні
веравызнання
верагодна
верагоднасць
вераи
вераніка
веранікі
верас
верасень
верасня
верасні
верасьня
вераце
вераць
вердзі
вердэ
вермахта
верна
вернасць
вернасці
вернер
вернецца
вернулся
вернута
вернуты
верны
верным
верных
верныя
вернікам
вернікау
вернікі
версе
версия
версіи
версію
версія
версіяи
версіях
версіі
вертале
вертыкальна
вертыкальнаи
вертыкальных
вертыкальныя
вертыкалі
веру
верфі
верх
верхавіны
верхам
верхнее
верхнюю
верхняга
верхнядзвінскага
верхнядзвінскім
верхняе
верхняи
верхняя
верхні
верхнім
верхніх
верхнія
верхов
верховного
верш
верша
вершаваных
вершам
вершамі
вершау
вершах
вершу
вершы
веры
верылі
верыу
верыць
весела
весну
веснік
вест
вестак
вестготау
вести
вестка
вестку
весткі
вестник
вестфалія
вестыбюль
весці
весь
весьці
весялеи
весялоу
вета
веткау
ветковского
ветрам
ветру
ветры
ветрык
ветэран
ветэранау
ветэрынарнаи
ветэрынарны
ветэрынарных
ветэрынарыі
вецер
веча
вечар
вечара
вечарам
вечары
вече
вечернии
вечна
вечнага
вечнае
вечназяле
вечнаи
вечная
вечны
вечным
вечныя
вжо
взаимодеи
взгляд
ви
вид
видатних
видео
византии
виктор
виленскои
вильна
вильнюс
виноградов
виталии
витебск
витебска
витебская
витебскии
витебского
витебскои
вк
вка
вкл
вкп
владимир
владимира
владимирович
владислав
власов
власти
власть
вместе
вмс
вмф
внесении
вновь
вну
во
вобл
воблака
воблакі
вобласць
вобласцю
вобласці
вобраз
вобраза
вобразам
вобразау
вобразе
вобразу
вобразы
вогнішча
вогнішчы
вогуле
вод
вода
водазабеспячэння
водамі
водар
водарасцеи
водарасці
водах
водгук
водгукі
водзяцца
водзіцца
водзіць
водле
водлугъ
водна
воднага
воднаи
водная
водны
водные
водныи
водным
водных
водныя
воду
воды
военачальнік
воениздат
военная
военно
военного
военное
военнои
военные
военныи
военных
вожык
воз
воза
возглавил
возе
возера
возерам
возеры
возьме
возьмем
вои
вока
вокам
вокладкі
вокладцы
вокнамі
вокнау
вокнах
вокны
вокруг
вол
волава
воласць
воласці
воласьці
волат
волга
волгі
волзе
воли
волкава
волкау
володимир
вольга
вольгі
волька
вольна
вольнага
вольнае
вольнаи
вольная
вольную
вольны
вольным
вольнымі
вольных
вольныя
вольскага
вольскі
вольф
вольфа
вольфганг
волю
воля
воляи
волі
вон
вонкава
вонкавага
вонкаваи
вонкавы
вонкавым
вонкавых
вонкавыя
вонкі
вооруже
воп
вопратка
вопратку
вопраткі
вопратцы
вопрос
вопросах
вопросов
вопросу
вопросы
вопыт
вопытам
вопыту
вораг
ворага
ворагам
ворагамі
ворагау
ворагу
ворагі
воранава
воранау
воронов
ворыва
восау
восем
восенню
восень
восені
воск
воспоминания
восток
востока
восточная
восточно
восточнои
востра
вострава
востравам
востраве
востраи
вострау
вострая
востры
вострым
вострымі
вострых
вострыя
вось
восьмага
восьмаи
восьмы
восьмым
восі
восіп
восіпавіч
вот
воу
вочкі
вочы
вояджэр
воін
воіна
воінам
воінау
воінскае
воінскаи
воінскіх
воінскія
воіны
впервые
впс
времен
времени
время
вроцлау
вряду
врядъ
вс
все
всего
всеи
всем
всемирная
всероссии
всех
вси
вская
вскои
вся
вторая
второе
второи
ву
вугал
вугаль
вугалю
вугла
вуглавымі
вуглавыя
вуглах
вугле
вуглом
вуглоу
вуглы
вугляроду
вузеи
вузел
вузкае
вузкаи
вузкая
вузкі
вузкім
вузкімі
вузкіх
вузкія
вузла
вузлом
вузлоу
вузлы
вузов
вул
вулкан
вулкана
вулканау
вулканы
вулканічнага
вулканічнае
вуліц
вуліца
вуліцаи
вуліцамі
вуліцах
вуліцу
вуліцы
вулічных
вулічныя
вунь
вуніі
вуп
вусені
вуснаи
вуснамі
вуснау
вуснах
вусны
вусце
вусця
вусці
вусы
вусікі
вуха
вухам
вучань
вучне
вучнем
вучня
вучням
вучнямі
вучняу
вучні
вучобу
вучобы
вучонага
вучонае
вучонаи
вучоная
вучоны
вучоным
вучонымі
вучоных
вучоныя
вучылася
вучылі
вучыліся
вучылішча
вучылішчау
вучылішчы
вучыу
вучыцель
вучыцца
вучыць
вучэб
вучэбна
вучэбнага
вучэбнаи
вучэбны
вучэбных
вучэльня
вучэльні
вучэнне
вучэння
вучэнняу
вучэнні
вушы
вушэи
вую
входят
въ
вы
выбар
выбарамі
выбарау
выбарах
выбару
выбарчага
выбарчаи
выбарчая
выбарчых
выбаршчыкау
выбары
выбачаи
выборы
выбралі
выбрана
выбранае
выбраны
выбраных
выбраныя
выбрау
выбраць
выбух
выбуху
выбухі
выбылі
выбыу
выбірае
выбіраецца
выбіралася
выбірау
выбіраць
выбіраюцца
выбіраюць
выбітны
выбітных
выбітныя
вывад
вываду
вываз
вывазу
выведзена
выведзены
вывезена
вывезены
вывезлі
вывелі
вывесці
вывеу
выводзіцца
выводзіць
вывучае
вывучала
вывучалі
вывучаны
вывучау
вывучаць
вывучаюць
вывучыу
вывучыць
вывучэнне
вывучэннем
вывучэнню
вывучэння
вывучэнні
вывяржэнне
вывяржэння
выгляд
выглядае
выглядала
выглядалі
выглядам
выглядау
выглядаць
выглядаюць
выглядзе
выгляду
выгналі
выгнанне
выгнання
выгнанні
выгнаны
выгнау
выгнаць
выгрузка
выд
выдавала
выдавалася
выдавалі
выдаваліся
выдавау
выдаваць
выдавец
выдавецкае
выдавецкаи
выдавецкая
выдавецкі
выдавецтва
выдавецтвам
выдавецтве
выдадзена
выдадзенаи
выдадзеная
выдадзены
выдадзеных
выдадзеныя
выдае
выдаецца
выдала
выдалення
выдалі
выдана
выданне
выданнем
выдання
выданнямі
выданняу
выданнях
выданні
выданы
выданьне
выданьня
выданьні
выдаткау
выдаткі
выдатна
выдатнага
выдатнаи
выдатная
выдатнеи
выдатную
выдатны
выдатным
выдатнымі
выдатных
выдатныя
выдатнік
выдау
выдаць
выдачы
выдаюцца
выдаюць
выдающиеся
выдающихся
выдзелена
выдзелены
выдзяляецца
выдзяляюцца
выдзяляюць
выезд
выезду
выехала
выехалі
выехау
выехаць
выжыу
выжыць
вызвалена
вызваленне
вызвалення
вызваленні
вызваленчага
вызваленчаи
вызвалены
вызваленыя
вызваленьне
вызваленьня
вызваляе
вызваляецца
вызвалілі
вызваліу
вызваліцца
вызваліць
вызначае
вызначаецца
вызначалася
вызначальнік
вызначалі
вызначаліся
вызначана
вызначанага
вызначанаи
вызначаная
вызначаны
вызначаным
вызначаных
вызначаныя
вызначау
вызначаць
вызначаюцца
вызначаюць
вызначыла
вызначылі
вызначыу
вызначыць
вызначэнне
вызначэння
вызначэнні
выи
выказала
выказалі
выказаліся
выказана
выказау
выказаць
выказвае
выказвалі
выказваліся
выказвання
выказванні
выказвау
выказваць
выканала
выканалі
выканана
выкананая
выкананне
выкананнем
выканання
выкананні
выкананы
выкананых
выкананыя
выканау
выканаць
выканкам
выканкама
выканкома
выкапне
выкапняу
выкапні
выкарысталі
выкарыстана
выкарыстанне
выкарыстаннем
выкарыстання
выкарыстанні
выкарыстаны
выкарыстаныя
выкарыстау
выкарыстаць
выкарыстоу
выкладае
выкладала
выкладалі
выкладанне
выкладання
выкладау
выкладаць
выкладзена
выкладзены
выкладчык
выкладчыка
выкладчыкам
выкладчыкау
выкладчыкі
выкладчыцкаи
выклау
выключана
выключаны
выключна
выключнаи
выключыць
выключэнне
выключэннем
выключэння
выключэнні
выклік
выклікае
выклікаецца
выклікала
выклікалі
выклікана
выкліканая
выкліканы
выкліканых
выкліканыя
выклікау
выклікаць
выклікаюць
выконвае
выконваецца
выконвала
выконвалі
выконваліся
выконвау
выконваць
выконваюцца
выконваюць
выконваючы
выконваючым
выкраданне
выкуп
выкупу
выкупіу
вылет
вылетау
вылету
вылецеу
вылучае
вылучаецца
вылучалася
вылучаліся
вылучана
вылучаны
вылучаныя
вылучау
вылучаюцца
вылучаюць
вылучылася
вылучылі
вылучыу
вылучыць
вылучэнне
вылучэння
вылілася
вылічальнаи
вылічальных
вылічыць
вылічэння
вылічэнні
вым
вымагае
вымау
вымусіла
вымусілі
вымусіу
вымушана
вымушаны
вымушаныя
вымяраецца
вымярэнне
вымярэння
вымярэнняу
вымярэнні
вымі
вынаи
вынаходнік
вынаходніцтва
вынаходства
вынес
вынесены
выносіць
выняткам
выняу
вынік
вынікае
вынікам
вынікамі
вынікау
выніках
выніку
вынікі
вып
выпадае
выпадак
выпадкам
выпадкау
выпадках
выпадкова
выпадковых
выпадку
выпадкі
выпала
выпау
выплаты
выплаціць
выпрабаванне
выпрабаванняу
выпрабаванні
выпрабоу
выправіу
выправіць
выпраменьванне
выпраменьвання
выпрамянення
выпрау
выпрацоу
выпуск
выпускае
выпускаецца
выпускала
выпускаліся
выпускау
выпускаць
выпускаюцца
выпускнік
выпускнікоу
выпускнікі
выпуску
выпусціла
выпусцілі
выпусціу
выпусціць
выпушчана
выпушчаная
выпушчаны
выпушчаныя
выпіу
выпіць
выраб
вырабам
вырабау
вырабе
выраблена
выраблены
вырабленыя
вырабляе
вырабляецца
вырабляла
выраблялася
выраблялі
вырабляліся
вырабляу
вырабляць
вырабляюцца
вырабляюць
вырабу
вырабы
вырабіу
выражае
выражаецца
выраз
выразам
выразау
выразна
выразнаи
выразнасць
выразнасці
выразная
выразны
выразным
выразных
выразныя
выразу
выразы
вырас
вырасла
выраслі
вырастае
выратавала
выратаванне
выратавання
выратавау
выратаваць
вырау
вырашае
вырашальны
вырашальным
вырашана
вырашаны
вырашаць
вырашаюць
вырашыла
вырашылі
вырашыу
вырашыць
вырашэнне
вырашэння
вырашэнні
вырвау
вырошчваецца
вырошчвалі
вырошчванне
вырошчвання
вырошчваюцца
вырошчваюць
высадзіліся
высадзіу
высадкі
высакародных
высакосны
высветлілася
высветліць
выскачыу
выслана
высланы
выслау
высмеи
выснову
высновы
высока
высокага
высокае
высокаи
высокапастау
высокау
высокая
высокую
высокі
высокім
высокімі
высокіх
высокія
высоу
высоцкая
высоцкі
выстава
выставак
выставах
выставе
выставка
выставы
выставіу
выстау
выступ
выступае
выступала
выступалі
выступам
выступау
выступаць
выступаюць
выступаючы
выступленне
выступлення
выступленняу
выступленні
выступу
выступы
выступіла
выступілі
выступіу
выступіць
высунуу
высш
высшая
высших
высылкі
высілкі
вытанчаных
вытворных
вытворныя
вытворца
вытворцам
вытворцау
вытворцы
вытворча
вытворчага
вытворчае
вытворчаи
вытворчасць
вытворчасцю
вытворчасці
вытворчы
вытворчых
вытворчыя
вытлумачыць
выток
вытокау
вытоку
вытокі
вытрымала
вытрымау
вытрымаць
вых
выхаванец
выхаванне
выхавання
выхаванні
выхаванцау
выхавау
выхад
выхадам
выхадзе
выхадзец
выхадзіу
выхадзіць
выхаду
выхадцамі
выхадцау
выхадцы
выхады
выходзяць
выходзячы
выходзіла
выходзілі
выходзіу
выходзіць
выхоу
выцягнутая
выцягнуты
выцягнутыя
выцягнуу
выцякае
выш
вышау
вышеи
вышла
вышлі
вышыне
вышынь
вышыню
вышыня
вышынях
вышыні
вышыу
вышэи
выя
выява
выяваи
выявамі
выяву
выявы
выявіла
выявілася
выявілі
выявіліся
выявіу
выявіць
выяу
вэб
вэи
вэньбо
вюртэмберг
вядзе
вядзенне
вядзення
вядзенні
вядзецца
вядома
вядомага
вядомае
вядомаи
вядомасць
вядомая
вядомую
вядомы
вядомым
вядомымі
вядомых
вядомыя
вядуцца
вядуць
вядучага
вядучаи
вядучая
вядучы
вядучым
вядучымі
вядучых
вядучыя
вяз
вяземскім
вязень
вязняу
вякоу
вякі
вял
вяла
вялася
вяло
вялося
вялі
вялізнаи
вялізная
вялізную
вялізны
вялізныя
вяліка
вялікабрытанію
вялікабрытанія
вялікабрытаніяи
вялікабрытаніі
вялікага
вялікадня
вялікае
вялікаи
вялікалітоу
вялікаму
вялікасці
вялікаю
вялікая
вялікдзень
вялікую
вялікшы
вялікшым
вялікшых
вялікі
вялікім
вялікімі
вялікіх
вялікія
вяліся
вялічка
вянком
вянок
вяночак
вярба
вярнула
вярнулася
вярнулі
вярнуліся
вярнуся
вярнуу
вярнуцца
вярнуць
вяроу
вярсты
вяртаецца
вярталіся
вяртанне
вяртання
вяртанні
вяртау
вяртацца
вяртаюцца
вярхоу
вярчэння
вяршыню
вяршыня
вяршыняи
вяршыні
вяршэнства
вясе
вяселле
вяселля
вяселлі
вяскова
вясковага
вясковаи
вясковая
вясковы
вясковых
вясковыя
вяскоу
вясна
вяснои
вясною
вясну
вясны
вясьці
вятрак
вятроу
вятры
вячаслава
вячаслау
вячеслав
вячэра
вячэрняи
вячэрні
вячэру
вячэры
вяшчанне
вяшчання
ві
віа
від
віда
відавочна
відам
відамі
відау
відах
відаць
відзау
відзе
відзы
віду
віды
відэа
відэакліп
візантыи
візантыя
візантыяи
візантыі
візіт
візітам
візіту
віи
вік
віка
вікарыи
вікенцьевіч
віктар
віктара
віктаравіч
віктарам
віктарау
вікторыя
вікторыі
вікі
вікікрыніцах
вікінгау
вікіпедыя
вікіпедыі
вікіпэдыя
вікісховішчы
вікіцытатніку
віла
віле
вілеи
вілем
віленскага
віленскае
віленскаи
віленскаму
віленская
віленскую
віленскі
віленскім
віленскіх
віленскія
віленшчыне
віленшчыны
вілы
вільгаць
вільгаці
вільгельм
вільгельма
вільгельмам
вільготнасць
вільготнасці
вільготны
вільготным
вільготных
вільготныя
вільню
вільнюс
вільнюса
вільнюсе
вільнюскага
вільня
вільні
вільям
вілі
віліі
він
віна
вінавата
вінаваты
вінаватым
вінаград
вінаградау
вінаграду
вінніцкаи
віно
віном
вінтовак
вінтоу
віну
вінцэнт
вінцэнта
вінчы
віны
вір
вірджынія
віртуальны
вірус
віруса
вірусау
вісела
вісеу
вісла
віслы
вісіць
віта
віталь
віталя
віталі
вітаміны
вітау
вітгенштэи
вітольд
вітражы
віцебск
віцебска
віцебскага
віцебскае
віцебскаи
віцебскам
віцебская
віцебску
віцебскую
віцебскі
віцебскім
віцебшчыне
віцебшчыны
віцкі
віцэ
віцязь
віч
вічы
вішне
вішнеу
вішнявецкага
вішнявецкі
вішні
г
га
гаазе
габрусь
габрыэль
габрэи
габсбургау
гаваи
гавань
гавані
гавару
гавары
гаварыла
гаварылася
гаварылі
гаварыу
гаварыць
гавата
гавора
гаворак
гавораць
гаворачы
гаворка
гаворку
гаворкі
гаворцы
гаворыцца
гаворыць
гаворыш
гаврилов
гага
гагарына
гагарынскім
гад
гадавая
гадавы
гадавіну
гадавіны
гадамі
гадау
гадах
гадз
гадзін
гадзіна
гадзіне
гадзіннік
гадзінніка
гадзіннікаваи
гадзіннікау
гадзіну
гадзіны
гадлеу
гадовага
гадоваи
гадовая
гадовую
гадовы
гадовым
гадоу
гадох
гаду
гады
гае
газ
газа
газаваи
газавых
газам
газау
газе
газет
газета
газетаи
газетах
газету
газеты
газеце
газу
газы
газэта
газэты
гаи
гал
гала
галава
галаве
галавои
галавою
галаву
галавы
галадоу
галаи
галактык
галактыка
галактыкі
галамі
галандскага
галандскаи
галандскі
галандскіх
галандыя
галандыі
галасаванне
галасаваннем
галасавання
галасаванні
галасамі
галасоу
галасы
галау
гале
галена
галерэи
галерэю
галерэя
галерэяи
галерэі
галечы
галовамі
галовы
галодны
галосны
галосных
галосныя
галоу
галубка
галубовіч
галубок
галубоу
галы
гальфстрым
гальцы
галілеа
галілеи
галілея
галін
галіна
галінак
галінамі
галінастае
галінах
галіне
галінкі
галінои
галіну
галіны
галісіи
галіцка
галіцкага
галіцкі
галіцыі
галіі
гам
гама
гамарня
гамбург
гамбургу
гамер
гамера
ган
гана
ганак
ганараваны
ганаровага
ганаровае
ганароваи
ганаровая
ганаровы
ганаровым
ганаровымі
ганаровых
ганаровыя
гандаль
гандбаліст
гандболе
гандбольнаи
гандзі
гандле
гандлем
гандлю
гандлявалі
гандляра
гандляроу
гандляры
гандлі
ганзага
ганка
ганкам
ганконг
ганконга
ганку
ганна
ганнаи
ганне
ганну
ганны
гановер
ганс
ганса
гануля
ганцавічы
ганчар
ганчароу
ганчарык
гапон
гапоненка
гар
гара
гарад
гарада
гарадам
гарадамі
гарадах
гараджан
гараджане
гарадзе
гарадзенскага
гарадзенскі
гарадзец
гарадзея
гарадзішча
гарадзішчанскага
гарадзішчы
гарадка
гарадку
гарадок
гарадоу
гарадох
гарадоцкага
гарадоцкі
гарадоцкім
гарадскага
гарадская
гарадскога
гарадское
гарадскои
гарадскому
гарадскую
гарадскі
гарадскім
гарадскімі
гарадскіх
гарадскія
гарады
гаральд
гарамі
гарантуе
гарантыі
гарасім
гарау
гарах
гараць
гарачага
гарачае
гарачаи
гарачая
гарачы
гарачым
гарачых
гарачыя
гарбату
гарбаты
гарбачова
гарбачоу
гарвыканкама
гардзееу
гардзіенка
гардзіцкі
гаркама
гармат
гармата
гарматамі
гарматы
гармонія
гармоніі
гарнізон
гарнізона
гарнізоны
гародні
гародніна
гародніну
гародніны
гародскаи
гарои
гарох
гарошак
гарсавета
гарсія
гарт
гартны
гару
гарун
гаруна
гаршчок
гары
гарызантальна
гарызантальнаи
гарызантальных
гарызонт
гарыць
гарэла
гарэлка
гарэлку
гарэлкі
гарэу
гарэцкага
гарэцкі
гас
гаса
гасау
гасе
гаспадар
гаспадара
гаспадарак
гаспадарамі
гаспадарка
гаспадаркаи
гаспадарках
гаспадарку
гаспадаркі
гаспадаром
гаспадароу
гаспадарскі
гаспадарскіх
гаспадарства
гаспадару
гаспадарцы
гаспадарчага
гаспадарчае
гаспадарчаи
гаспадарчая
гаспадарчы
гаспадарчым
гаспадарчых
гаспадарчыя
гаспадары
гаспадыня
гаспадыні
гасподзь
гасподняга
гасцеи
гасцях
гасцінец
гасцініца
гасцініцы
гатня
гатова
гатовая
гатовы
гатовыя
гатоу
гатункау
гатунку
гатункі
гатуюць
гаты
гатычнага
гатычнаи
гатычны
гатычным
гатэль
гатэлі
гау
гаю
гая
гаяны
гаі
гаіці
гвалт
гвалтам
гвалтоу
гвалту
гвардзеи
гвардия
гвардыя
гвардыі
гвіда
гвінея
гвінеі
гг
гданьск
гданьска
гданьску
где
гдзе
гдр
гду
ге
геаграфічна
геаграфічнага
геаграфічнае
геаграфічнаи
геаграфічны
геаграфічным
геаграфічных
геаграфічныя
геаграфія
геаграфіі
геадэзічных
геалагічнаи
геалагічны
геалагічных
геалогіі
геаметрычнаи
геаметрычных
геаметрыя
геаметрыі
гедзіміна
гедрои
геи
гек
гектара
гектарау
геліи
ген
гена
генавіч
генадзь
генадзя
генам
генау
генацыд
генацыду
гендарсан
генеалогія
генерал
генерала
генералам
генералау
генералу
генералы
генеральнага
генеральнаи
генеральная
генерального
генеральны
генеральным
генетыкі
генетычна
генетычныя
генкін
геннадии
генры
генрык
генрыка
генрых
генрыха
генрыхам
генрыху
генуя
генуі
генштаба
геніи
геніюш
генія
географ
географии
географические
географическии
географических
география
геолаг
геолага
георг
георга
георгиевскии
георгии
георгіевіч
георгіеу
георгіи
георгія
гер
гера
герадот
герадота
геральдыка
геральдычны
геране
герань
геранім
гераніма
герасімовіч
гераізм
гераіня
гераіні
герб
герба
гербам
гербау
гербе
герберт
гербоу
гербу
гербы
геркулес
герман
германа
германии
германскага
германскае
германскаи
германская
германскі
германскім
германскімі
германскіх
германскія
германцау
германію
германія
германіяи
германіі
героем
герои
герою
героя
героям
героямі
герояу
героі
гертруда
герцаг
герцага
герцагавіна
герцагавіне
герцагавіны
герцагам
герцагау
герцагства
герцагіня
герцэна
гестапа
гесэн
гесіе
гета
гетау
гетман
гетмана
гетманам
гка
гкаатлет
гкаатлетка
гкага
гкае
гкаи
гкая
гкнп
гкои
гку
гкі
гкім
гкіх
гкія
гл
глабальная
глав
глава
главная
главного
главное
главныи
главои
главы
гладка
гладкаи
гладкая
гладкі
гладкія
глазга
глау
глеб
глеба
глебава
глебазнау
глебау
глебах
глебе
глебу
глебы
гледача
гледачоу
гледачы
гледжання
гледзячы
глеи
глобус
глупства
глускім
глуха
глухі
глухім
глухіх
глухія
глыб
глыбеи
глыбока
глыбокага
глыбокае
глыбокаи
глыбокая
глыбокую
глыбокі
глыбокім
глыбокімі
глыбокіх
глыбокія
глыбоцкага
глыбоцкі
глыбоцкім
глыбіне
глыбіню
глыбіня
глыбінях
глыбіні
гляджу
глядзела
глядзелі
глядзеу
глядзець
глядзяць
глядзі
глядзіце
глядзіць
глянуу
глянь
глі
гліна
глінкау
глінкі
глінскі
гліны
гліняныя
гм
гміна
гміне
гміну
гміны
гнау
гне
гневу
гнеи
гнеу
гнои
гномау
гнязда
гняздо
гняздуецца
го
говард
говэн
гогаля
год
года
годам
годах
годдзе
годдзю
годдзя
годдзі
годзе
годна
годнасць
годнасці
годов
году
годы
гои
гол
голад
голаду
голае
голас
голасам
голасе
голасна
голасу
голау
голова
голос
голуб
голубеу
голы
голым
голыя
гольштэи
гоман
гомелем
гомель
гомельскага
гомельскаи
гомельская
гомельского
гомельскои
гомельскі
гомельскім
гомеля
гомелі
гон
гонар
гонарам
гонару
гонка
гонках
гонку
гонкі
гонцы
гончыя
гор
гора
горад
горада
горадабудау
горадам
горадзе
горадні
гораду
горам
горах
горацкага
горацкі
горацкім
горача
горват
горватау
горда
гордость
горка
горкага
горкау
горках
горки
горкі
горла
горле
горна
горнага
горнаи
горная
горны
горным
горнымі
горных
горныя
город
города
городе
городов
городского
городскои
горскага
горскі
гору
горш
горы
гос
госпад
госпада
госпадзе
государства
государственная
государственного
государственное
государственнои
государственныи
государство
госць
госця
госці
госьці
готау
готфрыд
готы
готыка
готыкі
гоу
гпу
гр
гра
грабніца
грабніцы
грабоу
гравау
граве
гравюр
гравюра
гравюры
гравітацыи
гравітацыі
град
града
градусау
грады
грае
гражданская
гражданских
гразь
гразі
граи
грала
гралі
грам
грамад
грамада
грамадау
грамадзе
грамадзтва
грамадзян
грамадзянам
грамадзянамі
грамадзяне
грамадзянскага
грамадзянскае
грамадзянскаи
грамадзянская
грамадзянскую
грамадзянскі
грамадзянскім
грамадзянскіх
грамадзянскія
грамадзянства
грамадзянін
грамадзяніна
грамадзянінам
грамадска
грамадскага
грамадскае
грамадскаи
грамадскасці
грамадская
грамадскую
грамадскі
грамадскім
грамадскімі
грамадскіх
грамадскія
грамадства
грамадствам
грамадстве
грамаду
грамады
грамат
грамата
граматаи
граматамі
грамату
граматы
граматыка
граматыку
граматыкі
грамаце
грамыка
гран
гранат
гранатаме
гранаты
гранд
грандые
гране
границ
грант
грані
граніт
граніту
граніц
граніца
граніцу
граніцы
грау
граф
графа
графам
графау
графства
графствау
графстве
графу
графы
графік
графіка
графікі
графіня
графіні
графіцы
графічны
графічных
графічныя
грахоу
грахі
граць
грашоваи
грашовая
грашовую
грашовых
грашовыя
грашыма
граюць
грду
григории
григорьевич
гриневич
грицкевич
гродзенскага
гродзенскаи
гродзенская
гродзенскі
гродзенскім
гродзеншчыны
гродна
гродне
гродненского
гродненскои
гродно
грознага
грозны
гром
громыко
грос
гросмаи
грош
грошаи
грошау
грошеи
грошы
гру
груба
грудзе
грудзеи
грудзьмі
грудзях
грудзі
груз
грузавы
грузавых
грузавыя
грузау
грузу
грузінскага
грузінскаи
грузінская
грузінскі
грузія
грузіі
грунт
грунтоу
грунту
грунтуецца
грунтуючыся
грунты
грунце
груп
група
групавы
групавых
групаи
групамі
групах
групе
груповак
групоу
группа
группы
групу
групы
груша
грушау
грушы
грушэцкі
грыб
грыба
грыбоу
грыбы
грыгарыянскім
грыгор
грыгорыи
грыгорыя
грызуноу
грын
грыу
грыцкевіч
грыш
грышка
грэи
грэка
грэкамі
грэкау
грэкі
грэм
грэмі
грэнадзе
грэнландыя
грэнландыі
грэх
грэцкага
грэцкаи
грэцкі
грэцыю
грэцыя
грэцыі
грэч
грэчаскага
грэчаскае
грэчаскаи
грэчаская
грэчаскую
грэчаскі
грэчаскім
грэчаскіх
грэчаскія
грэчка
гу
гуарані
губ
губа
губамі
губанов
губернатар
губернатара
губернатарам
губернатарства
губернаторы
губернии
губерния
губернскага
губернскаи
губернскі
губернскім
губернскіх
губерню
губерня
губерняу
губернях
губерні
губерніі
губляе
губляць
губы
губэрні
гуга
гузік
гук
гука
гукавых
гукам
гукарэжысе
гукау
гукнуу
гуку
гукі
гул
гулец
гульне
гульню
гульня
гульнявога
гульнявои
гульнявы
гульнявых
гульнямі
гульняу
гульнях
гульні
гульца
гульцом
гульцоу
гульцу
гульцы
гуляе
гуляла
гулялі
гуляу
гуляць
гуляюць
гуляючы
гуманізму
гуманіст
гуманітарнага
гуманітарнаи
гуманітарны
гуманітарных
гумар
гумару
гумно
гунау
гур
гурт
гурта
гуртам
гуртка
гурткоу
гурткі
гурток
гуртом
гуртоу
гурту
гурты
гурце
гусак
гусеи
гусоу
густ
густа
густава
густавам
густам
густау
густая
густои
густоу
густу
густы
густым
густыя
гусцяра
гусцін
гусі
гута
гутарак
гутарка
гутарковаи
гутарку
гутаркі
гутарцы
гутарыць
гучанне
гучання
гучаць
гучна
гучны
гучыць
гушчы
гую
гц
гэ
гэи
гэльскаи
гэля
гэны
гэных
гэныя
гэс
гэта
гэтага
гэтаго
гэтае
гэтаи
гэтак
гэтаксама
гэтакі
гэтаму
гэтаю
гэтая
гэткага
гэткае
гэткаи
гэткая
гэткую
гэткі
гэткім
гэткіх
гэткія
гэту
гэтулькі
гэтую
гэты
гэтым
гэтымі
гэтых
гэтыя
гюи
гі
гібель
гібелі
гігіены
гігін
гідра
гідрау
гіе
гіл
гілевіч
гільдыі
гілье
гім
гімн
гімна
гімназію
гімназія
гімназіі
гімнам
гімны
гімі
гінава
гінау
гіне
гінуць
гіпотэза
гіпотэзу
гіпотэзы
гіст
гістарычна
гістарычнага
гістарычнае
гістарычнаи
гістарычная
гістарычную
гістарычны
гістарычным
гістарычнымі
гістарычных
гістарычныя
гістарыяграфія
гістарыяграфіі
гісторыи
гісторык
гісторыка
гісторыкам
гісторыкамі
гісторыкау
гісторыкі
гісторыю
гісторыя
гісторыяи
гісторыі
гітара
гітары
гітарыст
гітлер
гітлера
гітлерау
гітліна
гітоу
гіх
гія
гіі
д
да
дабау
дабра
дабрабыт
дабрабыту
дабравешчання
дабрадзеи
дабрау
дабрацца
дабро
дабром
дабудаваны
дабіу
дабіцца
дава
даваи
давала
давалася
давалі
давау
даваць
даве
давед
даведалася
даведаліся
даведау
даведацца
даведка
даведнік
давер
даверу
давесці
даводзілася
даводзіу
даводзіцца
даводзіць
давои
даволі
давы
давыд
давыда
давыдау
давядзецца
давялося
давід
давіда
дагавор
дагавора
дагаворам
дагаворау
дагавору
дагаворы
дагон
дагэтуль
дададзена
дададзены
дадае
дадаецца
дадала
дадалі
даданнем
дадання
дадатак
дадаткам
дадаткова
дадатковага
дадатковае
дадатковаи
дадатковую
дадатковы
дадатковым
дадатковымі
дадатковых
дадатковыя
дадатку
дадаткі
дадау
дадаць
дадаюць
дадаючы
дадаізм
дадзена
дадзенага
дадзенае
дадзенаи
дадзеная
дадзены
дадзеным
дадзенымі
дадзеных
дадзеныя
дадому
дадуць
дае
даецца
дажджом
дажджоу
дажджу
дажджы
дажынкі
дажыу
дазваляе
дазваляецца
дазваляла
дазвалялася
дазвалялі
дазваляу
дазваляюць
дазвол
дазволена
дазволу
дазвольце
дазволіла
дазволілі
дазволіу
дазволіць
даи
дак
даказана
даказау
даказаць
даклад
дакладзе
дакладна
дакладнага
дакладнае
дакладнаи
дакладнасць
дакладнасцю
дакладнасці
дакладная
дакладнеи
дакладную
дакладны
дакладным
дакладных
дакладныя
даклады
дактароу
дактары
дактрына
дактрыны
дакум
дакумент
дакумента
дакументальна
дакументальнага
дакументальная
дакументальны
дакументальных
дакументальныя
дакументам
дакументамі
дакументау
дакументах
дакументацыі
дакументы
дакуменце
дакія
дал
дала
далага
далаи
далася
дале
далеи
дало
далоні
далося
далучаецца
далучана
далучаны
далучаюцца
далучылася
далучыліся
далучыу
далучыцца
далучыць
далучэнне
далучэння
далучэнні
далы
далым
далых
даль
далярау
далі
далін
даліна
далінаи
далінамі
далінах
даліне
даліну
даліны
дам
дама
дамагау
дамагацца
дамагліся
дамагчыся
дамамі
дамаск
дамаска
дамах
дамброу
дамбы
дамеи
дамен
дамена
даменіка
дамова
дамове
дамову
дамовы
дамовіліся
дамовіцца
дамогся
дамоу
дамы
дамінавау
дамінга
дамінуе
дамінуюць
дамініе
дамінік
дамініка
дамініканцау
дан
дана
данава
данау
дане
данецкаи
данецкая
данные
данным
данных
данскога
данскі
дантэ
даны
даным
даных
даныя
даніла
данілавіч
данілау
данілка
данілы
данім
данімам
данімы
даніну
даніны
даніэль
данію
данія
даніяи
даніі
данііл
данііла
дап
дапам
дапамагае
дапамагала
дапамагалі
дапамагау
дапамагаць
дапамагаюць
дапамагла
дапамагло
дапамаглі
дапамагчы
дапамажыце
дапамог
дапамога
дапамогаи
дапамогаю
дапамогу
дапамогі
дапаможа
дапаможнаи
дапаможны
дапаможных
дапаможныя
дапаможнік
дапаможнікау
дапамозе
дапау
дапоу
дапрау
дапрац
дапускаецца
дапусціу
дапусціць
дар
дара
дарава
даравау
дараваць
даравіч
даравіча
дарагабужскаи
дарагая
дарагі
дарагіх
дарагія
дарадца
дарадцам
даражэи
дарам
дарамі
дарау
дарма
дарог
дарога
дарогаи
дарогамі
дарогах
дарогаю
дарогу
дарогі
дарожка
дарожкі
дарожна
дарожнага
дарозе
дарослага
дарослым
дарослых
дарослыя
дароу
дару
даруи
даручана
даручыу
даручэнні
дары
дарыи
дарыу
дарэвалюцыи
дарэмна
дарэчы
дасканала
дасканаласці
дасканалення
даслау
даследавалі
даследаванне
даследаваннем
даследавання
даследаваннямі
даследаванняу
даследаваннях
даследаванні
даследаваны
даследавау
даследаваць
даследванняу
даследванні
даследуе
даследчага
даследчаи
даследчая
даследчы
даследчык
даследчыка
даследчыкам
даследчыкамі
даследчыкау
даследчыкі
даследчым
даследчых
даследчыя
даслоу
даставілі
даставіць
дастаеу
дасталася
дасталіся
дастаткова
дастатковаи
дастау
дастаць
дастоены
дастои
даступна
даступнаи
даступная
даступны
даступныя
дасца
дасць
дасье
дасьць
дасюль
дасягае
дасягаецца
дасягала
дасягау
дасягаць
дасягаюць
дасягненне
дасягненнем
дасягнення
дасягненняу
дасягненні
дасягнула
дасягнулі
дасягнута
дасягнуты
дасягнуу
дасягнуць
дат
дата
датаваны
датаи
дату
датуецца
датуль
датуюцца
даты
датычна
датычыцца
датычыць
датэрмінова
дау
дах
дахам
дахамі
дахаты
дахау
даход
даходау
даходзіла
даходзілі
даходзіу
даходзіць
даходу
даходы
даху
дахі
дацк
дацкага
дацкаи
дацкая
дацкі
дацкім
дацкіх
даць
дацэнт
дацэнта
дацэнтам
дач
дача
дачаи
дачакау
дачка
дачкои
дачку
дачкі
дачок
дачу
дачцы
дачцэ
дачы
дачыненне
дачынення
дачыненні
дашкевіч
дашчэнту
даю
даюцца
даюць
даючы
дбаи
два
дваи
дванаццаць
дванаццаці
двара
дваран
дваране
дваранскага
дваранскаи
дваранскіх
дваранства
дваранін
двараніна
дварах
дваром
двароу
двары
дварэ
дваццаць
дваццаці
двая
дваіх
две
движение
движения
двое
двои
двор
дворышча
двох
двудольные
двум
двума
двух
двухбакова
двухбаковая
двухгадовы
двухдольных
двухдольныя
двухпавярховы
двухполыя
двухразовы
двухсхільным
де
дегтярев
деи
декабря
дел
дела
делам
деление
дело
делу
дембовецкого
денис
день
депутатов
деревни
державна
дет
детеи
дети
деятельности
деятельность
дж
джавані
джад
джаз
джаи
джан
джана
джане
джанскага
джанскаи
джанская
джанскі
джо
джозеф
джои
джон
джона
джонам
джонс
джонса
джонсан
джоні
джордж
джорджа
джорджыя
джузэпэ
джульета
джулія
джунгляу
джыбуці
джым
джымі
джын
джэи
джэк
джэка
джэксан
джэрсі
джэфры
дз
дзве
дзверы
дзвесце
дзвюма
дзвюх
дзвярах
дзвярыма
дзвярэи
дзвіна
дзвіну
дзвіны
дзе
дзева
дзевы
дзевяноста
дзевяць
дзевяці
дзед
дзеда
дзедам
дзеду
дзеи
дзекуць
дзел
дзела
дзелавога
дзелам
дзеле
дзелу
дзельнік
дзельніка
дзельнікам
дзельнікамі
дзельнікау
дзельнікі
дзельнічае
дзельнічала
дзельнічалі
дзельнічау
дзельнічаць
дзельнічаюць
дзеля
дзеляцца
дзеляць
дзеліцца
дзеліць
дзем
дзена
дзеная
дзены
дзеных
дзеныя
дзень
дзерау
дзержау
дзес
дзесь
дзесьці
дзесяткау
дзесяткі
дзесяць
дзесяці
дзесяцігоддзе
дзесяцігоддзя
дзесяцігоддзяу
дзесяцігоддзі
дзесяцін
дзесяціны
дзетак
дзеткі
дзеу
дзеце
дзецца
дзецьмі
дзецям
дзеці
дзеш
дзеючага
дзеючаи
дзеючая
дзеючую
дзеючы
дзеючым
дзеючых
дзеючыя
дзея
дзеянне
дзеяннем
дзеяння
дзеяннямі
дзеянняу
дзеяннях
дзеянні
дзеяслова
дзеясловау
дзеяслоу
дзеяу
дзеяч
дзеяча
дзеячам
дзеячамі
дзеячау
дзеячоу
дзеячы
дзеі
дзмітрыевіч
дзмітрыем
дзмітрыеу
дзмітрыи
дзмітрыя
дзьве
дзьверы
дзьвіны
дзье
дзю
дзюба
дзюрэр
дзявоцтве
дзядзька
дзядзькам
дзядзьку
дзядзькі
дзядзя
дзядок
дзядоу
дзядуля
дзяды
дзяк
дзякуи
дзякую
дзякуючы
дзяленне
дзялення
дзяліу
дзям
дзямідау
дзянікіна
дзяніс
дзянісау
дзярж
дзяржава
дзяржаваи
дзяржавамі
дзяржавах
дзяржаве
дзяржаву
дзяржавы
дзяржау
дзяржынск
дзяржынскага
дзяржынскі
дзяржынскім
дзярнова
дзярновіч
дзясяткау
дзясятку
дзясяткі
дзятлава
дзятлау
дзяу
дзяцеи
дзяцінства
дзяцінстве
дзяячка
дзі
дзіва
дзівы
дзіды
дзіи
дзік
дзіка
дзікага
дзікае
дзікаи
дзікая
дзікі
дзікім
дзікіх
дзікія
дзін
дзіна
дзірак
дзіркі
дзісенск
дзісенскага
дзісна
дзісько
дзіу
дзіце
дзіцем
дзіць
дзіця
дзіцяне
дзіцятка
дзіцяці
дзіцяча
дзіцячага
дзіцячаи
дзіцячая
дзіцячую
дзіцячы
дзіцячым
дзіцячых
дзіцячыя
дзія
дизаи
дикорастущие
динамо
дис
диссертации
диссертация
дка
дкі
для
дм
дмитриевич
дмитрии
дна
днага
днае
днаи
днаму
днасці
дная
дне
днеи
днепр
днепра
днепрапятроу
дни
днк
дно
дном
днр
дную
дны
дным
днымі
дных
дныя
дню
дня
днямі
дняпра
дняпро
дняпром
дняпроу
дняпры
днястра
днях
дні
дніпроу
до
доблесную
доблесць
добра
добраахвотна
добраахвотнікам
добраахвотнікау
добрага
добрае
добраи
добрау
добрая
добрушскага
добрушскім
добрую
добры
добрым
добрымі
добрых
добрыя
догляду
дождж
дои
доказ
доказам
доказау
доказы
доктар
доктара
доктарам
доктарскаи
доктарскую
доктарскіх
доктор
доктора
документов
документы
докшыцкага
докшыцкі
докшыцкім
докшыцы
дол
долар
долара
доларау
долготович
должности
долю
доля
доляи
долі
дом
дома
домам
домбі
доме
дому
дон
дона
дональд
дональда
доне
дону
доп
дор
дорага
дорога
дороги
досвед
досведу
доступ
доступа
доступу
досыць
досіць
дот
доу
дочак
дочкі
дошак
дошка
дошкамі
дошку
дошкі
дошцы
доэрці
дп
дпу
др
драбнеи
драгічын
драгічынскага
драгічынскім
драздоу
дразды
драи
драко
дракон
дракона
драма
драматург
драматурга
драматургіі
драматычнага
драматычнаи
драматычная
драматычны
драматычным
драматычных
драматычныя
драме
драму
драмы
драпежных
драпежнікау
драпежнікі
драу
драчык
древнего
древнеи
древнии
древних
древностеи
древности
древняя
дробау
дробна
дробнага
дробнае
дробнаи
дробная
дробны
дробным
дробнымі
дробных
дробныя
дровы
дрозд
дроту
дроу
дру
друг
друга
другая
другие
других
другога
другое
другои
другому
другую
другі
другім
другімі
другіх
другія
дружа
дружба
дружбы
дружна
дружына
дружыны
друи
друк
друкавала
друкавалася
друкаваліся
друкаваны
друкаваных
друкаваныя
друкавау
друкавацца
друкаваць
друкарню
друкарня
друкарні
друку
друкуе
друкуецца
друцк
друцкага
друцкі
друцкіх
друць
друя
дрыбінскім
дрыжыць
дрыса
дрэва
дрэваапрацоу
дрэвам
дрэвамі
дрэвау
дрэвах
дрэве
дрэвы
дрэздэн
дрэздэне
дрэи
дрэнна
дрэннага
дрэннае
дрэнны
дрэнным
дрэнныя
дрэс
дрэу
ду
дуа
дуб
дуба
дубавец
дубаи
дубеи
дубль
дубля
дубовых
дубовыя
дубоу
дубрау
дуброва
дубровенскага
дубровенскім
дуброу
дубы
дубянецкі
дубільныя
дуглас
дугі
дуда
дудар
дудка
дуды
дужа
дужках
дужы
дужэи
дук
дум
дума
думае
думаеце
думаеш
думаи
думак
думала
думалі
думау
думаць
думаю
думаюць
думаючы
думе
думка
думкаи
думкамі
думках
думку
думкі
думу
думцы
думы
дунаи
дуная
дунаі
дунілавіцкага
дунін
дуніна
дурань
дурная
дурны
дух
духа
духавенства
духам
духау
духоу
духу
духі
дуць
дучы
дучыц
душ
душа
душои
душою
душу
душы
душыць
душэу
дуэт
ды
дыбоу
дываны
дыверсіи
дывізіе
дывізіи
дывізію
дывізія
дывізіяи
дывізіі
дые
дыега
дызаи
дызель
дыи
дык
дыктатара
дыктатура
дыктатуры
дым
дымам
дымоу
дыму
дыназау
дынама
дынамау
дынаміка
дынамікі
дынастыи
дынастыю
дынастыя
дынастыяи
дынастыі
дыпламат
дыпламатычнаи
дыпламатычных
дыпламатычныя
дыплом
дыпломам
дырыжор
дырыжора
дырэктар
дырэктара
дырэктарам
дырэктарау
дырэктывы
дырэкцыі
дысертацыи
дысертацыю
дысертацыя
дысертацыі
дыск
дыска
дыскау
дыскрымінацыі
дыску
дыскусіи
дыскусія
дыскусіі
дыскі
дыслакацыі
дыстанцыи
дыстанцыях
дыстанцыі
дысцыплін
дысцыпліна
дысцыплінах
дысцыпліны
дыторыі
дыферэнцыяльных
дыханне
дыхання
дыхаць
дыягностыкі
дыякан
дыялект
дыялектау
дыялектах
дыялекту
дыялекты
дыялекце
дыялог
дыялогу
дыялогі
дыяметр
дыяметра
дыяметрам
дыяметры
дыяна
дыяніса
дыяпазон
дыяпазоне
дыяпазону
дыяспара
дыяспары
дыяцэзія
дыяцэзіі
дэ
дэбют
дэбютавала
дэбютавау
дэбютны
дэвід
дэвіда
дэвідам
дэвіз
дэвізам
дэвіс
дэвіса
дэга
дэи
дэкан
дэкана
дэканам
дэканат
дэканата
дэкаратыу
дэкарацыі
дэкарыраваны
дэкларацыю
дэкларацыя
дэкларацыі
дэкор
дэкору
дэкрэт
дэкрэтам
дэла
дэлегат
дэлегатам
дэлегатау
дэлегаты
дэлегацыю
дэлегацыя
дэлегацыі
дэль
дэльта
дэльты
дэльце
дэлі
дэмабілізаваны
дэмабілізацыі
дэмакратау
дэмакраты
дэмакратычнага
дэмакратычнаи
дэмакратычная
дэмакратычную
дэмакратычны
дэмакратычным
дэмакратычных
дэмакратычныя
дэмакратыю
дэмакратыя
дэмакратыі
дэманстрантау
дэманстрацыи
дэманстрацыя
дэманстрацыі
дэманструе
дэманструюць
дэн
дэна
дэнт
дэні
дэпартамент
дэпартамента
дэпартаментау
дэпартаменце
дэпартацыі
дэпо
дэпрэсіі
дэпутат
дэпутата
дэпутатам
дэпутатамі
дэпутатау
дэпутаты
дэр
дэрбі
дэсант
дэсантнаи
дэтале
дэталеи
дэталь
дэталяу
дэталі
дэтрои
дэтэктыу
дэфіцыт
дэі
дюсш
е
ева
евангелле
евангелля
евангелляу
евангеллях
евангеллі
евангелістау
евгении
евреи
европа
европе
европеи
европы
евы
евіч
его
егу
егіпет
егіпецкага
егіпецкаи
егіпецкі
егіпецкіх
егіпецкія
егіпта
егіптам
егіпце
едзе
единиц
едуць
ее
ежа
ежаи
ежу
ежы
езд
езда
ездам
ездау
ездах
ездзе
ездзіу
ездзіць
езду
езды
езус
езуса
езуітау
езуіты
езуіцкага
езуіцкаи
езуіцкі
езуіцкім
езуіцкіх
еи
екатеринбург
ект
екта
ектам
ектамі
ектау
ектах
екты
ектыу
ела
елена
елка
елкі
ельнінска
ельнінскім
ельскага
ельского
ельскі
ельскім
елі
елізавета
елізаветы
ем
емен
емена
емнаи
емонт
ему
ен
енциклопедія
енісеи
епархии
епархіи
епархія
епархіі
епіскап
епіскапа
епіскапам
епіскапау
епіскапы
ер
ера
ерам
ерау
ереван
ермаловіч
еру
ерузалім
еры
ерэван
ерэвана
ерэване
ес
еса
есе
если
ест
естли
естъ
есть
есу
есць
есці
есы
есьць
есьці
етн
етнам
етнама
етнаме
етнамскаи
етра
еу
ефрасінні
ефрон
ефрона
ехала
ехалі
ехау
ехаць
ецца
еш
ешчэ
еще
ж
жа
жаб
жаба
жабы
жабінка
жабінкау
жавер
жадае
жадала
жадалі
жаданне
жаданнем
жадання
жаданні
жаданьне
жадау
жадаю
жадаюць
жадаючы
жазеф
жазэ
жак
жака
жакевіч
жала
жалеза
жалезабетонных
жалезам
жалезнага
жалезнаи
жалезная
жалезны
жалезным
жалезных
жалезныя
жалеи
жаль
жальбы
жалю
жамои
жан
жана
жанам
жанаты
жандарау
жанеи
жанна
жаночага
жаночае
жаночаи
жаночая
жаночую
жаночы
жаночым
жаночых
жаночыя
жанр
жанрау
жанрах
жанру
жанры
жанчын
жанчына
жанчынаи
жанчынам
жанчынамі
жанчыне
жанчыну
жанчыны
жаны
жаныя
жанэи
жаніу
жаніх
жаніха
жаніцца
жар
жарт
жартам
жартау
жарты
жау
жах
жахау
жаху
жаць
ждановіч
жды
же
железнодорожные
женщинах
живопись
животных
жизни
жизнь
жлобін
жлобінскага
жлобінскім
жн
жна
жнага
жнаи
жная
жны
жнымі
жных
жныя
жнівень
жніво
жніу
жо
жодзіна
жонак
жонду
жонка
жонкаи
жонкаю
жонку
жонкі
жонцы
жорж
жорстка
жорсткага
жорсткае
жорсткаи
жорсткасць
жорсткасці
жорсткая
жорсткую
жорсткі
жорсткім
жорсткімі
жорсткіх
жорсткія
жоу
жуан
жуана
жук
жука
жукава
жукау
жукоу
жукі
жуль
журавель
журау
журнал
журнала
журналіст
журналіста
журналістам
журналістау
журналістка
журналісты
журналістыка
журналістыкі
журы
жъ
жы
жыва
жываецца
жывалася
жывалі
жываліся
жыванне
жывання
жыванні
жывапіс
жывапісам
жывапісе
жывапісец
жывапісных
жывапісу
жывапісца
жывапісцау
жывата
жывау
жывацца
жываць
жываюцца
жываюць
жывая
жыве
жывеш
жывога
жывое
жывои
жывот
жыву
жывуць
жывучы
жывую
жывы
жывым
жывымі
жывых
жывыя
жыгімонт
жыгімонта
жыгімонтам
жыд
жыдоу
жыды
жыла
жылася
жылле
жылля
жыло
жылога
жылои
жылося
жылы
жылым
жылымі
жылых
жылыя
жылі
жыне
жыню
жыня
жыні
жыркоу
жыта
жытак
жыткавіцкага
жыткавіцкім
жыткавічы
жытку
жытла
жытло
жытлы
жытомірскаи
жыу
жых
жыхар
жыхара
жыхарам
жыхарамі
жыхарау
жыхароу
жыхарства
жыхары
жыцца
жыцце
жыццю
жыцця
жыццядзеи
жыццяпіс
жыцці
жыць
жыцьце
жыцьця
жыцьці
жэ
жэи
жэневе
жэнеу
жэрмен
жінок
з
за
заалогіі
заапарк
заб
забаве
забавы
забаи
забалацце
забалочанаи
забалочаная
забалочаных
забалочаныя
забараняе
забаранялася
забараняу
забаранілі
забараніу
забарона
забаронаи
забароне
забаронена
забаронены
забароненыя
забарону
забароны
забастоу
забау
забеспячэнне
забеспячэннем
забеспячэння
забеспячэнні
забои
забор
забрала
забралі
забрау
забраць
забруджвання
забудавана
забудаванаи
забудова
забудову
забудовы
забудоу
забыліся
забыты
забыу
забыцца
забыць
забяспечаны
забяспечвае
забяспечваецца
забяспечвала
забяспечвалі
забяспечвау
забяспечваць
забяспечваюць
забяспечыла
забяспечыу
забяспечыць
забівае
забівалі
забіваць
забіваюць
забіла
забілі
забірае
забіта
забітага
забіты
забітымі
забітых
забітыя
забіу
забіць
завае
завальнюк
заваявала
заваявалі
заваявана
заваяванне
заваявання
заваяваны
заваяваных
заваявау
заваяваць
заве
завершана
завершаная
завершаны
завершаным
завецца
завод
завода
заводам
заводау
заводах
заводзе
заводу
заводы
завочна
завулак
завулка
завулкам
завулку
завулкі
завуцца
завуць
завяршае
завяршаецца
завяршыла
завяршылася
завяршыліся
завяршыу
завяршыць
завяршэнне
завяршэннем
завяршэння
завяршэнні
завіруха
завіша
загаварыу
загад
загадала
загадалі
загадам
загадана
загадау
загадвае
загадвау
загадзе
загадзя
загадка
загадкі
загаду
загадчык
загадчыка
загадчыкам
загады
загаловак
загалоу
загл
загляне
загор
заграб
загрузіць
загубілі
загінула
загінулым
загінулых
загінулі
загінуу
задавальненне
задавальнення
задаволены
задаволіць
заданне
задання
заданняу
заданні
задаць
задач
задача
задачаи
задачамі
задачу
задачы
задзеи
задняга
задняи
задняя
задні
заднім
задніх
заднія
задоу
задумау
задуме
задумы
задушана
заемаадносіны
заемадзеи
заемадзеянне
заемадзеяння
заемадзеянні
заемна
заемнага
заемнаи
заж
зажау
зажу
зажы
зажыст
зазвычаи
зазначае
зазначыу
зазначыць
заи
заказ
заказау
заказнік
заказніка
заказу
заканадау
заканамернасці
заканчваецца
заканчэнне
заканчэння
заканчэнні
закарпацкаи
закау
заклад
закладзена
закладзены
закладнікау
заклалі
заклау
заключаецца
заключалася
заключана
заключаны
заключылі
заключыу
заключыць
заключэнне
заключэння
заключэнні
заклік
заклікае
заклікала
заклікалі
заклікам
закліканы
заклікау
заклікі
закон
закона
законам
законамі
законапраект
законау
законах
законе
законным
законных
законов
закону
закончыу
законы
закрануу
закрылі
закрыта
закрыты
закрытым
закрыу
закрыцце
закрыцця
закрычау
закінуты
зал
зала
залаи
залатая
залатога
залатое
залатои
залатую
залаты
залатым
залатымі
залатых
залатыя
залау
залах
зале
залежала
залежаць
залежнасць
залежнасці
залежнасьці
залежных
залежыць
залеи
залескага
залескі
залессе
залесскии
залоз
залозы
залу
залы
залі
заліва
залівам
залівау
заліве
заліку
заліу
залічаны
залішне
зам
замак
замале
замах
замаху
замацавалася
замацавана
замацаваны
замацавау
замацавацца
замацаваць
замацоу
замбіі
заме
замежжа
замежнага
замежнаи
замежная
замежны
замежным
замежнымі
замежных
замежныя
замежнікау
замен
замена
заменена
заменены
замену
замены
замест
заместа
замка
замкаваи
замкавая
замкавы
замкам
замкау
замкне
замку
замкі
замове
заможнага
заможных
заможныя
замои
замок
замоу
замошша
замуж
замужам
замчышча
замяніла
замянілі
замяніу
замяніць
замярзае
занадта
зане
занесена
занесены
заняла
занялі
заняпад
заняпаду
занята
занятак
занятасці
занятая
заняткам
заняткамі
заняткау
заняткі
заняты
занятых
занятыя
заняу
заняцца
заняцця
заняць
заолаг
зап
запаведнік
запаведніка
запавет
запавету
запавеце
западная
западно
западного
западнои
запазычаны
запал
запаленне
запар
запарожжа
запарожскаи
запас
запасау
запасе
запасных
запасу
запасы
запатрабавала
запатрабавалі
запатрабавау
запау
записки
запланавана
запланаваны
заплатити
заплаціу
заплаціць
заполле
запольскага
запольскі
запоу
запрасілі
запрасіу
запрау
запрашае
запрашэнне
запрашэнні
запрошаны
запуск
запуску
запушчана
запушчаны
запыт
запытала
запыталася
запытанне
запытау
запэу
запіс
запісала
запісалі
запісам
запісана
запісаны
запісаныя
запісау
запісах
запісаць
запісваецца
запісвау
запісе
запіску
запіскі
запісу
запісы
зара
зарабіу
зарабіць
зарад
зарада
зарадау
зараджаных
зараду
заражэння
зараз
зарасніках
зараснікі
зарастае
заручыны
зары
зарэгістравана
зарэгістраваны
зарэгістраваных
зарэгістраваныя
зарэчча
заря
засаду
засау
заселена
заселены
заслау
заслона
заслуг
заслуга
заслугоу
заслугі
заслужанага
заслужаная
заслужаны
заслужыу
засмяяу
заснавала
заснавальнік
заснавальніка
заснавальнікам
заснавальнікамі
заснавальнікау
заснавальнікі
заснавалі
заснавана
заснаванага
заснаванае
заснаванаи
заснаваная
заснаванне
заснавання
заснаванні
заснаваную
заснаваны
заснаваным
заснаваных
заснаваныя
заснавау
заснаваць
засноу
заснуу
заснуць
застава
заставалася
заставаліся
заставау
заставацца
заставы
застаецца
засталася
засталося
засталіся
застанецца
застау
застацца
застаюцца
застаючыся
застрэліу
заступнік
заступніка
заступнікам
заступніцтва
засухі
засушлівы
засценак
засяленне
засялялі
засяроджана
засяродзіу
зат
затое
затрымалі
затрымання
затрыманні
затрыманы
затрыманых
затрыманыя
затрымау
затрымаць
затым
зау
зафіксавана
зафіксаваны
зах
захавала
захавалася
захавалі
захаваліся
захаванне
захаваннем
захавання
захаванні
захаваны
захаваных
захаваныя
захавау
захаваць
захад
захадам
захадзе
захаду
захады
захапленне
захапленнем
захаплення
захапленні
захапляецца
захапляу
захапіла
захапілі
захапіу
захапіць
захар
захарава
захарау
захацелася
захацеу
захварэу
захворванне
захворвання
захворванняу
захворваннях
захворванні
заход
заходзіць
заходне
заходнееу
заходнепаморскага
заходнюю
заходня
заходняга
заходняе
заходняи
заходняя
заходні
заходнім
заходнімі
заходніх
заходнія
заходу
захоп
захопе
захоплена
захоплены
захопленых
захопленыя
захоплівае
захопнікамі
захопнікау
захопу
захоу
захоча
зацверджана
зацверджаны
зацвердзіла
зацвердзіу
зацвярджэнне
зацвярджэння
зацвярджэнні
зацьменне
зацьменнем
зацьмення
зацьменняу
зацьменні
зацікавіу
зацікау
зачацця
зачынена
зачынены
зачыненыя
зачынілі
зачыніу
защитник
защищена
заява
заяваи
заяве
заявил
заяву
заявы
заявіла
заявілі
заявіу
заяу
заяц
зб
збавіцеля
збау
збег
збегчы
збліжэнне
збліжэння
зблізіу
збожжа
збожжавых
збожжавыя
збожжам
збоку
збольшага
збор
зборам
зборау
зборах
зборка
зборкі
зборнаи
зборная
зборную
зборных
зборныя
зборнік
зборніка
зборнікау
зборніках
зборніку
зборнікі
збору
зборы
збраенне
збраення
збраенняу
збраенні
зброенага
зброенаи
зброены
зброеным
зброенымі
зброеных
зброеныя
зброи
зброю
зброя
зброяи
зброі
збудавалі
збудавана
збудаванне
збудавання
збудаванняу
збудаванні
збудаваны
збудавау
збуджэння
збуи
збярэжжа
збярэжжы
збігнеу
збілі
збірае
збіраецца
збіралася
збіральніцтва
збіралі
збіраліся
збірау
збірацца
збіраць
збіраюцца
збіраюць
збіты
збіу
збіцця
зв
зважаючы
звалася
звальнення
звалі
зваліся
зваліу
званага
званае
званаи
званая
звания
званне
званнем
звання
званняу
званні
званок
званую
званы
званым
званых
званыя
званіца
званіцаи
званіцы
звар
зварот
зваротам
зваротнаи
зваротны
зваротным
звароту
звароты
звароце
звау
звацца
зваць
зве
зведала
зведау
зведзена
зведзены
звезда
звер
звера
звернуты
зверху
звестак
звесткамі
звестках
звесткі
звесці
звод
звода
зводзіцца
зводзіць
зводны
звольнены
звольніу
звон
звонку
звычаи
звычаю
звычаяу
звычаі
звыш
звышаецца
звышша
звышшы
звядзенне
звядзення
звязана
звязанага
звязанае
звязанаи
звязаная
звязаны
звязанымі
звязаных
звязаныя
звязау
звязаць
звязвае
звязваецца
звязваюць
звязда
звялі
звяна
звяржэння
звярнулася
звярнулі
звярнуліся
звярнуу
звярнуцца
звярнуць
звяроу
звяртаецца
звярталіся
звяртау
звяртацца
звяртаючыся
звяры
звіжанская
звілістае
звілістая
згадана
згаданы
згаданых
згадвае
згадваецца
згадванне
згадвау
згадваюцца
згадваюць
згаджаецца
згадзіу
згадзіцца
згадка
згадкі
згарання
згарэла
згарэлі
згарэу
згода
згодзе
згодзен
згодна
згодны
згоду
згоды
згор
згорак
згорка
згорку
згоркі
зграі
згубіу
згуляла
згулялі
згуляу
згуляць
згуртаванне
згуртавання
здабываецца
здабывалі
здабываць
здабываюць
здабыла
здабылі
здабытак
здабытку
здабыу
здабыцця
здабыць
здабыча
здабычаи
здабычу
здабычы
здавалася
здаваліся
здавау
здавацца
здаволены
здагадка
здагадку
здагадкі
здаецца
здале
здалося
здаліся
здановіч
здань
здараецца
здаралася
здараюцца
здаровага
здаровы
здаровым
здароу
здарылася
здарыу
здарыцца
здарэнне
здарэння
здарэнні
здау
здацца
здаць
здачы
здаюцца
здесь
здзеи
здзеянне
здзеяння
здзяи
здзівіу
здзіу
здолела
здолелі
здолеу
здольна
здольнасцеи
здольнасць
здольнасцю
здольнасці
здольная
здольны
здольных
здольныя
здоу
здравоохранения
здрада
здрадзе
здраду
здрады
зды
здым
здымае
здымаецца
здымак
здымалася
здымау
здымаць
здымкау
здымках
здымкі
здыму
зе
зеи
зеландыя
зеландыі
зеле
зелинскии
зелянюк
земель
земле
землетрасенне
землетрасення
землеу
земли
землю
земля
землякам
землякоу
землякі
землямі
земляробства
земляробствам
земляу
землях
землі
земнаводных
земскага
земскі
земскіх
земскія
зен
зеніт
зер
зера
зерау
зерне
зерня
зеу
ззаду
зла
злавіу
злавіць
злажыу
зламау
злачыннасці
злачынства
злачынствау
злачынствах
злачынствы
злачынцау
зле
злева
зледзянення
злесках
зло
злодзеи
злом
злосна
злосць
злосці
злотых
злоу
злучае
злучаецца
злучала
злучана
злучанага
злучаны
злучаным
злучанымі
злучаных
злучаныя
злучау
злучаюцца
злучаюць
злучылася
злучыліся
злучыу
злучыць
злучэнне
злучэння
злучэнняу
злучэнні
злы
злых
злыя
зліваецца
зліваюцца
злілася
зліліся
зліцце
зліцця
зліцці
злічэння
зм
змагаецца
змагалася
змагаліся
змаганне
змагання
змаганні
змаганьне
змаганьня
змаганьні
змагау
змагацца
змагаюцца
змагла
змаглі
змау
змацненне
змацнення
змацніу
змачинская
змеи
змен
змена
зменаи
зменамі
зменау
змене
зменена
зменены
зменнаи
змену
зменшылася
змены
змест
зместам
зместу
змесціва
змешаных
змешаныя
змешчана
змешчаны
змешчаныя
змеі
змова
змове
змову
змовы
змог
змогуць
зможа
змоу
змрок
змроку
змушаны
змяненне
змянення
змяненняу
змяненні
змяншаецца
змяншэння
змяняе
змяняецца
змянялася
змяняу
змяняцца
змяняць
змяняюцца
змяніла
змянілася
змянілі
змяніліся
змяніу
змяніць
змясціу
змясціць
змяшчае
змяшчаецца
змяшчала
змяшчалася
змяшчаліся
змяшчау
змяшчаюцца
змяшчаюць
змяя
змітрок
зміцер
зн
зна
знага
знагарод
знагарода
знагародамі
знагароджана
знагароджання
знагароджаны
знагароду
знагароды
знадворку
знае
знаеш
знаи
знак
знака
знакам
знакамі
знакамітага
знакамітаи
знакамітая
знакаміты
знакамітым
знакамітых
знакамітыя
знакау
знаку
знакі
знамя
знание
знарок
знау
знаходак
знаходжанне
знаходжання
знаходзяцца
знаходзяць
знаходзячыся
знаходзілася
знаходзілі
знаходзіліся
знаходзім
знаходзіу
знаходзіцца
знаходзіць
знаходка
знаходкі
знаць
знаці
знача
значальвае
значальвау
значаліла
значаліу
значаліць
значение
значна
значнага
значнае
значнаи
значнасць
значнасці
значная
значную
значны
значным
значнымі
значных
значныя
значыла
значыцца
значыць
значэнне
значэннем
значэння
значэнняу
значэнні
значэньне
значэньня
значэньні
знаю
зная
зне
зненскага
зненскім
знесены
знешне
знешнюю
знешняга
знешняи
знешняя
знешні
знешнім
знешніх
знешнія
знои
знос
зносках
зносу
зносін
зносінах
зносіны
зноу
знутры
зную
зны
зным
зных
зныя
зняволенне
зняволення
зняволенні
зняволены
зняволеных
зняла
знялася
знялі
знянацку
знята
знятая
зняты
знятыя
зняу
зняцця
зняць
зніжаецца
зніжэнне
зніжэння
знізу
знізілася
знізіць
знік
знікае
знікалі
знікаюць
знікла
зніклі
знікненне
знікнення
знікнуць
знішчальнік
знішчальнікау
знішчальнікі
знішчана
знішчаны
знішчаныя
знішчыла
знішчылі
знішчыу
знішчыць
знішчэнне
знішчэння
знішчэнні
зо
зои
золата
золатам
золачыу
зон
зона
зонаи
зонах
зоне
зону
зоны
зор
зорак
зорам
зорамі
зорау
зорка
зоркаи
зоркамі
зорку
зоркі
зорнага
зорнае
зорнаи
зорная
зорны
зорных
зорныя
зору
зоры
зоська
зосю
зося
зосі
зоф
зоя
зраблю
зрабіла
зрабілася
зрабілі
зрабіліся
зрабіу
зрабіцца
зрабіць
зразу
зразумела
зразумелі
зразумеу
зразумець
зрасла
зрастае
зрау
зроблена
зробленая
зроблены
зробленых
зробленыя
зробім
зробіць
зробіш
зровень
зрок
зроку
зрост
зросту
зросце
зроу
зруб
зруи
зручна
зручны
зрушэнне
зрушэння
зрынуты
зрэдку
зрэшты
зу
зуб
зубамі
зубоу
зубр
зубра
зуброу
зубы
зуноу
зусім
зша
зъ
зы
зыгмунт
зыи
зыход
зыходжанне
зыходжання
зыходзяць
зыходзячы
зыходзіць
зыходнага
зыходу
зычны
зычных
зычныя
зышоу
зь
зьвязана
зьвязаны
зьвярнуу
зьдзеи
зьдзіу
зьезд
зьезду
зьезьдзе
зьмены
зьмест
зьместу
зьява
зьявілася
зьявіліся
зьявіу
зьявішча
зьяу
зэльвенскага
зэльвенскім
зэф
зязюля
зяла
зяле
зялі
зяліся
зямель
зямельнага
зямельнаи
зямельны
зямельных
зямельныя
зямле
зямлю
зямля
зямляу
зямлі
зямнога
зямнои
зямным
зямных
зянон
зята
зяты
зятыя
зяу
зяцце
зяцця
зяць
зі
зіл
зіма
зімбабвэ
зімку
зімовага
зімоваи
зімовы
зімовых
зімовыя
зімои
зімоу
зімою
зіму
зімуе
зімуюць
зімы
зінаіда
зіноу
зірнула
зірнуу
зірнуць
зія
зіі
и
иа
иас
иван
ивана
иванов
иванович
ивановна
иг
игорь
игрока
игроками
игроков
игроком
игры
иеговы
иж
ижъ
из
избрания
избранные
известия
известно
изд
издание
издании
издания
издательскии
издательство
изменении
изменениях
изучения
ил
или
илл
иллюстрированная
иллюстрированныи
илья
им
имена
имени
именье
именья
империи
имъ
имя
ин
инглот
инженеров
ино
иностранных
институт
института
интервью
интернет
интерфакс
информации
информационно
информационныи
информация
иосиф
иосифович
ирака
ираке
ирина
искусств
искусства
искусство
ислочь
испании
исполнительного
использование
испр
исследование
исследовании
исследования
ист
истоков
истории
историко
историческая
исторические
историческии
исторических
историческои
историю
история
источник
источники
итоги
их
ихъ
июля
июня
к
ка
каа
кааліцыи
кааліцыю
кааліцыя
кааліцыі
кааператыу
кааперацыі
каардынат
каардынатамі
каардынаты
каардынацыи
каардынацыі
каб
каба
кабета
кабеты
кабінет
кабінета
кабінеце
кабіны
кава
кавага
кавае
каваи
кавалак
кавале
кавалер
кавалерам
кавалеры
кавалерыи
кавалерыя
кавалерыі
кавалеу
кавалкау
кавалкі
каваль
каваля
кавалі
кавая
кавер
кавы
кавыск
кавыскага
кавыску
кавыскі
кавыскім
кавых
кавыя
кавічы
кага
каганец
каго
кагосьці
кадастр
кадафі
каддафи
кадрау
кадры
кадэнцыя
кадэты
кадэцкі
кае
кажа
кажаце
кажаш
кажу
кажух
кажуць
кажучы
кажы
кажэ
каз
каза
казак
казакамі
казакау
казакова
казакоу
казакі
казала
казалі
казам
казанне
казанні
казанскага
казанскаи
казанскі
казань
казані
казармы
казау
казахскаи
казахстан
казахстана
казахстане
казахстанскаи
казацкага
казацтва
казаць
казе
казета
каззе
каззя
каззі
казка
казках
казку
казкі
казлова
казлоу
казначэи
казну
казны
казскага
казскаи
казскі
казу
казцы
казы
казімір
казіміра
казіміравіч
казімірам
казіно
каи
как
какава
кал
кала
каланізацыя
каланізацыі
каланістамі
каланістау
каланісты
каланіяльнага
каланіяльнаи
каланіяльных
каланіяльныя
каларада
каласоу
каласы
калгас
калгаса
калгасау
калгасе
калгасу
калгасы
кале
калег
калегамі
калегі
калегіум
калегіума
калегіуме
калегія
калегіяи
калегіі
каледж
каледжа
каледжы
калектыва
калектывам
калектывау
калектыве
калектыву
калектывы
калектывізацыі
калектыу
калекцыи
калекцыю
калекцыя
калекцыянер
калекцыях
калекцыі
калена
календа
календара
календары
календарь
каленях
калені
кало
калодзеж
калон
калона
калонамі
калону
калоны
калоніи
калонію
калонія
калоніяи
калоніямі
калоніях
калоніі
калужскаи
калумб
калумбіи
калумбія
калумбіі
калчак
калчака
кальварыи
кальвінскі
кальца
кальцо
кальцыю
каля
каляды
калякветнік
калякветніка
каляндар
каляровага
каляроваи
каляровая
каляровых
каляровыя
калі
калібра
калідор
калідоры
каліи
каліна
калінкавіцкага
калінкавіцкім
калінкавічы
каліноу
калінін
калініна
калінінградскаи
калінінскаи
калісь
калісьці
каліфарніи
каліфорнія
каліфорніі
кам
кама
камаи
каманд
каманда
камандаванне
камандаваннем
камандаванню
камандавання
камандавау
камандаи
камандамі
камандзе
камандзір
камандзіра
камандзірам
камандзірау
камандзіроу
камандзіру
камандзіры
каманднага
камандны
камандным
камандных
камандор
каманду
камандуючага
камандуючы
камандуючым
каманды
камароу
камбаи
камбоджы
камбінат
камбіната
камбінацыі
каме
камедыи
камедыя
камедыі
камендант
каменданта
каменем
каменка
каменнага
каменнаи
каменная
каменны
каменным
каменнымі
каменных
каменныя
каменскага
каменскі
камент
каментары
каментарыі
камень
каменю
каменя
камені
камер
камера
камеру
камерун
камеруна
камерцыи
камеры
камета
каметы
камп
кампазітар
кампазітара
кампазітарам
кампазітарау
кампазітары
кампазіцыи
кампазіцыю
кампазіцыя
кампазіцыяи
кампазіцыі
кампакт
кампактная
кампанент
кампанентау
кампаненты
кампаноу
кампанье
кампаніи
кампанію
кампанія
кампаніяи
кампаніямі
кампаніях
кампаніі
кампартыі
кампенсацыю
кампенсацыі
кампетэнцыі
камплект
кампус
камсамола
камсамольскаи
камсамольская
каму
камун
камуна
камунальнага
камунальнаи
камуне
камуны
камунізм
камунізму
камунікацыи
камунікацыі
камуністамі
камуністау
камуністы
камуністычнага
камуністычнаи
камуністычная
камуністычную
камуністычны
камуністычных
камы
камяне
камянец
камянецкага
камянецкі
камянецкім
камянямі
камяні
камяністых
камяніца
камі
каміла
камінскі
камісар
камісара
камісарам
камісарау
камісарыят
камісарыята
камісіи
камісію
камісія
камісіяи
камісіі
камітэт
камітэта
камітэтам
камітэтау
камітэту
камітэты
камітэце
кан
кана
канада
канадзе
канадзец
канадскага
канадскаи
канадская
канадскі
канаду
канады
канал
канала
каналам
каналамі
каналау
канале
каналу
каналы
каналізаванае
каналізаваная
кананізаваны
кананічнага
канау
канвенцыя
канвенцыі
канверт
канвои
канвою
кангрэгацыя
кангрэгацыі
кангрэс
кангрэса
кангрэсам
кангрэсе
кангрэсу
канд
кандзі
кандидата
кандрат
кандрусевіч
кандыдат
кандыдата
кандыдатам
кандыдатау
кандыдатуру
кандыдатуры
кандыдаты
кандыдацкую
кандыдацкіх
кане
канектыкут
канец
канечнасці
канзас
канкрэтнага
канкрэтнаи
канкрэтных
канкрэтныя
канкурэнцыі
канон
каноэ
кансель
кансерватарау
кансерваторыю
кансерваторыі
кансерватыу
канскага
кансолі
канстанта
канстанцыя
канстанцыі
канстанцін
канстанціна
канстанцінавіч
канстанцінам
канстанцінау
канстанцінопаль
канстанцінопальскага
канстанцінопальскі
канстанцінопаля
канстанцінопалі
канструктар
канструктыу
канструкцыи
канструкцыю
канструкцыя
канструкцыі
канстытуцыи
канстытуцыю
канстытуцыя
канстытуцыяи
канстытуцыі
кансультант
кансультантам
кансультатыу
кансультацыи
кансультацыі
кансі
кант
кантакт
кантактау
кантакту
кантакты
кантакце
кантата
канто
кантон
кантона
кантонау
канторы
кантракт
кантракта
кантралюе
кантралюецца
кантралявала
кантралявалі
кантралявау
кантраляваць
кантролем
кантроль
кантролю
кантры
кантынгент
кантынгенту
кантынент
кантынента
кантынентальнага
кантынентальнаи
кантынентальны
кантыненце
кантэи
кантэкст
кантэксце
канф
канфедэрацыю
канфедэрацыя
канфедэрацыі
канферэнцыи
канферэнцыю
канферэнцыя
канферэнцыях
канферэнцыі
канфесіи
канфлікт
канфліктау
канфлікту
канфлікты
канфлікце
канфігурацыі
канфіскаваны
канфіскацыі
канца
канцамі
канцах
канцлагер
канцлагеры
канцлер
канцлера
канцлерам
канцом
канцоу
канцу
канцы
канцылярыя
канцылярыі
канцэнтрацыи
канцэнтрацыя
канцэнтрацыі
канцэпцыю
канцэпцыя
канцэпцыі
канцэрн
канцэрна
канцэрт
канцэрта
канцэртау
канцэртах
канцэртнаи
канцэртная
канцэртны
канцэрты
канцэрце
канчаецца
канчатак
канчаткова
канчатковага
канчатковае
канчатковаи
канчатковы
канчатковым
каны
канье
канюшына
каня
кані
кап
кападобнае
кападобныя
капеек
капеи
капенгаген
капенгагене
каперніка
капліца
капліцу
капліцы
капуста
капусты
капылова
капылоу
капыль
капыльскага
капыльскі
капыльскім
капэла
капэлы
капялюш
капітал
капіталу
капітальны
капіталізму
капітан
капітана
капітанам
капітану
капітуляцыі
кар
кара
карабах
карабаха
карабахскаи
карабаху
карабель
карабле
карабля
караблямі
караблях
караблі
карагандзінскаи
каралавых
карале
каралева
каралеваи
каралеву
каралевы
каралеу
караль
каралю
караля
каралямі
каралі
караліна
каралінгау
караліны
каранаваны
каранавау
каранацыя
каранацыі
каране
караненне
каранямі
карані
карась
караткевіч
караткевіча
карау
карацеи
карачы
кардымау
кардынал
кардынала
кардыналам
кардыналау
каркер
карку
карл
карла
карлавіч
карлам
карлас
карласа
карлсруэ
карлу
карлюкевіч
карлік
карма
кармавых
кармавыя
кармелітау
кармлення
кармэн
кармянскім
карміць
карніз
карнізам
карнізамі
карнікі
карнілава
карнілау
каро
каробачка
каробка
каробкаи
карова
карову
каровы
карои
кароль
карона
каронаи
кароне
кароннага
каронны
карону
кароны
кароткага
кароткае
кароткаи
кароткаметражны
кароткая
кароткую
кароткі
кароткім
кароткімі
кароткіх
кароткія
кароу
карп
карпаратыу
карпарацыя
карпарацыі
карпат
карпатах
карпаты
карпау
карпачева
карповіч
карпусоу
карпусы
карскага
карскі
карт
карта
картатэцы
картах
картка
картку
карткі
картографа
карту
карты
картэр
картэс
картэса
кару
карупцыі
карце
карцін
карціна
карцінаи
карцінамі
карцінах
карціне
карцінная
карціну
карціны
карчма
карчме
карчмы
кары
карыбскага
карыбскім
карызна
карын
карынтыі
карысна
карыснаи
карысным
карысных
карысныя
карыстаецца
карысталася
карыстальніка
карыстальнікам
карыстальнікау
карыстальнікі
карысталіся
карыстанне
карыстання
карыстау
карыстацца
карыстаюцца
карыстаючыся
карысць
карысці
карысьць
карысьці
карычнева
карычневага
карычневая
карычневы
карычневыя
карьеру
карэи
карэліцкага
карэліцкім
карэлія
карэліі
карэннага
карэннае
карэнных
карэнныя
карэнішча
карэнішчам
карэспандэнт
карэспандэнтам
карэя
карэі
каса
касакоу
касманау
касмічнага
касмічнаи
касмічная
касмічны
касмічным
касмічных
касмічныя
каспар
каспара
каспіи
кастр
кастра
кастрычнік
кастрычніка
кастрычніку
кастрычніцкага
кастрычніцкаи
кастрычніцкая
кастусь
кастуся
кастылія
кастыліі
касу
касце
касцеи
касць
касцюк
касцюковіцкага
касцюковіцкім
касцюм
касцюма
касцюмы
касцюшка
касцюшкі
касці
касы
касьце
касіні
кат
ката
катаванняу
катаванні
катал
каталог
каталога
каталогу
каталоніі
каталік
каталікамі
каталікоу
каталікі
каталіцкага
каталіцкае
каталіцкаи
каталіцкая
каталіцкую
каталіцкі
каталіцкім
каталіцкіх
каталіцкія
каталіцтва
каталіцызм
катар
катарына
катастрофа
катастрофы
катлавіна
катлавіны
катль
като
католікау
каторага
каторае
катораи
каторая
каторую
каторы
каторые
каторым
каторых
каторыя
катоу
каты
катынь
катэгарычна
катэгорыи
катэгорыю
катэгорыя
катэгорыях
катэгорыі
катэнарыя
катэхізіс
кау
кафедра
кафедраи
кафедральнага
кафедральны
кафедральным
кафедрау
кафедру
кафедры
кафэ
ках
кахае
каханаи
каханне
кахання
каханні
каханоу
каце
кацярына
кацярынаи
кацярыне
кацярыны
качкі
качэу
кашале
каштавала
кашталян
кашталяна
каштоу
кашулю
кашуля
кашулі
кашы
каэфіцыент
каю
кая
каяловіч
каір
кб
кв
квадрат
квадрата
квадратны
квадратных
квадратныя
кваліфікацыи
кваліфікацыю
кваліфікацыя
кваліфікацыі
квантаваи
квантавая
квартал
квартала
кварталау
квартале
кварталы
кватэр
кватэра
кватэрны
кватэру
кватэры
квебек
кветак
кветка
кветкавая
кветкавых
кветкавыя
кветкамі
кветку
кветкі
квт
квіслінг
квіткі
кг
кгды
кдб
ке
кевін
кезгаи
кеи
кембрыдж
кембрыджы
кемерау
кен
кеневіч
кент
кентэрберыи
кенэдзі
кеніі
кепска
кер
кераміка
керамікі
кесле
кечуа
ки
киев
кино
кинопоиск
кирилла
киселе
киселевскии
китаи
киі
кк
кл
кла
клавішныя
клад
кладбище
кладзе
кладу
клаи
клалі
клапаціу
клапаціцца
клара
кларк
клары
клас
класа
класау
класах
класе
класса
классических
классическои
класу
класы
класік
класіка
класікау
класікі
класіфікацыю
класіфікацыя
класіфікацыі
класіцызм
класіцызму
класічнага
класічнаи
класічная
класічную
класічны
класічным
класічных
класічныя
клау
кле
клеапатра
клеи
клетак
клетка
клетках
клетку
клеткі
клетцы
клецк
клецкага
клецкім
клецкіна
клод
клопат
клопату
клопаты
клуб
клуба
клубам
клубау
клубах
клубе
клубу
клубы
клык
клыка
ключ
ключа
ключавых
ключавыя
ключае
ключала
ключалі
ключана
ключаны
ключау
ключаць
ключаюць
ключна
ключом
ключоу
ключы
ключылі
ключыу
ключэнне
ключэння
кляи
клясы
кляу
кляштар
кляштара
кляштары
клі
кліент
кліентау
клімавіцкага
клімавіцкі
клімавіцкім
клімат
кліматам
клімату
кліматычных
кліматычныя
клімау
клімаце
клімент
клімента
клімковіч
клін
клінцоу
клінікі
клініцы
клінічнаи
клінічная
кліп
кліу
кліч
кліча
клічау
клічуць
км
кмд
кмк
кн
кндр
книг
книга
книги
книжка
кнр
кнуда
княгіня
княгіні
княжацкага
княжацкі
княжества
князе
князем
князства
князь
князьства
князю
князя
князям
князямі
князі
княства
княствам
княствау
княстве
княствы
кніг
кніга
кнігадрукавання
кнігазбор
кнігаи
кнігамі
кнігах
кнігу
кнігі
кніжак
кніжка
кніжку
кніжкі
кніжнаи
кніжная
кніжны
кніжных
кнізе
ко
кобрын
кобрынскага
кобрынскі
кобрынскім
кова
ковель
ковенскаи
ковенская
когда
кого
код
кода
коды
кодэкс
кодэкса
кодэксу
кожнага
кожнае
кожнаи
кожнаму
кожная
кожную
кожны
кожным
кожныя
кожын
коз
кои
кол
кола
колаваи
колам
коламі
колас
коласа
колау
колах
коле
колер
колерам
колерамі
колерау
колеру
колеры
колечы
коли
колл
коллегии
коллегия
колы
кольвекъ
колькасна
колькасць
колькасцю
колькасцях
колькасці
колькасьць
колькасьці
колькі
кольца
кольцападобнае
кольцау
кольцы
коля
колішняга
колішняи
колішняя
колішні
ком
кома
команды
комаров
комиссии
комитет
комитета
комментарии
коммерсантъ
комплекс
комплекса
комплексам
комплексау
комплексе
комплекснаи
комплексны
комплексным
комплексу
комплексы
комсомольская
кому
комі
коміксау
кон
конан
конга
конегадоу
конеи
конец
конкурс
конкурса
конкурсау
конкурсах
конкурсе
конкурснаи
конкурсу
конна
коннаи
конны
конныя
конрад
конрада
константин
константинович
консул
консула
консулам
консульства
конт
контексте
контр
контракт
контракта
контракты
контратакі
контрнаступленне
контррэвалюцыи
контуры
конф
конференции
конференция
конца
конце
кончыу
конь
коні
коопэрацыи
коп
копіи
копію
копія
копіі
корань
кораня
коратка
корбут
корвін
корм
корму
кормяцца
корміцца
король
корпус
корпуса
корпусам
корпусе
корпусу
корсак
корсакава
коршунава
коса
косава
косау
космас
космасе
космасу
коста
костак
косткі
косць
косці
косцік
косы
кот
котов
которая
которого
которое
которые
которыи
которых
коу
коханау
кошт
коштам
коштау
кошту
кошык
кошыкі
кп
кпб
кпзб
кпк
кпсс
кра
кравец
крае
краем
краи
кракава
кракаве
кракау
крам
крама
крамау
крамах
краме
крамле
крамля
краму
крамы
крамяне
крануу
крапіва
крапівы
крапіу
крас
краса
красавік
красавіка
красавіку
красамоу
краснадарскага
краснае
краснапе
краснапольскага
краснапольскім
красная
краснаярскага
краснаярскім
краснои
красны
красныи
краснінскім
красоу
красы
кратамі
кратар
краткая
краткии
краты
крау
крах
крашэу
краю
края
краявід
краявіды
краязнавец
краязнау
краях
краі
краін
краіна
краінаи
краінам
краінамі
краінах
краіне
краінскага
краінскаи
краінская
краінскую
краінскі
краінскім
краінскіх
краінскія
краіну
краінцау
краінцы
краіны
кровазабеспячэнне
крои
крок
крокам
крокамі
крокау
кроку
крокі
крон
крона
кропак
кропка
кропкаи
кропкамі
кропку
кропкі
кроплі
кропцы
кроу
кру
круг
круга
кругам
круглага
круглае
круглаи
круглая
круглы
круглым
круглымі
круглых
круглыя
круглянскага
круглянскім
кругом
кругоу
кругі
крузе
крук
крукоу
крулеу
крумкачы
крупскага
крупскаи
крупскі
крупскім
крус
крута
круціу
круціцца
круціць
кручэння
крушынскага
крушынскі
крушэнне
кры
крывавы
крывалінеи
крываце
крывая
крыве
крывои
крывы
крывых
крыві
крывічоу
крывічы
крыж
крыжа
крыжакамі
крыжакоу
крыжакі
крыжам
крыжамі
крыжау
крыжова
крыжовага
крыжовы
крыжоу
крыжы
крызіс
крызісу
крык
крыкам
крыкнула
крыкнуу
крыкі
крыла
крыламі
крылау
крылах
крыле
крыло
крылом
крылы
крым
крыма
крыме
крымскага
крымскаи
крымскатат
крымскі
крымскіх
крыму
крымінальнага
крымінальнаи
крымінальная
крымінальную
крымінальны
крымінальным
крымінальных
крымінальныя
крыніц
крыніца
крыніцазнау
крыніцаи
крыніцамі
крыніцах
крыніцу
крыніцы
крыс
крыстафер
крысціна
крысціны
крысціян
крысціяна
крыт
крыта
крыты
крытык
крытыка
крытыкавау
крытыкаи
крытыкамі
крытыкау
крытыку
крытыкі
крытыцы
крытычна
крытычны
крытычных
крытычныя
крытэрыі
крыу
крыху
крычалі
крычау
крычаць
крычыць
крыштале
крышталь
крышталі
крыштаф
крыштафа
крэдыт
крэи
крэпак
крэпасцеи
крэпасць
крэпасцю
крэпасці
крэпка
крэсла
крэсле
крэслы
крэу
кс
ксаверыи
ксе
ксенія
ксяндза
ксяндзоу
ксяндзы
кт
кто
ку
куб
куба
кубак
кубе
кубка
кубкау
кубку
кубы
кувеи
кудрау
куды
кузава
кузау
кузнецов
кузня
кузняцова
кузняцоу
кузні
кузьма
кузьміч
куи
кук
кука
кукуруза
кукурузу
кукурузы
кулагін
кулак
кулакамі
кулаком
кулакоу
кулакі
куль
культ
культавых
культам
культу
культур
культура
культураи
культуралогія
культурамі
культуре
культурна
культурнага
культурнае
культурнаи
культурная
культурную
культурны
культурным
культурнымі
культурных
культурныя
культуру
культуры
культывуецца
куля
куляме
куляшова
куляшоу
кулі
кулібін
кулікоу
кун
кунеа
кунцэвіч
кунцэвіча
куп
купал
купала
купалам
купалау
купалле
купалу
купалы
купец
куплю
купляць
куплі
купца
купцоу
купцы
купэ
купіу
купіць
кур
курапатах
курапаты
куратар
курган
кургана
кургане
курганны
курганоу
курганы
курдау
курды
курорт
курс
курса
курсау
курсах
курсе
курскаи
курсу
курсы
курт
курфюрст
курфюрста
куры
курыі
курьер
курэи
куст
куста
кустоу
кусты
кут
кутку
куток
куторга
кутузава
куты
куфар
кухню
кухня
кухні
кухты
куце
кучы
кушаль
кую
куяу
кцые
кштаи
кшталту
кшыштаф
къ
кызылардзінскаи
кыргызстан
кыргызстана
кыргызстане
кэи
кэры
кэтрын
кюры
кі
кібернетыкі
кідае
кідаецца
кідалі
кіданні
кідау
кідаць
кіе
кіева
кіевам
кіеве
кіеу
кіи
кіламетр
кіламетрау
кіламетрах
кіламетры
кіль
кім
кімі
кін
кіна
кінаакадэміі
кінаакце
кінакрытыкау
кінапрэміі
кінарэжысе
кінастудыі
кінатэатр
кінатэатра
кінатэатры
кінау
кінафестываль
кінафестывалю
кінафестывалі
кінг
кінематаграфічных
кінематаграфіі
кінематографа
кіно
кінула
кінулася
кінулі
кінуліся
кінуты
кінуу
кінуцца
кінуць
кінь
кіпення
кіпр
кіпра
кіпры
кір
кіра
кірава
кіраваградскаи
кіравала
кіравалася
кіравалі
кіраваліся
кіраванне
кіраваннем
кіравання
кіраванні
кіравау
кіраваць
кірау
кіркор
кірмаш
кірмашы
кіроу
кіруе
кіруецца
кірунак
кірункам
кірункау
кірунках
кірунку
кірункі
кіруюцца
кіруюць
кіруючага
кіруючаи
кіруючая
кіруючы
кіруючых
кіруючыя
кірыл
кірыла
кірылавіч
кірылау
кірылы
кірыліцаи
кірыліцы
кісель
кісларод
кіслароду
кіслата
кіслату
кіслаты
кіслот
кіслоты
кісяле
кіт
кіта
кітаем
кітаи
кітая
кітаі
кітоу
кіу
кіх
кішка
кішкі
кішыне
кішэню
кішэні
кія
л
ла
лабановіч
лабановіча
лабараторыю
лабараторыя
лабараторыяи
лабараторыі
лабачэу
лабірынт
лава
лаваи
лаве
лавы
лавілі
лавіць
лавіч
лавіча
лавічы
лаг
лага
лагадоу
лагатып
лагау
лагер
лагера
лагерау
лагерах
лагеры
лагои
лагуна
лагчыннага
лад
лада
ладаи
ладальнік
ладальніка
ладальнікам
ладальнікамі
ладальнікау
ладальнікі
ладам
ладамі
ладанне
ладання
ладанняу
ладанні
ладара
ладарскаи
ладау
ладдзя
ладзе
ладзілі
ладзіліся
ладзіу
ладзіць
ладкавання
ладкавау
ладу
лады
лае
лазар
лазара
лазня
лазні
лазоу
лазука
лаи
лак
лакальна
лакальных
лакальныя
лакаматыва
лакаматыу
лакацыи
лакотка
лакоткі
лам
ламаносава
ламбардыя
ламі
ланд
ланда
ландау
ландзе
ландшафт
ландшафтау
ландшафту
ландшафты
ланка
ланкі
ланцуг
ланцуга
ланцугом
ланцугоу
ланцугу
ланцугі
ланцэтнае
лань
лапа
лапаткамі
лапаткі
лапці
лапы
лар
лара
ларсен
лары
ларыса
ларэнца
лас
ласка
ласкава
ласкавы
ласку
ласкі
ласла
ласна
ласнага
ласнае
ласнаи
ласнасць
ласнасцю
ласнасці
ласная
ласную
ласны
ласным
ласнымі
ласных
ласныя
ласнік
ласнікау
ластау
ластоу
ласціва
ласцівасць
ласцівасцямі
ласцівасці
ласцівы
ласцівыя
ласьнікау
лася
лат
латарынгіі
латвии
латвіи
латвію
латвія
латвіяи
латвіі
латино
латыні
латышонак
латышоу
латышскаи
латышы
лау
лах
лац
лацыа
лацінкаи
лацінкі
лацінскага
лацінскае
лацінскаи
лацінская
лацінскую
лацінскі
лацінскім
лацінскіх
лацінскія
лая
лгбт
лд
лдкард
ле
леа
леанард
леанарда
леанід
леаніда
леанідавіч
леанідау
леапольд
леапольда
лебедев
лебедзева
лебедзеу
лебедзь
лев
лева
левага
левае
леваи
левая
левую
левы
левым
левых
левыя
леві
левін
левіч
легенд
легенда
легендарнага
легендарны
легендзе
легенды
легіе
ледавік
ледавіка
ледавіковага
ледавіковых
ледавіковыя
ледавікоу
ледавікі
ледавітага
ледзь
ледзьве
лежачы
лезе
леи
лекавая
лекавы
лекавых
лекавыя
лекар
лекара
лекарам
лекарау
лекарственные
лекары
лекау
лексіка
лексікі
лекции
лекцыи
лекцыя
лекцыі
лекі
лельчыцкім
лельчыцы
лем
лемцюгова
лемцюговаи
лен
лена
ленага
ленае
ленаи
ленасць
ленасці
леная
ленд
лене
ленина
ленинград
ленне
леннем
ленню
лення
леннямі
ленняу
леннях
ленні
лента
леную
ленчага
ленчае
ленчы
ленчым
ленчых
ленчыя
лены
леным
ленымі
леных
леныя
леньне
леньнем
леньня
леньні
ленін
леніна
ленінград
ленінграда
ленінградзе
ленінградскага
ленінградскаи
ленінградская
ленінградскі
ленінградскім
ленінскага
ленінскаи
ленінская
ленінскі
ленінскім
леніну
леон
леона
леонид
леонэ
лепеи
лепель
лепельскага
лепельскі
лепельскім
лепш
лепшага
лепшае
лепшаи
лепшая
лепшую
лепшы
лепшым
лепшымі
лепшых
лепшыя
лер
лера
лес
леса
лесам
лесвіца
лесвіцы
лесе
лесная
лесу
лесі
лет
лета
летам
летапіс
летапісау
летапісах
летапісе
летапісец
летапісу
летапісы
летию
летку
летнии
летнюю
летняга
летняи
летняя
летні
летнім
летніх
летнія
летопись
леу
лешч
ли
ливии
лившиц
лига
листы
лит
литва
литве
литвы
литература
литературная
литературы
литовско
литовского
литовскои
лицах
лка
лкаваи
лкам
лкау
лках
лки
лксмб
лку
лкі
лле
лна
ло
лоб
лов
лович
ловіч
лог
логвінау
логіка
логікі
лодак
лодзь
лодзьскага
лодзі
лодка
лодку
лодкі
лодцы
лоеу
ложа
ложак
ложка
ложкау
ложку
ложы
лозунг
лои
локі
лонг
лондан
лондана
лондане
лонданскага
лонданскаи
лонданскі
лонданскім
лондон
лорд
лорда
лорэнц
лорэнца
лос
лось
лотар
лоу
лошыца
лу
луг
лугавая
луганскаи
лугах
лугоу
лугі
луж
лужкі
лужыцкіх
лук
лука
лукас
лукау
лукаш
лукаша
лукашанец
лукашенко
лукашэвіч
лукашэнка
лукашэнкам
лукашэнку
лукашэнкі
лукі
луна
луны
лунінец
лунінецкага
лунінецкім
луу
луцк
луцкевіч
луцкевіча
луцкі
луцыи
луч
лучаи
лучковымі
луі
луіджы
луіза
луізы
луіс
луіса
лы
лыжка
лыжкі
лым
лысы
лыя
ль
льва
львова
львове
львовіч
львом
львоу
львів
льга
льн
льна
льнага
льне
льны
льня
льскі
льскім
льюіс
лэдзі
лэи
лэнд
лю
люба
любанскага
любанскі
любанскім
любань
любау
любая
любви
любві
любе
любецкі
любичев
любкер
любкеру
люблю
люблін
любліне
люблінскага
люблінскаи
любов
любовь
любові
любога
любое
любои
любоу
любую
любы
любым
любых
любыя
любяць
любіла
любілі
любіу
любіць
люд
людвіг
людвіга
людвік
людвіка
людеи
людзе
людзеи
людзьмі
людзям
людзях
людзі
люди
людмила
людміла
людовік
людовіка
людовікам
людскія
люду
люк
люка
люксембург
люксембурга
люксембургу
люльку
люлі
люстэрка
люся
лют
лютага
лютау
люты
лютым
лютэр
лютэра
лютэранскаи
лютэранская
лютэранства
люфтвафэ
ля
лябе
лявон
лявона
лявіцкі
лягла
ляглі
лягчэи
ляды
ляе
ляецца
ляжала
ляжалі
ляжау
ляжаць
ляжыць
ляи
ляла
лялася
лялек
лялькі
ляльны
лялі
ляліся
лямпа
лямпы
лян
лянага
лянаи
ляная
лянскага
лянскі
лянскім
ляную
ляны
ляным
лянымі
ляных
ляныя
лясамі
лясах
лясная
ляснога
ляснои
лясны
лясным
лясных
лясныя
лясніцкага
лясніцкаму
лясніцкі
лясніцтва
лясоу
лясох
лясы
ляу
лях
ляхавіцкага
ляхавіцкі
ляхавіцкім
ляхавічы
ляхау
ляцелі
ляцеу
ляцца
ляць
ляцяць
ляціць
лячэнне
лячэння
лячэнні
ляшчынскага
ляшчэня
ляюцца
ляюць
ляючы
ляючыся
лі
ліба
лібава
ліберальна
ліберальнаи
ліберальная
ліберальных
лібрэта
ліва
лівага
лівае
ліваецца
ліваи
ліван
лівана
ліване
лівасць
лівасці
лівая
ліверпул
лівка
лівонскаи
лівоніі
лівы
лівым
лівых
лівыя
лівіи
лівія
лівіі
ліг
ліга
лігу
лігурыя
лігі
лід
ліда
лідар
лідара
лідарам
лідарамі
лідарау
лідарства
лідары
лідзе
лідзія
лідскага
лідскаи
лідскі
лідскім
лідства
ліду
ліды
ліе
ліза
лізавета
лізаветы
лізе
лік
лікам
лікамі
лікау
ліквідавалі
ліквідавана
ліквідаваны
ліквідаваць
ліквідацыю
ліквідацыя
ліквідацыі
ліке
ліку
лікі
лілеи
лілі
лілія
лім
лімарыус
лін
ліна
лінг
лінгвіст
лінгвістыка
лінгвістыкі
лінеи
лінзападобная
лінка
лінкальн
ліны
лінь
лініи
лінію
лінія
лініяи
лініямі
лініях
лініі
ліп
ліпа
ліпау
ліпень
ліпеня
ліпені
ліпы
ліра
ліры
лірыка
лірыкі
лірычных
лірычныя
ліс
ліса
лісабон
лісоу
ліст
ліста
ліставыя
лістамі
лістапад
лістапада
лістападау
лістападзе
лістах
лісток
лістом
лістоу
лісточкі
лісты
лісце
лісцевых
лісцем
лісця
лісці
лісьце
лісіца
літ
літар
літара
літараи
літаральна
літарамі
літаратар
літаратарау
літаратары
літаратур
літаратура
літаратуразнавец
літаратуразнау
літаратураи
літаратурна
літаратурнага
літаратурнае
літаратурнаи
літаратурная
літаратурную
літаратурны
літаратурным
літаратурных
літаратурныя
літаратуру
літаратуры
літару
літары
літасці
літва
літве
літвои
літву
літвы
літвін
літвінау
літвіны
літоу
літрау
літургічных
літургіі
літэратуры
ліу
ліха
ліхтар
ліхтары
ліхтэнштэи
ліцеи
ліцэи
ліцэнзіи
ліцэнзію
ліцэнзіі
ліцэя
ліцэі
лічацца
лічаць
лічачы
лічба
лічбаваи
лічбавых
лічбавыя
лічбамі
лічбау
лічбу
лічбы
лічваць
лічу
лічыла
лічылася
лічылі
лічыліся
лічынак
лічынкі
лічыу
лічыцца
лічыць
лішаи
лішне
ліштвамі
ліштвах
ліштвы
м
ма
маа
маары
мабыць
мабільнаи
мабільных
мабілізаваны
мабілізацыі
мава
маг
мага
магазін
магазінау
магазіны
магдалена
магдалены
магдэбургскае
магла
магло
маглі
магнатау
магнаты
магнацкіх
магнус
магнуса
магнітнага
магнітнае
магнітнаи
магнітны
магнітным
магнітных
магу
магуаи
магутнага
магутнае
магутнаи
магутнасць
магутнасцю
магутнасці
магутная
магутную
магутны
магутным
магутнымі
магутных
магутныя
магчыма
магчымага
магчымае
магчымаи
магчымасцеи
магчымасць
магчымасцю
магчымасцяу
магчымасці
магчымасьць
магчымасьці
магчымая
магчымы
магчымым
магчымых
магчымыя
магіл
магіла
магілаи
магіле
магілеу
магілу
магілы
магістр
магістра
магістраль
магістралі
магістрата
магіі
мадагаскар
мадагаскара
мадам
мадлен
мадонна
мадрыд
мадрыда
мадрыдзе
мадыфікацыи
мадыфікацыя
мадыфікацыі
мадэи
мадэллю
мадэль
мадэляванне
мадэлявання
мадэляу
мадэлях
мадэлі
мадэрн
мадэрнізаваны
мадэрнізацыю
мадэрнізацыя
мадэрнізацыі
мае
маеи
маем
мает
маеть
маеу
маеце
маецца
маеш
мажаи
мажэи
маз
мазавецкага
мазаіка
мазаікі
мазурскага
мазыр
мазыра
мазырскага
мазырскаи
мазырскі
мазырскім
мазыры
маи
мак
мака
макае
макар
макарава
макарау
макарэвіч
макау
макед
македонскага
македонскаи
македонскі
македонія
македоніі
макоу
макрына
макс
макса
максвела
максим
максім
максіма
максімавіч
максімальна
максімальнага
максімальнаи
максімальная
максімальную
максімальны
максімам
максімау
максімум
максімуму
максіміліян
максіміліяна
мал
мала
малагасіи
маладая
маладзе
маладзеи
маладзечанскага
маладзечанскаи
маладзечанскі
маладзечанскім
маладзечна
маладзечне
маладняк
маладняка
маладнякоу
маладога
маладое
маладои
маладому
маладосць
маладосці
маладую
малады
маладым
маладымі
маладых
маладыя
малаи
малака
малако
малаком
маланка
маланкі
малапольскага
маларасіи
малася
малая
малаіта
малдавіі
малдау
малдова
малдове
малдовы
малеи
малекул
малекулы
малекулярнаи
маленства
маленстве
маленькага
маленькае
маленькаи
маленькая
маленькую
маленькі
маленькім
маленькімі
маленькіх
маленькія
малер
малера
малеу
малея
мало
малога
малодшага
малодшаи
малодшаму
малодшая
малодшы
малодшым
малодшых
малодшыя
малое
малои
малочнаи
малочная
малочны
малочныя
малпау
малпы
малую
малы
малые
малым
малымі
малых
малыя
мальдзіс
мальдзіса
малье
мальме
мальта
мальты
мальтыи
малюе
малюнак
малюнка
малюнкам
малюнкамі
малюнкау
малюнках
малюнку
малюнкі
малюскау
малявання
малявау
маляваць
маляу
малі
маліна
малінау
маліноу
маліся
малітва
малітвау
малітву
малітвы
малітоу
маліу
маліцца
мам
мама
мамка
мамэнт
мамі
ман
мана
манаграфіи
манаграфію
манаграфія
манаграфіі
манака
манам
манарх
манарха
манархам
манархау
манархі
манархію
манархія
манархіі
манаства
манастыр
манастыра
манастыроу
манастырскі
манастырскіх
манастыру
манастыршчынскім
манастыры
манах
манаха
манахам
манахау
манахі
манга
манголау
манголы
мангольскага
мангольскаи
манголія
манголіі
мандат
мане
манер
манера
манеры
манет
манета
манетах
манетны
манету
манеты
манеу
манпелье
манро
мантаж
мантыі
ману
манумент
манумента
манументальна
манументальнаи
манументальны
мануфактура
мануфактуры
мануэль
манчэстэр
маньерызму
манька
манэ
манюшкі
маніторынгу
маніфест
мар
мара
маравіі
марак
маракоу
маракі
маральна
маральнага
маральнаи
маральных
маральныя
маралі
мараплавец
мараплау
марат
марау
маргарыта
маргарыты
маргарэт
мардоу
марзалюк
марзе
мария
марк
марка
маркавіч
маркаи
маркам
маркау
маркграф
маркграфа
марке
маркетынгу
маркоу
маркс
маркса
марксізму
марку
маркі
маркіз
маркіза
мармур
мармуру
марна
мароз
марозава
марозау
марока
марс
марса
марсе
марсель
марскаи
марская
марскога
марское
марскои
марскую
марскі
марскім
марскімі
марскіх
марскія
март
марта
мартын
мартынау
марудна
марфалогіі
мархель
марцэлеу
марцін
марціна
марцінкевіч
марцінкевіча
марціновіч
марчанка
марш
маршал
маршала
маршалак
маршалка
маршалкам
маршрут
маршрутау
маршруту
маршруты
маршруце
маршы
мары
марыа
марыи
марыля
марына
марыны
марыс
марыся
марыу
марыус
марыуса
марыць
марыю
марыя
марыяи
марыян
марыяна
марыі
мас
маса
масава
масавага
масавае
масаваи
масавая
масавы
масавым
масавымі
масавых
масавыя
масаи
масамі
масау
масачусетс
масе
маска
маскале
масква
маскве
масквои
маскву
масквы
маскоу
маскі
масла
масон
масоны
маст
мастак
мастака
мастакамі
мастаком
мастакоу
мастаку
мастакі
мастацка
мастацкага
мастацкае
мастацкаи
мастацкая
мастацкую
мастацкі
мастацкім
мастацкіх
мастацкія
мастацтва
мастацтвазнавец
мастацтвазнау
мастацтвам
мастацтвау
мастацтве
мастацтву
мастачка
мастачкі
мастон
мастоу
масты
мастэрс
масу
масць
масцю
масці
масы
масіва
масівау
масіве
масіву
масівы
масіу
мат
матар
матары
матачка
математики
математических
материалам
материалов
материалы
матка
матку
маткі
матрос
матросау
матросы
матрыца
матрыцы
матфея
матч
матча
матчау
матчах
матчу
матчы
матчынаи
матывамі
матывау
матывах
матывы
матыле
матыль
матылькоу
матылі
матыу
матэматык
матэматыка
матэматыку
матэматыкі
матэматыцы
матэматычнага
матэматычнаи
матэматычная
матэматычны
матэматычным
матэматычных
матэматычныя
матэр
матэрыял
матэрыялазнау
матэрыялам
матэрыяламі
матэрыялау
матэрыялах
матэрыяле
матэрыялу
матэрыялы
матэрыяльна
матэрыяльнага
матэрыяльнаи
матэрыяльную
матэрыяльных
матэрыяльныя
матэрыі
мау
мах
махамед
махдзі
махнуу
мацаванне
мацавання
мацаванняу
мацаванні
мацаваны
мацаваныя
мацаваць
мацвеевіч
мацвеи
мацвея
мацеи
мацеры
мацерыка
мацея
мацкевіч
мацнеи
мацоу
мацца
маць
маці
мацільда
маша
маштаб
маштабах
маштабе
маштабу
машын
машына
машынабудаванне
машынабудавання
машынабудау
машынаи
машынах
машыне
машыну
машыны
машэрава
маю
мають
маюцца
маюць
маючы
маючыся
мая
маяк
маякоу
маямі
маянткоу
маі
маім
маіх
мб
мвд
мвт
мг
мгу
мгц
мдб
мду
ме
медале
медали
медаль
медалье
медаля
медалямі
медалі
меджду
медзь
медзі
медиа
медицинских
медицины
медык
медыка
медысонт
медыцына
медыцыне
медыцынскага
медыцынскае
медыцынскаи
медыцынская
медыцынскую
медыцынскі
медыцынскім
медыцынскіх
медыцынскія
медыцыну
медыцыны
медычы
медыя
медыяфаи
мее
меер
меж
межамі
межау
межах
между
междунар
международная
международного
международнои
международныи
межы
меи
мекленбург
мексіка
мексіканскага
мексіканскі
мексікі
мексіцы
мел
мела
мелася
мележа
мелодыя
мелодыі
мельнік
мельнікау
мелі
меліся
меліярацыи
меліярацыі
мемарыял
мемарыяла
мемарыяльнага
мемарыяльнаи
мемарыяльная
мемарыяльны
мемарыяльныя
мемуарау
мемуарах
мемуары
мемуарыст
мен
менавалі
менавана
менаваная
менаванні
менаваны
менавіта
менеджар
менеджмент
менеджменту
менеи
менка
меннага
меннаи
менная
менне
менны
менным
мення
менняу
менні
менск
менска
менскага
менскае
менскаи
менску
менскі
менскім
менш
меншага
меншае
меншаи
меншасцеи
меншасць
меншасцяу
меншасці
меншая
меншую
меншы
меншым
меншых
меншыя
меню
меня
мер
мера
мерана
мераным
мераных
мерапрыемства
мерапрыемствау
мерапрыемствах
мерапрыемствы
мерах
меркавалася
меркавалі
меркавана
меркаванне
меркавання
меркаванняу
меркаванні
меркавау
меркаваць
меркурыи
меркурыя
меру
меры
мерыдыянальнаи
месапатаміі
мест
места
местам
местау
местах
месте
место
месты
месц
месца
месцазнаходжанне
месцазнаходжання
месцам
месцамі
месцау
месцах
месце
месцы
месцяцца
месцілася
месціцца
месье
месьце
месяц
месяца
месяцавага
месяцавы
месяцам
месяцау
месяцы
метад
метадалогіі
метадам
метадамі
метадау
метаду
метады
метадычнаи
метадычны
метадычных
метал
металаапрацоу
металау
металу
металургія
металургіі
металы
металічнаи
металічны
металічным
металічнымі
металічных
металічныя
мети
метлюжковыя
метод
методы
методыка
методыкі
метр
метра
метрапалітэн
метрапалітэна
метраполіі
метрау
метро
метры
метрыкі
метэарыт
меу
мех
механізаванаи
механізацыі
механізм
механізмау
механізму
механізмы
механік
механіка
механікі
механіцы
механічнага
механічнаи
механічная
механічны
механічных
механічныя
мехіка
мецца
мець
мецэнат
меч
мечыслау
мешвацца
мзс
ми
мид
милости
министерства
министерство
министров
минобороны
минск
минска
минская
минске
минские
минскии
минского
минское
минскои
мир
мира
мире
мировая
мировои
мифы
михаи
михаил
михаила
мк
мка
мкм
мкс
мку
мкі
мл
млекакормячых
млн
млрд
млын
млына
млыны
мм
мн
мна
мнага
мнае
мнаи
мная
мне
многа
многае
много
многім
многімі
многіх
многія
множнага
мнои
мноства
мноствам
мноствау
мностве
мною
мнс
мную
мны
мным
мнымі
мных
мныя
мнік
мо
мова
мовазнавец
мовазнау
моваи
мовам
мовамі
мовау
мовах
моваю
мове
мову
мовы
мог
могиле
могилев
могилевского
могилевскои
могуць
могілак
могілев
могілках
могілкі
могільнік
могільнікі
мод
мода
модуль
модуля
моды
можа
можам
можаце
можаш
может
можна
можно
можэ
мозг
мозга
мозгу
мои
моладзевага
моладзеваи
моладзевую
моладзевы
моладзевых
моладзь
моладзі
молат
молата
молатава
молодая
молодечненскои
моль
момант
момантам
момантау
моманту
моманты
мон
мона
монография
монтэ
мор
мора
морам
морау
морах
морган
море
морфаметрычныя
морфометрические
моры
морыс
москва
москве
москвы
московскии
московского
мост
моста
мостам
мосце
мотывы
моу
мох
моц
моцарт
моцарта
моцна
моцнага
моцнае
моцнаи
моцная
моцную
моцны
моцным
моцнымі
моцных
моцныя
моцы
мошчы
моя
мп
мс
мса
мсам
мства
мсціслава
мсціславе
мсціслау
мсціу
мсьціслау
мт
мтз
мтс
мтсг
му
мугаджары
мугір
мудрага
мудрасць
мудрасці
мудры
муж
мужа
мужам
мужнасць
мужнасці
мужоу
мужу
мужчын
мужчына
мужчынам
мужчынамі
мужчынскага
мужчынскае
мужчынскаи
мужчынская
мужчынскую
мужчынскі
мужчынскім
мужчынскіх
мужчынскія
мужчыны
мужы
мужык
мужыка
мужыкоу
мужыкі
мужыцкаи
муз
музеем
музеи
музею
музея
музеяу
музеях
музеі
музы
музыка
музыказнау
музыкаи
музыкальная
музыкант
музыканта
музыкантау
музыканты
музыкау
музыку
музыкі
музыцы
музычна
музычнага
музычнае
музычнаи
музычная
музычную
музычны
музычным
музычных
музычныя
мук
мука
муку
мукі
мультфільм
мунд
мунда
муниципального
муниципальным
муниципальных
муніцыпальнага
муніцыпальнае
муніцыпальны
муніцыпальных
муніцыпалітэт
муніцыпалітэта
мур
мура
мураванага
мураванаи
мураваная
мураваны
мураваных
мураваныя
муравеи
муравье
мурам
мурау
мурашак
мурашка
мурашкі
муроу
муры
мус
мусаліні
мустафа
мусульман
мусульманамі
мусульмане
мусульманскага
мусульманскаи
мусульманскіх
мусяць
мусіла
мусілі
мусіу
мусіць
мух
муха
мухавец
мухамад
мухамед
мухамеда
мухі
мучанікау
мушкеце
мушу
мы
мыкалаіу
мыла
мым
мыс
мыса
мысе
мысленне
мыслення
мысли
мысль
мысля
мыслі
мысна
мысьлі
мытнага
мых
мыш
мышцы
мышы
мыя
мэ
мэбля
мэблі
мэи
мэн
мэнсан
мэр
мэра
мэрам
мэры
мэт
мэта
мэтаи
мэтамі
мэтау
мэтах
мэтаю
мэту
мэты
мэце
мэцью
мюлер
мюнхен
мюнхена
мюнхене
мя
мядзведзева
мядзведзеу
мядзведзь
мядзведзя
мядзведзяу
мядзведзіца
мядзел
мядзельскага
мядзельскі
мядзельскім
мяжа
мяжои
мяжу
мяжуе
мяжы
мяи
мякаць
мякка
мяккага
мяккаи
мяккая
мяккі
мяккім
мяккіх
мяккія
мяне
мянушка
мянушку
мянушкі
мянушцы
мяняе
мяняецца
мяняліся
мяняу
мяркуе
мяркуецца
мяркуюць
мяркуючы
мяса
мясам
мяст
мястэчак
мястэчка
мястэчкам
мястэчках
мястэчку
мястэчкі
мясцовага
мясцовае
мясцоваи
мясцовасць
мясцовасцях
мясцовасці
мясцовая
мясцовую
мясцовы
мясцовым
мясцовымі
мясцовых
мясцовыя
мясцох
мясцін
мясцінах
мясціны
мяфодзія
мяце
мяцеж
мяцежнікау
мяч
мяча
мячамі
мячом
мячоу
мячы
мячэць
мячэці
мяшанне
мяшання
мяшаных
мяшок
мяшчан
мяшчане
мяшчанства
мі
міг
мігель
мігрантау
міграцыи
міграцыя
міграцыі
міе
між
міжваеннаи
міжваенны
міждзяржау
міжзем
міжземнага
міжземнамор
міжземнаморскі
міжземным
міжнар
міжнароднага
міжнароднае
міжнароднаи
міжнародная
міжнародную
міжнародны
міжнародным
міжнароднымі
міжнародных
міжнародныя
міжрэччы
мікала
мікалае
мікалаевіч
мікалаевіча
мікалаем
мікалаеу
мікалаи
мікалаю
мікалая
мікеланджэла
мікола
міколу
міколы
мікраарганізмау
мікрабіе
мікрабіялогіі
мікрарае
мікі
мікіта
мікітавіч
мікіты
міла
мілан
мілана
мілане
міласэрнасці
мілася
мілаш
мілая
мілер
мілеу
мілы
міль
мілье
мільярда
мільярдау
мілях
мілі
міліе
міліметрау
міліся
міліцыя
міліцыі
міма
мімаволі
мін
міна
мінабароны
мінаме
мінас
мінгарвыканкама
міндоу
міне
мінерал
мінералау
мінеральных
мінеральныя
мінои
мінор
мінск
мінска
мінскага
мінскае
мінскаи
мінскам
мінская
мінскпраект
мінску
мінскую
мінскі
мінскім
мінскіх
мінскія
мінула
мінулага
мінулае
мінулым
мінулых
мінут
мінуту
мінуу
міны
міні
мінімальнаи
мінімальная
мінімум
мінімуму
міністр
міністра
міністрам
міністрау
міністру
міністры
міністэрства
міністэрствам
міністэрствау
міністэрстве
міністэрству
мініяцюр
мініяцюры
мір
міра
мірам
мірнага
мірнае
мірнаи
мірны
мірным
мірных
мірныя
міронавіч
мірскага
мірскі
міру
міры
міс
містасць
містасці
містэр
містэра
місуры
місіи
місіс
місісіпі
місію
місія
місіянерау
місіянеры
місіі
міт
мітау
мітрапаліт
мітрапаліта
мітрапалітам
мітраполія
мітраполіі
міты
мітынг
мітынгу
мітынгі
міу
міф
міфа
міфалагічная
міфалагічныя
міфалогія
міфалогіі
міфау
міфы
міха
міхаи
міхал
міхала
міхалам
міхале
міхалка
міхась
міхася
міхаэль
міхаіл
міхаіла
міхаілам
міхаілу
міцкевіч
міцкевіча
міцца
міць
мічыган
мішэль
н
на
наагул
наадварот
набажэнства
набажэнствау
набажэнствы
набегау
набегі
набліжаецца
набліжау
набліжэнне
набліжэнні
наблізіу
набор
набору
наборы
набрала
набрау
набраць
набывае
набываць
набываюць
набыла
набыло
набылі
набыта
набытку
набыты
набыу
набыцце
набыцця
набыць
набярэжнаи
набярэжная
нав
нава
наваград
навагрудак
навагрудка
навагрудку
навагрудскага
навагрудскі
навагрудскім
навагі
навадугінскім
наважаны
навазыбкау
навакол
наваколлях
наваколлі
навакольнага
навакольнае
навакольным
навакольных
навакольныя
навальніца
навальніцы
навалі
наваны
наваполацк
наваполацка
наваполацкага
наваполацку
навара
навары
навасе
нават
наваць
наведала
наведалі
наведау
наведаць
наведвае
наведвала
наведвальнікау
наведвалі
наведванне
наведвання
наведвау
наведваць
наведваюць
навеи
навекі
навелы
наверсе
наверх
навет
навечно
навокал
навошта
навук
навука
навукаи
навуках
навукова
навуковага
навуковае
навуковаи
навуковая
навуковец
навуковую
навуковы
навуковым
навуковымі
навуковых
навуковыя
навукоу
навуку
навукі
навум
навуменка
навуцы
навучаецца
навучалася
навучальна
навучальнага
навучальнаи
навучальная
навучальны
навучальным
навучальных
навучальныя
навучаліся
навучанне
навучання
навучанні
навучау
навучаюцца
навучыу
навучыцца
навучыць
навучэнцау
навучэнцы
навыкі
навігацыи
навігацыі
навін
навіна
навіны
навіцкі
навіч
навічы
нага
нагадвае
нагадвала
нагадвалі
нагадвау
нагадваюць
нагаи
нагамі
нагах
нагляд
наглядам
нагляду
нагодаи
нагоды
нагои
нагор
нагорна
награждении
нагрудны
нагрузкі
нагу
нагі
над
нада
надавала
надавалася
надавалі
надавау
нададзена
нададзены
надае
надаецца
надалеи
надалі
наданне
надання
надау
надаць
надаюць
надвор
надворны
наделении
надзвычаи
надзе
надзеи
надзелы
надзею
надзея
надзеяи
надзеі
надзя
надмагілле
надоу
надпіс
надпісам
надпісамі
надпісау
надпісу
надпісы
надрукавана
надрукаваны
надрукаваныя
надрукавау
надсана
надта
надумау
надыходам
надыходзіць
нае
нажом
нажы
назад
назау
назва
назваи
назвала
назвалі
назвамі
названа
названага
названаи
названая
названии
названия
названы
названых
названыя
назвау
назвах
назваць
назваю
назве
назву
назвы
наземных
наземныя
назначаны
назначении
назовам
назоу
называе
называецца
называла
называлася
называлі
называліся
называу
называцца
называць
называюцца
называюць
называючы
назіраецца
назіралася
назіральніка
назіральнікау
назіранне
назірання
назіранняу
назіранні
назірау
назіраць
назіраюцца
наи
нак
накамандуючага
накамандуючы
накамандуючым
наканечнікі
наклад
накладам
наколькі
наконт
накрыты
накшталт
накіравала
накіравалася
накіравалі
накіраваліся
накіравана
накіраванаи
накіраванасць
накіраваная
накіраваны
накіраваных
накіраваныя
накіравау
накіраваць
накіроу
накірунку
наладжана
наладзіу
наладзіць
нале
налева
належала
належалі
належау
належаць
належнаи
належным
належыла
належылі
належыу
належыць
налецця
нальна
наліу
налічвае
налічваецца
налічвала
налічвалася
налічвалі
налічвау
нам
намаганням
намаганнямі
намаганняу
намаганні
намалявана
намаляваная
намаляваны
намаляваныя
намалявау
наме
наменклатуры
намер
намерам
намерна
намеру
намеры
намеснік
намесніка
намеснікам
намеснікау
намеснікі
намесніцтва
наметражны
нами
намоцны
намоцным
намоцтвамі
намоцтвау
намоцтвы
наму
намі
намібіі
намінаваны
наміналам
намінантау
намінацыи
намінацыя
намінацыямі
намінацыях
намінацыі
нан
нанава
нанб
нане
нанесены
нанесла
нанеслі
нанесці
нанне
нання
нанні
нанова
наносіць
нансен
нансена
наньні
нанясення
наняу
наогул
напад
нападам
нападау
нападзе
нападнік
нападніка
нападу
напады
напала
напалеон
напалеона
напалеонам
напалеонау
напалову
напалі
напау
напачатку
наперад
наперадзе
напои
напоу
напояу
напоі
напр
направа
напрамак
напрамкам
напрамкау
напрамках
напрамку
напрамкі
напрау
напрацягу
напружанаи
напружанасць
напружанасці
напружанне
напружання
напрыклад
напэу
напярэдадні
напісала
напісалі
напісана
напісанае
напісанаи
напісаная
напісанне
напісання
напісанні
напісаны
напісаных
напісаныя
напісау
напісаць
нар
нара
нарада
нараджаецца
нараджэнне
нараджэння
нараджэнні
нарадзе
нарадзіла
нарадзілася
нарадзіліся
нарадзіу
нараду
нарады
нарау
нарач
нарбут
нарв
нарва
нарвегію
нарвегія
нарвегіі
нарвежскага
нарвежскаи
нарвежская
нарвежскі
нарвежскім
нарвежскіх
наркам
наркама
наркамата
наркотыкау
нармальнага
нармальнаи
нармандыі
нарматыу
нарніі
народ
народа
народам
народамі
народау
народжаная
народжаны
народзе
народна
народнага
народнае
народнаи
народнасці
народная
народного
народнои
народном
народную
народны
народным
народнымі
народных
народныя
народов
народу
народы
нароу
нары
нарыс
нарысау
нарысы
нарыхтовак
нарыхтоу
нарэшце
нас
наса
насаджэнняу
насаджэнні
насамрэч
насау
насе
насевіч
насекомых
населе
населенага
население
населения
населенного
населенных
населення
населены
населеным
населеных
населеныя
насельнікау
насельнікі
насельніцтва
насельніцтвам
насельніцтве
насельніцтву
насенне
насеннем
насення
наскрозь
наславянскаи
наследие
наста
настала
настау
настаяцелем
настаяцель
настои
настолькі
настроем
настрои
настрою
настрояу
настроі
наступ
наступальнаи
наступленне
наступлення
наступнага
наступнае
наступнаи
наступная
наступную
наступны
наступным
наступнымі
наступных
наступныя
наступствау
наступствы
наступу
наступіла
наступіу
насуперак
насупраць
насустрач
насцеи
насць
насцю
насцямі
насцяу
насці
насъ
насыпау
насычаны
насьць
насьцю
насьці
насякомымі
насякомых
насякомыя
насяленьне
насяленьня
насяляе
насялялі
насяляюць
насіла
насілі
насіу
насіць
нат
ната
наталля
наталлі
наталья
наталя
нататкі
натау
нато
натоу
натрыю
натура
натуральна
натуральнага
натуральнае
натуральнаи
натуральная
натуральную
натуральны
натуральным
натуральных
натуральныя
натураліст
натуры
натхне
натхнення
нау
наук
наука
науки
наукова
науменко
науч
научная
научно
научное
научнои
научные
научныи
научных
нафта
нафтан
нафтана
нафтаперапрацоу
нафту
нафты
нах
нахіл
нахілу
нахіліу
нац
национальная
национального
национальнои
национальныи
нацыи
нацыстамі
нацыстау
нацысты
нацысцкаи
нацыю
нацыя
нацыянал
нацыянальна
нацыянальнага
нацыянальнае
нацыянальнаи
нацыянальнаму
нацыянальнасцеи
нацыянальнасці
нацыянальнасьці
нацыянальная
нацыянальную
нацыянальны
нацыянальным
нацыянальнымі
нацыянальных
нацыянальныя
нацыяналізаваны
нацыяналізм
нацыяналізму
нацыяналістау
нацыяналісты
нацыі
наць
нацюрморт
націск
націскам
націску
нач
нача
начаваць
начаи
начала
начале
начало
начальнік
начальніка
начальнікам
начальнікау
начальнікі
начальства
начнога
начны
начных
начныя
начы
начынне
наш
наша
нашага
нашае
нашаи
нашаму
нашаніу
нашая
наше
нашего
нашеи
наши
наших
нашихъ
нашмат
нашого
нашто
нашу
нашчадак
нашчадкам
нашчадкамі
нашчадкау
нашчадкі
нашы
нашым
нашымі
нашых
нашыя
нашэ
нашэсця
наю
ная
наявного
наяу
наіу
нба
нг
нгаб
нгуен
нд
нда
ндз
ндзе
ндр
ндтрэк
нді
не
неабходна
неабходнаи
неабходнасць
неабходнасцю
неабходнасці
неабходная
неабходную
неабходны
неабходным
неабходных
неабходныя
неаготыкі
неад
неадкладна
неаднаразова
неадушау
неакласіцызму
неаліту
неапаль
неапаля
неапалі
неафіцыи
неахвотна
неба
небам
небе
небудзь
небяспека
небяспеку
небяспекі
небяспецы
небяспечны
небяспечным
небяспечных
небяспечныя
невада
невель
невыразныя
невысакосны
невядома
невядомага
невядомае
невядомаи
невядомая
невядомы
невядомым
невядомымі
невядомых
невядомыя
невялікага
невялікае
невялікаи
невялікая
невялікую
невялікі
невялікім
невялікімі
невялікіх
невялікія
невялічкі
негатыу
него
недавер
недаверу
недаи
недале
недалька
недастаткова
недаступная
недау
недахоп
недахопам
недахопау
недахопу
недахопы
недзе
недзяржау
незадаволенасць
незадаволены
незадоу
незаконным
незалежна
незалежнага
незалежнае
незалежнаи
незалежнасць
незалежнасці
незалежнасьць
незалежнасьці
незалежная
незалежную
незалежны
незалежным
незалежнымі
незалежных
незалежныя
незалежніцкаи
незау
незвычаи
незнае
незразумела
неи
некалькі
некалькімі
некалькіх
некалі
некамерцыи
некаторага
некаторае
некатораи
некаторая
некаторую
некаторы
некаторым
некаторымі
некаторых
некаторыя
некоторые
некоторых
некрашэвіч
некуды
нелегальна
нелегальнаи
нельга
нелінеи
нем
немагчыма
немагчымасць
немагчымасці
немагчымым
неман
немана
немау
немец
немецкого
немца
немцам
немцамі
немцау
немцы
нен
нена
ненадоу
ненасць
неная
ненне
неннем
нення
ненняу
ненні
нены
неныя
непадале
непала
непарыу
непасрэдна
непасрэднага
непасрэднае
непасрэднаи
непасрэдны
непасрэдным
непау
непрыемна
непрызнанаи
непрыстои
непрыяцеля
нептун
нептуна
нер
нера
нерам
нерау
нервоваи
нервовых
нервы
нерон
нерона
нерухома
нерухомаи
нерухомасці
неры
несапрау
несена
несены
несла
неслі
неспакои
неспрыяльных
несумненна
несцяровіч
несці
нет
неу
неф
нефа
нефы
нехта
нечага
нечакана
нечым
нешматлікіх
нешматлікія
нешта
неяк
ни
нии
николаевич
николаевна
николаи
николая
них
нка
нкав
нкаи
нкау
нквд
нку
нкус
нкі
нлаи
нм
нна
ннага
ннае
ннаи
нная
нне
нную
нны
нные
нным
нных
нныя
ння
нняшняга
нняшні
ннік
нніку
ннікі
но
нобелеу
нов
нова
новага
новагародскага
новагародскі
новае
новаи
новак
новаму
новау
новая
нове
новеи
новиков
нович
нового
новое
новои
новополоцк
новосе
новосибирск
новостеи
новости
новую
новы
новые
новыи
новым
новымі
новых
новыя
нові
новік
новікау
ног
нога
ного
ногі
ное
нож
ножка
ножкі
ножцы
нои
нок
нон
норм
норма
нормау
нормы
нос
носа
носам
носьбіт
носьбіта
носьбітам
носьбітамі
носьбітау
носьбіты
носяць
носіцца
носіць
ноты
ноу
ноч
ночна
ночнав
ночнага
ночнае
ночнаи
ночная
ночную
ночны
ночным
ночных
ночныя
ноччу
ночы
ною
ноября
нс
нсдап
нск
нскага
нскаи
нская
нскі
нскіх
нскія
нська
нськии
нськоі
нт
нтак
нтка
нткам
нткамі
нткау
нтках
нтку
нткі
ну
нудна
нук
нука
нуль
нулю
нуля
нумар
нумара
нумарам
нумарамі
нумарацыя
нумарацыі
нумароу
нумару
нумары
нумізматыка
нур
нутр
нутранага
нутранае
нутранаи
нутраная
нутраную
нутраны
нутраным
нутранымі
нутраных
нутраныя
нутро
нутры
нуу
ную
нфвт
нфк
нфл
нхл
нц
нца
нцы
нці
ншваи
нштэи
ны
ные
ныи
ным
нымі
нырак
ных
ныя
нь
нье
ньне
ньня
нью
ньютан
ньютана
ньюфау
нэ
нэд
нэма
нэнсі
ню
нюю
ня
нябе
нябеснага
нябеснае
нябеснаи
нябесных
нябожчык
нябожчыка
нябожчыкау
нявеста
нявесты
няволю
няволі
нявы
нявызн
няга
нягледзячы
нядау
нядбаи
нядзелю
нядзеля
нядзелі
нядобра
нядолі
нядоу
няе
няецца
нязвычаи
нязменна
нязменнаи
нязменным
нязначна
нязначная
нязначныя
няи
някляеу
нялася
няле
нялі
ням
няма
нямала
нямецка
нямецкага
нямецкае
нямецкаи
нямецкамоу
нямецкая
нямецку
нямецкую
нямецкі
нямецкім
нямецкімі
нямецкіх
нямецкія
нямеччыне
нямеччыны
нямногіх
няможна
няміга
нянавісць
нянавісці
няных
няпоу
няправільна
няпрау
няпэу
няроу
нярэдка
нярэи
нясвіж
нясвіжа
нясвіжскага
нясвіжскаи
нясвіжскі
нясвіжскім
нясвіжы
нясе
нястачы
нясуць
няу
нях
няхаи
няцца
няць
няшмат
няшчасны
няшчасце
няюць
няя
ні
нібудзь
нібы
нібыта
ніва
ніве
ніверсітэт
ніверсітэта
ніверсітэтау
ніверсітэтах
ніверсітэту
ніверсітэты
ніверсітэце
нівка
ніводзін
ніводнага
ніводнаи
ніводная
ніводны
нівы
нігер
нігера
нігерыя
нігерыі
нідзе
нідэрл
нідэрландау
нідэрландах
нідэрландскага
нідэрландскаи
нідэрландская
нідэрландскі
нідэрланды
ніжагародскаи
ніжнесілезскага
ніжнюю
ніжняга
ніжняе
ніжняи
ніжняя
ніжні
ніжнім
ніжніх
ніжнія
ніжэи
ніз
нізе
нізка
нізкага
нізкаи
нізкарэи
нізкая
нізкую
нізкі
нізкім
нізкімі
нізкіх
нізкія
нізоу
нізіна
нізіне
нізінныя
нізіны
нік
ніка
нікава
нікаваи
нікалаеу
нікалас
нікаля
нікам
нікамі
нікарагуа
нікау
ніках
нікеи
нікога
нікола
ніколь
ніколі
ніком
нікому
нікоу
ніку
нікуды
нікі
ніл
ніла
нілася
ніловіч
ніловіча
нільс
нілі
нім
німа
німі
нін
ніна
нінаи
нінах
ніне
нінны
ніну
ніны
ніс
нітак
нітарнага
нітарнае
ніткі
ніу
ніх
ніхто
ніц
ніца
ніцаи
ніцкага
ніцкаи
ніцкая
ніцкую
ніцкі
ніцкім
ніцкіх
ніцкія
ніцтва
ніцтвам
ніцтве
ніцтву
ніцтвы
ніцу
ніцы
ніць
ніча
нічага
нічае
нічаи
нічала
нічалі
нічанне
нічання
нічанні
нічау
нічаць
нічаюць
нічаючы
нічая
нічога
нічую
нічы
нічым
нічымі
нічыпар
нічыпаравіч
нічых
нічыя
нічыі
ніш
нішамі
нішто
нішы
нія
ніяк
ніякага
ніякае
ніякаи
ніякая
ніякі
ніякіх
ніякія
о
об
обаль
обер
обзор
областеи
области
областного
областнои
область
обозрение
обороны
образование
образовании
образования
образованиям
образованных
общ
общая
общегеографическии
общеи
общества
общество
объединении
объекты
объявил
обі
ого
ода
один
одно
одного
однои
ое
озе
озеро
ои
океан
около
округа
октябрь
октября
оламау
олаф
олафа
олег
олма
ольга
олівер
ом
он
она
оне
онечны
они
онлаи
онного
онов
оного
онъ
оон
ооо
оопт
оп
опер
опера
операции
операция
опернага
опернаи
оперная
оперны
оперных
оперу
оперы
описание
описания
описано
определитель
оптыка
оптыкі
опыт
ор
орган
органа
органам
органамі
органау
органах
организации
организация
органов
органы
організацыи
організацыі
орда
ордара
ордена
орды
ордэн
ордэна
ордэнам
ордэнамі
ордэнау
ордэну
ордэны
орк
оружие
оружия
орша
оршы
освобождение
осипов
оскар
оскара
осла
основные
основных
основы
особенности
ост
остров
островецкого
ось
от
ота
отв
отд
отдел
отечественная
отечественнои
открытия
открытое
отношении
отношения
отс
отца
отчет
отъ
оу
оф
официально
официальныи
офіс
ох
охотника
охраны
очерк
очерки
п
па
паабяцау
паазер
паала
паасобку
паасобных
паасобныя
пабачым
пабачыу
пабачыць
пабег
пабегла
пабеларуску
пабла
паблізу
пабрау
пабудавалі
пабудавана
пабудаванага
пабудаванаи
пабудаваная
пабудаваны
пабудаваным
пабудаваных
пабудаваныя
пабудавау
пабудаваць
пабудова
пабудоваи
пабудовамі
пабудове
пабудову
пабудовы
пабудоу
пабывау
пабіу
пав
павагаи
павагу
павагі
паважаны
паважаць
павал
паваліу
паварот
павароту
паве
паведамленне
паведамлення
паведамленняу
паведамленнях
паведамленні
паведамляе
паведамляецца
паведамлялася
паведамлялі
паведамляу
паведамляюць
паведаміла
паведамілі
паведаміу
паведаміць
павел
павелічэнне
павелічэннем
павелічэння
павелічэнні
павер
паверсе
паверх
паверха
паверхау
паверхах
паверхню
паверхня
паверхняи
паверхняу
паверхні
паверху
паверхі
паверыу
паверыць
павет
павета
паветау
паветах
паветра
паветрам
паветрана
паветранага
паветранаи
паветраная
паветраную
паветраны
паветраным
паветраных
паветраныя
паветры
павету
паветы
павеце
павешаны
павлович
паводак
паводзін
паводзінамі
паводзінах
паводзіны
паводка
паводкі
паводле
паволжа
павольна
паволі
павук
павышанаи
павышэнне
павышэння
павялі
павялічана
павялічаны
павялічвае
павялічваецца
павялічвалася
павялічыла
павялічылася
павялічыу
павялічыць
павярнуу
павярховы
павярховыя
павярхоу
павятовага
павятовы
павятовым
павятовых
павілье
павінен
павінна
павіннасці
павіннасьці
павінны
пагаварыць
пагадзілася
пагадзіліся
пагадзіу
пагадзіцца
пагадненне
пагадненнем
пагаднення
пагадненняу
пагадненні
пагалоу
паганства
паглынання
пагляд
паглядау
паглядзела
паглядзеу
паглядзець
паглядзі
паглядзім
пагоня
пагоні
пагорак
пагоркау
пагорку
пагоршылася
пагост
пагражае
пагражала
пагражалі
пагражау
пагранічнага
пагранічнаи
пагранічных
пагроза
пагрозаи
пагрозу
пагрозы
пагутарыць
пагібель
пад
падабаецца
падабалася
падабенства
падавау
падаваць
пададзена
пададзены
падае
падаецца
падазрэнні
падала
падалі
паданне
падання
паданняу
паданнях
паданні
падараваны
падаравау
падарвалі
падарвау
падарожжа
падарожжау
падарожжы
падарожнік
падарожнікау
падарожнічау
падарунак
падарункі
падарыу
падатак
падаткау
падатку
падаткі
падау
падаць
падачы
падаюцца
падаюць
падаючы
падбярэзскі
падвергліся
падвергнуу
падвеска
падвескі
падводнага
падводнаи
падводная
падводных
падводныя
падвои
падвышанаи
падвяргаецца
падвяргалася
падвяргаліся
падвяргау
падвід
падгрупа
падгрупы
падданых
падзе
падзеи
падзел
падзела
падзелам
падзелау
падзеле
падзелена
падзеленая
падзелены
падзеленых
падзеленыя
падзелу
падземны
падземных
падземныя
падзенне
падзеннем
падзення
падзенні
падзею
падзея
падзеяи
падзеям
падзеямі
падзеяу
падзеях
падзеі
падзолістыя
падзяка
падзяку
падзякі
падзяляе
падзяляецца
падзялялася
падзяляліся
падзяляу
падзяляюцца
падзяляюць
падзялілі
падзяліу
падзяліць
падкаморы
падкарпацкага
падкрэслівае
падкрэслівау
падкрэсліу
падкрэсліць
падлеткау
падлога
падлогу
падлогі
падлозе
падлягае
падлягаюць
падляскага
падляшша
падліку
падмаскоу
падмурак
падмурку
падмуркі
падножжа
падняла
паднялася
паднялі
падняліся
падняпроу
падняты
падняу
падняцца
падняцце
падняць
падобна
падобнага
падобнае
падобнаи
падобная
падобную
падобны
падобным
падобнымі
падобных
падобныя
падольскі
падоу
падпалкоу
падпарадкавана
падпарадкаванне
падпарадкавання
падпарадкаванні
падпарадкаваны
падпарадкаваныя
падпарадкавау
падпарадкаваць
падпарадкоу
падполле
падполля
падпольнага
падпольнаи
падпольную
падпісала
падпісалі
падпісана
падпісанне
падпісаннем
падпісання
падпісаны
падпісау
падпісаць
падпісвау
падрабязна
падрабязнасці
падрабязнеи
падраздзяленне
падраздзяленнем
падраздзялення
падраздзяленнямі
падраздзяленняу
падраздзяленні
падручнік
падручніка
падручнікау
падручнікі
падрыу
падрыхт
падрыхтавала
падрыхтавана
падрыхтаваны
падрыхтаваныя
падрыхтавау
падрыхтаваць
падрыхтоу
падскарбі
падставаи
падставе
падставу
падставы
падстау
падстрау
падсямеи
падтрымала
падтрымалі
падтрыманне
падтрымання
падтрыманы
падтрымау
падтрымаць
падтрымка
падтрымкаи
падтрымку
падтрымкі
падтрымлівае
падтрымліваецца
падтрымлівала
падтрымлівалі
падтрымлівау
падтрымліваць
падтрымліваюць
падтрымцы
падуанскага
падумаи
падумау
падумаць
падуі
падхапіу
падцверджання
падчас
падыи
падымае
падымаецца
падыход
падыходам
падыходзяць
падыходзілі
падыходзіу
падыходзіць
падыходу
падыходы
падышла
падышлі
падышоу
паеду
паездак
паездка
паездку
паездкі
паехала
паехалі
паехау
паехаць
пажадау
пажар
пажарам
пажарау
пажарнаи
пажару
пажары
пажыу
пажыцце
паз
пазбавіу
пазбавіцца
пазбавіць
пазбау
пазбегнуць
пазбягаць
пазваночных
пазднякоу
пазнае
пазналі
пазнання
пазнау
пазнаць
пазначае
пазначаецца
пазначана
пазначаны
пазначаюць
пазначэнне
пазначэння
пазнеи
пазняк
пазухах
пазыкі
пазьнеи
пазірау
пазіраючы
пазітыу
пазіцыи
пазіцыю
пазіцыя
пазіцыях
пазіцыі
паи
пак
пакае
паказ
паказала
паказалася
паказальнік
паказальнікі
паказалі
паказана
паказанні
паказаны
паказаныя
паказау
паказаць
паказвае
паказваецца
паказвала
паказвалі
паказвау
паказваць
паказваюць
паказваючы
паказу
паказчык
паказчыкам
паказчыкау
паказчыку
паказчыкі
пакаленне
пакалення
пакаленняу
пакаленні
пакаранне
пакарання
пакаранні
пакараны
пакарау
пакараць
пакет
пакета
пакладзены
паклады
паклала
паклалі
пакланенне
пакланіу
пакласці
паклау
пакле
паклікау
пакои
паколькі
пакою
пакоя
пакояу
пакоях
пакоі
пакрова
пакроу
пакрывае
пакрываюць
пакрысе
пакрыта
пакрытанасенныя
пакрытая
пакрыты
пакрытыя
пакрыу
пакрыцце
пакрыцця
пакт
пакуль
пакут
пакутавау
пакутуе
пакуты
пакідае
пакідала
пакідалі
пакідау
пакідаць
пакідаюць
пакідаючы
пакіне
пакінула
пакінулі
пакінуты
пакінутых
пакінутыя
пакінуу
пакінуць
пакінь
пакістан
пакістана
пакістане
пал
пала
палавога
палавои
палавы
палавых
палавыя
палавіна
палавіне
палавіну
палавіны
палажыу
палажэнне
палажэння
палажэнняу
палажэнні
палажэньне
палажэньня
палажэньні
паланскага
паланскі
паланэз
паласа
паласе
паласои
паласу
паласы
палат
палата
палатаи
палатна
палатне
палатно
палату
палаты
палау
палац
палаца
палацава
палацам
палацау
палаце
палацу
палацца
палацы
палачане
пале
палеаліту
палепшыць
палерма
палескага
палескаи
палеская
палескі
палескім
палескія
палессе
палесся
палессі
палесціна
палесціне
палесціну
палесціны
палец
палка
палкаводзец
палкаводца
палком
палкоу
палку
палкі
палова
паловаи
палове
палову
паловы
паломніцтва
палон
палоне
палоннымі
палонных
палону
палос
палосамі
палоскамі
палоскі
палосы
палотнау
палотны
палотнішча
палоу
палтау
пальма
пальмы
пальцам
пальцамі
пальцау
пальцы
палюбоу
палявалі
паляванне
паляваннем
палявання
паляванні
палявая
палявога
палявои
палявы
палявых
палявыя
паляк
палякам
палякамі
палякау
палякоу
палякі
палямі
паляна
палянах
паляны
паляпшэнне
паляпшэння
паляпшэнні
палярнага
палярнаи
палярная
палярны
палярных
паляу
палях
паляцеу
палі
паліва
паліклініка
палікрат
паліна
палінезіи
паліталогіі
палітбюро
палітвязняу
паліто
палітолаг
палітык
палітыка
палітыкаи
палітыкау
палітыку
палітыкі
палітыцы
палітычна
палітычнага
палітычнае
палітычнаи
палітычная
палітычную
палітычны
палітычным
палітычнымі
палітычных
палітычныя
паліу
паліцы
паліцыю
паліцыя
паліцыяи
паліцыі
паліць
паліцэи
палічылі
палічыу
пам
памагчы
памалу
памау
паме
памежжа
памежнаи
памежны
памежных
памежныя
паменшыць
памер
памерам
памерамі
памерау
памерах
памерла
памерлага
памерлых
памерлі
памеру
памерці
памеры
памешчык
памешчыка
памешчыкау
памешчыкі
памешчыцкіх
паможа
памор
паморскага
памочнік
памочніка
памочнікам
памрэ
памыи
памылак
памылка
памылкаи
памылкова
памылковы
памылку
памылкі
памыліу
памяне
памяншаецца
памяншэнне
памяншэння
памяркоу
памятае
памятаи
памятаць
памятаю
памяти
памятная
памятник
памятники
памятников
памятны
памятных
памятныя
память
памяць
памяці
памяшканне
памяшкання
памяшканнямі
памяшканняу
памяшканнях
памяшканні
паміж
памінаецца
памірае
паміраць
пан
пана
панавала
панавалі
панаванне
панавання
панаваньне
панаваньня
панавау
панам
панамі
панарама
панас
пандэміі
пане
паненка
панесла
панеслі
панк
панна
панны
пано
панове
паноу
панскага
панскаи
панскі
панскім
панскіх
панскія
панства
пансіе
пану
пануе
пануры
пануюць
пануючаи
панцеляи
паншчыны
паны
панэлі
панядзелак
панятоу
паняцце
паняццем
паняцця
паняццяу
паняцці
пані
паніч
пап
папа
папаи
папала
папам
папараць
папау
папе
папер
папера
паперу
паперы
паплау
паплечнік
паплечнікау
папова
папоу
паправіу
папрасіла
папрасіу
папрау
папскага
папскаи
папская
папскі
папскім
папу
папуа
папулярнага
папулярнаи
папулярнасць
папулярнасцю
папулярнасці
папулярная
папулярны
папулярным
папулярнымі
папулярных
папулярныя
папулярызацыі
папуляцыи
папуляцыя
папуляцыі
папы
папяроваи
папярочнаи
папярэджанне
папярэджання
папярэдзіу
папярэдзіць
папярэдне
папярэдняга
папярэдняе
папярэдняи
папярэдні
папярэднік
папярэдніка
папярэднікам
папярэднікау
папярэднім
папярэдніх
папярэднічала
папярэднія
пар
пара
паравоз
паравы
парагваи
парад
парадак
парадзе
парадкаванне
парадкавання
парадкавы
парадкам
парадкау
парадку
парадкі
параду
парады
паражэнне
паражэннем
паражэння
паражэнняу
паражэнні
паразу
паразы
параи
паралельна
паралельных
паралельныя
паралелі
паралімпіи
параметрау
параметры
парамі
паранены
параненымі
параненых
параненыя
параскева
параслі
парасткау
парасткі
парау
параф
парафіи
парафія
парафіі
параход
парашок
параіу
париж
парк
парка
паркавага
паркаваи
паркавы
паркам
паркау
парках
парку
паркі
парламент
парламента
парламентам
парламенту
парламенце
парламенцкаи
парламенцкая
парламенцкіх
парламенцкія
парнасе
парог
парога
парод
парода
пародамі
пароды
парозе
паром
пароу
парт
парта
партал
партала
парталам
партале
партии
партия
партне
партоу
партрэт
партрэта
партрэтам
партрэтау
партрэты
партугальска
партугальскага
партугальскаи
партугальская
партугальскі
партугальскіх
партугальцы
партугалія
партугаліі
парты
партызан
партызана
партызанам
партызанамі
партызанау
партызанах
партызанскага
партызанскаи
партызанская
партызанскую
партызанскі
партызанскім
партызанскіх
партызанскія
партызаны
партыи
партыю
партыя
партыяи
партыямі
партыях
партыі
пару
паручнік
парушае
парушаюць
парушыу
парушыць
парушэнне
парушэннем
парушэння
парушэнняу
парушэнні
пары
парыж
парыжа
парыжскага
парыжскаи
парыжская
парыжскі
парыжскім
парыжы
парыу
парэчча
парэшткі
пас
пасаг
пасагу
пасад
пасада
пасадах
пасаджаны
пасадзе
пасадзілі
пасадзіу
пасадзіць
пасадку
пасадкі
пасаду
пасады
пасажырау
пасажырскі
пасажырскіх
пасажырскія
пасажыры
пасведчанне
пасведчанняу
пасвечаны
пасе
пасеву
паседжанні
пасеи
паселішча
паселішчам
паселішчау
паселішчах
паселішчы
паскарэнне
паскарэння
паскевіч
пасла
паслалі
пасланне
пасланні
пасланы
паслау
паслаць
паслом
паслоу
паслуг
паслугі
паслужыла
паслужылі
паслужыу
паслухаи
паслухау
паслухаць
паслы
пасля
пасляваенны
пасляваенныя
паслядоу
паслядыпломнаи
пасляслоу
пасмяротна
пасол
пасольства
пасольстве
пасоу
паспалітаи
паспалітая
паспалітую
паспела
паспелі
паспеу
паспешна
паспрабавала
паспрабавалі
паспрабавау
паспрабаваць
паспрыяла
паспяхова
паспяховага
паспяховае
паспяховаи
паспяховы
паспяховым
паспяховых
паспяховыя
пасродкам
пассавета
паст
паста
паставак
паставы
паставіла
паставілі
паставіу
паставіць
пастаменце
пастанавілі
пастанавіу
пастанау
пастанова
пастановаи
пастановак
пастанове
пастанову
пастановы
пастаноу
пастау
пастаянна
пастаяннага
пастаяннае
пастаяннаи
пастаянная
пастаянную
пастаянны
пастаянным
пастаянных
пастаянныя
паступае
паступалі
паступаць
паступаюць
паступлення
паступова
паступовае
паступіла
паступілі
паступіу
паступіць
пастух
пастухоу
пасты
пасудзіны
пасхалія
пасцелі
пасылае
пасылау
пасьля
пасяджэнне
пасяджэння
пасяджэнняу
пасяджэннях
пасяджэнні
пасяленне
пасялення
пасяленняу
пасяленні
пасяленцау
пасяленцы
пасялковага
пасялковаи
пасялковых
пасялілася
пасяліліся
пасяліу
пасярод
пасярэдзіне
пасяу
пасіу
паталогіі
патлумачыу
паток
патокау
патоку
патокі
патоцкага
патоцкі
патрабавала
патрабавалася
патрабавалі
патрабаванне
патрабаваннем
патрабаванням
патрабаваннямі
патрабаванняу
патрабаванні
патрабавау
патрабаваць
патрабуе
патрабуецца
патрабуюць
патрабуючы
патрапіла
патрапілі
патрапіу
патрапіць
патрои
патрон
патронау
патроны
патроху
патрые
патрык
патрыка
патрыярх
патрыярха
патрыярхам
патрыярхата
патрыярхату
патрыятычнага
патрыятычны
патрыятычных
патрыятычныя
патрэб
патрэба
патрэбау
патрэбе
патрэбен
патрэбна
патрэбны
патрэбным
патрэбных
патрэбныя
патрэбу
патрэбы
патэнт
патэнтау
патэнцыи
патэнцыял
патэнцыялу
пау
пах
пахавальны
пахавальныя
пахавальня
пахавалі
пахавана
пахаваная
пахаванне
пахавання
пахаванняу
пахаванні
пахаваны
пахаваных
пахаваныя
пахам
пахне
паход
паходау
паходах
паходжанне
паходжаннем
паходжання
паходжанні
паходзе
паходзяць
паходзіла
паходзілі
паходзіу
паходзіць
паходу
паходы
паху
пац
пацалавау
пацалунак
пацверджана
пацверджанне
пацверджання
пацверджаны
пацвердзіла
пацвердзілі
пацвердзіу
пацвердзіць
пацвярджае
пацвярджаецца
пацвярджаюць
паце
пацеи
пацеркі
пацукоу
пацыентау
пацягнула
пацягнуу
пацярпела
пацярпелым
пацярпелых
пацярпелі
пацярпеу
паціснуу
паціху
пач
пачакаи
пачала
пачалася
пачало
пачалося
пачалі
пачаліся
пачата
пачатак
пачаткам
пачаткау
пачатках
пачаткова
пачатковага
пачатковаи
пачатковая
пачатковую
пачатковы
пачатковым
пачатковых
пачатковыя
пачаткоу
пачатку
пачаткі
пачаты
пачау
пачаць
пачне
пачнецца
пачнуць
пачула
пачулася
пачулі
пачуліся
пачуу
пачуцце
пачуцця
пачуццяу
пачуцці
пачуць
пачуцьце
пачуцьця
пачынае
пачынаецца
пачынала
пачыналася
пачынальнікау
пачыналі
пачынау
пачынаць
пачынаюцца
пачынаюць
пачынаючы
пачынкау
паша
пашанаи
пашану
пашаны
пашкевіч
пашков
пашкоджана
пашкоджання
пашкоджанняу
пашкоджанні
пашкоджаны
пашкоу
пашлі
пашоу
пашпарт
паштоваи
паштовая
паштовы
паштовых
паштовыя
паштоу
пашы
пашыраецца
пашыралася
пашырана
пашыранаи
пашыраная
пашыраны
пашыраных
пашыраныя
пашырау
пашырацца
пашыраць
пашырылася
пашырылі
пашырыу
пашырыць
пашырэнне
пашырэннем
пашырэння
пашырэнні
паэзію
паэзія
паэзіі
паэм
паэма
паэме
паэму
паэмы
паэт
паэта
паэтам
паэтау
паэтка
паэту
паэты
паэтычнага
паэтычнаи
паэтычны
паэтычных
паэтычныя
паэтэса
паядынак
паядынку
паясоу
паясы
паяу
пд
пдп
пе
певень
пегас
пед
педагагічнага
педагагічнае
педагагічнаи
педагагічная
педагагічны
педагагічным
педагагічных
педагагічныя
педагог
педагога
педагогау
педагогики
педагогіка
педагогікі
педра
педру
педінстытута
пеи
пекла
пекін
пекіне
пен
пенальці
пенсіи
пенсільванія
пенсію
пенсіі
пень
пер
пера
пераабраны
пераадолення
пераадолець
перабрау
перабудавана
перабудаваны
перабудова
перабудовы
перабудоу
перабіу
пераваг
перавага
перавагаи
перавагу
перавагі
пераважае
пераважала
пераважалі
пераважаюць
пераважна
пераважнаи
пераважная
пераварот
перавароту
пераве
пераведзена
пераведзены
перавезена
перавезены
перавезлі
перавесці
перавод
пераводу
перавозак
перавозкі
перавысіла
перавысіу
перавышае
перавышала
перавышаць
перавышаюць
перавялі
перагаворау
перагаворы
перагледжанага
перагляду
перад
перадавалася
перадаваліся
перадавау
перадаваць
перадавых
перадавыя
перададзена
перададзены
перададзеныя
перадае
перадаецца
перадала
перадалі
перадау
перадаць
перадач
перадача
перадачаи
перадачу
перадачы
перадаюцца
перадаюць
перадгор
перадусім
пераезд
пераезду
пераемнік
пераемніка
пераемнікам
пераехала
пераехалі
пераехау
пераехаць
перажывае
перажывау
перажыла
перажылі
перажыу
перажыць
пераи
перакананы
пераканау
пераканаць
перакл
пераклад
перакладаецца
перакладам
перакладамі
перакладау
перакладах
перакладзе
перакладзена
перакладзены
перакладу
перакладчык
перакладчыка
перакладчыкам
перакладчыкау
перакладчыца
пераклады
пераклалі
пераклау
перакрыта
перакрыты
перале
пералік
пераліку
пералічаны
пералічаных
пералічаныя
перамагае
перамагау
перамагла
перамаглі
перамагчы
перамен
пераменнага
перамены
перамовау
перамовах
перамовы
перамог
перамога
перамогаи
перамогу
перамогшы
перамогі
пераможаны
пераможны
пераможным
пераможца
пераможцам
пераможцамі
пераможцау
пераможцу
пераможцы
перамозе
перамоу
перамычкаи
перамяшчэнне
перамяшчэння
перамір
пераназвана
пераназваны
перане
перанесена
перанесены
перанеслі
перанесці
перанос
пераносу
пераносіцца
пераносіць
пераняу
перападрыхтоу
перапле
перапоу
пераправы
пераправіу
перапрау
перапрацоу
перапынак
перапынкамі
перапынку
перапыніу
перапіс
перапіска
перапіску
перапісу
пераселены
пераслед
пераследу
перасоу
перастала
перасталі
перастау
перасякае
перасякаецца
перасякаюць
перасяленне
перасялення
перасяленцамі
перасяленцау
перасяленцы
перасялілася
перасяліліся
перасяліу
перасячэння
ператвараецца
ператвараюцца
ператварылася
ператварылі
ператварыліся
ператварыу
ператварыць
ператварэнне
ператварэння
ператворана
ператвораны
перау
пераход
пераходам
пераходау
пераходзе
пераходзяць
пераходзячы
пераходзіла
пераходзілі
пераходзіу
пераходзіць
пераходнага
пераходны
пераходу
пераходы
перац
перашкаджае
перашкаджала
перашкаджалі
перашкаджаць
перашкаджаюць
перашкод
перашкодаи
перашкодзіла
перашкодзіць
перашкоды
перашыи
пераязджае
пераяслау
первая
первого
первое
первои
первые
первыи
первых
перевод
перед
передъ
переименовании
переписи
перепись
перепісу
перераб
перешел
период
периода
пермскага
перс
персанаж
персанажа
персанажам
персанажау
персанажы
персанал
персаналу
персанальная
персанальных
персанальныя
персау
персеи
перспективы
перспектыве
перспектывы
перспектыу
персы
персідскага
персідскаи
персідскі
персідскім
персідскіх
персіі
перу
перш
першага
першае
першаи
першакрыніцы
першамаи
першаму
першапачаткова
першапачатковага
першапачатковае
першапачатковаи
першапачатковая
першапачатковую
першапачатковы
першапачатковым
першапачатковыя
першаснаи
першая
першую
першы
першым
першымі
першынства
першынстве
першынство
першыню
першых
першыя
перые
перыметры
перыяд
перыяда
перыядам
перыядау
перыядзе
перыяду
перыяды
перыядычна
перыядычнаи
перыядычным
перыядычных
перыядычныя
песен
песень
песни
песню
песня
песняи
песнямі
песняры
песняу
песнях
песні
песьню
песьня
песьняра
песьні
петербург
петр
петра
петраград
петраградзе
петрапау
петров
петрович
петроград
петруся
петрыкау
петыпа
петэр
пеу
пецярбург
пецярбурга
пецярбургскага
пецярбургскаи
пецярбургскую
пецярбургскі
пецярбургскім
пецярбургу
пецярбурзе
печ
печані
печати
печы
письма
письмо
пк
пка
пл
пла
плаванию
плаванне
плавання
плаванні
плага
пладамі
пладовых
пладовыя
пладоу
плады
плае
плазмы
плаи
плакала
плакат
плакау
плакаць
план
плана
планавала
планавалася
планавалі
планаванне
планавання
планавау
планам
планау
планах
плане
планет
планета
планетарная
планету
планеты
планеце
планк
планка
планкау
планоу
плантариум
плантацыі
плану
плануе
плануецца
планы
планіровачна
планіроу
пласкагор
пласт
пласта
пластах
пластом
пластоу
пласты
пластыка
пластыкі
пласце
пласцінка
пласцінкі
пласціны
плата
платити
плато
платон
платона
платонау
плату
платформа
платформе
платформу
платформы
платы
плау
плацдарм
плацдарма
плацілі
плаціна
плаціны
плаціць
плач
плача
плачу
плачуць
плашч
плая
пле
плеи
племені
племя
племянных
плечы
плод
плоскае
плоскаи
плоскасць
плоскасці
плоская
плоскі
плоскім
плоскімі
плоскіх
плоскія
плот
плотка
плоу
плошча
плошчаи
плошчау
плошчу
плошчы
плуг
плутарх
плутона
плы
плывае
плывала
плывалі
плывам
плывау
плываць
плываюць
плыве
плывец
плыву
плывы
плылі
плым
плынь
плыняу
плыні
плыу
плых
плыя
плэи
плюс
пляж
пляжы
плям
пляма
плямамі
пляме
пляменнік
пляменніка
пляменнікам
плямы
плян
пляц
пляцовак
пляцоу
пляцы
плячах
плячо
плячы
плячыма
пліскага
пліт
пліта
пліты
пн
пнв
пнеу
пнр
пнс
по
побач
победы
побыт
побыту
побыце
поверхностных
повесть
повете
повиненъ
погибли
погибших
погляд
поглядам
поглядамі
поглядау
поглядах
погляду
погляды
пограничья
под
подвиг
подзвіг
поднепровье
подписал
подписали
подписании
подпіс
подпісам
подпісау
подпісы
подъ
поезд
позвы
позна
познань
познані
позняга
позняи
позні
познім
позніх
познія
позірк
позіркам
пои
покинул
покинули
покрыва
покрытосеменные
покрыу
покуль
покі
пол
пола
поласць
поласці
полау
полацак
полацк
полацка
полацкага
полацкае
полацкаи
полацкая
полацку
полацкую
полацкі
полацкім
полацкіх
полацкія
поле
полем
полесье
политиздат
политика
политики
политическая
политическои
полк
полное
полномочии
половине
половины
полоцк
полоцкии
полу
получил
полымя
поль
польны
польск
польска
польскага
польскае
польскаи
польскамоу
польскаму
польская
польску
польскую
польскі
польскім
польскімі
польскіх
польскія
польшча
польшчаи
польшчу
польшчы
полюс
полюса
полюсе
поля
полі
політыка
політычнага
політычных
політэхнічнага
політэхнічны
політэхнічным
помач
помачы
помню
помнік
помніка
помнікам
помнікамі
помнікау
помніках
помніку
помнікі
помста
помсты
поп
попел
попелу
попов
попул
популярная
попыт
попыту
пор
порах
пораху
порт
порта
портал
портам
портреты
порту
порты
поруч
порце
порцік
порцікам
поры
порядка
поселков
после
последние
последнии
пособие
поспех
поспехам
поспехау
поспеху
поспехі
пост
постановление
постаць
постаці
постоянного
посту
посуд
посуду
пот
потам
потомъ
потым
потэр
поу
почему
пошта
пошты
пошук
пошукау
пошуках
пошуку
пошукі
поэзіі
поэма
поэмы
поэт
поэта
поэтау
поэты
пояс
пояса
поясам
поясе
ппс
пр
пра
праабражэнская
прабачэння
праблем
праблема
праблемаи
праблемамі
праблемах
праблеме
праблему
праблемы
прабыу
прабіу
прабіцца
прав
права
праваабаронца
праваабарончага
праваабарончы
праваахоу
прававая
прававога
прававои
прававы
прававым
прававых
прававыя
правага
правадзеи
праваднік
праваднікоу
правадыр
правадыра
правадыром
правадыроу
правадырствам
правадыры
правае
правазнау
праваи
правалу
правалілася
праваліу
правам
правамі
праванса
правапарадку
правапіс
правапісу
праваслау
правасуддзя
правах
правая
правда
праве
праведзена
праведзенага
праведзены
праведзеных
праведзеныя
праверана
правераная
праверка
праверкі
праверыць
правесці
правительства
право
правовои
праводзяцца
праводзяць
праводзячы
праводзіла
праводзілася
праводзілі
праводзіліся
праводзіу
праводзіцца
праводзіць
правомъ
православная
православнои
правоу
праву
правую
правы
правым
правых
правыя
правядзенне
правядзеннем
правядзення
правядзенні
правяла
правялі
правіл
правіла
правілам
правіламі
правілау
правілах
правілы
правільна
правільнага
правільнаи
правільны
правільным
правільныя
правінцыи
правінцыю
правінцыя
правінцыяи
правінцыямі
правінцыях
правінцыі
правіу
прага
прагаласавала
прагаласавалі
прагляд
праглядау
прагляду
праграм
праграма
праграмавання
праграмаи
праграмах
праграме
праграмнага
праграмнае
праграму
праграмы
прагрэс
прагрэсу
прагрэсіу
прагу
прагі
прад
прадавалі
прадавау
прадаваць
прададзена
прададзены
прадалі
прадастау
прадау
прадаць
прадзюсар
прадзюсарам
прадм
прадмесце
прадмесця
прадмесці
прадмет
прадмета
прадметам
прадметамі
прадметау
прадметы
прадмова
прадмове
прадмовы
прадоу
прадпрыемства
прадпрыемствам
прадпрыемствамі
прадпрыемствау
прадпрыемствах
прадпрыемстве
прадпрыемствы
прадпрымальнік
прадпрымальнікау
прадпрымальніцтва
прадставіла
прадставілі
прадставіу
прадставіць
прадстау
прадугледжана
прадугледжаны
прадугледжаных
прадугледжвае
прадугледжвала
прадугледжвалася
прадугледжвау
прадукт
прадуктам
прадуктамі
прадуктау
прадукту
прадукты
прадуктыу
прадукцыи
прадукцыю
прадукцыя
прадукцыі
прадухілення
прадухіліць
прадэманстравау
прае
праезд
праезду
праект
праекта
праектаванне
праектавання
праектаванні
праектам
праектамі
праектау
праектах
праектна
праектнага
праектных
праекту
праекты
праекце
пражскага
пражскаи
пражскі
пражывае
пражывала
пражывалі
пражывання
пражывау
пражываюць
пражыу
праз
празаік
празваны
празе
праи
праказау
пракаповіч
пракат
пракаце
пракладзена
пракладзены
пракле
пракляты
пракоп
пракоф
практ
практическои
практыка
практыкаи
практыку
практыкі
практыцы
практычна
практычнага
практычнае
практычнаи
практычная
практычную
практычны
практычных
практычныя
пракуратура
пракуратуры
пракурор
пракурора
прале
пралетарыяту
пралягае
праліва
пралівам
праліве
праліу
прама
прамавугольнага
прамавугольнае
прамавугольнаи
прамавугольная
прамавугольны
прамавугольным
прамавугольнымі
прамавугольных
прамавугольныя
прамалінеи
прамастои
прамау
прамая
прамежак
прамежку
прамень
праметэи
прамова
прамоваи
прамове
прамову
прамовы
прамовіу
прамога
прамое
прамои
прамоу
прамы
прамым
прамымі
прамыслова
прамысловага
прамысловае
прамысловаи
прамысловасць
прамысловасці
прамысловасьць
прамысловасьці
прамысловая
прамысловы
прамысловым
прамысловых
прамысловыя
прамыслоу
прамых
прамыя
прамяне
прамяні
праміле
прановіч
пранікае
пранікненне
пранікнення
прапаведнік
прапаганда
прапагандзе
прапаганду
прапаганды
прападобнага
прападобнаи
прапала
прапалі
прапанавала
прапанавалі
прапанавана
прапанаваны
прапанаваныя
прапанавау
прапанаваць
прапанова
прапановаи
прапанове
прапанову
прапановы
прапаноу
прапануе
прапануем
прапануецца
прапануюць
прапарцыи
прапау
прапои
прапорцыі
прапрацавау
прапусціу
прапусціць
прапушчаныя
прарасіи
прарок
прарока
прарокау
прароцтва
прарыву
прарыу
прарэзаны
прарэктар
прасачыць
прасвятои
прасе
праславіу
праслау
праслухоу
прасоу
прасочваецца
праспект
праспекта
праспектам
праспекце
прасталінеи
прастол
прастола
прастор
прастора
прастораваи
прасторавая
прасторах
прастору
прасторы
прасунуліся
прасцеи
прасценках
прасякнуты
прасіла
прасілі
прасіу
прасіць
пратакол
пратакола
пратаколы
прататып
прататыпам
пратокаи
пратокі
пратэктарат
пратэст
пратэстантау
пратэстанты
пратэстанцкаи
пратэстанцкіх
пратэстау
пратэстоу
пратэсту
пратэстуючых
пратэсты
прау
праф
прафесар
прафесара
прафесарам
прафесарау
прафесары
прафесіи
прафесіяналау
прафесіі
прафсаюз
прафсаюза
прафсаюзау
прафілактыкі
прах
праход
праходжанне
праходжання
праходжанні
праходзяць
праходзячы
праходзіла
праходзілі
праходзіу
праходзіць
праходу
прац
праца
працавала
працавалі
працавау
працаваць
працаи
працамі
працау
працах
працаю
працоу
працу
працуе
працуюць
працуючы
працы
працэдура
працэдуры
працэнт
працэнтау
працэс
працэсам
працэсамі
працэсар
працэсау
працэсах
працэсе
працэсу
працэсы
працяг
працягам
працягвае
працягваецца
працягвала
працягвалася
працягвалі
працягваліся
працягвау
працягваць
працягваюцца
працягваюць
працягваючы
працяглага
працяглаи
працягласць
працягласцю
працягласці
працяглы
працяглым
працяглых
працяглыя
працягнула
працягнулася
працягнулі
працягнуу
працягнуць
працягу
працякае
працякаюць
праціу
прачнуу
прачытау
прачытаць
прашу
прашэнне
праява
праявы
праявіу
праяу
праіндаеу
праіснавала
праіснавау
пред
предисл
предисловие
представителеи
представительных
президент
президента
президиума
премии
премьер
преобразовании
пресс
прессбол
при
применение
природа
природы
присвоении
про
пробашч
пробашчам
проблема
проблемы
проверено
программа
программе
прогресс
продаж
продажау
продажу
продажы
продка
продкам
продкамі
продкау
продкі
продлил
продлили
продолжит
проект
проза
прозвішча
прозвішчам
прозвішчау
прозвішчы
прозе
прозу
прозы
прои
производства
происхождение
прокудин
промыслу
промыслы
пропаведзі
пропуску
проса
просвещение
просвещения
прост
проста
простага
простае
простаи
простая
простую
просты
простым
простымі
простых
простыя
просьба
просьбаи
просьбе
просьбу
просьбы
просяць
просіць
протаіерэи
против
протчым
проф
профессора
профіль
профілю
прохарау
прохвіч
прохоров
проц
процант
проці
процівагу
процілеглым
проціпастау
проціу
прудкоу
прудок
пружанскага
пружанскі
пружанскім
пружаны
прусау
прускага
прускаи
пруская
прускі
прусію
прусія
прусіяи
прусіі
пры
прыбалтыи
прыбалтыкі
прыбалтыцы
прыблізна
прыбор
прыборау
прыборы
прыбраць
прыбудавана
прыбудаваны
прыбудова
прыбывае
прыбыла
прыбылі
прыбытак
прыбыткау
прыбытку
прыбыткі
прыбыу
прыбыцце
прыбыцця
прыбыцці
прыбярэжнаи
прыбярэжная
прыбярэжных
прыбярэжныя
прывад
прывадам
прыватнага
прыватнае
прыватнаи
прыватнасці
прыватнау
прыватная
прыватную
прыватны
прыватным
прыватнымі
прыватных
прыватныя
прыве
прыведзена
прыведзены
прыведзеныя
прывезены
прывезлі
прывесці
прыводзяцца
прыводзяць
прыводзіла
прыводзілі
прыводзіу
прыводзіцца
прыводзіць
прывык
прывядзе
прывяла
прывяло
прывялі
прывід
прывілеем
прывілеи
прывілеяу
прывілеі
прывітанне
прыгавораны
прыгажосць
прыгажосцю
прыгажосці
прыгажуня
прыгажэи
прыгарадзе
прыгарадных
прыгатавання
прыгне
прыгод
прыгоды
прыгожа
прыгожага
прыгожае
прыгожаи
прыгожана
прыгожаны
прыгожая
прыгожвалі
прыгожванні
прыгожую
прыгожы
прыгожым
прыгожымі
прыгожых
прыгожыя
прыгоннага
прыгонных
прыгону
прыдатныя
прыдворнага
прыдворнаи
прыдворны
прыдворным
прыдворных
прыдзе
прыдзецца
прыдняпроу
прыднястроу
прыдумау
прые
прыедзе
прыезд
прыезду
прыемна
прыемны
прыемным
прыехала
прыехалі
прыехау
прыехаць
прыз
прызавы
прызавых
прызваны
прызе
прызнавалі
прызнавау
прызнаваць
прызнае
прызнаецца
прызнала
прызналі
прызнана
прызнаная
прызнанне
прызнання
прызнанні
прызнаны
прызнаныя
прызнау
прызнацца
прызнаць
прызначае
прызначаецца
прызначалася
прызначаліся
прызначана
прызначаная
прызначаны
прызначаных
прызначаныя
прызначау
прызначаюцца
прызначылі
прызначыу
прызначыць
прызначэнне
прызначэннем
прызначэння
прызначэнні
прызнаюць
прызыу
прыи
прыказкі
прыкаране
прыклад
прыкладам
прыкладамі
прыкладау
прыкладзе
прыкладна
прыкладная
прыкладнога
прыкладнои
прыкладных
прыкладу
прыклады
прыкмет
прыкмета
прыкметаи
прыкметамі
прыкметна
прыкметны
прыкметы
прыкмеце
прыкра
прыкрыцце
прылад
прылада
прыладаи
прыладамі
прыладу
прылады
прылеглаи
прылеглых
прылеглыя
прылягае
прылівы
прыліу
прылічаны
прымае
прымаецца
прымала
прымалі
прымаліся
прымау
прымацоу
прымаць
прымаюцца
прымаюць
прымаючы
прыме
прымеркаваны
прыметнік
прыморскі
прымусова
прымусіла
прымусілі
прымусіу
прымусіць
прымушае
прымушалі
прымушаны
прымыкае
прымыкаюць
прымяненне
прымянення
прымяняецца
прымяняюцца
прымірэння
прымітыу
прыназоу
прыналежнасць
прыналежнасці
прынамсі
прыне
прынесла
прынеслі
прынесці
прыносяць
прыносілі
прыносіць
прынц
прынца
прынцам
прынцып
прынцыпам
прынцыпамі
прынцыпау
прынцыпах
прынцыпе
прынцыпова
прынцыпу
прынцыпы
прынцэса
прынцэсаи
прынцэсы
прыняла
прыняло
прынялі
прынясе
прынята
прынятае
прынятаи
прынятая
прыняты
прынятым
прынятых
прынятыя
прыняу
прыняцце
прыняццем
прыняцця
прыняцці
прыняць
прыпадае
прыпеу
прыпынак
прыпыначны
прыпыначным
прыпынку
прыпыніу
прыпяцкага
прыпяць
прыпяці
прыпісваецца
прыпісваюць
прырау
прырода
прыродаахоу
прыродазнау
прыродаи
прыродзе
прыроднага
прыроднаи
прыродны
прыродным
прыродных
прыродныя
прыроду
прыроды
прырост
прысваенні
прысвечана
прысвечанага
прысвечанаи
прысвечаная
прысвечаную
прысвечаны
прысвечаным
прысвечаных
прысвечаныя
прысвоена
прысвоены
прысвои
прысвоіу
прысвяціу
прысеу
прыслау
прыслоу
прыслухоу
прыстань
прыстасаванне
прыстасаваны
прыстасоу
прыстау
прыстои
прыступу
прыступілі
прыступіу
прыступіць
прысуд
прысуджаецца
прысуджана
прысуджаны
прысудзілі
прысудзіу
прысуду
прысутнасць
прысутнасці
прысутных
прысутнічае
прысутнічала
прысутнічалі
прысутнічау
прысутнічаць
прысутнічаюць
прысягу
прысягі
прытвор
прыток
прытокам
прытокамі
прытокау
прытоку
прытокі
прытомнасць
прытрымліваецца
прытрымлівау
прытрымлівацца
прытрымліваюцца
прытулак
прытулку
прытым
прыу
прыхаджан
прыход
прыхода
прыходам
прыходау
прыходзе
прыходзяць
прыходзіла
прыходзілася
прыходзілі
прыходзіу
прыходзіцца
прыходзіць
прыходская
прыходу
прыходы
прыхільнасць
прыхільнасці
прыхільнік
прыхільнікам
прыхільнікамі
прыхільнікау
прыхільнікі
прыцягвае
прыцягвау
прыцягвацца
прыцягненне
прыцягнення
прыцягнула
прыцягнуты
прыцягнуу
прыцягнуць
прычарнамор
прычым
прычын
прычына
прычынаи
прычынамі
прычынах
прычыне
прычыну
прычыны
прышла
прышлося
прышлі
прышоу
прыязджае
прыязджалі
прыязджау
прыярытэт
прыяцель
прыяцеля
прыяцеляу
прыяцелі
прэдстау
прэзентацыя
прэзентацыі
прэзідыум
прэзідыума
прэзідэнт
прэзідэнта
прэзідэнтам
прэзідэнтау
прэзідэнту
прэзідэнты
прэзідэнце
прэзідэнцкаи
прэзідэнцкі
прэзідэнцкіх
прэзідэнцкія
прэзідэнцтва
прэм
прэміи
прэмію
прэмія
прэміяи
прэміі
прэпаратау
прэпараты
прэс
прэса
прэсе
прэснаи
прэсных
прэстыжных
прэсы
прэтэндавау
прэтэндаваць
прэтэндэнтау
прэтэнзіи
прэтэнзіі
прэфект
прэфектура
прэфектуры
прэч
пс
псалма
псалмы
псалом
псалтыр
псальма
псальмау
псеу
пскова
пскоу
псы
псыхоле
псіха
псіхалагічнаи
псіхалагічны
псіхалагічных
псіхалогія
псіхалогіі
псіхолаг
пталамея
птау
птушак
птушка
птушкамі
птушку
птушкі
пу
пуацье
публіка
публікаваліся
публікавау
публікацыи
публікацыю
публікацыя
публікацыі
публікуе
публікі
публіцы
публіцыст
публіцыстыка
публіцыстыкі
публіцыстычных
публічна
публічнага
публічнаи
публічная
публічных
публічныя
пугачоу
пуд
пудоу
пузыны
пункт
пункта
пунктам
пунктамі
пунктау
пунктах
пунктов
пункту
пункты
пункце
пуні
пупышкі
пуслоу
пуста
пустазелле
пустая
пустое
пустои
пусты
пустым
пустыню
пустыня
пустынях
пустыні
пустыя
пусцілі
пусціу
пусціць
путеводитель
путешествие
пути
путь
пухавіцкага
пухавіцкі
пухавіцкім
пухліны
пуховичского
пуце
пуці
пуцін
пуціна
пушачнага
пушкін
пушкіна
пушча
пушчу
пушчы
пуэбла
пуэрта
пфальц
пцыг
пцыгу
пціч
пчол
пчолы
пшаніца
пшаніцу
пшаніцы
пы
пыл
пылу
пытае
пытаецца
пытанне
пытаннем
пытання
пытанням
пытаннямі
пытанняу
пытаннях
пытанні
пытаньне
пытаньня
пытаньняу
пытаньні
пытау
пэи
пэн
пэры
пэрыод
пэрыяд
пэу
пяе
пяле
пялевіна
пяра
пярну
пяро
пярои
пяром
пярсце
пярун
пярэдняга
пярэдняи
пярэдняя
пярэдні
пярэднім
пярэдніх
пярэднія
пярэчыць
пяском
пяскоу
пяску
пяскі
пясок
пясчана
пясчанае
пясчаных
пясчаныя
пясьняр
пятага
пятае
пятаи
пятая
пятнаццаць
пятнаццаці
пятніцкая
пятніцу
пятра
пятро
пятрова
пятровіч
пятровіча
пятром
пятроу
пятру
пятрусь
пятую
пяты
пятым
пять
пяхота
пяхотнага
пяхотнаи
пяхотная
пяхотны
пяхотных
пяхотныя
пяхоты
пяце
пяццю
пяць
пяцьдзесят
пяці
пяцігадовы
пячатка
пячатку
пячаткі
пячор
пячора
пячорах
пячору
пячоры
пячэрскага
пяюць
пі
піва
під
піи
пік
піка
пікаса
піку
пілот
пілота
пілотау
пілоты
пілсудскага
пілсудскі
пільна
пілястрамі
пілястры
пілі
піліп
піліпа
піліпавіч
пінск
пінска
пінскага
пінскаи
пінская
пінску
пінскі
пінскім
піньінь
піпчын
піпін
піраміда
піраміды
піратау
піраты
піры
пірэнеи
пісала
пісалася
пісалі
пісаліся
пісання
пісар
пісара
пісарам
пісау
пісаць
пісталет
пісталета
пісьма
пісьме
пісьменнасць
пісьменнасці
пісьменнік
пісьменніка
пісьменнікам
пісьменнікамі
пісьменнікау
пісьменніку
пісьменнікі
пісьменніца
пісьменніцы
пісьменства
пісьменьнік
пісьменьніка
пісьменьнікау
пісьменьнікі
пісьмо
пісьмоваи
пісьмовасць
пісьмовая
пісьмовы
пісьмовых
пісьмовыя
пісьмом
пісьмы
піт
пітнои
пітэр
пітэра
піу
піць
піша
пішацца
пішу
пішуцца
пішуць
пія
піянер
піянерау
піяніст
р
ра
раб
рабамі
рабау
рабачанне
рабачання
рабачанні
рабкор
раблю
работ
работа
работаи
работамі
работах
работнік
работнікау
работнікі
работу
работы
рабоу
рабоце
рабоча
рабочага
рабочаи
рабочая
рабочы
рабочым
рабочымі
рабочых
рабочыя
рабства
рабы
рабі
рабіла
рабілася
рабілі
рабіліся
рабіна
рабіу
рабіць
рава
раваны
равіч
рагатаи
рагачоу
рагвалода
рагнеда
рагои
рагоу
рагу
рад
рада
радаваи
радавая
радавога
радавод
радавы
радавым
радавымі
радавых
радавыя
радаи
радам
радамі
радасна
радасць
радасцю
радасці
радасьць
радасьці
радау
радах
раджаи
раджаю
радзе
радзеи
радзівіл
радзівіла
радзівілам
радзівілау
радзівілы
радзіма
радзімаи
радзіме
радзіму
радзімы
радзіу
ради
радио
радка
радкоу
радку
радкі
радлівасці
радовішча
радовішчау
радовішчы
радок
радоу
раду
рады
радые
радыеактыу
радыкальна
радыкальнаи
радыкальных
радыкальныя
радыус
радыяцыи
радыяцыі
рае
раеу
ражанне
ражанні
ражаньне
раз
разабраны
разабрацца
разабраць
разам
разанскаи
разараныя
разарваны
разарвау
разбои
разбору
разбурана
разбураны
разбурылі
разбурыу
разбурыць
разбурэнне
разбурэння
разбурэнні
разбілі
разбіта
разбіты
разбіу
разбіць
развагі
разважанні
разважау
разве
разведка
разведку
разведкі
разведчык
развитие
развития
развод
разводу
развівае
развіваецца
развівалася
развіваліся
развівау
развівацца
развіваць
развіваюцца
развіта
развітаи
развітанне
развітау
развітая
развіты
развітым
развітых
развітыя
развіу
развіцце
развіццю
развіцця
развіцці
разгар
разгарнулася
разгарнуу
разгледзеу
разгледзець
разгляд
разглядае
разглядаецца
разглядала
разглядалася
разглядалі
разглядаліся
разглядау
разглядацца
разглядаць
разглядаюцца
разглядаюць
разглядаючы
разглядзе
разгляду
разгон
разгону
разгортваецца
разграмілі
разграміу
разгром
разгромлены
разгрому
раздел
раздельнолепестные
раздзел
раздзела
раздзелау
раздзеле
раздзелы
разе
разлік
разлікау
разліку
разлікі
разлічана
разлічаны
разлічвау
размале
размау
размах
размаху
размер
размеркаванне
размеркавання
размеркаванні
размеркаваны
размешчана
размешчанага
размешчанае
размешчанаи
размешчаная
размешчаны
размешчаным
размешчанымі
размешчаных
размешчаныя
размнажаецца
размнажэнне
размнажэння
размова
размову
размовы
размоу
размяркоу
размясцілася
размясцілі
размясціліся
размясціу
размясціць
размяшчаецца
размяшчалася
размяшчаліся
размяшчау
размяшчаюцца
размяшчэнне
размяшчэннем
размяшчэння
размяшчэнні
разнавіднасць
разнавіднасці
разнастаи
разня
разовы
разоу
разрабавалі
разрабаваны
разрад
разрадзе
разраду
разрезе
разрыву
разрыу
разрэзе
разу
разумее
разумееце
разумеецца
разумееш
разумелі
разуменне
разумення
разуменні
разумеу
разумець
разумею
разумеюць
разумеючы
разумнага
разумны
разумныя
разы
разыи
разыходзяцца
разышліся
разьба
разьбои
разьбы
разьвіцьце
разьвіцьця
разьвіцьці
разьдзел
разіи
разіі
раи
рак
рака
ракавін
ракавіны
ракако
ракасоу
ракау
ракацы
ракет
ракета
ракетамі
ракетны
ракетных
ракетныя
ракеты
ракои
раку
ракі
раліт
рам
рама
рамаи
раман
рамана
раманава
раманавых
раманавіч
раманам
раманау
раманах
рамане
раманоу
рамантызму
рамантычнаи
раману
раманы
раме
рамеснікау
рамеснікі
рамках
рамкі
рамонт
рамонтна
рамонту
рамонце
рамуальд
рамы
рамяства
рамяство
рамі
ран
рана
ранг
рангу
ранеи
раненне
раненні
ранены
ранняга
ранняе
ранняи
ранняя
ранні
раннім
ранніх
раннія
рану
раны
раніца
раніцаи
раніцою
раніцу
раніцы
рапарламента
рапеи
раптам
раптоу
рарадые
рас
раса
расаваи
расаюза
расеи
расея
расеяи
расеі
раскажу
расказала
расказау
расказаць
расказвае
расказвау
расказваць
расклад
раскол
расколу
раскопак
раскопках
раскопкі
раскошы
раскрывае
раскрываецца
раскрыу
раскіданае
расла
расло
раслі
раслін
расліна
раслінаводства
раслінамі
раслінах
расліннага
расліннасць
расліннасцю
расліннасці
раслінны
раслінным
раслінных
расліну
расліны
расонскага
расонскім
расоны
распаве
распавядае
распад
распадаецца
распаду
распалася
распараджэнне
распараджэннем
распараджэнняу
распараджэнні
распарадзіу
распасціраецца
распау
распачала
распачалася
распачалі
распачата
распачаты
распачау
распачаць
расправы
распрацавала
распрацавалі
распрацавана
распрацаваная
распрацаваны
распрацаваныя
распрацавау
распрацаваць
распрацовак
распрацоу
распусціу
распушчаны
рассеи
рассеянае
рассказал
рассказы
расследаванне
расследавання
расследаванні
расстался
расстау
расстралялі
расстраляны
расстраляныя
расстрои
расстрэл
расстрэлу
рассялення
раства
раствараецца
растении
растения
растлумачыу
растлумачыць
растове
расторг
растоу
раструм
растуць
расход
расце
расці
расціслау
расче
расчляне
расшыфроу
расы
расьце
расіи
расію
расія
расіяи
расіі
рат
ратаваць
ратуи
ратунку
ратуша
ратушы
рау
рауль
рафаэль
рафаэля
рах
рахунак
рахунку
рацые
рацыи
рацыю
рацыя
рацыі
рацэ
рач
рача
рачная
рачнога
рачнои
рачны
рачных
рачныя
рачоу
рачыста
рачыстае
рашоткі
рашуча
рашучы
рашыу
рашэнне
рашэннем
рашэння
рашэнняу
рашэнні
раю
раюк
раян
раіса
раіу
рб
рбк
рд
рда
рдага
рдае
рдаи
рдасць
рдая
рдултоу
рды
рдым
рдых
рдыя
ре
реальныи
революции
революция
рег
регионы
ред
редактор
редакциеи
редакционныи
редакция
редкол
реестр
режим
режима
реи
рек
река
республик
республика
республике
республики
ресурс
ресурсы
речи
речнои
речъ
речы
решение
решении
решения
ржэу
риа
рк
рка
ркп
рку
ркі
рла
рн
рна
рнага
рная
рнк
рны
рных
рныя
ро
роб
роберт
роберта
робертам
робертсан
робяцца
робяць
робячы
робі
робін
робіце
робіцца
робіць
робіш
рова
ровам
ровенскаи
рог
рогі
род
рода
родам
родапачынальнік
родапачынальнікам
родау
роджэр
родзе
родины
роднага
роднае
роднаи
роднасных
родная
родную
родны
родным
родных
родныя
роду
роды
рождения
роза
рознага
рознагалоссяу
рознагалоссі
рознае
рознаи
рознаму
рознастаи
рознасць
розная
розную
розны
розным
рознымі
розных
розныя
розніца
розніцу
розніцы
розум
розумам
розуму
розыгрыш
розыгрышам
розыгрышу
розыгрышы
рои
рок
рока
року
рокъ
рокі
роль
ролю
роля
роляи
роляу
ролях
ролі
ром
рома
роман
романа
рон
рона
рональд
роні
ропа
ропаи
ропе
ропу
ропы
ропэи
рора
роры
рос
роса
росквіт
росквіту
рославльскии
рославльского
рослау
роспачы
роспуску
роспіс
роспісу
роспісы
россии
россия
рост
ростам
ростов
росту
рось
росі
рот
рота
ротмістр
роту
роты
роу
роце
рочышча
рочышчы
рош
рпц
рс
рсдрп
рсза
рск
рскага
рскае
рскаи
рская
рскую
рскі
рскім
рскіх
рскія
рст
рства
рсфср
рсча
рся
рт
ртага
ртае
ртаи
ртая
ртвая
ртвы
ртвым
ртвых
ртвыя
ртую
рты
ртым
ртыя
ру
руанды
руб
рубеж
рубель
рубенс
рубенса
рубле
рублеу
рубля
рублі
рубяжы
руд
руда
рудзенск
рудня
руднянскім
рудні
руднік
рудольф
рудольфа
руды
ружа
ружовага
ружовы
ружовым
ружовыя
ружы
руи
рук
рука
рукавы
рукамі
рукапіс
рукапісау
рукапісах
рукапісных
рукапісу
рукапісы
рукау
руках
руководство
рукои
рукою
руку
рукі
руле
рум
румынскага
румынскаи
румынская
румынскі
румынію
румынія
румыніяи
румыніі
румянцава
румянцау
руны
рунь
руп
рус
русак
руси
руск
руска
рускага
рускае
рускаи
рускамоу
руская
руску
рускую
рускі
рускім
рускімі
рускіх
рускія
руслан
русо
русск
русская
русские
русскии
русских
русско
русского
русское
русскои
русском
рустам
русь
русі
русіфікацыі
рут
рута
рух
руха
рухавік
рухавіка
рухавікамі
рухавіком
рухавікоу
рухавікі
рухаецца
рухаліся
рухам
рухамі
рухау
рухацца
рухаюцца
рухомага
рухомыя
руху
рухі
руцкага
руцкі
руцкім
руцэ
ручае
ручаецца
ручаи
ручая
ручаі
ручкі
ручнои
ручную
ручэння
рушыла
рушылі
рушыу
рушыць
руін
руінах
руіны
рф
рфі
рцы
рш
ршы
ры
рыа
рыб
рыба
рыбаи
рыбак
рыбака
рыбакоу
рыбакі
рыбалоу
рыбнаи
рыболова
рыбу
рыбы
рывер
рыга
рыгор
рыгора
рыгоравіч
рыгорам
рыгорау
рыгору
рыгу
рыгі
рыд
рыдле
рыжскага
рыжскаи
рыжскі
рыжскім
рыжы
рызе
рызыку
рызыкі
рыи
рык
рыка
рыкарда
рыкі
рыла
рылавіч
рылау
рым
рыма
рымам
рыме
рымлян
рымлянамі
рымляне
рымска
рымскага
рымскае
рымскаи
рымская
рымскую
рымскі
рымскім
рымскіх
рымскія
рыму
рына
рынак
рыначнаи
рынка
рынкау
рынках
рынку
рынкі
рыс
рыса
рысаи
рысамі
рысау
рысах
рысу
рысы
рысь
рыт
рыта
рытм
рытмічна
рыторыкі
рытуалау
рытуалы
рыу
рыф
рыхард
рыхтавала
рыхтавалі
рыхтаваліся
рыхтавау
рыхтавацца
рыхтаваць
рыхтуе
рыхтуецца
рыцар
рыцара
рыцарау
рыцарскі
рыцарства
рыцары
рыце
рычард
рычарда
рычардс
рычы
рышау
рыштунку
рыя
рэ
рэабілітаваны
рэабілітацыі
рэактыу
рэакцыи
рэакцыю
рэакцыя
рэакцыі
рэал
рэальна
рэальнага
рэальнае
рэальнаи
рэальнасць
рэальнасці
рэальная
рэальны
рэальным
рэальных
рэальныя
рэалізавана
рэалізаваны
рэалізаваць
рэалізацыю
рэалізацыя
рэалізацыі
рэалізм
рэалізму
рэарганізавана
рэарганізаваны
рэарганізацыі
рэат
рэата
рэатам
рэатау
рэаты
рэвалюцыи
рэвалюцыю
рэвалюцыя
рэвалюцыяи
рэвалюцыянер
рэвалюцыянерау
рэвалюцыі
рэволюцыи
рэволюцыя
рэволюцыі
рэвізскіх
рэвізіи
рэвізіі
рэгент
рэгента
рэгентам
рэгламентам
рэгулюе
рэгуляванне
рэгулявання
рэгулярна
рэгулярнага
рэгулярнаи
рэгулярны
рэгулярных
рэгулярныя
рэгіе
рэгістрацыю
рэгістрацыя
рэгістрацыі
рэгіянальнага
рэгіянальнаи
рэгіянальная
рэгіянальны
рэгіянальным
рэгіянальных
рэгіянальныя
рэд
рэдагавау
рэдактар
рэдактара
рэдактарам
рэдактарау
рэдактары
рэдакцыи
рэдакцыю
рэдакцыя
рэдакцыяи
рэдакцыі
рэдка
рэдкаи
рэдкал
рэдкалегія
рэдкалегіі
рэдкая
рэдкі
рэдкім
рэдкімі
рэдкіх
рэдкія
рэек
рэестр
рэестры
рэж
рэжым
рэжымам
рэжымау
рэжыме
рэжыму
рэжысе
рэжысуру
рэзалюцыю
рэзалюцыя
рэзалюцыі
рэзананс
рэзервацыі
рэзерву
рэзервы
рэзка
рэзкага
рэзкае
рэзкаи
рэзкі
рэзкім
рэзідэнцыю
рэзідэнцыя
рэзідэнцыяи
рэзідэнцыі
рэи
рэк
рэкамендацыи
рэкамендацыі
рэкамендуецца
рэкамі
рэканструкцыю
рэканструкцыя
рэканструкцыі
рэканструяваны
рэках
рэкламы
рэкорд
рэкордау
рэкрэацыи
рэктар
рэктара
рэктарам
рэкі
рэлаксін
рэле
рэльеф
рэльефу
рэлігіи
рэлігію
рэлігія
рэлігіяи
рэлігіі
рэліз
рэліи
рэн
рэнесанс
рэнесансу
рэнс
рэнтгенау
рэнціи
рэнція
рэнэ
рэп
рэпартаж
рэпарце
рэпертуар
рэпертуару
рэпертуары
рэпрэсаваны
рэпрэсаваныя
рэпрэсіи
рэпрэсіі
рэпутацыю
рэпіна
рэс
рэспу
рэспубл
рэспублік
рэспубліка
рэспублікаи
рэспубліканскага
рэспубліканскае
рэспубліканскаи
рэспубліканская
рэспубліканскую
рэспубліканскі
рэспубліканскім
рэспубліканскіх
рэспубліканскія
рэспубліканцау
рэспубліканцы
рэспубліку
рэспублікі
рэспубліцы
рэстаран
рэстарана
рэстау
рэсурс
рэсурсамі
рэсурсау
рэсурсы
рэтраспектыу
рэу
рэфармацыі
рэферэндум
рэферэндуме
рэферэндуму
рэформ
рэформа
рэформаи
рэформау
рэформе
рэформу
рэформы
рэха
рэцэнзія
рэцэнзіі
рэцэпт
рэч
рэчак
рэчау
рэчаіснасць
рэчаіснасці
рэчаісных
рэчка
рэчку
рэчкі
рэчцы
рэччу
рэчы
рэчыва
рэчывам
рэчывамі
рэчывау
рэчывы
рэчыца
рэчыцкага
рэчыцкаи
рэчыцкі
рэчыцкім
рэчыцы
рэчышча
рэчышчы
рэш
рэшт
рэшта
рэштак
рэшткамі
рэшткау
рэшткі
рэшту
рэшце
рэя
рэям
рэямі
рэяу
рэі
ряды
с
са
саау
сабак
сабака
сабакамі
сабаку
сабакі
сабалеу
сабе
сабои
сабор
сабора
саборам
саборау
сабору
саборы
сабою
сабрала
сабралася
сабралі
сабраліся
сабрана
сабраны
сабраных
сабраныя
сабрау
сабраць
сава
саве
савет
савета
саветам
саветау
саветнік
саветніка
саветнікам
саветнікау
савету
саветы
савеце
савецка
савецкага
савецкае
савецкаи
савецкая
савецкую
савецкі
савецкім
савецкімі
савецкіх
савецкія
[...]
