!
"
#
##0
##1
##10
##11
##12
##13
##14
##15
##16
##17
##18
##19
##2
##20
##21
##22
##23
##24
##25
##26
##27
##28
##29
##3
##30
##31
##32
##33
##34
##35
##36
##37
##38
##39
##4
##40
##41
##42
##43
##44
##45
##46
##47
##48
##49
##5
##50
##51
##52
##53
##54
##55
##56
##57
##58
##59
##6
##60
##61
##62
##63
##64
##65
##66
##67
##68
##69
##7
##70
##71
##72
##73
##74
##75
##76
##77
##78
##79
##8
##80
##81
##82
##83
##84
##85
##86
##87
##88
##89
##9
##90
##91
##92
##93
##94
##95
##96
##97
##98
##99
$
%
&
'
(
)
*
+
,
-
.
/
0
00
000
001
002
003
004
005
008
01
010
011
012
0141
015
02
0251
0279
03
030
0302
0303
031
035
037
0373
0389
039
04
05
06
07
079
08
09
095
1
10
100
1000
10000
1001
1002
1003
1004
1005
1009
101
1010
1012
1015
1016
1017
1018
102
1020
1023
1024
1025
1026
103
1030
1031
1032
1034
1035
1038
104
1040
1042
1044
1046
105
1050
1054
1055
106
1060
1061
1063
1065
1066
1067
107
1070
1071
1073
1076
1077
1078
108
1080
1085
1086
1087
109
1090
1093
1094
1095
1096
1097
11
110
1100
1101
1102
1103
1105
111
1110
1111
1113
1116
1118
112
1120
1122
1125
1126
1127
1128
1129
113
1130
1132
1134
1135
1136
1137
1138
1139
114
1140
1142
1143
1146
1147
115
1150
1151
1152
1154
1155
1156
1157
1158
1159
116
1160
1161
1162
1167
117
1170
1171
1173
1176
1177
118
1180
1184
1185
1186
1187
1188
1189
119
1190
1191
1192
1194
1195
1196
1197
1198
1199
12
120
1200
1201
1202
1203
1204
1205
1206
1207
1208
1209
121
1210
1211
1212
1213
1214
1215
1216
1217
1218
1219
122
1220
1221
1222
1223
1225
1226
1227
1228
1229
123
1230
1231
1232
1234
1235
1236
1237
1238
1239
124
1240
1241
1242
1244
1246
1247
1248
1249
125
1250
1251
1252
1253
1254
1255
1256
1257
1258
1259
126
1260
1261
1262
1263
1264
1265
1266
1267
1268
127
1270
1271
1272
1273
1274
1276
1277
1278
1279
128
1280
1282
1284
1285
1286
1287
1288
129
1290
1291
1292
1294
1295
1296
13
130
1300
1301
1302
1304
1305
1306
1307
1308
1309
131
1310
1311
1312
1314
1315
1316
1317
1318
1319
132
1320
1321
1322
1323
1324
1325
1326
1327
1328
1329
133
1330
1331
1332
1335
1336
1337
134
1340
1341
1342
1343
1345
1346
1347
1348
1349
135
1350
1351
1352
1353
1355
1356
1358
136
1360
1361
1362
1363
1364
1365
1366
1367
1368
1369
137
1370
1371
1372
1375
1376
1377
1378
1379
138
1380
1381
1382
1383
1384
1385
1386
1387
1388
1389
139
1390
1391
1392
1393
1394
1395
1396
1397
1398
1399
14
140
1400
1401
1402
1404
1405
1406
1407
1408
1409
141
1410
1411
1412
1413
1414
1415
1416
1417
1418
1419
142
1420
1421
1422
1423
1424
1425
1427
1428
1429
143
1430
1431
1432
1433
1434
1435
1436
1437
1438
1439
144
1440
1441
1442
1443
1444
1445
1446
1447
1448
1449
145
1450
1451
1452
1453
1454
1455
1456
1457
1458
1459
146
1460
1461
1462
1463
1464
1465
1466
1467
1468
1469
147
1470
1471
1472
1473
1474
1475
1476
1477
1478
1479
148
1480
1481
1482
1483
1484
1485
1486
1487
1488
149
1490
1491
1492
1493
1494
1495
1496
1497
1498
1499
15
150
1500
15000
1501
1502
1503
1504
1505
1506
1507
1508
1509
151
1510
1511
1512
1513
1514
1515
1516
1517
1518
1519
152
1520
1521
1522
1523
1524
1525
1526
1527
1528
1529
153
1530
1531
1532
1533
1534
1535
1536
1537
1538
1539
154
1540
1541
1542
1543
1544
1545
1546
1547
1548
1549
155
1550
1551
1552
1553
1554
1555
1556
1557
1558
1559
156
1560
1561
1562
1563
1564
1565
1566
1567
1568
1569
157
1570
1571
1572
1573
1574
1575
1576
1577
1578
1579
158
1580
1581
1582
1583
1584
1585
1586
1587
1588
1589
159
1590
1591
1592
1593
1594
1595
1596
1597
1598
1599
16
160
1600
1601
1602
1603
1604
1605
1606
1607
1608
1609
161
1610
1611
1612
1613
1614
1615
1616
1617
1618
1619
162
1620
1621
1622
1623
1624
1625
1626
1627
1628
1629
163
1630
1631
1632
1633
1634
1635
1636
1637
1638
1639
164
1640
1641
1642
1643
1644
1645
1646
1647
1648
1649
165
1650
1651
1652
1653
1654
1655
1656
1657
1658
1659
166
1660
1661
1662
1663
1664
1665
1666
1667
1668
1669
167
1670
1671
1672
1673
1674
1675
1676
1677
1678
1679
168
1680
1681
1682
1683
1684
1685
1686
1687
1688
1689
169
1690
1691
1692
1693
1694
1695
1696
1697
1698
1699
17
170
1700
1701
1702
1703
1704
1705
1706
1707
1708
1709
171
1710
1711
1712
1713
1714
1715
1716
1717
1718
1719
172
1720
1721
1722
1723
1724
1725
1726
1727
1728
1729
173
1730
1731
1732
1733
1734
1735
1736
1737
1738
1739
174
1740
1741
1742
1743
1744
1745
1746
1747
1748
1749
175
1750
1751
1752
1753
1754
1755
1756
1757
1758
1759
176
1760
1761
1762
1763
1764
1765
1766
1767
1768
1769
177
1770
1771
1772
1773
1774
1775
1776
1777
1778
1779
178
1780
1781
1782
1783
1784
1785
1786
1787
1788
1789
179
1790
1791
1792
1793
1794
1795
1796
1797
1798
1799
18
180
1800
1801
1802
1803
1804
1805
1806
1807
1808
1809
181
1810
1811
1812
1813
1814
1815
1816
1817
1818
1819
182
1820
1821
1822
1823
1824
1825
1826
1827
1828
1829
183
1830
1831
1832
1833
1834
1835
1836
1837
1838
1839
184
1840
1841
1842
1843
1844
1845
1846
1847
1848
1849
185
1850
1851
1852
1853
1854
1855
1856
1857
1858
1859
186
1860
1861
1862
1863
1864
1865
1866
1867
1868
1869
187
1870
1871
1872
1873
1874
1875
1876
1877
1878
1879
188
1880
1881
1882
1883
1884
1885
1886
1887
1888
1889
189
1890
1891
1892
1893
1894
1895
1896
1897
1898
1899
19
190
1900
1901
1902
1903
1904
1905
1906
1907
1908
1909
191
1910
1911
1912
1913
1914
1915
1916
1917
1918
1919
192
1920
1921
1922
1923
1924
1925
1926
1927
1928
1929
193
1930
1931
1932
1933
1934
1935
1936
1937
1938
1939
194
1940
1941
1942
1943
1944
1945
1946
1947
1948
1949
195
1950
1951
1952
1953
1954
1955
1956
1957
1958
1959
196
1960
1961
1962
1963
1964
1965
1966
1967
1968
1969
197
1970
1971
1972
1973
1974
1975
1976
1977
1978
1979
198
1980
1981
1982
1983
1984
1985
1986
1987
1988
1989
199
1990
1991
1992
1993
1994
1995
1996
1997
1998
1999
2
20
200
2000
20000
2001
2002
2003
2004
2005
2006
2007
2008
2009
201
2010
2011
2012
2013
2014
2015
2016
2017
2018
2019
202
2020
2021
2022
2023
203
2030
204
205
206
207
208
209
21
210
2100
211
212
213
214
215
216
217
218
219
22
220
2200
221
222
223
224
225
226
227
228
229
23
230
2300
231
232
233
234
235
236
237
238
239
24
240
2400
241
242
243
244
245
246
247
248
249
25
250
2500
251
252
253
254
255
256
257
258
259
26
260
2600
261
262
263
264
265
266
267
268
269
27
270
2700
271
272
273
274
275
276
277
278
279
28
280
2800
281
282
283
284
285
286
287
288
289
29
290
291
292
293
294
295
296
297
298
299
3
30
300
3000
301
302
303
304
305
306
307
308
309
31
310
311
312
313
314
315
316
317
318
319
32
320
3200
321
322
323
324
325
326
327
328
329
33
330
331
332
333
334
335
336
337
338
339
34
340
341
342
343
344
345
346
347
348
349
35
350
3500
351
352
353
354
355
356
357
358
359
36
360
361
362
363
364
365
366
367
368
369
37
370
371
372
373
374
375
376
377
378
379
38
380
381
382
383
384
385
386
387
388
389
39
390
391
392
393
394
395
3950665
396
397
398
399
4
40
400
4000
401
402
403
404
405
406
407
408
409
41
410
411
412
413
414
415
416
417
418
419
42
420
421
422
423
424
425
426
427
428
429
43
430
431
432
433
434
435
436
437
438
439
44
440
441
442
443
444
445
446
447
448
449
45
450
4500
451
452
453
454
455
456
457
458
459
46
460
461
462
463
464
465
466
467
468
469
47
470
471
472
473
474
475
476
477
478
479
48
480
481
482
483
484
485
486
487
488
489
49
490
491
492
493
494
495
496
497
498
499
5
50
500
5000
501
502
503
504
505
506
507
508
509
51
510
511
512
513
514
515
516
517
518
519
52
520
521
522
523
524
525
526
527
528
529
53
530
531
532
533
534
535
536
537
538
539
54
540
541
542
543
544
545
546
547
548
549
55
550
5500
551
552
553
554
555
556
557
558
559
56
560
561
562
563
564
565
566
567
568
569
57
570
571
572
573
574
575
576
577
578
579
58
580
581
582
583
584
585
586
587
588
589
59
590
591
592
593
594
595
596
597
598
599
6
60
600
6000
601
602
603
604
605
606
607
608
609
61
610
611
612
613
614
615
616
617
618
619
62
620
621
622
623
624
625
626
627
628
629
63
630
631
632
633
634
635
636
637
6374
638
639
64
640
641
642
643
644
645
646
647
648
649
65
650
652
653
654
655
656
657
658
659
66
660
661
662
663
664
665
666
667
668
669
67
670
671
672
673
674
675
676
677
678
679
68
680
681
682
683
684
685
686
687
688
69
690
691
692
694
695
696
697
699
7
70
700
7000
701
702
703
704
705
706
707
708
709
71
710
711
712
714
715
716
717
718
719
72
720
721
722
725
726
727
73
730
731
732
733
734
735
736
737
738
74
740
741
742
743
744
745
747
748
749
75
750
751
752
754
755
756
76
760
764
765
766
767
768
77
770
772
773
774
775
776
777
778
78
780
781
783
787
788
79
790
792
797
8
80
800
8000
801
802
804
805
806
807
808
81
810
811
812
814
815
816
817
818
819
82
820
821
822
823
825
826
827
829
83
830
831
833
835
839
84
840
841
842
843
844
845
846
848
85
850
852
85270
853
855
85700
858
86
860
862
863
864
866
867
87
870
871
874
875
876
877
878
879
88
880
881
882
884
885
886
887
888
89
890
891
892
893
894
895
896
898
9
90
900
9000
901
902
904
907
908
909
91
910
911
912
914
915
918
919
92
920
921
922
9223372036854775808
923
924
925
926
927
928
929
93
930
931
932
933
935
936
937
938
939
94
940
942
944
945
95
950
951
952
953
954
955
958
959
96
960
961
962
963
964
965
966
968
969
97
970
971
972
973
975
976
977
978
979
98
980
982
983
984
985
986
987
988
989
99
990
992
994
995
996
997
999
:
;
<
=
>
?
@
\
^
_
`
a
aa
ab
abc
abo
about
abs
ac
academia
academic
academy
access
accessed
act
acta
action
ad
adam
add
adventure
ae
af
affairs
afghanistan
africa
african
aftanazy
after
ag
agad
again
against
age
agency
ah
ai
aiesec
air
aj
aje
ak
akademii
al
alba
albert
album
ale
alexander
ali
alice
align
alignbars
all
allium
alpha
already
also
alt
am
america
american
amnesty
amphora
amu
an
analysis
ancient
and
andrew
android
andrzej
angeles
ani
ann
anna
anne
anniversary
another
ant
anti
antoni
antonio
any
ao
ap
apple
apr
april
ar
archaeological
archaeology
arche
architecture
archive
archives
archiwum
are
area
arg
args
arguments
ark
armenia
armenian
arms
army
around
arp
arr
array
art
arte
article
articles
artificial
artist
arts
artsiom
as
asia
asp
aspx
association
ast
aston
at
atlas
attack
au
audi
audio
auf
auflage
aug
august
aus
australia
australian
author
auto
av
available
avenue
award
awards
az
azerbaijan
b
ba
bac
back
background
backgroundcolors
bad
bafta
band
bank
bar
barbara
barcelona
bardata
barincrement
barra
bas
base
based
basic
battle
bb
bbc
bc
bd
be
beatles
been
before
begin
bei
being
bel
belarus
belarusian
belisrael
bell
belta
benz
ber
berlin
best
beta
better
between
beyond
bf
bg
bh
bi
białoruskie
białystok
bible
biblioteka
biełarusi
big
billboard
biograficzny
biography
bioshock
bis
bl
black
bladyniec
blog
blood
blr
blue
blues
bmw
bo
board
body
boeing
boh
boha
bols
book
books
border
boston
bot
bottom
box
boy
boz
br
brasław
break
bridge
britain
britannica
british
broadway
bronze
bros
brothers
brown
bry
bs
bsu
bu
budzie
budzma
building
bull
bulletin
bur
business
but
by
byc
byli
byu
była
było
bz
c
ca
california
call
cambridge
can
canada
canadian
canvas
capital
car
card
carl
case
cases
castle
cat
catalogue
category
cathedral
catholic
cb
cc
cd
cdot
cdots
ce
cell
census
center
central
centre
century
cfg
ch
cha
challenge
champion
championat
champions
championship
change
changes
channel
chapter
character
characters
charles
che
check
chemistry
chess
chi
chicago
child
children
china
chinese
choc
choice
christian
chto
church
chv
ci
cia
ciapier
cie
cio
circ
circle
cit
citation
cite
cities
city
civil
civilization
ck
claim
claims
class
classic
classical
classification
cleve
club
cm
cn
cnn
co
coa
coat
cobar
code
collection
college
color
colors
columbia
com
come
comics
command
committee
common
commons
community
companion
company
complete
computer
comune
con
conference
conflict
congress
contemporary
content
contest
context
contributions
control
copy
corporation
cos
could
council
count
countries
country
coupe
court
covid
cp
cq
cr
create
creative
crisis
cross
cs
css
cu
cuetracker
culamar
cultural
culture
cultures
cup
current
cv
cy
cz
cze
czy
d
da
dag
daily
dance
daniel
dans
dark
darkgrey
das
data
database
datavalue
date
dateformat
dau
david
dawnych
day
days
db
dc
dd
de
dead
deal
death
dec
december
deep
default
dei
del
dell
della
delta
dem
den
department
der
des
desc
description
design
det
details
deutsche
deutschen
deutschland
development
di
dictionary
die
different
digital
dir
discovery
disease
disney
display
disponibile
div
division
dj
dk
dla
dna
dnia
do
dobrybrat
doc
does
doi
dom
don
done
dos
dot
dots
double
down
dr
dragon
dream
druk
drupal
ds
dt
du
duniłowicze
dur
during
dus
dv
dvd
dx
dy
dyk
dz
dzianis
dzie
dzieje
dziejo
dziela
dzien
dztwo
e
ea
each
early
earth
east
eastern
eberhardt
ec
eclipse
economic
economics
economy
ed
edit
edited
editing
edition
editor
editors
eds
edu
education
edward
effect
egypt
ein
eine
ej
ek
el
elections
electronic
else
elseif
em
empire
empty
en
encyclopaedia
encyclopedia
encyclopædia
encyklopedia
end
energy
england
english
ensign
entertainment
entity
entityid
entry
ep
er
err
error
es
esc
eso
esperanto
est
et
etc
ethiopia
ethnic
eu
euro
eurobelarus
europa
europe
european
eurovision
evidence
evolution
ex
example
exhibition
experty
express
extragalactic
f
fa
facebook
factbook
facts
fall
false
family
far
fc
fe
feature
feb
february
fed
feedback
festival
fet
ff
fi
fiat
field
fifa
file
files
film
final
find
fire
first
five
flag
flora
fm
fmt
fn
fo
folk
folklore
fontsize
food
football
for
forbes
force
forces
ford
foreign
forest
form
format
formowanie
forum
found
foundation
four
fox
fr
fra
frac
frame
franc
france
francis
frank
frankfurt
frantishak
free
freedom
french
friedrich
from
front
ft
fu
full
function
future
g
ga
gallery
gam
game
games
gamma
garden
gazeta
gazetteer
gdan
ge
gen
general
generation
genocide
genus
geographic
george
georgia
geos
german
germany
germplasm
geschichte
get
gfx
gif
giovanni
girl
given
gje
global
gmbh
gnu
go
god
gold
golden
golf
good
google
gov
government
gr
grammar
grand
grande
granicy
gray
great
greece
greek
green
gridcolor
grin
group
groups
gruszecki
grzebien
gsub
gt
gu
guardian
guide
guitar
gło
h
ha
had
hair
hall
handbook
handler
hans
hanylka
hard
harvard
has
haslo
hat
have
hbar
hd
he
head
header
health
heart
height
heinrich
heliconius
hello
help
henry
her
here
heritage
heta
hety
hetym
hi
hiddencat
high
hill
his
histoire
historia
historical
historii
history
historyczne
hms
ho
holothuria
holy
home
homiel
homo
hope
hot
house
how
hp
hrsg
htm
html
http
https
hu
human
hunter
hyundai
i
ia
iau
ib
ibid
ibm
ibu
ic
ice
ich
icon
id
identity
ie
ieho
if
ii
iii
ikarus
il
im
image
images
imagesize
imdb
img
imperial
in
inc
increment
independent
index
india
indian
indians
indonesia
infinite
info
infobox
information
infty
input
ins
insert
inside
instagram
institute
instytut
int
intel
inter
international
internet
interview
interwiki
into
introduction
io
ios
ip
ipairs
iphone
ipv
ir
iran
iraq
iras
ireland
irish
irk
is
isbn
island
islands
iso
israel
issn
issue
istat
it
italia
italian
italy
item
its
iu
ius
iv
iva
ivan
ix
iz
j
ja
jaho
jaje
jak
james
jamu
jan
jana
january
jany
japan
japanese
jas
java
jazz
je
jean
jej
jerzykundrat
jewish
jezuitach
jezus
jo
john
johnson
join
jon
jones
jos
joseph
journal
jpeg
jpg
js
ju
jul
july
jun
june
jurkowski
just
justify
jw
k
ka
kab
kag
kaj
kal
kali
kalinowski
kar
kara
karabakh
karl
kas
kaz
kcpg
ke
kem
key
kg
kha
ki
kiev
killed
king
kingdom
kir
km
kniaz
kniazia
know
ko
koda
kom
korean
kos
koz
kra
kraj
krako
krakow
krakowie
kresach
krm
kro
krylowicz
ks
ksia
ksie
kto
ku
kug
kunst
kur
kurier
kya
kyiv
kyrka
l
la
label
lada
lady
lake
lambda
land
lang
langle
language
languages
las
last
lat
latach
late
latin
law
layer
lb
ldots
le
league
lee
left
legacy
legend
leipzig
len
length
lenta
leo
leqslant
les
let
letter
letters
level
lexikon
li
liashko
libero
library
libya
lietuviu
lietuvos
life
light
lightgrey
like
lim
limited
limits
lincoln
line
linegrey
lines
link
links
linnaeus
linux
lip
list
literature
litewski
litewskie
litewskiego
lithuania
lithuanian
little
litwy
liv
live
livejournal
lives
ll
ln
lo
loc
local
log
logo
london
long
look
lord
los
lost
louis
love
lower
lp
lt
ltd
lu
lublin
ludnos
ludziej
lv
lwo
m
ma
mac
machine
macmillan
made
madonna
mag
magazine
magic
mai
mail
main
mainsnak
maja
maje
major
make
making
man
management
many
map
maps
mar
march
mare
maria
marie
mario
mark
mars
martin
marvel
mary
mass
master
masters
match
math
mathbb
mathbf
mathcal
mathrm
max
may
mbox
mc
mcg
md
me
med
medal
media
mediawiki
medical
medieval
meeting
mega
mem
members
memorial
memory
men
mercedes
message
meta
metal
metro
mexico
mg
mi
mianie
michael
microsoft
middle
mie
miejscowos
miensk
milano
military
million
min
mini
minor
minsk
missing
mission
mit
mk
mm
mn
mnie
mo
mobile
mode
model
modern
module
moj
moll
month
monument
moon
mor
more
mos
moscow
most
motor
mount
move
movement
movie
moz
mp
mr
ms
msk
mtv
mu
muse
museum
music
must
muz
muzeum
mw
my
mys
n
na
nabla
nad
nagorno
naj
naja
najnowsze
nam
name
names
namespace
narod
narodu
nas
nasa
nashaniva
nat
nation
national
nations
native
natural
nature
nauk
naukowe
naval
naviny
nchen
nd
ne
near
need
nes
net
network
neue
never
new
news
newsletter
newsru
next
nf
ng
ngc
ngr
nh
ni
nia
niadbajla
nic
nie
night
nija
nil
nintendo
niz
nl
nn
no
nobel
node
nom
non
none
north
northern
nos
not
note
notes
notoc
nov
nova
november
now
npm
nr
ns
nt
nu
nuclear
num
number
nvs
ny
nych
o
och
ocl
oct
october
od
odri
of
off
office
official
og
oh
ohlumon
oil
oj
old
om
omega
oms
on
one
online
only
op
open
opera
operation
operatorname
options
or
orange
orda
order
ore
org
organization
orientation
origin
original
origins
orl
os
ot
other
otto
ou
our
out
output
over
overline
overview
oxford
p
pa
pac
pacific
pad
page
pages
pairs
pal
palace
pamie
pan
pana
paper
par
param
parameter
parameters
paris
park
parms
part
partial
partner
party
pas
past
pattern
pau
paul
pawet
pc
pdf
pe
peace
penguin
people
peoples
per
period
peter
pg
pgc
ph
phcap
phd
phi
philosophy
photo
php
phys
physics
pi
pictures
pie
pierre
piers
pies
pietro
piotr
pl
place
plain
plan
planet
plant
plants
play
player
players
playstation
please
plik
plotarea
plotdata
plus
pm
pmatrix
pmid
pn
png
pnz
po
pod
point
pol
poland
policy
polish
political
politics
polo
polsce
polska
polski
polskich
polskie
polskiego
polskiej
poly
pop
population
porsche
port
portal
portrait
pos
position
possible
post
pour
power
powiaty
poz
poznan
pp
pq
pr
pra
prac
pracar
praha
prau
praz
pre
precision
prefix
present
president
press
pri
princeton
print
prize
pro
proc
proceedings
process
product
production
profile
program
project
projects
properties
property
provincia
pry
przegla
przez
ps
psi
psk
pt
ptc
public
publication
publications
published
publishers
publishing
punk
pwn
px
q
qid
qquad
quad
qualifier
qualifiers
que
queen
questions
qui
r
ra
race
racing
radialis
radio
radzima
range
rangle
rank
ras
ray
raz
rd
re
read
reading
real
record
records
rect
red
ref
reference
region
regional
regnum
relations
release
religion
remix
remove
renault
report
republic
require
res
research
resources
result
results
ret
retrieved
return
returns
reuters
rev
review
revolution
rgb
rho
ri
ria
ribbon
richard
right
rightarrow
rights
rise
river
rn
ro
road
robert
rock
rocznik
roku
role
rolling
rom
roma
roman
rome
ros
route
routledge
row
royal
rr
rs
rt
rtn
ru
run
rus
rusi
russia
russian
rya
ryanair
rymchonak
rynak
rzeczypospolitej
s
sa
sabie
sah
saint
salon
sam
same
san
sant
santa
sar
saros
says
sb
sba
sbb
sbc
sc
scale
scalemajor
scaleminor
school
sci
science
sciences
scientific
se
sea
search
season
second
secret
section
security
see
sega
segreteria
selected
self
senat
senatopracowania
seniu
sep
separator
september
series
service
set
sex
sfondo
share
shift
shoot
short
should
show
si
sia
side
sie
sigma
sign
silver
sim
simbad
simon
sims
sin
since
sindaco
single
sio
sir
site
sites
situation
six
size
sk
ska
skaja
skazau
ski
skich
skie
skiego
skiej
skorowidz
sky
sl
slounik
sm
small
smith
smo
snak
snooker
so
soc
social
society
software
solar
some
son
song
songs
sony
soul
sound
source
sources
south
southern
soviet
sp
space
spain
spanish
special
species
specified
speed
split
spo
sport
sports
spring
sputnik
sqrt
square
sr
ss
st
sta
stachlysy
stage
stamp
stan
standard
stanisław
star
stars
start
state
statement
states
station
statistics
status
statystyczny
steam
stephen
still
sto
stockholm
stone
stop
stories
story
str
strategy
street
string
structure
studia
studies
studio
studios
study
stuttgart
stwa
stwo
style
su
sub
subsp
subway
sum
summer
sun
super
support
sur
survey
sv
svaboda
sve
svenska
svg
sw
swajej
sweden
swedish
swift
switch
sygn
symbol
syn
syria
system
systems
szpoper
szto
słownik
słuz
t
ta
tab
table
tacitus
tadeusz
tady
tag
taho
tak
take
talk
tam
tarasievich
target
tat
tau
taxonomy
taylor
te
team
teams
technical
technology
telegraph
template
ten
terminus
test
texas
text
textcolor
textdata
tg
tgv
th
than
that
the
theatre
their
them
then
theory
there
these
theta
they
third
this
thomas
three
through
thumb
ti
tiffani
tig
tigray
till
time
timeaxis
times
tipb
tipe
titb
tite
title
tityus
tmp
to
today
toj
tolki
tom
tomasz
tonumber
tool
tools
top
toronto
tort
tostring
total
tour
tower
town
toyota
tr
tra
trade
traditional
trans
translate
translated
translation
translations
travel
tre
treba
tree
tribe
tribuna
trim
true
try
ts
tt
tu
tul
tut
tv
tve
twitter
two
ty
tym
type
tyu
u
ua
uc
uci
udm
ugc
uk
ukraine
ukrainian
ultimate
uly
um
un
und
undefined
under
une
unesco
union
unit
united
units
universal
university
uniwersytetu
unix
unknown
up
upload
upper
upright
ur
urban
url
urza
us
usa
use
used
user
users
usie
using
usio
ussr
ustring
utc
utilities
utype
uz
v
va
val
valley
value
values
van
var
varepsilon
varphi
vcc
ve
vec
ver
verlag
version
vertical
very
vgg
vi
via
viciebsk
victoria
video
vie
vietnam
view
vii
viii
village
vilnius
virgin
virtual
virus
visual
visualeditor
vita
vizier
vla
vladimir
vladimirzhv
vlg
vo
vol
voli
volkswagen
volume
vom
von
vor
vs
vv
vw
w
wa
wall
walter
wam
want
war
warner
wars
warszawa
warszawie
was
washington
watch
water
way
we
web
website
weekly
weliki
welikoho
well
were
west
western
what
wheeler
when
where
which
while
white
who
why
wi
wiatowej
wid
width
wie
wiedzy
wieku
wielkiego
wien
wiki
wikibase
wikidata
wikimedia
wikipedia
wikipedias
wikis
wikisource
wikitext
wild
wilejka
wilen
wilhelm
will
william
williams
wilno
wilson
windows
winter
with
without
wizardist
wmf
wny
wo
wojewo
wojnie
wolumin
woman
women
word
work
working
works
world
wos
would
woyniłłowicz
wp
wrocław
wschodniej
wspomnienia
wu
www
wy
wyd
wydawnictwo
wykaz
x
xbox
xi
xii
xiii
xiv
xix
xv
xvi
xvii
xviii
xx
xxi
xxii
xxiii
xxiv
xxv
xxvi
xxvii
xxx
y
ya
yale
yar
yc
ych
year
years
yellow
yja
ym
yn
yna
york
you
young
your
youtube
yu
yury
yyyy
z
za
zab
zabej
zalez
ze
zef
zero
ziemia
ziemiach
znac
zu
zum
zur
zviazda
zw
zwg
{
|
}
~
¡
£
¦
§
©
«
­
®
°
±
²
³
´
µ
·
¹
º
»
¼
½
¾
×
æ
ð
ø
ı
ł
ła
ə
ʃ
ʒ
ʰ
ʲ
ʷ
ʹ
ʻ
ʼ
ʿ
ˁ
ˈ
ː
̀
́
̂
̃
̄
̅
̆
̇
̈
̉
̊
̋
̌
̏
̑
̓
̔
̛
̣
̥
̦
̧
̨
̯
̱
̶
͂
ͅ
͡
α
β
γ
δ
ε
η
θ
ι
λ
μ
ν
ο
π
ρ
ς
σ
υ
φ
χ
ψ
ω
а
аа
аан
аат
ааэ
аб
аба
абавязак
абавязаны
абавязау
абавязацельствау
абавязацельствы
абавязкам
абавязкау
абавязкова
абавязковаи
абавязковы
абавязковым
абавязковыя
абавязку
абавязкі
абагау
абазвау
абазначае
абазначаецца
абазначаюць
абазначэнне
абазначэння
абазначэннямі
абазначэнні
абаи
абалонка
абалонкаи
абалонкі
абапал
абапе
абапіраецца
абапірау
абапіраюцца
абапіраючыся
абараняе
абараняла
абаранялі
абараняу
абараняць
абараніла
абараніу
абараніць
абарачэнне
абарачэння
абарона
абаронаи
абароне
абаронены
абарону
абаронца
абаронцам
абаронцау
абаронцы
абарончага
абарончаи
абарончы
абарончых
абарончыя
абароны
абарот
абароту
абарыгенау
абас
абацтва
абацтве
абвастрэння
абвешчана
абвешчаная
абвешчаны
абвясціла
абвясцілі
абвясціу
абвясціць
абвяшчае
абвяшчалася
абвяшчаліся
абвяшчау
абвяшчэнне
абвяшчэння
абвяшчэнні
абвінавау
абвінаваціла
абвінавацілі
абвінаваціу
абвінавачанне
абвінавачанні
абвінавачаны
абвінавачаных
абвінавачвалі
абвінавачванне
абвінавачвання
абвінавачванняу
абвінавачванні
абвінавачвау
абгрунтаванне
абгрунтавання
абгрунтавау
абгрунтоу
абд
абдул
абдэль
абед
абедзве
абедзвюх
абедзьве
абеду
абезгалоу
абеліск
абкама
абкружаны
аблажылі
аблажыу
абласная
абласнога
абласнои
абласны
абласным
абласных
абласныя
абласцеи
абласцямі
абласцях
аблвыканкама
аблога
аблогу
аблогі
аблозе
аблокау
аблокі
абломкі
аблямоу
абліцоу
аблічча
абліччы
абмежавана
абмежаванага
абмежаванаи
абмежаваная
абмежаванне
абмежавання
абмежаванняу
абмежаванні
абмежаваны
абмежаваным
абмежаваныя
абмежавау
абмежаваць
абмен
абмену
абмеркаванне
абмеркавання
абмеркаванні
абмеркаваць
абмываецца
абмяжоу
абмяркоу
абнау
абнесены
абноу
абняу
або
абодва
абодвум
абодвума
абодвух
абое
абоз
абрад
абрадау
абрадзе
абраду
абрады
абраз
абраза
абразкі
абразок
абразом
абразоу
абразы
абрала
абралі
абрам
абрамавіч
абрамовіч
абрана
абранага
абраная
абранне
абрання
абраны
абраным
абраных
абраныя
абрау
абраць
абрысы
абрэвіятура
абсалютна
абсалютнаи
абсалютная
абсалютную
абсалютны
абсе
абсерваторыя
абсерваторыі
абследавау
абслугоу
абставін
абставінах
абставіны
абстале
абсталявана
абсталяванне
абсталяваннем
абсталявання
абсталяваны
абстаноу
абстрэл
абстрэлу
абу
абумовіла
абумоу
абурэнне
абурэння
абутак
абутку
абухау
абуховіч
абхазія
абхазіі
абшар
абшарах
абшары
абшчын
абшчына
абшчыне
абшчыну
абшчыны
абы
абыграу
абыи
абыход
абыходзіцца
абышоу
абярнулася
абярнуу
абяцае
абяцала
абяцалі
абяцанне
абяцанні
абяцау
абірае
абіраецца
абірау
абіраюцца
авалодалі
авалодау
авалодаць
авальнаи
авальныя
авангард
аварыи
аварыі
августа
аве
авен
авеню
аверс
авечак
авечкі
авт
автор
автореферат
авінье
авіякампанія
авіякампаніі
авіяу
авіяцыи
авіяцыя
авіяцыяи
авіяцыі
аг
ага
агароджа
агароджаи
агароджы
агароднікі
агата
агая
агент
агента
агентам
агентау
агентство
агенты
агенцтва
агламерацыі
агледзеу
агляд
аглядальнік
аглядау
аглядзе
агляду
агляды
агне
агню
агнястрэльнаи
агні
агонь
агра
аграгарадка
аграгарадку
аграгарадкі
аграгарадок
аграном
аграрна
аграрнага
аграрнаи
аграрная
аграрны
аграрных
агрэгаты
агрэсіу
агрэсіі
агул
агулам
агульна
агульнаадукацыи
агульнаваи
агульнага
агульнадзяржау
агульнае
агульнаеу
агульнаи
агульнаму
агульная
агульную
агульны
агульным
агульнымі
агульных
агульныя
агюст
агінскага
агінскі
агінскіх
агітацыи
агітацыю
агітацыі
ад
ада
адабрала
адабралі
адабрау
адабраць
адазвау
адам
адама
адамавіч
адамам
адамау
адамовіч
адамовіча
адамс
адаму
адаптацыі
адарвау
адбор
адборачным
адбору
адбудаваны
адбудзецца
адбываецца
адбывалася
адбываліся
адбывау
адбывацца
адбываюцца
адбылася
адбылося
адбыліся
адбыу
адбыцца
адбіваецца
адбівау
адбілася
адбілі
адбіліся
адбітак
адбіты
адбіу
адбіць
адв
адвагу
адвагі
адважна
адважны
адважыу
адвакат
адваката
адвакатам
адвакатау
адвакаты
адвар
адваротны
адваротным
адве
адведзена
адвесці
адводзіць
адвярнуу
адгалінаванні
адгор
адгукнуу
адгуляу
адгэтуль
аддавалі
аддавау
аддаваць
аддадзена
аддадзены
аддае
аддаецца
аддаи
аддала
аддаленых
аддалі
аддам
адданасць
адданы
аддау
аддаць
аддаюць
аддаючы
аддзел
аддзела
аддзелам
аддзелау
аддзеле
аддзелена
аддзелены
аддзелу
аддзелы
аддзяленне
аддзяленнем
аддзялення
аддзяленняу
аддзяленні
аддзяляе
аддзяляецца
аддзяліу
адз
адзежу
адзежы
адзенне
адзення
адзенні
адзнак
адзнака
адзнакаи
адзнаку
адзнакі
адзначае
адзначаецца
адзначалася
адзначалі
адзначаліся
адзначана
адзначаны
адзначау
адзначаюцца
адзначаюць
адзначаючы
адзначыла
адзначылі
адзначыу
адзначыць
адзін
адзінага
адзінае
адзінаи
адзінак
адзінаццаць
адзінаццаці
адзіная
адзінка
адзінкавыя
адзінкаи
адзінкамі
адзінках
адзінку
адзінкі
адзінокі
адзіноце
адзіночнага
адзіночны
адзіночным
адзіночныя
адзінства
адзіную
адзіны
адзіным
адзінымі
адзіныя
адк
адказ
адказала
адказалі
адказам
адказау
адказаць
адказвае
адказвала
адказвалі
адказвау
адказваць
адказваюць
адказваючы
адказнага
адказнасць
адказнасці
адказны
адказным
адказных
адказныя
адказу
адказы
адкб
адкладамі
адкладау
адкладах
адклады
адкліканы
адкрывае
адкрываецца
адкрываюцца
адкрыла
адкрылася
адкрылі
адкрыліся
адкрыта
адкрытага
адкрытае
адкрытаи
адкрытая
адкрытую
адкрыты
адкрытым
адкрытымі
адкрытых
адкрытыя
адкрыу
адкрыцце
адкрыцця
адкрыццяу
адкрыцці
адкрыць
адкуль
адкінуу
адкінуць
адлегласць
адлегласці
адлюстравана
адлюстраванне
адлюстраваннем
адлюстравання
адлюстраванні
адлюстраваны
адлюстравау
адлюстраваць
адлюстроу
адлік
адліку
адліу
адм
адмау
адмена
адменена
адменены
адмену
адмены
адметнаи
адметная
адметны
адметныя
административно
адмова
адмоваи
адмову
адмовы
адмовілася
адмовіліся
адмовіу
адмовіцца
адмоу
адмыслова
адмысловага
адмысловае
адмысловаи
адмысловая
адмысловую
адмысловы
адмысловым
адмысловых
адмысловыя
адмяніу
адмяніць
адміністратар
адміністратара
адміністратарам
адміністратарау
адміністратары
адміністрацыи
адміністрацыю
адміністрацыя
адміністрацыяи
адміністрацыі
адмірал
адмірала
адміралцеи
адна
аднабаковым
аднавяскоу
аднавіла
аднавілася
аднавілі
аднавіліся
аднавіу
аднавіць
аднагадовая
аднагадовыя
аднагалосна
аднаго
аднае
адназначна
аднаи
аднак
аднаму
аднапавярховы
аднаполыя
аднастаи
аднау
адначасна
адначасова
аднекуль
аднесены
аднесці
адно
аднои
аднолькава
аднолькаваи
аднолькавую
аднолькавы
аднолькавым
аднолькавымі
аднолькавых
аднолькавыя
адносна
адноснаи
адноснасці
адносная
адносяцца
адносяць
адносілася
адносілі
адносіліся
адносін
адносінамі
адносінау
адносінах
адносіны
адносіу
адносіцца
адносіць
адноу
адною
адну
адны
адным
аднымі
адных
аднэи
аднім
адозвы
адольф
адольфа
адпаведна
адпаведнага
адпаведнае
адпаведнаи
адпаведнасць
адпаведнасці
адпаведная
адпаведную
адпаведны
адпаведным
адпаведнымі
адпаведных
адпаведныя
адпавядае
адпавядала
адпавядалі
адпавядау
адпавядаць
адпавядаюць
адпачынак
адпачынку
адпачыць
адплыу
адпомсціць
адпор
адправілася
адправілі
адправіліся
адправіу
адправіцца
адправіць
адпрау
адпрацоу
адпу
адпусціу
адпушчаны
адраджэнне
адраджэння
адраджэнні
адраджэньне
адраджэньня
адрадзіць
адразу
адрамантаваны
адрас
адрасе
адрасоу
адрасу
адрасы
адрачэння
адрозненне
адрознення
адрозненняу
адрозненні
адрознівае
адрозніваецца
адрознівалася
адрозніваліся
адрознівау
адрознівацца
адрозніваць
адрозніваюцца
адрозніваюць
адрозніць
адрокся
адрыу
адрыян
адрыяна
адрыятычнага
адрэзак
адрэстау
адсек
адставанне
адстау
адстои
адступаць
адступленне
адступлення
адступленні
адступіла
адступілі
адступіу
адступіць
адсутнасць
адсутнасцю
адсутнасці
адсутнічае
адсутнічала
адсутнічалі
адсутнічау
адсутнічаюць
адсюль
адтуль
адтуліна
адтуліну
адтуліны
адукацыи
адукацыю
адукацыя
адукацыяи
адукацыі
адхілена
адхіленне
адхілення
адхіленні
адхілены
адхіліу
адхіліць
адценне
адценнем
адценняу
адценні
адцягнуць
адчаи
адчувае
адчуваецца
адчувала
адчувалася
адчувалі
адчуванне
адчувау
адчуваць
адчуваю
адчуваюць
адчуваючы
адчула
адчуу
адчуць
адчынена
адчынены
адчыніла
адчынілі
адчыніліся
адчыніу
адчыніць
адшукаць
адыграла
адыгралі
адыграу
адыгрывае
адыгрывала
адыгрывалі
адыгрывау
адыгрываюць
адыджэ
адыи
адысея
адысці
адыход
адыходзяць
адыходзілі
адыходзіу
адыходзіць
адыходу
адышла
адышлі
адышоу
адэлаіда
адэса
адэсе
адэскаи
адэская
адэскі
адэсы
ае
аж
ажаніу
ажаніцца
ажно
ажыу
ажыцце
ажыццявіу
ажыццявіць
ажыццяу
ажэшка
аз
азбука
азвау
аздабленне
аздаблення
аздабленні
аздарау
аздоблены
аздобленыя
азе
азербаи
азнае
азначае
азначала
азначау
азначаць
азначаюць
азначэнне
азначэння
азначэнні
азот
азоту
азоу
азірнуу
азію
азія
азіяцкаи
азіяцкіх
азіі
аи
ак
ака
акад
академии
академия
акадэміи
акадэмік
акадэміка
акадэмікам
акадэмікі
акадэмічнага
акадэмічнае
акадэмічнаи
акадэмічная
акадэмічны
акадэмічным
акадэмічных
акадэмічныя
акадэмію
акадэмія
акадэміяи
акадэміі
аказала
аказалася
аказалі
аказаліся
аказанне
аказання
аказанні
аказау
аказаць
аказвае
аказваецца
аказвала
аказвалі
аказвау
аказваць
аказваюцца
аказваюць
акаи
акалічнасць
акалічнасці
аканом
акау
акварэлі
аквітанія
аквітаніі
акмолінскаи
акна
акне
акно
акном
акон
аконнымі
аконных
аконныя
акопы
акрамя
акруг
акруга
акругаи
акругах
акруговага
акруговаи
акруговы
акругу
акругі
акружана
акружаны
акружнасць
акружнасці
акружылі
акружэнне
акружэння
акружэнні
акрузе
аксана
аксе
аксм
аксіе
акт
акта
актагаи
актам
актамі
актау
актах
актрыса
актрысаи
актрысы
акту
актуальные
актуальныя
акты
актывіст
актывістау
актывісты
актыу
акулы
акуляры
акунь
акупавалі
акупавана
акупаванаи
акупаваная
акупаваны
акупаваных
акупантамі
акупантау
акупанты
акупацыи
акупацыя
акупацыяи
акупацыі
акупіравана
акупіраванаи
акупіраваны
акурат
акуратна
акушэрскі
акушэрства
акце
акции
акцыи
акцыю
акцыя
акцыянернага
акцыянернае
акцыях
акцыі
акцэнт
акцэнтам
акцябрскага
акцябрскі
акцябрскім
акі
акінуу
акіслення
акіян
акіяна
акіянам
акіянау
акіяне
акіяну
акіянія
акіяніі
ал
ала
алан
алана
албанскаи
албанская
албанія
албаніі
албо
алгарытм
алгарытмы
алгебра
алгебры
але
алег
алега
алеем
алеи
алекс
александр
александра
александрович
александровіч
александроу
александрыи
александрыя
александрыі
алексеи
алексіевіч
ален
алена
аленаи
алену
алены
алень
аленя
аленяу
алені
алепа
алесандра
алесандрыя
алесь
алеся
алею
алея
алеі
алжыр
алжыра
алжыры
алкаголю
алма
алматы
алонса
алоу
алтаи
алтар
алтара
алтарнаи
алтаром
алтароу
алтары
алтая
алфавіт
алфавіта
алфавіту
алфавіце
аль
альба
альбеда
альберт
альберта
альбо
альбом
альбома
альбомам
альбомау
альбоме
альбому
альбомы
альбрэхт
альбрэхта
альгерд
альгерда
альжбета
альма
альманах
альпау
альпах
альпы
альпіи
альта
альтэрнатыва
альтэрнатыу
альфа
альфонс
альфонса
альфрэд
альфрэда
альхоу
альцгеи
альшэу
альянс
альянсу
алэу
алюмінію
алякса
аляксандар
аляксандр
аляксандра
аляксандравіч
аляксандравіча
аляксандрам
аляксандрау
аляксандру
аляксандры
аляксеева
аляксеевіч
аляксеем
аляксееу
аляксеи
аляксея
аляска
аляскі
аляхновіч
аляхновіча
алі
аліеу
алімп
алімпіи
алімпік
алімпія
алімпіядзе
алімпіяды
аліса
алістэр
алісы
аліу
ам
амазонкі
амаль
аман
амана
амар
амары
аматар
аматара
аматарам
аматарау
аматары
амба
амбулаторыя
амбіцыи
амерыка
амерыкана
амерыканскага
амерыканскае
амерыканскаи
амерыканская
амерыканскую
амерыканскі
амерыканскім
амерыканскімі
амерыканскіх
амерыканскія
амерыканцау
амерыканцы
амерыку
амерыкі
амерыцы
амністыі
амона
амстэрдам
амстэрдаме
амундсен
амундсена
амур
амура
амурскаи
амфітэатр
аміля
ан
ана
аналаг
аналагау
аналагічна
аналагічнаи
аналагічная
аналагічны
аналагічным
аналагічных
аналагічныя
аналау
анале
анализ
аналогіі
аналы
аналіз
аналізе
аналізу
аналітычнаи
аналітычная
аналітычны
ананімныя
анархістау
анастасія
анатолевіч
анатолии
анатоль
анатольевіч
анатоля
анатоліі
анатомія
анатоміі
анг
ангел
ангела
англ
англа
англамоу
англии
англіи
англічан
англічанамі
англічане
англічанін
англію
англія
англіяи
англіі
ангола
анголы
анд
анджэи
анджэла
анджэлес
анджэлеса
анджэлесе
анджэя
андора
андрамеда
андраш
андреи
андрэ
андрэа
андрэева
андрэевіч
андрэем
андрэеу
андрэи
андрэю
андрэя
андэрсан
ане
анексіі
анжу
анжуи
ани
анлаи
анна
анры
ансамбль
ансамбля
ансамблі
ант
анталогія
анталогіі
антанты
антаніна
антарктыдзе
антарктыды
антарктычнаи
антарыа
антверпен
антон
антона
антонава
антонавіч
антонам
антонау
антоні
антоніа
антоніи
антонія
антось
антрапалогія
антрапалогіі
антуан
анты
антыгуа
антые
антыльскіх
антыльскія
антысавецкаи
антысавецкую
антысавецкія
антыу
антычнага
антычнаи
антычнасці
антычная
антычных
антычныя
антыяхіи
ануфрыеу
ані
анікеи
анімацыи
анімэ
анішчанка
ап
апавядае
апавяданне
апавядання
апавяданняу
апавяданнях
апавяданні
апавяданьне
апавяданьні
апавядау
ападкау
ападкі
апазіцыи
апазіцыю
апазіцыя
апазіцыяи
апазіцыі
апаладор
апалон
апалона
апалчэнне
апалчэння
апалчэнцау
апалчэнцы
апанас
апанасавіч
апанент
апанента
апанентау
апаненту
апарат
апарата
апаратам
апаратау
апарату
апаратуры
апараты
апараце
апе
апекаи
апеку
апекуном
апекі
апеляцыи
аператар
аператара
аператарам
аператарау
аператары
аператыу
аперацыи
аперацыю
аперацыя
аперацыяи
аперацыях
аперацыі
аплаты
аповед
аповесцеи
аповесць
аповесці
апольскага
апора
апораи
апорнага
апорны
апорных
апорныя
апоры
апостал
апостала
апосталау
апосталы
апостальскаи
апостальская
апостальскі
апостраф
апоу
апошнюю
апошняга
апошняе
апошняи
апошняму
апошняя
апошні
апошнім
апошнімі
апошніх
апошнія
апраналі
апрануты
апрануу
апрау
апрацаваны
апрацоу
апрача
апреля
апроч
апсіда
апсідаи
апсіды
аптычнага
аптычнаи
аптычных
аптычныя
аптэка
апублікавала
апублікавалі
апублікавана
апублікаванага
апублікаванаи
апублікаваная
апублікаваны
апублікаваным
апублікаваных
апублікаваныя
апублікавау
апулія
апускаецца
апусціу
апушаныя
апынулася
апынуліся
апынуу
апынуцца
апытання
апярэдзіу
апярэнне
апісана
апісанне
апісаннем
апісання
апісанняу
апісанні
апісаны
апісаных
апісаныя
апісау
апісаць
апісвае
апісваецца
апісвау
апісваюцца
апісваюць
апісваючы
ар
ара
араб
араба
арабамі
арабау
арабскага
арабскаи
арабская
арабскі
арабскім
арабскімі
арабскіх
арабскія
арабы
аравіи
аравія
аравіі
арагон
арагона
арак
арамеи
аранжыроу
арарат
араты
арау
арачным
арачнымі
арачныя
арашэння
арбіта
арбіту
арбіты
арбіце
арган
арганау
арганізавала
арганізавалі
арганізавана
арганізаванага
арганізаванаи
арганізаваная
арганізаваны
арганізаваным
арганізаваных
арганізаваныя
арганізавау
арганізаваць
арганізатар
арганізатарам
арганізатарамі
арганізатарау
арганізатары
арганізацыи
арганізацыю
арганізацыя
арганізацыяи
арганізацыямі
арганізацыяу
арганізацыях
арганізацыі
арганізм
арганізма
арганізмау
арганізме
арганізмы
арганізоу
арганізуе
арганічна
арганічнага
арганічнаи
арганічных
арганічныя
аргенціна
аргенціне
аргенцінскі
аргенціны
аргумент
аргументау
аргументы
арда
ардан
арджанікідзэ
арды
аренду
арк
арка
аркадзь
аркадзя
аркаи
аркамі
аркестр
аркестра
аркестрам
аркестры
арктыкі
арктычнага
аркуш
аркуша
аркушау
аркушы
аркі
арла
арланда
арлова
арлом
арлоу
арлы
арм
армавір
армеи
армении
арменію
арменія
арменіяи
арменіі
армии
армия
армян
армяна
армянамі
армяне
армянскага
армянскае
армянскаи
армянская
армянскую
армянскі
армянскім
армянскіх
армянскія
арміи
армію
армія
арміяи
арміямі
арміі
арнамент
арнаментам
арнольд
арол
арсенал
арсенала
арсень
арт
артуа
артур
артура
артыкул
артыкула
артыкулам
артыкуламі
артыкулау
артыкулах
артыкуле
артыкулу
артыкулъ
артыкулы
артылерыи
артылерысты
артылерыю
артылерыя
артылерыяи
артылерыі
артыст
артыста
артыстау
артыстка
артысты
артэфакты
арфаграфія
арфаграфіі
арх
архангел
архангела
архангельск
архангельскаи
архане
археалагічнага
археалагічнаи
археалагічная
археалагічны
археалагічным
археалагічных
археалагічныя
археалогія
археалогіі
археолаг
археолагамі
археолагау
археолагі
археологии
археология
архив
архивное
архитектура
архитектуры
архібіскуп
архібіскупа
архібіскупам
архіва
архівау
архівах
архіве
архіву
архівы
архідыяцэзія
архідыяцэзіі
архіепіскап
архіепіскапа
архіепіскапам
архімандрыт
архімандрыта
архіпелаг
архіпелага
архіпелагу
архірэи
архітэктар
архітэктара
архітэктарам
архітэктарамі
архітэктарау
архітэктары
архітэктура
архітэктураи
архітэктурна
архітэктурнага
архітэктурнае
архітэктурнаи
архітэктурная
архітэктурны
архітэктурным
архітэктурных
архітэктурныя
архітэктуру
архітэктуры
архіу
арце
арцыбіскуп
аршанскага
аршанскаи
аршанская
аршанскі
аршанскім
арыгінал
арыгінала
арыгінале
арыгінальнага
арыгінальнае
арыгінальнаи
арыгінальная
арыгінальную
арыгінальны
арыгінальным
арыгінальных
арыгінальныя
арые
арыентавана
арыентаванаи
арыентаваны
арыентацыя
арыентацыі
арызона
арыи
арыстакратау
арыстакратыя
арыстакратыі
арыстоцель
арыстоцеля
арышт
арыштавалі
арыштавана
арыштаваны
арыштаваных
арыштаваныя
арыштаваць
арыштам
арыштау
арыштоу
арышту
арышты
арэ
арэал
арэала
арэна
арэнаи
арэнбургскаи
арэндзе
арэнду
арэнды
арэне
арэну
арэны
арэх
арэхау
арэхі
ас
аса
асабліва
асаблівага
асаблівае
асабліваи
асаблівасцеи
асаблівасць
асаблівасцю
асаблівасцямі
асаблівасцяу
асаблівасці
асаблівасьці
асаблівая
асаблівую
асаблівы
асаблівым
асаблівых
асаблівыя
асабняк
асабовага
асабіста
асабістага
асабістае
асабістаи
асабістая
асабістую
асабісты
асабістым
асабістых
асабістыя
асавец
асада
асалоду
асамблея
асамблеі
асау
асацыяцыи
асацыяцыю
асацыяцыя
асацыяцыяи
асацыяцыі
асваенне
асваення
асвеи
асвета
асветнік
асветнікі
асветніцкаи
асветніцтва
асветы
асвечана
асвечаны
асвои
асвятленне
асвятлення
асвятленні
асвятляу
асвяціу
асвячоны
асвячэнне
асе
асеу
асеціі
аскерка
аскеркі
асмалоу
асманскага
асманскаи
асманская
асманскі
аснавання
аснова
асноваи
асновах
аснове
аснову
асновы
асноу
асоб
асоба
асобаи
асобам
асобамі
асобау
асобах
асобе
асобна
асобнага
асобнае
асобнаи
асобная
асобную
асобны
асобным
асобнымі
асобных
асобныя
асобнік
асобнікау
асобнікі
асобу
асобы
асобін
асобіны
аспект
аспекты
аспірантура
аспірантуру
аспірантуры
асср
аст
аставалася
астаецца
асталася
асталося
асталіся
астан
астана
астанкі
астап
астаповіч
астатнюю
астатняе
астатняи
астатняя
астатні
астатнім
астатнімі
астатніх
астатнія
астау
астацца
астои
астравамі
астравах
астравец
астравецкага
астравецкі
астравецкім
астравоу
астравы
астравыя
астраглядау
астранамічнага
астранамічных
астранамічныя
астранау
астраном
астраномам
астраномы
астраномія
астраноміі
астрау
астрог
астрожскага
астрожскі
астроу
астрыд
астуджэння
астэроід
астэроіда
астэроідау
астэроіды
асуджана
асуджаны
асуджаных
асуджаныя
асуджэннем
асудзілі
асудзіу
асцерагаючыся
асцярожна
асці
асьветы
асяродак
асяроддзе
асяроддзем
асяроддзя
асяроддзяу
асяроддзі
асяродкам
асяродку
асіміляцыі
асінау
асіповіцкага
асіповіцкі
асіповіцкім
асіповічы
асірыи
асірыі
асістэнт
асістэнта
асістэнтам
ат
ата
атак
атака
атакавала
атакавалі
атакаваны
атакавау
атакаваць
атаку
атакі
атам
атама
атаман
атамана
атамау
атамнаи
атамная
атамных
атамы
атацы
атачаюць
аташэ
атлантычнага
атлантычны
атлантычным
атлас
атласа
атлетык
атлетыка
атлетыцы
атмасфера
атмасферу
атмасферы
атол
атон
атона
атрад
атрада
атрадам
атрадамі
атрадау
атрадзе
атраду
атрады
атрымае
атрымаем
атрымаецца
атрымала
атрымалася
атрымалі
атрымана
атрыманаи
атрыманая
атрыманне
атрымання
атрыманні
атрыманы
атрыманых
атрыманыя
атрымау
атрымаць
атрымлівае
атрымліваем
атрымліваецца
атрымлівала
атрымлівалі
атрымлівау
атрымліваць
атрымліваюцца
атрымліваюць
атрымліваючы
атрымоу
атынкаваны
атырау
атэлье
атэстацыи
ау
аул
аула
ауле
аун
аф
афанасьеу
афанасіи
афарбаваны
афарбаваныя
афарбоу
афармленне
афармленнем
афармлення
афармленні
афганскаи
афганістан
афганістана
афганістане
афонсу
аформлены
аформіу
аформіць
африка
афрыка
афрыканскага
афрыканскаи
афрыканская
афрыканскі
афрыканскіх
афрыканскія
афрыку
афрыкі
афрыцы
афін
афінах
афіны
афіцыи
афіцэр
афіцэра
афіцэрам
афіцэрамі
афіцэрау
афіцэрскага
афіцэры
ах
ахапіла
ахапіу
ахарактарызавау
ахвота
ахвотна
ахвоты
ахвяр
ахвяра
ахвяраванняу
ахвяраванні
ахвяравау
ахвяраи
ахвярам
ахвярамі
ахвярау
ахвяру
ахвяры
ахеи
ахеменідау
ахмед
ахмеда
ахова
аховаи
ахове
ахову
аховы
ахоплівае
ахоплівала
ахопліваюць
ахоу
ахрышчаны
ахрэм
ацанілі
ацаніу
ацаніць
аце
ацтэкау
ацэнак
ацэнены
ацэнка
ацэнках
ацэнку
ацэнкі
ацэнцы
ацэньвае
ацэньваецца
ацэньвау
ачка
ачко
ачкоу
ачкі
ачысткі
ачысціць
аш
ашаляваныя
ашмянскага
ашмянскі
ашмянскім
ашмяны
аэрадром
аэрадрома
аэрадроме
аэрапорт
аэрапорта
аэрапорты
аэрапорце
аэс
ая
аякс
б
ба
баас
баб
баба
бабка
бабкі
бабовыя
баброу
бабруи
бабры
бабуля
бабулі
бабы
бабінец
баварскага
баварскаи
баварскі
баварыю
баварыя
баварыі
бавау
бавоу
багам
багамі
багародзіцкая
багародзіцы
багаслау
багаслова
багаслоу
багата
багатага
багатае
багатаи
багатая
багатую
багаты
багатым
багатымі
багатых
багатыя
багацеи
багацце
багаццем
багацця
багацці
багацьце
багдад
багдада
багдадзе
багдан
багдана
багданава
багданау
багдановіч
багдановіча
багеміі
багоу
баграціе
багуслау
багушэвіч
багушэвіча
багушэу
багі
багіня
багіні
багіра
бад
бадаи
бадзе
бадуэн
бадэн
бае
баевікамі
баевікоу
баевікі
баер
баец
баз
база
базаваи
базавая
базавы
базавых
базаи
базар
базе
базу
базуецца
базы
базыль
базіліка
базілікі
баи
бак
бакавои
бакавы
бакавымі
бакавых
бакавыя
бакалау
бакамі
баках
бакоу
баксе
бактэрыи
бактэрыі
баку
бакштау
бакі
бал
бала
балада
балады
баланс
балансу
балатавау
балау
балаховіч
балаховіча
балгарау
балгарскага
балгарскае
балгарскаи
балгарская
балгарскі
балгарскім
балгарскіх
балгарскія
балгары
балгарыю
балгарыя
балгарыяи
балгарыі
бале
балеи
балет
балета
балетмаи
балетнаи
балетныя
балеты
балканах
балканскага
балканскаи
балканскіх
балканы
балкон
балоння
балонні
балот
балота
балотам
балотамі
балотах
балотных
балотныя
балоты
балоце
балты
балтыи
балтыі
балцкіх
балы
баль
бальніц
бальніца
бальніцу
бальніцы
бальцана
бальшавік
бальшавікамі
бальшавікоу
бальшавікі
бальшавіцкага
бальшавіцкаи
бальшавіцкі
балюча
баляслава
баляслау
балі
балівія
балівіі
баліць
бамбардзір
бамбардзірам
бамбардзіроу
бан
бананы
банапарт
банапарта
бангладэш
банда
бандарчык
бандарэнка
банды
бандыты
банк
банка
банкам
банкау
банкноты
банкруцтва
банку
банкі
банту
баня
бапц
бар
бара
барабан
барабана
барабанам
барабане
барабаны
барада
бараду
барадулін
барадуліна
барак
баран
баранавіцкага
баранавіцкаи
баранавіцкі
баранавіцкім
баранавіч
баранавічау
баранавічах
баранавічы
баранау
бараноу
барані
бараніу
бараніць
барау
барацьба
барацьбе
барацьбои
барацьбу
барацьбы
барбара
барбароса
барбары
барбікен
барвенак
бардо
баркоу
баркі
барок
барока
барон
барона
бароу
барселона
барселоне
барселону
барселоны
барсукі
бартавы
барталамеа
бартэк
барусія
баршчоу
баршчэу
бары
барые
барыкады
барыс
барыса
барысава
барысаве
барысавіч
барысау
барысевіч
барысюк
барэи
бас
басеи
баскау
баскетбаліст
баскетбалісты
баскетбол
баскетболе
баскетбольны
баскетбольныя
басніи
басовішча
бастые
басы
баталье
батанік
батаніка
батанікі
батанічнага
батанічнае
батанічны
батанічным
батанічных
батанічныя
батарэи
батарэя
батарэі
батлеи
баторыя
батыст
батыста
батэ
бау
бах
баха
бахаі
бахрэи
бахчысараи
бацька
бацькаваи
бацькам
бацькамі
бацькау
бацькоу
бацьку
бацькі
бацюшка
бач
бачанне
бачаць
бачачы
бачна
бачнага
бачнаи
бачнасці
бачная
бачны
бачным
бачныя
бачу
бачыла
бачылі
бачым
бачыу
бачыце
бачыцца
бачыць
бачыш
бачэи
башкартастан
башкартастана
баюся
баючыся
бая
баявая
баявога
баявое
баявои
баявую
баявы
баявым
баявымі
баявых
баявыя
баялася
баяліся
баямі
баяр
баярау
баяры
баярын
баяу
баях
баяцца
баі
баіцца
бвк
бгк
бгу
бдму
бдпу
бдту
бду
бдуфк
бдуір
бдэу
бе
бег
бегла
беглі
бегу
бегчы
бедна
беднага
беднаи
беднасці
беднаты
бедная
бедны
бедным
бедных
бедныя
бежанцау
бежанцы
без
безвынікова
бездакорную
беззаганнага
безнадзеи
безназоу
безопасности
безумоу
беи
бек
бел
бела
белаазе
белавежскаи
белавежская
белага
белагвардзеи
белае
белаз
белаи
белапан
белару
беларус
беларуса
беларусазнау
беларусам
беларусамі
беларусау
беларуси
беларуск
беларуска
беларускага
беларускае
беларускаи
беларускамоу
беларускаму
беларуская
беларуску
беларускую
беларускі
беларускім
беларускімі
беларускіх
беларускія
беларусоу
беларуссю
беларусы
беларусыэтнічны
беларусь
беларусьфільм
беларусі
беларусізацыі
беласток
беластока
беластоку
беластоцкага
беластоцкаи
белау
белая
белвікі
белгародскаи
белниидад
белова
белорус
белорусов
белоруссии
белоруссия
белорусская
белорусские
белорусскии
белорусских
белорусско
белорусского
белорусское
белорусскои
белорусы
белсат
белсэ
белта
белтэлерадые
белую
белшына
белшыны
белы
белым
белымі
белых
белыя
бель
бельгіи
бельгію
бельгія
бельгіі
бельскага
бельскі
белэн
беліца
бен
бенгазі
бенгаліі
бенедыкт
бенедыкта
бенуа
бені
бераг
берага
берагавая
берагавои
берагам
берагамі
берагах
берагоу
берагу
берагі
беразе
беразоу
беразіно
бераставіцкага
бераставіцкім
берастоу
берасцеи
берасьцеи
берг
бергама
бергман
берклі
беркут
берлін
берліна
берліне
берлінскага
берлінскаи
берлінскі
берлінскім
берн
бернар
бернард
бернарда
бернардзінцау
бернулі
берта
беручы
беры
бесарабіі
беспадстау
беспазваночных
беспарадкау
беспарадкі
беспартыи
беспаспяхова
бесперапынна
беспрацоу
бессэнсоу
бетону
бетховена
бешанковіцкага
бешанковіцкі
бешанковіцкім
бешанковічы
бжастоу
би
библиотека
биографии
биографическии
биография
биология
битва
бка
бл
бла
блага
благаслау
благачынне
благачынныя
благога
блакаду
блакады
блакіроу
блакітнага
блакітнаи
блакітная
блакітны
блакітным
блакітныя
блам
бланка
бласлау
блау
бле
бледна
бледны
блецька
блог
блок
блока
блокау
блоку
блокі
блуа
блы
блытаць
блэк
блюз
бляск
бляскам
бляску
бліжэи
блізка
блізкага
блізкае
блізкаи
блізкасць
блізкасці
блізкая
блізкую
блізкі
блізкім
блізкімі
блізкіх
блізкія
блізняты
блізу
бліскучы
бліскучыя
блішчаць
блішчыць
бм
бмп
бнк
бнп
бнр
бнту
бнф
бніц
бніца
бо
боб
бобр
бобруи
бог
бога
богам
богаяу
богу
богуш
боем
боепрыпасау
боепрыпасы
божа
божага
божае
божаи
божая
божую
божы
божым
божыя
бои
бок
бока
бокам
бокс
боку
бол
боле
более
болезни
болеи
болем
боль
больцмана
больш
большага
большае
большаи
большасць
большасцю
большасці
большасьць
большасьці
большая
больше
большои
большую
большы
большым
большымі
большых
большыя
болю
болі
бомба
бомбы
бон
бона
бонч
боны
бор
бора
борис
боркі
борт
борта
бору
борце
боры
борьба
борьбы
боскага
боскаи
боснія
босніі
бостан
бот
бота
ботаническии
ботау
ботах
боты
боу
бохан
бочка
бочкі
бою
бпла
бпс
бпі
бра
брабанта
брава
брагинского
брагін
брагіна
брагінскага
брагінскі
брагінскім
бразільскага
бразільскі
бразілію
бразілія
бразіліі
браи
брала
бралі
брама
брамаи
браме
брамнік
брамніка
брамнікам
брамнікау
браму
брамы
брандэнбург
брандэнбурга
бранзалеты
бранск
бранскаи
бранская
браніслава
браніслау
браслау
брат
брата
братам
братамі
братка
браткі
браток
братоу
брату
браты
братэрства
брау
браце
брацкаи
брацкая
брацкія
брацлау
брацтва
браць
браціслава
браціславе
брашур
брашуры
браян
брест
брестского
брестскои
брно
бровар
бровки
бровы
брод
бродау
бродыу
бронетранспарце
бронза
бронзавага
бронзавая
бронзавы
бронзавым
бронзавых
бронзавыя
бронзу
бронзы
броу
бругэ
брук
бруна
брус
брусель
бруселі
брушка
брыгад
брыгада
брыгадаи
брыгадзе
брыгаду
брыгады
брыдка
брыль
брытанскага
брытанскае
брытанскаи
брытанская
брытанскую
брытанскі
брытанскім
брытанскімі
брытанскіх
брытанскія
брытанцау
брытанцы
брытанію
брытанія
брытаніі
брэи
брэнд
брэслау
брэст
брэста
брэсце
брэсцкага
брэсцкае
брэсцкаи
брэсцкая
брэсцкі
брэсцкім
брэтань
брэтані
брэшыя
бсг
бсдп
бсср
бссртрусау
бсэ
бтр
бу
бубны
буг
буга
буда
будавалася
будавалі
будаваліся
будаванне
будавання
будавау
будавацца
будаваць
будапешт
будапешта
будапешце
будау
будет
будеть
будзе
будзем
будзеце
будзеш
будзь
будзьма
будзьце
будзіць
буднага
будны
будова
будове
будову
будовы
будоу
будслау
буду
будуе
будуецца
будут
будуть
будуць
будучага
будучае
будучаи
будучая
будучы
будучым
будучыню
будучыня
будучыні
будучых
будучыя
будуюцца
будуюць
буды
будызм
будызму
будыи
будынак
будынка
будынкам
будынкамі
будынкау
будынках
будынку
будынкі
буи
бук
бука
булак
булгакау
булдаков
буле
бульба
бульбу
бульбы
бульвар
бульвары
бунд
бунда
бунт
бунтау
бунту
бур
бура
бурага
бураи
буракоу
буракі
бурау
бураціі
бурая
бурбон
бурбонау
бург
бургундскага
бургундскі
бургундыя
бургундыі
буржуазнаи
буржуазія
буржуазіі
буркіна
буру
бурундзі
буры
бурыя
бус
буса
бусау
бусел
бусы
бутэльку
бутэлькі
бухарэст
бухарэсце
бухта
бухту
бухты
бухце
буш
буша
бушмар
буэнас
бхд
бцоу
бцр
бцы
бы
бывае
бываи
бывала
бывалі
бывау
бываюць
быдгашч
быдгашчы
быдла
бык
быка
быкава
быкау
быкоу
был
была
былая
были
было
былога
былое
былои
былую
былъ
былы
былым
былымі
былых
былыя
былі
быт
бытавога
бытавои
бытавых
бытавыя
быти
быту
быть
быу
быхава
быхау
быццам
быцце
быцця
быць
бышава
бышау
бэ
бэи
бэк
бэлькі
бэн
бэта
бюджэт
бюджэту
бюлетэнь
бюро
бюст
бягуць
бягучага
бягучаи
бягучы
бягучым
бяда
бядзе
бяднеи
бяду
бядуля
бядулі
бяды
бяжыць
бяз
бяздзеи
бязлітасна
бязумоу
бяла
бялград
бялграда
бялградзе
бяле
бялкоу
бялку
бялкі
бялова
бялок
бялыніцкага
бялыніцкі
бялыніцкім
бяроза
бярозавыя
бярозау
бярозе
бярозка
бярозкау
бярозкі
бярозы
бяруць
бяры
бярэ
бярэзіна
бярэзінскага
бярэзінскі
бярэзінскім
бярэзіну
бярэзіны
бярэцца
бясконца
бяспека
бяспеку
бяспекі
бяспецы
бясплатна
бясспрэчна
бяссце
бі
біблеи
біблію
біблія
бібліяграфія
бібліятэк
бібліятэка
бібліятэкаи
бібліятэку
бібліятэкі
бібліятэцы
бібліі
біе
біенале
бізнес
бізнесмен
бізнесу
біл
біла
білет
білі
біліся
бін
бінэм
біржа
біржы
бісау
біскуп
біскупа
біскупам
біскупау
біскупства
біскупу
біскупы
бісмарк
біт
бітва
бітваи
бітвау
бітвах
бітве
бітву
бітвы
біу
біцца
біць
біч
біябібліяграфічны
біяграфічны
біяграфічныя
біяграфію
біяграфія
біяграфіі
біялагічна
біялагічнага
біялагічнае
біялагічнаи
біялагічная
біялагічны
біялагічных
біялагічныя
біялогія
біялогіі
біятланісты
біятлоне
біятэхналогіі
біяхімік
біяхімікі
біяхіміі
в
ва
вав
ваве
вавілон
вавілона
ваг
вага
вагаецца
вагаи
ваганняу
ваганні
вагнер
вагнера
вагои
вагон
вагона
вагонау
вагоне
вагоны
вагу
вагі
вада
вадае
вадазбор
вадазбору
вадаліу
вадарод
вадароду
вадаспад
вадаспады
вадасховішча
вадасховішчы
вадаце
вадзе
вадзяны
вадзяныя
вадзім
вадкасць
вадкасці
вадкіх
вадои
вадою
ваду
вады
вае
ваенна
ваеннага
ваеннае
ваеннаи
ваеннаму
ваеннапалонных
ваеннапалонныя
ваеннаслужачых
ваенная
ваенную
ваенны
ваенным
ваеннымі
ваенных
ваенныя
ваецца
важае
важана
важаны
важау
важаць
важліва
важна
важнага
важнае
важнаи
важнасць
важнасці
важная
важнеи
важную
важны
важным
важнымі
важных
важныя
важыла
важылі
важыу
важыць
ваз
ваза
вазе
вазоу
вазы
вазьму
вазьмі
ваи
вак
вакал
вакальна
вакаліст
вакарэи
вакзал
вакзала
вакзале
вакно
вакол
ваколіц
ваколіцах
ваколіцы
ваконцэ
вакууме
вал
вала
валагодскаи
валадар
валадара
валадарання
валадаром
валадароу
валадарскага
валадарства
валам
валамі
валанце
валапас
валасамі
валасоу
валасцеи
валасы
валася
валасінкамі
валау
валахіі
валгаградскаи
вале
валеи
валенсія
валенсіі
валер
валерии
валеры
валерыи
валерыя
валеу
валовіч
валодае
валодала
валодалі
валоданне
валодання
валоданні
валодау
валодаць
валодаюць
валожын
валожынскага
валожынскі
валожынскім
валокнау
валокны
валокі
валоу
валуа
валун
валуны
валы
валынскага
валынскае
валынскаи
валынская
валынскі
валынскім
валынь
валыні
валь
вальдэмар
вальдэмара
вальжан
вальмавым
вальс
вальтэр
вальтэра
валюта
валюты
валянцін
валянціна
валянцінавіч
валяр
валі
валіи
валіся
вам
вамі
ван
вана
вандалау
вандалізм
вандроу
ванне
ваннем
ванню
вання
ванні
вануату
ваны
вань
ваньковіч
ваньковічау
ваня
вар
вараб
варагау
варанец
варапаеу
варатары
варашылава
варашылау
варвалася
варваліся
варванне
варвання
варварау
варвары
вард
варламау
вармінска
варожа
варожага
варожаи
варожасць
варожасці
варожы
варожых
варожыя
варона
варонеж
варонежскаи
вароны
варот
варотамі
вароты
варочау
варта
вартавых
вартавыя
вартаи
вартасць
вартасцю
вартасці
вартау
варту
варты
варунках
варункі
варце
варшава
варшаваи
варшаве
варшаву
варшавы
варшау
варыць
варыянт
варыянта
варыянтам
варыянтау
варыянтах
варыянту
варыянты
варыянце
варыяцыи
варыяцыі
вас
васабленне
васалам
василии
васильевич
васка
васцю
васці
васылькіу
васьме
васьмярык
васьмі
васьмігранным
васі
васіле
васілевіч
васілевічы
васілеу
васіль
васільева
васільевіч
васільеу
васілька
васількоу
васількі
васілю
васіля
васіліи
васілішкау
ват
ватыкан
ватыкана
вау
ваход
вахода
ваходжання
ваходзе
ваходзяць
ваходзіла
ваходзілі
ваходзіу
ваходзіць
ваходу
ваходы
вацлава
вацлау
вацца
ваць
вацік
вачамі
вачах
вачмі
вачох
ваччу
вачыма
вачэи
ваш
ваша
вашага
вашае
вашаи
вашу
вашы
вашым
вашынгтон
вашынгтона
вашынгтоне
вашых
вашыя
ваю
ваюцца
ваюць
ваючы
ваючыся
вая
ваявалі
ваявау
ваяваць
ваявода
ваяводам
ваяводства
ваяводствау
ваяводстве
ваяводствы
ваяводы
ваяроу
ваяу
вв
введение
вднг
ве
веб
вебер
вебера
вегетатыу
вегетацыи
ведае
ведаем
ведаеце
ведаеш
ведаи
ведала
ведалі
ведама
ведамасці
ведамства
ведамствау
ведамі
веданне
ведау
ведаць
ведаю
ведаюць
ведаючы
ведзена
ведзены
ведзеныя
ведзьма
ведомости
веды
вее
веж
вежа
вежаи
вежамі
вежау
вежу
вежы
веи
век
века
веке
веков
вектар
вектара
веку
векі
великая
великии
великого
великои
вельмі
веліжскага
веліжскім
велізарнае
велізарнаи
велізарная
велізарную
велізарны
велізарным
велізарных
велізарныя
велікапольскага
веліч
велічы
велічыне
велічынь
велічыню
велічыня
велічыні
вен
вена
венгерскага
венгерскаи
венгерская
венгерскую
венгерскі
венгерскім
венгерскіх
венгерскія
венграу
венгры
венгрыю
венгрыя
венгрыяи
венгрыі
вене
венера
венеры
венесуэла
венесуэле
венесуэлы
венета
венецыю
венецыя
венецыянскага
венецыянскаи
венецыянскі
венецыі
венскага
венскаи
венскі
венскім
вену
вены
вер
вера
вераб
верабеи
вераванняу
вераванні
веравызнання
верагодна
верагоднасць
вераи
вераніка
веранікі
верас
верасень
верасне
верасня
верасні
верасьня
вераце
вераць
вердзі
вердэ
вермахта
верна
вернасць
вернасці
вернер
вернецца
вернулся
вернута
вернуты
верны
верным
верных
верныя
вернікам
вернікау
вернікі
верона
версе
версіи
версію
версія
версіяи
версіях
версіі
вертале
вертыкальна
вертыкальнаи
вертыкальных
вертыкальныя
вертыкалі
веру
верфі
верх
верхавіны
верхам
верхнюю
верхняга
верхнядзвінскага
верхнядзвінскі
верхнядзвінскім
верхняе
верхняи
верхняя
верхні
верхнім
верхніх
верхнія
верхов
верховного
верчэлі
верш
верша
вершаваных
вершам
вершамі
вершау
вершах
вершу
вершы
веры
верылі
верыу
верыць
весела
веславанне
веславанні
весляры
весна
весну
веснік
вест
вестак
вестготау
вести
вестка
вестку
весткі
вестник
вестфалія
вестфаліі
вестыбюль
весці
весь
весьці
весялеи
весялоу
вета
ветка
веткау
ветразі
ветрам
ветру
ветры
ветрык
ветэран
ветэранау
ветэрынарнаи
ветэрынарны
ветэрынарыі
вецер
веча
вечар
вечара
вечарам
вечары
вече
вечернии
вечна
вечнага
вечнае
вечназяле
вечнаи
вечная
вечны
вечным
вечныя
вжо
взаимодеи
взгляд
вид
видео
византии
виктор
виленскои
вильна
вильнюс
витебск
витебская
витебскии
витебского
витебскои
вк
вкл
вкп
владимир
владимира
владимирович
владислав
власов
власти
власть
вмс
вмф
вновь
вну
во
вобл
воблака
воблакі
вобласць
вобласцю
вобласці
вобраз
вобраза
вобразам
вобразамі
вобразау
вобразе
вобразу
вобразы
вогнішча
вогнішчы
вогуле
вод
вода
водазабеспячэння
водамі
водар
водарасцеи
водарасці
водах
водгук
водгукау
водгукі
водгульле
водзяцца
водзіцца
водзіць
водле
водлугъ
водна
воднага
воднаи
водная
водны
водные
водныи
водным
водных
водныя
воду
воды
военачальнік
военачальнікі
воениздат
военная
военно
военное
военнои
военные
военныи
военных
вожык
воз
воза
возглавил
возе
возера
возерам
возеры
возьме
возьмем
вои
вока
вокам
вокладка
вокладкі
вокладцы
вокнамі
вокнау
вокнах
вокны
вокруг
воку
вол
волава
воласць
воласці
воласьці
волат
волга
волгі
волечка
волзе
воли
волкава
волкау
вольга
вольгі
волька
вольна
вольнага
вольнае
вольнаи
вольная
вольную
вольны
вольным
вольнымі
вольных
вольныя
вольскага
вольскі
вольф
вольфа
вольфганг
вольфсбург
волю
воля
воляи
волі
вон
вонкава
вонкавага
вонкаваи
вонкавая
вонкавы
вонкавым
вонкавых
вонкавыя
вонкі
воп
вопратка
вопратку
вопраткі
вопратцы
вопрос
вопросах
вопросов
вопросу
вопросы
вопыт
вопытам
вопыту
вопіс
вораг
ворага
ворагам
ворагамі
ворагау
ворагу
ворагі
воранава
воранау
ворота
ворыва
восава
восау
восем
восенню
восень
восені
воск
воску
воспоминания
воспы
востока
восточнои
востра
вострава
востравам
востраве
вострае
востраи
вострау
вострая
востры
вострым
вострымі
вострых
вострыя
вось
восьмага
восьмаи
восьмы
восьмым
восі
восіп
восіпавіч
вот
воу
вочкі
вочы
вояджэр
воін
воіна
воінам
воінау
воінскае
воінскаи
воінскіх
воінскія
воіны
вп
впс
времен
времени
время
врк
вряду
врядъ
вс
все
всего
всем
всемирного
всех
вси
вскои
вся
вт
вторая
второи
ву
вугал
вугаль
вугалю
вугла
вуглавая
вуглавымі
вуглавыя
вуглах
вугле
вуглом
вуглоу
вуглы
вугляроду
вузеи
вузел
вузкае
вузкаи
вузкакалеи
вузкая
вузкую
вузкі
вузкім
вузкімі
вузкіх
вузкія
вузла
вузлом
вузлоу
вузлы
вузов
вул
вулкан
вулкана
вулканау
вулканы
вулканічнага
вулканічнае
вуліц
вуліца
вуліцаи
вуліцамі
вуліцах
вуліцу
вуліцы
вулічных
вулічныя
вунь
вуніі
вуп
вусамі
вусень
вусені
вуснаи
вуснамі
вуснау
вуснах
вусны
вусце
вусця
вусці
вусы
вусікі
вуха
вухам
вучань
вучне
вучнем
вучня
вучням
вучнямі
вучняу
вучні
вучоба
вучобу
вучобы
вучонага
вучонаи
вучоны
вучоным
вучонымі
вучоных
вучоныя
вучылася
вучылі
вучыліся
вучылішча
вучылішчау
вучылішчы
вучыу
вучыцель
вучыцца
вучыць
вучэб
вучэбна
вучэбнага
вучэбнаи
вучэбны
вучэбных
вучэльня
вучэльні
вучэнне
вучэння
вучэнняу
вучэнні
вушы
вушэи
вую
входят
въ
вы
выбар
выбарам
выбарамі
выбарау
выбарах
выбару
выбарчага
выбарчаи
выбарчая
выбарчых
выбарчыя
выбаршчыкау
выбары
выбачаи
выбег
выбралі
выбрана
выбранае
выбраная
выбраны
выбраных
выбраныя
выбрау
выбрацца
выбраць
выбух
выбухау
выбуху
выбухі
выбылі
выбыу
выбірае
выбіраецца
выбіралася
выбіралі
выбірау
выбіраць
выбіраюцца
выбіраюць
выбітны
выбітных
выбітныя
выбіу
вывад
вываду
вывады
вываз
вывазу
выведзена
выведзены
выведзеныя
вывезена
вывезены
вывезлі
вывелі
вывесці
вывеу
выводзіцца
выводзіць
вывучае
вывучала
вывучалі
вывучаны
вывучау
вывучаць
вывучаюць
вывучаючы
вывучыу
вывучыць
вывучэнне
вывучэннем
вывучэнню
вывучэння
вывучэнні
вывяржэнне
вывяржэння
выгады
выгляд
выглядае
выглядала
выглядалі
выглядам
выглядау
выглядаць
выглядаюць
выглядзе
выгляду
выгналі
выгнанне
выгнання
выгнанні
выгнаны
выгнау
выгнаць
выгоды
выд
выдавала
выдавалася
выдавалі
выдаваліся
выдавау
выдавацца
выдаваць
выдавец
выдавецкае
выдавецкаи
выдавецкая
выдавецкі
выдавецтва
выдавецтвам
выдавецтве
выдадзена
выдадзенаи
выдадзеная
выдадзены
выдадзеных
выдадзеныя
выдае
выдаецца
выдала
выдалена
выдаленне
выдалення
выдалены
выдаляць
выдалі
выдаліу
выдаліць
выданне
выданнем
выдання
выданнямі
выданняу
выданнях
выданні
выданы
выданьне
выданьня
выданьні
выдаткау
выдаткоу
выдаткі
выдатна
выдатнага
выдатнае
выдатнаи
выдатная
выдатнеи
выдатную
выдатны
выдатным
выдатнымі
выдатных
выдатныя
выдатнік
выдау
выдаць
выдачы
выдаюцца
выдаюць
выдзелена
выдзелены
выдзяляецца
выдзяляюцца
выдзяляюць
выдуманыя
выезд
выезду
выехала
выехалі
выехау
выехаць
выжыу
выжыць
вызвалена
вызваленне
вызвалення
вызваленні
вызваленчага
вызваленчаи
вызвалены
вызваленыя
вызваленьне
вызваленьня
вызваляе
вызваляецца
вызваліла
вызвалілі
вызваліу
вызваліцца
вызваліць
вызвольнага
вызначае
вызначаецца
вызначалася
вызначальнік
вызначалі
вызначаліся
вызначана
вызначанага
вызначанаи
вызначаная
вызначаны
вызначаным
вызначаных
вызначаныя
вызначау
вызначаць
вызначаюцца
вызначаюць
вызначыла
вызначылі
вызначыу
вызначыць
вызначэнне
вызначэння
вызначэнні
выи
выказала
выказалася
выказалі
выказаліся
выказана
выказау
выказаць
выказвае
выказвалі
выказваліся
выказвання
выказванні
выказвау
выказваць
выканала
выканалі
выканана
выкананая
выкананне
выкананнем
выканання
выкананні
выкананы
выкананых
выкананыя
выканау
выканаць
выканкам
выканкама
выканкома
выкапне
выкапняу
выкапні
выкарыстала
выкарысталі
выкарыстана
выкарыстанне
выкарыстаннем
выкарыстання
выкарыстанні
выкарыстаны
выкарыстаныя
выкарыстау
выкарыстаць
выкарыстоу
выкладае
выкладала
выкладалі
выкладанне
выкладання
выкладау
выкладаць
выкладзена
выкладзены
выкладчык
выкладчыка
выкладчыкам
выкладчыкау
выкладчыкі
выкладчыцкаи
выклау
выключае
выключана
выключаны
выключаючы
выключна
выключнаи
выключыць
выключэнне
выключэннем
выключэння
выключэнні
выклік
выклікае
выклікаецца
выклікала
выклікалі
выклікана
выкліканая
выкліканы
выкліканых
выкліканыя
выклікау
выклікаць
выклікаюць
выклікаючы
выкліку
выконвае
выконваецца
выконвала
выконвалі
выконваліся
выконвау
выконваць
выконваюцца
выконваюць
выконваючы
выконваючым
выкраданне
выкуп
выкупу
выкупіу
выкідау
вылет
вылетау
вылету
вылецеу
вылучае
вылучаецца
вылучалася
вылучаліся
вылучана
вылучаны
вылучаныя
вылучау
вылучаць
вылучаюцца
вылучаюць
вылучыла
вылучылася
вылучылі
вылучыліся
вылучыу
вылучыць
вылучэнне
вылучэння
вылілася
вылічальнаи
вылічальных
вылічыць
вылічэння
вылічэнняу
вылічэнні
вым
вымагае
вымау
вымусіла
вымусілі
вымусіу
вымушана
вымушаны
вымушаныя
вымяраецца
вымярэнне
вымярэння
вымярэнняу
вымярэнні
вымі
вынаи
вынаходнік
вынаходнікі
вынаходніцтва
вынаходства
вынес
вынесены
вынесла
вынесці
выносіць
выняткам
выняу
вынік
вынікае
вынікам
вынікамі
вынікау
выніках
вынікаюць
выніковае
выніковы
выніку
вынікі
вып
выпадае
выпадак
выпадаюць
выпадкам
выпадкау
выпадках
выпадкова
выпадковых
выпадковыя
выпадку
выпадкі
выпала
выпау
выплаты
выплаціць
выпрабаванне
выпрабаванняу
выпрабаванні
выпрабоу
выправіу
выправіць
выпраменьванне
выпраменьвання
выпрау
выпрацоу
выпуск
выпускае
выпускаецца
выпускала
выпускалася
выпускаліся
выпускау
выпускаць
выпускаюцца
выпускаюць
выпускнік
выпускнікоу
выпускнікі
выпуску
выпускі
выпусціла
выпусцілі
выпусціу
выпусціць
выпушчана
выпушчаная
выпушчаны
выпушчаныя
выпіу
выпіць
выраб
вырабам
вырабау
вырабе
выраблена
выраблены
вырабленыя
вырабляе
вырабляецца
вырабляла
выраблялася
выраблялі
вырабляліся
вырабляу
вырабляць
вырабляюцца
вырабляюць
вырабу
вырабы
вырабіу
выражае
выражаецца
выражаны
выраз
выразам
выразау
выразе
выразна
выразнаи
выразнасць
выразнасці
выразная
выразны
выразным
выразных
выразныя
выразу
выразы
выраи
вырас
вырасла
выраслі
вырастае
выратавала
выратаванне
выратавання
выратавау
выратавацца
выратаваць
вырау
вырашае
вырашальнаи
вырашальную
вырашальны
вырашальным
вырашана
вырашаны
вырашаць
вырашаюць
вырашыла
вырашылі
вырашыу
вырашыць
вырашэнне
вырашэння
вырашэнні
вырвау
вырвацца
вырошчваецца
вырошчвалі
вырошчванне
вырошчвання
вырошчваюць
высадзіліся
высадзіу
высадкі
высакародных
высакосны
высветлілася
высветліць
выскачыу
выслана
высланы
выслау
выслоу
выслухау
высмеи
выснову
высновы
высока
высокага
высокае
высокаи
высокапастау
высокау
высокая
высокую
высокі
высокім
высокімі
высокіх
высокія
высоу
высоцкі
выстава
выставак
выставах
выставе
выставка
выставы
выставіу
выставіць
выстау
выступ
выступае
выступала
выступалі
выступам
выступау
выступаць
выступаюць
выступаючы
выступленне
выступлення
выступленняу
выступленні
выступу
выступы
выступіла
выступілі
выступіу
выступіць
высунуу
высшая
высылкі
высілкау
высілкі
вытанчаных
вытворная
вытворных
вытворныя
вытворца
вытворцам
вытворцау
вытворцы
вытворча
вытворчага
вытворчае
вытворчаи
вытворчасцеи
вытворчасць
вытворчасцю
вытворчасці
вытворчая
вытворчы
вытворчых
вытворчыя
вытлумачыць
выток
вытокау
вытоку
вытокі
вытрымала
вытрымау
вытрымаць
вых
выхаванец
выхаванне
выхавання
выхаванні
выхаванцау
выхавау
выхад
выхадам
выхадау
выхадзе
выхадзец
выхадзіу
выхадзіць
выхаду
выхадцамі
выхадцау
выхадцы
выхады
выходзяць
выходзячы
выходзіла
выходзілі
выходзіу
выходзіць
выхоу
выцягнутая
выцягнуты
выцягнутыя
выцягнуу
выцягнуць
выцякае
выш
вышау
вышеи
вышла
вышлі
вышыне
вышынь
вышыню
вышыня
вышынях
вышыні
вышыу
вышэи
выя
выява
выяваи
выявамі
выявах
выяве
выяву
выявы
выявіла
выявілася
выявілі
выявіліся
выявіу
выявіць
выяу
вэб
вэи
вэньбо
вюртэмберг
вюртэмберга
вядзе
вядзенне
вядзення
вядзенні
вядзецца
вядома
вядомага
вядомае
вядомаи
вядомасць
вядомая
вядомую
вядомы
вядомым
вядомымі
вядомых
вядомыя
вядуцца
вядуць
вядучага
вядучаи
вядучая
вядучую
вядучы
вядучым
вядучымі
вядучых
вядучыя
вяземскага
вяземскім
вязень
вязнямі
вязняу
вязні
вяи
вякоу
вякі
вял
вяла
вялася
вяло
вялося
вялі
вялізнаи
вялізная
вялізную
вялізны
вялізных
вялізныя
вяліка
вялікабрытанію
вялікабрытанія
вялікабрытаніяи
вялікабрытаніі
вялікага
вялікадня
вялікае
вялікаи
вялікалітоу
вялікаму
вялікасці
вялікаю
вялікая
вялікдзень
вялікую
вялікшаи
вялікшы
вялікшым
вялікшых
вялікі
вялікім
вялікімі
вялікіх
вялікія
вяліся
вялічка
вянком
вянкі
вянок
вяночак
вярба
вярбоу
вярбы
вярнула
вярнулася
вярнулі
вярнуліся
вярнуся
вярнуу
вярнуцца
вярнуць
вяроу
вярсты
вяртае
вяртаецца
вярталіся
вяртанне
вяртання
вяртанні
вяртау
вяртацца
вяртаюцца
вяртаючыся
вярхоу
вярхі
вярчэння
вяршыню
вяршыня
вяршыняи
вяршыні
вяршэнства
вярэи
вясе
вяселле
вяселля
вяселлі
вяскова
вясковага
вясковаи
вясковая
вясковы
вясковых
вясковыя
вяскоу
вясна
вяснои
вясною
вясну
вясны
вясьці
вятрак
вятроу
вятры
вячаслава
вячаслау
вячэра
вячэрняи
вячэрні
вячэру
вячэры
вяшчанне
вяшчання
ві
віа
від
віда
відавочна
відавочным
відам
відамі
відау
відах
відаць
відзау
відзе
відзы
відна
відно
віду
віды
відэа
відэакліп
візантыи
візантыю
візантыя
візантыяи
візантыі
візіт
візітам
візіту
віи
вік
віка
вікарыи
вікенцьевіч
віктар
віктара
віктаравіч
віктарам
віктарау
вікторыя
вікторыі
вікі
вікікрыніцы
вікімедыя
вікінгау
вікінгі
вікіпедыи
вікіпедыю
вікіпедыя
вікіпедыі
вікісховішча
віла
віле
вілеи
вілем
віленскага
віленскае
віленскаи
віленскаму
віленская
віленскую
віленскі
віленскім
віленскіх
віленскія
віленшчыне
віленшчыны
вілы
вільгаць
вільгаці
вільгельм
вільгельма
вільгельмам
вільготнасць
вільготнасці
вільготны
вільготным
вільготных
вільготныя
вільню
вільнюс
вільнюса
вільнюсе
вільнюскага
вільня
вільні
вільям
вілі
віліі
він
віна
вінавата
вінаваты
вінаватым
вінаватых
вінаград
вінаградау
вінаграду
вінніцкаи
вінніцкая
віно
віном
вінтовак
вінтоу
віну
вінцэнт
вінцэнта
вінцэнты
вінчы
віны
вір
вірау
вірджынія
віртуальны
вірус
віруса
вірусау
вірусы
вісела
віселі
вісеу
вісла
віслы
вісіць
віт
віта
віталь
віталя
віталі
вітаміны
вітау
вітаю
вітгенштэи
вітольд
вітражы
віхор
віцебск
віцебска
віцебскага
віцебскае
віцебскаи
віцебскам
віцебская
віцебску
віцебскую
віцебскі
віцебскім
віцебскія
віцебшчыне
віцебшчыны
віцэ
віцязь
віч
вічы
вішне
вішнеу
вішнявецкага
вішнявецкі
вішні
г
га
гаазе
габрусь
габрыэль
габрыэля
габрэи
габсбург
габсбургау
габсбургі
гаваи
гавань
гавані
гавару
гавары
гаварыла
гаварылася
гаварылі
гаварыу
гаварыць
гавата
гавора
гаворак
гавораць
гаворачы
гаворка
гаворку
гаворкі
гаворцы
гаворыцца
гаворыць
гаворыш
гаврилов
гага
гагарын
гагарына
гагарынскага
гагарынскім
гад
гадавая
гадавога
гадавы
гадавыя
гадавіну
гадавіны
гадамі
гадау
гадах
гадз
гадзін
гадзіна
гадзіне
гадзіннік
гадзінніка
гадзіннікаваи
гадзіннікау
гадзіннікі
гадзіну
гадзіны
гадлеу
гадовага
гадоваи
гадовая
гадовую
гадовы
гадовым
гадоу
гадох
гаду
гады
гае
газ
газа
газаваи
газавых
газавыя
газам
газау
газе
газет
газета
газетаи
газетах
газету
газеты
газеце
газу
газы
газэта
газэты
гаи
гал
гала
галава
галаве
галавои
галавою
галаву
галавы
галадоу
галактык
галактыка
галактыкі
галамі
галандскага
галандскаи
галандская
галандскі
галандскіх
галандскія
галандцы
галандыя
галандыі
галасаванне
галасаваннем
галасавання
галасаванні
галасаваць
галасамі
галасоу
галасы
галау
гале
гален
галена
галерэи
галерэю
галерэя
галерэяи
галерэі
галечы
галовамі
галовы
галодны
галоснага
галосны
галоснымі
галосных
галосныя
галоу
галубка
галубовіч
галубок
галубоу
галы
гальвас
гальшанскі
галілеа
галілеи
галілея
галін
галіна
галінак
галінамі
галінах
галіне
галінкі
галінои
галіну
галінцы
галіны
галісіи
галісіі
галіцка
галіцкага
галіцкі
галіцыі
галіі
гам
гама
гамбург
гамбурга
гамбургу
гамер
гамера
гамлет
гамільтан
ган
гана
ганак
ганараваны
ганаровага
ганаровае
ганароваи
ганаровая
ганаровы
ганаровым
ганаровымі
ганаровых
ганаровыя
гандаль
гандбаліст
гандбалісты
гандболе
гандзі
гандле
гандлем
гандлю
гандлявалі
гандляра
гандляроу
гандляры
гандлі
ганзага
ганзеи
ганка
ганкам
ганконг
ганконга
ганку
ганна
ганнаи
ганне
ганну
ганны
гановер
ганс
ганса
гануля
ганцавіцкага
ганцавіцкім
ганцавічы
ганчароу
ганы
гапон
гапона
гар
гара
гарад
гарада
гарадам
гарадамі
гарадах
гараджан
гараджане
гарадзе
гарадзенскага
гарадзенскі
гарадзец
гарадзецкі
гарадзея
гарадзішча
гарадзішчанскага
гарадзішчы
гарадка
гарадку
гарадок
гарадоу
гарадох
гарадоцкага
гарадоцкі
гарадоцкім
гарадскага
гарадская
гарадскога
гарадское
гарадскои
гарадскому
гарадскую
гарадскі
гарадскім
гарадскімі
гарадскіх
гарадскія
гарады
гаральд
гарамі
гаранскі
гарантуе
гарантыі
гарасім
гарау
гарах
гараць
гарачага
гарачае
гарачаи
гарачая
гарачы
гарачым
гарачых
гарачыя
гарбату
гарбаты
гарбачова
гарбачоу
гарвардскага
гарвыканкама
гардзееу
гардзіенка
гаркама
гармат
гармата
гарматамі
гармату
гарматы
гармонія
гармоніі
гарнізон
гарнізона
гарнізоны
гародня
гародні
гародніна
гародніну
гародніны
гародскаи
гарои
гарох
гарохіу
гарсавета
гарсія
гартнага
гартны
гару
гарун
гаруна
гаршчок
гары
гарызантальна
гарызантальнаи
гарызантальных
гарызанталі
гарызонт
гарызонту
гарыць
гарэла
гарэлка
гарэлку
гарэлкі
гарэлі
гарэу
гарэцкага
гарэцкі
гас
гаса
гасау
гасе
гаспадар
гаспадара
гаспадарак
гаспадарамі
гаспадарання
гаспадарка
гаспадаркаи
гаспадарках
гаспадарку
гаспадаркі
гаспадаром
гаспадароу
гаспадарскі
гаспадарскіх
гаспадарскія
гаспадарства
гаспадару
гаспадарцы
гаспадарчага
гаспадарчае
гаспадарчаи
гаспадарчая
гаспадарчы
гаспадарчым
гаспадарчых
гаспадарчыя
гаспадары
гаспадыня
гаспадыняи
гаспадыні
гасподзь
гасподняга
гасцеи
гасцях
гасцінец
гасцініца
гасцініцы
гатова
гатовая
гатовы
гатовыя
гатоу
гатункау
гатунку
гатункі
гатуюць
гаты
гатычнага
гатычнаи
гатычная
гатычны
гатычным
гатэль
гатэлі
гау
гаць
гаю
гая
гаяны
гаі
гаіці
гбагбо
гвалт
гвалтам
гвалтоу
гвалту
гвардзеи
гвардия
гвардыя
гвардыі
гватэмала
гватэмалы
гвіда
гвінея
гвінеі
гг
гданьск
гданьска
гданьску
где
гдзе
гдр
гду
ге
геаграфічна
геаграфічнага
геаграфічнае
геаграфічнаи
геаграфічная
геаграфічны
геаграфічным
геаграфічных
геаграфічныя
геаграфія
геаграфіі
геалагічнаи
геалагічная
геалагічны
геалагічных
геалагічныя
геалогія
геалогіі
геаметрычнаи
геаметрычных
геаметрычныя
геаметрыя
геаметрыі
гедзіміна
гедрои
геи
гек
гектара
гектарау
геліи
гелію
ген
гена
генавіч
генадзь
генадзя
генам
генау
генацыд
генацыду
гендарсан
генеалогія
генерал
генерала
генералам
генералау
генералу
генералы
генеральнага
генеральнаи
генеральная
генерального
генеральны
генеральным
генеральных
генеральныя
генератар
генерацыі
генетыка
генетыкі
генетычна
генетычныя
генры
генрык
генрыка
генрых
генрыха
генрыхам
генрыху
генуя
генуі
генштаба
геніи
геніюш
генія
географ
географии
географических
география
географы
геолаг
геолага
геолагі
георг
георга
георгии
георгіевіч
георгіеу
георгіи
георгія
гер
гера
герадот
герадота
геракла
геральдычны
геране
геранім
гераніма
герасімовіч
гераізм
гераіня
гераіні
герб
герба
гербам
гербау
гербе
герберт
гербоу
гербу
гербы
геркулес
герман
германа
германскага
германскае
германскаи
германская
германскі
германскім
германскімі
германскіх
германскія
германцау
германцы
германію
германія
германіяи
германіі
герміе
героем
герои
герою
героя
героям
героямі
герояу
героі
гертруда
герцаг
герцага
герцагавіна
герцагавіне
герцагавіны
герцагам
герцагау
герцагства
герцагу
герцагі
герцагіня
герцагіні
герцэна
гестапа
гесэн
гета
гетау
гетман
гетмана
гетманам
гк
гка
гкаатлет
гкаатлетка
гкаатлеты
гкага
гкае
гкаи
гкая
гку
гкую
гкі
гкім
гкіх
гкія
гл
глабальнаи
глабальная
глав
глава
главного
главное
главныи
главои
главы
гладка
гладкаи
гладкая
гладкі
гладкія
глазга
глау
глеб
глеба
глебава
глебазнау
глебау
глебах
глебе
глебка
глебу
глебы
гледача
гледачоу
гледачы
гледжання
гледзячы
глеи
глобус
глупства
глускага
глускім
глуха
глухои
глухі
глухім
глухіу
глухіх
глухія
глушы
глыб
глыбеи
глыбока
глыбокага
глыбокае
глыбокаи
глыбокая
глыбокую
глыбокі
глыбокім
глыбокімі
глыбокіх
глыбокія
глыбоцкага
глыбоцкаи
глыбоцкі
глыбоцкім
глыбіне
глыбіню
глыбіня
глыбінях
глыбіні
гляджу
глядзела
глядзелі
глядзеу
глядзець
глядзяць
глядзі
глядзіце
глядзіць
глядзіш
глянуу
глянуць
глянь
глі
гліна
глінкау
глінкі
глінскі
гліны
гліняныя
глінішча
гм
гміна
гміне
гміну
гміны
гналі
гнау
гне
гневу
гнеи
гнеу
гнои
гномау
гнязда
гняздзе
гняздо
гняздуецца
го
говард
гога
гогаля
гогенштау
год
года
годавызваленне
годам
годаосвобождение
годах
годдзе
годдзю
годдзя
годдзі
годзе
годзерешение
годзі
годна
годнасць
годнасці
годов
году
годы
гои
гол
голад
голадам
голаду
голае
голас
голасам
голасе
голасна
голасу
голау
голос
голуб
голубеу
голы
голым
голыя
голь
гольштэи
гоман
гомасексуальных
гомелем
гомель
гомельскага
гомельскаи
гомельская
гомельского
гомельскои
гомельскі
гомельскім
гомеля
гомелі
гон
гонар
гонарам
гонару
гонка
гонках
гонку
гонкі
гонцы
гончыя
гоніць
гор
гора
горад
горада
горадабудау
горадам
горадзе
горадня
горадні
гораду
горам
горах
горацкага
горацкі
горацкім
горача
горват
горватау
горда
горды
горка
горкага
горкау
горках
горки
горкі
горкім
горла
горле
горна
горнага
горнаи
горная
горны
горным
горнымі
горных
горныя
город
города
городов
городского
горскі
гору
горцы
горш
горшы
горы
гос
госпад
госпада
госпадзе
государства
государственная
государственного
государственное
государственнои
государственныи
государство
госцем
госць
госця
госці
госьці
готау
готфрыд
готы
готыка
готыкі
гоу
гоя
гр
гра
грабніца
грабніцы
грабоу
гравау
граве
гравюр
гравюра
гравюры
гравітацыи
гравітацыя
гравітацыі
град
града
граду
градусау
грады
грае
гражданская
гражданских
гразь
гразі
граи
грала
гралі
грам
грамад
грамада
грамадау
грамадзе
грамадзян
грамадзянам
грамадзянамі
грамадзяне
грамадзянскага
грамадзянскае
грамадзянскаи
грамадзянская
грамадзянскую
грамадзянскі
грамадзянскім
грамадзянскіх
грамадзянскія
грамадзянства
грамадзянін
грамадзяніна
грамадзянінам
грамадои
грамадска
грамадскага
грамадскае
грамадскаи
грамадскасць
грамадскасці
грамадская
грамадскую
грамадскі
грамадскім
грамадскімі
грамадскіх
грамадскія
грамадства
грамадствам
грамадстве
грамаду
грамады
грамат
грамата
граматаи
граматамі
грамату
граматы
граматыка
граматыку
граматыкі
грамаце
грамыка
гран
гранат
гранатаме
гранаты
гранд
грандые
гране
границ
грант
грані
граніт
граніту
граніц
граніца
граніцах
граніцу
граніцы
грау
граф
графа
графам
графау
графства
графствау
графстве
графствы
графу
графы
графік
графіка
графікі
графіня
графіні
графіцы
графічны
графічных
графічныя
грахоу
грахі
граць
грашоваи
грашовая
грашовую
грашовых
грашовыя
грашыма
граюць
грду
гриневич
грицкевич
гродзенскага
гродзенскаи
гродзенская
гродзенскі
гродзенскім
гродзеншчыны
гродна
гродне
гродненского
гродненскои
гродно
грозау
грозна
грознага
грозны
грозным
гром
грому
громыко
грос
гросмаи
грош
грошаи
грошау
грошеи
грошы
гру
груба
грудзе
грудзеи
грудзьмі
грудзях
грудзі
груднога
грудное
груднои
грудным
груз
грузавы
грузавых
грузавыя
грузавік
грузавікоу
грузау
грузу
грузы
грузінскага
грузінскаи
грузінская
грузінскі
грузія
грузіі
грукат
грунвальдскаи
грунт
грунтавалася
грунтоу
грунту
грунтуецца
грунтуючыся
грунты
грунце
груп
група
групавога
групавы
групавым
групавых
групаи
групамі
групах
групе
груповак
групоу
группа
группы
групу
групы
груша
грушау
грушы
грыб
грыба
грыбоу
грыбы
грыгарыянскім
грыгор
грыгорыи
грыгорыя
грызуноу
грым
грын
грыневіч
грыу
грыцкевіч
грыш
грэбень
грэблі
грэи
грэка
грэкамі
грэкау
грэкі
грэм
грэмі
грэнадзе
грэнландыя
грэнландыі
грэх
грэцкага
грэцкаи
грэцкі
грэцыю
грэцыя
грэцыяи
грэцыі
грэч
грэчаскага
грэчаскае
грэчаскаи
грэчаская
грэчаскую
грэчаскі
грэчаскім
грэчаскіх
грэчаскія
гу
гуаи
гуарані
губ
губа
губамі
губернатар
губернатара
губернатарам
губернатарау
губернатарства
губернатары
губернии
губерния
губернскага
губернскаи
губернскі
губернскім
губернскіх
губернскія
губерню
губерня
губерняу
губернях
губерні
губерніисторическая
губерніі
губляе
губляць
губляюць
губы
губэрні
гуга
гудагаи
гудзе
гузік
гук
гука
гукавых
гукам
гукарэжысе
гукау
гукнуу
гуку
гукі
гул
гулец
гульне
гульню
гульня
гульнявога
гульнявои
гульнявы
гульнявых
гульнявыя
гульнямі
гульняу
гульнях
гульні
гультаи
гульца
гульцом
гульцоу
гульцу
гульцы
гуляе
гуляи
гуляла
гулялі
гуляу
гуляць
гуляюць
гуляючы
гуманізму
гуманіст
гуманітарнага
гуманітарнаи
гуманітарны
гуманітарных
гуманітарныя
гумар
гумару
гумне
гумно
гунау
гур
гурт
гурта
гуртам
гуртка
гурткоу
гурткі
гурток
гуртом
гуртоу
гурту
гурты
гурце
гуры
гурыновіч
гусак
гусеи
гусоу
густ
густа
густава
густавам
густам
густау
густая
густои
густоу
густу
густы
густым
густымі
густых
густыя
гусцін
гусі
гута
гутарак
гутарка
гутарковаи
гутарку
гутаркі
гутарцы
гутарылі
гутарыць
гучанне
гучання
гучаць
гучна
гучны
гучыць
гушчы
гую
гц
гэ
гэи
гэльскаи
гэля
гэны
гэныя
гэры
гэс
гэта
гэтага
гэтаго
гэтае
гэтаи
гэтак
гэтаксама
гэтакі
гэтаму
гэтаю
гэтая
гэткага
гэткае
гэткаи
гэткая
гэткую
гэткі
гэткім
гэткіх
гэткія
гэту
гэтулькі
гэтую
гэты
гэтым
гэтымі
гэтых
гэтыя
гюи
гі
гібель
гібелі
гігантау
гігіены
гігін
гідра
гідраграфія
гідрау
гіе
гіл
гілберт
гілевіч
гільдыі
гілье
гім
гімн
гімна
гімназіи
гімназію
гімназія
гімназіі
гімнам
гімнасты
гімнастыка
гімнастыцы
гімнау
гімны
гімі
гінава
гінау
гіне
гінуць
гіпотэза
гіпотэзу
гіпотэзы
гіст
гістарычна
гістарычнага
гістарычнае
гістарычнаи
гістарычная
гістарычную
гістарычны
гістарычным
гістарычнымі
гістарычных
гістарычныя
гістарыяграфія
гістарыяграфіі
гісторыи
гісторык
гісторыка
гісторыкам
гісторыкамі
гісторыкау
гісторыкі
гісторыю
гісторыя
гісторыяи
гісторыі
гітара
гітары
гітарыст
гітлер
гітлера
гітлерау
гітліна
гітоу
гіх
гія
гіі
д
да
дабау
дабра
дабрабыт
дабрабыту
дабравешчання
дабрадзеи
дабраліся
дабрау
дабрацца
дабро
дабром
дабудаваны
дабі
дабіу
дабіцца
дава
даваи
давала
давалася
давалі
давау
даваць
даве
даведалася
даведаліся
даведау
даведацца
даведка
даведнік
давер
даверу
давесці
даводзілася
даводзіу
даводзіцца
даводзіць
давои
даволі
давы
давыд
давыда
давыдау
давядзецца
давялося
давід
давіда
дагавор
дагавора
дагаворам
дагаворау
дагавору
дагаворы
дагары
дагестан
дагестана
дагэтуль
дадаваць
дададзена
дададзены
дадае
дадаецца
дадала
дадалі
даданне
даданнем
дадання
дадатак
дадаткам
дадаткау
дадаткова
дадатковага
дадатковае
дадатковаи
дадатковая
дадатковую
дадатковы
дадатковым
дадатковымі
дадатковых
дадатковыя
дадатку
дадаткі
дадау
дадаць
дадаюцца
дадаюць
дадзена
дадзенага
дадзенае
дадзенаи
дадзеная
дадзеную
дадзены
дадзеным
дадзенымі
дадзеных
дадзеныя
дадзіе
дадому
дадуць
дае
даецца
дажджавыя
дажджом
дажджоу
дажджу
дажджы
дажынкі
дажыу
дазваляе
дазваляецца
дазваляла
дазвалялася
дазвалялі
дазваляу
дазваляюць
дазваляючы
дазвол
дазволена
дазволу
дазвольце
дазволіла
дазволілі
дазволіу
дазволіць
даи
дак
даказана
даказау
даказаць
даклад
дакладам
дакладзе
дакладна
дакладнага
дакладнае
дакладнаи
дакладнасць
дакладнасцю
дакладнасці
дакладная
дакладнеи
дакладную
дакладны
дакладным
дакладных
дакладныя
даклады
дакрануу
дактароу
дактары
дактрына
дактрыны
дакум
дакумент
дакумента
дакументальна
дакументальнага
дакументальная
дакументальны
дакументальных
дакументальныя
дакументам
дакументамі
дакументау
дакументах
дакументацыя
дакументацыі
дакументы
дакуменце
дакія
дал
дала
далага
далаи
далася
далая
дале
далеи
далмацыі
дало
далоні
далося
далоу
далучаецца
далучана
далучаны
далучаюцца
далучылася
далучыліся
далучыу
далучыцца
далучыць
далучэнне
далучэння
далучэнні
далую
далы
далым
далых
далыя
даль
дальні
далярау
далі
далікатна
далін
даліна
далінаи
далінамі
далінах
даліне
даліну
даліны
дам
дама
дамагау
дамагацца
дамаглася
дамагліся
дамагчыся
дамамі
дамаск
дамаска
дамах
дамблдор
дамброу
дамбы
дамеи
дамен
дамена
даменнаи
даменіка
дамова
дамоваи
дамове
дамову
дамовы
дамовіліся
дамовіцца
дамогся
дамоу
дамы
дамінавау
дамінга
дамінуе
дамінуюць
дамініе
дамінік
дамініка
дамініканскаи
дамініканскі
дамініканцау
дан
дана
данава
данау
данбаса
дане
данецк
данецкаи
данецкая
данные
данных
данскога
данскі
дантэ
даны
даным
даных
даныя
даніла
данілавіч
данілау
данілка
данілы
данім
данімам
данімамі
данімы
даніну
даніны
даніэль
данію
данія
даніяи
даніі
данііл
данііла
дапам
дапамагае
дапамагала
дапамагалі
дапамагау
дапамагаць
дапамагаюць
дапамагла
дапамагло
дапамаглі
дапамагчы
дапамог
дапамога
дапамогаи
дапамогаю
дапамогу
дапамогі
дапаможа
дапаможнаи
дапаможная
дапаможны
дапаможных
дапаможныя
дапаможнік
дапаможнікау
дапаможнікі
дапамозе
дапау
дапоу
дапрацаваны
дапрацоу
дапускае
дапускаецца
дапусціу
дапусціць
дапушчэнне
дар
дара
дарава
даравау
дараваць
даравіч
даравіча
дарагабужскаи
дарагая
дарагои
дарагі
дарагім
дарагіх
дарагія
дарадца
дарадцам
даражэи
дарам
дарамі
дарау
дарках
дарма
дарог
дарога
дарогаи
дарогамі
дарогах
дарогаю
дарогу
дарогі
дарожка
дарожкі
дарожна
дарожнага
дарожны
дарожных
дарозе
дарослага
дарослым
дарослых
дарослыя
дароу
дару
даруи
дарускім
даручана
даручыу
даручэнні
дары
дарыи
дарыу
дарэвалюцыи
дарэмна
дарэчы
дасканала
дасканаласці
дасканаленне
дасканалення
даслау
даследавалі
даследаванне
даследаваннем
даследавання
даследаваннямі
даследаванняу
даследаваннях
даследаванні
даследаваны
даследавау
даследаваць
даследванняу
даследванні
даследуе
даследчага
даследчаи
даследчая
даследчы
даследчык
даследчыка
даследчыкам
даследчыкамі
даследчыкау
даследчыкі
даследчым
даследчых
даследчыя
даслоу
даставілі
даставіць
дастаеу
дасталася
дасталіся
дастаткова
дастатковаи
дастатковую
дастатку
дастау
дастаць
дастоены
дастои
даступна
даступнаи
даступная
даступны
даступных
даступныя
дасца
дасць
дасье
дасьць
дасюль
дасягае
дасягаецца
дасягала
дасягалі
дасягау
дасягаць
дасягаюць
дасягненне
дасягненнем
дасягнення
дасягненняу
дасягненні
дасягнула
дасягнулі
дасягнута
дасягнуты
дасягнуу
дасягнуць
дат
дата
датаваны
датаваныя
датаи
дату
датуецца
датуль
датуюцца
даты
датычна
датычыцца
датычыць
датэрмінова
дау
дах
даха
дахам
дахамі
дахаты
дахау
даход
даходау
даходзіла
даходзілі
даходзіу
даходзіць
даходу
даходы
даху
дахі
дацкага
дацкаи
дацкая
дацкі
дацкім
дацкіх
дацкія
даць
дацэнт
дацэнта
дацэнтам
дач
дача
дачаи
дачакау
дачка
дачкои
дачку
дачкі
дачок
дачу
дачушка
дачцы
дачцэ
дачы
дачыненне
дачынення
дачыненні
дашкевіч
дашкольная
дашчэнту
даю
даюцца
даюць
даючы
даізм
дбаи
два
дваи
дванаццаць
дванаццаці
двара
дваран
дваране
дваранскага
дваранскаи
дваранскіх
дваранства
дваранін
двараніна
дварах
дваром
двароу
двары
дварэ
дварэцкі
дваццаць
дваццаці
двая
дваіх
две
движение
движения
двое
двои
двор
дворец
дворышча
двох
двум
двума
двух
двухбаковая
двухгадовы
двухмоу
двухпавярховы
двухразовы
двухсхільным
де
дегтярев
деи
декабря
дел
дела
дело
дембовецкого
день
департамент
депутатов
деревни
детеи
дети
деятельности
деятельность
дж
джавані
джад
джаз
джаи
джакама
джан
джана
джане
джанкои
джанскага
джанскаи
джанская
джанскі
джанскіх
джанскія
джанцы
джо
джозеф
джои
джон
джона
джонам
джонс
джонса
джонсан
джоні
джордж
джорджа
джорджыя
джота
джузэпэ
джульета
джулія
джунгляу
джыбуці
джым
джымі
джын
джэи
джэк
джэка
джэксан
джэксана
джэрсі
джэсі
джэфры
дз
дзве
дзверы
дзвесце
дзвюма
дзвюх
дзвярах
дзвярыма
дзвярэи
дзвіна
дзвіне
дзвіну
дзвіны
дзе
дзева
дзевы
дзевяноста
дзевяць
дзевяці
дзед
дзеда
дзедам
дзедау
дзеду
дзеи
дзекуць
дзел
дзела
дзелавога
дзелам
дзеле
дзелу
дзель
дзельнік
дзельніка
дзельнікам
дзельнікамі
дзельнікау
дзельнікі
дзельнічае
дзельнічала
дзельнічалі
дзельнічау
дзельнічаць
дзельнічаюць
дзеля
дзеляцца
дзеляць
дзеліцца
дзеліць
дзем
дзена
дзеная
дзены
дзеных
дзеныя
дзень
дзерау
дзержау
дзес
дзесь
дзесьці
дзесяткау
дзесяткі
дзесяць
дзесяці
дзесяцігоддзе
дзесяцігоддзя
дзесяцігоддзяу
дзесяцігоддзі
дзесяцін
дзесяціны
дзетак
дзеткі
дзеу
дзеце
дзецца
дзецьмі
дзецям
дзеці
дзеш
дзеючага
дзеючаи
дзеючая
дзеючую
дзеючы
дзеючым
дзеючых
дзеючыя
дзея
дзеянне
дзеяннем
дзеяння
дзеяннямі
дзеянняу
дзеяннях
дзеянні
дзеяслова
дзеясловау
дзеясловы
дзеяслоу
дзеяу
дзеяч
дзеяча
дзеячам
дзеячамі
дзеячау
дзеячоу
дзеячы
дзеі
дзмітрыевіч
дзмітрыем
дзмітрыеу
дзмітрыи
дзмітрыя
дзьве
дзьверы
дзьвіны
дзье
дзю
дзюба
дзюдо
дзюи
дзюрэр
дзюрэра
дзявоцтве
дзявяты
дзядзька
дзядзькам
дзядзьку
дзядзькі
дзядзя
дзядзінец
дзядок
дзядоу
дзядуля
дзяды
дзяк
дзякаваць
дзякуи
дзякую
дзякуючы
дзяленне
дзялення
дзяліліся
дзяліу
дзяліць
дзям
дзямідау
дзянікін
дзянікіна
дзяніс
дзянісау
дзярж
дзяржава
дзяржаваи
дзяржавамі
дзяржавах
дзяржаве
дзяржаву
дзяржавы
дзяржау
дзяржынск
дзяржынскага
дзяржынскі
дзяржынскім
дзярнова
дзярновіч
дзясяткау
дзясятку
дзясяткі
дзятлава
дзятлау
дзяу
дзяцеи
дзяцюк
дзяцінства
дзяцінстве
дзяячка
дзі
дзіва
дзівае
дзівая
дзівы
дзівіу
дзівіцца
дзіды
дзіи
дзік
дзіка
дзікага
дзікае
дзікаи
дзікая
дзікі
дзікім
дзікіх
дзікія
дзін
дзіна
дзірак
дзірка
дзіркі
дзісенск
дзісенскага
дзісна
дзісны
дзіу
дзіце
дзіцем
дзіць
дзіця
дзіцяне
дзіцятка
дзіцяці
дзіцяча
дзіцячага
дзіцячаи
дзіцячая
дзіцячую
дзіцячы
дзіцячым
дзіцячых
дзіцячыя
дзія
динамо
диссертации
диссертация
дк
дка
дкі
для
дмитрии
дн
дна
днага
днае
днаи
днаму
днасць
днасці
дная
дне
днеи
днепр
днепра
днепрапятроу
дни
днк
дно
дном
днр
днс
дную
дны
дным
днымі
дных
дныя
дню
дня
днямі
дняпра
дняпро
дняпром
дняпроу
дняпры
днястра
днях
дні
дніпроу
до
доблесную
доблесць
добра
добраахвотна
добраахвотнікам
добраахвотнікау
добраахвотнікі
добраахвотніцкаи
добрага
добрае
добраи
добрау
добрая
добрушскага
добрушскім
добрую
добры
добрым
добрымі
добрых
добрыя
довады
догляд
догляду
дождж
дои
доказ
доказам
доказау
доказу
доказы
доктар
доктара
доктарам
доктарскаи
доктарскую
доктарскіх
доктор
доктора
документов
документы
докшыцкага
докшыцкі
докшыцкім
докшыцы
дол
долар
доларау
долю
доля
доляи
долі
дом
дома
домам
домбі
доме
дому
дон
дона
дональд
дональда
доне
дону
доп
допыт
дорага
дорога
дортмунд
досвед
досведу
доступ
доступа
доступу
досыць
досіць
дот
доу
дочак
дочкі
дочь
дошак
дошка
дошкамі
дошку
дошкі
дошцы
доэрці
дп
дпу
др
драбнеи
драгічынскага
драгічынскі
драгічынскім
драздовіч
драздоу
дразды
драи
дракон
дракона
драма
драматург
драматурга
драматургі
драматургія
драматургіі
драматычнага
драматычнаи
драматычная
драматычны
драматычным
драматычных
драматычныя
драме
драму
драмы
драпежных
драпежнікау
драпежнікі
драу
драчык
древнего
древнеи
древних
древностеи
древности
древняя
дробна
дробнага
дробнае
дробнаи
дробная
дробны
дробным
дробнымі
дробных
дробныя
дровы
дрозд
дроту
дроу
дру
друг
друга
другасныя
другая
другие
других
другога
другое
другои
другому
другою
другую
другі
другім
другімі
другіх
другія
друеу
дружа
дружба
дружбы
дружна
дружны
дружына
дружыны
друи
друк
друкавала
друкавалася
друкаваліся
друкаванаи
друкаваны
друкаваных
друкаваныя
друкавау
друкавацца
друкаваць
друкарню
друкарня
друкарні
друку
друкуе
друкуецца
друкуюцца
друцк
друцкага
друцкі
друцкіх
друць
друя
дры
дрыбінскага
дрыбінскім
дрыга
дрыжыць
дрыса
дрэва
дрэваапрацоу
дрэвам
дрэвамі
дрэвау
дрэвах
дрэве
дрэвы
дрэздэн
дрэздэне
дрэи
дрэнна
дрэннага
дрэннае
дрэнны
дрэнным
дрэнныя
дрэу
дс
дскі
ду
дуа
дуб
дуба
дубаи
дубеи
дубль
дубля
дубна
дубовы
дубовых
дубовыя
дубоу
дубрава
дубрау
дуброва
дубровенскага
дубровенскі
дубровенскім
дубровы
дуброу
дубы
дубільныя
дуглас
дугі
дуда
дудар
дудка
дуды
дужа
дужках
дужкі
дужы
дужэи
дук
дукора
дум
дума
думае
думаеце
думаеш
думаи
думак
думала
думалі
думау
думаць
думаю
думаюць
думаючы
думе
думка
думкаи
думкамі
думках
думку
думкі
думу
думцы
думы
дунаи
дуная
дунаі
дункан
дунілавіцкага
дунін
дуніна
дурань
дурная
дурны
дух
духа
духавенства
духам
духау
духоу
духу
духі
дуць
дучы
дучыц
душ
душа
душанбэ
душои
душою
душу
душы
душыць
душэу
дуэт
ды
дыван
дываны
дыверсіи
дывізіе
дывізіи
дывізію
дывізія
дывізіяи
дывізіі
дые
дыега
дызаи
дызель
дыи
дык
дыктатара
дыктатура
дыктатуры
дым
дымам
дымоу
дыму
дыназау
дынама
дынамау
дынаміка
дынаміку
дынамікі
дынастыи
дынастыю
дынастыя
дынастыяи
дынастыі
дыпламат
дыпламатау
дыпламаты
дыпламатычнаи
дыпламатычны
дыпламатычных
дыпламатычныя
дыпламатыі
дыплом
дыпломам
дырыжор
дырыжора
дырыжорам
дырыжоры
дырэктар
дырэктара
дырэктарам
дырэктарау
дырэктары
дырэктывы
дырэкцыі
дысертацыи
дысертацыю
дысертацыя
дысертацыі
дыск
дыска
дыскаверы
дыскаграфія
дыскау
дыскрымінацыі
дыску
дыскусіи
дыскусію
дыскусія
дыскусіі
дыскі
дыслакацыі
дыстанцыи
дыстанцыях
дыстанцыі
дысцыплін
дысцыпліна
дысцыплінах
дысцыпліны
дыторыі
дыферэнцыяльных
дыханне
дыхання
дыхаць
дыяганалі
дыягназ
дыягностыка
дыягностыкі
дыякан
дыялект
дыялектау
дыялектах
дыялекту
дыялекты
дыялекце
дыялог
дыялогу
дыялогі
дыяметр
дыяметра
дыяметрам
дыяметры
дыяна
дыяпазон
дыяпазоне
дыяпазону
дыяспара
дыяспары
дыяцэзія
дыяцэзіі
дэ
дэбют
дэбютавала
дэбютавау
дэбютны
дэвід
дэвіда
дэвідам
дэвіз
дэвізам
дэвіс
дэвіса
дэга
дэи
дэкалог
дэкан
дэкана
дэканам
дэканат
дэканата
дэканы
дэкаратыу
дэкарацыі
дэкарыраваны
дэкларацыю
дэкларацыя
дэкларацыі
дэкор
дэкору
дэкрэт
дэкрэта
дэкрэтам
дэла
дэлегат
дэлегатам
дэлегатау
дэлегаты
дэлегацыю
дэлегацыя
дэлегацыі
дэль
дэльта
дэльты
дэльце
дэлі
дэма
дэмабілізаваны
дэмабілізацыі
дэмаграфія
дэмакратау
дэмакраты
дэмакратычнага
дэмакратычнаи
дэмакратычная
дэмакратычную
дэмакратычны
дэмакратычным
дэмакратычных
дэмакратычныя
дэмакратыю
дэмакратыя
дэмакратыі
дэманстрантау
дэманстранты
дэманстрацыи
дэманстрацыя
дэманстрацыі
дэманструе
дэманструюць
дэн
дэна
дэні
дэпартамент
дэпартамента
дэпартаментау
дэпартаменты
дэпартаменце
дэпартацыі
дэпо
дэпрэсіі
дэпутат
дэпутата
дэпутатам
дэпутатамі
дэпутатау
дэпутаты
дэр
дэрбі
дэсант
дэсантнаи
дэтале
дэталеи
дэталь
дэталяу
дэталях
дэталі
дэтрои
дэтэктыу
дэфіцыт
дэі
дюсш
е
ева
евангелле
евангелля
евангелляу
евангеллях
евангеллі
евангелістау
евгении
евдокимов
евреи
европеи
европы
евы
евіч
его
егу
егіпет
егіпецкага
егіпецкаи
егіпецкі
егіпецкіх
егіпецкія
егіпта
егіптам
егіпце
егіпцян
егіпцяне
едзе
единиц
еду
едуць
ее
ежа
ежаи
ежу
ежы
езд
езда
ездам
ездау
ездах
ездзе
ездзілі
ездзіу
ездзіць
езду
езды
езус
езуса
езуітау
езуіты
езуіцкага
езуіцкаи
езуіцкі
езуіцкім
езуіцкіх
еи
екатеринбург
екацярынбург
ект
екта
ектам
ектамі
ектау
ектах
екты
ектыу
ела
елена
елка
елкі
ельзи
ельнінска
ельнінскага
ельнінскім
ельскага
ельскі
ельскім
ельцына
елі
елізавета
елізаветы
ем
емен
емена
емене
емнаи
емонт
ему
ен
ена
енциклопедія
енісеи
епархии
епархіи
епархія
епархіі
епіскап
епіскапа
епіскапам
епіскапау
епіскапы
ер
ера
ерам
ерамі
ерау
ереван
ермаловіч
еру
ерузалім
еры
ерэван
ерэвана
ерэване
ес
еса
есе
если
ест
естли
естъ
есть
есу
есць
есці
есы
есьць
есьці
ет
ета
етнам
етнама
етнаме
етнамскаи
етра
еу
ефрасінні
ехала
ехалі
ехау
ехаць
ецца
еш
ешчэ
еще
ж
жа
жаб
жаба
жабы
жабінка
жабінкау
жавер
жадае
жадала
жадалі
жаданне
жаданнем
жадання
жаданні
жаданьне
жадау
жадаю
жадаюць
жадаючы
жазеф
жазэ
жак
жака
жакевіч
жала
жалеза
жалезабетонных
жалезам
жалезнага
жалезнаи
жалезная
жалезны
жалезным
жалезнымі
жалезных
жалезныя
жалеи
жалем
жаль
жальбы
жалю
жамои
жан
жана
жанам
жанаты
жанеи
жанна
жаночага
жаночае
жаночаи
жаночая
жаночую
жаночы
жаночым
жаночых
жаночыя
жанр
жанрау
жанрах
жанру
жанры
жанчын
жанчына
жанчынаи
жанчынам
жанчынамі
жанчыне
жанчыну
жанчыны
жаны
жаныя
жанэи
жаніу
жаніх
жаніха
жаніцца
жаніцьба
жар
жарт
жартам
жартау
жартоу
жарты
жау
жах
жахам
жахау
жаху
жаць
жды
же
животных
жизни
жизнь
жкі
жлобін
жлобінскага
жлобінскі
жлобінскім
жн
жна
жнага
жнаи
жная
жны
жнымі
жных
жныя
жніва
жнівень
жніво
жніу
жо
жодзіна
жодзішкау
жонак
жонд
жонду
жонка
жонкаи
жонкаю
жонку
жонкі
жонцы
жорж
жорстка
жорсткага
жорсткае
жорсткаи
жорсткасць
жорсткасці
жорсткая
жорсткую
жорсткі
жорсткім
жорсткімі
жорсткіх
жорсткія
жоу
жуан
жуана
жук
жука
жукава
жукау
жукоу
жукі
жуль
журавель
журау
журнал
журналіст
журналіста
журналістам
журналістау
журналістка
журналісты
журналістыка
журналістыкі
журы
жъ
жы
жыва
жывае
жываецца
жывалася
жывалі
жываліся
жыванне
жывання
жыванні
жывапіс
жывапісам
жывапісе
жывапісец
жывапісных
жывапісу
жывапісца
жывапісцау
жывата
жывау
жываце
жывацца
жываць
жываюцца
жываюць
жывая
жыве
жывеш
жывога
жывое
жывои
жывот
жыву
жывуць
жывучы
жывую
жывы
жывым
жывымі
жывых
жывыя
жыві
жыгімонт
жыгімонта
жыгімонтам
жыд
жыдачыу
жыдоу
жыды
жыла
жылася
жылах
жылка
жылкі
жылле
жылля
жыло
жылога
жылои
жылося
жылы
жылым
жылымі
жылых
жылыя
жылі
жыне
жыню
жыня
жыні
жыркоу
жыта
жытак
жыткавіцкага
жыткавіцкі
жыткавіцкім
жыткавічы
жытку
жытла
жытло
жытлы
жытомірскаи
жыу
жых
жыхар
жыхара
жыхарам
жыхарамі
жыхарау
жыхароу
жыхарства
жыхары
жыцца
жыцце
жыццю
жыцця
жыццядзеи
жыццяпіс
жыцці
жыць
жыцьце
жыцьця
жыцьці
жыці
жэ
жэи
жэневе
жэнеу
жэнне
жэння
жэрмен
з
за
заазер
заалогіі
заапарк
заб
забаве
забавы
забаи
забалацце
забалоцце
забалочанаи
забалочаная
забалочаных
забалочаныя
забараняе
забараняецца
забаранялася
забараняу
забаранілі
забараніу
забараніць
забарона
забаронаи
забароне
забаронена
забаронены
забароненых
забароненыя
забарону
забароны
забастоу
забау
забеспячэнне
забеспячэннем
забеспячэння
забеспячэнні
заблакіраваных
забои
забор
забрала
забралі
забрау
забраць
забруджвання
забудавана
забудаванаи
забудова
забудову
забудовы
забудоу
забылася
забыліся
забыты
забыу
забыцца
забыць
забяспечаны
забяспечвае
забяспечваецца
забяспечвала
забяспечвалі
забяспечвау
забяспечваць
забяспечваюць
забяспечыла
забяспечыу
забяспечыць
забівае
забівалі
забівау
забіваць
забіваюць
забіла
забілі
забірае
забіта
забітага
забіты
забітымі
забітых
забітыя
забіу
забіць
завае
завальнюк
заваявала
заваявалі
заваявана
заваяванне
заваявання
заваяванні
заваяваны
заваяваных
заваявау
заваяваць
заве
завершана
завершаная
завершаны
завершаным
завецца
завод
завода
заводам
заводау
заводах
заводзе
заводзіць
заводу
заводы
завочна
завулак
завулка
завулкам
завулку
завулкі
завуцца
завуццеу
завуць
завяршае
завяршаецца
завяршыла
завяршылася
завяршыліся
завяршыу
завяршыць
завяршэнне
завяршэннем
завяршэння
завяршэнні
завіруха
завіша
загаварыу
загад
загадала
загадалі
загадам
загадана
загадау
загадвае
загадвау
загадзе
загадзя
загадка
загадкі
загаду
загадчык
загадчыка
загадчыкам
загады
загаловак
загалоу
загарэу
загл
загляне
загор
заграб
загрузкі
загубілі
загіне
загінула
загінулым
загінулых
загінулі
загінуу
загінуць
зад
задавальненне
задавальнення
задавальняе
задаволена
задаволены
задаволіу
задаволіць
зададзены
заданне
задання
заданняу
заданні
задау
задач
задача
задачаи
задачамі
задачу
задачы
задзеи
задняга
задняи
задняя
задні
заднім
задніх
заднія
задоу
задума
задумау
задуме
задумы
задушана
заемаадносіны
заемадзеи
заемадзеянне
заемадзеяння
заемадзеянні
заемна
заемнага
заемнаи
заж
зажау
зажу
зажы
заз
зазвычаи
зазначае
зазначыу
зазначыць
заи
заказ
заказау
заказнік
заказніка
заказнікі
заказу
заказы
заканадау
заканамернасці
заканчваецца
заканчваюцца
заканчэнне
заканчэння
заканчэнні
закарпацкаи
закау
закаханы
заклад
закладзена
закладзены
закладнікау
заклалі
заклау
заключаецца
заключалася
заключана
заключаны
заключыла
заключылі
заключыу
заключыць
заключэнне
заключэння
заключэнні
заклік
заклікае
заклікала
заклікалі
заклікам
закліканы
заклікау
заклікаючы
заклікі
закон
закона
законам
законамі
законапраект
законау
законах
законе
законнасці
законным
законных
законов
закону
закончыу
законы
закранула
закранулі
закрануу
закрылі
закрыта
закрытая
закрыты
закрытым
закрытых
закрытыя
закрыу
закрыцце
закрыцця
закрыць
закрычау
закінуты
зал
зала
залаи
залатая
залатога
залатое
залатои
залатую
залаты
залатым
залатымі
залатых
залатыя
залау
залах
зале
залежала
залежаць
залежнасць
залежнасці
залежнасьці
залежных
залежныя
залежыць
залеи
залескага
залескі
залессе
залоз
залозы
залу
залы
зальцбург
залі
заліва
залівам
залівау
заліве
залівы
залік
заліку
заліу
залічаны
залішне
зам
замак
замале
замау
замах
замаху
замацавалася
замацавана
замацавання
замацаваны
замацавау
замацавацца
замацаваць
замацоу
замбіі
заме
замежжа
замежнага
замежнаи
замежная
замежны
замежным
замежнымі
замежных
замежныя
замежнікау
замен
замена
заменгоф
заменена
заменены
замену
замены
замест
заместа
замка
замкаваи
замкавая
замкавы
замкам
замкау
замкне
замкнуу
замку
замкі
замове
заможнага
заможных
заможныя
замои
замок
замоу
замошша
замуж
замужам
замчышча
замяняе
замяняецца
замяніла
замянілі
замяніу
замяніць
замярзае
зан
занадта
зане
занесена
занесены
заносяцца
заняла
заняло
занялі
заняпад
заняпаду
занята
занятак
занятасці
занятая
заняткам
заняткамі
заняткау
заняткі
заняты
занятых
занятыя
заняу
заняцца
заняцця
заняць
заолаг
зап
запаведнік
запаведніка
запаведнікі
запавет
запавету
запавеце
западно
западного
западнои
западных
запазычаны
запазычаных
запазычаныя
запал
запалам
запаленне
запаліу
запар
запарожжа
запарожскаи
запас
запасау
запасе
запасных
запасу
запасы
запатрабавала
запатрабавалі
запатрабавау
запау
записки
заплакала
заплакау
запланавана
запланаваны
заплатити
заплаціу
заплаціць
заполле
запольскага
запольскі
запоу
запрасілі
запрасіу
запрау
запрашае
запрашэнне
запрашэнні
запрошаны
запрошаныя
запуск
запуску
запусціу
запушчана
запушчаны
запыт
запытала
запыталася
запытанне
запытау
запытаць
запыты
запэу
запіс
запісала
запісалі
запісам
запісана
запісаны
запісаныя
запісау
запісах
запісаць
запісваецца
запісвау
запісваць
запісе
запіску
запіскі
запісу
запісы
зара
зараастрыи
зарабіу
зарабіць
зарад
зарада
зарадау
зараджаных
зараду
заражэння
зараз
зараснікі
зарастае
заробак
заробку
заручыны
заручыу
зары
зарэ
зарэгістравана
зарэгістраваная
зарэгістраваны
зарэгістраваных
зарэгістраваныя
зарэчча
заря
засаду
засау
засведчана
заселена
заселены
заслау
заслона
заслуг
заслуга
заслугоу
заслугі
заслужанага
заслужаная
заслужаны
заслужаныя
заслужыу
засмяяу
заснавала
заснавальнік
заснавальніка
заснавальнікам
заснавальнікамі
заснавальнікау
заснавальнікі
заснавалі
заснавана
заснаванага
заснаванае
заснаванаи
заснаваная
заснаванне
заснавання
заснаванні
заснаваную
заснаваны
заснаваным
заснаваных
заснаваныя
заснавау
заснаваць
засноу
заснуу
заснуць
застава
заставалася
заставаліся
заставау
заставацца
заставы
застаецца
засталася
засталося
засталіся
застанецца
застау
застацца
застаюцца
застаючыся
застрэліу
заступнік
заступніка
заступнікам
заступніцтва
засуліч
засухі
засушлівы
засценак
засяленне
засялення
засялялі
засяроджана
засяродзіу
зат
затое
затрымалі
затрымана
затрымання
затрыманні
затрыманы
затрыманых
затрыманыя
затрымау
затрымаць
затым
зау
зафіксавана
зафіксаваны
зах
захавала
захавалася
захавалі
захаваліся
захавана
захаванне
захаваннем
захаванню
захавання
захаванні
захаваны
захаваных
захаваныя
захавау
захаваць
захад
захадам
захадзе
захаду
захады
захапленне
захапленнем
захаплення
захапленні
захапляецца
захапляу
захапіла
захапілі
захапіу
захапіць
захар
захарава
захарау
захацелася
захацеу
захварэу
захворванне
захворвання
захворванняу
захворваннях
захворванні
заход
заходзіу
заходзіць
заходне
заходнееу
заходнепаморскага
заходнюю
заходня
заходняга
заходняе
заходняи
заходняя
заходні
заходнім
заходнімі
заходніх
заходнія
заходу
захоп
захопе
захоплена
захоплены
захопленых
захопленыя
захоплівае
захопнікамі
захопнікау
захопу
захоу
захоча
зацверджана
зацверджаны
зацвердзіла
зацвердзіу
зацвердзіць
зацвярджэнне
зацвярджэння
зацвярджэнні
зацьменне
зацьменнем
зацьмення
зацьменняу
зацьменні
зацягнулася
зацікавіу
зацікау
зацішша
зачацця
зачынена
зачынены
зачыненыя
зачынілі
зачыніу
зачыніць
зачысціу
защищена
заява
заяваи
заяве
заяву
заявы
заявіла
заявілі
заявіу
заяу
заяц
зб
збавіцеля
збау
збег
збегчы
збліжэнне
збліжэння
зблізіу
збожжа
збожжавых
збожжавыя
збожжам
збоку
збольшага
збор
зборам
зборау
зборах
зборка
зборкі
зборнаи
зборная
зборную
зборных
зборныя
зборнік
зборніка
зборнікау
зборніках
зборніку
зборнікі
збору
зборы
збраенне
збраення
збраенняу
збраенні
зброенага
зброенаи
зброены
зброеным
зброенымі
зброеных
зброеныя
зброи
зброю
зброя
зброяи
зброі
збудавалі
збудавана
збудаванне
збудавання
збудаванняу
збудаванні
збудаваны
збудавау
збуджэння
збуи
збярэжжа
збярэжжы
збігнеу
збілі
збірае
збіраецца
збіралася
збіральніцтва
збіралі
збіраліся
збірау
збірацца
збіраць
збіраюцца
збіраюць
збіты
збіу
збіцця
зв
зважаючы
звалася
звальнення
звалі
зваліся
зваліу
званага
званае
званаи
званая
звания
званне
званнем
звання
званняу
званні
званок
званоу
званую
званы
званым
званых
званыя
званіца
званіцаи
званіцы
звар
зварот
зваротам
зваротнаи
зваротны
зваротным
звароту
звароты
звароце
звау
звацца
зваць
зве
зведала
зведау
зведзена
зведзены
звезда
звер
звера
звернуты
зверху
звестак
звесткамі
звестках
звесткі
звесці
звод
звода
зводзіцца
зводзіць
звольнены
звольніу
звон
звонку
звычаи
звычаю
звычаяу
звычаі
звыш
звышаецца
звышша
звышшы
звядзенне
звядзення
звязана
звязанага
звязанае
звязанаи
звязаная
звязаны
звязанымі
звязаных
звязаныя
звязау
звязаць
звязвае
звязваецца
звязвалі
звязваюць
звязда
звялі
звяна
звяно
звяржэнне
звяржэння
звярнулася
звярнулі
звярнуліся
звярнуу
звярнуцца
звярнуць
звяроу
звяртае
звяртаецца
звярталіся
звяртау
звяртацца
звяртаюцца
звяртаючыся
звяры
звіжанская
звілістае
звілістая
згадана
згаданы
згаданых
згаданыя
згадау
згадаць
згадвае
згадваецца
згадвалася
згадванне
згадвау
згадваюцца
згадваюць
згаджаецца
згаджау
згадзіліся
згадзіу
згадзіцца
згадка
згадкі
згарання
згарэла
згарэлі
згарэу
згода
згодзе
згодзен
згодна
згодны
згоду
згоды
згор
згорак
згорка
згорку
згоркі
зграі
згубіла
згубілі
згубіу
згуляла
згулялі
згуляу
згуляць
згуртаванне
згуртавання
згінуу
здабываецца
здабывалі
здабываць
здабываюць
здабыла
здабылі
здабытак
здабытку
здабыу
здабыцця
здабыць
здабыча
здабычаи
здабычу
здабычы
здавалася
здаваліся
здавау
здавацца
здаволены
здагадау
здагадка
здагадку
здагадкі
здадзены
здаецца
здале
здалося
здаліся
здановіч
здань
здараецца
здаралася
здараюцца
здаровага
здаровы
здаровым
здароу
здарылася
здарыу
здарыцца
здарэнне
здарэння
здарэнні
здау
здацца
здаць
здачы
здаюцца
здесь
здзеи
здзеянне
здзеяння
здзяи
здзівіу
здзіу
здолела
здолелі
здолеу
здольна
здольнасцеи
здольнасць
здольнасцю
здольнасці
здольная
здольны
здольным
здольных
здольныя
здоу
здрада
здрадзе
здраду
здрады
зды
здым
здымае
здымаецца
здымак
здымалася
здымалі
здымаліся
здымау
здымаць
здымачная
здымкау
здымках
здымкі
здыму
зе
зеи
зеландыя
зеландыі
зелянюк
земель
земле
землетрасенне
землетрасення
землеу
земли
землю
земля
землякам
землякоу
землякі
землямі
земляныя
земляробау
земляробства
земляробствам
земляу
землях
землі
земнаводных
земскага
земскаи
земскі
земскіх
земскія
зен
зена
зеніт
зер
зера
зерау
зерне
зерня
зеу
ззаду
зла
злавілі
злавіу
злавіць
зладзіу
зладзіць
злажыу
зламау
зламаць
злачыннасці
злачынства
злачынствам
злачынствау
злачынствах
злачынствы
злачынцау
злачынцы
злая
зле
злева
зледзянення
злесках
зло
злога
злодзеи
злом
злосна
злосны
злосць
злосцю
злосці
злотых
злоу
злучае
злучаецца
злучала
злучана
злучанага
злучанае
злучаны
злучаным
злучанымі
злучаных
злучаныя
злучау
злучаюцца
злучаюць
злучылася
злучыліся
злучыу
злучыцца
злучыць
злучэнне
злучэння
злучэнняу
злучэнні
злы
злых
злыя
зліваецца
зліваюцца
злілася
зліліся
зліу
зліцце
зліцця
зліцці
злічэння
зм
змагаецца
змагалася
змагаліся
змаганне
змагання
змаганні
змаганьне
змаганьня
змаганьні
змагау
змагацца
змагаюцца
змагла
змаглі
змалку
зман
змау
змацненне
змацнення
змацняльнік
змацнілася
змацніу
змеи
змен
змена
зменаи
зменамі
зменау
змене
зменена
зменены
зменнаи
зменных
змену
зменшылася
змены
змест
зместам
зместу
змесце
змесціва
змешаных
змешаныя
змешчана
змешчаны
змешчаныя
змеі
змова
змове
змову
змовы
змог
змогуць
зможа
змоу
змрок
змроку
змушаны
змяненне
змянення
змяненняу
змяненні
змяншаецца
змяншэнне
змяншэння
змяняе
змяняецца
змянялася
змяняу
змяняцца
змяняць
змяняюцца
змяняюць
змяніла
змянілася
змянілі
змяніліся
змяніу
змяніць
змястоу
змясціу
змясціць
змяшчае
змяшчаецца
змяшчала
змяшчалася
змяшчаліся
змяшчау
змяшчаць
змяшчаюцца
змяшчаюць
змяя
змітрака
змітрок
зміцер
зн
зна
знага
знагарод
знагарода
знагародамі
знагароджана
знагароджання
знагароджаны
знагароду
знагароды
знадворку
знае
знаеш
знаи
знак
знака
знакам
знакамі
знакамітага
знакамітаи
знакамітая
знакаміты
знакамітым
знакамітых
знакамітыя
знакау
знаку
знакі
зналі
знамя
знание
знарок
знау
знаходак
знаходжанне
знаходжання
знаходзяцца
знаходзяць
знаходзячыся
знаходзілася
знаходзілі
знаходзіліся
знаходзім
знаходзіу
знаходзіцца
знаходзіць
знаходка
знаходкі
знаць
знаці
знача
значальвае
значальвалі
значальвау
значаліла
значаліу
значаліць
значна
значнага
значнае
значнаи
значнасць
значнасці
значная
значную
значны
значным
значнымі
значных
значныя
значок
значыла
значыцца
значыць
значэнне
значэннем
значэння
значэнняу
значэнні
значэньне
значэньня
значэньні
знаю
знаюць
зная
зне
зненскага
зненскі
зненскім
знесены
знешне
знешнюю
знешняга
знешняе
знешняи
знешняя
знешні
знешнім
знешніх
знешнія
знои
знос
зносак
зносках
зноскі
зносу
зносін
зносінах
зносіны
зноу
знутры
зную
зны
зным
зных
зныя
зняволенне
зняволення
зняволенні
зняволены
зняволеных
зняволеныя
зняла
знялася
знялі
знянацку
знята
знятая
зняты
знятыя
зняу
зняцце
зняцця
зняць
зніжае
зніжаецца
зніжэнне
зніжэння
знізу
знізілася
знізіу
знізіць
знік
знікае
знікалі
знікаць
знікаюць
знікла
зніклых
зніклыя
зніклі
знікненне
знікнення
знікнуць
знішчальнік
знішчальнікау
знішчальнікі
знішчана
знішчаны
знішчаныя
знішчыла
знішчылі
знішчыу
знішчыць
знішчэнне
знішчэння
знішчэнні
зо
зои
золата
золатам
золачыу
зон
зона
зонаи
зонах
зоне
зону
зоны
зор
зорак
зорам
зорамі
зорау
зорка
зоркаи
зоркамі
зорку
зоркі
зорнага
зорнае
зорнаи
зорная
зорны
зорных
зорныя
зору
зоры
зоська
зосю
зося
зосі
зоф
зоя
зраблю
зрабіла
зрабілася
зрабілі
зрабіліся
зрабіу
зрабіцца
зрабіць
зразу
зразумела
зразумелі
зразумеу
зразумець
зранку
зрасла
зрастае
зрау
зроблена
зробленая
зроблены
зробленым
зробленых
зробленыя
зробяць
зробім
зробіць
зробіш
зровень
зрок
зроку
зрост
зросту
зросце
зроу
зруб
зруи
зручна
зручнасці
зручнеи
зручны
зрушэнне
зрушэння
зрынуты
зрэдку
зрэшты
зу
зуб
зубамі
зубоу
зубр
зубра
зуброу
зубры
зубы
зуноу
зусім
зша
зъ
зы
зыгмунт
зыи
зыход
зыходжанне
зыходжання
зыходзяць
зыходзячы
зыходзіла
зыходзіць
зыходнага
зыходны
зыходным
зыходныя
зыходу
зычнага
зычны
зычных
зычныя
зышоу
зь
зьвязана
зьвязаны
зьвярнуу
зьдзеи
зьдзіу
зьезд
зьезду
зьмены
зьмест
зьместу
зьява
зьявы
зьявілася
зьявіліся
зьявіу
зьявішча
зьяу
зэльвенскага
зэльвенскі
зэльвенскім
зэф
зязюля
зяла
зяле
зялі
зяліся
зямель
зямельнага
зямельнаи
зямельны
зямельных
зямельныя
зямле
зямлю
зямля
зямляу
зямлі
зямнога
зямнои
зямным
зямных
зянон
зята
зяты
зятыя
зяу
зяцце
зяцця
зяць
зі
зіл
зіма
зімбабвэ
зімку
зімовага
зімоваи
зімовая
зімовы
зімовых
зімовыя
зімои
зімоу
зімою
зіму
зімуюць
зімы
зінаіда
зіноу
зірнула
зірнуу
зірнуць
зіу
зія
зіі
и
иас
иван
иванов
иванович
игорь
игрока
игроками
игроков
игроком
иеговы
иж
ижъ
из
избрания
избранные
известия
изд
издание
издательство
изменении
изменениях
ил
или
илл
иллюстрированная
им
имени
именье
именья
империи
имъ
имя
ин
иностранных
институт
института
интервью
интернет
информации
информация
ираке
иркутская
искусств
искусства
искусство
испании
исполнительного
испр
исследование
исследовании
исследования
ист
истории
историко
историческая
исторические
историческии
исторических
история
итоги
их
ихъ
июля
июня
к
ка
каа
кааліцыи
кааліцыю
кааліцыя
кааліцыі
кааператыу
кааперацыі
каардынат
каардынатамі
каардынаты
каардынацыи
каардынацыі
каб
каба
кабета
кабеты
кабуле
кабінет
кабінета
кабінеце
кабіны
кава
кавага
каваи
кавалак
кавалачак
кавале
кавалер
кавалеры
кавалерыи
кавалерыя
кавалерыі
кавалеу
кавалкау
кавалкі
каваль
каваля
кавалі
кавая
кавер
кавы
кавыск
кавыска
кавыскага
кавыску
кавыскі
кавыскім
кавых
кавыя
кавіцкі
кавічы
кага
каганец
каго
кагосьці
кадафі
каддафи
кадрау
кадры
кадэнцыя
кадэцкі
кае
кажа
кажаце
кажаш
кажу
кажух
кажуць
кажучы
кажы
кажэ
каз
каза
казак
казакамі
казакау
казакова
казакоу
казакі
казала
казалі
казам
казанне
казання
казанні
казанскага
казанскаи
казанскі
казань
казані
казармы
казау
казахскаи
казахская
казахстан
казахстана
казахстане
казахстанскаи
казахстанская
казацкага
казацкі
казацтва
казаць
казе
казета
каззе
каззя
каззі
казка
казках
казку
казкі
казлова
казлоу
казлы
казначэи
казну
казны
казскага
казскаи
казская
казскі
казу
казцы
казы
казімір
казіміра
казіміравіч
казімірам
казімірау
казіно
каи
как
какава
какоу
кал
кала
калабарацыянізм
каланізацыя
каланізацыі
каланістамі
каланістау
каланісты
каланіяльнага
каланіяльнаи
каланіяльная
каланіяльны
каланіяльных
каланіяльныя
каларада
каларыт
каласоу
каласы
калгас
калгаса
калгасау
калгасе
калгасу
калгасы
кале
калег
калега
калегамі
калегі
калегіум
калегіума
калегіуме
калегія
калегіяи
калегіі
каледж
каледжа
каледжы
калектыва
калектывам
калектывау
калектыве
калектыву
калектывы
калектывізацыі
калектыу
калекцыи
калекцыю
калекцыя
калекцыянер
калекцыях
калекцыі
калена
календа
календара
календары
календарь
каленях
калені
кало
калодзеж
калодкі
калон
калона
калонамі
калону
калоны
калоніи
калонію
калонія
калоніяи
калоніямі
калоніях
калоніі
калужскаи
калумб
калумба
калумбіи
калумбія
калумбіі
калчак
калчака
кальварыи
кальмар
кальца
кальцо
кальцыю
каля
калядны
каляды
калякветніка
каляндар
каляровага
каляроваи
каляровая
каляровы
каляровых
каляровыя
каляскі
каляіны
калі
калібра
калідор
калідоры
каліи
каліна
калінау
калінкавіцкага
калінкавіцкі
калінкавіцкім
калінкавічы
каліноу
калінін
калініна
калінінградскаи
калінінскаи
калісь
калісьці
каліфарніи
каліфорнія
каліфорніі
кам
кама
камаи
каманд
каманда
камандаванне
камандаваннем
камандаванню
камандавання
камандавау
камандаи
камандамі
камандзе
камандзір
камандзіра
камандзірам
камандзірау
камандзіроу
камандзіру
камандзіры
каманднага
каманднае
камандны
камандным
камандных
камандныя
камандор
каманду
камандуючага
камандуючы
камандуючым
камандуючыя
каманды
камар
камароу
камары
камарынскага
камау
камбаи
камбоджа
камбоджы
камбінат
камбіната
камбінацыя
камбінацыі
каме
камедыи
камедыя
камедыі
камендант
каменданта
каменем
каменка
каменнага
каменнаи
каменная
каменны
каменным
каменнымі
каменных
каменныя
каменскага
каменскі
камент
каментары
каментарыи
каментарыі
камень
каменю
каменя
камені
камер
камера
камеру
камерун
камеруна
камерцыи
камеры
камет
камета
каметы
каморы
камп
кампабаса
кампазітар
кампазітара
кампазітарам
кампазітарау
кампазітары
кампазіцыи
кампазіцыю
кампазіцыя
кампазіцыяи
кампазіцыі
кампакт
кампактная
кампактны
кампанент
кампанентау
кампаненты
кампаноу
кампанье
кампаніи
кампанію
кампанія
кампаніяи
кампаніямі
кампаніях
кампаніі
кампартыі
кампенсацыю
кампенсацыі
кампетэнцыі
камплект
камплектау
камплектацыі
кампраміс
кампус
камсамола
камсамолец
камсамольскаи
камсамольская
каму
камун
камуна
камунальнага
камунальнаи
камуне
камуны
камунізм
камунізму
камунікацыи
камунікацыі
камуністамі
камуністау
камуністы
камуністычнага
камуністычнаи
камуністычная
камуністычную
камуністычны
камуністычных
камуністычныя
камы
камю
камяне
камянец
камянецкага
камянецкі
камянецкім
камянямі
камяні
камяністых
камяніца
камі
каміла
камінтэрна
камісар
камісара
камісарам
камісарау
камісары
камісарыят
камісарыята
камісіи
камісію
камісія
камісіяи
камісіі
камітэт
камітэта
камітэтам
камітэтау
камітэту
камітэты
камітэце
кан
канада
канадзе
канадзец
канадскага
канадскаи
канадская
канадскі
канаду
канады
канал
канала
каналам
каналамі
каналау
каналах
канале
каналу
каналы
каналізаванае
каналізаваная
кананізаваны
кананічнага
канау
канвенцыя
канвенцыі
канверт
канвои
канвою
кангрэгацыя
кангрэгацыі
кангрэс
кангрэса
кангрэсам
кангрэсе
кангрэсу
канд
кандзі
кандидата
кандрат
кандрата
кандратовіч
кандрусевіч
кандыдат
кандыдата
кандыдатам
кандыдатамі
кандыдатау
кандыдатура
кандыдатуру
кандыдатуры
кандыдаты
кандыдацкую
кандыдацкіх
кане
канектыкут
канец
канечнасці
канечне
канешне
канзас
канкрэтна
канкрэтнага
канкрэтнаи
канкрэтных
канкрэтныя
канкурэнтау
канкурэнцыі
канон
канонік
каноэ
кансель
кансерватарау
кансерватары
кансерваторыю
кансерваторыя
кансерваторыі
кансерватыу
канскага
канскі
кансолі
канстант
канстанта
канстанты
канстанцыи
канстанцыя
канстанцыі
канстанцін
канстанціна
канстанцінавіч
канстанцінам
канстанцінау
канстанцінопаль
канстанцінопальскага
канстанцінопальскі
канстанцінопаля
канстанцінопалі
канструктар
канструктыу
канструкцыи
канструкцыю
канструкцыя
канструкцыі
канстытуцыи
канстытуцыю
канстытуцыя
канстытуцыяи
канстытуцыі
кансультант
кансультантам
кансультатыу
кансультацыи
кансультацыі
кансэнсус
кансі
кант
канта
кантакт
кантактау
кантактнаи
кантакту
кантакты
кантакце
кантата
кантон
кантона
кантонау
кантора
канторы
кантракт
кантракта
кантракту
кантралюе
кантралюецца
кантралявала
кантралявалі
кантралявау
кантраляваць
кантролем
кантроль
кантрольна
кантролю
кантролі
кантры
кантынгент
кантынгенту
кантынент
кантынента
кантынентальнага
кантынентальнаи
кантынентальны
кантынентау
кантыненце
кантэи
кантэкст
кантэксту
кантэксце
канф
канфедэрацыю
канфедэрацыя
канфедэрацыі
канферэнцыи
канферэнцыю
канферэнцыя
канферэнцыях
канферэнцыі
канфесіи
канфесіі
канфлікт
канфліктау
канфлікту
канфлікты
канфлікце
канфігурацыі
канфіскавана
канфіскаваны
канфіскацыі
канца
канцамі
канцах
канцлагер
канцлагеры
канцлер
канцлера
канцлерам
канцом
канцоу
канцу
канцы
канцылярыю
канцылярыя
канцылярыі
канцэнтрацыи
канцэнтрацыя
канцэнтрацыі
канцэпцыи
канцэпцыю
канцэпцыя
канцэпцыі
канцэрн
канцэрна
канцэрт
канцэрта
канцэртау
канцэртах
канцэртнаи
канцэртная
канцэртны
канцэртныя
канцэрты
канцэрце
канчаецца
канчатак
канчаткова
канчатковага
канчатковае
канчатковаи
канчатковая
канчатковы
канчатковым
канчаючы
каны
канье
каню
каня
кані
кап
кападобнае
кападобныя
капаць
капеек
капеи
капенгаген
капенгагена
капенгагене
капернік
каперніка
капліца
капліцу
капліцы
капуста
капусты
капыль
капыльскага
капыльскі
капыльскім
капэла
капэлы
капялюш
капітал
капіталу
капітальны
капіталізму
капітан
капітана
капітанам
капітану
капітуляцыі
кар
кара
карабах
карабаха
карабахскаи
карабаху
карабель
карабле
карабля
караблямі
караблях
караблі
карагандзінскаи
карагод
карале
каралева
каралеваи
каралеву
каралевы
каралеу
караль
каралю
караля
каралямі
каралі
караліна
каралінгау
караліны
каранаваны
каранавау
каранацыя
каранацыі
каране
караненне
каранямі
карані
карась
караткевіч
караткевіча
каратэ
карау
карацеи
карачы
кардон
кардымау
кардынал
кардынала
кардыналам
кардыналау
кардыналы
каркас
каркер
карку
карл
карла
карлавіч
карлам
карлас
карласа
карлсруэ
карлу
карлюкевіч
карлік
карма
кармавых
кармавыя
кармелітау
кармлення
кармэн
кармянскага
кармянскім
карміць
карніз
карнізам
карнізамі
карнікі
карнілава
карнілау
каро
каробачка
каробка
каробкаи
каробкі
карова
карову
каровы
карои
кароль
карона
каронаи
кароне
кароннага
каронны
карону
кароны
кароткага
кароткае
кароткаи
кароткаметражны
кароткаметражныя
кароткая
кароткую
кароткі
кароткім
кароткімі
кароткіх
кароткія
кароу
карп
карпаратыу
карпарацыя
карпарацыі
карпат
карпатах
карпаты
карпау
карпачева
карповіч
карпусоу
карпусы
карпілау
карскага
карскі
карт
карта
картак
картах
картка
картку
карткі
карту
картцы
карты
картэр
картэра
картэс
картэса
кару
карукіу
карунья
карупцыяи
карупцыі
карце
карцін
карціна
карцінаи
карцінамі
карцінах
карціне
карцінная
карціну
карціны
карчма
карчме
карчму
карчмы
кары
карыбскага
карыбскім
карызна
карызну
карын
карынтыі
карынфскага
карысна
карыснаи
карысная
карысны
карысным
карысных
карысныя
карыстаецца
карысталася
карыстальнік
карыстальніка
карыстальнікам
карыстальнікау
карыстальнікі
карысталіся
карыстанне
карыстання
карыстау
карыстацца
карыстаюцца
карыстаючыся
карысць
карысці
карысьць
карысьці
карычнева
карычневага
карычневая
карычневы
карычневыя
карьеру
карэи
карэліцкага
карэліцкі
карэліцкім
карэлія
карэліі
карэннага
карэннае
карэнных
карэнныя
карэнішча
карэнішчам
карэспандэнт
карэспандэнтам
карэспандэнты
карэя
карэі
кас
каса
касакоу
касманау
касмічнага
касмічнаи
касмічная
касмічны
касмічным
касмічных
касмічныя
каспар
каспара
каспіи
кастр
кастра
кастрамскои
кастрычнік
кастрычніка
кастрычніку
кастрычніцкага
кастрычніцкаи
кастрычніцкая
кастусь
кастуся
кастылія
кастыліі
касу
касце
касцеи
касць
касцюк
касцюковіцкага
касцюковіцкім
касцюм
касцюма
касцюмы
касцюшка
касцюшкі
касці
касы
касьце
касіні
кат
ката
катаванняу
катаванні
каталог
каталога
каталогу
каталоніі
каталік
каталікамі
каталікоу
каталікі
каталіцкага
каталіцкае
каталіцкаи
каталіцкая
каталіцкую
каталіцкі
каталіцкім
каталіцкіх
каталіцкія
каталіцтва
каталіцызм
катар
катара
катарына
катастрофа
катастрофы
катлавіна
катлавіны
катль
католікау
катон
каторага
каторае
катораи
каторая
каторую
каторы
каторые
каторым
каторых
каторыя
катоу
каты
катэгарычна
катэгорыи
катэгорыю
катэгорыя
катэгорыях
катэгорыі
катэхізіс
кау
кафедра
кафедраи
кафедральнага
кафедральны
кафедральным
кафедрау
кафедру
кафедры
кафэ
ках
кахае
каханаи
каханне
каханнем
кахання
каханні
каханоу
каханьне
каханьня
кахаць
кахоу
каце
кацярына
кацярынаи
кацярыне
кацярыны
качкі
качэу
каша
кашале
каштавала
кашталян
кашталяна
кашталяны
каштоу
кашулю
кашуля
кашулі
кашы
каэфіцыент
каю
кая
каяловіч
каін
каір
кб
кв
квадрат
квадрата
квадратау
квадратная
квадратны
квадратных
квадратныя
кваліфікацыи
кваліфікацыю
кваліфікацыя
кваліфікацыі
квантаваи
квантавая
квартал
квартала
кварталау
квартале
кварталы
квартэт
кватэр
кватэра
кватэраи
кватэрны
кватэру
кватэры
квебек
квебека
кветак
кветка
кветкавая
кветкавых
кветкавыя
кветкамі
кветку
кветкі
квт
квіслінг
квіткі
кг
кгды
кдб
ке
кевін
кеи
кембрыдж
кембрыджскага
кембрыджы
кемерау
кен
кеневіч
кент
кентау
кентукі
кентэрберыи
кенэдзі
кенія
кеніі
кеплер
кеплера
кепска
кер
кераміка
керамікі
кесле
ки
киев
кино
китаи
киі
кк
кл
кла
клавішныя
клавішы
клавіятуры
клад
кладзе
кладзецца
кладкі
кладу
кладуць
клаи
клалі
клана
клапаціу
клапаціцца
клара
кларк
клас
класа
класам
класау
класах
класе
класу
класы
класік
класіка
класікау
класікі
класіфікацыя
класіфікацыі
класіцызм
класіцызму
класічнага
класічнаи
класічная
класічную
класічны
класічным
класічных
класічныя
клау
кле
клеапатра
клеи
клетак
клетка
клетках
клетку
клеткі
клетцы
клецк
клецкага
клецкі
клецкім
клод
клопат
клопату
клопаты
клуб
клуба
клубам
клубау
клубах
клубе
клубнага
клубная
клубныя
клубу
клубы
клык
клыка
ключ
ключа
ключавую
ключавым
ключавых
ключавыя
ключае
ключала
ключалі
ключана
ключаны
ключаныя
ключау
ключаць
ключаюцца
ключаюць
ключна
ключом
ключоу
ключы
ключылі
ключыу
ключыць
ключэнне
ключэння
кляи
клясы
клятву
кляу
кляштар
кляштара
кляштары
клі
кліва
клівы
кліент
кліентау
клікалі
клікау
клімавіцкага
клімавіцкі
клімавіцкім
клімат
кліматам
клімату
кліматычных
кліматычныя
клімау
клімаце
клімент
клімента
клімковіч
клін
клінтан
клінцоу
клінікі
клініцы
клінічнаи
клінічная
кліп
клірэнс
кліу
кліч
кліча
клічау
клічуць
км
кмагульная
кн
кндр
книг
книга
книги
книжка
кнр
кнуда
княгіня
княгіні
княжанне
княжацкага
княжацкаи
княжацкі
княжества
князе
князем
князства
князь
князьства
князю
князя
князям
князямі
князі
княства
княствам
княствау
княстве
княствы
кніг
кніга
кнігадрукавання
кнігазбор
кнігаи
кнігамі
кнігарня
кнігах
кнігу
кнігі
кніжак
кніжка
кніжку
кніжкі
кніжнаи
кніжная
кніжны
кніжных
кнізе
ко
кобрын
кобрына
кобрынскага
кобрынскаи
кобрынскі
кобрынскім
кова
коваи
ковель
ковенскаи
ковенская
когда
кого
код
кода
кодам
кодау
коды
кодэкс
кодэкса
кодэксу
кожнага
кожнае
кожнаи
кожнаму
кожная
кожную
кожны
кожным
кожныя
кожын
коз
кои
кол
кола
колаваи
колавая
колам
коламі
колас
коласа
колау
колах
коле
колер
колерам
колерамі
колерау
колеру
колеры
колечы
коли
колл
коллегии
коллегия
колы
кольвекъ
колькасна
колькасць
колькасцю
колькасцях
колькасці
колькасьць
колькасьці
колькі
кольца
кольцападобнае
кольцау
кольцы
коля
колішняга
колішняи
колішняя
колішні
колішнія
ком
кома
команды
комиссии
комитет
комитета
комментарии
коммерсантъ
комплекс
комплекса
комплексам
комплексау
комплексе
комплекснаи
комплексны
комплексу
комплексы
комсомольская
кому
комі
коміксау
кон
конан
конга
конегадоу
конеи
конец
конкурс
конкурса
конкурсау
конкурсах
конкурсе
конкурснаи
конкурсу
конкурсы
конна
коннаи
конны
конных
конныя
конніцы
конрад
конрада
конскіх
консул
консула
консульства
конт
контексте
контр
контракт
контракты
контратакі
контрнаступленне
контррэвалюцыи
контуры
конф
конференции
конца
конце
кончыу
конь
коньмі
конях
коні
конік
коопэрацыи
коп
копіи
копію
копія
копіі
коранем
корань
кораня
корасценскага
коратка
корвін
кордава
корм
корму
кормяцца
корміцца
король
корпус
корпуса
корпусам
корпусе
корпусу
корсак
корсакава
кос
косава
косау
коска
коскаи
коскамі
космас
космасе
космасу
коста
костак
косте
костка
косткі
косць
косці
косы
косьці
кот
которая
которого
которое
которые
которыи
которых
коу
коханау
кошка
кошт
коштам
коштау
кошту
кошык
кошыкі
кп
кпб
кпзб
кпк
кпп
кпсс
кра
кравец
крае
краем
краи
кракава
кракаве
кракау
крам
крама
крамау
крамах
краме
крамле
крамля
краму
крамы
крамяне
крануу
крапіва
крапівы
крапіу
крас
краса
красавік
красавіка
красавіку
красамоу
краскі
красна
краснадар
краснадарскага
краснае
краснапе
краснапольскага
краснапольскі
краснапольскім
красная
краснаярскага
краснаярскім
краснои
красны
краснінскага
краснінскім
красоу
красы
кратамі
кратар
кратарау
кратары
кратер
краткая
краткии
краты
крау
крах
крашэу
краю
края
краявід
краявіды
краязнавец
краязнау
краях
краі
краін
краіна
краінаи
краінам
краінамі
краінах
краіне
краінскага
краінскаи
краінская
краінскую
краінскі
краінскім
краінскіх
краінскія
краіну
краінцау
краінцы
краіны
кровазабеспячэнне
крои
крок
крокам
крокамі
крокау
кроку
крокі
крон
крона
кроны
кропак
кропка
кропкаи
кропкамі
кропку
кропкі
кроплі
кропцы
крос
крот
кроу
кру
круг
круга
кругам
круглага
круглае
круглаи
круглая
круглы
круглым
круглымі
круглых
круглыя
круглянскага
круглянскі
круглянскім
кругом
кругоу
кругі
крузе
крук
крукоу
крулеу
крумкачы
крупскага
крупскаи
крупскі
крупскім
крупы
крус
крусібл
крута
круціу
круціцца
круціць
кручэнне
кручэння
крушынскага
крушынскі
крушэнне
крушэння
кры
крываваи
крывавая
крывавы
крывавыя
крывалінеи
крываце
крывая
крыве
крывое
крывои
крывы
крывых
крывыя
крыві
крывіцкі
крывічоу
крывічы
крыж
крыжа
крыжакамі
крыжакоу
крыжакі
крыжам
крыжамі
крыжау
крыжова
крыжовага
крыжовы
крыжовых
крыжовыя
крыжом
крыжоу
крыжы
крызіс
крызісам
крызісу
крык
крыкам
крыкнула
крыкнуу
крыкі
крыла
крыламі
крылау
крылах
крыле
крыло
крылом
крылы
крым
крыма
крыме
крымскага
крымскаи
крымскі
крымскіх
крымскія
крыму
крымінальнага
крымінальнае
крымінальнаи
крымінальная
крымінальную
крымінальны
крымінальным
крымінальных
крымінальныя
крынкау
крыніц
крыніца
крыніцазнау
крыніцаи
крыніцамі
крыніцах
крыніцу
крыніцы
крыпта
крыс
крыстафер
крысціна
крысціны
крысціян
крысціяна
крыт
крыта
крыты
крытык
крытыка
крытыкавалі
крытыкавау
крытыкаи
крытыкамі
крытыкау
крытыку
крытыкі
крытыцы
крытычна
крытычнаи
крытычны
крытычных
крытычныя
крытэрыи
крытэрыям
крытэрыяу
крытэрыі
крыу
крыху
крычалі
крычау
крычаць
крычыць
крыштале
крышталь
крышталі
крыштаф
крыштафа
крэдыт
крэи
крэмль
крэмона
крэпасцеи
крэпасць
крэпасцю
крэпасці
крэпка
крэсла
крэслау
крэсле
крэслы
крэу
кс
ксаверыи
ксаверыя
ксавэр
ксе
ксенія
ксяндза
ксяндзоу
ксяндзы
кто
ку
куб
куба
кубак
кубань
кубе
кубка
кубкау
кубку
кубкі
кубы
кувеи
кудрау
куды
кудысьці
кузава
кузавам
кузау
кузня
кузняцова
кузняцоу
кузні
кузьма
кузьмы
кузьміч
куи
кук
кука
кукуруза
кукурузу
кукурузы
кулагін
кулак
кулакамі
кулаком
кулакоу
кулакі
куль
культ
культавых
культавыя
культам
культу
культур
культура
культураи
культуралогія
культурамі
культурна
культурнага
культурнае
культурнаи
культурная
культурную
культурны
культурным
культурнымі
культурных
культурныя
культуру
культуры
культывуецца
куля
куляме
куляшова
куляшоу
кулі
кулікоу
кулінарыі
кун
кунеа
кунцау
кунцэвіч
кунцэвіча
куп
купал
купала
купалам
купалау
купалле
купалу
купалы
купец
куплю
купляць
куплі
купца
купцоу
купцы
купэ
купіу
купіць
кур
курапатах
курапаты
куратар
курган
кургана
кургане
курганны
курганныя
курганоу
курганы
курдау
курды
курорт
курорты
курс
курса
курсау
курсах
курсе
курск
курскаи
курсу
курсы
курт
курфюрст
курфюрста
куры
курыі
курьер
курэи
куст
куста
кустамі
кустоу
кусты
кут
кутках
кутку
куток
кутузава
куты
куфар
кухню
кухня
кухні
кухты
куце
кучу
кучы
кую
куяу
кцые
кштаи
кшталту
кшыштаф
кшыштафа
къ
кызылардзінскаи
кыргызстан
кыргызстана
кыргызстане
кэи
кэтрын
кюры
кі
кібернетыкі
кідае
кідаецца
кідалі
кіданні
кідау
кідаць
кідаюць
кіе
кіева
кіевам
кіеве
кіеу
кіи
кілаграмау
кіламетр
кіламетрау
кіламетрах
кіламетры
кіль
кілікіи
кілікіі
кім
кімі
кін
кіна
кінаакце
кінакамедыі
кінакрытыкау
кінапрэмія
кінапрэміі
кінарэжысе
кінастудыі
кінатэатр
кінатэатра
кінатэатры
кінау
кінафестываль
кінафестывалю
кінафестывалі
кінг
кінематаграфістау
кінематаграфічных
кінематаграфіі
кінематограф
кінематографа
кінематографе
кінетычнаи
кіно
кінула
кінулася
кінулі
кінуліся
кінуты
кінуу
кінуцца
кінуць
кінь
кіпення
кіпр
кіпра
кіпры
кір
кіра
кірава
кіраваградскаи
кіравала
кіравалася
кіравалі
кіраваліся
кіраванне
кіраваннем
кіравання
кіраванні
кіравау
кіравацца
кіраваць
кірау
кіркор
кірмаш
кірмашы
кіроу
кіруе
кіруецца
кірунак
кірункам
кірункау
кірунках
кірунку
кірункі
кіруюцца
кіруюць
кіруючага
кіруючаи
кіруючая
кіруючы
кіруючыся
кіруючых
кіруючыя
кірыбаці
кірыл
кірыла
кірылавіч
кірылау
кірылы
кірыліца
кірыліцаи
кірыліцы
кісель
кісларод
кіслародам
кіслароду
кіслата
кіслату
кіслаты
кіслот
кіслоты
кісяле
кіт
кіта
кітаем
кітаи
кітаю
кітая
кітаі
кітоу
кіу
кіх
кішка
кішкі
кішыне
кішэню
кішэні
кія
кіяу
л
ла
лабановіч
лабановіча
лабановічу
лабараторыю
лабараторыя
лабараторыяи
лабараторыі
лабачэу
лабірынт
лава
лаваи
лаве
лаву
лавы
лавілі
лавіць
лавіч
лавіча
лавічы
лаг
лага
лагадоу
лагатып
лагау
лагер
лагера
лагерау
лагерах
лагеры
лагои
лагуна
лагі
лагічна
лад
лада
ладаи
ладальнік
ладальніка
ладальнікам
ладальнікамі
ладальнікау
ладальнікі
ладам
ладамі
ладанне
ладання
ладаннямі
ладанняу
ладанні
ладар
ладара
ладарскаи
ладау
ладдзя
ладзе
ладзілі
ладзіліся
ладзіу
ладзіць
ладкавання
ладкавау
ладу
лады
лае
лазар
лазара
лазарау
лазня
лазні
лазоу
лазука
лазы
лаи
лак
лакальна
лакальных
лакальныя
лакаматыва
лакаматыу
лакацыи
лакотка
лакоткі
лам
ламаносава
ламбардыя
ламбардыі
ламі
лангабардау
ланд
ланда
ландзе
ландшафт
ландшафтау
ландшафтны
ландшафту
ландшафты
ланка
ланкі
ланцуг
ланцуга
ланцугом
ланцугоу
ланцугу
ланцугі
ланцужок
ланцэтнае
лань
лаос
лаоса
лапаткамі
лапаткі
лапці
лапы
лапіцкі
лар
лара
лары
ларыса
ларэнца
лас
ласка
ласкава
ласкавы
ласкаи
ласку
ласкі
ласла
ласна
ласнага
ласнае
ласнаи
ласнасць
ласнасцю
ласнасці
ласная
ласне
ласную
ласны
ласным
ласнымі
ласных
ласныя
ласнік
ласнікау
ластау
ластоу
ласціва
ласцівасць
ласцівасцямі
ласцівасці
ласцівы
ласцівыя
ласьне
ласьнікау
лася
лат
латарынгія
латарынгіі
латвіи
латвію
латвія
латвіяи
латвіі
латынь
латыні
латышоу
латышскаи
латышы
лау
лах
лац
лацыа
лацінкаи
лацінкі
лацінскага
лацінскае
лацінскаи
лацінская
лацінскую
лацінскі
лацінскім
лацінскіх
лацінскія
лая
лгбт
лд
лдкард
ле
леа
леан
леанард
леанарда
леанід
леаніда
леанідавіч
леанідау
леапольд
леапольда
лебедев
лебедзева
лебедзеу
лебедзь
лев
лева
левага
левае
леваи
левая
левую
левы
левым
левых
левыя
леві
левін
левіч
легенд
легенда
легендарнага
легендарны
легендзе
легенды
легіе
легіянерау
ледавік
ледавіка
ледавіковага
ледавіковых
ледавіковыя
ледавікоу
ледавікі
ледавітага
ледзь
ледзьве
лежачы
лезе
леи
лекавая
лекавых
лекавыя
лекар
лекара
лекарам
лекарау
лекары
лекау
лексіка
лексікі
лекции
лекцыи
лекцыя
лекцыі
лекі
лельчыцкага
лельчыцкім
лельчыцы
лем
лен
лена
ленага
ленае
ленаи
ленасць
ленасці
леная
ленд
лене
ленина
ленинград
ленне
леннем
ленню
лення
леннямі
ленняу
леннях
ленні
ленскі
лента
леную
ленчага
ленчае
ленчы
ленчым
ленчых
ленчыя
лены
леным
ленымі
леных
леныя
леньне
леньнем
леньня
леньні
ленін
леніна
ленінград
ленінграда
ленінградзе
ленінградскага
ленінградскаи
ленінградская
ленінградскі
ленінградскім
ленінскага
ленінскаи
ленінская
ленінскі
ленінскім
леніну
леон
леона
леонид
леонэ
лепеи
лепель
лепельскага
лепельскі
лепельскім
лепш
лепшага
лепшае
лепшаи
лепшаму
лепшая
лепшую
лепшы
лепшым
лепшымі
лепшых
лепшыя
лер
лера
лес
леса
лесам
лесвіца
лесвіцы
лесе
лесу
лесі
лет
лета
летам
летапіс
летапісау
летапісах
летапісе
летапісец
летапісу
летапісы
летию
летку
летнюю
летняга
летняи
летняя
летні
летнім
летніх
летнія
летопись
леу
лех
лечэ
лешч
ли
ливии
лившиц
лига
листы
лит
литва
литве
литвы
литература
литературы
литовского
литовскои
лицах
лка
лкаваи
лкау
лксмб
лку
лкі
лле
лна
ло
лоб
лобач
лович
ловяць
ловіць
ловіч
лог
логвінау
логіка
логікі
лодак
лодзь
лодзьскага
лодзі
лодка
лодку
лодкі
лодцы
лоеу
ложа
ложак
ложка
ложкау
ложку
ложы
лозунг
лозунгам
лозунгі
лои
лок
локі
лонг
лондан
лондана
лондане
лонданскага
лонданскаи
лонданскі
лонданскім
лопес
лорд
лорда
лорэнц
лорэнца
лос
лось
лотар
лотара
лоу
лошыца
лу
луг
луганскаи
лугах
лугоу
лугі
лужкоу
лужкі
лужыцкаи
лужыцкіх
лузе
лузу
лук
лука
лукас
лукау
лукаш
лукаша
лукашанец
лукашевич
лукашенко
лукашэвіч
лукашэнка
лукашэнкам
лукашэнку
лукашэнкі
лукі
луна
лунных
луны
лунінец
лунінецкага
лунінецкаи
лунінецкі
лунінецкім
луу
луцк
луцкага
луцкевіч
луцкевіча
луцкі
луцыи
луч
лучаи
лучковымі
луі
луіджы
луіза
луізы
луіс
луіса
лы
лыжах
лыжкі
лыжных
лыжнікі
лым
лынтупскі
лысы
лыя
ль
льва
львов
львова
львове
львовіч
львом
львоу
львы
львів
льга
льн
льна
льнага
льны
льня
льскага
льскі
льскім
льюіс
лэдзі
лэи
лэнд
лю
люба
любанскага
любанскі
любанскім
любань
любау
любачка
любая
любві
любе
любецкі
люблю
люблін
любліне
люблінскага
люблінскаи
любовь
любові
любога
любое
любои
любоу
любую
любы
любым
любых
любыя
любяць
любіла
любілі
любіу
любіць
любіш
люд
людвіг
людвіга
людвік
людвіка
людеи
людзе
людзеи
людзьмі
людзям
людзях
людзі
люди
людміла
людмілы
людовік
людовіка
людовікам
людовіку
людскіх
людскія
люду
люк
люка
люксембург
люксембурга
люксембургу
люльку
люлі
люстра
люстэрка
люся
люсі
лют
лютага
лютау
люты
лютым
лютэр
лютэра
лютэранскаи
лютэранская
лютэранства
люфтвафэ
ля
лябе
лявон
лявона
лявіцкі
лягла
ляглі
лягчэи
ляды
ляе
ляецца
ляжала
ляжалі
ляжау
ляжаць
ляжыць
ляи
лякарні
ляла
лялася
лялек
лялька
лялькі
ляльны
ляльныя
лялі
ляліся
лямпа
лямпы
лян
лянага
лянаи
ляная
лянскага
лянскі
лянскім
ляную
ляны
ляным
лянымі
ляных
ляныя
ляпіс
лясамі
лясах
лясная
ляснога
ляснои
лясны
лясным
лясных
лясныя
лясніцкага
лясніцкі
лясніцтва
лясоу
лясох
лясун
лясы
ляу
лях
ляхавіцкага
ляхавіцкі
ляхавіцкім
ляхавічы
ляхау
ляцелі
ляцеу
ляцець
ляцца
ляць
ляцяць
ляці
ляціць
лячэнне
лячэння
лячэнні
ляшчынскага
ляю
ляюцца
ляюць
ляючы
ляючыся
лі
ліба
лібава
ліберальна
ліберальнаи
ліберальная
ліберальных
ліберыі
лібрэта
ліва
лівага
лівае
ліваецца
ліваи
ліван
лівана
ліване
лівасць
лівасці
лівау
лівая
ліверпул
лівонскага
лівонскаи
лівоніі
лівы
лівым
лівых
лівыя
лівіи
лівія
лівіі
ліг
ліга
лігу
лігурыя
лігі
лід
ліда
лідар
лідара
лідарам
лідарамі
лідарау
лідарства
лідары
лідзе
лідзія
лідскага
лідскаи
лідская
лідскі
лідскім
лідства
ліду
ліды
ліе
ліза
лізавета
лізаветы
лізе
лік
ліка
лікам
лікамі
лікау
ліквідавалі
ліквідавана
ліквідаваны
ліквідаваць
ліквідацыю
ліквідацыя
ліквідацыі
ліке
ліку
лікі
лілі
лім
лімарыус
ліміт
лін
ліна
лінг
лінгвіст
лінгвістыка
лінгвістыкі
лінеи
лінзападобная
лінзападобныя
лінка
лінкальн
ліны
лінь
лініи
лінію
лінія
лініяи
лініямі
лініях
лініі
ліп
ліпа
ліпау
ліпень
ліпеня
ліпені
ліпнішкау
ліпскі
ліпы
лір
ліра
ліры
лірыка
лірыкі
лірычных
лірычныя
ліс
ліса
лісабон
лісабоне
лісоу
ліст
ліста
ліставыя
лістамі
лістапад
лістапада
лістападау
лістападзе
лістах
лісткі
лісток
лістом
лістоу
лісточкі
лісты
лісце
лісцем
лісця
лісці
лісьце
лісіца
літ
літар
літара
літараи
літаральна
літарамі
літаратар
літаратарау
літаратары
літаратур
літаратура
літаратуразнавец
літаратуразнау
літаратураи
літаратурна
літаратурнага
літаратурнае
літаратурнаи
літаратурная
літаратурную
літаратурны
літаратурным
літаратурнымі
літаратурных
літаратурныя
літаратуру
літаратуры
літару
літары
літасці
літбел
літва
літве
літвои
літву
літвы
літвін
літвінау
літвіны
літоу
літрау
літровы
літургічных
літургія
літургіі
літэратуры
ліу
ліха
ліхтар
ліхтары
ліхтэнштэи
ліцеи
ліцэи
ліцэнзіи
ліцэнзію
ліцэнзія
ліцэнзіяванне
ліцэнзіі
ліцэя
ліцэі
лічацца
лічаць
лічачы
лічба
лічбаваи
лічбавая
лічбавы
лічбавых
лічбавыя
лічбамі
лічбау
лічбу
лічбы
лічваць
лічу
лічыла
лічылася
лічылі
лічыліся
лічынак
лічынкі
лічыу
лічыце
лічыцца
лічыць
лішаи
лішне
лішні
ліштвамі
ліштвах
ліштвы
м
ма
маа
маары
мабыць
мабільнаи
мабільных
мабільныя
мабілізаваны
мабілізацыю
мабілізацыі
мава
маг
мага
магазін
магазінау
магазіны
магдалена
магдалены
магдэбургскае
магла
магло
маглі
магнатау
магнаты
магнацкіх
магнус
магнуса
магнітнага
магнітнае
магнітнаи
магнітны
магнітным
магнітных
магнітныя
магу
магуаи
магутнага
магутнае
магутнаи
магутнасць
магутнасцю
магутнасці
магутная
магутную
магутны
магутным
магутнымі
магутных
магутныя
магчыма
магчымага
магчымае
магчымаи
магчымасцеи
магчымасць
магчымасцю
магчымасцямі
магчымасцяу
магчымасці
магчымасьць
магчымасьці
магчымая
магчымы
магчымым
магчымых
магчымыя
магіл
магіла
магілаи
магілах
магіле
магілеу
магілу
магілы
магістр
магістра
магістраль
магістралі
магістрата
магіі
мадагаскар
мадагаскара
мадам
мадлен
мадонна
мадрыд
мадрыда
мадрыдзе
мадура
мадыфікацыи
мадыфікацыя
мадыфікацыі
мадэи
мадэллю
мадэль
мадэляванне
мадэлявання
мадэляу
мадэлях
мадэлі
мадэрн
мадэрнізаваны
мадэрнізацыю
мадэрнізацыя
мадэрнізацыі
мае
маеи
маем
мает
маеть
маеу
маеце
маецца
маеш
мажаи
мажор
мажэи
маз
мазавецкага
мазавецкі
мазалау
мазамбік
мазаіка
мазаікі
мазгі
мазурскага
мазыр
мазыра
мазырскага
мазырскаи
мазырскі
мазырскім
мазыры
маи
мак
мака
макае
макар
макарава
макарау
макарэвіч
макау
македонскага
македонскаи
македонскі
македонія
македоніі
макоу
макрына
макс
макса
максвел
максвела
максім
максіма
максімавіч
максімальна
максімальнага
максімальнаи
максімальная
максімальную
максімальны
максімам
максімау
максімум
максімуму
максіміліян
максіміліяна
мал
мала
малаві
малагасіи
маладая
маладзе
маладзеи
маладзец
маладзечанскага
маладзечанскаи
маладзечанскі
маладзечанскім
маладзечна
маладзечне
маладняк
маладняка
маладнякоу
маладога
маладое
маладои
маладому
маладосць
маладосці
маладую
малады
маладым
маладымі
маладых
маладыя
малаи
малака
малако
малаком
маланка
маланкі
малапольскага
маларасіи
маларыта
маларыцкага
маларыцкім
малася
малая
малдавіі
малдау
малдова
малдове
малдовы
малеи
малекул
малекулы
малекулярнаи
малекулярная
маленства
маленстве
маленькага
маленькае
маленькаи
маленькая
маленькую
маленькі
маленькім
маленькімі
маленькіх
маленькія
малер
малера
малеу
малея
мало
малога
малодшага
малодшаи
малодшаму
малодшая
малодшы
малодшым
малодшых
малодшыя
малое
малои
малочнаи
малочная
малочны
малочныя
малпау
малпы
малую
малы
малым
малымі
малых
малыя
мальдзіс
малье
мальера
мальме
мальта
мальты
мальтыи
малюе
малюнак
малюнка
малюнкам
малюнкамі
малюнкау
малюнках
малюнку
малюнкі
малюскау
малюскі
малявання
малявау
маляваць
маляу
малі
маліна
малінау
маліноу
маліся
малітва
малітвау
малітву
малітвы
малітоу
маліу
маліцца
мам
мама
мамка
мамэнт
мамі
ман
мана
манаграфіи
манаграфію
манаграфія
манаграфіі
манака
манам
манарх
манарха
манархам
манархау
манархі
манархію
манархія
манархіі
манаства
манастыр
манастыра
манастыроу
манастырскі
манастырскіх
манастыру
манастыршчынскага
манастыршчынскім
манастыры
манах
манаха
манахам
манахау
манахі
манга
мангеи
манголау
манголы
мангольскага
мангольскаи
манголія
манголіі
мангі
мандат
мане
манер
манера
манеры
манет
манета
манетах
манетны
манету
манеты
манеу
манпелье
манро
манрэаль
мансіи
мантаж
мантана
мантыі
мантэвідэа
ману
манумент
манументальна
манументальнаи
манументальны
манус
манускрыптау
мануфактура
мануфактуры
мануэль
манчэстэр
маньерызму
манэ
манюшка
манюшкі
маніторынгу
маніфест
маніі
мар
мара
маравіі
маразы
марак
маракоу
маракі
маральна
маральнага
маральнаи
маральны
маральных
маральныя
маралі
мараплавец
мараплау
марат
марау
маргарыта
маргарыты
маргарэт
мардоу
марза
марзе
марии
мария
марк
марка
маркава
маркавіч
маркаи
маркам
маркау
марках
маркграф
маркграфа
марке
маркетынгу
маркс
маркса
марксізму
марку
маркі
маркіз
маркіза
мармур
мармурам
мармуровая
мармуру
марна
мароз
марозава
марозау
марока
марс
марса
марсе
марсель
марскаи
марская
марскога
марское
марскои
марскую
марскі
марскім
марскімі
марскіх
марскія
март
марта
мартын
мартынау
марудна
марфалогія
марфалогіі
мархель
марцы
марцэлеу
марцін
марціна
марцінкевіч
марцінкевіча
марціновіч
марш
маршал
маршала
маршалак
маршалка
маршалкам
маршалкі
маршрут
маршрутау
маршруту
маршруты
маршруце
маршы
мары
марыа
марыи
марыля
марына
марыны
марыс
марыу
марыус
марыуса
марыць
марыю
марыя
марыяи
марыян
марыяна
марыі
марыінскага
мас
маса
масава
масавага
масавае
масаваи
масавая
масавую
масавы
масавым
масавымі
масавых
масавыя
масаи
масамі
масау
масачусетс
масе
маска
маскале
масква
маскве
масквои
маскву
масквы
маскоу
маскі
масла
масоны
маст
мастак
мастака
мастакамі
мастаком
мастакоу
мастаку
мастакі
мастацка
мастацкага
мастацкае
мастацкаи
мастацкая
мастацкую
мастацкі
мастацкім
мастацкіх
мастацкія
мастацтва
мастацтвазнавец
мастацтвазнау
мастацтвам
мастацтвау
мастацтве
мастацтву
мастачка
мастачкі
мастоу
масты
мастэрс
масу
масць
масцю
масці
масы
масіва
масівау
масіве
масіву
масівы
масіу
мат
матар
матары
матачка
математических
материалов
материалы
матка
маткаи
матку
маткі
матор
матрос
матросау
матросы
матрыца
матрыцы
матфея
матцы
матч
матча
матчау
матчах
матчу
матчы
матчынаи
матывамі
матывау
матывах
матывы
матыле
матылькоу
матылі
матыу
матэматык
матэматыка
матэматыку
матэматыкі
матэматыцы
матэматычнага
матэматычнаи
матэматычная
матэматычны
матэматычным
матэматычных
матэматычныя
матэр
матэрыя
матэрыял
матэрыялазнау
матэрыялам
матэрыяламі
матэрыялау
матэрыялах
матэрыяле
матэрыялу
матэрыялы
матэрыяльна
матэрыяльнага
матэрыяльнае
матэрыяльнаи
матэрыяльная
матэрыяльную
матэрыяльны
матэрыяльных
матэрыяльныя
матэрыі
мау
мах
махамед
махдзі
махнуу
мацаванне
мацавання
мацаванняу
мацаванні
мацаваны
мацаваныя
мацаваць
мацвеевіч
мацвеи
мацвея
мацеи
мацеры
мацерыка
мацея
мацкевіч
мацнеи
мацоу
мацца
маць
мацярык
маці
мацільда
маша
маштаб
маштабах
маштабе
маштабу
маштабы
машын
машына
машынабудаванне
машынабудавання
машынабудау
машынаи
машынах
машыне
машынны
машыну
машыны
машыніста
машэка
машэрава
маю
мают
мають
маюцца
маюць
маючы
маючыся
мая
маяк
маякоу
маямі
маянткоу
маі
маім
маімі
маісееу
маіх
мб
мвд
мвт
мг
мгу
мгц
мдб
мду
ме
медале
медаль
медалье
медаля
медалямі
медалі
меданосныя
меджду
медзь
медзі
медицинских
медицины
медна
медны
медныя
медык
медыка
медыкі
медыцына
медыцыне
медыцынскага
медыцынскае
медыцынскаи
медыцынская
медыцынскую
медыцынскі
медыцынскім
медыцынскіх
медыцынскія
медыцыну
медыцыны
медычы
медыя
мее
меер
меж
межамі
межау
межах
между
междунар
международнои
международныи
межы
меи
мекленбург
мексіка
мексіканскага
мексіканскаи
мексіканскі
мексікі
мексіцы
мел
мела
мелася
мележ
мележа
мелодыя
мелодыі
мельнік
мельнікау
мельхіе
мелі
меліся
меліярацыи
меліярацыі
мемарандум
мемарыял
мемарыяла
мемарыяльнага
мемарыяльная
мемарыяльны
мемарыяльныя
мемуарау
мемуарах
мемуары
мемуарыст
мемуарысты
мен
менавалі
менавана
менаваная
менаванне
менавання
менаванні
менаваны
менаваныя
менаваць
менавіта
менеджар
менеджмент
менеджменту
менеи
менка
меннага
меннаи
менная
менне
менны
менным
менных
менныя
мення
менняу
менні
меннікі
менск
менска
менскага
менскае
менскаи
менску
менскі
менскім
менскія
менш
меншага
меншае
меншаи
меншасцеи
меншасць
меншасцяу
меншасці
меншая
меншую
меншы
меншым
меншымі
меншых
меншыя
меню
меня
мер
мера
мерана
мераным
мераных
мерапрыемства
мерапрыемствау
мерапрыемствах
мерапрыемствы
мерах
меркавалася
меркавалі
меркавана
меркаванне
меркаваннем
меркаванню
меркавання
меркаванняу
меркаваннях
меркаванні
меркавау
меркаваць
меркурыи
меркурыя
меру
меры
мерыдыянальнаи
месапатаміі
мест
места
местах
место
месты
месц
месца
месцазнаходжанне
месцазнаходжання
месцам
месцамі
месцау
месцах
месце
месцы
месцяцца
месцілася
месціу
месціцца
месье
месьце
месяц
месяца
месяцавага
месяцавы
месяцам
месяцау
месяцы
метад
метадалогіі
метадам
метадамі
метадау
метаду
метады
метадычнаи
метадычны
метадычных
метадычныя
метал
металаапрацоу
металау
метале
металу
металург
металургічны
металургія
металургіі
металы
металічнаи
металічны
металічным
металічнымі
металічных
металічныя
метану
мети
метод
методы
методыка
методыкі
метр
метра
метрапалітэн
метрапалітэна
метраполіі
метрау
метрах
метро
метры
метрыкі
меу
мех
механізаванаи
механізацыі
механізм
механізмау
механізму
механізмы
механік
механіка
механікі
механіцы
механічнага
механічнаи
механічная
механічны
механічных
механічныя
мехіка
мец
мецца
мець
мецэнат
меч
мечыслау
мешвацца
меюць
мзс
ми
мид
милости
министерства
министерство
министров
минск
минска
минская
минске
минскии
минского
минское
минскои
мир
мира
мире
мировая
мировои
мифология
мифы
михаи
михаил
михаила
мк
мка
мкм
мкс
мку
мкі
мл
млекакормячых
млн
млрд
млын
млына
млыне
млыны
млыніу
мм
мн
мна
мнага
мнагабор
мнае
мнаи
мная
мне
многа
многае
много
многім
многімі
многіх
многія
множання
множнага
множны
мнои
мноства
мноствам
мноствау
мностве
мною
мнс
мную
мны
мным
мнымі
мных
мныя
мо
мова
мовазнавец
мовазнау
моваи
мовам
мовамі
мовау
мовах
моваю
мове
мову
мовы
мог
могиле
могилев
могилевского
могилевскои
могуць
могілак
могілках
могілкі
могільнік
могільнікі
мод
мода
модуль
модуля
модулі
моды
можа
можам
можаце
можаш
может
можна
можно
можэ
мозг
мозга
мозгу
мои
моладзевага
моладзеваи
моладзевая
моладзевую
моладзевы
моладзевых
моладзь
моладзі
молат
молата
молатава
молодая
молодечненскои
молі
моліцца
момант
момантам
момантау
моманту
моманты
мон
мона
монастырь
монография
монтэ
мор
мора
морам
морау
морах
морган
море
морфаметрычныя
морфометрические
моры
морыс
москва
москве
москвы
московскии
московского
мост
моста
мостам
мосце
мотывы
моу
мох
моц
моцарт
моцарта
моцна
моцнага
моцнае
моцнаи
моцная
моцную
моцны
моцным
моцнымі
моцных
моцныя
моцы
мошчау
мошчы
моя
мп
мс
мса
мсам
мства
мсціслава
мсціславе
мсціслау
мсціу
мсьціслау
мся
мт
мтз
мтс
мтсг
му
мудрага
мудрасць
мудрасці
мудры
муж
мужа
мужам
мужнасць
мужнасці
мужоу
мужу
мужчын
мужчына
мужчынам
мужчынамі
мужчынскага
мужчынскае
мужчынскаи
мужчынская
мужчынскую
мужчынскі
мужчынскім
мужчынскіх
мужчынскія
мужчыну
мужчыны
мужы
мужык
мужыка
мужыкоу
мужыкі
мужыцкаи
мужыцкая
муз
музеем
музеи
музею
музея
музеяу
музеях
музеі
музы
музыка
музыказнау
музыкаи
музыкант
музыканта
музыкантау
музыканты
музыкау
музыку
музыкі
музыцы
музычна
музычнага
музычнае
музычнаи
музычная
музычную
музычны
музычным
музычных
музычныя
музэи
мук
мука
муку
мукі
мультфільм
мультфільмы
мунд
мунда
муниципального
муниципальное
муниципальных
муніцыпальнага
муніцыпальнае
муніцыпальны
муніцыпальных
муніцыпалітэт
муніцыпалітэта
муніцыпалітэты
мур
мура
мураванага
мураванаи
мураваная
мураваны
мураваных
мураваныя
муравеи
мурам
мурау
мурашак
мурашка
мурашкі
мурманскаи
муроу
муры
мус
мусаліні
мустафа
мусульман
мусульманамі
мусульмане
мусульманскага
мусульманскаи
мусульманскіх
мусяць
мусіла
мусілі
мусім
мусіу
мусіць
мух
муха
мухавец
мухамад
мухамед
мухамеда
мухі
мучанікау
мучыць
мушкеце
мушу
мую
мы
мыи
мыкалаіу
мыла
мым
мыс
мыса
мысе
мысленне
мыслення
мысли
мысль
мысля
мыслі
мысна
мыснік
мысьлі
мыта
мытнага
мытнаи
мытных
мых
мыш
мышцау
мышцы
мышы
мышэи
мыя
мэ
мэбля
мэблі
мэи
мэн
мэнсан
мэнсана
мэр
мэра
мэрам
мэры
мэрыленд
мэт
мэта
мэтаи
мэтам
мэтамі
мэтау
мэтах
мэтаю
мэту
мэты
мэце
мэцью
мюлер
мюнхен
мюнхена
мюнхене
мя
мядзведзева
мядзведзеу
мядзведзь
мядзведзя
мядзведзяу
мядзведзі
мядзведзіца
мядзел
мядзельскага
мядзельскі
мядзельскім
мяжа
мяжанскі
мяжои
мяжу
мяжуе
мяжы
мяи
мякаць
мякка
мяккага
мяккаи
мяккая
мяккі
мяккім
мяккімі
мяккіх
мяккія
мяне
мянушка
мянушку
мянушкі
мянушцы
мяняе
мяняецца
мяняліся
мяняу
мяняць
мяркуе
мяркуецца
мяркую
мяркуюць
мяркуючы
мяса
мясам
мясных
мяст
мястэчак
мястэчка
мястэчкам
мястэчках
мястэчку
мястэчкі
мясцовага
мясцовае
мясцоваи
мясцовасць
мясцовасцях
мясцовасці
мясцовая
мясцовую
мясцовы
мясцовым
мясцовымі
мясцовых
мясцовыя
мясцох
мясцін
мясцінах
мясціны
мяфодзія
мяце
мяцеж
мяцежнікау
мяцежнікі
мяцеліца
мяч
мяча
мячамі
мячом
мячоу
мячы
мячэць
мячэці
мяшанне
мяшання
мяшкі
мяшок
мяшчан
мяшчане
мяшчанства
мі
міг
мігам
мігель
мігрантау
міграцыи
міграцыя
міграцыі
міе
між
міжваеннаи
міжваенны
міждзяржау
міжзем
міжземнага
міжземнае
міжземнамор
міжземнаморскага
міжземнаморскі
міжземным
міжмоу
міжнар
міжнароднага
міжнароднае
міжнароднаи
міжнародная
міжнародную
міжнародны
міжнародным
міжнароднымі
міжнародных
міжнародныя
міжрэчча
міжрэччы
мікала
мікалае
мікалаевіч
мікалаевіча
мікалаем
мікалаеу
мікалаи
мікалаю
мікалая
мікашэвічы
мікеланджэла
мікола
міколу
міколы
мікраарганізмау
мікраау
мікрабіе
мікрабіялогіі
мікрарае
мікі
мікіта
мікітавіч
мікіты
міла
мілаи
мілан
мілана
мілане
міласэрнасці
мілася
мілаш
мілая
мілеи
мілер
мілеу
мілкінс
мілы
міль
мілье
мільярда
мільярдау
мілях
мілі
міліе
міліметрау
міліся
міліцыя
міліцыяи
міліцыі
міма
мімаволі
мін
міна
мінабароны
мінаме
мінаносцы
мінас
мінгарвыканкама
міндоу
міне
мінерал
мінералау
мінералы
мінеральных
мінеральныя
мінесота
мінои
мінор
мінск
мінска
мінскага
мінскае
мінскаи
мінскам
мінская
мінскпраект
мінску
мінскую
мінскі
мінскім
мінскіх
мінскія
міну
мінула
мінулага
мінулае
мінулы
мінулым
мінулых
мінулыя
мінус
мінут
мінуту
мінуу
міны
міні
мінімальнаи
мінімальная
мінімальны
мінімум
мінімуму
міністр
міністра
міністрам
міністрау
міністру
міністры
міністэрства
міністэрствам
міністэрствау
міністэрстве
міністэрству
міністэрствы
мініяцюр
мініяцюра
мініяцюры
мір
міра
мірам
мірна
мірнага
мірнае
мірнаи
мірны
мірным
мірных
мірныя
мірон
міронавіч
мірскага
мірскі
міру
міры
міс
містасць
містасці
містэр
містэра
місуры
місіи
місіс
місісіпі
місію
місія
місіянерау
місіянеры
місіі
міт
мітау
мітрапаліт
мітрапаліта
мітрапалітам
мітрапаліты
мітраполія
мітраполіі
міты
мітынг
мітынгу
мітынгі
міу
міф
міфа
міфалагічная
міфалагічныя
міфалогія
міфалогіі
міфау
міфы
міфічныя
міха
міхаи
міхал
міхала
міхалам
міхале
міхалка
міхалішкау
міхасе
міхась
міхася
міхаіл
міхаіла
міхаілам
міхаілу
міцкевіч
міцкевіча
міцца
міць
мічыган
мішурын
мішэль
н
на
наагул
наадварот
набажэнства
набажэнствау
набажэнствы
набегау
набегі
набліжаецца
набліжау
набліжэнне
набліжэння
набліжэнні
наблізіу
набожны
набор
наборам
набору
наборы
набрала
набрау
набраць
набывае
набывалі
набываць
набываюць
набыла
набыло
набылі
набыта
набыты
набыу
набыцце
набыцця
набыць
набярэжнаи
набярэжная
нав
нава
навага
наваград
наваградак
наваградку
навагрудак
навагрудка
навагрудку
навагрудскага
навагрудскаи
навагрудскі
навагрудскім
навагі
навадворскі
навадугінскага
навадугінскім
наважаны
навазыбкау
навакол
наваколле
наваколля
наваколлях
наваколлі
навакольнага
навакольнае
навакольнаи
навакольным
навакольных
навакольныя
навальніца
навальніцы
навалі
наваны
наваполацк
наваполацка
наваполацкага
наваполацку
навара
наварасіи
навары
навасады
навасе
нават
наваць
наведала
наведалі
наведау
наведаць
наведвае
наведвала
наведвальнікау
наведвальнікі
наведвалі
наведванне
наведвання
наведвау
наведваць
наведваюць
навеи
навек
навекі
навелы
наверсе
наверх
навет
навечно
наводзіць
навокал
навошта
навук
навука
навукаи
навуках
навукова
навуковага
навуковае
навуковаи
навуковая
навуковец
навуковую
навуковы
навуковым
навуковымі
навуковых
навуковыя
навукоу
навуку
навукі
навум
навуменка
навуцы
навучаецца
навучалася
навучальна
навучальнага
навучальнаи
навучальная
навучальную
навучальны
навучальным
навучальных
навучальныя
навучаліся
навучанне
навучання
навучанні
навучау
навучаюцца
навучыліся
навучыу
навучыцца
навучыць
навучэнцау
навучэнцы
навыкау
навыкі
навігацыи
навігацыі
навікі
навін
навіна
навінкі
навіну
навіны
навіцкі
навіч
навічы
нага
нагадвае
нагадвала
нагадвалі
нагадвау
нагадваюць
нагаи
нагамі
нагасакі
нагах
нагляд
наглядам
нагляду
нагодаи
нагоды
нагои
нагор
нагорна
нагорнага
нагорным
нагрудны
нагрузку
нагрузкі
нагу
нагі
над
нада
надавала
надавалася
надавалі
надавау
нададзена
нададзены
надае
надаецца
надалеи
надалі
наданне
надання
наданні
надау
надаць
надаюць
надвор
надворнага
надворны
наделении
надзвычаи
надзе
надзеи
надзел
надзелы
надзеу
надзею
надзея
надзеяи
надзеі
надзя
надмагілле
надоу
надпарадак
надпіс
надпісам
надпісамі
надпісау
надпісу
надпісы
надрукавана
надрукаваны
надрукаваныя
надрукавау
надсямеи
надта
надумау
надыходам
надыходзіць
надышоу
нае
нажаль
нажом
нажы
назад
назапашвання
назарэу
назау
назва
назваи
назвала
назвалі
назвамі
названа
названага
названаи
названая
названы
названых
названыя
назвау
назвах
назваць
назваю
назве
назву
назвы
назе
наземных
наземныя
назначаны
назначении
назоу
называе
называецца
называла
называлася
называлі
называліся
называу
называцца
называць
называюцца
называюць
называючы
назіраецца
назіралася
назіральнік
назіральніка
назіральнікау
назіральнікі
назіралі
назіраліся
назіранне
назірання
назіранняу
назіранні
назірау
назіраць
назіраюцца
наи
нак
накамандуючага
накамандуючы
накамандуючым
наканавана
наканечнікі
наклад
накладам
наколькі
наконт
накрыты
накрыу
накшталт
накіравала
накіравалася
накіравалі
накіраваліся
накіравана
накіраванаи
накіраванасць
накіраваная
накіраваную
накіраваны
накіраваных
накіраваныя
накіравау
накіраваць
накіроу
накірунку
наладжана
наладзіу
наладзіць
нале
налева
належала
належалі
належау
належаць
належнага
належнаи
належным
належыла
належылі
належыу
належыць
налецця
нальна
наліваи
наліу
налічвае
налічваецца
налічвала
налічвалася
налічвалі
налічвау
нам
намаганням
намаганнямі
намаганняу
намаганні
намалявана
намаляваная
намаляваны
намаляваныя
намалявау
наме
наменклатуры
намер
намерам
намерау
намерна
намеру
намеры
намеснік
намесніка
намеснікам
намеснікау
намеснікі
намесніцтва
наметражны
нами
намоцны
намоцным
намоцтвамі
намоцтвау
намоцтвы
наму
намъ
намі
намібія
намібіі
намінаваны
наміналам
намінантау
намінанты
намінацыи
намінацыю
намінацыя
намінацыямі
намінацыях
намінацыі
нан
нанава
нанб
нане
нанесены
нанесла
нанеслі
нанесці
нанне
нання
нанні
нанова
наносілі
наносіць
наноу
нансен
нансена
наньні
нанясення
наняу
наогул
напад
нападалі
нападам
нападау
нападзе
нападнік
нападніка
нападнікам
нападу
напады
напала
напалеон
напалеона
напалеонам
напалеонау
напалову
напалі
напасці
напау
напачатку
наперад
наперадзе
напои
напоу
напояу
напоі
напр
направа
напрамак
напрамкам
напрамкау
напрамках
напрамку
напрамкі
напрау
напрацягу
напружанаи
напружанасць
напружанасці
напружанне
напружання
напружаным
напрыклад
напэу
напярэдадні
напісала
напісалі
напісана
напісанага
напісанае
напісанаи
напісаная
напісанне
напісання
напісанні
напісаны
напісаных
напісаныя
напісау
напісаць
нар
нара
нарада
нараджаецца
нараджэнне
нараджэння
нараджэнні
нарадзе
нарадзіла
нарадзілася
нарадзіліся
нарадзіу
нараду
нарады
нарау
нарач
нарачанскі
нарбут
нарва
нарвегію
нарвегія
нарвегіі
нарвежскага
нарвежскаи
нарвежская
нарвежскі
нарвежскім
нарвежскіх
нарвежскія
наркам
наркама
наркамата
наркотыкау
нармальна
нармальнага
нармальнаи
нармальны
нармальным
нармандыя
нармандыі
нарматыу
нарніі
народ
народа
народам
народамі
народау
народжаная
народжаны
народзе
народна
народнага
народнае
народнаи
народнасці
народная
народного
народнои
народном
народную
народны
народным
народнымі
народных
народныя
народов
народу
народы
нароу
нары
нарыс
нарысау
нарысы
нарыхтовак
нарыхтоу
нарэшце
нас
наса
насаджэнняу
насаджэнні
насам
насамрэч
насау
насе
насевіч
населе
населенага
населения
населенных
населены
населеным
населеных
населеныя
насельнікау
насельнікі
насельніцтва
насельніцтвам
насельніцтве
насельніцтву
насенне
насеннем
насення
наскалов
наскрозь
наславянскаи
наследие
наследия
насос
наста
настала
настау
настачка
настаяцелем
настаяцель
настои
настолькі
настроем
настроены
настрои
настрою
настрояу
настроі
наступ
наступальнаи
наступальных
наступаць
наступленне
наступлення
наступленні
наступнага
наступнае
наступнаи
наступная
наступную
наступны
наступным
наступнымі
наступных
наступныя
наступствау
наступствы
наступу
наступіла
наступіу
насуперак
насупраць
насустрач
насцеи
насць
насцю
насцямі
насцяу
насці
насъ
насыпау
насычаны
насьць
насьцю
насьці
насякомымі
насякомых
насякомыя
насяленьне
насяленьня
насяляе
насялялі
насяляюць
насіла
насілі
насіу
насіць
нат
ната
наталля
наталлі
наталя
наталі
нататкі
натау
натоу
натрыю
натура
натуральна
натуральнага
натуральнае
натуральнаи
натуральная
натуральную
натуральны
натуральным
натуральных
натуральныя
натураліст
натуры
натхне
натхненне
натхнення
нау
наук
наука
науказ
науки
науч
научно
научное
научнои
научные
научныи
научных
нафта
нафтаваи
нафтавых
нафтан
нафтана
нафтаперапрацоу
нафту
нафты
нах
нахіл
нахілу
нахіліу
нац
национальная
национального
национальнои
национальныи
нацызму
нацыи
нацыстамі
нацыстау
нацысты
нацысцкаи
нацыю
нацыя
нацыянал
нацыянальна
нацыянальнага
нацыянальнае
нацыянальнаи
нацыянальнаму
нацыянальнасцеи
нацыянальнасць
нацыянальнасці
нацыянальнасьці
нацыянальная
нацыянальную
нацыянальны
нацыянальным
нацыянальнымі
нацыянальных
нацыянальныя
нацыяналізацыі
нацыяналізм
нацыяналізму
нацыяналістау
нацыяналісты
нацыяналістычнаи
нацыяналістычных
нацыі
наць
нацюрморт
націск
націскам
націску
нач
нача
начаваць
начаи
начала
начале
начало
начальнік
начальніка
начальнікам
начальнікау
начальніку
начальнікі
начальства
начальствам
начная
начнога
начны
начных
начныя
начы
начынне
начэи
наш
наша
нашага
нашае
нашаи
нашаму
нашаніу
нашая
наше
нашего
нашеи
наши
наших
нашмат
нашого
нашто
нашу
нашую
нашчадак
нашчадкам
нашчадкамі
нашчадкау
нашчадкі
нашы
нашым
нашымі
нашых
нашыя
нашэ
нашэнне
нашэсця
наю
ная
наяу
наіу
нба
нг
нгаб
нгуен
нд
нда
нджэрс
ндз
ндзе
ндленд
ндр
ндтрэк
нді
не
неабходна
неабходнага
неабходнаи
неабходнасць
неабходнасцю
неабходнасці
неабходная
неабходную
неабходны
неабходным
неабходнымі
неабходных
неабходныя
неагатычным
неаготыкі
неад
неадкладна
неадкладнага
неаднаразова
неаліту
неандэртальцау
неапаль
неапаля
неапалі
неафіцыи
неахвотна
неба
небам
небарака
небе
небо
небудзь
небяспека
небяспеку
небяспекі
небяспецы
небяспечна
небяспечны
небяспечным
небяспечных
небяспечныя
невада
невель
невыразныя
невысакосны
невысокія
невядома
невядомага
невядомае
невядомаи
невядомая
невядомы
невядомым
невядомымі
невядомых
невядомыя
невялікага
невялікае
невялікаи
невялікая
невялікую
невялікі
невялікім
невялікімі
невялікіх
невялікія
невялічкі
невясе
негатыу
него
недавер
недаверу
недале
недастаткова
недастатковасці
недау
недахоп
недахопам
недахопау
недахопу
недахопы
недзе
недзяржау
незадаволенасць
незадаволенасці
незадаволены
незадаволеныя
незадоу
незаконна
незаконным
незалежна
незалежнага
незалежнае
незалежнаи
незалежнасць
незалежнасці
незалежнасьць
незалежнасьці
незалежная
незалежную
незалежны
незалежным
незалежнымі
незалежных
незалежныя
незалежніцкаи
незаселеныя
незау
незвычаи
незнае
незразумела
неи
некалькі
некалькім
некалькімі
некалькіх
некалі
некамерцыи
некаторага
некаторае
некатораи
некаторая
некаторую
некаторы
некаторым
некаторымі
некаторых
некаторыя
некоторые
некоторых
некрашэвіч
некуды
нелегальна
нелегальнаи
нельга
нелінеи
нем
немаведама
немагчыма
немагчымасць
немагчымасці
немагчымым
неман
немау
немец
немца
немцам
немцамі
немцау
немцы
нен
нена
ненадзеи
ненадоу
ненаи
ненасць
ненасці
неная
ненне
неннем
нення
ненняу
ненні
нены
неныя
непадале
непакои
непал
непала
непарыу
непасрэдна
непасрэднага
непасрэднае
непасрэднаи
непасрэдны
непасрэдным
непау
непрау
непрыемна
непрызнанаи
непрыкметна
непрыстои
непрыяцеля
нептун
нептуна
нер
нера
нерам
нерау
нервова
нервоваи
нервовых
нервы
нерон
нерона
нерухома
нерухомаи
нерухомасці
неры
несапрау
несена
несены
несла
неслі
неспадзявана
неспакои
неспрыяльных
несумненна
несцяровіч
несці
нет
нетрах
неу
неф
нефа
неферціці
нефы
нехта
нечага
нечакана
нечым
нешматлікіх
нешматлікія
нешта
неэфектыу
неяк
ни
нии
николаевич
николаи
николая
них
нка
нкав
нкаи
нкау
нквд
нкр
нку
нкус
нкі
нла
нлаи
нм
нна
ннага
ннае
ннаи
нная
нне
нную
нны
нные
нным
ннымі
нных
нныя
ння
нняшняга
нняшняи
нняшні
ннік
нніку
ннікі
но
нобелеу
нов
нова
новага
новагародскага
новагародскі
новадзявочых
новае
новаи
новак
новаму
новарасіи
новасібірск
новасібірскаи
новау
новая
новеи
нового
новое
новои
новости
новую
новы
новые
новыи
новым
новымі
новых
новыя
нові
новік
новікау
ног
нога
ного
ногі
ное
нож
ножкі
ножцы
нои
нок
норм
норма
нормамі
нормау
норму
нормы
нос
носа
носам
носе
носьбіт
носьбіта
носьбітам
носьбітамі
носьбітау
носьбіты
носяць
носіцца
носіць
ноты
ноу
ноч
ночка
ночна
ночнав
ночнага
ночнае
ночнаи
ночная
ночную
ночны
ночным
ночных
ночныя
ноччу
ночы
ною
ноября
нп
нс
нсдап
нск
нскага
нскаи
нская
нскі
нскіх
нскія
нська
нськии
нських
нськоі
нт
нтак
нтка
нткам
нткамі
нткау
нтках
нтку
нткі
ну
нубіі
нудна
нук
нука
нуль
нулю
нуля
нумар
нумара
нумарам
нумарамі
нумарацыя
нумарацыі
нумароу
нумару
нумары
нумізматыка
нур
нутр
нутранага
нутранае
нутранаи
нутраная
нутраную
нутраны
нутраным
нутранымі
нутраных
нутраныя
нутро
нутры
нуу
ную
нфвт
нфк
нфл
нхл
нц
нца
нцы
нці
ншваи
нштэи
ны
ные
ныи
ным
нымі
нырак
ных
ныя
нь
нье
ньне
ньня
нью
ньюкасл
ньютан
ньютана
ньюфау
нэ
нэд
нэдрыгаи
нэма
нэмірыу
нэнсі
ню
нюрнберг
нюю
ня
нябе
нябеснага
нябеснае
нябеснаи
нябесны
нябесных
нябесныя
нябожчык
нябожчыка
нябожчыкау
нябось
нявада
нявеста
нявесты
няволю
няволі
нявы
няга
нягледзячы
нядау
нядбаи
нядзелю
нядзеля
нядзелі
нядобра
нядолі
нядоу
нядрэнна
няе
няецца
нязвычаи
нязменна
нязменнаи
нязменным
нязначна
нязначная
нязначныя
няи
някляеу
някрасава
нялася
няле
нялі
няліся
ням
няма
нямала
нямецка
нямецкага
нямецкае
нямецкаи
нямецкамоу
нямецкая
нямецку
нямецкую
нямецкі
нямецкім
нямецкімі
нямецкіх
нямецкія
нямеччыне
нямеччыны
нямногіх
няможна
нямои
няміга
нянавісць
нянавісці
няных
няныя
няпоу
няправільна
няпрау
няпэу
няроу
нярэдка
нярэи
нясвіж
нясвіжа
нясвіжскага
нясвіжскаи
нясвіжскі
нясвіжскім
нясвіжы
нясе
нясення
няспрау
нястачы
нясуць
няу
нях
няхаи
няцотны
няцца
няць
няшмат
няшчаснага
няшчасны
няшчасце
няюць
няючы
няя
ні
нібудзь
нібы
нібыта
ніва
ніве
ніверсітэт
ніверсітэта
ніверсітэтау
ніверсітэтах
ніверсітэту
ніверсітэты
ніверсітэце
ніводзін
ніводнага
ніводнаи
ніводная
ніводны
нівы
нігер
нігера
нігерыи
нігерыя
нігерыі
нідзе
нідэрландау
нідэрландах
нідэрландскаи
нідэрландская
нідэрландскі
нідэрланды
ніжагародскаи
ніжнесілезскага
ніжнюю
ніжняга
ніжняе
ніжняи
ніжняя
ніжні
ніжнім
ніжніх
ніжнія
ніжэи
ніз
нізе
нізка
нізкага
нізкаи
нізкарэи
нізкая
нізкую
нізкі
нізкім
нізкімі
нізкіх
нізкія
нізоу
нізіна
нізіне
нізінныя
нізіны
нік
ніка
нікава
нікаваи
нікалаеу
нікалас
нікаля
нікам
нікамі
нікарагуа
нікау
ніках
нікеи
нікога
нікола
ніколь
ніколі
ніком
нікому
нікоу
ніку
нікуды
нікуліна
нікі
ніл
ніла
нілася
ніловіч
ніловіча
нільс
нілі
нім
німа
німі
нін
ніна
нінаи
нінах
ніне
нінны
ніну
ніны
ніс
нітак
нітарнага
нітарнае
ніткі
ніу
ніх
ніхто
ніц
ніца
ніцаи
ніцкага
ніцкаи
ніцкая
ніцкую
ніцкі
ніцкім
ніцкіх
ніцкія
ніцтва
ніцтвам
ніцтвау
ніцтве
ніцтву
ніцтвы
ніцу
ніцца
ніцы
ніць
ніча
нічага
нічае
нічаи
нічала
нічалі
нічанне
нічання
нічанні
нічаны
нічау
нічаць
нічаюць
нічаючы
нічая
нічога
нічую
нічы
нічым
нічымі
нічыпар
нічых
нічыю
нічыя
ніш
нішамі
нішто
нішы
нія
ніяк
ніякага
ніякае
ніякаи
ніякая
ніякі
ніякім
ніякіх
ніякія
о
об
обаль
обер
обзор
области
областного
область
обозрение
обороны
образование
образовании
образования
образованных
общ
общая
общеи
общества
общество
объединении
объектов
объекты
объявил
обі
ого
од
ода
один
одно
одного
однои
озе
озеро
ои
океан
около
оксфард
оксфардскага
октября
оламау
олаф
олафа
олег
олма
ольга
олівер
ом
омск
он
она
оне
онечны
они
онлаи
онного
онов
оного
онъ
оон
ооо
оопт
оп
опер
опера
операции
операция
опернага
оперная
оперны
оперных
оперныя
оперу
оперы
описание
описания
описано
определитель
опсау
оптыка
оптыкі
опыт
ор
орган
органа
органам
органамі
органау
органах
организации
организация
органов
органы
організацыи
організацыя
організацыі
орда
ордара
ордена
орды
ордэн
ордэна
ордэнам
ордэнамі
ордэнау
ордэну
ордэны
орк
оружие
орша
оршы
осака
оскар
оскара
осла
основные
основы
особенности
ост
островецкого
ось
от
ота
отв
отд
отдел
отечественная
отечественнои
отношении
отношения
отца
отчет
отъ
оу
оф
официально
официальныи
офіс
ох
очерк
очерки
п
па
паабапал
паабяцау
паазер
паала
паасобку
паасобных
паасобныя
паб
пабачым
пабачыу
пабачыць
пабег
пабегла
пабеларуску
пабла
паблізу
пабрау
пабрацімы
пабудавалі
пабудавана
пабудаванага
пабудаванаи
пабудаваная
пабудаваны
пабудаваным
пабудаваных
пабудаваныя
пабудавау
пабудаваць
пабудова
пабудоваи
пабудовамі
пабудове
пабудову
пабудовы
пабудоу
пабывау
пабыу
пабіты
пабіу
пав
павагаи
павагу
павагі
паважаны
паважаць
паважна
павал
паваліу
паварот
павароту
паве
паведамленне
паведамленнем
паведамлення
паведамленняу
паведамленнях
паведамленні
паведамляе
паведамляецца
паведамляла
паведамлялася
паведамлялі
паведамляу
паведамляюць
паведаміла
паведамілі
паведаміу
паведаміць
павел
павелічэнне
павелічэннем
павелічэння
павелічэнні
павер
паверсе
паверх
паверха
паверхау
паверхах
паверхню
паверхня
паверхняи
паверхняу
паверхні
паверху
паверхі
паверыу
паверыць
павесці
павесіу
павесіць
павет
павета
паветау
паветах
паветра
паветрам
паветрана
паветранага
паветранаи
паветраная
паветраную
паветраны
паветраным
паветраных
паветраныя
паветры
павету
паветы
павеце
павешаны
павла
паводак
паводзін
паводзінамі
паводзінау
паводзінах
паводзіны
паводзіць
паводка
паводкі
паводле
паволжа
павольна
паволі
павук
павысіць
павышанаи
павышэнне
павышэння
павышэнні
павялі
павялічана
павялічаны
павялічвае
павялічваецца
павялічвалася
павялічыла
павялічылася
павялічыліся
павялічыу
павялічыць
павярнулі
павярнуу
павярнуць
павярховы
павярховыя
павярхоу
павятовага
павятовы
павятовым
павятовых
павятовыя
павілье
павінен
павінна
павіннасці
павінны
павія
пагаварыць
пагадзілася
пагадзіліся
пагадзіу
пагадзіцца
пагадненне
пагадненнем
пагаднення
пагадненняу
пагадненні
пагалоу
паганства
пагардаи
пагаршэння
пагатоу
паглынання
пагляд
паглядау
паглядзела
паглядзелі
паглядзеу
паглядзець
паглядзі
паглядзім
паглядзіце
пагляды
пагнау
пагоня
пагоні
пагорак
пагоркау
пагорку
пагоршылася
пагост
пагражае
пагражала
пагражалі
пагражау
пагражаць
пагражаючы
пагранічнага
пагранічнаи
пагранічны
пагранічных
пагроз
пагроза
пагрозаи
пагрозу
пагрозы
пагромы
пагутарыць
пагібель
пад
падабаецца
падабалася
падабенства
падавау
падаваць
пададзена
пададзены
падае
падаецца
падазрэнні
падала
падалі
паданне
падання
паданняу
паданнях
паданні
падараваны
падаравау
падарвалі
падарвау
падарожжа
падарожжау
падарожжы
падарожнік
падарожнікау
падарожнікі
падарожнічау
падарунак
падарункі
падарыу
падатак
падаткау
падатку
падаткі
падау
падаць
падачы
падаюцца
падаюць
падаючы
падбадзе
падбег
падвергліся
падвергнуты
падвергнуу
падвеска
падвескі
падводнага
падводнаи
падводная
падводны
падводных
падводныя
падвои
падвышанаи
падвяргаецца
падвяргалася
падвяргаліся
падвяргау
падвяргаюцца
падвід
падвіды
падгрупа
падгрупы
паддаецца
падданства
падданых
падданыя
падзе
падзеи
падзел
падзела
падзелам
падзелау
падзеле
падзелена
падзеленая
падзелены
падзеленых
падзеленыя
падзелу
падземны
падземным
падземных
падземныя
падзенне
падзеннем
падзення
падзенні
падзею
падзея
падзеяи
падзеям
падзеямі
падзеяу
падзеях
падзеі
падзолістыя
падзяка
падзякавау
падзяку
падзякі
падзяляе
падзяляецца
падзялялася
падзяляліся
падзяляу
падзяляюцца
падзяляюць
падзялілі
падзяліу
падзяліць
падкаморы
падкарпацкага
падкрэслена
падкрэслівае
падкрэслівау
падкрэсліу
падкрэсліць
падлеткау
падлога
падлогу
падлогі
падлозе
падлоу
падлягае
падлягалі
падлягаюць
падляскага
падляшша
падліку
падмаскоу
падмацаванне
падмурак
падмурка
падмурку
падмуркі
падначаленых
падножжа
падняла
паднялася
паднялі
падняліся
падняпроу
падняты
падняу
падняцца
падняць
падобна
падобнага
падобнае
падобнаи
падобная
падобную
падобны
падобным
падобнымі
падобных
падобныя
падольскага
падольскі
падоу
падпалкоу
падпалілі
падпарадкавана
падпарадкаванне
падпарадкавання
падпарадкаванні
падпарадкаваны
падпарадкаваныя
падпарадкавау
падпарадкаваць
падпарадкоу
падполле
падполля
падпольнага
падпольнаи
падпольная
падпольную
падпольны
падпольныя
падпольшчыкау
падпісала
падпісалі
падпісана
падпісанне
падпісаннем
падпісання
падпісанні
падпісаны
падпісау
падпісаць
падпісвае
падпісвау
падрабязна
падрабязнасці
падрабязнеи
падраздзяленне
падраздзяленнем
падраздзялення
падраздзяленнямі
падраздзяленняу
падраздзяленні
падручнік
падручніка
падручнікау
падручнікі
падрыу
падрыхтавала
падрыхтавана
падрыхтаваны
падрыхтаваныя
падрыхтавау
падрыхтаваць
падрыхтоу
падскарбі
падставаи
падставах
падставе
падставу
падставы
падстаронкі
падстау
падстрау
падсямеи
падтрымала
падтрымалі
падтрымана
падтрыманне
падтрымання
падтрыманні
падтрыманы
падтрымау
падтрымаць
падтрымка
падтрымкаи
падтрымку
падтрымкі
падтрымлівае
падтрымліваецца
падтрымлівала
падтрымлівалі
падтрымлівау
падтрымліваць
падтрымліваю
падтрымліваюць
падтрымліваючы
падтрымцы
падуанскага
падумаи
падумау
падумаць
падуі
падхапіу
падчас
падыи
падымае
падымаецца
падымау
падысці
падыход
падыходам
падыходамі
падыходау
падыходзе
падыходзяць
падыходзіла
падыходзілі
падыходзіу
падыходзіць
падыходу
падыходы
падышла
падышлі
падышоу
паедзем
паеду
паездак
паездка
паездку
паездкі
паехала
паехалі
паехау
паехаць
пажадана
пажадау
пажар
пажарам
пажарау
пажарнаи
пажару
пажары
пажыу
пажыцце
паз
пазбавіу
пазбавіцца
пазбавіць
пазбау
пазбегнуць
пазбягаць
пазваночных
пазнае
пазналі
пазнання
пазнау
пазнаць
пазначае
пазначаецца
пазначана
пазначаны
пазначаць
пазначаюць
пазначыць
пазначэнне
пазначэннем
пазначэння
пазнеи
пазняк
пазоу
пазухах
пазыкі
пазьнеи
пазірае
пазіралі
пазірау
пазіраючы
пазітыу
пазіцыи
пазіцыю
пазіцыя
пазіцыяи
пазіцыях
пазіцыі
паи
пак
пакае
пакажа
пакажу
паказ
паказала
паказалася
паказальнік
паказалі
паказана
паказанні
паказаны
паказаныя
паказау
паказаць
паказвае
паказваецца
паказвала
паказвалі
паказвау
паказваць
паказваюць
паказваючы
паказу
паказчык
паказчыкам
паказчыкау
паказчыку
паказчыкі
пакаленне
пакалення
пакаленняу
пакаленні
пакаралі
пакаранне
пакарання
пакаранні
пакараны
пакараныя
пакарау
пакараць
пакет
пакета
пакладзена
пакладзены
паклады
паклала
паклалі
пакланенне
пакланіу
пакласці
паклау
пакле
паклон
паклікау
пакои
паколькі
пакою
пакоя
пакояу
пакоях
пакоі
пакрова
пакроу
пакрывае
пакрываюць
пакрысе
пакрыта
пакрытая
пакрыты
пакрытыя
пакрыу
пакрыцце
пакрыцця
пакт
пакуль
пакут
пакута
пакутавау
пакутуе
пакуты
пакідае
пакідаем
пакідала
пакідалі
пакідау
пакідаць
пакідаюць
пакідаючы
пакіне
пакінула
пакінулі
пакінута
пакінуты
пакінутых
пакінутыя
пакінуу
пакінуць
пакінь
пакістан
пакістана
пакістане
пал
пала
палавога
палавои
палавы
палавых
палавыя
палавіна
палавіне
палавіну
палавіны
палажыу
палажэнне
палажэння
палажэнняу
палажэнні
палажэньне
палажэньня
паланскага
паланскі
паласа
паласе
паласои
паласу
паласы
палат
палата
палатаи
палаткі
палатна
палатне
палатно
палату
палаты
палау
палац
палаца
палацава
палацавы
палацам
палацау
палаце
палацу
палацца
палацы
пале
палеаліту
палепшыць
палерма
палескага
палескаи
палеская
палескі
палескім
палескія
палессе
палесся
палессі
палесціна
палесціне
палесціну
палесціны
палесься
палеткі
палец
палка
палкаводзец
палкаводца
палком
палкоу
палку
палкі
палова
паловаи
палове
палову
паловы
паломніцтва
палон
палоне
палоннымі
палонных
палону
палос
палосамі
палоскамі
палоскі
палосы
палотнау
палотны
палотнішча
палоу
палтава
палтау
палубе
палубу
пальма
пальмы
пальца
пальцам
пальцамі
пальцау
пальцы
палюбоу
паля
палявалі
паляванне
паляваннем
палявання
паляванні
паляваць
палявая
палявога
палявои
палявы
палявых
палявыя
паляк
палякам
палякамі
палякау
палякоу
палякі
палямі
паляна
палянах
паляны
паляпшэнне
паляпшэння
паляпшэнні
палярнага
палярнаи
палярная
палярны
палярных
палярныя
палярызацыі
паляу
палях
паляцеу
палі
паліва
паліклініка
палілі
палімерау
паліна
палінезіи
палінезіі
паліталогія
паліталогіі
палітбюро
палітвязняу
палітвязні
паліто
палітолаг
палітык
палітыка
палітыкаи
палітыкау
палітыку
палітыкі
палітыцы
палітычна
палітычнага
палітычнае
палітычнаи
палітычная
палітычную
палітычны
палітычным
палітычнымі
палітычных
палітычныя
паліу
паліцы
паліцыю
паліцыя
паліцыяи
паліцыі
паліць
паліцэи
палічылі
палічыу
пам
памагае
памагчы
памалу
памау
паме
памежжа
памежнаи
памежная
памежны
памежных
памежныя
паменшылася
паменшыць
памер
памерам
памерамі
памеранія
памераніі
памерау
памерах
памерла
памерлага
памерлых
памерлі
памеру
памерці
памеры
памешчык
памешчыка
памешчыкау
памешчыкі
памешчыцкіх
паможа
памор
паморскага
памочнік
памочніка
памочнікам
памочнікау
памочнікі
памру
памрэ
памыи
памылак
памылка
памылкаи
памылкова
памылку
памылкі
памыліу
памяне
памяншаецца
памяншэнне
памяншэння
памяркоу
памятае
памятаи
памятаць
памятаю
памяти
памятная
памятник
памятники
памятников
памятны
памятных
памятныя
память
памяццю
памяць
памяці
памяшканне
памяшкання
памяшканнямі
памяшканняу
памяшканнях
памяшканні
паміж
памінаецца
памірае
паміраць
пан
пана
панавала
панавалі
панаванне
панавання
панаваньне
панаваньня
панавау
панам
панама
панамароу
панамі
панарама
панарамы
панас
пандэміі
пане
паненка
панесла
панеслі
панк
панна
панны
пано
панове
паном
паноу
панскага
панскае
панскаи
панская
панскі
панскім
панскіх
панскія
панства
пансіе
пантэон
пану
пануе
панура
пануры
пануюць
пануючаи
панцеляи
паншчыну
паншчыны
паны
панэль
панэлі
панядзелак
панятоу
паняцце
паняццем
паняцця
паняццяу
паняцці
пані
панізілі
паніч
пап
папа
папаи
папала
папам
папараць
папараці
папау
папе
папер
папера
паперу
паперы
паплау
паплечнік
паплечнікау
папова
папоу
паправак
паправіу
паправіць
папрасіла
папрасілі
папрасіу
папрасіць
папрау
папросту
папскага
папскаи
папская
папскі
папскім
папства
папу
папуа
папулярнага
папулярнаи
папулярнасць
папулярнасцю
папулярнасці
папулярная
папулярны
папулярным
папулярнымі
папулярных
папулярныя
папулярызацыі
папуляцыи
папуляцыя
папуляцыі
папы
папяроваи
папярочнаи
папярэджанне
папярэджання
папярэджанні
папярэдзіу
папярэдзіць
папярэдне
папярэднюю
папярэдняга
папярэдняе
папярэдняи
папярэдняя
папярэдні
папярэднік
папярэдніка
папярэднікам
папярэднікау
папярэднікі
папярэднім
папярэдніх
папярэднічала
папярэднічалі
папярэднія
пар
пара
паравоз
паравы
парагваи
парагвая
парад
парада
парадак
парадзе
парадкаванне
парадкавання
парадкавы
парадкам
парадкау
парадку
парадкі
параду
парады
паражэнне
паражэннем
паражэння
паражэнняу
паражэнні
параза
паразу
паразы
паразіты
параи
паралельна
паралельных
паралельныя
паралелі
паралімпіи
параметр
параметра
параметрам
параметрамі
параметрау
параметры
парамі
паранена
паранены
параненымі
параненых
параненыя
параска
параслі
парасткау
парасткі
парау
параф
парафіи
парафія
парафіі
параход
парашок
параіу
парвау
париж
парк
парка
паркавага
паркавы
паркавыя
паркам
паркау
парках
парку
паркі
паркінсона
парламент
парламента
парламентам
парламенту
парламенце
парламенцкага
парламенцкаи
парламенцкая
парламенцкіх
парламенцкія
парма
парнасе
парны
парным
парныя
парог
парога
парогі
парод
парода
пародамі
пароды
парозе
паром
пароу
парта
партал
партала
парталам
парталау
партале
парталы
партии
партне
партоу
партрэт
партрэта
партрэтам
партрэтау
партрэты
партугальскага
партугальскаи
партугальская
партугальскі
партугальскіх
партугальскія
партугальцау
партугальцы
партугалія
партугаліі
парты
партызан
партызана
партызанам
партызанамі
партызанау
партызанскага
партызанскаи
партызанская
партызанскую
партызанскі
партызанскім
партызанскіх
партызанскія
партызаны
партыи
партыю
партыя
партыяи
партыямі
партыях
партыі
пару
паручнік
парушае
парушаюць
парушыу
парушыць
парушэнне
парушэннем
парушэння
парушэнняу
парушэнні
парфенона
пары
парыж
парыжа
парыжскага
парыжскаи
парыжская
парыжскі
парыжскім
парыжы
парыу
парэцкі
парэчча
парэшткі
пас
пасаг
пасагу
пасад
пасада
пасадах
пасаджаны
пасадзе
пасадзілі
пасадзіу
пасадзіць
пасадка
пасадку
пасадкі
пасаду
пасады
пасажырау
пасажырскі
пасажырскіх
пасажырскія
пасажыры
пасведчанне
пасвечаны
пасе
пасеву
паседжанне
паседжанні
пасеи
паселішча
паселішчазакон
паселішчам
паселішчау
паселішчах
паселішчы
паскарэнне
паскарэння
паскевіч
пасла
паслала
паслалі
пасламі
пасланец
пасланне
пасланні
пасланы
паслау
паслаць
паслом
паслоу
паслуг
паслугамі
паслугі
паслужыла
паслужылі
паслужыу
паслухаи
паслухау
паслухаць
паслы
пасля
пасляваеннаи
пасляваенны
пасляваенныя
паслядоу
паслядыпломнаи
пасляслоу
пасмяротна
пасол
пасольства
пасольстве
пасоу
паспалітаи
паспалітая
паспалітую
паспела
паспелі
паспеу
паспешна
паспрабавала
паспрабавалі
паспрабавау
паспрабаваць
паспрыяла
паспявання
паспяхова
паспяховага
паспяховае
паспяховаи
паспяховы
паспяховым
паспяховых
паспяховыя
пасродкам
пассавет
пассавета
пассаветарашэнне
паст
паста
паставак
паставах
паставы
паставіла
паставілі
паставіу
паставіць
пастаменце
пастанавілі
пастанавіу
пастанау
пастанова
пастановаи
пастановак
пастанове
пастанову
пастановы
пастаноу
пастар
пастарау
пастау
пастаянна
пастаяннага
пастаяннае
пастаяннаи
пастаянная
пастаянную
пастаянны
пастаянным
пастаянных
пастаянныя
пастаяу
пастоу
пасту
паступае
паступалі
паступаць
паступаюць
паступлення
паступова
паступовага
паступовае
паступіла
паступілі
паступіу
паступіць
пастух
пастухоу
пасты
пасудзіны
пасцель
пасцелі
пасылае
пасылау
пасьля
пасябравау
пасяджэнне
пасяджэння
пасяджэнняу
пасяджэннях
пасяджэнні
пасяленне
пасялення
пасяленняу
пасяленні
пасяленцау
пасяленцы
пасялковага
пасялковаи
пасялковых
пасялілася
пасяліліся
пасяліу
пасярод
пасярэдзіне
пасяу
пасіу
патаи
паталогіі
патлумачыу
паток
патокау
патоку
патокі
патомства
патоцкага
патоцкі
патрабавала
патрабавалася
патрабавалі
патрабаванне
патрабаваннем
патрабаванням
патрабаваннямі
патрабаванняу
патрабаванні
патрабавау
патрабаваць
патрабуе
патрабуецца
патрабуюць
патрабуючы
патрапіла
патрапілі
патрапіу
патрапіць
патрои
патрон
патрона
патронау
патроны
патроху
патруль
патрые
патрык
патрыка
патрыярх
патрыярха
патрыярхам
патрыярхат
патрыярхата
патрыярхату
патрыятызму
патрыятычнага
патрыятычнаи
патрыятычная
патрыятычны
патрыятычных
патрыятычныя
патрэб
патрэба
патрэбау
патрэбе
патрэбен
патрэбна
патрэбнае
патрэбнаи
патрэбная
патрэбную
патрэбны
патрэбным
патрэбных
патрэбныя
патрэбу
патрэбы
патэнт
патэнтау
патэнцыи
патэнцыял
патэнцыялу
патэнцыяльна
пау
пах
пахавальны
пахавальныя
пахавальня
пахавальні
пахавалі
пахавана
пахаваная
пахаванне
пахавання
пахаванняу
пахаванні
пахаваны
пахаваных
пахаваныя
пахаваць
пахам
пахваліу
пахне
паход
паходам
паходау
паходах
паходжанне
паходжаннем
паходжання
паходжанні
паходзе
паходзяць
паходзіла
паходзілі
паходзіу
паходзіць
паходу
паходы
паху
пац
пацалавау
пацалунак
пацверджана
пацверджанне
пацверджання
пацверджаны
пацвердзіла
пацвердзілі
пацвердзіу
пацвердзіць
пацвярджае
пацвярджаецца
пацвярджаюць
паце
пацеи
пацеркі
пацукоу
пацыентау
пацягнула
пацягнуу
пацяроб
пацярпела
пацярпелым
пацярпелых
пацярпелі
пацярпеу
паціснуу
паціху
пач
пачакаи
пачакаць
пачала
пачалася
пачало
пачалося
пачалі
пачаліся
пачата
пачатак
пачаткам
пачаткау
пачатках
пачаткова
пачатковага
пачатковаи
пачатковая
пачатковую
пачатковы
пачатковым
пачатковых
пачатковыя
пачаткоу
пачатку
пачаткі
пачаты
пачау
пачаць
пачне
пачнецца
пачнуць
пачуе
пачула
пачулася
пачулі
пачуліся
пачуу
пачуцце
пачуцця
пачуццяу
пачуцці
пачуць
пачуцьце
пачуцьця
пачынае
пачынаецца
пачынала
пачыналася
пачынальнікау
пачыналі
пачыналіся
пачынау
пачынаць
пачынаюцца
пачынаюць
пачынаючы
пачынкау
паша
пашанаи
пашану
пашаны
пашкевіч
пашкоджана
пашкоджанне
пашкоджання
пашкоджанняу
пашкоджанні
пашкоджаны
пашкодзіць
пашкоу
пашлі
пашоу
пашпарт
паштова
паштоваи
паштовая
паштовы
паштовых
паштовыя
паштоу
пашу
пашы
пашыраецца
пашыралася
пашырана
пашыранаи
пашыраная
пашыраны
пашыраных
пашыраныя
пашырау
пашырацца
пашыраць
пашырыла
пашырылася
пашырылі
пашырыу
пашырыць
пашырэнне
пашырэннем
пашырэнню
пашырэння
пашырэнні
пашырэньня
паэзію
паэзія
паэзіі
паэм
паэма
паэме
паэму
паэмы
паэт
паэта
паэтам
паэтау
паэтка
паэту
паэты
паэтычнага
паэтычнаи
паэтычны
паэтычных
паэтычныя
паэтэса
паэтэсы
паядынак
паядынку
паясоу
паясы
паяу
пд
пдп
пду
пе
певень
пегас
педагагічнага
педагагічнае
педагагічнаи
педагагічная
педагагічны
педагагічным
педагагічных
педагагічныя
педагог
педагога
педагогау
педагогі
педагогіка
педагогікі
педра
педру
пезара
пеи
пекла
пекле
пекін
пекіне
пен
пена
пенальці
пенсіи
пенсільванія
пенсію
пенсіі
пень
пер
пера
пераабраны
пераадолення
пераадолеу
пераадолець
перабралася
перабрау
перабудавана
перабудаваны
перабудова
перабудовы
перабудоу
перабіу
пераваг
перавага
перавагаи
перавагу
перавагі
пераважае
пераважала
пераважалі
пераважаюць
пераважна
пераважнаи
пераважная
перавал
пераварот
перавароту
пераве
пераведзена
пераведзены
перавезена
перавезены
перавезлі
перавесці
перавод
пераводу
перавозак
перавозкі
перавысіла
перавысіу
перавышае
перавышала
перавышаць
перавышаюць
перавялі
перагаворау
перагаворы
перагляду
перад
перада
перадавалася
перадавалі
перадаваліся
перадавау
перадаваць
перадавых
перадавыя
перададзена
перададзены
перададзеныя
перадае
перадаецца
перадала
перадалі
перадау
перадаць
перадач
перадача
перадачаи
перадачу
перадачы
перадаюцца
перадаюць
перадгор
перадгісторыя
перадумовы
перадусім
пераезд
пераезду
пераемнасць
пераемнік
пераемніка
пераемнікам
пераехала
пераехалі
пераехау
пераехаць
перажывае
перажывау
перажыла
перажылі
перажыу
перажыць
пераи
перакананняу
перакананні
перакананы
пераканау
пераканацца
пераканаць
перакл
пераклад
перакладаецца
перакладам
перакладамі
перакладау
перакладах
перакладаць
перакладзе
перакладзена
перакладзены
перакладу
перакладчык
перакладчыка
перакладчыкам
перакладчыкау
перакладчыкі
перакладчыца
пераклады
пераклалі
перакласці
пераклау
перакрыта
перакрыты
перакінуты
перале
пералом
пералік
пераліку
пералічаны
пералічаных
пералічаныя
перамагае
перамагау
перамагла
перамаглі
перамагчы
перамен
пераменнага
перамены
перамовау
перамовах
перамовы
перамог
перамога
перамогаи
перамогу
перамогшы
перамогі
пераможаны
пераможнаи
пераможны
пераможным
пераможца
пераможцам
пераможцамі
пераможцау
пераможцу
пераможцы
перамозе
перамоу
перамычкаи
перамяшчэнне
перамяшчэння
перамяшчэнні
перамір
пераназвана
пераназваны
перане
перанесена
перанесены
перанеслі
перанесці
перанос
пераносе
пераносу
пераносяць
пераносіцца
пераносіць
пераняу
перападрыхтоу
перапе
перапле
перапоу
пераправу
пераправы
пераправіу
перапрау
перапрацоу
перапынак
перапынкамі
перапынку
перапыніу
перапіс
перапіска
перапіску
перапісу
перапісцы
перароблены
пераселены
пераслед
пераследу
перасоу
перастала
перасталі
перастау
перасылка
перасылкі
перасякае
перасякаецца
перасякаюць
перасяленне
перасялення
перасяленцамі
перасяленцау
перасяленцы
перасялілася
перасяліліся
перасяліу
перасячэння
перасячэнні
ператвараецца
ператвараюцца
ператварылася
ператварылі
ператварыліся
ператварыу
ператварыць
ператварэнне
ператварэння
ператворана
ператвораны
перау
пераход
пераходам
пераходау
пераходзе
пераходзяць
пераходзячы
пераходзіла
пераходзілі
пераходзіу
пераходзіць
пераходнага
пераходны
пераходных
пераходу
пераходы
перац
перашкаджае
перашкаджала
перашкаджалі
перашкаджау
перашкаджаць
перашкаджаюць
перашкод
перашкодаи
перашкодзіла
перашкодзіць
перашкоды
перашыи
пераязджае
пераяслау
первая
первого
первои
первыи
первых
перевод
перед
передъ
перепісу
перераб
перешел
период
пермскага
перпендыкулярна
персанаж
персанажа
персанажам
персанажау
персанажы
персанал
персаналу
персанальная
персанальны
персанальных
персанальныя
персау
персеи
перспективы
перспектыве
перспектывы
перспектыу
персы
персідскага
персідскаи
персідская
персідскі
персідскім
персідскіх
персідскія
персіі
перу
перш
першага
першае
першаи
першакрыніцы
першамаи
першаму
першапачаткова
першапачатковага
першапачатковае
першапачатковаи
першапачатковая
першапачатковую
першапачатковы
першапачатковым
першапачатковых
першапачатковыя
першаснаи
першасных
першая
першую
першы
першым
першымі
першынства
першынстве
першынство
першыню
першых
першыя
перы
перые
перыметры
перыяд
перыяда
перыядам
перыядау
перыядзе
перыяду
перыяды
перыядычна
перыядычнаи
перыядычным
перыядычных
перыядычныя
песен
песень
пескау
песни
песню
песня
песняи
песнямі
песняры
песняу
песнях
песні
песьню
песьня
песьняи
песьняра
песьняу
песьні
петербург
петр
петра
петраград
петраградзе
петрапау
петро
петрович
петроград
петрусе
петруся
петрыкау
петыпа
петэр
пеу
пехацінцы
пець
пецярбург
пецярбурга
пецярбургскага
пецярбургскаи
пецярбургская
пецярбургскую
пецярбургскі
пецярбургскім
пецярбургу
пецярбурзе
печ
печані
печы
пешшу
письма
пк
пкс
пл
пла
плаванию
плаванне
плавання
плаванні
плага
пладамі
пладовых
пладовыя
пладоу
плады
плае
плазмы
плаи
плакала
плакат
плакаты
плакау
плакаць
план
плана
планавала
планавалася
планавалі
планаванне
планавання
планавау
планам
планау
планах
плане
планет
планета
планету
планеты
планеце
планк
планка
планкау
планоу
плантацыи
плантацыі
плану
плануе
плануецца
планы
планіроу
пласкагор
пласт
пласта
пластах
пластом
пластоу
пласты
пластыка
пластыкі
пласце
пласцінка
пласцінкі
пласціны
плата
плато
платон
платона
платонау
плату
платформа
платформе
платформу
платформы
платы
плау
плацдарм
плацдарма
плацілі
плаціна
плаціны
плаціць
плач
плача
плачу
плачуць
плашч
плая
пле
плеи
племені
племя
племянных
пленум
пленумам
плечы
плод
плоскае
плоскаи
плоскасць
плоскасці
плоская
плоскі
плоскім
плоскімі
плоскіх
плоскія
плот
плотам
плотка
плоу
плошча
плошчаи
плошчау
плошчу
плошчы
площадь
плуг
плутона
плы
плывае
плывала
плывалі
плывам
плывау
плываць
плываюць
плыве
плывец
плыву
плывуць
плывы
плылі
плым
плынь
плыняу
плыні
плыу
плых
плыя
плэи
плюс
плюскі
пляж
пляжы
плям
пляма
плямамі
пляме
пляменнік
пляменніка
пляменнікам
пляменніцаи
плямы
плян
плятэр
пляц
пляцовак
пляцоу
пляцы
пляча
плячах
плячо
плячы
плячыма
пліскага
пліскі
пліт
пліта
пліты
пн
пнв
пнеу
пнр
пнс
пніцкі
по
побач
победы
побыт
побыту
побыце
повесть
повиненъ
погляд
поглядам
поглядамі
поглядау
поглядах
погляду
погляды
пограничья
под
подзвіг
подзвігі
подписал
подписали
подпіс
подпісам
подпісау
подпісы
подъ
подых
поезд
позвы
позна
познань
познані
позняга
позняи
позняя
позні
познім
позніх
познія
позірк
позіркам
пои
покинул
покинули
покрыва
покрыу
покуль
покі
пол
пола
поласць
поласці
полау
полацак
полацк
полацка
полацкага
полацкае
полацкаи
полацкая
полацку
полацкую
полацкі
полацкім
полацкіх
полацкія
поле
полем
политика
политическая
политическои
полк
полное
полномочии
половине
полу
полымя
поль
польны
польск
польска
польскага
польскае
польскаи
польскамоу
польскаму
польская
польску
польскую
польскі
польскім
польскімі
польскіх
польскія
польшча
польшчаи
польшчу
польшчы
полю
полюс
полюса
полюсе
поля
полі
полісся
політычнага
політычных
політэхнічнага
політэхнічны
політэхнічным
помач
помачы
помню
помнік
помніка
помнікам
помнікамі
помнікау
помніках
помніку
помнікі
помніш
помста
помсты
поп
попел
попелу
поплеч
популярная
попыт
попытам
попыту
пор
поразау
порах
пораху
порт
порта
портал
портам
портр
порту
порты
поруч
порце
порцік
порцікам
поры
порядка
поселение
после
пособие
поспех
поспехам
поспехау
поспеху
поспехі
пост
постановление
постаць
постаці
постсавецкаи
посту
посуд
посуду
пот
потам
поту
потым
потэр
потэра
поу
почему
пошта
пошту
пошты
пошук
пошукам
пошукау
пошуках
пошуку
пошукі
поэзіі
поэма
поэмы
поэт
поэта
поэтау
поэты
пояс
пояса
поясам
поясе
ппс
пр
пра
праабражэнская
праабражэнскі
прабачце
прабачэння
прабег
праблем
праблема
праблемаи
праблемам
праблемамі
праблемах
праблеме
праблему
праблемы
прабыу
прабіу
прабіцца
прав
права
праваабаронца
праваабаронцы
праваабарончага
праваабарончы
праваахоу
прававая
прававога
прававои
прававы
прававым
прававых
прававыя
правага
правадзеи
праваднік
праваднікоу
правадыр
правадыра
правадыром
правадыроу
правадырствам
правадыры
правае
правазнау
праваи
правак
правакацыи
правал
правалу
правалілася
праваліу
правам
правамі
праванс
праванса
правапарадку
правапіс
правапісу
праваслау
правасуддзя
правах
правая
правда
праве
праведзена
праведзенага
праведзенаи
праведзеная
праведзены
праведзеных
праведзеныя
праверана
правераная
праверка
праверку
праверкі
праверыць
правесці
правительства
право
праводзяцца
праводзяць
праводзячы
праводзіла
праводзілася
праводзілі
праводзіліся
праводзіу
праводзіцца
праводзіць
православная
православнои
правоу
праву
правую
правы
правым
правых
правыя
правядзенне
правядзеннем
правядзення
правядзенні
правяла
правялі
правіл
правіла
правілам
правіламі
правілау
правілах
правілы
правільна
правільнага
правільнае
правільнаи
правільны
правільным
правільныя
правінцыи
правінцыю
правінцыя
правінцыяи
правінцыямі
правінцыях
правінцыі
правіу
правіць
правіянту
прага
прагаласавала
прагаласавалі
прагаласавау
прагляд
праглядау
праглядзе
прагляду
прагноз
прагнозы
праграм
праграма
праграмаванне
праграмавання
праграмаи
праграмах
праграме
праграмнага
праграмнае
праграмных
праграму
праграмы
прагрэс
прагрэсу
прагрэсіу
прагу
прагі
прад
прада
прадавалі
прадаваліся
прадавау
прадаваць
прададзена
прададзены
прадалі
прадастау
прадау
прадаць
прадзюсар
прадзюсара
прадзюсарам
прадзюсары
прадм
прадмесце
прадмесця
прадмесці
прадмет
прадмета
прадметам
прадметамі
прадметау
прадмету
прадметы
прадмова
прадмове
прадмовы
прадоу
прадпрыемства
прадпрыемствам
прадпрыемствамі
прадпрыемствау
прадпрыемствах
прадпрыемстве
прадпрыемствы
прадпрымальнік
прадпрымальнікау
прадпрымальнікі
прадпрымальніцтва
прадставіла
прадставілі
прадставіу
прадставіць
прадстау
прадугледжана
прадугледжаны
прадугледжаных
прадугледжвае
прадугледжвала
прадугледжвалася
прадугледжвау
прадукт
прадуктам
прадуктамі
прадуктау
прадукту
прадукты
прадуктыу
прадукцыи
прадукцыю
прадукцыя
прадукцыі
прадухілення
прадухіліць
прадэманстравау
прадэш
прае
праезд
праезду
праект
праекта
праектаванне
праектавання
праектаванні
праектам
праектамі
праектау
праектах
праектна
праектных
праекту
праекты
праекце
праехау
пражскага
пражскаи
пражскі
пражывае
пражывала
пражывалі
пражыванне
пражывання
пражывау
пражываюць
пражыу
праз
празаік
празваны
празе
празрыстыя
праи
праказала
праказау
пракат
пракаце
пракладзена
пракладзены
пракле
пракляты
пракоп
пракоф
практ
практическои
практыка
практыкаванні
практыкаи
практыку
практыкі
практыцы
практычна
практычнага
практычнае
практычнаи
практычная
практычны
практычных
практычныя
пракуратура
пракуратуры
пракурор
пракурора
прале
пралетарыяту
пралягае
праляцеу
праліва
пралівам
праліве
пралівы
праліу
прама
прамавугольнага
прамавугольнае
прамавугольнаи
прамавугольная
прамавугольны
прамавугольным
прамавугольнымі
прамавугольных
прамавугольныя
прамавугольніка
прамалінеи
прамастои
прамау
прамая
прамежак
прамежку
праменні
прамень
прамова
прамоваи
прамове
прамову
прамовы
прамовіла
прамовіу
прамога
прамое
прамои
прамоу
прамую
прамы
прамым
прамымі
прамыслова
прамысловага
прамысловае
прамысловаи
прамысловасць
прамысловасці
прамысловасьць
прамысловасьці
прамысловая
прамысловы
прамысловым
прамысловых
прамысловыя
прамыслоу
прамых
прамыя
прамяне
прамяні
прановіч
пранікае
пранікненне
пранікнення
прапаведнік
прапаганда
прапагандзе
прапаганду
прапаганды
прападобнага
прападобнаи
прапала
прапалі
прапанавала
прапанавалі
прапанавана
прапанаваны
прапанаваныя
прапанавау
прапанаваць
прапанова
прапановаи
прапанове
прапанову
прапановы
прапаноу
прапануе
прапануецца
прапаную
прапануюць
прапарцыи
прапаршчык
прапау
прапои
прапорцыі
прапрацавау
прапусціу
прапусціць
прарасіи
прарвау
прарвацца
прарваць
прарок
прарока
прарокау
прарокі
прароцтва
прарыву
прарыу
прарэзаны
прарэктар
прасачыць
прасвятои
прасе
праславіу
праслау
праслухоу
прасоу
прасочваецца
праспект
праспекта
праспектам
праспекце
прастау
прастол
прастола
прастоле
прастор
прастора
прастораваи
прастораи
прасторах
прастору
прасторы
прасунуліся
прасцеи
прасценках
прасякнуты
прасіла
прасілі
прасіу
прасіць
пратакол
пратакола
пратаколау
пратаколы
прататып
прататыпам
пратокаи
пратокі
пратонау
пратэктарат
пратэст
пратэстантамі
пратэстантау
пратэстанты
пратэстанцкаи
пратэстанцкіх
пратэстанцкія
пратэстанцтва
пратэстау
пратэстоу
пратэсту
пратэстуючых
пратэсты
прау
праф
прафесар
прафесара
прафесарам
прафесарау
прафесары
прафесіи
прафесіяналау
прафесіі
прафсаюз
прафсаюза
прафсаюзау
прафсаюзы
прафілактыкі
прах
праход
праходжанне
праходжання
праходжанні
праходзяць
праходзячы
праходзіла
праходзілі
праходзіу
праходзіць
праходу
праходы
прац
праца
працавала
працавалі
працавау
працаваць
працаи
працамі
працау
працах
працаю
працоу
працу
працуе
працуюць
працуючы
працы
працэдура
працэдуру
працэдуры
працэнт
працэнтау
працэс
працэсам
працэсамі
працэсар
працэсара
працэсары
працэсау
працэсах
працэсе
працэсу
працэсы
працяг
працягам
працягвае
працягваецца
працягвала
працягвалася
працягвалі
працягваліся
працягвау
працягваць
працягваюцца
працягваюць
працягваючы
працяглага
працяглае
працяглаи
працягласць
працягласцю
працягласці
працяглая
працяглы
працяглым
працяглых
працяглыя
працягнула
працягнулася
працягнулі
працягнуліся
працягнуу
працягнуць
працягу
працяжнік
працякае
працякаюць
праціу
прачнуу
прачытау
прачытаць
прашу
прашэнне
праява
праявы
праявіу
праяу
праіндаеу
праіснавала
праіснавау
пред
представительных
президент
президента
президиума
премии
премьер
преобразовании
пресс
при
применение
природа
природы
присвоении
про
пробашч
пробашчам
проблема
проблемы
проверено
провинция
программе
продаж
продажау
продажу
продажы
продак
продка
продкам
продкамі
продкау
продкі
продлил
продлили
проект
проза
прозвішча
прозвішчам
прозвішчау
прозвішчы
прозе
прозу
прозы
прои
производства
промысел
промыслу
промыслы
пропаведзь
пропаведзі
пропуску
проса
просвещение
просвещения
прост
проста
простага
простае
простаи
простая
простую
просты
простым
простымі
простых
простыя
просьба
просьбаи
просьбе
просьбу
просьбы
просяць
просіць
протаіерэи
против
протчым
проф
профессора
профіль
профілю
проц
процант
проці
процівагу
процілеглы
процілеглым
проціпастау
проціу
прудкоу
прудок
пружанскага
пружанскі
пружанскім
пружаны
прусау
прускага
прускаи
пруская
прускі
прусію
прусія
прусіяи
прусіі
пры
прыбалтыи
прыбалтыкі
прыбалтыцы
прыблізна
прыбор
прыборау
прыборы
прыбрау
прыбраць
прыбудавана
прыбудаваны
прыбудова
прыбывае
прыбыла
прыбылі
прыбытак
прыбыткау
прыбытку
прыбыткі
прыбыу
прыбыцце
прыбыцця
прыбыцці
прыбярэжнаи
прыбярэжная
прыбярэжных
прыбярэжныя
прывад
прывадам
прыватнага
прыватнае
прыватнаи
прыватнасці
прыватнау
прыватная
прыватную
прыватны
прыватным
прыватнымі
прыватных
прыватныя
прыве
прыведзена
прыведзены
прыведзеныя
прывезены
прывезлі
прывесці
прыводзяцца
прыводзяць
прыводзіла
прыводзілі
прыводзіу
прыводзіцца
прыводзіць
прывык
прывыклі
прывядзе
прывязаны
прывяла
прывяло
прывялі
прывід
прывілеем
прывілеи
прывілеяу
прывілеі
прывітанне
прывітау
прыгавор
прыгавораны
прыгажосць
прыгажосцю
прыгажосці
прыгажуня
прыгажэи
прыгарад
прыгарадзе
прыгарадных
прыгатавання
прыглядау
прыгне
прыгод
прыгоды
прыгожа
прыгожага
прыгожае
прыгожаи
прыгожана
прыгожаны
прыгожая
прыгожвалі
прыгожванні
прыгожую
прыгожы
прыгожым
прыгожымі
прыгожых
прыгожыя
прыгон
прыгоннага
прыгонных
прыгону
прыдатны
прыдатных
прыдатныя
прыдворнага
прыдворнаи
прыдворны
прыдворным
прыдворных
прыдворныя
прыдзе
прыдзецца
прыдняпроу
прыднястроу
прыдумау
прыдумаць
прые
прыедзе
прыезд
прыезду
прыемна
прыемны
прыемным
прыехала
прыехалі
прыехау
прыехаць
прыжыцце
прыз
прызавы
прызавых
прызавыя
прызваны
прызе
прызнавала
прызнавалі
прызнавау
прызнаваць
прызнае
прызнаецца
прызнала
прызналі
прызнана
прызнаная
прызнанне
прызнання
прызнанні
прызнаны
прызнаных
прызнаныя
прызнау
прызнацца
прызнаць
прызначае
прызначаецца
прызначалася
прызначаліся
прызначана
прызначанага
прызначаная
прызначаны
прызначаных
прызначаныя
прызначау
прызначаць
прызначаюцца
прызначыла
прызначылі
прызначыу
прызначыць
прызначэнне
прызначэннем
прызначэння
прызначэнні
прызнаюць
прызы
прызыву
прызыу
прыи
прыказка
прыкаране
прыклад
прыкладам
прыкладамі
прыкладау
прыкладзе
прыкладна
прыкладная
прыкладнога
прыкладное
прыкладнои
прыкладных
прыкладу
прыклады
прыкмет
прыкмета
прыкметаи
прыкметамі
прыкметах
прыкметна
прыкметны
прыкметныя
прыкметы
прыкмеце
прыкра
прыкрыцце
прыкрыцця
прылад
прылада
прыладаи
прыладамі
прыладу
прылады
прыле
прылеглаи
прылеглых
прылеглыя
прылягае
прылівы
прыліу
прылічаны
прымае
прымаецца
прымала
прымалі
прымаліся
прымау
прымацаваны
прымацоу
прымаць
прымаюцца
прымаюць
прымаючы
прыме
прымеркаваны
прыметнік
прыметнікау
прыметнікі
прыморскі
прымусова
прымусіла
прымусілі
прымусіу
прымусіць
прымушае
прымушала
прымушалі
прымушаны
прымыкае
прымыкаюць
прымяненне
прымянення
прымяняецца
прымяняцца
прымяняюцца
прымірэння
прымітыу
прыназоу
прыналежнасць
прыналежнасці
прыналежыць
прынамсі
прыне
прынесла
прынеслі
прынесці
прыносяць
прыносілі
прыносіць
прынц
прынца
прынцам
прынцып
прынцыпам
прынцыпамі
прынцыпау
прынцыпах
прынцыпе
прынцыпова
прынцыпу
прынцыпы
прынцэса
прынцэсаи
прынцэсы
прыняла
прыняло
прынялі
прынясе
прынята
прынятага
прынятае
прынятаи
прынятая
прыняты
прынятым
прынятых
прынятыя
прыняу
прыняцце
прыняццем
прыняцця
прыняцці
прыняць
прыпадае
прыпау
прыпеу
прыпынак
прыпыначны
прыпыначным
прыпынку
прыпыніу
прыпыніць
прыпяцкага
прыпяць
прыпяці
прыпісваецца
прыпісваюць
прырау
прырода
прыродаахоу
прыродазнау
прыродаи
прыродзе
прыродна
прыроднага
прыроднаи
прыродны
прыродным
прыродных
прыродныя
прыроду
прыроды
прырост
прысваенні
прысвечана
прысвечанага
прысвечанаи
прысвечаная
прысвечаную
прысвечаны
прысвечаным
прысвечаных
прысвечаныя
прысвоена
прысвоены
прысвои
прысвоіу
прысвяціу
прысеу
прыслау
прыслоу
прыслухоу
прыставак
прыстань
прыстані
прыстасаванне
прыстасаваны
прыстасоу
прыстау
прыстои
прыступкі
прыступу
прыступіла
прыступілі
прыступіу
прыступіць
прысуд
прысуджаецца
прысуджана
прысуджаны
прысудзілі
прысудзіу
прысуду
прысутнасць
прысутнасці
прысутных
прысутнічае
прысутнічала
прысутнічалі
прысутнічау
прысутнічаць
прысутнічаюць
прысягу
прысягі
прытвор
прыток
прытокам
прытокамі
прытокау
прытоку
прытокі
прытомнасць
прытрымліваецца
прытрымліваліся
прытрымлівау
прытрымлівацца
прытрымліваюцца
прытулак
прытулку
прытуліу
прытчы
прытым
прыу
прыхаджан
прыход
прыхода
прыходам
прыходау
прыходзе
прыходзяць
прыходзіла
прыходзілася
прыходзілі
прыходзіу
прыходзіцца
прыходзіць
прыходская
прыходу
прыходы
прыхільнасць
прыхільнасці
прыхільнік
прыхільнікам
прыхільнікамі
прыхільнікау
прыхільнікі
прыцягвае
прыцягвау
прыцягвацца
прыцягваюць
прыцягненне
прыцягнення
прыцягнула
прыцягнулі
прыцягнуты
прыцягнуу
прыцягнуць
прычарнамор
прычым
прычын
прычына
прычынаи
прычынамі
прычынах
прычыне
прычыну
прычыны
прышла
прышлося
прышлі
прышоу
прыязджае
прыязджалі
прыязджау
прыярытэт
прыяцель
прыяцеля
прыяцеляу
прыяцелі
прэ
прэзентацыя
прэзентацыі
прэзідыум
прэзідыума
прэзідэнт
прэзідэнта
прэзідэнтам
прэзідэнтау
прэзідэнту
прэзідэнты
прэзідэнце
прэзідэнцкаи
прэзідэнцкі
прэзідэнцкіх
прэзідэнцкія
прэзідэнцтва
прэм
прэміи
прэмію
прэмія
прэміяи
прэміі
прэпаратау
прэпараты
прэс
прэса
прэсе
прэснаи
прэсных
прэстыжных
прэсы
прэтэндавау
прэтэндаваць
прэтэндуе
прэтэндэнтау
прэтэнзіи
прэтэнзіі
прэфект
прэфектура
прэфектуры
прэч
пс
псалмы
псалом
псалтыр
псальм
псальмау
псеу
пскова
пскоу
псы
псыхоле
псіха
псіхалагічнаи
псіхалагічны
псіхалагічных
псіхалагічныя
псіхалогія
псіхалогіі
псіхолаг
пталамея
птау
птушак
птушка
птушкамі
птушку
птушкі
пу
пуанкарэ
пуацье
публіка
публікаваліся
публікавау
публікацыи
публікацыю
публікацыя
публікацыях
публікацыі
публікуе
публікі
публіцы
публіцыст
публіцысты
публіцыстыка
публіцыстычных
публічна
публічнага
публічнае
публічнаи
публічная
публічны
публічных
публічныя
пугачова
пугачоу
пуд
пудоу
пузыны
пункт
пункта
пунктам
пунктамі
пунктау
пунктах
пунктов
пункту
пункты
пункце
пуні
пупкін
пупышкі
пуслоу
пуста
пустазелле
пустамыціу
пустая
пустое
пустои
пусты
пустым
пустыню
пустыня
пустынях
пустыні
пустых
пустыя
пусцілі
пусціу
пусціць
пути
путы
путыу
путь
пух
пухавіцкага
пухавіцкі
пухавіцкім
пухавічы
пухліны
пуховичского
пуце
пуці
пуцін
пуціна
пушачнага
пушкін
пушкіна
пушча
пушчу
пушчы
пуэбла
пуэрта
пфальц
пцыг
пцыгу
пціч
пчалярства
пчол
пчолы
пшаніца
пшаніцу
пшаніцы
пы
пыл
пылу
пытае
пытаецца
пытанне
пытаннем
пытання
пытанням
пытаннямі
пытанняу
пытаннях
пытанні
пытаньне
пытаньня
пытаньняу
пытаньні
пытау
пыха
пэи
пэн
пэры
пэрыод
пэрыяд
пэу
пяе
пяле
пялевіна
пяра
пярну
пяро
пярои
пяром
пярсце
пярун
пяршаи
пярэднюю
пярэдняга
пярэдняи
пярэдняя
пярэдні
пярэднім
пярэдніх
пярэднія
пярэчыць
пяском
пяскоу
пяску
пяскі
пясок
пясчана
пясчанае
пясчаных
пясчаныя
пясьняр
пятага
пятае
пятаи
пятая
пятнаццаць
пятнаццаці
пятніцкая
пятніцу
пятра
пятро
пятрова
пятровіч
пятровіча
пятровічы
пятром
пятроу
пятру
пятрусь
пятую
пяты
пятым
пять
пяхота
пяхотнага
пяхотнаи
пяхотная
пяхотны
пяхотных
пяхотныя
пяхоты
пяце
пяццю
пяць
пяцьдзесят
пяцьдзясят
пяцьсот
пяці
пяцігадовы
пяцідзесяці
пячатка
пячатку
пячаткі
пячаць
пячор
пячора
пячорах
пячору
пячоры
пяюць
пі
піва
піза
піи
пік
піка
пікаса
піку
пілот
пілота
пілотам
пілотау
пілоты
пілсудскага
пілсудскі
пільна
пілястрамі
пілястры
пілі
піліп
піліпа
піліпавіч
пінск
пінска
пінскага
пінскаи
пінская
пінску
пінскі
пінскім
піпчын
піпін
пірагоу
пірамід
піраміда
піраміды
піратау
піраты
пірог
піры
пірэнеи
пірэнеі
пісала
пісалася
пісалі
пісаліся
пісання
пісаны
пісар
пісара
пісарам
пісары
пісау
пісаць
пісталет
пісталета
пісталеты
пісьма
пісьме
пісьменнасць
пісьменнасці
пісьменнік
пісьменніка
пісьменнікам
пісьменнікамі
пісьменнікау
пісьменніку
пісьменнікі
пісьменніца
пісьменніцы
пісьменства
пісьменьнік
пісьменьніка
пісьменьнікау
пісьмо
пісьмоваи
пісьмовасць
пісьмовая
пісьмовы
пісьмовых
пісьмовыя
пісьмом
пісьмы
піт
пітнои
пітэр
пітэра
піу
піцеи
піць
піша
пішацца
пішу
пішуцца
пішуць
пішы
пія
піянер
піянерау
піяніст
р
ра
раам
раб
раба
рабамі
рабау
рабачанне
рабачання
рабачанні
рабкор
раблю
работ
работа
работаи
работамі
работах
работнік
работнікау
работнікі
работу
работы
рабоу
рабоце
рабоча
рабочага
рабочаи
рабочая
рабочую
рабочы
рабочым
рабочымі
рабочых
рабочыя
рабства
рабы
рабі
рабіла
рабілася
рабілі
рабіліся
рабіна
рабіны
рабіу
рабіць
рава
раваны
равы
равіч
рагамі
рагатаи
рагачоу
рагнеда
рагоу
рагу
рад
рада
радаваи
радавая
радавога
радавод
радавы
радавым
радавымі
радавых
радавыя
радаи
радам
радамі
радасна
радасць
радасцю
радасці
радасьць
радасьці
радау
радах
раджаи
раджаю
раджэнцы
радзаеу
радзе
радзеи
радзівіл
радзівіла
радзівілам
радзівілау
радзівілы
радзіма
радзімаи
радзіме
радзіму
радзімы
радзіу
ради
радио
радка
радкоу
радку
радкі
радлівасці
радовішча
радовішчау
радовішчы
радок
радоу
раду
радуи
рады
радые
радыеактыу
радыкальна
радыкальнаи
радыкальных
радыкальныя
радыус
радыуса
радыятара
радыяцыи
радыяцыі
рае
раеу
ражанне
ражанні
ражаньне
раз
разабралі
разабрана
разабраны
разабрацца
разабраць
разам
разанскаи
разараныя
разарваны
разарвау
разбои
разбору
разбурана
разбураны
разбураныя
разбурылі
разбурыу
разбурыць
разбурэнне
разбурэння
разбурэнні
разбіла
разбілі
разбіта
разбіты
разбітыя
разбіу
разбіць
развагі
разважанняу
разважанні
разважау
разважаць
разве
разведка
разведку
разведкі
разведчык
разведчыкі
развитие
развития
развод
разводу
развівае
развіваецца
развівалася
развіваліся
развівау
развівацца
развіваць
развіваюцца
развілася
развіта
развітаи
развітанне
развітау
развітацца
развітая
развіты
развітым
развітых
развітыя
развіу
развіцце
развіццю
развіцця
развіцці
разгар
разгарнулася
разгарнулі
разгарнуу
разгледзеу
разгледзець
разгляд
разглядае
разглядаецца
разглядала
разглядалася
разглядалі
разглядаліся
разглядау
разглядацца
разглядаць
разглядаюцца
разглядаюць
разглядаючы
разглядзе
разгляду
разгон
разгону
разгортваецца
разграмілі
разграміу
разгром
разгромлена
разгромлены
разгрому
раздел
раздзел
раздзела
раздзелау
раздзелах
раздзеле
раздзелу
раздзелы
разе
разлад
разлік
разлікау
разліку
разлікі
разлічана
разлічаны
разлічвау
разлічваць
разм
размале
размау
размах
размаху
размежавання
размер
размеркаванне
размеркавання
размеркаванні
размеркаваны
размешчана
размешчанага
размешчанае
размешчанаи
размешчаная
размешчаны
размешчаным
размешчанымі
размешчаных
размешчаныя
размнажаецца
размнажэнне
размнажэння
размова
размову
размовы
размоу
размяркоу
размясцілася
размясцілі
размясціліся
размясціу
размясціць
размяшчаецца
размяшчалася
размяшчаліся
размяшчау
размяшчаюцца
размяшчэнне
размяшчэннем
размяшчэння
размяшчэнні
разнавіднасць
разнавіднасці
разнастаи
разня
разні
разовы
разоу
разрабавалі
разрабаваны
разрад
разрадзе
разраду
разрезе
разрыву
разрыу
разу
разумее
разумееце
разумеецца
разумееш
разумелі
разуменне
разумення
разуменні
разумеу
разумець
разумею
разумеюць
разумеючы
разумнага
разумны
разумных
разумныя
разы
разыи
разыходзяцца
разыходзіліся
разыходзіцца
разышліся
разьба
разьбои
разьбы
разьвіцьце
разьвіцьця
разьвіцьці
разьдзе
разьдзел
разіи
разія
разіі
раи
рак
рака
ракавін
ракавіны
ракако
ракасоу
ракау
ракацы
ракет
ракета
ракетамі
ракетна
ракетнага
ракетны
ракетных
ракетныя
ракеты
ракои
раку
ракі
рам
рама
рамаи
раман
рамана
раманава
раманавых
раманавіч
раманам
раманау
раманах
рамане
раманоу
рамантызм
рамантызму
рамантычнаи
рамантычныя
раману
раманы
раме
рамеснікау
рамеснікі
рамках
рамкі
рамонт
рамонтна
рамонту
рамонце
рамуальд
рамы
рамяства
рамяство
рамі
ран
рана
ранг
рангах
рангу
ранеи
раненне
раненні
ранены
ранняга
ранняе
ранняи
ранняя
ранні
раннім
ранніх
раннія
рану
раны
раніца
раніцаи
раніцою
раніцу
раніцы
рапарламента
рапеи
раптам
раптоу
рас
раса
расаваи
расаюза
расеи
расея
расеяи
расеі
раскажу
расказала
расказау
расказаць
расказвае
расказвау
расказваць
расказваюць
расклад
раскол
расколу
раскопак
раскопках
раскопкі
раскошы
раскрывае
раскрываецца
раскрыта
раскрытыкавау
раскрыу
раскрыць
раскіданыя
расла
расло
раслі
раслін
расліна
раслінаводства
раслінамі
раслінах
расліннага
расліннасць
расліннасцю
расліннасці
раслінны
раслінным
раслінных
раслінныя
расліну
расліны
расонскага
расонскім
расоны
распаве
распавядае
распавядаецца
распад
распадаецца
распадам
распаду
распалася
распаліся
распараджэнне
распараджэннем
распараджэнняу
распараджэнні
распарадзіу
распасціраецца
распау
распачала
распачалася
распачалі
распачата
распачаты
распачау
распачаць
расправы
распрау
распрацавала
распрацавалі
распрацавана
распрацаванаи
распрацаваная
распрацаваны
распрацаваныя
распрацавау
распрацаваць
распрацовак
распрацоу
распусціу
распушчаны
рассеи
рассеянае
рассеяныя
рассказы
расследаванне
расследавання
расследаванні
расстау
расстралялі
расстраляны
расстраляныя
расстрои
расстрэл
расстрэлу
рассяленне
рассялення
раства
раствараецца
растворау
растворы
растении
растения
растлумачыу
растлумачыць
растова
растове
растоу
растуць
расход
расце
расці
расціслау
расчляне
расшыфроу
расы
расьце
расіи
расію
расія
расіяи
расіі
рат
ратаваць
ратуе
ратуи
ратунку
ратуша
ратушы
ратуючыся
рау
рауль
рафаэль
рафаэля
рах
рахман
рахунак
рахунку
рацые
рацыи
рацыю
рацыя
рацыянальнага
рацыянальных
рацыі
рацэ
рач
рача
рачкоу
рачная
рачнога
рачнои
рачны
рачных
рачныя
рачоу
рачы
рачыста
рачыстае
рашотка
рашоткі
рашуча
рашучасць
рашучы
рашыу
рашэнне
рашэннем
рашэнню
рашэння
рашэнняу
рашэнні
раю
раюк
раян
раяна
раі
раіса
раіу
рб
рбк
рвецца
рд
рда
рдага
рдае
рдаи
рдасць
рдая
рдултоу
рды
рдым
рдых
рдыя
революции
революция
регионы
ред
редактор
[...]
