!
"
#
##0
##1
##10
##11
##12
##13
##14
##15
##16
##17
##18
##19
##2
##20
##21
##22
##23
##24
##25
##26
##27
##28
##29
##3
##30
##31
##32
##33
##34
##35
##36
##37
##38
##39
##4
##40
##41
##42
##43
##44
##45
##46
##47
##48
##49
##5
##50
##51
##52
##53
##54
##55
##56
##57
##58
##59
##6
##60
##61
##62
##63
##64
##65
##66
##67
##68
##69
##7
##70
##71
##72
##73
##74
##75
##76
##77
##78
##79
##8
##80
##81
##82
##83
##84
##85
##86
##87
##88
##89
##9
##90
##91
##92
##93
##94
##95
##96
##97
##98
##99
$
%
&
'
(
)
*
+
,
-
.
/
0
00
000
0000
000000
001
002
003
004
005
006
007
008
01
010
011
013
015
02
027
03
030
035
04
042
045
046
05
051
053
054
06
064
07
070
071
08
080
089
09
092
093
097
099
1
10
100
1000
1005
101
1010
102
1020
103
104
105
1050
106
1066
107
108
1080
109
11
110
1100
111
1118
112
1125
113
1134
1139
114
115
116
1160
117
118
119
1191
1196
1198
12
120
1200
1204
121
1214
1218
122
1226
123
124
125
1250
1254
126
1261
1265
127
1271
1279
128
1280
1284
129
1291
13
130
1300
1305
131
1312
132
1324
1326
133
134
1341
135
1350
136
1360
136472
1368
137
138
1380
1381
1389
139
1390
1394
1396
1397
14
140
1400
1402
141
1412
1416
1417
1418
142
1423
143
1430
1431
1436
144
1449
145
1450
1451
1453
1456
1457
1458
146
1460
1461
1466
1469
147
1470
1471
1472
1473
1474
1475
1476
1477
1478
1479
148
1480
1481
1483
1485
1486
1488
149
1491
1492
1493
1494
1497
1498
15
150
1500
1501
1502
1503
1505
1506
1507
1508
1509
151
1510
1511
1512
1513
1515
1516
1517
1519
152
1520
1521
1522
1523
1524
1525
1527
1529
153
1532
1533
1534
1535
1536
1537
1538
1539
154
1540
1541
1543
1545
1547
1548
155
1550
1551
1552
1553
1554
1555
1556
1557
1558
1559
156
1560
1561
1564
1565
1566
1567
1568
1569
157
1570
1571
1572
1573
1574
1575
1576
1577
1578
1579
158
1580
1582
1583
1585
1586
1587
1588
159
1590
1591
1592
1593
1594
1595
1596
1597
1598
1599
16
160
1600
1602
1603
1604
1605
1606
1607
1608
1609
161
1610
1611
1612
1613
1614
1615
1616
1617
1619
162
1620
1621
1622
1623
1624
1625
1626
1627
1628
1629
163
1630
1631
1632
1633
1634
1635
1636
1637
1638
1639
164
1640
1641
1642
1643
1644
1645
1646
1648
1649
165
1650
1651
1653
1654
1655
1656
1657
1658
1659
166
1660
1661
1662
1663
1664
1665
1666
1667
1669
167
1670
1671
1672
1673
1674
1675
1676
1677
1678
1679
168
1680
1681
1682
1683
1684
1685
1686
1687
1688
1689
169
1690
1691
1692
1693
1694
1695
1696
1697
1698
1699
17
170
1700
1701
1702
1703
1704
1705
1706
1707
1708
171
1710
1711
1712
1713
1714
1715
1716
1717
1718
1719
172
1720
1721
1722
1723
1724
1725
1726
1727
1728
1729
173
1730
1731
1732
1733
1734
1735
1736
1737
1738
1739
174
1740
1741
1742
1743
1744
1745
1746
1747
1748
1749
175
1750
1751
1752
1753
1754
1755
1756
1757
1758
1759
176
1760
1761
1762
1763
1764
1765
1766
1767
1768
1769
177
1770
1771
1772
1773
1774
1775
1776
1777
1778
1779
178
1780
1781
1782
1783
1784
1785
1786
1787
1788
1789
179
1790
1791
1792
1793
1794
1795
1796
1797
1798
1799
18
180
1800
1801
1802
1803
1804
1805
1806
1807
1808
1809
181
1810
1811
1812
1813
1814
1815
1816
1817
1818
1819
182
1820
1821
1822
1823
1824
1825
1826
1827
1828
1829
183
1830
1831
1832
1833
1834
1835
1836
1837
1838
1839
184
1840
1841
1842
1843
1844
1845
1846
1847
1848
1849
185
1850
1851
1852
1853
1854
1855
1856
1857
1858
1859
186
1860
1861
1862
1863
1864
1865
1866
1867
1868
1869
187
1870
1871
1872
1873
1874
1875
1876
1877
1878
1879
188
1880
1881
1882
1883
1884
1885
1886
1887
1888
1889
189
1890
1891
1892
1893
1894
1895
1896
1897
1898
1899
19
190
1900
1901
1902
1903
1904
1905
1906
1907
1908
1909
191
1910
1911
1912
1913
1914
1915
1916
1917
1918
1919
192
1920
1921
1922
1923
1924
1925
1926
1927
1928
1929
193
1930
1931
1932
1933
1934
1935
1936
1937
1938
1939
194
1940
1941
1942
1943
1944
1945
1946
1947
1948
1949
195
1950
1951
1952
1953
1954
1955
1956
1957
1958
1959
196
1960
1961
1962
1963
1964
1965
1966
1967
1968
1969
197
1970
1971
1972
1973
1974
1975
1976
1977
1978
1979
198
1980
1981
1982
1983
1984
1985
1986
1987
1988
1989
199
1990
1991
1992
1993
1994
1995
1996
1997
1998
1999
2
20
200
2000
2001
2002
2003
2004
2005
2006
2007
2008
2009
201
2010
2011
2012
2013
2014
2015
2016
2017
2018
2019
202
2020
2021
2022
2023
203
2030
204
205
206
207
208
209
2096
2099
21
210
211
212
213
214
215
216
217
218
219
22
220
221
222
223
224
225
226
227
228
229
23
230
231
232
233
234
235
236
237
238
239
24
240
241
242
243
244
245
246
247
248
249
25
250
2500
251
252
253
254
255
256
257
258
259
26
260
261
262
263
264
265
266
267
268
269
27
270
271
272
273
274
275
276
277
278
279
28
280
2800
281
282
283
284
285
286
287
288
289
29
290
291
292
293
294
295
296
297
298
299
3
30
300
3000
301
302
303
304
305
306
307
308
309
31
310
311
312
313
314
315
316
317
318
32
320
321
322
323
324
325
326
327
328
329
33
330
3300
331
332
333
334
335
336
337
338
339
34
340
341
342
343
344
345
346
347
348
349
35
350
351
352
353
354
355
356
357
358
359
36
360
361
362
363
364
365
366
367
368
369
37
370
371
373
374
375
376
379
38
380
383
384
385
387
388
389
39
390
392
394
395
396
397
399
4
40
400
4000
402
403
404
405
406
407
408
409
41
410
411
412
413
415
418
419
42
423
425
426
427
428
43
430
431
434
435
436
437
439
44
440
441
442
444
445
448
449
45
450
451
452
453
454
455
456
457
458
459
46
460
461
463
464
468
469
47
470
471
472
475
476
479
48
480
482
483
485
486
487
488
489
49
490
493
494
496
498
5
50
500
5000
501
504
505
506
507
51
510
511
512
513
514
516
517
52
520
525
526
527
53
531
532
535
536
537
538
539
54
540
541
545
546
547
548
55
550
551
553
554
555
556
56
560
561
562
563
566
568
569
57
570
571
572
573
574
576
577
58
580
581
582
583
584
585
588
59
592
593
594
596
597
6
60
600
6000
601
603
606
607
61
610
612
614
615
617
62
620
621
622
623
625
627
63
632
633
639
64
640
641
643
644
645
647
649
65
650
651
652
655
66
660
663
666
667
668
67
673
677
68
680
681
683
684
685
686
689
69
691
692
697
698
7
70
700
701
702
706
707
709
71
711
712
714
716
717
719
72
720
724
726
727
7271
729
73
730
732
734
735
736
738
739
74
740
741
742
743
746
747
748
749
75
750
753
754
756
757
76
760
763
765
767
768
77
770
774
776
777
778
78
780
788
789
79
792
793
794
797
799
8
80
800
801
802
803
804
805
806
808
81
810
811
813
814
815
816
817
818
819
82
821
822
823
826
827
828
829
83
830
831
833
835
836
837
84
842
843
847
848
849
85
850
851
853
854
858
859
86
8601
861
862
863
865
87
870
872
874
875
876
877
878
88
883
884
885
887
89
9
90
900
903
907
91
910
912
916
92
920
921
924
927
928
929
93
937
939
94
943
945
946
95
950
952
953
954
955
96
960
962
963
965
968
97
970
971
973
974
976
978
9780642568618
979
98
980
983
988
99
996
997
99925
9999
:
;
<
=
>
?
@
\
^
_
`
a
aa
aaa
aaron
ab
aba
abad
abajo
abandoned
abbreviata
abc
abd
abdel
abdo
abdoangusta
abdoaurantiaca
abdofuscata
abdolonginqua
abdomininigra
abdonigella
abdopallescens
abdullah
abe
abel
abelardo
abente
aberrans
abjasia
able
ablepharus
abnormis
abogada
abogado
abolicionista
about
above
abovecell
abovestyle
abraham
abramo
abreu
abreviatura
abril
abs
absceso
abscondita
absidata
absoluta
absolute
absona
abu
abue
abuela
abundans
ac
aca
acade
academia
academic
academy
acahay
acapulco
acaray
accede
accept
acceptable
accepted
acceptedqualifs
acceptedvals
acceso
accesorios
access
accessdate
accessed
accesskey
accessyear
accidente
accidentes
accio
acciones
accipitridae
accordance
according
account
accra
ace
aceite
acento
aceraglans
acerca
acero
aceroglans
aceromata
aceros
aceval
acevedo
acfu
ache
achegety
achegetyme
aco
acosta
acta
action
activa
active
actividad
actividades
activista
acto
actor
actores
actriz
actuacio
actual
actualidad
acueducto
acuerdo
acui
aculeus
acun
acunday
acupuntura
ad
ada
adam
adams
adaptacio
add
addcat
addclass
added
addison
additional
addlinkback
addmaintenancecat
addnamed
addnewline
addpositional
address
addresses
adds
addsection
addstandardqualifs
addtablerow
addtrackingcat
ade
adeg
adela
adelante
adema
adenovirus
adidas
adio
adir
adj
adjetivo
adler
administracio
administrativa
administrativo
administrator
administrators
admir
adn
ado
adobe
adolf
adolfo
ador
adora
adoro
adria
adrian
adriana
adriano
adrien
adu
aduana
aduanero
adusta
adverbial
adverbio
advertencia
ae
aedes
aekue
aemula
aenigmatica
aerial
aeroginosa
aeroli
aerona
aeropuerto
aerosol
aethriobasis
af
affinidorsalis
affinis
afganista
afi
aficionados
afluente
afonso
africa
african
africano
afrika
afrikagua
afrikape
after
ag
aga
agagua
agaguaite
agaguapuku
agaguasoso
again
against
agaipi
agaite
age
agencia
agency
agenda
agente
aggregate
agnes
agnostic
ago
agosto
agraria
agregar
agreste
agri
agricolas
agricultura
agro
agropecuaria
agropecuarias
agropecuarios
agrupacio
agrupar
agrupartabla
agu
agua
aguahe
aguai
aguakue
aguape
aguapy
aguapyguigua
aguapyra
aguara
aguaray
aguas
aguascalientes
aguasu
aguasugua
aguata
aguayo
aguda
agudo
ague
aguenohe
aguereko
agueru
agui
aguiar
aguije
aguila
aguilar
aguilera
aguirre
aguiye
agulhas
agusti
aguy
aguygua
aguyje
aguyjetaite
aguyjevete
aguykue
aguype
aguypegua
ah
aha
ahague
ahai
ahasa
ahase
ahati
ahayhu
ahayhuete
ahe
ahecha
ahechama
ahechase
aheja
aheka
ahendu
aheno
ahesa
aheta
ahetaite
ahetu
ahi
ahmad
ahmed
ahn
aho
ahoja
ahojajegua
ahora
ahy
ahyganita
ai
aigua
aigui
aike
aiko
aikoteve
aiku
aikuaa
aikuaase
aikuave
aimara
aimaran
aime
aimeha
aimete
aimo
ain
aipo
aipohano
aiporavo
aipota
aipotyvo
aipytyvo
air
airdate
aire
aires
airlines
airport
aita
aite
aitemi
aiterei
aithogaster
aitor
aja
ajaja
ajaka
ajapo
ajapokuaa
ajapova
aje
ajedrecista
ajegua
ajenas
ajepy
ajere
ajerovia
ajerure
ajesareko
ajey
ajo
ajogua
ajoja
ajore
aju
ajuhu
ajuntament
ajupi
ajutyro
aka
akaha
akaite
akaju
akakue
akanina
akanundu
akapa
akara
akarai
akarapu
akaray
akatu
akatua
akave
akbar
ake
akeme
aki
akira
ako
akra
aku
akua
akuaa
akuaatyha
akue
akunday
akupe
akuruchi
akuti
aky
akyra
akyry
akyta
al
ala
alabado
alagoas
alain
alameda
alampeta
alan
alarco
alas
alaska
alat
alava
alba
albacete
albane
albania
albatros
alberdi
alberoni
albert
alberta
alberti
alberto
albi
albino
albistrigata
alborada
alborno
album
albuquerque
alca
alcala
alcalde
alcaraz
alcibiades
alcohol
alda
aldama
aldana
aldea
aldo
ale
alegre
alegri
aleha
alejandra
alejandri
alejandro
alejo
aleksandar
aleksandr
alekse
alema
aleman
alemana
alemanes
alemania
alepo
alergia
alerta
alessandro
aleu
alex
alexander
alexandr
alexandra
alexandre
alexis
alf
alfabetizacio
alfabeto
alfalfa
alfareri
alfe
alfiler
alfonsi
alfonsina
alfonso
alfred
alfredo
algarrobo
algarves
algo
algu
alguna
algunas
alguno
algunos
ali
aliada
aliado
alianza
alias
aliases
aliaseslist
alicante
alice
alicia
alien
alighieri
align
alimenticias
alimentos
alinea
alineacio
alineacion
alkimi
alkoo
all
alla
allan
alldone
alleborgobot
allemagne
allen
allende
alli
allman
allnames
allow
allowed
allows
allwoodi
alma
almada
almanaque
almas
almeida
almirante
almiro
almohade
almora
alo
alois
along
alonso
alpaca
alpes
alpha
alphabet
alphonse
alpinismo
alpinista
alquimista
already
alrededor
als
alsina
also
alt
alta
altamirano
altar
alternativa
alternativo
altiplano
alto
altobelli
altos
altstr
altura
alumi
aluminio
alva
alvar
alvarado
alvarenga
alvarez
alves
alvorada
always
alyxiae
alzheimer
am
ama
amada
amadeo
amadeus
amado
amador
amagasaki
amaguasu
amalia
amamba
amambai
amambay
amambaygua
aman
amancio
amanda
amandaje
amandajerape
amandu
amanecer
amangy
amano
amante
amapa
amapora
amar
amaral
amarambalensis
amarelo
amarilla
amarillo
amaro
amaru
amaso
amazo
amazon
amazonas
amazoni
amazonia
amba
amberes
ambiental
ambiente
ambigua
ambiguus
ambija
ambo
amboguapy
ambohasa
ambohe
amboherakuaa
ambohova
ambohyapu
ambohyapuva
ambohysy
amboja
ambojehe
ambojo
ambojoaju
ambojoajuva
ambojoapy
ambojoapykuaa
ambojoavyse
ambojoja
ambojy
ambopyahu
ambox
amboysy
ambu
ambue
ambuegua
ambueha
ambueichagua
ambuekue
ambuepa
ambuepaite
ambueva
ambueve
amburuvicha
amby
ambyasy
ambyaty
amc
ame
amelia
ameri
america
american
americana
americano
americanos
amerika
amerikagua
ami
amigo
amigos
amindu
amira
amiri
amistad
amizade
amnisti
amnue
amo
amoambue
amoan
amoenus
amoha
amohen
amohenda
amohendakuaa
amohesaka
amohu
amoi
amoite
amoko
amomba
amombarete
amombe
amombyte
amomora
amon
amondoho
amondy
among
amongakuaa
amongeta
amongu
amonia
amopa
amopoti
amor
amores
amoros
amoroso
amortiguacio
amos
amosusu
amotenondeve
amount
amove
amp
amparar
ampe
ampelio
ampersand
ampla
amplexa
amplexiseta
amsterdam
amu
amunda
amundsen
amy
amyasa
amyesaka
amyry
an
ana
anadirfila
anagrama
anai
anales
analge
anali
anamandaje
anambe
anambusu
anamimi
anana
anandy
anangue
anarquista
anary
anastasio
anato
anatoliy
anatomi
anatomia
anatomista
anchitrichota
ancho
anchoimagen
anchor
anchura
ancient
and
anda
andai
andaluci
andalusi
andamanensis
ande
andegueraha
andehegui
andeja
andere
anderehe
andereja
anderekoha
anders
andersen
anderson
andersson
anderu
andes
andeve
ando
andoni
andorra
andrade
andre
andrea
andreas
andrei
andrej
andreu
andrew
andriy
andro
andrzej
andu
anduha
andujey
anduka
andukuaa
andupora
andureko
andurire
anduti
andutiguasu
andy
andyry
ane
anemandu
anemba
anembo
anembopuka
anembopy
anemomandu
anemon
anemonguaru
anemopiri
anendive
anepytuhe
anepytyvo
anerekombo
aneren
anereta
aneuvittata
anexo
anfibio
anfracta
ang
anga
angaha
angahai
angaipa
angaipahague
angaite
angakue
angambyre
angambyry
angambyrygui
angamy
angamyikue
angangue
angape
angapiry
angapy
angapyhy
angapyre
angara
angareko
angarekoha
angarekokuaa
angarekopora
angarekora
angarekova
angarekove
angata
angatu
angatura
ange
angeko
angel
angela
angeles
angelina
angelo
angetete
anggun
angie
angiru
anglicana
anglo
ango
angola
angolagua
angolen
angu
angue
anguja
angusticostata
angustifasciata
angustifinis
ani
aniche
aniha
anike
anillos
animacio
animador
animal
animales
animals
anime
anita
anive
aniveanga
aniversario
anja
anjo
anjos
ann
anna
anne
annoconsigno
annosinsigno
annotation
annotations
ano
anodorhynchus
anomala
anontalk
anonymous
anos
anostomidae
another
anr
ans
anselm
anselmo
anser
anta
ante
antena
antequera
anterior
anteriores
antes
anthony
anthracina
anti
antibio
anticuario
antigo
antigone
antigua
antiguo
antihistami
antillas
antiviral
anto
antofagasta
antoine
antoli
antologi
antologia
anton
antoni
antonia
antonio
antony
antropo
antropologi
antu
anual
anwar
any
anyo
anyoacceso
anyos
anything
anza
ao
aojoheiha
aokue
aon
aopehe
aopo
aora
aos
aovyta
apa
apaite
apajere
apan
aparece
aparecera
aparecida
aparicio
apati
apava
apave
ape
apegua
apeku
apekue
apellido
apellidos
apenas
apeno
apepu
apere
aperere
apertura
apesa
apesy
apf
api
apicalis
apicofuscans
apiconigroscutella
apipe
aplicacio
apo
apoagui
apodo
apoha
apohagua
apohague
apohaite
apoharakue
apohare
apoheta
apoi
apoite
apoiterei
apojepe
apokatu
apokuaa
apokue
apolo
apon
aponde
aponte
apope
apopo
apopora
apopy
apopygua
apopyme
apopyra
apopyre
apopyvusu
apora
aporandu
aporeko
aporekokuaa
aporte
apose
apostles
apostrophe
apouka
apoukaha
apoukajehe
apoukapohy
apoukapy
apoukarayhu
apoukavevu
apova
apove
apoveha
apovo
apoyo
app
appear
appears
appended
appjava
apple
appleyard
application
apply
appropriate
approved
approximate
apr
aprendizaje
apresentador
april
aptenodytes
apu
apuku
apuntes
apy
apyete
apyka
apykaguasu
apykahai
apykayvate
apykue
apymi
apyra
apyre
apysa
apysahu
apyse
apyta
apyte
apytegua
apytepe
apytere
apyti
apytimby
apytu
aqueduct
aquel
aquellos
aqui
aquidaba
aquila
aquilonis
aquino
ar
ara
araapy
arabia
arabic
arac
aracaju
arado
arafat
arago
aragone
aragua
araguaia
araguay
araha
arahaku
arahakue
arahakukue
arahasara
arahecha
arahenti
arai
araite
araity
arajere
araka
arako
araku
arakue
aral
aramboha
aramboty
arami
aramides
aramiro
aramo
aran
aranceles
aranda
arandu
aranduchauka
aranduete
aranduite
aranduka
arandukakoty
arandukakuaaha
arandukakue
arandukapurupyre
arandukuaa
arandukue
aranduo
aranduon
arandupy
arandupykuaa
arandupykuaaty
arandupykuaatyha
arandura
aranduve
aranduverekua
aranduymagua
arange
arango
arantes
arapa
arapahapegua
arapaho
arapaima
arapapaha
arapasu
arapegua
arapehe
arapire
arapo
arapoko
arapotei
arapoty
arapuru
arapy
arapygua
arapyguigua
arapykuaa
arapypegua
arapyregua
arapyrendy
arapytu
arapyvore
arara
ararecha
araren
araresa
araro
ararogueku
araroka
ararova
ararundy
arasa
arase
arasy
aratei
arati
aratiku
aratinga
aratirindy
arau
araujo
arava
aravak
aravekue
araven
aravera
aravia
aravo
aravopapaha
arc
arca
arce
arch
archibald
archiduque
archivado
archive
archived
archivedate
archiveurl
archivo
archivos
arcila
arco
are
area
areas
arecae
aregua
areia
areite
arekaja
areko
arekue
arellano
aremi
arena
arenas
arenda
areniscas
areolata
arepa
arequipa
areruha
areta
arete
areterei
areve
arg
argamasa
argel
argelina
argelino
argenti
argentina
argentinagua
argentinaguagua
argentinape
argentinas
argentino
argentinos
args
argsi
argsk
argskey
argsparam
argsv
argtables
argtableval
arguedas
argument
argumento
argumentodato
argumentos
argumentosduplicados
argumentosi
argumentossucesion
arguments
argumentsname
arhe
arhenti
ari
arias
arica
ariel
ariete
arigua
aripaka
arisanica
ariso
aristide
aristo
arive
arj
arjen
arkansas
arkiteto
arma
armada
armadas
armado
armamento
armand
armando
armas
arme
armenia
armenian
armenio
armero
armillata
armoni
armstrong
arnaldo
arne
arno
arnold
aro
aropu
arory
arovia
arpa
arpista
arqueo
arqueolo
arqueologi
arquero
arqui
arquidio
arquitecto
arquitectura
arquivos
array
arreglador
arreglista
arriba
arriben
arrie
arriero
arrimo
arrivant
arro
arroio
arrowleft
arrowright
arroyo
arroyos
arroz
arru
arrua
arsenal
arsenio
arsum
art
arte
artemio
artes
artesanal
artesani
artesano
arthur
arti
article
articles
articulo
artigas
artilleri
artist
artista
artistas
arts
arturo
aru
arua
aruete
aruguyse
aruka
arukue
arupi
arupigua
arupytu
aruru
arurupe
arusu
arxiv
ary
arygua
aryite
arykue
arype
arzobispo
as
asa
asad
asado
asador
asaha
asaindy
asaje
asajepyte
asajerei
asamblea
asames
asamoah
asapa
asbox
ascendencia
ascii
ascita
ase
asentamiento
aseri
aserikue
aserradero
aservaija
asesinada
asesinado
asesino
asesor
asesoramiento
asesori
asfaltado
asfalto
ashikaga
ashley
asi
asia
asiagua
asian
asiape
asilo
asimov
asin
asiria
asis
ask
asociacio
asociados
asp
aspe
aspectos
assad
assamensis
assemble
assembled
assert
assign
assigned
assis
assisted
assita
associac
associated
association
assume
ast
astillero
astro
astrofi
astronauta
astrono
astronomi
astropar
asturias
asu
asugua
asuka
asuncena
asuncio
asunto
asuntos
asy
asyapype
asyete
asyite
asykue
asymombiaha
asyparara
asyve
at
ata
atahualpa
atai
atanasio
ataque
atardecer
atarova
atatu
ate
atena
atenagua
atenas
atencio
atende
ateneo
ateneoguarani
aterrima
aterrizaje
ati
atilio
atitle
atl
atla
atlanta
atlas
atleta
atm
ato
atomic
atomiceffects
atra
atrabifasciata
atrichus
atrifacies
atrifemur
atriliniellata
atrisetosa
attempt
attempted
attemptorder
attention
attr
attribute
attributes
attribution
atu
atukupe
aty
atygua
atyguasu
atyguataha
atyha
atykatuete
atykue
atypegua
atypica
atypu
atyra
atyty
atyvete
atyvusu
au
audiencia
audio
auditivo
auditorio
aug
august
augusta
auguste
augusto
augustus
aulete
aunque
aupa
aurantiaca
aurantiventer
aurata
aure
aurea
aurelia
aurelio
aurora
austin
australia
australian
australiana
australiano
australoide
austri
austria
austriaca
austriaco
austro
austrohu
autara
autaralia
autera
auteralia
auteria
auteriagua
author
authorformat
authority
authorlink
authorlist
authormask
authors
authorseparator
auto
autobiografi
autoconfirmed
automa
automated
automatic
automatically
automo
automovilismo
autonomous
autor
autora
autores
autoreview
autorreferencia
autoscaledimages
autumn
auxiliadora
auxiliar
av
ava
avai
available
avaite
avakachi
avakuaaha
avakuaaty
avakuaatyha
avakue
avalos
avan
avano
avanzada
avapaje
avapu
avare
avareko
avarekokuaaty
avatee
avati
avatiku
avatiky
avatimiri
avave
avavete
avda
ave
avec
avei
aveiro
aveka
avellaneda
avenida
aventura
aventuras
aventurero
avery
aves
avevo
avevu
aviacio
aviador
aviadora
avibase
avio
avion
aviones
avisos
aviv
avo
avoid
avokue
avove
avram
avril
avu
avy
awarded
awards
away
axanthinus
axel
ay
aya
ayacucho
ayala
ayer
aygu
aygua
ayllu
aymara
ayme
ayolas
ayoreo
ayrton
ayuda
ayuntamiento
ayvu
az
azara
azerbaiya
azeri
azevedo
aziz
azteca
azu
azucena
azul
azules
b
ba
bab
babel
babosa
baby
babylone
bacalhau
bach
bachelor
bachiller
bachillerato
back
background
backwards
bacteria
bacteriana
bacterias
bacterio
bactrocera
bad
baden
bado
bae
bafta
bagdad
baggio
baha
bahamas
bahi
bahia
bailari
bailarina
bailey
bairro
baixo
baja
bajista
bajo
bajos
baker
bakeri
bal
bala
balbo
balca
bale
baleares
ball
ballesteros
ballet
baloncestista
baloncesto
balonmano
balotelli
baltasar
baltazar
baltimore
bambi
bambusa
ban
banca
banco
bancroftii
band
banda
bandas
bandeirante
bandeirantes
bandera
banderas
bandolero
bandoneo
bandoneonista
bang
banjul
bank
banks
banned
banner
banneri
banners
bannertemplate
bano
banquero
bantu
baptista
baptiste
bar
bara
barbados
barbara
barbero
barbosa
barboza
barbuda
barca
barcelona
barco
bardot
bare
bareiro
bari
bariloche
barker
barman
barnes
barney
barnstar
baro
baron
barra
barrantes
barras
barreira
barreiro
barrera
barrero
barret
barreto
barrientos
barringtoniae
barrio
barrios
barro
barroco
barros
barrow
barry
barrymore
bart
bartolome
bartolomeo
baru
bas
basa
base
based
basestyle
basi
basic
basilio
baskin
bass
bastian
bastien
basto
bastos
bat
bata
batalla
batallo
batallon
batemani
bateri
baterista
batiburrillo
batista
batistuta
batlle
batshuayi
battista
bau
bauer
bauru
bautista
bautizar
baviera
baxter
bay
baye
baza
bbc
bc
be
beach
beata
beatles
beato
beatrice
beatriz
beaufort
beaumont
beausejour
beauvoir
bebe
bebedeira
bebeto
bebidas
bec
beca
becas
because
beck
beckenbauer
becker
beckerae
beckham
become
becomes
bedoya
been
beethoven
before
begin
beginning
begins
behavior
behind
beiju
being
beirut
beisbolista
bel
bela
bele
belfast
belga
belgrano
bell
bella
bellaco
bellamy
bellas
belle
bello
belmonte
belo
below
belowcell
belowstyle
beltra
belyrat
bem
ben
benavides
bendego
bendtner
bene
benedictino
benedicto
benedito
benetti
bengali
beni
benigno
benin
benita
benitez
benito
benjami
benjamin
bennett
benni
benny
benoi
bento
benz
ber
berenguer
berezutski
berg
berger
bergkamp
bering
berkeley
berli
berlin
bermejo
bermu
bernabe
bernal
bernard
bernarda
bernardino
bernardo
bernd
bernhard
bernie
bert
berta
bertoni
besame
beso
best
bestard
bet
beta
betha
better
betty
between
beverly
beweinung
beyond
bezzi
bf
bfd
bg
bhi
bi
bia
bianca
biarcuata
bibcode
bibiografi
biblia
biblio
bibliografi
biblioteca
bibliotecadeamag
bibliotecario
bibliotecas
bicas
bicentenario
bicicleta
bicolor
bidentata
bielorrru
bielorruso
bien
bienal
bienestar
bienvenidos
bierhoff
bifasciata
big
bigi
biguttata
biguttula
bikram
bile
bilingu
bilinguismo
bill
billetes
billie
billy
bimaculata
bin
binacional
bing
binoyi
bio
biodiversidad
biodiversity
biofi
biogra
biografi
biografia
biografiasyvidas
biographies
biography
biolib
biolo
biologi
biology
bioma
bioqui
biorxiv
bipustulata
bir
bird
birdlife
birds
birindelli
birkir
birmania
birth
bis
biskek
bismarck
bissau
bit
bitat
bitstream
bivittata
biyik
bizantino
bl
bla
black
blacklist
blacklistentry
blackwell
blair
blaise
blake
blanc
blanca
blanco
blank
blas
blatter
blerim
blica
blicas
blico
blicos
blinder
bloc
bloch
block
blocked
blockers
blocks
bloemfontein
blog
blogspot
blokhin
bloomfield
bloque
blp
blue
blues
blurb
blurbobj
blurbs
bmg
bn
bo
boa
boateng
bob
bobadilla
bobby
boca
bocas
body
bodyrow
bodywidth
boeing
boer
boettner
bogado
bogari
boggiani
bogorensis
bogota
bohemia
boitempo
bol
bola
bolan
bolchevique
bold
bole
bolena
boleros
boleti
boli
bolikue
bolita
bolivia
boliviana
boliviano
bolsa
bolsos
bom
boma
bon
bonaparte
bondone
bonelli
bonet
bonev
bonham
boniek
bonifa
bonifacio
bonilla
bonito
bonnie
book
books
booksources
booktitle
boolean
booth
boquero
bora
borba
borbo
borde
bordenave
border
bordo
boreal
borg
borges
borgetti
borgon
bori
boris
borja
bosch
bosco
bosnia
bosnio
bosque
bosques
bossa
boston
bot
bota
botanica
botero
botflags
both
botmaster
botmultichill
boto
bots
botsuana
bottom
boushaki
bowie
box
boxeador
boy
boyd
boye
boyle
boys
bpy
br
bracho
brachus
brachycera
brackets
bradford
bradley
braga
braganc
braganza
brahma
braille
branco
branda
brandi
brandon
brandt
brandts
branislava
branko
brasi
brasil
brasileira
brasileiro
brasilen
brasilera
brasilero
brasilia
braun
bravo
braz
brazil
brazuca
brazzaville
bre
break
breaking
breaks
bregas
brehme
breitner
bremen
brenda
brent
bretan
breto
brett
breve
breviaculeus
brevistriata
bri
brian
brica
brida
bridge
brien
brigada
brigadeiro
brigadier
brigitte
brita
britain
britannica
british
brito
britski
broadcasting
broken
brolin
bromelia
bronce
bronconeumoni
brooks
bros
brossa
brothers
brown
browne
browse
browser
bru
bruant
bruce
brunnea
brunneola
bruno
brunswick
brusca
bruselas
bruta
bruto
bruyne
bryan
bryoniae
bs
bu
buarque
buck
bucknell
bucles
budapest
buddy
bue
buena
buenaventura
bueno
buenos
buey
buffer
buffhtml
bug
build
buildblock
builder
buildexternaltext
buildfooter
buildimages
building
buildinvalidblock
buildmap
buildnavbox
buildrow
buildtable
buildtext
buildtitle
buinensis
bulgaria
bull
bullata
bullifera
bulo
buloloensis
bump
bumpers
burajiru
burdeos
bureaucrat
burgos
burj
burke
burkina
burley
burns
burrerita
burruchaga
burt
burton
buruensis
burundi
bus
busca
buscabiografias
buscala
buscando
buscar
busch
busco
bush
business
busque
but
butia
butifarra
butler
button
buvittata
by
bybys
bye
byte
bytes
c
ca
caacupe
caaguazu
caapucu
caatinga
caazapa
caballeri
caballero
caballeros
caballo
caban
cabaret
cabecera
cabeza
cabildo
cable
cabo
cabot
cabra
cabral
cabrera
cac
cacajao
cacao
cache
cachoeira
cacique
cacuminata
cada
cadena
cadenabandera
cadogan
caduco
caetano
cafe
cahill
cai
caiman
caine
caio
caja
cajamarca
cal
calabria
calamar
calco
calculation
calcuta
caldas
caldero
caldo
caledoniensis
calendar
calendario
calendarmodel
calero
calesita
cali
calidad
califa
califato
calificador
calificativo
calificativos
california
caliginosa
call
callao
calle
called
callejo
caller
calles
callicebus
calling
calls
callsign
calname
calophylli
calori
calpe
calumniata
calvin
calvo
calvus
calzada
camacho
camara
camargo
cambio
cambios
cambodia
camboyano
cambridge
camello
cameron
cameru
camerune
camila
camille
camilo
caminho
caminhos
camino
campa
campamento
campan
campana
campanario
campbell
campeo
campeonato
campeones
campesina
campesino
campestre
campina
campinas
camping
campo
campos
campuzano
campylorhamphus
camus
can
canada
canadiense
canal
canales
canape
canarias
canavaggio
canc
cancel
cancer
canciller
cancio
cancion
cancionero
canciones
candelaria
candia
candidates
candido
candil
canela
canese
caniggia
canis
cannes
cannot
cano
canoa
canoas
canonizado
cansada
canta
cantante
cantaora
cantares
cantautor
cantautora
cantidad
canto
cantor
cantora
cantos
cap
capa
capacidad
capella
capello
capetillo
capi
capiibary
capilla
capita
capital
capitalismo
capitalization
capitulaciones
capricho
caption
captiondiv
captions
captura
capture
captures
car
cara
caracal
caracas
caracol
caracteres
caracteri
carambolae
caras
carballo
carbo
carbonaria
carbono
cardenal
cardiff
cardinal
cardona
cardoso
cardozo
careca
carerslogo
carey
carga
cargo
cargoenlazado
cari
caribe
caricaturista
carin
carl
carla
carles
carlevaro
carlo
carlomagno
carlos
carlota
carmagnola
carmelo
carmen
carmichael
carmine
carmo
carmona
carnaval
carne
carneiro
carnes
caro
carol
carolina
carolingio
carolus
caronte
carpenter
carpincho
carra
carranza
carrasco
carrera
carreras
carreta
carrie
carrillo
carrizo
carro
carroll
carson
carta
cartagena
cartas
carter
cartera
cartes
cartier
carto
cartografi
cartography
cartoon
carvajal
carvalho
caryeae
cas
casa
casabianca
casablanca
casaccia
casado
casados
casal
casamiento
casanillo
casas
cascavel
casco
case
cases
casey
cash
casi
caso
casos
cassini
castalia
castan
castelao
castellana
castellano
castelvi
castilla
castillo
castro
cat
cata
catala
catalina
catalun
cataratas
catarina
catecismo
catedra
catedral
categori
categoria
categoriaelemento
categoriaformateada
categorias
categoriaspremio
categorie
categories
categorization
categorize
category
catherine
catholic
cato
cats
catstub
caua
caudata
caudillo
causa
cause
cauta
cavallero
cavani
cavaquinho
cavendish
caxias
cayetano
cayo
cbk
cbn
cbs
cc
cd
ce
cea
ceaduc
ceara
ceas
ceb
ceci
cecil
cecilia
cecilio
cedrela
cedro
ceferino
cefet
celda
celebracio
celeste
celestino
celia
celli
celoso
celsa
celso
celta
celular
cementerio
cemento
cena
censi
censo
censos
census
centauro
centena
centenario
center
centered
centi
centinela
central
centralme
centre
centro
centroame
centros
centurio
century
ceos
cepag
cer
cera
ceramista
cerden
cerdo
cerebro
ceremonia
ceres
cero
cerrado
cerrito
cerro
cerros
certo
cervantes
cervantesvirtual
cervera
cerveza
cesa
cesar
cesc
cesis
cesteri
ceulemans
ceuta
ceylanica
cf
cfg
cg
cgi
ch
cha
chacarita
chaco
chad
chae
chagas
chagua
chaha
chaikovski
chain
chaite
chako
chakore
chama
chamacoco
chamako
chamakoko
chamame
chaman
chambers
chamorro
champagne
champions
chandler
chandra
chanel
chang
changa
change
changed
changes
channel
chante
chaos
chapa
chaparro
chaplin
chapman
chapter
chapterlink
chapterurl
chapterurlorigin
chaquen
char
chara
characiformes
character
characters
chari
charla
charles
charlie
charlotte
charlton
chars
chase
chata
chaves
chavez
chavurro
che
checa
check
checkarg
checkdigit
checked
checking
checklist
checks
checksum
checktype
checkurl
checo
checoslovaco
checoslovaquia
cheesmanae
chehegui
chejopy
chejuhu
cheki
chekia
chekon
chemandu
chemba
chen
chendive
chepytyvo
cherayhu
cherehe
cherenda
chereno
cheryshev
chesnok
chete
cheve
chevrolet
chi
chia
chiang
chicago
chicha
chicharo
chiche
chico
chiellini
chika
chikago
chikitu
child
children
chile
chilegua
chilena
chileno
chilepe
china
chinagua
chinan
chinese
ching
chini
chinita
chino
chipa
chiperita
chipre
chipriota
chiquinha
chiquiti
chiquititas
chiri
chiripa
chislenko
chistes
chive
cho
choferes
choguy
choi
chokokue
chokora
chomsky
chonglui
chongzhen
chono
choose
chope
chopin
chore
chorista
chorori
chororo
choroti
chosen
chovoreca
chovy
chovykue
chr
chris
christ
christi
christian
christina
christine
christmas
christoph
christophe
christopher
christus
chrome
chrysocome
chu
chubut
chuck
chugui
chuguikue
chul
chulupi
chumbe
chupe
chupekue
chuquisaca
church
churchill
churuchuchu
chusaya
chusayo
chuva
chyryry
ci
cia
cias
cibodasae
cica
ciclista
ciclo
ciconia
cid
cida
cidade
cido
ciego
cielo
cielodelosguaranies
cien
ciencia
ciencias
cienti
cierre
ciertas
ciervo
cigarra
cigu
cil
cilifera
cimo
cinco
cincuenta
cine
cineasta
cinema
cinematogra
cinnamea
cinta
cio
cipriano
circamusae
circo
circuito
cirilo
cirujano
cisneros
cisplatina
cita
citas
citation
citationclass
citations
cite
citeref
cites
citeseerx
citima
cito
citroides
city
ciudad
ciudadani
ciudadano
ciudades
cius
civil
civiles
civilizacio
ck
cker
cl
cla
claim
claimqualifs
claims
claimsidpropiedad
clara
clarence
clari
clarinetista
clark
clarke
claro
clase
clasecita
clasedatosup
clasefila
clasesubtitulo
clasetitulo
clasificacio
clasificaciones
class
classes
classical
classification
claude
claudia
claudio
clausura
clav
clavel
cle
cleannumber
cleanup
clear
clemente
clementina
clements
cleo
cleopatra
cleto
cleyre
cli
click
client
clifford
clima
clint
clive
clone
clorinda
close
closed
clotilde
club
clube
clubes
cluj
clyde
cm
cn
cnel
cnica
cnico
co
coauthors
coautores
cobertura
coca
cochabamba
cochran
cocido
cocina
cocinero
coco
code
codes
cody
coelho
cofundador
cogani
cognata
coi
coimbra
coincidencia
coins
cointerviewers
coisas
col
cola
colaboracio
cold
cole
coleccio
colecciones
coleccionista
colectivo
colegio
coleman
colima
colin
colina
colinas
collaboration
collar
collection
college
collins
collita
colma
colman
colmena
colo
colombia
colombiana
colombiano
colombino
colombo
colon
colonia
colonial
coloniales
colonias
colonizacio
colono
color
colorado
colossoma
colspan
columbia
columna
columns
colunga
com
coma
comandancia
comandante
comando
combate
combatiendo
combinada
combine
combustible
comec
comedia
comediante
comedias
comedio
comendador
comentario
comentarios
comercial
comerciales
comerciante
comercio
cometa
comigo
comisio
comite
comma
commas
comment
comments
commina
common
commons
commonwealth
community
como
comp
compacto
compadecida
compadres
compan
companhia
companion
company
comparacio
comparativo
compare
compareselectedversions
comparisons
compatibility
compendio
compilacio
complejo
complemento
completa
completas
complete
completo
completos
compliance
complicata
complot
complutense
comportamiento
composicio
composition
compositor
compositora
compositores
compostela
compresssparsearray
comprobar
compromiso
comprueba
compton
compuesta
compuesto
computacio
compute
comu
comuneros
comunes
comunicacio
comunicaciones
comunidad
comunidades
comunio
comunismo
comunista
con
concacaf
concat
concatenate
concatenated
concatenation
conceic
concepcio
concepto
conceptos
concert
concertista
concha
conciencia
concierto
conciliar
concilio
concordia
concurso
condado
conde
condecoracio
condicio
condicional
condiciones
condition
conditions
conducta
conductor
conductora
conejo
confederacio
conference
conferenceurl
conferencia
conferencias
confesiones
config
configtables
configuracio
configuration
confirm
confirmacio
confisso
conflicting
conflicto
conflicts
confluens
confuso
congener
congo
congolen
congregacio
congreso
conj
conjtype
conjuncio
conjuncion
conjunction
conjunto
conmebol
connecticut
connexa
connor
cono
conoce
conocedora
conocido
conocimiento
conocimientos
conperiodo
conquista
conquistador
conrad
conrado
consectorata
consecuencia
consejero
consejo
consejos
consensus
conservacio
conservacionista
conservation
conservatorio
consideration
consonantes
consorte
conspiracio
constant
constantin
constantino
constantinopla
constitucio
constitucional
constitucionales
constitution
constituyente
construccio
construction
constructivo
constructor
consuelo
consulado
consular
consultado
consumo
contact
contacto
contain
containing
contains
contar
contempora
contemporary
contener
contenida
contenido
contenidos
content
contents
contermina
contexto
conti
contienda
contiene
contienen
contigua
continental
continente
continua
continuacio
continue
contos
contra
contrario
contrastivo
contrato
contreras
contribs
contribucio
contribution
contributions
contributionurl
contributor
contributorlist
contributors
contricio
control
controls
convencio
convencional
convenio
conversacio
conversio
convert
converted
convertir
convierte
cook
cooper
cooperacio
cooperativa
coord
coordenadas
coordinada
coordinadora
coordinate
coordinates
coordinatespec
copa
copaco
copas
cope
copenhague
copia
copied
coppola
copulativa
copy
copyright
cora
corac
coracina
coragem
coral
coralina
corazo
corbusier
cordeiro
cordel
cordero
cordillera
core
corea
coreano
coreo
cornelia
cornell
coro
corona
coronado
coronavirus
coronel
corpo
corporate
corporation
corpus
corral
corrales
corre
correa
correct
correcta
correctly
corredor
corregir
correo
correspondiente
corriente
corrientes
corta
corte
cortes
cortina
corto
cortos
corun
corvala
coryphaspiza
cosa
cosas
cosme
cosmonauta
costa
costalis
costarricense
costera
costumbres
cotobade
cotorra
coubertin
could
couldn
council
count
counter
country
coutinho
couvade
covid
cox
coypus
cpu
cquer
cracovia
craig
crane
crata
crates
crawford
crea
creacio
creado
creador
creadora
crear
create
created
creative
crecimiento
credits
credo
crenimugil
creo
crespo
cri
criada
crianc
cricket
crimen
criminal
crimson
criollo
crisis
criso
crispi
crispiniano
cristal
cristaldo
cristia
cristian
cristiana
cristiano
cristianos
cristina
cristo
criteria
cro
croacia
croata
croix
cronista
cronolo
cropped
cross
cruce
crucero
crucis
cruel
crup
cruz
cruzada
cruzeiro
cruzi
cs
css
csstext
ctea
cteos
cter
ctica
ctico
ctima
ctor
ctrica
ctrico
ctx
cu
cua
cuadernos
cuadrado
cuadro
cuadros
cual
cuales
cualquier
cuando
cuartel
cuarteto
cuatro
cuauhte
cuba
cubana
cubano
cubilla
cubillas
cuchillo
cue
cuenca
cuenta
cuentista
cuento
cuentos
cuerda
cuerdas
cuerpo
cuervo
cuesta
cuestio
cueto
cueva
cuevas
cuevillas
cuiaba
cuidado
cula
culas
culebra
culinaria
culo
culos
culta
cultivo
culto
cultura
cultural
culturales
culturas
culture
cultures
cum
cummings
cumple
cun
cuna
cunha
cuniculus
cunningham
cup
cur
cura
curie
curiosidad
curitiba
curly
curran
current
currentevents
currently
currentversion
curros
curso
curt
curtis
curuguaty
curva
cusco
cut
cuvier
cuzco
cv
cw
cynthia
cyril
cyrus
cz
d
da
dado
dados
dag
dahl
dahomey
daily
dakar
dako
dakota
dala
dale
dalglish
dali
dallas
dalton
dam
dama
damas
dame
damia
dan
dana
dancing
dane
danesa
dani
daniel
daniela
daniele
danny
dano
danos
dans
dante
danu
danza
danzas
dape
dar
dardanelos
dari
daria
darrell
darren
darussalam
darwin
das
dash
dashes
data
database
dataset
datatype
datavalue
date
dateformat
dateobject
dates
datesortkey
dato
datos
datosautoridad
datoscelula
datosup
dave
davenport
david
davies
davis
davor
day
dayfirst
days
db
dc
dd
de
dead
deadurl
deal
dean
death
debajo
debate
debe
debeexistir
deben
deberi
deborah
debug
debut
dec
decada
decano
december
decide
decimal
decimales
decimals
decir
decisio
deck
declaracio
declaracion
declaraciones
declaracionesfecha
declaration
declared
decode
decorador
decorating
decoud
decreto
dedicada
dedicado
dee
deep
deepcopy
default
defaultargs
defaultlang
defaultlink
defaultlinkquery
defaults
defecto
defender
defensa
defensor
defensores
define
defined
definicio
definition
definitivo
deg
degree
degrees
degryse
dei
deimos
dejar
dejemos
del
delano
delaware
delegacio
delegado
delete
deleted
deletion
deletions
delfi
delgado
delhi
delia
delimitador
delink
della
delta
delvalle
dema
demetrio
demo
democra
democracia
democracy
demogra
demografi
dempsey
den
dendrocincla
dengue
denis
dennis
denny
densidad
dentro
denuncia
deo
deodoro
deos
departamental
departamento
departamentos
department
departments
dependiendo
depending
deporte
deportes
deportista
deportiva
deportivo
deprecated
depurarvacias
der
derecha
derecho
derechos
derek
deres
deriva
derivadas
des
desafi
desambiguar
desaparicio
desaparicion
desarrollador
desarrollo
desc
descartes
desconocido
descripcio
description
descriptions
descubrimiento
descubrircorrientes
desde
desengan
deseo
desfile
desgracia
desgracias
desierto
desired
desiste
desmond
desnudo
despue
destacado
destacados
destierro
destino
destiny
destruccio
desvi
details
detall
detalle
detection
detective
detente
determinar
determine
determined
determiner
determines
detra
deus
deutsche
deutschland
devana
devanagari
deve
developer
development
devi
devolver
devolvera
devuelve
dewey
dexametasona
dexter
dextrometorfano
deyna
dez
df
dg
dgeec
dharma
di
dia
diablo
diablos
diagram
diamante
diana
dianas
diario
dias
diaz
dibb
dibujante
dibujo
dica
dicas
diccionario
diccionarios
dice
dicha
dicho
dichos
dici
diciembre
dicio
diciona
dicis
dick
dickens
dickinson
dico
dicos
dictador
dictadura
dictator
dictionary
did
dida
diderot
didi
didier
die
diego
dieter
dietrich
diez
diferencias
diff
difference
different
diffmt
difteria
diga
digit
digital
digitletter
digits
digna
digno
digo
digos
dijo
dika
dimitri
dimitrios
dimitris
din
dina
dinamarca
dinasti
diniz
dino
dio
diocesano
diocleciano
dionisio
dios
diosnel
diploma
diptera
dipterorum
diputado
diputados
dique
dir
dirceu
direc
direccio
direct
directa
directamente
direction
directiva
directly
directo
director
directora
directory
dirigente
dirigido
dirk
disabled
disambig
disambiguate
disambiguation
disambiguator
disciplina
disclaimers
disco
discogra
discos
discover
discovery
discurso
discursos
discusio
discuss
discussion
disease
disen
disenteri
disminuir
disney
disnomia
dison
display
displayauthors
displayed
displayeditors
displayformat
displaytitle
disponible
disposicio
dispositivo
dispute
disputes
dissertation
distance
distancefromleft
distancia
distincio
distinciones
distribucio
distribuidor
distribuidora
distrito
distritos
dito
div
diva
divers
diversas
diversidad
diversitat
diversity
divina
divinidad
divino
divisio
diz
dj
dle
dm
dmca
dmitri
dms
dmstest
dmy
do
dobay
doblaje
doble
dobrovolski
doc
doce
docente
doces
docket
docs
docto
doctor
doctora
doctorado
doctoral
doctorales
doctrina
document
documentacio
documental
documentation
documento
documentos
documents
does
doesn
dog
doha
doi
doibroken
doing
dois
dolls
dolo
dolor
dolores
dom
domain
domains
domanovic
dome
domenico
domi
domingo
domingos
dominica
dominical
dominicana
dominicano
dominicos
dominio
dominique
don
dona
donald
donde
done
dong
dono
donoso
donovan
doors
dor
dora
dorado
doria
dormida
dormir
dorothea
dorothy
dos
dosis
dostoyevski
dot
douard
double
doubled
doug
douglas
doutor
dove
dover
dow
down
download
downloadable
dq
dr
dra
drae
draft
dragan
drago
drake
drama
dramaturga
dramaturgo
dravi
draxler
draz
dream
dresden
drew
dric
dries
droga
drogba
drummond
dt
du
duarte
duas
dubai
ducado
duda
due
duelo
duen
duka
duke
dulce
dulo
dulos
dumas
dummy
dumont
dun
dunal
dunas
duncan
dunn
duo
dup
duplicate
duque
dura
duran
durante
duration
dutra
dvd
dwayne
dx
dy
dyer
dylan
dynamo
dynasty
dz
dzongkhan
e
ea
each
eagle
ean
eandu
eapo
eapoha
eapohaite
eapopyha
eapoukaha
earl
earlier
early
earth
easier
east
easter
eastern
easy
ebola
eccles
echae
echagu
echako
echeverri
echinacea
eclesia
eco
ecolo
ecologi
ecologista
econo
economi
economic
economista
ecorregio
ecosistema
ecoturismo
ecuador
ecuatorial
ecuatoriana
ecuatoriano
ed
eda
edad
edda
eddie
eddy
edefende
edelira
eden
edgar
edgeworth
edic
ediccio
edicio
edicion
ediciones
edificacio
edificio
edificios
edinburgh
edinson
edisa
edison
edit
edita
editar
edited
edith
editing
edition
editor
editora
editorcount
editores
editorformat
editorial
editorlink
editorlist
editormask
editors
editrequest
edits
editsection
editstr
edmond
edmund
edmundo
eds
edson
edu
eduard
eduardo
educac
educacio
educacion
educador
educadora
education
educativa
educativo
eduvigis
edward
edwards
edwin
ee
eembucu
eemoera
eeuu
efectivo
efecto
effective
effectiveexpiry
efrai
efre
efunda
eg
egan
egipcio
egipto
egisto
egon
egua
eguahe
eguasu
eguasuete
eguasueterei
eguasuite
eguasuiteha
eguasuva
eguasuve
eguenohe
eguereko
egueroveve
egui
egusquiza
egusuve
eha
ehague
ehakoty
ehakue
ehao
ehaokue
ehaopegua
ehaorusu
ehaovusu
eharakue
eharara
ehe
ehecha
ehechave
eheja
ehekom
ehekombo
ehekotee
ehekove
ehembe
ehendu
ehenduka
ehenduva
ehenduve
eheno
ehepyme
ehero
eherokuaa
ehesa
ehesakutu
eheta
ehetaite
ehetave
ehetu
ehi
ehina
ehipto
ehipton
ehiton
eho
ehre
ehundi
ehundipa
ei
eicha
eichagua
eichaite
eichakue
eichapa
eicharupi
eichmann
eiffel
eigenmann
eiha
eikoteve
eiku
eikuave
eikyti
eime
eimo
einaugura
einfecta
einstein
eipepiru
eira
eirara
eirata
eirete
eiro
eiru
eisa
eite
either
eivoi
eja
ejapo
eje
ejecucio
ejecutado
ejecutivo
ejegua
ejemplar
ejemplares
ejemplo
ejemplos
ejepe
ejepuru
ejercicio
ejercito
ejere
ejeroky
ejeru
ejerure
ejey
ejoajuhaite
eju
ejumi
ek
eka
ekan
ekandina
ekara
ekatu
ekavon
eke
ekimal
eko
ekonomia
ekosia
ekoteve
eku
ekua
ekuaa
ekuaaha
ekuaaharara
ekuaaita
ekuaakatu
ekuaakue
ekuaara
ekuado
ekuador
ekuato
ekuator
ekuave
ekudo
ekue
ekuera
ekueraha
ekuerape
ekuri
ekyti
el
ela
eladio
elaine
elanoides
elas
eldorado
ele
elecciones
electoral
electricidad
electro
electromagne
elefante
eleme
element
elemental
elemento
elementos
elementoslista
elementoslistaj
elementotabla
elements
elena
elenco
eleonora
eli
elias
eligio
eliminado
eliminando
eliminar
elio
eliot
elipsis
elis
elisa
elisabeth
eliseo
elizabeth
elizardo
ella
ellas
elliot
elliott
ellis
ellison
ello
ellos
elo
elogio
elopichthys
elova
elovakia
elove
eloven
eloy
elpidio
elsa
else
elseif
elvio
elvira
elvis
elzear
em
ema
emae
email
emaili
emailuser
emaimbe
emambeko
eman
emandu
emano
emanuel
emanuele
emava
emba
embajada
embajador
embalse
embargo
embargoed
embe
embedded
embiso
embo
emboaje
emboajeva
emboao
emboarete
emboaty
emboe
emboete
emboguapy
emboguapyha
emboguarani
emboguata
embogue
emboguejy
emboguejyve
embohaity
embohape
embohapemoko
embohapera
embohasa
embohe
emboheko
embohekokatu
embohera
emboherava
embohero
emboheta
embohetave
embohete
emboho
embohory
embohova
embohovake
embohyapu
embohypy
embohyru
embohysy
embohysyiva
emboja
embojegua
embojehe
embojei
embojere
embojevy
embojo
embojoaju
embojoajuha
embojoajupa
embojoajuva
embojoapy
embojoapyva
embojoja
embojopo
embojuavy
embojy
embokapu
embokatupyry
embokatupyryva
embokatupyryve
emboki
embokiha
embope
embopiro
embopu
embopuku
embopupu
embopy
embopyahu
embopyahujey
embosa
embosako
embosara
embosarai
embosaraiha
embosaraikue
embosaraipave
embosaraira
embosarambi
emboscada
embota
embotapykue
embotavy
embotove
embotuicha
embotuichave
emboty
embotypa
embou
embovo
embovu
embovy
embovyvy
emboy
emboyao
emboyekua
emboyke
emboypy
embuku
emby
embya
embyahy
embyai
embyaipa
embyaipaite
embyaive
embyaku
embyame
embyasy
embyaty
embyatykue
embyatyngue
embyatypa
embyatypyre
embyeja
embyepoti
embygua
embygyotyo
embykuarahyreike
embykuarahyrese
embykuarahyse
eme
emenda
emendado
emergencia
emi
emigdio
emiguerojera
emiha
emil
emile
emilia
emiliano
emilio
emily
emimby
emir
emira
emiryvy
emisora
emit
emits
emity
emma
emmanuel
emmy
emo
emoa
emoag
emoagui
emoaka
emoambue
emoambueha
emoan
emoangiru
emoarandu
emoaranduha
emoaranduhague
emoaranduite
emoarandura
emoaranduse
emoaranduva
emoaranduve
emog
emoha
emohata
emohe
emohechauka
emohembe
emohen
emohenda
emohendaha
emohendajey
emohendakuaa
emohendapy
emohendapyre
emohendava
emoherakua
emoheta
emohu
emohypy
emoi
emoinge
emoingove
emoiru
emoka
emokangy
emomandu
emomarandu
emomba
emombarete
emombareteve
emombe
emombia
emombo
emombyky
emombyry
emombyta
emombyte
emomembykua
emomichi
emomiri
emomombyry
emomora
emomy
emon
emonda
emonde
emondeha
emondo
emondy
emondyky
emonei
emonga
emongakuaa
emongarai
emongaru
emongeta
emongetaha
emongolo
emongora
emongu
emonguatia
emonguera
emono
emopehe
emopetei
emopora
emopoti
emopu
emopy
emopyenda
emosa
emosarambi
emosarambiha
emosarambive
emose
emosusu
emotenonde
emoti
emperador
emperatriz
empire
empleador
emprendimiento
empresa
empresaria
empresario
empresas
empty
emu
emuasa
emuha
emuhaguasu
emuhakue
emun
emura
emuve
emuveha
emy
emyaka
emyasa
emyatyro
emyengovia
emyesaka
en
encabezamiento
encaje
encanto
encarnacio
enciclopedia
encina
enciso
encode
encomienda
encontrado
encontrar
encontrarte
encrucijada
encuestas
encyclopaedia
encyclope
encyclopedia
encyclopædia
end
endash
endashes
ende
ending
endocrino
endorsement
endyry
ene
enemigo
energi
enero
enfermedad
enfermedades
enfermos
engan
engels
engenheiro
england
english
engue
enlace
enlaceautor
enlacelugar
enlacemapa
enlaceobrapremiada
enlaceocupacion
enlacepagina
enlacepais
enlaces
enlazada
enlazado
enlazar
enlazarurl
enmayusculas
enmayusculaso
enner
eno
enohe
enombra
enri
enrico
enrique
enriqueta
ensayista
ensayo
ensayos
ense
enseguido
ensen
enserenado
ensjo
ensuen
ente
enter
entered
entero
entertainment
entes
entese
entidad
entidades
entidadterritorialadministrativaenlazada
entire
entities
entity
entityid
entomo
entomologi
entonces
entrada
entre
entremetido
entremetidos
entrenador
entreparentesis
entrevista
entry
enumerated
enupa
envariaslineas
environment
enxet
enxhet
enz
enzo
eo
eordena
ep
epa
epaite
epan
epe
epehe
epetei
ephippiorhynchus
ephraim
epi
epia
epifanio
epinefrina
episo
episode
episodelink
epoha
epohano
epomoi
epopeya
epora
eporandu
eporanduva
epota
epresenta
epu
epuha
epukuaa
epukuaaha
epupora
epurory
epuru
epy
epyahu
epykue
epyra
epyru
epyrura
epyry
epysa
epysyro
epysyry
epytu
epytyvo
equal
equation
equilibrio
equipo
equus
er
era
erairo
eramo
ere
erechakuaa
erechaukaha
erectus
eregua
erehegua
ereko
erekokuaa
erekokuaaha
erendy
erepy
erepykuaa
erepykue
erepyopa
eres
eri
eric
erica
erich
erico
erik
erika
eriksen
eris
erityre
erityrea
ernest
ernesto
ernie
ernst
ero
err
errante
erro
error
errorcomment
errores
errorprinter
errors
errs
ers
erudito
erwin
eryru
erythrinidae
erythrinus
es
esa
esc
esca
escala
escalada
escaparlo
escape
escapestring
escarabajo
esce
escena
escenario
escenografi
esclavo
esclusa
escobar
escoce
escocesa
escocia
escola
escolar
escondrijo
escorpio
escribano
escribir
escrita
escrito
escritor
escritora
escritoras
escritores
escritorio
escritos
escritura
escudero
escudo
escuela
escuelas
escultor
escultora
escultura
esculturas
escurra
ese
esgrimista
eski
eskue
esla
eslavo
eslovaca
eslovaco
eslovenia
esloveno
esmeralda
esmilce
eso
esos
espa
espacial
espacio
espacios
espada
espan
espanol
espasa
especi
especial
especiales
especialidad
especializacion
especializada
especialmente
especie
especies
especificada
especta
espejo
espera
esperanc
esperanto
esperanza
espi
espinosa
espinoza
espiritual
esplanada
esposa
esqueleto
esquema
esquiadora
esquina
esse
esta
estaba
establecimiento
estacio
estacionero
estacioneros
estaciones
estadi
estadio
estadista
estado
estados
estadounidense
estaenlazado
estambul
estamos
estampa
estancia
estancias
estandarte
estanislao
estar
estas
estatal
estatuto
este
esteban
estela
estepe
esterha
estero
esteroides
esteros
esteves
estiano
estigarribia
estili
estilo
estilodatos
estilodatosup
estiloetiqueta
estiloseccion
estilosubtitulo
estilotitulo
esto
estocolmo
estonia
estonio
estos
estrada
estrate
estrategia
estrecho
estrela
estrelas
estrella
estreptoco
estreptococo
estreptococos
estribo
estruch
estructura
estudante
estudiante
estudiantes
estudio
estudios
esu
esuati
esyry
et
eta
etaita
etal
etapa
etc
ete
etee
etegua
eteguaite
eteha
eteku
etemi
eterei
etereirasa
eterna
eterno
etete
eteva
etevaichavoi
etevoi
ethel
ethnologue
eti
etimologi
etiopi
etiopia
etiqueta
etiquetalugar
etiquetaobrapremiada
etiquetaocupacion
etiquetaocupacioncorregida
etiquetapais
etnia
etno
etnogra
etnografi
etnologi
eto
eton
etymological
eu
eudyptes
eudyptula
euge
eugen
eugene
eugenia
eugenio
euka
eul
euler
eulogio
eura
euro
europa
europagua
europape
europe
europea
european
europeo
eusebio
eva
evaekue
evahi
evai
evakue
evangelizacio
evans
evaristo
evavoi
eve
eveha
eveichagua
even
evende
evenhuis
evenodd
event
evento
events
eventurl
ever
everest
everett
evero
every
evete
evic
evo
evoi
evolucio
evolution
evre
ex
example
excelso
except
excerpt
exclude
excludespecial
exiliado
exilio
exist
existe
existecategoria
existen
existentialism
existing
existir
exists
exl
expand
expandtemplate
expected
expedicio
expedito
expensive
experiencia
experimentado
experimental
experimentos
expiry
expiryfragment
explanation
explanationblurb
explanationsaction
explanationsactionlevel
explanationtext
expli
explicitly
explorador
exploradores
explorer
explotacio
expo
exponent
exponente
export
exposicio
exposiciones
expr
expresio
ext
extended
extendedconfirmed
extensio
extension
extensions
extensiontag
extensivo
exterior
exteriores
external
externallink
externaltext
externo
externos
extlink
extra
extraclasses
extract
extran
extraneous
extranjero
extraterrestre
extrema
extremadura
extremen
extremo
exulans
exvakapipopo
ey
eye
ez
ezequiel
f
fa
fabia
fabiano
fabio
fabiola
fabra
fabrica
fabricante
fabrice
fac
facebook
fachada
fact
factbook
facto
factor
facultad
facunda
facundo
fagundes
failed
failing
fairbanks
faisal
faith
faja
falabella
falco
falcon
falkland
fall
falla
fallback
fallece
fallecimiento
falls
falsa
false
falsehttps
falta
famagusta
fami
familia
familias
famoso
fanny
fans
fanta
fantasi
fantasmas
fantasy
fantoches
fao
faq
farao
farda
fargs
farin
faringitis
farmace
farmacia
farquhar
farther
fasci
fasciatum
fasciatus
fascismo
fascista
faso
fassardi
faster
fatah
fatimi
fatton
fauces
faulkner
fauna
faustino
fausto
favor
favorita
faxinal
faz
fazem
fazenda
fb
fc
fe
feature
feb
febrerista
febrero
febres
february
fecha
fechaacceso
fechaarchivo
fechafin
fechahora
fechainicio
fechanacimiento
fechas
fechasfin
fechasinicio
federacio
federal
federativa
federico
feed
feijoada
feira
felicia
feliciano
felicidades
felidae
felinos
felipe
felis
felix
feliz
fellaini
female
femenino
feminista
femme
feni
feno
fer
fera
ferdinand
ferenc
ferguson
feria
fermi
ferna
fernanda
fernandes
fernandez
fernandinho
fernando
fero
feroe
feros
ferran
ferrari
ferraz
ferre
ferreira
ferreiro
ferrer
ferreri
ferrocarril
ferroviaria
fes
festa
festival
fetch
fetchlanguagename
fez
ff
fff
fi
fibra
fica
ficamente
ficas
ficcio
ficha
fichas
fico
ficos
fidel
fidelidad
fiebre
fiel
field
fields
fierro
fiesta
fiestas
fifa
figueiredo
figueroa
figura
figuras
fila
filadelfia
filarmo
filas
filate
file
filedescription
filename
filenamespaces
files
filho
fili
filipe
filipi
filipina
filipinas
filipino
filippo
filis
fill
film
filme
filo
filologi
filoso
filosofi
fim
fin
fina
final
financiero
find
finds
fine
finlande
finlandesa
finlandia
finn
finney
fino
fio
firefox
firma
firmas
firmino
first
firstn
firstpostfix
fiscal
fischer
fish
fishbase
fisher
fisio
fisiologi
fissilis
fitzgerald
five
fix
fixed
fixreferences
fla
flag
flagged
flags
flagscount
flamenco
flandes
flaubert
flauta
flavio
flecha
fleitas
fleming
flex
flippers
flo
float
floor
flor
flora
flore
florecio
florence
florencia
florencio
florenti
florentino
flores
floresta
floriano
florida
florinda
flota
fluvial
fm
fmi
fmt
fo
fobos
fogo
folclo
folha
folk
folklo
folklore
folklorista
follas
folleto
followed
following
fomento
fondo
fone
fonema
fono
fonologi
fonologia
fonseca
font
fontaine
fontana
fontao
fonte
fontes
fontstyle
foo
football
footer
for
fora
forbes
forc
force
ford
foreign
forest
forestal
forficatus
forget
forjadores
forla
form
forma
formacio
formal
formas
format
formatdate
formateados
formateafechahora
formatear
formaterror
formatfile
formatinlanguage
formatlink
formatlongw
formatmessage
formatnum
formato
formatodato
formatodatowikidata
formatodeclaraciones
formatoerror
formatofacebook
formatofecha
formatoidentidad
formatoidentidadwikidata
formatomagnitud
formatonumero
formatoperiodo
formatos
formatotexto
formatotwitter
formatounidad
formatourl
formatpunt
formats
formatsnak
formatspattern
formatstatements
formatted
formattedafter
formattedbefore
formattedcenter
formattedlabel
formattedvalue
formattest
formatting
formed
formosa
foro
fort
fortaleza
forti
fortuna
fortune
forward
fosse
foster
foto
fotogra
fotografi
fotos
found
foundation
four
fowler
fox
foz
fr
fra
fraction
fragment
fragmento
fragmentos
fragoso
fraile
frame
frameless
frameonly
framework
fran
franc
franca
france
frances
francesa
francesc
francesco
francia
francis
francisca
franciscana
franciscano
franciscanos
francisco
franck
franco
franja
frank
franklin
frantis
franz
fraser
frases
fray
fre
frecuencia
frecuentativo
fred
freddie
freddy
frederick
frederico
free
freedom
freefiles
freeman
freire
french
frente
freud
frica
frida
friderici
friedrich
frigio
frigori
frika
frikagua
frikape
frio
friso
fritz
from
front
fronteira
frontend
frontera
fronteras
fronterizo
frp
frutilla
fruto
frutos
fu
fuad
fue
fuego
fuente
fuentes
fuera
fueron
fuerte
fuertes
fuerza
fuerzas
fuji
fulgencio
full
fulltext
fullurl
fully
fun
func
funcio
funcion
funciona
funcional
funcionario
funciones
function
functions
fundacio
fundador
fundadora
fundamental
fundamento
funeraria
furnariidae
furnarius
furtado
further
fusil
fusio
futbol
futboli
futbolista
futebol
futura
future
futuro
futuros
fx
fy
fya
fyodor
g
ga
gabinete
gabino
gabriel
gabriela
gabriele
gabrielle
gado
gae
gafotas
gagua
gaguasu
gagui
gahoja
gai
gaicha
gaite
gakue
gal
gala
galardo
gale
galeano
galega
galeri
gales
gali
galiano
galicia
galiciagua
galile
galilei
galileo
galindo
gallagher
gallardo
galle
gallega
gallego
gallegos
galli
gallina
gallito
gallo
galo
galuzzi
galva
gama
gamarra
gamba
gambarete
gambia
game
games
gameve
gan
ganaderi
ganadero
ganado
gandhi
ganglios
gano
ganso
gaona
gape
gapegua
gara
garanti
garavello
garay
garce
garcete
garci
garcia
garcilaso
garden
gare
gareth
gari
garland
garrido
garrincha
gary
garza
gas
gaspar
gaspard
gastar
gasto
gaston
gastrono
gastronomi
gates
gato
gatu
gau
gaucho
gaudi
gauguin
gaulle
gava
gavila
gaviria
gavo
gavrilo
gay
gaygua
gayvate
gazeta
gdalas
gdgourou
ge
gel
geller
gemelas
gen
gena
genas
gencat
gender
gene
generacio
general
generalmente
generarenlace
generate
generation
generational
generic
genes
genetista
genghini
gengis
geno
genocidio
genre
gente
gentil
gentilicio
genus
geo
geocities
geoff
geoffrey
geoffroy
geogra
geografi
geografia
geographic
geographical
geography
geohack
geologi
geology
georg
george
georges
georgi
georgia
georgiana
georgiano
georgios
ger
gera
gerais
geral
gerard
gerardo
gerd
gerhard
germa
germania
germano
gero
geronimi
gerrard
gerry
gervasio
gestio
get
getarg
getargnums
getargs
getboolean
getcategories
getclaims
getcontentlanguage
getcurrentframe
getcurrenttitle
getdate
getdatefromqualif
getentity
getentityobject
geterror
getexpandedmessage
getfiles
getformatteddate
getformattedqualifiers
getid
getids
getlead
getlists
getmainid
getmapparams
getmessage
getmetatable
getnamespaces
getparagraphs
getparameters
getparent
getperrow
getpropiedad
getreferences
gets
getsection
getsections
gettables
gettemplates
gettext
gettitle
getvalue
getwikidatavalue
gezɐ
gg
ghana
ghane
gi
gia
giaccherini
giacomo
gian
gianni
gibson
gica
gicas
gico
gicos
gif
gigante
gigas
gil
gilbert
gilberto
gilda
gill
gilles
gime
gimen
gimnasia
gimnasta
gina
ginas
ginebra
gini
gino
gio
giorgio
giotto
giovanna
giovanni
gira
girala
girasol
girl
girls
giro
girolamo
giroud
giulio
giuseppe
give
given
gives
giving
gje
gl
gladys
glass
glen
glenn
glo
global
globalframe
globals
globe
globo
gloria
glosbe
glosema
gmatch
gn
gnu
go
gob
gobernacio
gobernador
gobernante
gobierno
god
godi
godoy
goebbels
goethe
gogh
goguryeo
goia
goikoetxea
gol
gold
goldman
golero
golf
golfista
golondrina
golpe
gomes
gonc
goncourt
gondra
gone
gono
gonza
gonzaga
gonzalez
gonzalo
good
goodman
google
gor
goran
goras
gorbachov
gordon
gorila
gorostiaga
gory
got
gottfried
gottlieb
gotyo
gotyogua
gotyove
goulart
gould
goulue
gov
government
goya
goyto
gra
grabacio
grabaciones
grabado
grabador
grabados
gracia
gracias
graciela
grado
gradoespecializacion
grados
graf
grafa
grafo
graham
grain
gral
grama
gramado
gramatica
gramaticales
grammy
gramo
gran
granada
granadinas
grand
grande
grandes
granit
granja
grant
graph
gratis
gratitud
gratuita
grau
grave
gravitacio
gray
gre
great
greater
greatest
grecia
greco
greek
green
greene
greer
greg
grego
gregor
gregorian
gregoriano
gregorio
gregory
grey
grez
griega
griego
griezmann
griffin
griffith
grimm
gripe
gris
griseicapillus
griselda
gro
groening
grossa
grosse
grosso
ground
group
groupcell
groupedclaims
groups
grove
gru
grupo
grupos
grus
grzegorz
gs
gsub
gu
gua
guadalupe
guahe
guahu
guai
guaicha
guaikuru
guaikurukue
guaira
guairen
guajaki
guajayvi
guakue
gualberto
guana
guanaco
guanajuato
guangxi
guape
guapo
guapy
guapyha
guara
guaraju
guarakapa
guarambare
guarani
guarania
guaraniete
guaranikue
guaranime
guaranimegua
guaranin
guaraniportugues
guararapes
guardar
guardia
guare
guari
guarimbe
guarini
guarinikue
guaripo
guas
guasch
guasu
guasuete
guasueterei
guasuha
guasuite
guasuiterei
guasukue
guasura
guasuve
guasuvira
guata
guataha
guatambu
guatapu
guatema
guatemala
guatemalteca
guatemalteco
guaviju
guavira
guavirana
guayaki
guayra
guazu
gubernamental
gubernativa
gue
guedes
guejyha
guembepi
gueorgui
gueraha
guerahaha
guereko
guero
guerohory
guerojera
guerova
guerra
guerreiro
guerrero
guerrilla
guerrillera
guerrillero
gueru
gues
guetei
gueterei
gueteri
guevara
guez
guggiari
gui
guia
guide
guido
guigua
guila
guilbert
guilherme
guilin
guillaume
guille
guillermo
guimara
guine
guinea
guinoi
guinoivae
guinte
guio
guionista
guipa
guitar
guitarra
guitarrista
guive
guivo
guja
gumersindo
gun
gunnar
guo
guru
gusma
gustav
gustave
gustavo
gutenberg
gutie
guvie
guy
guyana
guyane
guyarati
guykuaa
guypegua
guyra
guyrajura
guyrakue
guyrami
guyrati
guyrau
guyryry
guzma
gv
gwen
gwyneth
gyan
gylfi
gyne
gyo
gyrana
gyre
gyrego
gyregoriopegua
gyresia
gyresian
gyro
gyula
h
ha
haa
hab
habana
haber
habiendo
habitantes
habla
habladores
hablantes
hablar
habri
habsburgo
hace
hacer
hacha
hacia
hacienda
haciendo
hack
had
hae
haedo
hag
haga
hagua
hague
haguekue
haguepa
haguere
hagui
haha
hahai
hai
haiambue
haicha
haichaite
haide
haiha
haiharakue
haikatu
haimbe
haimete
hainan
haipy
haipyra
haipyre
haite
haiter
haiti
haitiano
haity
hajygue
haka
hakamby
hakatu
hako
haku
hakua
hakue
hakuite
hakukue
hakumi
hakuve
hal
hale
half
hall
hallarse
halley
halloween
hama
hamba
hamburgo
hame
hamilton
hamlet
hamo
hampshire
han
hancock
handbook
hande
handle
handler
handlers
handlersk
handling
hank
hannah
hano
hans
hape
hapera
hapicha
hapichakue
hapo
hapokue
hapy
hapykue
hapykuere
hara
harakue
harald
harara
harare
harbor
hardware
hardy
hare
haro
harold
harper
harriet
harris
harrison
harry
hart
haru
harupi
harv
harvard
harvey
has
hasaha
hasan
hase
haserror
hassan
hassler
hasta
hasy
hasyete
hasyeterei
hasyeteve
hasyha
hasyite
hasykatu
hasykatuete
hasykatuvarerekua
hasypeve
hasyrerekua
hasyve
hat
hata
hateta
hati
hatnote
hatoum
haumea
hause
hava
have
haven
havi
haviju
having
havo
hawa
hawaiano
hawaii
hawking
hay
haya
hayden
hayes
hayhu
hazard
hbo
he
header
heading
headline
health
heart
heath
heavy
heber
hec
hecha
hechapyra
hechapyre
hecharamomby
hechas
hechauka
hechaukaha
hecho
hechos
hecta
hector
hedwig
hegui
hei
height
heightsk
heikatu
heindy
heinrich
heinz
heitor
heißt
hejapyre
heka
heko
hekoambue
hekoasa
hekoasakue
hekoha
hekohara
hekoite
hekojeremi
hekojoja
hekoka
hekokangy
hekokatu
hekokun
hekomara
hekombo
hekome
hekomymba
hekon
hekope
hekopegua
hekopete
hekopora
hekopoti
hekopy
hekopytu
hekora
hekorory
hekosa
hekotee
hekovai
hekove
hekoveapy
hekoveha
hekovekue
hekovepy
hekovese
hekovety
hekovia
helado
held
helecho
helechos
helen
helena
helio
heliobletus
heliornithidae
helios
helmut
help
helper
helptext
hembe
hembi
hembiapo
hembiapoita
hembiapokatu
hembiapokue
hembiapopora
hembiapora
hembiapovai
hembiasa
hembiasagua
hembiasakue
hembigua
hembihai
hembikuaa
hembipota
hembipuru
hembipurukue
hembipurura
hembireko
hembirekora
hemby
hembyre
heme
hemiandu
hemikoteve
hemimbo
hemimo
hemisorubim
hemisphere
hen
henares
henda
hendague
hendaite
hendakue
hendape
hendapegua
hendapy
hendive
hendivekue
hendrik
hendy
hendyry
heno
henonde
henondepe
henondepekue
henondera
henri
henrik
henrique
henry
henyhe
henyhete
henypy
hepatitis
hepburn
hepy
hepykue
hepyme
hepyve
her
hera
heraguapy
heraha
heraite
herajoapy
herakua
herakue
herara
heratee
herava
herbert
here
heredia
herencia
hering
heritage
herma
herman
hermana
hermanas
hermandad
hermann
hermano
hermanos
herme
hermenegildo
herminio
hermosa
hermoso
herna
hernandarias
hernando
hero
herodes
heroes
heroi
herramientas
herrera
herreri
herrero
herrmann
herschel
herusale
herval
herzog
hesa
hesaho
hesaite
hesaka
hesape
hesara
hesarairei
hese
hesegovi
hesegovina
hesegua
heseguakue
heseha
hesekue
hesekuera
heseve
hesse
hesu
hesui
hesuita
hesuitakue
hesukirito
hesukri
heta
hetaha
hetahetave
hetaichagua
hetaite
hetaitemi
hetaiterei
hetaitereirasa
hetaitereive
hetaiteve
hetajey
hetakue
hetamba
hetami
hetamive
hetateta
hetava
hetave
hetaveha
hete
hetekue
hetemi
hetepy
heterei
hetia
hetmanato
hetyma
hetymaeta
heung
heve
heyma
heyn
hg
hi
hidalgo
hidden
hiddencat
hide
hidra
hidro
hidroele
hidrografi
hielo
hierarchy
hierba
hierbas
hierro
high
higinio
higuai
hija
hijo
hijos
hiko
hikogua
hikope
hikua
hikue
hilado
hilario
hilda
hill
hilty
himala
himalaia
himalaya
himno
hina
hinchas
hindi
hindu
hinduista
hipe
hipo
hiragana
hiram
hirochi
hirohito
hiroshima
hirsch
hirving
his
hisopado
hispa
hispana
hispanic
hispanista
hispano
hispanoamericana
hist
histo
histoire
histologi
historia
historiador
historiadora
historiadores
historial
historias
historical
historietas
historietista
history
hit
hitanokue
hitchcock
hitler
hito
hivyrayta
hizo
hjelmslev
hl
hlist
hm
hms
ho
hoffmann
hoga
hogagua
hogakue
hogami
hogapy
hogara
hogaygua
hogayguakue
hogue
hoguekue
hohenau
hoi
hojas
hoke
hoko
hokusai
hoky
holanda
holandan
holande
hold
holden
holder
holding
holds
holland
hollywood
holocausto
holstein
hombre
hombres
home
homem
homenaje
homer
homero
homo
honda
hondo
honduras
honduren
hong
hongos
honor
honoris
hood
hook
hoover
hope
hopkins
hoplias
hopper
hora
horacio
horario
horas
horizon
horizontal
horizonte
horqueta
horror
horst
hory
horyta
horytan
horyve
hosa
hose
hosomi
hospital
hospitales
host
hostname
hotel
houghton
hour
hours
house
houseman
houston
hova
hovaiete
hovasapyre
hovy
hovykangy
hovyu
how
howard
however
hoy
hoyo
hr
hristo
hsb
hsi
ht
htm
html
htmlbuilder
htmlhttps
http
https
hu
hua
huang
huatl
huayca
hubble
hubert
hude
hudi
hudio
hudiokue
huerta
hueso
hueypoxtla
huge
hugh
hughes
hugo
hugua
huguy
huguyasuka
huguypa
huicoco
humaita
human
humana
humanas
humanidad
humanidades
humanista
humano
humanos
humberto
humboldt
humboldti
humby
humedales
humorista
hungri
hungyria
hunt
huntelaar
hunter
hupa
hupi
hupyty
hupytyra
hurley
hurst
hussein
hutton
hutu
huvicha
huvichanda
huxley
hwan
hwang
hy
hya
hyacinthinus
hyakua
hyapu
hye
hyeguasu
hyekue
hyepy
hyepygua
hyepype
hyepypegua
hyju
hyku
hykue
hykuere
hykuese
hyma
hymba
hyo
hypa
hyphen
hyphens
hypy
hyra
hysy
hyun
i
ia
iaka
iamusu
ian
iaquinta
iba
ibarra
ibars
ibe
iberoamericana
ibge
ibidem
ibis
ibn
ibrahima
ic
ice
ich
icha
ichagua
ichaha
ichaite
ichal
ichama
ichante
ichapa
ichape
ichapiko
icharamo
icharo
ichele
ichi
ichugui
ichuguikue
ichupe
ichupekue
icon
id
ida
idade
idaho
idcommon
ide
idea
ideal
ideas
idelguap
identacion
identical
identidad
identidadobrapremiada
identidadocupacion
identificacio
identificadores
identifier
identifiers
identify
ideologi
iderecho
idespecialidad
idespecializacion
idgrado
idh
idioma
idiomanombrenativo
idiomas
idlugar
idoyaga
idpais
idpremio
idpropiedad
ids
idx
idxformat
ie
iesus
iete
ietemi
ieterei
ieteve
ietf
if
ifnot
igatimi
iglesia
iglesias
ignacio
ignaz
ignorado
ignore
ignored
ignoreisbn
ignoreisbnerror
igo
igobierno
igor
igreja
igua
iguac
igual
iguarani
iguasu
iguasuve
iguata
iguazu
igui
iguy
iha
ihague
ihu
ii
iii
iivi
iiviguasu
ij
ija
ijachegety
ijaha
ijahi
ijahy
ijaipa
ijaju
ijaku
ijao
ijaokue
ijapaite
ijape
ijapekue
ijapo
ijapoha
ijapohare
ijapopy
ijapopyre
ijapu
ijapy
ijapyra
ijapyrape
ijapysa
ijapyte
ijapytekue
ijapytepekue
ijara
ijarakue
ijary
ijasu
ijasy
ijasykue
ijati
ijatu
ijatukupe
ijaty
ijatyha
ijavegua
ijavue
ije
ijeguaka
ijeguakapa
ijeguata
ijehai
ijehe
ijehechakuaa
ijehegui
ijeheguiete
ijeheguirei
ijeho
ijeiko
ijeikove
ijejapo
ijekopyty
ijepokuaa
ijeporu
ijepuru
ijere
ijerekue
ijerepa
ijerere
ijereregua
ijerovia
ijeroviaha
ijeroviakatu
ijeroviapy
ijerure
ijeskudo
ijetu
ijey
ijita
ijo
ijoguaha
ijoha
ijoja
ijojaha
ijokuaa
ijova
ijoyke
ijuehegua
ijupe
ijupevoi
ijuru
ijuruja
ijy
ijyke
ijykegua
ijykere
ijykeregua
ijypy
ijypykue
ijypykuekue
ijysaja
ijysajako
ijysajakuaa
ijysajarundy
ijysajatei
ijyta
ijyva
ijyvate
ijyvateha
ijyvatekue
ijyvateve
ijyvateveha
ijyvoty
ijyvy
ijyvyku
ijyvykue
ijyvyra
ijyvyrei
ijyvytee
ijyvyty
ik
ika
ikamby
ikamisa
ikan
ikane
ikangue
ikanguekue
ikangy
ikangyite
ikangyve
ikarapa
ikarape
ikare
ikaria
ikario
ikaso
ikate
ikati
ikato
ikatu
ikatuete
ikatuha
ikatuhag
ikatuhagua
ikatukuaa
ikatumi
ikatupyry
ikatupyryeterei
ikatupyryetereiha
ikatupyryha
ikatupyryite
ikatupyrykue
ikatupyryve
ikatutaha
ikatuva
ikatuve
ikatuvoi
ikavi
ikavigue
ike
ikeda
ikeke
ikema
ikemano
ikerana
ikerayvoty
ikiriri
iko
ikoe
ikokue
ikolo
ikorapy
ikoraso
ikoti
iku
ikua
ikuaa
ikuaandy
ikuaha
ikuatia
ikuatian
ikuatiapyre
ikue
ikuimba
ikun
ikunu
ikupe
ikuri
iky
ikypy
ikyra
ikyrakue
ikyre
ikyry
ikyvy
il
ila
ilandian
ildefonso
ile
ilha
ilhe
ilich
ilie
illandia
illinois
ilo
ilusio
ilustracio
ilustraciones
ilustrada
ilustrador
ilustre
ilustres
im
ima
image
imagealt
imagecell
imagecount
imagediv
imagefilename
imageleft
imagelink
imagelinks
imagem
imagen
imagenderecha
imageninferior
imagenizquierda
imagenl
imagensuperior
imagenumbers
imageparameters
imageright
images
imagesstring
imaha
imandu
imano
imanol
imara
imarandu
imarangatu
imarangatuve
imaro
imava
imba
imbaraka
imbarete
imbaretekue
imbaretete
imbareteve
imbate
imbe
imbo
imboguataha
imboka
imborayhu
imboriahu
imboriahuite
imboriahuve
imbovy
imbovyve
imbuku
imburuvi
imburuvicha
imburuvichara
imburuvichavete
imbyky
imbyte
imdb
ime
imeg
imemby
imembykue
imembykun
imembypota
imembyse
imen
img
imgstyle
imi
imichi
imimbi
imimi
imiri
imita
immanuel
imo
imoko
imombe
imombyry
imombyrykue
imombyryve
imomora
imonambimbyre
imoroti
imotenondeha
impacto
impe
imperativo
imperatriz
imperfecto
imperiales
imperialismo
imperio
imperium
implement
implementar
implements
impli
implicit
implict
import
importancia
important
importante
importe
imported
imposible
imprensa
imprenta
impresa
impresionista
impuesto
imuanduhe
imuanduhetei
in
ina
inactive
inaja
inambi
inandi
inarray
inaturalist
inc
inca
incidencia
incienso
include
included
includemetatable
includes
including
incluso
incluye
incluyendo
incorpora
incorrect
incorrectly
incorrecto
incorrectos
indalecio
indef
indefinitely
indent
independence
independencia
independent
independentista
independiente
indert
index
indexed
indexer
indi
india
indiagua
indiana
indiape
indias
indic
indica
indicadores
indicate
indicateur
indicator
indice
indigenista
indigenous
indio
indios
indirecto
indiri
indiscreta
indivi
individual
indo
indochi
indochina
indoeuro
indoeuropa
indoeurope
indoeuropeas
indoeuropeo
indone
indonesia
indonesio
indu
industria
industrial
industrias
industry
indy
indype
ine
inexistente
infancia
infanta
infante
infanteri
infantil
infantiles
infarto
infeccio
inferior
inferioridad
infierno
infinito
infinity
influencia
influenza
influyo
info
infobox
infoboximage
infoboxrank
informa
informac
informacio
informaciones
informado
informados
informar
information
informe
infraestructura
inga
inge
ingenieri
ingeniero
ingenio
ingenioso
inglaterra
ingle
inglen
ingles
inglesa
inglesn
inglyesn
ingo
ingrata
ingreso
ingue
inguepire
ingyate
ingyaterra
ingyaterragua
ingyaterran
inhtml
iniciacio
inicial
inicio
iniesta
inimbo
inimbongue
init
initial
initialise
initials
inka
inlanguage
inline
inmaculada
inmaterial
inmigrante
inner
ino
inocencia
inocencio
inocentes
inparentheses
input
inputs
insatisfechas
inscripciones
insecta
insecto
insectos
insensato
insensitive
insert
insertar
inset
insfra
inside
inspiracio
instagram
instalacio
instantes
instead
institucio
instituciones
institut
institute
institution
instituto
instruccio
instrumental
instrumentista
instrumento
instrumentos
int
inte
integer
integrante
intelectual
inteligencia
intellectual
intend
intended
intendencia
intendente
intensivo
intenta
intento
inter
interamericana
intere
interino
interior
intermedio
intermitente
internacional
internacionales
internacionalmente
internal
internallinkid
international
internationalization
internazionale
interne
internet
internetarchivebot
interno
interpretacio
interrogativa
interview
interviewer
interviewerlist
interviewers
interwiki
intestino
intimacio
into
intro
introblurb
introduccio
introduction
introfragment
inundacio
inutytu
inv
inva
invalid
invasio
inventor
inventos
invert
invertebrados
inverted
investigacio
investigaciones
investigador
invicto
invictus
invisible
invocation
invoke
io
ion
iowa
ip
ipa
ipaha
ipahague
ipahaite
ipahape
ipahapegua
ipairs
ipaite
ipaje
ipapyeta
ipapytei
ipara
ipasu
ipave
ipe
ipegua
ipehe
ipehenguekue
ipeju
ipekue
ipenga
ipepo
ipereri
ipetei
ipi
ipiakotia
ipiapotaa
ipiko
ipira
ipirapire
ipirapireheta
ipire
ipirehu
ipirekue
ipiresa
ipirevai
ipiro
ipiru
ipo
ipochy
ipochyeterei
ipoguasu
ipoguasuve
ipoguy
ipoha
ipohy
ipohyikue
ipohyive
ipoja
ipojera
ipoka
ipokatu
ipokatuve
ipopekue
ipopi
ipora
iporavopyre
ipore
iporoguirovia
iporokua
iporomboe
ipoti
ipoty
ipotykue
ipotypa
ipoyvi
iprima
ipu
ipuere
ipuereta
ipuha
ipuku
ipukueterei
ipukuite
ipukuiterei
ipukukue
ipukuve
ipurahe
ipuraheikue
ipuru
ipuruha
ipv
ipy
ipya
ipyahu
ipyahuete
ipyahuve
ipyape
ipyapy
ipyenda
ipyko
ipykue
ipype
ipypore
ipypuku
ipyre
ipysa
ipyta
ipyti
ipytu
ipytuhe
ipytyvo
iquitos
ir
ira
irak
iraka
irala
iramo
iran
irani
iraqui
irbid
ird
ire
ireko
ireland
irene
iri
irila
irilandagua
irlanda
irlande
irlandesa
irma
iro
irons
irra
irraza
iru
irundy
irundyha
irundyjoja
irundykejoja
irundykejojaty
irundypa
irundyrundy
irundysa
irundyve
iruru
iruvicha
iruvichaite
irving
irwin
is
isa
isaac
isabel
isabelle
isai
isapy
isaraki
isarambi
isarambipa
isasi
isaso
isbc
isbn
isbncorrecto
isbnincorrecto
isbnsugerido
ise
iseha
isembedded
ishir
isidoro
isidro
isl
isla
islam
island
islande
islandesa
islandia
islands
islas
ismael
ismn
isn
isnegative
isnotempty
iso
isodd
isplaceholder
isplain
isprotected
israel
israeli
issa
issn
issue
ista
istanbul
istemporary
istyle
isu
isxn
isy
isyva
it
ita
itabera
itabo
itacurubi
itagecha
itagua
itaguigua
itaimbeguasu
itaipu
itaita
itaju
itajy
itakandua
itakaru
itaku
itakua
itakue
itakura
itakuruvi
itakyra
itakyry
italia
italiagua
italian
italiana
italiano
italic
italics
italo
itamaraty
itamembeyku
itanara
itape
itapiru
itapu
itapua
itapy
itara
itarare
itaruma
itasa
itati
itaty
itau
itaugua
itava
itavaguasu
itavakue
itavarandu
itavayguakue
itavera
itaverati
itavusu
itavusukue
itavusura
itavy
itay
itaygua
itaysy
ite
iteha
itekomboe
itekua
item
itemi
itemid
itemlinkstr
items
itenonde
itenondeve
iterator
itere
iterei
itereigui
itereirasa
iteva
iteve
iti
itia
itie
ito
its
itu
ituicha
ituichaite
ituichaiterei
ituichakue
ituichave
ituja
itujave
ituju
itupa
iturbe
ituva
ituvakue
ity
ityaro
ityke
ityre
ityvy
ityvyra
ityvyta
itza
iu
iucn
iucnredlist
iv
iva
ivagui
ivai
ivaiete
ivaieterei
ivaive
ivan
ivanov
ivape
ivare
ivary
ivate
ive
iveha
ivi
ivica
iviru
ivo
ivoi
ivoire
ivor
ivore
ivy
ix
iy
iyipi
iyla
izaguirre
izquierda
j
ja
jaber
jabiru
jacinta
jacinto
jack
jackie
jackson
jacob
jacobo
jacobus
jacopo
jacqueline
jacques
jae
jaeko
jaema
jagua
jaguakue
jaguakun
jaguane
jaguapehe
jaguapy
jaguapyta
jaguar
jaguarete
jaguareteru
jaguareterusu
jaguareteti
jaguariai
jaguaru
jaguarundi
jaguata
jaguatami
jaguaveve
jagueraha
jaguereko
jaguerovia
jagueru
jaha
jahai
jahaikuaa
jahasa
jahave
jahayhu
jahe
jahecha
jahechaha
jahechakuaa
jahechakuaaha
jahechami
jahecharamo
jahechauka
jahechava
jaheja
jaheka
jahekombo
jaheky
jahero
jaho
jahuha
jahupyty
jai
jaike
jaiko
jaikoha
jaikove
jaikuaa
jaikuaaha
jaikuaami
jaikuaapora
jaikuaase
jaikuaava
jaime
jain
jaipapa
jaipe
jaiporavo
jaiporu
jaipota
jaipotaha
jaipuru
jaipuruha
jaipurukatuva
jaipurukuaa
jaipurukue
jaipururo
jaipuruva
jaipyhy
jaipyku
jair
jairo
jairzinho
jaisu
jaity
jaja
jajapo
jajapova
jajavy
jajeheky
jajepy
jajepytaso
jajesareko
jajesarekopora
jajo
jajoko
jaju
jajuhu
jajuhukuaa
jajupi
jaka
jakaira
jakakuaa
jakarati
jakare
jakaru
jakavere
jake
jakob
jakobson
jaku
jakub
jalisco
jaltenco
jamaica
jamaicano
jambon
jame
james
jamhuri
jamie
jan
jandaya
jane
janeiro
janet
jangada
january
japa
japan
jape
japepo
japeusa
japeusaroto
japo
japoi
japoko
japokokuaa
japone
japonesa
japopapyre
japopyre
japu
japugua
japurahe
japusa
japyhy
japyta
japytu
jar
jara
jarara
jardi
jardim
jardins
jare
jared
jareko
jaro
jary
jason
jasuka
jasy
jasyapy
jasyko
jasykue
jasypa
jasypako
jasypatei
jasypo
jasypoapy
jasypoko
jasyporundy
jasypotei
jasyrundy
jasytata
jasytei
jataity
jate
jatere
jatevu
jatopa
jatyta
jau
jaula
jaume
java
jave
javegua
javeve
javevy
javevyirana
javier
javiru
javora
javy
jay
jayme
jazeera
jazz
jdn
jdz
je
jean
jeanette
jeanne
jedinak
jefe
jefes
jeff
jefferson
jeffrey
jegua
jeguaka
jeguakara
jeguata
jeguatara
jegueraha
jeguereko
jeguerohory
jegueroviapy
jegueru
jehai
jehaikue
jehaipy
jehaipyre
jehaira
jehapejoko
jehasa
jehasaha
jehayhu
jehe
jehecha
jehechakapyra
jehechakuaa
jehechapyra
jehecharamo
jehechauka
jehechaukara
jeheka
jeheky
jehepyme
jehere
jehero
jeho
jehupytyra
jei
jeike
jeikeha
jeiko
jeikogua
jeikoha
jeikopora
jeikove
jeikovejey
jeikuaave
jeikuaaveva
jeipapa
jeipuru
jeity
jeja
jejahe
jejahuha
jejapo
jejapopyre
jejoka
jejoko
jejokua
jejopy
jeju
jejuhu
jejui
jejuimi
jejuka
jejukaha
jeka
jekaru
jekarurendagua
jeke
jeko
jekoae
jekopyty
jekopytyjoja
jekoraka
jekove
jekuaa
jekuaauka
jekuae
jekuaen
jekupyty
jekupytyha
jekupytyra
jekutu
jeme
jenaro
jenkins
jenner
jennifer
jens
jensen
jepapa
jepe
jepeve
jepi
jepia
jepigua
jepive
jepivegua
jepo
jepoko
jepokuaa
jepokuaagua
jepokuaapyre
jepopete
jeporavo
jeporavopyre
jeporeka
jeporu
jeporura
jepovyvyha
jepuru
jepy
jepyaha
jepyhe
jepyso
jepytaso
jepytu
jera
jere
jeregua
jerekue
jeremy
jereraha
jerere
jereregua
jerereko
jermaine
jero
jeroky
jerokyha
jerokyra
jeromandu
jerome
jerova
jerovia
jeroviaha
jeroviajerovu
jeroviakatu
jeroviapy
jeroviapykue
jerry
jersey
jerure
jerusale
jeruti
jesareko
jesarekopyra
jesse
jessica
jesu
jesucristo
jesui
jesuita
jesuitakue
jesuitas
jesus
jet
jeta
jetapa
jetepyso
jetepysoha
jetu
jety
jeva
jeveve
jevy
jey
jeyma
jeyva
jeyve
jfm
jha
ji
jico
jiko
jim
jimbu
jime
jimmy
jin
jinete
jir
jo
joa
joachim
joaite
joaju
joajueta
joajugua
joajuha
joajuhaite
joajukatu
joajukatuete
joajura
joajutei
joan
joana
joao
joapy
joapyete
joapykuaa
joapykue
joaqui
joaquim
joaty
joatykue
joavy
joayhu
jobim
jobs
joe
joel
joey
jogapo
jogapokuaa
jogapokuaaha
jogapopyre
jogo
jogua
joguaha
joguerahavia
johan
johann
johannes
johannesburgo
johe
joheipyre
john
johnny
johns
johnson
johnston
johr
joie
join
joiner
joinnode
joja
jojaha
joko
jokoha
jokora
jokoropi
jokua
jokuae
jokuaikuaa
jokuaikuaaha
jokuairape
jokupyty
jokupytyra
jon
jonas
jonasson
jonathan
jonavos
jones
jong
jopara
jope
jopi
jopo
jopoikue
jopyhy
jorda
jordan
jordi
jorge
jornal
jose
josef
josefa
josefina
joseon
josep
joseph
josh
josip
josopy
josopyre
jotopa
journal
jova
jovake
jovellanos
jovem
joven
jover
joy
joyke
joyvy
jozef
jp
jpeg
jpg
jr
json
jsp
jspui
jstor
ju
jua
juan
juana
juanita
juanito
juasa
juayhu
judas
judea
judi
judicial
judith
judy
juego
juegos
juehegua
jueheguakue
jueheguasa
jueheguaty
juehepehe
juez
jugador
jugadora
jugo
jugola
juhu
juhuha
juicio
jujuy
juka
jukaha
juky
jukyry
jukysy
jul
jules
julia
julian
juliana
juliano
julie
julieta
julio
julius
july
jun
june
jung
junga
juni
junio
junior
junta
junto
jupi
jupiha
jupiter
jurado
juranda
juri
jurisconsulto
jurisdiccio
jurista
juru
juruaysy
jurugua
jurumi
jurumo
jurupe
just
justice
justicia
justin
justo
jusu
juty
juvenil
juventud
juvicha
juzgado
jy
jyva
jyvanga
jørgensen
k
ka
kacha
kachi
kachike
kachique
kaczyn
kafe
kaferyru
kafka
kagawa
kagua
kaguy
kaguyjy
kahlo
kai
kaigue
kaiser
kajeta
kaka
kakapo
kakua
kakuaa
kakuaava
kakuaave
kalama
kalendo
kali
kalifo
kaliningrado
kalkuta
kallsen
kalo
kalou
kamba
kambe
kambo
kambojan
kambuchi
kamby
kame
kameru
kamio
kamisa
kampa
kan
kanada
kanata
kanda
kandil
kandu
kane
kangu
kangue
kanguekue
kanguemimi
kangy
kangymi
kaninde
kanindeju
kanji
kano
kanoa
kansas
kant
kanta
kanu
kaoru
kape
kapi
kapiata
kapilla
kapita
kapu
kara
karaganda
karaguata
karaguataty
karaguatay
karai
karaiguasu
karaikue
karain
karaja
karajao
karakara
karakaru
karaku
karameg
karamegua
karanda
karao
karapa
karape
karapegua
karapeha
kare
karen
kari
karia
karib
karim
karimbata
karin
karina
karive
karl
karmeli
karol
karolina
karre
karrero
karro
karu
karugua
karuguaha
karuguakue
karuguasu
karuha
karumbe
karura
kasa
kasahita
kasi
kaska
kaso
kastilla
kasu
kata
katala
katalu
katalun
kate
kategori
kategoria
kategorie
kategorija
kategorio
katemandu
katharine
katherine
kathleen
kathmandu
kathryn
kati
katlego
kato
katowice
katu
katuete
katuetei
katuha
katui
katupy
katupyete
katupyry
katupyryete
kava
kavaju
kavara
kavi
kavichu
kavure
kay
kazajista
kazimierz
kazımova
ke
kechuan
keep
kegua
keisuke
keith
keiya
keller
kelley
kelly
kemal
ken
kena
kendall
kenia
keniano
kennedy
kenneth
kenny
kentucky
kepe
kera
kerana
kerayvoty
kere
kerkhof
kern
kese
kesu
kev
kevin
key
keynes
keypos
keys
keyword
keywords
kg
khalid
khalifa
khan
khedira
ki
kia
kianunga
kichiha
kids
kierkegaard
kiev
kigali
kike
kiko
kikongon
kilo
kilogara
kilogramo
kilometro
kilyikhama
kim
kimi
kimiko
kimikuaa
kimura
kin
kina
king
kingdom
kio
kipling
kirby
kirchner
kire
kiri
kiribati
kirigita
kirikiri
kirime
kiriri
kirito
kiriva
kirk
kiro
kiss
kita
kiveve
kjetil
kk
klaas
klaus
klein
klinsmann
klose
klu
kluicha
km
kmata
know
knowles
known
ko
koa
koch
kochiu
kocho
koe
koga
kogakue
kogua
koichagua
koichiro
kojo
kokatu
kokatuguigua
kokatuvusu
koke
koki
koku
kokue
kokuepegua
kokuere
kol
koli
koller
kolo
kolombia
kolumbia
kombutado
komi
komo
komuni
komunidad
komunistakue
konakri
konfu
kong
kongo
konrad
konsierto
konstantinos
kontanti
kopa
kope
kopenihage
kora
korapy
koraso
kordille
kordillera
kore
korea
korean
koreape
koro
korochire
koronavi
koror
kororo
kos
kosereva
kosovo
kosta
koteve
kotte
koty
kotyguahe
kotyguasu
kotykaruha
kotykeha
kotykue
kotyo
kov
kova
koyama
koygua
kra
kramer
krankl
kraus
krio
kristia
krivoshein
krol
kroos
ksh
ktor
ku
kua
kuaa
kuaaha
kuaandy
kuaapave
kuaapora
kuaapy
kuaapyhy
kuaapyra
kuaara
kuaareka
kuaaty
kuaatyguigua
kuaatyha
kuaaukaha
kuaave
kuae
kuaha
kuairo
kuairu
kuala
kuarahy
kuarahyreike
kuarahyreikegua
kuarahyrese
kuarahyse
kuaray
kuarepoti
kuarepotiata
kuarepotiti
kuaru
kuati
kuatia
kuatiahai
kuatiahaiha
kuatiahaikue
kuatiahaipyre
kuatiakatu
kuatiakue
kuatian
kuatiapyre
kuatiarogue
kuatiaroguekue
kuatiaveve
kuatirana
kublai
kue
kuehe
kuera
kui
kuimba
kuimbe
kuiper
kultivo
kumanda
kun
kunayo
kundaha
kundt
kundy
kunu
kunumi
kuomintang
kupe
kupy
kupyju
kura
kurahyrese
kurapepe
kurdo
kure
kuri
kuriju
kurt
kuru
kurugua
kuruguakua
kuruguaty
kuruguatygua
kurundu
kurupa
kurupi
kururu
kurusu
kurusurape
kuruvi
kusugue
kutaisi
kutiyattam
kutu
kuva
kuvuasu
kuwait
kuwaiti
kuyaba
kwame
ky
kya
kygua
kyha
kyhyje
kyiv
kyja
kykyo
kyoa
kyoasia
kyoasian
kyoe
kypy
kyra
kyrakue
kyre
kyry
kyse
kysepuku
kyta
kyti
kyu
kyve
kyvy
l
la
lab
label
labeldiv
labelformat
labels
labor
laboratorio
labores
labrador
lac
lacalle
lacerda
lacroix
ladeira
laden
ladislao
lado
ladrillo
lady
laga
lagerenza
lago
lagoa
lagos
lagua
laguna
lahm
laing
lajos
lake
laku
lalo
lama
lambare
lambreado
lampia
lampreado
lana
lanacion
lancaster
lance
lancha
land
landa
landon
landsteiner
lane
lang
langcode
lange
langlist
langswitch
language
languages
lanka
lanza
lanzador
lanzamiento
lao
laos
lapacho
lape
lapiz
lar
lara
lares
larga
large
largo
lari
laringotraquei
laringotraqueo
laringotraqueobronquitis
larrosa
larry
lars
larsson
las
lasagna
lasion
last
lastauthoramp
lastfirst
lastfirsttable
lasthtml
lastn
lat
late
later
lateral
laterza
lati
latin
latina
latinan
latino
latinoame
latinoamericana
latinoamericano
latinos
latitud
latitude
lato
laudo
laudrup
laura
laurel
laureles
lauren
laurence
laurent
laurie
lautrec
lava
lavalleja
lavigne
law
lawrence
lay
laydate
laysource
layurl
lazcano
lazily
lb
lbum
lbumes
lc
lccn
ld
le
lea
lead
leading
league
leal
leandra
leandro
leap
leary
least
leave
lebre
lech
leche
lector
lectores
lectura
ledesma
ledger
lee
left
legacy
legado
legal
legales
legend
legislativo
legua
leguas
leguizamo
lehm
lehmann
lei
leibniz
leigh
leiguasu
leikue
leila
leiva
lejana
lek
lema
lemai
lembu
lemos
len
lena
length
lengua
lenguaguarani
lenguaje
lenguas
lenin
leningrado
lennon
lent
leo
leon
leona
leonard
leonardo
leone
leonel
leones
leonor
leopard
leopardus
leopold
leopoldo
leoz
lepidocolaptes
leporinus
lera
leroy
les
lesia
leslie
leso
lesotho
lesoto
less
lester
let
leticia
leto
leton
letona
letra
letras
letrista
letter
letterdigit
letterpos
letters
leu
lev
leve
level
levels
levi
levy
lewandowski
lewis
lex
lexico
ley
leyenda
leyendas
leyes
lez
lezcano
lgara
lgaro
lgica
li
lia
liagua
liam
lian
liao
liape
libane
liberal
liberalismo
liberato
liberdade
liberia
libero
libertad
libertadores
liberty
libia
libra
librar
libraries
library
libraryutil
libre
libres
libretista
libreville
libro
libros
lic
lica
licas
licencia
licenciada
licenciado
licenciamiento
licencias
licenciatura
license
liceo
lico
licos
lida
lides
lidia
lido
lidos
lie
liechtenstein
liechtensteiniano
liechytentei
life
liga
light
ligilla
liguria
lika
like
liko
lili
lilia
lilian
lillian
lilly
lilongue
lily
lima
lime
limit
limitada
limited
limo
limoy
limpio
lin
lina
linares
lince
lincoln
linda
lindo
line
linegrey
lineker
lines
linfa
lingu
linguistic
linguistics
linha
link
linkback
linkbold
linke
linked
linkn
links
linkstr
linktype
linneo
lino
lins
linux
lio
lion
lionel
lirio
lis
lisa
lisboa
lisi
lisimba
lisis
list
lista
listado
listas
listcell
listed
listnum
listparam
lists
liststyle
liststyletype
listtotext
listtype
lita
lite
literal
literaria
literario
literato
literatura
lito
litocolor
litoral
littbarski
little
litua
lituan
lituana
lituania
lituano
liu
liujiang
liv
live
liverpool
liveweb
livia
livieres
living
livio
livro
lix
lixus
liz
ll
lla
llaga
llama
llamada
llamado
llamas
llanto
llanura
lle
llegar
llengues
llepe
ller
llevo
llo
llobregat
llorar
llorenc
llorente
llosa
lloyd
llui
lluvia
lmo
ln
lo
load
loaddata
loaded
loading
lobato
lobito
lobo
lobos
loc
local
localdata
localizacio
localized
located
location
lock
locke
loco
locomotora
locro
locucio
locutor
lof
log
loga
logged
login
logo
logobject
logos
logosdictionary
logout
loizaga
lola
lolo
loma
lomas
lombardi
lombardo
lomita
lon
london
londres
londrina
londye
long
longer
longitud
longitude
look
looking
looks
loop
lope
lopes
lopez
lora
lorca
lord
lorena
lorenzo
loreto
loro
los
losada
lost
lota
loteri
lotes
lothar
lottigna
lou
louco
louis
louise
lourdes
lourenc
louvre
love
lovera
lower
lowercase
lowie
loyola
lozano
lpe
lpg
lson
lt
lta
ltd
ltica
ltico
ltiko
ltima
ltimas
ltimo
ltimos
lu
lua
luaargs
luana
luca
lucas
lucero
lucha
luchador
luchadora
luchi
lucho
luci
lucia
luciana
luciano
lucien
lucio
lucy
ludovico
ludwig
luego
lugano
lugar
lugareducacion
lugarenlazado
lugares
lugo
lui
luigi
luis
luisa
luisiana
luiso
luiz
luiza
luka
lukaku
lukas
luke
lula
lumie
lumpur
luna
lupus
luque
lustig
lustosa
lute
lutero
luther
lutra
luxemburg
luxemburgo
luxemburgue
luz
lv
lvares
lvarez
lvaro
lvez
ly
lyle
lynch
lynn
lynx
lyon
lyra
lə
m
ma
mab
mabel
mabue
mac
macaw
macbeth
macchi
macedo
macedonia
macedonio
maceio
macerado
machado
machai
machete
machu
maciel
macmillan
maco
macropomum
maculatus
mad
madagascar
madalena
madame
maddie
made
madeira
madeleine
madera
maderas
madero
madge
madison
madrazo
madre
madrejo
madres
madrid
mae
maestra
maestranza
maestri
maestro
mafia
mag
magalha
magallanes
magazine
magda
magdalena
magellanicus
magere
maggie
magia
magic
magistrado
magistratura
magma
magna
magnate
magni
magno
magnus
mago
magua
magui
maguire
maha
mahal
mahatma
mahe
mahoma
mai
maia
maicon
maidana
mail
mailing
mailinglist
maimbe
main
maincolor
maine
mainpage
mainsnak
maint
maintenance
maintenancecat
mainumby
mainz
maio
maior
mais
maite
maitei
maiteipaha
maiz
maja
majakue
majestad
major
maka
makakue
makatu
make
makebannertext
makecategorylink
makefullurl
makeinvokefunction
makelist
makemake
makemessagebox
makes
makewikitexterror
making
mako
maku
makuri
mal
mala
malabo
malacologi
malasia
malaui
malavar
malayo
malaysia
malcolm
maldivas
maldonado
male
malhac
mali
mallo
mallorca
mallorqui
malo
malsabidillo
malta
malte
malu
malvezzi
malvi
malvina
mama
mame
mami
mammal
mammals
mamo
mamore
mamove
man
mana
manaos
manaus
mancha
manchete
manchu
mancuello
mandagaka
mandamientos
mandari
mandatario
mandato
mandela
mandi
mandioca
mando
mandu
mandua
manduvi
manduvira
mandyju
mandz
mane
maneco
manejados
manera
manet
manga
mangaka
mangapy
mangapykuaa
mangara
mangore
mangu
manha
manhattan
mani
manifiesto
manihot
manjui
mann
mano
manoel
manolito
manolo
manora
manos
manta
mante
mantegna
mantel
manterei
manteva
mantiqueira
mantra
manu
manual
manually
manuel
manuela
manuscrito
many
manzana
mao
map
mapa
mapas
mapcarta
mape
maplink
maplist
mapping
maps
maptype
mapuche
mapurl
maqueta
maquinarias
mar
mara
maradona
maramo
maran
marandeko
marandu
marandugua
maranduha
marandukuatia
marandukue
marandumi
marandumyasa
marane
marangatu
marangatuete
marangatukue
marangatura
maranha
marati
maravichu
maravillas
marc
marca
marcas
marcel
marcela
marcelino
marcelle
marcello
marcelo
march
marcha
marcia
marcial
marciales
marco
marcos
marcus
mare
marea
marecos
marfil
marfilen
margaret
margarita
marge
margen
margin
marguerite
marguments
mari
maria
mariana
mariano
maricotinha
marido
maridos
marie
marilyn
marin
marina
mariner
marino
marins
mario
marion
mariposa
marisa
mariscal
marius
marjorie
mark
marker
marko
marks
marksize
markup
markus
marlene
maro
marouane
marque
marques
marquette
marrakech
marro
marroqui
marrue
marruecos
mars
marsal
marsh
marshall
marta
marte
martel
martha
marti
martin
martina
martinez
martins
marvin
marx
mary
maryland
marzo
mas
masa
masakaragua
mascada
masculino
masendo
masendon
masi
mask
maskn
masko
maskoy
mason
massa
massachusetts
massafera
massaro
massimo
master
mat
mata
matar
match
matchany
matchanylink
matches
matchflag
matching
mate
matema
mateo
materia
material
materiales
materias
mateus
math
mathias
mathis
mati
matilde
mato
matos
matriculacio
matrimoniales
matrimonio
matsuura
matt
mattha
matthew
matthews
matthias
matto
mau
maua
mauer
maureen
mauri
maurice
mauricio
maurita
mauritania
mauro
mava
mavave
mavka
mavoi
max
maxarg
maxdepth
maxdiff
maxi
maxime
maximiliano
maximum
maxnodes
may
maya
mayans
mayer
mayma
maymaite
maymavaite
maymave
maynard
mayndi
mayo
mayor
mayordomo
mayori
mays
maysa
mayu
maza
mazo
mazzola
mb
mba
mbaavi
mbae
mbaenunga
mbaeti
mbaetitako
mbaha
mbaipy
mbaite
mbaiteva
mbaja
mbajakue
mbajepe
mbaracayu
mbaraka
mbarakaja
mbarakajarundi
mbarakaju
mbarakapu
mbarara
mbaraviki
mbarei
mbarete
mbareteha
mbareteite
mbaretekue
mbaretepyte
mbaretete
mbareteva
mbareteve
mbatovi
mbe
mbegue
mbegueha
mbeguekatu
mbeguekatumi
mbegueve
mbejingo
mbeju
mbelise
mbeni
mberu
mbi
mbia
mbiape
mbichy
mbigua
mbik
mbiru
mbisa
mbito
mbmix
mbo
mboacipa
mbocayaty
mboguataha
mbogueha
mbohapemoko
mbohapy
mbohapyha
mbohapyjasy
mbohapypa
mbohapysa
mbohapysu
mbohapyve
mbohasa
mbohasaha
mbohasapyre
mboheha
mboheta
mbohoryha
mbohova
mbohovake
mbohupa
mbohupakue
mboi
mboikue
mboipy
mboja
mbojegua
mbojerekatu
mbojo
mbojoaju
mbojoja
mbojojaha
mbojuaju
mboka
mbokaja
mbokajaty
mbokakue
mbokapoha
mbokapu
mbokapuha
mbokapura
mbolo
mboparaha
mbopi
mbopu
mbopuha
mbopuvaaty
mborayhu
mborayhugui
mborayu
mbore
mborevi
mboriahu
mboriahukue
mboriahumi
mboriahuve
mborokuai
mborokuaijai
mborookuai
mbota
mbotia
mbotove
mbotuicha
mboty
mbotyha
mboveveha
mbovy
mbovymi
mbovyve
mboy
mboypy
mboyve
mboyvegua
mboyveguaite
mboyveguaiteve
mboyveguandaje
mboyveguapuku
mboyveguaramo
mboyvemi
mbpairs
mbselect
mbu
mbuake
mbue
mbuja
mbujape
mbukare
mbuku
mburika
mburikarana
mburukuja
mburune
mburuvi
mburuvicha
mburuvichakue
mburuvichapave
mburuvichara
mburuvicharape
mburuvichavete
mburuvichavy
mburuviha
mbusia
mbusu
mbuta
mbutuy
mbuyapey
mby
mbya
mbyai
mbyasy
mbyatyha
mbyguai
mbyguaikue
mbyha
mbyhy
mbyhyha
mbyhykuaa
mbyhymi
mbyhyra
mbyhyse
mbyhyva
mbyja
mbyjaita
mbyjajere
mbyjajerety
mbyjakuaa
mbyjakuaaha
mbyjakue
mbyjaty
mbyju
mbyky
mbykyha
mbykymi
mbykymimi
mbype
mbypora
mbyre
mbyry
mbyte
mbyteafrikagua
mbyteame
mbytegua
mbytepe
mbytepegua
mbytere
mbytete
mc
mcal
mcauley
mcbride
mccarthy
mccartney
mccormick
mccoy
mcgrath
mcgraw
mclaren
md
mdccxxii
mdy
me
meade
mean
means
meazza
mec
meca
mecanismo
mecklemburgo
med
meda
medalla
medeiros
medel
medelli
medes
media
mediawiki
medicina
medicinales
medicine
medida
medieval
medina
medio
medios
mediterra
medium
medlineplus
medo
megadyptes
megamix
megan
megua
mehikogua
mehmed
mehmedi
mehmet
meine
meio
meireles
meister
meji
mejor
meka
meki
meknes
mekong
meku
mel
melancholie
melancholiebot
melanie
melanotis
melbourne
melchor
melgarejo
melhores
melia
melilla
melissa
mellberg
mello
melo
melodi
member
members
memby
membykua
membykue
membykun
membyn
membyra
membyryru
membyse
meme
memete
memo
memoized
memoria
memoriaglobo
memorial
memorias
memphis
men
mena
menara
mencio
menda
mendes
mendonc
mendoza
mene
menem
menes
menino
menno
meno
menonita
menonitas
menor
menos
mensaje
mensajes
mensu
menta
mental
mente
mentiras
menu
mercado
merce
mercedes
mercer
mercosur
mercurio
mercury
meredith
mereles
mergeargs
meridiano
meridional
merkel
mero
meros
merriam
mertens
mes
mesa
mesacceso
meses
mesmo
mesopota
mesquita
message
messages
messageskey
messi
mestizaje
mestizo
mestre
mesut
met
meta
metaargs
metaargskey
metadata
metafi
metal
metatable
metei
meteorito
meteoro
meteorolo
methods
metraux
metro
metropolitana
metropolitano
metros
metynnis
meu
meve
mexicana
mexicano
mexico
meyer
mez
meza
mezenga
mezzosoprano
mg
mi
mia
miama
miamar
miami
mica
micas
michael
michel
michelangelo
michele
michelle
michi
michigan
michimi
michoaca
michy
mick
mickey
mico
micos
micronesia
microsoft
mics
middle
mide
mides
mie
miel
miembra
miembro
miembros
miers
might
migliorisi
migracio
migratoria
miguel
miguela
miha
mihajlovic
mija
mijai
mika
mike
mikel
miko
mikyone
mil
mila
milagres
milagro
milagros
milan
milanesa
mile
milenio
miles
miley
mili
milikokue
militante
militar
militares
military
mill
milla
miller
millington
millo
millones
mills
milos
milton
miltos
mim
mimbi
mimbuku
mimby
mimi
min
mina
minas
minatogawa
mindiff
mine
mineral
minerales
ming
minga
minh
minha
mini
miniaturadeimagen
ministe
ministerio
ministra
ministro
minnesota
minor
minus
minute
minutes
minuto
minutos
mio
mir
mira
mirador
miraglia
miranda
mirar
miri
mirim
miro
miroslav
mirra
mirta
mis
misa
miscela
misio
misionera
misionero
misiones
misisi
misisipi
misma
mismo
miss
missing
mississippi
misso
missouri
misterio
misu
misuri
mit
mita
mitakun
mitchel
mitchell
mite
mites
mito
mitolo
mitologi
mitos
mitre
miva
mive
mix
mixed
mixer
miyazaki
mk
ml
mlle
mm
mmmm
mnibus
mo
moa
moaka
moambueha
moan
moandu
moaranduha
moc
moctezuma
mod
moda
modas
mode
model
modelo
modern
moderna
modernismo
moderno
modesto
modificar
modified
modo
modos
modric
modulada
module
moduledata
modules
moduloformatotexto
modulopaginas
modulotablas
modulowikidata
modulowikidataformatos
mogi
moha
mohamed
mohammed
mohen
mohenda
mohu
moi
moiru
moise
moko
mokoi
mokona
mokunu
molas
molay
moldavia
moldova
mole
molie
molina
molinas
moliniers
molino
momarandu
momaranduha
momarandupora
momba
mombarete
mombareteve
mombary
mombaryryru
mombe
mombyry
mombyryete
mombyrykue
mombyryve
momento
momentos
momichi
momora
momy
momyiha
mon
mona
monaco
monarqui
moncho
monda
mondaha
monday
monde
mondo
moneda
monedas
monegasco
monei
mongakuaa
mongarai
monge
mongelo
mongelos
mongo
mongol
mongolia
mongoloha
mongoraha
mongu
monica
monjardim
monje
mono
monografi
monroe
monsen
monsieur
monstruo
montan
montana
montani
monte
monteiro
montene
montenegro
montero
monterrey
montes
montevideo
montgomery
month
months
monti
montmorency
montoya
montreal
montt
monumento
moo
moon
moore
mopu
mora
moraes
morais
moral
morales
morangu
more
moreargumentsexist
moreira
morel
morelos
morena
moreno
moresby
morfologi
morgan
mori
morientes
morir
mormo
moro
moroni
moroti
morra
morrer
morris
morrison
morro
morte
mos
mosa
mosambi
mosambike
mosca
moscu
mosku
mosqueira
mosquito
most
mostly
mostrar
mostrarcalendario
mosuku
mosusu
mota
mote
motei
motem
motenondaha
motenondeha
motepa
mother
motivo
moto
motociclismo
motociclista
motor
moulin
moulins
mount
mountain
moura
mouse
moussa
move
moved
movements
moves
movie
movimiento
moynda
mozambique
mozart
mozilla
mozo
mp
mphela
mpia
mpico
mr
ms
msg
msgkey
msnm
msterdam
msw
mt
mtabletools
mtl
mtx
mu
mua
muamua
muanduhe
much
muchachita
muchas
mucho
muchos
mudo
mueble
muere
muero
muerte
muerto
muestra
mugabe
muhammad
mujer
mujeres
mujica
mulher
mulheres
mulo
multichill
multiple
mumba
mun
mundial
mundo
mundofox
mundos
muni
munichi
municio
municipal
municipalidad
municipio
municipios
muntari
murad
mural
muralla
murcia
murcie
murdoch
murillo
murilo
murio
muro
murphy
murray
musa
musaro
musas
muse
museo
museos
museu
museum
music
musica
musical
musicales
musico
musso
mussolini
must
mustafa
mustang
musulma
muy
mw
mwfunck
mx
my
myaka
myan
myangeko
myasa
myatyro
mycteria
mydate
myengoviaha
mykure
mymba
mymbachu
mymbajuka
mymbakandu
mymbakeha
mymbakue
mymban
mymbarenda
mymbaty
myriam
mysql
mytu
mz
n
na
naa
naamee
nacer
nacho
nacido
naciera
nacimiento
nacio
nacional
nacionales
nacionalidad
nacionalidades
nacionalismo
nacionalista
nacionalizado
naciones
naco
nada
nadador
nadadora
nadal
nadie
nagasa
nager
nagui
naha
nahase
nahe
nahembe
nahesa
nahesaka
nahi
naho
naikane
naimandu
naimba
naimombyry
nain
naipo
naipora
naipoti
nairo
naja
nakami
nakamura
nako
nald
namah
namaste
nambi
name
named
namelist
namelistformat
nameme
names
namesep
nameseparator
namesi
namespace
namespacefragment
namespaces
nami
namib
namibia
namichi
namombyry
namomoko
nan
nana
nanawa
nancy
nandi
nanga
nani
nanki
nap
nape
napoca
napoleo
nara
naranja
naranjal
naranjo
narciso
nare
narrador
narrativa
narrativo
narva
nas
nasa
nasal
nasales
nasaregua
nascimento
nascimiento
nase
nash
nasikue
nasinu
nasko
nasri
nassau
nasua
nat
nata
natal
natale
natalia
natalicio
natalie
natasha
natekoteve
nathan
nation
national
nations
nativa
nativo
natural
naturales
naturaleza
naturalista
nature
nauru
nava
naval
navarra
navarro
navbar
navbox
navegacio
navegante
navero
navidad
naymaguasu
nazareth
nazi
nazis
nbc
nbi
nbk
ncavo
ncbi
ncer
ncha
nchez
ncia
ncias
ncio
ncipe
nd
nda
ndaha
ndahaku
ndahakuete
ndahasy
ndahasyiete
ndahe
ndahekoviara
ndahepy
ndahesaka
ndahesara
ndaheta
ndahetave
ndahi
ndahypy
ndai
ndaija
ndaijoja
ndaijojaha
ndaijyvate
ndaikatu
ndaikatui
ndaikatuiha
ndaikatumo
ndaikatuve
ndaikuaa
ndaipo
ndaipori
ndaiporiguasu
ndaiporiha
ndaiporive
ndaipu
ndaja
ndajaikuaa
ndaje
ndajeko
ndajuhu
ndakatu
ndalo
ndama
ndan
ndaome
ndape
ndareko
ndaro
ndataset
ndatuicha
ndatuichaite
ndaupeichaiva
ndavoka
ndavy
nde
ndehegui
ndejehe
ndejoguaha
ndende
ndere
nderecha
nderehe
ndereikuaa
ndereikuaai
ndetuicha
ndetuichapajepe
ndeve
ndez
ndi
ndia
ndiape
ndice
ndida
ndido
ndie
ndika
ndikatu
ndikatuiha
ndikatumo
ndiko
ndikope
ndinama
ndinamakan
ndinamayka
ndio
ndive
ndo
ndoguata
ndogueraha
ndoguereko
ndoguerohory
ndoguerovia
ndohaikuaa
ndohasa
ndohayhu
ndohecha
ndohechakuaa
ndohechapora
ndohechauka
ndoheja
ndoho
ndohoiha
ndohupyty
ndoikatu
ndoike
ndoiko
ndoikokuaa
ndoikove
ndoikoveva
ndoikuaa
ndoikuaaivavoi
ndoikuaapora
ndoikuaase
ndoikuaave
ndoiporavo
ndoipota
ndoipotave
ndoipuru
ndoipuruve
ndojapo
ndoje
ndojehai
ndojehecha
ndojehechakuaa
ndojehechauka
ndojehechave
ndojehu
ndojehupyty
ndojeikuaa
ndojeikuaapora
ndojeipuruve
ndojejapo
ndojejapove
ndojejuhu
ndojekuaa
ndojekuaaguasu
ndojekuaapora
ndojeporu
ndojepuru
ndojepurupora
ndojepuruve
ndojepy
ndojerovia
ndojoavyiha
ndojoguaiete
ndojoja
ndojokupyty
ndojuhu
ndokakuaa
ndoke
ndoku
ndokuera
ndoky
ndokyve
ndomini
ndominikagua
ndon
ndopa
ndopuka
ndopyta
ndopytu
ndor
ndoreko
ndoro
ndorohecha
ndose
ndote
ndou
ndoupora
ndovale
ndoveveiva
ndovy
ndrome
nds
ndu
ndusu
ndusukue
nduva
ndy
ndymi
ndyre
ne
nea
near
neas
neblina
nebraska
nebulosa
neca
necesario
necesidades
necessary
nee
need
needed
needle
needs
neela
neerlande
neerlandesa
negara
negativa
negativo
negocio
negra
negras
negro
negros
nei
neil
neill
nejedly
neka
nelly
nelson
nemba
nemoiru
nemomaitei
nemomarandu
nen
nendive
neneco
nenhum
neo
neocla
neozelande
neozelandesa
nepa
nepal
nepali
nepomuceno
nepora
ner
nereime
neren
neresa
nero
neros
neruda
nervioso
neryakua
nes
nesis
net
netflix
neto
netto
netu
netuno
network
neuland
neumoni
neuque
neuro
neutral
neutro
neuville
neva
never
nevis
new
newbery
newclaims
newindex
newline
newman
newobj
newrawmessage
news
newsgroup
newspaper
newton
next
nextlalpan
nextval
neymar
nez
nfechas
ng
nga
ngaha
ngahai
ngahara
ngakara
ngakuaa
ngakue
ngambyry
ngame
ngami
ngamy
ngandy
ngao
ngape
ngara
ngare
ngaro
ngatu
ngaty
nge
ngea
ngel
ngela
ngeles
ngelo
ngeo
nger
ngerulmud
ngeta
ngo
ngora
ngotyo
ngu
ngua
nguapa
ngue
nguekue
ngueme
nguemi
nguengue
nguera
nguete
nguez
ngui
nguiz
ngulo
ngusu
ngwalme
ngy
ngyva
nh
nha
nheengatu
ni
nia
niagui
niall
niame
niape
niara
nica
nicanor
nicaragu
nicaragua
nicas
niccolo
nich
nicho
nicholas
nick
nicklas
nico
nicola
nicolas
nicolau
nicole
nicolino
nicos
nicotiana
nida
nidas
nielsen
niemeyer
nieto
nietzsche
nieves
nigel
nigeriano
night
nightingale
nigo
nih
nihe
niheria
nihon
nika
nikara
nikaragua
nikita
niko
nikola
nikolaos
nikos
niks
nil
nilargs
nilargskey
nilo
nils
nilsson
nima
nimbora
nimo
nimos
nimuendaju
nin
nina
ninfa
ningo
ningu
ninguna
ninguno
nino
nio
nior
nippon
niri
nishimura
nitero
nitro
nivacle
nivel
nix
nixon
niz
nka
nking
nl
nlm
nm
nme
nn
no
noactive
noah
nobel
noble
nobold
nocat
noche
noches
nocturno
node
nodes
nodvdcover
noe
noeditsection
noel
noemi
noexpiry
nog
noguahe
nogueira
noguera
noha
noharara
noi
noikoteve
noime
noipora
noiporenose
noipytyvo
noisa
noite
nokuaapy
nola
nolan
nom
noma
nomano
nomba
nomboguejy
nombohova
nomboyke
nombre
nombrecompleto
nombrenativo
nombrenormalizado
nombrepagina
nombrepremio
nombres
nombresnativos
nombyai
nome
nomenclatura
nominal
nomo
nomoambue
nomoan
nomohu
nomomba
nomombe
nomon
nomyesaka
non
nonautoscaledimages
nondegua
none
nonkilling
noop
nope
nopp
nopuku
nopukura
nora
norberto
nord
nore
noreste
noriega
norirlande
norma
normal
normales
norman
noroeste
noronha
norte
norteame
norteamericano
north
northern
norton
norue
noruega
noruegan
noruego
nos
nose
nosotros
nossa
nostalgia
nostra
not
nota
notable
notables
notas
note
notes
nothing
nothomb
noti
notice
noticia
noticias
notoc
notracking
notre
nouka
noun
nov
nova
novalue
nove
novela
novelas
novelista
november
novembro
novenario
novich
noviembre
novo
now
nowiki
nowrap
npe
nr
nro
ns
nscrito
nse
nsia
nskrito
nstab
nsul
nsula
nt
nta
ntara
ntaro
nte
nteha
nteko
ntema
ntesis
nteva
ntevoi
nther
ntica
ntice
ntico
nticos
ntika
ntiko
ntikope
nto
ntrape
ntropa
ntropo
ntu
nu
nuakecho
nube
nubes
nuclear
nudo
nuestra
nuestro
nuestros
nueva
nuevas
nueve
nuevo
nuevos
null
num
numargs
number
numbered
numbers
nume
numeral
numeric
numerical
numero
numerosos
nums
numsize
numval
nun
nunca
nundu
nunes
nunga
nungakue
nupa
nv
nyi
nymph
nyuge
o
oa
oacceso
oactu
oaprovecha
oararecha
oasis
oataka
oaxaca
obdulio
obi
obispado
obispo
obj
object
objects
objetiva
objetivo
objeto
objetos
obligacio
obligado
obligatoria
obligatorio
obra
obrage
obraje
obrapremiadaenlazada
obras
obrero
observacio
observatorio
obsoleto
obtener
obtenerargumentos
obtenerargumentosconvalor
obtenerdatos
obtenerdatoswikidata
obteneredadwikidata
obtenerelementoslista
obteneretiquetawikidata
obtenerimagenwikidata
obtiene
oc
ocampo
ocampos
ocan
occidental
occita
occitano
occurred
occurs
oce
ocho
ochoa
ocinsoutput
oclc
oct
octavio
october
octobre
octubre
ocultas
ocultista
ocupacio
ocupacion
ocupacionoarea
oda
odd
oddity
odefende
odeklara
oderoga
odestina
odispone
odo
odontologi
odore
oe
oea
oechauka
oedita
oeste
oestrena
oestudia
of
ofelia
ofenda
off
office
official
offset
ofi
oficial
oficiales
oficialmente
oficina
oficios
ofirma
ofisi
oftalmo
often
ofunda
ofundava
og
oga
ogaguasu
ogaguy
ogaha
ogahoja
ogaita
ogakue
ogamimi
ogana
ogapy
ogapykue
ogapypegua
ogaraity
ogavusu
ogaygua
ogayguakue
ogcocephalidae
ogg
ograva
ogua
oguah
oguahe
oguapy
oguata
oguataha
oguatajoa
ogue
oguejy
oguejyha
oguejyva
oguejyve
oguenohe
ogueraha
oguerahaha
oguerahauka
oguerahava
oguereha
oguereko
oguerekoha
oguerekohague
oguerekoro
oguerekose
oguerekova
oguerekove
oguero
ogueroguata
oguerohory
ogueroja
oguerojera
ogueromandu
ogueropoja
ogueropu
oguerosapuka
oguerova
oguerovia
ogueru
ogueruka
ogueruva
oguete
ogui
ogureko
ogyke
oha
ohai
ohaiha
ohaihague
ohaijepe
ohaijey
ohaikuaa
ohaitypo
ohaiva
ohaive
ohapejoko
ohapy
ohapykueho
ohapykuehova
oharu
ohasa
ohasaha
ohasapa
ohasapora
ohasava
ohasave
ohaygua
ohayhu
ohayhuete
ohayhueterei
ohayhuva
ohe
ohecha
ohechaga
ohechaha
ohechakuaa
ohecharamo
ohecharamoite
ohecharamoiterei
ohechase
ohechauka
ohechaukaha
ohechaukase
ohechaukava
ohechava
ohechaypy
ohechuka
oheja
ohejai
ohejarei
ohejava
oheka
ohekase
ohekava
ohekave
oheko
ohekombo
ohekome
ohekuavo
ohembe
ohen
ohendu
ohenduka
oheno
ohenonde
ohepyme
ohero
ohesa
ohesape
ohesy
ohetu
ohio
oho
ohoha
ohohi
ohohy
ohojey
ohokue
ohopa
ohorei
ohose
ohoseha
ohova
ohovasa
ohovo
ohua
ohundi
ohundipa
ohupi
ohupity
ohupytu
ohupyty
ohupytyha
ohupytyka
ohupytyse
ohupytyva
ohypy
ohypyty
oi
oiha
oihague
oijey
oikara
oike
oikeha
oikehague
oikehi
oikejepe
oikejey
oikepa
oikepaite
oikese
oikeva
oiko
oikoe
oikoha
oikohague
oikohi
oikoite
oikojepe
oikojey
oikokuaa
oikokue
oikoma
oikomeme
oikopa
oikopora
oikoraka
oikoramo
oikose
oikoseha
oikotaha
oikoteve
oikova
oikovae
oikovai
oikove
oikoveha
oikovejey
oikovente
oikoveva
oiku
oikua
oikuaa
oikuaaha
oikuaajepe
oikuaaka
oikuaapa
oikuaapora
oikuaapyhy
oikuaara
oikuaase
oikuaaseve
oikuaauka
oikuaaukaha
oikuaaukajey
oikuaava
oikuaave
oikuauka
oikuave
oikumby
oikundaha
oikundahajepe
oikutu
oikyti
oimagen
oimagenderecha
oimageninferior
oimagenizquierda
oimagensuperior
oime
oimeha
oimehi
oimera
oimerae
oimeva
oimo
oinaugura
oinupa
oipapa
oipe
oipehe
oipeju
oipepiru
oipirakutu
oipirakutukuaa
oipo
oipokyty
oiporavo
oiporavokuaa
oiporeno
oiporu
oiporuva
oiporuve
oipota
oipotague
oipotaha
oipotaite
oipotava
oipuru
oipuruha
oipuruite
oipurukatu
oipurukuaa
oipuruva
oipuruve
oipy
oipyaha
oipyguara
oipyha
oipyhy
oipyku
oipyso
oipysyro
oipyte
oipytyvo
oiramo
oiro
oiru
ois
oisa
oisambyhy
oise
oisu
oite
oity
oitypa
oitypei
oiva
oja
ojahai
ojahe
ojaho
ojahu
ojaiterei
ojaitypo
ojaja
ojajaipa
ojajapo
ojapajere
ojapi
ojapo
ojapoakue
ojapoha
ojapohague
ojapokuaa
ojapokue
ojapopa
ojapopaite
ojapose
ojaposeha
ojapota
ojapouka
ojapova
ojapove
ojapyhy
ojapysaka
ojasuru
ojavy
oje
ojeapresa
ojechauka
ojeda
ojedeclara
ojedeklara
ojegradua
ojegua
ojeguapa
ojeguata
ojegueraha
ojeguereko
ojeguerekoha
ojegueroguata
ojeguerohory
ojeguerohoryete
ojeguerohoryeterei
ojegueroja
ojeguerojera
ojegueromandu
ojeguerova
ojeguerovia
ojegueru
ojehai
ojehaiha
ojehaijey
ojehaitypo
ojehaiva
ojehape
ojehapejoko
ojehapy
ojehapykueho
ojehapypa
ojehasa
ojehayhu
ojehayhuve
ojehe
ojehecha
ojehechaha
ojehechakuaa
ojehechameme
ojehecharamo
ojehecharamoiterei
ojehecharamove
ojehechase
ojehechauka
ojehechaukaha
ojehechava
ojehechave
ojehechaveha
ojehegui
ojeheguiete
ojeheja
ojeheka
ojeheko
ojehekombo
ojeheky
ojehepyme
ojehero
ojeheroha
ojeherova
ojeherove
ojehesa
ojehesape
ojeho
ojehoha
ojehova
ojehovasa
ojehu
ojehuha
ojehuhague
ojehupi
ojehupyty
ojehupytyse
ojehuva
ojehuvila
ojei
ojeike
ojeikeha
ojeiko
ojeikoha
ojeikove
ojeikua
ojeikuaa
ojeikuaaha
ojeikuaapora
ojeikuaauka
ojeikuaava
ojeikuaave
ojeikutu
ojeipapa
ojeipapaha
ojeipe
ojeiporavo
ojeiporu
ojeiporuva
ojeiporuve
ojeipota
ojeipuru
ojeipuruha
ojeipuruite
ojeipuruva
ojeipuruve
ojeipyaha
ojeipyso
ojeity
ojeitypa
ojeja
ojejaho
ojejahu
ojejapi
ojejapo
ojejapoha
ojejapohague
ojejapoka
ojejapokuaa
ojejapokue
ojejapopa
ojejapopyre
ojejapose
ojejapova
ojejapove
ojejapyhy
ojejavy
ojejeroky
ojejerovia
ojejerure
ojejesareko
ojejo
ojejogapo
ojejogapopa
ojejogua
ojejohe
ojejoko
ojejokua
ojejokupyty
ojejopara
ojejopy
ojejoso
ojeju
ojejuhu
ojejuhuha
ojejuhukuaa
ojejuhuva
ojejuhuve
ojejuhuveha
ojejuka
ojejukahague
ojejukase
ojejukava
ojejupi
ojejuvy
ojeka
ojekapupa
ojekaru
ojeke
ojeko
ojekuaa
ojekuaaha
ojekuaaite
ojekuaaiterei
ojekuaapora
ojekuaauka
ojekuaava
ojekuaave
ojekuaaveva
ojekuave
ojekupyty
ojekutu
ojekyhyje
ojepapa
ojepapaha
ojepe
ojepirakutu
ojepita
ojepo
ojepohe
ojepoi
ojepoko
ojepokuaa
ojepopete
ojeporavo
ojeporavova
ojeporeka
ojeporu
ojeporuva
ojeporuve
ojepovyvy
ojepurahe
ojepuru
ojepuruha
ojepuruita
ojepurukuaa
ojepurumi
ojepuruva
ojepuruve
ojepy
ojepyaha
ojepyso
ojepysove
ojepyta
ojepytaso
ojepytu
ojeraha
ojere
ojereha
ojereko
ojereraha
ojerereko
ojereva
ojero
ojeroky
ojerokykuaa
ojeromandu
ojerovia
ojeroviave
ojeru
ojerure
ojerureha
ojerureva
ojesareko
ojesarekokatu
ojetopa
ojeupe
ojevy
ojevyjey
ojey
ojeykeko
ojo
ojoaju
ojoajuha
ojoajupa
ojoajuva
ojoapy
ojoapykue
ojoapyte
ojoavy
ojoehe
ojoehegui
ojogapo
ojogapokuaa
ojogua
ojoguaha
ojoguaite
ojoguaiterei
ojoguami
ojoguapa
ojoguase
ojoguava
ojoguave
ojohayhu
ojohe
ojoja
ojojaha
ojojogua
ojojuhu
ojojuhuha
ojoka
ojoko
ojokose
ojokua
ojokuaa
ojokuaikuaa
ojokuaise
ojokupyty
ojopara
ojope
ojopi
ojopo
ojopoi
ojopy
ojora
ojos
ojotsk
ojovake
ojoyke
ojoykeregua
oju
ojuaju
ojuapykue
ojuasa
ojuavy
ojuehe
ojuehegua
ojuehegui
ojuhu
ojuhuakue
ojuhuva
ojuka
ojukapa
ojukapaite
ojukaparaiva
ojukase
ojukauka
ojukava
ojukave
ojukupyty
ojupe
ojupi
ojupiva
ojupive
ojy
ok
oka
okaha
okaka
okakua
okakuaa
okakuaaha
okakuaapa
okakuaave
okambu
okan
okapegua
okapu
okara
okaraha
okaraygua
okaru
okarupa
okarusu
okavusu
okay
okazaki
oke
okinawa
okinawan
okiriri
oklahoma
oko
okontrata
okove
oktoberfest
oku
okua
okuaa
okuaarara
okuakua
okue
okuera
oky
okyeterei
okyha
okyhyje
okyiterei
okykue
okymeme
okyve
okyveha
ol
ola
olaf
old
oldest
olditems
oldr
oleh
oles
olga
olho
oli
olic
oligarqui
olimpia
olimpo
olinda
oliva
olivares
oliveira
oliver
olivera
olivier
olivo
olla
olmedo
olodum
olsen
olvido
om
oma
omagua
omaguan
omam
oman
omanda
omano
omanoha
omanohague
omanoite
omanomba
omanombota
omanose
omanova
omantene
omar
omarka
omba
ombo
omboaje
omboajeva
omboarete
omboati
omboguapy
omboguapyhague
omboguata
omboguatava
ombogue
omboguejy
omboguevi
omboha
ombohape
ombohasa
ombohasy
ombohe
omboheko
omboherava
ombohero
omboheroko
omboheta
ombohetave
ombohetia
ombohory
ombohova
ombohovake
ombohupa
ombohykue
omboja
ombojegua
ombojeguaka
ombojehe
ombojei
ombojekupyty
ombojepokuaa
ombojere
ombojevy
ombojo
ombojoaju
ombojoajuva
ombojoapy
ombojoapyve
ombojoavy
ombojoja
ombojopara
ombojopo
ombojopyru
ombojuaju
ombojuavy
ombojy
ombokakuaa
ombokapu
ombokatu
ombokatupyry
ombokuakua
ombokuatia
ombopaha
ombopara
ombopiro
ombopu
ombopuha
ombopuka
ombopukuaa
ombopurory
ombopy
ombopya
ombopyahu
ombori
omboruru
ombosa
ombosako
ombota
ombotarova
ombotavy
ombotavyrai
ombotove
ombotuicha
ombotuichave
omboty
ombotyryry
ombou
ombova
ombovera
omboveve
ombovevu
ombovo
ombovu
ombovy
ombovyvy
ombox
omboy
omboyekua
omboyke
omboyku
omboypy
ombuekovia
ombuekoviara
ombya
ombyai
ombyaipa
ombyaku
ombyaty
ombyatypa
ombyatyva
ombyekovia
ome
omee
omenda
omendava
omi
omimbi
omimbipa
omit
omitted
omnitrix
omniverse
omo
omoagui
omoaka
omoambue
omoambuese
omoan
omoandu
omoapan
omoarandu
omobe
omog
omoguahe
omoha
omohe
omohechauka
omohembe
omohen
omohenda
omohendava
omoherakua
omohesa
omohesaka
omohu
omohua
omoi
omoinge
omoingeva
omoingove
omoiru
omojoaju
omoka
omokambu
omokan
omokangy
omokiriri
omoko
omokunu
omokyre
omomaitei
omomarandu
omomba
omombarete
omombareteva
omombareteve
omombe
omombia
omombo
omombyta
omombyte
omomemby
omomembykua
omomichi
omomira
omomombyry
omomora
omomy
omon
omonda
omonde
omondo
omondoho
omondy
omondyryry
omone
omonei
omongakuaa
omongarai
omongaru
omongeta
omongetaha
omongolo
omongora
omongu
omonguatia
omonguera
omongy
omongyhyje
omono
omopa
omope
omopeipiru
omopetei
omopiri
omopora
omopoti
omopu
omopuka
omopukava
omopyenda
omopyendava
omosa
omosarambi
omose
omotei
omotenode
omotenonde
omotenondeva
omotenondeve
omotimbo
oms
omu
omun
omy
omyaka
omyaky
omyan
omyasa
omyatyro
omyendy
omyengovia
omyenyhe
omyesaka
omyi
omyikuaa
omyka
omymba
omymbajuka
on
once
ondive
ondiveha
ondivepa
ondu
ondyry
ondyryse
ondyvu
one
onepage
onero
onetti
ong
ongatu
ongatuha
ongatupyre
ongatuva
ongue
online
only
onlyinclude
ono
onohe
onombra
onta
ontario
onte
ontology
onu
onupa
onze
oort
op
opa
opaete
opaetevae
opaga
opaha
opahague
opaichagua
opaicharei
opaite
opaiteichagua
opakatu
opakue
opamba
opami
opan
opapota
oparaviki
oparticipa
opartisipa
oparupi
oparupiete
oparupigua
oparupirei
opava
opavave
opavavete
opave
opcion
opciones
opcionesfecha
ope
opehe
opeipiru
open
opening
opera
operacio
operaciones
operation
operator
operde
opi
opia
opinio
opirakutu
opita
opo
opoi
opoko
opold
opopo
oporandu
oporandujey
oporeno
oporogueraha
oporoheno
oporojokua
oporojopi
oporojuka
oporojukave
oporokua
oporombo
oporombohasa
oporombohasy
oporombohasykuaa
oporombopuka
oporombopy
oporombovy
oporombuekovia
oporombyai
oporomomandu
oporomomarandu
oporomomba
oporomomemby
oporomonga
oporomonguera
oporomongyhyje
oporon
oporopoha
oporopytyvo
oporto
oporu
opresenta
ops
option
optional
optionalarg
options
opu
opublica
opuka
opukavy
opupu
opurahe
opurahei
opuruva
opus
opy
opygua
opyre
opyru
opyta
opytaha
opytahague
opytahi
opytaite
opytami
opytava
opytu
opytyvo
opyvoi
or
ora
oraba
oracio
oraciones
orador
oraha
orahauka
orairo
oral
orales
orambosa
orange
oranguta
oranza
oraro
orasy
oratorio
orchestra
orden
ordenada
ordenanza
ordenar
ordenartabla
order
ordered
ordo
ore
oregon
orei
oreja
oreko
orekoha
orekokue
orekoro
orekova
orekove
orendive
orepresenta
oreve
org
orga
organismo
organista
organizacio
organization
orgi
ori
oribe
orientacio
oriental
orientalista
oriente
orig
origargs
origen
origi
origin
original
originales
originalurl
originarias
origink
origins
orignumargs
origyear
orilla
orillas
orino
orio
oriya
orlando
orleans
ornamental
ornithology
ornito
ornitologi
oro
oroja
orovia
orozco
orquesta
orquestal
orqui
orrego
orrenunsia
ortega
orti
ortiz
ortodoxo
ortogra
ortografi
oruro
orwell
oryctolagus
oryry
os
osa
osaingo
osama
osapuka
osborne
osca
oscar
oscuro
ose
oseani
oseania
oseaniagua
osmar
osment
oso
osorio
osti
osuna
osvaldo
oswald
oswaldo
osyry
osyryry
ota
otakar
otaky
otamendi
otan
ote
otekome
otero
other
others
otheruses
otherwise
oti
otiri
oto
otoma
otomano
oton
otopa
otra
otras
otro
otros
ots
ottawa
otto
oturun
oty
otyky
otymbyre
otyryry
ou
ouha
oujey
oukue
our
ourense
ouro
ousapy
out
output
outputs
outras
outros
outstr
ouva
ova
ovakuaa
ovale
ovava
ovayva
ove
ovecha
ovecharana
ovende
ovenia
over
overa
overath
override
overview
overwrite
oveta
oveve
ovevepa
ovevu
ovi
oviaha
ovidio
oviedo
ovota
ovu
ovusu
ovy
owen
own
oxford
oxi
oyapo
oyeapo
oyeapota
oyekuatia
oyeporuta
oykeko
oyta
oyva
oz
ozores
ozuna
p
pa
paapyha
pabello
pabla
pablino
pablo
pablos
pabo
pac
paca
pacheco
pachuca
pachyramphus
paci
paciencia
pacific
pacifista
paco
pacto
pacu
padding
padilla
padlock
padrao
padre
padres
padro
padua
paes
pag
page
pagedoc
pagename
pages
pagetype
pagetypes
pagina
paginas
pago
pagui
paha
pahag
pahague
pai
paid
paige
paila
pair
pairs
pais
paisaje
paisenlazado
paises
paiseslugar
paite
paiva
paixa
paja
pajagua
paje
pak
paka
pakista
pakistani
pakita
pako
pakova
pakovaty
paku
pakuri
pala
palabra
palabras
palace
palacio
palacios
palais
palanca
palaos
palastkapelle
palau
palavras
paleo
paleonto
palermo
palestina
palestino
paleti
palgrave
pallestrini
palma
palmar
palmas
palmeira
palmeiras
palmer
palmeras
palmito
palo
paloma
palomino
palomita
palomo
paltrow
paludismo
pam
pame
pamela
pampa
pamplona
pan
pana
panama
panambi
panamen
pancho
panda
pando
pandolfini
pane
panel
pangrazio
pankhurst
pano
panora
panorama
panoramio
pantaleo
pantalla
pantanal
panteo
panthera
paola
paolo
papa
papaha
papaporavoha
papapy
papapykuaa
papapykuaaha
papapykue
pape
papel
papi
papo
papoapy
papoapyha
papoha
papoko
paporundyha
papotei
papu
papua
papy
papyeta
papyetaite
papyha
papyko
papyre
papytei
par
para
paracaidismo
paracetamol
parada
parador
paragraph
paragraphs
paragua
paraguai
paraguaiete
paraguaigua
paraguaikue
paraguaipe
paraguana
paraguari
paraguasu
paraguay
paraguaya
paraguayan
paraguayas
paraguaygua
paraguaygui
paraguayito
paraguayo
paraguayos
paraguaype
paraguaypegua
paraguy
parai
parainfluenza
paraisoty
parakue
parale
paralelo
param
paramaribo
parameter
parameterfuncs
parameters
parametro
parametros
parami
paramorder
params
paramswikidataparam
parana
paranagua
paranaguasu
paranakua
parapaha
parapegua
parapiti
parapyte
pararehegua
parcial
pardo
pare
pareda
paredes
pareha
parehegua
pareja
parens
parent
parentheses
parenthtml
parentonly
parentt
parentv
pares
parga
pargs
pari
paris
park
parker
parks
parlamentario
parlamento
parliament
parma
parnaso
paro
parodi
parque
parques
parra
parral
parrilla
parroquia
parroquial
parse
parseargs
parsedec
parsedms
parseflags
parser
parserfunctions
part
parte
partera
partes
parti
partial
participac
participar
participio
participo
particular
particulares
partidario
partido
partir
partitura
parto
parts
party
parundy
parundyha
parundysu
pasa
pasado
pasajero
pascal
pascua
pascual
paseo
pasio
pasionaria
paso
pasos
pass
passarella
passed
passeriformes
passione
passo
passos
password
pastel
pasteur
pastor
pastora
pastoral
pastore
pat
patagonia
patagonicus
pate
patei
path
pathoschild
pati
patin
patinadora
patio
patiy
pato
patri
patria
patricia
patricio
patrick
patrimonio
patrio
patriota
patro
patrona
patronal
patronales
patronato
patrono
pattern
patterns
patternspattern
paty
pau
paul
paula
pauleta
pauli
paulina
pauline
paulinho
paulista
paulo
paulope
pave
pavel
pavo
payagua
payaso
paz
pc
pcall
pdf
pdfhttps
pe
pea
peaje
pearl
pearson
pecado
pecados
pecci
peces
pecho
pedacinho
pedagogi
pedagogo
pedal
pedersen
pediatra
pedra
pedras
pedraza
pedro
pedrozo
pee
peg
pegua
peguaa
peguara
peguare
peguas
pegui
peha
pehe
pehecha
pehendu
pehengue
pehenguekue
peho
pei
peicha
peichagua
peichaha
peichaite
peicharei
peicharo
peichave
peike
peixoto
pejapo
peju
pejuha
pekaru
peki
peko
pekue
pelayo
pele
peli
peligro
pellegrini
pelo
pelota
pelotas
pema
peme
pemi
pen
pena
penacho
penal
pende
penderehe
pendiente
pending
pene
penelope
penguin
peni
penicilina
penitencia
penn
pennsylvania
pensador
pensamiento
pensilvania
pensio
pente
people
peor
pepa
pepe
pepo
pequen
pequeno
per
pera
peral
peralta
perasso
percent
percusio
percusionista
percy
perdida
perdido
pere
peregrino
perehi
pereira
perera
perere
pereri
perfecto
perfil
perfiles
performance
performed
perhaps
peri
perico
perio
period
periodi
periodical
periodismo
periodista
periodo
periodos
periquito
peris
perito
perkins
perla
permanente
permanently
permission
pernambuco
pero
peronista
perro
perros
perrow
perrowr
perry
persa
persecucio
perseo
persie
persiste
person
persona
personaenlazada
personaje
personajes
personal
personales
personalidad
personas
peru
peruana
peruano
perugua
perurima
pesada
pesca
pescado
pescador
peso
pesoa
pesos
pessoa
pete
petei
peter
peterevy
peters
petersburgo
peterson
peti
petit
petra
petrescu
petro
petrona
pettirossi
pety
peu
peva
pevara
peve
peygua
peysian
pez
pf
pframe
pg
pha
phacellodomus
phane
pharisa
phil
philadelphia
philip
philipp
philippe
philips
phillip
phillips
philosophy
phoebe
phoenix
photo
photos
php
phyllomedusa
pi
pia
piamonte
pianista
piano
piaractus
piare
pib
pic
pica
picada
picasso
picchu
pick
pico
pide
pido
pie
piedeimagen
piedra
piel
pier
piero
pierre
pies
piesa
piesdeimagen
piet
pieta
pieter
pietro
pieza
pig
pihiro
pika
piko
pikyry
pilar
pilcomayo
pilo
piloto
pimentel
pin
pinasco
pinda
pindo
pindora
pindorama
pindoramagua
pindoramape
pindoramapegua
pindu
pineda
pinedo
pingu
pinhal
pinirampus
pino
pinto
pintor
pintora
pintura
pinturas
pinyin
pio
pionero
pioneros
piotr
pipe
pipep
pipepbot
pipo
pique
piquete
pira
pirachuguasu
piragu
piraha
pirai
pirajekutu
piraju
pirakue
pirakutu
pirakutuha
pirambu
piranare
pirandello
pirane
pirapire
pirapo
piraro
piraroto
piraru
pirata
pirayu
pire
pirekue
pirekyti
pires
piri
piribebuy
pirinampu
piriri
piririta
pirivevu
pirizal
pirlo
piro
piru
pisa
piso
pista
pita
pitanga
piter
pithecia
pitheciidae
pitikiri
pitogue
piura
pive
piz
pizarnik
pizarro
pl
pla
placa
place
placeholder
plain
plainlinks
plainlist
plan
planalto
planet
planeta
planets
plano
plant
planta
plantar
plantarum
plantas
plantilla
plantillas
plasa
plasma
plata
plataforma
plataformas
plate
platero
platina
platini
plato
platyrhynchos
play
playa
playas
plaza
plazas
please
plecostomus
pleins
pleito
plenipotenciario
plicas
plra
pluma
plumario
plural
plus
plutarco
pluto
pm
pmc
pmid
pms
png
pnud
po
poapy
poapyha
poapypa
poapysa
poblacio
poblacional
pobre
pobres
pobreza
poca
pocho
pochy
poco
pocos
podcast
pode
poder
poderes
poderoso
podolski
podos
podri
poe
poema
poemas
poesi
poesia
poeta
poetas
poetisa
pogba
poguasu
poguasuve
poguy
poguygua
poguyguaite
poh
poha
pohano
pohanoha
pohanokuaa
pohapyha
pohy
pohyikue
poi
point
points
pointtable
pointtype
pojopy
poka
pokare
pokatu
pokatuenda
poko
pokoi
pokoka
pokyty
pol
pola
polaca
polaco
poland
polca
pole
poles
poli
policarpo
polici
policial
policy
polilla
poline
polis
polisi
politica
political
politico
politics
polito
polka
polo
polon
polonia
poly
polygram
pom
pomada
pomata
pombal
pombe
pombero
pomelo
pompe
ponce
poncho
pondal
poner
pono
ponoike
pons
ponta
ponte
pontes
pontevedra
pop
popa
pope
popeno
popi
popo
popper
popular
populares
population
por
pora
porandu
porave
poravopyre
pore
poreno
porenogua
porfiria
poriahuvereko
porno
pornogra
poro
porokua
porokuaita
pororo
porque
porras
porres
port
porta
portal
portales
portalguarani
porten
porter
portero
portillo
portinari
portion
portions
porto
portrait
portugal
portugue
portugues
portuguesa
portugueses
portus
poruha
porundy
porundyha
porundysa
porvenir
pos
posadas
pose
poseer
posesio
posgrado
posguerra
posibilidad
posible
posicio
posicional
position
positional
positive
positivo
posposicio
possible
possibly
post
postal
poster
posterior
postfix
postscript
pot
pota
potaite
potapy
potapyra
potei
potencia
poti
potosi
potrerito
potrero
poty
potyha
potykue
potykuemi
potymimi
potyngue
potyryru
pou
pova
povo
pow
powell
power
powers
poygori
poyhu
poytuga
poytugagua
poytugan
poyvi
pozo
pp
ppprefix
pprefix
pr
pra
prac
pradesh
prado
praga
praia
prat
prata
pre
prec
precedente
preceding
preces
preciado
precio
precisa
precisio
precision
precursor
predecesor
predicado
predicador
prefectura
preferences
preferred
prefijo
prefix
prefixedtext
prefixtable
prehispa
prehisto
prehistoria
preludio
prema
premio
premioformateado
premios
premiosformateados
prensa
preprint
preprocess
pres
presbi
presencia
present
presentacio
presentador
presentadora
presentation
presente
presidencia
presidencial
president
presidenta
presidente
presidentes
presley
preso
press
pressrelease
prestes
presume
presupuesto
prete
pretendiente
preto
pretty
prev
prevent
prevents
preview
previo
previous
previousval
pri
prieto
primaria
primario
primavera
primer
primera
primeranyo
primero
primeros
primitivo
primo
primolius
prince
princesa
princeton
princip
principado
principal
principales
principia
principio
print
prionailurus
priority
prisionero
privada
privadas
privado
private
pro
probably
problem
problema
problemas
problems
procesio
proceso
procesos
process
processed
prochilodus
produccio
produced
produces
producto
productor
productora
productores
prof
profesional
profesor
profesora
profesores
profeta
profile
profunda
program
programa
programacio
programador
programas
programming
proibido
project
projeto
promesa
promocio
promote
promotor
pronombre
prop
proper
properly
properties
property
propia
propiedad
propiedades
propio
propo
proporciona
proporcionar
propriedade
props
propuesta
prorr
prosa
prosinec
protagonismo
protagonista
proteccio
protect
protected
protection
protectionblurb
protectionblurbs
protectioncategories
protectiondate
protectionlevel
protectionlevels
protectionlevelsaction
protectionlog
protectionobj
protector
protegida
protegidas
protei
protestante
protesto
proto
protocol
provenientes
provide
provided
providencia
provides
provincia
provincial
provincias
provisional
provisto
proyeccio
proyectada
proyecto
proyectos
prueba
pruebas
prusia
prusiano
ps
pseudasthenes
pseudoplatystoma
psico
psicoanalista
psicolo
psicologi
psiquiatra
psittacidae
pstr
pt
ptbotgourou
ptimo
pto
ptr
pu
pua
puambue
pub
public
publica
publicacio
publicaciones
publicada
publicado
publicados
publication
publicationdate
publicationplace
publications
publicista
publikɐ
publique
published
publisher
publishername
publishing
pubmed
puc
pucu
pudo
pue
puebla
pueblo
pueblos
puede
pueden
puedes
puente
puentes
puerta
puerto
puertorriquen
puertos
puesto
puestos
puhoe
puig
pujase
pujoe
pujol
puka
pukara
pukavy
puko
pukoe
puku
pukuaa
pukue
pukuete
pukukue
pukukuera
pukumi
pukuve
pulmo
pulo
pulsar
pumbasy
pumbyry
punct
punctuation
pundie
pundiekue
punk
puno
punta
puntas
punto
puntos
pupora
pupoty
pupotyha
pupu
pura
purahe
purahei
puraheiapoha
puraheiha
puraheiharakue
puraheikue
puraheira
purbo
pureko
purodha
purory
purple
purpose
puru
puruha
puruharakue
purukapy
purukatu
purukuaa
purupyra
purupyre
pururei
pururu
pushkin
pusillus
puso
putas
putin
putrajaya
puyol
puɾtu
px
py
pya
pyaha
pyahapy
pyahapyre
pyahu
pyahujey
pyahura
pyahuve
pycha
pychai
pyenda
pyeongchang
pygoscelis
pyhare
pyharegua
pyharekue
pyharemarangatu
pyharepyte
pyhareve
pyharevekue
pyharevete
pyhy
pykasu
pyku
pykuaa
pykue
pynandi
pype
pypegua
pypekue
pypore
pypuku
pyra
pyre
pyrenda
pyru
pysa
pysyro
pyta
pytagua
pytaguakue
pytaha
pyte
python
pyti
pytu
pytuhe
pytuho
pytumby
pytundyry
pytyvo
pytyvora
pyve
pywikipedia
pywikipediabot
q
qaeda
qid
qin
qing
qom
qu
quadra
quadrimester
qualidade
qualif
qualifargs
qualificadores
qualifier
qualifiers
qualifierscalificativo
qualifiersj
qualifs
qualiftable
quando
quarai
quaresma
quarter
quartet
quartica
quatro
que
quebrachales
quebracho
quechua
queda
queen
queguay
queiroz
quemada
quemil
quentin
quere
querido
query
quesada
question
quevedo
quez
qui
quie
quien
quiere
quieres
quiero
quijote
quin
quina
quinas
quince
quinn
quinta
quintana
quintero
quinto
quiro
quiroga
quito
quotation
quote
quoted
quotes
quotient
r
ra
raa
rabat
rabe
rabes
rabia
rabindranath
rabino
rabinowitz
rachel
racional
rada
radhi
radiacio
radiactividad
radial
radical
radio
radioemisora
radiofo
radoje
radt
rae
rafael
rafaela
ragnar
ragua
raguasu
rague
raguemimi
ragui
raha
rahn
rahttps
rai
raicha
raihupa
raimundo
rainbow
rainer
rainha
rairo
raity
raj
rajy
rajykue
raka
rakamby
rakate
rakitic
raku
rakue
rakuri
raldes
ralf
rally
ralph
rama
ramal
ramala
rambosa
rambueve
rame
rami
ramirez
ramiro
ramo
ramogua
ramoguare
ramoite
ramojepe
ramon
ramona
ramos
rampas
ran
rana
rancho
randi
randipytu
randive
randolph
random
randu
randy
range
rangeobject
ranges
rango
rangomayor
rangue
rank
rankin
ranking
rante
raoul
rapa
rape
rapegua
rapekue
rapera
rapero
raphae
raphael
rapicha
rapichakue
rapo
rapokuaa
rapokuaaty
rapsodia
rapu
rapy
rapykue
rapykuere
rapyta
rapytara
rapytu
raquel
rara
raramo
rard
rare
raro
rarupi
rasa
rasaite
rasami
rasmussen
raso
rastros
rasy
rata
rate
ratee
rather
rati
ration
ratos
ratypykua
rau
raul
rava
ravape
rave
raven
ravo
ravoi
raw
rawequal
rawexpiry
rawget
rawkeyself
rawset
rawson
ray
rayhu
rayhuha
rayhupa
raymond
rayo
rayos
raza
razo
rbara
rbaros
rbitro
rbol
rca
rcio
rcito
rcn
rcules
rculo
rd
rdenas
rdiko
rdo
rdoba
re
rea
read
reagan
real
reales
realidad
realista
realizadas
realizar
really
reape
reas
reason
reasons
reasontext
rebaudi
rebelde
rebelio
rebuild
recalde
recent
receta
recha
rechapyra
rechauka
rechaukaha
recife
recital
reco
recognized
recoleta
recommended
reconoce
reconocimiento
recopilacio
record
records
recreativas
recreo
rect
recta
rectangular
rectificacio
rector
recuerda
recuerdo
recuerdos
recuperacio
recursion
recurso
recursos
red
redaccio
rede
redir
redirect
redirects
reduccio
reducciones
reduce
redundant
reed
reeder
reemplazar
ref
refere
reference
references
referencia
referencias
refineri
reflexiones
reforma
reformador
reformat
reformatted
reformatter
reformatting
reformista
refranes
refs
refugio
reg
regardless
regards
regente
regexp
regimiento
regina
reginald
regio
region
regional
regionales
registered
registration
registrationrequired
registro
regla
regua
reguahe
reguata
reguereko
regueru
regui
regular
reha
rehasa
rehe
rehecha
rehechase
rehechauka
rehegua
reheguakue
reheha
rehenduse
reheve
reho
rehova
rehove
rei
reich
reid
reiete
reigua
reike
reikiavik
reiko
reikuaa
reikuaaha
reikuaavera
reikyti
reime
reina
reinaldo
reindy
reine
reinhard
reinhold
reiniger
reino
reipa
reipota
reipuru
reis
reiva
reivindicacio
reja
rejala
rejapo
reject
rejogua
reju
rejuhu
rejupi
reka
rekdal
reko
rekoasa
rekoasakue
rekogui
rekoha
rekoite
rekoitegua
rekoiterape
rekokatu
rekomarangatugua
rekombo
rekopegua
rekopy
rekora
rekosa
rekotee
rekove
rekoveapy
rekovekue
rekovia
rekua
relacio
relacionadas
relacionados
relaciones
relative
relatividad
relativity
relato
relatos
release
released
religio
religion
religions
religiosa
religiosas
religioso
religious
reloj
relojero
rema
remanso
remaplang
remba
rembe
remberg
remberto
rembi
rembiakuaa
rembiapo
rembiapoita
rembiapokue
rembiapopora
rembiapora
rembiasa
rembiasakue
rembiechara
rembiejakue
rembiesara
rembigua
rembihasakue
rembijerure
rembijokua
rembikuaa
rembikuaaty
rembiporu
rembipota
rembipuru
rembirejakue
rembireko
rembirekora
rembovy
rembyre
reme
remedios
remember
remiandu
remiariro
remikoteve
remimbi
remimbo
remimbou
remimo
remimoi
remimono
remix
remoi
remombe
remon
remove
removebehaviorswitches
removeblanks
removebold
removecolon
removecomments
removed
removelinks
removenonfreefiles
removeselflinks
removestring
removing
remyenyhe
ren
renacentista
renacimiento
rename
renascer
renata
renato
renda
rendag
rendagua
rendague
rendakue
rendara
rendatee
render
rendered
renderimagecell
rendering
rendermultipleimages
renders
rendertrackingcategories
rendota
renduha
rendy
rendyry
rene
reno
renombrado
renonde
renondepe
rensenbrink
renta
rente
renyhe
reo
reorganizacio
reos
rep
repa
repe
repertorio
repetidora
repiko
replace
replaced
replacement
replaces
repo
reporandu
report
reportaje
reportero
reports
repositorio
represa
represent
representacio
representados
representante
represents
represio
reproduccio
reprogra
reptil
repu
repubilika
republic
republica
republicana
republicano
repy
repykue
repyra
request
requested
requests
requesttype
requiere
requinto
require
required
requires
reraite
rereko
rerekua
rerekuapave
reruha
res
resa
resape
resara
resay
resck
rese
research
researchgate
reseda
resen
reserva
reservas
reset
resfri
resfriado
residencia
residenta
residentas
residente
resistencia
resolucio
resolution
resource
resources
respiratorio
responde
responsabilidad
responsable
responsive
resqui
rest
restauracio
restaurant
restaurante
restaurantes
restivo
restos
restriction
result
resultado
resultadoindice
resumen
ret
reta
retagui
retakue
retape
retavae
rete
retekue
retepehe
retepy
retepykatu
retepykuaa
retepypegua
retera
retiro
reto
retorna
retorno
retrato
retratos
retrieved
retrofari
retrv
retu
return
returned
returns
retval
retyma
reuma
reunio
reus
reuters
rev
reve
revelacio
revert
revi
review
reviewer
revisio
revision
revista
revolta
revolucio
revolucionaria
revolucionario
revolusio
revy
rex
rey
reyes
rez
rfc
rft
rgara
rgen
rgia
rgico
rgio
rgy
rhode
rhodes
ri
ria
riacho
rian
riape
riart
rias
rib
ribbon
ribeira
ribeiro
ric
rica
ricardo
ricas
riccardo
rice
rich
richard
richards
richardson
richie
richmond
richter
rick
ricky
rico
ricos
rida
rie
riel
riera
riesgo
rifa
rift
right
rights
rigo
rigoberto
rigua
rigui
rika
rikaete
rikagua
rikaguape
rikape
rikapegua
rikare
riley
rima
rimas
rin
rinco
ringo
rinovirus
rinte
rio
rioja
rios
rique
riquelme
riqueza
riramo
rire
riregua
riremi
riro
ris
risia
risk
rita
ritmo
ritmos
rito
ritter
ritu
ritual
riva
rivaldo
rivarola
rivas
rivelino
river
rivera
riveros
rizzo
rj
rk
rke
rko
rktiko
rmara
rmino
rminos
rmula
rmx
rn
rner
rnia
rnico
ro
roa
road
roald
roan
rob
robben
robbie
robbins
robert
roberto
roberts
robin
robinho
robinson
robles
robson
roca
roch
rocha
roche
rocheteau
roci
rock
rockas
rodas
rodney
rodolfo
rodri
rodrigo
rodrigues
rodriguez
roe
roes
rogapy
rogaygua
rogayguakue
rogelio
roger
rogers
rogue
rohasa
rohayhu
rohayhuete
rohayhuha
rohecha
rohechaga
rohechase
roheja
roheka
rohetu
roi
roja
rojas
rojo
roka
roke
roky
rola
roland
rolandi
rolando
role
rolling
rolls
rolo
roly
roma
roman
romance
romancero
romano
romanos
romanticismo
romanum
romelu
romeo
romero
rominia
rommedahl
romo
romokunu
romomai
ron
ronald
ronaldo
rondo
rongua
ronnie
rooney
roosevelt
root
ropa
rope
ropyta
roque
rora
roraima
rorima
rory
roryve
ros
rosa
rosada
rosado
rosali
rosario
rosas
rose
rosewater
rosi
ross
rossetti
rossi
rostros
rotary
roth
rouge
round
rousse
rousseau
rov
rova
rovake
rovasapyre
roviahakue
rovira
rovy
rovyu
row
rowan
rowargs
rowcolor
rowcount
rowi
rownums
rows
roy
royal
royro
rp
rpc
rprete
rpretes
rquez
rr
rra
rran
rrape
rre
rrenania
rrez
rri
rrika
rro
rroco
rroma
rru
rrua
rruma
rruman
rrusia
rrusiagua
rrusian
rs
rsa
rte
rtico
rtida
rtidape
rtiga
rtiko
rtir
rtires
ru
rua
ruanda
rube
rubens
rubi
rubia
rubio
rubro
ruby
rudi
rudolf
rudolph
rudy
rudyard
rue
rueda
ruffo
rufino
rufus
rugbista
rugby
rugua
ruguaite
ruguy
rui
ruina
ruinas
ruisen
ruiz
rumana
rumani
rumania
rumano
rummenigge
run
runa
runs
rupa
rupert
rupi
rupiete
rupigua
rupigui
rupinte
rupipa
rupive
rural
ruru
rus
rusa
rusia
ruso
russ
russell
russia
russo
rusu
rusukue
rusumbo
rusungue
rusuro
ruta
rute
ruth
rutherford
ruud
ruvicha
ruvichaete
ruvichakue
ruvichara
ruy
rwanda
ry
ryakua
ryan
ryapu
ryepy
ryg
ryguasu
ryguasukue
ryguasume
ryguasurupi
ryke
rykue
rykuere
rymba
ryn
rype
rypy
ryru
ryrupave
ryry
rysy
ryu
ryvy
s
sa
saa
saavedra
sabah
sabi
sabiduri
sabiduria
sabina
sabino
sabio
sabiya
sabor
saboya
sacada
sacerdote
sacramentos
sacrificio
sacro
sadaic
saddam
sado
safari
safe
safejoin
safua
safuan
sagrada
sagrado
sagua
sagui
saguier
sahara
sahita
sahon
sai
saint
saite
saito
saitonia
sajo
sajonia
saka
sakai
sakandu
saki
sako
sal
sala
salado
salah
salamanca
salas
salazar
salcedo
saldi
saldivar
sale
salem
salemma
sales
salesiana
salesiano
salgado
salim
salina
salinas
sally
salo
salome
salomo
salon
salpingidis
salsa
salt
salta
salterio
salto
saltos
salud
salvador
salvadoren
salvaje
salvat
salvatore
salve
salvo
sam
samaniego
samantha
samaras
samba
sambe
sambyhy
sambyhyha
same
sami
samir
sammy
samo
samoa
sampaio
sample
samson
samu
samudio
samuel
samura
san
sana
sanabria
sanapana
sanapanakue
sancho
sand
sandbox
sandi
sandia
sandoval
sandra
sandro
sandu
sang
sanga
sangre
sangui
sanidad
sanitaria
sanitizedataset
sanjurjo
sans
sant
santa
santacruz
santan
santana
santani
santi
santiago
santo
santokue
santos
santuario
sanz
sao
sapatu
sape
sapera
sapiens
sapikua
sapir
sapo
sapucai
sapucaipe
sapuka
sapy
sar
sara
sarago
sarah
saraki
saramandaia
sarambi
sarambiha
sarandi
sarapi
sardi
sardina
sargento
sarigue
sarmiento
saro
sars
sartre
saryty
sasa
saso
satana
sate
satelital
satelitales
sati
satu
saturio
saturnino
satuyno
sau
sauce
saudade
saudi
saul
saussure
sausurre
savagge
save
saved
saving
saviola
saxofonista
say
sayju
sbargs
sbt
sc
scale
scar
scara
scaras
scha
schaan
schachner
schaerer
scheme
schiaffino
schleicher
schleswig
schmidt
schneider
scho
school
schro
schu
schubert
schultz
schumacher
schumann
schweinsteiger
science
sciences
scientific
scifo
sciurillus
scn
sco
scope
scotland
scott
scribd
scribunto
script
scrovegni
scula
sculas
sculo
se
sea
seam
sean
search
season
seasons
sebastia
sebastian
seca
seccio
seccion
seco
second
secondary
secondcolor
secondpostfix
seconds
secos
secreta
secretari
secretaria
secretario
secreto
section
sections
sectionurl
sector
secundaria
secundario
security
sed
seda
sede
see
seed
seeler
seem
seen
segismundo
segment
segovia
segu
seguimiento
segunda
segundo
segundos
segura
seguridad
seguro
seha
seheli
sei
seiferheld
seila
seis
seivo
seiyu
sekigaha
sela
selanda
sele
seleccio
select
selected
selectone
self
selfclosing
selfref
selim
sello
selma
selva
sem
sema
semana
semanal
semanario
semblanza
semestral
semi
semicolon
seminario
sen
sena
senado
senador
senadores
senatur
sencilla
sencillo
send
sendero
senderos
senegal
senegale
senhora
senna
sent
senta
sentido
seo
sep
separador
separate
separated
separator
separators
sepc
seps
septiembre
sepultura
sequence
ser
sera
serafi
serafina
serbia
serbio
serenata
sereni
seres
serge
sergei
serginho
sergio
sergipe
sergue
seri
serial
serie
series
serieslink
seriesno
seriesnumber
sermones
serra
serrani
serrano
serrat
serrato
serta
server
servi
service
services
servicio
servicios
ses
sescau
sesenta
seso
sesotho
set
sete
setembro
seterror
seth
setiembre
setmetatable
sets
setting
settings
seu
seudo
seung
seus
seve
several
severiano
severo
sevi
sevia
seviagua
sevian
sevilla
sevo
sexo
sexos
sexto
sexual
seychelles
sforo
sh
sha
shah
shakespeare
shall
shaman
shang
shanghai
shaqiri
sharealike
shark
shaw
shearer
sheen
sheet
sheets
shek
shevchenko
shi
shift
shikai
shinji
shirley
shiva
shivaia
sho
shogun
shogunato
short
should
show
shown
showqualifiers
shtml
shu
si
sia
siagua
siagui
sian
siani
siape
siapegua
siare
siaygua
sibe
siberia
sica
sicas
sicilia
sicilias
sico
sicos
sid
sida
side
sidebar
sidelink
sidney
sido
sie
siebot
siempre
siena
siendo
sierra
siete
sif
sig
siglo
siglos
sigmund
sign
signal
significado
significados
signo
signos
siguiente
siguientes
sigurðsson
sihoryta
sij
sikh
siko
sil
sila
silencio
siles
silki
silla
siluriformes
silva
silvano
silveira
silver
silvestre
silvestres
silvia
silvina
silvio
sima
simba
simbo
simeo
simi
similar
similares
simmons
simo
simon
simone
simple
simples
simpson
simpsons
simpsonsypegua
sin
sinai
sinan
sinatra
sinbandera
since
sinclair
sindi
sindical
sindicalista
sindicato
sined
sinfo
sinfoni
sinforiano
singapore
singapu
singapur
singh
single
singles
singular
sinis
sinlapiz
sinmarco
sino
sinsigno
sintagma
sintaxis
sio
sipe
sir
siracusa
sirakov
sire
sirena
siri
siria
sirio
sis
sistema
site
siteid
sitelink
sitelinks
sites
sitio
sitios
sitiosweb
sitioweb
sito
sittasomus
situ
situacio
sive
six
sixto
size
sj
sjo
sk
ska
skater
ski
skip
skipv
sky
skyline
sl
slash
slayer
slovenia
small
smaller
smart
smg
smith
smo
smolarek
snack
snak
snaks
snaktype
sneijder
sni
snow
so
soares
soberana
soberani
sobre
sobrino
social
sociales
socialista
socialite
sociedad
society
socio
sociologi
sock
socorro
sofa
sofi
sofo
soft
software
sogue
soha
soja
sojourner
sol
sola
solamente
solano
solar
solda
soldado
soldados
soledad
soler
solfeo
solid
solista
solo
solomon
solucio
solve
soma
somali
somalia
sombra
sombras
sombrero
sombyre
some
someone
something
sometimes
somevalue
somi
sommer
somos
son
sonata
song
sonido
sonidos
sonny
sonora
sonsaca
sony
soo
soon
sopa
sophie
soplo
soprano
sor
sora
soramo
sorgo
sori
soria
soro
soroa
sort
sorted
sortija
sortkey
sos
sosa
sose
soto
soul
soumu
source
sources
sousa
south
southeast
southern
souza
sova
sove
sovie
sovy
soy
sp
space
spaced
spacer
spacerside
spaces
spacing
span
spancss
spanic
spanish
sparingly
sparks
spec
special
speciallabels
species
specific
specified
specify
specprinter
spedes
speech
spelling
spencer
speratti
spheniscidae
spheniscus
spin
spio
spitzkoppe
split
splitstr
sport
spring
springer
springfield
sq
square
squeda
squetbol
squez
sr
src
sri
srl
ss
ssaro
ssica
ssrn
st
sta
stacy
stahl
stalin
stalingrado
stan
standard
stanford
stanislav
stanley
star
starr
start
starting
starts
state
statement
states
static
station
statistics
status
ste
stefan
stefano
steindachner
steiner
stella
step
stephen
ster
steud
steve
steven
stevens
stevenson
stewart
stica
sticas
stico
sticos
still
sto
stojkovic
stol
stomo
stone
stones
stop
stops
stopval
stor
store
stored
storm
storni
story
str
straits
stratford
strauss
street
strftime
string
strings
stringtable
strip
stripmarker
stripmarkers
stripped
stroessner
strofe
strong
structures
stu
stuart
stub
stubcats
studies
studios
study
sturridge
style
styles
stylet
styletrans
su
sua
suahi
suakue
suasi
suasila
suazilandia
sub
subfamilia
subject
subjectlink
submit
subord
subscription
subscriptionrequired
subsections
substitute
substituteparameters
subsuntiva
subtables
subtext
subtitulo
subtropical
sucata
succeeded
success
successful
suceso
sucesor
sucesso
such
sucre
suda
sudafricana
sudafricano
sudame
sudamericana
sudamericano
sudan
sudano
sue
sueca
suecia
sueco
suen
suerte
suesia
suesian
suez
suffix
sugerencias
suggest
suggested
suggestion
suggestions
sugiere
sui
suicidio
suisa
suite
suiza
suizo
sujeto
sul
sulley
sullivan
sulme
sulpe
sulta
sum
suma
sume
summary
summer
sumner
sun
sunda
sunday
sung
suo
super
supercarretera
supercentenario
superficial
superficie
superior
superioridad
superlativi
superlativo
supersuperlativo
supl
suplemento
suplementos
supper
support
supported
supports
suppressplaceholder
suprema
supremo
supukukue
sur
surame
surcoreana
surcoreano
sure
sureste
surina
surinam
suriname
surine
surname
surrealista
surubi
suruku
suruvi
sus
susan
susana
suscripcio
susnik
sustantivo
sustantivos
sustituye
susu
susy
suva
suzanne
suzuki
sv
sven
svg
svn
swan
sy
sydney
sykue
sylvia
sylvis
symi
symphonic
symphony
syntax
synthebot
sype
syria
syry
syryha
syrykupyre
syrymbe
sysop
system
systema
syva
szara
szarmach
szlo
søren
t
ta
taa
taaguasu
tab
tabaco
tabacum
tabare
tabc
tabebuia
tabela
tabla
tablainicial
tablas
table
tablei
tables
tabletools
tacan
tacuaras
tadeo
tag
tage
tagname
tagore
tags
tagua
taguasu
taguato
tague
tagui
taha
tahachi
tahachikue
tahan
tahesaka
tahy
tai
taigua
taiguaete
taihaiha
taiko
taikue
taiky
tail
taila
tailande
tailandia
taime
tain
taipe
taipoty
taipu
taipy
taita
taite
taity
taiua
taiwa
taiwan
taiwanesa
taj
tajacu
tajasu
tajave
tajavekue
taji
tajikita
tajurekokuaa
tajy
tajyapy
tajygue
takamby
takape
take
taken
takes
tako
taku
takua
takuapi
takuara
takuare
takuarembo
takuarilla
takuary
takuati
takumbu
takuru
tal
talabarteri
talavera
talcahuano
talento
talk
talkpage
tall
talla
tallada
tallado
taller
talleres
talo
tama
taman
tamandare
tamandua
tamanno
tamara
tamayo
tambaki
tambe
tambie
tambor
tambuata
tame
tamil
tamoi
tan
tancredo
tanderovasa
taneresa
tang
tangara
tango
tangos
tani
tanimbu
tanino
tano
tanto
tanzania
tapa
tape
tapeguasu
tapeho
tapehu
tapekue
tapepo
tapere
tapereko
taperekokuaa
taperyva
tapevai
tapi
tapia
tapiagua
tapiaite
tapicha
tapichakue
tapichakuke
tapiete
tapirakua
tapiryja
tapiti
tapo
tapua
tapy
tapykue
tara
taragui
taraguipe
taramo
tarantino
tararira
tarave
tarde
tardi
tare
tarekaja
target
targetclass
targets
targetsource
tarija
tarjeta
taro
tarope
tarova
tarragona
taru
taruma
tarumaite
tasa
tase
task
taskent
tasymombiaha
tasyo
tata
tataindy
tatajyva
tatakua
tatambogueha
tatapy
tatarapo
tatati
tataupa
tataveve
tatavevy
tataypy
tati
tatiana
tatu
tatua
tatukua
tau
taupe
taurus
tava
tavagua
tavaguasu
tavaguasukue
tavaha
tavaite
tavakuaireta
tavakue
tavanda
tavao
tavape
tavapegua
tavapehe
tavapy
tavarandu
tavarandugua
tavavo
tavavore
tavaygua
tavayguakue
tavayguarekua
tave
taveta
tavo
tavusu
tavy
tavytera
taxa
taxonomic
taxonomie
tayikista
taylor
tayta
tbl
tbol
tc
tchecoslovakia
tchekoslovakia
tcoins
tcommon
td
te
teatral
teatro
tebicuary
tebikuary
techa
techaga
techakuaa
techapyra
techara
techaramo
techaukaha
techaukara
technical
techo
techreport
tecladista
teclista
tecnicatura
tecnolo
tecnologi
tecnologia
ted
tedra
tee
teeha
teera
teete
tefan
tegua
teha
tehau
tei
teixeira
teja
tejada
tejaramo
tejas
tejido
teju
tejujero
tejurugua
tejurusu
teko
tekoapovy
tekoasy
tekoaty
tekoayhu
tekochaukahakuaaty
tekochaukakuaaha
tekogua
tekoha
tekohaguigua
tekoharekokuaa
tekohatyai
tekohayhu
tekoite
tekoiterape
tekojoa
tekojoja
tekojojaha
tekojojara
tekokangy
tekokatu
tekokuaa
tekokyra
tekomara
tekombo
tekomboe
tekomboyvegua
tekome
tekomeme
tekomo
tekopaite
tekopora
tekopota
tekopotaite
tekopoti
tekopy
tekopykatu
tekopykuaa
tekora
tekosa
tekotapia
tekotapiaite
tekotee
tekoteve
tekovaicha
tekove
tekoveapy
tekovegua
tekovehai
tekovekuaaty
tekovekuaatyha
tekovekue
tekovemohendaha
tekovety
tekovon
tekoypykuaaty
tekua
tekuaa
tekuaaha
tekuareko
tel
tela
tele
teledramaturgia
telefo
telefoni
telemundo
teles
televisa
televisio
television
televisiva
televisivo
tell
telugu
tem
tema
temas
tembe
tembetary
tembi
tembiapo
tembiapoguigua
tembiapoha
tembiapojegua
tembiapokue
tembiapopora
tembiapora
tembiaporape
tembiapoukapy
tembiasa
tembiasagua
tembiasakue
tembiasapy
tembiechapyra
tembiechara
tembiejakue
tembiesara
tembigua
tembikuaa
tembikuaaja
tembikuaapave
tembikuaareka
tembikuaarekaha
tembikuaaty
tembikuaatyha
tembipe
tembiporu
tembipota
tembipu
tembipuru
tembipurukue
tembireko
tembirekora
tembo
temiandu
temiandukue
temimbo
temimbopo
temimo
temimoi
temipora
temira
temity
temp
temperatura
template
templatedata
templateeditor
templatepage
templates
templatestyles
temple
templo
tempmeta
tempo
temporada
temporal
temporary
tempos
temuco
ten
tena
tenaza
tenda
tendagua
tendaguakue
tendakue
tendapy
tendota
tendotakue
tendri
tendy
tendyry
tendyrypyteha
tener
tenerse
tenesi
tenga
tengwar
teniente
tenis
tenista
tennessee
tenochtitla
tenonde
tenondegua
tenondeguaite
tenondeguave
tenondeite
tenondera
tenondete
tenondeve
tenor
tenorio
tentacio
tenyhe
teo
teodoro
teodosio
teologi
teori
tepe
tephritidae
tepoti
tepy
tepyme
tepysa
ter
tera
teraguapy
terakua
terara
teratee
tercer
tercera
terciario
tereho
terei
terence
terere
teresa
teresina
tereza
terminal
terminate
terminator
terms
tero
teroeta
teroja
teron
terotei
terra
terracota
terreno
territorial
territorio
territorios
terror
terrorista
terry
tesa
tesaka
tesapara
tesape
tesapeha
tesapemon
tesara
tesaraipe
tesaroryra
tesay
tesia
tesis
tesoro
tesoros
test
testamento
tested
testimonio
testing
tests
tet
teta
tetara
tete
teteasuka
teteasukary
tetekue
teten
tetepy
tetepyguigua
tetera
teterehegua
tetia
tetyma
teva
tevatee
tevatei
teve
tevi
tevicuary
tevikua
tevikuary
tevikuarymi
tex
texas
text
textalign
textcell
textes
textil
texto
textoamostrar
textocorregido
textonombrenativo
textopie
textos
textounidad
textstyle
tez
tg
th
tha
thali
thames
than
thani
thank
thanks
that
the
theatre
their
them
theme
themes
then
theo
theodor
theodore
theory
there
these
thesimpsons
thesis
they
thiago
thierry
thing
things
think
third
thirdcolor
this
thisrow
thomas
thompson
thomson
thorpe
those
thought
threatened
three
thrones
through
throwerror
thrown
thu
thumb
thumbcaption
thumbnail
thumbtime
ti
tia
tiago
tian
tibagi
tiberio
tibetano
tica
ticamente
ticas
tichy
ticio
tico
ticos
tidyval
tie
tiempo
tiempos
tienda
tiene
tienen
tienes
tienne
tierra
tierras
tieta
tiete
tiffany
tiger
tigre
tigres
tigrinum
tigris
tika
tikal
tikape
tiko
tikore
til
till
tim
tima
timane
timbo
time
timecaption
timefromqualifs
times
timestamp
timo
timor
timothy
timu
tina
tinfunque
tini
tinieblas
tintoretto
tio
tip
tipo
tipocabecera
tipologi
tipos
tira
tiradentes
tirador
tiramisu
tirani
tirant
tire
tiro
tirolesa
tis
tita
titanic
titi
titicaca
title
titlecell
titlecolspan
titlegroup
titlelink
titlenote
titleobj
titles
titlestyle
titletype
tito
titular
titulo
tivet
tivetano
tiveten
tivili
tl
tlaxcala
tld
tmon
tmulti
tnica
tnico
tnone
tnt
to
toba
tobago
tobati
toby
tocantins
toda
todas
todd
todo
todor
todos
together
togole
togue
toi
toike
toiko
toikuaa
toilette
toipytyvo
toje
tojejapo
tojokupyty
tokakuaa
tokio
tokugawa
toldi
toledo
tolkien
tolsto
tolteca
toluca
tom
toma
tomado
tomar
tomas
tomasson
tomasz
tomate
tomba
tombaugh
tome
tommy
tomo
tomos
tomyanyhe
ton
tonela
tonga
toni
tono
tonumber
tony
tool
tools
toolserver
tooltip
tooltipblurb
tooltipfragment
top
tope
topehy
topic
topo
toponimia
topyta
toque
tor
tora
torales
toranzos
tordesillas
tore
torero
torga
tori
toribio
torin
torneo
tornillo
toro
toronto
tororo
torquatus
torre
torres
torta
tortura
tory
tos
toscana
toscano
tosta
tostring
total
touchparameters
toulouse
tour
toure
touring
tova
tovake
tovakegua
tovakeo
tovasy
tovati
tove
tovendy
tovy
tower
town
towson
tr
tra
trabajadores
trabajando
trabajo
trabajos
trace
tracking
trackingcategories
tracy
trad
trade
tradicio
tradicional
tradicionales
tradiciones
traduccio
traducir
traductor
traductora
traductores
tragedia
trailing
trains
traje
trang
trans
transchaco
transchapter
transcluder
transcript
transcripturl
transerror
transforma
transformacio
translate
translated
translation
translations
translator
translatorlist
translators
transmisio
transparent
transporte
transportes
transtitle
tranvi
trap
trapalha
traquei
tras
trata
tratado
tratamiento
trayectoria
tre
treat
treated
trece
tree
treinta
trejo
tren
trenzado
trepatroncos
tres
treue
trevor
tri
tria
tribu
tribuna
tribunal
tribus
tributo
tricolor
triformes
tright
trigo
trilce
trillo
trim
trinchera
trinidad
trio
trip
triple
triste
tristeza
triunfo
triunvirato
tro
troche
trofe
trofeo
trombo
trompeta
trompetista
tronco
trono
tropa
tropical
tropicales
tropicalismo
trotsky
troupe
true
trueno
trujillo
truman
trump
truncar
truth
truthy
try
ts
tse
tshangla
tshanglan
tshering
tsort
tstubdoc
tt
tte
tu
tua
tube
tuberculosis
tucuma
tudo
tudor
tugua
tuguaiko
tuguaipopo
tuguy
tuguyasuka
tuicha
tuichaha
tuichaicha
tuichaite
tuichaiterei
tuichaiteve
tuichakue
tuichamba
tuichapajepe
tuichava
tuichave
tuichaveva
tuja
tujaite
tujakue
tujami
tujave
tuju
tujuguasu
tujuju
tujuti
tuka
tukandi
tuku
tukumbo
tulo
tulos
tumba
tumby
tume
tumingue
tuna
tunes
tung
tuni
tupa
tupao
tupasy
tupi
tupin
tupinamba
turbamulta
turca
turco
turdus
turi
turin
turing
turismo
turista
turistakue
turistico
turner
turno
turqui
turu
turun
turuturuka
turvo
turyki
tus
tutsi
tuva
tuvakue
tuvalu
tuvicha
tuvichavete
tuya
tuyki
tuykia
tuykian
tuykomenita
tuyuti
tv
tw
twain
twelve
twentieth
twitter
two
ty
tyapu
tyba
tye
tyeguasu
tyeguy
tyekuegua
tyepy
tyerasy
tyke
tykue
tyky
tyler
tymba
tymbachu
type
types
typy
typycha
typyraty
tyre
tyrone
tyru
tysy
tyvy
tyvykue
tyvyty
tz
tzu
u
ua
uahe
uaicha
uaig
uakari
uara
uata
uati
ubaldo
ubicacio
ubicada
ubuntu
ucb
ucfirst
ucrania
ucraniana
ucraniano
udia
udio
ue
uefa
uefs
uetersen
ufrgs
uga
uganda
ugarte
ugr
ugua
uguasu
uha
uhagua
uhe
uhi
ui
uiete
uiha
uite
uiva
uive
uiveva
uje
uk
uka
ukaso
ukatupyra
ukic
ukrainian
ukrainka
ukuaa
ukuaaty
ukue
ukya
ukyan
ul
ullo
ulo
ulrich
ultima
ultrasuperlativo
um
uma
umberto
umbu
umi
umiva
un
una
unam
unamuno
unas
unblocked
unbuild
uncategorized
uncio
unclosed
und
undefined
under
underscore
underscores
une
unesco
uni
unia
unicef
unicode
unida
unidad
unidades
unidas
unido
unidos
uniforme
unio
union
unique
unit
united
universal
universidad
universidade
universitaria
universitario
university
universo
unix
unknown
unless
unlike
unlp
uno
unos
unpack
unprotected
unprotection
unrecognized
unregistered
unset
unspaced
unstripnowiki
unsupported
until
uol
up
upa
upaite
update
updated
upe
upearo
upehague
upei
upeicha
upeichaha
upeichaite
upeicharamo
upeichave
upeigua
upeiguaite
upeiguakatuete
upeiguakoteve
upekue
upepe
upepegua
upepeve
uperamo
uperire
uperiregua
uperiremi
upero
uperupigua
upete
upeva
upevakue
upevara
upevare
upeve
upload
uploadanimage
uploaded
uploads
upon
upora
upper
uppercase
upright
upuku
upy
upyra
upyrusu
ur
ura
urae
uraguai
ural
urales
urano
urban
urbana
urbani
urbano
urbanos
urdu
ure
uren
urenda
uri
uriarte
uribe
uricomponents
url
urlarchivo
urlcorregida
urlorigin
urlpattern
urls
urna
uro
urss
uru
urugua
uruguai
uruguaigua
uruguay
uruguaya
uruguayo
uruku
urumbe
urunde
urupe
urutau
us
usa
usadas
usado
usados
usan
usando
usar
usd
use
used
useful
user
username
usernames
users
uses
usete
useve
usewikidata
usina
using
uso
usted
ustring
usuales
usually
usuaria
usuario
usuarios
utah
utc
utente
uteria
utica
utico
utiles
utilities
utiliza
utilizado
utilizar
utopi
uttar
uu
uva
uve
uvei
uvekita
uvo
uwe
uy
uzbekista
v
va
vaci
vacuna
vacuno
vaduz
vae
vaekue
vaera
vaere
vaesken
vagamundos
vagua
vaguasu
vagui
vaguigua
vahi
vahina
vai
vaicha
vaieta
vaiete
vaieterei
vaiha
vaika
vaikue
vainilla
vaipa
vaivai
vaive
vajepi
vaka
vakakue
vakapi
vakapipopo
vakapipopora
vakara
vako
vaku
vakue
vakuri
vakyte
val
valadon
valde
valderrama
valdez
valdivia
valdovinos
vale
valencia
valenciana
valenti
valentin
valentino
valenzuela
valeriano
valero
valha
valid
validacio
validar
validate
validation
valign
valki
valladares
valladolid
valle
vallejo
vallejos
vallemi
valley
vallverdu
valnum
valo
valois
valor
valordato
valores
valorfecha
valorimagen
valorposicional
valorposicionalcalif
valorpropiedad
valos
valparai
vals
value
valueexpl
valuefunc
values
valuetable
valverde
vambajepe
vamos
vampire
van
vana
vanc
vancouver
vandal
vandalism
vandalismo
vandenbergh
vandi
vanessa
vangalande
vango
vangu
vanguardia
vangylade
vaniko
vano
vante
vantu
vanua
vanuatu
vaoeera
vapa
vape
vapiko
vapor
vaquero
var
vara
varamo
vare
varela
vargas
vari
variable
variables
varias
variations
varios
various
varo
varro
varso
varsovia
varupi
varvado
vasa
vasco
vasconcellos
vasconcelos
vasi
vasili
vasso
vateri
vaticano
vatika
vatikano
vatu
vaughn
vauthors
vava
vave
vavie
vavilo
vayguakue
vayka
vaz
vda
ve
vea
vec
veces
vecinos
ved
veda
vedette
veditors
vega
vegetal
vegetales
veha
vei
veinte
veinticinco
veis
vek
vel
vela
velarde
velasco
velazco
vele
velha
velho
veli
velilla
velloso
velocidad
veloso
venancio
venda
vene
venecia
veneciano
venegas
veneno
venes
venesue
venezolana
venezolano
venezuela
venga
vengali
venganza
ventana
vente
ventos
ventura
venus
venustiano
vepe
ver
vera
veracruz
verano
verapy
verbo
verbos
verdad
verdadera
verdadero
verdades
verde
verdes
verduras
vere
verest
vereve
verevekue
vergara
vermelha
vermont
vernon
vero
veronica
veronika
versalles
versio
version
versions
verso
versos
vertical
vertonghen
vertu
vespucio
vestuario
vetaha
vete
veva
veve
vevehajere
vevu
vevuimi
vez
vi
via
viaducto
viagem
viaje
viama
viana
vianna
viape
vibrante
vica
vice
vicens
vicenta
vicente
vicenzo
vicepresidente
vich
vicho
vico
victor
victoria
victoriano
victorio
vicun
vida
vidal
vidas
video
videos
vidrio
vie
vieillot
vieira
vieja
viejecitas
viejo
vielorru
vielorrusian
viena
viento
vientos
vieri
vierne
viernes
vietnam
vietnamita
vietnampe
view
views
vigilancia
vih
vii
viii
viki
vikingos
vikipeta
viktor
vil
vila
viles
villa
villagra
villalba
villamayor
villanueva
villar
villarica
villarri
villarrica
villarrika
villarrikape
ville
villeta
vimba
vin
vincent
vinci
vini
vino
vinyard
vio
viola
violencia
violeta
violi
violin
violinista
violonchelista
vira
viral
virgen
virgilio
virginia
viriato
virreinato
virreirenda
virrey
virtual
virtud
viru
viruela
virumboja
virupurukuaa
virurekokuaa
viruro
virus
visa
visanti
viscosa
visible
visigodo
visio
visit
visita
visitadoras
visitante
visitantes
visitas
visnu
vista
visto
visual
visuales
vitamina
vito
vitoria
vittorio
viu
viuda
viva
vive
viver
vivero
viveros
vives
vivien
vivienda
vivir
vivo
vladi
vladimir
vladislav
vls
vo
voca
vocabulario
vocabularios
vocal
vocalista
voce
voces
voi
voice
voko
vokuarahy
vol
vola
volcano
volga
volgogrado
voli
volivia
voliviaygua
volta
voltaire
voltairine
volu
volubilis
volume
volumen
voluntad
volver
voma
von
vone
vonia
vonian
vonnegut
vora
voras
vore
voregua
voregui
vorekue
voremi
vorengue
vorepe
vori
vosa
voto
votusuana
vove
vowelfirst
voy
voyager
voz
vparam
vrasil
vrasilgui
vrasilpe
vrs
vu
vuda
vue
vuelo
vuelta
vuga
vugaria
vugarian
vuki
vung
vurei
vurundi
vuruse
vusu
vuta
vxxxxors
vy
vyma
vyreta
vyretan
vyrorei
w
wa
waddington
waffen
wagner
wales
walker
walking
wallace
wallis
walsh
walt
walter
walther
wanchope
wang
want
wanted
wantround
war
ward
warhol
warner
warning
warren
was
washington
watch
watchlist
water
waterpolista
watson
wawankira
way
wayne
wd
wdq
we
web
webb
weber
website
webster
week
weeks
weight
weimar
weiss
welle
wenceslao
were
werner
wes
wesley
wessel
west
western
westphalen
wey
what
whatever
whatsapp
wheelwright
when
where
whether
which
while
white
whitelist
whitespace
who
whole
whom
why
wide
width
widthcell
widthmax
widths
widthsk
widthstr
widthsumr
wien
wiezell
wife
wiki
wikibase
wikidata
wikilink
wikilinked
wikilinks
wikimapia
wikimedia
wikipedia
wikipedias
wikiproyecto
wikis
wikisource
wikispaces
wikitext
wilbur
wild
wildcard
wilde
wilfred
wilfrido
wilfried
wilhelm
wilker
wilkes
wilkinson
will
willard
willem
william
williams
williamson
willian
willie
willis
willy
wilma
wilmar
wilmots
wilson
wim
win
wind
windhoek
windows
windsor
wing
wings
winston
winter
wisconsin
with
within
without
wl
wo
wolf
wolfgang
wollstonecraft
woman
won
wood
woodard
woody
word
wordor
wordpress
words
wordsep
work
works
world
worldcat
would
wp
wrap
wrapped
wrapper
wrappers
wright
write
writing
writings
written
wrong
ws
wtf
wu
wuhan
wurtemberg
www
wyoming
władysław
włodzimierz
x
xabi
xavier
xela
xerais
xhaka
xherdan
xi
xia
xianfan
xica
xico
xido
xii
xiii
xima
ximenes
ximo
xinhai
xiphocolaptes
xiphorhynchus
xito
xiv
xix
xlate
xml
xv
xvi
xvii
xviii
xx
xxi
xxiii
xxvi
xxx
xxxxors
y
ya
yabebyry
yacare
yacyreta
yaguaro
yahya
yaka
yale
yalve
yambay
yampey
yang
yanga
yangtze
yann
yannick
yasa
yasir
yasyreta
yat
yataity
yau
yave
yaya
yby
ybycui
ybytumi
ybytymi
ybytyrusu
yd
yde
ye
year
years
yedid
yegros
yekou
yekpe
yeltsin
yemen
yerba
yerbatera
yes
yesno
yet
yeta
yete
yev
yg
yga
ygag
ygaguahe
ygaguy
ygakue
ygape
ygapo
ygapytaha
ygapytahakue
ygara
ygarata
ygarenda
ygarupa
ygarusu
ygary
ygatimi
ygua
yguakue
yguangue
yguasu
yguazu
ygue
ygui
yguy
yguypegua
yha
yhaguy
yhaka
yhika
yhupa
yi
yikue
yitzhak
yjepo
yjere
yjoko
yju
yjua
yjuva
yka
ykaraipyre
yke
ykere
ykeregua
ykete
ykua
ykuamandyju
ykue
yky
ym
yma
ymagua
ymaguare
ymaguareite
ymaite
ymaiteguare
ymakuaa
ymakuaaha
ymakuaaty
ymave
ymaveguare
ymboguataha
ymd
ymi
yn
ynambu
yno
yo
yoguireko
yoguirekovae
yogur
yolanda
yong
yoo
york
you
young
your
youssef
youth
youtube
ypa
ypacarai
ypaka
ypakarai
ypane
ypanunga
ype
ypegua
ypekarapa
ypeku
ypekua
ypeky
ypenaro
yperana
yperanaicha
ypety
ypiau
ypo
ypoa
ypy
ypygua
ypyguakue
ypykatu
ypykue
ypykuegua
ypykuekue
ypyraka
ypyro
ypytu
ypyva
yra
yrakue
yrape
yrary
yraryimboypy
yre
yreko
yrembe
yro
yru
yruguata
yruguatakue
yrukue
yrumy
yrupa
yrupe
yrupigua
yruti
yruveve
yrypy
yrysy
yryvu
ysa
ysaja
ysajakatu
ysajakuaa
ysajapuru
ysajarekokuaa
ysapu
ysapy
ysau
yse
ysia
yso
ysokue
ysy
ysypo
ysyry
ysyryguasu
ysyryguasukue
ysyrykue
ysyrymi
ysyrype
ysyvo
yta
ytaha
ytaku
ytasa
ytororo
ytu
yty
yu
yuan
yucata
yudoca
yue
yugoslavia
yugoslavo
yul
yumbel
yun
yupi
yurchen
yuri
yva
yvagamba
yvagarenda
yvaja
yvakue
yvapo
yvapuru
yvate
yvateame
yvategua
yvategui
yvateite
yvatekorea
yvatekuarahyreike
yvatekuarahyrese
yvatekuarahyse
yvatekue
yvatete
yvateve
yvatevegua
yvatevogua
yve
yvera
yves
yvette
yvo
yvoragua
yvorakue
yvorasa
yvoreva
yvoty
yvotykue
yvotyty
yvotyva
yvu
yvy
yvya
yvyafrika
yvyame
yvyapasusu
yvyape
yvyapekuaa
yvyapekuaaha
yvyapy
yvyapykorea
yvyate
yvygotyo
yvygua
yvyguasu
yvyguigua
yvyguy
yvyha
yvyjyva
yvykorea
yvyku
yvykua
yvykuaa
yvykue
yvymbovoha
yvypave
yvype
yvypehe
yvypo
yvypora
yvyporakue
yvyra
yvyragui
yvyraita
yvyraja
yvyrakua
yvyrakue
yvyrama
yvyramata
yvyrapa
yvyrape
yvyrapuku
yvyrapyta
yvyraraka
yvyraro
yvyrasy
yvyrata
yvyraty
yvyrei
yvyrekokuaa
yvyrekokuaaha
yvyrupigua
yvyrusu
yvyryry
yvyrysy
yvysyry
yvyte
yvytenda
yvytimbo
yvytu
yvytuaku
yvyturo
yvyturusu
yvytuvai
yvyty
yvytykue
yvytymi
yvytypanema
yvytypo
yvytyrata
yvytyru
yvytyrusu
yvytyrysy
yvytyrysyi
yvyvo
yvyvore
yy
yyah
yyy
yyyy
z
za
zacari
zacatecas
zagallo
zahir
zam
zambia
zambiano
zamora
zamuco
zanardini
zanja
zanzi
zapata
zar
zaragoza
zarato
zaro
zarratea
zarza
zarzuela
zavala
zavarov
zayas
zbigniew
zbl
ze
zea
zedong
zef
zenteno
zepeda
zero
zg
zh
zheng
zho
zhou
zhu
zhuang
zi
zico
zidane
zika
zil
zimbabue
zinc
zinedine
zlatan
zoilo
zolta
zona
zonas
zone
zonificacio
zoo
zoolo
zoologi
zoono
zorrilla
zorro
zquez
zsef
zu
zubizarreta
zuckerberg
zumpango
zungaro
zy
{
|
}
~
¡
¤
¥
§
¨
©
ª
«
¬
®
°
±
²
³
´
µ
¶
·
º
»
¿
×
æ
ø
ƿ
ǆ
ɏ
ɑ
ɒ
ɨ
ʰ
ʱ
ʲ
ʷ
ʹ
ʻ
ʼ
ʾ
ʿ
ˁ
ˈ
ˌ
ː
˙
˛
ˤ
̀
́
̂
̃
̄
̆
̇
̈
̉
̊
̋
̌
̍
̏
̑
̓
̔
̛
̣
̤
̥
̦
̧
̨
̪
̭
̯
̰
̱
͂
͡
α
β
γ
δ
δη
ε
ζ
η
θ
ι
κρα
λ
μ
μος
ν
ο
π
ρ
ς
σ
τος
χ
ψ
ω
а
альта
віолончела
д
для
до
з
и
категория
категорија
катэгорыя
квартет
мавка
маи
н
на
нські
п
серце
симфонія
скрипки
т
та
труннии
тріо
у
украі
фортепіано
х
є
і
։
ֵ
ֶ
ַ
ָ
ֹ
ּ
ׁ
ב
ה
ו
מ
ר
ש
ا
الا
ب
ة
د
دولة
ر
س
ط
غ
و
ي
َ
ِ
ّ
ْ
ٔ
ٕ
ی
ހ
ރ
އ
ވ
މ
ދ
ލ
ގ
ޔ
ޖ
ާ
ި
ު
ޫ
ެ
ޭ
ް
ࡏ
ं
ः
क
घ
च
ज
ड
ण
त
द
न
प
फ
भ
म
य
र
ल
व
श
स
़
ा
ि
ी
ु
ृ
े
ो
ौ
्
ॐ
ং
ক
ত
ব
ল
া
ি
ਂ
ਦ
ਲ
ਿ
ੀ
ੱ
પ
બ
ા
ુ
க
ங
ச
ட
ப
ர
ழ
ா
ி
ு
ூ
ே
ை
்
௦
௧
௨
௩
௪
௫
௬
௭
௮
௯
ం
గ
ణ
త
ల
ా
ె
౦
౧
౨
౩
౪
౫
౬
౭
౮
౯
ം
ക
ഗ
ട
ബ
യ
ല
ാ
ി
ീ
ൂ
്
൦
൧
൨
൩
൪
൫
൬
൭
൮
൯
ං
ක
ත
ද
න
ප
ර
ල
ශ
්
ා
ි
ී
อ
ั
ื
ุ
ู
่
๐
๑
๒
๓
๔
๕
๖
๗
๘
๙
ດ
ນ
ັ
ິ
ົ
་
ཁ
ག
ང
ཆ
ཇ
ད
ན
པ
ཕ
བ
མ
ཛ
ཞ
ཟ
ཡ
ར
ལ
ཤ
ས
ཨ
ི
ུ
ེ
ོ
ྐ
ྒ
ྔ
ྟ
ྡ
ྤ
ྨ
ྱ
ྲ
ླ
ខ
ជ
ញ
ណ
ន
ព
ភ
ម
រ
ស
ា
ុ
េ
ែ
ំ
ះ
្
᠐
᠑
᠒
᠓
᠔
᠕
᠖
᠗
᠘
᠙
​
‍
‎
‏
–
—
―
‘
’
“
”
„
†
•
…
′
″
€
ℝ
™
→
↔
↷
−
≤
≥
③
④
⑦
☉
☾
☿
♀
♂
♃
♄
♆
♇
⚳
⛢
⯓
⯰
ⴰ
ⴳ
ⴵ
ⴷ
ⴻ
ⴼ
ⴽ
ⵉ
ⵎ
ⵏ
ⵓ
ⵔ
ⵖ
ⵗ
ⵙ
ⵛ
ⵜ
ⵟ
ⵢ
ⵣ
⺀
⺄
⺆
⺈
⺊
⺌
⺕
⺝
⺸
⺼
⿰
⿱
⿲
⿳
⿴
⿵
⿶
⿷
⿸
⿹
⿺
⿻
、
〢
ぁ
あ
ぃ
い
う
ぇ
え
ぉ
お
か
き
こ
さ
そ
た
て
と
な
の
は
ひ
ふ
へ
ほ
ま
み
む
め
も
ゃ
や
ゅ
ょ
よ
ら
り
る
れ
ろ
ん
゙
゚
ァ
ア
ィ
ウ
ェ
ォ
オ
カ
ク
ケ
コ
サ
シ
ス
ソ
タ
チ
ッ
ト
ナ
ニ
ネ
ハ
ヒ
フ
ヘ
ホ
マ
ミ
ム
メ
モ
ャ
ュ
ユ
ョ
ラ
リ
ル
レ
ロ
ワ
ン
ヶ
・
ー
ㅣ
㇁
㇂
㇄
㇇
㇈
㇉
㇓
㐁
㐄
㐅
㐌
㐫
㐬
㐭
㐮
㐱
㑒
㒵
㒸
㒼
㓁
㓞
㔾
㕛
㕣
㖾
㘝
㚅
㚇
㚔
㚘
㝉
㝡
㝴
㝵
㞋
㞢
㞷
㠩
㠭
㠯
㡀
㡭
㡿
㢲
㢴
㣇
㣺
㥯
㪅
㫄
㫐
㫒
㫺
㬅
㬎
㬥
㬰
㲋
㳄
㷠
㸒
㸚
㸦
㼌
㼲
㽞
㿟
䀠
䂞
䍃
䏍
䒑
䖍
䖒
䖝
䖵
䙴
䚻
䜌
䝿
䡛
䧹
䪞
一
丁
丂
七
丄
丅
丆
万
丈
三
上
下
丌
不
与
丏
丐
丑
专
且
丕
世
丘
丙
业
东
丞
丢
丣
两
严
並
丨
丩
个
丫
丬
中
丮
丰
丱
串
丵
丶
丷
丸
丹
为
主
丽
丿
乀
乂
乃
久
乆
乇
么
义
之
乌
乍
乎
乏
乐
乑
乔
乖
乗
乘
乙
乚
乛
乜
九
乞
也
习
乡
乳
乾
亀
亅
了
亇
予
争
事
二
亍
于
亏
亐
云
互
亓
五
井
亘
亚
亜
亞
亟
亠
亡
亢
交
亥
亦
产
亨
亩
享
京
亭
亮
亯
亰
亲
亳
亶
亷
人
亻
亼
亾
仁
今
介
仌
从
仐
仑
仒
仓
仕
他
付
仝
代
令
以
仲
任
企
伊
伏
伐
休
会
伯
但
位
何
佘
余
作
佥
佳
使
來
侈
侌
侍
侖
侯
侵
便
保
俞
信
修
倉
倍
候
倠
備
僉
僕
儿
兀
允
兂
元
兄
充
兆
兇
先
光
兊
克
兌
免
兑
兒
兓
兔
党
兜
兟
入
全
兩
兪
八
公
六
兮
兰
共
关
兵
其
具
典
兹
兼
冀
冂
冃
冄
内
冈
冉
冊
冋
册
再
冎
冏
冐
冒
冓
冖
冗
冘
军
农
冝
冡
冥
冫
冬
冷
几
凡
凢
凱
凵
凶
凷
凸
凹
出
函
凾
刀
刁
刂
刃
刄
刅
分
切
刍
刑
刕
刖
列
刘
则
初
別
利
别
到
制
刺
則
削
剌
前
剛
剡
剽
劉
力
功
加
劦
动
助
劫
劳
劵
勃
勇
勉
勒
動
務
勞
勤
勹
勺
勻
勾
勿
匀
匂
包
匆
匈
匊
匋
匍
匕
化
北
匚
匝
匡
匪
匱
匸
匹
区
医
匽
匿
區
十
卂
千
卄
卅
卆
升
午
卉
半
卌
华
卑
卒
卓
单
卖
南
卜
卝
卞
占
卡
卢
卣
卤
卦
卩
卪
卬
卯
印
危
即
却
卵
卷
卸
卻
厂
厃
厄
历
厈
厉
厌
厓
厘
厚
原
厤
厥
厨
厭
厲
厶
厷
厸
去
厼
厽
叀
参
參
叅
又
叉
及
友
双
反
叐
发
叒
叔
叕
取
受
叚
叜
叟
口
古
句
另
叩
只
召
可
台
叱
史
右
叵
号
司
叹
吂
各
吅
合
吉
吊
吋
同
名
后
吏
向
吕
君
吝
吞
否
含
启
吳
吴
吹
吾
呂
呆
呈
告
员
呙
周
命
咅
和
咎
咠
咢
咨
咸
咼
哀
品
哉
員
哥
哲
唐
商
啇
問
啚
啬
啻
善
喜
喬
單
喿
嗇
嘢
噩
嚴
囊
囗
囘
囙
囚
四
回
囟
因
囧
囬
困
囱
囷
固
国
圂
圅
國
圍
園
圓
土
圡
圣
圥
在
圭
地
圶
圼
坐
坒
坚
坡
坴
垂
垔
垚
垣
埀
埋
城
埶
執
基
堂
堅
堆
堇
堯
場
塞
墨
壘
士
壬
壯
声
壳
壴
壹
壺
壽
夂
处
夅
夆
备
夊
夋
夌
复
夏
夒
夕
外
夗
夘
多
夜
夢
大
夨
天
太
夫
夬
夭
央
失
夲
头
夷
夸
夹
夻
夾
奂
奄
奇
奈
奉
奎
奏
奐
契
奓
奔
奚
奞
奠
奢
奥
奧
奭
女
奴
奻
好
如
妄
妙
妟
妥
妻
妾
始
姑
委
姜
威
娄
婁
婴
嬰
嬴
子
孑
孔
孕
孖
字
存
孚
孛
孝
孟
季
孤
学
孫
孱
學
宀
宁
宂
它
宅
宇
守
安
宋
完
宏
宓
宗
官
定
宛
宜
宝
実
客
宣
室
宮
宰
害
家
容
宾
宿
寄
寅
密
富
寒
察
寧
審
寫
寬
寮
寸
对
寺
寻
寽
対
寿
封
尃
射
将
將
專
尉
尊
尋
尌
對
小
少
尒
尓
尔
尖
尗
尚
尞
尢
尣
尤
尧
尨
尭
就
尸
尹
尺
尻
尼
尽
尾
尿
局
居
屆
屈
届
屋
屎
屏
屑
展
屖
屚
属
屠
屡
屬
屮
屯
屰
山
屵
屾
岁
岂
岐
岑
岡
岩
岳
岸
峯
島
峽
崇
崎
崑
崔
崖
崙
崩
嵬
嶲
嶽
巂
巛
川
州
巟
巠
巢
巤
工
左
巧
巨
巩
巫
差
己
已
巳
巴
巷
巸
巽
巾
巿
帀
市
布
希
帚
帛
帝
带
師
席
帶
常
干
平
年
幵
并
幷
幸
幺
幻
幼
幽
幾
广
広
庄
床
底
店
庚
府
度
庫
庭
庶
康
庸
廉
廌
廛
廣
廩
廴
延
廷
建
廾
廿
开
弁
弃
弄
弇
弋
式
弓
弔
引
弗
弘
弜
弟
弥
弦
弱
張
強
强
彊
彌
彎
彐
彑
当
彔
录
彖
彗
彡
形
彥
彦
彧
彭
彳
役
彼
往
待
律
徒
得
徙
從
御
復
微
徵
心
忄
必
忌
忍
志
忝
忠
忩
快
念
忽
忿
思
怠
急
怱
恆
恒
恩
恭
息
悉
患
悤
悲
悶
惠
惡
惢
愁
愈
意
愛
感
慈
慧
慮
慶
憂
憲
應
戀
戈
戉
戊
戋
戌
戍
戎
成
我
戒
戔
或
戚
戠
戢
截
戲
戶
户
戹
戼
戾
房
所
扁
扇
手
扌
才
打
托
执
承
折
抱
拉
拜
拝
拿
掌
推
提
揖
摩
支
攴
攵
收
攸
改
放
政
敄
敏
敕
敖
敗
敝
敞
敢
散
敦
敫
敬
数
敷
數
斂
文
斉
斊
斎
斐
斗
斤
斥
斩
斬
斯
新
方
於
施
斿
旁
旋
族
无
旡
既
旣
日
旦
旧
旨
早
旬
旱
旲
时
旾
昆
昇
昌
昍
明
昏
易
昔
昗
昜
星
春
昬
是
昱
昴
昷
時
晃
晋
晏
普
景
晴
晶
智
暑
暴
曇
曩
曰
曲
曳
更
曷
書
曹
曼
曾
替
最
朁
會
月
有
朋
服
朔
朕
朗
望
朝
木
朩
未
末
本
札
朮
术
朱
朵
朶
朿
杀
杏
村
杜
束
条
来
東
杲
杳
松
板
析
枕
林
枚
果
枝
枲
枼
某
柔
查
柬
柰
柴
柿
栗
桀
桑
桼
梁
條
梟
梨
棘
棠
棥
森
楚
業
楽
榮
樂
樊
樹
欠
次
欣
欮
欲
欶
欽
款
歆
歇
歛
止
正
此
步
武
歨
歪
歮
歯
歰
歲
歴
歷
歸
歹
歺
死
殳
段
殷
殸
殹
殺
殻
殿
毋
毌
母
每
毒
比
毕
毚
毛
毳
氏
氐
民
气
氣
水
氵
氶
氷
永
氺
氾
求
汉
汝
汞
江
池
沃
沓
沖
沙
沝
河
泉
法
波
泣
泥
泰
洛
洪
活
派
流
浦
浪
浮
海
淡
淮
清
渚
渠
湯
湾
源
滉
滿
漢
漸
灣
火
灬
灭
灰
灵
灷
炅
炎
炏
炗
炙
炭
為
烈
烏
烝
焉
無
焦
焱
然
煞
熊
熏
燕
營
燮
爪
爫
爭
爯
爰
爱
爲
爵
父
爻
爽
爾
爿
片
牙
牚
牛
牜
牟
牢
牧
物
牪
特
牽
犀
犬
犭
犮
狂
狄
狊
独
狺
猋
猒
猪
献
獻
玄
率
玉
王
玟
玨
现
珎
班
琴
瑟
瑩
璠
環
瓜
瓦
甘
甚
生
產
産
用
甫
甬
田
由
甲
申
电
甶
男
甸
甹
町
画
甾
畀
界
畏
畐
留
畜
畟
畢
畧
畨
番
畫
異
畱
當
畺
畾
疊
疋
疌
疑
疒
疾
癶
癸
癹
登
發
白
百
皀
皃
的
皆
皇
皋
皐
皕
皮
皷
皿
盃
盆
盇
盈
益
盍
盎
监
盒
盖
盛
盡
監
盤
盧
目
直
相
盾
省
眇
眉
看
県
眔
眞
真
眠
眷
眼
眾
着
睘
睪
睿
瞏
瞢
瞿
矍
矛
矞
矢
矣
知
矦
短
石
破
碎
磊
磨
示
礻
礼
社
神
祟
票
祭
禀
禁
禸
禹
禺
离
禽
禾
禿
秀
秃
秉
秋
科
秝
秦
移
稟
穀
穌
穴
究
穹
空
穿
突
窄
窒
立
竒
竜
竝
竟
章
童
竹
笑
笠
第
筆
等
答
箕
算
箴
節
篤
篭
米
粉
粛
粟
粤
粦
粲
糞
糸
糹
系
約
納
級
素
索
紫
累
細
絜
絫
絲
絵
維
綿
縄
縣
繇
纍
纟
缶
网
罒
罔
罕
罗
罙
罡
罢
罪
署
罷
羅
羊
羌
羍
美
羔
羕
羗
羞
羡
羣
群
義
羲
羸
羽
翁
翏
習
翕
翟
翠
翼
老
耂
考
者
耆
而
耎
耑
耒
耳
耴
耶
耷
聂
聊
聖
聚
聲
聶
聿
肀
肃
肅
肉
肖
肙
肥
肩
肯
育
肴
胃
背
胡
胥
能
脊
脩
膚
臣
臤
臧
自
臬
臭
臯
臱
至
致
臺
臼
臽
臾
臿
舀
舂
舄
與
興
舉
舌
舍
舛
舜
舞
舟
航
般
艮
良
色
艸
艹
艾
芒
芔
芬
芮
花
芳
芺
芻
苔
苗
苟
若
苦
英
茶
茸
荅
草
荒
荣
荼
莆
莧
莫
莽
菆
菊
菐
華
萬
落
葉
著
葛
董
葵
蒙
蒦
蒼
蓋
蓬
蓺
蔑
蔡
蕉
蕭
薄
薛
薦
薫
薰
藍
藏
藥
蘭
虍
虎
虐
虒
虔
處
虖
虗
虘
虚
虛
虜
虞
虫
虽
蚤
蚩
蜀
蜜
蟲
蠡
血
行
衍
衛
衣
衤
表
衮
衰
袁
袞
裏
褭
褱
襄
襾
西
覀
要
覃
見
規
覓
覧
親
覽
见
角
解
言
訁
訇
計
話
詹
語
誩
諸
讠
谷
豆
豈
豊
豐
豕
豖
豙
象
豦
豩
豪
豸
貇
貝
貞
貟
負
貢
貧
貪
貫
責
貳
貴
買
費
賁
資
賈
賏
賓
賔
賛
賞
賢
賣
質
賴
贊
贝
贡
责
贯
贲
贵
赖
赞
赤
赦
走
越
足
路
蹇
身
躬
車
軍
軎
軟
輔
輦
车
辛
辜
辟
辥
辰
辱
農
辵
辶
边
达
过
运
近
连
迷
追
退
送
逆
逐
通
速
造
逢
連
逮
進
遀
遂
運
過
道
達
遣
適
遷
遺
邊
邑
邕
那
邦
邪
郎
郡
部
郭
都
鄉
酉
酋
配
酒
酓
釆
采
里
重
野
量
金
釒
錢
鐵
钅
長
镸
长
門
閃
閉
開
閏
閑
閒
間
閔
関
閵
閻
闌
门
间
闷
阑
阜
阝
阿
降
陳
隆
隊
隋
階
隡
隨
隱
隶
隹
隺
隻
隼
隽
难
雀
雁
集
雈
雋
雍
雐
雔
雙
雚
雜
雝
離
難
雨
雩
雪
雲
零
雷
需
霍
霜
霝
霞
霸
靈
靑
青
静
非
靡
面
靣
革
韋
韓
韦
韭
韯
韱
音
頁
頃
項
須
頗
頡
頭
頻
顛
類
页
额
風
风
飛
飞
食
飠
養
館
饣
首
香
馬
馮
駦
马
骨
高
髟
鬥
鬯
鬲
鬼
魚
魯
鮮
鱤
鱼
鲁
鲜
鳥
鳳
鷹
鸟
鹵
鹿
麃
麗
麥
麦
麻
黃
黄
黍
黎
黑
黒
黨
黹
黽
黾
鼎
鼓
鼠
鼻
齊
齋
齐
齒
齿
龍
龙
龜
龟
龠
龰
龱
龴
龵
龶
龷
龸
龹
ꞌ






者
艹
﻿
（
）
，
？
￼
𐌳
𐌴
𐌹
𐌽
𐍃
𐍆
𐍉
𒀭
🇦
🇧
🇪
🇵
🇷
🇸
🇺
🇾
🇿
😂
🜨
𠀁
𠀃
𠀆
𠀉
𠀎
𠀐
𠁁
𠁣
𠂆
𠂇
𠂈
𠂉
𠂊
𠂋
𠂎
𠂒
𠂔
𠂛
𠂡
𠂢
𠂤
𠂬
𠂭
𠂹
𠃊
𠃋
𠃌
𠃍
𠃎
𠃑
𠃓
𠃔
𠃜
𠄌
𠄎
𠄠
𠄢
𠆢
𠆥
𠇍
𠈌
𠌵
𠓜
𠔉
𠔥
𠔼
𠔽
𠔿
𠕀
𠕁
𠕋
𠘧
𠘨
𠙻
𠙼
𠚏
𠚒
𠚤
𠚪
𠣏
𠤎
𠤕
𠥓
𠦄
𠦑
𠦝
𠧒
𠧗
𠧪
𠩺
𠪚
𠫓
𠫔
𠫤
𠬛
𠬝
𠬞
𠬢
𠬤
𠬶
𠮛
𠮦
𠮷
𠯑
𠱠
𠳮
𠷎
𡈼
𡉀
𡉵
𡌥
𡍮
𡏳
𡕒
𡕩
𡕰
𡖅
𡗗
𡗜
𡘆
𡘤
𡧱
𡨄
𡩧
𡬠
𡭽
𡰣
𡰥
𡰪
𡰯
𡰱
𡷈
𡸁
𡿨
𡿩
𡿪
𡿺
𢀖
𢀛
𢀩
𢁙
𢆉
𢆰
𢆶
𢇁
𢇇
𢉖
𢌬
𢌿
𢏚
𢑑
𢑚
𢖻
𢙣
𢛳
𢦏
𢦒
𢧵
𢼄
𢾕
𣁋
𣄼
𣅀
𣅽
𣍘
𣎳
𣎵
𣏋
𣏼
𣗥
𣥂
𣥖
𣦵
𣦼
𣧄
𣪊
𣪠
𣬉
𣳾
𣶒
𤇾
𤊽
𤐫
𤓰
𤔔
𤕨
𤣩
𤰇
𤰔
𤰞
𤴓
𤴔
𤽄
𥁑
𥁕
𥃦
𥃩
𥃭
𥇡
𥑟
𥘅
𥘈
𥝢
𥫗
𥱡
𦈢
𦉪
𦉬
𦉼
𦍌
𦍒
𦎧
𦐇
𦓔
𦔮
𦘒
𦙃
𦚏
𦣝
𦣞
𦣻
𦥑
𦥔
𦥯
𦨉
𦭝
𦰩
𧆞
𧈧
𧘇
𧰨
𧴪
𧴮
𧵩
𧾷
𨸏
𨾴
𩙿
𩠐
𩫏
𩵋
𪉷
𪜀
𪟽
𪠲
𪩲
𫇦
𫔭
𫜸
𫝀
𫠣
𫠩
𫢉
𫥞
𫩏
𫩠
𫪡
𫲽
𫶧
𬀷
𬐘
𬗌
𬙙
𬛸
𬜯
𬟩
𬯁
𬴘
𬺻
𬼉
𬼖
𭀰
𭁈
𭁨
𭅰
𭑈
𭕄
𭗼
𭤨
𭥫
𭻾
𮅕
𮊿
𮍌
𮍏
𮓗
𮥼
𮧮
廾
𰀁
𰀄
𰀈
𰀉
𰀕
𰀠
𰀡
𰀢
𰀪
𰁜
𰃮
𰆊
𰆘
𰋙
𰕎
𰢴
𰧭
𰯲
000--
01--
02--
04--
09--
102--
114--
121--
123--
131--
136--
37--
38--
41--
42--
43--
46--
51--
55--
60--
61--
62--
65--
69--
71--
73--
75--
76--
78--
800--
82--
83--
86--
90--
91--
93--
94--
95--
96--
978--
98--
a--
aa--
ab--
aba--
abbre--
abd--
abdul--
abi--
above--
abs--
abu--
ac--
aca--
ace--
aco--
aconteci--
ad--
add--
added--
ade--
adi--
adic--
ado--
ae--
af--
afi--
afir--
ag--
aga--
aglu--
agri--
agua--
ague--
ah--
aha--
ahukew--
ahukewj--
ai--
aisl--
aite--
aj--
aja--
aje--
aju--
ak--
aka--
ako--
aku--
al--
ala--
albo--
aldr--
ale--
alek--
aless--
alf--
ali--
all--
alma--
almen--
alt--
am--
ama--
ambo--
ame--
ametralla--
ami--
amo--
amp--
amy--
an--
ana--
anar--
and--
ande--
andu--
ane--
anemo--
ang--
anga--
ani--
ans--
ante--
anti--
any--
ao--
apa--
ape--
apo--
app--
apr--
apt--
apu--
apy--
aqui--
ar--
ara--
arapy--
ardi--
are--
arg--
args--
ari--
aro--
art--
aru--
ary--
arz--
as--
asa--
asce--
ase--
ash--
asia--
asoc--
asp--
ast--
asu--
asy--
at--
ata--
ate--
ati--
ato--
atu--
aty--
au--
austr--
auto--
autor--
av--
ava--
ave--
avo--
aw--
awe--
ay--
az--
azu--
b--
ba--
bab--
bach--
bad--
bag--
bal--
ball--
ban--
band--
banner--
bar--
bas--
bat--
bau--
bay--
be--
beau--
bec--
bed--
bel--
ben--
ber--
bere--
beren--
berleps--
bet--
bi--
bia--
bielo--
bin--
bio--
bir--
bis--
bl--
blan--
blo--
block--
blockip--
bn--
bo--
boa--
bob--
body--
bol--
bom--
bon--
bor--
bord--
borra--
bot--
bou--
boul--
bour--
br--
bracke--
bre--
bri--
bro--
broc--
broken--
bron--
bru--
bu--
budi--
bug--
bul--
bun--
bur--
burn--
bus--
but--
by--
c--
ca--
cac--
cacho--
cai--
cal--
cali--
calum--
camp--
can--
cap--
capa--
car--
cara--
cas--
casa--
casi--
cat--
cata--
category--
cau--
cc--
cd--
ce--
ceb--
cele--
cer--
cervan--
ch--
cha--
che--
chi--
cho--
chr--
chu--
ci--
cia--
cich--
cir--
circun--
ck--
cl--
cla--
claims--
clase--
cle--
cli--
cn--
co--
coin--
col--
cola--
colle--
color--
com--
comp--
computa--
comu--
con--
concentra--
confe--
confi--
confirm--
confirmun--
confu--
conside--
const--
consul--
conta--
content--
context--
convent--
convir--
coque--
cor--
corn--
corri--
cosmo--
cou--
cour--
cra--
cre--
create--
creen--
cri--
cro--
cru--
cry--
cs--
cu--
cua--
cubi--
cue--
cul--
cult--
cum--
cur--
cy--
cyano--
cym--
d--
da--
dag--
dak--
dal--
dam--
dan--
dar--
date--
day--
db--
dd--
de--
dec--
default--
defe--
defin--
deg--
dei--
del--
den--
dendroc--
deo--
der--
des--
desen--
detec--
deter--
deu--
di--
dia--
die--
difer--
difun--
digest--
dina--
dis--
discri--
disp--
display--
disr--
dist--
div--
dj--
dji--
dm--
do--
doc--
dol--
dolp--
dom--
domi--
dona--
donce--
done--
dor--
dora--
dos--
double--
dr--
du--
dun--
dup--
dy--
dz--
dzongk--
e--
ea--
echa--
eco--
ed--
edit--
ee--
eeddii--
effective--
eg--
egue--
eha--
ehao--
ei--
eime--
eisen--
eja--
eje--
ejecut--
ek--
eka--
eko--
el--
ela--
ele--
eli--
em--
ema--
email--
emba--
embo--
emby--
eme--
emi--
emo--
emog--
emopy--
emu--
emy--
en--
enco--
encon--
encuent--
end--
enfa--
enlace--
ensam--
enumera--
enun--
eo--
ep--
epe--
epi--
epide--
eporo--
epu--
epy--
equi--
er--
era--
ere--
eri--
ero--
es--
esa--
esc--
escolhi--
escon--
ese--
esque--
esqui--
esti--
estilo--
estua--
et--
eta--
ete--
etiqueta--
etui--
eu--
euro--
eva--
eve--
evi--
ex--
excom--
exi--
expan--
expl--
ext--
ey--
ez--
f--
fa--
fabri--
facil--
fact--
fad--
fal--
far--
faw--
faz--
fe--
fecha--
feder--
felic--
fer--
fes--
ff--
fi--
fif--
figue--
fil--
file--
fili--
filt--
fin--
fio--
fitz--
fla--
flu--
fo--
for--
format--
formato--
foto--
fou--
fr--
fra--
fre--
fred--
free--
frie--
fro--
fru--
frus--
fu--
fuente--
fun--
fusc--
g--
ga--
gae--
gagl--
gai--
gal--
gala--
gan--
gar--
gard--
garri--
gas--
gatt--
gau--
gay--
ge--
gel--
gen--
gene--
geo--
ger--
get--
ghi--
gi--
gian--
gil--
gio--
giu--
giul--
gl--
glo--
gn--
go--
god--
gol--
gold--
gor--
got--
gra--
gradu--
grava--
grazi--
gre--
gri--
gro--
groen--
group--
gru--
gu--
gua--
guadala--
guard--
guasu--
gue--
gui--
gur--
guy--
gya--
h--
ha--
hab--
habil--
hacer--
hague--
hai--
hal--
han--
hand--
hanni--
har--
hart--
has--
hasy--
hat--
haw--
hay--
he--
hei--
heko--
hell--
help--
hembi--
hen--
henda--
hepy--
her--
hera--
hereko--
hesa--
heta--
hete--
hi--
hin--
hipp--
his--
hispano--
ho--
hob--
hoga--
hol--
home--
hor--
horti--
hou--
hova--
how--
hr--
hu--
hua--
hy--
hydr--
hye--
i--
ia--
iba--
ibe--
ibir--
ibr--
ic--
ice--
icha--
id--
identidad--
identific--
ie--
if--
ign--
iha--
ii--
ij--
ija--
ijao--
ijaty--
ije--
ijo--
ijuk--
ik--
ika--
ikaru--
iko--
iku--
ikua--
ikyra--
il--
ile--
ilus--
im--
ima--
image--
images--
imagi--
imbo--
imby--
ime--
img--
imi--
imo--
impe--
import--
impro--
in--
ina--
inaugura--
inc--
inclu--
incon--
inde--
indeter--
indi--
indo--
info--
ing--
ingl--
inmobilia--
ino--
inqui--
inquisi--
insp--
int--
inte--
inter--
inv--
inva--
inven--
io--
ip--
ipa--
ipe--
ipi--
ipo--
ipohy--
ipu--
ipy--
ir--
ira--
ire--
iri--
iro--
iru--
is--
isa--
ise--
isin--
iso--
issub--
isu--
isy--
it--
ita--
ite--
iteko--
iti--
ito--
itu--
ituja--
iu--
iva--
ivai--
ive--
ivi--
ivy--
iwa--
iy--
iyaa--
iz--
iza--
j--
ja--
jaguero--
jaha--
jai--
jaja--
jajo--
jan--
japy--
jar--
jas--
jasp--
jasy--
jay--
je--
jehe--
jei--
jeka--
jenn--
jer--
jero--
jey--
ji--
jin--
jo--
joaju--
jon--
jor--
jose--
joy--
ju--
jun--
juru--
jy--
k--
ka--
kai--
kak--
kampu--
kan--
kar--
kara--
karu--
kas--
kats--
katu--
katy--
ke--
ken--
ker--
key--
khu--
ki--
kim--
kin--
kirs--
kle--
km--
ko--
kol--
kons--
kos--
kre--
kris--
kro--
ku--
kua--
kuaa--
kue--
kui--
kun--
kuru--
ky--
l--
la--
lab--
lac--
laje--
lang--
lar--
las--
last--
lat--
lau--
laure--
lava--
lay--
lc--
ld--
le--
lea--
lega--
legi--
legisl--
leish--
len--
ler--
les--
let--
leu--
lev--
li--
libre--
lin--
link--
lis--
list--
liz--
lla--
lle--
llo--
lo--
load--
loc--
lock--
lockdb--
login--
lon--
long--
lou--
lt--
lu--
lud--
lugar--
lv--
ly--
m--
ma--
mac--
macro--
mad--
mae--
mag--
magis--
mai--
mailno--
mak--
make--
mal--
mala--
man--
manga--
mani--
mano--
map--
maqui--
mar--
mara--
mari--
mark--
mas--
mat--
mata--
matri--
mau--
max--
maxi--
may--
maz--
mazu--
mb--
mba--
mbae--
mbe--
mbo--
mboka--
mbu--
mc--
me--
med--
mega--
mel--
men--
mer--
merca--
mes--
met--
mez--
mi--
micro--
mid--
mik--
mil--
min--
mina--
mini--
mir--
mis--
mit--
mita--
miya--
mo--
moa--
modific--
modulo--
moi--
mon--
mono--
mont--
monte--
mor--
morde--
mos--
mou--
mous--
mp--
mr--
ms--
mu--
mult--
multip--
mur--
mutil--
mw--
my--
mymba--
n--
na--
naha--
nambo--
nan--
nap--
nar--
narra--
nas--
nat--
nav--
nd--
nda--
ndache--
ndaheko--
ndai--
ndaja--
nde--
ndere--
ndi--
ndo--
ndoje--
ndoju--
ndy--
ne--
nea--
nece--
nee--
nei--
nemo--
nen--
neo--
nept--
ner--
nes--
neuro--
new--
next--
ng--
nga--
ngue--
ni--
nia--
nico--
nig--
nn--
no--
nobu--
noi--
nom--
nombo--
nombr--
nomo--
non--
nor--
nord--
nos--
ns--
nt--
nu--
nutri--
nv--
ny--
o--
oa--
oau--
obi--
obre--
obs--
obser--
observa--
obtener--
oc--
oce--
oct--
ode--
odi--
odo--
oe--
oemp--
of--
ofen--
ofi--
og--
oga--
ogue--
oha--
ohai--
ohe--
oho--
ohu--
oi--
oik--
oike--
oiko--
oipo--
oiporiahu--
oja--
ojaga--
oje--
ojei--
ojere--
ojerre--
ojo--
oju--
ojuka--
ok--
oka--
oke--
oko--
oku--
oky--
ol--
ola--
oli--
olym--
om--
oma--
omba--
ombo--
ombyai--
ombye--
ome--
omi--
omni--
omo--
omoi--
omon--
omy--
on--
one--
ono--
op--
opa--
ope--
opi--
opo--
opor--
oporo--
oporombo--
oporomo--
opu--
or--
ora--
ore--
org--
ori--
oro--
orth--
os--
osa--
ose--
oso--
ote--
oti--
ott--
oty--
ou--
our--
out--
ova--
ove--
over--
oye--
oyembo--
oyo--
oz--
p--
pa--
pag--
page--
pai--
paja--
pal--
palen--
palo--
pam--
pan--
paname--
papa--
papy--
par--
para--
pare--
pasa--
pat--
patru--
pav--
pavi--
pay--
pc--
pdf--
pe--
pea--
pedr--
peg--
pegue--
pei--
pen--
pene--
pente--
pepp--
per--
perci--
pf--
pha--
pho--
photo--
phy--
pi--
pia--
pic--
pichi--
pie--
piede--
pimie--
pin--
pio--
pira--
pire--
piri--
pl--
pla--
po--
poi--
pol--
poli--
pom--
popul--
por--
pora--
poro--
port--
porto--
pos--
post--
pot--
pp--
pra--
pre--
previous--
pri--
prime--
pro--
produ--
proto--
provi--
prow--
proyec--
ps--
pt--
pu--
puc--
pue--
puku--
pul--
purp--
puru--
px--
py--
pya--
q--
qu--
que--
quebr--
qui--
r--
ra--
rab--
rad--
radio--
rai--
raj--
ran--
rape--
ras--
rati--
raw--
ray--
rd--
re--
rea--
rece--
recent--
reci--
reco--
red--
rede--
ref--
reg--
regis--
regue--
rei--
reka--
reko--
reli--
remb--
rembi--
rembo--
remi--
remo--
remove--
remy--
ren--
rep--
repa--
repe--
repo--
requi--
res--
resa--
reser--
rest--
ret--
revolu--
revue--
rey--
rft--
ri--
rib--
rie--
rin--
rio--
ris--
rn--
ro--
rob--
robus--
roi--
rombo--
romo--
ron--
ros--
rota--
rov--
row--
rp--
rre--
rs--
ru--
rugg--
run--
ry--
s--
sa--
sac--
sai--
sal--
sala--
sam--
san--
sand--
sar--
sara--
sc--
sch--
sche--
schi--
schl--
schwe--
sciu--
sco--
scorp--
se--
sec--
secue--
sed--
sem--
sembr--
semi--
sen--
sensibi--
sent--
seo--
sep--
septen--
ser--
ses--
set--
sh--
sha--
shar--
shel--
shep--
sher--
shi--
show--
shu--
si--
sia--
sie--
sigis--
sil--
silve--
simpli--
simu--
sin--
sinci--
sis--
sk--
ska--
skip--
sky--
skysc--
sl--
so--
sober--
sobre--
socio--
sol--
solic--
some--
son--
sor--
sorpre--
sos--
soto--
sp--
spie--
spo--
sq--
sr--
ss--
st--
sta--
stan--
statis--
ste--
stein--
stir--
sto--
str--
strad--
stras--
stu--
su--
sub--
suce--
suga--
suger--
sui--
sul--
sum--
sun--
suo--
super--
supp--
sur--
sus--
sv--
sw--
swa--
swe--
swit--
sy--
sylv--
syna--
sze--
t--
ta--
taa--
tab--
tabla--
taenia--
tag--
tai--
taka--
taky--
tal--
tan--
tape--
taqu--
tar--
tara--
tata--
tau--
tava--
tax--
tc--
te--
tegu--
tei--
teje--
teko--
tele--
tem--
tembi--
temp--
ten--
tenda--
teo--
ter--
tera--
teres--
tesa--
tet--
teta--
tete--
tex--
text--
th--
tha--
the--
thor--
thumb--
ti--
tidyval--
til--
time--
tin--
title--
tl--
to--
toi--
toje--
tom--
tomo--
top--
topo--
tor--
tos--
total--
toye--
tr--
tra--
tradu--
tran--
trans--
tras--
tre--
tri--
trip--
tro--
tru--
ts--
tsu--
tu--
tuicha--
tuku--
tulo--
tupa--
tur--
turd--
tutu--
tuy--
tw--
ty--
type--
u--
ua--
ubir--
ue--
uha--
ui--
uk--
ul--
ultra--
um--
umi--
un--
uncer--
und--
uni--
up--
upe--
ur--
ure--
url--
urru--
us--
user--
util--
uva--
uy--
v--
va--
vai--
vaka--
val--
valie--
van--
vape--
var--
vari--
ve--
vec--
vei--
vence--
vende--
ver--
vi--
via--
vice--
video--
vie--
vil--
villa--
vin--
vio--
vir--
viru--
vo--
voi--
vol--
volei--
vore--
vra--
vu--
vul--
vy--
w--
wa--
wal--
wald--
wan--
war--
was--
way--
we--
web--
west--
whe--
whit--
wie--
wiki--
wil--
win--
wis--
wit--
wo--
woj--
wor--
wu--
wy--
wyn--
x--
xi--
xilogra--
xx--
y--
ya--
yai--
yan--
yasu--
yat--
yba--
yby--
ye--
yev--
yga--
yi--
yju--
ym--
yma--
yn--
yo--
yoshi--
you--
ypy--
yre--
yru--
ysa--
yta--
yty--
yu--
yv--
yva--
yvo--
yvy--
yvyra--
z--
za--
zacc--
zam--
zar--
ze--
zh--
zi--
zoo--
zu--
đ--
ɪ--
варі--
п--
респ--
тем--
тр--
ц--
الجمهو--
العر--
د--
ر--
བ--
--0
--00
--000
--02
--04
--06
--07
--08
--1
--12
--13
--15
--17
--18
--19
--2
--20
--21
--22
--25
--29
--3
--4
--40
--49
--5
--50
--6
--61
--63
--68
--7
--70
--72
--73
--79
--8
--80
--82
--83
--88
--9
--93
--96
--97
--99
--a
--aa
--aan
--ab
--able
--ac
--access
--acio
--action
--actionlevel
--activo
--acu
--ad
--ada
--adas
--ado
--ador
--ados
--ae
--aga
--age
--aha
--aho
--ahu
--ai
--ais
--aju
--ak
--aku
--akue
--al
--ales
--align
--alo
--am
--ame
--amente
--amiento
--an
--ana
--ani
--ano
--ans
--ant
--ao
--ap
--ape
--apo
--apu
--apy
--ar
--ara
--arada
--ard
--ardo
--are
--arg
--args
--aria
--ario
--aro
--arse
--ary
--as
--asa
--asy
--at
--ata
--ated
--ati
--ation
--ations
--ativo
--ato
--atus
--aty
--au
--auka
--av
--ava
--avi
--avo
--avy
--ay
--ayhu
--az
--aza
--b
--ba
--bal
--bb
--be
--bi
--bio
--blank
--ble
--bles
--blik
--bo
--bos
--bra
--bu
--bue
--burg
--bury
--by
--c
--ca
--cai
--cal
--cargo
--cas
--cat
--category
--cations
--cci
--ccio
--cco
--ccus
--ce
--ceae
--cel
--cema
--cence
--ceno
--ces
--ceto
--ch
--cha
--chauka
--che
--cher
--chi
--cho
--cht
--chte
--chuka
--chy
--ci
--cia
--cial
--cin
--cini
--cino
--cio
--cion
--cional
--ciones
--ciu
--ck
--cki
--cks
--cky
--clio
--clo
--co
--coe
--conflict
--copio
--cos
--cott
--cra
--craft
--cs
--ct
--cta
--ctivo
--cto
--ctyla
--cu
--cua
--cue
--cus
--cy
--d
--da
--dad
--dade
--dae
--dall
--das
--date
--de
--der
--dero
--des
--desplegable
--detti
--dge
--dh
--di
--dia
--dillo
--dine
--dio
--dis
--dl
--do
--don
--dor
--dores
--dos
--dow
--dra
--dri
--ds
--dt
--du
--dual
--dus
--duse
--dy
--e
--ea
--eado
--eai
--eau
--eb
--ec
--eca
--ech
--ed
--edit
--edo
--educacion
--ee
--ef
--eff
--eft
--eg
--ega
--ei
--eiro
--eja
--ejo
--ejos
--ek
--eko
--el
--ela
--elf
--ell
--elli
--els
--em
--en
--ena
--enas
--enc
--ence
--encia
--end
--enko
--enlazado
--ens
--ense
--ensis
--ent
--enta
--entado
--ento
--enyhe
--eo
--er
--era
--erg
--eri
--erno
--ero
--eros
--error
--ers
--ert
--eru
--es
--esa
--ese
--ess
--est
--et
--eta
--ete
--eted
--eterei
--eteve
--ets
--ett
--etta
--ette
--etti
--ety
--eus
--ev
--ew
--ey
--ez
--f
--fa
--fano
--fe
--fecha
--feld
--fer
--ff
--ffe
--ffer
--fi
--fico
--fin
--flag
--fo
--format
--ft
--g
--ga
--gada
--gar
--gard
--garu
--gas
--gata
--gate
--ge
--gem
--ger
--ges
--gh
--ghi
--ght
--gi
--gia
--gie
--gla
--gle
--glia
--gma
--gn
--gna
--go
--gon
--gonal
--gos
--gra
--gs
--gu
--gua
--guasu
--guchi
--gue
--guer
--gui
--guigua
--guio
--guive
--gura
--guren
--guy
--gy
--gyhyje
--h
--ha
--hag
--hagua
--hague
--hai
--hal
--ham
--hape
--har
--hasa
--he
--head
--hegua
--hen
--here
--hi
--hika
--hima
--hin
--hing
--hiro
--hm
--hn
--ho
--hoja
--hoka
--holz
--hor
--hos
--hr
--hra
--http
--https
--hu
--huk
--hy
--hyje
--i
--ia
--iae
--iai
--ial
--ian
--iana
--iano
--iar
--ias
--ib
--ible
--ic
--ica
--ical
--icha
--iche
--ici
--icio
--ick
--ico
--icos
--id
--ida
--idad
--idades
--idae
--ide
--idi
--idido
--ido
--idor
--idos
--ie
--iel
--ien
--iendo
--iensis
--iente
--ientes
--ier
--ies
--iete
--ieu
--ifer
--ifica
--ificac
--ificacio
--ify
--ig
--iga
--ign
--igna
--igo
--iha
--ii
--iidae
--ija
--ijey
--ik
--ika
--ike
--iki
--ikue
--il
--ilis
--illa
--im
--ima
--imeme
--imi
--in
--ina
--ine
--ing
--ingo
--inho
--ini
--ino
--inos
--ins
--io
--ion
--iones
--ions
--ios
--ip
--ipa
--ipy
--iq
--ique
--ir
--ira
--iramo
--ire
--iro
--iru
--is
--isbn
--ise
--isi
--isio
--ism
--ismo
--ist
--ista
--it
--ita
--itas
--ite
--itegua
--iterei
--iteve
--iti
--ito
--itt
--ity
--itz
--iu
--ium
--ius
--iva
--ive
--ivo
--iya
--iz
--iza
--izacio
--izada
--izado
--izador
--izados
--izar
--ization
--ize
--ized
--izo
--j
--ja
--jas
--je
--jehu
--jepe
--jepi
--jer
--jera
--jey
--jeyjey
--ji
--jn
--jo
--joa
--joja
--jopy
--ju
--juapy
--juhu
--jy
--k
--ka
--kambu
--kan
--kana
--kapa
--kar
--kase
--katu
--katuva
--katuve
--ke
--ker
--ket
--key
--kha
--ki
--kis
--kkue
--ko
--koha
--kok
--kombo
--kosa
--kov
--kove
--kovic
--ks
--ku
--kua
--kuaa
--kuaaha
--kuaava
--kuaave
--kuavo
--kue
--kuha
--kuita
--kuke
--kuri
--ky
--kyi
--l
--la
--label
--lan
--lang
--lapse
--lar
--las
--lau
--lav
--ld
--lda
--lde
--ldi
--ldo
--le
--ledo
--lem
--ler
--les
--let
--level
--ley
--lf
--lfo
--lha
--lho
--li
--lia
--ling
--link
--lis
--list
--lista
--lk
--ll
--lla
--llas
--lle
--lles
--lli
--llis
--llo
--llus
--lly
--lm
--lma
--lo
--log
--logi
--logy
--lon
--lor
--los
--low
--lph
--ls
--lta
--lte
--lto
--lu
--lus
--lva
--lvo
--ly
--lyn
--m
--ma
--maha
--man
--map
--mar
--mas
--mavoi
--mb
--mba
--mbe
--mbei
--mbi
--mbo
--mbre
--mbu
--mby
--me
--mea
--med
--mel
--meme
--men
--ment
--mente
--mento
--mer
--mera
--mes
--metraje
--mi
--micina
--mie
--miento
--mievo
--mii
--mimi
--mir
--mis
--miva
--mive
--mm
--mo
--mon
--month
--mos
--mp
--mpa
--mphus
--mpo
--ms
--mu
--mum
--mus
--my
--myenyhe
--mys
--n
--na
--nables
--nada
--nado
--nah
--nai
--nais
--nal
--name
--names
--nan
--nar
--nario
--nas
--nato
--nburg
--nc
--nce
--nceno
--nci
--nco
--nd
--nda
--nde
--nder
--ndi
--ndira
--ndo
--ndra
--ndu
--ndy
--ne
--nel
--nell
--nen
--nensis
--ner
--nera
--nero
--nes
--net
--ney
--nez
--ng
--nga
--nge
--ngi
--ngitis
--ngo
--ngoe
--ngu
--ngue
--ngy
--nha
--nho
--nhos
--ni
--nia
--nic
--nie
--nier
--nik
--nillo
--ning
--nio
--nis
--nism
--nismo
--nista
--nita
--njo
--nk
--nko
--nn
--nna
--nne
--nner
--no
--noa
--nohe
--nokue
--nomi
--nonde
--nor
--normalizados
--nos
--npe
--nquilla
--ns
--nsa
--nse
--nsis
--nsky
--nso
--nt
--nta
--nte
--ntes
--nti
--ntia
--ntial
--ntidae
--ntil
--nto
--ntos
--ntras
--ntro
--nts
--nu
--num
--numero
--nunga
--nus
--ny
--nza
--nzas
--o
--oa
--oapy
--obj
--oca
--ock
--od
--ode
--oe
--oee
--of
--off
--oi
--okue
--ol
--ole
--oli
--olo
--ologi
--om
--on
--ona
--onda
--onde
--one
--oni
--ons
--oo
--or
--ord
--origin
--os
--ot
--ota
--ott
--ou
--our
--ource
--ov
--ova
--ow
--oy
--oz
--p
--pa
--page
--pages
--pagetext
--paite
--pan
--par
--para
--parameter
--pava
--pave
--pcio
--pe
--pegua
--peka
--pekue
--pepo
--persona
--pete
--peto
--peve
--ph
--pi
--ping
--pio
--po
--poda
--pol
--pora
--porupyre
--pos
--pota
--pouka
--poy
--pp
--pping
--ppo
--prefix
--profano
--ps
--pt
--ptes
--pu
--pua
--puku
--py
--pya
--pyahu
--pyha
--pyme
--pype
--pyra
--pyre
--pyru
--pyry
--pyso
--pyta
--pytu
--pyty
--pyvu
--q
--qbaj
--qualif
--que
--qui
--quilla
--quio
--r
--ra
--rable
--rac
--racio
--rad
--rado
--rados
--rae
--ragua
--rah
--rahe
--rahyse
--rai
--raita
--raka
--raku
--rakue
--ral
--ram
--ramo
--rano
--rape
--rar
--rara
--ras
--rasa
--rase
--rasy
--rati
--rato
--rator
--ray
--rc
--rca
--rce
--rchy
--rd
--rda
--rde
--rdia
--rdo
--rdt
--re
--rea
--rehe
--rei
--reja
--rekaha
--reko
--rel
--rell
--ren
--renda
--rere
--rero
--res
--rete
--rev
--rg
--rga
--rgo
--rha
--ri
--ria
--rial
--ric
--rica
--ricana
--rie
--rik
--rimi
--rin
--rino
--rio
--rios
--rire
--riri
--ris
--rit
--riti
--riz
--rko
--rla
--rlo
--rm
--rman
--rn
--rna
--rnis
--rno
--ro
--rohory
--rol
--ron
--rope
--ros
--rota
--rova
--row
--rque
--rre
--rro
--rry
--rs
--rse
--rson
--rt
--rta
--rte
--rth
--rti
--rto
--rtu
--ru
--ruha
--rum
--rundy
--rupi
--rus
--rusu
--ruz
--ry
--ryru
--ryva
--rz
--rzo
--s
--sa
--sada
--saka
--san
--sante
--sape
--sapy
--sar
--sas
--sca
--schi
--sco
--scos
--scu
--se
--seha
--sel
--sell
--sen
--ses
--seve
--sex
--sey
--sfeld
--sh
--sha
--shi
--shima
--si
--sia
--sial
--side
--sio
--sional
--sis
--sita
--siva
--sivas
--sk
--ski
--sky
--slao
--slav
--sley
--sm
--smo
--so
--soles
--son
--sor
--ss
--ssa
--sse
--ssi
--sso
--sson
--st
--sta
--ste
--stes
--sti
--ston
--style
--su
--sub
--sy
--syro
--sz
--t
--ta
--tabla
--tacio
--tada
--tag
--taha
--tako
--tal
--talkkey
--tami
--tan
--tar
--tas
--taso
--tat
--tavy
--te
--tea
--teca
--ted
--tee
--tei
--tense
--tente
--ter
--terei
--tero
--tes
--teta
--text
--th
--thia
--thrix
--ti
--tia
--tic
--tics
--tidae
--tido
--time
--tin
--ting
--tinga
--tino
--tinos
--tio
--tion
--tions
--tis
--tismo
--title
--tiva
--tive
--tivo
--tiza
--tle
--tney
--to
--ton
--tos
--tov
--tr
--tre
--tring
--ts
--tt
--tta
--tte
--ttes
--tti
--tto
--tu
--tuba
--tud
--tue
--tun
--tura
--ture
--tus
--tv
--tve
--ty
--tyha
--tyle
--typa
--type
--tz
--u
--ua
--ual
--uari
--uasu
--ub
--uba
--uc
--ucci
--uce
--uch
--ud
--udi
--ue
--uela
--uer
--uero
--ugh
--ui
--uin
--uir
--uira
--uja
--uk
--uka
--ukapy
--uke
--uki
--ul
--ula
--ult
--ulu
--um
--umi
--un
--up
--ur
--ura
--urreccio
--urs
--urus
--us
--uso
--ust
--usu
--usz
--ut
--uta
--ute
--uti
--utivo
--uto
--uts
--ux
--uy
--uz
--v
--va
--vac
--vada
--vae
--vaha
--vai
--vake
--vakue
--val
--value
--values
--vas
--ve
--veha
--veo
--ves
--vet
--vete
--veva
--vey
--vi
--via
--vic
--ville
--vis
--visor
--vivi
--vo
--voi
--von
--vos
--vove
--vre
--vu
--vuku
--vusu
--vy
--vytu
--w
--wa
--way
--we
--well
--wer
--wers
--west
--wi
--wick
--wicz
--wiki
--wikidata
--wood
--worth
--ws
--wski
--wyn
--x
--xa
--xas
--xe
--xo
--xy
--y
--ya
--yan
--yaty
--ye
--yen
--ygua
--yhe
--yhu
--yi
--yka
--yke
--yl
--yn
--yo
--ypy
--yra
--yry
--ys
--yt
--yty
--yu
--yva
--z
--za
--zaba
--zac
--zacio
--zado
--zana
--zano
--zar
--ze
--zel
--zer
--zi
--zia
--zie
--zing
--zinho
--zio
--zo
--zu
--zz
--zza
--zzi
--zzo
--ß
--ł
--ə
--α
--ς
--υ
--ема
--и
--р
--у
--ч
--я
--і
--ة
--ر
--ن
--ه
--ي
--ية
