!
"
#
##0
##1
##10
##11
##12
##13
##14
##15
##16
##17
##18
##19
##2
##20
##21
##22
##23
##24
##25
##26
##27
##28
##29
##3
##30
##31
##32
##33
##34
##35
##36
##37
##38
##39
##4
##40
##41
##42
##43
##44
##45
##46
##47
##48
##49
##5
##50
##51
##52
##53
##54
##55
##56
##57
##58
##59
##6
##60
##61
##62
##63
##64
##65
##66
##67
##68
##69
##7
##70
##71
##72
##73
##74
##75
##76
##77
##78
##79
##8
##80
##81
##82
##83
##84
##85
##86
##87
##88
##89
##9
##90
##91
##92
##93
##94
##95
##96
##97
##98
##99
$
%
&
'
(
)
*
+
,
-
.
/
0
00
000
00001
0001
00012
0002
0003
000392
0004
0006
0007
0009
000942
001
0012
0014
0016
002
0021
0022
0025
0027
0028
003
0031
0033
0036
004
005
006
0061
0062700553
007
0071354697
0071422803
008
0080429882
009
0092
01
010
011
012
013
0136120512
014
0140
015
016
017
018
019
0195082095
019850229
02
020
021
022
023
024
025
026
02651
027
028
029
03
030
031
032
033
034
035
036
0362
037
038
039
04
040
041
0415285569
042
043
044
045
046
047
0471205036
0471303097
048
0486654605
049
05
050
051
052
053
054
055
056
057
058
059
06
060
061
062
063
064
065
066
067
068
0684805332
069
0691152071
07
070
071
072
073
074
075
076
077
078
0781768799
079
08
080
081
0816071365
082
083
084
085
086
087
088
089
09
090
091
092
093
094
095
096
097
098
099
1
10
100
1000
1001
1002
1003
1004
1005
1006
1007
1008
1009
101
1010
1011
1012
1013
1014
1015
1016
1017
1018
1019
102
1020
1021
1022
1023
1024
1025
1026
1027
1028
1029
103
1030
1031
1032
1033
1034
1035
1036
1037
1038
1039
104
1040
1041
1042
1043
1044
1045
1046
1047
1048
1049
105
1050
1051
1052
1053
1054
1055
1056
1057
1058
1059
106
1060
1061
1062
1063
1064
1065
1066
1067
1068
1069
107
1070
1071
1072
1073
1074
1075
1076
1077
1078
1079
108
1080
1081
1082
1083
1084
1085
1086
1087
1088
1089
109
1090
1091
1092
1093
1094
1095
1096
1097
1098
1099
11
110
1100
1101
1102
11020286
1103
1104
1105
1106
1107
1108
1109
111
1110
1111
1112
1113
1114
1115
1116
1117
1118
1119
112
1120
1121
1122
1123
1124
1125
1126
1127
1128
1129
113
1130
1131
1132
1133
1134
1135
1136
1137
1138
1139
114
1140
1141
1142
1143
1144
1145
1146
1147
1148
1149
115
1150
1151
1152
1153
1154
1155
1156
1157
1158
1159
116
1160
1161
1162
1163
1164
1165
1166
1167
1168
1169
117
1170
1171
1172
1173
1174
11749573
1175
1176
1177
1178
1179
118
1180
1181
1182
1183
1184
1185
1186
1187
1188
1189
119
1190
12
120
1200
1204
121
1210
1217
1219
122
1220
123
1235
124
1240
1241
1242
1244
125
1250
126
1260
1261
127
128
1280
1282
1285
129
13
130
1300
131
132
1320
1321
133
1330
1331
1333
134
1340
1345
1346
1348
135
1350
1351
1353
1355
1359
136
1360
1365
137
1370
1371
1373
1377
1378
138
1380
1385
1386
1389
139
1390
1391
1392
1395
14
140
1400
1402
1403
1404
1405
141
1415
142
1420
1421
1427
143
1430
1435
1439
144
1440
1441
1443
1444
1448
145
1450
1451
1453
1455
1456
1458
1459
146
1460
1463
1467
1468
1469
147
1471
1475
1476
148
1480
1485
1488
149
1490
1492
1493
1494
1496
1498
15
150
1500
1503
151
1512
1515
1516
1517
1519
152
1520
1521
1523
1524
1525
1526
1527
1528
153
1530
1533
1534
1536
1537
1538
154
1540
1541
1542
1543
1545
1547
155
1550
1552
1553
1555
1556
1557
1558
1559
156
1560
1565
1566
1568
157
1570
1571
1572
1573
1574
158
1580
159
1590
1592
1595
1596
1597
1598
16
160
1600
1601
1603
1605
1606
1609
161
1610
1611
1618
162
1620
1621
163
1630
1632
164
1640
1642
1644
1645
1648
1649
165
1650
1654
1658
166
1660
1666
1667
167
1670
168
1680
1683
1685
1687
1688
1689
169
1690
1691
1693
1694
1695
1697
1699
17
170
1700
1701
1702
1703
1707
1708
171
1710
1711
1712
1713
1714
1715
1716
1717
1718
1719
172
1720
1721
1722
1723
1724
1725
1726
1727
173
1730
1731
1733
1734
1735
1736
1737
1738
1739
174
1740
1741
1742
1743
1744
1745
1746
1747
1748
1749
175
1750
1751
1752
1753
1754
1755
175553
1756
1757
1758
1759
176
1760
1761
1762
1763
1764
1765
1766
1767
1768
1769
177
1770
1771
1772
1773
1774
1775
1776
1777
1778
1779
178
1780
1781
1782
1783
1784
1785
1786
1787
1788
1789
179
1790
1791
1792
1793
1794
1795
1796
1797
1798
1799
18
180
1800
1801
1802
1803
1804
18048412
1805
1806
1807
1808
1809
181
1810
1811
1812
1813
1814
1815
1816
1817
1818
1819
182
1820
1821
1822
1823
1824
1825
1826
1827
1828
1829
183
1830
1831
1832
1833
1834
1835
1836
1837
1838
1839
184
1840
1841
1842
1843
1844
1845
1846
1847
1848
1849
185
1850
1851
1852
1853
1854
1855
1856
1857
1858
1859
186
1860
1861
1862
1863
1864
1865
1866
1867
1868
1869
187
1870
1871
1872
1873
1874
1875
1876
1877
1878
1879
188
1880
1881
1882
1883
1884
1885
1886
1887
1888
1889
189
1890
1891
1892
1893
1894
1895
1896
1897
1898
1899
19
190
1900
1901
1902
1903
1904
1905
1906
1907
1908
1909
191
1910
1911
1912
1913
1914
1915
1916
1917
1918
1919
192
1920
1921
1922
1923
1924
1925
1926
1927
1928
1929
193
1930
1931
1932
1933
1934
1935
1936
1937
1938
1939
194
1940
1941
1942
1943
1944
1945
1946
1947
1948
1949
195
1950
1951
1952
1953
1954
1955
1956
1957
1958
1959
196
1960
1961
1962
1963
1964
1965
1966
1967
1968
1969
197
1970
1971
1972
1973
1974
1975
1976
1977
1978
1979
198
1980
1981
1982
1983
1984
1985
1986
1987
1988
1989
199
1990
1991
1992
1993
1994
1995
1996
1997
1998
1999
2
20
200
2000
200004
2001
2002
2003
2004
2005
2006
2007
2008
2009
201
2010
2011
2012
2013
2014
2015
2016
2017
2018
2019
202
2020
2021
2022
2023
2024
2025
2026
203
2030
204
205
206
207
208
209
20970519
21
210
2100
21059682
211
212
2121
213
214
215
216
217
218
219
22
220
2200
221
222
223
2238889
224
225
226
227
228
229
23
230
2305
2307
231
232
233
234
235
236
237
238
239
24
240
2400
241
242
243
244
245
246
247
248
249
25
250
2500
251
252
253
254
255
256
257
258
259
26
260
261
262
263
264
265
266
267
268
269
27
270
271
272
273
274
275
276
277
278
279
28
280
281
282
283
284
285
286
287
288
289
29
290
291
292
293
294
295
296
297
298
299
3
30
300
3000
301
3013709
302
303
304
305
306
307
308
309
31
310
311
312
313
314
315
316
317
318
319
32
320
321
322
323
324
325
326
327
328
329
33
330
331
332
333
334
335
336
337
338
339
34
340
341
342
343
344
345
346
347
348
349
35
350
351
352
352651
353
354
355
356
357
358
359
36
360
361
362
363
364
365
366
367
368
369
37
370
371
3714
3717
372
373
374
375
376
3762
377
3772
378
379
38
380
381
382
383
384
385
386
387
388
389
39
390
391
392
393
394
395
396
397
398
399
4
40
400
4000
401
402
4020
403
404
405
406
407
408
409
41
410
411
412
413
414
415
416
417
418
419
42
420
421
422
423
424
425
426
427
428
429
43
430
431
432
433
4331
434
435
436
437
438
439
44
440
441
442
443
444
445
446
447
448
449
45
450
451
452
453
454
455
456
457
458
459
46
460
461
462
463
464
465
466
467
468
469
47
470
471
472
473
474
475
476
477
478
479
48
480
481
482
483
484
485
486
487
488
489
49
490
491
492
493
494
495
496
497
498
499
5
50
500
5000
501
502
503
5036
504
505
506
507
508
509
51
510
511
512
513
514
515
516
517
518
519
52
520
521
522
523
524
525
526
527
528
529
53
530
531
532
533
534
535
536
537
538
539
54
540
541
542
543
544
545
546
547
548
549
55
550
551
552
553
554
555
556
557
558
559
56
560
561
562
563
564
565
566
567
568
569
57
570
571
572
573
574
575
576
577
578
579
58
580
581
582
583
584
585
586
587
588
589
59
590
591
592
593
594
595
596
597
598
599
6
60
600
6000
601
602
603
604
605
606
607
608
609
61
610
611
612
613
614
615
616
617
618
619
62
620
621
622
623
624
625
626
627
628
629
63
630
631
632
633
634
635
636
637
638
639
64
640
641
642
643
644
645
646
647
648
649
65
650
651
652
653
654
655
656
657
658
659
66
660
661
662
663
664
665
666
6667
667
668
669
67
670
671
672
673
674
675
676
677
678
679
68
680
681
682
683
684
685
686
687
688
689
69
690
691
692
693
694
695
696
697
698
699
7
70
700
7000
701
702
703
704
705
706
707
708
709
71
710
711
712
713
714
715
716
7167
717
718
719
72
720
72091
721
722
723
724
725
726
727
728
729
73
730
731
732
733
734
735
736
737
738
739
74
740
741
742
743
744
745
746
747
748
749
75
750
751
752
753
754
755
756
757
758
759
76
760
761
762
763
764
765
766
767
768
769
77
770
771
772
773
774
775
776
777
778
779
78
780
781
782
783
784
785
786
7864
787
788
789
79
790
791
792
793
794
795
796
797
798
799
8
80
800
8000
801
8014
8018
802
803
804
8047
805
806
807
808
809
81
810
8108
811
812
813
814
815
8153
816
817
818
819
82
820
821
822
823
824
825
826
827
828
829
83
830
831
832
833
834
835
836
837
838
839
84
840
841
842
843
844
84433
845
846
847
848
8489488
849
8493
85
850
850346
851
852
853
854
855
856
857
858
859
86
860
861
862
863
864
865
866
86673
867
868
869
87
870
871
872
873
874
875
876
8764176
877
878
879
88
880
881
882
883
884
885
886
887
888
889
89
890
891
892
893
894
895
896
897
898
899
9
90
900
901
902
903
904
905
906
907
908
909
91
910
911
912
913
914
915
916
917
918
919
92
920
921
922
923
924
925
926
927
928
929
93
930
931
932
933
934
935
936
937
938
939
94
940
941
942
943
944
945
946
947
948
949
95
950
951
952
953
954
955
956
957
958
959
96
960
961
962
963
964
965
966
967
968
969
97
970
971
972
973
974
975
976
977
978
979
98
980
980230
981
982
983
984
985
986
987
988
989
99
990
991
992
993
994
995
996
997
998
999
:
;
<
=
>
?
@
[
\
]
^
_
`
a
aa
aaron
ab
aba
abajo
abc
about
above
abraham
abrams
abstract
abu
abuse
ac
aca
acad
academia
academic
academy
access
accessed
accident
accipitridae
according
account
accreditations
ace
acer
acetat
acetil
acid
acids
acil
acm
acquires
across
act
acta
action
actions
activation
active
activities
activity
actor
actress
acts
acute
ad
ada
adam
adams
adatok
add
addison
adenozil
adi
adj
adjusted
administration
administrative
adolf
adp
adrenergic
adrian
adult
adults
advanced
advances
adventure
adventures
advokat
ae
aec
aero
aerodrom
af
affairs
afghanistan
afi
afp
afric
africa
african
africi
afrike
after
ag
again
against
age
agencija
agencije
agenciji
agency
agent
agents
ages
ago
agonist
agreement
agricultural
agriculture
ags
agua
aguascalientes
ah
ahead
ahmed
ai
aid
aids
aiken
ain
air
aircraft
aires
airlines
airport
airwar
ais
aise
aj
aja
ajan
aje
ajem
ajeno
ajeva
ajevima
aji
ajima
ajna
ajne
ajni
ajnih
ajno
aju
ajuc
ak
aka
akademija
akademije
akademiji
akceptor
akcija
akcije
akciju
ake
ako
aktivan
aktivno
aktivnost
aktivnosti
al
ala
alabama
alan
alar
alaska
alba
albania
albanian
albanije
albert
alberta
alberto
album
albuma
albums
albumu
alciphron
alcohol
ale
aleksandar
aleksandra
alessandro
alex
alexander
alexandra
alexandria
alfa
alfred
algebra
algoritam
algorithm
algorithms
algoritma
ali
alice
aligned
alive
alje
alkohol
alkohola
all
alla
allan
allen
allergy
alliance
allmovie
allmusic
alma
almost
alo
aloe
alogp
alone
along
alonso
alost
alpha
alphabet
already
als
also
alt
alternate
alternative
alto
always
am
ama
amanda
amazon
ambasador
amd
ame
americ
america
american
americana
americans
americi
amerike
ami
amija
amino
aminokiselina
amo
among
amor
amp
ampion
ampiona
amsterdam
amy
an
ana
analitic
analiza
analize
analizu
analysis
anas
anatidae
anatomy
ancient
and
anderson
andre
andrea
andreas
andreeva
andrei
andrej
andrew
andrews
andric
andrija
android
andy
ane
angaz
angel
angeles
angle
anglo
ani
anica
anih
anim
animal
animals
animation
anime
anin
anita
anj
anja
anje
anjem
anju
ann
anna
annales
annals
anne
anniversary
anno
annotated
announced
announces
annual
annurev
ano
anog
anoj
anom
anopheles
anosti
another
anska
anski
anstva
anstvo
ant
antagonist
ante
anthology
anthony
anthropology
anthurium
anti
antic
antiquity
anton
antonio
anu
any
anđeles
anđelesu
ao
ap
apa
apj
aplikacija
aplikacije
aplja
app
appendix
appl
apple
application
applications
applied
approach
approaches
apr
april
aprila
aprilu
aqueous
aquila
ar
ara
arab
arabia
arabic
arac
aran
aranz
arbor
arc
arch
archaeological
archaeology
archchinese
architectural
architecture
archive
archived
archives
arctic
ard
are
area
areas
arena
areni
arg
argentina
argument
arheolos
arhitekture
arhiv
arhiva
ari
aria
arica
arima
aris
arizona
arka
arkansas
arkas
arm
armed
armenia
armenian
arms
armstrong
army
arnold
aromatic
around
arp
array
arriba
arroyo
ars
arsenal
arsic
arski
art
arte
arthur
article
articles
artificial
artist
artists
arts
aru
arxiv
as
asa
ashgate
asia
asian
asiatic
asin
ask
asocijacija
asopis
asopisa
asopisu
asova
asp
aspects
assembly
assessment
associated
associates
association
associations
ast
asti
astro
astronomical
astronomiques
astronomy
astrophysical
astrophysics
at
atc
athens
athletics
ati
atlanta
atlantic
atlas
atmospheric
atom
atoma
atomic
atp
attack
attacks
attempt
attems
au
auct
audi
audio
auf
aug
august
aukciji
aus
austin
australia
australian
australije
australis
austria
austrian
author
authority
authors
auto
autobiography
automobil
automobila
automobile
automobili
autor
autora
autori
aux
av
ava
avac
available
avaju
avajuc
avala
avali
avama
avanja
avanje
avanjem
avanju
avao
avatar
avati
ave
avery
aves
avgust
avgusta
avgustu
avi
aviastar
aviation
avion
aviona
avka
avn
avna
avne
avni
avnih
avnog
avu
award
awards
away
ax
az
azerbaijan
aziji
b
ba
baba
babic
baby
bac
back
background
bacterial
bacteriol
bad
bailey
baker
bakterija
bakterije
bal
balkan
balkana
balkanrock
balkans
balkanu
ball
baltic
baltimore
ban
banaka
banco
band
bang
banja
bank
banka
banke
banks
bar
barbara
barbus
barcelona
barnard
barnes
baron
barranca
barrett
barrio
barry
bas
base
based
basic
basin
basis
basketball
bat
bath
battle
bauer
bave
bavi
bay
baza
baze
bazi
bb
bbc
bc
bd
bdp
be
beach
bear
beast
beat
beats
beautiful
beauty
bec
became
because
bechstein
beck
becker
become
becomes
bee
been
beer
before
began
begin
beginning
behavior
behavioral
behaviour
behind
bei
beier
beijing
being
bela
belarus
bele
belez
belgium
belgrade
beli
believe
belih
bell
belle
beloglavi
below
ben
bena
bend
benda
beni
benito
benjamin
bennett
benson
benth
beograd
beograda
beogradska
beogradske
beogradski
beogradskog
beogradskoj
beogradskom
beogradu
ber
berg
berger
berkeley
berlin
berlinu
bernard
bertrand
berzi
bes
best
bet
beta
beti
better
between
bevo
beyond
bez
bezbednost
bezbednosti
bf
bg
bh
bi
bia
bibcode
bible
biblical
bibliography
biblioteka
biblioteke
bic
bid
big
biggest
bih
bijaya
bijela
bijeli
bila
bile
bili
biljaka
biljka
biljke
bill
billboard
billion
billy
bilo
bilong
bin
bina
binding
bio
biochem
biochemical
biochemistry
biochim
biodiversity
biografija
biographical
biography
biol
biological
biologija
biology
biolos
biophys
bioskope
biosynthesis
birac
bird
birdlife
birds
birth
birthday
bis
bishop
bismo
biste
bit
biti
bitno
biva
bivs
biznis
bjeloglavi
bl
bla
black
blackwell
blago
blake
blanca
blanco
blast
blaz
bleeker
blek
blic
blind
bliska
bliz
blizini
blizu
block
blog
blogspot
blok
blood
bloomberg
bloomington
bloomsbury
blu
blue
blues
bmatrix
bmc
bmj
bmw
bo
board
bob
boc
boca
bodova
body
boeing
bog
boga
bogdan
bogdanovic
boheman
boie
bois
boja
bojan
bojana
boje
boji
boju
bol
bola
boldsymbol
boles
bolesnika
bolest
bolesti
bolje
bolji
bolnic
bolnica
bolnice
bolnici
bolnicu
bolton
bomb
bonaparte
bond
bone
book
books
bor
bora
borac
borba
borbe
borbi
borbu
border
bori
boris
born
bos
bosna
bosne
bosni
bosnia
boss
boston
bot
botanic
botanical
botany
both
bottom
boue
boulenger
bound
box
boy
boyer
boys
boz
br
bra
brac
bradley
brady
braille
brain
brak
branch
brand
branden
branislav
branka
branko
bras
brasil
brat
brata
braun
brazil
bre
break
breaking
breast
brian
bridge
brief
brien
bright
brill
bring
brisel
briselu
brisson
bristol
britain
britanije
britaniji
britannica
britanska
britanske
britanski
british
briz
bro
broadcast
broadcasting
broadway
brod
broj
broja
brojem
brojeva
brojne
brojni
brojnih
brojnim
broju
bronze
brooks
bros
brother
brothers
brown
bru
bruce
bruno
bryan
bryant
brz
brzina
brzine
brzinom
brzinu
brzo
bs
bu
bubbling
bubrega
buc
bucharest
buck
budapest
buddhism
buddhist
bude
budu
buduc
budz
buenavista
buenos
buffalo
build
building
built
bulbophyllum
bulgaria
bulgarian
buljina
bull
bulletin
bureau
burke
burn
burns
burton
burtt
bus
bush
business
but
butler
buy
by
byzantine
byzantium
c
ca
cable
cac
cairo
calculation
calculus
calendar
california
call
called
calls
caltech
calvin
cambridge
came
camera
cameron
camp
campaign
campbell
campo
can
canada
canadian
canal
cancer
cannes
cantonese
cap
cape
capital
capo
captain
car
cara
carbon
card
cardiac
cardiovascular
care
career
caribbean
carl
carlo
carlos
carmen
carnivora
carol
carolina
caroline
carroll
carstva
carstvo
carter
cas
casa
case
cases
cast
castle
castro
cat
catalog
catalogue
catalysis
catalytic
catch
catherine
catholic
cats
cause
causes
cb
cbc
cbs
cc
cccp
cd
cdc
cdna
cdot
cdots
cds
cdxci
ce
cela
cele
celebrity
cell
cells
cellular
celog
celu
cena
cene
cengage
ceni
census
censuses
centar
center
centers
centra
central
centrala
centralna
centralne
centralni
centre
centro
centru
centuries
century
cenu
ceo
cerambycidae
cerro
certain
certifications
cevi
cf
cg
cgcg
ch
cha
chain
challenge
challenges
chamberlin
chambers
champion
champions
championship
championships
chan
chance
chang
change
changed
changes
changing
channel
channels
chaos
chap
chapelle
chapman
chapter
character
characteristics
characterization
characters
charakteristika
charge
charlene
charles
charlie
charlotte
chart
charts
chase
che
check
checklist
chelsea
chem
chemical
chemie
chemistry
chen
cheng
chess
chi
chicago
chief
child
childhood
children
chile
china
chinese
chisholm
cho
choice
choose
chris
christ
christian
christianity
christie
christine
christmas
christopher
chromosome
chronic
chronicle
chronology
chu
church
churchill
ci
cia
cid
cie
ciklus
ciklusa
cikus
cilj
ciljem
ciljeva
cilju
cinco
cinema
cip
cir
circle
circulation
cis
cisco
cited
citeref
citeseerx
cities
city
civil
civilization
cj
ck
cl
claim
claims
clara
clarendon
clark
clarke
clash
class
classic
classical
classics
classification
claude
clayden
cle
clean
clear
cleveland
click
clifford
climate
clin
clinical
clinton
clio
clock
clogp
cloning
close
cloud
club
cluster
cm
cn
cnn
co
coa
coach
coal
coast
cobiss
coca
cochrane
code
codes
cognate
cognitive
cohen
cola
cold
cole
coleoptera
coli
colin
coll
collaboration
collected
collection
collections
college
collegeswimming
collins
colombia
colonia
colonial
color
colorado
columbia
com
combat
come
comedy
comes
comic
comics
coming
comisia
command
commentary
commercial
commission
committee
common
commons
commonwealth
commun
communes
communication
communications
communist
communities
community
companies
companion
company
comparative
compare
comparison
competition
complete
complex
composition
compound
compounds
comprehensive
comput
computational
computer
computerdetails
computers
computing
con
concacaf
concept
concepts
concerning
concert
concise
condition
conditions
conference
confirmed
confirms
conflict
congo
congress
connecticut
connor
conquest
conrad
consequences
conservation
conspiracy
constantine
constellations
constitution
construction
consumer
contact
containing
contemporary
content
contest
context
continuum
contract
contribution
contributions
control
controlled
convention
conversion
cook
cool
cooper
cooperation
copa
cope
copper
copy
core
cornell
coronary
coronavirus
corp
corporate
corporation
corpus
corvidae
corvus
cos
cost
costa
could
council
count
counter
counties
countries
country
counts
county
coupled
course
court
cover
covid
cox
cp
cr
craig
crash
crataegus
crazy
crc
cre
create
creation
creative
creed
creek
creodonta
creva
crew
crime
crimes
criminal
crisis
critical
criticism
critics
critique
crkva
crkve
crkvi
crna
crne
crni
crno
crnoglava
crnoj
crnu
croat
croatia
croatian
cross
croton
crown
crtez
crucero
cruz
crvena
crvene
crveni
crveno
cry
crystal
cs
cska
csornai
css
ct
cu
cuatro
cuba
cult
cultural
culture
cultures
cum
cup
curr
current
curtis
cut
cuvier
cv
cve
cvec
cvetkovic
cw
cx
cycle
cycling
cyclingnews
cyrtandra
cz
czech
d
da
dac
dai
daibuun
daily
daje
daju
dakle
dakota
dala
dale
daleko
dali
dalje
dam
dame
dan
dana
danas
dance
dancing
dane
dangerous
dani
daniel
danijel
danish
dans
dao
dar
dara
dark
darko
darwin
das
dat
data
database
databases
date
dates
dati
datum
daughter
dave
david
davidson
davies
davis
dawn
day
days
db
dc
dd
ddr
de
dea
dead
deadline
deal
dean
death
debate
debi
debut
dec
deca
decade
dece
decembar
december
decembra
decembru
decenije
deci
decision
decline
decu
deep
def
defaulted
defence
defense
deficit
definicija
definis
definition
definitions
degree
dehidrogenaza
dehydrogenase
dei
dejan
dejanovic
dejstva
dejstvo
dejvid
dejvis
del
dela
delatnost
delatnosti
dele
delhi
deli
delimic
dell
della
delle
delo
delom
delorko
delova
delovanja
delovanje
delove
delovi
delovima
delta
delu
deluje
deluju
dem
demi
demo
democracy
democratic
demokratska
demokratske
demoscope
den
denis
denmark
dennis
denver
deo
department
dependent
deprecated
depression
der
derek
derived
des
description
desert
deset
design
destruction
det
detailed
details
detalji
detao
dete
detection
determination
deteta
detlic
detroit
deutsch
deutsche
deutschen
deutschland
dev
developing
development
developmental
devet
devil
deviznom
devojc
devojka
devojke
dez
dezoksi
dh
di
dia
diabetes
diagnosis
diagnostic
diamond
diana
diane
diary
dick
dictionaries
dictionary
did
die
died
diego
dies
difference
differences
different
differential
difosfat
digital
digitalna
dijagnostic
dijagnoza
dijalog
dijaloga
dilan
dim
dimenzija
din
dina
dinamic
dinar
dinara
dinastije
dine
dinkic
dio
diospyros
diplomacy
diplomatije
direct
direction
director
directory
direktno
direktor
direktora
direktorka
dis
disaster
discography
discogs
discov
discovered
discovery
discussion
disease
diseases
disk
disney
disorder
disorders
displaystyle
distance
distribution
district
diti
ditions
diversity
division
divlja
divlji
dizajn
dizajna
dj
djela
djetao
djetlic
djoumbou
dk
dl
dm
dmoz
dna
dne
dnevni
dnevnik
dnevno
dnevnom
dnk
dno
dnu
do
doba
dobar
dobija
dobijaju
dobije
dobiju
dobila
dobili
dobio
dobiti
dobitnik
dobra
dobre
dobri
dobro
dobru
doc
doctor
document
documentary
documentation
documents
dodaje
dodala
dodao
dodatne
dodatni
dodatno
dodeli
dodeljuje
does
dog
događaj
događaja
dogovor
dogs
doi
dok
dokaz
dokaza
dokazi
doktor
dokumenata
dokument
dokumenta
dolara
dolazak
dolaze
dolazi
dole
dom
doma
domac
domain
domen
domena
domestic
domingo
domu
don
donald
done
donela
doneo
doneti
dong
donji
donne
donos
donosi
door
dopamine
doprinos
dopus
dos
dosadas
dosta
dostupan
dot
dots
double
doubleday
douglas
dovela
dovelo
doveo
dover
dovesti
dovodi
dovoljno
dovrs
down
download
doz
dođe
dp
dr
dra
draft
dragan
dragana
drago
dragoljub
dragon
drake
drama
dramatic
drame
draw
draz
dre
dream
dreams
drive
dronj
drop
droz
drozak
drozd
drozdelj
drozdovac
drozg
drs
dru
drudis
drug
druga
drugac
drugbank
druge
drugi
drugih
drugim
drugima
drugo
drugog
drugoj
drugom
drugs
drugu
drus
druz
drveta
drvo
dry
drz
ds
dss
dt
du
duboko
dubrovnik
due
duel
dug
duga
dugac
duge
dugo
dugogodis
dugoroc
duh
duke
duncan
duo
during
dus
dutch
duty
duz
dva
dvadeset
dvd
dve
dvije
dvoje
dvojica
dvoris
dw
dwelling
dx
dynamic
dynamics
dynasty
dz
dzs
e
ea
each
eagle
ear
earl
earliest
early
earth
east
eastern
easy
eat
ebert
ec
eca
ece
ecological
ecology
economic
economics
economist
economy
ed
edgar
edge
edinburgh
edit
edited
edition
editions
editor
editorial
editors
edmund
eds
edu
education
educational
edukacija
edward
edwards
edwin
ee
eerdmans
ef
efa
efekat
efekata
efekte
efekti
effect
effects
efficacy
efikasnost
efl
eg
ega
egypt
egyptian
ei
eigenmann
eight
eighteenth
ein
eine
einer
einstein
eisner
ej
eja
ejido
ejms
ek
eka
ekipa
ekipe
ekipi
ekipu
ekolos
ekonomije
ekonomske
ekonomski
ekonomskog
ekson
ekspres
ekuje
ekuju
el
ela
elastic
elder
ele
election
elections
electric
electrical
electron
electronic
electronics
elektric
elektrona
eleli
elemenata
element
elementa
elementary
elemente
elementi
elements
elena
eleo
eleznic
eli
elija
elijama
elije
elijska
elim
elimo
elite
eliteprospects
elizabeth
elja
eljeni
eljko
elju
ell
ellen
elliott
ellis
elnik
elnika
elo
elor
else
elsevier
elu
em
ema
emergence
emergency
emerging
emi
emil
emiliano
emily
eminem
emisija
emisije
emma
emo
empereurs
emperor
empire
empires
emu
en
ena
enama
enciklopedija
encoding
encyclopaedia
encyclopedia
encyclopædia
end
ending
endocrinol
ends
ene
enemy
energija
energije
energiju
energy
eng
engel
engine
engineering
engineers
engl
england
engleska
engleske
engleski
engleskog
engleskoj
engleskom
english
eni
enica
enice
enici
enih
enik
enika
enim
enja
enje
enjem
enjima
enju
enlightenment
eno
enog
enoj
enom
enost
enosti
enough
enrique
enska
enske
enski
enter
entertainment
entrez
entry
enu
environment
environmental
enzim
enzima
enzymatic
enzyme
enzymes
enzymology
eo
eocene
ep
epa
epic
epidemiology
episode
epizoda
epizode
epizodi
epizodu
eps
epsilon
epub
equal
equilibrium
er
era
eras
ere
eri
eric
erich
erik
erka
erku
ernest
ernje
ernst
error
ertl
es
esa
escape
escherichia
esl
esnici
esnika
eso
espan
especially
esperanza
espn
essay
essays
essential
essentials
est
esta
estadi
este
ester
esti
estica
estice
estimates
estimation
esto
estvovali
estvovao
estvovati
estvuje
estvuju
et
eta
etak
etc
ete
ethics
ethnic
ethnicity
eti
etic
etiri
etka
etkom
etku
etna
etni
etnic
eto
etu
etvrtak
etvrtfinalu
etvrti
etvrtka
etymology
eu
eucalyptus
eugene
euleks
euphorbia
eur
euro
eurobasket
euroleague
europa
europe
european
eurovision
ev
eva
evac
evaluation
evan
evans
eve
even
evening
event
events
ever
everett
every
everything
evi
evic
evidence
evil
evna
evni
evnost
evnosti
evo
evog
evolution
evolutionary
evra
evro
evropa
evrope
evropi
evropska
evropske
evropski
evropskih
evropskim
evropsko
evropskog
evropskoj
evropskom
evropsku
evropu
evrovizije
evru
evu
ex
example
except
excerpt
exchange
exclusive
executive
exempt
exercise
exhibition
exit
exp
expansion
experience
experiment
experimental
expert
exploration
explorer
exploring
express
expression
extension
external
extreme
eye
eyes
ez
eznac
f
fa
faber
fabricius
fabrika
fabrike
face
facebook
faces
fact
factbook
factor
factors
facts
faculty
failure
fair
faith
faktor
faktora
faktori
fakultet
fakulteta
fakultetu
falco
fall
fallingrain
falls
false
fame
familia
families
familija
familije
family
famous
fan
fans
fantastic
fantasy
faq
far
farm
fas
fashion
fast
fat
fate
father
fauna
faza
faze
fazi
fbi
fbih
fc
fda
fe
fear
feat
feature
features
featuring
feb
februar
februara
februaru
february
febs
federacije
federal
federation
federer
feel
feet
feingold
felipe
felix
female
feminist
fer
ferdinand
ferguson
ferna
fernando
fest
festival
festivala
festivalu
fever
few
ff
fi
fiat
fiba
fiction
field
fields
fifa
fifth
fight
fighter
fighting
figura
figure
figures
file
files
filip
filipovic
film
filma
filmova
filmove
filmovi
filmovima
films
filmske
filmski
filmu
filozofija
filozofije
fin
fina
final
finala
finale
finally
finals
finalu
finance
financial
finansija
finansijske
find
finding
finds
fine
finger
finland
fire
firme
first
fis
fischer
fish
fisher
fisheries
fishes
fit
five
fizic
fiziolos
fk
fl
flag
flash
flat
fleming
fletcher
flight
floor
flora
flore
florence
flores
florida
flow
flower
fluid
fly
flying
fm
fo
focus
folk
follow
following
folyo
fond
fonda
fondacija
food
foot
football
footballdatabase
for
forbes
force
forces
ford
foreign
forest
forever
forgotten
form
forma
format
formation
forme
former
formi
formira
formiraju
formiranja
formiranje
forms
formula
formulom
forschungsreise
forster
fort
fortune
forum
forward
fosfat
fossil
foster
foto
fotografija
fotografije
found
foundation
foundations
four
fourth
fowler
fox
foye
fr
fra
frac
fraccionamiento
fragment
framework
franc
france
francesco
francis
francisco
franco
francuska
francuske
francuski
francuskog
francuskoj
francuskom
frank
frankfurt
franklin
frans
franz
fraser
fre
fred
frederick
free
freedom
freeman
french
frequency
fresh
friday
friedman
friedrich
friend
friends
fringillidae
fritz
frolkis
from
front
frontier
fruit
fscg
ft
fu
fudbal
fudbaler
fudbalera
fudbaleri
fudbalske
fudbalski
fudbalskog
full
fun
function
functional
functions
fund
fundamental
fundamentals
funkcija
funkcije
funkciju
funkcionis
funti
further
future
fzs
g
ga
gabriel
gac
gaga
gaja
gak
gal
gala
galaxy
gale
galeb
galerie
galerija
galeriji
gallery
gama
game
gamer
games
gamespot
gaming
gamma
gaon
garci
garcia
garden
gardens
gardner
garland
gary
gas
gasa
gates
gautam
gave
gavran
gay
gazette
gazetteer
gb
gc
gde
gdi
gdje
gdp
ge
gelo
gen
gena
gender
gene
genealogical
genealogy
genera
generacija
generacije
general
generalni
generalno
generation
genes
genesis
genet
genetic
genetics
geneva
geni
genius
genocide
genom
genoma
genome
genomes
genomics
genus
geoffrey
geografi
geographic
geographical
geography
geological
geology
geometry
geonames
georg
george
georges
georgia
ger
gerald
gerhard
german
germanic
germany
geschichte
gesellschaft
get
gets
getting
ghose
ghost
gi
giant
gibson
gilbert
giles
gill
gilman
gino
giovanni
girl
girls
giro
gitara
gitarista
giuseppe
give
given
gives
gj
gkm
gkq
gl
gla
glas
glasa
glasnik
glasova
glass
glava
glave
glavi
glavna
glavne
glavni
glavnih
glavnog
glavnom
glavnu
glavu
gle
gleda
glenn
gli
global
globe
gloria
glory
glossary
glukoza
glukoziltransferaza
glumac
glumca
glumica
glutamat
glutamate
gm
gmbh
gnjurac
gnu
go
goal
goals
god
godfrey
godina
godinama
godine
godini
godinu
godis
gods
goes
going
gol
gola
gold
goldberg
golden
goldstein
golub
gomez
gone
gonza
good
goodman
goodyear
google
gora
goran
gordon
gore
gori
goriva
gorivo
gornji
gos
gost
got
gotovo
gould
gov
government
govor
govora
govore
govorec
govori
govorio
govoriti
gp
gpcr
gpr
gr
gra
grac
grace
grad
grada
grade
gradonac
gradova
gradovima
gradu
graf
grafic
graham
grammar
grammy
gran
grana
grand
grande
grane
granic
granica
granice
granja
grant
graph
grave
gray
građana
građane
građani
građanima
grc
gre
great
greater
greatest
greece
greek
green
greene
greenwood
greeves
greg
gregory
gres
grey
griffin
grin
grlas
grmus
gro
gross
ground
group
groups
grove
growing
growth
groz
gru
grupa
grupama
grupe
grupi
grupom
grupu
gruyter
gs
gt
gu
guadalupe
guangdong
guangzhou
guardian
gubi
gubitak
guerrero
guez
guide
guidelines
guides
guinea
guinness
guitar
gulf
gun
guo
gus
guska
gustav
gutenberg
guy
gvoz
gwillim
gwoyeu
h
ha
hacienda
had
hadz
hagu
hair
haiti
hakka
half
hall
ham
hamburg
hamilton
hammer
han
hanc
hand
handbook
hands
hannah
hans
hansen
happened
happy
haps
harcourt
hard
hardman
hardy
harold
harper
harpercollins
harris
harrison
harry
hart
harv
harvard
harvey
has
hassanali
hat
have
haven
having
hawaii
hbo
hc
hd
hdl
he
head
headings
health
hear
heard
heart
heat
heaven
heavy
hebrew
heidelberg
heinemann
heinrich
heinz
held
helen
helena
hell
hello
helm
helmut
help
hemija
hemijska
hemijske
hemijskih
hemijskim
hemijsko
hemijskom
hemijsku
henderson
henri
henry
her
herald
herbert
hercegovina
hercegovine
hercegovini
hercegowina
here
heritage
herman
hermann
hermanos
herna
hero
heroes
heroja
heroji
herzegovina
het
heterocyclic
hg
hi
hidalgo
hidden
hidroksi
hidrolaza
high
higher
highlights
hiljada
hiljade
hill
hillary
hills
him
hindu
hinterland
hip
hirurs
his
histoire
historia
historian
historic
historical
histories
historiography
history
hit
hitler
hits
hiv
hl
hlorid
hltv
ho
hoc
hockey
hoffman
hokkien
holandija
hold
hole
holiday
holivud
holland
holleman
hollywood
holmes
holocaust
holt
holy
home
homo
hong
honor
honour
hood
hook
hop
hope
hopkins
hor
hormona
hormone
horn
horror
horse
horva
hospital
host
hot
hotel
houghton
hour
house
housecroft
housing
houston
how
howard
hoz
hp
hr
hram
hrana
hrane
hranu
hris
hronic
hronologija
hrsg
hrvata
hrvatska
hrvatske
hrvatski
hrvatskih
hrvatsko
hrvatskog
hrvatskoj
hrvatskom
ht
hteo
htm
html
http
https
hu
hua
huang
hudson
huerta
huffington
hugh
hughes
hugo
hui
hum
human
humans
hundert
hundred
hung
hungarian
hungary
hunt
hunter
hydra
hydrophobic
hypericum
hypertension
hz
i
ia
iaaf
iako
ian
ibid
ibm
ibn
ic
ica
ice
ich
ici
icon
icu
id
idaho
idar
ide
idea
ideas
ideja
ideje
ideju
identic
identification
identitet
identiteta
identity
ideology
idol
idu
iduc
ie
ieee
iei
if
ifpi
igara
ign
ignacio
igor
igra
igrac
igraju
igrala
igrali
igrama
igrao
igrati
igre
igri
igru
ih
ihrer
ii
iihf
iii
ija
ije
ijem
iji
iju
ik
ika
il
ila
ilac
ilas
ile
ili
ilic
ilis
ill
illinois
illustrated
ilo
im
ima
image
images
imaging
imaju
imala
imale
imali
imalo
imam
imamo
imao
imati
imc
imdb
ime
imena
imenom
imenu
immediate
immunol
imo
imovine
impact
imperial
implementation
implications
importance
important
in
ina
inac
inak
inama
inar
inc
include
includes
including
indeks
indeksni
independence
independent
index
india
indian
indiana
indians
indices
indiji
individual
indo
indonesia
induced
industrial
industrija
industrije
industriji
industry
ine
inegi
inf
infection
infectious
infekcija
infekcije
influence
info
informacija
informacije
information
infty
ing
ington
inhibition
inhibitor
ini
inili
inio
initi
initial
initiative
inje
injen
injenica
injenice
inju
injury
innovation
inom
inorganic
inostranstvu
inozitol
input
insect
insee
inside
insider
insight
insights
inski
instagram
institucija
institucije
institut
instituta
institute
institution
institutions
instituto
instrument
instruments
insulin
int
inte
integracija
integracije
integrated
integration
intel
intellectual
intelligence
inter
interaction
interactions
interactive
interakcije
interesa
interest
internal
international
internationale
internet
interneta
internetu
interpretation
interscience
interview
interviews
intervju
intervjuu
into
introduction
inu
invasion
invention
investicija
investigation
involved
inz
io
ion
ios
iowa
ip
ipa
ipac
ipak
ir
ira
iran
iranian
iranica
irao
iraq
iras
irata
irati
ire
ireland
irenja
irenje
iri
irija
irina
iris
irish
irok
iroko
irom
iron
irwin
is
isaac
isabel
isbn
iser
isidro
iskljuc
iskoris
iskustva
iskustvo
islam
islamic
island
islands
iso
isolation
ispitivanja
ispitivanje
ispod
ispred
ispric
israel
israeli
issn
issue
issues
ist
ista
istakao
istanbul
istarske
istat
iste
isti
istic
istim
istina
istituto
isto
istoc
istog
istoj
istoku
istom
istoric
istorija
istorije
istoriji
istorijski
istoriju
istovremeno
istraz
istu
istvan
it
ita
ital
italia
italian
italiana
italija
italijanski
italije
italiji
italy
itav
itd
ite
itelj
item
ithaca
iti
itih
itim
ito
its
itunes
itv
iucn
iupac
iv
iva
ivac
ivan
ivana
ivanja
ivanje
ivanjima
ivanju
ivanovic
ivao
ivati
ive
ivela
iveli
iveo
iveti
ivi
ivic
ivica
ivkovic
ivo
ivost
ivot
ivota
ivotinja
ivotinje
ivotne
ivotni
ivotno
ivotu
ix
iz
iza
izabran
izas
izaziva
izazvati
izbor
izbora
izbore
izbori
izborima
izboru
izd
izdala
izdanja
izdanje
izdanju
izdao
izdavac
izdrz
izgled
izgleda
izgradnja
izgradnje
izgradnji
izgradnju
izgubila
izgubili
izgubio
izjavi
izjavila
izjavio
izjednac
izlaz
izlazi
izloz
izmene
između
izmis
iznad
iznos
iznosi
iznosio
izrac
izradu
izraz
izrazio
izruc
izuc
izum
izuzetan
izuzetno
izvan
izvedena
izves
izvlac
izvodi
izvor
izvora
izvori
izvođac
izvrs
j
ja
jac
jack
jackson
jacob
jacobs
jacques
jaja
jak
jaka
jake
jako
jakov
jam
jama
james
jamie
jan
jane
janet
janko
jankovic
januar
januara
januaru
january
japan
japanese
japanu
japon
jarebica
jas
jasno
jason
jastreb
jat
java
javascript
javier
javlja
javljaju
javna
javne
javni
javnih
javnim
javno
javnog
javnom
javnost
javnosti
jay
jazu
jazz
jb
jbc
jc
jd
je
jean
jeda
jedan
jedina
jedini
jedinica
jedinice
jedinjenja
jedinjenje
jedinjenjima
jedino
jedinstven
jedinstvo
jedna
jednac
jednako
jedne
jednim
jedno
jednog
jednoj
jednom
jednostavno
jednu
jedva
jeff
jefferson
jeffrey
jeffries
jel
jela
jelena
jelo
jem
jencks
jenkins
jennifer
jensen
jer
jeremic
jeremy
jerry
jersey
jerusalem
jes
jesen
jessica
jest
jeste
jesu
jesus
jet
jetre
jewish
jewison
jews
jezera
jezgra
jezic
jezik
jezika
jeziku
jf
jg
jh
ji
jia
jim
jima
jin
jiu
jj
jl
jm
jo
joan
joanne
job
joe
joel
johan
johann
johannes
john
johns
johnson
johnston
join
joins
joint
joj
jokic
jon
jona
jonas
jonathan
jones
jordan
jorge
jos
jose
josef
joseph
joshua
josip
journal
journals
journey
jovan
jovana
jovanovic
jovic
joy
joya
joyce
jp
jpg
jpl
jr
js
jstor
ju
jua
juan
juc
judith
jug
jugoistoc
jugoslavenska
jugoslavija
jugoslavije
jugoslaviji
jugoslovenske
jugoslovenski
jugu
jul
jula
julia
julian
julie
julius
julu
july
jump
jun
juna
junac
junak
junaka
june
jung
junior
junu
just
justice
justin
jutarnji
jutros
juz
jw
jyutping
k
ka
kac
kad
kada
kadich
kakav
kako
kakva
kakve
kama
kamen
kamenjar
kampanje
kan
kanal
kanala
kancelarije
kandidat
kandidata
kane
kangxi
kanjac
kanji
kansas
kao
kaohsiung
kapacitet
kapitala
kaplan
kara
karac
karaca
karadz
karakter
karaktera
karakteris
karakteristic
karakteristika
karakteristike
karata
karci
karen
karijere
karijeri
karijeru
karl
karta
karte
kas
kasheva
kasnije
kat
katalizuje
katalog
katarina
kate
kateg
kategorija
kategorije
kategoriji
katherine
kati
katolic
katritzky
kaup
kaz
kazala
kazao
kazin
kazna
kazne
kaznu
kb
kc
kcpg
ke
keep
kegg
keith
kell
kelly
ken
kennedy
kenneth
kent
kentucky
kenya
kes
ketrin
kevin
key
kfora
kg
kh
khan
ki
kic
kicker
kickstarter
kid
kidney
kids
kih
kill
killed
killer
killing
kilo
kilometara
kim
kin
kina
kinase
kinaza
kind
kine
kineski
kinetics
king
kingdom
kings
kini
kira
kis
kiselina
kiseline
kiseonik
kiseonika
kiss
kit
kj
kk
kl
kla
kladna
kladne
klasa
klase
klasi
klasic
klaus
klein
kli
klinic
kljuc
klub
kluba
klubu
kluwer
km
kn
knew
knez
kneza
knight
knjiga
knjige
knjigu
knjiz
knjizi
knopf
know
knowledge
knowledgebase
known
knox
ko
koa
koalicija
koalicije
kobac
kobe
koc
koch
kod
koda
kodiran
kog
koga
koj
koja
koje
kojeg
kojem
koji
kojih
kojim
kojima
kojoj
kojom
koju
kokos
kokot
kol
kola
kolac
kole
koledz
kolekcija
koli
kolic
koliko
kolo
kolska
kolu
kom
komad
komada
kombinacija
kombinacije
kome
komisija
komisije
komitet
komiteta
kommon
komore
kompanija
kompanije
kompaniji
kompleks
kompleksa
komponenta
komponente
koms
komunikacija
komunikacije
kon
konac
koncentracija
koncentracije
koncept
koncert
koncerta
koncertu
konferencija
konferencije
konferenciji
kong
konj
konja
konjic
konjug
konkurenciji
kontakt
kontekstu
kontrola
kontrole
kontrolis
kontrolu
korak
koraka
korea
korean
koren
koris
korisnic
korisnici
korisnicima
korisnik
korisnika
korist
koriste
koristec
koristi
koristili
koristio
koristiti
kornet
korupcije
kos
kosova
kosovac
kosovic
kosovo
kosovske
kosovu
kosti
kostic
kova
kovac
kove
kovi
kovic
koz
kpmg
kr
kra
krac
kraguj
kragujevac
kragujevcu
kraj
kraja
krajem
kraju
kralj
kralja
kraljevine
kraljevstvo
kraljic
kraljica
kralju
kratko
krc
krdz
kre
krec
kredita
kreja
kres
kretanja
kretanje
kri
krila
kriminala
kris
kritic
kritike
krivic
kriz
kriza
krize
krlez
kro
kroz
krs
krstas
krstic
kru
krug
krus
kruz
krv
krvi
krvnih
krz
ks
ku
kuc
kug
kukavic
kuku
kukuvija
kula
kultura
kulture
kulturi
kulturne
kulturni
kulturno
kulturnog
kulturu
kumar
kun
kunst
kup
kupa
kupio
kupovinu
kurir
kurs
kursu
kurt
kus
kutler
kvalifikacija
kvalitet
kvaliteta
kw
ky
kyo
kyoto
l
la
lab
labor
laboratory
labour
labud
lady
laguna
lake
lakers
lako
laks
lam
lambda
lambert
lan
lana
lanac
lanak
lanaka
lanca
lancet
land
lands
landscape
lane
lang
language
languages
lanham
lanica
lanice
lanka
lanke
lanova
lanove
lanovi
lanovima
lanstvo
large
largest
larry
lars
larus
las
laser
last
lasta
lastavica
lat
late
later
latest
latex
latin
launch
launches
laura
lauren
laurence
laurent
law
lawrence
laws
laz
lazar
lb
lc
lccn
ldots
le
lea
leach
lead
leader
leaders
leadership
leading
leads
league
learn
learners
learning
least
leave
leaves
lec
leconte
lecture
lectures
led
lee
left
legacy
legal
legend
legenda
legends
leiden
leipzig
lejdi
lek
leka
lekar
lekara
lekova
lekovi
leksikografski
leksikon
lemke
len
length
leo
leon
leonard
leonardo
leonis
lepidoptera
lepo
leq
les
lesbian
leslie
less
lessons
let
leta
leti
leto
lett
letter
letters
leve
level
levels
levi
levy
lewis
lexicon
lexikon
lez
leđa
lg
lgbt
lh
li
lia
liber
liberal
liberty
libraries
library
lic
lica
lice
licu
lider
lidera
lie
life
liga
ligand
ligaza
lige
light
ligi
ligu
lijaza
lik
lika
like
likova
likovnih
lil
lim
lima
limbird
limited
limits
limo
lin
lincoln
linda
lindl
line
linear
lines
linguistic
linguistics
linija
linije
link
linked
links
linnaeus
lintia
linux
lion
lionel
lipid
lipophilic
lippincott
liquid
lis
lisa
list
lista
liste
listen
listi
lists
listu
lit
literary
literatura
literature
lithobius
lithuania
little
littlefield
liu
liv
live
liver
liverpool
lives
living
livingstone
liz
lj
lja
ljajic
ljati
lje
ljen
ljenja
ljenje
ljes
ljiv
ljivo
ljivost
lju
ljubav
ljubavi
ljubic
ljubljana
ljude
ljudevita
ljudi
ljudima
ljudska
ljudske
ljudski
ljudskih
ljudskim
ljudskog
ljuka
lkerung
lko
ll
llano
llc
ller
lloyd
lm
ln
lo
local
localization
location
locode
locuint
log
logic
loire
lokacija
lokalne
lokalni
lokalnih
loma
lonc
london
londonu
lonely
long
longman
look
looking
loomis
lopez
lord
lorenzo
los
loser
loss
lost
losti
lot
louis
louise
louisiana
lovac
lovato
love
low
lower
loz
lp
ls
lt
ltd
lu
lua
luc
lucas
luci
lucky
ludwig
luis
luk
luka
luke
lukic
luna
lung
luo
luz
lvi
lvii
lx
lxxvii
lxxxx
ly
lyi
lynch
lynn
m
ma
mac
macdonald
macedonia
machine
machines
macmillan
mad
mada
madagascar
madarainak
made
madison
madrid
magazin
magazine
magic
magnetic
magnus
magyar
mai
maiden
maik
mail
main
maj
maja
majka
majke
majkl
majkla
major
maju
mak
make
makedonije
makes
making
mala
malaysia
malcolm
male
mali
malih
malim
malo
malog
malom
malta
mama
mammal
mammalia
mammalian
mammals
man
mana
management
manager
manc
mancall
manchester
manga
manifestacija
manifestacije
manja
manje
manji
mann
manual
manuel
manuscript
many
mao
map
maplandia
mapping
mapquest
maps
mar
marc
marcel
march
marco
marcos
marcus
mare
maretic
margaret
mari
maria
maric
marie
marija
marina
marine
mario
maritime
marjanovic
mark
marka
market
marketing
marko
markovic
marks
marriage
mars
marshall
mart
marta
martha
marti
martin
martu
marvel
marx
mary
maryland
mas
masa
mase
mason
mass
massachusetts
massive
master
masters
masti
masu
mata
match
matches
matematic
material
materials
materija
materijal
materijala
materije
math
mathbb
mathbf
mathcal
mathematical
mathematics
mathrm
mati
matic
matica
matice
matrix
matt
matter
matthew
maurice
max
may
maya
mayo
mađarske
mb
mbox
mc
mccarthy
mcdonald
mcfarland
mcg
mcgann
mcgraw
md
me
mean
meaning
means
measure
measurement
measures
meat
mec
mechanical
mechanics
mechanism
mechanisms
med
medal
medalja
medalje
medalju
media
medianet
mediated
medical
medicina
medicinal
medicine
medicinska
medicinske
medicinski
medien
medieval
medija
medije
mediji
medijima
mediterranean
medline
meet
meeting
mehanic
mehanizam
mek
melbourne
member
members
membrane
memoir
memoirs
memorial
memoriam
memory
men
menadz
mene
meni
menja
ment
mental
mer
mera
mercedes
merck
mercury
mere
merenje
meri
mero
merriam
mes
mesa
mesec
meseca
meseci
mesh
meso
message
messi
mesta
mestima
mesto
mestu
met
meta
metabolic
metabolism
metacritic
metadata
metal
metala
metara
metcalf
meteor
meteorological
method
methods
methyl
methyltransferase
metil
metiltransferaza
metionin
metod
metoda
metode
metohiji
metro
metropolitan
mexican
mexico
meyer
mez
među
međubankarskom
međunarodna
međunarodne
međunarodni
međunarodnih
međunarodnim
međunarodno
međunarodnog
međunarodnom
međusobno
međutim
međuvremenu
mg
mh
mhz
mi
mia
miami
mic
mice
michael
michel
michelle
michigan
microbiol
microbiology
microsoft
mid
middle
mie
mifflin
might
migration
miguel
mihailovic
mihajlovic
mike
mil
mila
milan
milana
milano
mile
milenkovic
miles
milic
milica
milijarde
milijardi
milion
miliona
military
milk
mill
millennium
miller
million
mills
milorad
milos
milosavljevic
milovanovic
milton
min
mina
minaj
mind
mine
mineral
ming
mini
minimum
mining
ministar
ministara
ministarka
ministarstva
ministarstvo
ministarstvu
minister
ministra
ministri
ministry
minneapolis
minnesota
minor
minoris
minuta
minute
minutes
minutu
mio
miodrag
mir
mira
mirador
miranda
mires
mirisa
mirjana
mirko
miroslav
mirror
mis
misao
misija
misije
misli
mislim
miss
missing
mission
mississippi
missouri
mit
mitch
mitchell
mitkovic
mitochondrial
mitrovic
mittheilungen
mix
mj
mjesnim
mjesto
mjuzikal
mk
ml
mla
mlada
mlade
mladenovic
mladi
mladic
mladih
mladost
mladosti
mlađi
mle
mlec
mleka
mleko
mm
mmf
mn
mnoge
mnogi
mnogih
mnogim
mnogo
mnos
mo
mobile
moc
mod
mode
model
modela
modeling
models
modern
moderna
moderne
module
mogao
mogla
mogle
mogli
moglo
mogu
moguc
moj
moja
moje
mojo
mokrac
mol
molecular
molecules
molekul
molekula
molekularna
molekulska
molekulsku
moliterno
mom
momc
moment
mon
monaco
monday
monde
mondo
money
monitor
monitoring
monster
montana
monte
montenegro
month
monthly
montreal
monuments
moon
moore
mora
moraju
moral
morala
morales
moramo
morao
morati
more
morgan
morning
morphology
morris
morrison
morska
morski
mortality
morton
moru
mos
moscow
moskva
most
mosta
motacilla
motacillidae
mother
motion
motiv
motor
motora
mount
mountain
mountains
mouse
mouth
move
movement
movements
movie
movies
moz
mozga
mozzartsport
mp
mr
mrac
mrez
mrs
mrz
ms
msn
mt
mtv
mu
muc
much
muhammad
muharica
multi
multiple
mun
mundo
munich
municipalities
mup
murder
murphy
murray
murtaza
mus
muscicapidae
muscle
muse
museum
museums
music
musical
muslim
muslimana
muslims
must
muz
muzej
muzeja
muzeju
muzic
muzici
muzika
muzike
muziku
mvp
mw
my
myers
mystery
myth
mythology
myths
n
na
nabla
nac
nach
nacija
nacije
nacion
nacional
nacionalna
nacionalne
nacionalni
nacionalnih
nacionalnog
nacionalnom
nacrtao
nad
nada
nadal
nadh
nadlez
nadp
nadph
nadu
nafte
naglas
naglasio
naglo
nagrada
nagrade
nagradu
naime
najavila
najavili
najavio
najavljeno
najbliz
najbolja
najbolje
najboljeg
najbolji
najboljih
najbolju
najc
najednom
najjac
najleps
najmanje
najpoznatiji
najpre
najstariji
najuspes
najvaz
najvec
najverovatnije
najvis
najzad
najznac
nak
naklada
naknadno
nakon
nalaz
nalaze
nalazi
nam
nama
name
named
namenjen
namenjeni
namenjenog
names
nan
nancy
naoc
naoruz
napad
napada
napadac
napisao
napoleon
napon
napona
napravi
napravio
napraviti
napravljen
napred
napredak
napus
napustio
nar
naravno
naredne
narednih
naroc
narod
naroda
narodna
narodne
narodni
narodnih
narodno
narodnog
narodnoj
narodnom
narodnosni
narrative
narus
naruto
nas
nasa
naselja
naseljima
nash
nasilja
nasilje
naslov
naslovom
nastaje
nastaju
nastala
nastanak
nastanka
nastao
nastavak
nastavi
nastavio
nastaviti
nastavku
nastavlja
nastup
nastupa
nat
nathan
nation
national
nationalism
nations
native
natl
nato
natrijum
natur
natural
nature
nauc
nauka
nauke
nava
naval
navedeno
navela
naveli
naveo
navijac
navode
navodi
navodno
navy
nazad
nazi
nazionale
naziv
naziva
nazivaju
nazivom
nazvan
nazvao
nađe
nb
nba
nbc
nbs
nc
nchen
nchez
nd
nda
ndak
nde
ndez
ne
near
nebo
nebojs
nebraska
nec
necessary
neck
ned
nedavno
nedelja
nedelje
nedeljnik
nedelju
nedostatak
nedwww
need
needs
neg
nega
negative
nego
neil
nek
neka
nekad
nekada
nekadas
neke
neki
nekih
nekim
neko
nekog
nekoga
nekoliko
nekom
nekome
neku
nellie
nelson
nem
nema
nemac
nemaju
nemanja
nemoc
nemoguc
nenad
neo
neobic
neoc
neophodan
neophodna
neophodno
nepos
neposredno
nes
nesrec
net
netflix
netherlands
network
networks
neue
neural
neurol
neurology
neuroscience
never
neveu
new
newman
news
newspaper
newspapers
newton
next
nez
nezavisna
nezavisne
nezavisno
nezavisnost
nezavisnosti
nf
ng
ngc
nh
nhl
ni
nia
nic
nica
nice
nicholas
nici
nicima
nick
nickelodeon
nicki
nicola
nicolas
nicu
nielsen
nigel
night
nigra
nih
nija
nije
nijedan
niji
nijih
nik
nika
nikad
nikada
nikako
nike
niko
nikola
nikole
nikolic
nil
nim
nin
nina
nine
nineteenth
ninguno
nintendo
nis
nisam
niske
nismo
nisu
niti
nivo
nivoa
nivou
niz
niza
nizu
nj
nja
njac
njaci
njak
njaka
njava
nje
njeg
njega
njegov
njegova
njegove
njegovi
njegovih
njegovim
njegovo
njegovog
njegovoj
njegovom
njegovu
njem
njemu
njen
njena
njene
njeni
njenih
njenim
njenje
njeno
njenog
njenom
njenu
nji
njice
njih
njihov
njihova
njihove
njihovi
njihovih
njihovim
njihovo
njihovog
njihovoj
njihovom
njihovu
njim
njima
njoj
njom
njost
njosti
nju
njujork
njujorku
njujors
nk
nka
nl
nm
nme
nn
no
nobel
nobelprize
noble
noc
node
noel
nog
noge
nogu
noise
noj
nolit
nom
nombre
nomenclature
nominations
nominees
non
nor
normal
normalno
norman
north
northern
norton
norves
norway
norwegian
nos
nose
nosi
nosilac
nost
nosti
nostima
not
note
notes
nothing
notices
notre
noun
nov
nova
novac
novak
novc
novca
nove
novel
novembar
november
novembra
novembru
novi
novih
novim
novinar
novinara
novinare
novinarima
novine
novinska
novo
novog
novoj
novom
novosti
novu
now
noz
np
npm
npr
nr
ns
nt
nther
ntul
nu
nuclear
nucleic
nudi
nueva
nuevo
null
number
numbers
numerals
nussbaum
nutrition
nuts
nuz
ny
nytimes
nz
o
oaks
ob
oba
obale
obali
obama
obaves
obaveza
obaveze
obavlja
obce
obe
obec
obelez
obes
obezbedi
obezbeđuje
obic
obituary
objas
objasnio
objavila
objavili
objavio
objavljen
objavljena
objavljeno
objavljuje
object
objects
objekat
objekata
objekta
oblast
oblasti
oblastima
oblici
oblik
oblika
obliku
oboljenja
oboz
obrac
obrade
obradovic
obradu
obrazloz
obrazovanja
obrazovanje
observations
observatory
observer
obuc
obuhvata
obuhvataju
obyvatel
obyvatelia
obzir
obzira
obzirom
oc
oca
occupation
ocean
ocenila
ocenio
oclc
oct
october
od
odakle
odbio
odbojkas
odbor
odbora
odbrane
odbranu
ode
odec
odeljenja
odgovara
odgovarajuc
odgovor
odgovoran
odgovorni
odgovornost
odgovornosti
odlazak
odlazi
odlic
odloz
odluc
odluka
odluke
odluku
odmah
odnos
odnosa
odnose
odnosi
odnosima
odnositi
odnosno
odnosu
odraslih
odraz
odrednica
određen
određena
određene
određeni
određenih
određenim
određenog
određivanje
određuje
odrz
odsto
odus
odvija
of
off
office
official
officialcharts
officials
ofk
often
og
oglas
ogranic
oh
ohio
oil
ois
oj
ojac
ojo
ok
oka
oklahoma
oko
okonc
okruz
oksid
oksidaza
oksidoreduktaza
oktobar
oktobra
oktobru
okvir
okviru
ol
ola
olaks
old
oldest
olfactory
olfaktorni
olfaktornih
olga
oli
olinko
oliver
olivier
olympic
olympics
om
omega
omics
omladine
omoguc
on
ona
onaj
once
onda
one
oni
onih
onima
onlajn
online
only
ono
onog
onoga
ontario
onu
op
opasnost
opasnosti
opc
open
opening
opens
opera
operacija
operacije
operation
operations
operatorname
opere
opet
ophthalmol
opinion
opis
opisao
opisuje
opreme
ops
opseg
opterec
optic
optical
optuz
opus
or
ora
oral
orange
orao
orden
order
orders
ordz
oregon
org
organ
organa
organi
organic
organima
organisation
organizacija
organizacije
organizaciji
organizaciju
organizama
organization
organizatori
organizma
organizuje
organsko
oricon
oriental
orientalis
origin
original
originally
originalno
originals
origins
orkestar
orlando
ornithologiai
ornithologische
ornithologischen
oro
orthodox
oruz
os
osam
oscar
osec
osiguranje
osim
oskara
osnivac
osnivanja
osnova
osnovan
osnovana
osnovao
osnove
osnovi
osnovna
osnovne
osnovni
osnovnih
osnovu
osoba
osobe
osobina
osobine
osprey
ostaci
ostaje
ostaju
ostala
ostale
ostali
ostalih
ostalim
ostalo
ostalog
ostane
ostao
ostatak
ostati
ostavi
ostavio
ostavku
ostrea
ostrva
ostrvo
ostvarenja
ostvarenje
ostvario
osumnjic
osuđen
osvojila
osvojili
osvojio
ot
otac
otez
other
others
otis
otkric
otkrio
otkriva
otoka
otpor
otprilike
otpus
otto
ottoman
otvara
otvaranje
otvaranju
otvoren
otvorena
otvoreno
otvorenog
otvorenom
ou
our
out
output
outstanding
ov
ova
ovaj
ovako
ovc
ovde
ove
ovec
ovek
oveka
oveku
over
overrightarrow
overview
ovi
ovic
ovih
ovim
ovlas
ovo
ovog
ovoga
ovogodis
ovoj
ovom
ovu
owen
owl
owls
own
oxford
oxidase
oxygen
oz
ozbiljno
oznac
oznaka
oznake
p
pa
pablo
pac
pacific
pacijenata
pacijenta
package
pad
pada
page
pages
pain
painting
pair
pak
pakistan
pala
palace
paleontology
palestine
palgrave
palma
palmas
palmer
palo
pamela
pan
panama
panc
panel
panija
panije
panski
pao
paolo
papa
paper
paperback
papers
par
para
parada
paradise
parai
parallel
parameter
pare
parent
paris
pariz
parizu
park
parker
parks
parku
parlament
parlamenta
parlamentu
parliament
part
partial
participle
particle
particular
parties
partija
partije
partizan
partizana
partner
parts
party
pas
paso
pass
past
pastirc
pastiric
pastirica
pat
patent
path
pathway
patient
patients
patka
patricia
patrick
pattern
patterns
paul
paula
paulo
pavlovic
pay
paz
pb
pbs
pc
pcmuseum
pdf
pe
peace
peak
pearson
pec
pediatr
pediatric
pediatrics
pedro
pelle
pen
peng
penguin
pennsylvania
pentru
people
peoples
peptide
per
perfect
performance
period
perioda
periodic
periodu
perry
perseus
persian
person
personal
personality
perspective
perspectives
peru
perus
pes
pesama
pesma
pesme
pesmi
pesmom
pesmu
pesnik
pet
peta
petak
petar
pete
peter
peters
petersburg
peterson
peti
petkovic
petlic
petra
petranovic
petrovic
pevac
pez
pg
pgc
ph
pharmacol
pharmacological
pharmacology
phase
phasianidae
phd
phi
phil
philadelphia
philip
philippe
philippines
phillips
philosophical
philosophy
phoenix
phofsit
phonetic
phosphate
photo
photos
php
phylogenetic
phylogeny
phys
physical
physics
physiol
physiology
pi
piano
pic
pick
picture
pictures
piece
piedra
pierre
pijevac
pilot
pin
pink
pinyin
piper
pis
pisac
pisaca
pisao
pisci
pisma
pismo
pit
pitanja
pitanje
pitanjima
pitanju
piter
pittsburgh
pj
pjesama
pjesma
pjesme
pjevac
pl
pla
plac
place
places
plain
plan
plana
plane
planet
planeta
planetary
planets
planina
planine
planinska
planinski
planira
planning
plans
plant
plants
planu
plas
plasman
plastic
plata
plate
platform
platinum
plato
plava
plavi
play
player
players
playing
plays
playstation
plaz
plc
ple
please
plemena
ples
pliska
pliskus
pljac
ploc
plod
plos
plovka
pluc
plural
plus
pm
pmc
pmid
pnas
pne
pneumatika
po
pobeda
pobede
pobedi
pobedila
pobedili
pobedio
pobednik
pobedom
pobedu
poboljs
poc
pocket
pocock
pod
podaci
podacima
podataka
podatke
podes
podgorica
podl
podne
podneo
podrazumeva
podrs
podruc
podrz
podsec
podsetio
poems
poena
poetry
poezije
pogled
pogledajte
pogledati
pogledu
pogors
pogres
pohlavia
point
points
pojac
pojam
pojava
pojave
pojavila
pojavio
pojaviti
pojavljuje
pojavljuju
pojedinac
pojedine
pojedinih
pojedinim
pokaz
pokazala
pokazali
pokazalo
pokazao
pokazuje
pokazuju
pokrec
pokret
pokreta
pokuc
pokus
pol
pola
poland
polar
pole
poli
police
policija
policije
policy
polish
politic
political
politici
politics
politika
politike
politiku
polja
polje
poljoprivrede
poljska
polju
poll
polovine
polovini
poloz
polufinale
polufinalu
polugodis
polygon
pomaz
pomoc
pomogne
pon
ponas
pone
ponedeljak
ponekad
ponis
ponovno
ponovo
ponuda
ponude
ponudu
poor
pop
pope
popis
popovic
populacije
popular
popularnost
populat
population
populations
poput
por
poraz
poraza
pored
porekla
poreklo
poremec
poreza
poređenju
porodic
porodica
porodice
porodici
porodicu
port
portal
porter
portparol
portrait
portugal
portuguese
poruc
poruka
poruke
porvenir
pos
posao
poseban
posebna
posebne
posebnim
posebno
posec
poseduje
poseta
posete
poseti
posetu
position
positions
positive
posla
poslanic
poslanici
poslanik
poslanika
posle
posledica
posledice
poslednja
poslednje
poslednjeg
poslednji
poslednjih
poslova
poslovanja
poslovanje
poslove
poslovne
poslu
posluz
posmatrac
possible
post
postaje
postaju
postala
postali
postane
postao
postati
postavi
postavio
postavlja
postavljen
postavljena
postepeno
postigao
postiz
postojanja
postojanje
postoje
postojec
postoji
postupak
postupka
postupku
posvec
potencijal
potential
potic
potoc
potom
potpis
potpisali
potpisao
potpredsednik
potpuno
potpunosti
potraz
potreba
potreban
potrebe
potrebna
potrebne
potrebno
potrero
potros
potter
potvrdio
pour
pov
povec
povezan
povezana
povezane
povezani
povezanih
povezuje
povijest
povis
povlac
povodom
povratak
povrc
povreda
povrede
povremeno
povrs
povuc
powell
power
powers
poz
pozharskii
pozicija
pozicije
poziciji
poziciju
pozitivan
pozitivno
poziv
poziva
poznat
poznata
poznate
poznati
poznatih
poznato
pozo
pozoris
pozvao
pozviz
pp
pr
pra
prac
practical
practice
practices
praeger
prague
praha
praksa
praksi
praktic
pras
prate
pratec
prati
prava
pravcu
pravda
pravde
prave
pravi
pravila
pravilo
praviti
pravni
pravno
pravo
pravu
pre
prec
pred
prediction
predlog
predloz
predmet
predmeta
prednost
prednosti
predrag
predsednic
predsednica
predsednik
predsednika
predsednikom
predsednis
predstava
predstave
predstavio
predstavlja
predstavljaju
predstavljen
predstavljena
predstavnici
predstavnicima
predstavnik
predstavnika
predstojec
preduzec
predviđa
predviđeno
pregled
pregleda
pregnancy
pregovora
pregovore
pregovori
preko
prekrs
prelazi
preliminary
prema
premier
premiere
premijer
premijera
premijerno
preminuo
preneo
prenos
prenosa
prenose
prenosi
prentice
preporuc
prepoznavanje
pres
presa
present
presentation
presented
president
presidential
press
pressure
prestiz
pretez
prethodna
prethodne
prethodnih
prethodno
pretpostavlja
pretraz
pretty
preuzeo
preuzeto
prevalence
prevention
preview
previs
prevod
prevoz
prez
prezentacija
prezime
pri
pribliz
pric
price
pride
pridruz
prihod
prihoda
prihvac
prijatelj
prijatelja
prijatelji
prije
prikaz
prikazan
prikazana
prikazuje
prikljuc
prilic
prilika
prilikom
priliku
prilog
prima
primary
prime
primec
primena
primene
primeni
primenjuje
primenom
primenu
primer
primera
primeraka
primeri
princ
prince
princess
princeton
princip
principles
print
printing
pripada
pripadaju
pripadnici
pripadnika
priprema
pripreme
priroda
prirode
prirodi
prirodne
prirodni
prirodnih
prirodno
priruc
pris
prison
pristimantis
pristup
pristupa
pristupljeno
prisustvo
prisustvu
prisutan
prisutna
prisutni
pritisak
pritiska
pritiskom
pritvora
private
privlac
privrede
privremeno
prix
prize
priznanja
priznanje
pro
probjave
problem
problema
probleme
problemi
problemima
problems
proc
procedura
procedure
proceedings
procena
procenat
procenata
procenjuje
proces
procesa
process
processes
processing
procesu
procyclingstats
prodaja
prodaje
prodaji
prodaju
prodala
produced
producent
product
production
productions
products
produz
prof
profesor
profesora
professional
professor
profil
profile
profiles
proglas
program
programa
programme
programming
programs
programu
progreso
progress
proizvod
proizvoda
proizvode
proizvodi
proizvodnja
proizvodnje
proizvodnji
proizvodnju
proizvođac
project
projekat
projekata
projekta
projektu
prolazi
prolec
promena
promene
promeni
promenite
promenu
promet
prometheus
promovis
pronas
pronunciation
proper
properties
property
prorac
pros
prosec
proseku
prostate
prosti
prostor
prostora
prostoru
prosveta
prosvjeta
protected
protection
protein
proteina
proteini
proteinima
proteins
protest
protesta
protiv
proto
protocol
protokol
prouc
proveo
providencia
province
provinces
proz
prs
prsten
pru
prudnik
prunus
prutka
pruz
prva
prve
prvenstva
prvenstveno
prvenstvo
prvenstvu
prvi
prvih
prvim
prvo
prvobitno
prvog
prvoj
prvom
prvu
ps
psa
pseudomonas
psi
psiholos
psychiatry
psychological
psychology
pt
ptic
ptica
ptice
pu
pub
pubchem
public
publication
publications
publika
publike
published
publisher
publishers
publishing
pubmed
puc
pueblo
puente
puerta
puerto
puka
pulmonary
pun
puno
pupavac
pure
purification
pus
push
put
puta
putem
puteva
putevima
putin
putnam
putnika
putovanja
putovanje
putu
puzavac
python
q
qatar
qi
qquad
qu
quad
qualifier
quality
quantum
quanzhou
quarterly
que
queen
quercus
quest
question
questions
qui
quick
quote
r
ra
rac
race
rachel
racing
rad
rada
rade
radi
radiation
radic
radical
radikalne
radila
radili
radio
raditi
radna
radne
radnic
radnici
radnik
radnika
radnja
radnje
radnog
radom
radova
radovan
radove
radovi
radu
raf
rafael
rai
raid
rail
railways
rain
rainbow
rainer
raj
rak
raka
raketa
ralph
ram
rami
ramo
ran
rana
ranchito
rancho
randall
random
randomized
rane
rang
range
rangle
rani
ranije
rank
ranking
rankings
rano
rap
rapid
rare
ras
rasa
raspoloz
rasprava
rasprave
raspravu
raspus
rast
rasta
raste
rastko
rastu
rat
rata
rate
rather
rati
ratings
ration
ratne
raton
rats
ratu
ravni
ravnotez
ray
raymond
raz
razgovarao
razgovarati
razgovor
razgovora
razgovori
razgovoru
razlic
razlika
razlike
razliku
razlikuje
razlikuju
razlog
razloga
razmis
razne
raznih
raznim
razumevanje
razvija
razvijaju
razvijen
razvio
razvoj
razvoja
razvoju
rb
rc
rca
rd
re
reach
reaction
reactions
read
reader
reading
readings
ready
reakcija
reakcije
reakciju
real
reality
really
reason
rebecca
rebel
rec
recensa
recent
receptor
receptora
receptore
receptori
receptors
recognition
recommendations
reconstruction
record
recorded
recording
records
red
reda
reditelj
redovno
redu
reductase
reduction
reduktaza
reed
ref
reference
references
reflections
reform
reforma
reforme
refugio
regan
region
regiona
regional
regionalna
regions
regionu
register
regulation
reich
reid
reka
rekao
reke
rekla
rekli
rekord
related
relation
relations
relationship
relationships
relativno
release
released
releases
religija
religije
religion
religions
religious
rem
remains
remember
remix
ren
renaissance
rene
rep
report
reporter
reports
reprezentacija
reprezentacije
reprezentativac
reprint
reprinted
repubblica
republic
republici
republika
republike
required
res
research
reserve
resistance
resolution
resource
resources
respiratory
response
responses
rest
result
results
resursa
retired
retko
retrieved
return
returns
reuters
rev
revealed
reveals
review
reviews
revised
revision
revisited
revolucije
revolution
revolutionary
revue
rex
rey
reyes
reynolds
rez
rezolucije
rezultat
rezultata
rezultate
rezultati
rf
rfauna
rfc
rg
rgen
rh
rho
ri
ria
riba
ribar
ribe
ribic
ric
rica
rice
rich
richard
richards
richardson
richter
rick
rico
ride
right
rightarrow
rightleftharpoons
rights
riha
rijec
rijeka
rim
rimu
rinco
ring
rio
riporter
ris
rise
rising
risk
rita
ritam
riti
ritus
river
rivers
rizik
rizika
rj
rk
rka
rkp
rl
rm
rn
rna
rnk
ro
road
rob
robe
robert
roberta
roberto
roberts
robertson
robin
robinson
roc
rock
rocket
rod
roda
roditelja
roditelji
rodri
rodriguez
rodz
roewer
roger
rogers
rogoz
rohde
rok
roka
roku
roland
role
roll
rolling
rom
roma
roman
romana
romance
romania
romanian
romanization
romantic
romanu
romatzyh
rome
ron
ronac
ronald
ronaldo
room
root
roots
ros
rosa
rosario
rose
rosen
ross
roth
rothman
rotten
round
routledge
rovi
row
rowman
roy
royal
roz
rođen
rođena
rođenja
rr
rs
rsssf
rt
rtani
rtava
rte
rts
rtv
rtve
ru
ruc
rudolf
rugby
ruiz
ruka
rukama
ruke
rukom
ruku
rule
rules
run
running
rus
rusija
rusije
rusiji
ruske
ruski
russell
russia
russian
ruth
ruz
ry
ryan
s
sa
sabor
sac
sacred
sad
sada
sadas
sadrz
sadu
safe
safety
saga
sage
saglasnost
said
saint
sainte
saints
sajam
sajmu
sajt
sajta
sajtu
sala
sale
sales
salon
salt
salvador
salvia
sam
sama
samardz
same
sami
samim
samo
samog
samom
samostalno
samsung
samuel
san
sand
sanders
sandra
sant
santa
santiago
santo
santos
sanu
sao
saobrac
saops
sapwood
sar
sara
saradnja
saradnje
saradnji
saradnju
sarah
sarajevo
sarajevu
sars
sas
sastanak
sastanka
sastanku
sastav
sastava
sastavu
sastoji
sasvim
sat
sata
satellite
sati
saturday
saudi
saunders
sav
sava
savage
save
savet
saveta
savetu
savez
saveza
savic
savita
savremene
savremenu
savrs
saw
say
says
saz
saznaje
sb
sc
scale
scarecrow
scena
scenario
scene
sceni
schedule
scheller
schltr
schmidt
schneider
scho
scholar
scholars
school
schools
schuster
schwartz
sci
science
sciences
scientific
scientist
scientists
scitanie
sclerosis
scolopacidae
score
scores
scotland
scott
scottish
screen
scribner
scribners
script
scrum
scudder
sd
se
sea
sean
search
season
seattle
sebastian
sebe
sebi
sec
seccio
second
secret
secrets
section
sector
security
sedam
sedis
sedmice
sednica
sednice
sednici
see
seed
seen
segel
segment
seidman
seine
sekretar
sekretara
sektora
sektoru
sekundi
sela
select
selected
selection
selective
selektor
selena
self
selo
selu
selzer
sem
semi
sen
senate
senica
sense
sent
sep
septembar
september
septembra
septembru
sequence
sequences
ser
serbia
serbian
serbs
sergio
serie
series
serija
serijala
serije
seriji
seriju
serotonin
server
service
services
servis
sestra
sestre
set
setovima
sets
seven
seventh
sever
several
severe
severna
severne
severnoj
severu
sex
sexual
sezona
sezone
sezoni
sezonu
sf
sfn
sfr
sfrj
sg
sh
sha
shadow
shakespeare
shall
shape
share
shark
sharks
sharp
sharpe
shaw
she
sheet
shell
shelley
sherlock
shi
ship
sho
shock
shop
short
shot
should
show
showbuzz
showbuzzdaily
shows
shrivastava
shu
shueisha
shuo
si
sic
sici
side
sie
sierra
sight
sigma
sign
signal
signala
signaling
significance
signs
siguran
sigurno
sila
sile
silent
silva
silver
sim
sima
simbad
simbol
simic
similar
simon
simple
simpson
simptoma
simptomi
sin
sina
since
sindikata
sindrom
sing
singapore
singer
singh
singl
single
singles
singular
sino
sinoc
sinological
sintaza
sintetaza
sintetic
sio
sip
sir
siromas
sistem
sistema
sistematskim
sisteme
sistemi
sistemima
sistemu
sister
site
sites
siti
situacija
situacije
situaciji
situaciju
situation
siva
sivi
six
sixian
sixth
size
sj
sjedinjenih
sjedinjenim
sjenica
sk
ska
ske
skean
ski
skin
skladis
skladu
sklopu
skoc
skoro
skrac
sku
skup
skupa
skups
skupu
sky
sl
sla
slab
slabo
slava
slave
slavery
slavi
slavic
slavica
slavnih
slavu
slavuj
sle
sledec
sledi
sledky
sleep
slic
slici
slika
slike
sliku
sloboda
slobodan
slobode
slobodna
slobodno
slobodu
sloga
sloj
slova
slovac
slovak
slovenac
slovenija
slovenije
slovo
slow
sloz
sluc
slus
sluz
sm
small
smanjenja
smanjenje
smanjuje
smart
smatra
smatraju
smatrao
smatrati
sme
smeru
smes
smislu
smit
smith
smithsonian
smo
smrt
smrti
sn
sna
snaga
snage
snagu
snaz
snez
snima
snimanja
snimanje
snimio
snimljen
sno
snow
snp
sns
snyder
so
soba
sobom
soc
soccer
soccerbase
soccerway
social
socialism
socialist
socie
societies
society
socijalistic
socijalne
sociology
sofia
soft
softver
softvera
software
soil
soko
sokol
sol
solar
soldier
soldiers
sole
soledad
soli
solid
solo
solomon
solubility
solution
solutions
som
some
something
son
song
songs
sons
sony
soon
sorta
soul
sound
soundtrack
source
sources
sous
south
southeast
southern
sova
soviet
sovuljaga
sp
spa
space
spada
spadaju
spaeth
spain
spanish
spas
spc
speak
special
species
specific
specificity
specijalne
spectrum
speech
speed
spektar
spencer
spiegel
spin
spirit
spirogyra
spisak
split
spo
spoljas
spoljnih
spomen
spomenik
spomenika
spor
sporazum
sporazuma
sport
sporta
sports
sportske
sportski
sposobnost
sposobnosti
spot
spp
spread
sprec
spregnutih
spreman
spremna
spring
springer
springs
sprovodi
sprovođenje
sps
spus
sputniknews
spy
sq
sqrt
squad
square
sr
srba
srbi
srbija
srbijafudbal
srbijasport
srbije
srbiji
srbijom
srbiju
srbima
src
srca
srce
srcu
srec
sredine
sredini
sredinom
sredis
srednja
srednje
srednjeg
srednjem
srednji
sredstava
sredstva
sredstvo
sredu
sri
srpska
srpske
srpski
srpskih
srpskim
srpsko
srpskog
srpskoj
srpskom
srs
srus
srđan
ss
ssp
st
sta
stability
stabilizaciji
stabilnost
stabilnosti
stabla
stablo
stadion
stadionu
stadium
staff
stage
stalin
stalno
stan
stand
standard
standarda
standards
stane
stanford
stanica
stanice
stanis
stanja
stanje
stanju
stankovic
stanley
stanojevic
stanovnika
stanovnis
star
stara
stare
stari
starih
stariji
starog
starom
starosti
stars
start
stat
state
statement
states
static
station
statistic
statistica
statistical
statistiche
statistics
statistiku
statoids
stats
status
statusa
stav
stava
staviti
stavlja
stay
ste
steady
steam
stec
steel
stefan
stefanovic
stein
steinicke
stekao
stem
step
stepen
stepena
stephen
stern
sterreich
stevan
stevanovic
steve
steven
stevens
stewart
sti
stic
stica
stigao
stih
stil
stila
still
stilu
stiz
sto
stock
stockholm
stoga
stojanovic
stoji
stojkovic
stoljec
stone
stop
stopa
storage
store
storia
stories
storm
story
stotina
str
stra
strah
straight
strana
strane
strange
strani
stranica
stranice
stranih
stranka
stranke
stranu
stras
strasbourg
strategic
strategies
strategija
strategije
strategy
strates
straz
stream
street
stress
strigidae
strike
string
strip
stripa
strnadica
stroke
strong
struc
structural
structure
structures
struggle
struja
struje
struktura
strukturama
strukture
strukturu
stu
stuart
studenata
student
studenti
students
studies
studija
studijama
studije
studijski
studiju
studio
studios
study
stulli
stuttgart
stvar
stvara
stvaraju
stvaralas
stvaranja
stvaranje
stvari
style
stylommatophora
su
sua
sub
subdivisions
subject
subotic
subotica
subotu
subsp
substance
substrate
subunit
success
such
sud
suda
sudan
sudija
sudije
sudom
sudova
sudu
suffix
sugar
suicide
sukob
sukoba
sulfat
sullivan
sum
summary
summer
sumnje
sun
sunc
sunca
sunce
sunday
suny
suo
suoc
sup
super
suppl
supplement
supply
support
supreme
suprotno
supruga
supstance
sur
surface
surg
surgery
surgical
survey
survival
sus
susan
susret
susreta
sustainable
sutra
suvis
suz
suzuki
suđenje
sv
sva
svaka
svakako
svake
svaki
svako
svakog
svakoj
svakom
svaku
sve
svec
svedoc
svega
svemu
sves
sveska
svesti
svet
sveta
sveti
svetlana
svetlost
svetlosti
svetog
svetska
svetske
svetski
svetskih
svetsko
svetskog
svetskoj
svetskom
svetu
svez
svi
svih
svim
svima
svira
svjetlost
svo
svog
svoga
svoj
svoja
svoje
svojih
svojim
svojoj
svojom
svojstva
svoju
svom
svrac
svrhe
svrhu
svu
sw
sweden
swedish
sweet
swift
swiss
switzerland
sword
sydney
syllable
sylvia
symbol
symbols
symposium
symptoms
syndrome
synthase
synthesis
syria
system
systematic
systematics
systems
szerb
szerbia
t
ta
tab
table
tables
tac
tad
tada
tadas
tadic
tag
tage
tai
taipei
taiwan
taj
taja
tajna
tajne
taju
tak
takav
take
takes
taking
takmic
tako
takođe
takva
takve
takvih
takvim
tala
talasa
tale
tales
talk
talks
tamo
tampa
tan
tanchuk
tang
tanja
tanje
tao
tar
tara
taraxacum
target
targets
tas
task
taste
tati
tau
tauris
tava
tavanje
tax
taxonomic
taxonomy
taylor
tb
te
tea
teaching
team
teams
teatar
tebe
tebi
tec
tech
technical
technique
techniques
technologies
technology
ted
teen
tefl
tehnic
tehnika
tehnike
tehnologija
tehnologije
tehnolos
tek
tekst
teksta
tekstu
tekuc
tel
tela
telefona
telegraf
telegraph
telekom
telekoma
telenovela
telescope
television
televizija
televizije
televiziji
tell
telo
telu
tem
tema
teme
temperatura
temperature
template
temple
temu
ten
tena
tene
teni
teniser
teniserka
tenja
tenje
tenju
tennessee
tennis
teno
teorija
teorije
teoriji
teoriju
ter
terapija
terapije
teren
terena
terenu
teresa
teritorije
teritoriji
term
termin
terminal
terms
terra
territories
territory
terror
terry
tes
tesl
tesla
test
testa
testament
testing
teta
tete
tetko
tetr
tetu
tex
texas
text
textbook
texts
tez
th
thames
than
that
the
theater
theatre
their
them
then
theodore
theoi
theology
theoretical
theories
theory
ther
therapeutic
therapeutics
therapy
there
theridion
thesaurus
these
thesis
theta
they
thiessen
thing
things
think
thinking
third
this
thomas
thompson
thomson
those
though
thought
thousand
threat
threatened
three
thriller
thrones
through
thursday
ti
tia
tibetan
tic
tica
tie
tierra
tiger
tih
tila
tili
till
tilo
tim
tima
time
timeline
times
timothy
timu
tina
tine
tinejdz
tini
tinski
tinu
tio
tip
tipa
tipic
tipova
tipsarevic
tis
tiskom
tissue
tita
tite
titi
title
tito
titsingh
titu
titule
titulu
tj
tka
tkiva
tko
tm
tn
tnyelvu
to
toc
today
todd
todor
todorovic
toefl
tog
toga
together
toj
tok
tokom
toksic
toku
tokyo
told
toliko
tom
toma
tomas
tomasevich
tomatoes
tome
tomic
tomislav
tomorrow
ton
tona
tone
tongyong
toni
tonight
tony
too
took
tool
tools
toone
tooze
top
topic
topics
tops
tor
torino
toro
toronto
torres
tos
total
touch
tour
tourism
tournament
tovanje
toward
towards
tower
town
towns
tr
tra
track
trade
tradicija
tradicionalno
trading
tradition
traditional
traditions
trag
tragedy
tragic
trailer
train
training
trajanja
trajati
traje
trans
transactions
transcription
transfer
transferaza
transfermarkt
transformation
transition
translated
translation
translations
transmission
transport
trauma
travel
traz
trc
tre
treatment
treaty
treba
trebalo
trec
tree
trees
trel
trend
trends
trener
trenera
trenutku
trenutno
trepteljka
tres
tretman
trgovac
trgovine
trgovini
tri
trial
trials
tribunal
tribunala
tribunalom
tribune
tribute
tringa
trinidad
trip
triton
trke
trnk
tro
troicki
tropical
tros
trouble
tru
trudnoc
true
trump
trust
truth
try
trz
ts
tt
tu
tube
tuc
tuesday
tumac
tumor
tumora
tunica
tupolev
turdidae
turdus
turistic
turkey
turkish
turn
turneje
turneju
turner
turnir
turnira
turniru
turska
turske
tuz
tv
tva
tvene
tveni
tvenih
tveno
tvo
tvoj
tvom
tvrde
tvrdi
tvu
twelfth
twentieth
twenty
twitter
two
tyler
type
types
tzur
tzv
u
ua
ubio
ubistva
ubistvo
ublaz
ubrzo
uc
uci
uda
udara
udo
udp
udruz
udz
uefa
ugc
uglavnom
ugljen
ugljenika
ugovor
ugovora
ugroz
uh
uhaps
uhmann
uje
ujedinjenih
ujedno
ujem
uju
ujuc
uk
ukazao
ukazuje
ukazuju
ukidanje
uklanjanje
ukljuc
ukoliko
ukraine
ukrainian
ukras
ukupna
ukupno
ukus
ul
ula
ulaganja
ulaz
ulazak
ulazi
ulic
ulica
ulice
ulici
ulja
ulje
uloga
uloge
ulogu
uloz
ulozi
ulrich
ultimate
ultra
um
uma
ume
umes
umesto
umetnic
umetnik
umetnika
umetnost
umetnosti
umjetnost
umjetnosti
umrla
umro
umska
un
una
unapred
unara
und
under
underground
understanding
une
unesco
uni
unija
unije
uniji
unio
union
unique
unis
unit
united
units
unity
univ
universal
universe
universita
universities
university
univerzitet
univerziteta
univerzitetu
univisio
unknown
unmik
uno
until
unutar
unutras
uo
uobic
uoc
uops
up
update
updated
upon
upotreba
upotrebe
upotrebi
upotrebljava
upotrebu
upper
uprava
uprave
upravljanje
upravo
uprkos
upuc
ur
ura
urban
uredio
urednik
uređaj
uređaja
url
urlin
uros
uruc
uruguay
us
usa
usage
usavrs
use
used
user
uses
usher
using
uskoro
usled
uslov
uslova
uslove
uslovi
uslovima
usluga
usluge
usmena
uspeh
uspeha
uspela
uspeli
uspeo
uspes
usta
ustanova
ustas
usvojila
ut
uta
utah
utakmica
utakmice
utakmici
utakmicu
utanovac
utc
uti
utic
uticaj
uticaja
uticajem
utorak
utvrđeno
uva
uvanje
uvaz
uvec
uvek
uveo
uverenje
uvod
uvrs
uz
uzdrz
uzeti
uzima
uzrok
uzrokuje
v
va
vaccine
val
vale
valenciennes
valle
valley
value
values
vam
van
var
varajeti
variable
variant
variation
variety
varijante
various
varos
varphi
vas
vascular
vati
vaz
vazduh
vazduha
vazdus
vcc
vch
ve
veb
vec
vega
vegas
vek
veka
veku
velic
velik
velika
velike
veliki
velikih
velikim
veliko
velikog
velikoj
velikom
veliku
venc
venezuela
venus
veoma
vera
verb
verde
vereins
verhoeff
verlag
verona
verovatno
verovatnoc
version
versus
vertebrate
veruje
verujem
very
verzija
verzije
verziji
verziju
ves
vesna
vest
vesti
vetrus
vez
veza
vezan
vezana
vezane
vezani
veze
vezi
vezivanja
vezivanje
vezu
vezuje
vfolyam
vi
via
vic
vice
vicente
victor
victoria
victory
vid
vida
vide
video
videos
videti
vidi
vidim
vidu
vie
vieillot
viejo
vienna
vietnam
view
views
vii
viii
vijeka
vijesti
vikenda
vikimedijinoj
viking
viktor
vila
vile
vilijam
vilijams
villa
village
ville
vina
vincent
vino
vintage
violence
virgin
virginia
virtual
virus
virusa
vis
visa
visina
visine
vision
visit
visok
visoka
visoke
visoki
visokim
visoko
visokog
visokom
vista
visual
viswanadhan
vita
vitamin
vitro
vivak
vivo
viz
vjegyze
vjerski
vjetrus
vla
vlada
vladajuc
vladavine
vlade
vladi
vladimir
vladu
vlas
vlasnik
vlasnika
vlasnis
vlast
vlasti
vlaz
vo
voc
vocabulary
voda
vode
vodec
vodena
vodeni
vodi
vodic
vodio
voditi
vodom
vodu
voet
vogue
voice
voices
vojislav
vojna
vojne
vojni
vojnika
vojska
vojske
vojvodina
vojvodine
vojvodini
vokal
vol
voli
volim
volja
volje
vols
volume
volumes
vom
von
vor
vora
vorova
vos
vote
vowel
voyage
voz
vozac
vozila
vođa
vr
vra
vrabac
vrac
vrana
vranac
vrata
vrati
vratila
vratio
vratiti
vre
vrednost
vrednosti
vreme
vremena
vremenom
vremenu
vrh
vrhu
vrijeme
vrlo
vrs
vrsta
vrste
vrsti
vrstu
vruc
vs
vu
vuc
vuelta
vuk
vulgaris
vv
vy
w
wa
wade
wagner
wait
wake
wales
walk
walker
walkover
wall
wallace
walsh
walt
walter
wang
want
wanted
wants
war
ward
warfare
warner
warren
wars
warsaw
was
washington
watch
water
watson
wave
way
wayback
wayne
ways
wc
we
weapons
weather
web
webb
weber
webrzs
website
webster
wednesday
week
weekend
weekly
weight
weise
weiss
welch
welcome
well
wells
welt
wendoloski
went
were
werner
wesley
west
western
westport
what
wheel
wheeler
when
where
which
while
white
whitney
who
whole
whose
why
wiberg
wide
wien
wiener
wife
wiki
wikimapia
wikipedia
wiktionary
wild
wildlife
wiley
wilhelm
wilkins
wilkinson
will
willams
william
williams
williamson
wilson
win
wind
window
windows
wine
wing
winkler
winner
winners
winning
wins
winter
wire
wired
wisconsin
wish
wishart
with
within
without
wixon
wm
wo
wolf
wolfgang
wolfram
woman
women
won
wonder
wong
wood
woods
word
wordpress
words
work
workers
working
works
workshop
world
worldfootball
worlds
worldwide
worth
wothers
would
wright
write
writer
writers
writing
writings
written
wrong
wta
wu
ww
www
wyoming
x
xbox
xcvii
xe
xi
xia
xiamen
xico
xii
xiii
xiv
xix
xl
xlix
xml
xu
xv
xvi
xvii
xviii
xx
xxi
xxii
xxiii
xxiv
xxvi
xxx
xxxii
y
ya
yahoo
yale
yang
yanli
ye
yea
year
yearbook
years
yeast
yellow
yes
yet
yi
yo
york
yorker
you
young
your
youth
youtube
yu
yue
yugoslav
yugoslavia
z
za
zabelez
zac
zadatak
zadovoljan
zadruga
zadrz
zaduz
zagor
zagreb
zagrebac
zagrebu
zahtev
zahteva
zahtevaju
zahvaljujuc
zaista
zajec
zajednic
zajednica
zajednice
zajednici
zajedno
zakljuc
zakon
zakona
zakonom
zakonu
zamenik
zapadne
zapadnog
zapata
zapaz
zapoc
zapos
zaposleni
zaposlenih
zapote
zapravo
zar
zarada
zas
zasluz
zasniva
zasnovan
zastava
zatim
zato
zatraz
zatvora
zauzima
zavisi
zavisno
zavisnosti
zavod
zavoda
zavrs
zbirka
zbirke
zbog
zbornik
zdra
zdravlja
zdravlje
zdravstvene
ze
zealand
zeba
zec
zeit
zeitschrift
zelena
zeleni
zemalja
zemlja
zemljama
zemlje
zemlji
zemljis
zemlju
zemun
zero
zerozero
zet
zeta
zgrada
zgrade
zgradi
zh
zha
zhang
zhangzhou
zhe
zhi
zho
zhou
zhu
zhuyin
zi
zid
zida
zimonjic
zla
zlata
zlatna
zlatne
zlatni
zlato
zlo
zloc
zna
znac
znaci
znaju
znak
znam
znanja
znanje
znanosti
znao
znas
znate
znatno
zo
zona
zone
zoo
zoology
zora
zoran
zorana
zove
zovu
zpont
zrac
zu
zum
zur
zva
zvanic
zvezda
zvezde
zvezdu
zviz
zvuc
zvuk
zvuka
{
|
}
~
¡
£
§
¨
©
ª
«
¬
­
®
¯
°
±
²
²²
²¹
²⁴
³
³³
´
µ
¶
·
¹
º
»
½
¾
¿
×
ß
æ
ð
÷
ø
đ
đa
đe
đelic
đokovic
đorđe
đorđevic
đu
đukic
đuric
ı
ł
ŋ
ƒ
ȣ
ɑ
ɔ
ɕ
ə
ɛ
ɪ
ɹ
ʔ
ʰ
ʲ
ʷ
ʹ
ʻ
ʼ
ʾ
ʿ
ˇ
ˈ
ˊ
ˋ
ˌ
ː
˙
˚
˜
˝
˥
˧
˩
ˮ
̀
́
̂
̃
̄
̆
̇
̈
̉
̊
̋
̌
̍
̏
̑
̓
̔
̚
̛
̞
̟
̠
̣
̤
̥
̦
̧
̨
̩
̪
̮
̯
̱
̲
̸
͂
ͅ
͘
͡
΄
α
β
γ
δ
ε
ζ
η
θ
ι
κ
και
λ
μ
ν
ξ
ο
π
ρ
ς
σ
τ
της
του
υ
φ
χ
ψ
ω
ϕ
ϵ
а
аба
абасоло
абахо
абдул
абдулах
абедам
аберација
аберације
абруцо
абу
авала
авантура
авантуре
авганистан
авганистана
авганистану
август
августа
августу
авелино
авио
авион
авиона
авионе
авиони
авионима
авионом
авиону
авијација
авијације
авној
аврам
аврамовић
автономных
ага
агва
агвакате
агваскалијентес
агвахе
аге
агената
агент
агента
агенти
агенција
агенције
агенцији
агенцију
агила
агресије
агустин
ад
ада
адам
адама
адамс
адаптација
адаптације
адаптацији
адаптацију
адаптирана
адвокат
адвоката
аде
адекватно
ади
административна
административне
административни
административним
административних
административно
административног
административном
администратор
администрација
администрације
администрацији
администрацију
адмирал
адмирала
адолф
адолфа
адолфо
адреса
адресе
адреси
адресу
адријан
аеро
аеродром
аеродрома
аеродроми
аеродрому
ажурирано
аз
азербејџан
азербејџана
азербејџану
азил
азија
азије
азији
азијски
азију
азот
азота
азуета
азул
аирес
ак
академик
академика
академија
академије
академији
академију
академске
академски
академских
академског
акапулко
аката
акатлан
акајукан
аквила
аквитанија
акила
ако
акт
акта
акте
акти
активан
активира
активиста
активисти
активна
активне
активни
активним
активних
активно
активног
активност
активности
активностима
активну
актима
актом
актуелни
акутни
акценат
акционара
акционарског
акциони
акција
акцијама
акције
акцији
акцијом
акцију
ал
ала
алабама
аламо
аламос
алан
алана
алат
алата
алати
алб
алба
албанаца
албанија
албаније
албанији
албанију
албанска
албанске
албански
албанских
албанског
албанском
албанци
албанцима
албедо
алберт
алберта
алберто
албум
албума
албуми
албумом
албуму
алварадо
алварез
алваро
алге
алги
алгоритам
алгоритама
алгоритма
алгоритми
алдама
алегре
алекс
алекса
александар
александер
александр
александра
александрији
александријски
александров
александрович
александром
александру
алексе
алексеј
алексинац
алексис
алексија
алексије
алексић
алеман
ален
алесандрија
алехандро
алеји
алжир
алжира
алжиру
али
алибунар
алис
алиса
алија
алијансе
алије
алкохол
алкохола
алма
алманах
алонсо
алпа
алпи
алпском
алта
алтамира
алтамирано
алтернатива
алтернативне
алтернативни
алтернативно
алто
алуминијум
алуминијума
алфа
алфабета
алфонсо
алфред
алфреда
алфредо
ам
ама
аман
амандмана
аматерски
амбасада
амбасаде
амбасадор
амбасадора
амбиције
амблем
америка
американац
американаца
американци
америке
америку
америци
америчка
америчке
амерички
америчким
америчких
америчко
америчког
америчком
америчкој
америчку
амин
амо
амплијасион
амстердам
амстердаму
ан
ана
анавак
анали
анализа
анализе
анализи
анализира
анализом
анализу
аналитички
анастасија
анатомија
ангажман
ангажован
ангажована
ангажовани
ангажовао
ангажовање
ангажује
англо
ангостура
андерсон
андора
андра
андре
андреа
андреас
андреи
андрес
андреј
андреја
андрејевић
андрија
андрије
андрић
андрића
андроид
андроник
андроника
ане
ани
аниме
анимирана
анимирани
анита
анка
анкона
аном
анри
ансамбл
ансамбла
ант
антанте
анте
антена
антене
анти
антигва
антике
антиохије
антитела
антифашистичког
античка
античке
антички
античких
античко
античког
античком
античкој
антић
антологија
антон
антона
антонио
антонија
антоније
антонијевић
антун
ану
анхалт
анхел
анхелес
анђа
анђела
анђелес
анђелеса
анђелесу
анђели
анђелија
анђелка
анђелковић
анђео
ао
аоме
аосте
ап
апарат
апарата
апасео
апатин
апатина
апел
апликација
апликације
аполо
аполон
апостол
апостола
април
априла
априлског
априлу
апсидом
апсолутна
апсолутне
апсолутни
апсолутно
апсолутну
апулија
ар
арабија
арабије
арабији
арагона
арад
арадац
арандас
аранжман
аранитовић
аранђелово
арап
арапа
арапи
арапска
арапске
арапски
арапским
арапских
арапско
арапског
арапском
аргентина
аргентине
аргентини
аргентински
аргентину
аргумент
арден
ардени
ареал
арена
аренал
арене
арени
арецо
ариба
аризона
ариспе
аристократије
аристотел
аријага
арканзас
армија
армије
армији
армијом
армијске
армијски
армију
армстронг
арнолд
арон
аројо
арса
арсен
арсенал
арсенала
арсенија
арсеније
арсенијевић
арсић
арт
артеага
артерија
артерије
артиљерија
артиљерије
артиљеријске
артиљеријски
артиљеријског
артур
артура
арх
архангела
арханђела
археолог
археологија
археологије
археолози
археолошка
археолошки
археолошким
археолошких
археолошко
археолошког
архив
архива
архиве
архиви
архивирана
архивирано
архиву
архиепископ
архиепископа
архиепископија
архиепископије
архимандрит
архимандрита
архипелаг
архипелага
архипелагу
архитеката
архитекта
архитекте
архитекти
архитектонске
архитектонски
архитектонских
архитектонском
архитектура
архитектуре
архитектури
архитектуру
архијереј
архијереја
архијерејски
архијерејско
архијерејског
арђеш
ас
асистент
асистента
асистенција
асистенције
асијенда
асоцијација
асоцијације
аспеката
аспект
аспекта
аспекте
аспекти
аспектима
астероид
астероида
астероиди
астероидни
астероидног
астероиду
асти
астон
астронаута
астроном
астрономија
астрономије
астрономски
астрономских
асунсион
ат
атанасије
атар
атара
атару
атентат
атентата
атеље
атина
атине
атини
атински
атину
атињани
атланти
атлантик
атлантика
атлантски
атлантског
атлас
атлетика
атлетико
атлетици
атлетичар
атлетичара
атлетичарка
атлетичарки
атлетска
атлетски
атлетских
атмосфера
атмосфере
атмосфери
атмосферу
атом
атома
атоми
атомске
атотонилко
атојак
атп
атракција
ауг
аугуст
ауди
аудио
аурора
аустралија
аустралијан
аустралије
аустралији
аустралијска
аустралијски
аустралију
аустрија
аустријанци
аустрије
аустрији
аустријом
аустријска
аустријске
аустријски
аустријским
аустријских
аустријско
аустријског
аустријском
аустријској
аустрију
аустро
аустроугарска
аустроугарске
аустроугарски
аустроугарској
ауто
аутобиографија
аутобус
аутобуса
аутобуси
аутоматски
аутомобил
аутомобила
аутомобиле
аутомобили
аутономија
аутономије
аутономију
аутономна
аутономне
аутономних
аутономној
аутопут
аутопута
аутор
аутора
аутори
ауторима
ауторитет
ауторитета
ауторка
ауторских
ауторско
ауторског
афел
афера
африка
африке
африку
африци
афричка
афричке
афрички
афричких
афричког
ах
ахмед
аца
ај
аја
ајала
ајдахо
ајде
ајкула
ајкуле
ајнштајн
ајова
ајрес
аљаска
аљенде
аћим
б
ба
баба
бабе
бабић
бабо
бабушница
баваниште
баварска
баварске
баве
бави
бавила
бавили
бавио
бавити
бављење
бад
баден
бадирагвато
база
базе
базен
базена
базенима
базену
бази
базилика
базиликата
базилике
базира
базиран
базирана
базу
баиа
бака
бакар
бакау
бакић
бакра
бактерија
бактерије
баку
бакуу
бал
балада
баладе
баланкан
балдуин
балет
балета
балкан
балкана
балканолошки
балканска
балканске
балкански
балканским
балканских
балканско
балканског
балканском
балкану
балон
балтичког
бан
бана
банака
банат
баната
банатска
банатске
банатски
банатско
банату
банда
банде
бандерас
банди
бане
баније
банка
банке
банку
бановина
бановине
бановић
бановци
банскобистричком
бану
банци
бар
бара
бараж
баранка
барање
барбара
барбароса
бардаче
баре
барем
бари
барио
баришић
барка
барока
барон
барона
барселона
барселоне
барселони
барселону
барска
барски
бартоло
бару
барјак
бас
басен
басена
басену
басиста
басме
бат
бата
батајница
батаљон
батаљона
батаљоном
батаљону
батања
батање
батерија
батерије
батлер
батопилас
баточина
баутиста
бафта
бахио
баца
бацача
бацају
бацања
бацање
бацању
баци
бацила
бацили
бацио
бацити
бач
бачинци
бачка
бачке
бачки
бачких
бачко
бачком
бачкој
баш
башаид
башта
баште
башти
баштина
баштине
баштину
башту
бај
баја
бајазит
бајалица
бајалице
бајања
баје
бајерн
бајина
бајић
бајка
бајке
бајконур
бајша
баљеза
бања
бањалука
бањалуке
бањалуци
бање
бањи
бањица
бањој
бању
бб
ббц
бдп
бе
беба
бебе
бег
бега
бегеч
беговић
бегу
бедем
бедема
беже
бежи
без
безбедно
безбедносне
безбедносних
безбедност
безбедности
безброј
безбједности
бездан
безуспешно
бек
бека
бекства
бекство
бел
бела
белгија
белгије
белгији
белгијски
беле
белегиш
бележи
бележио
белешке
бели
белим
белих
белић
бело
белог
белоглави
белом
белорусија
белорусије
белорусији
белоруски
белој
белу
белуно
бен
бена
бенд
бенда
бендова
бендом
бенду
беневенто
бенедикт
бенито
бенић
бенџамин
бео
београд
београда
београдом
београдска
београдске
београдски
београдским
београдских
београдско
београдског
београдском
београдској
београдску
београду
бер
беране
бергамо
береникина
бери
бериозабал
берислав
беркасово
берлин
берлина
берлинског
берлинском
берлину
бернард
бернардо
бес
беса
бесан
беседа
беседи
бесконачно
бескрајно
бесплатан
бесплатне
бесплатно
бет
бета
бети
бетона
беху
беч
беча
бечеј
бечке
бечки
бечког
бечком
бечмен
бечу
беше
бешка
беј
бејаху
бејаш
бејаше
бејзбол
бејкер
беља
би
бибер
библиографија
библиотека
библиотекама
библиотекар
библиотеке
библиотеку
библиотеци
библија
библије
библији
библијске
бива
бивају
бивша
бивше
бившег
бившем
бивши
бившим
бивших
бившој
бившу
биг
бигз
бизнис
бизнисмен
бик
бика
бил
била
биланс
билборд
биле
билећа
били
било
билошких
билтен
бин
био
биог
биоград
биографија
биографије
биографију
биографски
биологија
биологије
биолошка
биолошке
биолошки
биолошких
биоскоп
биоскопа
биоскопима
бира
биран
бирани
бирача
бирају
бирмингем
бирмингему
биро
бироа
бисер
бисери
бискуп
бискупа
бискупија
бисмо
биста
бисте
бистрица
бит
бита
битака
битан
битбург
бити
битка
биткама
битке
битку
битна
битне
битни
битних
битно
битова
битољ
битоља
битољу
бих
бихаћ
бихор
бици
бицикл
бициклизам
бициклиста
бич
бише
бијаху
бијаше
бије
бијела
бијеле
бијели
бијело
бијелог
бијелу
бијељина
бијељине
бијељини
биља
биљака
биљана
биље
биљешке
биљка
биљкама
биљке
биљне
биљни
биљних
биљног
бић
бића
биће
бићу
бк
бл
бла
благ
блага
благе
благи
благим
благо
благом
благослов
благослови
благостање
благоје
благојевић
бланка
бланкас
бланко
блата
блато
блек
блејк
ближе
ближи
близак
близанци
близине
близини
близу
блиска
блиске
блиски
блиско
блиског
блиском
блиц
блог
блок
блока
блокада
блокаде
блокаду
блокова
блокови
блоку
блр
блу
блуз
бо
боб
боба
бобан
боби
бован
бог
бога
богат
богата
богате
богати
богатим
богатих
богато
богатог
богатом
богатој
богатства
богатство
богатству
богату
богдан
богдана
богдановић
богиња
богиње
богме
богова
богове
богови
боговима
богом
богородица
богородице
богословије
богословију
богословски
богословског
богословље
богослужења
богољуб
богу
бод
бода
бодин
бодова
бодови
бож
божанске
божански
божанства
божанство
боже
божидар
божидара
божина
божија
божије
божији
божић
божића
божо
божовић
божја
божје
божји
божју
боинг
бок
бока
боке
боки
бокојна
бокс
боксер
боку
бол
бола
болан
более
болеслав
болесник
болесника
болесници
болест
болестан
болести
болестима
болешћу
боли
боливија
болница
болницама
болнице
болници
болницу
болова
болом
болоња
болцано
бомба
бомбама
бомбардер
бомбардера
бомбардовања
бомбардовање
бомбардовању
бомбе
бомби
бомбу
бон
бонапарта
бонд
бонита
бонус
бор
бора
боравак
бораве
борави
боравила
боравили
боравио
боравка
борац
бораца
борба
борбама
борбе
борбена
борбене
борбени
борбеним
борбених
борби
борбом
борбу
борго
бордо
боре
борећи
бори
боривоје
борила
бориле
борили
борио
борис
бориса
борисав
борислав
борити
бору
борца
борце
борци
борцима
борча
босанска
босанске
босански
босанских
босанско
босанског
босанском
босанскохерцеговачки
босанској
босанску
босић
босна
босне
босни
босну
бостон
бостону
босут
бот
ботовски
ботош
ботошани
бочне
бочни
бочним
бочних
бошко
бошковић
бошњак
бошњака
бошњаковић
бошњаци
бошњачки
бођани
бој
боја
бојама
бојан
бојана
бојанић
боје
бојећи
боји
бојим
бојишту
бојић
бојна
бојни
бојних
бојног
бојном
бојо
бојовић
бојом
боју
боља
боље
бољевци
бољег
бољи
бољим
бољу
бољшевика
бољшевици
бр
бра
браво
браду
бразил
бразила
бразилски
бразилу
брак
брака
браку
брана
бранденбург
бране
брани
бранила
бранилац
бранили
бранимир
бранио
браниоца
бранислав
бранислава
бранити
бранка
бранко
бранковић
бранковића
браон
брат
брата
брате
братислав
братислава
братислави
братом
братства
братство
брату
браун
брачни
брачном
брашна
брашно
брај
брајан
браћа
браће
браћи
браћо
браћом
браћу
брвнара
брда
брдима
брдо
брду
бре
брег
бреза
брем
бренд
бренда
брест
брестовац
бреча
бреша
брејк
брже
бржи
брз
брза
брзе
брзи
брзим
брзина
брзинама
брзине
брзини
брзином
брзину
брзо
брзог
брзом
брзу
бри
брига
бригада
бригаде
бригади
бригадни
бригадом
бригаду
бриге
бригу
брине
брину
брисање
брисел
бриселу
бристол
британаца
британика
британија
британије
британији
британију
британска
британске
британски
британским
британских
британско
британског
британском
британској
британску
британци
брише
бркић
бро
брод
брода
бродова
бродове
бродови
бродовима
бродом
броду
броз
броза
бронза
бронзана
бронзане
бронзаног
бронзану
бронзе
бронзу
број
броја
бројала
бројева
бројеве
бројеви
бројевима
бројем
броји
бројна
бројне
бројни
бројним
бројних
бројно
бројности
броју
брук
бруно
брус
брусина
бруто
брчко
бск
бу
буба
бубањ
бубе
бубрега
бубњар
бубњеви
буг
бугара
бугари
бугарима
бугарска
бугарске
бугарски
бугарским
бугарских
бугарско
бугарског
бугарском
бугарској
бугарску
буд
буда
будала
будва
буде
будем
будемо
будете
будеш
буди
будизам
будизма
будим
будимпешта
будимпеште
будимпешти
будиму
будите
буду
будуће
будућег
будући
будућим
будућих
будућност
будућности
будућу
буена
буенависта
буенос
бузау
бука
буквално
буке
буковац
буковица
буковца
букурешт
букурешту
бул
була
булатовић
булевар
булевара
булевару
буна
бунар
бунара
буне
буни
буну
бура
бургоња
буре
буха
буш
буђановци
буђење
буљина
буџет
буџета
български
бјелоглави
бјеху
бјеше
в
ва
вавилон
вагнер
вагона
вади
важан
важе
важи
важио
важна
важне
важни
важним
важних
важније
важнији
важнијих
важно
важност
важности
важну
вазал
вазда
ваздух
ваздуха
ваздухом
ваздухоплова
ваздухопловна
ваздухопловне
ваздухопловни
ваздухопловства
ваздухопловство
ваздухопловству
ваздуху
ваздушна
ваздушне
ваздушни
ваздушним
ваздушних
ваздушног
ваздушном
вазнесења
вакуф
вакцина
вакцине
вал
вала
валдхер
вале
валенсија
валентин
валентина
вали
валпараисо
валтазар
валтер
валута
валуте
валча
вам
вама
ван
вангалактичка
ванкувер
ванкуверу
ванредне
ванредни
ванредним
ванредно
ванредног
вар
вара
варвара
вардар
вардара
варезе
варење
варира
варирају
варијабле
варијанта
варијанте
варијанти
варијанту
варијација
варијације
варош
вароши
варошица
варошице
варшава
варшави
вас
васа
васе
васељенски
василиј
василија
василије
васиљевић
васић
васкез
васлуј
васо
васпитања
васпитање
васпитању
ватерполиста
ватерполисти
ватерполо
ватерполу
вати
ватикан
ватра
ватре
ватрени
ватрено
ватреног
ватри
ватром
ватру
ваш
ваша
ваше
вашег
вашем
ваши
вашим
вашингтон
вашингтона
вашингтону
ваших
вашица
вашој
вашу
вађење
вај
вајар
вајара
вајлд
вајоминг
вајска
вајт
ваља
ваљано
ваљда
ваље
ваљева
ваљево
ваљеву
ваљес
вања
ве
веб
вебер
вебсајт
веверица
вега
вегас
вегетација
вегетације
ведро
вежбе
вежби
веже
вез
веза
везама
везан
везана
везане
везани
везаним
везаних
везано
везе
вези
везивања
везивање
везир
везира
везног
везом
везу
везује
везују
век
века
векова
векове
вековима
вектор
вектора
веку
вел
вела
веле
вели
велибор
велик
велика
великана
великаша
великаши
велике
велики
великим
великих
велико
великог
великога
великом
великомученика
великој
велику
велим
велимир
велимировић
велимировића
величина
величине
величини
величином
величину
велиш
велс
велса
велсу
вена
венадо
венац
вене
венера
венере
венето
венеција
венеције
венецији
венецуела
венецуеле
венецуели
венустијано
венца
венцем
венцу
венчали
венчања
венчање
веома
вера
веракруз
веран
верде
вере
верзија
верзијама
верзије
верзији
верзију
вери
вермахта
верна
верни
верника
верници
верно
верност
веровали
веровало
веровао
веровати
вероватно
вероватноћа
вероватноће
веровања
веровање
веровању
вероисповест
вероисповести
вером
верона
верска
верске
верски
верским
верских
верског
верску
вертикални
вертикално
веру
верује
верујем
верују
верујући
верхел
вес
весела
веселе
весели
веселин
веселиновић
весело
весео
весеље
весна
весник
вест
вестервалд
вести
вестима
вестфалија
вет
ветар
ветерана
ветра
ветрова
ветрови
ветруша
вече
вечера
вечерас
вечере
вечери
вечеру
вечерње
вечити
вечна
вечни
вечно
вечност
вешт
вештачка
вештачке
вештачки
вештачких
вештачко
вештина
вештинама
вештине
вештину
вештица
вештице
вешто
вејн
вељка
вељко
вељковић
већ
већа
веће
већег
већем
већи
већим
већина
већине
већини
већином
већинска
већински
већинско
већину
већих
већма
већом
већој
већу
ви
вивак
вид
вида
видановића
виде
видевши
видела
видели
видело
видео
видети
видех
видећи
види
видим
видимо
видио
видите
видиш
видић
видно
видовдан
видосава
виду
видјети
видљив
видљива
видљиве
видљиви
видљиво
византинци
византија
византије
византији
византијом
византијска
византијске
византијски
византијским
византијских
византијско
византијског
византијском
византијску
византију
византолошког
визи
визија
визије
визију
визић
визуелне
визуелни
визуелно
вика
викачице
викенд
викенда
вики
викивеза
викиврсте
викизворник
викизвронику
викикњигама
викимедија
викимедијиној
викиновостима
википедија
википедије
википедији
викиречнику
викирјечнику
викицитат
викицитатима
викну
виктор
виктора
викторија
викторије
вил
вила
вилајет
вилајета
вилајету
виле
вилер
вили
вилице
вилијам
вилијама
вилијамс
вилово
вилсон
вилу
вилхелм
вилхелма
вим
вимблдон
вимблдону
вин
вина
вино
винове
виноград
винограда
виногради
вином
винсент
вину
винчи
вио
виолину
вир
виртемберг
вирус
вируса
вирусом
вирхен
вирџинија
вис
висенте
виси
висина
висинама
висине
висини
висином
висину
висконсин
висок
висока
високе
високи
високим
високих
високо
високог
високом
високој
високу
висораван
висоравни
височина
виста
вит
витамина
витез
витеза
витезова
витезови
витешке
витешки
вити
вих
виче
виченца
виш
виша
вишак
више
вишег
вишеград
вишезначна
вишем
вишенаменски
вишеструка
вишеструки
вишеструко
виши
вишим
виших
вишка
вишој
вишу
вишњић
вишњићево
виђе
виђен
виђења
виђење
вија
вије
вијек
вијека
вијеку
вијена
вијенац
вијести
вијетнам
вијетнама
вијетнаму
вијеха
вијехо
вијећа
вијеће
виља
виљагран
виљафлорес
вк
вл
вла
влаге
влада
владавина
владавине
владавином
владавину
владала
владали
владан
владао
владар
владара
владари
владарима
владару
владати
владају
владајућа
владајуће
владајући
владе
влади
владика
владике
владимир
владимира
владимиру
владине
владиних
владислав
владислава
владо
владом
владу
влажна
влажне
влажним
влажност
влакана
влакна
власи
власник
власника
власници
власништва
власништво
власништву
власотинце
власт
властела
властеле
властелин
власти
властима
властимир
властите
властити
властиту
влатко
влаха
влаховић
влашка
влашке
влашко
влашћу
вмро
вн
вно
во
вог
вогањ
вод
вода
водама
воде
водена
водене
водени
воденим
водених
воденица
водећа
водеће
водећи
водећих
води
водила
водиле
водили
водило
водио
водитељ
водитељка
водити
водич
водник
водныи
водовод
водом
водоник
водоника
водопад
водопада
водопић
водоток
водотока
воду
вождовац
вожња
вожње
вожњи
вожњу
воз
воза
возач
возача
возачи
возе
вози
возила
возилима
возило
возио
возова
возови
возом
вои
вокал
вокали
вокер
вол
волар
волге
воле
волела
волели
волео
волети
воли
волим
волиш
волт
волтер
волфганг
вом
вон
ворен
вотсон
вођ
вођа
вође
вођен
вођена
вођене
вођени
вођења
вођење
вођи
вођом
вођство
вођством
вођу
вој
војвода
војводе
војводи
војводина
војводине
војводини
војводину
војводом
војводства
војводство
војводству
војводу
војвођанска
војвођанске
војвођански
војвођанских
војвођанског
воје
војег
војин
војиновић
војислав
војислава
војка
војна
војне
војни
војник
војника
војнике
војним
војних
војници
војницима
војничке
војнички
војно
војног
војноиздавачки
војном
војној
војну
војска
војскама
војске
војсковођа
војсковође
војском
војску
војсци
воља
воље
вољи
вољом
вољу
воћа
воће
вр
вра
врабац
вран
врана
вранац
врани
вранча
врат
врата
врате
врати
вративши
вратила
вратили
вратило
вратима
вратио
вратити
врату
врачар
врачару
врачев
врања
врање
врањске
врањском
врању
враћа
враћао
враћају
враћајући
враћање
враћен
враћена
врба
врбас
врбаса
врбасу
врдник
вре
вредан
вреди
вредна
вредне
вредно
вредност
вредности
вредностима
вредношћу
врела
врело
врем
време
времена
временима
временом
временска
временске
временски
временским
временских
временског
временском
времену
вриједност
вриједности
вријеме
врлина
врлине
врло
врс
врста
врстама
врсте
врсти
врстом
врсту
врт
врта
врти
вртић
вртића
врту
вруће
врх
врха
врхова
врхови
врховима
врховна
врховне
врховни
врховног
врховном
врховну
врхом
врху
врхунац
врхунски
врхунцу
вршац
вршачких
врше
вршена
вршења
вршење
вршењу
врши
вршила
вршилац
вршили
вршио
вршити
вршца
вршцу
врњачка
всероссии
всесоюзная
вта
ву
вуд
вуелта
вук
вука
вукан
вукановић
вукасовић
вукашин
вукашина
вукићевић
вуков
вукова
вуковар
вуковару
вукове
вукови
вуковић
вукову
вукотић
вуку
вулкан
вулкана
вуне
вуче
вучић
вучића
вучковић
вујић
вујовић
вј
вја
вјекослав
вјера
вјере
вјероватно
вјеру
вјерује
вјесник
вјетар
вјештачких
вљ
г
га
габријел
габријела
гавран
гаврила
гаврило
гавриловић
гажевић
газда
газе
газела
гази
гак
гал
гала
галаксија
галаксије
галац
галеана
галеб
галерија
галерије
галерији
галерију
галетин
галија
галије
гама
гане
гарантује
гарашанин
гарда
гарде
гардиновци
гарза
гари
гарнизон
гарнизона
гаровников
гарона
гарсија
гас
гаса
гасова
гасови
гацко
гашин
гашиног
гашић
гашића
гај
гаја
гаје
гаји
гајић
гаљо
гвадалупе
гвазапарес
гванахуато
гвасаве
гватемала
гвачочи
гвајабо
гвајмас
гвинеја
гвинеје
гвинеји
гвожђа
гвожђе
гвоздена
гвоздене
гвоздени
гвозденог
гг
гд
где
гди
гдје
ге
геземан
ген
гена
генерал
генерала
генерали
генерална
генералне
генерални
генерално
генералног
генералном
генералом
генералу
генералштаба
генератор
генератора
генерација
генерације
генерацији
генерацију
генерише
генетички
генетски
геноцид
геноцида
географ
географија
географије
географију
географска
географске
географски
географским
географских
географско
географског
географском
геолошке
геолошки
геометрија
геометрије
геометријски
георг
георгија
георгије
гереро
герман
германа
гетеборгу
геј
ги
гибарац
гимназија
гимназијалних
гимназије
гимназији
гимназију
гине
гитара
гитаре
гитариста
гитару
гиљермо
гл
гла
глава
главама
главе
глави
главна
главне
главни
главним
главнина
главних
главно
главног
главном
главној
главну
главом
главу
глагол
глагола
глаголи
глад
глади
глазгов
глазгову
глас
гласа
гласали
гласало
гласају
гласања
гласање
гласањем
гласи
гласила
гласило
гласине
гласник
гласника
гласнику
гласно
гласова
гласове
гласови
гласовима
гласом
гласу
глађу
гле
гледа
гледала
гледалаца
гледали
гледам
гледано
гледао
гледаоци
гледати
гледај
гледају
гледајући
гледање
гледишта
гледиште
глен
глигорије
глина
глине
глиша
глишић
гло
глобална
глобалне
глобални
глобално
глобалног
глобалном
глобус
глоговац
глодара
глорија
глостер
глукозе
глумац
глумаца
глумачке
глумачку
глуме
глуми
глумила
глумио
глумица
глумице
глумицом
глумицу
глуму
глумца
глумци
глумцима
глуп
гнев
гнезда
гнезди
гнездо
гну
го
гов
говеда
гови
гово
говор
говора
говораше
говоре
говорећи
говори
говорила
говорили
говорило
говорим
говоримо
говорио
говорите
говорити
говориш
говорник
говорника
говорници
говорног
говору
гову
гог
год
года
годин
година
годинама
године
години
годином
годину
годишња
годишњак
годишње
годишњег
годишњем
годишњи
годишњим
годишњих
годишњица
годишњице
годишњицу
годишњу
гол
гола
голден
голе
голи
голим
голман
голмана
голова
голове
голови
головима
голом
голу
голуб
голубинци
голубовић
голф
гомез
гомила
гомиле
гомилу
гонзалез
гони
гора
горажде
горан
горана
гордана
гордо
гордон
горе
горж
гори
горива
гориво
горица
горки
горко
городских
гором
горски
гору
горња
горње
горњег
горњем
горњи
горњим
горњих
горњој
горњу
госпе
госпо
господ
господа
господар
господара
господари
господару
господе
господин
господина
господине
господо
господом
господу
господња
господње
господњег
господњи
госпођа
госпође
госпођинаца
госпођинци
госпођица
госпођице
госпођо
гост
госте
гости
гостима
гостију
гостовању
гостујући
государственнои
государственныи
гота
готи
готов
готова
готово
гојко
гојковић
гоњење
гп
гр
гра
грабовци
грабљивице
гравитације
град
града
градац
граде
гради
градили
градимир
градина
градио
градитељ
градити
градишка
градиште
градић
градићу
градова
градове
градови
градовима
градом
градоначелник
градоначелника
градска
градске
градски
градским
градских
градско
градског
градском
градској
градску
граду
градња
градње
градњи
градњу
грал
грам
грама
граматика
граматике
гран
грана
гранама
граната
гранате
гранд
гранде
грандес
гране
грани
граница
границама
границе
граници
границом
границу
граничи
гранична
граничне
гранични
грант
грану
гранха
граф
графа
график
графика
графике
графичар
графички
грахово
грацу
грачаница
грачац
грађа
грађана
грађане
грађани
грађанима
грађанин
грађанина
грађанска
грађанске
грађански
грађанским
грађанских
грађанско
грађанског
грађанском
грађе
грађевина
грађевине
грађевинска
грађевинске
грађевински
грађевинских
грађевинског
грађевину
грађен
грађена
грађене
грађи
грађу
грб
грба
грбић
грбова
грбови
грбом
грбу
гргур
гре
гребен
гребена
грег
грегоријанском
греда
греде
греми
гренд
грех
греха
грешака
грешка
грешке
грешком
грешку
греј
грејање
грејс
григорија
григорије
грин
грипа
грк
грка
грке
грла
грло
грмуша
гро
гроб
гроба
гробница
гробнице
гробници
гробницу
гробова
гробови
гробу
гробља
гробље
гробљу
грожђа
грожђе
грозница
грознице
гром
гроув
гроф
грофа
гроцка
гроша
гру
груб
грубо
груди
грудима
грудног
грузија
грузије
грузији
грузијски
група
групама
групације
групе
групи
групне
групној
групну
групом
групу
грујић
грци
грцима
грч
грчк
грчка
грчке
грчки
грчким
грчких
грчко
грчког
грчком
грчкој
грчку
гсп
гу
губе
губи
губитак
губитака
губитка
губитке
губитком
губитник
губици
гувернер
гувернера
гугл
гудачки
гума
гуме
гура
гусенице
гуска
гусле
густа
густав
густаво
густе
густим
густина
густине
густину
густо
гутенберг
гутијерез
гуча
гђа
гљива
гљиве
гњурац
д
да
давала
давали
давао
давати
давања
давање
давид
давида
давидовић
давнина
давно
даворин
даглас
даде
даду
дакле
дакота
дала
далас
дале
далеко
далеком
дали
далматинска
далматинске
далматински
далмација
далмације
далмацији
далмацију
дало
дам
дама
дамаск
дамбовица
даме
дамир
дамјан
дамјановић
дамњановић
дан
дана
данак
данас
данашња
данашње
данашњег
данашњем
данашњи
данашњим
данашњих
данашњој
данашњу
дане
дани
данила
данило
данима
даница
данијел
данијела
данка
данко
даном
данска
данске
дански
данског
данском
данској
дану
дао
дар
дара
даринка
дарија
дарко
дарове
дарушафаке
даска
даске
дат
дата
дате
дати
датира
датирају
дато
датог
датом
датотека
датотеке
датум
датума
дах
дачић
дај
дајана
даје
дајем
дајте
дају
дајући
даља
даље
даљег
даљем
даљи
даљим
даљине
даљину
даљих
даљу
дању
даћу
дв
два
двадесет
двадесетак
двадесетих
двадесетог
дванаест
двапут
двд
две
двема
двери
двеста
двеју
двије
дво
двобој
двоглед
двогодишњи
двор
двора
дворана
дворане
дворани
дворану
дворац
дворе
двори
дворишта
двориште
дворишту
дворска
дворске
дворски
двору
дворца
дворцу
двострука
двоструки
двоструко
двоструком
двоје
двојица
двојице
двојицу
дд
де
дебата
дебели
дебелог
дебео
деби
дебитантски
дебитовала
дебитовао
дебљина
дебљине
деведесетих
девет
девета
девети
деветнаестог
девето
деветог
деветом
девица
девојака
девојачке
девојка
девојке
девојко
девојком
девојку
девојци
девојче
девојчица
девојчице
деда
деде
декан
декларација
декларације
декларацију
деклинација
декорација
декрет
дел
дела
делатност
делатности
делатностима
деле
делегат
делегата
делегати
делегација
делегације
делегацију
дели
делиблато
делила
делили
делима
делимично
делио
делисијас
делија
делић
дело
делова
деловала
деловао
деловати
деловања
деловање
деловањем
деловању
делове
делови
деловима
делом
делта
делу
делује
делују
делфин
дем
демир
демо
демократа
демократија
демократије
демократију
демократска
демократске
демократски
демократских
демократског
демократској
демократску
демон
демона
демонстраната
демонстранти
демонстрација
демонстрацијама
демонстрације
ден
денвер
дендрометријске
дендроними
дени
денис
денс
део
деоница
деонице
департман
департмана
департману
депресија
депресије
дер
дерби
дервента
деретић
дероње
десанка
десет
десета
десетак
десети
десетина
десетине
деси
десила
десило
десио
десити
деска
деске
десна
десне
десни
десница
деснице
десно
десног
десном
десној
десну
деспот
деспота
деспотовине
деспотовић
деспотово
деспоту
дестинација
детао
детаљ
детаља
детаљан
детаље
детаљи
детаљима
детаљне
детаљније
детаљнији
детаљно
дете
детектив
детектива
детета
дететом
детету
детињства
детињство
детињству
детлић
детлићи
детроит
дефинисан
дефинисана
дефинисане
дефинисани
дефинисано
дефинисао
дефинисати
дефинисање
дефинитивно
дефиниција
дефиниције
дефиницији
дефиницију
дефинише
дефинишу
дец
деца
деце
децембар
децембра
децембру
деценија
деценијама
деценије
деценији
деценију
деци
децо
децом
децу
деч
дечак
дечака
дечани
дечански
дечанског
дечаци
дечије
дечко
дечја
дечје
дечјег
дечји
дечјих
дечју
дешава
дешавало
дешавају
дешавања
деј
дејан
дејана
дејв
дејвид
дејвида
дејвис
дејстава
дејства
дејство
дејством
дејтонског
дељење
ди
див
диван
дивизија
дивизије
дивизији
дивизијом
дивизију
дивна
дивно
дивје
дивља
дивљач
дивљачи
дивље
дивљи
дивљих
дигитална
дигиталне
дигитални
дигиталних
дигитално
дигне
диже
дижу
дизајн
дизајна
дизајнер
дизајнера
дизајниран
дизајнирао
дизајну
дизел
дизни
дик
дика
диктатуре
дилан
дим
дима
димас
димензија
димензије
димитрија
димитрије
димитријевић
димић
дин
дина
динама
динамику
динамо
динар
динара
династија
династије
династији
династију
дине
динић
дино
дио
диоксид
диоксида
диос
диплома
дипломата
дипломатије
дипломатске
дипломатски
дипломатских
дипломе
дипломирала
дипломирани
дипломирао
дипломирања
дипломског
диплому
директан
директна
директне
директни
директним
директно
директног
директном
директну
директор
директора
директорка
дирекција
дирекције
диригент
дисања
дисање
дисертација
дисертације
дисертацију
диск
диска
дисквалификација
дискова
дискографија
дискогс
дискриминације
дискусија
дискусије
дистрибуција
дистрибуције
дистрибуцију
дистрикт
дистрикта
дистрикту
дисциплина
дисциплинама
дисциплине
дисциплини
дисциплину
дити
диш
дијагноза
дијагнозе
дијагнозу
дијаграм
дијаз
дијалекат
дијалекатски
дијалекатских
дијалект
дијалекта
дијалекти
дијалектима
дијалектолошки
дијалектолошком
дијалог
дијалога
дијамант
дијана
дијаспоре
дијего
дијела
дијелови
дијелом
дијелу
дијете
дићи
длака
длаке
длаку
дм
дмитриј
дн
дна
дне
дневна
дневне
дневни
дневник
дневника
дневнику
дневних
дневно
дневног
дневном
днк
дно
днр
дну
до
доб
доба
добар
добара
доби
добивши
добила
добиле
добили
добило
добио
добит
добити
добитник
добитница
добитници
добија
добијала
добијали
добијамо
добијао
добијају
добијања
добијање
добије
добијен
добијена
добијене
добијени
добијених
добију
добладо
добој
добра
добре
добри
добривоје
добрим
добрима
добринци
добрих
добрица
добро
добробит
добровољац
добровољаца
добровољно
добровољци
доброг
добром
добротвор
доброј
добру
добу
дов
доведе
доведен
доведена
доведу
довела
довеле
довели
довело
довео
довести
доводе
доводи
довољан
довољна
довољно
догађа
догађај
догађаја
догађаје
догађаји
догађајима
догађају
договор
договора
договорено
договорили
договору
догоди
догодила
догодило
догодио
догодити
дода
додавање
додавањем
додала
додао
додат
додата
додатак
додати
додатим
додатком
додатна
додатне
додатни
додатним
додатних
додатно
додатну
додаци
додаје
додају
додајући
доделе
додели
доделила
доделио
доделу
додељен
додељена
додељене
додељено
додељује
додељују
додик
додир
додира
додуше
доживела
доживели
доживео
доживљава
доживљавају
доживљај
доза
дозвола
дозволе
дозволи
дозволила
дозволио
дозволити
дозволом
дозволу
дозвољава
дозвољавају
дозвољен
дозвољена
дозвољено
дозе
доиста
док
докаже
доказ
доказа
доказано
доказао
доказати
доказе
докази
доказима
доказује
докић
докле
доктор
доктора
докторат
докторирао
докторска
докторске
докторску
доктрина
доктрине
докумената
документ
документа
документарни
документација
документације
документацију
документе
документи
документима
документу
дол
долазак
долазе
долази
долазила
долазили
долазило
долазио
долар
долара
доласка
доласком
доласку
доле
долж
долина
долинама
долине
долини
долином
долину
долово
долорес
дом
дома
домаћа
домаће
домаћег
домаћем
домаћи
домаћим
домаћин
домаћина
домаћини
домаћинстава
домаћинства
домаћинство
домаћинству
домаћих
домаћица
домаћице
домаћу
домбровски
домен
домена
домену
домет
домета
доминантан
доминантна
доминантно
доминације
доминацију
домингез
доминго
доминик
доминика
доминира
доминирају
домова
домове
домовима
домовина
домовине
домовину
домом
дому
дон
дона
доналд
донекле
донела
донели
донело
донео
донесе
донесена
донесу
донет
донета
донети
донио
доносе
доноси
доносио
доношења
доношење
доношењем
доношењу
допада
дописни
дописник
допринела
допринели
допринело
допринео
допринос
доприноса
доприносе
доприноси
допуна
допуне
допуни
допусти
допушта
допуњено
дора
дос
досад
доселили
доселио
досељени
досељеника
досељеници
доситеј
досије
дословно
доспела
доспео
доста
доставља
достигао
достигла
достигне
достигнућа
достиже
достижу
достићи
достојан
достојанства
достојанство
доступан
доступна
доступне
доступни
доступним
доступно
дотад
дотадашње
дотадашњи
дотле
дохи
доцент
доцента
доцније
дочека
дочекала
дочекали
дочекао
дош
дошавши
дошао
дошла
дошле
дошли
дошло
дођ
дође
дођем
дођи
дођоше
дођу
дојако
дојке
доље
доња
доње
доњег
доњем
доњи
доњим
доњих
доњој
доњу
доћи
др
драве
драг
драга
драган
драгана
драге
драги
драгин
драгица
драгиша
драго
драгомир
драгослав
драгољуб
драгољуба
драгутин
драгутина
дража
драже
дражи
драма
драматург
драме
драми
драмска
драмске
драмски
драмских
драмско
драмског
драмском
драму
драстично
драфту
драча
драшковић
дрва
дрвар
дрвена
дрвене
дрвени
дрвеним
дрвених
дрвеном
дрвета
дрвету
дрвећа
дрвеће
дрвећу
дрво
древна
древне
древни
древним
древних
древног
дрес
дресу
држ
држава
државама
државе
држави
државна
државне
државни
државник
државним
државних
државно
државног
државном
државности
државној
државну
државом
државу
држављана
држављани
држављанин
држављанства
држављанство
држала
држали
држао
држати
држање
држе
држећи
држи
дрим
дрина
дрине
дрини
дрину
дрога
дроге
дрозак
дрозг
дрозд
дроздељ
дру
друг
друга
другачија
другачије
другачији
другде
друге
други
другим
другима
других
друго
другова
другови
друговима
другог
другога
другом
другоме
другопласирани
другој
другу
друже
дружина
дружине
друкчије
друм
друма
друмски
друштава
друштва
друштвена
друштвене
друштвени
друштвеним
друштвених
друштвено
друштвеног
друштвеном
друштвеној
друштвену
друштвима
друштво
друштвом
друштву
дрљан
дс
дсс
ду
дубина
дубине
дубини
дубину
дубица
дубок
дубока
дубоке
дубоки
дубоким
дубоко
дубоког
дубоком
дубоку
дубровачка
дубровачке
дубровачки
дубровачко
дубровачког
дубровачку
дубровник
дубровника
дубровнику
дубровчани
дубље
дува
дуван
дувана
дуг
дуга
дугачак
дугачка
дугачке
дугачко
дуге
дуги
дугим
дугих
дугме
дуго
дугог
дугогодишњи
дугом
дугометражни
дугој
дугу
дугује
дует
дуж
дужа
дужан
дуже
дужег
дужи
дужина
дужине
дужини
дужином
дужину
дужна
дужни
дужност
дужности
дужностима
дука
дуката
дулсе
думе
дунав
дунава
дунавске
дунаву
дупло
дуранго
дурасно
дурмитора
дусл
дух
духа
духова
духове
духови
духовна
духовне
духовни
духовно
духовног
духовном
духовну
духом
духу
дучић
дучића
душа
душан
душана
душе
души
душко
душо
душом
душу
дујаковић
дућан
дјевојка
дјевојке
дјела
дјелатност
дјелатности
дјело
дјетао
дјеца
дјеце
дјецу
дњепар
е
еаа
ев
ева
евакуацију
еванс
евентуално
евиденције
евиденцију
ево
еволуција
еволуције
евр
евра
евро
евровизије
евролиге
европа
европе
европи
европом
европска
европске
европски
европским
европских
европско
европског
европском
европској
европску
европу
европљана
европљани
евроспорта
егејског
егзилу
египат
египатска
египатске
египатски
египатског
египта
египту
египћани
его
ед
еда
едвард
едварда
едгар
еден
еди
единбург
едип
едит
едиција
едмунд
едо
едуард
едуардо
еквадор
еквивалент
екипа
екипе
екипи
екипно
екипом
екипу
еклиптике
еко
екологија
екологију
еколошка
еколошке
еколошки
еколошких
економиста
економија
економије
економији
економију
економска
економске
економски
економским
економских
економско
економског
економском
економској
економску
екосистема
екосистеми
екран
екрана
екрану
екс
експанзија
експанзије
експедиција
експедиције
експедицију
експеримената
експеримент
експеримента
експериментални
експерименте
експерименти
експлицитна
експлицитно
експлоатација
експлоатације
експлоатацију
експлозија
експлозије
експлозији
експр
експрес
екстра
екстремно
ексцентрицитет
ел
елезовић
електрана
електране
електрична
електричне
електрични
електричним
електричних
електрично
електричног
електричном
електричну
електро
електрон
електрона
електрони
електронска
електронске
електронски
електронским
електронских
електронско
електронског
електронском
елеменат
елемената
елемент
елемента
елементе
елементи
елементима
елемир
елен
елена
ели
елизабет
елизабета
елизабете
елиминисан
елиот
елиптична
елита
елите
елијас
ем
ема
емануел
еми
емигрирао
емил
емили
емилија
емилијано
емир
емирата
емисија
емисијама
емисије
емисији
емисију
емитовала
емитован
емитована
емитовања
емитовање
емитује
емитују
емоција
емоције
ен
енг
енгл
енглеза
енглези
енглеска
енглеске
енглески
енглеским
енглеских
енглеско
енглеског
енглеском
енглеској
енглеску
енд
енди
ендру
енергетски
енергично
енергија
енергије
енергијом
енергију
ензим
ензима
ени
енкарнасион
ено
енрике
енсенада
ентеријер
ентеријера
ентитет
ентитета
ентони
енциклопедија
енциклопедије
енциклопедији
енциклопедијски
еп
епархија
епархије
епархији
епд
епидемија
епидемије
епизода
епизодама
епизоде
епизоди
епизоду
епископ
епископа
епископи
епископија
епископије
епитет
епици
епл
епоха
епохе
епска
епске
епских
ер
ера
ерадура
ердевик
ере
ерера
ери
ерик
ерика
ерлангенски
ерлангенског
ерлајнс
ерлер
ерманос
ермоса
ермосиљо
ермосо
ернандез
ернест
ернст
ерозије
ероика
еру
ерупција
ерупције
ес
есеј
есеја
есеји
есејиста
ескадрила
ескадриле
ескобедо
ескондида
ескондидо
есм
есмералда
есперанза
еспиноса
ест
естансија
естасион
естер
естонија
естоније
естонији
естреља
ет
ета
етапа
етапе
етапи
етапу
етика
етике
етимологијски
етингер
етиопија
етиопије
етиопији
етничка
етничке
етнички
етничких
етничког
етничку
етно
етнографија
етнографски
етнографског
етнолошка
ето
еу
еуген
еуф
ефекат
ефеката
ефекта
ефекте
ефекти
ефективно
ефектима
ефикасан
ефикасно
ефикасност
ефикасности
ех
ехидо
ехф
ешли
еј
еја
ејми
ж
жа
жаба
жабаљ
жак
жалар
жалба
жалбе
жалбу
жали
жалио
жалост
жалости
жан
жана
жанеиру
жанр
жанра
жанрова
жанру
жао
жар
жарг
жарка
жарко
же
желе
железница
железнице
железничар
железничка
железничке
железнички
железничких
железничкој
железничку
желела
желели
желео
желећи
жели
желим
желимо
желите
желуца
жем
жена
женама
жене
женеви
жени
женидба
женидби
женио
женка
женке
женки
жено
женом
женска
женске
женски
женским
женских
женско
женског
женском
женској
женску
жену
жесток
жестоке
жестоко
жетве
жеља
жељама
жеље
жељи
жељко
жељом
жељу
жи
жив
жива
живан
живановић
живања
живању
живе
живела
живеле
живели
живело
живео
живети
живећи
живи
живим
живимо
живио
живих
живка
живко
живковић
живо
живог
живом
живорад
живот
живота
животе
животи
животиња
животињама
животиње
животињска
животињске
животињски
животињских
животна
животне
животни
животним
животних
животно
животног
животну
животом
животу
живојин
живојиновић
живојновић
живу
живјело
жигмунд
жика
жил
жила
жири
жирија
жита
житарица
житарице
житеља
житељи
житиште
житија
житије
жито
жица
жице
жлезда
жлезде
жоао
жозеф
жорж
жос
жреб
жртава
жртва
жртвама
жртве
жртву
жу
жуна
жупа
жупан
жупана
жупанија
жупаније
жупанији
жупе
жупи
журнал
жута
жуте
жути
жуто
жуту
з
за
забава
забаве
забавне
забавник
забаву
забележен
забележена
забележени
забележено
забележила
забележили
забележио
заблуда
заборави
заборавио
заборавити
забрана
забране
забрани
забранила
забранио
забрану
забрањен
забрањена
забрањено
забрањује
забринут
забринутост
заведен
завера
завере
завери
заверу
завеса
завет
завета
зависе
зависи
зависна
зависно
зависност
зависности
завичајни
завод
завода
заводу
завршава
завршавају
заврше
завршен
завршена
завршене
завршени
завршено
завршеног
завршетак
завршетка
завршетком
завршетку
заврши
завршила
завршили
завршило
завршио
завршити
завршне
завршни
завршници
завршном
загађења
загађење
заговорник
загонетка
загради
загреб
загреба
загребачке
загребачки
загребачког
загребачком
загребачкој
загребу
загревање
загрли
задар
задатак
задатака
задатка
задатке
задатком
задатку
задаци
задацима
задобио
задовољава
задовољан
задовољи
задовољни
задовољства
задовољство
задра
задржава
задржавају
задржавање
задржала
задржали
задржао
задржати
задрже
задржи
задру
задруга
задруге
задужбина
задужбине
задужен
задужена
задња
задње
задњег
задњем
задњи
задњим
задњих
задњој
заиграо
заинтересован
заинтересовани
заиста
зак
закатекас
заклетве
заклетву
закон
закона
законе
закони
законик
законика
законима
законитости
законодавне
законодавства
законодавство
законом
законске
законски
закону
закуп
закључак
закључен
закључили
закључио
закључити
закључка
закључке
закључно
закључује
закључци
залагао
залаже
зале
залив
залива
заливу
залиха
залихе
замак
замена
замене
замени
заменик
заменика
заменила
заменили
заменио
замените
заменити
заменица
заменице
замену
замењен
замењена
замењени
замењује
замењују
замисао
замисли
замислити
замишљен
замка
замку
замоли
замолио
замонашио
замора
замјеник
занат
заната
занати
занатлија
занатлије
занима
занимања
занимање
занимању
занимљив
занимљива
занимљиво
зао
запад
запада
западна
западне
западни
западним
западних
западно
западног
западном
западној
западну
западу
запажања
запажен
запажене
запали
запалили
запалио
запата
запаљења
запаљење
запис
записа
записано
записао
записе
записи
записима
записник
запису
запита
заплата
заплање
заплета
заповеди
заповедник
заповедника
заповест
заповести
запослен
запослена
запослени
запослених
запослио
запоте
започела
започеле
започели
започело
започео
започет
започета
започети
започето
започиње
започињу
започне
запошљава
запошљавање
заправо
запремина
запремине
зар
зарагоза
зарад
зарада
зараде
зарадио
зарадом
зараду
заразе
заразних
заредом
зарка
заробили
заробио
заробљен
заробљена
заробљени
заробљеника
заробљенике
заробљених
заробљеници
заробљеништво
заробљеништву
заробљено
засебан
засебна
засебне
засебно
засебну
заседања
заседање
заседању
заседу
заселак
засеоку
заслуга
заслуге
заслужан
заслужио
заслужни
заслужних
заслужује
заснива
заснивају
заснован
заснована
засноване
засновани
засновано
застава
заставе
застави
заставом
заставу
застоја
заступа
заступао
заступник
заступника
заступљен
заступљена
заступљене
заступљени
затвара
затварања
затварање
затвор
затвора
затворен
затворена
затворене
затворени
затвореника
затвореници
затворено
затвореног
затвореном
затвори
затворила
затворио
затвору
затекао
затекли
затим
зато
затражи
затражила
затражио
заувек
заузврат
заузела
заузеле
заузели
заузео
заузет
заузети
заузима
заузимала
заузимао
заузимају
заузимања
заузимање
заузме
заузму
зауставе
заустави
зауставила
зауставио
зауставити
зауставља
заустављање
захарија
захвалност
захвалности
захвата
захватио
захваљујући
захтев
захтева
захтевала
захтевали
захтевало
захтевао
захтевати
захтевају
захтеве
захтеви
захтевима
захтеву
захтјев
захтјева
захумско
зачу
зашт
заштита
заштите
заштити
заштитио
заштитне
заштитни
заштитник
заштитника
заштитом
заштиту
заштићен
заштићена
заштићене
заштићени
заштићених
заштићено
зашто
зајам
заједница
заједницама
заједнице
заједници
заједницу
заједничка
заједничке
заједнички
заједничким
заједничких
заједничко
заједничког
заједничком
заједничкој
заједничку
заједно
зајечар
зајечара
зајечару
заљубио
заљубљен
заљубљена
заљубљује
зб
збивања
збир
збирка
збиркама
збирке
збирки
збирку
збирни
збирци
збиља
због
збогом
збор
збора
збори
зборник
зборника
зборнику
зв
зва
звала
звали
звало
зван
звана
зване
звани
званичан
званична
званичне
званични
званичник
званичника
званичним
званичних
званичници
званично
званичног
званичном
званичној
званичну
званог
званом
звао
звати
звања
звање
звезда
звездама
звездане
звездано
звездара
звезде
звезди
звездица
звездом
звезду
звер
звери
звијезда
звијери
звона
звоник
звоника
звонимир
звоно
зворник
зворничко
звук
звука
звуци
звучи
звучни
зглоба
зглобова
зграда
зградама
зграде
згради
зграду
здања
здање
здн
здра
здрав
здрава
здраве
здрави
здравко
здравковић
здраво
здравствена
здравствене
здравствени
здравственим
здравствених
здравствено
здравственог
здравственој
здравствену
здравство
здравља
здравље
здрављу
зе
зеба
зевс
зевса
зеланд
зеланда
зеланду
зелен
зелена
зелене
зелени
зеленило
зеленим
зелених
зелено
зеленог
зеленом
зелену
земаља
земаљска
земаљске
земаљски
земаљског
земун
земуна
земуну
земља
земљама
земље
земљи
земљине
земљиној
земљишта
земљиште
земљишту
земљом
земљопис
земљорадник
земљорадњом
земљотрес
земљотреса
земљу
зенит
зеница
зенице
зеремски
зет
зета
зете
зети
зету
зец
зечевић
зи
зид
зида
зидана
зидина
зидинама
зидине
зидова
зидове
зидови
зидовима
зидом
зиду
зима
зиме
зими
зимске
зимски
зимским
зимских
зимског
зимском
зиму
зирандаро
зл
зла
злата
златан
златановић
златар
златибор
златиборском
златко
златковић
златна
златне
златни
златним
златних
златно
златног
златном
златну
злато
златом
злату
зле
зли
зло
злостављања
злоупотреба
злоупотребе
злочин
злочина
злочине
злочини
злочинима
злу
змај
змаја
змајево
змија
змије
змију
зн
зна
знак
знака
знаке
знакова
знакове
знаком
знала
знали
знало
знам
знаменити
знаменитих
знаменитости
знамо
знаности
знао
знатан
знате
знати
знатне
знатно
знаци
знацима
значај
значаја
значајан
значајна
значајне
значајни
значајним
значајних
значајније
значајнији
значајнијих
значајно
значајног
значајну
значају
значе
значења
значење
значењем
значењу
значи
значило
значио
знаш
знају
знајући
знања
знање
знањем
знању
зо
зове
зову
зои
зона
зонама
зоне
зони
зону
зоол
зоологичких
зоологија
зоолошка
зоолошки
зора
зоран
зорана
зоре
зорица
зорка
зору
зрак
зрака
зраке
зракоперка
зраци
зрацима
зрачења
зрачење
зрењанин
зрењанина
зрењанину
зрна
зрно
зу
зуб
зуба
зубе
зуби
зубима
зузорић
зунс
зуњига
и
иааф
иако
ибн
ибра
ибрахим
ив
ива
иван
ивана
иванда
иванић
иванка
иванов
иванович
ивановић
иваном
ивану
ивањица
иве
ивица
ивице
ивици
ивицу
ивић
ивковић
иво
иг
игара
игд
игле
игнасио
игнорисан
иго
игор
игра
играла
играле
играли
игралишта
игралиште
играло
играма
играна
игране
играни
играних
играо
играти
играч
играча
играче
играчем
играчи
играчима
играчица
играчка
играчке
играчку
играчу
играју
играјући
играња
играње
игре
игри
игрица
игром
игру
игуман
игумана
игур
игњата
игњатовић
ид
идалго
идвор
иде
идеал
идеални
идем
идемо
идентитет
идентитета
идентификацију
идентификује
идентификују
идентичан
идеологија
идеологије
идеш
идеја
идејама
идеје
идеји
идејом
идеју
иди
идите
идол
иду
идуће
идући
из
иза
изабела
изабере
изабрала
изабрали
изабран
изабрана
изабране
изабрани
изабраних
изабрано
изабрао
изабрати
изазвала
изазвали
изазвало
изазван
изазвана
изазване
изазвао
изазвати
изазива
изазивају
изазов
изазове
изазову
изасланик
изасланика
изашао
изашла
изашли
изашло
изађе
изађу
изаћи
избави
избаци
избацивање
избацио
избацује
избачен
избачена
избегава
избегавају
избегавање
избегао
избегла
избегли
избеглица
избеглице
избегне
избегну
избећи
избила
избили
избио
избиште
избија
избијања
избијање
избијању
избор
избора
изборе
избори
изборима
изборио
изборна
изборне
изборни
изборним
изборних
изборног
изборној
избором
избору
изв
извади
изван
изванредан
изванредно
изведе
изведен
изведена
изведене
изведени
изведено
извела
извели
извео
извесне
извесни
извесним
извесних
извесно
извесног
извесну
известан
извести
известио
извештава
извештај
извештаја
извештаје
извештаји
извештајима
извештају
извире
извиђачки
извиђање
извлачење
извод
изводе
изводи
изводила
изводили
изводио
изводити
извоз
извоза
извор
извора
изворе
извори
изворима
изворне
изворни
изворно
изворног
изворном
извору
извођач
извођача
извођачи
извођења
извођење
извођењем
извођењу
извршава
извршавају
извршавања
извршавање
изврше
извршен
извршена
извршене
извршено
извршења
извршење
изврши
извршила
извршиле
извршили
извршио
извршити
извршна
извршне
извршни
извршно
извршног
извршну
извукао
извуче
извући
извјештај
изглед
изгледа
изгледала
изгледало
изгледао
изгледати
изгледају
изгледом
изгледу
изговара
изговор
изговори
изговором
изгради
изградила
изградили
изградио
изградња
изградње
изградњи
изградњом
изградњу
изграђен
изграђена
изграђене
изграђени
изграђено
изгуби
изгубивши
изгубила
изгубиле
изгубили
изгубило
изгубио
изгубити
изгубљен
изгубљена
изгубљене
изгубљени
изгубљено
изд
изда
издавао
издавач
издавача
издавачка
издавачке
издавачко
издавачком
издавачку
издавања
издавање
издала
издали
издао
издат
издата
издате
издати
издаје
издају
издања
издање
издањима
издању
издваја
издвајају
издвајањем
издвојен
издвојена
издвојено
издвојио
издвојити
издиже
издижу
издржавање
издржи
изиђе
изићи
изл
излагао
излагања
излагање
излаже
излаз
излаза
излазак
излазе
излази
излазио
излазу
изласка
изласку
изложба
изложбама
изложбе
изложби
изложбу
изложен
изложена
изложене
изложени
изложено
изложио
изм
измена
изменама
измене
измени
између
измењен
измењена
измењено
измислио
измишљени
изнад
изненада
изненађење
изнео
изнесе
изнова
износ
износа
износе
износи
износила
износили
износио
износу
изнутра
изолације
изотоп
изотопа
изр
израда
израде
изради
израдио
израду
израел
израела
израелске
израелски
израелу
изражава
изражавају
изражавања
изражавање
изражаја
изражен
изражена
изражене
изражено
израз
израза
изразе
изрази
изразили
изразио
изразити
изразито
изразом
израчунавање
израчунати
израђен
израђена
израђује
израђују
изрека
изрекао
изреке
изричито
изузев
изузетак
изузетан
изузетком
изузетне
изузетно
изузетног
изузетну
изум
изумирања
изумрла
изумрле
изумрли
изучавања
изучавање
изјава
изјаве
изјави
изјавила
изјавили
изјавио
изјаву
изјављује
изјаснило
изјашњавају
изједначио
иихф
ик
икад
икада
икакве
икаквих
икаквог
икарус
икона
иконе
иконостас
иконостаса
икону
икс
ил
иланџа
илегалне
илегални
илегално
или
илиноис
илија
илије
илић
илића
илиџа
илузија
илустрација
илустрације
илустрована
им
има
имала
имале
имали
имало
имам
имамо
имао
имате
имати
имаш
имају
имајући
имања
имање
имању
имаће
име
имена
именима
именица
именице
именован
именована
именовао
именовања
именовање
именом
имену
именује
имиграната
имигранти
имовина
имовине
имовином
имовину
император
императора
империја
империје
имплементација
имплементације
имплементацију
импулс
импулса
имунитет
ин
ина
иначе
инвазија
инвазије
инвазију
инвалида
инвалидитетом
инвентаризација
инвестиција
инвестиције
инд
индекс
индекса
индепенденсија
индивидуалне
индивидуални
индиректно
индија
индијан
индијана
индијанаца
индијанци
индије
индији
индијска
индијске
индијски
индијског
индијском
индију
индо
индонезија
индонезије
индонезији
индузтријале
индустрија
индустрије
индустрији
индустријска
индустријске
индустријски
индустријских
индустријског
индустрију
инес
инж
инжењер
инжењера
инжењери
инжењеринг
инжењерство
иницијатива
иницијативе
иницијативу
иницијатор
инклинација
инов
иновације
инови
инострани
иностраних
иностранства
иностранство
иностранству
инсеката
инсект
инсекти
инсектима
инсистира
инсистирао
инспектор
инспектора
инспирација
инспирацију
инспирисан
инспирисана
инсталације
институт
института
институту
институција
институцијама
институције
инструктор
инструкција
инструкције
инструмената
инструмент
инструмента
инструменте
инструменти
инструментима
интеграција
интеграције
интегритет
интелектуалаца
интелектуалне
интелигенција
интелигенције
интензивне
интензивно
интензитет
интензитета
интер
интерактивни
интеракција
интеракције
интеракцију
интервалу
интервенција
интервенције
интервенцију
интервју
интервјуа
интервјуу
интерес
интереса
интересантно
интересе
интереси
интересима
интересовања
интересовање
интересу
интернационални
интернет
интернета
интернету
интерпретација
интерпретације
интерпретацију
интерфејс
инфекција
инфекције
инфо
информатика
информационе
информациони
информација
информацијама
информације
информацију
информисања
информисање
инфраструктура
инфраструктуре
инфраструктуру
инцидената
инцидент
инцидента
инча
инђија
ио
ип
ипак
ир
ирак
ирака
ираку
иран
ирана
иранске
ирански
ирану
ирапуато
ирена
ири
ириг
ирина
иринеј
ирон
ирска
ирске
ирски
ирског
ирској
ирску
ис
иса
исабел
исак
исака
исидор
исидора
исидро
исказ
исказивано
исказује
ископавања
искористе
искористи
искористила
искористили
искористио
искористити
искра
искрено
искустава
искуства
искуствима
искуство
искуством
искуству
искључен
искључиво
искључује
исла
ислам
ислама
исламска
исламске
исламски
исламског
исланд
исланда
испада
испала
испали
испао
исписан
испит
испита
испитаника
испитивања
испитивање
испитује
исплати
испод
испоставило
испољава
исправа
исправан
исправе
исправи
исправно
испрва
испред
испуни
испунио
испунити
испуњава
испуњавају
испуњен
испуњена
испуњени
ист
иста
истакао
истакла
истакли
истакнут
истакнута
истакнуте
истакнути
истакнутим
истакнутих
истанбул
истанбулу
истарској
истаћи
исте
истека
исти
истим
истина
истине
истини
истински
истину
истих
истицао
истиче
истичу
истичући
истлавакан
исто
истовремено
истог
истога
истоимена
истоимене
истоимени
истоименог
истоименом
истоименој
исток
истока
истоку
истом
историографији
историчар
историчара
историчари
история
историја
историјат
историје
историји
историјом
историјска
историјске
историјски
историјским
историјских
историјско
историјског
историјском
историјској
историјску
историју
источна
источне
источни
источним
источних
источно
источног
источном
источној
источну
истој
истр
истрага
истраге
истрагу
истражи
истраживао
истраживач
истраживача
истраживачи
истраживачке
истраживачки
истраживачких
истраживачког
истраживања
истраживање
истраживањем
истраживањима
истраживању
истражује
истражују
истре
исту
исус
исуса
исусу
исход
исхода
исхрана
исхране
исхрани
исхрану
ит
итал
италија
италијана
италијани
италијанска
италијанске
италијански
италијанским
италијанских
италијанско
италијанског
италијанском
италијанској
италијанску
италије
италији
италијом
италију
итд
итебеј
ити
итурбиде
итф
их
иш
ишао
ишла
ишли
ишло
иштван
иште
иђош
ијан
ије
иљ
иљов
ићи
к
ка
кабина
кабине
кабинет
кабинета
каборка
кабос
кавказ
кавказа
кавказу
кад
када
кадар
кадерејта
кадра
кадрова
каже
кажем
кажемо
кажеш
кажи
кажу
кажњен
каза
казала
казао
казати
казахстан
казахстана
казахстану
казању
казе
казерта
казна
казне
казни
казниће
казном
казну
казује
казчина
каиро
каиру
какав
каква
какве
какви
каквим
каквих
какво
каквог
каквом
какву
како
кал
калабрија
калвадос
калво
кале
календар
календара
календарске
календару
каленић
калера
калибра
калифа
калифорнија
калифорније
калифорнији
калијенте
калијум
калић
калуђер
калуђера
калуђери
калцијум
калцијума
кам
камарго
камен
камена
камене
камени
каменим
камених
каменица
каменог
каменом
каменоресци
камену
камера
камере
камерон
камења
камењар
камење
камењем
камила
камино
камион
камиона
камо
камп
кампанија
кампања
кампање
кампањи
кампању
кампече
кампо
кампу
кан
кана
канада
канаде
канади
канадска
канадске
канадски
канадског
канаду
канал
канала
канале
канали
канализација
каналима
каналом
каналу
канделарија
кандидат
кандидата
кандидати
кандидатуру
канзас
кано
канон
кантакузин
кантон
кантона
кантонски
кантону
кантри
кану
канцелар
канцелара
канцеларија
канцеларије
канцеларији
канцеларију
као
кап
капа
капацитет
капацитета
капацитетом
капе
капела
капеле
капели
капелу
капетан
капетана
капетане
капи
капитал
капитала
капитализма
капитен
капитулације
капија
капије
капији
капију
капу
капулин
капустина
кар
кара
караван
каракашевић
карактер
карактера
карактеристика
карактеристикама
карактеристике
карактеристичан
карактеристична
карактеристичне
карактеристични
карактеристично
карактерише
карактеришу
карактеру
каранза
карановић
карара
карата
карате
караш
карађорђа
карађорђе
карађорђеве
карађорђевић
карађорђевића
караџић
караџића
карденас
кардинал
кардинала
кардиф
карен
кари
кариба
каризал
каризо
карикатуре
каријера
каријере
каријери
каријеру
кариљо
карл
карла
карло
карловац
карловачка
карловачке
карловачкој
карловци
карловцима
карловчић
карлом
карлос
карлу
кармен
карол
каролина
карпата
карта
картама
карте
картер
карти
картица
картице
картон
карту
каса
касарне
касас
касета
касне
касни
касних
каснија
касније
каснијег
каснијем
каснији
каснијим
каснијих
касно
касног
касном
кастиље
кастиљо
кастро
кат
ката
каталан
каталог
каталога
каталогу
катар
катара
катарина
катарине
катастарске
катастрофа
катастрофе
категорија
категоријама
категорије
категорији
категорију
катедра
катедрала
катедрале
катедрали
катедре
катедри
кати
катић
каткад
католика
католици
католицизам
католичка
католичке
католички
католичких
католичког
католичкој
католичку
кафа
кафана
кафане
кафани
кафе
кафу
кахеме
кајтасово
кања
кањада
кањон
кањона
кањону
каћ
кв
ква
квадрат
квадрата
квадратни
квадратних
квалитет
квалитета
квалитету
квалификант
квалификациона
квалификационе
квалификација
квалификацијама
квалификације
квалификовала
квалификовали
квалификовао
квалификује
квангџуу
квантне
квартет
кваутемок
квебек
квин
кг
ке
кевин
кели
келн
кембриџ
кембриџу
кен
кенеди
кенија
кеније
кенији
кент
кентаки
кера
керамика
керамике
керетаро
кери
керол
кетрин
кеш
кеј
кејт
кејти
ки
кикинда
килограма
километар
километара
километра
километража
километро
километру
ким
кин
кина
кинг
кине
кинези
кинематографије
кинеска
кинеске
кинески
кинеским
кинеских
кинеско
кинеског
кинеском
кинеској
кини
кинта
кинтана
кину
кип
кипар
кипра
кипру
кир
кира
кирил
киселина
киселине
киселину
кисеоник
кисеоника
кисеоником
кит
кита
ких
кичме
кичмењака
кичмењаци
киш
киша
кише
кишу
кијев
кијева
кијеву
кк
кл
кла
клавир
клавира
клавијатуре
кладива
клаић
клан
клана
клара
кларинет
кларк
класа
класе
класи
класик
класика
класификација
класификације
класификацији
класификацију
класичан
класична
класичне
класични
класичним
класичних
класичног
класичном
класичној
класичну
класу
клаудија
клаудије
клајн
кле
кленак
клеопатра
клер
клетва
кли
клизање
клима
климатске
климатским
климатских
климе
климент
климу
клин
клиника
клинике
клиничка
клиничке
клинички
клинтон
клисура
клисуре
клисури
клисуру
клод
клуб
клуба
клубова
клубове
клубови
клубовима
клубом
клубу
клуж
клупе
клупи
клупског
км
кмет
кн
кнегиња
кнегиње
кнеже
кнежева
кнежевац
кнежеви
кнежевина
кнежевине
кнежевини
кнежевину
кнежевић
кнез
кнеза
кнезова
кнезови
кнезом
кнезу
книга
книн
книна
ко
коавила
коалиција
коалиције
коалицији
коалицију
коалкоман
коаутор
кобац
ков
кованица
кованице
ковач
ковачевић
ковачевића
ковачић
ковачка
ковид
ковида
ковин
ковиљ
ковиљског
ковиљу
ковчег
ког
кога
код
кода
кодекс
кодова
коен
коефицијент
кожа
коже
кожи
кожом
кожу
коза
козака
козара
козаци
козе
козенца
кои
кока
коко
кокот
кокошица
кокошка
кол
кола
коларова
коларска
колач
колача
колашин
коле
колега
колегама
колеге
колектив
колективно
колекција
колекције
колекцију
колена
колено
колеџ
колеџа
колеџу
колиба
колика
колико
колима
колин
колинс
колица
количина
количинама
количине
количини
количином
количину
коло
колон
колона
колоне
колони
колонизације
колонисти
колонија
колонијалне
колонијама
колоније
колонију
колону
колорада
колорадо
колосека
колу
колубара
колумбија
колумбије
колумбији
ком
кома
комад
комада
комаде
комади
комаду
команда
команданата
командант
команданта
команданти
командантом
команданту
команде
команди
командир
командира
командовао
командом
команду
коматина
комбинација
комбинације
комбинацији
комбинацијом
комбинацију
комбинује
комбинују
коме
комедија
комедије
комедији
комедију
коментар
коментара
коментаре
коментари
комерцијалне
комерцијални
комерцијално
комесар
комесара
комета
комете
комисија
комисије
комисији
комисију
комитет
комитета
комитету
комичар
комнин
комнина
комо
комонвелта
комонду
комонфорт
комора
коморе
комори
компанија
компанијама
компаније
компанији
компанијом
компанију
компилација
комплекс
комплекса
комплексу
комплетан
комплетна
комплетни
комплетно
компликација
компликације
композитор
композитора
композиција
композиције
композицију
компонента
компоненте
компоненти
компоновао
компромис
комуна
комуналне
комуне
комунизам
комунизма
комуникациони
комуникација
комуникације
комуникацији
комуникацију
комуниста
комунисти
комунистима
комунистичка
комунистичке
комунистички
комунистичких
комунистичког
комунистичку
комшија
комшије
кон
конавала
конак
конака
конац
коначан
коначна
коначне
коначни
коначно
коначног
коначном
коначну
конвенција
конвенције
конвенцији
конвој
конга
конго
конгрес
конгреса
конгресу
конгу
конектикат
конзервативне
конзул
конзула
конзулат
конкакаф
конкордија
конкретно
конкретном
конкуренције
конкуренцији
конкурс
конкурса
конкурсу
конрад
консензус
консепсион
константа
константин
константина
константинопољ
константно
констанца
констанције
констатовао
конструисао
конструктор
конструкција
конструкције
конструкцији
конструкцију
консултант
контакт
контакта
контакте
контакту
конте
контекст
контекста
контексту
континент
континента
континентална
континенталне
континентални
континенту
континуирано
континуитет
контра
контраст
контроверзе
контрола
контроле
контроли
контролисали
контролисао
контролише
контролишу
контролом
контролу
конфедерација
конфедерације
конференција
конференције
конференцији
конференцију
конфигурација
конфликт
концентрациони
концентрација
концентрације
концентрацију
концепт
концепта
концепту
концепција
концепције
концерата
концерт
концерта
концерте
концерти
концертима
концерту
координатама
координате
координацију
копа
копаоник
копаоника
копенхаген
копенхагену
копија
копије
копију
копна
копнене
копнених
копно
копну
копља
копље
кор
кора
корак
корака
кораке
кораку
корал
коралес
кораци
кораћа
кордуна
кордуну
коре
корекције
корен
корена
корене
корени
кореја
кореје
кореји
корејски
корејском
корзо
кори
коридор
корисна
корисне
корисник
корисника
кориснике
кориснику
корисници
корисницима
корисно
корист
користан
користе
користећи
користи
користила
користиле
користили
користило
користио
користите
користити
корита
корито
кориштен
коришћен
коришћена
коришћене
коришћени
коришћених
коришћено
коришћења
коришћење
коришћењем
коришћењу
корнелије
корона
корпорација
корпорације
корпус
корпуса
корпусу
корупције
корњача
корњаче
кос
коса
косача
косе
коси
косић
космету
космодрома
космос
косова
косовац
косовић
косово
косовска
косовске
косовски
косовских
косовско
косовског
косовској
косову
косом
кост
коста
костарика
косте
кости
костима
костију
костић
костића
косу
кота
котара
котлина
котлине
котлини
котор
котора
котору
кочић
кош
коша
кошарка
кошаркаш
кошаркашице
кошаркашка
кошаркашке
кошаркашки
кошаркашког
кошарке
кошарку
кошарци
кошице
коштала
кој
која
које
којег
којега
којем
који
којим
којима
којих
којић
којом
којоте
којој
коју
којука
кољена
коњ
коња
коњаника
коње
коњи
коњима
коњиц
коњица
коњице
коњицу
коњичке
коњички
коњу
кп
кпз
кпх
кпј
кр
кра
крава
краве
крагуј
крагујевац
крагујевца
крагујевцу
крае
крак
крака
краков
кракова
кракову
кратак
кратер
кратера
кратка
кратке
кратки
кратким
кратких
кратко
кратког
кратком
кратку
крашовани
крашово
крађе
крај
краја
крајева
крајеве
крајеви
крајевима
крајем
крајина
крајине
крајини
крајину
крајишка
крајишке
крајишки
крајишког
крају
крајње
крајњем
крајњи
краљ
краља
краљев
краљева
краљеве
краљеви
краљевима
краљевина
краљевине
краљевини
краљевину
краљевић
краљевића
краљевићу
краљево
краљевска
краљевске
краљевски
краљевским
краљевских
краљевско
краљевског
краљевском
краљевској
краљевску
краљевства
краљевство
краљевству
краљеву
краљем
краљица
краљице
краљици
краљицу
краљу
краћа
краће
краћи
крв
крвава
крваве
крвави
крварења
крварење
крви
крвне
крвни
крвним
крвних
крвног
крвљу
кре
креативни
кревет
кревета
кревету
кредита
креирао
креирање
кремона
крене
крену
кренула
кренуле
кренули
кренуло
кренуо
кренути
кретала
кретао
кретати
кретања
кретање
кретању
кречњака
креја
креће
крећу
крзна
крзно
кри
крив
крива
криве
криви
кривим
кривица
кривице
кривицу
кривична
кривични
кривичних
кривично
кривичног
кривичном
криво
криза
кризе
кризи
кризу
крик
крила
крилима
крилног
крило
крилом
крилу
крим
крима
криминал
криминала
криму
крио
крис
кристал
кристала
кристи
кристина
кристијан
кристијана
кристобал
кристофер
крит
критеријум
критеријума
критеријуме
критеријуми
критика
критике
критиковали
критиковао
критику
критикује
критици
критичар
критичара
критичари
критички
кришом
крије
кро
кров
крова
кровом
крову
кроз
кромпир
кромпира
крос
кројф
крсмановић
крст
крста
крстарица
крстарице
крсташ
крсташа
крсташи
крсташки
крсташких
крсташког
крсти
крститеља
крстић
крстом
крсту
крстур
кру
круг
круга
кругова
кругови
круговима
кругу
кружни
кружног
круз
круна
круне
крунисан
крунисао
крунисања
крунисање
крунић
круном
круну
крупа
крупан
крупне
крупних
крусеро
крусес
крушевац
крушевца
крушевцу
крушедол
крушка
крушчица
крф
крчедин
кршења
кршење
крштење
крљ
крњевић
кс
ксенија
ку
куатро
куба
кубе
куби
кува
кувар
кувајт
кување
куга
куге
кугле
куд
куда
куева
куеста
кузмановић
кук
кука
кукавица
кукавице
куку
кукувија
кукуруз
кукуруза
кукујевци
кула
куле
кули
кулијакан
кулић
култ
култа
култура
културама
културе
култури
културна
културне
културни
културним
културних
културно
културног
културном
културној
културну
културом
културу
кулу
кум
кума
кумане
куманова
куманово
куме
куна
куне
кунео
куп
купа
купатила
купатило
купац
купање
купе
купер
купи
купила
купили
купиново
купио
купити
купова
куповине
куповину
купола
куполе
куполом
купу
купује
купују
курва
курир
курс
курса
курсеве
курт
кутија
кутије
кутију
кухиња
кухиње
кухињи
кухињу
куча
кућ
кућа
кућама
куће
кући
кућне
кућни
кућних
кућом
кућу
кфор
кјети
кљун
кључ
кључа
кључна
кључне
кључни
кључних
кључну
књ
књажевац
књажевско
књаз
књаза
књига
књигама
књиге
књигом
књигу
књиж
књижара
књижевна
књижевне
књижевни
књижевник
књижевника
књижевним
књижевних
књижевница
књижевници
књижевно
књижевног
књижевном
књижевност
књижевности
књижевностима
књижевној
књижевну
књизи
кћ
кћер
кћери
кћерка
кћерке
кћерком
кћерку
кћи
л
ла
лабораторија
лабораторије
лабораторији
лабуд
лав
лава
лавова
лавови
лагано
лагос
лагуна
ладислав
лаж
лажи
лажна
лажне
лажни
лажним
лажних
лажно
лаза
лазар
лазара
лазаревац
лазаревић
лазаревића
лазаро
лазе
лазић
лазо
лак
лака
лакатош
лаке
лаки
лаких
лако
лакташи
лаку
лакше
лакши
лалић
лан
ланац
ланаца
лангдок
ланд
лансиран
лансираних
лансирања
лансирање
лансирању
ланца
ланци
ланцу
лара
ларве
ларга
лари
лас
ласло
ласта
ластавица
лат
латина
латинска
латинске
латински
латинско
латинског
латинском
латинској
латковић
лаура
лаурелес
лацио
лађа
лађе
лајош
лајпциг
лајпцигу
лаћарак
лгбт
ле
лева
леве
леви
левице
лево
левог
левом
левој
леву
легат
легата
легенда
легенде
легенди
легија
легије
легура
легуре
лед
леда
ледена
леденог
леди
лединци
ледом
леду
лежао
леже
лежи
лежимир
лежишта
лек
лека
лекар
лекара
лекари
лекарског
лекић
леко
лекова
лекове
лекови
лековима
лековите
лексика
лексике
лексикографски
лексикон
лексичке
леле
лена
лентикуларна
лео
леон
леона
леонардо
леонид
леопард
леополд
леополда
леп
лепа
лепе
лепи
лепим
лепих
лепо
лепог
лепом
лепосавић
лепота
лепоте
лепоти
лепотица
лепотом
лепоту
лептир
лептира
лепу
лепше
лердо
лесковац
лесковачке
лесковачки
лесковачког
лесковачкој
лесковца
лесковцу
лесли
лестер
лет
лета
лете
летелица
летелице
летео
летења
летећи
лети
лето
летова
летове
летонија
летоније
летонији
летопис
летописа
лету
летња
летње
летњем
летњи
летњим
летњих
лече
лечења
лечење
лечењу
лечи
леш
лешинар
леђа
леђима
леђно
лејк
лењин
лењина
ли
либан
либану
либен
либерала
либерална
либералне
либертад
либија
либије
либији
ливада
ливадама
ливаде
ливерпул
ливерпула
лига
лиге
лиги
лигу
лигурија
лидер
лидера
лидери
лидија
лидс
лик
лика
лике
лики
ликова
ликове
ликови
ликовима
ликовна
ликовне
ликовни
ликовних
ликом
лику
лил
лили
лим
лима
лимон
лин
линарес
лингвиста
лингвистика
линда
линеарно
линија
линијама
линије
линији
линијом
линију
линколн
линукс
лио
лион
липа
лира
лирске
лирско
лиса
лисабон
лисица
лисице
лиска
лист
листа
листама
листе
листи
листића
листова
листове
листови
листовима
листом
листу
лит
литара
литванија
литваније
литванији
литванске
литвански
литература
литературе
литератури
литературу
лити
литургија
литургије
лиц
лица
лице
лицем
лиценце
лиценци
лиценцом
лиценцу
лици
лицима
лицу
личи
личко
лична
личне
лични
личним
личних
лично
личног
личном
личност
личности
личностима
личну
лишен
лишћа
лишће
лија
лијеж
лијепа
лијепо
лк
лко
лмс
ло
лоар
лоара
лобања
лобање
лов
лова
ловац
ловаца
ловачка
ловачке
ловачки
ловачких
лове
лови
ловра
ловства
ловство
лову
ловца
ловци
логика
логике
логички
лого
логор
логора
логораша
логоре
логорима
логору
логос
лоза
лозе
лозница
лои
лок
локалидад
локалита
локалитет
локалитета
локалитету
локална
локалне
локални
локалним
локалних
локално
локалног
локалном
локалној
локалну
локација
локацијама
локације
локацији
локацију
локомотива
локомотиве
лола
лом
лома
ломас
ломбардија
лонг
лондон
лондона
лондонски
лондону
лончар
лопез
лопта
лопте
лопти
лопту
лора
лорд
лорда
лорен
лорена
лорензо
лоренс
лоренцо
лорето
лори
лос
лот
лоте
лош
лоша
лоше
лошег
лошем
лошим
лоших
лојд
лу
луг
луд
луда
лудвиг
лудвига
луди
лудило
лудо
лужнички
луз
луизијана
луис
луиса
лук
лука
лукас
луке
луки
лукић
луковић
луком
луксембург
луксембурга
луку
луна
лусеро
луси
лусија
лутер
лутке
луци
луција
луције
луча
лучани
лучић
луш
луј
луја
луња
м
ма
магазин
магазина
магазину
магарац
магдалена
магистарског
магистрални
магистрирао
магија
магије
магла
магле
маглина
магнетно
магнетног
магнитуда
магнитуде
магнус
мада
мадагаскар
мадера
мадеро
мадона
мадрид
мадрида
мадриду
мазатлан
мак
макар
македонија
македоније
македонији
македонију
македонска
македонске
македонски
македонског
македонском
македонци
макс
макса
максим
максима
максимална
максималне
максимални
максимално
максималној
максималну
максимилијан
максимовић
максимум
мал
мала
мале
малезија
малезији
малена
мали
малим
малин
малих
мало
малог
малом
малој
малта
малте
малу
мам
мама
ман
мана
манастир
манастира
манастире
манастири
манастирима
манастирска
манастирске
манастирски
манастиру
манга
мандарин
мандат
мандата
мандић
мане
маневар
манзана
манифест
манифестација
манифестације
манифестацију
манифестује
манић
манојла
манојло
манојловић
манте
мантова
ману
мануел
манчестер
мао
мапа
мапастепек
мапе
мапи
мар
мара
маравиљас
марадик
марака
марамуреш
маратон
маргарет
маргарита
маргаритас
маргита
маре
мари
марибор
марин
марина
марине
маринко
маринковић
марино
марио
марион
марица
марија
маријан
маријана
маријано
марије
марији
маријом
марију
марић
марк
марка
марке
маркес
маркетинг
марко
марков
марковић
марковића
марком
маркос
маркс
марку
маркус
марна
марока
мароко
мароку
марпл
марс
марса
марсел
марсу
март
марта
мартин
мартина
мартинез
мартино
мартиновић
мартинци
мартонош
марту
мару
марчетић
марш
марша
маршал
маршала
марјановић
маса
масакр
масакра
масама
масачусетс
масе
маси
масив
масива
маска
маскарењас
маске
маскота
маску
масовна
масовне
масовни
масовним
масовних
масовно
масовног
масом
мастер
мастерс
масти
мастило
масу
мат
мата
матаморос
матвејев
мате
математика
математике
математику
математици
математичар
математичара
математичка
математичке
математички
математичких
математичког
математичком
матео
матер
матере
материце
материја
материјал
материјала
материјале
материјали
материјалима
материјална
материјалне
материјални
материјалних
материјално
материјалну
материјалом
материјалу
материје
матерњи
матеј
матеја
мати
матица
матице
матици
матична
матичне
матични
матија
матијас
матије
матић
матковић
мато
матрица
матрице
маузолеј
маунт
мах
маха
махала
махале
махмуд
махом
мач
мача
мачака
мачевима
мачем
мачерата
мачка
мачке
машина
машинама
машине
машински
машинског
машину
маште
мађ
мађара
мађари
мађарима
мађарска
мађарске
мађарски
мађарским
мађарских
мађарско
мађарског
мађарском
мађарској
мађарску
мај
маја
мајами
мајамију
мајер
мајицу
мајк
мајка
мајке
мајки
мајкл
мајкла
мајко
мајком
мајкрософт
мајку
мајмуна
мајо
мајор
мајора
мајстор
мајстора
мајстори
мају
мајци
мања
мање
мањег
мањем
мањи
мањим
мањина
мањине
мањинска
мањих
мањом
мањој
мању
маћедоније
мвп
мг
ме
мега
мед
меда
медаковић
медаља
медаље
медаљом
медаљу
медвед
медведа
меденица
медина
медисон
медитерана
медитеранским
медитерану
медицина
медицине
медицини
медицинска
медицинске
медицински
медицинским
медицинских
медицинског
медицинском
медицинској
медицинску
медицину
медија
медије
медији
медијима
медијске
медијски
медић
меза
мек
мека
меке
меки
мекленбург
мексика
мексикали
мексико
мексику
мексичка
мексички
мелбурн
мелбурну
меленци
мелодија
мелодије
мелчор
мембране
мемоари
мемоарима
меморија
меморијални
меморије
меморији
меморију
мен
мена
менаџер
менаџера
менаџмент
менаџмента
мендез
мендоза
мене
мени
менталне
менталних
ментално
менталног
ментор
меоки
мер
мера
мерама
мере
мерења
мерење
мери
мериленд
мерити
мермера
мерт
меру
мерцедес
меса
месец
месеца
месеци
месецима
месецу
месечно
меси
месина
мескитал
меските
мескитик
месна
месне
месни
месних
месног
месо
места
местима
место
местом
месту
месјеових
мет
мета
метак
метака
метал
метала
металац
метали
метална
металне
метални
металним
металних
метар
метара
метафора
мете
мети
метод
метода
методама
методе
методи
методија
методије
методом
методу
метохиског
метохија
метохије
метохији
метохијске
метохију
метра
метро
метроа
метју
механизам
механизама
механизма
механизми
механика
механике
механичке
механички
мехединци
мехмед
мехмеда
меч
меча
мечева
мечеве
мечеви
мечевима
мечу
меша
мешавина
мешавину
мешати
мешају
мешања
мешање
мешовита
мешовите
мешовити
мешовитим
мешовито
мештана
мештани
међ
међа
међу
међувремену
међународна
међународне
међународни
међународним
међународних
међународно
међународног
међународном
међународној
међународну
међуопштинске
међуопштински
међусобне
међусобни
међусобним
међусобно
међутим
меј
мејн
мења
мењала
мењао
мењати
мењају
мз
ми
миг
мигел
миграната
миграција
миграције
миди
мика
мики
микић
микропроцесор
микс
мил
мила
милагро
миладин
миладиновић
милан
милана
милано
милановац
милановић
милановца
милановцу
миланом
милану
миле
милева
милена
миленијума
миленко
миленковић
милер
милета
милетић
милеуснића
мили
миливоје
милиметара
милинковић
милион
милиона
милисав
милица
милице
милиција
милиције
милија
милијарде
милијарди
милијарду
милић
милићевић
милка
мило
милован
милована
миловановић
милорад
милорада
милорадов
милорадовић
милосав
милосављевић
милост
милости
милош
милоша
милошевић
милошевића
милошево
милошу
милоје
милојевић
милун
милутин
милутина
милутиновић
милутиновића
мимо
мин
мина
минас
минатитлан
мине
минерал
минерала
минерали
минералне
минералних
минерва
минесота
мини
минимална
минималне
минимални
минимално
минималној
минимум
министар
министара
министарка
министарског
министарства
министарство
министарству
министра
министре
министри
министру
минск
минска
минус
минут
минута
минути
минуту
минхен
минхену
мио
миодраг
миодрага
мир
мира
мирадор
мираз
миран
миранда
мири
мирис
мириса
мирка
мирко
мирковић
мирна
мирне
мирни
мирним
мирно
миро
мировне
мировни
мировним
мировног
миром
мирослав
мирослава
мирољуб
миру
мирјана
мис
мисао
мисисипи
мисија
мисије
мисији
мисију
мисле
мислећи
мисли
мислила
мислили
мислило
мислим
мислима
мислио
мислите
мислити
мислиш
мистерија
мистерије
мисури
мит
мита
митар
митинг
митингу
митић
митова
митови
митологија
митологије
митологији
митраљез
митраљеза
митровица
митровице
митровици
митровић
митрополит
митрополита
митрополија
митрополије
михаел
михаил
михаила
михаило
михаиловић
михаиловића
михаилу
михај
михајла
михајло
михајловић
михаљчић
мичел
мичиген
мичоакан
миш
миша
мишар
мишева
мишел
мишић
мишића
мишићи
мишићима
мишљења
мишљење
мишљењу
мијатовић
мијења
миља
миље
миљковић
мића
мићић
мк
мкд
мл
мла
млави
млад
млада
младе
младен
младена
младеновац
младеновић
млади
младим
младима
младих
младић
младића
младићи
младићу
младо
младог
младожења
младом
младост
младости
младу
младунци
млазни
млађа
млађе
млађег
млађи
млађим
млађих
млађу
мле
млека
млеко
млетачка
млетачке
млетачки
млечани
млин
мм
мн
мнемоника
многа
многе
многи
многим
многима
многих
много
многобројне
многобројни
многобројним
многобројних
множина
множине
мном
мноштво
мо
мобилне
мобилни
мог
мога
могао
могаше
могла
могле
могли
могло
могу
могућ
могућа
могуће
могућег
могући
могућим
могућих
могућност
могућности
могућностима
могућношћу
могућу
мод
мода
моде
модел
модела
моделе
модели
моделима
моделу
модена
модеран
модерна
модерне
модерни
модерним
модерних
модерно
модерног
модерном
модерној
модерну
модификација
модификације
модни
модрича
моду
модул
модула
мож
можда
можданог
може
можемо
можете
можеш
мозаик
мозак
мозга
мозгу
мозел
мок
мокрин
мокрина
мол
молбе
молбу
молдавија
молдавије
молдавији
моле
молекул
молекула
молекули
моли
молизе
молим
молимо
молино
молио
молитва
молитве
молитви
молитву
молити
моловин
мом
мома
момак
момака
моме
моменат
момент
момента
моменту
момир
момка
момци
момче
момчило
мон
монака
монако
монарх
монарха
монархија
монархије
монархији
монархију
монаси
монах
монаха
монахиња
монголи
монд
моника
монографија
монографије
монопол
монтана
монте
монтевидео
монтеморелос
монтес
монтреал
монтреалу
мор
мора
морава
мораве
морави
моравска
моравске
моравски
моравско
моравској
морал
морала
морале
моралес
морали
морална
моралне
морални
моралних
морално
морало
морам
морамо
морао
морате
морати
мораш
морају
морган
море
морелија
морелос
морем
морено
мори
морис
морисон
морнар
морнара
морнарица
морнарице
морнарици
морнарицу
моро
моровић
морска
морске
морски
морским
морских
морског
мору
морфологија
морфолошке
москва
москве
москви
москву
московска
московске
московски
московског
московском
мост
моста
мостар
мостара
мостару
мостова
мостови
мосту
мотив
мотива
мотиве
мотиви
мотивима
мотком
мото
мотозинтла
мотор
мотора
моторе
мотори
моторима
моторних
мотором
мохамед
мочвара
мочваре
мочварна
мошорин
мошти
моштију
мој
моја
моје
мојега
моји
мојим
мојих
мојо
мојом
мојој
мојсије
мојсијева
моју
моћ
моћан
моћи
моћна
моћне
моћни
моћног
мр
мраз
мрак
мрака
мраку
мрачна
мрачне
мрачни
мрежа
мрежама
мреже
мрежи
мрежом
мрежу
мржња
мржње
мржњу
мрзи
мрки
мркоњић
мртав
мртва
мртве
мртви
мртвих
мртво
мртвог
мт
мтв
му
мува
мудар
мудри
мудро
мудрост
мудрости
муж
мужа
мужем
мужу
мужјак
мужјака
мужјаци
муз
музеј
музеја
музеји
музеју
музика
музике
музиколошки
музиком
музику
музици
музичар
музичара
музичари
музичарка
музичка
музичке
музички
музичким
музичких
музичко
музичког
музичком
музичкој
музичку
мука
муке
мулехе
муниције
муницију
муп
мур
мурат
мурата
муреш
муса
муслимана
муслимане
муслимани
муслиманима
муслиманска
муслиманске
муслимански
муслиманским
муслиманских
муслиманско
муслиманског
мустафа
мухамед
мухамеда
мухарица
мученик
мученика
мучења
мучење
мучи
мушка
мушкарац
мушкараца
мушкарца
мушкарце
мушкарци
мушкарцима
мушке
мушки
мушких
мушко
мушког
мушком
мушкој
мушку
мујо
муња
муње
мфа
мјера
мјере
мјери
мјесец
мјесеца
мјесеци
мјесним
мјеста
мјестима
мјесто
мјесту
мјузикл
мљ
мљи
мљу
н
на
набавку
наваро
наведен
наведена
наведене
наведени
наведених
наведено
навела
навели
навело
навео
навести
навика
навике
навише
навијача
навијачи
наводе
наводећи
наводи
наводима
наводно
наводњавање
наволато
навохоа
навођење
наврата
нагиб
нагласак
нагласио
наглашава
нагли
нагло
наглог
нагорно
награда
наградама
награде
награди
наградом
награду
награђен
награђена
над
нада
надал
надала
надам
надао
надајући
надаљ
надаље
надбискуп
надбискупа
надгледа
надгробни
надгробних
наде
надежда
надзор
надзора
надзорник
надзором
нади
надимак
надимком
надлежан
надлежни
надлежним
надлежних
надлежног
надлежном
надлежност
надлежности
надморска
надморске
надморској
надмоћ
надоле
надомак
наду
наелектрисања
нажалост
назад
назвала
назвали
назван
названа
назване
названи
названо
назвао
назвати
назив
назива
називала
називали
називан
називао
називају
називе
називи
називима
називом
називу
наивне
наизглед
наизменично
наилази
наиме
наишао
наишла
наишли
наиђе
нак
накит
накита
наклади
наклоност
накнада
накнаде
накнадно
накнаду
након
накратко
налаже
налаз
налаза
налазе
налази
налазила
налазиле
налазили
налазило
налазимо
налазио
налазити
налазишта
налазиште
налик
наличного
налог
налогу
наложио
нам
нама
намена
намене
наменски
намену
намера
намерава
намеравао
намере
намери
намерно
намером
намеру
намесник
намесника
намесништво
намештај
намештаја
намењен
намењена
намењене
намењени
намењено
намењеног
намеће
намирница
намирнице
нан
нана
нанео
наноси
наопако
наоружан
наоружана
наоружане
наоружани
наоружаних
наоружања
наоружање
наоружању
напад
напада
нападали
нападао
нападач
нападача
нападају
нападе
напади
нападима
нападне
нападну
нападнут
нападом
нападу
напала
напале
напали
напао
напасти
написала
написали
написан
написана
написане
написано
написао
написати
напише
напокон
наполеон
наполеона
напомена
напомене
напоменути
напомиње
напон
напона
напор
напора
напоре
напори
напорима
напослетку
напоље
напољу
направа
направе
направи
направила
направили
направио
направити
направљен
направљена
направљене
направљени
направљено
напред
напредак
напредна
напредне
напредовала
напредовао
напредовања
напредовање
напредује
напретка
напретку
напријед
напротив
напусте
напусти
напустила
напустили
напустио
напустити
напушта
напуштају
напуштања
напуштање
напуштен
напуштена
напуљ
нар
нарави
наравна
наравно
наравописје
наравословнога
наранхо
наранхос
наредба
наредбе
наредби
наредбом
наредбу
нареди
наредила
наредио
наредна
наредне
наредни
наредник
наредним
наредних
наредног
наредном
наредној
наредну
наређено
наређења
наређење
наређењу
наређује
народ
народа
народе
народи
народима
народна
народне
народни
народним
народних
народно
народног
народном
народноослободилачка
народноослободилачке
народноослободилачки
народноослободилачког
народноослободилачком
народноослободилачкој
народности
народној
народну
народом
народу
нарочито
наручио
нас
наса
населе
населением
населения
населили
населио
насеља
насељава
насељавали
насељавају
насељавања
насељавање
насеље
насељен
насељена
насељени
насељеним
насељених
насељено
насељеном
насељености
насељима
насељу
насилно
насионал
насиља
насиље
наслаге
наследила
наследио
наследник
наследника
наследници
наследство
наслеђа
наслеђе
наслеђује
насликао
наслијеђе
наслов
наслова
наслови
насловна
насловној
насловну
насловом
наспрам
насред
настава
наставак
наставака
наставе
настави
наставила
наставиле
наставили
наставило
наставио
наставити
наставка
наставком
наставку
наставна
наставни
наставник
наставника
наставници
наставу
наставцима
наставља
настављају
настављен
настављена
настављени
настављено
настала
настале
настали
насталих
настало
настанак
настане
настанили
настанио
настанка
настанку
настао
настати
настаје
настају
настањује
настањују
настојали
настојао
настојању
настоји
наступ
наступа
наступала
наступали
наступао
наступају
наступе
наступи
наступила
наступили
наступима
наступио
наступу
насупрот
насљеђа
натали
наталија
наталије
наташа
натера
натерао
нато
натпис
натписа
натписи
натписима
натписом
натраг
натријум
наука
наукама
науке
науку
науци
науче
научи
научила
научио
научити
научна
научне
научни
научник
научника
научним
научних
научници
научницима
научно
научног
научном
научној
научну
нафта
нафте
нахија
нахије
нахији
нац
национализам
национализма
националиста
национална
националне
национални
националним
националних
национално
националног
националном
националности
националној
националну
нациста
нацисти
нацистичка
нацистичке
нацистички
нација
нације
нацрт
нацрта
начела
начелима
начелник
начелника
начело
начелу
начин
начина
начине
начини
начинио
начином
начину
наш
наша
нашао
наше
нашег
нашега
нашем
наши
нашим
наших
нашла
нашле
нашли
нашло
нашој
нашу
нађе
нађен
нађена
нађени
нађу
нај
најавила
најавио
најављен
најављено
најављује
најар
најарит
најближа
најближе
најближег
најближи
најбогатијих
најбоља
најбоље
најбољег
најбољем
најбољи
најбољим
најбољих
најбољу
најбрже
најбржи
најважнија
најважније
најважнији
најважнијих
највероватније
највећа
највеће
највећег
највећем
највећи
највећим
највећих
највећом
највећој
највећу
највиша
највише
највишег
највишем
највиши
највишим
највиших
најгоре
најдужа
најдуже
најдужи
најзад
најзначајнија
најзначајније
најзначајнији
најзначајнијих
најистакнутији
најистакнутијих
најкасније
најкориснији
најлепше
најлепши
најлепших
најмања
најмање
најмањи
најмању
најмлађа
најмлађе
најмлађи
најнижа
најнижи
најновије
најпознатија
најпознатије
најпознатији
најпознатијих
најпопуларнији
најпопуларнијих
најпосле
најпре
најприје
најпродаванији
најраније
најранији
најранијих
најстарија
најстарије
најстаријег
најстарији
најстаријих
најтеже
најтежи
најуспешнији
најуспешнијих
најутицајнијих
најчешћа
најчешће
најчешћи
најјача
најјаче
најјачи
наћи
нба
нбц
нво
нд
нда
ндак
ндх
не
неба
небеса
небеска
небеске
небески
небеског
небо
небом
небојша
небраска
небу
нева
невада
неважећа
невалидан
невен
невена
невенка
невероватан
невероватно
невесиње
невеста
невиност
невоља
невоље
невољи
нег
негативан
негативна
негативне
негативни
негативних
негативно
негда
негде
неге
него
неготин
неготину
негу
негује
неда
недавно
недалеко
недеља
недеље
недељи
недељко
недељков
недељковић
недељник
недељно
недељом
недељу
недић
недовић
недовољни
недовољно
недостатак
недостатака
недостатка
недостатке
недостатком
недостатку
недостаје
недостају
недуго
независан
независна
независне
независни
независних
независно
независног
независност
независности
независној
независну
незадовољан
незадовољни
незадовољства
незадовољство
незапослености
незваничним
незнатно
неисправна
нек
нека
некад
некада
некадашња
некадашње
некадашњег
некадашњи
некадашњих
некакав
некако
неке
неки
неким
некима
неких
неко
неког
некога
неколико
неком
некоме
некој
некропола
некрополе
неку
нелсон
нем
нема
немам
немамо
нематеријалног
немац
немаца
немачка
немачке
немачки
немачким
немачких
немачко
немачког
немачкога
немачком
немачкој
немачку
немаш
немају
немања
немање
немањић
немањића
немира
немири
немо
немогуће
немогућност
немогућности
немој
немојте
немце
немци
немцима
ненад
ненада
ненадовић
ненадовића
ненасељено
ненси
необичан
необична
необичне
необично
необјављених
неолита
неопходан
неопходна
неопходне
неопходни
неопходно
неочекивано
неподобан
непознат
непозната
непознате
непознати
непознатих
непознато
непознатог
непокретна
непокретних
непокретно
непокретности
непосредне
непосредни
непосредним
непосредно
непосредном
непосредној
непоуздан
неправде
неправилно
непрекидно
непрел
непрепознат
непрестано
непријатељ
непријатеља
непријатеље
непријатељем
непријатељи
непријатељима
непријатељске
непријатељски
непријатељских
непријатељства
непријатељство
непријатељу
непром
непромењено
нерадин
нерва
нервни
нервног
нереда
неретве
неретко
нерешено
несврш
неслагања
неслагање
несметано
несрећа
несреће
несрећи
несрећу
нестала
нестали
несталих
нестало
нестанак
нестане
нестанка
нестао
нестаје
нестају
нестор
несумњиво
нет
нето
неузина
неурона
неуспех
неуспеха
неуспехом
неуспешно
неутрона
нечега
нечему
нечим
нешић
нештин
нешто
нејасно
неједнакости
нећак
нећака
неће
нећемо
нећете
нећеш
нећу
ни
ниво
нивоа
нивое
нивои
нивоима
нивоу
нигде
нигерија
нигерије
нигерији
нижа
ниже
нижег
нижем
нижи
нижим
нижих
нижу
низ
низа
низак
низводно
низија
низије
низом
низу
ник
ника
никад
никада
никакав
никаква
никакве
никаквих
никакво
никаквог
никакву
никако
ники
никита
нико
никог
никога
никол
никола
николас
николај
николаја
николајевић
николе
николи
николић
николића
николом
николу
ником
никоме
никшић
никшића
никшићу
нил
нила
ним
нимало
нимфа
нин
нина
нингуно
нинковић
нисам
ниси
ниска
ниске
ниски
ниским
ниских
ниско
ниског
ниском
ниску
нисмо
нисте
нису
нит
нити
них
ница
ници
ниче
ниш
ниша
нишаве
нишка
нишке
нишки
нишког
нишкој
ништ
ништа
нишу
није
ниједан
ниједна
ниједно
ниједног
ниједну
нијесам
нијесу
нињо
нићифор
нк
нка
нных
но
ноб
нобелове
нобелову
нов
нова
новак
новака
новаковић
новац
новаца
новгород
новгорода
нове
новела
новембар
новембра
новембру
нови
новим
новина
новинама
новинар
новинара
новинаре
новинари
новинарима
новинарка
новинарство
новине
новинска
новински
нових
новица
новије
новијег
новији
ново
новог
новога
новом
новоме
новоосноване
новосадски
новости
новој
нову
новца
новцем
новцу
новчана
новчане
новчаница
новчанице
новчаном
новчану
новчића
новј
ног
нога
ногалес
ногама
ноге
ногом
ногу
нож
ножем
нокаут
нолит
ном
номбре
номенклатура
номенклатуре
номенклатури
номенклатуру
номинација
номинације
номинацију
номинован
номинована
ноп
нор
норвешка
норвешке
норвешки
норвешкој
норвешку
норија
норма
нормалан
нормална
нормалне
нормалним
нормално
нормалног
норман
нормандија
норме
норми
норму
норт
норте
нос
носа
носач
носача
носе
носећи
носи
носила
носилац
носилаца
носиле
носили
носио
носиоца
носиоци
носити
нота
ноу
ношење
ношња
ношње
ној
ноћ
ноћас
ноћи
ноћна
ноћне
ноћни
ноћу
нп
нпр
нр
нс
нт
ну
нуде
нуди
нуева
нуево
нужно
нуклеарна
нуклеарне
нуклеарни
нуклеарних
нуклеарног
нула
нуле
нули
нумера
нумере
нумеро
нути
нушић
нхл
нђ
о
оаза
оахака
об
оба
обавеза
обавезама
обавезан
обавезе
обавези
обавезна
обавезни
обавезно
обавезу
обавести
обавестио
обавештава
обавештајне
обавештења
обавештење
обави
обавио
обавити
обавља
обављала
обављао
обављати
обављају
обављања
обављање
обављен
обављена
обављено
обала
обалама
обале
обали
обалом
обалске
обалу
обама
обе
обедска
обезбеде
обезбеди
обезбедила
обезбедили
обезбедио
обезбедити
обезбеђена
обезбеђења
обезбеђење
обезбеђивање
обезбеђује
обезбеђују
обележава
обележавају
обележавања
обележавање
обележен
обележена
обележила
обележио
обележја
обележје
обећава
обећао
обећања
обећање
обзир
обзира
обзиром
обилазак
обилић
обилића
обим
обима
обиму
обичан
обичај
обичаја
обичаје
обичаји
обичајима
обичају
обична
обичне
обични
обичним
обичних
обично
обичног
обишао
обиље
обл
облак
облака
облаке
обласног
област
областеи
области
областима
облаци
облашћу
оближње
оближњег
оближњем
облик
облика
облике
обликовање
обликом
облику
облици
облицима
обложен
обнавља
обнављање
обнова
обнове
обнови
обновио
обнову
обновљен
обновљена
обновљене
обновљени
обод
ободу
оболелих
оборен
обори
оборила
оборио
обоје
обојица
обољења
обољење
обр
обрад
обрада
обраде
обради
обрадовић
обрадовића
обраду
образ
образа
образац
образложење
образован
образована
образовао
образовања
образовање
образовањем
образовању
образовне
образовни
образовних
образовно
образовног
образује
образују
обрати
обратио
обратити
обрачун
обрачуна
обрађује
обрађују
обраћа
обрегон
обред
обреда
обреж
обреновац
обреновић
обреновића
обреновцу
обрнуто
обровац
оброк
оброка
обронцима
обруч
обука
обуке
обуку
обухвата
обухватала
обухватао
обухватају
обуци
обучен
обучена
обучени
обуће
објаве
објави
објавила
објавили
објавио
објавити
објављен
објављена
објављене
објављени
објављених
објављено
објављеном
објављивао
објављивања
објављивање
објављује
објављују
објасни
објаснио
објаснити
објашњава
објашњења
објашњење
објашњењем
обје
објекат
објеката
објекта
објекте
објекти
објектима
објекту
ов
ова
овакав
оваква
овакве
овакви
оваквим
оваквих
овакво
оваквог
овако
овамо
оваца
овај
овде
овдје
ове
овен
оверња
ови
овим
ових
овк
овлашћења
овлашћење
ово
овог
овога
овом
овоме
овој
ову
овца
овце
овчар
ог
огар
огањ
огледа
огледала
огледало
огледалу
огледи
ограда
ограде
огранак
ограничава
ограничен
ограничена
ограничене
ограничени
ограниченим
ограничено
ограниченом
ограничења
ограничење
огранка
ографију
огроман
огромна
огромне
огромним
огромно
огромног
огромном
огромну
огњан
огњем
огњен
огњишта
огњиште
од
ода
одабран
одабрана
одабрао
одавде
одавно
одакле
одан
оданост
одатле
одаје
одају
одбаци
одбацио
одбацује
одбила
одбили
одбио
одбити
одбија
одбијао
одбијају
одбијања
одбијање
одбије
одбијен
одбор
одбора
одбори
одборника
одбору
одбојка
одбојкашице
одбојци
одбрамбене
одбрамбени
одбрамбених
одбрамбено
одбрамбеног
одбрана
одбране
одбрани
одбранила
одбранио
одбрану
одваја
одвајају
одвајања
одвајање
одведе
одведен
одведени
одвели
одвео
одвећ
одвија
одвијала
одвијао
одвијају
одводи
одвојен
одвојена
одвојене
одвојени
одвојено
одвоји
одвојио
одговара
одговарао
одговарају
одговарајућа
одговарајуће
одговарајућег
одговарајући
одговарајућим
одговарајућих
одговарајућу
одговор
одговора
одговоран
одговоре
одговори
одговорила
одговорио
одговорити
одговорна
одговорне
одговорни
одговорно
одговорност
одговорности
одговорношћу
оде
одела
одело
оделу
одељак
одељења
одељење
одељењу
одећа
одеће
одећи
одећу
оди
одиграла
одиграли
одигран
одиграна
одигране
одиграних
одиграно
одиграо
одисеј
одиста
одлагања
одлагање
одлаже
одлазак
одлазе
одлази
одлазио
одласка
одласку
одлика
одлике
одликован
одликована
одликовао
одликовања
одликовање
одликује
одликују
одличан
одличне
одличним
одлично
одломак
одлука
одлукама
одлуке
одлуком
одлуку
одлуци
одлучан
одлучено
одлучи
одлучивања
одлучила
одлучили
одлучио
одлучити
одлучно
одлучује
одлучују
одлучујући
одма
одмазде
одмах
одмор
одмора
одн
однела
однели
однео
однесе
однос
односа
односе
односи
односила
односима
односио
односити
односно
односом
односу
одобрава
одобрен
одобрења
одобрење
одобри
одобрила
одобрио
одозго
одоше
одр
одражава
одраз
одрасла
одрасле
одрасли
одраслих
одрастао
одред
одреда
одредаба
одредба
одредбама
одредбе
одредби
одреде
одреди
одредила
одредио
одредити
одредиште
одредница
одредом
одреду
одрекао
одрекне
одређен
одређена
одређене
одређени
одређеним
одређених
одређено
одређеног
одређеном
одређеној
одређену
одређивања
одређивање
одређивању
одређује
одређују
одрећи
одржава
одржавала
одржавале
одржавали
одржавао
одржавати
одржавају
одржавања
одржавање
одржавању
одржала
одржали
одржало
одржан
одржана
одржане
одржани
одржаним
одржано
одржаног
одржаном
одржаној
одржао
одржати
одржаће
одрже
одржи
одсек
одсека
одсеку
одсто
одступања
одступање
одсуства
одсуство
одсуству
оду
одувек
одузео
одузета
одузети
одузимање
одузме
одустала
одустане
одустао
одушевљење
одједном
одјељења
одјељење
оебс
ожени
оженио
ожењен
оз
озбиљан
озбиљна
озбиљне
озбиљних
озбиљније
озбиљно
озбиљну
озн
ознака
ознакама
ознаке
ознаком
ознаку
означава
означавају
означавање
означен
означена
означене
означени
означи
означила
означио
озулуама
ои
ок
ока
окампо
оквир
оквира
оквирима
оквиру
океан
океана
океану
оклахома
оклоп
оклопа
оклопна
оклопне
оклопни
оклопних
око
окозокоаутла
околина
околине
околини
околином
околину
околна
околне
околним
околних
околности
околностима
около
оком
окончан
окончана
окончао
окончања
окончању
окосинго
окр
окрене
окрену
окренуо
окренут
окренута
окренути
окреће
окриљем
округ
округа
округли
округов
округом
округу
окружен
окружена
окружења
окружење
окружењу
окружни
окружног
окружује
окружују
окрузи
окрузима
оксид
оксида
оксфорд
оксфорду
октобар
октобарске
октобра
октобру
оку
окупатора
окупационе
окупација
окупације
окупацијом
окупацију
окупи
окупили
окупио
окупирала
окупираној
окупља
окупљају
окупљања
окупљање
окупљени
ол
олакшава
олга
олд
олег
оливер
оливера
олимпик
олимпија
олимпијада
олимпијади
олимпијакос
олимпијска
олимпијске
олимпијски
олимпијским
олимпијских
олимпијског
олимпијском
олимпијску
олова
олово
олт
олтар
олтара
олтару
олуја
олује
ом
омар
омер
омиљена
омиљени
омладина
омладине
омладини
омладинске
омладински
омладинског
омладинском
омладину
омогућава
омогућавају
омогућавајући
омогућено
омогући
омогућила
омогућили
омогућило
омогућио
омогућити
омогућује
омотач
омољица
он
она
онако
онамо
онај
онда
ондак
онде
ондо
ондреј
оне
они
оним
онима
оних
онлајн
онных
оно
онов
оног
онога
онолико
оном
ономе
оној
онтарио
ону
оп
опада
опадања
опажаних
опази
опала
опао
опасан
опасна
опасне
опасно
опасност
опасности
опатија
опачић
опеке
опен
опера
оперативна
оперативне
оперативни
оперативним
оперативних
оперативно
оперативног
оперативну
оператор
оператора
операција
операцијама
операције
операцији
операцију
опере
опери
оперу
опет
опис
описа
описала
описали
описан
описана
описане
описани
описано
описао
описати
описивање
описима
описом
опису
описује
описују
описујући
опише
опово
опозиција
опозиције
опозицију
опоравак
опоравио
опоравка
опрема
опреме
опреми
опремом
опрему
опремљен
опремљена
опремљене
опремљени
опрости
опростио
опроштај
опсада
опсаде
опсади
опсаду
опсег
опсега
опсегу
опсерваторија
опсерваторије
опстанак
оптерећења
оптерећење
оптичке
оптички
оптичког
оптужбе
оптужби
оптужен
оптужени
оптуженог
оптужио
оптужује
опус
опција
опције
опцију
општа
опште
општег
општем
општи
општим
општина
општинама
општине
општини
општином
општинска
општинске
општински
општинских
општинског
општину
општих
општој
општу
опљачкали
ор
орао
орах
ораховац
орање
орбитални
орбите
орбити
орбитом
орбиту
орган
органа
органе
органи
организам
организама
организатор
организатора
организатори
организационе
организација
организацијама
организације
организацији
организацијом
организацију
организма
организми
организму
организовала
организовали
организован
организована
организоване
организовани
организовано
организованог
организовао
организовати
организовања
организовање
организовању
организује
организују
органима
органске
органских
органу
орден
ордена
орденом
орегон
оригинал
оригинала
оригиналан
оригинална
оригиналне
оригинални
оригиналним
оригиналних
оригинално
оригиналног
оригиналном
оригиналну
оригиналу
оријентација
оријентације
оријентацију
оркестар
оркестра
оркестром
орла
орландо
орловат
орлови
орнитологије
орнитологију
орнитолошка
орнитолошке
орнитолошки
орнитолошких
орнитолошког
орнитолошком
орнитолошку
орнитофауна
орнитофауне
оро
ортега
ортиз
оружане
оружани
оружаним
оружаних
оружаног
оружја
оружје
оружјем
оруђа
оруђе
орфелин
ос
оса
осам
осамдесет
осамдесетих
осамнаест
осваја
освајао
освајач
освајача
освајачи
освајају
освајања
освајање
освајањем
освајању
освета
освете
освети
осветио
освету
осветљење
освештао
освећена
освоје
освојен
освојена
освојене
освојених
освојено
освојену
освоји
освојивши
освојила
освојиле
освојили
освојио
освојити
осе
осети
осетио
осетљив
осетљивост
осећа
осећала
осећам
осећао
осећати
осећај
осећаја
осећају
осећања
осећање
оси
осигура
осигурао
осигурања
осигурање
осим
осијек
осијеку
оскар
оскара
ослања
ослањају
ослањајући
осликао
осло
ослобађа
ослобађају
ослобађања
ослобађање
ослободе
ослободи
ослободила
ослободилачке
ослободили
ослободио
ослободити
ослобођен
ослобођена
ослобођени
ослобођења
ослобођење
ослобођењу
ослонац
ослу
осма
осман
османлија
османлијама
османлије
османска
османске
османски
османским
османских
османско
османског
османском
осматрачки
осме
осмех
осми
осмини
осмислио
осмо
осмог
осмом
осн
оснива
оснивач
оснивача
оснивачи
оснивају
оснивања
оснивање
оснивањем
оснивању
основ
основа
основала
основали
основама
основан
основана
основане
основани
основано
основао
основаца
основе
основи
основна
основне
основни
основним
основних
основно
основног
основном
основној
основну
основом
основу
оснује
особа
особама
особе
особи
особина
особинама
особине
особитим
особито
особу
особља
особље
осовине
оста
оставе
остави
оставивши
оставила
оставили
оставио
оставити
оставке
оставку
оставља
остављају
остављајући
остаде
остала
остале
остали
осталим
осталима
осталих
остало
осталог
осталом
остане
остану
остао
остатак
остатака
остати
остатка
остатке
остатком
остатку
остаци
остацима
остаје
остају
остаће
остваре
остварен
остварена
остварења
остварење
оствари
остваривања
остваривање
остваривању
остварила
остварили
остварио
остварити
остварује
остварују
остин
остојић
остојићево
остојићеву
острва
острвима
острво
острвској
острву
острогорски
осу
осуде
осудио
осумњичени
осуђен
осуђена
осуђени
осуђено
осуђује
от
отац
отаца
отаџбина
отаџбине
отаџбини
отаџбинског
отаџбину
отвара
отварају
отварања
отварање
отварањем
отварању
отвор
отвора
отворе
отворен
отворена
отворене
отворени
отвореним
отворених
отворено
отвореног
отвореном
отворену
отвори
отворила
отворили
отворио
отворити
отело
отиде
отисак
отишао
отишла
отишли
отићи
откад
отказ
откако
открива
откривају
откривања
откривање
откривен
откривена
откривене
откривени
откривено
открила
открили
открио
открити
открије
открију
открића
откриће
откуд
откуда
откуп
откупио
отмар
ото
оток
отока
отон
отпад
отпада
отпадних
отпор
отпора
отпорност
отпочела
отпочели
отпочео
отприлике
отпутовао
отпуштен
отров
отуд
отуда
оун
оф
офа
офанзива
офанзиве
офанзиви
офанзиву
официр
официра
официре
официри
официрима
офк
офу
ох
охајо
охо
охрид
охридски
охридског
оц
оца
оцем
оцена
оцене
оцени
оценио
оценом
оцену
оци
оцу
оч
оче
очева
очеве
очекивали
очекивало
очекивао
очекивати
очекивања
очекује
очекују
очи
очигледно
очима
очисти
очију
очуван
очувана
очувани
очувања
очување
очувању
ош
оштар
оштећен
оштећена
оштећени
оштећења
оштећење
оштра
оштре
оштрим
оштро
ој
ојача
ојачао
оће
п
па
пабло
павел
павелић
павија
павиљон
павић
павићевић
павковић
павла
павле
павлиш
павловић
павловића
павлу
пад
пада
падавина
падавине
падају
паде
падеж
падеј
падина
падинама
падине
падини
падне
падова
падом
паду
пажљиво
пажња
пажње
пажњу
паз
пазар
пазара
пазару
пази
пазови
пак
пакао
пакет
пакета
пакистан
пакистана
пакистану
пакла
пакт
пакта
пала
паланка
паланке
паланци
паласио
палата
палате
палати
палатинат
палату
пале
паленке
палеолог
палеолога
палермо
палестине
палестини
пали
палилула
палим
палма
палмар
палмас
пало
паломас
палос
памет
паметан
памети
памти
памук
памука
памћења
памћење
пан
панама
пандемије
пандуревић
панк
панонске
панорама
панталоне
пантелић
пантић
пануко
панцер
панчева
панчево
панчеву
панчић
пао
паоло
паорске
папа
папантла
папе
папи
папир
папира
папиру
папом
папу
пар
пара
парагвај
параге
парада
параде
параисо
паралелне
паралелно
парамет
параметар
параметара
параметра
параметри
парахе
параћин
параћину
паре
парења
пари
париз
париза
паризу
париске
париски
парк
парка
паркер
паркинг
паркова
паркови
парковима
парком
парку
парламент
парламента
парламентарна
парламентарне
парламентарни
парламентарним
парламентарних
парламенту
парма
парне
парни
парова
парови
паровима
пародија
паром
парох
пароха
парохија
парохије
парохији
парохијски
парсека
парсела
партизан
партизана
партизане
партизани
партизанима
партизаном
партизанска
партизанске
партизански
партизанским
партизанских
партизанског
партизану
партија
партије
партији
партијом
партијске
партијски
партијских
партијског
партију
партнер
партнера
партнери
партнерство
пару
парцели
парче
пас
паса
паскал
пасо
пасош
пасоша
паст
пасти
пастир
пастирица
пастирска
пасуљ
патака
пате
патент
пати
патка
патке
патрик
патријарх
патријарха
патријаршија
патријаршије
патње
пауза
паузе
паул
паула
пауло
паун
пауновић
пацифика
пацифику
пацијената
пацијент
пацијента
пацијенти
пацијентима
пачир
паша
паше
паши
пашић
пашића
пашу
пашњацима
паја
пајтон
паљарес
паљење
пво
пгп
пе
пев
пева
певала
певао
певач
певача
певачи
певачица
певачице
певају
певања
певање
пегаз
педагог
педагошки
педесет
педесетих
педрегал
педро
пежо
пезаро
пекинг
пекингу
пекић
пеле
пен
пенал
пенала
пензионисан
пензионисани
пензионисања
пензије
пензији
пензијског
пензију
пениса
пенсилванија
пенхамо
пепела
пепео
пер
пера
пераја
пере
перез
перепись
пери
период
периода
периоде
периодима
периоду
периферији
перихел
перишић
перић
перл
перлез
перо
перовић
перс
персијанаца
персијанци
персије
персијске
персијски
персијског
персијском
перспектива
перспективе
перу
перуа
перуу
перуђа
перформанс
перформансе
перформанси
перја
перје
песак
песама
песка
песма
песмама
песме
песми
песмом
песму
песн
песни
песник
песника
песникиња
песници
пет
пета
петак
петар
пете
петер
петербург
петербурга
петербургу
пети
петка
петке
петковић
петлић
петнаест
пето
петог
петом
петоро
петој
петра
петрановић
петрић
петров
петрова
петровац
петровић
петровића
петрово
петровца
петровцу
петрограду
петром
петру
пету
петља
петље
пехар
пецић
печат
печата
пече
печење
пешадија
пешадије
пешадијска
пешадијске
пешадијски
пешадијског
пешака
пешикан
пешић
пешке
пешти
пешчара
пеј
пејзаж
пејзажа
пејџ
пења
пење
пећ
пећи
пећина
пећине
пећини
пећину
пећинци
пећке
пи
пива
пиве
пивнице
пиво
пиза
пик
пика
пикардија
пила
пилас
пиле
пилот
пилота
пилоти
пин
пинк
пино
пинос
пинјин
пио
пионир
пионира
пирамида
пирамиде
пирене
пиринач
пиринеји
пиринча
пирот
пирота
пиротски
пиротског
пиротском
пироту
пирс
писала
писали
писало
писама
писан
писана
писане
писани
писаним
писаних
писано
писао
писар
писати
писац
писаца
писања
писање
писањем
писању
писма
писмено
писмености
писмима
писмо
писмом
писму
писца
писци
писцима
писцу
пит
пита
питам
питао
питају
питања
питање
питањем
питањима
питању
питер
питера
пити
пихихијапан
пише
пиштољ
пиштоља
пишу
пишући
пиј
пијан
пијаниста
пијаца
пијаце
пијаци
пије
пијевац
пиједра
пиједрас
пијемонт
пију
пића
пиће
пк
пл
пла
плава
плаве
плави
плавим
плаво
плавог
плавом
плаву
плажа
плаже
плажи
плазме
плакати
плакета
пламен
пламена
пламену
план
плана
планета
планете
планети
планету
планина
планинама
планине
планини
планинска
планинске
планински
планинским
планинских
планинско
планинског
планинском
планину
планира
планиран
планирана
планирано
планирао
планирају
планирања
планирање
планова
планове
планови
плановима
планом
плану
пласира
пласирала
пласирале
пласирали
пласирао
пласман
пласмана
пласману
пластике
плата
плате
плати
платио
платити
платичево
платна
платно
платном
платну
плато
платон
платонова
платоу
плату
платформа
платформе
платформи
платформу
плач
плаче
плаши
плаја
плајас
плаћа
плаћали
плаћају
плаћања
плаћање
пле
племе
племена
племенима
племенити
племену
племић
племића
племићи
племићке
племства
племство
плен
плена
плес
плеса
плесачица
плесецк
плеј
плзењ
пливао
пливач
пливање
пливању
плиска
плискуша
плитким
пловидбе
пловидбу
пловила
пловка
плод
плода
плодно
плодности
плодова
плодове
плодови
плоча
плочама
плоче
плочи
плочица
плочице
плочу
плус
плућа
плућне
по
поаро
поату
побегао
побегла
побегли
побегне
побегну
победа
победама
победе
победи
победивши
победила
победиле
победили
победио
победити
победник
победника
победница
победнице
победници
победничка
победом
победу
побеђује
побећи
побиједио
побољша
побољшава
побољшања
побољшање
побољшању
побратиме
побрђа
побрђе
побуна
побуне
побуни
побуну
побуњеника
побуњеници
побуњеницима
побједа
побједе
побједи
побједник
побједу
поведе
повеже
повезан
повезана
повезане
повезани
повезаних
повезано
повезаност
повезаности
повезао
повезати
повезивања
повезивање
повезује
повезују
повео
поверена
повереник
поверења
поверење
поверио
повесница
повестница
повеља
повеље
повељи
повељу
повећа
повећава
повећавају
повећала
повећан
повећана
повећане
повећао
повећати
повећања
повећање
повећањем
повећању
повика
повијест
повластице
повлаче
повлачења
повлачење
повлачењу
повлачи
повод
поводом
повољан
повољно
повр
повратак
поврате
поврати
повратио
повратити
повратка
повратку
повреда
повредама
повреде
повредио
повреду
повремено
повређен
повређене
повређених
повређено
повртарске
површи
површина
површинама
површине
површини
површином
површински
површину
поврћа
поврће
повукао
повукла
повукле
повукли
повуку
повуче
повучен
повући
пог
погађа
погибе
погибије
погинула
погинули
погинулих
погинуло
погинуо
погл
поглавар
поглавара
поглавито
поглавица
поглавља
поглавље
поглављу
поглед
погледа
погледати
погледај
погледајте
погледе
погледи
погледом
погледу
погодак
погодака
погодан
погоди
погодила
погодио
погодна
погодно
погон
погона
погоном
поготка
поготово
погођен
погођена
погр
погрешан
погрешно
погуби
погубио
погубљен
погубљења
погубљење
под
пода
поданика
податак
података
податке
подаци
подацима
подвиг
подврста
подврсте
подгорица
подгорице
подгорици
подебљана
подебљани
подела
поделе
подели
поделила
поделили
поделио
поделити
поделом
поделу
подељен
подељена
подељене
подељени
подељених
подељено
подземне
подземни
подземних
подигао
подигла
подигли
подигне
подигну
подигнут
подигнута
подигнуте
подигнути
подигнуто
подигоше
подиже
подижу
подизања
подизање
подизању
подин
подићи
подлога
подлоге
подлогу
подлози
подморница
подморнице
подне
поднела
поднео
поднесе
поднети
подножју
подносе
подноси
подов
подразумева
подразумевају
подржава
подржавала
подржавали
подржавао
подржавају
подржала
подржали
подржао
подржи
подружница
подрум
подруму
подручја
подручје
подручјем
подручјима
подручју
подршка
подршке
подршком
подршку
подршци
подсетио
подсећа
подсећају
подстакао
подстицај
подстицање
подстиче
поду
подухват
подједнако
поезија
поезије
поезији
поезију
поема
поен
поена
поени
поетика
пожар
пожара
пожаревац
пожаревца
пожаревцу
пожару
пожега
пожеге
поживи
поза
позади
позадина
позадине
позадини
позадину
позајмици
позајмицу
позвала
позвали
позван
позвана
позвани
позвао
поздрав
поздрави
позив
позива
позивао
позивају
позивајући
позивница
позиву
позитиван
позитивна
позитивне
позитивни
позитивних
позитивно
позиција
позицијама
позиције
позицији
позицију
позн
позна
познавао
познавање
познавању
познат
позната
познате
познати
познатим
познатих
познатија
познатији
познато
познатог
познатом
познатој
познату
познаје
познајем
познају
позо
позове
позоришна
позоришне
позоришни
позоришним
позоришних
позоришног
позоришну
позоришта
позориште
позоришту
позорје
пок
покаже
покажу
показа
показала
показале
показали
показало
показао
показатељ
показати
показивао
показује
показују
показујући
поклапа
поклон
поклоне
поклони
поклонила
поклонио
покори
покојника
покојног
покољ
покрај
покрајина
покрајинама
покрајине
покрајини
покрајинске
покрајински
покрајинског
покрајину
покрене
покренула
покренули
покренуо
покренут
покренута
покренути
покрет
покрета
покретач
покретања
покретање
покрете
покрети
покретима
покретне
покретни
покретних
покретом
покрету
покреће
покрећу
покрива
покривач
покривају
покривен
покривена
покривене
покровитељ
покровитељством
покуша
покушава
покушавала
покушавали
покушавао
покушавају
покушавајући
покушала
покушали
покушао
покушати
покушај
покушаја
покушаје
покушаји
покушајима
покушају
покућства
пол
пола
полагање
полаже
полажу
полазе
полазећи
полази
полако
полет
полетео
полетна
политика
политике
политикин
политиком
политику
политици
политичар
политичара
политичари
политичка
политичке
политички
политичким
политичких
политичко
политичког
политичком
политичкој
политичку
полицајац
полицајаца
полицајца
полицајци
полиција
полиције
полицији
полицијом
полицијска
полицијске
полицијски
полицијских
полицијског
полицијској
полицијску
полицију
полне
полни
полно
поло
полова
половина
половине
половини
половином
половину
положај
положаја
положаје
положајем
положајима
положају
положено
положи
положио
полу
полувремену
полуострва
полуострво
полуострву
полураспада
полуфинала
полуфинале
полуфиналне
полуфиналу
пом
помагала
помагали
помагао
помаже
помажу
помажући
помаз
помази
помало
помен
помена
поменута
поменуте
поменути
поменутих
поменутог
помера
померанија
померања
померање
помешане
помисли
помиње
помињу
помогао
помогла
помогли
помогло
помогне
помогну
помози
поморска
поморске
поморски
поморских
поморског
поморску
помоћ
помоћи
помоћне
помоћни
помоћник
помоћника
помоћних
помоћу
понавља
понављају
понављања
понављање
понаша
понашају
понашања
понашање
понашањем
понашању
понајвише
понедељак
понекад
понео
понесе
понишавља
понови
поновио
поновно
поновног
поновном
поново
понор
понос
поноса
поноћ
поноћи
понте
понуда
понуде
понуди
понудио
понуду
поп
попа
попадић
попео
попис
пописа
пописано
пописима
попису
поплава
поплаве
попов
попова
поповић
поповића
поподне
поправи
поправке
попречног
поприште
популаран
популарна
популарне
популарни
популарних
популарно
популарност
популарности
популарној
популациони
популација
популације
популацији
популацијом
популацију
попут
пор
порабу
поражен
поражена
поражени
пораз
пораза
порази
поразила
поразили
поразио
поразом
поразу
порасла
пораст
пораста
порастао
порастом
порасту
порвенир
поред
поредак
порез
пореза
порезе
порекла
порекло
пореклом
пореклу
поремећај
поремећаја
поремећаје
поремећаји
пореских
поретка
поретку
поређења
поређење
поређењу
поријекла
поријекло
порно
породица
породицама
породице
породици
породицом
породицу
породична
породичне
породични
породичним
породичних
породично
породичног
породичном
породичној
породичну
порођаја
порт
порта
портал
портала
портали
порталу
порте
порти
порто
порторико
портпарол
портрет
портрета
портрете
портрети
португал
португала
португалија
португалије
португалији
португалски
португалу
порука
поруке
поруку
поручио
поручник
поручника
порфирогенит
посада
посаде
посадом
посаду
посао
посвети
посветила
посветио
посвећен
посвећена
посвећене
посвећени
посвећено
посвећену
посвећује
посебан
посебна
посебне
посебни
посебним
посебних
посебно
посебног
посебном
посебној
посебну
посед
поседа
поседе
поседи
поседовао
поседу
поседује
поседују
поселении
посета
посете
посети
посетила
посетилаца
посетили
посетио
посетиоце
посетиоци
посетиоцима
посету
посећено
посећује
посећују
посла
послала
послали
посланик
посланика
посланике
посланица
посланици
посланичких
послао
послат
послата
послати
после
последица
последицама
последице
последицу
последња
последње
последњег
последњем
последњи
последњим
последњих
последњој
последњу
послије
послова
пословања
пословање
пословању
послове
послови
пословима
пословица
пословице
пословна
пословне
пословни
пословних
пословно
пословног
послом
послу
послужи
послужила
послужио
послужити
послушност
послује
посматра
посматрао
посматрати
посматрач
посматрача
посматрају
посматрања
посматрање
посмртни
посредно
посредовање
посредством
пост
поста
постава
поставе
постави
поставила
поставили
поставио
поставити
поставка
поставке
поставу
поставши
поставља
постављао
постављају
постављања
постављање
постављањем
постављен
постављена
постављене
постављени
постављених
постављено
постаде
постала
постале
постали
постало
постане
постану
постао
постати
постаје
постају
постдипломске
постепено
постигавши
постигао
постигла
постигли
постигне
постигну
постигнут
постигнута
постигнути
постигнутих
постигнуто
постигнутог
постигнутом
постиже
постижу
постизао
постизања
постизање
постићи
посто
постојала
постојале
постојали
постојало
постојао
постојати
постојања
постојање
постојању
постоје
постојеће
постојећег
постојећи
постојећим
постојећих
постоји
постројења
поступа
поступак
поступака
поступка
поступке
поступком
поступку
поступно
поступци
поступцима
постхумно
посуда
посуде
посуђе
посједује
посљедњи
пот
потајно
потврда
потврде
потврди
потврдила
потврдили
потврдио
потврду
потврђен
потврђена
потврђено
потврђује
потврђују
потез
потеза
потезу
потекла
потенца
потенцијал
потенцијала
потенцијалне
потенцијални
потенцијалних
потенцијално
потер
потера
потеру
потешкоћа
потешкоће
потиска
потицао
потиче
потичу
поткивачка
поток
потока
потоку
потом
потомак
потомака
потомства
потомство
потомци
потоси
потоњи
потпис
потписа
потписала
потписали
потписан
потписао
потписивања
потписивањем
потписује
потпише
потпоручник
потпредседник
потпредседника
потпуковник
потпуковника
потпун
потпуна
потпуне
потпуни
потпуно
потпуног
потпуном
потпуности
потпуну
потрага
потрагу
потражи
потраживања
потражите
потрази
потреба
потребама
потребан
потребе
потреби
потребна
потребне
потребни
потребних
потребно
потребну
потребу
потреро
потрошача
потрошачи
потрошња
потрошње
потрошњу
поуздан
поуздано
поузданост
похађа
похађала
похађао
похађају
похвала
похвале
похвалио
поход
похода
походе
походу
поч
почасни
почасног
почаст
почасти
поче
почев
почевши
почела
почеле
почели
почело
почео
почетак
почети
почетка
почетком
почетку
почетна
почетне
почетни
почетнике
почетним
почетних
почетног
почеци
почеше
почива
почивају
починили
починио
почиње
почињу
почне
почну
пошао
пошаље
пошаљу
пошла
пошли
пошло
пошта
поштанске
поште
поштеда
поштен
поштено
пошто
поштован
поштовати
поштовања
поштовање
пошту
поштује
поштују
пође
пој
појава
појаве
појави
појавила
појавиле
појавили
појавило
појавио
појавити
појавом
појаву
појављивао
појављивања
појављивање
појављује
појављују
појам
појас
појаса
појасу
појачава
појачана
појачања
појачање
поједина
појединац
појединаца
појединачна
појединачне
појединачни
појединачним
појединачних
појединачно
појединачној
поједине
поједини
појединим
појединих
појединца
појединце
појединци
појединцима
појма
појмова
појмове
појмови
појмом
пољ
поља
пољака
пољана
пољаци
поље
пољем
пољима
пољопривреда
пољопривреде
пољопривреди
пољопривредна
пољопривредне
пољопривредни
пољопривредним
пољопривредних
пољопривредно
пољопривредног
пољопривредну
пољопривредом
пољопривреду
пољска
пољске
пољски
пољским
пољских
пољско
пољског
пољском
пољској
пољску
пољу
пољубац
пољуби
поћи
ппнп
ппј
пр
пра
прав
права
правац
праваца
правда
правде
правди
правду
праве
праведан
правећи
прави
правила
правилан
правили
правилима
правилник
правилно
правило
правилу
правим
правима
правио
правити
правих
правн
правна
правне
правни
правник
правника
правним
правних
правно
правног
правном
правну
право
правог
правом
правопис
православаца
православна
православне
православни
православним
православних
православно
православног
православном
православној
православну
православци
православља
православље
правосуђа
правоугаоне
правоугаоног
правој
праву
правца
правцем
правци
правцима
правцу
прављење
праг
прага
прагу
празан
празна
празне
празник
празника
празнике
празници
праисторије
пракса
праксе
пракси
праксу
практична
практичне
практично
прате
пратеће
пратећи
прати
пратила
пратилац
пратили
пратио
пратити
пратњи
пратњу
прах
прахова
прашина
прашине
прање
праћен
праћена
праћено
праћења
праћење
прва
првак
првака
првакиња
прваци
прве
првенстава
првенства
првенствених
првенствено
првенствима
првенство
првенству
први
првим
првима
првих
прво
првобитна
првобитне
првобитни
првобитно
првобитног
првог
првога
првом
првопласирана
првопласиране
првој
прву
пре
пребаци
пребацивање
пребацио
пребацује
пребачен
пребачена
пребачени
пребивалиште
превара
преваре
превари
преварио
превару
превасходно
преведен
преведена
преведено
превенцију
превео
превести
превише
превласт
превод
превода
преводе
преводи
преводилац
преводио
преводу
превоз
превоза
превођење
преглед
прегледа
прегледано
прегледу
преговара
преговора
преговоре
преговори
преговорима
пред
преда
предавао
предавач
предавања
предавање
предак
предака
предала
предали
предао
предат
предати
предаја
предаје
предају
предања
предање
предању
предвидео
предвиђа
предвиђао
предвиђање
предвиђен
предвиђена
предвиђене
предвиђено
предводи
предводили
предводио
предвођена
предвођени
предговор
предграђа
предграђе
предграђу
предела
пределе
пределима
пределу
предео
предлаже
предлог
предлога
предлоге
предлогом
предлогу
предложено
предложила
предложили
предложио
предлози
предмет
предмета
предмете
предмети
предметима
предмету
предност
предности
предраг
предрага
председавао
председавајући
председник
председника
председником
председнику
председница
председници
председнички
председничким
председништва
председништво
представа
представама
представе
представи
представила
представили
представио
представити
представник
представника
представнике
представници
представницима
представништва
представништво
представом
представу
представља
представљала
представљале
представљали
представљало
представљао
представљати
представљају
представљајући
представљања
представљање
представљен
представљена
представљене
представљени
представљено
предсједник
предсједника
предузео
предузети
предузетник
предузећа
предузеће
предузећима
предузећу
предузима
предузме
предња
предње
предњег
предњем
предњи
предњим
предњој
преживела
преживеле
преживели
преживелих
преживело
преживео
преживи
преживљавање
презентација
презентације
президијума
презиме
презимена
преименован
преименована
прекид
прекида
прекидима
прекине
прекинула
прекинуо
прекинут
прекинута
прекинути
преко
прекривен
прекривена
прекршај
прел
прелаз
прелаза
прелазак
прелазе
прелази
прелазни
прелазног
прелазу
преласка
прелиминарни
прелиминарним
прем
према
премда
премештен
премештена
преминула
преминуо
премијер
премијера
премијере
премијерно
премијеру
прен
пренели
пренео
пренесе
пренета
пренети
пренос
преноса
преносе
преноси
преносу
преношење
преображења
преокрет
преостала
преостале
преостали
преосталих
преостало
препелица
преподобни
препознавање
препознао
препознати
препознатљив
препознаје
препознају
препонама
препоне
препород
препорука
препоруке
препоручује
препрека
препреке
прерада
прераде
прерадовић
прераду
прерасла
прес
преса
пресвете
пресек
пресека
пресеку
пресели
преселила
преселили
преселио
престала
престали
престало
престанак
престане
престанка
престанку
престао
престати
престаје
престају
престо
престола
престолонаследник
престолонаследника
престолу
престоница
престонице
престоници
престоницу
пресуда
пресуде
пресуду
претвара
претварају
претварање
претворен
претворена
претвори
претворила
претворио
претворити
претежна
претежно
претерано
претеча
претече
прети
претплата
претпоставити
претпоставка
претпоставке
претпоставља
претрага
претраге
претрес
претреса
претрпела
претрпели
претрпео
претходи
претходна
претходне
претходни
претходник
претходника
претходним
претходних
претходно
претходног
претходном
претходној
претходну
претња
претње
претњи
претњом
претњу
преузела
преузели
преузео
преузет
преузети
преузето
преузима
преузимају
преузимања
преузимање
преузме
преузму
префектура
префектуре
префектури
преци
прецизније
прецизно
прецизност
пречник
пречника
пречником
пречнику
прешао
прешла
прешле
прешли
прешло
прешовском
прештампано
пређашње
пређашњи
пређе
пређу
прећи
при
прибављено
приближава
приближан
приближи
приближно
прибор
прибој
приватизација
приватна
приватне
приватни
приватним
приватних
приватно
приватног
приватном
приватној
приватну
привидна
привилегија
привилегије
привлаче
привлачи
привлачност
привреда
привреде
привреди
привредна
привредне
привредни
привредник
привредним
привредних
привредно
привредног
привредном
привреду
привремена
привремене
привремени
привремено
привременог
привремену
привукао
привукла
привуче
прид
придев
придева
придруже
придружи
придружила
придружили
придружио
придружује
придружују
приземљу
призна
признала
признали
признао
признат
призната
признате
признати
признаје
признају
признања
признање
призор
призрен
призрена
призрену
прикаже
приказ
приказа
приказан
приказана
приказане
приказани
приказано
приказао
приказати
прикази
приказивала
приказивана
приказивања
приказивање
приказује
приказују
прикупио
прикупља
прикупљања
прикупљање
прикупљању
прикључио
прил
прилагођавања
прилагођавање
прилагођен
прилаз
прилази
прилеп
прилив
прилика
приликама
прилике
приликом
прилику
прилици
прилично
прилог
прилога
прилоге
прилози
прилозима
прим
прима
примавера
примао
примарна
примарне
примарни
примарно
примају
примања
примање
приме
примена
примене
примени
применити
применом
примену
пример
примера
примерак
примерака
примере
примери
примерима
примерка
примеру
примерци
примети
приметили
приметио
приметити
примењена
примењене
примењених
примењену
примењује
примењују
примећен
примећује
прими
примила
примили
примио
примирја
примирје
примити
приморан
приморана
приморани
приморао
приморска
приморске
приморски
приморских
приморско
приморја
приморје
приморју
примјер
примљен
примљена
примљени
принос
принуђен
принуђена
принц
принца
принцеза
принцезе
принцип
принципа
принципе
принципи
принципима
принципу
приоритет
приоритета
припада
припадала
припадали
припадало
припадао
припадају
припадник
припадника
припаднике
припадници
припадницима
припадност
припадности
припала
припало
припао
припајање
приписује
приписују
приповеда
приповедака
приповедач
приповетка
приповетке
приповијетке
припојена
припрема
припремама
припремао
припремају
припреме
припреми
припремио
припрему
прир
приредила
приредили
приредио
природа
природан
природе
природи
природна
природне
природни
природним
природних
природно
природног
природном
природну
природом
природопис
природописној
природописну
природу
природњака
природњачког
приручник
присилно
присиљен
присиљени
пристала
пристали
присталица
присталицама
присталице
пристанак
пристане
пристаништа
пристаниште
пристао
пристаје
приступ
приступа
приступи
приступио
приступити
приступом
приступу
приступљено
присуства
присуство
присуствовали
присуствовало
присуствовао
присуству
присуствује
присуствују
присутан
присутна
присутне
присутни
присутних
присутно
притвор
притвору
притисак
притиска
притиском
притиску
притока
притоке
притом
прихвата
прихватају
прихватање
прихвате
прихвати
прихватила
прихватили
прихватио
прихватити
прихваћен
прихваћена
прихваћено
приход
прихода
приходе
приходи
приходима
прича
причама
причао
причати
причају
приче
причи
причом
причу
пришао
приштина
приштине
приштини
приђе
пријава
пријаве
пријави
пријавио
пријаву
пријављено
пријатељ
пријатеља
пријатеље
пријатељем
пријатељи
пријатељима
пријатељица
пријатељске
пријатељски
пријатељској
пријатељства
пријатељство
пријатељству
пријатељу
пријатно
прије
приједлог
приједор
пријем
пријема
пријему
пријепоље
пријета
пријето
про
проба
пробе
пробио
пробије
пробију
проблем
проблема
проблематике
проблеме
проблеми
проблемима
проблемом
проблему
пробни
пробој
пробоја
пробуди
проведе
проведених
провела
провели
провео
провера
провере
проверите
проверу
провести
провиденсија
провинција
провинцијама
провинције
провинцији
провинцију
проводе
проводи
проводио
проглас
прогласи
прогласила
прогласили
прогласио
проглашава
проглашен
проглашена
проглашене
проглашени
проглашено
проглашења
проглашење
проглашењу
проговори
прогон
прогона
прогони
програм
програма
програме
програми
програмима
програмирања
програмирање
програмом
програмски
програмских
програмског
програму
прогресо
прода
продавао
продавница
продавнице
продала
продановић
продао
продат
продата
продати
продатих
продато
продаја
продаје
продаји
продајом
продају
продире
продор
продора
продужена
продужено
продужетак
продужи
продужио
продукција
продукције
продукцији
продукцијске
продукцију
продуцент
продуцента
продуценти
продуценткиња
продуцирао
проза
прозе
прози
прозор
прозора
прозоре
прозори
прозорима
прозору
произведе
произведен
произведена
произведени
произведено
произвела
произвео
произвести
производ
производа
производе
производи
производила
производима
производио
производња
производње
производњи
производњом
производњу
произвођач
произвођача
произвођачи
произилази
проклетство
прокупља
прокупље
пролаз
пролаза
пролазе
пролази
пролазили
пролазио
проласка
пролетер
пролетерска
пролетерске
пролећа
пролеће
пролећу
пролог
промена
променама
промене
промени
променила
променили
променило
променио
промените
променити
променом
промену
променљива
променљиве
променљивих
промет
[...]
