!
"
#
##0
##1
##10
##11
##12
##13
##14
##15
##16
##17
##18
##19
##2
##20
##21
##22
##23
##24
##25
##26
##27
##28
##29
##3
##30
##31
##32
##33
##34
##35
##36
##37
##38
##39
##4
##40
##41
##42
##43
##44
##45
##46
##47
##48
##49
##5
##50
##51
##52
##53
##54
##55
##56
##57
##58
##59
##6
##60
##61
##62
##63
##64
##65
##66
##67
##68
##69
##7
##70
##71
##72
##73
##74
##75
##76
##77
##78
##79
##8
##80
##81
##82
##83
##84
##85
##86
##87
##88
##89
##9
##90
##91
##92
##93
##94
##95
##96
##97
##98
##99
$
%
&
'
(
)
*
+
,
-
.
/
0
00
000
0000
000000
0001
001
0010
002
003
004
005
006
007
008
009
01
010
011
012
02
021
03
0302
04
043
05
06
07
08
09
1
10
100
1000
10000
1001
1002
1003
1009
101
1010
1012
1014
1015
1016
1018
1019
102
1020
1021
1023
1024
1025
103
1030
1037
104
1040
1041
1042
1043
1044
1046
105
1050
1051
1054
1055
1059
106
1060
1061
1062
1065
1066
1067
1068
1069
107
1070
1071
1072
1073
1074
1076
1077
1078
108
1080
1081
1082
1086
1087
1089
109
1090
1091
1092
1093
1094
1095
1096
1099
11
110
1100
1101
1102
1103
1105
1106
1107
1108
111
1110
1111
1112
1113
1115
1116
1118
112
1120
1124
1126
113
1130
1131
1132
1133
1134
1135
1137
1138
1139
114
1140
1142
1143
1145
1146
1147
1148
115
1150
1158
1159
116
1160
1162
1163
1164
1165
1166
1167
1169
117
1174
118
1180
1181
1182
1185
1187
1188
1189
119
1190
1191
1192
1196
1198
1199
12
120
1200
1204
121
1217
1219
122
1220
123
1230
1234
1235
124
1240
1241
1242
1244
125
1250
1258
126
1260
1261
127
1270
1274
1276
128
1280
1282
1284
129
1290
1299
13
130
1300
1301
1308
131
1310
1314
1316
132
1320
1321
1322
1326
1328
133
1330
1331
1333
134
1340
1341
1342
1345
1346
1347
1348
1349
135
1350
1354
1355
1356
1358
1359
136
1360
1365
137
1370
1371
1373
1377
1378
138
1380
1382
1385
1386
1387
1389
139
1390
1391
1392
1395
1396
14
140
1400
1402
1403
1404
1405
1409
141
1410
1412
1413
1415
142
1420
1421
1422
1427
1428
143
1430
1435
1437
1439
144
1440
1441
1443
1444
1448
145
1450
1451
1452
1453
1454
1455
1456
1458
1459
146
1460
1461
1463
1466
147
1470
1471
1475
1476
1478
148
1480
1481
1483
1485
149
1490
1492
1493
1494
1496
1498
1499
15
150
1500
1503
1508
151
1510
1512
1513
1514
1515
1516
1517
1519
152
1520
1521
1522
1523
1524
1525
1526
1527
1528
1529
153
1530
1533
1534
1535
1536
1537
1538
154
1540
1541
1542
1543
1545
1547
155
1550
1551
1552
1553
1555
1556
1557
1558
1559
156
1560
1561
1564
1565
1566
1567
1568
1569
157
1570
1571
1572
1573
1574
1576
1577
1578
1579
158
1580
1582
1584
1585
1587
1588
159
1590
1592
1593
1594
1595
1596
1597
1598
1599
16
160
1600
1601
1603
1604
1605
1606
1607
1608
1609
161
1610
1611
1612
1613
1614
1615
1616
1618
1619
162
1620
1621
163
1630
1632
1635
1637
1638
164
1640
1642
1643
1644
1645
1647
1648
1649
165
1650
1651
1652
1654
1658
166
1660
1661
1664
1665
1666
1667
1669
167
1670
1672
1675
1676
168
1680
1682
1683
1684
1685
1686
1687
1688
1689
169
1690
1691
1692
1693
1694
1695
1696
1697
1698
1699
17
170
1700
1701
1702
1703
1704
1706
1707
1708
1709
171
1710
1711
1712
1713
1714
1715
1716
1717
1718
1719
172
1720
1721
1722
1723
1724
1725
1726
1727
1728
1729
173
1730
1731
1732
1733
1734
1735
1736
1737
1738
1739
174
1740
1741
1742
1743
1744
1745
1746
1747
1748
1749
175
1750
1751
1752
1753
1754
1755
1756
1757
1758
1759
176
1760
1761
1762
1763
1764
1765
1766
1767
1768
1769
177
1770
1771
1772
1773
1774
1775
1776
1777
1778
1779
178
1780
1781
1782
1783
1784
1785
1786
1787
1788
1789
179
1790
1791
1792
1793
1794
1795
1796
1797
1798
1799
18
180
1800
1801
1802
1803
1804
1805
1806
1807
1808
1809
181
1810
1811
1812
1813
1814
1815
1816
1817
1818
1819
182
1820
1821
1822
1823
1824
1825
1826
1827
1828
1829
183
1830
1831
1832
1833
1834
1835
1836
1837
1838
1839
184
1840
1841
1842
1843
1844
1845
1846
1847
1848
1849
185
1850
1851
1852
1853
1854
1855
1856
1857
1858
1859
186
1860
1861
1862
1863
1864
1865
1866
1867
1868
1869
187
1870
1871
1872
1873
1874
1875
1876
1877
1878
1879
188
1880
1881
1882
1883
1884
1885
1886
1887
1888
1889
189
1890
1891
1892
1893
1894
1895
1896
1897
1898
1899
19
190
1900
1901
1902
1903
1904
1905
1906
1907
1908
1909
191
1910
1911
1912
1913
1914
1915
1916
1917
1918
1919
192
1920
1921
1922
1923
1924
1925
1926
1927
1928
1929
193
1930
1931
1932
1933
1934
1935
1936
1937
1938
1939
194
1940
1941
1942
1943
1944
1945
1946
1947
1948
1949
195
1950
1951
1952
1953
1954
1955
1956
1957
1958
1959
196
1960
1961
1962
1963
1964
1965
1966
1967
1968
1969
197
1970
1971
1972
1973
1974
1975
1976
1977
1978
1979
198
1980
1981
1982
1983
1984
1985
1986
1987
1988
1989
199
1990
1991
1992
1993
1994
1995
1996
1997
1998
1999
2
20
200
2000
2001
2002
2003
2004
2005
2006
2007
2008
2009
201
2010
2011
2012
2013
2014
2015
2016
2017
2018
2019
202
2020
2021
2022
2023
2024
2025
2026
203
2030
204
205
206
207
208
209
21
210
2100
211
212
213
214
215
216
217
218
219
22
220
2200
221
222
223
224
225
226
227
228
229
23
230
2300
231
232
233
234
235
2357
236
237
238
239
24
240
2400
241
242
243
244
245
246
247
248
249
25
250
2500
251
252
253
254
255
256
257
258
259
26
260
2600
261
262
263
264
265
266
267
268
269
27
270
271
272
273
274
275
276
277
278
279
28
280
281
282
283
284
285
286
287
288
289
29
290
291
292
293
294
295
296
297
298
299
3
30
300
3000
301
302
303
304
305
306
307
308
309
31
310
311
312
313
314
315
316
317
318
319
32
320
321
322
323
324
325
326
327
328
329
33
330
331
332
333
334
335
336
337
338
339
34
340
341
342
343
344
345
346
347
348
349
35
350
3500
351
352
353
354
355
356
357
358
359
36
360
361
362
363
364
365
366
367
368
369
37
370
371
372
373
374
375
376
377
378
379
38
380
381
382
383
384
385
386
387
388
389
39
390
391
392
393
394
395
396
397
398
399
4
40
400
4000
401
402
403
404
405
406
407
408
409
41
410
411
412
413
414
415
416
417
418
419
42
420
421
422
423
424
425
426
427
428
429
43
430
431
432
433
434
435
436
437
438
439
44
440
441
442
443
444
445
446
447
448
449
45
450
451
452
453
454
455
456
457
458
459
46
460
461
462
463
464
465
466
467
468
469
47
470
471
472
473
474
475
476
477
478
479
48
480
481
482
483
484
485
486
487
488
489
49
490
491
492
493
494
495
496
497
498
499
5
50
500
5000
501
502
503
504
505
506
507
508
509
51
510
511
512
513
514
515
516
517
518
519
52
520
521
522
523
524
525
526
527
528
529
53
530
531
532
533
534
535
536
537
538
539
54
540
541
542
543
544
545
546
547
548
549
55
550
551
552
553
554
555
556
557
558
559
56
560
561
562
563
564
565
566
567
56789
568
569
57
570
571
572
573
574
575
576
577
578
579
58
580
581
582
583
584
585
586
587
588
589
59
590
591
592
593
594
595
596
597
598
599
6
60
600
6000
601
602
603
604
605
606
607
608
609
61
610
611
612
613
614
615
616
617
618
619
62
620
621
622
623
624
625
626
627
628
629
63
630
631
632
633
634
635
636
637
638
639
64
640
641
642
643
644
645
646
647
648
649
65
650
651
652
653
654
655
656
657
658
659
66
660
661
662
663
664
665
666
667
668
669
67
670
671
672
673
674
675
676
677
678
679
68
680
681
682
683
684
685
686
687
688
689
69
690
691
692
693
694
695
696
697
698
699
7
70
700
7000
701
702
703
704
705
706
707
708
709
71
710
711
712
713
714
715
716
717
718
719
72
720
721
722
723
724
725
726
727
728
729
73
730
731
732
733
734
735
736
737
738
739
74
740
741
742
743
744
745
746
747
748
749
75
750
751
752
753
754
755
756
757
758
759
76
760
761
762
763
764
765
766
767
768
769
77
770
771
772
773
774
775
776
777
778
779
78
780
781
782
783
784
785
786
787
788
789
79
790
791
792
793
794
795
796
797
798
799
8
80
800
8000
801
802
803
804
805
806
807
808
809
81
810
811
812
813
814
815
816
817
818
819
82
820
821
822
823
824
825
826
827
828
829
83
830
831
832
833
834
835
836
837
838
839
84
840
841
842
843
844
845
846
847
848
849
85
850
851
852
853
854
855
856
857
858
859
86
860
861
862
863
864
865
866
867
868
869
87
870
871
872
873
874
875
876
877
878
879
88
880
881
882
883
884
885
886
887
888
889
89
890
891
892
893
894
895
896
897
898
899
9
90
900
901
902
903
904
905
906
907
908
909
91
910
911
912
913
914
915
916
917
918
919
92
920
921
922
923
924
925
926
927
928
929
93
930
931
932
933
934
935
936
937
938
939
94
940
941
942
943
944
945
946
947
948
949
95
950
951
952
953
954
955
956
957
958
959
96
960
962
963
964
965
966
969
97
970
971
972
973
974
975
976
978
979
98
980
981
982
983
984
985
986
987
988
989
99
990
991
992
993
995
997
998
999
:
;
<
=
>
?
@
\
^
_
`
a
aa
ab
abac
abbr
abc
abies
ablon
ablona
about
above
abstract
abu
ac
aca
acaalexaca
academic
academy
access
accessed
according
account
accounts
ace
acer
acetil
acid
acil
across
act
acta
action
active
activity
acute
ad
adam
adams
add
addclass
added
adding
additional
adenozil
adi
admin
administration
administrator
administratora
administratori
adobe
adp
adult
advanced
adventures
ae
aec
af
affairs
afric
africa
african
africi
afrike
after
ag
again
against
age
agencija
agencije
agency
agent
ages
agonist
agriculture
ags
ah
ai
aim
air
aircraft
aj
aja
ajan
ajde
aje
ajem
ajeno
ajeva
ajevima
aji
ajima
ajna
ajne
ajni
ajnih
ajno
ajnu
aju
ak
aka
akademija
akademije
akavska
akavske
akceptor
akcija
akcije
ako
aktivan
aktivira
aktivni
aktivno
aktivnost
aktivnosti
al
ala
alan
alaska
alata
alba
albert
album
albuma
albumi
albums
albumu
ale
aleksandar
aleksandra
alex
alexander
alfa
alfred
algoritam
algorithm
algoritma
ali
alias
aliases
alice
align
alignbars
alje
alkohol
alkohola
all
allen
alo
aloe
alone
along
alost
alpha
already
als
also
alt
alternative
always
am
ama
amazon
amd
americ
america
american
americi
amerike
amija
amino
aminokiselina
amo
among
amor
amp
amsterdam
an
ana
analitic
analiza
analize
analizu
analysis
anatomy
anchor
ancient
and
anderson
andre
andrea
andreas
andrew
andric
android
ane
angaz
angel
angeles
ani
anih
anim
animal
animals
animation
anime
anin
anja
anje
anjem
anju
ank
ann
anna
annales
annals
anne
anniversary
anno
annual
ano
anog
anom
anopheles
another
anstva
anstvo
antagonist
ante
anthony
anthurium
anti
antic
antidiskriminator
antitela
antonio
anu
any
ao
ap
api
aplikacija
aplikacije
append
apple
application
applications
applied
approach
appropriate
approx
apr
april
aprila
aprilu
apsolutno
aq
ar
ara
arab
arabic
aranz
arc
arch
archaeological
archaeology
architecture
archive
archived
archives
are
area
arena
arg
argentina
args
argument
arguments
arheolos
arhitektura
arhitekture
arhiv
arhiva
ari
arima
arka
arm
armenia
armenian
arms
army
arnold
aromatic
around
arp
array
ars
art
arte
arthur
article
articles
artist
artists
arts
aru
arxiv
as
asa
ascii
asia
asian
ask
asopis
asopisa
asopisu
asp
aspects
aspx
assassin
assessment
associated
association
ast
aste
asti
astronomy
at
athens
athletics
ati
atlantic
atlas
atom
atoma
atp
attack
attems
attr
au
audi
audio
auf
aug
august
aus
austin
australia
australian
australis
austria
author
authority
authors
auto
automatic
automatically
automatski
automobila
autor
autora
autori
aux
av
ava
avac
available
avaju
avajuc
avala
avali
avama
avanja
avanje
avanjem
avanju
avao
avati
ave
avgust
avgusta
avgustu
avi
aviation
avion
aviona
avne
avni
avu
award
awards
away
ax
az
azerbaijan
azije
aziji
azot
b
ba
baby
bac
back
background
bad
bailey
baker
bakterija
bakterije
balade
balkan
balkans
ball
balogh
baltimore
ban
band
banja
bank
banka
banke
banks
bar
barbara
barbus
barcelona
bardata
barem
barincrement
barnard
barnes
bas
base
based
basic
basis
basketball
bataljon
bataljona
battle
bave
bavi
bavio
bay
baza
baze
bazi
bazu
bb
bbc
bc
bd
be
beach
bean
beat
beautiful
bec
because
beck
been
before
begin
beginning
behavior
behind
bei
beier
being
bela
bele
belez
belgrade
beli
bell
belle
below
ben
bend
benda
beni
benjamin
benth
beograd
beograda
beogradski
beogradu
ber
berg
berkeley
berlin
bernard
bes
beskonac
best
beta
better
between
beyond
bez
bezbednost
bezbednosti
bf
bg
bh
bi
bible
bibliography
biblioteka
biblioteke
bic
big
bih
bila
bile
bili
biljaka
biljka
biljke
bill
billboard
bilo
bin
bio
biografija
biographical
biography
biol
biological
biology
biolos
bird
birds
birth
bis
bismo
bit
biti
bitno
biva
bivs
bl
black
blackwell
blago
blank
blast
blaz
bleeker
blic
bliz
blizini
blizu
block
blog
blok
blood
blu
blue
blues
bmatrix
bmw
bo
board
bob
boc
body
bog
boga
bogorodice
bois
boiss
boja
bojan
boje
boji
boju
bokicak
bol
bola
bold
boldsymbol
bolesnika
bolest
bolesti
bolje
bolji
bolnic
bolnica
bolnice
bolnici
bombe
bombus
bone
book
books
boolean
bor
borba
borbe
borbi
borbu
borci
border
boris
born
bos
bosanske
bosanski
bosna
bosne
bosni
bosnia
boston
bot
both
bottom
boulenger
bousfield
box
boy
boys
boz
br
brac
brain
brak
branko
brat
brata
brazil
brdo
bre
break
breaking
brian
bridge
brief
brigada
brigade
brill
bris
brisanje
britain
britaniji
britannica
britanski
british
broadcasting
brod
broj
broja
brojem
brojeva
brojevi
brojne
brojni
brojnih
brojnim
broju
broken
bronze
bros
brothers
brown
browser
bruce
bruno
brz
brzina
brzine
brzinom
brzinu
brzo
bs
bu
bubanj
bubnjevi
bubrega
bubrez
budapest
bude
budi
budistic
budu
buduc
buham
build
builder
building
bulbophyllum
bulgaria
bulgarian
bull
bulletin
bureau
burtt
bus
business
but
button
by
byzantine
c
ca
cac
calendar
california
call
callas
called
cambridge
camp
campaign
campbell
can
canada
canadian
cancer
canvas
cap
capital
caption
car
cara
cardiac
cardiol
cardiovascular
care
carl
carlos
carolina
carradovan
carstva
carstvo
carter
cas
casa
case
cases
castle
cat
catalog
catalogue
categories
category
cathedral
catholic
cats
cause
cb
cbs
cc
cd
cdc
cdot
cdots
cds
ce
cela
cele
cell
cells
celog
celu
cena
cene
cenozoic
census
centar
center
centra
central
centralna
centralne
centralni
centre
centru
centuries
century
ceo
cest
cet
cevi
cf
cfg
cg
cgcg
ch
cha
challenge
chamberlin
championship
change
changed
changes
changing
channel
chap
chapelle
chapman
chapter
char
character
characteristics
characters
charles
chart
chase
che
check
chem
chemical
chemistry
chen
chess
chi
chicago
child
children
china
chinese
choice
chris
christian
christianity
christmas
christopher
chronic
chronicle
church
ci
cia
cid
ciklic
ciklus
ciklusa
cilj
ciljem
ciljeva
cilju
cinema
circ
circle
circulation
cis
ciste
citation
citations
cite
cited
cities
city
civil
civilization
cjelina
ck
cki
cl
claim
claims
clanak
clanaka
clarendon
clark
clarke
class
classes
classic
classical
classics
classification
claude
cle
clear
click
climate
clin
clinical
clio
close
club
cm
cn
cnn
co
coa
coast
coat
coats
cobiss
code
codes
cohen
coins
col
cold
cole
coli
coll
collected
collection
collections
college
collegeswimming
collins
colonial
color
colors
columbia
column
com
come
comics
coming
command
comment
commentary
commission
committee
common
commons
communication
communications
communities
community
companion
company
comparative
comparison
complete
complex
comprehensive
computer
computerdetails
computing
con
concat
concept
concepts
conference
config
conflict
congress
conservation
constitution
construction
contact
containing
contains
contemporary
content
context
contributions
control
controlled
convention
conversion
convert
cook
cooper
copy
copyright
core
cornell
coronary
corporation
cos
costa
could
council
count
counter
countries
country
county
course
court
cover
covid
cox
cp
cpu
cr
crash
crataegus
create
created
creation
creative
creed
creva
crime
crisis
critical
crkva
crkve
crna
crne
crni
crno
crnoj
crnu
croat
croatia
cross
croton
crown
crtez
crvena
crvene
crveni
cry
cryptops
cs
css
ct
cu
cubic
cultural
culture
cup
curcic
current
currently
custom
cuvier
cv
cx
cyrillic
cyrtandra
cz
czech
d
da
daily
daj
daje
daju
dakle
dal
dala
daleko
dali
dalje
dame
dan
dana
danas
dance
dane
dani
daniel
dans
dao
dark
das
dat
data
database
date
dateformat
dates
dati
datoteka
datum
david
davies
davis
dawn
day
days
db
dc
dcirovic
dd
ddr
de
dead
death
dec
deca
decapauropus
dece
decembar
december
decembra
decembru
decenije
decision
decu
deep
def
default
defense
define
defined
definicija
definis
definition
dehidrogenaza
dei
dejan
dejstva
dejstvo
dejstvom
dejvid
del
dela
delatnosti
dele
delete
deletion
delhi
deli
delima
delimic
delivery
dell
della
delo
delom
delorko
delova
delovanja
delovanje
delove
delovi
delovima
delta
delu
deluje
deluju
dem
demo
democracy
den
denis
deo
department
deprecated
der
des
description
descriptions
deset
design
desne
desno
det
detail
detailed
details
dete
deteta
detinjstvo
deutsche
development
devet
devil
devojc
devojka
dezoksi
df
dh
di
diabetes
diagnosis
diagnostic
diamond
dic
dictionary
did
die
dies
diff
different
difosfat
digital
digitalna
digits
dijagnostic
dijagnoza
dijelu
dilan
dimenzija
dimenzije
dimic
din
dinamic
dinara
dinastije
dio
diospyros
diplomirao
direct
direction
direktno
direktor
direktora
dis
discogs
discovery
discussion
disease
diseases
disk
diskografija
disney
disorders
display
displayed
displays
distribution
district
div
diversity
division
dizajn
dizajna
dj
djela
djevojka
dk
dl
dm
dna
dnevnik
dnevno
dnk
do
doba
dobar
dobija
dobijaju
dobije
dobila
dobili
dobio
dobiti
dobitnik
dobra
dobre
dobri
dobro
doc
doctor
document
documentary
documentation
documents
dodaje
dodatak
dodati
dodatna
dodatne
dodatni
dodatno
does
doesn
dog
događaj
događaja
doi
dojke
dok
dokaz
dokaza
dokazi
doktor
dokumenata
dokumenta
dolara
dolaze
dolazi
dole
dom
doma
domac
domain
domen
domena
domu
don
donald
done
doneo
donja
donji
donos
donosi
doprinos
doprinosi
dopus
dos
dosta
dostupan
dostupna
dostupni
dot
dots
double
douglas
dovelo
doveo
dover
dovesti
dovode
dovodi
dovoljno
down
download
doz
dozvoljava
dozvoljeno
dođe
dp
dr
draga
dragan
drago
dragon
dram
drama
dramatic
drame
draz
drazetad
dream
dreams
drug
druga
drugac
druge
drugi
drugih
drugim
drugima
drugo
drugog
drugoj
drugom
drugs
drugu
drus
druz
drveta
drvo
drz
ds
dt
du
duboko
due
dug
duga
dugac
duge
dugo
duh
duke
during
dus
dutch
duty
duz
dva
dvadeset
dvd
dve
dvije
dvoje
dvoris
dx
dy
dynamics
dz
dzordzm
dzs
e
ea
each
early
earth
east
eastern
easy
ec
eca
ece
ecology
economic
economics
economy
ed
edge
edinburgh
edit
edited
editing
edition
editions
editor
editors
edits
editura
eds
edu
education
educational
edward
edwards
ee
ef
efekat
efekata
efekte
efekti
effect
effects
efikasnost
eg
ega
egypt
egyptian
eigenmann
ein
eine
either
ej
eja
ejms
ek
eka
ekolos
ekonomije
ekonomske
ekonomski
ekson
ekuje
el
ela
elastic
ele
election
electric
electronic
elegans
elektric
elektrona
elektronski
elemenata
element
elementa
elemente
elementi
elements
eleo
eleznic
eli
elija
elijama
elije
elijske
elim
elite
elizabet
elizabeth
elja
elje
eljko
ell
elo
else
elseif
elsevier
elu
em
ema
emblem
emergency
emi
eminem
emisija
emisije
emituje
emo
empire
empty
emu
en
ena
enama
enc
enciklopedija
enciklopediju
encyclopaedia
encyclopedia
encyclopædia
end
ene
energija
energije
energiju
energy
eng
engine
engineering
engl
england
engleska
engleske
engleski
engleskog
engleskoj
engleskom
english
eni
enica
enice
enici
enih
enika
enim
enja
enje
enjem
enjima
enju
eno
enog
enom
enost
enosti
enske
enski
enskih
enter
entertainment
entity
entry
enu
environment
environmental
enzim
enzima
enzimi
eo
eocene
eon
eonothem
ep
epic
episode
epizoda
epizode
epizodi
epizodu
epoch
epsilon
epub
er
era
erathem
ere
eri
eria
eric
erik
erka
ernest
ernst
err
error
errors
es
escape
escudo
esnici
esnika
eso
espan
espn
essay
essays
essential
est
esta
estas
este
esti
estica
estice
esto
estvovao
estvuje
estvuju
et
eta
etak
etc
ete
ethics
ethnic
eti
etic
etiri
etka
etkom
etku
etni
etnic
eto
etvrti
eu
eucalyptus
euphorbia
eur
euro
europa
europe
european
eurovision
ev
eva
evac
evaluation
evans
eve
even
event
events
ever
every
everything
evi
evic
evidence
evil
evna
evni
evnost
evnosti
evo
evolution
evropa
evrope
evropi
evropska
evropske
evropski
evropskih
evrovizije
evs
evu
ex
example
examples
excerpt
exchange
exhibition
exist
exists
exit
exp
experience
experiment
experimental
explorer
express
expression
external
extra
eye
eyes
ez
f
fa
faber
fabricius
face
facebook
fact
facto
factor
factors
facts
faculty
failure
fair
faith
faktor
faktora
faktori
fakultet
fakulteta
fakultetu
fall
fallingrain
false
fame
families
familija
familije
family
famous
far
fas
fashion
fast
father
faza
faze
fazi
fbi
fbih
fc
fe
fear
feat
feature
features
feb
februar
februara
februaru
february
federal
federation
feedback
feel
felix
female
fenomen
fest
festival
festivala
festivalu
few
ff
ffffff
fi
fiat
fiction
field
fields
fifa
fifth
fight
figure
file
files
filip
filipovic
film
filma
filmova
filmovi
films
filmski
filmu
filozofija
filozofije
filter
final
finale
financial
find
fine
fire
first
fis
fischer
fish
fisher
five
fizic
fiziolos
fk
fl
flag
flash
flight
float
floor
flora
florida
flow
flying
fm
fo
focus
fokker
folk
follow
following
fon
fond
fondacija
font
fontsize
foo
food
foot
football
for
force
forces
ford
foreign
forest
forever
form
forma
format
formation
forme
former
formi
formira
formiraju
formiranja
formiranje
forms
formu
formula
forster
fort
forum
fosfat
foto
fotografija
fotografije
found
foundation
foundations
four
fourth
fowler
fox
fr
fra
frac
frame
framework
franc
france
francis
francisco
francuska
francuske
francuski
francuskoj
frank
frankfurt
franklin
franz
fre
fred
frederick
free
freedom
frekvencija
frekvencije
french
friedrich
friends
from
front
ft
fu
full
function
functional
functions
fund
funkcija
funkcije
funkciju
funkcionis
further
future
fzs
g
ga
gaja
gal
galaxy
galerija
gallery
gama
game
games
gamma
garden
gardner
gary
gas
gasa
gasova
gay
gb
gde
gdi
gdje
gdp
ge
gen
gena
gender
gene
genealogical
generacija
generacije
general
generalno
generation
generic
generis
genetic
genetics
geni
genom
genoma
genus
geographic
geography
geological
geophilus
georg
george
georgia
german
germany
geschichte
get
getargs
gets
ghost
ghz
gi
gif
gilbert
gill
giovanni
girl
girls
gitara
gitarista
give
given
gives
gj
gl
glas
glasa
glasac
glasanja
glasanje
glasnik
glasova
glass
glava
glave
glavna
glavne
glavni
glavnih
glavnog
glavnu
glavu
gleda
gledis
global
glossary
glukoza
glukoze
glukoziltransferaza
glumac
glutamat
gm
gmbh
gmelin
gnu
go
god
godina
godinama
godine
godini
godinu
godis
goes
gold
golden
goldfinger
gone
gonza
good
google
gora
goran
gordon
gore
gori
goriva
gornja
gornjeg
gornji
gornjoj
got
gotovo
gould
gov
government
govor
govora
govore
govori
govorio
gpcr
gps
gr
gracilis
grad
grada
gradis
gradova
gradovi
gradovima
gradu
graf
grafic
graham
gram
grana
grand
grande
grandjean
grane
granic
granica
granice
grant
gray
građana
građevina
grb
grc
great
greatest
greece
greek
green
greene
greenwood
gregory
gres
groblje
groblju
group
groups
grove
growth
grupa
grupama
grupe
grupi
grupom
grupu
gsub
gt
gu
guardian
gubi
gubitak
gubitka
guene
guide
guidelines
guitar
gun
gus
guy
gvoz
h
ha
had
hadz
hagen
half
hall
hamburg
hamilton
hammer
han
hand
handbook
handler
hans
hansen
happy
hard
harold
harper
harris
harry
harvard
harvey
has
hat
have
haven
hbo
hd
he
head
header
health
heart
heaven
heavy
hebard
height
held
helen
helena
hell
hello
help
hemijska
hemijske
hemijski
hemijskih
hemijsko
hemijsku
henri
henry
her
herbert
hercegovine
hercegovini
here
heritage
herman
hero
heroes
herseni
hes
hg
hi
hidden
hidroksi
hidroksilaza
hidrolaza
high
higher
hiljada
hill
him
hip
hirurs
his
histoire
historia
historic
historical
history
hit
hitler
hits
hiv
hlorid
hm
ho
hoc
hockey
hoffman
hold
holland
hollywood
holocaust
holy
home
homo
hong
honor
hood
hook
hop
hope
hopkins
hor
horizontal
hormona
hormone
horse
hospital
host
hot
hotel
hour
hours
house
how
howard
however
hp
hr
hram
hrana
hrane
hranu
hrast
hris
hronic
hrsg
hrvata
hrvatska
hrvatske
hrvatski
hrvatskog
hrvatskoj
hrvatskom
ht
hteo
htm
html
http
https
hu
hudson
hugh
hugo
hulst
human
hungarian
hungary
hunt
hunter
hvala
hypericum
hypertension
hz
i
ia
iako
ian
ibid
ibm
ibn
ic
ica
ice
ich
icon
icu
id
ide
idea
ideas
ideja
ideje
ideju
identic
identification
identitet
identiteta
identity
idu
ie
ieee
if
igara
igledno
igor
igra
igrac
igraju
igrama
igrao
igre
igri
igru
ih
ii
iii
ija
ije
ijem
iji
iju
ik
ikada
il
ila
ile
ili
ilic
illinois
illustrated
ilo
im
ima
image
images
imagesize
imaging
imaju
imala
imale
imali
imalo
imam
imamo
imao
imas
imati
imc
imdb
ime
imena
imenom
imenu
img
imo
imp
impact
imperial
implementation
implications
important
in
ina
inac
inama
inc
inch
include
included
includes
including
increment
indeks
independence
independent
index
india
indian
indiana
indiji
individual
induced
industrial
industrije
industriji
industry
ine
infection
infekcija
infekcije
influence
info
infobox
informacija
informacije
information
infty
ing
inhibira
inhibitor
inhibitora
inhibitori
ini
inili
inio
init
initi
inje
injenica
injenice
inju
injury
inline
inom
inostranstvu
inozitol
input
insee
insert
inside
inski
instead
institucija
institucije
institut
instituta
institute
institution
instrument
int
integer
intel
intelligence
inter
interactive
interakcija
interakcije
interesa
interface
internal
international
internet
interneta
internetu
interview
intervju
interwiki
into
introduction
inu
invalid
investigation
inwonertal
inz
io
ios
ip
ipa
ipairs
ipak
ir
ira
iran
iranica
iras
ire
ireland
irenja
irenje
iri
iris
irish
irok
iroko
irom
iron
is
isaac
isbn
iskljuc
iskoris
iskustva
iskustvo
islam
islamic
island
islands
iso
ispitivanja
ispitivanje
ispod
ispred
israel
issn
issue
issues
ist
ista
istarska
istarske
iste
isti
istic
istih
istim
istina
isto
istoc
istog
istoj
istoku
istom
istoric
istorija
istorijat
istorije
istoriji
istorijska
istorijski
istorijsko
istoriju
istovremeno
istraz
istu
isus
it
ita
italian
italiana
italic
italija
italijanski
italije
italiji
italy
itav
itd
ite
item
items
iti
itih
itim
ito
its
iucn
iupac
iv
iva
ivac
ivan
ivana
ivanja
ivanje
ivanjima
ivanju
ivanovic
ivao
ive
ivela
iveli
iveo
ivi
ivica
ivih
ivo
ivot
ivota
ivotinja
ivotinje
ivotne
ivotni
ivotu
ix
iz
iza
izabran
izas
izaziva
izazvati
izbor
izbora
izbori
izborima
izboru
izdaje
izdala
izdanja
izdanje
izdanju
izdao
izdat
izdavac
izdrz
izgled
izgleda
izgubio
izjavio
izlaz
izlazi
izloz
izluc
izmedju
izmena
izmene
između
izmis
iznad
iznosi
izrac
izradu
izraz
izraza
izuc
izuzetno
izvan
izves
izvodi
izvor
izvora
izvore
izvori
izvorima
izvođac
izvođenja
izvođenje
izvrs
j
ja
jabuka
jac
jack
jackson
jacques
jaja
jak
jaka
jake
jako
jam
jama
james
jan
jane
jankovic
januar
januara
januaru
january
japan
japanese
japanu
japon
jas
jasno
jason
java
javascript
javiti
javlja
javljaju
javne
javni
javnih
javno
javnog
javnost
javnosti
jazu
jazz
jc
je
jean
jedan
jedina
jedini
jedinica
jedinice
jedinjenja
jedinjenje
jedino
jedna
jednac
jednak
jednaka
jednako
jedne
jedni
jednim
jedno
jednog
jednoj
jednom
jednostavno
jednu
jeffrey
jel
jelena
jem
jer
jersey
jerusalem
jesen
jest
jeste
jesu
jesus
jetre
jevreja
jewish
jews
jezera
jezero
jezgra
jezgro
jezic
jezici
jezicima
jezik
jezika
jezikom
jeziku
ji
jim
jima
jj
jl
jm
jo
joe
john
johnson
join
joint
joj
jon
jona
jonathan
jones
jordan
jos
jose
joseph
journal
journey
jovan
jovana
jovanovic
jp
jpeg
jpg
jpl
jr
js
jstor
ju
juan
jug
jugoistoc
jugoslavenska
jugoslavije
jugoslaviji
jugu
jul
jula
julia
julu
july
jump
jun
juna
junac
june
junu
just
justice
justify
justtalk
justuser
juz
k
ka
kad
kada
kakav
kako
kakva
kakve
kalcijum
kalijum
kamen
kamena
kampanje
kanal
kanala
kao
kapacitet
karaca
karadz
karakter
karaktera
karakteris
karakteristic
karakteristika
karakteristike
karata
karci
karijera
karijere
karijeru
karl
karte
kas
kasnije
kaster
katalizuje
katalog
kategorija
kategorije
kategoriji
kategoriju
katolic
kaz
kb
kc
kcpg
ke
keep
keith
kelly
ken
kennedy
kenneth
kes
kevin
key
kg
ki
kic
kids
kih
kill
kilojoule
kim
kina
kinaza
kind
kineski
king
kingdom
kings
kini
kis
kiselina
kiseline
kiseonik
kiseonika
kiss
kiste
kit
kj
kk
klasa
klase
klasi
klasic
klasifikacija
klavir
klinic
kljuc
klub
kluba
km
kn
knez
knight
knjiga
knjige
knjigu
knjiz
knjizi
know
knowledge
known
ko
koa
koc
koch
kod
koda
kodiran
koenzim
kog
koga
koj
koja
koje
kojeg
kojem
koji
kojih
kojim
kojima
kojoj
kojom
koju
kola
kole
koledz
kolega
kolekcija
koli
kolic
koliko
kolo
kolu
kom
kombinacija
kombinacije
kombinaciji
kome
komentar
komentari
komisija
komisije
komm
kommon
komore
kompanija
kompanije
kompleks
kompleksa
komplikacija
komplikacije
komponenta
komponente
komponenti
komunikacija
komunikacije
komunikaciju
komunistic
konac
koncentracija
koncentracije
koncept
koncert
konferencija
konferencije
kong
kongres
konja
konkretno
kontakt
kontekstu
kontrola
kontrole
kontrolis
kontrolu
kopija
korak
koraka
korea
korean
koren
korena
koris
korisnic
korisnici
korisnicima
korisnik
korisnika
korisnike
korisniku
korist
koriste
koristec
koristi
koristila
koristili
koristio
koristiti
kornjac
kos
kosova
kosovo
kosovu
kosti
kostic
kova
kovac
kove
kovi
kovic
koz
kozare
kpa
kr
krac
kragujevac
kragujevic
kraj
kraja
krajem
krajis
krajnje
kraju
kralj
kralja
kraljevstva
kraljevstvo
kraljica
kratak
kratke
kratko
krec
kretanja
kretanje
krila
kritic
kritika
kritike
krivic
krlez
kroz
krs
krstic
krug
krus
kruska
kruz
krv
krvi
krvnih
ks
ku
kuc
kug
kula
kultura
kulture
kulturi
kulturne
kulturni
kulturno
kulturu
kunth
kup
kv
kvalitet
kvaliteta
kw
l
la
label
laboratory
lackope
lady
laguna
lake
lakisan
lako
laks
lam
lambda
lan
lana
lanac
lanak
lanaka
lanca
lancet
lanci
lancima
land
lane
lang
langle
language
languages
lanica
lanka
lanke
lanku
lanova
lanove
lanovi
lanovima
large
las
laser
last
lat
late
later
latin
latreille
laura
law
lawrence
laws
layer
laz
lb
lc
lccn
ldots
le
lea
leach
lead
leader
leading
league
learning
leave
lec
leconte
lecture
lectures
led
lee
left
legacy
legal
legend
legends
leiden
leipzig
lek
leka
lekar
lekara
lekova
lekovi
leksikografski
leksikon
len
length
leo
leonard
lepo
leq
les
leskovac
less
let
leta
leto
letter
letters
leve
level
levi
levo
lewis
lexikon
lez
lg
li
liberty
libraries
library
lic
lica
lice
licenca
licence
license
licu
life
liga
ligaza
lige
light
lijaza
lik
lika
like
likova
likovi
lim
limit
limited
limits
lin
lindl
line
linedata
lines
linguistics
linija
linije
link
linked
links
linnaeus
linux
lion
lipa
lis
lisa
lisp
list
lista
liste
listed
listi
lists
listu
literary
literatura
literature
literaturi
lithobius
little
liu
liv
live
lives
living
lj
ljenja
ljenje
ljiljana
ljubav
ljubavi
ljubic
ljubljana
ljude
ljudevita
ljudi
ljudima
ljudska
ljudske
ljudski
ljudskih
ljudskog
ll
ller
lm
lms
ln
lo
load
local
location
locode
log
logic
logo
lokacija
lokacije
lokalne
lokalni
london
londonu
long
look
looking
loomis
loop
lord
los
loshmi
lost
losti
lotom
louis
lovac
love
low
lower
lp
lr
lt
ltd
lu
lua
luc
lucas
luci
ludwig
luis
luk
luka
luke
luna
ly
m
ma
mac
macedonia
machine
macmillan
mad
mada
made
madrid
maduixa
magazin
magazine
magic
magnus
magyar
mahnert
mai
maiden
maik
mail
main
maj
maja
majka
majke
majki
majkl
major
maju
makar
make
makes
making
mala
male
mali
malih
malim
malo
malog
malom
malu
mammalia
mammals
man
management
manastir
manchester
manga
manja
manje
manji
manjih
manjim
manual
manuel
many
map
mapa
mape
maplandia
mapquest
maps
mar
marc
march
marcus
mare
marebg
maretic
margaret
margin
mari
maria
marie
marija
marina
marine
mario
marjanovic
marjanska
mark
marka
market
marketing
marko
markovic
marks
markup
mars
marshall
mart
marta
marti
martin
martu
marvel
mary
mas
masa
mase
mask
mass
massachusetts
master
masters
masti
masu
match
matematic
material
materials
materija
materijal
materijala
materijali
materije
math
mathbb
mathbf
mathcal
mathematical
mathematics
mathrm
matic
matica
matice
matija
matrix
matter
matthew
maurice
max
may
mb
mbox
mc
mcg
mcgraw
md
me
mean
meaning
means
mec
mechanics
mechanisms
mecistocephalus
med
medal
medalja
media
mediawiki
medical
medicina
medicine
medicini
medicinska
medicinske
medicinski
medieval
medija
mediji
medijima
medline
meet
meeting
mehanic
mehanizam
mek
melanoplus
members
membrane
memorial
memoriam
memorije
memory
men
menadz
mene
meni
menja
menjaju
ment
mental
menu
mer
mera
mere
merenja
merenje
meri
mes
mesa
mesec
meseca
meseci
meso
message
messages
mesta
mestima
mesto
mestu
met
meta
metabolic
metal
metala
metara
method
methods
metil
metiltransferaza
metionin
metod
metoda
metode
metre
metro
metropolitan
mexican
mexico
meyer
među
međunarodna
međunarodne
međunarodni
međunarodnih
međunarodnim
međunarodnog
međunarodnom
međusobno
međutim
međuvremenu
mg
mh
mhz
mi
mia
mic
michael
michel
michigan
micki
mickit
microsoft
mid
middle
might
mike
mikym
mil
milan
milano
milanovca
mile
milenkovic
miles
milic
milica
milijardi
milion
miliona
military
miljan
mill
miller
million
millosh
milne
milorad
milos
min
mina
mind
mine
mini
minimum
mining
ministar
ministarstva
ministarstvo
ministry
minor
minuta
minutes
mio
miocene
mir
mira
mirisa
miroslav
mirror
mis
misli
mislim
mislio
mislis
miss
missing
mission
mit
mitkovic
miut
mix
mj
mjesnim
mjesta
mjesto
mk
ml
mlada
mlade
mladi
mladic
mladih
mladost
mladosti
mlađi
mlec
mm
mmhg
mn
mnoga
mnoge
mnogi
mnogih
mnogim
mnogo
mnos
mnoz
mo
mobile
moc
mod
mode
model
modela
modeli
models
modern
moderne
module
mogao
mogla
mogle
mogli
moglo
mogu
moguc
moj
moja
moje
moju
mokrac
mol
molecular
molekul
molekula
molekuli
molekulima
molekulska
molekulsku
molim
mom
moment
mon
monastery
money
monitoring
monooksigenaza
monte
montenegro
month
monthly
months
moon
moore
mora
moraju
moral
morala
moram
morao
more
morebits
morgan
morning
morris
mortality
morton
moru
mos
moscow
most
mosta
mother
motion
motiv
motor
motora
mount
mountain
move
movement
movie
movies
moz
moze
mozga
mozgu
mp
mr
mrac
mrez
mrs
mrz
ms
msg
msn
mt
mtv
mu
muc
much
muchmore
muell
multi
multiple
murder
murray
mus
muse
museum
music
musical
muslimana
must
muz
muzej
muzeja
muzeju
muzic
muzici
muzika
muzike
muziku
mw
my
myers
mystery
myth
mythology
n
na
nabla
nac
nacija
nacion
nacionalna
nacionalne
nacionalni
nacionalnog
nacrtao
nad
nada
nadam
nadgrobni
nadh
nadlez
nadp
nadph
naglas
nagrada
nagrade
nagradu
naime
najbliz
najbolja
najbolje
najbolji
najboljih
najbolju
najc
najmanje
najpoznatiji
najpre
najstariji
najvaz
najvec
najverovatnije
najvis
najznac
naklada
naknadno
nakon
nalaz
nalaze
nalazi
nam
nama
name
named
names
namespace
naoruz
napad
napada
napis
napisala
napisan
napisao
napomena
napomene
napon
napona
napravi
napravio
napraviti
napravljen
napredak
napus
napustio
naravno
naredna
naroc
narod
naroda
narodna
narodne
narodni
narodnih
narodno
narodnog
narus
naruto
nas
nasa
naselja
naselje
naseljima
nasilja
nasilje
naslov
naslovna
naslovom
nastaje
nastaju
nastala
nastale
nastanak
nastanka
nastao
nastavak
nastavi
nastavio
nastavlja
nastup
nastupa
nasuprot
nat
nation
national
nations
native
nato
natrijum
natural
nature
nauc
nauka
nauke
nava
naval
navbox
naveo
navode
navodi
navodno
navy
nazad
nazi
naziv
naziva
nazivaju
nazivom
nazvan
nazvao
nađe
nb
nba
nbc
nc
nchen
nd
ne
near
nebo
nec
necessary
nedavno
nedelja
nedelje
nedostatak
nedostatka
need
needed
needs
neg
negativne
negde
nego
nek
neka
nekad
nekada
nekadas
neke
neki
nekih
nekim
neko
nekog
nekoj
nekoliko
nekom
neku
nelson
nema
nemac
nemaju
nemam
nemoguc
nemoj
nenad
neo
neobic
neobisium
neophodan
neophodna
neophodno
neposredno
neprijatelj
neprijatelja
nes
nesrec
nesto
net
netflix
netherlands
network
neue
neurol
neurology
never
new
news
newsletter
newton
next
nez
nezavisna
nezavisne
nezavisno
nezavisnost
ng
ngc
nh
ni
nic
nica
nice
nicholas
nici
night
nigra
nih
nija
nije
nijedan
niji
nijih
nik
nika
nikad
nikada
nikako
nikakve
niko
nikola
nikole
nikolic
niku
nil
nim
nin
nina
nine
nineteenth
nis
nisam
nisi
niske
nismo
nista
nisu
niti
nivo
nivoa
nivou
niz
niza
nizu
nj
nja
njac
njaci
njak
njaka
njava
nje
njeg
njega
njegov
njegova
njegove
njegovi
njegovih
njegovim
njegovo
njegovog
njegovoj
njegovom
njegovu
njem
njemac
njemu
njen
njena
njene
njeni
njenih
njenim
njenja
njenje
njeno
njenog
njenom
njenu
nji
njih
njihov
njihova
njihove
njihovi
njihovih
njihovim
njihovo
njihovog
njihovoj
njihovom
njihovu
njim
njima
njoj
njom
njost
njosti
nju
njujork
njujorku
nl
nm
nn
no
nobel
noc
node
nog
noge
noj
nolit
nom
non
none
nop
nor
normal
normalno
norman
north
northern
norton
norves
nos
nose
nosi
nosilac
nost
nosti
nostima
not
notc
note
notes
nothing
notice
notoc
nov
nova
novac
novak
novc
novca
nove
novel
novembar
november
novembra
novembru
novi
novih
novim
novinar
novine
novo
novog
novom
novorođenc
novosti
novu
now
noz
np
npm
npr
nr
ns
nt
nther
nu
nuclear
nudi
null
num
number
numbers
numeric
nussbaum
nuts
nutt
nuz
ny
o
oba
obale
obali
obaves
obaveza
obaveze
obavlja
obe
obec
obelez
obezbeđuje
obic
obj
objas
objavila
objavio
objavljen
objavljena
objavljeni
objavljeno
objavljuje
object
objekat
objekata
objekta
objekti
oblast
oblasti
oblastima
oblici
oblik
oblika
obliku
oboljenja
obrac
obrada
obrade
obradu
obrazovanja
obrazovanje
obstet
obuc
obuhvata
obuhvataju
obzir
obzira
obzirom
oc
oca
occidentalis
ocean
oclc
oct
october
od
odakle
odbor
odbora
odbrane
odbranu
ode
odec
odeljenja
odeljenje
odgovara
odgovarajuc
odgovor
odgovora
odgovoran
odgovorni
odgovornost
odlazi
odlic
odluc
odluka
odluke
odluku
odmah
odnos
odnosa
odnose
odnosi
odnosima
odnositi
odnosno
odnosu
odobrenju
odraslih
odraz
odreda
odrediti
određena
određene
određeni
određenih
određenim
određeno
određenog
određenom
određenu
određivanje
određuje
odrz
odvija
of
off
office
official
officials
og
oglas
ogranic
oh
oil
ois
oj
ok
oka
oko
okoline
okonc
okruz
oksid
oksidaza
oksidoreduktaza
oktobar
oktobra
oktobru
okviru
ol
olaks
old
olfaktorni
olfaktornih
oligocene
olinko
oliver
olympic
om
omega
omoguc
on
ona
onaj
onako
once
onda
one
onemoguc
oni
onih
onim
onima
onlajn
online
only
ono
onog
onoga
onom
onu
op
opasnost
opatija
opc
opcija
open
opera
operacija
operacije
operation
operations
operativni
operator
operatorname
opere
opet
ophthalmol
opis
opisao
opisuje
opreme
ops
opseg
opt
opterec
optic
option
optional
options
optuz
opus
or
orah
oral
orange
orchestra
order
ordz
org
organ
organa
organizacija
organizacije
organizaciji
organizaciju
organizama
organization
organizma
organizmu
organizuje
organsko
oriental
orientalis
orientation
origin
original
originally
originalna
originalni
originalno
origins
orkestar
orthodox
oruz
os
osam
ose
osec
osim
osnivac
osnivanja
osnivanje
osnova
osnovan
osnovana
osnovao
osnove
osnovi
osnovna
osnovne
osnovni
osnovnih
osnovnu
osnovu
osoba
osobe
osobina
osobine
ostaci
ostaje
ostaju
ostala
ostale
ostali
ostalih
ostalim
ostalo
ostalog
ostane
ostao
ostatak
ostataka
ostavi
ostavio
ostrea
ostrva
ostrvo
ostvaruje
osvojila
osvojio
otac
otez
other
others
otherwise
otis
otkric
otkrio
otkriva
otkrivanje
otoka
otpor
otpora
otprilike
otpus
otto
ottoman
otvoren
otvorena
otvoreno
ou
our
out
output
ov
ova
ovaj
ovakav
ovako
ovakve
ovde
ovdje
ove
ovec
ovek
oveka
over
overline
overrightarrow
overview
ovi
ovih
ovim
ovlas
ovo
ovog
ovoga
ovoj
ovom
ovome
ovu
owl
own
oxford
oxygen
oz
oznac
oznaka
oznake
p
pa
pac
pacific
pacijenata
pacijent
pacijenta
packard
pad
pada
padding
page
pagename
pages
pain
painting
pairs
pak
pakistan
palace
palata
palate
paleocene
palgrave
pan
panc
panel
panorama
panoramio
paper
paperback
papers
par
para
parada
paradise
paralelno
param
parameter
parameters
paramount
params
pare
parent
paris
pariz
parizu
park
parker
parms
part
partial
partija
partije
parts
party
pas
pascal
passed
past
patent
path
patient
patients
patolos
patrick
pattern
patterns
paul
pavlovic
paz
pb
pc
pcmuseum
pd
pdf
pe
peace
pec
pediatr
pediatric
pen
penguin
pennsylvania
penstemon
people
per
perfect
performance
period
perioda
periodic
periodu
perseus
persian
person
personal
personality
perspective
perspectives
peru
pes
pesama
pesma
pesme
pesmi
pesmu
pesnik
pet
peta
petar
peter
peters
peti
petlje
petra
petrovic
pevac
pg
pgc
pgp
ph
pharmacology
phase
phi
philadelphia
philip
phillips
philosophical
philosophy
photo
photos
php
phylogeny
physical
physics
physiology
pi
piano
pic
picture
pictures
piece
pierre
pilot
pink
pinki
pinus
piper
pis
pisac
pisanja
pisanje
pisao
pisati
pisci
pisma
pismo
pitam
pitanja
pitanje
pitanjima
pitanju
pj
pjesama
pjesan
pjesma
pjesme
pjesni
pl
plac
place
places
plain
plamen
plan
planet
planeta
planete
planina
planine
plant
plants
plas
plastic
platnu
plato
play
player
players
playstation
please
plemena
ples
ploc
plotarea
plotdata
pluc
plus
pm
pmatrix
pmc
pmid
pne
png
po
pobedio
poboljs
poc
pocock
pod
podaci
podacima
podatak
podataka
podatke
podela
podes
podgorica
podloz
podrazumeva
podrs
podruc
podrz
podsec
poems
poetry
poezija
poezije
pogled
pogledajte
pogledati
pogledu
pogors
pogotovo
pogres
point
points
pojac
pojam
pojava
pojave
pojavi
pojavila
pojavio
pojavljuje
pojavljuju
pojavu
pojedinac
pojedine
pojedinih
pojedinim
pojma
pokaz
pokazala
pokazalo
pokazano
pokazao
pokazuje
pokazuju
pokrec
pokrenuo
pokret
pokreta
pokus
pol
pola
polako
poland
poli
police
policija
policije
policy
polish
politic
political
politics
politika
politike
politiku
polja
polje
polju
poll
polovine
polovini
poloz
polu
polugodis
poly
pomaz
pominje
pomoc
pomogne
ponas
ponekad
ponis
ponovno
ponovo
pop
popis
popovic
populacije
popular
popularnost
population
poput
por
poraz
pored
porekla
poreklo
poremec
poređenju
porodic
porodica
porodice
porodici
porodicu
porođaja
port
portal
porter
portrait
portugal
poruka
poruke
poruku
pos
posao
poseban
posebna
posebne
posebnim
posebno
posec
poseduje
poseduju
position
positive
posla
poslao
posle
posledica
posledice
poslednja
poslednje
poslednji
poslednjih
poslije
poslova
poslove
poslovne
posluz
posmatrac
possible
post
postaje
postaju
postala
postali
postalo
postane
postao
postati
postavi
postavio
postavlja
postavljanje
postavljen
postepeno
poster
postigao
postiz
posto
postojala
postojanja
postojanje
postoje
postojec
postoji
postupak
posvec
potencijal
potencijalno
potential
potic
potom
potpisao
potpuno
potpunosti
potraz
potreba
potreban
potrebe
potrebna
potrebne
potrebno
potros
pound
pour
pov
povec
povezan
povezana
povezane
povezani
povezuje
povijest
povis
povlac
povodom
povrac
povratak
povreda
povrede
povremeno
povrs
povuc
power
poz
pozdrav
pozicija
pozicije
poziciji
poziciju
pozitivne
poziv
poziva
poznat
poznata
poznate
poznati
poznatih
poznato
pozoris
pp
pr
prac
practical
practice
prague
praha
praksa
prakse
praksi
praktic
pras
pratec
prati
prava
pravcu
prave
pravi
pravila
pravilima
pravilno
pravilo
pravilu
pravima
pravni
pravo
pravopis
pravu
pre
prec
precision
pred
predavanja
predlaz
predlog
predloz
predmet
predmeta
prednost
prednosti
predsednik
predsednika
predstava
predstave
predstavio
predstavlja
predstavljaju
predstavljen
preduzec
prefix
pregled
pregleda
pregledac
pregnancy
prekidac
preko
prelazi
prema
premes
premijera
premijerno
preminuo
prenos
prenosa
prenose
prenosi
prentice
preporuc
prepoznavanje
pres
present
presentation
president
press
pressure
pretez
prethodna
prethodne
prethodno
pretpostavlja
pretrage
pretraz
pretvara
preuzeo
preuzeto
prevention
preveo
preview
previous
previs
prevod
prevodi
prevodilac
prez
prezime
pri
pribliz
pric
price
pride
pridruz
prihvac
prijatelj
prijatelja
prijatelji
prije
prikaz
prikazan
prikazana
prikazuje
prikljuc
prilic
prilikom
priliku
prilog
prima
primarni
primary
prime
primec
primena
primene
primeni
primeniti
primenjuje
primenjuju
primenom
primenu
primer
primera
primeraka
primeri
primjer
prince
princess
princeton
princip
principa
principles
principu
print
pripada
pripadaju
pripadnici
priprema
priroda
prirode
prirodi
prirodne
prirodni
prirodnih
prirodno
priruc
pris
pristup
pristupa
pristupljeno
prisustvo
prisustvu
prisutan
prisutna
prisutni
pritisak
pritiska
pritiskom
private
privlac
prix
prize
priznanja
priznanje
pro
problem
problema
probleme
problemi
problems
proc
procedura
procedure
proceedings
procena
procene
procenjuje
procenu
proces
procesa
procesi
process
processing
procesu
prodaje
prodaju
producent
produces
product
production
productions
products
produkcija
produz
prof
profesor
profesora
professional
professor
profil
profile
proglas
program
programa
programi
programming
programu
progress
proizvod
proizvoda
proizvode
proizvodi
proizvodnja
proizvodnje
proizvodnji
proizvodnju
proizvođac
project
projects
projekat
projekata
projekta
projektu
prolazi
prolec
promena
promenama
promene
promeni
promenljive
promenu
promovis
pronalaz
pronas
properties
property
prorac
pros
prosec
prostate
prostor
prostora
prostoru
prosveta
protected
protection
protein
proteina
proteine
proteini
proteinima
protest
protiv
protocol
protok
protokol
prouc
proveo
provide
provided
province
prsten
prstena
prunus
pruz
prva
prve
prvenstveno
prvenstvo
prvi
prvih
prvim
prvo
prvobitno
prvog
prvoj
prvom
prvu
ps
psi
psihic
psiholos
psychiatry
psychological
psychology
pt
ptica
ptice
pu
pub
public
publication
publications
publike
published
publisher
publishers
publishing
pubmed
puc
puka
pulmonary
pun
puno
purple
pus
push
put
puta
putem
puteva
putovanja
putovanje
putu
px
py
python
q
qid
qquad
quad
quality
quantum
quarterly
que
queen
quercus
query
quest
question
questions
qui
quote
quoted
r
ra
rac
race
rad
rada
rade
radi
radila
radili
radio
radionica
raditi
radnic
radnika
radnja
radnje
radom
radova
radovi
radu
raf
rai
raid
rainbow
rak
raka
raketa
ram
rana
randall
random
randomized
rane
rang
range
rangle
rani
ranih
ranije
rank
rano
rare
ras
raspoloz
rasprava
rasprave
raspravu
rast
rasta
raste
rastko
rastu
rat
rata
rate
rather
ratu
ravni
ravnotez
raw
ray
raymond
rayon
razgovor
razlic
razlika
razlike
razliku
razlikuje
razlikuju
razlog
razloga
razmis
razmnoz
razne
raznih
raznim
razumem
razumevanje
razvija
razvijaju
razvijen
razvila
razvio
razvoj
razvoja
razvoju
rb
rc
rca
rchb
rd
re
read
reader
reading
ready
reaguje
reakcija
reakcije
reakciju
real
reality
really
reason
rec
recent
receptor
receptora
receptore
receptori
reci
recimo
record
recordings
records
red
reda
redirect
reditelj
redovno
redu
reduktaza
ref
reference
references
referenci
reform
regan
region
regiona
regional
regioni
regionu
register
regulis
rehn
reka
rekao
reke
rekla
related
relations
relativno
release
religija
religije
religion
religious
rem
remix
remove
remy
renaissance
rene
rep
replace
report
reports
reprint
reprinted
republic
republici
republika
republike
request
require
required
res
research
resistance
resolution
resource
resources
response
result
results
resursa
ret
retko
retrieved
return
returns
reuters
rev
review
reviews
revised
revision
revolucije
revolution
revue
rex
rez
rezultat
rezultata
rezultate
rezultati
rf
rg
rgb
rh
rho
ri
riba
ribe
ric
rich
richard
richardson
richter
right
rightarrow
rightleftharpoons
rights
rijec
rijeka
rim
rimu
ring
rio
rise
risk
ritus
river
rizik
rizika
rj
rk
rkp
rl
rm
rn
rnk
ro
road
rob
robe
robert
roberts
robin
robinson
rock
rod
roda
roditelja
roditelji
roewer
roger
rok
roku
roland
role
roll
rolling
rom
roma
roman
romana
romance
romania
romantic
rome
ronald
room
root
ros
rosa
rose
ross
rotten
rou
round
routledge
row
rows
roy
royal
roz
rođen
rođena
rođenja
rs
rse
rsssf
rt
rts
rtve
ru
rubus
ruc
rudolf
rugby
ruke
ruku
rule
rules
run
rus
rusija
ruski
russell
russia
russian
ruz
ry
rydb
s
sa
sabate
sac
sad
sada
sadas
sadrz
sadu
safety
sage
sahara
said
saint
sainte
sajt
sajta
sajtova
sajtu
salvia
sam
sama
same
sami
samim
samo
samog
samom
samostalno
samsung
samuel
san
sandbox
sanja
santa
sanu
sao
saobrac
saops
sapwood
sar
sara
saradnik
saradnja
saradnje
saradnji
saradnju
sarah
sarajevo
sarajevu
sars
sas
sastav
sastava
sastavu
sastoje
sastoji
sasvim
sat
sata
sati
saunders
sava
save
savet
saveta
savez
saveza
savic
savremene
savrs
say
says
saz
sb
sc
scale
scalemajor
scaleminor
scena
scenario
scene
scheller
scheme
schltr
schmidt
schneider
scholar
school
schuster
sci
science
sciences
scientific
sclerosis
score
scotland
scott
scottish
screen
script
scriptstyle
scrum
scudder
sd
se
sea
search
season
sebe
sebi
sec
second
secret
section
sections
security
sedam
sedis
see
seed
seen
seine
sekundi
sekvence
sela
select
selected
selection
self
selo
selu
selys
sem
semena
sen
sense
sent
sep
separate
separator
septembar
september
septembra
septembru
ser
serbia
serbian
series
serija
serijala
serije
seriji
seriju
server
service
services
sestra
sestre
set
sets
setting
seven
sever
several
severne
severnoj
severu
sex
sexual
sezona
sezone
sezoni
sf
sfrj
sg
sh
sha
shadow
shakespeare
share
sharp
shaw
she
shear
sheet
shelley
shift
ship
sho
shock
shop
short
should
show
shown
shows
si
sic
side
sie
sigma
sign
signal
signala
signs
siguran
sigurno
sila
sile
silver
silvestri
sima
simbad
simbol
similar
simon
simonovic
simple
simplyfreddie
simptoma
simptomi
sin
sina
since
sindrom
sindroma
singl
single
singles
sintaza
sintetaza
sintetic
sinteza
sir
siromas
sisara
sistem
sistema
sistematskim
sisteme
sistemi
sistemima
sistemu
site
sites
situacija
situacijama
situacije
six
size
sjajan
sjedinjene
sjedinjenih
sjedinjenim
sk
skean
ski
skin
skladis
skladu
sklopu
skoro
skrac
skup
skupa
skupila
skups
sky
sl
slabo
slave
slaz
sledec
sledi
sleep
slic
slici
slika
slike
sliku
sloboda
slobodan
slobode
slobodna
slobodne
slobodno
slobodu
sloj
sloja
slova
slovo
sloz
sluc
slus
sluz
sly
sm
small
smanjenja
smanjenje
smanjuje
smart
smatra
smatraju
smatrali
smatram
smatrao
smatrati
sme
smederevo
smeru
smes
smirnofleary
smisla
smislu
smith
smo
smrt
smrti
sn
snaga
snage
snagu
snaz
snimanja
snimanje
snimio
snimljen
sniz
snow
snp
so
sobom
soc
soccer
social
society
socijalistic
socijalne
sociology
softver
softvera
software
solar
soli
solid
solo
sombor
some
something
son
song
songs
sons
sony
sort
sortiranje
soul
sound
soundwaweserb
source
sources
sous
south
southern
soviet
sp
space
spaces
spada
spadaju
spain
span
spanish
spas
spavanja
special
species
specific
specified
spectrum
speech
speed
spektar
spin
spirit
spirogyra
spisak
split
spljetu
spoljas
spomen
spomenici
spomenik
spomenika
spominje
sporazum
sport
sports
sposobnost
sposobnosti
spot
spp
sprec
spregnutih
spring
springer
sprovodi
spus
sputniknews
sq
sql
sqrt
square
sr
srba
srbi
srbija
srbijasport
srbije
srbiji
srbiju
src
srca
srce
srcu
srdjan
srec
sredine
sredini
sredinom
sredis
srednja
srednje
srednjeg
srednjem
srednji
srednju
sredstava
sredstva
sredstvo
srpska
srpske
srpski
srpskih
srpsko
srpskog
srpskoj
srpskom
srus
srđan
ss
ssp
st
sta
stabla
stablo
stadium
stage
stalno
stan
stand
standard
standarda
standards
stanford
stanica
stanice
stanis
stanja
stanje
stanju
stankovic
stanley
stanovnika
stanovnis
star
stara
stare
stari
starih
starije
stariji
staro
starog
starom
starosti
stars
start
state
statement
states
static
station
statistic
statistical
statistics
status
stav
stava
stavi
stavlja
staze
ste
stec
steel
stefan
stefanovic
stein
steindachner
steinicke
stekao
step
stepen
stepena
stephen
stevan
steve
steven
stewart
stih
stil
stila
still
stilu
stiz
sto
stoga
stojanovic
stoje
stoji
stoljec
stone
stop
stopa
stope
store
stories
storm
story
str
strah
strana
strand
strane
strange
strani
stranica
stranicama
stranice
stranici
stranicu
stranih
stranke
stranu
stras
strategija
strategy
strates
straz
street
stress
strike
string
strip
stripa
stroke
strong
strower
struc
structure
structures
struggle
struja
struje
struktura
strukture
strukturu
stuart
studenata
student
studenti
studies
studija
studijama
studije
studijski
studiju
studio
studios
studirao
study
stulli
stuttgart
stvar
stvara
stvaraju
stvaralas
stvaranja
stvaranje
stvari
stvarno
stvorio
style
styles
stylommatophora
su
sub
subject
subotica
subpage
subsp
success
such
sud
suda
sudova
suffix
sugeris
suggested
suite
sukob
sukoba
sulfat
sum
summary
summer
sun
sunc
sunca
sunce
sundac
sunday
suoc
super
suppl
supplement
support
supported
suprotno
supruga
supstance
supstrata
sur
surface
surg
surgery
surgical
survey
sus
susan
suz
sv
sva
svaka
svakako
svake
svaki
svako
svakog
svakoj
svakom
svaku
sve
svec
svedoc
svega
svemu
sves
sveska
svesti
svet
sveta
svete
sveti
svetlost
svetlosti
svetog
svetska
svetske
svetski
svetskog
svetskom
svetu
svez
svg
svi
svih
svim
svima
svira
svjetlost
svog
svoga
svoj
svoja
svoje
svojih
svojim
svojoj
svojom
svojstva
svojstvo
svoju
svom
svrhe
svrhu
svu
sw
sweet
switch
sydney
symbol
symbols
symposium
syndrome
syntax
system
systematic
systems
szlo
t
ta
tab
tabela
tabele
table
tables
tac
tad
tada
tadas
tag
tags
taj
taja
tajna
tajne
taju
takav
take
taken
takes
takmic
tako
takodje
takođe
takva
takve
takvi
takvih
takvim
takvo
tala
talas
talasa
tale
tales
talk
tamo
tan
tanja
tanje
taraxacum
target
task
tau
tava
tavanje
taxon
taxonomy
taylor
td
te
team
teatar
tebe
tebi
tec
tech
technical
techniques
technology
tehnic
tehnika
tehnike
tehnologija
tehnologije
tehnolos
tek
tekst
teksta
tekstova
tekstove
tekstovi
tekstu
tel
tela
telefona
telegraph
television
televizija
televizije
televiziji
tell
telo
telu
tem
tema
teme
temminck
temperatura
temperature
temperaturi
template
templatedata
templates
temple
temu
ten
tena
tene
teni
tenja
tenje
teno
teorija
teorije
teoriji
teoriju
ter
terapija
terapije
teritorije
teritoriji
term
termin
terms
terra
tes
tesla
test
testa
testing
testiranje
tests
tete
tetu
tex
texas
text
textbook
textcolor
texts
tez
tfrac
th
than
thank
thanks
that
the
theater
theatre
their
them
then
theoi
theology
theories
theory
therapy
there
theridion
thermal
these
thesis
theta
they
thing
things
think
third
this
thomas
thompson
thomson
thorell
those
thought
thousand
three
through
thumb
ti
tic
tica
tice
tif
tih
till
tim
tima
time
timeaxis
timeline
times
tina
tine
tini
tinu
tip
tipa
tipic
tipova
tipovi
tiskare
tiskom
tita
tite
titi
title
titles
tito
titsingh
titu
titulu
tj
tkiva
tkivo
tko
tm
to
toc
today
todor
tog
toga
together
toj
tok
tokom
toksic
toku
tokyo
toliko
tom
toma
tomas
tomatoes
tome
ton
tona
toni
tonumber
tony
too
tool
tools
tooltip
top
topic
toplote
torino
toronto
torr
tostring
tot
total
touch
tour
tovanje
towards
tower
town
tr
tra
track
tracking
trade
tradicija
tradicionalno
tradition
traditional
training
trajanja
traje
trans
transfer
transferaza
transfermarkt
translate
translated
translation
translations
translator
transport
trauma
travel
traz
trbus
tre
treatment
treaty
treba
trebalo
trec
tree
trees
trel
trends
trener
trenutku
trenutno
tres
tretman
trg
trgovac
trgovine
trgu
tri
trial
trim
trnk
trogira
tros
trudnoc
true
trust
truth
try
trz
ts
tt
tu
tumac
tumor
tumora
tumori
turdus
turistic
turkey
turkish
turn
turner
tuz
tv
tva
tvene
tveni
tvenih
tvenim
tveno
tvo
tvoj
tvoja
tvoje
tvom
tvrde
tvrdi
tvrdio
tvu
twentieth
twinkle
twitter
two
type
types
tzv
u
ua
ubija
ubije
ubio
ubrzo
uc
uci
ucode
udaljenosti
udara
udeo
udp
udruz
udz
uefa
ugao
ugc
uglavnom
ugljen
ugljenik
ugljenika
ugovor
ugovora
ugroz
uh
uhaps
uje
ujedinjenih
ujedno
uju
ujuc
uk
ukazuje
ukazuju
uklanjanje
ukljuc
ukoliko
ukraine
ukrainian
ukras
ukupno
ukusa
ul
ula
ulaz
ulaza
ulazi
ulica
ulici
ulja
ulje
uloga
uloge
ulogu
ulozi
ultimate
ultra
um
uma
umadija
ume
umesto
umetnic
umetnika
umetnost
umetnosti
umjetnost
umjetnosti
umro
un
una
unapred
unara
und
under
understanding
une
unesco
unicode
unija
unije
union
unis
unit
united
units
univ
universal
universe
universita
university
univerzitet
univerziteta
univerzitetu
unknown
unos
until
unutar
unutras
uo
uobic
uoc
uops
up
update
updated
upload
upon
upotreba
upotrebe
upotrebi
upotrebljava
upotrebom
upotrebu
upper
uprava
uprave
upravljanja
upravljanje
upravo
upright
uprkos
upuc
ur
uradi
uradio
urb
urban
uredio
urednik
uređaj
uređaja
uređaji
uređivac
uri
url
urol
us
usa
usage
usavrs
usb
use
used
useful
user
users
uses
using
uskoro
usled
uslov
uslova
uslove
uslovi
uslovima
usluga
usluge
usmena
uspeh
uspeha
uspeo
uspes
uspeva
usta
ustas
ustring
usually
ut
utc
ute
uti
utic
uticaj
uticaja
uticajem
utilities
utvrđeno
utype
uva
uvanje
uvec
uvek
uveo
uvod
uz
uzeti
uzima
uzrok
uzrokuje
v
va
val
valenciennes
valid
valjda
valjevo
valley
value
values
vam
van
var
varepsilon
variant
variety
varijanta
varijante
various
varira
varos
varphi
vas
vascular
vaz
vazduh
vazduha
vazdus
vcc
ve
veb
vec
vector
vek
veka
veku
velic
velika
velike
veliki
velikih
velikim
veliko
velikog
velikoj
velikom
veliku
venc
venus
veoma
vera
verhoeff
verlag
verovatno
verovatnoc
version
versus
veruje
verujem
very
verzija
verzije
verziji
verziju
ves
vest
vesti
vez
veza
vezan
vezana
vezane
vezani
vezanih
veze
vezi
vezivanja
vezivanje
vezu
vezuje
vezuju
vi
via
vic
vice
victor
victoria
vid
vida
vide
video
videos
videti
vidi
vidim
vidimo
vidis
vidu
vie
vienna
view
vii
viii
vijeka
vijesti
viki
vikipedija
vikipedije
vikipediji
vikipediju
vil
vila
vilijam
villa
village
ville
vincent
vinis
violence
virgin
virginia
virtual
virus
virusa
vis
vise
visina
visine
vision
visok
visoka
visoke
visokim
visoko
visokog
visual
vita
vitamin
vitamina
vivo
vlada
vladavine
vlade
vladimir
vlas
vlasnik
vlasnis
vlast
vlasti
vlaz
vo
voc
voda
vode
vodec
vodi
vodic
vodio
vodom
vodonik
vodonika
vodu
voice
void
vojna
vojne
vojni
vojnika
vojska
vojske
vojvoda
vojvodina
vojvodine
vokal
vol
voli
volje
vols
volume
volumes
vom
von
vor
vora
vorova
voz
vozac
vozila
vođa
vp
vrac
vrata
vrati
vratila
vratio
vrbasu
vrednost
vrednosti
vreme
vremena
vremenom
vremenski
vremenu
vrh
vrhu
vrijeme
vrlo
vrs
vrsta
vrste
vrsti
vrstu
vs
vuc
vuk
vulgaris
vux
vuxman
vv
w
wa
wagner
wake
wales
walker
wall
walt
walter
wang
want
wanted
war
ward
warfare
warner
warning
warren
wars
was
washington
watch
water
watson
wave
way
wayback
we
web
weber
website
webster
week
weekly
weight
welcome
well
wells
were
werner
west
western
what
when
where
whether
which
while
white
whitley
who
whole
why
wide
width
wien
wife
wii
wiki
wikibase
wikidata
wikilink
wikimapia
wikimedia
wikipedia
wikis
wikisource
wikitext
wild
wiley
wilhelm
will
william
williams
wilson
win
wind
window
windows
winter
with
within
without
wmf
wolf
wolfgang
woman
women
won
wood
word
words
work
working
works
workshop
world
would
wp
wr
wright
write
writing
writings
written
wrong
wu
www
x
xbox
xc
xd
xe
xi
xii
xiii
xiv
xix
xl
xml
xp
xv
xvi
xvii
xviii
xx
xxi
xxii
xxiii
xxiv
xxvii
xxx
xz
y
ya
yahoo
yale
yang
year
years
yellow
yes
yet
yo
york
you
young
your
youth
youtube
yu
yucca
yugoslavia
yyyy
z
za
zabelez
zac
zadatak
zadruga
zadrz
zaduz
zagor
zagreb
zagrebu
zahtev
zahteva
zahtevaju
zahvaljujuc
zaista
zajednic
zajednica
zajednice
zajednici
zajedno
zakljuc
zakon
zakona
zakonom
zakonu
zaleđe
zapadna
zapadne
zapadnoj
zapadu
zapaz
zapis
zapoc
zaposlenih
zapravo
zar
zas
zasluz
zasniva
zasnovan
zasnovana
zastava
zasto
zatim
zato
zavise
zavisi
zavisno
zavisnosti
zavod
zavrs
zbirka
zbirke
zbog
zbornik
zdravlja
zdravlje
zdravo
zdravstvene
ze
zealand
zec
zeitschrift
zemalja
zemlja
zemljama
zemlje
zemlji
zemljis
zemlju
zemun
zero
zgrada
zgrade
zh
zhang
zid
zida
zla
zlata
zlatna
zlatni
zlato
zlo
zloc
zmaj
zn
zna
znac
znaci
znaju
znak
znam
znamo
znanja
znanje
znanosti
znao
znas
znatno
zona
zone
zoo
zora
zoran
zoranzoki
zove
zovu
zrac
zrno
zu
zum
zur
zvanic
zvezda
zvezde
zvuc
zvuk
zvuka
zyyy
{
|
}
~
¡
£
¤
§
¨
©
ª
«
¬
­
®
°
±
²
³
´
µ
¶
·
¸
¹
º
»
¼
½
¾
¿
×
ß
æ
ð
÷
ø
đ
đa
đe
đorđe
đorđevic
ı
ł
ƒ
ȣ
ə
ɛ
ɪ
ʰ
ʷ
ʻ
ʼ
ʾ
ʿ
ˈ
ˌ
ː
ˑ
˚
˝
ˮ
̀
́
̂
̃
̄
̆
̇
̈
̉
̊
̋
̌
̏
̑
̓
̔
̛
̝
̞
̠
̣
̥
̦
̧
̨
̯
̱
̸
͂
ͅ
͡
΄
α
β
γ
δ
ε
ζ
η
θ
ι
κ
λ
λαςμπ
μ
ν
νικο
ξ
ο
π
ρ
ς
σ
τ
υ
φ
χ
ψ
ω
а
аа
аба
абасоло
абахо
абд
абдул
абдулах
абедам
аберација
аберације
аби
абортус
абрахам
абруцо
абу
ав
ава
авала
авантура
авантуре
авантуристички
авари
авај
авг
авганистан
авганистана
авганистану
август
августа
августу
авелино
аверсу
авив
авио
авион
авиона
авионе
авиони
авионима
авионом
авиону
авијација
авијације
авној
аврам
аврама
аврамовић
ага
агате
агатон
агва
агвакате
агваскалијентес
аге
агената
агенси
агент
агента
агенти
агенција
агенције
агенцији
агенцију
агилиља
агонисти
агресије
агустин
ад
ада
адам
адама
адамс
адаптација
адаптације
адаптацији
адаптацију
адаптирана
адвокат
адвоката
адвокати
аде
адекватан
адекватно
адел
ади
админ
админа
админи
административна
административне
административни
административним
административних
административно
административног
административном
административну
администратор
администратора
администраторе
администратори
администраторима
администраторска
администраторских
администрација
администрације
администрацији
администрацију
адмирал
адмирала
адолф
адолфа
адреса
адресе
адреси
адресу
адријан
адријана
аек
аеро
аеродром
аеродрома
аеродроми
аеродрому
ажурирање
аз
азалан
азербејџан
азербејџана
азербејџанске
азербејџански
азербејџану
азил
азија
азије
азији
азијске
азијски
азијским
азијских
азију
азот
азота
азуета
азул
аидс
аирес
ак
академик
академика
академици
академија
академије
академији
академију
академска
академске
академски
академским
академских
академског
акамбаро
акапетава
акапулко
аката
акатлан
акајукан
аквила
аквитанија
акила
акисмон
ако
аксиома
акт
акта
акте
акти
активан
активизам
активира
активирају
активиста
активисти
активисткиња
активна
активне
активни
активним
активних
активно
активног
активном
активност
активности
активностима
активношћу
активну
актима
актом
актопан
акту
актуелна
актуелне
актуелни
актуелним
акумулација
акумулације
акутна
акутне
акутни
акутног
акуња
акценат
акционар
акционара
акционари
акционарско
акционарског
акциони
акција
акцијама
акције
акцији
акцијом
акцију
ал
ала
алабама
алабами
аламо
аламос
алан
алана
алат
алата
алате
алати
алатке
алах
алба
албанаца
албанија
албаније
албанији
албанију
албанска
албанске
албански
албанским
албанских
албанског
албанском
албанци
албанцима
албедо
алберт
алберта
алберти
алберто
албино
албум
албума
албуме
албуми
албумима
албумом
албуму
алварадо
алварез
алваро
алге
алгебра
алги
алгоритам
алгоритама
алгоритма
алгоритми
алдама
але
алегре
алек
алекс
алекса
александар
александер
александра
александре
александрије
александрији
александријски
александром
александру
алексе
алексеј
алексеја
алексинац
алексиначко
алексинцу
алексис
алексија
алексије
алексић
алеман
ален
алесандрија
алесандро
алехандро
алеји
алжир
алжира
алжиру
али
алис
алиса
алисон
алија
алијанса
алијансе
алије
алкени
алкохол
алкохола
алкохоли
алма
алманах
алмолоја
алонса
алонсо
алпа
алпи
алпима
алпски
алпско
алпском
алт
алта
алтамира
алтамирано
алтар
алтернатива
алтернативна
алтернативне
алтернативни
алтернативно
алто
алуминијум
алуминијума
алфа
алфабет
алфабета
алфонса
алфонсо
алфред
алфреда
алфредо
ам
ама
аман
аманда
амандман
амандмана
аматепек
аматерски
аматлан
амбасада
амбасаде
амбасади
амбасадор
амбасадора
амбасадори
амбиција
амбиције
амблем
амбуланта
америка
американац
американаца
американци
америке
америку
америци
америчка
америчке
амерички
америчким
америчких
америчко
америчког
америчком
америчкој
америчку
амин
амини
аминокиселина
аминокиселине
амо
амолес
амонијум
амплијасион
амстердам
амстердаму
амфилохије
ан
ана
анавак
анадолије
анадолији
анали
анализа
анализе
анализи
анализира
анализом
анализу
аналогно
анастасија
анастасије
анатомија
анатомије
ангажман
ангажован
ангажована
ангажовани
ангажовао
ангажовања
ангажовање
ангажује
ангелина
англо
ангола
анголе
ангостура
андерс
андерсон
андора
андоре
андра
андре
андреа
андреас
андрес
андреј
андреја
андрејевић
андрија
андрије
андрић
андрића
андроид
андромеда
андроник
андроника
ане
анексије
анестезије
ани
анимација
анимације
аниме
анимирана
анимиране
анимирани
анита
аница
анка
анкета
анкете
анкети
анкона
анксиозност
анксиозности
аном
аномалија
аномалије
анонимни
анри
анрија
ансамбл
ансамбла
ант
анта
антагонисти
антанте
антарктик
антарктика
анте
антена
антене
анти
антибиотика
антибиотици
антигва
антике
антиохије
антитела
антифашистичке
антифашистичког
антици
античка
античке
антички
античких
античко
античког
античком
античкој
антић
антоан
антологија
антологије
антон
антона
антони
антонио
антонија
антоније
антонијевић
антропологија
антропологије
антун
антуна
ану
анхалт
анхел
анхелес
анђа
анђела
анђелес
анђелеса
анђелесу
анђели
анђелија
анђелка
анђелковић
анђео
ао
аоме
аорте
аосте
ап
апазинган
апарат
апарата
апасео
апел
апис
апликација
апликацијама
апликације
аполо
аполон
апостол
апостола
апостоли
апотека
апр
април
априла
априлски
априлског
априлском
априлу
апсиде
апсидом
апсолутна
апсолутне
апсолутни
апсолутно
апсолутну
апсорбује
апулија
ар
ара
арабија
арабије
арабији
арагона
арад
арамбери
арандас
аранжман
аранитовић
аранђеловац
аранђеловић
арапа
арапи
арапска
арапске
арапски
арапским
арапских
арапско
арапског
арапском
арбих
аргентина
аргентине
аргентини
аргентински
аргентину
аргумената
аргумент
аргумента
аргументе
аргументи
аргументима
арден
ардени
ареал
арена
аренал
арене
арени
арецо
ариба
аризона
аризони
ариспе
аристократија
аристократије
аристотел
арија
аријага
арканзас
арканзасу
армија
армије
армији
армијом
армијске
армијски
армијског
армију
армстронг
арно
арнолд
ароматични
арон
аројо
арса
арсен
арсенал
арсенала
арсенија
арсеније
арсенијевић
арсић
арт
артеага
артерија
артерије
артиљерија
артиљерије
артиљеријом
артиљеријска
артиљеријске
артиљеријски
артиљеријских
артиљеријског
артиљерију
артур
артура
арх
архангела
арханђела
археолог
археолога
археологија
археологије
археолози
археолошка
археолошке
археолошки
археолошким
археолошких
археолошко
археолошког
архив
архива
архиве
архиви
архивске
архиву
архиепископ
архиепископа
архиепископија
архиепископије
архимандрит
архимандрита
архипелаг
архипелага
архипелагу
архитеката
архитекта
архитекте
архитекти
архитектонске
архитектонски
архитектонских
архитектонско
архитектонског
архитектонском
архитектура
архитектуре
архитектури
архитектуру
архијереј
архијереја
архијерејски
архијерејског
арђеш
ас
асен
асенсион
асистент
асистента
асистенција
асистенције
асистенцију
асистирао
асијенда
асијентос
асколи
асоцијација
асоцијације
аспеката
аспект
аспекта
аспекте
аспекти
аспектима
астероид
астероида
астероиди
астероидни
астероидног
астероиду
асти
астме
астон
астронаута
астронаути
астроном
астрономи
астрономија
астрономије
астрономији
астрономска
астрономски
астрономских
асунсион
ат
атанасија
атанасије
атар
атара
атару
атеизам
атеисти
атентат
атентата
атентату
атеље
атељеу
атина
атине
атини
атински
атину
атињани
атланта
атланти
атлантик
атлантика
атлантику
атлантски
атлантског
атлас
атлетик
атлетика
атлетико
атлетици
атлетичар
атлетичара
атлетичари
атлетичарка
атлетичарке
атлетичарки
атлетска
атлетске
атлетски
атлетских
атлетског
атмосфера
атмосфере
атмосфери
атмосферски
атмосферу
атом
атома
атоми
атомска
атомске
атомски
атотонилко
атојак
атп
атракција
атракције
атрибут
атрибута
аугуст
аугуста
ауди
аудио
аурора
аустралија
аустралије
аустралији
аустралијска
аустралијске
аустралијски
аустралијског
аустралију
аустрија
аустријанаца
аустријанци
аустрије
аустрији
аустријом
аустријска
аустријске
аустријски
аустријским
аустријских
аустријско
аустријског
аустријском
аустријској
аустријску
аустрију
аустро
аустроугарска
аустроугарске
аустроугарски
аустроугарских
аустроугарског
аустроугарском
аустроугарској
аустроугарску
аут
аутентичност
ауто
аутобиографија
аутобус
аутобуса
аутобуси
аутобуска
аутомат
аутомата
аутоматски
аутоматско
аутоматског
аутомобил
аутомобила
аутомобиле
аутомобили
аутомобилима
аутономија
аутономије
аутономију
аутономна
аутономне
аутономни
аутономних
аутономној
аутопут
аутопута
аутор
аутора
ауторе
аутори
ауторима
ауторитет
ауторитета
ауторка
ауторска
ауторске
ауторски
ауторским
ауторских
ауторско
ауторског
аутору
аутохтоних
аушвиц
афел
афера
афере
аферу
афк
африка
африке
африку
африци
афричка
афричке
афрички
афричких
афричког
афричком
ах
ахмед
ахмет
ахумада
ац
аца
ацетамиди
ацо
ашер
ађутант
ај
аја
ајакс
ајала
ајд
ајдахо
ајде
ајкула
ајкуле
ајнштајн
ајова
ајови
ајрес
ајресу
ајрон
ајутла
ајфелкрајс
аљаска
аљаске
аљасци
аљенде
аћим
аћимовић
б
ба
баба
бабе
бабић
бабо
бабушница
баварска
баварске
баварској
баве
бавећи
бави
бавила
бавили
бавио
бавити
бављења
бављење
багдад
багдаду
бад
баден
бадирагвато
база
базама
базе
базен
базена
базенима
базену
бази
базилика
базиликата
базилике
базира
базиран
базирана
базиране
базирани
базом
базу
баиа
бака
бакар
бакау
бакић
бакра
бактерија
бактерије
баку
бакум
бакуу
бал
балада
баладе
баланкан
балашева
балдуин
балет
балета
балистичке
балкан
балкана
балканолошки
балканска
балканске
балкански
балканским
балканских
балканско
балканског
балканском
балкану
балон
балтичке
балтичко
балтичког
балша
балшића
бан
бана
банака
банана
банат
баната
банатске
банатски
банату
бангладеш
банда
банде
бандерас
банди
бане
банија
баније
банка
банке
банку
бановина
бановине
бановић
банскобистрички
банскобистричком
бану
банци
бар
бара
бараж
барака
баранка
барања
барање
барбара
барбароса
баре
барем
бари
барио
баријера
баријере
барка
барока
барокни
барон
барона
барселона
барселоне
барселони
барселону
бартоло
бартон
бару
барут
барута
барјак
бас
басен
басена
басену
басиста
басме
басне
бат
бата
батаљон
батаљона
батаљони
батаљоном
батаљону
батерија
батерије
батиста
батлер
батон
батопилас
баточина
бауер
баутиста
бафта
бах
бахио
бахреин
баца
бацач
бацача
бацају
бацања
бацање
бацању
баци
бацила
бацили
бацио
бач
бачванске
бачен
бачена
бачка
бачке
бачки
бачко
бачком
бачкој
бачку
баш
башић
башта
баште
башти
баштина
баштине
баштину
башту
бај
баја
бајазит
бајазита
бајалице
бајања
бајање
баје
бајер
бајерн
бајина
бајић
бајка
бајке
бајки
бајконур
бајо
бајтова
баљеза
бања
бањалука
бањалуке
бањалуци
бањац
бање
бањи
бањица
бањој
бању
бб
ббц
бгд
бдп
бе
беатрис
беба
бебе
бебу
беверли
бег
бега
бегова
беговић
бегу
бедем
бедема
беже
бежећи
бежи
без
безбедно
безбедносне
безбедносних
безбедност
безбедности
безброј
безбједности
безкн
безоквира
безсадржаја
безуспешно
бек
бека
бекер
бекови
бекства
бекство
бекству
бел
бела
белаца
белгија
белгије
белгији
белгијски
белгију
беле
бележе
бележи
бележио
белешке
бели
белим
белиписац
белих
белић
бело
белог
белом
белопаланачког
белорусија
белорусије
белорусији
белоруска
белоруске
белоруски
белој
белу
белуно
бен
бенд
бенда
бендова
бендом
бенду
беневенто
бенедето
бенедикт
бенет
бенетон
бенитез
бенито
бенџамин
бео
београд
београда
београдом
београдска
београдске
београдски
београдским
београдских
београдско
београдског
београдском
београдској
београдску
београду
београђани
бер
беране
бергамо
береникина
берза
берзе
берзи
бери
бериозабал
беркли
берлин
берлина
берлински
берлинског
берлинском
берлину
берн
бернал
бернар
бернард
бернарда
бернардо
бес
беса
бесан
беседа
беседе
беседи
бесконачно
бескрајно
бесмислено
бесни
бесплатан
бесплатне
бесплатно
бет
бета
бети
бетмен
бетон
бетона
беху
беч
беча
бечеј
бечеју
бечка
бечке
бечки
бечког
бечком
бечу
беше
бешике
беј
бејах
бејаху
бејаш
бејаше
бејзбол
бејкер
бејл
бејли
бећарац
би
биатлон
биатлону
бибер
библбро
библиографија
библиотека
библиотекама
библиотекар
библиотекара
библиотеке
библиотеком
библиотеку
библиотеци
библија
библије
библији
библијске
бива
бивају
бивша
бивше
бившег
бившем
бивши
бившим
бивших
бившој
бившу
биг
бигз
бизмарк
бизнис
бизнисмен
бик
бика
бил
била
биланс
билбао
билборд
биле
билећа
били
било
билтен
бин
био
биоград
биограду
биографија
биографије
биографији
биографију
биографски
биолог
биологија
биологије
биологију
биолошка
биолошке
биолошки
биолошких
биолошког
биоскоп
биоскопа
биоскопима
бира
бирали
биран
бирани
бирао
бирача
бирачко
бирачког
бирају
бирмингем
бирмингему
биро
бироа
бирократа
бирократе
бисао
бисер
бисера
бисери
бискуп
бискупа
бискупија
бискупије
бисмо
биста
бисте
бистра
бистрица
бит
бита
битака
битан
битбург
бити
битка
биткама
битке
битком
битку
битна
битне
битни
битним
битних
битно
битну
битова
битољ
битоља
битољу
бих
бихаћ
бихаћа
бихаћу
бихор
бици
бицикл
бициклизам
бициклизму
бициклиста
бициклисти
бич
бише
бијаху
бијаше
бије
бијела
бијеле
бијели
бијело
бијелог
бијелом
бијелу
бијенале
бијељина
бијељине
бијељини
биља
биљака
биљана
биље
биљка
биљкама
биљке
биљку
биљне
биљни
биљним
биљних
биљног
бић
бића
биће
бићу
бк
бл
бла
благ
блага
благајнама
благе
благи
благим
благо
благовремено
благом
благослов
благослови
благостања
благостање
благоја
благоје
благојевић
благу
блаже
блажи
бланка
бланко
блас
блата
блато
блаце
блед
бледа
блек
блер
блејк
блејка
ближе
ближи
близак
близанци
близина
близине
близини
близу
блиска
блиске
блиски
блиским
блиских
блиско
блиског
блиском
блиској
блиску
блиц
блог
блок
блока
блокада
блокаде
блокаду
блокира
блокирали
блокиран
блокирани
блокирао
блокирати
блокирају
блокирања
блокирање
блокова
блокове
блокови
блоку
блу
блуз
блум
бо
боб
боба
бобан
боби
бован
бог
бога
богат
богата
богате
богати
богатим
богатих
богато
богатог
богатом
богатој
богатства
богатство
богатством
богатству
богату
богдан
богдана
богдановић
богиња
богиње
богме
богова
богове
богови
боговима
богом
богородица
богородице
богородици
богословија
богословије
богословију
богослужења
богослужење
богољуб
богу
богуновић
бод
бода
бодин
бодова
бодове
бодови
бож
божа
божанске
божански
божанског
божанстава
божанства
божанство
боже
божидар
божидара
божија
божије
божији
божић
божића
божићна
божићне
божићни
божо
божовић
божја
божје
божјег
божји
божју
боинг
бок
бока
боке
боки
бокојна
бокс
боксер
боксу
боку
бол
бола
болан
болањос
болен
болеслав
болесна
болесне
болесник
болесника
болеснике
болесници
болест
болестан
болести
болестима
болешћу
боли
боливија
боливије
боливији
болница
болницама
болнице
болници
болницу
болно
болова
болове
болови
болом
болоња
болује
болцано
бомба
бомбама
бомбардер
бомбардера
бомбардери
бомбардерски
бомбардовали
бомбардовања
бомбардовање
бомбардовањем
бомбардовању
бомбе
бомби
бомбу
бон
бонапарта
бонд
бонда
бонду
бони
бонита
бонус
бонфил
бор
бора
боравак
бораве
борави
боравила
боравили
боравио
боравка
борац
бораца
борба
борбама
борбе
борбена
борбене
борбени
борбеним
борбених
борбено
борбеног
борбену
борби
борбом
борбу
бордо
боре
борећи
бори
боривоје
борила
борилачке
борилачких
бориле
борили
борио
борис
бориса
борисав
борислав
борити
боро
борова
бору
борусије
борца
борце
борци
борцима
бос
боса
босанска
босанске
босански
босанским
босанских
босанско
босанског
босанском
босанскохерцеговачки
босанској
босанску
босиљак
босиљка
босна
босне
босни
босном
босну
бостон
бостона
бостону
бот
бота
ботаничка
ботови
ботошани
бохемије
бочна
бочне
бочни
бочним
бочних
бочно
бошка
бошко
бошковић
бошњак
бошњака
бошњаци
бошњачки
бој
боја
бојама
бојан
бојана
бојане
бојанић
бојао
боје
бојење
бојећи
боји
бојим
бојишта
бојишту
бојић
бојна
бојне
бојни
бојних
бојног
бојном
бојо
бојовић
бојом
бојс
боју
боља
боље
бољевачког
бољег
бољем
бољи
бољим
бољих
бољу
бољшевика
бољшевици
бр
бра
браво
брада
браде
браду
бразил
бразила
бразилска
бразилске
бразилски
бразилу
брак
брака
бракова
бракови
браку
брана
бранденбург
брандо
бране
бранећи
брани
бранила
бранилац
бранилаца
бранили
бранимир
бранио
браниоца
браниоци
бранислав
бранислава
бранити
браничевском
бранка
бранко
бранковић
бранковића
браон
браство
брат
брата
брате
братислав
братислава
братислави
братом
братства
братство
брату
братунац
браун
брауна
брачне
брачни
брачног
брашна
брашно
брашов
брајан
брајана
брајант
брајовић
браћа
браће
браћи
браћо
браћом
браћу
брвнара
брвнаре
брда
брдима
брдо
брдска
брдске
брдски
брдско
брду
бре
брег
брега
брегу
бред
бредли
бреза
бренд
бренда
брест
бреша
брже
бржи
брз
брза
брзе
брзи
брзим
брзина
брзинама
брзине
брзини
брзином
брзину
брзих
брзо
брзог
брзом
брзу
брига
бригада
бригаде
бригади
бригадни
бригадом
бригаду
бриге
бригу
брине
брину
бринуо
брисати
брисања
брисање
брисању
брисел
бриселу
бристол
брит
британаца
британика
британија
британије
британији
британију
британска
британске
британски
британским
британских
британско
британског
британском
британској
британску
британци
британцима
брише
бришу
бркић
брно
бро
брод
брода
бродвеју
бродова
бродове
бродови
бродовима
бродом
бродски
броду
броз
броза
бронза
бронзана
бронзане
бронзани
бронзаних
бронзано
бронзаног
бронзану
бронзе
бронзу
број
броја
бројала
бројао
броје
бројева
бројеве
бројеви
бројевима
бројем
броји
бројке
бројна
бројне
бројни
бројним
бројних
бројно
бројност
бројности
броју
бројчано
брук
бруклин
брукс
бруно
брус
брут
брутално
бруто
брчко
бршљанова
бск
бу
буба
бубањ
бубе
бубрега
бубњар
бубњеви
буг
бугара
бугаре
бугари
бугарима
бугарска
бугарске
бугарски
бугарским
бугарских
бугарско
бугарског
бугарском
бугарској
бугарску
бугојно
буд
буда
будала
будва
будве
будви
буде
будем
будемо
будете
будеш
буди
будизам
будизма
будим
будима
будимир
будимпешта
будимпеште
будимпешти
будиму
будистички
будите
буду
будућа
будуће
будућег
будућем
будући
будућим
будућих
будућност
будућности
будућу
буена
буенавентура
буенависта
буенос
бузау
бук
бука
буква
буквално
буквар
букве
буке
буковица
букурешт
букурешту
бул
була
булатовић
булевар
булевара
булевару
буна
бунар
бунара
бундеслиге
бундеслиги
буне
буни
буну
бура
бургић
бургос
бургоња
бургундије
буре
буржоазије
бутан
бутана
буха
буш
буђење
бујановца
буњеваца
буњевци
буџет
буџета
буџетом
буџету
българска
български
бјелица
бјеловарско
бјеху
бјеше
в
ва
вавилон
вавилона
вагнер
вагона
вади
важан
важе
важи
важио
важна
важне
важни
важним
важних
важнија
важније
важнији
важнијих
важно
важном
важност
важности
важну
ваз
вазал
вазала
вазали
вазда
ваздух
ваздуха
ваздухом
ваздухоплова
ваздухопловна
ваздухопловне
ваздухопловни
ваздухопловних
ваздухопловног
ваздухопловства
ваздухопловство
ваздухопловству
ваздуху
ваздушна
ваздушне
ваздушни
ваздушним
ваздушних
ваздушно
ваздушног
ваздушном
ваздушну
вазнесења
вако
вакуф
вакцина
вакцине
вал
вала
вале
валенсија
валенсије
валенсији
валентин
валентина
валенција
вали
валоа
валпараисо
валтер
валута
валуте
валча
вам
вама
вампира
ван
ванг
вандала
вандализам
ванеса
ванкувер
ванкуверу
ванредне
ванредни
ванредним
ванредно
ванредног
вар
вара
варвара
варварин
варда
вардар
вардара
варезе
варење
варира
варирају
варијабле
варијабли
варијанта
варијантама
варијанте
варијанти
варијанту
варијација
варијације
варош
вароши
варошица
варошице
варошици
варшава
варшаве
варшави
варшавског
вас
васа
васе
васељенски
васил
василиј
василија
василије
васиљевић
васић
васкез
васко
васкрсења
васлуј
васо
васпитања
васпитање
васпитању
васпитно
ватерполиста
ватерполисти
ватерполо
ватерполу
ватикан
ватикана
ватра
ватре
ватрени
ватрено
ватреног
ватри
ватром
ватру
ваутла
вацлав
ваш
ваша
вашар
ваше
вашег
вашем
ваши
вашим
вашингтон
вашингтона
вашингтону
ваших
вашој
вашу
вађење
вај
вајар
вајара
вајари
вајарство
вајлд
вајоминг
вајс
вајт
ваља
ваљадолид
ваљало
ваљано
ваљда
ваље
ваљева
ваљево
ваљевске
ваљевског
ваљеву
ваљес
вања
вд
ве
веб
вебер
вебсајт
веверица
вега
вегетација
вегетације
вегетацијом
ведро
вежба
вежбања
вежбање
вежбе
вежби
веже
вежу
вез
веза
везама
везан
везана
везане
везани
везаним
везаних
везано
везе
вези
везивања
везивање
везир
везира
везни
везног
везом
везу
везује
везују
век
века
векова
векове
вековима
векослав
вектор
вектора
веку
вел
веле
велес
велеслалому
вели
велибор
велизар
велик
велика
великана
великаша
великаши
велике
велики
великим
великих
велико
великог
великога
великом
великомученика
великој
велику
велим
велимир
велимировић
величанства
величанствени
величанство
величина
величине
величини
величином
величину
величковић
велиш
велс
велса
велсу
велшки
вена
венадо
венац
венди
вене
венера
венере
венето
венеција
венеције
венецији
венецију
венецуела
венецуеле
венецуели
вентила
венустијано
венца
венцем
венци
венцу
венчали
венчао
венчања
венчање
венчању
венче
веома
вер
вера
веракруз
веран
вербано
верде
вере
верзија
верзијама
верзије
верзији
верзијом
верзију
вери
вермахта
верна
вернер
верни
верника
верници
верно
верност
веровала
веровали
веровало
веровао
веровати
вероватније
вероватно
вероватноћа
вероватноће
вероватноћу
веровања
веровање
веровању
вероисповест
вероисповести
вером
верона
вероника
верска
верске
верски
верским
верских
верско
верског
верском
верску
верстапен
вертикална
вертикалне
вертикални
вертикалним
вертикално
веру
веруј
верује
верујем
верују
верујући
верчели
вес
весела
веселе
весели
веселин
веселиновић
весело
весео
весеља
весеље
веслачи
веслање
весна
вест
вестервалд
вестерн
вести
вестима
вестфалија
вет
ветар
ветерана
вето
ветра
ветрова
ветрови
ветром
вече
вечера
вечерас
вечере
вечери
вечеру
вечерње
вечити
вечито
вечна
вечне
вечни
вечно
вечност
вешт
вештачка
вештачке
вештачки
вештачким
вештачких
вештачко
вештачког
вештина
вештинама
вештине
вештину
вештица
вештице
вешто
вејд
вејн
веља
вељка
вељко
вељковић
већ
већа
веће
већег
већем
већи
већим
већина
већине
већини
већином
већинска
већински
већинским
већинско
већину
већих
већма
већом
већој
већу
ви
вибо
вид
вида
видаковић
виде
видеа
видевши
видела
видели
видело
видео
видети
видех
видећи
види
видим
видимо
видио
видите
видиш
видић
видно
видова
видовдан
видом
виду
видјети
видљив
видљива
видљиве
видљиви
видљиво
видљивост
византинци
византија
византије
византији
византијом
византијска
византијске
византијски
византијским
византијских
византијско
византијског
византијском
византијској
византијску
византију
визија
визије
визију
визуелне
визуелни
визуелних
визуелно
вик
вика
викенд
викенда
викерс
вики
викизворник
викимедија
викимедије
викимедијине
википедија
википедијама
википедијанац
википедијанаца
википедијанци
википедије
википедији
википедију
википодацима
википројект
викну
виктор
виктора
викторија
викторије
вил
вила
вилајет
вилајета
вилајету
виле
вилер
вилењака
вили
вилица
вилице
вилијам
вилијама
вилијамс
вилијамса
вилсон
вилу
вилхелм
вилхелма
вим
вимблдон
вимблдона
вимблдону
вин
вина
винишћа
винко
вино
винове
виноград
винограда
виногради
вином
винсент
винстон
винчи
вио
виола
виолета
виолина
виолине
виолиниста
виолину
виолончело
вир
виртемберг
виртуелна
виртуелне
вирус
вируса
вируси
вирусом
вирџинија
вирџиније
вирџинији
вис
висенте
виси
висина
висинама
висине
висини
висином
висину
висконсин
висконсину
висок
висока
високе
високи
високим
високих
високо
високог
високом
високој
високу
висораван
висоравни
височина
виста
вит
вита
витамин
витамина
витез
витеза
витезова
витезови
витербо
витешке
витешки
вити
вих
вицепрвак
виче
виченца
виш
виша
вишак
више
вишег
вишеград
вишеграда
вишеграду
вишезначна
вишем
вишенаменски
вишеструке
вишеструки
вишеструко
виши
вишим
виших
вишка
вишој
вишу
вишња
вишњић
виђа
виђе
виђен
виђена
виђења
виђење
вије
вијек
вијека
вијеку
вијена
вијенац
вијести
вијетнам
вијетнама
вијетнаму
вијехо
вијећа
вијеће
виља
виљагран
виљануева
виљареал
виљафлорес
виљем
вк
вл
вла
влаге
влада
владавина
владавине
владавини
владавином
владавину
владала
владали
владало
владан
владана
владао
владар
владара
владаре
владари
владарима
владару
владати
владају
владајућа
владајуће
владајући
владања
владе
владета
влади
владика
владике
владику
владимир
владимира
владимиром
владимиру
владин
владине
владиних
владислав
владислава
владо
владом
владу
влажна
влажне
влажним
влажност
влажности
влакана
влакна
власеница
власи
власина
власник
власника
власнику
власници
власницима
власништва
власништво
власништву
власотинце
власт
власта
властела
властеле
властелин
властелина
власти
властима
властимир
властите
властити
властитим
властитог
властитом
властиту
влатко
влаха
влаховић
влашка
влашке
влашки
влашко
влашкој
влашћу
вмро
вн
во
вог
вогези
вод
вода
водама
воде
водена
водене
водени
воденим
водених
воденица
воденице
воденог
водећа
водеће
водећи
водећим
водећих
водећу
води
водила
водиле
водили
водило
водио
водитељ
водитељи
водитељка
водити
водице
водич
водича
водник
водныи
водова
водовод
водоземаца
водолија
водом
водоник
водоника
водопад
водопада
водопади
водоток
водотока
водотоци
водством
воду
вождовац
вожња
вожње
вожњи
вожњу
воз
воза
возач
возача
возачи
возе
вози
возила
возилима
возило
возио
возова
возови
возом
возу
вои
вокал
вокала
вокали
вокални
вокер
вол
волар
волга
волге
воле
волела
волели
волео
воли
волим
волио
волиш
волт
волта
волтер
волумена
волф
волфганг
вом
вон
ворен
ворлд
ворнер
восак
вотсон
вотсоном
вођ
вођа
вођама
вође
вођен
вођена
вођене
вођени
вођења
вођење
вођењу
вођи
вођом
вођства
вођство
вођством
вођу
вој
воја
војвода
војводе
војводи
војводина
војводине
војводини
војводину
војводом
војводства
војводство
војводству
војводу
војвоткиња
војвођанска
војвођанске
војвођанских
воје
војег
војин
војина
војиновић
војислав
војислава
војна
војне
војни
војник
војника
војнике
војнику
војним
војних
војници
војницима
војничка
војничке
војнички
војно
војновић
војног
војноиздавачки
војном
војној
војну
војска
војскама
војске
војски
војсковођа
војсковође
војском
војску
војсци
воља
вољан
воље
вољи
вољни
вољом
вољу
воћа
воће
вп
вр
врана
вране
вранча
врат
врата
врате
врати
вративши
вратила
вратиле
вратили
вратило
вратим
вратима
вратио
вратити
врату
врачар
врачару
врања
врањанке
врање
врањске
врању
враћа
враћали
враћао
враћају
враћајући
враћања
враћање
враћен
враћена
враћени
враћено
врба
врбас
врбаса
врбасу
вредан
вреди
вредна
вредне
вредни
вредних
вредно
вредност
вредности
вредностима
вредношћу
врела
врело
врем
време
времена
временима
временом
временска
временске
временски
временским
временских
временског
временском
времену
вређа
вриједност
вриједности
вријеме
врлина
врлине
врло
врс
врста
врстама
врсте
врсти
врстом
врсту
врт
врта
врти
вртић
вртова
вртови
вртовима
врту
вруће
врх
врха
врхова
врхове
врхови
врховима
врховна
врховне
врховни
врховним
врховног
врховном
врховној
врховну
врхом
врху
врхунац
врхунски
врхунцу
вршац
врше
вршена
вршено
вршења
вршење
вршењу
врши
вршила
вршилац
вршиле
вршили
вршило
вршио
вршиоца
вршити
вршца
вршцу
врњачка
врњачкој
вта
ву
вуд
вуелта
вук
вука
вукан
вукановић
вукашин
вукашина
вукићевић
вуков
вукова
вуковар
вуковара
вуковару
вукове
вукови
вуковић
вукосава
вукотић
вуку
вулкан
вулкана
вулкани
вулканске
вулф
вуне
вуче
вучинић
вучић
вучића
вучковић
вујић
вујића
вујовић
вши
въ
вј
вјера
вјере
вјероватно
вјеру
вјерује
вјерујем
вјерују
вјетар
вјештачких
вљ
г
га
габријел
габријела
гавран
гаврила
гаврило
гавриловић
гага
гадафи
гажевић
газда
газе
гази
гал
гала
галаксија
галаксије
галац
галеана
галеб
галерија
галерије
галерији
галерију
гали
галилео
галија
галије
галији
галију
гама
гамбит
гана
ганди
гане
гар
гарантује
гарашанин
гарда
гарде
гари
гарнизон
гарнизона
гарона
гарсија
гас
гаса
гаси
гасова
гасови
гасом
гацко
гашења
гашење
гађања
гађање
гај
гаја
гаје
гајење
гаји
гајић
гаљо
гвадалупе
гвазапарес
гванасеви
гванахуато
гвасаве
гватемала
гватемале
гвачочи
гвајмас
гвемез
гвинеја
гвинеје
гвинеји
гвожђа
гвожђе
гвоздена
гвоздене
гвоздени
гвозденим
гвоздено
гвозденог
гггг
гд
где
гди
гдје
ге
геземан
ген
гена
генерал
генерала
генерали
генерална
генералне
генерални
генерално
генералног
генералном
генералом
генералу
генералштаба
генератор
генератора
генерација
генерацијама
генерације
генерацији
генерацију
генерисање
генерише
генетика
генетике
генетички
генетске
генетски
гени
геније
геном
генома
геноцид
геноцида
географ
географија
географије
географију
географска
географске
географски
географским
географских
географско
географског
географском
геологија
геолошка
геолошке
геолошки
геометрија
геометрије
геометријске
геометријски
георг
георги
георгија
георгије
гералт
гереро
гери
геринг
герман
германа
германских
гестапо
гестапоа
гета
гете
гетеборгу
геј
гејл
ги
гибралтар
гибсон
гилберт
гимназија
гимназијалац
гимназије
гимназији
гимназију
гимнастика
гине
гип
гитара
гитаре
гитариста
гитаристи
гитару
гиљермо
гл
гла
глава
главама
главе
глави
главица
главна
главне
главни
главним
главнина
главнине
главнину
главних
главно
главног
главном
главној
главну
главобоља
главобоље
главом
главу
глагол
глагола
глаголи
глаголске
глаголски
глаголских
глад
глади
глазгов
глазгову
глам
гламоч
глас
гласа
гласала
гласали
гласало
гласам
гласао
гласати
гласача
гласају
гласања
гласање
гласањем
гласању
гласе
гласи
гласила
гласило
гласине
гласио
гласник
гласника
гласнику
гласно
гласова
гласове
гласови
гласовима
гласовне
гласовни
гласом
гласу
глађу
гле
гледа
гледала
гледалаца
гледали
гледало
гледам
гледано
гледаност
гледао
гледаоци
гледати
гледај
гледајте
гледају
гледајући
гледања
гледање
гледишта
гледиште
глен
глина
глине
глишић
гло
глобална
глобалне
глобални
глобално
глобалног
глобалном
глобус
глоговац
глодара
глорија
глостер
глукозе
глума
глумац
глумаца
глумачка
глумачке
глумачки
глумачкој
глумачку
глуме
глуми
глумила
глумили
глумио
глумица
глумице
глумицом
глумицу
глумом
глуму
глумца
глумце
глумцем
глумци
глумцима
глупо
глупости
гмизаваца
гмизавци
гнев
гнева
гнезда
гнезди
гнездо
гну
го
гобељић
гов
говеда
гови
гово
говор
говора
говораше
говоре
говорећи
говори
говорила
говорили
говорило
говорим
говорима
говоримо
говорио
говорите
говорити
говориш
говорни
говорник
говорника
говорници
говорног
говорном
говором
говору
гог
год
года
годин
година
годинама
године
години
годином
годину
годишња
годишњак
годишње
годишњег
годишњем
годишњи
годишњим
годишњих
годишњица
годишњице
годишњицу
годишњој
годишњу
гол
гола
голд
голден
голе
голема
голи
голим
голман
голмана
голмани
голова
голове
голови
головима
голом
голу
голуб
голуба
голубовић
голф
гомез
гомила
гомиле
гомилу
гонг
гоне
гонзалез
гони
гор
гора
горажде
горан
горана
горанској
гордана
гордијано
гордо
гордон
горе
горж
гори
горива
гориво
горивом
горица
горице
горки
горко
горког
горо
гором
горски
гору
горња
горње
горњег
горњем
горњи
горњим
горњих
горњој
горњу
госпа
госпе
госпић
госпо
господ
господа
господар
господара
господаре
господари
господару
господе
господи
господин
господина
господине
господину
господо
господом
господу
господња
господње
господњег
господњи
госпођа
госпође
госпођица
госпођице
госпођо
госпођу
гост
госте
гости
гостима
гостију
гостовала
гостовао
гостовања
гостовању
гостујући
государственныи
гота
готи
готов
готова
готово
гојко
гојковић
гоњења
гоњење
гп
гр
гра
граб
гравитација
гравитације
град
града
градац
граде
гради
градили
градимир
градина
градине
градио
градитељ
градити
градишка
градишке
градиште
градић
градића
градићу
градова
градове
градови
градовима
градом
градоначелник
градоначелника
градоначелници
градска
градске
градски
градским
градских
градско
градског
градском
градској
градску
граду
градња
градње
градњи
градњом
градњу
грал
грам
грама
граматика
граматике
граматику
гран
грана
гранама
граната
гранате
гранд
гранда
гранде
грандес
гране
грани
граница
границама
границе
граници
границом
границу
граничара
граничи
гранична
граничне
гранични
граничних
граничног
грант
грану
гранха
гранчице
грасијано
граф
графа
график
графика
графике
графику
графичар
графичке
графички
графичких
графичког
графова
грахова
грахово
грацу
грачаница
грачац
грађа
грађана
грађане
грађани
грађанима
грађанин
грађанина
грађанска
грађанске
грађански
грађанским
грађанских
грађанско
грађанског
грађанском
грађанства
грађе
грађевина
грађевинарство
грађевине
грађевинска
грађевинске
грађевински
грађевинских
грађевинског
грађевину
грађен
грађена
грађене
грађени
грађење
грађи
грађу
грб
грба
грбић
грбова
грбови
грбом
грбу
гргур
гргура
гребен
гребена
грег
грегори
грегоријански
грегоријанском
греда
греде
греми
гренадирска
гренд
гренланда
грех
греха
грехе
грешака
грешка
грешкама
грешке
грешком
грешку
греј
грејам
грејање
грејс
григорија
григорије
грин
грк
грка
грке
грла
грло
грлу
гроб
гроба
гробница
гробнице
гробници
гробницу
гробова
гробови
гробу
гробља
гробље
гробљу
грожђа
грожђе
грозни
грозница
грознице
гром
грома
гросето
гроф
грофа
грофица
грофовија
гроцка
гроша
груб
грубе
грубо
груди
грудима
грудног
грузија
грузије
грузији
грузијске
грузијски
група
групама
групација
групације
групе
групи
групна
групне
групној
групну
групом
групу
грујић
грци
грцима
грч
грчић
грчк
грчка
грчке
грчки
грчким
грчких
грчко
грчког
грчком
грчкој
грчку
гу
губе
губерније
губи
губио
губитак
губитака
губитка
губитке
губитком
губици
губицима
гувернер
гувернера
гувернери
гугл
гудачки
гума
гуме
гура
гусеница
гусенице
гусле
густа
густав
густава
густаво
густе
густим
густина
густине
густину
густо
густом
гутијерез
гучи
гушења
гђа
гљива
гљиве
гњилане
д
да
дабл
даблину
давала
давали
давало
давао
давати
давања
давање
давањем
давању
давид
давида
давидов
давидовић
давне
давнина
давно
давор
даг
даглас
даде
дадиља
даду
дакле
дакота
дакоти
дала
далас
дале
далека
далеке
далеки
далеко
далеког
далеком
дали
далматинска
далматинске
далматински
далматинском
далматинској
далмација
далмације
далмацији
далмацију
дало
дам
дама
дамаск
дамаска
дамбовица
даме
дамир
дамо
дамјан
дамјановић
дамњановић
дан
дана
данак
данас
данашња
данашње
данашњег
данашњем
данашњи
данашњим
данашњих
данашњој
данашњу
дане
дани
данила
данило
данима
даница
даничић
данијел
данијела
данка
данкан
даном
данска
данске
дански
данског
данском
данској
данску
данте
дану
дао
дар
дара
дарвин
даринка
дарија
дарије
дарко
даровао
дарове
дарт
даске
дат
дата
дате
дати
датим
датира
датирају
датих
дато
датог
датом
датотека
датотеке
датој
дату
датум
датума
датуми
дах
даха
дахије
дачић
даш
дај
дајана
даје
дајем
дајте
дају
дајући
даља
даље
даљег
даљем
даљи
даљим
даљина
даљине
даљини
даљину
даљих
даљу
дању
даће
даћу
дбла
дв
два
двадесет
двадесетак
двадесетих
двадесетог
дванаест
дванаести
двапут
двају
двд
две
двема
двери
двеста
двеју
двије
двобој
двогодишњи
двор
двора
дворана
дворане
дворани
дворану
дворац
дворе
двори
дворишта
двориште
дворишту
дворска
дворске
дворски
дворског
двору
дворца
дворцу
двосед
двострука
двоструке
двоструки
двоструким
двоструко
двоструког
двоструком
двоје
двојица
двојице
двојици
двојицом
двојицу
дг
дд
де
дебата
дебате
дебела
дебели
дебелим
дебело
дебелог
деби
дебитантски
дебитовала
дебитовао
дебитује
дебију
дебљина
дебљине
деведесет
деведесетих
девет
девета
девете
девети
деветнаест
деветнаестог
девето
деветог
деветом
деветој
девица
девице
девичанска
девојака
девојачко
девојка
девојкама
девојке
девојко
девојком
девојку
девојци
девојче
девојчица
девојчице
девојчицу
дед
деда
деде
дедић
декан
декларација
декларације
декларацију
деклинација
декорација
декорације
декрет
декретом
дел
дела
делатност
делатности
делатностима
деле
делегат
делегата
делегати
делегација
делегације
делегацију
дели
делила
делили
делима
делимично
делио
делисијас
делити
делија
делић
дело
делова
деловала
деловали
деловао
деловати
деловања
деловање
деловањем
деловању
делове
делови
деловима
делом
делта
делу
делује
делују
делфи
делфин
делфина
демир
демо
демографија
демографски
демократа
демократе
демократија
демократије
демократију
демократска
демократске
демократски
демократским
демократских
демократског
демократском
демократској
демократску
демон
демона
демонстраната
демонстранти
демонстрација
демонстрацијама
демонстрације
ден
дена
денвер
дендрометријске
денерис
дени
денис
денс
део
деоница
деонице
департман
департмана
департману
депортације
депортовани
депресија
депресије
депресију
дер
дерби
дербију
дервента
дервиш
деретић
десанка
десант
десет
десета
десетак
десете
десети
десетина
десетине
десето
десетобој
десетог
десетом
деси
десила
десило
десио
десити
десна
десне
десни
десница
деснице
десно
десног
десном
десној
десну
деспот
деспота
деспотовине
деспотовић
деспоту
дестинација
дестинације
дет
детаљ
детаља
детаљан
детаље
детаљи
детаљима
детаљна
детаљне
детаљни
детаљније
детаљнији
детаљно
дете
детектив
детектива
детекцију
детета
дететом
детету
детињства
детињство
детињству
детроит
дефинисан
дефинисана
дефинисане
дефинисани
дефинисано
дефинисао
дефинисати
дефинисање
дефинитивно
дефиниција
дефиниције
дефиницији
дефиницију
дефинише
дефинишу
дец
деца
деце
децембар
децембра
децембру
деценија
деценијама
деценије
деценији
деценију
деци
децо
децом
децу
дечак
дечака
дечани
дечански
дечанског
дечаци
дечије
дечији
дечка
дечко
дечја
дечје
дечјег
дечји
дечјих
дечју
дешава
дешавало
дешавају
дешавања
дешавањима
деј
дејан
дејана
дејв
дејвид
дејвида
дејвис
дејли
дејстава
дејства
дејствима
дејство
дејством
дејству
дејтонског
дељења
дељење
ди
див
диван
дивац
дивизиона
дивизија
дивизије
дивизији
дивизијом
дивизијски
дивизију
дивна
дивно
дивља
дивљач
дивљачи
дивље
дивљег
дивљење
дивљи
дивљим
дивљини
дивљих
дигао
дигитална
дигиталне
дигитални
дигиталних
дигитално
дигне
диже
дижу
дизајн
дизајна
дизајнер
дизајнера
дизајнери
дизајниран
дизајнирана
дизајниране
дизајнирани
дизајнирао
дизајном
дизајну
дизање
дизел
дизни
дик
дика
диктатор
диктатура
диктатуре
дилан
дим
дима
димас
димензија
димензијама
димензије
димензију
димитар
димитрија
димитрије
димитријевић
димитријевића
димитров
димитровград
димић
димулен
дин
дина
динама
динамика
динамику
динамички
динамо
динар
динара
династија
династије
династији
династијом
династију
дине
динић
динко
дино
диносауруса
дио
диоксид
диоксида
дион
дионисије
диос
диплома
дипломата
дипломате
дипломатија
дипломатије
дипломатска
дипломатске
дипломатски
дипломатским
дипломатских
дипломатско
дипломатску
дипломе
дипломирала
дипломирани
дипломирао
дипломирања
диплому
директан
директна
директне
директни
директним
директно
директног
директном
директну
директор
директора
директори
директорка
дирекција
диригент
дис
дисајних
дисања
дисање
дисертација
дисертације
дисертацију
диск
диска
дискова
дискови
дискографија
дискографских
дискос
дискриминација
дискриминације
дискриминацију
диску
дискусија
дискусије
дискусији
дискусију
дистрибуција
дистрибуције
дистрибуцију
дистрикт
дистрикта
дистрикту
дисциплина
дисциплинама
дисциплине
дисциплини
дисциплинске
дисциплински
дисциплину
дити
диференцијална
дише
дијагноза
дијагнозе
дијагнозу
дијагностици
дијаграм
дијаз
дијалекат
дијалеката
дијалект
дијалекта
дијалекти
дијалекту
дијалог
дијалога
дијаманата
дијамант
дијана
дијаспора
дијаспоре
дијаспори
дијего
дијела
дијели
дијелова
дијелове
дијелови
дијеловима
дијелом
дијелу
дијете
длака
длаке
длаку
дм
дмитар
дмитриј
дн
дна
дневна
дневне
дневни
дневник
дневника
дневнику
дневним
дневних
дневно
дневног
дневном
днк
дно
днр
дну
до
доб
доба
добар
добара
доби
добива
добивши
добила
добиле
добили
добило
добио
добит
добитак
добити
добитник
добитника
добитница
добитници
добија
добијала
добијали
добијамо
добијао
добијају
добијања
добијање
добије
добијен
добијена
добијене
добијени
добијених
добију
добладо
добој
добоја
добоју
добра
добре
добри
добривоје
добрила
добрим
добрима
добрих
добрица
добро
добробит
добровољац
добровољаца
добровољачке
добровољно
добровољног
добровољци
доброг
добродошли
добром
доброслав
добротвор
добротворне
доброј
добру
добу
дов
доведе
доведен
доведена
доведени
доведу
довека
довела
довеле
довели
довело
довео
довести
доводе
доводи
довољан
довољна
довољне
довољно
довршио
дог
догађа
догађај
догађаја
догађаје
догађаји
догађајима
догађају
догађања
договор
договора
договоре
договорено
договорили
договорио
договору
догоди
догодила
догодило
догодио
догодити
дода
додавања
додавање
додавањем
додала
додали
додам
додао
додат
додата
додатак
додатака
додате
додати
додатим
додатком
додатна
додатне
додатни
додатним
додатних
додатно
додатног
додатну
додато
додаци
додај
додаје
додајте
додају
додајући
додела
доделе
додели
доделила
доделио
доделу
додељен
додељена
додељене
додељено
додељује
додељују
додик
додир
додира
додиру
додуше
доживела
доживели
доживео
доживио
доживотни
доживотно
доживљава
доживљавају
доживљај
доза
дозвола
дозволе
дозволи
дозволила
дозволили
дозволио
дозволити
дозволу
дозвољава
дозвољавају
дозвољавајући
дозвољен
дозвољена
дозвољене
дозвољено
дозе
дозу
доигравања
доигравање
доиста
док
докаже
доказ
доказа
доказали
доказано
доказао
доказати
доказе
докази
доказивање
доказима
доказује
доказују
докић
докле
доктор
доктора
докторат
доктори
докторирао
докторска
докторске
докторску
доктрина
доктрине
доктрину
докумената
документ
документа
документарац
документарни
документарних
документарног
документација
документације
документацију
документе
документи
документима
документу
дол
долазак
долазе
долази
долазила
долазили
долазило
долазио
долар
долара
доласка
доласком
доласку
доле
долет
долж
доли
долина
долинама
долине
долини
долином
долину
долорес
дом
дома
домановић
домаћа
домаће
домаћег
домаћем
домаћи
домаћим
домаћин
домаћина
домаћини
домаћинстава
домаћинства
домаћинство
домаћинству
домаћину
домаћих
домаћица
домаћице
домаћој
домаћу
домен
домена
домени
домену
домет
домета
доминантан
доминантна
доминантне
доминантни
доминантно
доминација
доминације
доминацију
домингез
доминго
доминик
доминика
доминира
доминирала
доминирали
доминирао
доминирају
домова
домове
домовима
домовина
домовине
домовини
домовину
домом
домородаца
дому
дон
дона
доналд
доналда
донација
донације
донекле
донела
донеле
донели
донело
донео
донесе
донесен
донесена
донесу
донет
донета
донете
донети
донио
донијети
доносе
доноси
доносили
доносио
доношења
доношење
доношењем
доношењу
дону
допада
допинг
дописни
дописник
допринела
допринели
допринело
допринео
допринесе
допринети
допринос
доприноса
доприносе
доприноси
допуна
допуне
допуни
допуну
допусти
допустити
допушта
допуштено
допуњен
допуњено
дора
дордоња
дороти
дортмунд
доручак
дос
досад
досадашњи
доселили
доселио
досељавања
досељени
досељеника
досељеници
доситеј
доситеја
досије
доследно
дословно
доспева
доспела
доспео
доста
достави
доставља
достигао
достигла
достигли
достигне
достигну
достигнућа
достигнуће
достиже
достижу
достићи
достојан
достојанства
достојанство
доступан
доступна
доступне
доступни
доступним
доступних
доступно
доступност
дотад
дотадашње
дотадашњег
дотадашњи
дотични
дотле
дохи
доходак
дохотка
доцент
доцента
доцније
дочек
дочека
дочекала
дочекали
дочекао
дош
дошавши
дошао
дошла
дошле
дошли
дошло
дођ
дође
дођем
дођи
дођоше
дођу
дојке
дојл
доље
дољевац
дољевачког
доња
доње
доњег
доњем
доњецк
доњецка
доњи
доњим
доњих
доњоземци
доњој
доњу
доћи
дпс
др
драве
драг
драга
драган
драгана
драге
драги
драгица
драгиша
драгић
драго
драговић
драгог
драгомир
драгослав
драгољуб
драгољуба
драгу
драгутин
драгутина
дража
драже
дражен
дражи
драма
драматично
драматург
драматурзи
драме
драми
драмска
драмске
драмски
драмских
драмско
драмског
драмском
драму
драстично
драфта
драфту
драч
драча
драшко
драшковић
дрва
дрвар
дрвару
дрвена
дрвене
дрвени
дрвеним
дрвених
дрвеног
дрвеном
дрвену
дрвета
дрвету
дрвећа
дрвеће
дрвећу
дрво
древна
древне
древни
древним
древних
древног
древном
древној
дрес
дресу
држ
држава
државама
државе
држави
државна
државне
државни
државник
државним
државних
државно
државног
државном
државности
државној
државну
државом
државу
држављана
држављани
држављанин
држављанства
држављанство
држала
држале
држали
држао
држати
држања
држање
држе
држећи
држи
држим
дрим
дрина
дрине
дрини
дринске
дрину
дрога
дроге
дрогом
дру
друг
друга
другарица
другачија
другачије
другачији
другачијим
другачију
другде
друге
други
другим
другима
других
друго
другова
другови
друговима
другог
другога
другом
другоме
другопласирани
другој
другу
друже
дружење
дружина
дружине
друкчије
друм
друма
друмски
друму
друштава
друштва
друштвена
друштвене
друштвени
друштвеним
друштвених
друштвено
друштвеног
друштвеном
друштвеној
друштвену
друштвима
друштво
друштвом
друштву
дршке
дрљача
дс
дсс
ду
дубаи
дубина
дубинама
дубине
дубини
дубину
дубица
дубок
дубока
дубоке
дубоки
дубоким
дубоких
дубоко
дубоког
дубоком
дубокој
дубоку
дубрава
дубравка
дубровачка
дубровачке
дубровачки
дубровачко
дубровник
дубровника
дубровнику
дубровчани
дубље
дува
дуван
дувана
дувно
дуг
дуга
дугачак
дугачка
дугачке
дугачки
дугачким
дугачко
дуге
дуги
дугим
дугих
дугме
дуго
дугова
дугове
дугог
дугогодишње
дугогодишњег
дугогодишњи
дугом
дугометражни
дугорочно
дуготрајне
дугој
дугу
дугује
дует
дуж
дужа
дужан
дужд
дуже
дужег
дужи
дужим
дужина
дужине
дужини
дужином
дужину
дужна
дужни
дужно
дужност
дужности
дужностима
дука
дуката
дукље
дулсе
дума
думе
дунав
дунава
дунавске
дунаву
дуо
дупли
дупло
дуплу
дупље
дуранго
дух
духа
духова
духове
духови
духовна
духовне
духовни
духовним
духовних
духовно
духовног
духовном
духовну
духом
духу
дучић
душа
душан
душана
душанов
душановог
душаном
душану
душе
души
душица
душко
душо
душом
душу
дуња
дућан
дућана
дц
дјевица
дјевојка
дјевојке
дјед
дјела
дјелатност
дјелатности
дјелима
дјелимично
дјело
дјелу
дјелује
дјеца
дјеце
дјецу
дњепар
дњепра
е
еаа
ебу
ев
ева
евакуација
евакуације
евакуацију
еванс
еванхелиста
евгеније
еве
евентуалне
евентуално
евиденција
евиденције
евиденцију
евица
ево
еволуција
еволуције
еволуцију
евр
евра
евро
евровизије
еврокуп
еврокупа
евролига
евролиге
евролиги
европа
европе
европи
европом
европска
европске
европски
европским
европских
европско
европског
европском
европској
европску
европу
европљана
европљани
евроспорта
егејског
егзилу
египат
египатска
египатске
египатски
египатских
египатског
египта
египтом
египту
египћани
его
ед
еда
едвард
едварда
едвардс
едвин
едгар
едем
еден
еди
едикт
единбург
едип
едит
едиција
едиције
едмунд
едо
едуард
едуардо
езб
езекијел
еквадор
екватора
еквивалент
еквивалентна
еквивалентно
екипа
екипе
екипи
екипно
екипном
екипом
екипу
еклиптике
еко
екологија
еколошка
еколошке
еколошки
еколошких
економиста
економисти
економија
економије
економији
економију
економска
економске
економски
економским
економских
економско
економског
економском
економској
економску
екосистема
екосистеми
екран
екрана
екранизација
екрану
екс
експанзија
експанзије
експанзију
експедиција
експедиције
експедицију
експеримената
експеримент
експеримента
експериментална
експерименталне
експериментални
експериментално
експерименте
експерименти
експериментима
експлицитно
експлоатација
експлоатације
експлоатацију
експлозива
експлозија
експлозије
експлозији
експоната
експрес
екстремне
екстремно
ексцентрицитет
ел
ела
електра
електрана
електране
електрична
електричне
електрични
електричним
електричних
електрично
електричног
електричном
електричну
електро
електрон
електрона
електрони
електроника
електронике
електронска
електронске
електронски
електронским
електронских
електронско
електронског
електронском
електронску
електротехнике
елеменат
елемената
елемент
елемента
елементарне
елементарних
елементе
елементи
елементима
елементу
елен
елена
ели
елизабет
елизабета
елизабете
елиминисан
елиминише
елиодоро
елиот
елиптична
елис
елиса
елита
елите
елијас
ем
ема
емануел
еми
емиграната
емиграције
емиграцији
емигрирао
емил
емили
емилија
емилијано
емина
емир
емирата
емисија
емисијама
емисије
емисији
емисију
емитовала
емитован
емитована
емитоване
емитовао
емитовања
емитовање
емитовањем
емитује
емитују
емоционално
емоција
емоције
ен
енвер
енг
енгелс
енгл
енглеза
енглези
енглезима
енглеска
енглеске
енглески
енглеским
енглеских
енглеско
енглеског
енглеском
енглеској
енглеску
енд
енди
ендр
ендру
енергетске
енергетски
енергично
енергија
енергије
енергијом
енергију
ензим
ензима
ензими
ени
енкарнасион
ено
енрике
енсенада
ентеријер
ентеријера
ентитет
ентитета
ентони
енциклопедија
енциклопедије
енциклопедији
енциклопедијски
енциклопедију
еп
епа
епаминонда
епархија
епархије
епархији
епархију
епд
епидемиологија
епидемија
епидемије
епизода
епизодама
епизоде
епизоди
епизодне
епизоду
епика
епилог
епир
епира
епископ
епископа
епископи
епископија
епископије
епитаф
епитафи
епитет
епици
епл
епоха
епохе
епска
епске
епски
епских
ер
ера
ербас
ервејз
ервин
ере
ерера
ери
еридан
ерик
ерика
ерих
ерл
ерлангенски
ерлангенског
ерлајнс
ерлер
ерманос
ермоса
ермосиљо
ермосо
ернандез
ернест
ернст
еро
ерозија
ерозије
ероика
еротске
еру
ерупција
ерупције
ес
есеј
есеја
есеје
есеји
есејиста
ескадрила
ескадриле
ескарсега
ескобедо
ескондида
ескуинтла
есмералда
еспањи
есперанза
еспинал
еспиноса
ест
естансија
естасион
естер
естетика
естетике
естетски
естонија
естоније
естонији
естонски
естри
ет
етапа
етапе
етапи
етапу
етернет
етика
етике
етимологија
етиологија
етиопија
етиопије
етиопији
етички
етн
етничка
етничке
етнички
етничким
етничких
етничко
етничког
етничком
етничку
етно
етнографија
етнографски
етнографског
етнолошка
ето
етри
етчохоа
етјен
еу
еуген
ефекат
ефеката
ефекта
ефекте
ефекти
ефективно
ефектима
ефикасан
ефикасна
ефикасније
ефикасно
ефикасност
ефикасности
ех
ехидо
ехо
ехф
ец
ешли
еј
ејми
ејч
ж
жа
жаба
жабе
жак
жака
жалба
жалбе
жалби
жалбу
жали
жалио
жалост
жалости
жан
жана
жандарма
жандармерије
жанеиро
жанеиру
жанр
жанра
жанрова
жанрови
жанру
жао
жар
жарка
жарко
же
желе
железница
железнице
железницом
железничар
железничка
железничке
железнички
железничких
железничког
железничкој
железничку
желела
желели
желео
желећи
жели
желим
желимо
желио
желите
желиш
желуца
жена
женама
жене
женеви
жени
женидба
женидби
женио
женка
женке
женки
жено
женом
женска
женске
женски
женским
женских
женско
женског
женском
женској
женску
жену
жермен
жесток
жестоке
жестоких
жестоко
жетварске
жетве
жетелачке
жеђ
жеља
жељама
жеље
жељени
жељи
жељка
жељко
жељом
жељу
жи
жив
жива
живан
живановић
живац
живе
живела
живеле
живели
живело
живео
живети
живећи
живи
живим
живимо
живио
живих
живка
живко
живковић
живковића
живо
живог
живом
живопис
живорад
живот
живота
животе
животи
животима
животиња
животињама
животиње
животињска
животињске
животињски
животињских
животињског
животињу
животна
животне
животни
животним
животних
животно
животног
животном
животној
животну
животом
животу
живојин
живојина
живојиновић
живу
живца
живјели
живјело
живљења
жиг
жигмунд
жигмунда
жика
жил
жила
жиле
жири
жирија
жиронда
жита
житарица
житарице
житеља
житељи
житија
житије
жито
жица
жице
жлезда
жлезде
жоао
жозеф
жорж
жреб
жртава
жртва
жртвама
жртве
жртву
жртвује
жу
жупа
жупан
жупана
жупанија
жупаније
жупанији
жупе
жупи
журнал
жута
жуте
жути
жутим
жутих
жуто
жутом
жуту
жујовић
з
за
забава
забаве
забави
забавне
забавни
забавник
забаву
забавља
забележен
забележена
забележене
забележени
забележено
забележила
забележили
забележио
заблуда
заблуде
забога
заборав
заборава
заборави
заборавио
заборавити
заборављени
забрана
забране
забрани
забранила
забранио
забрану
забрањен
забрањена
забрањене
забрањени
забрањено
забрањује
забринут
забринути
забринутост
забуне
заведе
заведен
завера
завере
завереници
завери
заверу
завеса
завет
завета
завету
зависе
зависи
зависна
зависне
зависни
зависно
зависност
зависности
завичај
завичајни
завладао
завод
завода
заводи
заводу
завршава
завршавају
заврше
завршен
завршена
завршене
завршени
завршених
завршено
завршеног
завршеном
завршетак
завршетка
завршетком
завршетку
заврши
завршивши
завршила
завршиле
завршили
завршило
завршио
завршити
завршна
завршне
завршни
завршним
завршница
завршници
завршног
завршном
завршној
завјере
загађења
загађење
заговорник
заговорници
загонетка
загонетке
загор
загорка
заграде
загради
загреб
загреба
загребачке
загребачки
загребачког
загребачком
загребачкој
загребу
загревања
загревање
загрли
задар
задарској
задатак
задатака
задатка
задатке
задатком
задатку
задаци
задацима
задобио
задовољава
задовољавају
задовољан
задовољи
задовољити
задовољна
задовољни
задовољства
задовољство
задра
задржава
задржавају
задржавајући
задржавања
задржавање
задржала
задржале
задржали
задржан
задржао
задржати
задрже
задржи
задру
задруга
задруге
задужбина
задужбине
задужбини
задужбину
задужен
задужена
задужени
задња
задње
задњег
задњем
задњи
задњим
задњих
задњој
задњу
заиграо
заинтересован
заинтересована
заинтересоване
заинтересовани
заинтересованих
заинтересовао
заиста
зак
закатекас
заклео
заклетва
заклетве
заклетву
закон
закона
законе
закони
законик
законика
законику
законима
законитост
законитости
законодавна
законодавне
законодавну
законодавства
законодавство
законом
законска
законске
законски
законским
законских
закону
закуалпан
закуп
закључак
закључака
закључен
закључено
закључења
закључи
закључила
закључили
закључио
закључити
закључка
закључке
закључно
закључује
закључци
залагала
залагали
залагао
залагање
залагањем
залаже
залажу
зале
залеђу
залив
залива
заливу
залиха
залихе
замак
замало
замена
замене
замени
заменивши
заменик
заменика
заменила
заменили
заменио
заменити
заменица
заменице
заменом
замену
замењен
замењена
замењене
замењени
замењено
замењује
замењују
замисао
замисли
замислити
замишљен
замишљена
замка
замке
замку
замоли
замолио
замонашио
замора
замјеник
занат
заната
занати
занатлија
занатлије
занатске
занима
занимања
занимање
занимању
занимљив
занимљива
занимљиве
занимљиво
занимљивост
занимљивости
зао
заоставштина
запад
запада
западна
западне
западни
западним
западних
западно
западног
западном
западној
западну
западу
запажања
запажен
запажене
запазио
запали
запалили
запалио
запата
запаљења
запаљење
запис
записа
записано
записао
записе
записи
записивачи
записима
записник
запису
запита
заплање
заплет
заплета
заповеди
заповедни
заповедник
заповедника
заповедништвом
заповест
заповести
запопан
запослен
запослена
запослене
запослени
запослених
запослено
запослење
запослио
запоте
запотланехо
започела
започеле
започели
започело
започео
започет
започета
започети
започето
започиње
започињу
започне
запошљава
запошљавања
запошљавање
заправо
запремина
запремине
запремину
запретио
зар
заравни
зарагоза
зарад
зарада
зараде
заради
зарадио
зарадом
зараду
заражених
заразе
заразних
заредом
заробили
заробио
заробљавање
заробљен
заробљена
заробљене
заробљени
заробљеника
заробљенике
заробљених
заробљеници
заробљеништва
заробљеништво
заробљеништву
заробљено
засад
засебан
засебна
засебне
засебно
засебну
заседања
заседање
заседању
заседе
заседу
заселак
засеока
засеоку
засигурно
заслуга
заслуге
заслугом
заслужан
заслужио
заслужни
заслужних
заслужује
заслужују
заснива
заснивају
заснован
заснована
засноване
засновани
заснованих
засновано
засновану
застава
заставама
заставе
застави
заставом
заставу
застој
застоја
заступа
заступао
заступају
заступање
заступник
заступника
заступљен
заступљена
заступљене
заступљени
заступљеност
затвара
затварају
затварања
затварање
затвор
затвора
затворе
затворен
затворена
затворене
затворени
затвореник
затвореника
затворенике
затвореним
затворених
затвореници
затворено
затвореног
затвореном
затвори
затворила
затворили
затворио
затворити
затворске
затвору
затекао
затекла
затекли
затим
зато
заточеништву
затражи
затражила
затражили
затражио
заувек
заузврат
заузевши
заузела
заузеле
заузели
заузео
заузет
заузета
заузети
заузима
заузимала
заузимали
заузимало
заузимао
заузимају
заузимања
заузимање
заузимањем
заузимању
заузме
заузму
зауставе
заустави
зауставила
зауставили
зауставио
зауставити
зауставља
заустављања
заустављање
заустављен
заустављена
захарија
захвали
захвалност
захвалности
захвата
захватила
захватио
захваљујући
захтев
захтева
захтевала
захтевали
захтевало
захтевао
захтевати
захтевају
захтевајући
захтеве
захтеви
захтевима
захтеву
захтјев
захтјева
захумско
зачу
заштита
заштите
заштити
заштитили
заштитио
заштитити
заштитна
заштитне
заштитни
заштитник
заштитника
заштитних
заштитом
заштиту
заштићен
заштићена
заштићене
заштићени
заштићеним
заштићених
заштићено
заштићеног
зашто
зајам
заједница
заједницама
заједнице
заједници
заједницом
заједницу
заједничка
заједничке
заједнички
заједничким
заједничких
заједничко
заједничког
заједничком
заједничкој
заједничку
заједно
зајечар
зајечара
зајечарском
зајечару
заљубила
заљубио
заљубљен
заљубљена
заљубљује
зб
збацио
збачен
збивања
збир
збирка
збиркама
збирке
збирки
збирку
збирни
збирци
збиља
због
збогом
збор
збора
збори
зборник
зборника
зборнику
збору
збуњен
зв
звала
звали
звало
зван
звана
зване
звани
званичан
званична
званичне
званични
званичник
званичника
званичним
званичних
званичници
званичницима
званично
званичног
званичном
званичној
званичну
званог
званом
звао
звати
звања
звање
звању
звезда
звездама
звездана
звездане
звездани
звездано
звездара
звезде
звезди
звездица
звездице
звездом
звезду
звер
звери
звечан
звијезда
звијезде
звона
звони
звоник
звоника
звоником
звонимир
звонко
звоно
зворник
зворника
зворнику
зворничко
звук
звука
звукова
звуком
звуци
звучи
звучне
звучни
звучних
зглоб
зглоба
зглобова
зговор
зграда
зградама
зграде
згради
зграду
здања
здање
здрав
здрава
здравац
здраве
здрави
здравих
здравка
здравко
здравковић
здраво
здравог
здравства
здравствена
здравствене
здравствени
здравственим
здравствених
здравствено
здравственог
здравственом
здравственој
здравствену
здравство
здравља
здравље
здрављу
зе
зевс
зевса
зеланд
зеланда
зеланду
зелен
зелена
зелене
зелени
зеленим
зелених
зелено
зеленог
зеленом
зеленој
зелену
земаља
земаљска
земаљске
земаљски
земаљског
земун
земуна
земуну
земља
земљама
земље
земљи
земљине
земљиној
земљишне
земљишта
земљиште
земљишту
земљом
земљопоседника
земљорадник
земљорадника
земљорадњом
земљотрес
земљотреса
земљотресу
земљу
зен
зенит
зеница
зенице
зернике
зет
зета
зете
зети
зету
зец
зеца
зечевић
зи
зиватанехо
зид
зида
зидана
зидање
зидина
зидинама
зидине
зидне
зидова
зидове
зидови
зидовима
зидом
зиду
зизио
зима
зимама
зимбабве
зиме
зими
зимска
зимске
зимски
зимским
зимских
зимског
зимском
зиму
зирандаро
зл
зла
злата
златан
златановић
златибор
златибора
златиборском
златибору
златко
златковић
златна
златне
златни
златним
златних
златно
златног
златном
златну
злато
златом
злату
зле
зли
злих
зло
злостављања
злостављање
злоупотреба
злоупотребе
злочин
злочина
злочине
злочини
злочинима
злу
змај
змаја
змајева
змајеви
змија
змије
змију
зн
зна
знаде
знак
знака
знаке
знакова
знакове
знакови
знаком
знаку
знала
знали
знало
знам
знамените
знаменити
знаменитих
знаменитости
знамо
знао
знатан
знате
знати
знатна
знатне
знатно
знатну
знаци
знацима
значај
значаја
значајан
значајна
значајне
значајни
значајним
значајних
значајнија
значајније
значајнији
значајнијих
значајно
значајног
значајном
значајну
значају
значе
значења
значење
значењем
значењу
значи
значила
значило
значио
значити
знаш
знају
знајући
знања
знање
знањем
знању
зове
зову
зои
зона
зонама
зоне
зони
зону
зоо
зоологија
зоолошки
зора
зоран
зорана
зоре
зорица
зорић
зорка
зору
зоја
зрак
зрака
зраке
зракоперка
зраци
зрацима
зрачења
зрачење
зрелост
зрелости
зрењанин
зрењанина
зрењанину
зрна
зрно
зу
зуб
зуба
зубе
зуби
зубима
зузорић
зунс
зуњига
и
иааф
иако
ибн
ибра
ибрахим
ив
ива
иван
ивана
иване
иванић
иванка
иванов
иванова
иванович
ивановић
иваном
ивану
ивањица
иве
ивица
ивицама
ивице
ивици
ивицу
ивић
ивковић
иво
иг
игара
игл
игла
игле
игличе
игнасио
игнорише
иго
игор
игора
игра
играла
играле
играли
игралишта
игралиште
играло
играма
играна
игране
играни
играних
играном
играо
играти
играч
играча
играчака
играче
играчем
играчи
играчима
играчица
играчка
играчке
играчку
играчу
играју
играјући
играња
играње
игре
игри
игрица
игрице
игром
игру
игуман
игумана
игуманија
игур
игњат
игњата
игњатовић
ид
ида
идалго
иде
идеал
идеала
идеалан
идеална
идеални
идеално
идеалног
идем
идемо
идентитет
идентитета
идентитету
идентификација
идентификације
идентификацију
идентификован
идентификовао
идентификовати
идентификује
идентификују
идентичан
идентична
идентичне
идеологија
идеологије
идеологију
идеолошки
идеш
идеја
идејама
идеје
идеји
идејни
идејом
идеју
иди
идите
идол
идола
иду
идуће
идући
из
иза
изабел
изабела
изабере
изаберу
изабрала
изабрали
изабран
изабрана
изабране
изабрани
изабраних
изабрано
изабраног
изабрао
изабрати
изазага
изазвала
изазвале
изазвали
изазвало
изазван
изазвана
изазване
изазваних
изазвао
изазвати
изазива
изазивају
изазивајући
изазов
изазове
изазову
изасланик
изасланика
изашао
изашла
изашли
изашло
изађе
изађу
изаћи
избави
избаци
избацивања
избацивање
избацила
избацио
избацује
избацују
избачен
избачена
избачени
избегава
избегавати
избегавају
избегавање
избегао
избегла
избегли
избеглица
избеглицама
избеглице
избегло
избегне
избегну
избећи
избила
избиле
избили
избио
избија
избијају
избијања
избијање
избијању
избор
избора
изборе
избори
изборила
изборима
изборио
изборна
изборне
изборни
изборним
изборних
изборног
изборном
изборној
изборну
избором
избору
изв
извади
изван
изванредан
изванредно
изведе
изведен
изведена
изведене
изведени
изведених
изведено
извела
извели
извео
извесна
извесне
извесни
извесним
извесних
извесно
извесног
извесном
извесну
известан
извести
известио
извештава
извештај
извештаја
извештаје
извештаји
извештајима
извештају
извини
извире
извиђач
извиђача
извиђачки
извиђање
извињавам
извињење
извлачење
извлачи
извод
изводе
изводи
изводила
изводили
изводио
изводити
извоз
извоза
извози
извор
извора
изворе
извори
изворима
изворна
изворне
изворни
изворних
изворно
изворног
изворном
извором
извору
извођач
извођача
извођачи
извођења
извођење
извођењем
извођењу
извршава
извршавају
извршавања
извршавање
извршавању
изврше
извршен
извршена
извршене
извршени
извршено
извршења
извршење
извршењу
изврши
извршила
извршиле
извршили
извршио
извршити
извршна
извршне
извршни
извршних
извршно
извршног
извршном
извршну
извукао
извуче
извући
извјештај
извјештаја
изгласан
изглед
изгледа
изгледала
изгледало
изгледао
изгледати
изгледају
изгледом
изгледу
изгнанство
изгнанству
изговара
изговарају
изговор
изговора
изговори
изговорио
изговором
изговору
изгорела
изгради
изградила
изградили
изградио
изградити
изградња
изградње
изградњи
изградњом
изградњу
изграђен
изграђена
изграђене
изграђени
изграђено
изгубе
изгуби
изгубивши
изгубила
изгубиле
изгубили
изгубило
изгубио
изгубити
изгубљен
изгубљена
изгубљене
изгубљени
изгубљених
изгубљено
изгубљеног
изд
изда
издавао
издавач
издавача
издавачи
издавачка
издавачке
издавачко
издавачком
издавачку
издавања
издавање
издавањем
издавању
издала
издали
издало
издао
издат
издата
издате
издати
издато
издаја
издаје
издају
издања
издање
издањима
издању
издваја
издвајају
издвајање
издвајањем
издвојена
издвојено
издвојио
издвојити
издиже
издижу
издржава
издржавања
издржавање
издржи
изер
изернија
изиђе
изићи
изл
излагао
излагања
излагање
излаже
излажења
излаз
излаза
излазак
излазе
излази
излазио
излазни
излазу
изласка
изласку
изложба
изложбама
изложбе
изложбени
изложби
изложбу
изложен
изложена
изложене
изложени
изложено
изложености
изложио
изм
измена
изменама
измене
измени
изменио
изменити
измену
између
измењен
измењена
измењено
измислио
измишљени
измјена
измјене
изнад
изнели
изненада
изненађен
изненађења
изненађење
изненађујуће
изнео
изнесе
изнети
изникал
изнова
износ
износа
износе
износи
износила
износили
износио
износу
изнутра
изобиљу
изолација
изолације
изолацију
изолована
изоловани
изотоп
изотопа
изотопи
изр
израда
израде
изради
израдио
израдом
израду
израел
израела
израелска
израелске
израелски
израелског
израелу
изражава
изражавају
изражавања
изражавање
изражаја
изражен
изражена
изражене
изражено
израз
израза
изразе
изрази
изразила
изразили
изразима
изразио
изразити
изразито
изразом
изразу
израчунава
израчунавања
израчунавање
израчунати
израђен
израђена
израђене
израђени
израђује
израђују
изрека
изрекао
изреке
изречена
изрећи
изричито
изузев
изузетак
изузетака
изузетан
изузетком
изузетна
изузетне
изузетним
изузетних
изузетно
изузетног
изузетну
изузеци
изум
изумео
изумирања
изумрла
изумрле
изумрли
изучава
изучавање
изъ
изјава
изјавама
изјаве
изјави
изјавивши
изјавила
изјавили
изјавио
изјаву
изјављује
изјасни
изјаснило
изјаснио
изјашњава
изјашњавају
изједначио
ии
иихф
ик
икад
икада
икакве
икаквих
икаквог
икарус
ико
икона
иконама
иконе
иконостас
иконостаса
икону
икс
ил
илегалне
илегално
или
илиноис
илиноису
илири
илирски
илија
илије
илију
илић
илића
илиџа
илузија
илузије
илустратор
илустрација
илустрације
илустрацију
илустрована
илустровао
илуструје
им
има
имала
имале
имали
имало
имам
имамо
имао
имате
имати
имаш
имајте
имају
имајући
имања
имање
имању
имаће
имдб
име
имена
именима
именица
именице
именичке
именован
именована
именовани
именовао
именовања
именовање
именовању
именом
именски
именском
имену
именује
именују
имејл
имиграната
имигранти
имовина
имовине
имовином
имовинска
имовину
император
императора
империја
империје
империји
имплементација
имплементације
имплементацију
имплицира
импресиониран
импулс
импулса
имунитет
ин
ина
иначе
инвазија
инвазије
инвазији
инвазију
инвалида
инвалидитетом
инвестиција
инвестиције
инд
индекс
индекса
индепенденсија
инди
индивидуална
индивидуалне
индивидуални
индивидуалних
индивидуално
индикације
индиректно
индија
индијан
индијана
индијанаца
индијани
индијанци
индије
индији
индијска
индијске
индијски
индијског
индијском
индију
индо
индонезија
индонезије
индонезији
индустрија
индустрије
индустрији
индустријска
индустријске
индустријски
индустријским
индустријских
индустријско
индустријског
индустријску
индустрију
инес
инж
инжењер
инжењера
инжењери
инжењеринг
инжењерства
инжењерство
иницијатива
иницијативе
иницијативу
иницијатор
инка
инклинација
ино
инов
иновација
иновације
инови
иностране
инострани
иностраних
иностранства
иностранство
иностранству
инсеката
инсект
инсекте
инсекти
инсектима
инсистира
инсистирао
инсистирање
инспектор
инспектора
инспирација
инспирацију
инспирисан
инспирисана
инспирисао
инсталација
инсталације
институт
института
институту
институција
институцијама
институције
институцији
институцију
инструктор
инструкција
инструкције
инструмената
инструмент
инструмента
инструменте
инструменти
инструментима
интеграл
интеграција
интеграције
интеграцију
интегрисана
интегрисани
интегритет
интегритета
интел
интелектуалаца
интелектуалне
интелектуални
интелектуалци
интелигенција
интелигенције
интелигенцију
интензивна
интензивне
интензивно
интензитет
интензитета
интер
интера
интерактивни
интеракција
интеракције
интеракцију
интервал
интервала
интервалу
интервенише
интервенција
интервенције
интервенцијом
интервенцију
интервју
интервјуа
интервјуу
интерес
интереса
интересантно
интересе
интереси
интересима
интересовања
интересовање
интересу
интересује
интерконтинентални
интернационале
интернационалне
интернационални
интерне
интернет
интернета
интернету
интерно
интерпретација
интерпретације
интерпретацију
интертото
интерфејс
интерфејса
инфекција
инфекције
инфекцију
инфлација
инфо
информативни
информатика
информатике
информационе
информациони
информационих
информација
информацијама
информације
информацију
информбироа
информисања
информисање
инфраструктура
инфраструктуре
инфраструктуру
инхибитори
инцидената
инцидент
инцидента
инча
инђија
ио
ионако
ип
ипак
ирак
ирака
ираклије
ираку
иран
ирана
иранска
иранске
ирански
ирану
ирапуато
ирена
ири
ирина
иринеј
ирска
ирске
ирски
ирског
ирској
ирску
ис
иса
исабел
исаија
исак
исака
исаковић
исељавање
исидор
исидора
исидоро
исидро
исказ
исказа
исказивано
исказује
ископавања
ископавање
искористе
искористи
искористила
искористили
искористио
искористити
искоришћавања
искоришћавање
искра
искрено
искрцавања
искрцавање
искрцао
искусни
искустава
искуства
искуствима
искуство
искуством
искуству
искушења
искључен
искључена
искључења
искључење
искључиво
искључити
искључује
исла
ислам
ислама
исламска
исламске
исламски
исламских
исламског
исламском
исламу
исланд
исланда
исланду
исмаил
испада
испала
испали
испао
испеци
исписан
исписана
испит
испита
испитаника
испите
испитивања
испитивање
испитивању
испитује
исплате
исплати
исплату
испод
испорука
испоруке
испоставило
испоставља
испочетка
испољава
испољавају
исправа
исправан
исправе
исправи
исправио
исправити
исправна
исправно
исправност
испрва
испред
исприча
испричао
испуне
испуни
испунила
испунио
испунити
испуњава
испуњавају
испуњен
испуњена
испуњене
испуњени
ист
иста
истакао
истакла
истакли
истакне
истакнута
истакнуте
истакнути
истакнутим
истакнутих
истакнуто
истакнутог
истанбул
истанбула
истанбулу
истарске
истарској
истаћи
исте
истека
истекао
истеку
исти
истим
истина
истине
истини
истинита
истинито
истински
истину
истих
истицали
истицао
истицање
истиче
истичу
истичући
истлавакан
исто
истовремено
истог
истога
истоимена
истоимене
истоимени
истоименог
истоименом
истоименој
исток
истока
истоку
истом
историографији
историчар
историчара
историчари
историчарима
историчару
история
историја
историјат
историје
историји
историјом
историјска
историјске
историјски
историјским
историјских
историјско
историјског
историјском
историјској
историјску
историју
источна
источне
источни
источним
источних
источно
источног
источном
источној
источну
истој
истра
истрага
истраге
истрагу
истражи
истраживао
истраживач
истраживача
истраживачи
истраживачима
истраживачка
истраживачке
истраживачки
истраживачким
истраживачких
истраживачког
истраживања
истраживање
истраживањем
истраживањима
истраживању
истражује
истражују
истрази
истре
истри
истрчаше
исту
исувише
исус
исуса
исусу
исход
исхода
исхрана
исхране
исхрани
исхрану
исхуатлан
ит
итал
италија
италијана
италијани
италијанима
италијанска
италијанске
италијански
италијанским
италијанских
италијанско
италијанског
италијанском
италијанској
италијанску
италије
италији
италијом
италију
итд
ити
итурбиде
итф
их
иц
ица
иш
ишао
ишла
ишле
ишли
ишло
ишта
иштван
иште
ија
ијан
ије
иљ
иљов
иљушин
ић
ићи
к
ка
кабада
кабина
кабине
кабинет
кабинета
кабинету
кабини
каборка
кабос
кавказ
кавказа
кавказу
кад
када
кадар
кадерејта
кадра
кадрова
каже
кажем
кажемо
кажете
кажеш
кажи
кажу
кажњава
кажњен
кажњени
каза
казала
казан
казао
казати
казахстан
казахстана
казахстану
казаљке
казању
казе
казерта
казивању
казимир
казна
казне
казни
казниће
казном
казну
казује
казују
казчина
каиро
каиру
какав
каква
какве
какви
каквим
каквих
какво
каквог
каквом
каквој
какву
како
кал
калабрија
калај
калаја
калвадос
калво
кале
калемегдану
календар
календара
календарске
календару
каленић
калера
кали
калибра
калиновик
калифа
калифат
калифата
калифорнија
калифорније
калифорнији
калијум
калијума
калуђер
калуђера
калуђери
калцијум
калцијума
кам
камарго
камбоџи
камен
камена
камене
камени
каменим
камених
каменица
каменице
камено
каменог
каменом
камену
камео
камера
камере
камерон
камеру
камерун
камења
камење
камењем
камила
камион
камиона
камо
камоли
камп
кампа
кампанија
кампања
кампање
кампањи
кампању
кампече
кампо
кампобасо
кампу
кан
кана
канада
канаде
канади
канадска
канадске
канадски
канадских
канадског
канадском
канаду
канал
канала
канале
канали
каналима
каналом
каналу
канда
канделарија
кандидат
кандидата
кандидате
кандидати
кандидатуре
кандидатуру
кандидовао
кандидује
канзас
канзасу
кано
канон
канона
кант
кантакузин
кантон
кантона
кантону
кантри
кану
канцелар
канцелара
канцеларија
канцеларије
канцеларији
канцеларију
као
кап
капа
капацитет
капацитета
капацитетом
капе
капела
капелан
капеле
капели
капелу
капетан
капетана
капетане
капетанија
капетаном
капетану
капи
капилара
капитал
капитала
капитализам
капитализма
капитен
капитена
капитулације
капија
капије
капији
капију
капор
капу
капулин
капут
кар
кара
караван
карактер
карактера
карактеристика
карактеристикама
карактеристике
карактеристичан
карактеристична
карактеристичне
карактеристични
карактеристичним
карактеристичних
карактеристично
карактерише
карактеришу
карактеру
каракуаро
каранза
карановић
карара
карата
карате
караш
карађорђа
карађорђе
карађорђев
карађорђева
карађорђеве
карађорђевић
карађорђевића
караџић
караџића
карбоксилатни
карбоксилне
карго
карденас
кардинал
кардинала
кардиф
карен
кари
кариба
каризал
карикатура
карикатуре
карингтон
каричи
каријера
каријере
каријери
каријеру
кариљо
карл
карла
карло
карловац
карловачка
карловачке
карловачки
карловачкој
карловца
карловци
карловцима
карловцу
карлом
карлос
карлоса
карлу
кармен
карневал
карол
каролина
каролине
каролини
карпата
карта
картагине
картама
карте
картер
карти
картица
картице
картон
картона
карту
карцинома
каса
касарна
касарне
касарни
касас
касационог
касета
касетне
касије
касне
касни
касним
касних
каснија
касније
каснијег
каснијем
каснији
каснијим
каснијих
каснијој
касно
касног
касном
каспијског
кастиља
кастиље
кастиљо
кастро
кат
ката
каталан
каталог
каталога
каталогу
каталонски
катанија
катанцаро
катар
катара
катарина
катарине
катарином
катарину
катару
катастар
катастарске
катастра
катастрофа
катастрофе
категорија
категоријама
категорије
категорији
категорију
катедра
катедрала
катедрале
катедрали
катедре
катедри
катемако
катић
каткад
католик
католика
католици
католицизам
католичка
католичке
католички
католичким
католичких
католичког
католичком
католичкој
католичку
кафа
кафана
кафане
кафани
кафану
кафе
кафу
кахеме
каштер
кашњења
кашњење
кај
каја
кајак
кајл
каљари
кањада
кањон
кањона
кв
квадрат
квадрата
квадратна
квадратне
квадратни
квадратних
квадратног
квадратном
квалитет
квалитета
квалитетан
квалитетне
квалитетних
квалитетно
квалитетом
квалитету
квалификациона
квалификационе
квалификациони
квалификација
квалификацијама
квалификације
квалификовала
квалификовале
квалификовали
квалификовао
квалификује
квангџуу
квантна
квантне
квара
квартет
кваутемок
кваутитлан
квебек
квебеку
квин
кво
кг
кгб
ке
кевин
кели
келн
келти
кемал
кембел
кембриџ
кембриџу
кен
кенеди
кенедија
кенет
кенија
кеније
кенији
кент
кентаки
кентакију
кентаур
керамика
керамике
керетаро
кери
керол
кертис
кет
кети
кетони
кетрин
кеш
кеша
кеј
кејн
кејп
кејси
кејт
кејти
ки
кид
кикинда
кикинди
килограма
километар
километара
километра
километража
километро
километру
ким
кин
кина
кинг
кинга
кине
кинези
кинематографија
кинематографије
кинеска
кинеске
кинески
кинеским
кинеских
кинеско
кинеског
кинеском
кинеској
кинеску
кини
кино
кином
кинта
кинтана
кину
кип
кипар
кипра
кипру
кир
кира
кирби
кири
кирил
кирила
киселина
киселине
киселину
кисеоник
кисеоника
кисеоником
кит
кита
кити
китова
китови
ких
кичево
кичме
кичмене
кичмењака
киш
киша
кише
кишне
кишу
кијев
кијева
кијево
кијевске
кијевски
кијеву
кића
кк
кл
клавир
клавира
клавијатуре
кладенче
кладива
кладограм
клан
клана
клара
кларинет
кларк
класа
класама
класе
класи
класик
класика
класификација
класификације
класификацији
класификацију
класицизма
класичан
класична
класичне
класични
класичним
класичних
класично
класичног
класичном
класичној
класичну
класу
клаудио
клаудија
клаудије
клаус
клајн
клеопатра
клер
клермон
клетва
кливленд
клизачи
клизање
клизању
клима
климатске
климатски
климатским
климатских
климе
климент
клими
климом
климу
клин
клина
клиника
клинике
клиници
клиничка
клиничке
клинички
клиничких
клиничког
клиничком
клинтон
клип
клисура
клисуре
клисури
клисуру
клица
клице
клијената
клијент
клијента
клод
клои
клуб
клуба
клубова
клубове
клубови
клубовима
клубом
клубу
клуж
клупе
клупи
клупска
клупски
клупско
клупског
км
кмет
кметова
кметови
кн
кнегиња
кнегиње
кнеже
кнежева
кнежеви
кнежевина
кнежевине
кнежевини
кнежевину
кнежевић
кнежина
кнежине
кнез
кнеза
кнезова
кнезови
кнезом
кнезу
книга
книн
книна
книнској
книну
ко
коавајутла
коавила
коалиција
коалиције
коалицији
коалицију
коалкоман
коатепек
коаутор
ков
кованица
кованице
кованог
ковао
ковач
ковачевић
ковачевића
ковачић
ковид
ковида
ковин
ковчег
ког
кога
когнитивне
код
кода
кодекс
кодекса
кодова
кодови
коду
коен
коефицијент
кожа
коже
кожељац
кожи
кожне
кожом
кожу
коза
козака
козара
козаре
козари
козарска
козаци
козе
козенца
кои
кока
кокаина
коко
кокс
кол
кола
колапс
колапса
колач
колача
колашин
колашина
колби
коле
колега
колегама
колеге
колегом
колегу
колектив
колективне
колективно
колекција
колекције
колекцији
колекцију
колена
колено
колере
колеџ
колеџа
колеџу
колиба
колибе
колика
колики
колико
колима
колин
колинс
колица
количина
количинама
количине
количини
количином
количину
коло
колон
колона
колоне
колони
колонизација
колонизације
колониста
колонисти
колонија
колонијалне
колонијама
колоније
колонији
колонију
колону
колорада
колорадо
колораду
колосека
колу
колубара
колубаре
колубарском
колумбија
колумбије
колумбији
колумбијски
колумбо
ком
кома
комад
комада
комаде
комади
комаду
комалапа
команда
команданата
командант
команданта
команданти
командантом
команданту
команде
команди
командир
командира
командни
командно
командовао
командом
команду
командује
комараца
комбинација
комбинације
комбинацији
комбинацијом
комбинацију
комбинована
комбиноване
комбиновани
комбинује
комбинују
коме
комедија
комедије
комедији
комедију
коментар
коментара
коментаре
коментари
коментарима
коментарисао
коментарише
коментару
коментатор
комерцијална
комерцијалне
комерцијални
комерцијалних
комерцијално
комесар
комесара
комесари
комета
комете
коминтерне
комисија
комисије
комисији
комисију
комитан
комитет
комитета
комитету
комичар
комнин
комнина
комо
комонвелта
комонду
комонфорт
комора
коморе
комори
комору
компакт
компанија
компанијама
компаније
компанији
компанијом
компанију
компилација
компилације
компилацијски
комплекс
комплекса
комплексна
комплексне
комплексу
комплет
комплетан
комплетна
комплетне
комплетни
комплетно
комплетну
компликација
компликације
композитор
композитора
композитори
композиција
композиције
композицији
композицију
компонента
компоненте
компоненти
компоненту
компоновао
компонује
компостела
компромис
компјутерски
кому
комуна
комуналне
комуне
комунизам
комунизма
комуникациони
комуникација
комуникације
комуникацији
комуникацију
комуниста
комунисте
комунисти
комунистима
комунистичка
комунистичке
комунистички
комунистичким
комунистичких
комунистичког
комунистичком
комунистичкој
комунистичку
комуницира
комуницирају
комшија
комшије
комјунити
кон
конак
конака
конац
коначан
коначна
коначне
коначни
коначним
коначних
коначно
коначног
коначном
коначну
конвенција
конвенције
конвенцији
конвенцију
конверзија
конвој
конвоја
конг
конга
конго
конгрес
конгреса
конгресу
конгу
конектикат
конзервативна
конзервативне
конзервативни
конзоле
конзул
конзула
конзулат
конкакаф
конкордија
конкретан
конкретне
конкретних
конкретно
конкретном
конкуренција
конкуренције
конкуренцији
конкуренцију
конкурс
конкурса
конкурсу
конобар
конопље
конор
конрад
консензус
консензуса
консепсион
константа
константан
константе
константин
константина
константиновић
константинопољ
константинопоља
константину
константна
константно
констанца
констанције
констатовао
конструисао
конструктор
конструктора
конструкција
конструкције
конструкцији
конструкцију
консултант
консултације
контадор
контаката
контакт
контакта
контакте
контакту
конте
контекст
контекста
контексту
континената
континент
континента
континентална
континенталне
континентални
континенталном
континенту
континуирано
континуитет
континуитета
континуитету
контра
контранапад
контраст
контроверзе
контроверзи
контроверзна
контрола
контроле
контроли
контролисала
контролисали
контролисао
контролисати
контролише
контролишу
контролне
контролни
контролом
контролу
конфедерација
конфедерације
конференција
конференције
конференцији
конференцију
конфигурација
конфигурације
конфликт
конфликта
концентрациони
концентрација
концентрације
концентрацију
концепата
концепт
концепта
концепте
концепти
концепту
концепција
концепције
концерата
концерт
концерта
концерте
концерти
концертима
концертни
концерту
координата
координатама
координате
координатни
координатор
координацију
коп
копа
копаоник
копенхаген
копенхагену
копија
копије
копију
копна
копнена
копнене
копнени
копненим
копнених
копно
копном
копну
копља
копље
копљем
кор
кора
корак
корака
кораке
кораку
корал
кораци
кораћ
кораћа
кордоба
кордун
кордуна
кордуну
коре
коректно
корен
корена
корене
корени
корену
кореја
кореје
кореји
корејски
корејског
корејском
кореју
корзика
корзо
кори
коридор
коридора
корисна
корисне
корисни
корисник
корисника
кориснике
корисником
кориснику
корисници
корисницима
корисничке
кориснички
корисничким
корисничко
корисничког
корисно
корист
користан
користе
користећи
користи
користила
користиле
користили
користило
користим
користимо
користио
користите
користити
корита
корито
корице
кориштен
кориштена
кориштени
кориштење
коришћен
коришћена
коришћене
коришћени
коришћених
коришћено
коришћења
коришћење
коришћењем
коришћењу
корнелије
корона
корпорација
корпорације
корпус
корпуса
корпусом
корпусу
кортни
кору
корупција
корупције
корупцију
корњача
корњаче
кос
коса
косановић
косача
косе
коси
космета
космету
космодрома
космос
косова
косовац
косово
косовска
косовске
косовски
косовских
косовско
косовског
косовском
косовској
косову
косом
кост
коста
костарика
костарике
костајница
косте
кости
костим
костима
костију
костић
костића
костолац
костур
костурница
косу
кота
котар
котара
котастла
котлина
котлине
котлини
котлину
котор
котора
которске
котору
кох
коцка
коцке
коча
кочић
кош
коша
кошарка
кошаркаш
кошаркаша
кошаркаши
кошаркашка
кошаркашке
кошаркашки
кошаркашког
кошарке
кошарку
кошарци
кошице
кошички
кошичком
кошта
коштала
коштана
коштане
коштуница
кошуља
кошуље
кошуљу
кој
која
које
којег
којега
којем
којему
који
којим
којима
којих
којић
којом
којот
којој
коју
којука
кољена
коњ
коња
коњаника
коњаници
коње
коњи
коњима
коњиц
коњица
коњице
коњицу
коњичка
коњичке
коњички
коњичког
коњу
кп
кпз
кпх
кпј
кр
крава
краве
крагујевац
крагујевца
крагујевцу
краде
крак
крака
краков
кракова
кракову
краловехрадечки
крапинско
красић
кратак
кратер
кратера
кратка
кратке
кратки
кратким
кратких
кратко
кратког
кратком
краткометражни
краткој
кратку
крађа
крађе
крађу
крај
краја
крајева
крајеве
крајеви
крајевима
крајем
крајина
крајине
крајини
крајину
крајишка
крајишке
крајишки
крајишког
крајпуташ
крају
крајња
крајње
крајњег
крајњем
крајњи
краљ
краља
краљев
краљева
краљеве
краљеви
краљевима
краљевина
краљевине
краљевини
краљевином
краљевину
краљевић
краљевића
краљевићу
краљево
краљевог
краљевска
краљевске
краљевски
краљевским
краљевских
краљевско
краљевског
краљевском
краљевској
краљевску
краљевства
краљевство
краљевством
краљевству
краљеву
краљем
краљица
краљице
краљици
краљицом
краљицу
краљичке
краљу
краћа
краће
краћег
краћи
краћим
крв
крвава
крваве
крвави
крварења
крварење
крви
крвна
крвне
крвни
крвним
крвних
крвног
крвљу
креативни
кревет
кревета
кревету
креде
кредита
креира
креирао
креирају
креирање
кремона
кремља
крене
крену
кренула
кренуле
кренули
кренуло
кренуо
кренути
кретала
кретали
кретао
кретати
кретања
кретање
кретањем
кретању
кречњака
крешимир
креће
крећу
крзна
крзно
крзном
кри
крив
крива
криве
криви
кривим
кривица
кривице
кривицу
кривична
кривични
кривичним
кривичних
кривично
кривичног
кривичном
криво
кривокапић
криза
кризе
кризи
кризу
крик
крикет
крила
крилима
крилни
крилног
крило
крилом
крилу
крим
крима
криминал
криминала
криминалне
криминалци
кримски
кримског
криму
крио
крис
криса
кристал
кристала
кристалне
кристални
кристи
кристин
кристина
кристијан
кристијана
кристобал
кристоф
кристофер
крит
крита
критеријум
критеријума
критеријуме
критеријуми
критеријумима
критеријуму
критика
критикама
критике
критиковали
критикован
критиковао
критику
критикује
критици
критичар
критичара
критичари
критички
криту
кришом
крије
крију
крка
кров
крова
кровом
крову
кроз
кромпир
кромпира
крос
кројцнах
крсмановић
крсна
крст
крста
крстарица
крстарице
крсташ
крсташа
крсташи
крсташима
крсташке
крсташки
крсташких
крсташког
крсташком
крсте
крсти
крститеља
крстић
крсто
крстом
крсту
круг
круга
кругова
кругови
круговима
кругу
кружи
кружне
кружни
кружног
круз
круна
круне
круни
крунисан
крунисао
крунисања
крунисање
крунић
круном
круну
крупа
крупне
крупни
крупних
крусеро
крусес
крушевац
крушевца
крушевцу
крф
крфу
крше
кршења
кршење
крши
крштења
крштење
крљ
крњевић
кс
ксенија
кт
ктитор
ку
куатро
куба
кубе
куби
кува
кувар
кувајт
кување
куга
куге
кугла
кугле
куд
куда
кузио
кузмановић
кук
кука
кукавица
кукавице
кукић
кукова
куку
кукуруз
кукуруза
кул
кула
кулама
куле
кули
кулијакан
култ
култа
култни
култура
културама
културе
култури
културна
културне
културни
културним
културних
културно
културног
културном
културној
културну
културолошка
културом
културу
кулу
кум
кума
куманова
куманово
куме
кун
куна
куне
кунео
куп
купа
купатила
купатило
купац
купање
купе
купер
купи
купила
купили
купио
купити
купова
куповина
куповине
куповину
купола
куполе
куполи
куполом
куполу
купрес
купу
купује
купују
купци
кураица
куран
курва
курир
курс
курса
курсева
курсеве
курт
кустос
кутија
кутије
кутијице
кутију
кухиња
кухиње
кухињи
кухињу
куца
кућ
кућа
кућама
куће
кући
кућна
кућне
кућни
кућним
кућних
кућом
кућу
кфор
кхл
кјети
кјото
кју
кљун
кључ
кључа
кључеве
кључна
кључне
кључни
кључним
кључних
кључну
књ
књажевац
књажевско
књаз
књаза
књига
књигама
књиге
књигом
књигу
књиж
књижара
књижаре
књижевна
књижевне
књижевни
књижевник
књижевника
књижевним
књижевних
књижевница
књижевнице
књижевници
књижевно
књижевног
књижевном
књижевност
књижевности
књижевностима
књижевној
књижевну
књизи
кћ
кћер
кћери
кћерка
кћерке
кћерком
кћерку
кћи
л
ла
лабораторија
лабораторије
лабораторији
лабораторију
лабуд
лав
лава
лаве
лавиринт
лавов
лавова
лавови
лагано
лагос
лагуна
лада
ладислав
ладислава
лаж
лаже
лажи
лажна
лажне
лажни
лажним
лажних
лажно
лажног
лаза
лазар
лазара
лазаре
лазаревац
лазаревић
лазаревића
лазаричке
лазаро
лазару
лазе
лазић
лазо
лазовић
лак
лака
лаке
лаки
лаким
лаких
лако
лаког
лаком
лакташи
лаку
лакше
лакшег
лакши
лалић
ламбда
лампе
лан
лана
ланац
ланаца
ланг
лангдок
ланд
ланда
лане
лансиран
лансирана
лансираних
лансирања
лансирање
лансирању
ланца
ланци
ланцима
ланцу
лара
ларве
лари
лас
ласерски
ласло
ласно
ласта
лат
латина
латиница
латинице
латиници
латиницом
латиницу
латинска
латинске
латински
латинским
латинских
латинско
латинског
латинском
латинској
латковић
лаура
лаурелес
лацио
лађа
лађе
лајош
лајпциг
лајпцигу
лгбт
ле
леа
лева
леве
леви
левице
лево
левог
левом
левој
леву
легално
легат
легата
легенда
легендарни
легенде
легенди
легенду
легитимитет
легија
легије
легура
легуре
лед
леда
ледена
ледене
ледени
леденог
леди
ледника
ледом
леду
лежао
леже
лежи
лежишта
лезије
лек
лека
лекар
лекара
лекари
лекарима
лекарског
лекару
лекић
леко
лекова
лекове
лекови
лековима
лековита
лековите
лексикографски
лексикон
лекције
леле
лена
ленстер
лентикуларна
лео
леон
леона
леонард
леонарда
леонардо
леоне
леонид
леопард
леополд
леополда
леп
лепа
лепе
лепи
лепим
лепих
лепо
лепог
лепом
лепосава
лепосавић
лепота
лепоте
лепоти
лепотица
лепотом
лепоту
лептир
лептира
лептири
лепу
лепше
лердо
лес
лесковац
лесковачке
лесковачки
лесковачког
лесковачком
лесковачкој
лесковца
лесковцу
лесли
лестер
лет
лета
лете
летелица
летелице
летео
летења
летење
летећа
летећи
лети
летима
лето
летова
летове
летови
летонија
летоније
летонији
летонски
летопис
летописа
летописи
летопису
лету
летња
летње
летњег
летњем
летњи
летњим
летњих
лече
лечења
лечење
лечењу
лечи
леш
лешева
леђа
леђима
леђно
лејди
лејк
лејкерса
лејкерси
лејн
лењин
лењина
лењинградска
лењинградске
ли
либан
либана
либану
либерала
либерали
либерална
либералне
либерални
либерално
либертад
либија
либије
либији
либрес
либрето
ливада
ливадама
ливаде
ливерпул
ливерпула
ливно
ливорно
лига
лигашких
лиге
лиги
лигу
лигурија
лидер
лидера
лидери
лидија
лидс
лиз
лиза
лик
лика
ликвидације
лике
лики
ликова
ликове
ликови
ликовима
ликовна
ликовне
ликовни
ликовних
ликовно
ликовног
ликом
лику
лил
лила
лили
лим
лима
лимом
лимон
лин
линарес
лингвиста
лингвисти
лингвистика
лингвистике
линда
лине
линеарна
линеарне
линеарни
линеарно
линија
линијама
линије
линији
линијом
линијски
линију
линк
линкова
линкове
линкови
линколн
линукс
лио
лион
липа
липе
лира
лирика
лирске
лирски
лирских
лирско
лиса
лисабон
лисабону
лисица
лисице
лист
листа
листама
листе
листи
листића
листићи
листова
листове
листови
листовима
листом
листу
лит
литара
литванија
литваније
литванији
литванске
литвански
литература
литературе
литератури
литературу
литице
литија
литијум
литургија
литургије
литургију
лихтенштајн
лиц
лица
лице
лицем
лиценца
лиценце
лиценци
лиценцирање
лиценцом
лиценцу
лици
лицима
лицу
личанке
личе
личи
личке
личко
лична
личне
лични
личним
личних
лично
личног
личном
личност
личности
личностима
личну
лишен
лишћа
лишће
лишћем
лија
лијевој
лијеж
лијепа
лијепо
лк
лмс
ло
лоар
лоара
лоаре
лобања
лобање
лов
лова
ловато
ловац
ловаца
ловачка
ловачке
ловачки
ловачких
ловачко
лове
лови
лову
ловца
ловци
ловћен
логан
логика
логике
логику
логици
логичка
логичке
логички
логично
лого
логор
логора
логораша
логоре
логори
логорима
логору
логотип
лоди
ложе
лоза
лозе
лозница
лознице
лозници
лои
лок
локалидад
локалитет
локалитета
локалитети
локалитету
локална
локалне
локални
локалним
локалних
локално
локалног
локалном
локалној
локалну
локација
локацијама
локације
локацији
локацију
локомотива
локомотиве
локсича
лола
лом
лома
ломас
ломбардија
ломи
лонг
лондон
лондона
лондонски
лондонског
лондонском
лондону
лончар
лопез
лопов
лопова
лопта
лопте
лопти
лоптом
лопту
лора
лорд
лорда
лордова
лорен
лорена
лорензо
лоренс
лоренцо
лорето
лори
лос
лот
лоте
лош
лоша
лоше
лошег
лошем
лоши
лошим
лоших
лошу
лојалност
лојд
лп
лу
лубурић
луг
лугу
луд
луда
лудвиг
лудвига
луде
луди
лудила
лудило
лудо
лужичких
лужнице
лужничких
луз
лузи
луиз
луизијана
луизијани
луис
луиса
луису
луиђи
лук
лука
лукас
луке
луки
лукић
лукова
лукови
луковић
луком
луксембург
луксембурга
луксембургу
луку
луна
лусеро
луси
лусија
лутака
лутер
лутка
лутке
луфтвафе
луци
луција
луције
луча
лучани
луче
лучић
луш
луј
луја
м
ма
магазин
магазина
магазину
магарац
магдалена
магистрале
магистрални
магистрирао
магија
магије
магла
магле
маглина
маглине
магнезијум
магнезијума
магнетна
магнетни
магнетно
магнетног
магнитуда
магнитуде
магнус
мада
мадагаскар
мадагаскара
мадам
мадера
мадеро
мадона
мадрид
мадрида
мадриду
мажуранића
мазапил
мазатан
мазатлан
мак
макаби
макар
макбет
макдоналд
македонаца
македония
македонија
македоније
македонији
македонију
македонска
македонске
македонски
македонских
македонско
македонског
македонском
македонци
макензи
макларен
макро
макс
макса
максвел
максим
максима
максимална
максималне
максимални
максималних
максимално
максималној
максималну
максимилијан
максимовић
максимум
макуспана
мал
мала
малагурски
маларије
мале
малезија
малезије
малезији
малена
мали
малик
малим
малих
мало
малог
малом
малој
малта
малте
малти
малу
мама
ман
мана
манастир
манастира
манастире
манастири
манастирима
манастирска
манастирске
манастирски
манастирског
манастиру
манга
манган
мангана
манге
мандат
мандата
мандић
мане
маневар
манекенке
манзаниљо
мани
манила
манитоба
манифест
манифестација
манифестацијама
манифестације
манифестује
манић
манојла
манојло
манојловић
манстер
манте
мантова
ману
мануел
манчестер
манчестеру
манш
мао
мапа
мапама
мапастепек
мапе
мапи
мапирање
мапу
мар
мара
марака
марамуреш
маратон
маратона
маратону
марвел
маргарет
маргарета
маргарита
маргаритас
маре
мари
марибор
марибору
марин
марина
маринаца
марине
маринко
маринковић
маринковића
марино
марио
марион
марица
марија
маријан
маријана
маријано
марије
марији
маријом
марију
марић
марк
марка
марке
маркес
маркетинг
марко
марков
марковић
марковића
марком
маркос
маркс
маркса
марксизам
марксизма
марку
маркус
марна
марока
мароко
мароку
марпл
марс
марса
марсел
марсељ
марсу
март
марта
марти
мартин
мартина
мартинез
мартиновић
марту
мару
марфи
марш
марша
маршал
маршала
марјан
марјановић
мас
маса
масакр
масакра
масама
масачусетс
масачусетсу
масе
маси
масив
масива
маска
маскарењас
маске
маски
маском
маскота
маску
маслина
маслине
масне
масовна
масовне
масовни
масовним
масовних
масовно
масовног
масовном
масовну
масом
маст
мастер
мастерс
масти
мастило
масу
мат
мата
матаморос
мате
математика
математике
математику
математици
математичар
математичара
математичари
математичка
математичке
математички
математичких
математичког
математичком
матео
матер
матере
матери
материце
материја
материјал
материјала
материјале
материјали
материјалима
материјална
материјалне
материјални
материјалним
материјалних
материјално
материјалног
материјалну
материјалом
материјалу
материје
материју
матерњи
матеј
матеја
мати
матилда
матица
матице
матици
матицки
матична
матичне
матични
матичних
матичној
матичну
матија
матијас
матије
матијевић
матић
матковић
мато
матрица
матрице
матурирао
маузолеј
маунт
мафија
мафије
мах
маха
махала
махале
махали
махмуд
махом
мач
мача
мачак
мачака
мачванском
мачве
мачевање
мачевима
мачек
мачем
мачерата
мачка
мачке
мачо
маша
машина
машинама
машине
машини
машински
машинског
машину
маште
мађ
мађара
мађаре
мађари
мађарима
мађарска
мађарске
мађарски
мађарским
мађарских
мађарско
мађарског
мађарском
мађарској
мађарску
мај
маја
мајами
мајамија
мајамију
мајданпек
маје
мајен
мајер
мајицу
мајк
мајка
мајке
мајки
мајкл
мајкла
мајко
мајком
мајкрософт
мајку
мајлс
мајмун
мајмуна
мајо
мајор
мајора
мајстор
мајстора
мајстори
мају
мајци
мајчине
мања
мање
мањег
мањем
мањи
мањим
мањина
мањине
мањини
мањинска
мањинских
мањину
мањих
мањом
мањој
мању
мвп
мг
ме
мега
меган
меги
мед
меда
медаља
медаље
медаљом
медаљу
медвед
медведа
медвеђа
меденица
медељин
медина
медисон
медитерана
медитеранске
медитеранским
медитерану
медицина
медицине
медицини
медицинска
медицинске
медицински
медицинским
медицинских
медицинско
медицинског
медицинском
медицинској
медицинску
медицину
медичи
медиј
медија
медијавики
медијана
медије
медији
медијима
медијска
медијске
медијски
медијум
меза
мек
мека
меке
меки
мекленбург
меко
мексика
мексикали
мексико
мексику
мексичка
мексичке
мексички
мексичког
мексичкој
мелани
мелбурн
мелбурну
мелодија
мелодије
мелчор
мембрана
мембране
мембрану
мемоари
мемоарима
меморандум
меморија
меморијални
меморије
меморији
меморију
мемфис
мен
мена
менаџер
менаџера
менаџмент
менаџмента
мендез
мене
мени
менталне
менталних
ментално
менталног
ментор
менхетну
менчетић
меоки
мер
мера
мерама
мере
мерења
мерење
мери
мерида
мерил
мериленд
мериленду
мерило
мерити
меркур
мермер
мермера
мерт
меру
мерцедес
меса
месец
месеца
месеци
месецима
месецу
месечно
меси
месина
месија
мескитал
мескитик
месна
месне
месни
месних
месног
месо
месопотамије
месопотамији
места
местима
местимично
место
местом
месту
месјеових
мет
мета
метаболизам
метаболизма
метак
метака
метал
метала
металац
метали
метална
металне
метални
металним
металних
металног
метар
метара
метафора
метафоре
мете
мети
метка
метод
метода
методама
методе
методи
методичар
методија
методије
методологија
методом
методу
метохија
метохије
метохији
метохијске
метохију
метра
метро
метроа
мету
метју
механизам
механизама
механизма
механизме
механизми
механика
механике
механику
механичка
механичке
механички
механичким
механичких
механичког
мехединци
мехија
мехмед
мехмеда
меч
меча
мечева
мечеве
мечеви
мечевима
мечу
меша
мешавина
мешавине
мешавину
мешати
мешају
мешања
мешање
мешовита
мешовите
мешовити
мешовитим
мешовитих
мешовито
мештана
мештани
међ
међу
међувремену
међународна
међународне
међународни
међународним
међународних
међународно
међународног
међународном
међународној
међународну
међуратном
међусобне
међусобни
међусобним
међусобних
међусобно
међусобног
међусобном
међутим
меј
мејл
мејн
мејсон
мења
мењала
мењали
мењао
мењати
мењају
мењања
мењање
мз
мзис
ми
миа
миг
мигел
миграната
миграција
миграције
миди
мик
мика
мики
микић
микро
микроорганизама
микропроцесор
микс
мил
мила
миладин
милан
милана
миланковић
милано
милановац
милановић
милановца
милановцу
миланом
милану
милвоки
миле
милева
милена
миленијум
миленијума
миленка
миленко
миленковић
милер
милера
милета
милетић
милеуснића
мили
миливој
миливоје
миливојевић
милиметара
милинковић
милион
милиона
милионе
милисав
милица
милице
милиција
милиције
милицу
милија
милијарде
милијарди
милијарду
милић
милићевић
милићи
милка
мило
милован
милована
миловановић
милорад
милорада
милорадовић
милосав
милосављевић
милост
милости
милош
милоша
милошевић
милошевића
милошем
милошу
милоје
милојевић
милојевића
милпа
милу
милун
милутин
милутина
милутиновић
милутиновића
мимо
мин
мина
минас
минатитлан
минг
мине
минерал
минерала
минерали
минералне
минералних
минесота
минесоти
мини
минимална
минималне
минимални
минималним
минимално
минималној
минималну
минимум
министар
министара
министарка
министарског
министарстава
министарства
министарство
министарству
министра
министре
министри
министром
министру
минијатуре
минић
минобацача
минск
минска
минску
мину
минус
минут
минута
минути
минуту
минхен
минхена
минхену
мио
миодраг
миодрага
миокарда
миомир
мир
мира
мирадор
мираж
мираз
миран
миранда
мире
мири
мирис
мириса
миришљавац
мирка
мирко
мирковић
мирна
мирне
мирни
мирним
мирно
миро
мировања
мировне
мировни
мировним
мировних
мировног
миром
мирослав
мирослава
мирољуб
миру
мирјана
мис
мисантла
мисао
мисионари
мисисипи
мисисипију
мисија
мисијама
мисије
мисији
мисију
мисле
мислећи
мисли
мислила
мислили
мислило
мислим
мислима
мислио
мислите
мислити
мислиш
мистепек
мистер
мистерија
мистерије
мисури
мисурију
мит
мита
митар
митинг
митинга
митингу
митић
мито
митова
митови
митологија
митологије
митологији
митолошке
митра
митраљез
митраљеза
митровица
митровице
митровици
митровић
митропа
митрополит
митрополита
митрополити
митрополија
митрополије
митрополији
михаел
михаела
михаил
михаила
михаило
михаиловић
михаиловића
михаиловићу
михаилу
михајла
михајло
михајловић
мицубиши
мичел
мичиген
мичигену
мичоакан
миш
миша
мишева
мишеви
мишел
мишић
мишића
мишиће
мишићи
мишићима
мишковић
мишљења
мишљење
мишљењу
мија
мијатовић
мијења
миља
миљан
миље
миљковић
мића
мићић
мићо
мк
мл
млави
млад
млада
младе
младен
младена
младеновац
младеновић
млади
младим
младима
младих
младић
младића
младићи
младићу
младо
младог
младожења
младом
младост
младости
младој
младу
младунци
млазни
млађа
млађе
млађег
млађем
млађи
млађим
млађих
млађу
млека
млеко
млетачка
млетачке
млетачки
млетачком
млечана
млечани
млечанима
млечни
млин
мм
мн
многа
многе
многи
многим
многима
многих
много
многобројне
многобројни
многобројним
многобројних
множење
множина
множине
множини
мном
мноштва
мноштво
мноштвом
мо
мобилизације
мобилизацију
мобилне
мобилни
мобилних
мог
мога
могао
могаше
могла
могле
могли
могло
могу
могућ
могућа
могуће
могућег
могућем
могући
могућим
могућих
могућност
могућности
могућностима
могућношћу
могућу
мод
мода
моде
модел
модела
моделе
модели
моделима
моделом
моделу
модена
модеран
модерна
модерне
модерни
модернизације
модерним
модерних
модерно
модерног
модерном
модерној
модерну
моди
модификација
модификације
модне
модни
модрича
моду
модул
модула
модули
мож
можда
мождане
мождани
можданог
мождине
може
можемо
можете
можеш
мозаик
мозаика
мозак
мозамбик
мозга
мозгу
мозел
мок
мокорито
мокрањац
мокраће
моктезума
мол
мола
молба
молбе
молби
молбу
молдавија
молдавије
молдавији
моле
молекул
молекула
молекуларне
молекуле
молекули
молећи
моли
молизе
молим
молимо
молино
молио
молитва
молитвама
молитве
молитви
молитву
молити
молу
мом
мома
момак
момака
моме
моменат
момент
момента
моменту
момир
момка
момо
момци
момче
момчила
момчило
мон
монака
монако
монаку
монарх
монарха
монархија
монархије
монархији
монархију
монаси
монах
монаха
монахиња
монахиње
монашки
монгола
монголи
монголије
монголији
монголске
монголски
моника
монографија
монографије
монопол
монро
монтажа
монтажер
монтажу
монтана
монтани
монтгомери
монте
монтевидео
монтеморелос
монтес
монтреал
монтреалу
мор
мора
морава
мораве
морави
моравичком
моравска
моравске
моравски
моравско
моравској
мораву
морал
морала
морале
моралес
морали
морална
моралне
морални
моралним
моралних
морално
моралног
моралну
морало
морам
морамо
морао
морате
морати
мораш
морају
морган
море
морелија
морелос
морем
морено
мореуз
мореуза
мори
морима
морис
морисон
морнар
морнара
морнари
морнарица
морнарице
морнарици
морнарицу
морнарички
моро
морска
морске
морски
морским
морских
морског
морском
мору
морфологија
морфолошки
москва
москве
москви
москву
московска
московске
московски
московског
московском
московској
мославачкој
мост
моста
мостар
мостара
мостару
мостобран
мостова
мостове
мостови
мостом
мосту
мотив
мотива
мотивација
мотиве
мотиви
мотивима
мотком
мото
мотозинтла
мотор
мотора
моторе
мотори
моторизоване
моторима
моторних
мотором
мотору
мохамед
моцарт
мочвара
мочваре
мочварна
моша
мошти
моштију
мој
моја
моје
мојега
моји
мојим
мојих
мојом
мојој
мојсија
мојсије
мојсију
моју
моћ
моћан
моћи
моћна
моћне
моћни
моћним
моћних
моћно
моћног
мп
мр
мрава
мрави
мраз
мрак
мрака
мраку
мрачна
мрачне
мрачни
мрежа
мрежама
мреже
мрежи
мрежом
мрежу
мрежњаче
мржња
мржње
мржњу
мрзи
мрки
мркоњић
мрт
мртав
мртва
мртве
мртви
мртвим
мртвих
мртво
мртвог
мрља
мрље
мс
мсс
мт
мтв
му
мува
мудар
мудри
мудро
мудрост
мудрости
муерто
муж
мужа
мужем
мужу
мужјак
мужјака
мужјаци
музеј
музеја
музеји
музејима
музејска
музејске
музејски
музеју
музика
музике
музиколошки
музиком
музику
музици
музичар
музичара
музичаре
музичари
музичарима
музичарка
музичка
музичке
музички
музичким
музичких
музичко
музичког
музичком
музичкој
музичку
мука
мукама
муке
муком
мулехе
муниција
муниције
муницијом
муницију
муп
мур
мурат
мурата
муреш
мурманска
муса
мускиз
муслимана
муслимане
муслимани
муслиманима
муслиманска
муслиманске
муслимански
муслиманским
муслиманских
муслиманско
муслиманског
мусолини
мустафа
мустај
мутација
мутације
мухамед
мухамеда
муче
мучен
мученик
мученика
мученици
мучења
мучење
мучи
мушка
мушкарац
мушкараца
мушкарца
мушкарце
мушкарци
мушкарцима
мушке
мушки
мушким
мушких
мушко
мушког
мушком
мушкој
мушку
мујо
муња
муње
мје
мјера
мјере
мјери
мјесец
мјесеца
мјесеци
мјесне
мјесним
мјеста
мјестима
мјесто
мјесту
мјузикл
мјузикла
мјузиклу
мљ
мљи
мљу
мњења
мњење
н
на
набавио
набавке
набавку
набоја
нава
наваре
наваро
наведе
наведен
наведена
наведене
наведени
наведеним
наведених
наведено
наведеног
навела
навели
навело
навео
навести
навигациони
навика
навике
навише
навијача
навијачи
наводе
наводећи
наводи
наводима
наводне
наводно
наводног
наводњавање
наволато
навохоа
навођења
навођење
наврата
нагиб
нагиба
нагласак
нагласио
нагласити
нагласком
наглашава
наглашено
нагли
нагло
наглог
наговор
нагон
нагоре
нагорно
награда
наградама
награде
награди
наградом
награду
награђен
награђена
награђени
над
нада
надал
надала
надали
надам
надао
надајући
надаље
надбискуп
надбискупа
надбискупије
надгледа
надгледао
надгледање
надгробни
надгробних
наде
надежда
надесно
надзор
надзора
надзорни
надзорник
надзорног
надзором
нади
надимак
надимком
надлежан
надлежни
надлежним
надлежних
надлежно
надлежног
надлежном
надлежност
надлежности
надморска
надморске
надморским
надморској
надмоћ
надокнади
надокнаду
надоле
надомак
наду
наелектрисања
наелектрисање
нажалост
назад
назвала
назвали
назван
названа
назване
названи
названо
названу
назвао
назвати
назив
назива
називала
називали
називамо
називан
називана
називани
називао
називају
називајући
називе
називи
називима
називом
називу
назове
наивне
наизглед
наизменично
наилази
наиме
наишао
наишла
наишли
наиђе
накит
накита
наклади
наклоност
накнада
накнаде
накнадно
накнаду
нако
након
накратко
налаже
налаз
налаза
налазе
налази
налазила
налазиле
налазили
налазило
налазима
налазимо
налазио
налазити
налазишта
налазиште
налик
налог
налога
налоге
налогу
наложио
нам
нама
намена
намене
намени
наменски
намену
намера
намерава
намеравао
намерама
намере
намери
намерно
намером
намеру
намесник
намесника
намесништва
намесништво
наметне
наметнуо
намештај
намештаја
намењен
намењена
намењене
намењени
намењених
намењено
намеће
намирница
намирнице
нана
нанела
нанели
нанео
наниже
наново
наноси
наопако
наоружан
наоружана
наоружане
наоружани
наоружаних
наоружања
наоружање
наоружањем
наоружању
наоса
наочаре
напад
напада
нападали
нападао
нападач
нападача
нападачи
нападају
нападе
напади
нападима
нападне
нападну
нападнут
нападнута
нападом
нападу
напала
напале
напали
напамет
напао
напасти
напајања
напајање
напетост
напетости
написала
написали
написан
написана
написане
написани
написаних
написано
написао
написати
напитак
напише
напишем
напишу
напокон
наполеон
наполеона
наполеонове
наполеонових
напомена
напомене
напомену
напоменуо
напоменути
напомиње
напон
напона
напор
напора
напоре
напори
напорима
напослетку
напоље
напољу
направе
направи
направила
направили
направим
направио
направите
направити
направљен
направљена
направљене
направљени
направљено
напред
напредак
напредна
напредне
напредовала
напредовали
напредовао
напредовања
напредовање
напредује
напредују
напретка
напретку
напријед
напросто
напротив
напуни
напусте
напусти
напустила
напустиле
напустили
напустило
напустио
напустити
напушта
напуштају
напуштања
напуштање
напуштен
напуштена
напуштени
напуљ
напуља
напуљу
нар
нарав
нарави
наравно
наранхо
наранхос
наратор
наредба
наредбе
наредби
наредбом
наредбу
нареди
наредила
наредио
наредна
наредне
наредни
наредник
наредним
наредних
наредног
наредном
наредној
наредну
наређено
наређења
наређење
наређењу
наређује
народ
народа
народе
народи
народима
народна
народне
народни
народним
народних
народнијех
народно
народног
народном
народноослободилачка
народноослободилачке
народноослободилачки
народноослободилачког
народноослободилачком
народноослободилачкој
народности
народној
народну
народом
народу
нарочите
нарочито
наручио
нарушава
нас
наса
населения
населили
населио
насеобина
насеобине
насер
насеља
насељава
насељавали
насељавају
насељавања
насељавање
насеље
насељен
насељена
насељене
насељени
насељеним
насељених
насељено
насељеног
насељеном
насељености
насељима
насељу
насилно
насионал
насипа
насиља
насиље
насиљем
насиљу
наслаге
наследи
наследила
наследио
наследник
наследника
наследником
наследница
наследници
наследства
наследство
наслеђа
наслеђе
наслеђивања
наслеђивање
наслеђу
наслеђује
насликао
наслијеђе
наслов
наслова
наслове
наслови
насловна
насловној
насловну
насловом
наслову
наспрам
насред
настава
наставак
наставака
наставе
настави
наставила
наставиле
наставили
наставило
наставио
наставити
наставка
наставком
наставку
наставна
наставни
наставник
наставника
наставних
наставници
наставног
наставу
наставци
наставцима
наставља
настављају
настављајући
настављен
настављена
настављене
настављени
настављено
настала
настале
настали
насталих
настало
настанак
настане
настанили
настанио
настанка
настанку
настао
настати
настаје
настају
настањује
настањују
настојала
настојали
настојао
настојања
настојању
настоје
настојећи
настоји
наступ
наступа
наступала
наступали
наступао
наступају
наступајући
наступање
наступе
наступи
наступила
наступили
наступима
наступио
наступу
насумично
насупрот
натали
наталија
наталије
наташа
натера
натерала
натерали
натерао
нато
натпис
натписа
натписи
натписима
натписом
натпису
натраг
натријум
натријума
наука
наукама
науке
науком
науку
наутичких
науци
науче
научи
научила
научили
научио
научити
научна
научне
научни
научник
научника
научнике
научним
научних
научници
научницима
научно
научног
научном
научнофантастични
научној
научну
нафта
нафте
нафтне
нахија
нахије
нахији
национал
национализам
национализма
националиста
националисти
националистичке
национална
националне
национални
националним
националних
национално
националног
националном
националност
националности
националној
националну
нациста
нацисти
нацистичка
нацистичке
нацистички
нација
нацијама
нације
нацији
нацију
нацрт
нацрта
нацртао
нацрти
нацрту
начела
начелима
начелник
начелника
начелно
начело
начелу
начин
начина
начине
начини
начинима
начинио
начином
начину
наш
наша
нашао
наше
нашег
нашега
нашем
наши
нашим
нашироко
наших
нашла
нашле
нашли
нашло
нашој
нашу
нађ
нађа
нађе
нађем
нађен
нађена
нађени
нађено
нађи
нађоше
нађу
нај
најава
најавила
најавили
најавио
најављен
најављена
најављено
најављује
најамника
најар
најарит
најближа
најближе
најближег
најближи
најближих
најбогатијих
најбоља
најбоље
најбољег
најбољем
најбољи
најбољим
најбољих
најбољом
најбољу
најбрже
најбржи
најбржих
најбројнији
најважнија
најважније
најважнији
најважнијим
најважнијих
највероватније
највећа
највеће
највећег
највећем
највећи
највећим
највећих
највећом
највећој
највећу
највиша
највише
највишег
највишем
највиши
највишим
највиших
највишу
најгоре
најгори
најдужа
најдуже
најдужи
најезде
најзад
најзначајнија
најзначајније
најзначајнији
најзначајнијих
најистакнутији
најистакнутијих
најкасније
најкориснијег
најкориснији
најлакше
најлепша
најлепше
најлепши
најлепших
најмања
најмање
најмањи
најмању
најмлађа
најмлађе
најмлађи
најмоћнији
најмоћнијих
најнижа
најниже
најнижи
најновија
најновије
најновији
најпознатија
најпознатије
најпознатији
најпознатијих
најпопуларнија
најпопуларнији
најпопуларнијих
најпосле
најпре
најприје
најпродаванији
најпродаванијих
најраније
најранији
најранијих
најстарија
најстарије
најстаријег
најстарији
најстаријим
најстаријих
најтеже
најтежи
најуспешнија
најуспешнији
најуспешнијих
најутицајнијих
најчешћа
најчешће
најчешћи
најчешћих
најјача
најјаче
најјачи
најјачих
наћи
нба
нд
ндх
не
неба
небеса
небеска
небеске
небески
небеских
небеско
небеског
небитно
небо
небом
небојша
небраска
небраски
небу
невада
невен
невена
невероватно
невесиње
невеста
невиност
невладине
невоља
невоље
невољи
невољу
нег
нега
негативан
негативна
негативне
негативни
негативним
негативних
негативно
негативног
негативну
негда
негде
негдје
неге
негира
негирао
него
неговање
неготин
неготину
негу
негује
неда
недавно
недалеко
недвосмислено
недеља
недеље
недељи
недељко
недељковић
недељни
недељник
недељно
недељом
недељу
недић
недића
недовољна
недовољни
недовољно
недостатак
недостатака
недостатка
недостатке
недостатком
недостатку
недостаци
недостаје
недостају
недуго
нежељених
нежно
независан
независна
независне
независни
независним
независних
независно
независног
независност
независности
независној
независну
незадовољан
незадовољни
незадовољства
незадовољство
незаконито
незапослености
незванични
незваничним
незванично
незнатно
нек
нека
некад
некада
некадашња
некадашње
некадашњег
некадашњем
некадашњи
некадашњих
некадашњој
некакав
некако
неке
неки
неким
некима
неких
неко
неког
некога
неколико
неколицина
неком
некоме
некој
некропола
некрополе
неку
нелсон
нем
нема
немам
немамо
нематеријално
нематеријалног
немац
немаца
немачка
немачке
немачки
немачким
немачких
немачко
немачког
немачком
немачкој
немачку
немаш
немају
немања
немање
немањић
немањића
неми
немилост
немира
немири
немогућа
немогуће
немогућност
немогућности
немој
немојте
немце
немци
немцима
ненад
ненада
ненадовић
ненадовића
ненасељено
ненси
нео
необичан
необична
необичне
необично
необјављених
неодређени
неодређено
неодређеног
неолита
неопходан
неопходна
неопходне
неопходни
неопходних
неопходно
неочекивано
неповерење
непознат
непозната
непознате
непознати
непознатих
непознато
непознатог
непознатом
непокретна
непокретних
непокретно
непокретности
непосредан
непосредна
непосредне
непосредни
непосредним
непосредно
непосредног
непосредном
непосредној
непосредну
непотребно
неправде
неправду
неправедно
неправилно
неправилног
неправилности
непрегледаним
непрекидно
непрестано
непријатељ
непријатеља
непријатеље
непријатељем
непријатељи
непријатељима
непријатељска
непријатељске
непријатељски
непријатељским
непријатељских
непријатељског
непријатељску
непријатељства
непријатељство
непријатељу
непуних
нерава
нерва
нервне
нервни
нервних
нервног
нереда
нереди
неретванској
неретве
неретви
неретко
нерешено
нерон
несвесно
несврстаних
неслагања
неслагање
несметано
неспособан
неспособност
несрећа
несреће
несрећи
несрећу
нестабилност
нестабилности
нестала
нестале
нестали
несталих
нестало
нестанак
нестане
нестанка
нестао
нестаје
нестају
нестор
несугласица
несугласице
несумњиво
нет
нетачно
нето
неуобичајено
неурона
неурони
неуспелог
неуспех
неуспеха
неуспехом
неуспешан
неуспешно
неутралан
неутрална
неутралне
неутрални
неутралност
неутралности
неутрона
неформално
нечег
нечега
нечему
нечим
нечије
неш
нешић
нешковић
нешто
нејасно
неједнакост
неједнакости
нећак
нећака
неће
нећемо
нећете
нећеш
нећу
ни
ниво
нивоа
нивое
нивои
нивоима
нивоом
нивоу
нигде
нигдје
нигер
нигерија
нигерије
нигерији
нижа
ниже
нижег
нижем
нижи
нижим
нижих
нижу
низ
низа
низак
низводно
низија
низије
низова
низови
низом
низу
ник
ника
никад
никада
никакав
никаква
никакве
никаквих
никакво
никаквог
никакву
никако
ники
никита
никла
нико
никог
никога
никол
никола
николаб
николас
николај
николаја
николајевич
николајевић
николе
николи
николина
николић
николића
николом
николу
ником
никоме
никољдан
никшић
никшића
никшићу
нил
нила
ним
нимало
нимфа
нимфе
нимчевић
нин
нина
нингуно
нинковић
нинџа
нипошто
нисам
ниси
ниска
ниске
ниски
ниским
ниских
ниско
ниског
ниском
ниску
нисмо
нисте
нису
нит
нити
них
ници
ниче
ничега
ничим
ниш
ниша
нишаве
нишавском
нишка
нишке
нишки
нишког
нишком
нишкој
нишна
ништ
ништа
нишу
нијансе
није
ниједан
ниједна
ниједно
ниједног
ниједном
ниједну
нијемци
нијесам
нијеси
нијесу
нићифор
нићифора
нк
нквд
нло
но
ноб
нобелова
нобелове
нобелову
нобеловци
нов
нова
новак
новака
новаковић
новара
новац
новаца
новајлија
новгород
новгорода
новгородске
нове
новела
новеле
новембар
новембра
новембру
нови
новим
новина
новинама
новинар
новинара
новинаре
новинари
новинарима
новинарка
новинарство
новине
новински
нових
новица
новија
новије
новијег
новији
новијим
новијих
ново
новог
новога
новозеландски
новом
новоме
новоосноване
новорођенчади
новосадске
новосадски
новосадског
новосађани
новости
новој
нову
новца
новце
новцем
новцу
новчана
новчане
новчаних
новчаница
новчанице
новчаном
новчану
новчић
новчића
новј
ног
нога
ногалес
ногама
ноге
ногом
ногу
нож
ножа
ножем
нози
нокаут
нолит
ном
номбре
номиналне
номинација
номинације
номинацију
номинован
номинована
ноп
нопала
нор
норвешка
норвешке
норвешки
норвешког
норвешком
норвешкој
норвешку
норис
норија
норма
нормалан
нормална
нормалне
нормални
нормалним
нормално
нормалног
нормалном
нормалну
нормама
норман
нормана
нормандија
нормани
норме
норми
норму
норт
нос
носа
носач
носача
носачи
носе
носећи
носи
носила
носилац
носилаца
носиле
носили
носило
носим
носио
носиоца
носиоци
носити
нота
нотација
ноте
ноу
ночистлан
ношења
ношење
ношња
ношње
ношњи
ној
ноћ
ноћас
ноћи
ноћна
ноћне
ноћни
ноћним
ноћног
ноћном
ноћу
нп
нпр
нр
нс
нт
ну
нуде
нудећи
нуди
нудио
нуева
нуево
нужно
нуклеарна
нуклеарне
нуклеарни
нуклеарних
нуклеарно
нуклеарног
нула
нуле
нули
нумера
нумере
нумеро
нур
нушић
нфл
нхл
нђ
о
оаза
оахака
об
оба
обавеза
обавезама
обавезан
обавезао
обавезе
обавези
обавезна
обавезне
обавезни
обавезно
обавезног
обавезу
обавезује
обавести
обавестио
обавештава
обавештајна
обавештајне
обавештен
обавештења
обавештење
обави
обавио
обавити
обавља
обављала
обављали
обављао
обављати
обављају
обављања
обављање
обављању
обављен
обављена
обављено
обала
обалама
обале
обали
обалом
обалске
обалу
обама
обара
обвезника
обе
обезбеде
обезбеди
обезбедила
обезбедили
обезбедило
обезбедио
обезбедити
обезбеђен
обезбеђена
обезбеђења
обезбеђење
обезбеђивање
обезбеђује
обезбеђују
обезбјеђује
обележава
обележавају
обележавања
обележавање
обележен
обележена
обележене
обележени
обележила
обележили
обележио
обележја
обележје
обема
обећава
обећао
обећања
обећање
обзир
обзира
обзиром
оби
обилазак
обилази
обилазио
обилић
обилића
обилно
обилује
обим
обима
обиму
обичан
обичај
обичаја
обичаје
обичаји
обичајима
обичају
обична
обичне
обични
обичним
обичних
обично
обичног
обичном
обишао
обиље
обл
облак
облака
облаке
обласне
обласни
обласног
област
области
областима
облаци
облацима
облашћу
оближње
оближњег
оближњем
оближњи
оближњим
оближњих
облик
облика
облике
обликовање
обликом
облику
обликује
облици
облицима
облога
обложен
обложена
обнавља
обнављања
обнављање
обнова
обнове
обнови
обновила
обновили
обновио
обновити
обнову
обновљен
обновљена
обновљене
обновљени
обновљено
обод
обода
ободу
обожавалаца
оболеле
оболелих
обор
оборен
обори
оборила
оборили
оборио
обоје
обојена
обојене
обојени
обојица
обољења
обољење
обр
обрад
обрада
обраде
обради
обрадио
обрадовић
обрадовића
обрадом
обраду
образ
образа
образац
образаца
образложења
образложење
образложењем
образован
образована
образоване
образовани
образовао
образовања
образовање
образовањем
образовању
образовна
образовне
образовни
образовним
образовних
образовно
образовног
образује
образују
обрасца
обрасци
обрасцу
обрати
обратили
обратио
обратити
обратно
обрачун
обрачуна
обрађена
обрађује
обрађују
обраћа
обрегон
обред
обреда
обреде
обредни
обреновац
обреновић
обреновића
обрисан
обрисани
обрисао
обрисати
обрише
обрнуто
оброк
оброка
обронцима
обруч
обруча
обука
обуке
обуку
обустави
обухвата
обухватала
обухватао
обухватају
обуци
обуче
обучен
обучена
обучени
обуће
обычаи
објава
објаве
објави
објавила
објавиле
објавили
објавило
објавио
објавити
објављен
објављена
објављене
објављени
објављеним
објављених
објављено
објављеном
објављеној
објављивао
објављивања
објављивање
објављивањем
објављивању
објављује
објављују
објасне
објасни
објаснио
објаснити
објашњава
објашњавају
објашњено
објашњења
објашњење
објашњењем
обје
објекат
објеката
објект
објекта
објекте
објекти
објективно
објектима
објектно
објекту
ов
ова
овакав
оваква
овакве
овакви
оваквим
оваквих
овакво
оваквог
оваквом
овакву
овако
овамо
ован
оваца
овај
овде
овдје
ове
овен
оверња
ови
овим
овима
ових
овк
овлашћен
овлашћени
овлашћено
овлашћења
овлашћење
овлашћењима
ово
овог
овога
овом
овоме
овој
ову
овца
овце
овчар
ог
огањ
оглас
огледа
огледала
огледало
огледалу
огледи
ограда
ограде
оградом
огранак
огранака
ограничава
ограничавају
ограничавање
ограничен
ограничена
ограничене
ограничени
ограниченим
ограничено
ограниченог
ограниченом
ограничену
ограничења
ограничење
ограничењима
ограничи
ограничити
огранка
огроман
огромна
огромне
огромни
огромним
огромних
огромно
огромног
огромном
огромну
огњем
огњен
огњишта
огњиште
од
ода
одабир
одабрала
одабрали
одабран
одабрана
одабране
одабрани
одабраних
одабрао
одавде
одавно
одакле
одан
оданост
одао
одатле
одаје
одају
одбаци
одбацивање
одбацила
одбацили
одбацио
одбацити
одбацује
одбацују
одбачен
одбачена
одбила
одбиле
одбили
одбио
одбити
одбија
одбијали
одбијао
одбијају
одбијања
одбијање
одбије
одбијен
одбијена
одбијени
одбију
одбор
одбора
одбори
одборника
одбору
одбојка
одбојкаши
одбојкашки
одбојци
одбрамбене
одбрамбени
одбрамбених
одбрамбено
одбрамбеног
одбрана
одбране
одбрани
одбранила
одбранио
одбраном
одбрану
одваја
одвајају
одвајања
одвајање
одведе
одведен
одведени
одвели
одвео
одвести
одвећ
одвија
одвијала
одвијало
одвијао
одвијају
одводе
одводи
одвојен
одвојена
одвојене
одвојени
одвојеним
одвојено
одвоји
одвојила
одвојили
одвојио
одвојити
одговара
одговарала
одговарало
одговарао
одговарати
одговарају
одговарајућа
одговарајуће
одговарајућег
одговарајући
одговарајућим
одговарајућих
одговарајућу
одговор
одговора
одговоран
одговоре
одговори
одговорила
одговорили
одговорио
одговорити
одговорна
одговорне
одговорни
одговорним
одговорно
одговорност
одговорности
одговорношћу
одговору
оде
одела
одело
оделу
одем
одеси
одељак
одељења
одељење
одељењима
одељењу
одељка
одељку
одећа
одеће
одећи
одећу
одзив
оди
одигра
одиграва
одиграла
одиграли
одигран
одиграна
одигране
одиграних
одиграно
одиграо
одисеј
одисеја
одиста
одлагања
одлагање
одлаже
одлазак
одлазе
одлази
одлазили
одлазио
одласка
одласком
одласку
одлика
одлике
одликован
одликована
одликовани
одликовао
одликовања
одликовање
одликује
одликују
одличан
одлична
одличне
одличним
одлично
одложен
одложено
одломак
одлука
одлукама
одлуке
одлуком
одлуку
одлуци
одлучан
одлуче
одлучено
одлучи
одлучивања
одлучивање
одлучила
одлучиле
одлучили
одлучило
одлучио
одлучити
одлучно
одлучује
одлучују
одлучујући
одлучујућу
одма
одмазде
одмах
одмор
одмора
одн
однела
однели
однео
однесе
однос
односа
односе
односи
односила
односило
односима
односио
односити
односно
односом
односу
одобрава
одобравање
одобрен
одобрења
одобрење
одобрењу
одобри
одобрила
одобрио
одозго
одоздо
одоше
одражава
одражавају
одраз
одрасла
одрасле
одрасли
одраслих
одрастао
одред
одреда
одредаба
одредба
одредбама
одредбе
одредби
одреде
одреди
одредила
одредили
одредима
одредио
одредити
одредиште
одредница
одреднице
одредом
одреду
одрекао
одрекне
одређен
одређена
одређене
одређени
одређеним
одређених
одређено
одређеног
одређеном
одређеној
одређену
одређивања
одређивање
одређивању
одређује
одређују
одрећи
одржава
одржавала
одржавале
одржавали
одржавало
одржавао
одржавати
одржавају
одржавања
одржавање
одржавању
одржала
одржали
одржало
одржан
одржана
одржане
одржани
одржаним
одржаних
одржано
одржаног
одржаном
одржаној
одржао
одржати
одрже
одржи
одри
одрицање
одриче
одсек
одсека
одсеку
одсто
одступања
одступање
одсуства
одсуство
одсуству
одсутан
оду
одувек
одузео
одузета
одузети
одузима
одузимања
одузимање
одузме
одустала
одустали
одустало
одустане
одустао
одушевљен
одушевљење
одједном
одјек
одјељења
одјељење
оебс
ожени
оженио
ожењен
оживи
оживљавање
оз
озбиљан
озбиљна
озбиљне
озбиљни
озбиљним
озбиљних
озбиљније
озбиљно
озбиљну
озн
ознака
ознакама
ознаке
ознаком
ознаку
означава
означавао
означавају
означавање
означен
означена
означене
означени
означено
означи
означила
означило
означио
озрен
озулуама
ои
ок
ока
окампо
оквир
оквира
оквире
оквирима
оквиру
океан
океана
океаније
океану
оклахома
оклахоми
оклоп
оклопа
оклопна
оклопне
оклопни
оклопним
оклопних
оклопно
оклопног
окна
око
окозокоаутла
околина
околине
околини
околином
околину
околна
околне
околним
околних
околност
околности
околностима
около
оком
оконча
окончала
окончан
окончана
окончао
окончања
окончању
окосинго
окр
окрене
окрену
окренула
окренуо
окренут
окренута
окренути
окреће
окрећу
окриљем
округ
округа
округе
округла
округле
округли
округлог
округом
округу
окружен
окружена
окружено
окружења
окружење
окружењу
окружна
окружне
окружни
окружног
окружује
окружују
окрузи
окрузима
окршаја
оксид
оксида
оксиди
оксфорд
оксфорду
октавијан
октобар
октобарска
октобарске
октобра
октобру
оку
окупатора
окупационе
окупационих
окупација
окупације
окупацијом
окупацију
окупи
окупила
окупили
окупило
окупио
окупирала
окупирале
окупирали
окупиране
окупираној
окупу
окупља
окупљали
окупљају
окупљања
окупљање
окупљени
ол
олакшава
олга
олге
олд
олег
оливер
оливера
оливија
оливије
олимпик
олимпија
олимпијада
олимпијаде
олимпијади
олимпијакос
олимпије
олимпијска
олимпијске
олимпијски
олимпијским
олимпијских
олимпијског
олимпијском
олимпијску
олимпијци
олова
олово
оломоуцки
олт
олтар
олтара
олтару
олуја
олује
ом
оман
омар
омега
омер
омета
ометају
омиљена
омиљени
омладина
омладине
омладини
омладинска
омладинске
омладински
омладинских
омладинског
омладинском
омладину
омогућава
омогућавају
омогућавајући
омогућено
омогући
омогућила
омогућиле
омогућили
омогућило
омогућио
омогућити
омогућује
омогућују
омот
омота
омотач
омотача
он
она
онако
онамо
онај
онда
онде
ондо
ондје
оне
они
оним
онима
оних
онлајн
оно
оног
онога
онолико
оном
ономе
оној
онтарио
онтарија
онтарију
ону
оп
опада
опадања
опадање
опажања
опази
опала
опао
опасан
опасна
опасне
опасни
опасним
опасних
опасно
опасност
опасности
опатија
опатији
опачић
опеке
опен
опера
оператера
оперативна
оперативне
оперативни
оперативним
оперативних
оперативно
оперативног
оперативном
оперативну
оператор
оператора
оператори
операција
операцијама
операције
операцији
операцијом
операцију
опере
опери
оперски
оперу
опет
опис
описа
описала
описали
описан
описана
описане
описани
описано
описао
описати
описе
описи
описивање
описима
опису
описује
описују
описујући
опише
опколили
опне
опозив
опозиционе
опозиционих
опозиција
опозиције
опозицији
опозицију
опомене
опоравак
опорави
опоравио
опоравка
оправда
оправдано
оправдање
определио
опрема
опреме
опреми
опремом
опрему
опремљен
опремљена
опремљене
опремљени
опрости
опростио
опростити
опроштај
опсада
опсаде
опсади
опсадом
опсаду
опсег
опсега
опсегу
опсео
опсерваторија
опсерваторије
опстанак
оптерећења
оптерећење
оптицају
оптичка
оптичке
оптички
оптичких
оптичког
оптужба
оптужбама
оптужбе
оптужби
оптужбом
оптужен
оптужена
оптужени
оптуженог
оптужила
оптужили
оптужио
оптужница
оптужнице
оптужује
опус
опционо
опција
опције
опцију
општа
опште
општег
општем
општи
општим
општина
општинама
општине
општини
општином
општинска
општинске
општински
општинским
општинских
општинског
општину
општих
општој
општу
опљачкали
ор
орао
орах
ораха
ораховац
орање
орбита
орбитални
орбите
орбити
орбитом
орбиту
орган
органа
органе
органи
организам
организама
организатор
организатора
организатори
организационе
организациони
организационих
организационо
организационог
организација
организацијама
организације
организацији
организацијом
организацију
организма
организми
организму
организовала
организовале
организовали
организован
организована
организоване
организовани
организованих
организовано
организованог
организовао
организовати
организовања
организовање
организовању
организује
организују
органима
органофлуориди
органохлориди
органска
органске
органски
органских
органу
оргуље
орд
орден
ордена
орденом
орегон
орегону
орешковић
оригинал
оригинала
оригиналан
оригинална
оригиналне
оригинални
оригиналним
оригиналних
оригинално
оригиналног
оригиналном
оригиналној
оригиналну
оригиналу
орион
оријентација
оријентације
оријентацију
оријентисан
оријентисана
оријентисани
оркестар
оркестра
оркестром
орла
орландо
орлеанс
орлови
орловић
орн
оро
ортака
ортега
оружане
оружани
оружаним
оружаних
оружаног
оружану
оружја
оружје
оружјем
оружју
оруђа
оруђе
ос
оса
осам
осамдесет
осамдесетих
осамнаест
осваја
освајали
освајао
освајач
освајача
освајачи
освајају
освајања
освајање
освајањем
освајању
освета
освете
освети
осветио
осветници
освету
осветљења
осветљење
освештао
освећена
освећење
освоје
освојен
освојена
освојене
освојени
освојених
освојено
освојену
освоји
освојивши
освојила
освојиле
освојили
освојио
освојити
осе
осети
осетио
осетљив
осетљиве
осетљивост
осетљивости
осећа
осећала
осећали
осећам
осећао
осећај
осећаја
осећају
осећајући
осећања
осећање
осећањима
оси
осигура
осигурава
осигурала
осигураника
осигурао
осигурања
осигурање
осигурању
осим
осијек
осијеку
оскар
оскара
ослања
ослањао
ослањају
ослањајући
осликава
осликао
осло
ослобађа
ослобађају
ослобађања
ослобађање
ослобађању
ослободе
ослободи
ослободила
ослободилачке
ослободилачки
ослободилачког
ослободиле
ослободили
ослободио
ослободити
ослобођен
ослобођена
ослобођене
ослобођени
ослобођено
ослобођену
ослобођења
ослобођење
ослобођењу
ослонац
ослу
осма
осман
османа
османлија
османлијама
османлије
османска
османске
османски
османским
османских
османско
османског
османском
османску
осматрачки
осматрање
осме
осмех
осми
осмина
осмине
осмини
осмину
осмислио
осмо
осмог
осмом
осмој
осн
оснива
оснивач
оснивача
оснивачем
оснивачи
оснивачки
оснивачким
оснивају
оснивања
оснивање
оснивањем
оснивању
основ
основа
основала
основали
основама
основан
основана
основане
основани
основано
основао
основе
основи
основна
основне
основни
основним
основних
основно
основног
основном
основној
основну
основом
основу
оснује
особа
особама
особе
особености
особи
особина
особинама
особине
особину
особите
особито
особом
особу
особља
особље
осовина
осовине
осола
оста
остава
оставе
остави
оставивши
оставила
оставили
оставило
оставио
оставите
оставити
оставке
оставку
оставу
оставља
остављају
остављајући
остављен
остављена
остаде
остала
остале
остали
осталим
осталима
осталих
остало
осталог
осталом
остане
остану
остао
остатак
остатака
остати
остатка
остатке
остатком
остатку
остаци
остацима
остаје
остају
остаће
остваре
остварен
остварена
остварења
остварење
остварењу
оствари
остваривања
остваривање
остваривању
остваривши
остварила
остварили
остварило
остварио
остварити
остварује
остварују
остин
остојић
острва
острвима
острво
острвом
острвској
острву
острошког
осу
осуде
осуди
осудили
осудио
осуду
осумњичени
осумњиченог
осуђен
осуђена
осуђени
осуђено
осуђује
осјечко
от
ота
отада
отац
отаца
отаџбина
отаџбине
отаџбини
отаџбинског
отаџбину
отвара
отварају
отварања
отварање
отварањем
отварању
отвор
отвора
отворе
отворен
отворена
отворене
отворени
отвореним
отворених
отворено
отвореног
отвореном
отворену
отвори
отворила
отворили
отворио
отворити
отдел
отежава
отежано
отели
отело
отео
отиде
отисак
отишао
отишла
отишли
отишло
отићи
откад
отказ
отказан
отказана
отказао
откако
отклањање
открива
откривају
откривајући
откривања
откривање
откривању
откривен
откривена
откривене
откривени
откривено
открила
открили
открио
открити
открије
открију
открића
откриће
откуд
откуда
откуп
откупио
ото
оток
отока
отон
отона
отпад
отпада
отпадних
отпао
отпевала
отпор
отпора
отпорност
отпорности
отпору
отпочела
отпочели
отпочело
отпочео
отпочиње
отпочне
отправник
отприлике
отпутовао
отпуштања
отпуштен
отров
отрова
отрован
отровне
отуд
отуда
оу
оун
оф
офа
офанзива
офанзиве
офанзиви
офанзиву
официр
официра
официре
официри
официрима
офк
офу
ох
охајо
охају
охо
охрид
охридски
охридског
оц
оца
оцем
оцена
оцене
оцени
оценио
оценом
оцену
оцењен
оцењивање
оцењује
оци
оцу
оч
очајнички
оче
очева
очеве
очевидно
очекивали
очекивало
очекивани
очекивано
очекивао
очекивати
очекивања
очекује
очекују
очекујући
очи
очигледан
очигледна
очигледне
очигледно
очима
очисти
очито
очију
очне
очува
очуван
очувана
очуване
очувани
очувања
очување
очувању
ош
оштар
оштећен
оштећена
оштећене
оштећени
оштећено
оштећења
оштећење
оштра
оштре
оштрим
оштрих
оштро
ој
ојача
ојачана
ојачао
оће
оџаци
п
па
пабељон
пабло
павел
павелић
павелића
павија
павиљон
павић
павићевић
павков
павла
павле
павлица
павлов
павловић
павловића
павлу
пад
пада
падавина
падавине
падају
паде
падеж
падежа
падежу
падина
падинама
падине
падини
падиља
падне
падну
падова
падови
падом
паду
пажљиво
пажња
пажње
пажњом
пажњу
паз
пазар
пазара
пазару
пази
пазова
пак
пакао
пакет
пакета
пакистан
пакистана
пакистану
пакла
паклене
паклу
паковање
пакраца
пакт
пакта
пакту
пал
пала
палама
паланка
паланке
паланци
паласио
палата
палате
палати
палатинат
палату
пале
паленке
палеолог
палеолога
палермо
палестина
палестине
палестини
палестину
пали
пализада
палилула
палим
палма
палмар
палмас
палме
пало
памет
паметан
памети
паметни
паметно
памти
памук
памука
памћења
памћење
пан
панама
панаме
панатинаикос
пандемије
пандуревић
панела
паника
панић
панк
панонске
панорама
панталоне
пантелејмона
пантелић
пантер
пантић
пануко
панцер
панчева
панчево
панчеву
пао
паок
паоло
папа
папантла
папаскијаро
папе
папи
папир
папира
папиру
папом
папске
папу
папуа
пар
пара
паравојне
парагвај
парагваја
парада
параде
парадокс
паразита
параисо
паралеле
паралелна
паралелне
паралелни
паралелних
паралелно
параметар
параметара
параметра
параметри
парас
параћин
пардубички
паре
парења
пари
париз
париза
паризу
парис
париске
париски
париског
париском
парк
парка
паркер
паркинг
паркова
паркови
парковима
парком
парку
парламент
парламента
парламентарна
парламентарне
парламентарни
парламентарним
парламентарних
парламенту
парма
парна
парне
парни
парова
парови
паровима
пародија
паром
парох
пароха
парохија
парохије
парохији
парохијски
парохију
парсека
партизан
партизана
партизане
партизани
партизанима
партизаном
партизанска
партизанске
партизански
партизанским
партизанских
партизанског
партизанском
партизану
партија
партијама
партије
партији
партијом
партијска
партијске
партијски
партијским
партијских
партијског
партијском
партијску
партију
партнер
партнера
партнери
партнерима
партнерски
партнерства
партнерство
пару
парцела
парцеле
парцели
парче
пас
паса
паскал
пасо
пасош
пасоша
пасти
пастир
пастира
пасуљ
пате
патент
пати
патио
патка
патке
патрик
патрика
патријарси
патријарх
патријарха
патријархом
патријарху
патријаршија
патријаршије
патроле
патролирање
патње
пауза
паузе
паузу
паул
паула
пауло
паун
пауновић
пацифик
пацифика
пацифику
пацијената
пацијент
пацијента
пацијенте
пацијенти
пацијентима
пацова
паша
пашалук
пашалука
паше
паши
пашић
пашића
пашом
пашу
пашњаци
пашњацима
паја
пајпер
пајтон
паљарес
паљења
паљење
пб
пво
пгп
пе
пев
пева
певала
певали
певао
певати
певач
певача
певачи
певачица
певачице
певају
певајући
певања
певање
певањем
пегаз
педагог
педагогија
педагогије
педагошка
педагошке
педагошки
педесет
педесетих
педра
педрегал
педро
пежо
пезаро
пек
пекинг
пекингу
пекић
пелопонез
пен
пенал
пенала
пензионисан
пензионисани
пензионисања
пензија
пензије
пензији
пензијског
пензију
пениса
пенсилванија
пенсилванији
пенхамо
пепела
пепео
пер
пера
пераја
пере
перез
пери
период
периода
периоде
периоди
периодика
периодима
периодично
периодичност
периодом
периоду
периферија
периферије
периферији
перихел
перишић
перић
перл
перо
перовић
пером
перпера
перс
персеј
перси
персида
персија
персијанаца
персијанци
персије
персији
персијска
персијске
персијски
персијских
персијског
персијском
персију
перспектива
перспективе
перспективу
перу
перуа
перуу
перуђа
перформанс
перформансе
перформанси
перцепција
перцепције
перја
перје
песак
песама
песка
пескара
песку
песма
песмама
песме
песми
песмом
песму
песни
песник
песника
песникиња
песнику
песници
песничке
песнички
песништво
пет
пета
петак
петар
петатлан
пете
петер
петербург
петербурга
петербургу
петербургъ
пети
петка
петке
петковић
петнаест
пето
петобој
петог
петогодишњи
петом
петоро
петој
петра
петрановић
петре
петров
петрова
петровац
петровић
петровића
петровићу
петрово
петровца
петровцу
петроград
петрограду
петром
петронијевић
петру
пету
петља
петље
пехар
печат
печата
пече
печења
печење
печурке
пешадија
пешадије
пешадијска
пешадијске
пешадијски
пешадијских
пешадијског
пешака
пешић
пешке
пешта
пешти
пешчара
пејзаж
пејзажа
пејџ
пења
пење
пећ
пећи
пећина
пећинама
пећине
пећини
пећину
пећке
пи
пива
пивара
пиво
пиза
пик
пика
пикардија
пикови
пиксела
пила
пиле
пилот
пилота
пилоти
пин
пинал
пингвини
пинк
пинки
пино
пинос
пинјин
пио
пионир
пионира
пир
пирамида
пирамиде
пирене
пиринач
пиринеји
пиринча
пирот
пирота
пиротски
пиротског
пиротском
пироту
пирс
писала
писали
писало
писама
писан
писана
писане
писани
писаним
писаних
писано
писаном
писаној
писао
писар
писара
писати
писац
писаца
писања
писање
писањем
писању
пискел
писма
писмени
писмено
писменост
писмености
писмима
писмо
писмом
писму
пистоја
писца
писце
писци
писцима
писцу
пит
пита
питали
питам
питао
питати
питаш
питај
питају
питања
питање
питањем
питањима
питању
питер
питера
пити
питсбург
пихихијапан
пичено
пише
пишем
пишемо
пишеш
пиши
пиштољ
пиштоља
пиштољем
пишу
пишући
пиј
пијаде
пијан
пијаниста
пијаца
пијаце
пијаци
пије
пиједра
пиједрас
пијемонт
пијесак
пију
пића
пиће
пк
пкјиф
пл
плава
плаве
плави
плавим
плавих
плаво
плавог
плавом
плавој
плаву
плажа
плаже
плажи
плазма
плазме
плакат
плакати
плакета
пламен
пламена
пламену
план
плана
планета
планете
планети
планету
планина
планинама
планинаца
планине
планини
планином
планинска
планинске
планински
планинским
планинских
планинско
планинског
планинском
планину
планира
планирала
планирали
планиран
планирана
планиране
планирани
планирано
планирао
планирају
планирања
планирање
планирању
планова
планове
планови
плановима
планом
плану
пласира
пласирала
пласирале
пласирали
пласирало
пласирао
пласирају
пласман
пласмана
пласману
пластика
пластике
пластичне
плата
плате
плати
платио
платити
платна
платно
платном
платну
плато
платоа
платон
платона
платоу
плату
платформа
платформе
платформи
платформу
плафон
плач
плаче
плачу
плашећи
плаши
плаја
плајас
плаћа
плаћали
плаћају
плаћања
плаћање
плаћени
плаћеника
племе
племена
племенима
племените
племенити
племенитих
племенске
племенски
племену
племић
племића
племићи
племићке
племства
племство
плен
плена
плес
плеса
плесачица
плесецк
плеј
плејмејкера
плејоф
плејофа
плзењ
плзењски
плива
пливао
пливач
пливачи
пливање
пливању
плитким
плови
пловидбе
пловидбу
пловила
плод
плода
плодна
плодне
плодно
плодност
плодности
плодова
плодове
плодови
плодовима
плодом
плоча
плочама
плоче
плочи
плочица
плочице
плочом
плочу
плус
плутарх
плућа
плућима
плућне
пне
по
поаро
поароа
поату
побегао
побегла
побегли
побегне
побегну
победа
победама
победе
победи
победивши
победила
победиле
победили
победио
победити
победник
победника
победница
победнице
победници
победничка
победнички
победом
победу
побеђује
побећи
побили
побиједила
побиједио
побожни
побољша
побољшава
побољшана
побољшао
побољшати
побољшања
побољшање
побољшању
побратима
побратиме
побрђа
побрђе
побуна
побуне
побуни
побунили
побунио
побуну
побуњеника
побуњенике
побуњеници
побуњеницима
побједа
побједе
побједи
побједник
побједника
побједу
пов
поведе
поведи
повеже
повезан
повезана
повезане
повезани
повезаним
повезаних
повезано
повезаност
повезаности
повезао
повезати
повезивао
повезивања
повезивање
повезује
повезују
повела
повео
поверена
повереник
повереника
поверено
поверења
поверење
поверио
повест
повести
повеља
повеље
повељи
повељом
повељу
повећа
повећава
повећавао
повећавају
повећала
повећали
повећало
повећан
повећана
повећане
повећаним
повећано
повећаног
повећаном
повећану
повећао
повећати
повећају
повећања
повећање
повећањем
повећању
повластице
повлаче
повлачења
повлачење
повлачењем
повлачењу
повлачи
повод
повода
поводом
поворка
повољан
повољне
повољно
повратак
поврате
поврати
повратила
повратили
повратио
повратити
повратка
повратку
повратне
повраћање
повреда
повредама
повреде
повредио
повредом
повреду
повремени
повремено
повређен
повређених
повређено
поврх
површи
површина
површинама
површине
површини
површином
површинске
површински
површинских
површинског
површину
поврћа
поврће
повукао
повукла
повукле
повукли
повуку
повуче
повучен
повучена
повучени
повући
погачар
погађа
погибе
погибија
погибије
погинула
погинуле
погинули
погинулим
погинулих
погинуло
погинуо
погл
поглавар
поглавара
поглавито
поглавица
поглавице
поглавља
поглавље
поглављу
поглед
погледа
погледао
погледати
погледај
погледајте
погледе
погледи
погледима
погледом
погледу
поговор
погодак
погодака
погодан
погоди
погодила
погодио
погодна
погодне
погодно
погодности
погон
погона
погоном
погонска
поготка
поготово
поготову
погођен
погођена
погођени
погрешан
погрешио
погрешна
погрешне
погрешно
погрешном
погуби
погубио
погубљен
погубљени
погубљења
погубљење
под
пода
поданика
поданици
податак
података
податка
податке
подаци
подацима
подвиг
подвргнут
подвргнути
подврста
подврсте
подгорица
подгорице
подгорици
подгрупа
подгрупе
подебљана
подебљани
подела
поделе
подели
поделила
поделили
поделио
поделити
поделом
поделу
подешавања
подешавање
подељен
подељена
подељене
подељени
подељених
подељено
подземна
подземне
подземни
подземним
подземних
подигао
подигла
подигли
подигне
подигну
подигнут
подигнута
подигнуте
подигнути
подигнуто
подигоше
подиже
подижу
подизања
подизање
подизању
подин
подијељена
подићи
подлеже
подлежу
подлога
подлоге
подлогом
подлогу
подлози
подмет
подморница
подморнице
поднаслов
подне
поднела
поднели
поднео
поднесе
поднесу
поднети
подно
подножје
подножју
подносе
подноси
подношења
подношење
подов
подово
подофицира
подразумева
подразумевао
подразумевају
подређена
подређене
подржава
подржавала
подржавали
подржавам
подржавао
подржавају
подржала
подржали
подржан
подржана
подржао
подржати
подрже
подржи
подружница
подружнице
подрум
подруму
подручја
подручје
подручјем
подручјима
подручју
подршка
подршке
подршком
подршку
подршци
подсећа
подсећају
подскуп
подстакао
подстакла
подстакло
подстицај
подстицање
подстиче
подстичу
поду
подухват
подухвата
подједнако
подјела
подјеле
поезия
поезија
поезије
поезији
поезију
поема
поеме
поен
поена
поене
поени
поенима
поента
поетика
пожар
пожара
пожаревац
пожаревца
пожаревцу
пожару
пожега
пожеге
пожеги
пожељно
поживи
поз
поза
позади
позадина
позадине
позадини
позадину
позајмио
позајмице
позајмици
позајмицу
позајмљен
позајмљује
позвала
позвали
позван
позвана
позвани
позвао
позвати
поздрав
поздрави
поздравио
позив
позива
позивам
позивао
позивају
позивајући
позивање
позиве
позивницу
позиву
позитиван
позитивна
позитивне
позитивни
позитивним
позитивних
позитивно
позитивног
позитивну
позиција
позицијама
позиције
позицији
позицију
позн
позна
познавалац
познавали
познавао
познавања
познавање
познат
позната
познате
познати
познатим
познатих
познатија
познатије
познатији
познатијих
познато
познатог
познатом
познатој
познату
познаје
познајем
познајемо
познају
позо
позове
позоришна
позоришне
позоришни
позоришним
позоришних
позоришног
позоришном
позоришној
позоришну
позоришта
позориште
позориштима
позоришту
позорници
пок
покаже
покажу
показа
показала
показале
показали
показало
показано
показао
показатељ
показати
показивао
показивач
показује
показују
показујући
поки
поклапа
поклања
поклон
поклона
поклоне
поклони
поклонила
поклонио
поклопац
покори
покорио
покојни
покојника
покојног
покољ
покоља
покрај
покрајац
покрајина
покрајинама
покрајине
покрајини
покрајинска
покрајинске
покрајински
покрајинског
покрајину
покрене
покрену
покренула
покренуле
покренули
покренуло
покренуо
покренут
покренута
покренути
покренуто
покрет
покрета
покретач
покретача
покретања
покретање
покретању
покрете
покрети
покретима
покретна
покретне
покретни
покретним
покретних
покретом
покрету
покретљивост
покреће
покрећу
покрива
покривач
покривача
покривају
покривен
покривена
покривене
покривени
покривено
покрије
покрова
покровитељ
покровитељством
покупи
покуша
покушава
покушавала
покушавали
покушавао
покушавају
покушавајући
покушала
покушале
покушали
покушао
покушати
покушај
покушаја
покушаје
покушаји
покушајима
покушају
пол
пола
полагања
полагање
полаже
полажу
полазе
полазећи
полази
полако
полемике
полет
полетања
полетање
полетео
полетна
поли
полином
полинома
политбироа
политика
политике
политикин
политиком
политику
политици
политичар
политичара
политичари
политичарима
политичарка
политичка
политичке
политички
политичким
политичких
политичко
политичког
политичком
политичкој
политичку
полицајац
полицајаца
полицајца
полицајци
полиција
полиције
полицији
полицијом
полицијска
полицијске
полицијски
полицијским
полицијских
полицијског
полицијској
полицијску
полицију
полне
полни
полних
полно
поло
полова
половина
половине
половини
половином
половину
положај
положаја
положаје
положајем
положаји
положајима
положају
положено
положи
положио
полом
полу
полувремена
полувремену
полуге
полукружном
полуострва
полуострво
полуострву
полупречник
полупречника
полураспада
полуфинала
полуфинале
полуфиналне
полуфиналу
пом
помагала
помагали
помагао
помаже
помажу
помажући
помак
помало
помен
помена
поменуо
поменута
поменуте
поменути
поменутим
поменутих
поменуто
поменутог
поменутом
помера
померанија
померања
померање
помешане
помирења
помири
помисли
помислио
помињање
помиње
помињу
помогао
помогла
помогли
помогло
помогне
помогну
помози
поморавском
поморавља
поморавље
поморска
поморске
поморски
поморским
поморских
поморског
поморском
поморску
помоћ
помоћи
помоћна
помоћне
помоћни
помоћник
помоћника
помоћних
помоћу
помпеј
пон
понавља
понављам
понављају
понављања
понављање
понаша
понашају
понашања
понашање
понашањем
понашању
понајвише
понегде
понедељак
понекад
понео
понесе
понешто
понишавља
поништи
поништио
понови
поновио
поновити
поновни
поновно
поновног
поновном
поново
понор
понос
поноса
поноћ
поноћи
понте
понуда
понуде
понуди
понудила
понудили
понудио
понуду
понуђена
поп
попа
попео
попис
пописа
пописано
пописима
попису
поплава
поплаве
попов
попова
поповић
поповића
поподне
поправи
поправио
поправити
поправке
поправку
попречни
попречног
поприлично
поприште
популаран
популарна
популарне
популарни
популарним
популарних
популарно
популарног
популарном
популарност
популарности
популарној
популарну
популациони
популација
популације
популацији
популацијом
популацију
попуне
попут
пор
поражен
поражена
поражене
поражени
пораз
пораза
поразе
порази
поразила
поразили
поразио
поразом
поразу
порасла
пораст
пораста
порастао
порастом
порасту
порвенир
порденоне
поред
поредак
пореди
порез
пореза
порезе
порези
порекла
порекло
пореклом
пореклу
поремећај
поремећаја
поремећаје
поремећајем
поремећаји
поремећајима
пореске
порески
пореских
поретка
поретку
поређења
поређење
поређењу
поријекла
поријекло
поријеклом
порно
порнографска
породица
породицама
породице
породици
породицом
породицу
породична
породичне
породични
породичним
породичних
породично
породичног
породичном
породичној
породичну
порођаја
порт
порта
портал
портала
порталу
порте
порти
портланд
порто
порторико
портпарол
портрет
портрета
портрете
портрети
порту
португал
португала
португалија
португалије
португалији
португалске
португалски
португалског
португалском
португалу
португалци
порука
поруке
поруку
поручио
поручник
поручника
порфирогенит
порција
посада
посаде
посади
посадом
посаду
посао
посвети
посветила
посветио
посветити
посвећен
посвећена
посвећене
посвећени
посвећених
посвећено
посвећеност
посвећену
посвећује
посебан
посебна
посебне
посебни
посебним
посебних
посебно
посебног
посебном
посебној
посебну
посед
поседа
поседе
поседи
поседима
поседовала
поседовали
поседовао
поседовање
поседу
поседује
поседују
посета
посете
посети
посетила
посетилаца
посетили
посетио
посетиоце
посетиоци
посетиоцима
посету
посећено
посећивао
посећује
посећују
поскочице
посла
послала
послали
послан
посланик
посланика
посланике
посланица
посланици
посланицима
посланичке
посланичких
посланство
послао
послат
послата
послате
послати
послато
после
последица
последицама
последице
последицу
последња
последње
последњег
последњем
последњи
последњим
последњих
последњој
последњу
послератна
послератни
послератном
послије
послова
пословања
пословање
пословању
послове
послови
пословима
пословице
пословна
пословне
пословни
пословника
пословником
пословним
пословних
пословно
пословног
пословну
послом
послу
послужи
послужила
послужио
послужити
послуша
послушност
послује
посматра
посматрано
посматрао
посматрати
посматрач
посматрача
посматрачи
посматрају
посматрајући
посматрања
посматрање
посмртни
посредник
посредника
посредно
посредовање
[...]
