!
"
#
##a
##aa
##ab
##ac
##ad
##ae
##af
##ag
##ah
##ai
##aj
##ak
##al
##am
##an
##ao
##ap
##aq
##ar
##as
##at
##au
##av
##aw
##ax
##ay
##az
##b
##ba
##bb
##bc
##bd
##be
##bf
##bg
##bh
##bi
##bj
##bk
##bl
##bm
##bn
##bo
##bp
##bq
##br
##bs
##bt
##bu
##bv
##bw
##bx
##by
##bz
##c
##ca
##cb
##cc
##cd
##ce
##cf
##cg
##ch
##ci
##cj
##ck
##cl
##cm
##cn
##co
##cp
##cq
##cr
##cs
##ct
##cu
##cv
##cw
##cx
##cy
##cz
##d
##da
##db
##dc
##dd
##de
##df
##dg
##dh
##di
##dj
##dk
##dl
##dm
##dn
##do
##dp
##dq
##dr
##ds
##dt
##du
##dv
##dw
##dx
##dy
##dz
##e
##ea
##eb
##ec
##ed
##ee
##ef
##eg
##eh
##ei
##ej
##ek
##el
##em
##en
##eo
##ep
##eq
##er
##es
##et
##eu
##ev
##ew
##ex
##ey
##ez
##f
##fa
##fb
##fc
##fd
##fe
##ff
##fg
##fh
##fi
##fj
##fk
##fl
##fm
##fn
##fo
##fp
##fq
##fr
##fs
##ft
##fu
##fv
##fw
##fx
##fy
##fz
##g
##ga
##gb
##gc
##gd
##ge
##gf
##gg
##gh
##gi
##gj
##gk
##gl
##gm
##gn
##go
##gp
##gq
##gr
##gs
##gt
##gu
##gv
##gw
##gx
##gy
##gz
##h
##ha
##hb
##hc
##hd
##he
##hf
##hg
##hh
##hi
##hj
##hk
##hl
##hm
##hn
##ho
##hp
##hq
##hr
##hs
##ht
##hu
##hv
##hw
##hx
##hy
##hz
##i
##ia
##ib
##ic
##id
##ie
##if
##ig
##ih
##ii
##ij
##ik
##il
##im
##in
##io
##ip
##iq
##ir
##is
##it
##iu
##iv
##iw
##ix
##iy
##iz
##j
##ja
##jb
##jc
##jd
##je
##jf
##jg
##jh
##ji
##jj
##jk
##jl
##jm
##jn
##jo
##jp
##jq
##jr
##js
##jt
##ju
##jv
##jw
##jx
##jy
##jz
##k
##ka
##kb
##kc
##kd
##ke
##kf
##kg
##kh
##ki
##kj
##kk
##kl
##km
##kn
##ko
##kp
##kq
##kr
##ks
##kt
##ku
##kv
##kw
##kx
##ky
##kz
##l
##la
##lb
##lc
##ld
##le
##lf
##lg
##lh
##li
##lj
##lk
##ll
##lm
##ln
##lo
##lp
##lq
##lr
##ls
##lt
##lu
##lv
##lw
##lx
##ly
##lz
##m
##ma
##mb
##mc
##md
##me
##mf
##mg
##mh
##mi
##mj
##mk
##ml
##mm
##mn
##mo
##mp
##mq
##mr
##ms
##mt
##mu
##mv
##mw
##mx
##my
##mz
##n
##na
##nb
##nc
##nd
##ne
##nf
##ng
##nh
##ni
##nj
##nk
##nl
##nm
##nn
##no
##np
##nq
##nr
##ns
##nt
##nu
##nv
##nw
##nx
##ny
##nz
##o
##oa
##ob
##oc
##od
##oe
##of
##og
##oh
##oi
##oj
##ok
##ol
##om
##on
##oo
##op
##oq
##or
##os
##ot
##ou
##ov
##ow
##ox
##oy
##oz
##p
##pa
##pb
##pc
##pd
##pe
##pf
##pg
##ph
##pi
##pj
##pk
##pl
##pm
##pn
##po
##pp
##pq
##pr
##ps
##pt
##pu
##pv
##pw
##px
##py
##pz
##q
##qa
##qb
##qc
##qd
##qe
##qf
##qg
##qh
##qi
##qj
##qk
##ql
##qm
##qn
##qo
##qp
##qq
##qr
##qs
##qt
##qu
##qv
##qw
##qx
##qy
##qz
##r
##ra
##rb
##rc
##rd
##re
##rf
##rg
##rh
##ri
##rj
##rk
##rl
##rm
##rn
##ro
##rp
##rq
##rr
##rs
##rt
##ru
##rv
##rw
##rx
##ry
##rz
##s
##sa
##sb
##sc
##sd
##se
##sf
##sg
##sh
##si
##sj
##sk
##sl
##sm
##sn
##so
##sp
##sq
##sr
##ss
##st
##su
##sv
##sw
##sx
##sy
##sz
##t
##ta
##tb
##tc
##td
##te
##tf
##tg
##th
##ti
##tj
##tk
##tl
##tm
##tn
##to
##tp
##tq
##tr
##ts
##tt
##tu
##tv
##tw
##tx
##ty
##tz
##u
##ua
##ub
##uc
##ud
##ue
##uf
##ug
##uh
##ui
##uj
##uk
##ul
##um
##un
##uo
##up
##uq
##ur
##us
##ut
##uu
##uv
##uw
##ux
##uy
##uz
##v
##va
##vb
##vc
##vd
##ve
##vf
##vg
##vh
##vi
##vj
##vk
##vl
##vm
##vn
##vo
##vp
##vq
##vr
##vs
##vt
##vu
##vv
##vw
##vx
##vy
##vz
##w
##wa
##wb
##wc
##wd
##we
##wf
##wg
##wh
##wi
##wj
##wk
##wl
##wm
##wn
##wo
##wp
##wq
##wr
##ws
##wt
##wu
##wv
##ww
##wx
##wy
##wz
##x
##xa
##xb
##xc
##xd
##xe
##xf
##xg
##xh
##xi
##xj
##xk
##xl
##xm
##xn
##xo
##xp
##xq
##xr
##xs
##xt
##xu
##xv
##xw
##xx
##xy
##xz
##y
##ya
##yb
##yc
##yd
##ye
##yf
##yg
##yh
##yi
##yj
##yk
##yl
##ym
##yn
##yo
##yp
##yq
##yr
##ys
##yt
##yu
##yv
##yw
##yx
##yy
##yz
##z
##za
##zb
##zc
##zd
##ze
##zf
##zg
##zh
##zi
##zj
##zk
##zl
##zm
##zn
##zo
##zp
##zq
##zr
##zs
##zt
##zu
##zv
##zw
##zx
##zy
##zz
$
%
&
'
(
)
*
+
,
-
.
/
0
00
000
0001
0004
0006
001
002
003
006
007
008388
01
010
0169
017
02
022
03
04
05
06
061
07
077
08
089
089919026
09
0a
0b
0c
0d
0e
0f
0g
0h
0i
0j
0k
0l
0m
0n
0o
0p
0q
0r
0s
0t
0u
0v
0w
0x
0y
0z
1
10
100
1000
10000
1001
1002
1003
1004
1005
1006
1007
1008
1009
101
1010
1011
1012
1013
1014
1015
1016
1017
1018
1019
102
1020
1021
1022
1023
1024
1025
1026
1027
1028
1029
103
1030
1031
1032
1033
1034
1035
1036
1037
1038
1039
104
1040
1041
1042
1043
1044
1045
1046
1047
1048
1049
105
1050
1051
1052
1053
1054
1055
1056
1057
1058
1059
106
1060
1061
1062
1063
1064
1065
1066
1067
1068
1069
107
1070
1071
1072
1073
1074
1075
1076
1077
1078
1079
108
1080
1081
1082
1083
1084
1085
1086
1087
1088
1089
109
1090
1091
1092
1093
1094
1095
1096
1097
1098
1099
11
110
1100
1101
1102
1103
1104
1105
1106
1107
1108
1109
111
1110
1111
1112
1113
1114
1115
1116
1117
1118
1119
112
1120
1121
1122
1123
1124
1125
1126
1127
1128
1129
113
1130
1131
1132
1133
1134
1135
1136
1137
1138
1139
114
1140
1141
1142
1143
1144
1145
1146
1147
1148
1149
115
1150
1151
1152
1153
1154
1155
1156
1157
1158
1159
116
1160
1161
1162
1163
1164
1165
1166
1167
1168
1169
117
1170
1171
1172
1173
1174
1175
1176
1177
1178
1179
118
1180
1181
1182
1183
1184
1185
1186
1187
1188
1189
119
1190
1191
11917
1192
1193
1194
1195
1196
1197
1198
1199
12
120
1200
1201
1202
1203
1204
1205
1206
1207
1208
1209
121
1210
1211
1212
1213
1214
1215
1216
1217
1218
1219
122
1220
1221
1222
1223
1224
1225
1226
1227
1228
1229
123
1230
1231
1232
1233
1234
1235
1236
1237
1238
1239
124
1240
1241
1242
1243
1244
1245
1246
1247
1248
1249
125
1250
1251
1252
1253
1254
1255
1256
1257
1258
1259
126
1260
1261
1262
1263
1264
1265
1266
1267
1268
1269
127
1270
1271
1272
1273
1274
1275
1276
1277
1278
1279
128
1280
1281
1282
1283
1284
1285
1286
1287
1288
1289
129
1290
1291
1292
1293
1294
1295
1296
1297
1298
1299
13
130
1300
1301
1302
1303
1304
1305
1306
1307
1308
1309
131
1310
1311
1312
1313
1314
1315
1316
1317
1318
1319
132
1320
1321
1322
1323
1324
1325
1326
1327
1328
1329
133
1330
1331
1332
1333
1334
1335
1336
1337
1338
1339
134
1340
1341
1342
1343
1344
1345
1346
1347
1348
1349
135
1350
1351
1352
1353
1354
1355
1356
1357
1358
1359
136
1360
1361
1362
1363
1364
1365
1366
1367
1368
1369
137
1370
1371
1372
1373
1374
1375
1376
1377
1378
1379
138
1380
1381
1382
1383
1384
1385
1386
1387
1388
1389
139
1390
1391
1392
1393
1394
1395
1396
1397
1398
1399
14
140
1400
1401
1402
1403
1404
1405
1406
1407
1408
1409
141
1410
1411
1412
1413
1414
1415
1416
1417
1418
1419
142
1420
1421
1422
1423
1424
1425
1426
1427
1428
1429
143
1430
1431
1432
1433
1434
1435
1436
1437
1438
1439
144
1440
1441
1442
1443
1444
1445
1446
1447
1448
1449
145
1450
1451
1452
1453
1454
1455
1456
1457
1458
1459
146
1460
1461
1462
1463
1464
1465
1466
1467
1468
1469
147
1470
1471
1472
1473
1474
1475
1476
1477
1478
1479
148
1480
1481
1482
1483
1484
1485
1486
1487
1488
1489
149
1490
1491
1492
1493
1494
1495
1496
1497
1498
1499
15
150
1500
1501
1502
1503
1504
1505
1506
1507
1508
1509
151
1510
1511
1512
1513
1514
1515
1516
1517
1518
1519
152
1520
1521
1522
1523
1524
1525
1526
1527
1528
1529
153
1530
1531
1532
1533
1534
1535
1536
1537
1538
1539
154
1540
1541
1542
1543
1544
1545
1546
1547
1548
1549
155
1550
1551
1552
1553
1554
1555
1556
1557
1558
1559
156
1560
1561
1562
1563
1564
1565
1566
1567
1568
1569
157
1570
1571
1572
1573
1574
1575
1576
1577
1578
1579
158
1580
1581
1582
1583
1584
1585
1586
1587
1588
1589
159
1590
1591
1592
1593
1594
1595
1596
1597
1598
1599
16
160
1600
1601
1602
1603
1604
1605
1606
1607
1608
1609
161
1610
1611
1612
1613
1614
1615
1616
1617
1618
1619
162
1620
1621
1622
1623
1624
1625
1626
1627
1628
1629
163
1630
1631
1632
1633
1634
1635
1636
1637
1638
1639
164
1640
1641
1642
1643
1644
1645
1646
1647
1648
1649
165
1650
1651
1652
1653
1654
1655
1656
1657
1658
1659
166
1660
1661
1662
1663
1664
1665
1666
1667
1668
1669
167
1670
1671
1672
1673
1674
1675
1676
1677
1678
1679
168
1680
1681
1682
1683
1684
1685
1686
1687
1688
1689
169
1690
1691
1692
1693
1694
1695
1696
1697
1698
1699
17
170
1700
1701
1702
1703
1704
1705
1706
1707
1708
1709
171
1710
1711
1712
1713
1714
1715
1716
1717
1718
1719
172
1720
1721
1722
1723
1724
1725
1726
1727
1728
1729
173
1730
1731
1732
1733
1734
1735
1736
1737
1738
1739
174
1740
1741
1742
1743
1744
1745
1746
1747
1748
1749
175
1750
1751
1752
1753
1754
1755
1756
1757
1758
1759
176
1760
1761
1762
1763
1764
1765
1766
1767
1768
1769
177
1770
1771
1772
1773
1774
1775
1776
1777
1778
1779
178
1780
1781
1782
1783
1784
1785
1786
1787
1788
1789
179
1790
1791
1792
1793
1794
1795
1796
1797
1798
1799
18
180
1800
1801
1802
1803
1804
1805
1806
1807
1808
1809
181
1810
1811
1812
1813
1814
1815
1816
1817
1818
1819
182
1820
1821
1822
1823
1824
1825
1826
1827
1828
1829
183
1830
1831
1832
1833
1834
1835
1836
1837
1838
1839
184
1840
1841
1841954543
1842
1843
1844
1845
1846
1847
1848
1849
185
1850
1851
1852
1853
1854
1855
1856
1857
1858
1859
186
1860
1861
1862
1863
1864
1865
1866
1867
1868
1869
187
1870
1871
1872
1873
1874
1875
1876
1877
1878
1879
188
1880
1881
1882
1883
1884
1885
1886
1887
1888
1889
189
1890
1891
1892
1893
1894
1895
1896
1897
1898
1899
19
190
1900
1901
1902
1903
1904
1905
1906
1907
1908
1909
191
1910
1911
1912
1913
1914
1915
1916
1917
1918
1919
192
1920
1921
1922
1923
1924
1925
1926
1927
1928
1929
193
1930
1931
1932
1933
1934
1935
1936
1937
1938
1939
194
1940
1941
1942
1943
1944
1945
1946
1947
1948
1949
195
1950
1951
1952
1953
1954
1955
1956
1957
1958
1959
196
1960
1961
1962
1963
1964
1965
1966
1967
1968
1969
197
1970
1971
1972
1973
1974
1975
1976
1977
1978
1979
198
1980
1981
1982
1983
1984
1985
1986
1987
1988
1989
199
1990
1991
1992
1993
1994
1995
1996
1997
1998
1999
1a
1b
1c
1d
1e
1f
1g
1h
1i
1j
1k
1l
1m
1n
1o
1p
1q
1r
1s
1t
1u
1v
1w
1x
1y
1z
2
20
200
2000
2001
2002
2003
2004
2005
2006
2007
2008
2009
201
2010
2011
2012
2013
2014
2015
2016
2017
2018
2019
202
2020
2021
2022
2023
2024
2025
2026
2027
2028
2029
203
2030
2031
2032
2033
2034
2035
2036
2037
2038
2039
204
2040
2041
2042
2043
2044
2045
2046
2047
2048
2049
205
2050
2051
2052
2053
2054
2055
2056
2057
2058
2059
206
2060
2061
2062
2063
2064
2065
2066
2067
2068
2069
207
2070
2071
2072
2073
2074
2075
2076
2077
2078
2079
208
2080
2081
2082
2083
2084
2085
2086
2087
2088
2089
209
2090
2091
2092
2093
2094
2095
2096
2097
2098
2099
21
210
2100
211
212
213
214
215
216
217
2173
218
219
22
220
2200
221
222
223
224
225
226
227
228
229
23
230
2300
2307
231
232
233
234
235
236
237
238
239
24
240
2400
241
242
243
244
245
246
247
248
249
25
250
2500
251
2510
252
253
254
255
256
257
258
259
26
260
2600
261
262
263
264
265
266
267
268
269
27
270
27022
271
272
273
274
275
276
277
278
279
28
280
281
282
283
284
285
286
287
288
289
29
290
291
292
293
294
295
296
297
298
299
2a
2b
2c
2d
2e
2f
2g
2h
2i
2j
2k
2l
2m
2n
2o
2p
2q
2r
2s
2t
2u
2v
2w
2x
2y
2z
3
30
300
3000
301
302
303
304
305
306
307
308
309
31
310
311
312
313
314
315
316
317
318
319
32
320
321
322
323
324
325
326
327
328
329
33
330
331
332
333
334
335
336
337
338
339
34
340
341
342
343
344
345
346
347
348
349
35
350
3500
351
352
3528
353
354
355
356
357
358
359
36
360
361
362
363
364
365
366
367
368
369
37
370
371
372
373
374
375
376
377
378
379
38
380
381
382
383
384
385
386
387
388
389
39
390
391
392
393
394
395
396
397
398
399
3a
3b
3c
3d
3e
3f
3g
3h
3i
3j
3k
3l
3m
3n
3o
3p
3q
3r
3s
3t
3u
3v
3w
3x
3y
3z
4
40
400
4000
401
402
403
404
405
406
407
408
409
41
410
411
412
413
414
415
416
417
418
419
42
420
421
422
423
424
425
426
427
428
429
43
430
431
432
433
434
435
436
437
438
439
44
440
441
442
443
444
445
446
447
448
449
45
450
4500
451
452
453
454
455
456
457
458
459
46
460
461
462
463
464
465
466
467
468
469
47
470
471
472
473
474
475
476
477
478
479
48
480
481
482
483
484
485
486
487
488
489
49
490
491
492
493
494
495
496
497
498
499
4a
4b
4c
4d
4e
4f
4g
4h
4i
4j
4k
4l
4m
4n
4o
4p
4q
4r
4s
4t
4u
4v
4w
4x
4y
4z
5
50
500
5000
501
502
503
504
505
506
507
508
509
51
510
511
512
513
514
515
516
517
518
519
52
520
521
522
523
524
525
526
527
528
529
53
530
531
532
533
534
535
536
537
538
539
54
540
541
542
543
544
545
546
547
548
549
55
550
551
552
553
554
555
556
557
558
559
56
560
56025
561
562
563
564
565
566
567
568
569
57
570
571
572
573
574
575
576
577
578
57859
579
58
580
581
582
583
584
585
586
587
588
589
59
590
591
592
593
594
595
596
597
598
599
5a
5b
5c
5d
5e
5f
5g
5h
5i
5j
5k
5l
5m
5n
5o
5p
5q
5r
5s
5t
5u
5v
5w
5x
5y
5z
6
60
600
6000
601
602
603
604
605
606
607
608
609
61
610
611
612
613
614
615
616
617
618
619
62
620
621
622
623
624
625
626
627
628
629
63
630
631
632
633
634
635
636
6361
637
638
639
64
640
641
642
643
644
645
646
647
648
649
65
650
651
652
653
654
655
656
657
658
659
66
660
661
662
663
664
665
666
667
668
669
67
670
671
672
673
674
675
676
677
678
679
68
680
681
682
683
684
685
686
687
688
689
69
690
691
692
693
694
695
696
697
698
699
6a
6b
6c
6d
6e
6f
6g
6h
6i
6j
6k
6l
6m
6n
6o
6p
6q
6r
6s
6t
6u
6v
6w
6x
6y
6z
7
70
700
7000
701
702
703
704
705
706
707
708
709
71
710
711
7119
712
713
7136
714
715
716
717
718
719
72
720
721
722
723
724
725
726
727
728
729
73
730
731
732
733
734
735
736
737
738
739
74
740
741
742
743
7432
744
745
746
747
748
749
75
750
751
752
7527
753
754
755
756
757
758
759
76
760
761
762
763
764
765
766
767
768
769
77
770
771
772
773
774
775
776
777
778
779
78
780
781
782
783
784
785
786
787
788
789
79
790
791
792
793
794
795
7959
796
797
798
799
7a
7b
7c
7d
7e
7f
7g
7h
7i
7j
7k
7l
7m
7n
7o
7p
7q
7r
7s
7t
7u
7v
7w
7x
7y
7z
8
80
800
8000
801
802
803
804
8048
805
806
807
808
809
81
810
811
812
813
814
815
816
817
818
819
82
820
821
822
823
8230
824
8240
825
826
8264
827
828
829
83
830
831
832
833
834
835
836
837
838
839
84
840
841
84195
842
843
84353
844
845
846
847
848
849
85
850
851
85112
852
853
854
855
856
857
858
859
86
860
86074
861
862
863
864
865
866
867
868
869
87
870
871
87131
872
873
874
875
876
877
878
879
87930
88
880
881
882
883
884
885
886
887
88728
888
889
89
890
891
892
893
894
895
896
897
898
89820
899
8a
8b
8c
8d
8e
8f
8g
8h
8i
8j
8k
8l
8m
8n
8o
8p
8q
8r
8s
8t
8u
8v
8w
8x
8y
8z
9
90
900
9000
901
902
903
904
904994
905
906
907
908
909
91
910
911
912
913
91399
914
915
916
917
91722
918
919
92
920
921
922
923
924
925
926
927
928
929
93
930
931
932
933
934
935
936
937
938
939
94
940
941
942
943
944
945
946
947
948
949
95
950
951
952
95295
953
954
955
956
957
958
959
96
960
961
962
963
964
965
966
967
968
969
97
970
971
972
973
974
975
976
977
978
979
98
980
981
982
983
984
985
986
987
988
989
99
990
991
992
993
994
995
996
997
998
999
9a
9b
9c
9d
9e
9f
9g
9h
9i
9j
9k
9l
9m
9n
9o
9p
9q
9r
9s
9t
9u
9v
9w
9x
9y
9z
:
;
<
=
>
?
@
[
[CLS]
[MASK]
[PAD]
[SEP]
[UNK]
\
]
^
_
`
a
a0
a1
a2
a3
a4
a5
a6
a7
a8
a9
aa
aachen
aage
aalborg
aalesund
aall
aalto
aar
aaraas
aare
aarflot
aargau
aarhus
aaron
aars
aas
aase
aasen
aasentunet
aasmund
aat
ab
abba
abbas
abbed
abbey
abbott
abc
abd
abdiserte
abdul
abdulfattah
abdullah
abel
aberdeen
abies
abkhasiske
abo
abonnement
abor
abort
about
above
abraham
abrahamsen
absalon
absolute
absolutt
absolutte
absorberer
absorbert
abstract
abstracts
abstrakt
abstrakte
abu
abyan
ac
acacia
academia
academic
academie
academy
acadia
acan
access
accessdate
accessed
acclaimed
according
account
accreditations
ace
ach
achievement
acid
acoustic
acre
acref
across
act
acta
action
activity
actor
acts
ad
ada
adagio
adam
adams
adare
addisjon
adeccoligaen
adelaide
adele
adelege
adelen
adelsmann
adelsmenn
aden
adige
adj
adjektiv
adjektivet
adjunkt
adler
admininistrasjonsreform
administrasjon
administrasjonen
administrasjonsenteret
administrasjonskomiteen
administrasjonssenter
administrasjonssenteret
administrasjonsstad
administration
administrativ
administrative
administrativt
administrerande
administrert
admiral
admiralty
adolf
adolph
adressa
adresse
adresseavisen
adriahavet
adrian
adrien
adult
advance
advanced
advent
adventure
adventures
advisory
advokat
ae
aerial
aerosmith
aerosurveys
af
affair
affairs
afghan
afghanistan
afghansk
afghanske
afjord
afraid
africa
african
afrika
afrikansk
afrikanske
afro
afroamerikanarar
afroamerikansk
afroamerikanske
aftenblad
aftenbladet
aftenposten
after
afternoon
ag
aga
again
against
agdenes
agder
agdestein
age
agency
agent
agentar
ages
aggressiv
aggressive
agnes
ago
agreement
agricultural
agriculture
ah
ahead
ahmad
ahmed
ahmet
ahoy
ai
aid
aids
aiguille
aikio
ain
air
aircraft
aires
airlines
airplane
airplay
airport
airways
aix
aj
aja
ajax
ajia
ajman
ajos
ak
aka
akademi
akademien
akademiet
akademis
akademisk
akademiske
akbar
aker
akeren
akerselva
akershus
akhaia
akhmatova
akita
akkadisk
akko
akkompagnement
akkompagnementet
akkompagnert
akkompagnerte
akkordar
akkurat
akkusativ
akp
aks
akse
aksel
akselerasjon
aksen
aksent
akseptere
akseptert
aksepterte
aksjane
aksjeselskap
aksjon
aksjonar
aksjonen
akt
akta
akter
aktig
aktige
aktiv
aktive
aktivist
aktivistar
aktivitet
aktivitetane
aktivitetar
aktiviteten
aktivt
aktuell
aktuelle
aktuelt
aktør
aktørar
akustisk
akustiske
akutt
akvarium
al
ala
alabama
aladdin
alain
alan
aland
alarik
alaska
alba
albania
albansk
albanske
albany
albatross
albatrossar
albedo
albert
alberta
alberto
albertville
albion
albirex
albrecht
album
albuma
albumet
albumlista
albums
albumversjonen
alder
alderen
aldri
ale
aleine
alekhine
aleksander
aleksandersen
aleksanderøya
aleksandr
aleksandra
aleksej
alen
alene
aleppo
alessandro
alesund
alex
alexander
alexandra
alexandre
alexandria
alexis
alf
alfa
alfabet
alfabetet
alfabetisk
alfonso
alfred
algar
algard
algebra
algebraisk
alger
algerie
ali
alice
alien
alison
alive
alkohol
all
alla
allah
allan
alle
allegro
allen
aller
allereie
alley
alliance
allianse
alliansen
alliert
allierte
allison
allium
allkunne
allkunnebok
allman
allmenn
allmenne
allment
allmusic
allsidig
alltid
alma
almagro
almanac
almenta
alminneleg
almond
almost
alomar
alone
along
alpane
alpert
alpes
alpha
alphonse
alpin
alpine
alpiner
alpinist
alpint
alright
als
alsace
alsaker
also
alstahaug
alt
alta
altaj
altar
altaret
altartavla
altartavle
alter
alteret
alternativ
alternative
alternativt
altertavla
altfor
altimetrica
alto
altsa
altsaksofon
aluminium
alv
alvar
alvdal
alver
alvin
alvor
alvorleg
alvorlege
always
am
amadeus
amalie
amanda
amandaprisen
amar
amazing
amazon
amazonas
ambassaden
ambassadør
ambassadøren
ambient
amelia
amen
america
american
americana
americans
amerika
amerikanarane
amerikanarar
amerikanaren
amerikansk
amerikanske
amfi
amfibium
amherst
amin
amir
amli
amman
ammunisjon
amnesty
among
amor
amore
amos
amot
amour
ampezzo
amr
amsterdam
amt
amtet
amtliches
amtmann
amund
amundsen
amur
amy
an
ana
analog
analoge
analysar
analyse
analysen
analysis
analytisk
anand
anare
anas
anatolia
anatolij
anatomi
anatomiartikkelen
anatomy
anbar
anca
anchorage
ancient
and
anda
andalsnes
andalucia
andante
ande
andebu
andeleg
andelege
anden
andenes
ander
anderlecht
anders
andersen
anderson
anderssen
andersson
andes
andesfjella
andlet
andletet
andorra
andra
andre
andrea
andreas
andreassen
andree
andrej
andremann
andreplass
andreplassar
andreplassen
andres
andresen
andrew
andrews
andros
andy
andøy
andøya
ane
anerkjend
anerkjende
anerkjent
anette
angel
angela
angeles
angelo
angels
angelsaksisk
angelsaksiske
anger
anglikanske
anglo
angola
angreip
angrep
angrepet
angripe
angripen
angst
angus
anhalt
anhui
animal
animals
animasjon
animation
animert
animerte
anita
anja
anjou
anka
ankara
ankeny
anker
ankra
anlagt
anlegg
anlegga
anlegget
anløp
ann
anna
annakvart
annals
annan
annapurna
anne
annektert
annekterte
annen
annet
annette
annie
anniversary
annleis
anno
annonsert
annonserte
announced
announces
annual
annullert
ano
anonym
anonymt
another
ansgar
ansikt
ansiktet
ansvar
ansvaret
ansvarleg
ansvarlege
answer
answers
ant
antal
antalya
antarctic
antarctica
antarktis
antarktisekspedisjonen
antarktisk
antarktiske
antarktistraktaten
antbird
ante
anten
anthem
anthology
antholz
anthony
anti
antigua
antikk
antikke
antikken
antillane
antiokia
antistoff
antlers
antoine
antoinette
antologi
anton
antonia
antonin
antonio
antonius
antonsen
antony
antrim
ants
antwerpen
antwren
anund
anvers
any
anybody
anymore
anything
ao
ap
apache
apc
ape
apg
aphrodite
apj
apollo
apollon
apostelen
apostlane
apotek
apparat
appenninane
appenzell
appice
apple
applied
approach
approx
apr
april
aq
aqualung
aquitaine
ar
ara
arab
arabarane
arabarar
arabia
arabian
arabic
arabisk
arabiske
arad
arafat
aragon
aralsjøen
aram
arameisk
arbeid
arbeida
arbeidar
arbeidarane
arbeidarar
arbeidarklassen
arbeidarparti
arbeidarpartiet
arbeidarrørsla
arbeidd
arbeidde
arbeide
arbeider
arbeiderblad
arbeiderbladet
arbeidernes
arbeiderparti
arbeiderpartiet
arbeidet
arbeids
arbeidskraft
arbeidskyrkje
arbeidsløyse
arbeidsplassar
arbeiten
arbok
arbor
arc
arcade
arch
archaeological
archaeology
archeologique
archeology
archer
archipelago
architecture
archiv
archive
archived
archives
archivum
arctic
ard
ardal
ardija
are
area
areal
arealet
areas
arena
arenaen
arendal
arene
arer
aret
aretha
arets
arevis
arfo
argang
argangar
argentina
argentinsk
argentinske
argument
argumenterte
argyll
arhundre
arhus
ari
aria
arie
ariel
arig
arige
arild
aring
arista
aristokratiet
aristoteles
arizona
ark
arkadia
arkansas
arkeolog
arkeologar
arkeologen
arkeologi
arkeologisk
arkeologiske
arkhangelsk
arkheologiyot
arkimedes
arkipel
arkitekt
arkitektane
arkitektar
arkitekten
arkitektoniske
arkitektur
arkitekturen
arkiv
arkivert
arkivet
arkivportalen
arkivverket
arktis
arktisk
arktiske
arleg
arlege
arm
armand
armane
armar
arme
armeane
armeen
armen
armenarar
armenia
armensk
armenske
arms
armstrong
army
arna
arne
arneberg
arnes
arnesen
arnesson
arnfinn
arnold
arnstein
arnt
arntzen
aron
around
arp
arr
arrangement
arrangementa
arrangementet
arrangere
arrangerer
arrangert
arrangerte
arrangør
arrekkje
arrestert
arresterte
arrondissement
arrow
ars
arsak
arsaka
arsakene
arsaker
arsbeste
arsdagen
arsenal
arsjubileet
arsjubileum
arsnedbøren
arsproduksjon
arsskiftet
arsskrift
arstad
arstalet
arstid
arstida
arstidene
arstider
art
arta
artane
artar
artdatabanken
arte
artemis
artemisia
arten
arter
arthur
article
articles
artikkel
artikkelen
artiklane
artiklar
artikler
artilleri
artilleriet
artist
artistane
artistar
artiste
artisten
artister
artistnamnet
artists
artium
arts
artsdatabanken
artsdatabankens
artsnamnet
artsopplysningar
arv
arva
arve
arvefølgjekrigen
arven
arvid
arving
arvingen
arxiv
as
asa
asane
asar
asbjørn
asbjørnsen
aschehoug
aschehougs
ascher
ase
asen
aserbajdsjan
aserbajdsjansk
aserbajdsjanske
asgard
ash
ashdod
asher
ashes
ashford
ashgate
ashkelon
ashley
ashton
asia
asian
asiatisk
asiatiske
ask
asker
askheim
askim
askvoll
askøy
aslak
aslaug
asle
asmund
asnes
asorane
asp
aspects
aspekt
aspx
ass
assad
assembly
assessment
assia
assisi
assistanse
assistent
assisterande
assisterte
associated
associates
association
assosiert
assyrarar
assyria
assyrisk
assyriske
asta
astad
asteroid
asteroidane
asteroidar
asteroide
asteroidefamilien
asteroidelister
asteroiden
aston
astrid
astro
astronaut
astronom
astronomar
astronomen
astronomi
astronomiartikkelen
astronomical
astronomiques
astronomisk
astronomiske
astronomy
astrophysical
astrophysics
astrup
asturias
asylum
at
ata
atahualpa
atak
ataka
ataket
atco
atelier
aten
atferd
atferda
athen
athens
atkins
atkinson
atlanta
atlanteren
atlanterhavet
atlanterhavskysten
atlantic
atlantis
atlas
atle
atletico
atmosfære
atmosfæren
atmosfærisk
atmosfæriske
atmospheric
atom
atoma
atomic
atomnummer
atomvapen
atsel
att
attack
attande
attandeplass
attandeplassen
attat
atte
attekanta
atten
attende
attentat
atter
attiki
attmed
attom
attraksjonar
attval
attvald
attverande
atvara
atvaring
au
auch
auckland
aud
aude
audio
auditorium
audnedal
audun
auf
aug
auga
auge
auget
augneblink
augo
augsburg
august
augusta
auguste
augustin
augustine
augustus
auk
auka
aukande
aukar
auke
auken
aukra
aukrust
auksjon
aune
aurdal
aure
aurelius
aurland
aurora
aurskog
aus
auschwitz
ausgabe
aust
austad
austbreidda
austen
austenden
austerrikarane
austerrike
austerriksk
austerrikske
austersjøen
austersjøfinske
austevoll
austin
austkysten
austlandet
austleg
austlegaste
austlege
austlid
austom
austover
australasia
australasiatiske
australia
australian
australiancharts
australis
australsk
australske
austratt
austre
austrheim
austria
austrian
austriancharts
austromarane
austromarriket
austromerske
austsida
austtyske
author
authorised
authority
authors
auto
autobiography
automatisert
automatisk
autonom
autonome
autor
autoritet
autumn
auvergne
aux
av
available
avaldsnes
avalon
avansert
avanserte
avant
avantgarde
avbilda
avbrot
avbrote
avbroten
avdekt
avdeling
avdelinga
avdelingane
avdelingar
avduka
avdøde
avec
avenue
averøy
aves
avfall
avfolka
avgang
avgangar
avgjer
avgjera
avgjerande
avgjerd
avgjerda
avgjerder
avgjere
avgjersla
avgjorde
avgjort
avgrensa
avgrensar
avgrense
avgrensingar
avhandling
avhandlinga
avhandlingar
avheng
avhengig
avhengige
avian
aviation
avignon
avinor
avis
avisa
avisene
aviser
avispa
aviv
avkjølt
avkjørsel
avkom
avla
avlange
avleia
avleidd
avleidde
avleiing
avleiringar
avlingane
avlingar
avlyst
avlyste
avløyst
avløyste
avon
avretta
avrettinga
avrunda
avsett
avsette
avskaffa
avskjed
avskoging
avslatt
avslo
avslutninga
avslutta
avsluttande
avsluttar
avslutte
avslørt
avslørte
avsnitt
avsnittet
avsta
avstamming
avstand
avstandar
avstanden
avstatt
avstod
avtala
avtalar
avtale
avtalen
avvik
avvikande
avvikla
avvist
avviste
aw
award
awards
away
ax
axel
axelsen
ay
ayers
ayn
ayrshire
az
azerbaijan
azkaban
b
b0
b1
b2
b3
b4
b5
b6
b7
b8
b9
ba
bab
baba
babbler
babe
babies
baby
babylon
babylonia
bac
bach
bacharach
bachelor
bachelorgrad
bachs
back
backbeat
backed
backer
background
bacon
bad
bada
bade
baden
badfinger
bae
baez
bafta
bag
bagdad
baha
bahamas
bahia
bahrain
bai
bailey
baja
bajkalsjøen
bak
baka
baker
bakgrunn
bakgrunnen
bakhsh
bakka
bakkar
bakke
bakken
bakkerud
bakkroppen
baklengs
bakom
bakover
bakre
baksida
bakteriar
bakterien
baku
bakverk
bal
balance
balanse
balansen
balansert
balder
baldwin
balestrand
bali
balin
balkan
ball
ballad
balladar
ballade
balladen
ballads
ballangen
ballen
ballet
ballett
balletten
ballklubb
ballroom
balsfjord
baltic
baltikum
baltimore
baltiske
bamble
ban
bana
banar
band
banda
bandar
bandet
bandleiar
bandmedlem
bandmedlemmane
bands
bandy
bane
banebrytande
banen
baneparametrar
bang
bangkok
bangladesh
bangs
bani
banjo
bank
bankar
banken
banks
banner
bannlyst
banshees
banzare
baptiste
bar
bara
barar
barbados
barbara
barbarossa
barber
barbet
barbra
barbuda
barcelona
bard
bardu
bardufoss
bare
barenreiter
barentshavet
bari
bark
barker
barking
barlow
barn
barna
barndom
barndomen
barndommen
barne
barnebarn
barnebarnet
barneblad
barnebok
barnebokforfattar
barnebøker
barnehage
barnes
barneskule
barneskulen
barnet
barney
barokk
barokken
baron
barr
barra
barre
barrett
barrie
barrier
barron
barrow
barry
barskog
bart
barth
barton
bartre
baryton
barytonsaksofon
bas
basalt
basar
base
based
basel
basement
basen
baserer
basert
baserte
basic
basie
basil
basilikaen
basin
basis
baskarland
basketball
baskisk
basra
bass
bassen
basseng
bassenget
bassgitar
bassist
bassisten
basso
bastion
bat
bataljon
bataljonar
bataljonen
batane
batar
baten
bates
bath
batman
batsfjord
batt
batteri
battista
battle
baud
bauer
baugen
bauhaus
baumann
baxter
bay
bayer
bayern
bayerske
bayou
bayt
bb
bbc
bc
bd
bds
be
beach
beacon
bear
beard
beast
beat
beate
beatles
beatrice
beatrix
beau
beaumont
beautiful
beauty
beaux
beaver
became
because
beck
becker
beckett
become
bed
beda
bede
bedehus
bedehuskapell
beden
bedford
bedre
bedrifta
bedrifter
beduinane
beduinar
bee
beeb
beefheart
been
beer
beersheba
beethoven
befolkning
befolkninga
before
begge
begin
beginners
beginning
beginnings
begynte
behageleg
behalde
behandla
behandling
behandlinga
behaviour
beheldt
behind
behindthename
behn
behov
behovet
bei
beiarn
beijing
bein
beina
being
beinn
beint
beirut
beit
beitar
beite
beitemark
bekk
bekkar
bekken
bekkenet
bel
bela
belafonte
belaja
belarus
belew
belfast
belgia
belgica
belgique
belgisk
belgiske
belgium
believe
belize
bell
bella
belle
bellied
bellingshausen
bellmare
bells
belong
below
belte
beltet
bemanna
ben
bend
bender
bendik
bendiksen
bendjoya
benedikt
benefit
benfica
bengal
bengali
bengt
benin
benito
benjamin
bennett
benny
benoit
bensin
benson
bent
bente
bentley
benz
beograd
beordra
beowulf
ber
bera
berande
bere
berekna
berekraftig
berg
berga
bergamo
bergan
bergart
bergartane
bergartar
bergarten
bergarter
berge
bergen
bergenhus
bergens
bergensavisen
bergensbanen
bergenske
bergenskes
berger
berget
berggrunnen
bergh
bergljot
bergman
bergsland
bergslien
berit
berkeley
berkshire
berlevag
berlin
berliner
bermuda
bern
bernard
berner
bernhard
bernie
bernoulli
bernstein
bernt
berntsen
berr
berre
berry
bert
bertha
bertolt
bertrand
berwick
berykta
berømt
berømte
besetning
besetninga
beskidane
beskjed
beskrive
beskrivelse
best
besta
bestaande
bestand
bestandar
bestanden
bestar
beste
bestefar
bestefaren
bestemme
bestemmer
bestemor
bestemt
bestemte
bestetid
bestilt
bestilte
bestod
bestseljande
besøk
besøksdato
besøkt
besøkte
bet
beta
betala
betale
betaling
betalt
betalte
betennelse
beth
betlehem
betong
betongen
betra
betre
bette
better
betts
betty
between
betydeleg
betydelege
betydning
betyr
bevan
bevare
bevaring
bevart
bevarte
bevegelege
beverly
bevis
bevisst
beyer
beyond
bezirk
bf
bg
bgle
bh
bhutan
bi
bibcode
bibel
bibelen
bibelsk
bibelske
bible
biblical
bibliografi
bibliotek
biblioteket
bibsys
bidra
bidrag
bidraga
bidraget
bidreg
bidrege
bidrog
bier
biff
big
bigger
biggest
bikubar
bil
bilancio
bilane
bilar
bilbao
bilde
bilder
bildet
bilen
bileta
biletbok
bilete
biletet
biletgalleri
bilethoggar
bilethoggaren
biletkunst
biletkunstnar
bilferje
bill
billboard
billed
biller
billerman
billie
billion
billy
bilulukke
bin
bind
binda
bindal
bindande
binding
bindingar
bing
bio
biodiversity
biografen
biografi
biografiar
biografien
biografier
biografisk
biografiske
biographical
biography
biolog
biologi
biologiartikkelen
biological
biologisk
biologiske
biology
bir
birch
bird
birdlife
birds
bireh
birger
birgit
birgitta
birgitte
biri
birkeland
birkenes
birmingham
birolle
birth
birthday
bis
biscayabukta
bischofshofen
biscoe
bishop
biskop
biskopane
biskopar
biskopen
bislett
bismarck
bispedøme
bispedømet
bispedømme
bispesete
bissau
bit
bitar
bite
bites
bitre
bits
bitter
biz
bj
bjarne
bjarte
bjelke
bjelland
bjerke
bjerknes
bjerkreim
bjorn
bjugn
bjørg
bjørgen
bjørgvin
bjørk
bjørke
bjørkum
bjørn
bjørnafjorden
bjørnar
bjørndal
bjørndalen
bjørneboe
bjørnen
bjørnson
bjørnstad
bjørnstjerne
bjørnøya
bk
bl
bla
blabbermouth
black
blackadder
blackburn
blackmore
blackstar
blackwell
blad
blada
blade
bladet
blaine
blair
blake
blakstad
blanc
blanche
blanchett
bland
blanda
blandar
blande
blanding
blandinga
blank
blanke
blant
blasarar
blasearrangement
blaseinstrument
blast
blatann
blatt
blautdyr
ble
blei
bleik
bleikare
bleike
blekinge
blekksprut
blender
blenheim
bles
bless
blev
bli
blikk
blind
blinde
blindveg
blink
blir
blitt
blix
bloch
block
blod
blodet
blodig
blodige
blodlekamar
blog
blogg
bloggen
blogspot
blokk
blokka
blokker
blokkert
blokkerte
blokkfløyte
blom
blomane
blomar
blome
blomen
blomster
blomstra
blomstrane
blomstrar
blonde
blondie
blood
bloody
bloom
bloomfield
bloomsbury
blow
blu
blue
bluegrass
blues
bluesbreakers
bluesrock
bluff
bluffs
bly
blyth
blømande
blømde
blømer
bm
bmatrix
bmg
bmi
bn
bnei
bnp
bnr
bo
board
boat
boatwr
bob
bobby
bod
boddaert
bodensjøen
bodskap
bodskapen
body
bodø
boeing
bog
bogar
bogdanov
boge
bogen
bogota
bogtrykkeri
bohemian
bohmen
bohr
bohuslan
boikotta
bok
boka
bokhandel
bokhylla
bokklubben
boklag
bokmal
bokmalet
bokmalsordboka
bokmalswikipedia
bokmalswikipediaen
bokn
boks
boksar
boksen
bokstav
bokstavane
bokstavar
bokstaveleg
bokstaven
bokstavleg
bolan
boldsymbol
bolero
boleyn
bolivar
bolivia
bolken
bolle
bologna
bolsjevikane
bolsjoj
bolstad
bolt
bolton
bolzano
bom
bomb
bomba
bombardert
bombay
bombe
bombeatak
bombefly
bomber
bombing
bombinga
bomstasjon
bomull
bon
bonaparte
bond
bonde
bonden
bondepartiet
bondeungdomslaget
bondevik
bone
bones
bonham
bonn
bonnie
bono
bonus
bonusspor
boogie
book
booker
booklet
books
boom
boone
booth
bootleg
boots
bop
bor
bora
borchgrevink
bord
bordeaux
border
borders
bordet
bore
borealis
boren
borg
borga
borgar
borgarane
borgarar
borgarkrig
borgarkrigen
borgarleg
borgarlege
borgarmeister
borgarmeisteren
borge
borgen
borger
borgund
boris
bork
borken
born
borna
borneo
borough
borre
bort
borte
borten
bortetter
bortimot
bortsett
borussia
bosch
bosnia
bosnisk
boss
boston
bot
botanical
botanikar
botanikk
botanisk
botaniske
both
botn
botnen
botswana
bottom
botvinnik
boulder
boulevard
bound
boundary
bourbon
bourgogne
bouvetøya
bow
bowers
bowie
bowl
bowler
bowles
bowman
box
boy
boyd
boye
boyer
boyle
boys
boz
bozzio
bp
bpi
bq
br
bra
brabant
brackett
brad
bradford
bradley
brady
brage
brageprisen
bragernes
bragg
brahe
brahms
brain
brak
branch
brand
brandenburg
brandt
brann
brannar
brannen
brant
brasil
brasiliansk
brasilianske
brass
braten
bratislava
bratland
bratsj
bratt
bratte
bratteli
braun
braunschweig
braut
brave
bravo
bray
brazil
bre
bread
break
breakdown
breakfast
breaking
breane
brear
breasted
breath
breathe
brecht
brecker
brede
bredesen
breeding
breen
breeze
brei
breiare
breiaste
breidd
breidda
breidde
breiddegrad
breiddegraden
breiddegrader
breiddene
breidder
breie
breier
breim
breitt
breivik
brekke
brel
bremanger
bremen
bremnes
brend
brenda
brendan
brende
brenn
brenna
brennan
brennande
brenne
brennevin
brensel
brent
brescia
breslau
brest
bretagne
breton
bretonsk
brett
bretunge
brev
breva
brevet
brevik
brew
brewer
brewster
brian
brick
bride
bridge
bridges
brief
brien
brigade
brigaden
briggs
bright
brighton
brikke
brikkene
brikker
brill
brilliant
bring
bringa
bringe
bringsværd
bristol
brit
brita
britain
britane
britannia
britannica
britar
briten
british
britisk
britiske
britt
britten
bro
broad
broadcast
broadcasting
broadway
broch
brock
broderi
broken
bronsar
bronse
bronsealderen
bronsefinalen
bronsemedaljar
bronsemedalje
bronsemedaljen
bronsen
bronseplass
bronseplassen
bronsevinnaren
bronze
brook
brooke
brooker
brooklyn
brooks
bror
broren
bros
brot
brote
broten
brotet
brother
brothers
brotne
brotsverk
brown
browne
browning
broye
brt
bru
brua
bruce
bruene
bruer
bruford
brug
brugge
bruk
bruka
brukar
brukarane
brukarar
brukaren
brukast
bruke
bruken
bruker
bruket
bruksomrade
brukt
brukte
brummels
brun
brundtland
brune
brunei
brunleg
brunn
brunne
bruno
brunswick
brunt
brura
brusamband
bruse
brussel
brutal
brutale
bruun
bruvik
bryan
bryant
brygga
brygge
bryggen
bryggeri
bryggeriet
bryhni
bryllaup
bryllaupet
bryn
bryne
brynjulf
bryson
bryst
brystet
bryt
bryta
bryte
bryting
bræk
brød
brødet
brødrene
brøgger
brønnøy
brønnøysund
brør
brørne
bs
bt
bu
bua
buande
buchanan
buck
buckingham
buckley
bucuresti
bud
budapest
budd
budde
buddha
buddhismen
buddhistiske
buddy
budgie
budsjett
budsjettkomiteen
budstikke
buen
buenos
buer
buffalo
buffy
bug
bugge
building
buildings
buk
buken
bukken
bukser
bukt
bukta
bukter
bul
bulbul
bulgaria
bulgarsk
bulgarske
bull
bullet
bulletin
bunde
bunden
bundesliga
bundesverband
bundne
bur
burde
burden
burdon
bureau
burgess
burgh
burgund
burke
burkina
burma
burmesisk
burn
burnett
burning
burns
burrito
burt
burton
burundi
bus
busetjing
busetjinga
busetjingane
busetjingar
busetnad
busetnadane
busetnadar
busetnaden
busetnadene
busetnader
busett
busette
bush
business
busk
buskar
buskerud
buss
bussar
bussen
bustad
bustaden
bustader
bustadhus
bustadomrade
buster
but
bute
buteo
butikk
butikkane
butikkar
butikken
butler
butt
butte
butterfield
butterfly
buttress
buxwv
buy
buzz
bv
bw
bwv
bx
by
byane
byar
byarkiv
byasen
bybanen
bybrannen
bydel
bydelane
bydelar
bydelen
bydistrikt
bye
byen
byens
byer
byers
byfylke
bygd
bygda
bygde
bygdebok
bygdemuseum
bygdene
bygder
bygdøy
bygg
bygga
byggast
bygge
bygger
bygget
bygging
bygginga
byggja
byggjast
byggje
byggjer
byggmeister
byggverk
byggverket
bygland
bygning
bygningane
bygningar
bygningen
bygrensene
bygt
bykle
bykommunane
bykommunar
bykommune
bykommunen
byleksikon
bymurane
bynamnet
byomradet
byprefektur
byprefekturet
byr
byrad
byradet
byrd
byrds
byrettar
byrja
byrjar
byrje
byrjinga
byrne
byron
bys
bysantinsk
bysantinske
bysenteret
bysentrum
bystatus
byste
bystyre
bystyret
byta
byte
bytt
bytta
bytte
byttedyr
byttet
byzantine
bz
bær
bæra
bærum
bø
bøe
bøk
bøkene
bøker
bølgja
bølgje
bølgjelengd
bølgjelengda
bølgjelengder
bølgjene
bølgjer
bømlo
bøn
bøndene
bønder
bøner
bønner
bør
børre
børresen
børs
bøyer
bøygd
bøygde
bøying
c
c0
c1
c2
c3
c4
c5
c6
c7
c8
c9
ca
cabanis
cabo
cadiz
caesar
cafe
cage
cagliari
cain
caithness
cal
calabria
calais
calcutta
caldwell
cale
caledonia
calendar
calgary
calidris
california
call
called
callier
calling
calls
calvin
calypso
cambridge
camden
came
camel
camera
cameron
camilla
camille
cammermeyer
camp
campaign
campania
campbell
camping
campo
campus
can
canada
canadian
canal
canaria
cancer
cand
candle
candy
canis
canned
cannes
cannon
cannonball
canon
canongate
cantatas
canterbury
canto
canyon
cap
capaldi
cape
capella
capital
capitol
caplex
capo
capped
cappelen
cappelens
cappella
capri
capricorn
captain
car
caravan
carcassonne
card
cardiff
care
career
carey
caribbean
carl
carla
carlo
carlos
carlsen
carlton
carly
carmen
carnegie
carnival
carol
carole
carolina
caroline
carols
carolyn
carpenter
carpenters
carr
carrie
carroll
carry
carson
carsten
carta
cartagena
carter
cartoon
casa
casablanca
case
cases
casey
cash
cashbox
casino
caspar
cass
cassidy
cassin
cassini
cast
castilla
castle
castor
castro
cat
catalog
catalogue
catalonia
catch
categorii
cathedral
catherine
catholic
cathrine
cato
cats
cauchy
caught
cause
cave
cavendish
cb
cbc
cbs
cbssyr
cc
cd
cdot
cds
cdu
ce
cecil
cecilia
cecilie
celebration
celine
cell
cella
celle
cellene
celler
cellino
cello
celsius
celtic
cembalo
cemetery
census
cent
centauri
center
centimeter
central
centralbyra
centralbyran
centralort
centre
centuries
century
ceres
cerezo
cern
cerro
certain
certification
certifications
certified
cesar
cetera
cf
cfm
cg
ch
cha
chad
chain
chaka
challenge
challenger
chalmers
chamber
chamberlain
chambers
chamonix
champagne
champions
championship
chan
chance
chandler
chang
change
changed
changes
changing
channel
chanson
chaos
chapel
chapelle
chapin
chaplin
chapman
chapter
character
charcot
charisma
charles
charlie
charlois
charlotte
charlton
chart
charter
charts
chartstats
chartverfolgung
chas
chase
chat
chateau
chatham
che
cheap
check
checker
checklist
chef
chelsea
chemical
chemistry
chen
chengdu
cher
cherry
cheshire
chess
chessgames
chester
chestnut
chet
chi
chiang
chiba
chic
chicago
chick
chicken
chief
child
children
chile
chilensk
chilenske
chili
china
chinese
chips
chloris
chocolate
choice
choir
chomsky
chopin
choral
chorus
chr
chris
christ
christchurch
christen
christensen
christer
christgau
christi
christian
christiane
christiania
christianity
christiansen
christie
christina
christine
christmas
christoffer
christoph
christopher
christopulos
chronicle
chronicles
chronology
chrysalis
chuck
church
churches
churchill
ci
cia
cicero
cima
cincinnati
cindy
cinema
circle
circuit
circumstances
circus
cirka
cirque
cisterner
cisticola
cit
cite
cities
city
ciudad
civil
civilization
cj
ck
cl
claire
clapton
clara
clare
clarence
clarendon
clark
clarke
clash
class
classement
classes
classic
classical
classics
classification
claude
claudia
claudine
claudio
claudius
claus
clausen
clavinet
clay
clayton
clean
clear
clearwater
clemens
clement
clements
clementslista
cleveland
click
cliff
clifford
cliffs
climate
clinical
clinton
clio
clive
clock
close
closer
cloud
clouds
club
clyde
cm
cn
cnn
co
coal
coast
coastal
coasters
coauthors
coca
cochran
cocker
code
coe
coffee
cohen
cohn
col
cola
cold
cole
coleman
colin
collar
collared
collected
collection
collections
collectionscanada
collector
college
collett
collins
colombia
colon
colonial
color
colorado
colosseum
colour
colt
coltrane
columba
columbia
columbus
com
come
comeback
comes
comet
comfortably
comin
coming
command
commander
commentary
commercial
commission
committee
commodore
common
commons
commonwealth
communication
communications
community
como
companion
company
comparative
compilation
complete
complex
composers
composite
composition
comprehensive
computer
comte
comuna
comune
con
conan
concert
concerto
concerts
concise
concord
concordia
conde
conder
conditions
condor
cone
conference
conflict
confused
confusion
conga
congatrommer
congo
congress
connecticut
connection
connie
connolly
connor
conquest
conrad
consadole
consequence
conservation
constable
constantine
constellation
constitution
construction
consumer
contact
conte
contemporary
content
contest
context
conti
continent
continental
continuo
continuum
contribution
control
convention
conversation
conway
cooder
cook
cooke
cool
coolidge
coop
cooper
copa
copeland
copenhagen
copleymedaljen
copy
coral
cordillera
cordoba
core
corioliskrafta
cork
corn
cornelis
cornelius
cornell
corner
cornish
cornwall
corona
coronae
coronation
coronavirus
corporation
corps
corpus
corr
corrs
cortina
corvus
cos
cosmic
cosmos
costa
costello
cote
cotton
could
council
count
countries
country
countryartisten
countrylista
countryrock
county
course
court
courtney
couture
cov
cove
coventry
cover
covers
coverversjon
coverversjonar
covid
cow
cowboy
cowboys
cox
cp
cq
cr
craddock
cradle
craft
crag
craig
cramer
crane
crash
crater
crawford
crazy
crc
cream
creation
creative
creatures
credits
cree
creedence
creek
creem
cremona
crested
crew
cricket
crickets
crime
crimson
crisis
criss
cristin
critical
critics
crocker
croix
cromwell
cropper
crosby
cross
crossing
crossroads
crow
crowe
crowell
crown
crowned
cruel
cruise
cruiseskip
crusader
cruz
cry
crying
crystal
cs
cska
csv
ct
cti
cu
cuba
cuckoo
cult
cultural
culture
cultures
cum
cumberland
cumbria
cummings
cumulus
cunningham
cup
cupen
cupfinalen
cupmeister
cupvinnarcupen
curb
cure
curie
current
currie
curt
curtis
curved
customs
cut
cuzco
cv
cvn
cw
cx
cy
cycle
cygnus
cyndi
cynthia
cyprus
cyril
cyrus
cz
czech
czukay
cæsar
d
d0
d1
d2
d3
d4
d5
d6
d7
d8
d9
da
daa
daae
dab
dactylorhiza
dad
daddy
daegu
daevid
dag
dagane
dagar
dagars
dagblad
dagbladet
dagbok
dagen
dagens
dager
dagfinn
dagleg
daglege
dagleglivet
daglegtale
dagmar
dagny
dags
dagsavisen
dagtid
dahl
dahle
dahls
dai
daily
dakota
dal
dalane
dalar
dalarna
dalarnas
dalbotn
dalbotnen
dale
dalen
dalføre
dalføret
dallas
dalmatia
dalton
daltrey
dam
damage
damaskus
dame
damer
damm
dammam
dammar
dammen
damned
damp
dampmaskin
dampskibsselskab
dampskip
dampskipselskap
dampskipsselskap
dan
dana
dance
dancer
dances
dancing
danger
dangerous
daniel
daniels
danielsen
danish
danishcharts
danko
danmark
danmarks
danna
dannar
dannast
danne
danning
danninga
danny
dans
dansa
dansar
dansarar
danse
dansen
dansk
danskane
danskar
danske
dante
danzig
dap
daphne
dar
daraa
darin
dark
darkness
darleg
darlegare
darlegaste
darlege
darling
darmstadt
darryl
darwin
daryl
das
dass
dat
data
dataartikkelen
database
datamaskin
datamaskinar
datamaskiner
dataspel
date
datenbank
datering
datert
daterte
dates
dativ
dato
datoen
datoverdiar
datter
daud
daude
daudehavet
dauden
daughter
dauphin
dave
daverande
davey
david
davidson
davies
davik
davis
davos
davy
dawn
dawson
day
days
dazed
db
dc
dd
ddr
de
deacon
dead
deal
dean
dear
death
debatt
debatten
debbie
deborah
debut
debutalbumet
debutantpris
debuten
debuterte
debutplata
debutsingelen
dec
decade
decca
december
deceptionøya
dedisert
dee
deep
deepfreeze
def
defence
defense
definerast
definere
definerer
definert
definerte
definisjon
definisjonar
definisjonen
definition
definitive
deg
dei
dein
deir
deira
deja
dekar
dekk
dekka
dekke
dekker
dekket
dekkja
dekkje
dekkjer
dekning
dekorasjon
dekorasjonar
dekorative
dekorert
dekorerte
dekt
dekte
del
dela
delaktig
delane
delaney
delar
delast
delaware
dele
delegasjonen
delen
deler
delfi
delhi
delight
deling
delinga
dell
della
delle
dels
delstat
delstatane
delstatar
delstaten
delt
delta
deltaet
deltakar
deltakarane
deltakarar
deltakarlanda
deltake
deltaking
deltakinga
deltar
deltatt
delte
deltek
delteke
deltok
deluxe
delvis
dem
demd
deming
demning
demninga
demningar
demo
demoar
democracy
democratic
demografico
demokrati
demokratiet
demokratisk
demokratiske
demon
demonstrantar
demonstrasjon
demonstrasjonar
demonstrerte
dempa
den
denis
denise
denmark
denne
dennis
denny
dens
dent
denver
departement
departementa
departementet
department
dependencies
deporterte
depot
deprecated
depresjon
depresjonen
depression
der
deram
derav
derby
derbyshire
derek
deres
deretter
derfor
derfra
derifra
derimot
deriverte
dermed
derry
dersom
des
description
desember
desert
design
designa
desire
desmond
dess
desse
dessutan
dessuten
destination
destiny
det
detail
details
detalj
detaljane
detaljar
detaljert
detaljerte
detroit
detta
dette
deutsch
deutsche
deutschen
deutscher
deutsches
deutschland
deux
devanagari
development
devil
devils
devold
devon
dewey
dexter
deyoung
dezvoltare
df
dg
dh
dhabi
dhofar
di
diabetes
diagnosen
diagram
dialekt
dialektane
dialektar
dialekten
dialog
diamant
diamantar
diameter
diameteren
diamond
diamonds
diana
diane
diary
diaz
dich
dick
dickens
dickinson
dickson
dictionary
dictionnaire
did
diddley
didier
didn
didrik
die
died
diego
dies
diesel
dieselmotor
dieselmotorar
diesen
dieter
dietrich
dietrichson
dietten
different
difor
diftongar
dig
digital
digitalarkivet
digitale
digitalisert
digitaliserte
digitalt
digitaltmuseum
digte
dike
dikt
dikta
diktar
diktarane
diktarar
diktaren
diktator
diktatur
diktaturet
diktet
dikting
diktinga
diktsamling
diktsamlinga
diktsamlingar
dillard
dimashq
dimed
dimension
dimensjon
dimensjonar
dimery
din
dina
dinah
dine
ding
dino
diocletian
diokletian
diomedea
dion
dionne
diplom
diplomat
diplomatarium
diplomatisk
diplomatiske
dir
dire
direct
direction
director
directory
direkte
direktoratet
direktør
direktøren
dirigent
dirigert
dirigerte
dirk
dirt
dirty
dis
disc
disco
discography
discogs
discover
discovery
discs
disease
dish
disk
diskografi
diskografien
diskos
diskoskast
diskoskasting
diskriminering
diskusjon
diskusjonar
diskuterer
diskutert
diskuterte
diskvalifisert
disney
disnorge
display
displaystyle
disponent
disse
distance
distansane
distanse
distansen
distinkte
distribuert
distribusjon
distribution
district
districts
distrikt
distrikta
distriktet
distriktsby
dit
ditlev
ditt
diva
diverre
diverse
diversity
divine
division
divisjon
divisjonen
dixie
dixon
dizionario
dizzy
dj
djevelen
djibouti
djup
djupare
djupaste
djupe
djupedal
djupet
djupn
djupna
djupne
djupt
dk
dl
dm
dmitrij
dn
dna
dnb
dnepr
dnt
do
dobbel
dobbelt
dobbeltalbum
dobbeltalbumet
dobbeltstjerne
dobla
doble
doblougprisen
dobro
doc
doch
dock
doctor
document
documentary
documents
dodd
dodekanesane
does
dog
dogg
doggett
dogs
doha
doherty
doi
dokker
doktor
doktorgrad
doktorgraden
dokument
dokumenta
dokumentar
dokumentaren
dokumentarfilm
dokumentarfilmen
dokumentasjon
dokumentert
dokumenterte
dokumentet
doll
dollar
dolls
dolly
dom
domain
dombas
dome
domen
domene
domenico
domesday
dominans
dominerande
dominerer
dominert
dominerte
dominic
dominica
dominikanske
dominique
domino
domkyrkja
domkyrkje
dommar
dommarane
dommarar
dommaren
dommen
domprosti
domstol
domstolane
domstolen
don
donald
donau
done
donegal
donegan
donerte
donetsk
dong
donna
donnees
donny
donovan
doo
doobie
doom
door
doors
dop
doping
dora
dordrecht
doris
dorothea
dorothy
dorset
dorsey
dortmund
dory
dos
dosent
dot
dotter
dottera
dotterselskap
double
doug
douglas
dove
dover
dovre
dovrebanen
dovrefjell
dowd
down
downing
download
downs
downtown
doyle
dp
dq
dr
dra
drag
dragon
dragons
drake
draken
drakk
drakt
drakta
drakter
drama
dramaet
dramatikar
dramatikk
dramatisk
dramatiske
drammen
drammens
drangedal
drap
drapa
drapet
drastisk
draum
draumar
draumen
draumkvedet
dray
dream
dreamer
dreaming
dreams
dreg
drege
dregen
dreidde
dreier
dreiv
drenerer
drenert
drep
drepa
drepe
drepen
drepne
dresden
dress
drew
dreyer
drift
drifta
drifters
drikk
drikka
drikke
drikken
drikkevatn
drink
drip
driv
driva
drivande
drive
driven
driver
driving
drivkrafta
drivne
drivstoff
drog
dronning
dronninga
drop
dropar
droppa
druer
drug
drugs
drukna
drum
drummer
drummond
drusarar
dry
drygt
drøbak
drøfta
ds
dt
du
duane
dub
dubai
dublin
duc
duck
dudley
due
duets
duett
dufek
duffy
dugande
dugleik
duke
dukka
dukkar
dukke
dulcimer
dum
dumas
dumont
dun
dunbar
duncan
dundee
dunedin
dunn
duo
duoen
dupa
dur
duran
durch
durchholz
durham
during
dusin
dusseldorf
dust
dusty
dutch
dutchcharts
dv
dvd
dverg
dvina
dvorak
dvs
dw
dwarf
dwight
dx
dy
dybwad
dying
dyke
dykk
dykkar
dyktig
dyktige
dylan
dynamical
dynamics
dynamisk
dynamiske
dynamitt
dynamo
dynasti
dynastiet
dyr
dyra
dyraste
dyre
dyreartar
dyreartikkelen
dyreliv
dyrelivet
dyret
dyrka
dyrkar
dyrkbar
dyrke
dyrking
dyrt
dyrøy
dz
dæ
død
døde
dødeleg
døden
dødsfall
dødsfallet
dødsstraff
dødvekttonn
døger
døgn
døgnet
døma
dømd
dømde
døme
dømes
dømet
dømt
dønna
dør
døra
dører
døtrene
døtrer
døy
døydd
døydde
døyparen
døypefonten
døypt
døypte
døyr
e
e0
e1
e2
e3
e4
e5
e6
e7
e8
e9
ea
each
eagle
eagles
ear
eared
earl
earle
early
earring
earth
earthling
earthquake
east
easter
eastern
easy
eat
eb
ebinger
ebird
ebu
ec
ece
echo
echoes
eckhoff
ecm
eco
ecole
ecological
ecology
economic
economics
economist
economy
ecstasy
ecuador
ed
edda
edderkoppar
eddie
eddy
edel
eden
eder
edgar
edge
edicions
edinburgh
edison
edit
edited
edith
edition
editions
editor
editors
edmond
edmonton
edmund
edn
edna
edouard
eds
edu
eduard
eduardo
education
edvard
edward
edwards
edwin
ee
eesti
ef
effect
effects
effekt
effektane
effektar
effekten
effektiv
effektive
effektivt
efter
eg
egearhavet
egeiske
egeland
egen
egersund
egg
egga
egge
eggen
egget
eggs
egil
eglise
egna
egne
egnund
egon
egypt
egyptarane
egyptisk
egyptiske
eh
ehf
ehime
ei
eid
eide
eidet
eidfjord
eidsberg
eidsfjorden
eidskog
eidsvag
eidsvoll
eidsvollsmann
eig
eiga
eigar
eigarane
eigarar
eigaren
eigarskap
eigd
eigde
eige
eigedom
eigedomane
eigedomar
eigedomen
eigedommar
eigedommen
eigen
eigenleg
eigenskap
eigenskapane
eigenskapar
eigenskapen
eigentleg
eigentlege
eigersund
eight
eigna
eignar
eigne
eik
eikaas
eiker
eilat
eilean
eilert
eilif
ein
einannan
einar
einast
einaste
eindhoven
eine
einer
eineradande
einestaande
eingong
einige
eining
eininga
einingane
einingar
einmannskrinsen
eins
einsam
einsame
einsarta
einsfarga
einskapleg
einskild
einskilde
einstein
eintal
eintydig
eira
eirik
eiriksson
eit
eitt
eivind
eivindvik
ej
ek
ekko
eks
eksakt
eksakte
eksamen
eksempel
eksemplar
eksil
eksingedalen
eksistensen
eksisterande
eksistere
eksisterer
eksistert
eksisterte
ekskludert
eksklusiv
eksklusive
eksotiske
ekspansjon
ekspansjonen
ekspedisjon
ekspedisjonane
ekspedisjonar
ekspedisjonen
ekspedisjonsskipet
eksperiment
eksperimenta
eksperimentell
eksperimentelle
eksperimentelt
eksperimentere
eksperimenterte
eksperimentet
ekspert
ekspertar
eksplisitt
eksploderte
eksplosiv
eksplosjon
eksplosjonen
eksport
eksportert
eksterne
ekstra
ekstranummer
ekstraomgangar
ekstrem
ekstreme
ekstremt
ekstremver
ekstremveret
ekte
ektefellen
ektemannen
ekteparet
ekteskap
ekteskapet
ekvator
ekvatorial
el
elaine
elbasan
elbe
eld
eldar
elden
elder
eldgamle
eldlandet
eldre
eldste
eleanor
election
electric
electronic
elegant
elektra
elektrikar
elektrisitet
elektrisk
elektriske
elektromagnetisk
elektromagnetiske
elektron
elektrona
elektronet
elektronikk
elektronisk
elektroniske
element
elementa
elementet
elements
elena
eleonora
elephant
elev
elevane
elevar
eleven
elfenbein
elfenbeinskysten
elg
eli
elias
eliassen
elin
eliot
elisa
elisabet
elisabeth
elise
elite
eliten
eliteserien
elizabeth
ell
ella
elle
ellen
eller
ellers
elles
elleve
ellevte
elling
ellingsen
ellington
elliot
elliott
elliptisk
elliptiske
ellis
ellsworth
elo
elsa
else
elsevier
elsewhere
elska
elskar
elsker
elster
elton
elv
elva
elvane
elvar
elvdal
elvebreidda
elvedalen
elvemunningen
elvene
elver
elverum
elvis
em
emanuel
embete
embetet
embetseksamen
embetsmann
embetsmenn
emerald
emergency
emeritus
emerson
emi
emigrantar
emigrerte
emil
emile
emilia
emilie
emily
emir
emirata
emirates
emiratet
emma
emmanuel
emmy
emmylou
emne
emnet
emperor
empire
empires
empty
ems
en
enaresamisk
encyclopaedia
encyclopedia
encyclopædia
end
enda
endane
endar
ende
endeavour
endeleg
endelege
endemisk
endemiske
enden
endepunkt
ender
enderby
endestasjon
ending
endinga
endless
endra
endrar
endrast
endre
endresen
endring
endringa
endringane
endringar
endringer
ends
endurance
ene
enebakk
enemy
energi
energidepartementet
energidirektorat
energien
energy
enfield
eng
engasjement
engasjert
engasjerte
engel
engelbert
engelen
engels
engelsk
engelske
engelskmennene
engelsksprakleg
engelskspraklege
engelsktalande
engen
enger
engerdal
engine
engineering
engineers
england
englar
english
enka
enke
enkel
enkelt
enkelte
enkeltrenn
enkja
enklare
enklaste
enkle
enn
enno
eno
enorm
enorme
enormt
enough
enrico
ensemble
ensemblet
enten
enter
enterprise
entertainment
entry
entwistle
environment
environmental
enzym
eo
eos
ep
epen
epic
epipactis
episk
episke
episodar
episode
episoden
eple
epoken
epsilon
epstein
eq
er
era
erasmus
erdal
erebus
erfaring
erfaringar
erfarne
eric
erich
erichsen
erik
erika
eriksen
eriksson
erindringer
eritrea
erkebiskop
erkebiskopen
erkehertug
erklært
erklærte
erlangen
erlanger
erlend
erlewine
erling
erlingsson
erna
ernest
ernie
ernst
erobra
erobraren
erobre
erobring
erobringa
erodert
eros
erosjon
erstatning
erstatta
erstattar
erstatte
erter
ervik
erwin
es
esa
esc
escape
escarpment
esctoday
esel
eskeland
espana
espeland
espen
ess
essay
essays
essen
essential
essex
est
estate
este
ester
estetiske
esther
estimat
estimert
estimerte
estisk
estiske
estland
estonia
estuar
estuaret
et
eta
etablera
etablere
etablering
etableringa
etablert
etablerte
etanol
etappe
etappen
etasjar
etasje
etast
etc
ete
eten
eternal
ethelred
ethnic
ethnologue
etienne
etiketten
etikk
etiopia
etiopiske
etisk
etne
etnisitet
etnisk
etniske
ett
etta
etter
etterfølgd
etterfølgde
etterfølgjande
etterfølgjar
etterfølgjaren
etterfølgt
etterkant
etterkomarane
etterkomarar
etterkommarar
etterkrigstida
etterkvart
etterlate
etterlet
etterlikna
etterlikne
ettermiddagen
etternamn
etternamnet
etterord
etterpa
etterretning
ettersom
etterspurnaden
ettertid
ettertida
ettertrakta
etudes
etymologisk
etzion
eu
euch
eufrat
eugen
eugene
euler
eurasia
eurasian
euro
eurogamer
europa
europacupen
europameister
europameisterskapen
europas
europaveg
europe
european
europearane
europearar
europeisk
europeiske
eurovision
eurovoix
euwe
ev
eva
evakuert
evakuerte
evan
evangelia
evangeliet
evangelisk
evangelist
evangelisten
evans
eve
evelyn
even
evenes
evening
evensen
event
events
eventuell
eventuelle
eventuelt
eventyr
eventyra
eventyret
ever
everest
everett
everly
everton
every
everybody
everyday
everyhit
everyone
everything
everywhere
evidence
evig
evige
evil
evje
evna
evne
evnene
evner
evolusjon
evolution
evolutionary
evt
evvia
ew
ex
examen
excavations
excel
exchange
exclusive
executive
exhibition
exile
exit
exitos
expedition
expeditions
experience
experiment
experimental
explained
explicit
exploration
explorer
exploring
express
extended
external
extinction
extra
extreme
ey
eye
eyed
eyes
eyre
eystein
eyvind
ez
ezrin
eøs
f
f0
f1
f2
f3
f4
f5
f6
f7
f8
f9
fa
faber
faberg
fabian
fabrikk
fabrikkane
fabrikkar
fabrikken
fabrikker
fabulous
face
facebook
faced
faces
facility
fact
factbook
facto
factor
factory
facts
factsheet
fader
faderen
fag
faga
fagen
fagernes
faget
fagfelt
fagiano
fagleg
faglege
fagomrade
fagott
fair
fairport
fairy
fairytale
faith
faithfull
fakta
faktaark
faktisk
faktiske
faktor
faktorane
faktorar
faktum
fakultet
fakultetet
falch
falck
falco
falcon
falk
falkland
falklandsøyane
falkner
fall
falla
fallande
falle
fallen
fallet
falling
falls
falne
false
falsen
falsk
falske
falt
falun
fame
familiane
familiar
familie
familien
families
familjebok
family
famous
fan
fana
fanga
fangane
fangar
fange
fangeleir
fangen
fangenskap
fangst
fangsten
fann
fanny
fans
fansen
fanst
fant
fantasi
fantastic
fantastisk
fantastiske
fantasy
fao
faq
far
fara
faraday
farao
farbar
fare
faren
farewell
farfar
farfaren
farga
fargane
fargar
farge
fargen
farger
fargerike
fargestoff
farinella
farleg
farlege
farm
farmen
farmer
farmington
farner
farrell
fars
farsgarden
farsi
farsund
fart
farten
fartøy
fartøya
fartøyet
farvatn
farvatnet
farvel
fasa
fasaden
fasar
fascination
fascismen
fascistiske
fase
fasen
fashion
faso
fast
fastbuande
faste
fasting
fastlandet
fastlands
fastsett
fastsette
fat
fatah
fatal
fate
father
fatra
fats
fatt
fatta
fattig
fattigdom
fattige
fault
fauna
fauske
faust
favorite
favoritt
favorittane
favoritten
favourite
faye
fb
fbi
fc
fd
fe
fear
fearnley
feast
feat
feature
features
featuring
feb
feber
februar
february
federal
federation
federico
fedje
feed
feel
feelin
feeling
feels
feet
feil
feila
feilaktig
feilen
feira
feirar
feire
feiring
feiringa
feit
feitt
fekk
fela
felder
feldman
fele
felipe
felix
fell
felles
fellesbusetnad
fellesrad
fellesskap
fellesstart
fellestrekk
fellow
felt
felta
feltet
feltmarskalk
felttog
felttoget
fem
female
femmila
femna
femnar
femner
femtande
femte
femten
femteplass
femteplassen
femti
fender
fengsel
fengselet
fengsla
fenomen
fenomenet
fenrik
fer
ferd
ferda
ferdast
ferdig
ferdige
ferdigstilt
ferdinand
ferdsel
ferguson
ferie
feriestad
ferja
ferje
ferjekai
ferjer
ferjesamband
ferjesambandet
ferjestrekninga
fernandez
fernando
ferrara
ferry
fersk
ferske
ferskvatn
fest
festa
festar
feste
festen
festival
festivalar
festivalen
festivali
festning
festninga
festningane
festningar
festningen
festningsverk
festningsverka
festskrift
festspela
fet
fever
few
feynman
ff
fg
fh
fi
fiat
fiber
fiction
fide
fidel
fids
field
fields
fiemme
fiendane
fiendar
fiende
fienden
fiendtleg
fiendtlege
fier
fifa
fife
fifth
fifty
fig
fight
fighters
fighting
figur
figurane
figurar
figure
figuren
figures
fiji
fiken
fikk
fiktiv
fiktive
fil
filchner
file
filer
files
filip
filippinane
filippo
fillmore
film
filma
filmane
filmar
filmartikkelen
filmatisert
filmen
filmfestivalen
filmmusikk
filmmusikkalbum
filmmusikkalbumet
filmmusikken
filmregissør
films
filmskapar
filmskodespelar
filolog
filologi
filosof
filosofar
filosofen
filosofi
filosofien
filosofisk
filosofiske
filter
fin
final
finalane
finale
finalen
finalesiger
finalist
financial
finans
finansdepartementet
finansielle
finansiere
finansiering
finansiert
finansierte
finanskomiteen
finansminister
finare
finaste
finch
find
findbestscript
fine
finger
fingers
fingrane
fingrar
finland
finlands
finn
finna
finnane
finnar
finnast
finne
finnes
finnish
finnishcharts
finnmark
finnsnes
finnur
finnøy
finsk
finske
finskebukta
finst
fint
fiolin
fiolinar
fiolinist
fiolinisten
fiolinkonsert
fiordland
firda
fire
firedelt
firefly
firenze
fireside
firkamp
firkanta
firma
firmaet
first
firth
fis
fischer
fish
fishbase
fisher
fisk
fiska
fiskane
fiskar
fiskarane
fiskarar
fiske
fiskeartar
fiskebatar
fisken
fiskeri
fisket
fiskevær
fiskeværet
fitch
fitjar
fitzgerald
five
fj
fjaler
fjeld
fjell
fjella
fjellet
fjellkjeda
fjellkjede
fjellkjedene
fjellkjeder
fjellklatrar
fjellklatrarar
fjellklatring
fjellmassiv
fjellomrada
fjellomrade
fjellomradet
fjellrygg
fjellryggen
fjells
fjellsida
fjellsidene
fjellsider
fjellskrent
fjelltopp
fjelltoppane
fjelltoppar
fjelltoppen
fjerde
fjerdedel
fjerdemann
fjerdeplass
fjerdeplassen
fjerna
fjernar
fjerne
fjernsjakk
fjernsyn
fjernsynet
fjernsynsprogram
fjernsynsprogrammet
fjernsynsserie
fjernsynsserien
fjerntliggande
fjodor
fjord
fjordane
fjordar
fjordarm
fjordarmen
fjorden
fjortande
fjorten
fjærland
fjør
fjøra
fjørdrakt
fjørdrakta
fjøre
fjørene
fjører
fjørtoft
fk
fl
fla
flack
flag
flagg
flagga
flaggermus
flagget
flags
flakstad
flam
flame
flaming
flamme
flamsk
flamske
flandern
flanken
flash
flasker
flat
flata
flatanger
flate
flaten
flater
flatevidd
flatevidda
flatland
flatt
flaug
flaum
flaumar
flaumen
fleet
fleetwood
fleirarig
fleirarige
fleire
fleirtal
fleirtalet
fleirtyding
fleischer
flekk
flekkar
flekkefjord
flekker
fleming
flere
flesberg
flesh
flesland
flest
fleste
fletcher
fletta
flickr
flight
flink
flint
flittig
flo
flokk
flokkar
flokken
flood
floor
flora
florence
flores
florian
florida
florø
flott
flotte
flow
flower
flowers
floyd
fluger
flukt
flukta
fly
flya
flycatcher
flydde
flyet
flyfoto
flyfotografi
flyg
flygande
flygar
flyge
flygedyktige
flygelhorn
flyging
flygingar
flying
flykta
flykte
flyktningar
flyplass
flyplassar
flyplassen
flyr
flyselskap
flyselskapet
flyt
flytande
flytt
flytta
flyttar
flyttast
flytte
flytter
flyttinga
flytur
flyturen
flyvapenet
fløgstad
fløyte
fløyter
fm
fn
fo
focus
fogderi
fogerty
foghat
fokus
fokusere
fokuserer
fokusert
fokuserte
fokuset
folda
folk
folka
folke
folkeavstemming
folkeblad
folkedans
folkeeventyr
folkeforbundet
folkegruppa
folkegruppe
folkegruppene
folkegrupper
folkehøgskole
folkehøgskule
folkehøgskulen
folkeleg
folkelege
folkemengd
folkemengde
folkeminne
folkemordet
folkemunne
folkemuseum
folkemusikar
folkemusikk
folkemusikken
folkeparti
folkepartiet
folkerepublikken
folkeretten
folkerikaste
folkerike
folkerøysting
folkesetnad
folkesetnaden
folkesett
folkesette
folkeskulen
folkeslag
folkestad
folket
folketal
folketalet
folketalsstatistik
folketalsutvikling
folketeljing
folketeljinga
folketeljingane
folketeljingar
folketettleik
folketom
folketru
folkets
folkevalde
folkevise
folkeviser
folklore
folkrock
folks
folldal
follo
follow
following
folque
fond
fondet
fonds
fonem
fonetiske
fonna
fonologi
fonologisk
fonologiske
fontana
food
fool
fools
foot
football
for
fora
foramen
foran
forandra
forandring
forarsaka
forbaud
forbes
forbetra
forbi
forbod
forbode
forboden
forbodet
forbodne
forbrenning
forbrukar
forbund
forbunde
forbundet
forbundslandet
force
forces
ford
fordamping
fordel
fordelar
fordelen
fordeling
fordelinga
fordelt
fordelte
fordi
fordømde
foredrag
foreign
foreigner
foreining
foreininga
foreldra
foreldre
forelska
forening
foreningen
forenkla
foreslatt
foreslo
forest
forever
forfall
forfatta
forfattar
forfattarane
forfattarar
forfattaren
forfattarliste
forfattarskap
forfattarskapen
forfatter
forfatterforening
forfatterkatalogen
forfedrane
forfremja
forfremma
forfølgde
forget
forgifta
forgjengaren
forgotten
forhandla
forhandle
forhandlingane
forhandlingar
forhold
forholda
forholdet
forholdsvis
forkant
forkasta
forkastinga
forkjempar
forklara
forklarar
forklarast
forklare
forklarer
forklaring
forklaringa
forklaringar
forklart
forklarte
forkorta
forkorting
forkortinga
forl
forlag
forlaget
forlagt
forlandsbre
forlata
forlate
forlaten
forlenga
forlenging
forlet
forlikskommisjonen
forlikskommissær
forlis
forliset
forliste
forløpar
forløparen
form
forma
formal
formalet
formann
formannen
formannskap
formannskapet
formannskapsdistrikt
formar
formasjonen
format
formatet
formation
forme
formel
formelen
formell
formelle
formelt
formene
former
formidla
formidlar
formidle
formidling
formue
formulert
formulerte
fornamn
fornebu
fornuft
fornya
forord
forplantar
forplikta
forrest
forretning
forretningar
forretningsmann
forretningsmannen
forsamling
forsamlinga
forsand
forseinka
forsiktig
forska
forskar
forskarane
forskarar
forskaren
forsking
forskinga
forskingsdokumentasjonssystemet
forskingsekspedisjon
forskingssentral
forskingsstasjon
forskjell
forskjellig
forskjellige
forskning
forskningsdatas
forskrift
forslag
forslaget
forsta
forstad
forstadane
forstaden
forstader
forstaing
forstainga
forstand
forstar
forstatt
forster
forsterka
forsterkar
forsterkarar
forsterke
forsterkingar
forstod
forstyrra
forstørra
forsvann
forsvar
forsvara
forsvarar
forsvararane
forsvare
forsvaret
forsvarets
forsvarsdepartementet
forsvarskomiteen
forsvarsminister
forsvart
forsvarte
forsvinn
forsvinne
forsvunne
forsyningar
forsøk
forsøka
forsøket
forsøkt
forsøkte
fort
fortald
fortalde
fortalt
fortalte
fortare
fortel
fortelja
forteljar
forteljaren
fortelje
forteljing
forteljinga
forteljingane
forteljingar
fortellinger
fortenestemedalje
fortenestmedalje
fortet
forth
fortid
fortida
fortsatt
fortset
fortsetja
fortsetje
fortsetjing
fortsett
fortsette
fortuna
fortune
forty
forum
forureina
forureining
forutan
forvalta
forvaltar
forvalting
forvaltingsreforma
forvaltingsreformen
forvaltning
forveksla
forvekslast
forveksling
forventa
forverra
forvilla
forvirra
forvirring
forvist
forvitring
forward
fosen
fosnavag
fosnes
foss
fossa
fossane
fossar
fosse
fossen
fossil
fossile
fossum
foster
fostra
fot
fotball
fotballag
fotballaget
fotballartikkelen
fotballforbund
fotballigaen
fotballklubb
fotballklubben
fotballspelar
fotballspelaren
fotballstatistikk
fotballtrenar
foten
fotnotar
foto
fotograf
fotografen
fotografert
fotograferte
fotografi
fotografisk
foton
fots
found
foundation
four
fourth
fowler
fox
fp
fq
fr
fra
fraa
frac
fraflytta
fragment
frakt
frakta
frakte
fram
framand
framande
framdrift
frame
frametter
framferd
framfor
framføre
framfører
framføring
framføringa
framføringane
framføringar
framført
framførte
framgang
framgangen
framhald
framheva
framifra
framlegg
framlegget
framleis
framme
framom
framover
frampton
framsida
framstaande
framstar
framsteg
framstegspartiet
framstilla
framstille
framstiller
framstilling
framstillinga
framstillingar
framstilt
framstilte
framsyning
framsyninga
framsyningar
framtid
framtida
framtidig
framtidige
framtredande
framveksten
fran
francais
francaise
france
frances
francesco
francis
francisco
franck
franco
francois
frank
frankarane
franke
frankfurt
frankie
frankischen
frankiske
franklin
frankrike
franks
frans
fransk
franske
franskmannen
franskmenn
franskmennene
fransktalande
franz
fraser
fraskild
fraskilde
fraverande
freak
fred
freda
fredag
freddie
freddy
fredeleg
freden
frederic
frederick
fredericks
frederik
fredrik
fredriksen
fredrikshald
fredrikstad
fredsavtale
fredsavtalen
fredspris
free
freedom
freeman
freeze
frei
freiburg
freista
freistar
frekvens
frekvensar
frekvensen
frelse
frelsesarmeen
frem
fremja
fremje
fremme
fremre
fremst
fremste
french
fresh
fresvik
freud
frey
fri
fribourg
fricke
frida
friday
fridom
fridomen
fridtjof
frie
friedman
friedrich
friend
friends
friesland
frigg
frigjere
frigjering
frigjeringa
frigjeringsorganisasjon
frigjeve
frigjorde
frigjort
friidrett
friidretts
friidrettsutøvar
friis
friksjon
friluftsliv
frimann
frimerke
fripp
frisinna
frisisk
frisk
friske
fristaten
fristil
fritt
frittstaande
fritz
friviljug
frivillig
frivillige
frode
frodig
frodige
froeschle
froese
frogn
frogner
froland
from
fron
front
frontale
fronted
fronten
frontier
frontiers
frontmann
frontmannen
froskar
frost
frosta
frozen
frp
fru
frue
fruit
frukost
frukt
frukta
fruktbar
fruktbare
fruktene
frukter
frukttre
fry
frykt
frykta
frys
fræna
frø
frøa
frøken
frøy
frøya
fs
ft
fu
fuchs
fuego
fuge
fugl
fuglane
fuglar
fugleartar
fugleatlas
fugleguide
fugleliv
fuglen
fugler
fuglereservat
fujairah
fujian
fukt
fukta
fuktig
fuktige
fukuoka
fukushima
fulfulde
fulham
full
fulle
fuller
fullføre
fullført
fullførte
fullmaktskomiteen
fullmektig
fullstendig
fullstendige
fullt
fulltekst
fulltext
fun
function
fund
fundacion
fundament
fundamentale
fungera
fungerande
fungere
fungerer
fungert
fungerte
funk
funksjon
funksjonane
funksjonar
funksjonen
funky
funn
funna
funne
funnen
funnet
funny
fur
furay
fure
furnes
further
furu
furuskog
fusa
fusion
fusjon
fusjonerte
fut
futen
future
fv
fvt
fw
fx
fy
fykerud
fylgde
fylgjande
fylgje
fylgjer
fylka
fylke
fylkes
fylkesarkiv
fylkesarkivet
fylkesgrensa
fylkesinndelingen
fylkeskommune
fylkeskommunen
fylkesleksikon
fylkesmann
fylkesmannen
fylkesting
fylkestinget
fylkesveg
fylket
fylla
fylle
fyller
fylt
fylte
fyn
fyr
fyra
fyresdal
fyret
fyrhistorisk
fyrliste
fyrst
fyrstane
fyrstasjon
fyrstasjonen
fyrste
fyrstedømet
fyrsten
fyrverkeri
fysikar
fysikaren
fysikk
fysikkartikkelen
fysikken
fysiologi
fysisk
fysiske
fz
fær
færder
færre
færøyane
færøysk
færøyske
føda
fødd
fødde
føde
fødebyen
føder
føderale
føderasjonen
fødestaden
fødsel
fødselen
fødselsdagen
født
føler
følgd
følgde
følge
følgja
følgjande
følgje
følgjer
følgt
følte
fønikisk
fønikiske
før
føra
førande
førar
føraren
førast
førde
føre
førebels
førebilete
førebu
førebuande
førebudd
førebudde
førebuingane
føregaande
føregangaren
føregar
føregjekk
førehand
førekjem
førekomst
førekomstar
førekomsten
føremal
føremalet
føremon
førenamn
fører
føresetnad
føreslatt
føreslo
førestilling
førestillinga
førestillingar
føretak
føretaket
føretrekk
føretrekte
førhistorisk
førhistoriske
føringa
førre
først
første
førsteamanuensis
førsteplass
førsteplassen
førstnemnde
førsund
ført
førte
førti
føtene
føter
g
g0
g1
g2
g3
g4
g5
g6
g7
g8
g9
ga
gaande
gaardnavne
gabon
gabrels
gabriel
gaga
gail
gainare
gainsbourg
gaius
gal
galaksane
galaksar
galakse
galaksen
galaxy
galdt
gale
galen
galicia
galilea
galilei
galileo
gallagher
gallen
galleri
galleriet
gallery
gallia
gallivare
gallo
galloway
galtvort
galway
gamal
gamalengelsk
gamalnorsk
gamalt
gamba
gambia
game
gamer
games
gamespot
gamla
gamle
gamlebyen
gamlekyrkja
gamma
gammal
gammalengelsk
gammalgresk
gammalnorsk
gammalt
gammel
gammleng
gamvik
gan
gandhi
gang
gangar
gange
gangen
ganske
gansu
ganze
gap
gar
garage
garborg
garcia
gard
gardane
gardar
gardbrukar
garde
garden
gardens
gardermoen
gardner
gards
gardsbruk
gardsdrift
gardsnamn
gardsnummer
garfunkel
garland
garmisch
garn
garnes
garnison
garnisonen
garonne
garrett
garry
garson
garth
gary
gas
gasje
gass
gassar
gassen
gassisk
gaston
gata
gate
gatelandsbyen
gatene
gater
gates
gatt
gauguin
gaular
gauldal
gaulle
gaup
gaupne
gausdal
gauss
gaute
gav
gave
gaver
gavin
gavle
gavleborgs
gay
gaye
gaynor
gaza
gazastripa
gazeteer
gazette
gazetteer
gb
gc
gd
gdansk
ge
gecko
gees
geffen
geilo
geils
geir
geiranger
geirr
geistleg
geistlege
geit
geiter
gemeindeverzeichnis
gemini
gen
gender
gene
genera
general
generalane
generalen
generalguvernør
generalløytnant
generalmajor
generalsekretær
generasjon
generasjonar
generasjonen
generation
generator
generell
generelle
generelt
genesaretsjøen
genesis
genet
genetic
genetics
genetisk
genetiske
geneva
geneve
genfersjøen
genitiv
genius
genova
genrelexikon
genres
genresuche
gent
gentle
gentleman
gentlemen
genus
geo
geoff
geoffrey
geofysikar
geofysiske
geograf
geografen
geografi
geografiartikkelen
geografisk
geografiske
geographic
geographical
geographique
geographische
geographischen
geography
geolog
geologar
geologen
geologi
geological
geologien
geologisk
geologiske
geology
geometri
geometrisk
geometriske
geonames
geophysical
georg
george
georges
georgia
georgisk
georgiske
geospatial
gerald
gerard
gerd
gerhard
gerhardsen
gerlache
germain
german
germania
germansk
germanske
germany
gerry
gers
gershwin
geschichte
gesellschaft
gestapo
get
gets
getting
getz
gf
gfk
gg
gh
ghana
ghost
ghosts
gi
giacomo
giant
giants
gibb
gibbons
gibbs
gibraltar
gibson
gibøen
gift
gifta
giftarmal
gifte
giftig
giftige
gifu
gikk
gil
gilbert
gildeskal
giles
gill
gillan
gillespie
gilliland
gilmour
gimme
gina
ginger
giorgio
giovanni
gips
gir
giravanz
girl
girls
giske
gisle
gitar
gitarar
gitaren
gitarist
gitaristane
gitaristar
gitaristen
gitarriff
gitarsolo
gitarsoloen
gitashenasi
gitt
giuseppe
giv
give
given
gives
giæver
gj
gjaldt
gje
gjedde
gjekk
gjeld
gjelda
gjeldande
gjelde
gjelsvik
gjemnes
gjendikta
gjendikting
gjenerobra
gjeng
gjengen
gjengjeld
gjennom
gjennombrot
gjennombrotet
gjennomføra
gjennomføre
gjennomført
gjennomførte
gjennomgaande
gjennomgang
gjennomgatt
gjennomsiktig
gjennomslag
gjennomsnitt
gjennomsnittet
gjennomsnittleg
gjennomsnittlege
gjenom
gjenoppbygd
gjenoppretta
gjenreist
gjensidig
gjenstand
gjenstandane
gjenstandar
gjentekne
gjentok
gjenvald
gjenverande
gjer
gjera
gjerast
gjerde
gjere
gjermund
gjerne
gjerpen
gjerstad
gjertsen
gjesdal
gjest
gjesta
gjestar
gjesteartist
gjesteartistar
gjester
gjev
gjevast
gjeve
gjeven
gjevne
gjord
gjorde
gjort
gjæser
gjør
gjørme
gjøvik
gk
gl
glacier
glad
glade
glam
glamrock
glans
glarus
glas
glasgow
glasiolog
glasmaleri
glass
glassverk
glastonbury
glatt
glatte
gleda
glede
glee
glen
glenn
gli
glimmer
glimrande
glimt
glir
glitter
global
globale
globalt
globe
glomma
gloppen
gloria
glory
glossary
gloucestershire
glover
gluck
glyn
gløymd
gløymde
gm
gmbh
gmelin
gn
gnagarar
gneis
gnome
gnr
gnu
go
god
gode
godkjend
godkjende
godkjenning
godkjent
gods
godseigar
godset
godt
godta
godtok
goes
goethe
goffin
goin
going
gol
golan
golanhøgdene
gold
goldberg
golden
golf
golfstraumen
golv
golvet
gomez
gondwana
gone
gong
gongane
gongar
gongen
gonger
gonna
gonzalez
good
goodbye
goodman
goodnight
google
goose
gora
goran
gorbatsjov
gordon
gordy
gore
gorge
gorkij
gospel
got
gota
gotalands
goteborg
goteborgs
gotisk
gotiske
gotland
gott
gotta
gottes
gottfried
gottingen
gottlieb
gottorp
gould
gouldman
gov
government
governorate
govt
gp
gps
gq
gr
gra
graaf
grabrun
grace
grad
grada
gradar
graden
gradene
grader
gradvis
graeme
graf
graff
graffiti
grafikar
grafikk
grafisk
grafiske
graham
gram
grammar
grammatik
grammatikk
grammatikken
grammatisk
grammatiske
grammy
grammyprisar
grammyprisen
grampus
gran
granada
grand
grande
grane
grange
granger
granitt
gransking
grant
granvin
grappa
gras
graset
grashopper
grass
grassletter
grateful
gratis
gratt
graubunden
graut
grav
grava
grave
graven
gravene
graver
graves
gravferd
gravferda
gravhaugar
gravid
gravitasjon
gravity
gravlagd
gravlagde
gravlagt
gravlund
gravminne
gravminner
gravplass
gravplassen
gray
graz
great
greater
greatest
greco
greece
greek
green
greenberg
greene
greenwich
greenwood
grefsen
greg
gregg
gregor
gregorianske
gregory
greidde
greie
greier
grein
greina
greinene
greiner
greip
grekarane
grekarar
grenada
grenadinane
grend
grenda
grendene
grender
grenland
grenoble
grensa
grensar
grense
grensene
grenseomradet
grenser
grep
gresk
greske
grete
grethe
grev
greve
greven
grevskap
grevskapa
grevskapet
grey
grieg
griffin
griffith
griffiths
grimm
grimstad
grind
grini
grip
gripe
gris
gritty
gro
grong
groningen
groove
gror
grosch
gross
grossman
grotta
grotte
grottene
grotter
ground
group
groups
grov
grove
groven
grovt
grow
growing
growth
große
grp
grue
grundig
grunge
grunn
grunna
grunnane
grunnar
grunne
grunneininga
grunnen
grunnfjellet
grunngjevinga
grunnkrins
grunnla
grunnlag
grunnlagd
grunnlaget
grunnlagt
grunnleggande
grunnlegginga
grunnleggjande
grunnleggjar
grunnleggjarane
grunnleggjaren
grunnlov
grunnlova
grunnloven
grunnskule
grunnskulen
grunnstoff
grunnstoffa
grunnstoffet
grunnstøytte
grunntal
grunnvatn
grunt
gruppa
gruppe
gruppen
gruppene
grupper
grupperingar
gruppespelet
grus
gruva
gruve
gruvedrift
gruvene
gruver
gruyter
gryande
gryte
grytten
grytviken
grøde
grøn
grøndahl
grøne
grønland
grønlandsk
grønne
grønsaker
grønt
gs
gt
gu
guangdong
guangxi
guangzhou
guard
guardian
guatemala
gud
gudane
gudar
gudbrand
gudbrandsdal
gudbrandsdalen
guddom
guddommeleg
guddommelege
gude
guden
gudinna
gudinne
gudmund
gudrun
guds
gudstenesta
gudsteneste
gudstenester
gudvangen
guercio
guerin
guernsey
guess
guest
guevara
guide
guides
guido
guillaume
guinea
guinness
guitar
guitarist
guitars
gujarat
gul
gulbrandsen
guld
gule
gulen
gulf
gull
gullalderen
gullet
gullmedaljar
gullmedalje
gullmedaljen
gullplate
gullruten
gult
gumiljov
gummi
gun
gundersen
gunhild
gunn
gunnar
gunnhild
guns
gunstig
gunter
gunther
gunvor
guralnick
guri
gurion
guro
guru
gus
gush
gustaf
gustav
gustave
gustavsen
gut
gutane
gutar
guten
gutenberg
guthrie
guttorm
guvernement
guvernementet
guvernør
guvernøren
guy
guyana
guys
gv
gw
gwh
gx
gy
gyldendal
gyldendals
gyldig
gylne
gymnadenia
gymnas
gymnaset
gynt
gypsy
gz
gælisk
gæliske
gøteborg
gøymd
gøymde
h
h0
h1
h2
h3
h4
h5
h6
h7
h8
h9
ha
haag
haakon
haaland
haaretz
habitat
habitatet
habsburg
habsburgarane
habsburgmonarkiet
habsburgske
hackett
had
hadashot
hadawi
hadde
hadeland
hadhramaut
hadley
hadrian
hadsel
haffner
hafslo
haga
hagar
hage
hagen
hagerup
hagl
hahn
hai
haifa
haim
hair
haiti
haitisk
hakea
hakka
hakon
hakonsson
hal
haland
hald
halda
haldast
halde
halden
haldeplass
haldeplassen
haldne
haldning
haldninga
haldningar
hale
halen
haley
half
halfdan
halford
halifax
hall
halland
hallands
halldis
halldor
halle
hallelujah
hallen
hallett
halling
hallingdal
hallo
halloween
hallvard
halm
halogaland
hals
halsa
halse
halsen
halsnøy
halv
halvard
halvbroren
halvdan
halvdel
halvdelen
halve
halvkula
halvkule
halvor
halvorsen
halvparten
halvt
halvvegs
halvøy
halvøya
ham
hama
hamar
hamarøy
hamas
hambro
hamburg
hamburger
hamilton
hamish
hamkam
hamlet
hammar
hammaren
hammer
hammerfest
hammersmith
hammill
hammond
hammondorgel
hamn
hamna
hamnar
hamneby
hamnebyen
hamnene
hamner
hampshire
hampton
hamre
hamsun
han
hana
hancock
hand
handa
handball
handballspelar
handballturneringar
handbok
handbook
handel
handelen
handels
handelsdepartementet
handelsflaten
handelsfolk
handelsmann
handelsmenn
handelssenter
handelsskip
handelsstad
handfull
handla
handlar
handle
handling
handlinga
handlingane
handlingar
hands
handsama
handsamar
handsame
handsaming
handsaminga
handtak
handverk
handverkarar
handverks
hang
hank
hankjønn
hann
hanna
hannah
hannane
hannar
hanne
hannen
hannfuglar
hannibal
hannover
hans
hansaen
hansen
hanson
hanssen
hansson
hansteen
hap
hapa
hapet
happened
happiness
happy
hapte
har
hara
harald
haraldsson
haram
harbor
harbour
hard
hardanger
hardangerfjorden
hardangervidda
hardare
hardcore
harde
hardin
harding
hardingfele
hardingfeleverket
hardrade
hardrock
hardt
hardy
hardyguttene
hare
hareid
hareide
haret
harfagre
harlem
harley
harlow
harmoni
harmoniar
harmonisk
harmoniske
harmonium
harmonivokal
harmony
harold
harp
harpe
harper
harpercollins
harr
harriet
harris
harrison
harry
harstad
hart
hartert
hartlaub
hartman
hartmann
hartvedt
hartvig
harum
harvard
harvest
harvey
has
hasan
hasharon
hashomer
hassan
hassel
hastings
hasvik
haswell
hat
hatchet
hate
hatfield
hatt
hatten
hattfjelldal
haug
haugar
hauge
haugen
haugerud
haugesund
haugland
haugtussa
hauk
haukeland
hauran
haus
haust
hausta
hausten
haut
haute
hautes
hav
hava
havamal
havanna
havard
havbotn
havbotnen
have
haven
havet
havilland
having
havnen
havniva
havnivaet
havomrada
havomrade
havomradet
havoverflata
havran
havre
havs
havstraumar
hawaii
hawk
hawke
hawkins
hawks
hay
haydn
hayes
hayward
hb
hbw
hc
hcv
hd
he
head
headed
heads
health
hear
heard
heardøya
hearn
heart
heartache
heartbreakers
hearts
heat
heath
heathen
heather
heaven
heavy
hebei
hebraisk
hebraiske
hebridane
hebron
hector
hedda
heddal
hedmark
hedvig
hefte
heftet
hege
hegel
hei
heia
heiberg
heide
heidelberg
heiden
heidenske
heider
heiderspris
heidi
heidra
heights
heil
heilag
heilagdagar
heilagdomen
heilage
heile
heilo
heilskap
heilt
heiltal
heiltid
heim
heimane
heimar
heimbyen
heimbygda
heimdal
heime
heimebane
heimehøyrande
heimekampane
heimen
heimesida
heimeside
heimesider
heimlandet
heimskringla
heimstad
heimstaden
heine
heinrich
heinz
heite
heiter
heitt
heitte
hejaz
hekk
hekkande
hekkar
hekke
hekkefugl
hekkeomrade
hekkeomradet
hekkesesongen
hekketida
hekking
hektar
hel
held
heldt
hele
helen
helena
helene
helga
helge
helgeland
helgen
helgenar
helgenen
helianthus
helikopter
helium
hell
hella
helland
hellas
helle
helleland
heller
hellige
hello
helm
helmut
help
helsa
helse
helsingborg
helsingfors
helsingør
helsinki
helst
helt
heltar
helten
helter
helvete
hemmeleg
hemmelege
hemn
hemne
hemnes
hemoglobin
hemsedal
hen
henan
hende
henden
hendene
hender
henderson
hending
hendinga
hendingane
hendingar
hendrik
hendrix
heng
hengande
henge
hengt
henley
hennar
henne
hennes
henning
henri
henriette
henrik
henriksen
henriksveen
henry
henta
hentar
hente
hepatitis
hepatitt
hepburn
her
herad
heradet
heradsstyre
heradsstyret
herald
herb
herbert
herbie
hercegovina
hercules
herdla
here
herfra
herifra
heritage
herja
herman
hermann
hermansen
hermes
hermits
hermon
hernes
hero
herodes
heroes
heroin
heron
herr
herrar
herre
herred
herredøme
herredømet
herrelandslag
herrelandslaget
herren
herschel
herska
herskande
herskar
herskarane
herskarar
herskaren
hertfordshire
hertug
hertugane
hertugdømet
hertugdømmet
hertugen
hertuginne
hertzberg
herz
herzog
herøy
hess
hesse
hessen
hest
hestane
hestar
hestekrefter
hesten
het
hetland
hette
hettittane
hev
heva
hevd
hevda
hevdar
hevde
heve
hewitt
hey
heyerdahl
heylin
hf
hg
hh
hi
hicks
hidden
hide
hieronymus
higgins
high
higher
highest
highjump
highland
highlands
highway
hilde
hill
hillary
hillman
hills
hilmar
hilton
him
himalaya
himmel
himmelen
himmelhalvkula
hin
hinder
hindi
hindra
hindrar
hindre
hindu
hinduar
hinduismen
hine
hines
hinnøya
hint
hip
hipgnosis
hiphop
hiroshima
his
hiseman
hispaniola
hist
histoire
historia
historic
historical
historie
historieartikkelen
historielag
historielaget
historien
historiene
historier
historikar
historikarar
historikaren
historikk
historique
historisches
historisk
historiske
history
hit
hitchcock
hitler
hitlista
hitlistene
hitparade
hitparadeitalia
hitra
hits
hitsingel
hitsingelen
hitsinglane
hitsinglar
hitt
hittane
hittar
hitten
hittil
hiv
hizbollah
hj
hja
hjalmar
hjarta
hjartdal
hjarte
hjarteinfarkt
hjartekammer
hjartet
hjelm
hjelmeland
hjelp
hjelpa
hjelpe
hjelpemiddel
hjelper
hjelpt
hjelpte
hjeltnes
hjem
hjemmeside
hjernen
hjerte
hjort
hjorth
hjul
hjula
hjulet
hjørne
hjørnet
hjørundfjord
hk
hl
hm
hms
hn
ho
hoa
hoard
hobbs
hobby
hobøl
hockey
hodder
hodges
hodgson
hoel
hoene
hoer
hof
hoff
hoffet
hoffman
hoffmann
hofmannfjella
hoftun
hofuglar
hofuglen
hogarth
hogd
hogg
hognestad
hohe
hokjønn
hokjønnsord
hokkaido
hokksund
hol
hola
holberg
holck
hold
holden
holder
holding
hole
holer
holet
holger
holiday
holidays
holland
hollies
holly
hollyhock
hollywood
holm
holmane
holmar
holmboe
holmbukta
holme
holmedal
holmen
holmenkollen
holmenkollmedaljen
holmes
holmestrand
holmsen
holocaust
holocen
holrom
holst
holstein
holt
holy
home
homer
homme
homo
homofil
homofile
homs
honda
honduras
honey
hong
hongkong
honky
honning
honningsvag
honor
honour
hood
hook
hooker
hoople
hoover
hooverphonic
hop
hope
hopen
hopkins
hopp
hoppa
hoppar
hoppe
hopper
hopprennet
hoppveka
horace
hordaland
horisontal
horisontale
horisontalt
horisonten
horizon
horn
horne
hornet
hornindal
hornnes
horns
hornsby
horse
horses
horseshoe
horst
horten
hos
hospital
host
hot
hotel
hotell
hotellet
houghton
hound
hour
hours
house
houses
housing
houston
hov
hovden
hovding
hove
hovin
hovland
hovud
hovudartikkel
hovudbelteasteroide
hovudbeltet
hovudbyen
hovudbygningen
hovuddelen
hovudet
hovudfag
hovudgrupper
hovudkontor
hovudkontoret
hovudkvarter
hovudkvarteret
hovudmalet
hovudmaskinen
hovudnæring
hovudnæringa
hovudoppgave
hovudpersonane
hovudpersonen
hovudrolla
hovudrolle
hovudrollene
hovudsak
hovudsakleg
hovudserien
hovudsete
hovudskallen
hovudstad
hovudstaden
hovudtrenar
hovudtypar
hovudveg
hovudvegen
hovudverk
hovudverket
hovudøya
how
howard
howe
howie
howlin
hoy
hoyo
hp
hpa
hq
hr
hrsg
hs
hsd
ht
htm
html
http
https
hu
huang
hubbard
hubble
hubei
hubert
hud
huda
hudson
huey
hug
hugh
hughes
hugo
hugsa
hugsar
huitfeldt
hulda
hull
human
humanist
humanistisk
humanistiske
humble
humboldt
hume
humlesnurr
hummingbird
humor
humoristisk
humoristiske
humphrey
humphries
hun
hunan
hund
hundane
hundar
hunden
hundre
hundrear
hundreara
hundrearet
hundrearsskiftet
hundred
hundredels
hundrevis
hung
hungary
hunger
hungersnaud
hunky
hunt
hunter
huntford
hunting
hurdal
hurricane
hurt
hurtig
hurtigruta
hurtigruten
hurum
hus
husa
husar
husby
husdyr
huse
huser
huset
hush
hushaldningar
huslærar
husmannsplass
husnes
hussein
hustru
husvære
hut
hutchings
hutchinson
hutt
hutter
hutteroth
hutton
huxley
huygens
hv
hva
hvad
hvaler
hvem
hver
hvis
hvite
hvor
hvordan
hw
hx
hy
hybrid
hyde
hyderabad
hydraulisk
hydro
hydrogen
hydrographic
hydrography
hylla
hyllest
hyllestad
hyllestalbumet
hymn
hymne
hymns
hypotese
hypotesen
hyppig
hyra
hyser
hytta
hytte
hytter
hz
hægebostad
hær
hæren
hærens
hætta
høg
høgare
høgareliggande
høgast
høgaste
høgastliggande
høgd
høgda
høgde
høgdehopp
høgdene
høgdepunkt
høgdepunkta
høgdepunktet
høgder
høgdeskilnad
høge
høgland
høglanda
høglandet
høgnorsk
høgre
høgreflanken
høgresida
høgskole
høgskolen
høgskular
høgskule
høgskulen
høgst
høgste
høgsterett
høgsteretten
høgsterettsdommar
høgt
høgtalarar
høgtid
høgtida
høgtider
høgtliggande
høgtrykk
høland
hønefoss
høvande
høvde
høvding
høvdingen
høve
høveleg
høver
høvesvis
høvet
høy
høyanger
høyland
høyra
høyrast
høyrd
høyrde
høyrdest
høyre
høyrer
høyrespel
høyrest
høyrt
høyrte
i
i0
i1
i2
i3
i4
i5
i6
i7
i8
i9
ia
iaaf
iain
ian
iata
iau
iaugefallande
ib
iberiske
ibestad
iblant
ibm
ibn
ibrahim
ibsen
ibsens
ibuarane
ibuarar
ic
ica
ice
iceland
ich
ichihara
icon
id
ida
idag
idar
ide
idea
ideal
ideane
idear
ideell
ideelle
ideen
identification
identifisere
identifiserer
identifisert
identifiserte
identisk
identiske
identitet
identiteten
identity
ideologi
idf
idiot
idlib
idol
idrett
idrettar
idretten
idrettsartikkelen
idrettsforbund
idrettsforening
idrettslag
idrettslaget
idrettsutøvar
ie
if
ifk
ifpi
ifra
ifylgje
ifølge
ifølgje
ig
iggy
igjen
igjennom
ign
ignored
ignorert
igor
ih
ihf
ihk
ihop
ihr
ii
iii
ij
ijssel
ik
ike
ikke
ikkje
ikon
ikring
ikt
il
ile
iles
ili
iliff
ilja
ill
ille
illinois
illusion
illustrasjon
illustrasjonar
illustrated
illustratør
illustrert
illustrerte
im
image
images
imagination
imagine
imam
imdb
imellom
immanuel
immigrantar
imot
impact
imperial
imperiet
imperium
implications
imponerande
imponert
imponerte
import
important
importert
importerte
impossible
imprimerie
improvisasjon
improvisert
improviserte
impulsar
impulse
imslp
in
ina
inc
incarnata
inch
including
incorporated
indarar
independence
independent
inderøy
index
india
indiahavet
indian
indiana
indianarane
indianarar
indians
indianske
indie
indigenous
indigo
indikerer
indikerte
indirekte
indisk
indiske
individ
individa
individet
individuell
individuelle
individuelt
indo
indoariske
indoeuropeisk
indoeuropeiske
indonesia
indonesisk
indonesiske
indre
indrebø
indus
industri
industrial
industrialiseringa
industriar
industriby
industriell
industrielle
industrielt
industrien
industries
industrikomiteen
industriomrade
industrisenter
industry
infanteri
infanteribrigade
infanteriet
infanteriregiment
infeksjon
infeksjonar
inferno
infinitiv
inflasjon
influence
info
infodisc
informasjon
informasjonen
informatikk
information
infraraud
infrastruktur
infrastrukturen
infty
ing
inga
ingar
inge
ingebjørg
ingeborg
ingebrigtsen
ingen
ingeniør
ingeniørar
ingeniøren
ingenting
inger
ingmar
ingolf
ingrediensar
ingrid
ingunn
ingvald
ingvar
ingvild
initiativ
initiativet
ink
inkariket
inkje
inkjekjønn
inkludere
inkluderer
inkludert
inkluderte
inklusive
inlet
inn
innafor
innan
innandørs
innanfor
innb
innblanda
innblanding
innbyggarane
innbyggarar
innbyggjar
innbyggjarane
innbyggjarar
innbyggjartal
innbyggjartalet
innbyrdes
innbytar
inndeling
inndelinga
inndelt
inne
innebar
inneber
innebygd
innehalda
innehalde
innehavar
inneheld
inneheldt
inner
innfødde
innføra
innføre
innføring
innføringa
innført
innførte
innga
inngang
inngangen
inngar
inngatt
inngjekk
inngrep
innhald
innhaldet
innhenta
inni
innimellom
innlandet
innlandsisen
innlegg
innleia
innleiande
innleidde
innleiing
innleiinga
innlemma
innløp
innløpet
innocent
innom
innovasjon
innover
innpa
innpass
innretning
innretningar
innrømde
innsag
innsamla
innsamling
innsats
innsatsen
innsbruck
innsett
innsida
innsikt
innsjø
innsjøane
innsjøar
innsjøen
innskrifta
innskrifter
innslag
innspeling
innspelinga
innspelingane
innspelingar
innspelt
innspelte
innstifta
innstilling
innstilt
inntak
inntekt
inntektene
inntekter
inntil
inntok
inntrykk
innuendo
innvald
innvandra
innvandrarar
innvandring
innvendig
innverknad
innverknaden
innverknadsrike
innvigd
innvik
innvilga
insekt
insektetande
inside
insisterte
inskripsjon
inskripsjonar
inspirasjon
inspirasjonen
inspirasjonskjelde
inspiration
inspired
inspirert
inspirerte
inst
installasjonar
installert
inste
institusjon
institusjonane
institusjonar
institusjonen
institut
institute
institution
instituto
institutt
instituttet
institutul
instruktør
instrument
instrumenta
instrumental
instrumentalar
instrumentale
instrumentalen
instrumentalist
instrumentalt
instrumentering
instrumentert
instrumentet
instruments
insulin
int
intakt
integral
integrasjon
integrert
intellektuell
intellektuelle
intelligence
intelligent
intens
intense
intensitet
intensiteten
intenst
inter
interactive
interessa
interessant
interessante
interesse
interessene
interesser
interessert
interesserte
interest
interiør
interiøret
intern
internasjonal
internasjonale
internasjonalen
internasjonalt
international
internationale
interne
internet
internett
internettsidene
internt
interpret
intervall
interview
interviews
intervju
intervjua
into
intro
introducing
introduction
introduksjon
introduksjonen
introdusert
introduserte
introen
invadere
invadert
invaderte
invalid
invasjon
invasjonen
inventar
inventaret
invention
inverness
investeringar
investigation
investigations
invisible
invitert
inviterte
involvert
involverte
io
ioannina
ioc
iok
ion
iona
ionosfæren
iowa
ip
ipa
iphone
ipiros
ipswich
iq
ir
ira
irak
irakisk
irakiske
iraklio
iran
iransk
iranske
iraq
irbid
ireland
irene
irgens
iris
irish
irishcharts
irkutsk
irland
irma
iron
ironisk
irrigert
irsk
irske
irskesjøen
irvine
irving
irwin
is
isa
isaac
isaak
isabel
isabella
isak
isaksen
isbn
isbre
isbreane
isbrear
isbreen
isbrem
isbremmen
isdekket
isdekt
isdekte
isen
isere
isfjell
isfjorden
isfri
isfrie
isfritt
ishall
ishaug
ishockey
ishockeyklubb
ishockeyspelar
isis
isla
islam
islamic
islamsk
islamske
island
islands
islandsk
islandske
isle
isles
ismail
isn
iso
isolde
isolert
isolerte
israel
israelarar
israeli
israelittane
israelsk
israelske
issn
issue
issues
ist
istaden
istanbul
istid
istida
istituto
især
it
italia
italian
italiana
italiancharts
italienarane
italiensk
italienske
italy
item
ithaca
its
itunes
iu
iucn
iv
ivan
ivanov
ivanovo
ivar
ivarsson
iveland
iver
iversen
ives
ivor
ivrig
ivy
iw
iwata
ix
ixodes
iy
iz
j
j0
j1
j2
j3
j4
j5
j6
j7
j8
j9
ja
jaaroverzichten
jabal
jack
jackie
jackson
jacob
jacobs
jacobsen
jacopo
jacqueline
jacques
jade
jaffa
jag
jaga
jagar
jagarfly
jagger
jahn
jahr
jahreshitparade
jakarta
jake
jakob
jakobsen
jakt
jakta
jaktar
jakten
jaktstart
jaktstarten
jam
jama
jamaica
jamaican
jamaicansk
james
jamfør
jamie
jamleg
jamn
jamna
jamne
jamnt
jamsides
jamt
jamtland
jamtlands
jamvel
jan
jane
janeiro
janet
janis
jann
janne
jansch
jansen
janson
januar
january
janus
japan
japanese
japansk
japanske
jar
jardine
jare
jarl
jarle
jarlen
jarlsberg
jarn
jarnalderen
jarnbana
jarnbane
jarnbanekomiteen
jarnbanen
jarnvegen
jaroslav
jaroslavl
jason
java
javier
jawbone
jay
jazeera
jazz
jazzmusikar
jb
jc
jd
je
jean
jeanne
jeans
jebel
jef
jeff
jefferson
jeffrey
jeg
jeger
jegerar
jelena
jelsa
jemen
jemenittiske
jena
jenin
jenisej
jenkins
jenner
jennifer
jennings
jenny
jens
jensen
jenssen
jenta
jente
jentene
jenter
jeremy
jeriko
jern
jernalder
jernalderen
jernbane
jernbaneklubb
jernbanelinja
jernbanen
jernbanestasjon
jernbanestasjonen
jernbaneverket
jernmalm
jernverk
jerome
jerry
jersey
jerusalem
jesaja
jesper
jesse
jessica
jesu
jesus
jet
jethro
jets
jevgenij
jevnaker
jewel
jewish
jews
jezreeldalen
jf
jfr
jg
jh
ji
jiang
jiangsu
jiangxi
jidda
jiddisch
jihad
jill
jim
jimi
jimmie
jimmy
jin
jinnah
jiri
jizan
jj
jk
jl
jm
jn
jo
joachim
joakim
joan
joao
job
jobb
jobba
jobbar
jobbe
jobben
joe
joel
joey
joh
johan
johann
johanna
johanne
johannes
johannesburg
johannesen
johannessen
johans
johansen
johansson
john
johnnie
johnny
johns
johnsen
johnson
johnston
johnstone
johs
join
joint
jolly
jomfru
jon
jonas
jonathan
jondal
jones
joni
joniske
jonkopings
jonny
jonsson
joplin
jord
jorda
jordan
jordanaires
jordandalen
jordanelva
jordanske
jordatmosfæren
jordbruk
jordbruket
jordbruksland
jordbruksomrade
jorden
jordoverflata
jordras
jordskjelv
jordskjelvet
jordskorpa
jordsmonn
jordsmonnet
jorge
jorgensen
jorn
joruba
jorunn
jose
josef
josefs
josefus
josep
joseph
josephine
josh
joshua
jostedalsbreen
jostein
josva
jotunheimen
joule
journal
journalist
journalistar
journalisten
journalistikk
journey
jovi
joy
joyce
jp
jpg
jpl
jq
jr
js
jstor
jt
ju
juan
juana
jubilee
jubileet
jubileum
jubilo
judas
jude
judea
judete
judetul
judith
judy
jugoslavia
jugoslaviske
juice
jul
jula
julaftan
julealbumet
juledag
jules
julesong
julesongar
juletre
juli
julia
julian
julianske
julie
julien
julio
julius
july
jump
jun
june
jung
jungle
juni
junior
junioreurovision
juniperus
juno
jupiter
jur
jura
jurafjella
jurassic
juratida
jurgen
juridisk
juridiske
jurij
jurist
jury
juryane
juryen
jus
juss
just
justert
justice
justin
justis
justisdepartementet
justiskomite
justiskomiteen
justisminister
juventus
juvkam
jv
jw
jx
jy
jylland
jz
jæren
jødane
jødar
jøde
jødedom
jødedommen
jødisk
jødiske
jølster
jørgen
jørgensen
jørn
k
k0
k1
k2
k3
k4
k5
k6
k7
k8
k9
ka
kaare
kaas
kabel
kabir
kabul
kafe
kafear
kaffi
kafjord
kafr
kagge
kai
kaia
kairo
kaiser
kaka
kakao
kake
kaker
kal
kald
kaldare
kaldaste
kalde
kaldera
kalderaen
kaldt
kaledonske
kalender
kalenderen
kaliber
kalif
kalifatet
kalifen
kaliningrad
kalium
kalk
kalkstein
kall
kalla
kallar
kallast
kalle
kallenamn
kallenamnet
kallesignal
kallikratis
kalmar
kalsium
kalv
kam
kama
kamal
kambodsja
kambrium
kamen
kamera
kameraet
kamerun
kammer
kammeret
kammermusikk
kamp
kampane
kampanje
kampanjen
kampar
kampen
kamtsjatka
kamtsjatkahalvøya
kan
kana
kanadisk
kanadiske
kanal
kanalane
kanalar
kanalen
kanariøyane
kanawa
kanazawa
kandidat
kandidatar
kandidaten
kandidatturneringa
kane
kann
kano
kanon
kanonane
kanonar
kanonen
kansas
kanskje
kanslar
kant
kantane
kantar
kantate
kantaten
kantater
kanten
kanton
kantonane
kantonen
kanye
kaos
kap
kapasitet
kapasiteten
kapell
kapellan
kapellet
kapellmeister
kapital
kapittel
kapitulerte
kaplan
kapp
kappa
kappe
kappgang
kapra
kaptein
kapteinen
kapteinløytnant
kar
kara
karabakh
karachi
karahavet
karakter
karakterane
karakterar
karakteren
karakterisert
karakteristisk
karakteristiske
karar
karasjok
karbon
karbondioksid
kardinal
kare
karelen
karelia
karen
kari
karibia
karibiske
karin
karine
karl
karlsen
karlsruhe
karlsson
karlstad
karlsøy
karma
karmøy
karnten
karoline
karpatane
karriere
karrieren
karsten
kart
karta
kartago
kartet
kartla
kartlagd
kartlagde
kartlagt
kartlagte
kartlegging
kartlegginga
kartograf
kartografar
kartverk
kartverket
kasakhstan
kashima
kashiwa
kashmir
kasparov
kaspihavet
kassel
kasserar
kassett
kast
kasta
kastar
kaste
kastet
kasus
katalansk
katalanske
kataller
katalog
katalogen
katalognummer
katarina
katastrofale
katastrofe
katastrofen
kate
katedral
katedralen
katedralskole
katedralskulen
kategori
kategoriane
kategoriar
kategorien
kategorisert
kath
katherine
kathleen
kathy
katie
kato
katolikkar
katolisismen
katolsk
katolske
katrine
katt
kattar
kattegat
katten
katy
katz
kaukasus
kaupanger
kautokeino
kavaleri
kavaleriet
kawasaki
kay
kaye
kazan
kb
kc
kd
ke
kea
keep
keeper
keisar
keisarane
keisarar
keisardømet
keisaren
keisarinne
keisarlege
keisarriket
keith
keller
kelly
keltisk
keltiske
kelvin
kemp
ken
kennedy
kenneth
kenny
kensington
kent
kenton
kentucky
kenya
kepler
kerala
keramikk
keres
kerguelen
kerkyra
kerr
kerrang
kerry
ketil
kevin
key
keyboard
keynes
keys
kf
kfar
kfum
kg
kgb
kgl
kh
khabarovsk
khaimah
khalid
khalidi
khalifa
khan
khanatet
khania
khanty
kharkiv
khios
khor
khorasan
khrusjtsjov
khz
ki
kibbutz
kibbutzen
kick
kid
kids
kiel
kielland
kiev
kill
killed
killer
killers
killing
kills
kilo
kilogram
kilometer
kilometeren
kilometers
kim
kimono
kina
kinas
kind
kinesarar
kinesisk
kinesiske
kinetisk
kinetiske
king
kingdom
kingfisher
kings
kingston
kinks
kinn
kino
kinsarvik
kipling
kirgisistan
kiribati
kirk
kirke
kirkebøker
kirkeleksikon
kirken
kirkenes
kirkens
kirkenær
kirker
kirkesøk
kirkpatrick
kirkuk
kirov
kirsten
kirsti
kiruna
kirurg
kirurgi
kirwan
kiryat
kiss
kista
kit
kitakyushu
kitchen
kitchener
kittelsen
kitts
kitty
kiwi
kj
kjartan
kje
kjeda
kjede
kjegleforma
kjelda
kjelde
kjeldekode
kjeldene
kjelder
kjell
kjellaren
kjeller
kjem
kjemi
kjemiartikkelen
kjemikaliar
kjemikar
kjemisk
kjemiske
kjempa
kjempar
kjempe
kjend
kjende
kjendis
kjendisar
kjenna
kjenne
kjenneleg
kjenner
kjennetegna
kjenneteikn
kjenneteikna
kjenningsmelodi
kjenningsmelodien
kjennskap
kjensla
kjensle
kjenslene
kjensler
kjent
kjente
kjerland
kjerne
kjernefysisk
kjernefysiske
kjernen
kjersti
kjetil
kjole
kjos
kjær
kjæraste
kjærasten
kjære
kjærleik
kjærleiken
kjærlighet
kjølen
kjølig
kjøligare
kjølige
kjølvatnet
kjønn
kjønna
kjønnsdimorfisme
kjøp
kjøpa
kjøpe
kjøper
kjøpesenter
kjøpmann
kjøpmenn
kjøpstad
kjøpstadene
kjøpt
kjøpte
kjøt
kjøtet
kjøtt
kk
kl
klaga
klan
klanen
klang
klapping
klar
klara
klarar
klarde
klare
klarer
klarinett
klart
klarte
klassa
klassane
klassar
klasse
klassekampen
klassen
klassetrinn
klassifisering
klassifiseringa
klassifisert
klassifiserte
klassikar
klassisk
klassiske
klatra
klatrar
klatrarar
klatre
klatring
klaudios
klaus
klaver
klaverinstrument
klaverspelar
klaverspelaren
klavier
kle
kleberstein
kleda
kledd
kledde
klede
klein
kleine
kleiv
kleiva
klekking
klemens
kleopatra
klepp
kleppa
kleppe
kler
kleven
klima
klimaendringar
klimaet
klimaklassifisering
klimatiske
klinisk
klipp
klippa
klippe
klippeframspring
klippene
klipper
klipperik
klokka
klokke
klokker
klokkespel
kloster
klosteret
klubb
klubbane
klubbar
klubben
klæbu
kløft
kløfta
klør
kløyvd
km
kn
knapp
knappe
knapt
kneip
knew
knight
knights
kniv
knivar
knm
knock
knoll
knop
knopf
knopfler
know
knowledge
knowles
known
knows
knox
knud
knudsen
knuse
knust
knuste
knut
knutepunkt
knutsen
knutsson
knyt
knytast
knyte
knyter
knytt
knytte
ko
koalisjon
koalisjonen
kobe
koch
koda
kodar
kode
koden
kofu
kognitiv
kohler
koht
koka
kokain
kokk
kokt
kol
kola
kolahalvøya
kolbotn
kolibriar
kollapsa
kollegaen
kollektiv
kolliderte
kollisjon
koln
koloni
koloniane
koloniar
kolonien
koloniseringa
kolonisert
kolonistar
kolonitida
kolstad
kom
koma
komande
kombinasjon
kombinasjonar
kombinasjonen
kombinere
kombinerer
kombinert
kombinerte
kome
komedie
komedien
komen
komet
kometen
komi
komikar
komisk
komiske
komite
komitear
komiteen
komm
komma
kommandant
kommandanten
kommande
kommandert
kommanderte
kommando
kommandoen
kommandør
komme
kommentar
kommentarar
kommentator
kommenterte
kommer
kommersiell
kommersielle
kommersielt
kommisjon
kommisjonen
kommun
kommunal
kommunale
kommunaleining
kommunaleininga
kommunaleiningar
kommunalt
kommunane
kommunar
kommune
kommunegrensa
kommunegrensene
kommunegrenser
kommunen
kommuner
kommunereforma
kommunes
kommunesamanslainga
kommunesenter
kommunesenteret
kommunestyre
kommunestyret
kommunevalet
kommunevapenet
kommunikasjon
kommunismen
kommunistane
kommunistar
kommunistisk
kommunistiske
kommunistparti
kommunistpartiet
komne
komorane
kompakt
kompani
kompaniet
komparativ
kompetanse
kompetansesenter
kompleks
komplekse
komplekset
komplekst
komplett
komplette
komplikasjonar
komplisert
kompliserte
komponent
komponentane
komponentar
komponenten
komponere
komponert
komponerte
komponist
komponistane
komponistar
komponisten
komposisjon
komposisjonane
komposisjonar
komposisjonen
kompromiss
kona
kone
konferanse
konferansen
konflikt
konfliktane
konfliktar
konflikten
konføderasjonen
kong
kongane
kongar
konge
kongedøma
kongedøme
kongedømet
kongedømmet
kongefamilien
kongehuset
kongeleg
kongelege
kongelige
kongemakta
kongen
kongens
kongepokal
kongepokalen
kongerike
kongeriket
kongo
kongressen
kongsberg
kongsgard
kongsvinger
konigsberg
konigstuhl
konkluderte
konkret
konkrete
konkurransar
konkurranse
konkurransen
konkurrent
konkurrerande
konkurrere
konkurrerte
konkurs
konow
konrad
konsekvens
konsekvensar
konsekvent
konsentrasjon
konsentrasjonen
konsentrere
konsentrert
konsentrerte
konsept
konseptalbum
konseptet
konsernet
konsert
konsertalbum
konsertalbumet
konsertane
konsertar
konserten
konsertopptak
konsertversjon
konservativ
konservative
konservatoriet
konsesjon
konsollen
konsonant
konsonantane
konsonantar
konstant
konstanten
konstantin
konstantinopel
konstantius
konstituert
konstitusjonskomiteen
konstruert
konstruerte
konstruksjon
konstruksjonar
konstruksjonen
konsul
konsular
konsulent
kontakt
kontakta
kontaktar
kontakten
kontekst
kontinent
kontinenta
kontinentale
kontinentalklima
kontinentalsokkelen
kontinentalt
kontinentet
kontinuerleg
kontinuerlege
kontor
kontoret
kontrabass
kontrakt
kontrakten
kontrast
kontreadmiral
kontroll
kontrollen
kontrollera
kontrollere
kontrollerer
kontrollert
kontrollerte
kontroversiell
kontroversielle
konveksjon
konvensjonelle
konvensjonen
konversationsleksikon
konverterte
konvoi
konvoien
kooper
koordinatar
koordinatsystem
kopar
kopervik
kopi
kopiar
kopiert
kopierte
koping
kopla
koppar
koppen
kor
koral
koraltemaet
koranen
korea
koreansk
koreanske
koren
koret
korgplantefamilien
korhonen
korint
korkje
korleis
korn
korner
kornet
kornisk
koronaviruspandemien
koronavirusutbrotet
korps
korpset
korrekt
korrupsjon
kors
korsika
kort
korta
kortare
kortaste
korte
kortfilm
kortform
kortformer
korthekken
kortvarig
kortvarige
korvokal
korvokalist
kos
kosakkar
kosmisk
kosovo
koss
kosta
kostbare
kosthaldet
kostnad
kostnadene
kostroma
kostyme
kot
kp
kq
kr
krabbe
kraft
krafta
kraftig
kraftigare
kraftigaste
kraftige
kraftstasjon
kraftstasjonen
kraftverk
kraftverket
kraftwerk
krag
kragerø
kraj
krakow
kramer
kramnik
krangel
krangling
krasnodar
krasnojarsk
krater
krateret
kratt
krattskog
krauss
krautrock
krav
krava
kravd
kravde
kravet
kravomrade
kreativ
kreative
kreditert
kreft
kreftene
krefter
kreis
kreml
kreps
krepsdyr
kreta
kretsen
krev
krevja
krevjande
krevje
krf
krieger
krig
krigane
krigar
krigarar
krigen
krigføring
krigsara
krigsfangar
krigsskip
krim
krimhalvøya
kriminalitet
kriminalroman
kriminelle
krimkrigen
kring
kringkasta
kringkastaren
kringkasting
kringkastingsunionen
kringliggande
kringom
kringsetjinga
kringsett
kringsette
krins
krinsane
krinsar
krinsen
kris
krisa
krise
kristeleg
kristen
kristendom
kristendomen
kristendommen
kristensen
kristent
kristi
kristian
kristiania
kristiansand
kristiansen
kristiansund
kristin
kristina
kristine
kristna
kristne
kristofer
kristoffer
kristoffersen
kristofferson
kristus
krit
kriterium
kritikar
kritikarane
kritikarar
kritikaren
kritikarprisen
kritikarroste
kritikk
kritikkar
kritikken
kritisert
kritiserte
kritisk
kritiske
krittida
kroatar
kroatia
kroatisk
kroatiske
krog
krogh
krohg
krohn
krok
kroken
kromosom
krona
kronblad
krone
kroner
kroninga
kronisk
kronobergs
kronologisk
kronprins
kronprinsen
kronprinsesse
kropp
kroppen
kroppslengd
kroppslengda
kross
krossen
krossfararane
krossfestinga
krosskyrkje
krosstog
krosstoga
krosstoget
krusifiks
krydder
krypdyr
kryss
kryssa
kryssar
krysse
krysset
kryssinga
krystall
krystallar
krystalliserer
krødsherad
krønika
ks
kt
ku
kua
kubikkmeter
kula
kulde
kule
kuler
kulestøyt
kuling
kull
kullet
kulminerte
kult
kultur
kulturar
kulturartikkelen
kulturarv
kulturdepartementet
kulturell
kulturelle
kulturelt
kulturen
kulturhistorie
kulturhistorisk
kulturhistoriske
kulturhus
kulturlandskap
kulturliv
kulturlivet
kulturminne
kulturminneforskning
kulturminner
kulturminnesok
kulturminnesøk
kulturnett
kulturpris
kulturrad
kultursenter
kumamoto
kun
kundar
kunde
kungliga
kunkel
kunna
kunne
kunngjorde
kunngjort
kunnskap
kunnskapar
kunnskapen
kunnskapsforlaget
kunst
kunstakademi
kunstakademiet
kunstartikkelen
kunsten
kunstforening
kunsthandverk
kunsthistorie
kunstig
kunstige
kunstindustriskole
kunstler
kunstmalar
kunstmalaren
kunstmuseum
kunstnar
kunstnarane
kunstnarar
kunstnaren
kunstnarisk
kunstnariske
kunstnerisk
kunstnerleksikon
kunstverk
kupert
kupp
kuppelforma
kuppet
kurdarar
kurdisk
kurdiske
kurdistan
kurfyrste
kurfyrsten
kurilane
kurs
kursen
kursk
kurt
kurva
kurve
kusatsu
kutta
kutte
kuwait
kv
kva
kvad
kvadrat
kvadratisk
kvadratkilometer
kvadratmeter
kval
kvalar
kvale
kvalfangarar
kvalfangst
kvalifisere
kvalifisering
kvalifiseringa
kvalifiseringskamp
kvalifisert
kvalifiserte
kvalitet
kvaliteten
kvalsund
kvaløya
kvam
kvar
kvarandre
kvart
kvartal
kvarter
kvartett
kvartetten
kvartfinalane
kvartfinalen
kvarts
kveg
kveite
kveld
kvelden
kven
kvensk
kvifor
kvik
kvikksølv
kvile
kviler
kvinesdal
kvinna
kvinne
kvinnelandslag
kvinneleg
kvinnelege
kvinnenamn
kvinnene
kvinner
kvinnherad
kvit
kvite
kviterussisk
kviterussiske
kviterussland
kviteseid
kvitsjøen
kvitsøy
kvitt
kvæfjord
kvænangen
kw
kx
ky
kyal
kyiv
kykladane
kyle
kylie
kylling
kyoto
kypriotiske
kypros
kyr
kyrillisk
kyrilliske
kyrka
kyrkja
kyrkje
kyrkjeartikkelen
kyrkjebygg
kyrkjebygga
kyrkjebø
kyrkjebøker
kyrkjedepartementet
kyrkjegard
kyrkjegarden
kyrkjekomiteen
kyrkjeleg
kyrkjelege
kyrkjelyd
kyrkjelyden
kyrkjemusikk
kyrkjemøtet
kyrkjene
kyrkjer
kyrkjesamfunn
kyrkjesokn
kyrkjesongar
kyrkjestad
kyrkjestaden
kyrkjestader
kyrkjestaten
kyrkjesøk
kyrre
kyst
kystar
kystby
kysten
kystlinja
kystlinje
kystnære
kystomrada
kystomrade
kystsletta
kystvakta
kystverket
kz
københavn
københavns
køyra
køyrde
køyre
køyrer
køyretøy
køyretøyet
køyring
køyrt
l
l0
l1
l2
l3
l4
l5
l6
l7
l8
l9
la
lab
label
laboratoriet
laboratorium
laboratory
labour
labrador
labyrinth
lac
lada
ladd
ladde
lade
ladies
ladning
ladoga
lady
lafresnaye
lafta
lag
laga
lagar
lagare
lagast
lagaste
lagd
lagde
lage
lager
laget
lagland
laglandet
lagmannsrett
lagnad
lagnaden
lago
lagoon
lagos
lagra
lagrast
lagre
lagring
lagt
lagtevlinga
lagtinget
lagtliggande
lagtrykk
lagtysk
lagunen
lagvatn
lahore
lahti
laila
laine
lake
lakes
laks
laksevag
lalo
lam
lama
lamb
lambda
lambert
lamm
lampe
lan
lana
lancashire
lancaster
land
landa
landareal
landarealet
landau
landbruk
landbruket
landbruksdepartementet
landbruksforlaget
landbrukskomiteen
landbruksskule
lande
landegrensa
landemerke
landessternwarte
landet
landets
landevegssykling
landfast
landing
landkommunane
landkommunar
landkommune
landkommunen
landleg
landlege
landmalar
landmaling
landmalingar
landmark
landomrada
landomrade
landomradet
landon
lands
landsby
landsbyane
landsbyar
landsbyen
landsbygda
landscape
landschaft
landsdelen
landsforbund
landsforening
landskamp
landskampar
landskampen
landskap
landskapa
landskapet
landskapsvernomrade
landskommun
landskvinna
landslag
landslaget
landslagsdebut
landslagsmal
landslagstrenar
landsmal
landsmannen
landsmennene
landsmøtet
landsstyret
landstad
landstads
lane
lanet
lang
langdistanseløpar
lange
langeland
langesund
langhekken
langkyrkje
langrenn
langrennar
langrennsløpar
langs
langsam
langsame
langsamt
langsetter
langsmed
langstrekt
langt
language
languages
languedoc
langvarig
langvarige
langøya
lanius
lanka
lanois
lanord
lanseringa
lansert
lanserte
lant
lante
laos
laplace
lapp
lappland
lapse
lara
lardal
large
largest
larisa
lark
larkin
larry
lars
larsen
larson
larsson
larvane
larvik
las
laser
lasse
last
lasta
laste
lastebil
lastebilar
lasteevna
lasterommet
lasteskip
lat
lata
latakia
latane
latar
late
laten
later
latest
latham
latin
latinsk
latinske
latskrivar
latskrivarane
latskrivarar
latskrivaren
latskrivinga
lattakia
latter
latvia
latvisk
latviske
lauk
lauper
laupet
laura
laurdag
lauren
laurence
laurent
laurentius
laurie
lauritz
lauritzen
laus
lausanne
lause
laust
laut
lauv
lauvskog
lauvtre
lav
lava
lavaen
lavangen
lavik
law
lawrence
laws
lawson
lay
layla
lazarus
lazio
lb
lc
ld
le
lea
lead
leader
leadon
leaf
league
lear
learn
learning
leary
least
leather
leave
leaves
leaving
lebanon
leben
lebesby
lech
lecture
led
leda
ledd
ledda
leddet
leddyr
leder
lee
leeds
leer
left
legacy
legal
leganger
legar
legat
lege
legen
legend
legenda
legendariske
legendary
legende
legender
legends
legg
legga
leggast
legge
leggja
leggjast
leggje
legion
legionen
legs
lei
leia
leiande
leiar
leiarane
leiarar
leiaren
leiarskap
leiber
leibniz
leicester
leid
leidd
leidde
leiden
leie
leier
leif
leigd
leigde
leige
leigesoldatar
leigh
leiing
leiinga
leik
leikane
leikanger
leikar
leilegheit
leipzig
leir
leira
leire
leiren
leirfjord
leirvik
leita
leite
leith
leiting
leiv
leivningane
leivningar
lekam
lekamar
lekamen
leksikon
lektor
leland
lemon
len
lena
lende
lene
lenet
lengd
lengda
lengde
lengdehopp
lenge
lenger
lengre
lengst
lengste
length
lenin
leningrad
lenkje
lennart
lennon
lennox
lenny
lensmann
lenvik
leo
leon
leonard
leonardo
leone
leonid
leopold
lepontinske
ler
leroy
lerret
les
lesa
lesarane
lesarar
lesaren
lesartal
lesast
lescharts
lese
lesen
lesh
lesing
lesja
lesley
leslie
lesotho
less
lesser
lessing
lesson
lessons
lest
lester
lesvos
let
lett
letta
lettare
lettast
lette
letter
letters
lev
leva
levande
levanger
levanten
levd
levde
leve
levealder
level
levende
leveomrade
leveomradet
lever
levere
leverer
levering
leverkusen
levert
leverte
levetid
levetida
levi
levin
levine
levkosia
levon
levra
levy
lewis
lewisohn
lexicon
lexikon
lf
lg
lh
li
lia
lian
libanesisk
libanesiske
libanon
libanonfjella
liberal
liberale
liberia
liberty
library
libretto
libris
libya
lichtenstein
lid
liden
liding
lidingar
lie
liebe
liechtenstein
lied
lieder
liege
lien
lier
lierne
lies
liestøl
lieutenants
life
lifetime
liga
ligacupen
ligaen
ligameister
ligg
liggande
ligge
ligger
liggja
liggjande
liggje
light
lighthouse
lightning
lights
lik
lika
likar
like
likeeins
liker
likestilling
liket
likevekt
likevel
likna
liknande
liknar
likne
likning
likninga
likningane
likningar
liks
likskap
likskapar
likskapen
liksom
likt
likte
lil
lill
lilla
lille
lillebjørn
lillehammer
lillesand
lillestrøm
lillian
lilly
lily
lim
lima
limerick
limited
limits
lin
lina
lincoln
lincolnshire
lind
linda
lindas
lindeman
lindesnes
lindgren
lindisfarne
lindsay
lindsey
lindstøl
line
linear
linene
liner
lines
lineær
lineære
lineært
ling
linge
lingua
linguistic
linguistics
lingvistikk
lingvistisk
linja
linje
linjene
linjer
linjeskip
link
links
linn
linnaeus
linne
linse
linser
linstow
linux
linz
lion
lionel
lippe
lis
lisa
lisbeth
lisboa
lise
lisens
lisensen
lisensiert
lislevand
list
lista
liste
listen
listene
listener
listening
lister
listing
lists
liszt
lit
lita
litauen
litauisk
litauiske
lite
liten
liter
literary
literature
litle
lito
litt
litteratur
litteraturartikkelen
litteraturen
litteraturhistorie
litteraturkritikar
litteraturpris
litteraturvitskap
litterær
litterære
litterært
little
littlefield
liturgiske
liu
liv
liva
live
liverpool
lives
livet
livets
livin
living
livingston
livingstone
livland
livleg
livlege
livnærte
livs
livskraftig
livsstil
livssyn
livstid
liwa
liza
lizard
lj
ljos
ljoset
ljubljana
lk
ll
llc
llosa
lloyd
llyn
lm
ln
lo
loaded
loaf
local
localitati
localities
locality
location
loch
lock
locke
lockheed
loco
loddrett
lodge
lodger
loen
lofoten
loftesnes
lofthus
log
logan
loggins
logic
logikk
logisk
logiske
logistikk
logo
logoen
loire
lojale
lok
lokal
lokala
lokalavis
lokalavisa
lokale
lokalhistorie
lokalhistoriewiki
lokalhistorisk
lokalhistoriske
lokalisert
lokalitetskategoriar
lokallag
lokalpolitikar
lokalt
loke
lokomotiv
lom
lomax
lombardia
london
londonderry
lonely
lonesome
long
longman
longplay
longyearbyen
lonnie
look
looking
looks
loose
lopez
loppa
lord
lorentz
lorentzen
lorenz
lorenzo
lorraine
los
lose
loss
lost
lot
lothar
lothe
lothian
lotta
lotus
lou
loud
lough
loughnane
louie
louis
louise
louisiana
lounge
lov
lova
lovande
lovane
lovar
lovbrot
lovdata
love
loved
loven
lovene
lover
lovers
loves
lovgjevande
lovin
loving
lovisa
lovleg
lovverket
low
lowe
lowell
lower
lp
lq
lr
ls
lsd
lt
ltd
lu
lua
lubeck
luc
luca
lucas
lucca
lucia
lucius
luck
lucky
lucy
ludlow
ludvig
ludvigsen
ludvika
ludwig
luft
lufta
luftfart
luftfartøy
luftforsvaret
luftforureining
lufthamn
lufthamna
lufthavn
luftstraumen
lufttrykk
lufttrykket
lugano
luigi
luis
luk
luka
lukas
luke
lukka
lukkast
lukke
luksusutgava
lukt
lukta
lulea
lulesamisk
lully
lulu
luna
lunar
lund
lundberg
lunde
lunden
lunds
luneburg
lungebetennelse
lungene
lunner
lupus
luras
lure
lurte
lurøy
lust
luster
luten
luther
luthersk
lutherske
lutt
lutzow
luxembourg
luxembourgsk
luxemburg
luzern
lv
lviv
lw
lx
ly
lycksele
lyd
lydane
lydar
lydband
lydbilete
lydeffektar
lyden
lyder
lydia
lydon
lydopptak
lydspor
lydteknikar
lydteknikarar
lydteknikaren
lyga
lykkast
lykke
lyle
lyn
lynch
lyng
lyngdal
lyngen
lynn
lynne
lynnedslag
lynx
lynyrd
lyon
lyons
lyra
lyrics
lyrikar
lyrikk
lyrisk
lyriske
lys
lysa
lysaker
lysande
lysar
lysare
lyse
lysefjorden
lyser
lyset
lysfarten
lyssterke
lyst
lyste
lyt
lytta
lyttarane
lyttaren
lytte
lyttelton
lz
lækjar
lækjemiddel
læra
lærar
lærarane
lærarar
læraren
lærarskule
lærarutdanning
lærdal
lærde
lære
lærebok
lærebøker
lærer
læring
lærling
lært
lærte
læte
lætet
lødingen
løfta
løfte
løken
løkken
løland
løn
løna
løndal
løp
løpar
løparar
løpet
lørenskog
løten
løva
løve
løvenskiold
løvland
løynd
løyndom
løypelengd
løysa
løysast
løyse
løyser
løysing
løysinga
løysingar
løyst
løyste
løytnant
løyve
m
m0
m1
m2
m3
m4
m5
m6
m7
m8
m9
ma
maa
maakond
maal
maas
maastricht
mac
macdonald
macedonia
machida
machine
mack
mackay
mackenzie
macmillan
mad
madagaskar
madame
made
madeira
madeleine
madinah
madison
madness
madonna
madrid
mads
madsen
mae
mael
maestro
mag
magasin
magasinet
magazine
magdalena
magdeburg
mage
magen
magga
maggie
maggiore
magi
magic
magisk
magiske
magma
magna
magnar
magne
magnesium
magnet
magnetfelt
magnetfeltet
magnetisk
magnetiske
magnhild
magnus
magnusson
magyar
mahal
mahasz
mahren
mai
maid
maiden
maier
maihaugen
maiken
mail
main
maine
mainland
mainstream
maint
mainz
mais
maj
maja
majalis
major
majoris
majoritet
majoriteten
make
makedonia
makedonsk
makedonske
maker
makes
making
maksimal
maksimale
maksimalt
maksimum
makt
makta
maktene
makter
mal
mala
malaga
malar
malarane
malarar
malaren
malaria
malarkunst
malast
malawi
malaysia
malcolm
maldivane
male
maleining
malen
maler
maleri
maleria
maleriet
malet
malføre
mali
malik
malin
maling
malinga
malingane
malingar
mallag
mallorca
malm
malmann
malmo
malo
malone
malselv
malt
malta
malte
maltid
maltidet
malungdom
malvakt
malvakta
malvik
maløy
mama
mamas
mamelukkane
mamma
man
mana
manad
manadane
manadar
manaden
manadene
manader
management
manager
manageren
manama
manane
manar
manawatu
manchester
mancini
mandag
mandal
mandarin
mandat
mandatet
mandel
mandela
mandolin
mane
manen
manfred
mangan
mange
mangearig
mangearige
mangel
mangelen
manger
mangfald
mangfaldet
mangfaldig
mangfaldige
mangla
manglande
manglar
manhattan
mani
manifest
manila
manilow
mann
mannen
mannheim
manning
mannleg
mannlege
manns
mannskap
mannskapet
mannsnamn
mannsnamnet
manor
mans
mansfield
mantova
manu
manual
manuel
manuelt
manus
manusforfattar
manuskript
manuskriptet
many
manzanera
manzarek
mao
maori
maoriane
maoriar
map
mapa
mapping
maps
mar
mara
maracas
marathi
marathon
maraton
marble
marc
marcel
march
marco
marcus
mare
maren
margaret
margarita
margin
margit
margrete
margrethe
marguerite
mari
maria
mariah
marian
marianne
marie
marienlyst
marihandfamilien
marija
marillion
marilyn
marimba
marin
marina
marine
marinen
mariner
marino
marinos
mario
marion
marit
maritim
maritime
maritimt
marius
mark
marka
markant
markante
marker
markera
markere
markerer
markering
markeringa
markeringar
markert
markerte
market
markham
marki
marknad
marknaden
marknader
marknadsby
marknadsføre
marknadsføring
marknadsført
marknadsførte
marks
markus
marlborough
marley
marmor
marne
marokko
maroon
marquis
marr
mars
marsden
marseille
marsh
marshall
marsj
marsjen
marsjerte
marskalk
marta
marte
martha
martin
martina
martinez
martinsen
marty
martyn
martyr
marvin
marx
mary
maryland
mas
masfjorden
mask
maske
masker
maskin
maskina
maskinane
maskinar
maskinen
maskiner
maskingevær
maslin
mason
mass
massachusetts
massacre
massakren
massakrerte
massane
masse
massen
massey
massif
massiv
massive
massivet
massivt
mast
masta
master
mastergrad
mastering
masters
mastra
masøy
mat
mata
matar
matartikkelen
matchvinnar
mate
mateh
matematikar
matematikarar
matematikaren
matematikk
matematikken
matematisk
matematiske
maten
mater
material
materialar
materiale
materialet
materials
materie
materiell
materielle
mathbb
mathbf
mathematical
mathematics
mathias
mathilde
mathis
mathisen
mathrm
matias
matilda
matlaging
matre
matrikkelgard
matrix
mats
matsumoto
matt
matta
mattacks
matte
matter
matterhorn
matteus
matthew
matthews
matthias
matti
matvarer
maud
maudfjella
maudheimekspedisjonen
maur
maurarane
maureen
maurice
mauritania
mauritius
mawson
max
maxi
maximianus
maximilian
maxwell
may
maya
mayall
maybe
mayen
mayer
maynard
mayo
mayor
mb
mbox
mc
mca
mcbrain
mccarthy
mccartney
mccormick
mccoy
mcculloch
mcdonald
mcfarland
mcgarrigle
mcgee
mcgraw
mcguinn
mckay
mclaren
mclean
mcmurdo
mcvie
md
me
mean
meaning
means
meat
mechanics
mecklenburg
med
medal
medaljane
medaljar
medalje
medaljen
medals
medan
medarbeidar
medarbeidarar
medeigar
medforfattar
medføre
medfører
medførte
media
medical
medici
medicine
medieartikkelen
mediebedriftenes
medien
medier
mediet
medieval
medina
medisin
medisinar
medisinartikkelen
medisinsk
medisinske
mediterranean
medium
medlatskrivar
medlem
medlemane
medlemar
medlemene
medlemer
medlemmane
medlemmar
medlemmen
medlemmene
medlemmer
medlemmet
medlemskap
medlemsland
medlemslanda
medley
medprodusent
medrekna
medverka
medverkande
medverkar
medvit
medvite
meet
meeting
meets
meg
mega
megacharts
meget
meieri
mein
meine
meiner
meinig
meining
meininga
meiningar
meint
meinte
meir
meisner
meister
meisteren
meisterligaen
meisterskap
meisterskapane
meisterskapen
meisterverk
meistrar
mek
mekanikar
mekanikk
mekanisk
mekaniske
mekka
meksikansk
meksikanske
mektig
mektigaste
mektige
mel
meland
melanie
melbourne
melchior
meldal
melde
melding
meldinga
meldingane
meldingar
meldt
meldte
melhus
melissa
mellom
mellomalder
mellomalderen
mellombels
mellomengelsk
mellomkrigstida
mellomrom
mellomspel
mellomspelet
mellomstor
mellomstore
mellomtida
mellotron
melodi
melodiane
melodiar
melodien
melodifestivalen
melodisk
melodiske
melody
melsom
melville
meløy
member
members
membranen
memoir
memoirs
memorial
memories
memory
memphis
men
mendel
mendelssohn
mengd
mengda
mengde
mengder
menighet
menighetsrad
menn
mennene
menneska
menneske
menneskekroppen
menneskeleg
menneskelege
menneskeliv
mennesker
menneskerettar
menneskeskapte
mennesket
menneskja
menneskje
menomonee
menorca
mens
mental
mentale
menuett
mer
meraker
mercedes
mercer
mercia
mercury
mercy
mere
merete
meridianen
merk
merka
merkar
merke
merkeleg
merket
merksam
merksemd
merksemda
merkt
merkte
merkur
merkverdig
merle
merriam
merry
mersey
mesa
meson
mesopotamia
mesozoikum
messa
message
messe
messenger
messer
messias
messier
messina
messing
mest
mesta
meste
mesteparten
mestseljande
met
meta
metacritic
metafor
metal
metall
metallet
metallica
metallisk
metan
meteor
meteorolog
meteorologi
meteorological
meteorologisk
meteorologiske
meteorology
meter
meteren
meters
metheny
metodane
metodar
metode
metoden
metro
metrolyrics
metropolitan
metta
mette
metz
mexican
mexico
meyer
meyers
mf
mfl
mg
mgm
mgp
mh
mhz
mi
mia
miami
mic
mich
michael
michel
michelangelo
michele
michelet
michelle
michelsen
michigan
mick
mickey
microsoft
mid
middag
middel
middelalder
middelalderske
middelhavet
middelhavsklima
middels
middeltemperatur
middeltemperaturen
middelvassføring
middelvassføringa
middle
middlesex
middleton
midgard
midi
midla
midlands
midlar
midlare
midler
midnatt
midnight
midt
midtausten
midtbanen
midtbanespelar
midten
midtpunktet
midtre
midtstoppar
midttun
midtvegs
mifflin
mig
might
mighty
migrasjon
migration
miguel
mika
mikael
mike
mikhail
mikkel
mikkelsen
mikrofonar
mikroorganismar
miks
miksa
miksar
miksen
miksing
mil
mila
milan
milano
mild
mildare
milde
mildt
mile
miles
milestone
milford
militante
military
militær
militærartikkelen
militærdistrikt
militære
militæret
militærkomiteen
militærkupp
militært
militærteneste
miljø
miljøet
miljøvern
miljøverndepartementet
milk
mill
millennium
miller
milliard
milliardar
millimeter
million
millionar
millioner
millom
mills
milt
milton
milwaukee
mimi
min
mina
mind
mindat
minde
mindre
mindretal
minds
mine
miner
mineral
minerala
mineralet
mineralogi
mineralogy
minerva
ming
mingus
mini
minimal
minimum
mining
minister
ministry
minka
minkande
minkar
minna
minnar
minnast
minne
minneapolis
minneord
minner
minnesmerke
minnesota
minnestein
minnet
minogue
minor
minoris
minoritet
minoritetar
minoritetssprak
minsk
minska
minst
minste
mint
minus
minute
minutes
minutt
minuttar
mio
miocen
mir
mira
miracle
miracles
miranda
miriam
mirror
misbruk
misjon
misjonær
misjonærar
mislikte
mislukka
mislukkast
mislykka
misnøgd
misnøgde
misnøye
miss
missa
missil
missile
missilet
missing
mission
mississippi
missouri
mist
mista
mistanke
mistar
miste
mistenkte
mister
mit
mitch
mitchell
mito
mitt
mittelland
mix
mixed
mj
mjelde
mjuk
mjukare
mjuke
mjukt
mjøl
mjølk
mjølka
mjølkevegen
mjøndalen
mjøsa
mk
ml
mm
mn
mo
moa
moberg
mobil
mobile
moby
mod
mode
model
modell
modellane
modellar
modellen
modena
moderat
moderate
modern
moderne
modernisert
modest
modi
modifisert
module
modum
modus
moe
moen
mogeleg
mogelege
mogleg
moglege
moglegheit
moglegvis
moh
mohammad
mohammed
mohn
mohr
moi
mojo
mol
moland
molde
moldova
mole
molecular
molekyl
molekyla
molina
moll
molland
molly
moltke
moment
moments
mon
mona
monaco
monaleg
monark
monarkar
monarken
monarki
monarkiet
monchengladbach
monday
monde
money
mongolane
mongolia
mongolsk
mongolske
monica
monika
monitor
monk
monkees
monkey
monn
mono
monogame
monopol
monrad
monroe
mons
monsen
monster
monsters
monsunen
mont
montana
monte
montedio
montenegro
monterey
montert
monterte
monteverdi
montevideo
montgomery
month
monthly
montpellier
montreal
montreux
montserrat
monument
monumentale
monumentet
monuments
mood
moody
moog
moon
moonlight
moore
mor
mora
moral
morales
moralsk
moralske
moran
morava
moray
mord
mordet
more
moren
morfologi
morfologisk
morfologiske
morgan
morgen
morgenbladet
morges
morgon
morgonen
morioka
moritz
mork
morley
morning
moro
moroder
morris
morrison
morrissey
morrow
morse
morsmal
morsmalet
mort
morten
mortensen
mortensson
morton
mos
mosafinn
mosaikk
mosambik
moscow
mose
mosebok
moselle
moses
moshav
moshaven
moshe
mosjøen
moske
moskear
moskeen
moskva
moss
most
moster
mosul
mot
mote
moten
mother
mothers
motion
motiv
motiva
motivet
motor
motorane
motorar
motoren
motorhead
motoriserte
motors
motorveg
motorvegen
motown
motsetnad
motsetning
motsett
motsette
motstand
motstandar
motstandarane
motstandarar
motstandaren
motstanden
motstandsmann
motstandsrørsla
mott
motta
mottakar
mottakarar
mottakaren
mottaking
mottar
mottek
motteke
motteken
mottoet
mottok
motvillig
motzfeldt
mount
mountain
mountains
mouse
mouth
move
movement
moves
movie
movies
moving
mowinckel
mozart
mp
mq
mr
mrs
ms
mt
mtv
mu
mubarak
much
mud
muddy
muhammad
muhammed
muhlig
muldaur
mull
muller
multi
multimedia
multimedium
multiple
mumbai
munch
munchen
municipal
municipalities
municipality
municipiu
munk
munkane
munkar
munken
munn
munnar
munnen
munningen
munnleg
munnlege
munnspel
munro
munster
munthe
muntii
mur
mura
murane
murar
murcia
murder
muren
muri
murmansk
murphy
murray
murstein
mus
musa
muscat
muscle
muse
musea
musee
museet
museum
museums
music
musica
musical
musichound
musician
musicians
musicline
musicoutfitters
musiikkituottajat
musik
musikal
musikalar
musikalen
musikalsk
musikalske
musikar
musikarane
musikarar
musikaren
musikindustrie
musikk
musikkalbum
musikkarrieren
musikkartikkelen
musikken
musikkgruppa
musikkgruppe
musikkindustrien
musikkinstrument
musikkmagasinet
musikkmiljøet
musikkonservatoriet
musikkpressa
musikkstilar
musikkstilen
musikkstykke
musikkvideo
musikkvideoar
musikkvideoen
musique
musklar
muslim
muslimane
muslimar
muslimsk
muslimske
muslingar
mussolini
must
mustafa
mv
mw
mx
my
myanmar
mycena
mye
myers
myhre
myhren
mykje
mykland
myklebust
myllarguten
mynde
mynt
myntar
mynten
myotis
myr
myra
myrda
myrdal
myrer
myrlendt
myromrade
myself
myspace
mysteriet
mysterium
mystery
mystisk
mystiske
mytar
myte
myter
myth
mythology
mytiske
mytologi
mytologien
mytologiske
mz
møblar
mølle
møller
mønster
mønsteret
mønstra
møre
mørk
mørkare
mørke
mørket
mørkt
møta
møtast
møte
møter
møtest
møtet
møtt
møtte
møttest
n
n0
n1
n2
n3
n4
n5
n6
n7
n8
n9
na
naar
nabla
nablus
naboane
nabokommunane
nabolag
nabolaget
nabolanda
nabolandet
naboøya
nach
nacional
nad
nadd
nadde
nade
nadu
nagano
nagasaki
nagoya
nahal
nahiya
nahiyah
nails
naipaul
naked
naken
nakke
nakken
nakne
nal
nam
namdalen
name
named
names
namibia
namn
namna
namneboka
namnedag
namnestatistikk
namnet
namngav
namngjeve
namngjeven
namngjevne
namnsett
namsos
namur
nan
nana
nancy
nanjing
nannestad
nanny
nansen
nantes
napier
napoleon
napoleonskrigane
napoli
nar
narkotika
narr
narva
narve
narvik
nasa
nasaret
nase
naselenija
nasen
nash
nashville
nasjon
nasjonal
nasjonalbiblioteket
nasjonale
nasjonalforsamlinga
nasjonalgalleriet
nasjonalisme
nasjonalistiske
nasjonalitetar
nasjonalmuseet
nasjonalpark
nasjonalparkar
nasjonalparken
nasjonalsong
nasjonalsongen
nasjonalsymbol
nasjonalt
nasjonane
nasjonar
nasjonen
nassau
nasser
nat
natalia
natalie
natfinals
nathan
nathaniel
nation
national
nationale
nationaltheatret
nationen
nations
native
nato
natrium
natsionalen
natt
natta
nattehimmelen
natten
nattverden
natur
natural
naturbasen
nature
naturen
naturforskar
naturgass
naturhistorisk
naturleg
naturlege
naturomrade
naturpark
naturreservat
naturreservatet
naturressursar
naturvitskap
naturvitskaplege
naud
naudsynt
naudsynte
nauru
naust
naustdal
nautisk
nautiske
naval
navarra
navigasjon
navigatør
navn
navnekomite
navy
naxos
nazi
nazionale
nazistane
nazistiske
nb
nbc
nbl
nbsae
nc
ncbi
nd
ne
nea
neal
near
nebb
nebbet
nebraska
necessary
neck
ned
nedanfor
nedbryting
nedbør
nedbøren
nedbørsnormal
nede
nedenes
nederlag
nederlaget
nederland
nederlanda
nederlandse
nederlandsk
nederlandske
nederlendarane
nedgang
nedgangen
nedkjempa
nedlagd
nedlagde
nedlagt
nedlasting
nedover
nedre
nedrykk
nedsetjande
nedsett
nedskrift
nedskrifter
nedskriven
nedskrivne
nedslagsfelt
nedslagsfeltet
nedslagskrater
nedst
nedste
nedstilt
nedteikna
need
needle
needs
negativ
negative
negativt
negev
negevørkenen
negro
nei
neil
neill
nekrolog
nekta
nektar
nelson
nemleg
nemna
nemnast
nemnd
nemnde
nemne
nemner
nemning
nemninga
nemningane
nemningar
nemnt
nemnte
neo
neon
nepal
neppe
neptun
neptune
nero
nervesystemet
nes
neset
nesheim
nesmith
nesna
nesodden
ness
nesseby
nesset
nest
neste
nesten
nestformann
nestkommanderande
nestleiar
nestor
nesttun
nesøya
net
netherlands
nett
nettavisen
nettbaserte
netter
nettet
nettkjenningar
netto
nettoopplag
nettoopplaget
nettopp
nettsida
nettside
nettsidene
nettsider
nettstad
nettstaden
nettstader
nettsted
nettverk
nettverket
network
neu
neuchatel
neue
neuerscheinungen
neumann
neva
nevada
neve
never
neville
nevis
nevø
nevøen
new
newcastle
newfoundland
newman
newport
news
newsletter
newspaper
newton
newzealandsk
newzealandske
next
nf
ng
ngati
ngc
nh
ni
niande
niandeplass
niandeplassen
niarskrigen
nic
nicaragua
nice
nicholas
nichols
nicholson
nicht
nick
nicks
nicky
nico
nicol
nicolai
nicolas
nicolay
nicole
nidaros
nidarosdomen
niederosterreich
niedersachsen
niels
nielsen
nigel
niger
nigeria
night
nightmare
nights
niigata
nikita
nikkel
nikolai
nikolaj
nikolas
nikolaus
nikon
nile
nilen
nils
nilsen
nilssen
nilsson
nimrod
nina
nine
nino
nintendo
nir
nirvana
nissedal
nissen
nite
nitrogen
nittedal
nitten
nitty
niue
niva
nivaa
nivaet
nixon
nizjnij
nj
nk
nkp
nl
nm
nme
nn
nnkf
no
noaa
noah
nobel
nobelprisen
nobelprisvinnar
nobelprize
nobels
noble
nobody
noddy
noe
noel
noen
noir
noise
noize
nok
noka
noko
nokon
nokonsinne
nokosinne
nokre
noksa
nolevande
nomadiske
nome
nomenclature
nominatforma
nominativ
nominelle
nominert
nominerte
non
nonesuch
noord
nor
nora
norbert
nord
nordahl
nordamerikansk
nordamerikanske
nordaust
nordaustkysten
nordaustleg
nordaustlege
nordaustover
nordaustre
nordaustsida
nordberg
nordby
nordbø
norddal
norden
nordenden
nordenfjeldske
nordens
nordenskjold
norderhov
nordfjord
nordfjordeid
nordfjorden
nordhordland
nordic
nordishavet
nordisk
nordiska
nordiske
nordkapp
nordkysten
nordland
nordlands
nordlandsbanen
nordleg
nordlegaste
nordlege
nordli
nordlys
nordmann
nordmannen
nordmarka
nordmenn
nordmennene
nordmøre
nordnes
nordnorsk
nordnorske
nordom
nordover
nordpolen
nordre
nordreisa
nordrhein
nordsamisk
nordsida
nordsjøen
nordstoga
nordstrand
nordveggen
nordvest
nordvestenden
nordvestkysten
nordvestlege
nordvestover
nordvestre
nordvestsida
nordøya
nore
noreg
noregs
noregsmeister
noregsmeisterskap
noregsmeisterskapen
noregsrekorden
norfolk
norge
norges
norgeskart
norheimsund
norli
norm
norma
normal
normalar
normalbakken
normale
normalen
normalt
norman
normandie
normann
normannarane
normannisk
normanniske
normer
norra
norrbotten
norrbottens
norris
norrøn
norrøne
norrønt
norsk
norske
norskehavet
norskekysten
north
northern
northland
northug
northumberland
norton
nortraship
norvegia
norvegicum
norway
norwegen
norwegian
norwegiancharts
norwich
nos
not
notar
notat
note
notert
noterte
notes
nothing
nothoscordum
notid
notida
notodden
notorious
notre
nottingham
nou
nouveau
nouvelle
nov
nova
novaja
novel
novella
novelle
noveller
novellesamling
novellesamlinga
november
noverande
novgorod
novi
novo
novosibirsk
novus
now
nowhere
np
npr
nq
nr
nrk
nrks
nrt
ns
nsb
nsd
nsf
nsr
nssdc
nsw
nt
ntb
nth
ntnu
nu
nuclear
nucleus
null
numb
number
numbered
numbering
numbers
numedal
numerisk
nummer
nummererte
nummeret
nun
nunatak
nunatakar
nunataken
nunataks
nur
nurnberg
nv
nve
nw
nx
ny
nya
nyare
nyaste
nyborg
nybygde
nybyggjarane
nybyggjarar
nye
nyfødde
nygaard
nygaardsvold
nygard
nyhende
nyheter
nyhus
nyinnspeling
nyinnspelingar
nyland
nyleg
nymastra
nynorsk
nynorske
nynorsken
nynorskordboka
nyoppretta
nyskapande
nyt
nytimes
nytt
nytta
nyttar
nyttast
nytte
nytter
nyttig
nyttige
nyutgjeving
nyutgjevinga
nz
nzgsae
nær
nærare
nærast
næraste
nærbø
nære
næring
næringa
næringar
nærings
næringsdrivar
næringskomite
næringskomiteen
næringsliv
næringslivet
næringsmiddel
næringsmiddelindustri
næringsstoff
næringsveg
nærleiken
nærliggande
nærliggjande
nærma
nærmar
nærmare
nærmast
nærmaste
nærme
nærskyld
nærskylde
nærskyldt
nært
nærøy
næss
nødvendig
nødvendige
nødvendigvis
nøgd
nøgde
nøkkel
nøkkelen
nøtter
nøtterøy
nøyaktig
nøyaktige
nøydd
nøye
nøytral
nøytrale
nøytralt
nøytron
o
o0
o1
o2
o3
o4
o5
o6
o7
o8
o9
oa
oak
oakland
oasen
oasis
oates
ob
obama
oberland
oberosterreich
oberst
oberstdorf
oberstløytnant
obituary
object
objects
objekt
objekta
objektet
oblast
oblastet
obligatorisk
obligatoriske
obo
oboar
observasjon
observasjonane
observasjonar
observations
observatoire
observatoriet
observatorio
observatorium
observatoriumet
observatory
observatør
observatørar
observer
observere
observert
observerte
oc
occasion
occupied
ocean
oceanic
oceans
och
oclc
oct
october
od
oda
odal
odd
odda
odde
oddity
oddmund
odds
oddvar
ode
odelstinget
odense
odeon
oder
odessa
odetta
odin
odyssey
oe
of
off
offensiv
offensiven
offentleg
offentlege
offentleggjorde
offentleggjort
offentlige
offer
offera
offeret
office
official
officialcharts
offiser
offiserane
offiserar
offiseren
offisiell
offisielle
offisielt
offiziellecharts
offshore
ofoten
ofra
oftare
oftast
ofte
oftedal
og
ogae
ogg
ogsa
ogso
oh
ohio
oi
oil
oise
oita
oj
ok
oka
okayama
okhotskhavet
okkupasjon
okkupasjonen
okkupasjonsmakta
okkupert
okkuperte
oklahoma
okse
oksitansk
oksygen
okt
oktav
oktober
oktoberrevolusjonen
ol
ola
olaf
oland
olaug
olaus
olav
olavs
olavsson
old
olden
oldenburg
oldfield
oldham
oldtida
ole
olga
olimpbase
olis
olive
oliveira
oliven
olivenolje
oliver
olivia
olivier
olja
olje
oljefelt
oljeraffineri
olof
olsen
olsenbanden
olson
olsson
oluf
olympedia
olympia
olympiastadion
olympic
olympics
olympique
olympische
olympisk
olympiske
olympus
om
oman
omar
omarbeidd
omarbeidde
ombord
ombygd
ombygging
ombygginga
omdanna
omdirigerer
omdiskutert
omdøypt
omega
omegn
omfang
omfanget
omfatta
omfattande
omfattar
omfatte
omforma
omframstortinget
omgang
omgangar
omgangen
omgjeve
omgjeven
omgjevnadane
omgjevnader
omgjort
omgrep
omgrepa
omgrepet
omhandla
omhandlar
omiya
omkamp
omkom
omkomne
omkransa
omkring
omlag
omland
omleira
omleiring
omleiringa
omliggande
ommastra
omn
omnibus
omrada
omrade
omradet
omringa
oms
omsetjar
omsetjast
omsetjing
omsetjinga
omsetjingar
omsett
omsette
omsider
omsk
omslag
omslaget
omsorg
omstende
omstridd
omstridde
omstridt
omsyn
omtala
omtalar
omtale
omtalen
omtalt
omtalte
omtrent
omtrentleg
omvendt
omverda
on
once
one
ones
onkel
onkelen
online
only
ono
onsdag
onstad
ontario
oo
op
ope
open
openberring
opent
opera
operaen
operaene
operaer
operahuset
operasjon
operasjonane
operasjonar
operasjonen
operasongar
operation
operations
operativ
operative
operativsystem
operativsystemet
operatorname
opererer
operert
opererte
opium
opna
opnar
opnast
opne
opning
opninga
opningar
opningssporet
opp
oppa
oppatt
oppbygging
oppbygginga
oppdaga
oppdagar
oppdagarar
oppdagaren
oppdage
oppdaginga
oppdagingar
oppdagingsplassar
oppdal
oppdateringar
oppdatert
oppdaterte
oppdelt
oppdikta
oppdrag
oppdraget
oppe
oppegard
oppfatning
oppfatninga
oppfatta
oppfattar
oppfattast
oppfinnar
oppfinnaren
oppfinninga
oppfor
oppfordra
oppfordring
oppfunnen
oppfylle
oppfyller
oppfylt
oppfølgjar
oppfølgjaren
oppfører
oppføring
oppføringa
oppførsel
oppførselen
oppført
oppførte
oppgav
oppgava
oppgave
oppgavene
oppgaver
oppgitt
oppgjer
oppgjeret
oppgjev
oppgjeve
oppgjeven
oppgradert
opphald
opphaldet
opphav
opphavet
opphavleg
opphavlege
opphavsmannen
opphavsretten
oppheldt
oppheva
opphøgd
opphøyrde
oppi
oppkalla
opplag
oppland
oppleva
opplevd
opplevde
oppleve
opplever
oppleving
opplevinga
opplevingar
opplysningane
opplysningar
opplysningsvesenets
opplyst
opplæring
oppløysing
oppløysinga
oppløyst
oppløyste
oppmoda
oppmuntra
oppna
oppnadd
oppnadde
oppnar
oppom
opposisjon
opposisjonen
oppover
oppreist
oppretta
opprette
oppretthalde
opprettheldt
opprettinga
opprykk
opprør
opprøra
opprørarane
opprørarar
opprøret
opprørske
oppsett
oppsikt
oppskrift
oppskrifter
oppslag
oppslagsordet
oppslagsverk
oppslutning
oppsta
oppstanden
oppstar
oppstarten
oppstatt
oppstod
oppsving
opptak
opptaka
opptaket
opptatt
oppteken
opptekne
opptil
opptog
opptre
opptredd
opptredde
opptreden
opptredenar
opptrer
oppvaksen
oppvarma
oppvarming
oppvarminga
oppvekst
oppveksten
optikk
optisk
optiske
opus
oq
or
oral
orange
oransje
oras
oratorium
orbison
orchestra
orchidaceae
orchis
ord
orda
ordbog
ordbok
ordboka
ordbøker
orde
orden
ordenar
ordenen
order
ordet
ordforradet
ordførar
ordførarar
ordføraren
ordfører
ordinert
ordinær
ordinære
ordliste
ordna
ordnance
ordning
ordninga
ordovicium
ordre
ords
ordspel
ordtak
ore
orebro
oregon
orenburg
org
organ
organa
organet
organisasjon
organisasjonane
organisasjonar
organisasjonen
organisation
organisere
organisering
organiseringa
organisert
organiserte
organisk
organiske
organismar
organisme
organismen
organist
organisten
organization
orgel
orgelet
oricon
oriental
orientalske
orientering
orientert
orienterte
orig
origin
original
originale
originalen
originalt
originaltittel
originalversjonen
origins
orinoco
oriole
oriolus
orion
oristano
orkan
orkanar
orkanen
orkdal
orkester
orkesterarrangement
orkesteret
orkestrering
orkidefamilien
orkla
orkney
orknøyane
orknøyingasoga
orlando
orleans
ormen
ornament
ornithology
ornitologisk
oro
orography
ortodoks
ortodokse
ortografi
orwell
os
osa
osaka
osb
osborne
osbourne
oscar
ose
oseania
oseanografi
osen
oska
oskar
oske
oslo
oslofeltet
oslofjord
oslofjorden
oslos
osmanarane
osmansk
osmanske
oss
ossetia
ost
ostanhai
osten
osterbotten
ostergotland
ostergotlands
ostersund
osterøy
ostra
ostrov
osv
oswald
ot
otago
other
others
otis
otta
ottar
ottawa
ottesen
otto
ottoman
otus
ou
oude
our
out
outlaws
outside
ouverture
ov
oval
ovale
ovanfor
ovanfra
ovanom
ove
over
overalt
overdose
overdrive
overflata
overflate
overflateareal
overflod
overfor
overføra
overførast
overføre
overfører
overføring
overført
overførte
overgang
overgangen
overgav
overgje
overgrep
overhalla
overhuset
overkant
overlappande
overlappar
overlet
overleva
overlevande
overlevd
overlevde
overleve
overlever
overlevert
overnatting
overnaturlege
overordentlege
overordna
overraska
overraskande
overs
oversida
overside
oversikt
oversjøiske
oversyn
overta
overtalte
overtatt
overteke
overteken
overtok
overture
overtydd
overtydde
overvaka
overvaking
overview
overvintra
overvintrar
overvintring
ow
owen
owens
owl
own
ownership
ox
oxford
oxfordshire
oy
oz
p
p0
p1
p2
p3
p4
p5
p6
p7
p8
p9
pa
paa
paal
pablo
pabyrja
pacific
pack
package
padova
padrivar
pafølgjande
paført
pagaande
pagar
page
pages
pagjekk
paice
pain
paint
painting
paisley
pakistan
pakistansk
pakistanske
pakka
pakta
pal
palace
palais
palass
palasset
palau
palazzo
pale
palegg
paleontolog
paleozoikum
palermo
palestina
palestinamandatet
palestinarane
palestinarar
palestine
palestinian
palestinsk
palestinske
palisa
pallas
pallen
palm
palma
palmer
palmerston
pamela
pan
panama
panel
panic
panjab
panjabi
pankow
panna
panne
panorama
panozzo
pansra
pantheon
paolo
papa
papas
paper
paperback
papers
papir
papiret
papua
par
para
parade
paradis
paradise
paradox
parafin
paraguay
parallell
parallelle
parallelt
parameter
parameteren
paramount
parasittar
parc
parentes
paret
paris
parish
park
parkar
parken
parker
parks
parlament
parlamentarisk
parlamentariske
parlamentet
parlamentsmedlem
parlamentsvalet
parliament
parlophone
parma
parodi
parra
parrot
parry
parsons
part
partane
partar
parten
partenkirchen
parti
partia
partial
partido
partiet
partikkel
partikkelen
partiklane
partiklar
partileiar
partisipp
partitur
partner
parton
partridge
parts
party
parvis
pas
pascal
pasha
pasientane
pasientar
pasienten
paske
pass
passa
passage
passande
passar
passasjar
passasje
passasjer
passasjerane
passasjerar
passe
passer
passere
passerer
passeriformes
passert
passerte
passet
passion
passiv
passive
past
pastandar
pastanden
pastatt
paste
pasteur
pastorius
pat
patent
paterson
path
patriark
patriarken
patricia
patrick
patriotisme
pattedyr
pattedyra
patterns
patterson
patti
patty
pauke
paul
paula
pauli
pauline
paulo
paulsen
paulus
paus
pause
pausen
pave
pavel
paven
paverka
paverkar
paverke
paverknad
paverknaden
pavist
paviste
pax
payne
pays
paz
pb
pbs
pc
pcbs
pd
pdf
pds
pe
peace
peacock
peak
peakbagger
peaks
pearl
pearson
peart
pedagog
pedagogikk
pedagogisk
pedagogiske
pedal
pedalsteelgitar
peder
pedersen
pedro
peel
peer
pegasus
pegg
peggy
peika
peikar
peiker
peikte
pekka
pelagisk
pelle
peloponnes
pels
pelsen
pen
pendlar
pengane
pengar
penguin
peninsula
penn
pennsylvania
penny
pensacolafjella
pensjon
pensjonert
pensjonerte
pensjonskomiteen
pentangle
people
peoples
pepar
pepper
peppers
per
percy
pere
perepis
perez
perfect
perfekt
perfekte
perfektum
performance
performing
periferieininga
periferien
period
periodane
periodar
periode
perioden
periodesystemet
periodisk
periodiske
perkins
perkusjon
perkusjonist
perler
perm
permanent
permanente
permisjon
permittert
pernille
perry
persarane
persia
persiabukta
persian
persisk
persiske
person
personal
personane
personar
personbeste
personell
personen
personer
personleg
personlegdom
personlege
personnamn
perspective
perspectives
perspektiv
persson
perth
peru
peruanske
pest
pesten
pet
pete
peter
peters
petersburg
petersen
peterson
petit
petite
petra
petrel
petri
petroleum
petsjora
petter
pettersen
petty
petula
pf
pfalz
pg
pga
ph
phalacrocorax
phantom
phd
phi
phil
philadelphia
philharmonic
philip
philipp
philippe
philips
phillip
phillips
philol
philos
philosophical
philosophy
phoenix
phonographic
phonographique
phononet
photo
photos
php
phylloscopus
phylogenetics
phylogeny
physical
physics
physiology
pi
pia
piacenza
pianist
pianisten
piano
pianoet
pianokonsert
pic
picasso
pick
pickett
picks
pico
picture
pictures
pie
piece
pieces
pied
piemonte
pierce
piero
pierre
pieter
pietro
pig
pihl
pike
pil
pilatus
pilegrimar
pilgrim
pilot
pimlico
pin
pinder
pine
pingvinar
pink
pinnar
pinus
pinyin
pioneer
pioner
pionerane
pionerar
pip
pipe
piper
pipes
pirates
pireus
pisa
pistol
pistols
pitchfork
pitt
pitta
pittsburgh
piu
pius
piz
pizarro
pizza
pizzo
pj
pjotr
pk
pl
place
places
placid
plaga
plagg
plain
plains
plan
planane
planar
planck
plane
planen
planer
planet
planetane
planetar
planetary
planeten
planets
planica
plank
planla
planlagd
planlagde
planlagt
planlegging
planlegginga
planning
plans
plant
planta
plantane
plantar
plantasjar
plante
planteartar
planteliv
plantelivet
planten
plantene
planter
planteslekt
plants
plar
plasma
plass
plassane
plassar
plassen
plassera
plasserast
plassere
plasserer
plassering
plasseringa
plasseringar
plassert
plasserte
plast
plastic
plata
plataet
plate
plateau
plateboks
plateboksen
platekontrakt
platene
plateomslag
plateomslaget
plateprodusent
plater
plateselskap
plateselskapet
platestudio
platin
platina
platinaplate
platinum
platon
platters
plattform
plattforma
play
playboy
played
player
players
playing
plays
playstation
please
pleasure
pleistocen
plenty
plikt
plikter
plinius
pliocen
plo
plovdiv
plukka
plukkar
plukke
plus
pluss
pluto
plutseleg
plymouth
plyndra
pm
pmc
pmid
pn
po
pocket
poco
poe
poems
poeng
poenga
poengsum
poesi
poesien
poet
poeten
poetisk
poetiske
poetry
poets
point
pointe
pointer
points
poison
pokal
pokalen
pol
polakkar
poland
polane
polar
polare
polarinstitutt
polaris
polarsirkelen
pole
polen
police
policy
polish
politi
political
politics
politidistrikt
politiet
politikar
politikarar
politikararkiv
politikaren
politikk
politikkartikkelen
politikken
politimann
politisk
politiske
poll
pollen
pollock
pollux
polsk
polske
poltava
polydor
polygon
polygram
polynesia
polynom
pommern
pompeii
pompeius
pond
pont
ponte
pontoppidan
ponty
pool
poole
poor
pop
pope
poplista
popmatters
popmusikk
popol
pops
popsong
popsongar
popular
popularitet
populariteten
populasjon
populasjonar
populasjonen
populatia
population
populations
populær
populære
populærmusikk
populært
porcaro
porsanger
porselen
porsgrunn
port
portal
portalen
portane
porten
porter
portland
porto
portrait
portrett
portrettet
portsmouth
portugal
portugisarane
portugisisk
portugisiske
poseidon
posisjon
posisjonane
posisjonar
posisjonen
position
positions
positiv
positive
positivt
possible
post
posten
posthumt
postkontor
postkort
pot
potensial
potensialet
potensiell
potensielle
potensielt
potential
potet
poteter
potsdam
potter
poul
pound
pour
pourquoi
povey
powell
power
powers
pp
pq
pr
practical
practice
pradesh
praha
prairie
praksis
praksisen
praktisert
praktiserte
praktisk
praktiske
prato
pratt
prayer
pre
predatorar
prefecture
prefektur
prefekturet
prefiks
preg
prega
pregar
prege
preget
preika
preikestol
preikestolen
preludium
premier
premiere
premieren
prenta
prentice
presens
present
presentasjon
presenterer
presentert
presenterte
presents
preservation
president
presidentar
presidenten
presidentvalet
presis
presise
presisjon
presist
presley
press
pressa
pressar
presse
pressemelding
pressen
presset
pressure
prest
prestane
prestar
prestasjon
prestasjonane
prestasjonar
prestasjonen
prestegard
prestegarden
prestegjeld
prestegjelda
prestegjeldet
presten
presterte
prestetenesta
prestige
preston
preteritum
pretty
preussen
price
pride
priest
prima
primary
prime
primitiv
primitive
primstaven
primær
primære
primærfaktor
primært
prince
princess
princeton
principe
principles
pringle
prins
prinsen
prinsessa
prinsesse
prinsipp
prinsippa
prinsippet
print
printing
prior
pris
prisane
prisar
prisen
prisoner
prisvinnarar
privat
private
privatlandskamp
privilegium
prix
prize
pro
problem
problema
problematisk
problemet
problems
proceedings
procol
producer
producers
production
productions
products
produksjon
produksjonar
produksjonen
produkt
produkta
produktet
produktiv
produktive
produsent
produsentane
produsentar
produsenten
produsera
produsere
produserer
produsert
produserte
profesjonell
profesjonelle
profesjonelt
professor
professoren
profet
profeten
profil
profile
profitt
prog
program
programleiar
programleiarar
programma
programme
programmering
programmet
programvare
progress
progressiv
progressive
project
projected
prometheus
promise
promo
promontory
pronomen
propaganda
prophet
proporsjonal
prosa
prosent
prosess
prosessane
prosessar
prosessen
prosjekt
prosjekta
prosjektet
prosjektleiar
prost
prosten
prosti
prostiet
protea
protection
protein
protektorat
protest
protestantar
protestantisk
protestantiske
protestar
protesterte
proto
protokollkomiteen
proton
prototypen
proud
prov
prova
provence
proverbs
province
provincia
provins
provinsane
provinsar
provinsen
provinshovudstad
provinshovudstaden
provisoriske
prudence
prøva
prøvar
prøvd
prøvde
prøve
prøver
prøysen
prøyssarane
prøyssisk
prøyssiske
ps
pseudonym
pseudonymet
psevdonymet
psi
pskov
psv
psychedelic
psychology
psykedelisk
psykedeliske
psykisk
psykiske
psykolog
psykologi
psykologisk
psykologiske
pt
ptolemaios
pu
pub
public
publication
publications
publikasjonar
publikum
publikummet
publisere
publisert
publiserte
published
publisher
publishers
publishing
puccini
puerto
puffinus
puglia
pull
puls
pulse
pumpa
pund
punjab
punk
punkrock
punkt
punkta
punktet
punta
pure
purple
push
pushing
pusjkin
pussa
put
putin
putnam
pv
pw
px
py
pye
pyeongchang
pyle
pynt
pynta
pyramid
pyramideforma
pyreneane
pyrenees
python
pz
q
q0
q1
q2
q3
q4
q5
q6
q7
q8
q9
qa
qaida
qatar
qb
qc
qd
qe
qf
qg
qh
qi
qigong
qin
qing
qj
qk
ql
qm
qn
qo
qp
qq
qr
qs
qt
qu
quad
quality
quantum
quarter
quarterly
quartet
quaternary
quatro
quds
que
quebec
quechua
queen
queens
queensland
quest
question
questions
qui
quick
quiet
quietus
quincy
quinn
quintet
quisling
quito
quo
quotations
qv
qw
qx
qy
qz
r
r0
r1
r2
r3
r4
r5
r6
r7
r8
r9
ra
raade
rabbit
rabin
race
races
rachel
racing
rad
rada
radal
radande
radar
radcliffe
radde
rade
rader
radet
radgjevande
radgjevar
radhus
radhuset
radiation
radikal
radikale
radikalt
radio
radioaktiv
radioaktive
radioaktivt
radioen
radiohead
radioprogram
radioprogrammet
radiostasjonar
radiostasjonen
radius
radiusen
rads
radøy
raf
rafael
rafferty
rag
ragar
rage
ragna
ragnar
ragnarok
ragnhild
ragnvald
rahman
rai
raid
raiders
rail
railroad
railway
rain
rainbow
rainer
raised
raitt
rajasthan
rajon
rak
raka
rakar
rake
rakett
rakettar
rakiura
rakk
rakkestad
raknes
ralf
rally
ralph
ram
rama
ramallah
ramat
ramen
ramla
ramma
ramme
ramon
ramone
ramones
ramsar
ramsau
ramsay
ramsey
ran
rana
rand
randaberg
randall
randers
randi
randis
randolph
random
randy
rang
range
rangering
rangers
rangert
rangerte
ranges
ranheim
rann
raolje
rap
raphael
rapid
rapport
rapportar
rapporten
rapportert
rapporterte
rar
rare
rart
ras
rasa
rasande
rasar
rase
rasen
raset
rashid
rasisme
rask
raskare
raskast
raskaste
raske
raskt
rasmus
rasmussen
raste
rastoff
rat
rate
rather
ratifisert
rating
rats
rattle
raud
raudbrun
raudbrune
raude
raudehavet
raudleg
raudlista
raudliste
raudt
raufoss
rauk
raul
rauland
rauma
ravarer
rave
ravel
raven
ravenna
ravi
raw
ray
rayman
raymond
rb
rc
rca
rd
re
rea
reach
read
reader
reading
ready
reagan
reagerer
reagerte
reaksjon
reaksjonar
reaksjonen
real
realisert
realisme
realismen
realistisk
realistiske
realiteten
reality
really
reason
reasons
rebecca
rebel
rebellion
recent
record
recorded
recorders
recording
recordings
records
recovery
red
redaksjonen
redaktør
redaktørar
redaktøren
redd
redda
redde
redding
redigering
redigert
redigerte
redningsselskapet
reds
reduksjon
redusera
redusere
reduserer
redusert
reduserte
ree
reed
reef
reell
reelle
reelt
rees
reeves
ref
referansar
referanse
referansen
reference
referer
referere
refererer
referert
refererte
reflections
refleksjon
reflekterer
reflektert
reflekterte
reform
reforma
reformasjonen
reformer
refreng
refrenget
refugee
reg
regel
regelen
regelmessig
regelmessige
regent
reggae
reggio
regi
regime
regiment
regimentet
regimet
regina
reginald
region
regional
regionale
regionalt
regionane
regionar
regionen
regionreforma
regions
regissert
regisserte
regissør
regissøren
register
registeret
registrering
registrert
registrerte
registry
regjerande
regjering
regjeringa
regjeringar
regjeringen
regjeringstid
regjeringstida
regjerte
reglane
reglar
regn
regnet
regnskog
regnskogen
regntida
regulere
regulerer
regulering
regulert
regulerte
regulære
rehabilitering
reiarlag
reiarlaget
reich
reichenow
reid
reidar
reignier
reilly
reims
rein
reindrift
reine
reinhard
reinhardt
reinhold
reiniger
reinmuth
reinsdyr
reinska
reint
reir
reira
reiret
reis
reisa
reisande
reise
reiseguide
reisen
reisene
reiser
reiskap
reiskapar
reissue
reissues
reist
reiste
reitan
reiv
rekka
rekke
rekkefølgje
rekkja
rekkje
rekkjefølgja
rekkjefølgje
rekkjer
rekkjevidd
reklame
rekna
reknar
reknast
rekne
rekning
rekonstruert
rekonstruksjon
rekord
rekordar
rekordbok
rekorden
rekruttert
rektor
relasjon
relasjonar
related
relatert
relaterte
relations
relationships
relativ
relative
relativitetsteorien
relativt
release
released
releases
relevant
relieff
religion
religionar
religionen
religions
religionsartikkelen
religious
religiøs
religiøse
religiøst
remains
remastered
remember
remiksa
remis
remix
remus
ren
rena
renaissance
renate
renault
renberg
renbourn
rendalen
rene
renee
renessanse
renessansen
renn
renna
rennande
renne
rennebu
rennesøy
rennet
renovert
reparasjon
reparasjonar
reparert
repertoaret
repertoire
report
reporter
reports
represent
representant
representantane
representantar
representanten
representasjon
representative
representera
representere
representerer
representert
representerte
reprint
reprise
republic
republik
republika
republikanske
republikk
republikken
requiem
required
requires
res
rescue
research
researches
reservat
reservatet
reserve
reservoar
reservoaret
resett
residens
residents
resitativ
resolusjon
resolution
resort
resource
resources
respekt
respektert
respekterte
respektive
respons
response
ressursane
ressursar
rest
restane
restar
restaurant
restaurantar
restauranten
restaurering
restaureringa
restaurert
restaurerte
resten
resterande
restriksjonar
result
resultat
resultata
resultatet
resultatlista
resultatoversikt
resulterte
results
retning
retninga
retningane
retningar
retorikk
retoromansk
retrieved
rett
retta
rettane
rettar
rette
retten
rettferd
rettferdig
rettleiing
rettskriving
rettskrivinga
rettsleg
rettslege
rettssak
rettssaka
rettsvitskap
retur
return
returnerte
returns
reunion
reuss
reuters
rev
reveal
revealed
reveals
revelation
reven
revenge
revere
revidert
reviderte
review
reviews
revised
revisited
revisjon
revival
revolusjon
revolusjonen
revolusjonær
revolusjonære
revolution
revolver
revue
revy
rex
rey
reyes
reykjavik
reynolds
reysol
rf
rg
rh
rhapsody
rhein
rheinland
rhin
rhinen
rhino
rho
rhodes
rhone
rhythm
ri
riaa
ric
rica
ricardo
rice
rich
richard
richards
richardson
richie
richmond
richter
rick
ricky
rico
riddar
riddarane
riddarar
riddarordenen
riddle
ride
rider
riders
ridge
riding
ridpath
rif
riff
riffet
riftdalen
riga
riggs
right
righteous
rights
riis
riise
riiser
rik
rika
rikard
rikare
rikaste
rikdom
rike
rikeleg
riket
riksantikvaren
riksarkivet
riksdagen
riksdalar
riksforbund
riksforsamlinga
riksgrensa
rikshospitalet
rikskringkasting
riksmal
riksmalsforbundet
riksretten
riksvapen
riksvapenet
riksveg
riksvegen
rikt
riktig
riley
rim
rimeleg
rindal
ring
ringar
ringde
ringdrotten
ringebu
ringen
ringerike
ringnes
ringo
ringsaker
rio
riot
ris
rise
risiko
risikoen
rising
risk
rissa
rista
riste
risør
rita
ritchie
ritter
ritual
rituelle
riv
riva
rival
rivalen
rivaliserande
rive
riven
river
rivera
rivers
riverside
rivne
riyadh
rj
rjazan
rjukan
rk
rl
rm
rn
rna
ro
roa
road
roads
roald
roar
roasso
rob
robbie
robbins
robby
roberson
robert
roberta
robertchristgau
roberto
roberts
robertson
robeson
robin
robinson
robot
robust
roche
rochester
rock
rocka
rockabilly
rockeband
rockebandet
rockefeller
rockegruppa
rocken
rocker
rockesong
rockesongar
rocket
rockin
rocking
rocks
rocky
rod
rodeo
rodgers
rodney
rodos
rodriguez
roe
rogaland
rogan
roger
rogers
rogn
roi
roland
role
roleg
rolegare
rolege
rolf
rolfsen
roll
rolla
rollag
rolle
rollefiguren
rollene
roller
rollespel
rollin
rolling
rollingstone
rollo
rolls
rolv
rom
roma
romagna
roman
romanane
romanar
romance
romanen
romani
romania
romano
romansk
romanske
romantic
romantikken
romantisk
romantiske
romarane
romarar
romarriket
romartal
romartida
rome
romeo
romerike
romersk
romerske
romferja
romma
rommar
rommet
romsdal
romsdalen
romsdals
romsonden
romstasjonen
ron
ronald
rondane
rondo
ronne
ronnie
ronny
ronson
ronstadt
room
roosevelt
roots
rop
ropa
roppongi
ropte
ror
ros
rosa
rose
rosemary
rosen
rosenberg
rosenborg
rosendal
rosenkrantz
roses
rosetta
rosie
roskilde
ross
rossbarrieren
rosshavet
rossi
rossisen
roste
rostov
rot
rota
rotasjon
rotasjonen
roterande
roterer
roth
rother
rothschild
rotten
rotter
rotterdam
rouen
rouge
rough
round
rounder
rousseau
route
routledge
rovdyr
rovfuglar
rovi
row
rowan
rowling
rowman
roxy
roy
royal
royale
royce
rp
rpm
rq
rr
rrs
rs
rss
rsssf
rt
ru
rubber
ruben
rubin
ruby
rud
rudi
rudolf
rudolph
rue
rufous
rufus
rug
rugar
rugby
rugetida
ruhlmann
ruhpolding
ruhr
ruinane
ruinar
rule
rules
rulla
rum
rumensk
rumenske
rumours
rumped
run
runar
runaway
rund
runda
rundar
runde
runden
rundgren
rundt
rune
runeberg
runer
runner
runnin
running
runs
rupert
rural
rus
rush
rushdie
ruslan
russ
russarane
russarar
russel
russell
russia
russian
russisk
russiske
russland
russlands
rust
rusty
ruta
rute
rutene
ruter
ruth
rutherford
ruud
rv
rw
rwanda
rx
ry
ryan
rybak
rydda
rye
ryfylke
rygg
ryggar
rygge
ryggen
rygh
rykka
rykke
rykodisc
rykte
ryktet
rymill
rypdal
rytmar
rytme
rytmegitar
rytmen
rytmisk
rytmiske
ryukyu
rz
rælingen
røa
rød
røde
rødliste
rødøy
røldal
rømde
rømme
rønne
rønning
røra
røre
rører
røros
rørsla
rørsle
rørslene
rørsler
rørt
rørvik
røst
røtene
røter
røye
røyk
røyken
røynda
røyndomen
røynsle
røyr
røyret
røyrvik
røyst
røysta
røyste
røystene
røyster
røysterett
s
s0
s1
s2
s3
s4
s5
s6
s7
s8
s9
sa
saa
saab
saale
saami
saba
sabbath
sabeltann
sabine
sachsen
sacred
sad
saddam
saddle
safe
safed
safety
saft
sag
saga
sagan
sagbruk
sage
sagen
sagene
sager
sagt
sahara
sahib
said
sail
sailing
sailor
saint
sainte
saints
sak
saka
sakalla
saken
sakene
saker
sakførar
sakha
sakhalin
sakna
sakprosa
saksiske
saksofon
saksofonist
saksofonisten
saksøkte
sakte
sal
salaam
saladin
salah
salangen
salat
salaverri
sale
saleh
saleis
salem
salen
sales
salet
salhus
salisbury
sally
salman
salmane
salmar
salme
salmebok
salmeboka
salmediktar
salmen
salmonsens
salomo
salomon
salon
salongen
salslista
salslistene
salstal
salstrofe
salt
salta
saltdal
salten
saltvatn
salvador
salvadori
salvesen
salvin
salzburg
sam
saman
samandrag
samane
samanheng
samanhengande
samanhengar
samanhengen
samanlagt
samanlikna
samanliknande
samanliknar
samanliknast
samanlikning
samansetjing
samansetjinga
samansett
samansette
samanslaing
samanslainga
samar
samara
samarbeid
samarbeida
samarbeidd
samarbeidde
samarbeide
samarbeider
samarbeidet
samarie
samband
sambandet
sambandsstatane
sambindingar
samd
samde
same
sameina
sameint
sameinte
sameleis
samer
samers
sametinget
samferdsel
samfunn
samfunna
samfunnet
samfunnsartikkelen
samfunnsfag
samfunnsvitenskapelig
sami
samisk
samiske
samla
samlaget
samlar
samlarar
samlast
samle
samlealbum
samlealbumet
samlede
samleomgrep
samleplata
samleplate
samleplater
samling
samlinga
samlingane
samlingar
samlinger
samlingspartiet
samløpet
sammallahti
samme
sammen
sammy
samnanger
samoa
samos
sampla
sample
sams
samskipnaden
samson
samspel
samstundes
samsvar
samsvarar
samt
samtalar
samtale
samtid
samtida
samtidig
samtidige
samtlege
samuel
samveldeleikane
samveldet
san
sana
sanborn
sanchez
sanctuary
sand
sandane
sandberg
sanddyner
sande
sandefjord
sanden
sander
sanders
sandnes
sandnessjøen
sandra
sands
sandstein
sandstrand
sandstrender
sandvik
sandvika
sandviken
sandwich
sandwichøyane
sandy
sandøy
sane
sanfrecce
sang
sanga
sangen
sanger
sanka
sankt
sann
sanna
sanne
sanning
sanninga
sannsyn
sannsynet
sannsynleg
sannsynlegvis
sanremo
sans
sanskrit
sant
santa
santana
santiago
santo
santos
sao
saone
sapass
sape
sapiens
sapmi
sapporo
sar
sara
sarah
sarajevo
saratov
sarbar
sarbare
sardegna
sardinia
sardisk
sargatal
sarpsborg
sars
sas
sassari
sat
satan
sataøen
satellite
satellitt
satellittar
satellittbilete
satellitten
satire
satirisk
satiriske
sato
sats
satsa
satsar
satse
satsen
satt
saturday
saturn
sau
saucerful
saud
sauda
saudi
saudiarabiske
sauer
sauherad
saul
saunders
saus
sava
savage
save
savel
savoie
savoy
saw
sax
saxo
saxon
say
says
sb
sc
scala
scale
scandinavian
scar
scarecrow
scarlet
scary
scena
scene
scenen
scener
scenes
schaatsen
schaffner
scheff
schibsted
schiller
schirmer
schjelderup
schlegel
schlesien
schlesiske
schleswig
schmidt
schmit
schneider
scholz
schon
school
schools
schubert
schulenberg
schultz
schulze
schumann
schuster
schutz
schwartz
schwarzwald
schweiz
schweizer
schwyz
sci
science
sciences
scientific
scientists
sclater
scora
score
scoresby
scotia
scotland
scott
scottish
scotty
scratch
scream
screaming
screen
scripts
scrolls
scruggs
scytalopus
sd
sde
se
sea
seal
sean
search
searchable
searchers
searle
seas
season
seasons
seattle
sebastian
second
seconds
secret
secretary
secrets
section
security
seder
sediment
sedimenta
sedimentære
see
seeds
seefeld
seeger
seele
seen
seg
sega
seger
segl
segla
seglar
segle
seglet
segling
seglskip
segment
segn
segna
segner
sei
seia
seiast
seie
seier
seigler
seim
sein
seinare
seinast
seinaste
seine
seinen
seinmellomalderen
seint
seip
sekretær
seks
seksdagarskrigen
seksjon
seksjonar
seksjonen
seksten
seksti
seksualitet
seksuell
seksuelle
seksuelt
sektor
sekulær
sekulære
sekund
sekundar
sekundet
sekundære
sekundært
sekvens
sekvensar
sel
selar
selbu
seld
selde
seldsjukkane
select
selected
selection
self
selfangarar
selja
selje
seljord
seller
sellers
selling
selma
selmer
selskab
selskap
selskapa
selskapet
selt
selte
selv
sem
semb
sement
semi
semifinalane
semifinalar
semifinale
semifinalen
seminar
semittiske
semje
sen
senatet
senator
send
senda
sendai
sendast
sende
sender
sending
sendinga
sendingane
sendingar
sendt
sendte
senegal
senegalia
seng
senga
senger
senior
senja
senka
senking
senkinga
sense
senter
sentera
senteret
senterpartiet
sentinel
sentral
sentralafrikanske
sentralbyra
sentrale
sentralnervesystemet
sentralstasjon
sentralstyret
sentralt
sentrert
sentrum
sentrumet
sentrumssoner
seoul
sep
separat
separate
sept
september
sequence
ser
seraphine
serbarar
serbia
serbisk
serbiske
seremoni
seremoniar
seremonielle
seremonien
serenade
serge
sergej
sergio
seriane
seriar
serie
seriegull
seriekampar
seriemal
seriemeister
seriemeisterskap
seriemeisterskapen
serien
serierunde
series
seriesystemet
serious
seriøse
serra
sersjant
sertifisert
servert
service
services
sesjonane
sesjonen
sesong
sesongane
sesongar
sesongen
sesongslutt
session
sessions
set
sete
seter
setesdal
setet
seth
setja
setjast
setje
setlista
setning
setninga
setningar
sett
setta
sette
settet
setting
settlement
settlements
seura
sevat
seven
seventh
seventies
several
severin
severus
sevilla
sex
sexe
sexy
seychellane
seymour
sf
sg
sgae
sgt
sh
sha
shaar
shackleton
shackletonkjeda
shade
shades
shadow
shadows
shah
shake
shakespeare
shall
shame
shams
shan
shandong
shane
shanghai
shankar
shannon
shapiro
sharjah
sharon
sharp
sharpe
shaw
shawn
she
shea
sheep
sheer
sheet
sheffield
sheikh
sheila
shelf
shell
shelley
shelly
shelter
shelton
shepard
shepherd
sheppard
sherlock
sherman
sherwood
sheryl
shetland
shetlandsøyane
shi
shimizu
shine
ship
shipping
ships
shirelles
shirley
shkoder
shoals
shock
shoes
shonan
shoot
shop
shore
short
shot
should
show
showet
shows
shropshire
shtml
shuffle
shut
si
siberia
siberian
sibir
sibirske
sic
sich
sichuan
sicilia
sid
sida
sidan
side
sidebre
sideelv
sideelva
sideelvane
sideelvar
siden
sidene
sider
sides
sideveg
sidney
sidon
sie
siecle
siege
siegfried
siemens
siena
sier
sierra
siffer
sig
sigbjørn
sigdal
siger
sigeren
sigerspallen
sight
sigismund
sigla
sigma
sigmund
sign
signa
signal
signalet
signalhandsaming
signe
signere
signert
signerte
signs
signy
sigra
sigrande
sigrane
sigrar
sigrid
sigur
sigurd
sigurdsson
sikh
sikhar
sikker
sikkert
sikra
sikre
sikt
sikta
sikte
sil
sild
silence
silent
silikat
siljan
silje
silk
silke
silur
silva
silver
sim
simbad
simeiz
simen
simeon
simmons
simon
simone
simonsen
simple
simply
simpson
simpsons
sims
sin
sina
sinai
sinatra
since
sinclair
sind
sindre
sine
sinfonia
sing
singapore
singel
singelen
singellista
singellistene
singelversjonen
singer
singers
singh
singing
singlane
singlar
single
singles
sings
sink
sinn
sinne
sint
sinus
sio
sion
sioux
siouxsie
siple
sir
sira
siracusa
sirdal
siri
sirius
sirkel
sirkelen
sirkelforma
sirklar
sirkulasjon
sirkumpolar
sirkus
sissel
sist
siste
sisteplass
sister
sisters
sistnemnde
sistnemnte
sit
sita
sitar
sitat
sitatet
sitatsamling
site
siterer
sitert
siterte
sites
sitja
sitjande
sitje
sitjeplassar
sitt
sitting
situasjon
situasjonar
situasjonen
siv
sivert
sivertsen
sivil
sivile
sivilingeniør
sivilisasjon
sivilisasjonar
sivilisasjonen
sivilt
sivle
six
sixties
size
sj
sja
sjaarane
sjaarar
sjaast
sjah
sjakk
sjakkblad
sjakkforbund
sjakkspelar
sjanger
sjangeren
sjangrar
sjanse
sjansen
sjef
sjefen
sjefredaktør
sjeik
sjekk
sjel
sjela
sjeldan
sjeldant
sjeldnare
sjeldne
sjette
sjetteplass
sjetteplassen
sjia
sjiamuslimar
sjiva
sjokolade
sjtsj
sju
sjuande
sjuandeplass
sjuandeplassen
sjuarskrigen
sjuk
sjukamp
sjukdom
sjukdomar
sjukdomen
sjukdommar
sjukdommen
sjuke
sjukehus
sjukehuset
sjukepleiar
sjur
sjælland
sjø
sjøane
sjøar
sjøen
sjøfart
sjøfarts
sjøfartsmuseum
sjøfolk
sjøforsvaret
sjøfugl
sjøfuglar
sjøhistorie
sjølv
sjølvbiografi
sjølvbiografien
sjølvbiografisk
sjølvbiografiske
sjølve
sjølvmord
sjølvoppkalla
sjølvsagt
sjølvstende
sjølvstendekrigen
sjølvstendet
sjølvstendig
sjølvstendige
sjølvstyre
sjølvstyresmakta
sjølvstyrt
sjølvstyrte
sjømann
sjømenn
sjørøvarar
sjøs
sjøsett
sjøslag
sjøvatn
sjøvegen
sk
ska
skaar
skada
skadane
skadar
skadd
skadde
skade
skadedyr
skadeleg
skaden
skader
skaffa
skaffe
skaft
skagen
skagerrak
skal
skala
skalaen
skald
skaldatal
skalden
skaldic
skalet
skam
skandinavia
skandinavisk
skandinaviske
skane
skanevik
skanland
skanna
skanse
skansen
skapa
skapar
skaparen
skape
skaper
skapinga
skapt
skapte
skar
skara
skard
skardet
skare
skarp
skarpe
skarpt
skatt
skattane
skattar
skattelister
skatten
skaun
skaut
skedsmo
skei
skeid
skeiseløpar
skeiser
skeptisk
ski
skidspelen
skien
skiensvassdraget
skies
skifer
skiffle
skiflyging
skifta
skiftande
skiftar
skifte
skihoppar
skihopping
skiidrett
skikk
skikkar
skikkeleg
skikken
skil
skild
skilde
skildra
skildrande
skildrar
skildrast
skildre
skildring
skildringa
skildringane
skildringar
skilja
skiljast
skilje
skiljet
skilling
skilnad
skilnaden
skilnader
skilsmisse
skilt
skin
skinn
skinnet
skip
skipa
skipe
skipet
skipinga
skipper
skipreide
skipreidene
skipsbygging
skipsfart
skipsfarten
skipsreiar
skipsverft
skirennar
skisenter
skiskyting
skiskyttar
skisse
skisser
skissert
skive
skiweltcup
skjak
skje
skjeberg
skjedd
skjedde
skjel
skjelett
skjer
skjera
skjeret
skjerm
skjerma
skjermen
skjervøy
skjold
skjoldet
skjorte
skjul
skjule
skjult
skjulte
skjøna
skjønnlitteratur
skjønnlitterære
sko
skodespel
skodespelar
skodespelarane
skodespelarar
skodespelaren
skodespelet
skodje
skoen
skog
skogane
skogar
skogbruk
skogen
skoger
skogkledd
skogkledde
skogn
skogomrade
skogsomrade
skole
skolen
skoltesamisk
skopje
skore
skoren
skorne
skorpa
skot
skotar
skote
skoten
skotne
skotsk
skotske
skottane
skottland
skram
skreiv
skrent
skrenten
skrev
skribent
skribenten
skrift
skrifta
skriftene
skrifter
skriftet
skriftleg
skriftlege
skriftsprak
skriftspraket
skriftsystem
skrik
skritt
skriv
skriva
skrivast
skrive
skrivemate
skrivematen
skriven
skriving
skrivne
skrog
skroget
skuffa
skuffande
skugge
skuggen
skulane
skular
skuld
skulda
skuldast
skulde
skuldig
skuldra
skuldrene
skule
skulearet
skulegang
skulemal
skulemann
skulen
skulestyret
skulle
skulptur
skulpturar
skulpturen
skulptør
skuta
skvadron
skvadronen
sky
skya
skye
skyene
skyer
skyld
skyline
skynyrd
skyt
skyta
skyte
skytevapen
skyting
skøyen
skøyta
skøyteløpar
skøyter
sl
sla
slaande
slade
slag
slaga
slaget
slagmarka
slagordet
slags
slagverk
slakta
slalam
slalamrenn
slam
slangar
slapp
slar
slash
slast
slate
slatt
slattane
slattar
slatten
slattenamnet
slavane
slavar
slave
slaveri
slaveriet
slavisk
slaviske
slede
sleep
sleeping
sleeps
sleeve
slege
slegen
slegne
sleipner
sleit
slekt
slekta
slektene
slekter
slektning
slektningane
slektningar
slektningen
slektskap
slektsnamn
slektsnamnet
slepp
sleppa
sleppe
sleppt
sleppte
slept
slesvig
slett
sletta
slette
slettene
sletter
slick
slide
slidegitar
slidre
sligo
slik
slike
slikt
slim
slip
slit
slite
slo
slost
slott
slottet
slovakia
slovakisk
slovakiske
slovenia
slovensk
slovenske
slow
slutt
slutta
sluttar
slutte
slutten
sluttresultatet
sluttspelet
sly
sm
sma
smaalenenes
smabyen
smafisk
smak
smaken
smal
smaland
smalare
smalaste
smale
small
smalnar
smalt
smaplanetar
smart
smash
smaøyar
smed
smelta
smeltar
smelte
smeltevatn
smelteverk
smerte
smile
smith
smiths
smithsonian
smitta
smitte
smoke
smokey
smolensk
sms
smykke
smyslov
smyth
smøla
smør
sn
snake
snakes
snakk
snakka
snakkar
snakke
snarare
snart
snasa
snep
sniglar
snikkar
snitt
snl
snor
snorre
snow
sns
snu
snudd
snudde
snur
snø
snødekt
snødekte
snøen
snøfall
snøgg
snøggleik
snøggleiken
snøgt
snøras
so
soc
social
socialist
societe
society
sodermanland
sodermanlands
sodertalje
sodra
sofa
sofia
sofie
soft
software
soga
soge
sogelag
sogene
soger
sogn
sogndal
sognefjorden
sokalla
sokk
sokn
sokna
sokndal
soknegrenser
soknekyrkja
soknekyrkje
sokneprest
soknepresten
soknerad
soknet
sol
sola
solar
solbakken
solberg
sold
soldat
soldatane
soldatar
soldier
soldiers
soleis
solen
solheim
solid
solidaritet
solide
solist
solistar
solli
sollys
solnedgang
solo
soloalbum
soloalbuma
soloalbumet
soloar
soloartist
soloen
sologitar
sologitarist
solokarriere
solokarrieren
solomon
soloppgang
solothurn
solovokal
solovokalist
solstad
solsystemet
solum
solund
solvang
solveig
solør
som
soma
somalia
some
somebody
someone
somerset
something
sometimes
somewhere
sommar
sommaren
sommarhalvaret
sommarleikane
sommarstid
somme
sommer
somrane
somrar
son
sona
sonar
sonata
sonate
sonden
sonderband
sondre
sone
sonen
soner
soneson
song
songane
songar
songarane
songarar
songaren
songbook
songen
songfacts
songpartitur
songs
songsolistar
songteksten
songtevlinga
songwriter
songwriters
sonic
sonja
sonny
sons
sony
soon
sophia
sophie
sophus
sopp
sopran
sopransaksofon
sorbonne
sorenskrivar
sorg
soria
sorrow
sorry
sort
sorte
sortert
sortland
sosial
sosialdemokratane
sosialdemokratiske
sosialdepartementet
sosiale
sosialisme
sosialismen
sosialistar
sosialistisk
sosialistiske
sosialistpartiet
sosialkomiteen
sosialt
sosiolog
sosiologi
sotra
sotsji
soul
souls
sound
sounds
soundtrack
sounes
soup
source
sources
sous
south
southampton
souther
southern
southland
sov
sovande
sove
soviet
sovjet
sovjetisk
sovjetiske
sovjetrepublikken
sovjettida
sovjetunionen
sp
spa
space
spain
span
spanande
spania
spanish
spanishcharts
spanjolane
spanjolar
spann
spansk
spanske
spar
spare
sparebank
sparebanken
spark
sparka
sparken
sparks
sparrow
sparta
spartacus
spd
speak
special
species
spector
speech
speed
speglar
spekter
spekteret
spektralklasse
spektrum
spekulert
spel
spela
spelar
spelarane
spelarar
spelaren
spelast
spele
spelefilm
spelemann
spelemannen
spelemenn
speler
spelet
speletid
spelinga
spellemann
spellemannprisen
spelt
spelte
spencer
spenn
spenner
spenning
spenninga
spent
sperra
spesialisert
spesialiserte
spesialist
spesiell
spesielle
spesielt
spesifikk
spesifikke
spesifikt
spesifisert
spesifiserte
sphaerodactylus
spice
spider
spiders
spike
spin
spinn
spinning
spionasje
spiral
spire
spirit
spirits
spiss
spisse
spissen
spisst
spitsbergen
spitz
split
splitta
spontant
spoonful
spor
spora
sporadisk
sporast
spore
sporet
sport
sporten
sporting
sports
sportsboken
sportsklubben
sporvefugl
sporvefuglar
spot
spotlight
spotted
sprak
spraka
sprakartikkelen
sprakbruk
spraket
sprakfamilie
sprakfamilien
sprakforskar
sprakforsking
sprakhistorie
sprakleg
spraklege
sprakrad
sprakradet
sprakvitskap
sprang
spreadsheet
spreia
spreidd
spreidde
spreie
spreier
spreiing
spreiinga
sprekk
sprekker
sprengt
spring
springar
springaren
springe
springer
springfield
springs
springsteen
sprint
sprinten
sprog
spur
spurde
spurt
spurte
sputnik
sputnikmusic
spy
spyd
spydeberg
spydet
spydkast
spøk
spør
spørsmal
spørsmalet
sq
sqrt
square
squaw
squire
sr
sri
ss
ssb
ssn
ssp
ssr
st
sta
staande
stabbur
stabelen
staben
stabil
stabile
stabilitet
stabilt
stabæk
stack
stad
stadane
stadar
staden
stadene
stader
stades
stadfesta
stadfeste
stadiet
stadig
stadige
stadion
stadionet
stadium
stadnamn
stadnamnet
stadnamnregister
stadt
stafett
stafettar
stafetten
stafettlaget
staff
stafford
staffordshire
stage
stakk
stal
stale
stalin
stalingrad
stallen
stamfar
stamma
stammane
stammar
stamme
stammen
stammene
stammer
stan
stand
standal
standard
standardar
standarden
standardisert
standards
standfuglar
standing
standpunkt
stanford
stang
stange
stanisław
stanley
stansa
stanton
star
stardust
stark
starling
starr
stars
start
starta
startar
starte
starten
stasjon
stasjonane
stasjonar
stasjonen
stasjonert
stasjonsbygningen
stasjonære
stat
statane
statar
state
statement
staten
statens
states
stathelle
station
stations
statisk
statistica
statistical
statistics
statistik
statistikk
statistisk
statistiska
statistiske
statistitsjeski
statkraft
statleg
statlege
statoids
statoil
stats
statsarkivet
statsborgar
statsborgarar
statsborgarskap
statskupp
statsleiar
statsmann
statsminister
statsministeren
statsministerens
statsoverhovud
statsraadet
statsrad
statsradar
statsradet
statsradsavdelinga
statssekretær
statsstipendiat
statsvitskap
statt
statthaldar
statuar
statue
statuen
status
statusen
stav
stava
stavanger
stavern
stavhopp
staving
stavinga
stavingar
stavkirke
stavkirker
stavkyrkja
stavkyrkje
stavkyrkjene
stavkyrkjer
stax
stay
steady
steam
sted
stedje
steel
steele
steeleye
steelgitar
steely
steen
stefan
stefano
steffen
steg
steget
steiermark
steig
steigen
steikt
stein
steinalder
steinalderen
steinane
steinar
steinbrot
steinen
steiner
steinete
steinkjer
steinkyrkje
stella
stemd
stemde
stemma
stemme
stemmene
stemmer
stemmerett
stemne
stemnet
stemning
stemninga
stemt
stemte
sten
stend
stendig
stenersen
stengd
stengde
stengel
stengelen
stengt
step
stephan
stephane
stephanie
stephen
stephens
stephenson
steppa
steps
stereo
sterk
sterkare
sterkast
sterkaste
sterke
sterkt
sterling
stern
sternwarte
steve
steven
stevens
stevenson
stevie
stewart
sti
stian
stiar
stichting
stick
stien
stift
stifta
stifte
stiftelsen
stifting
stiftinga
stig
stigande
stige
stigen
stikk
stikkord
stiklestad
stil
stilar
stilartar
stilen
stilisert
still
stilla
stille
stilleben
stillehavet
stillehavskysten
stiller
stilling
stillinga
stillingane
stillingar
stills
stilmessig
stilt
stilte
stine
sting
stipe
stipend
stipendet
stipendiat
stirling
stiv
stive
stjerna
stjerne
stjernebileta
stjernebilete
stjernebiletet
stjernekamp
stjernene
stjerner
stjerten
stjørdal
sto
stock
stockholm
stockholms
stod
stoda
stoff
stoffa
stoffet
stogga
stokes
stokk
stokke
stokken
stokmarknes
stol
stole
stolen
stoller
stolt
stolte
stoltenberg
stone
stones
stong
stonington
stooges
stop
stopp
stoppa
stoppar
stoppe
stoppestad
stor
stora
storbakken
storband
storbritannia
storby
storbyen
storbyomrade
storbyomradet
stord
stordal
stordomstid
store
storelva
storfe
storfjorden
storfyrstedømet
storgarden
storgata
storhamar
storhaug
storhertugdømet
storico
stories
storkommunen
storkrossen
storleik
storleikar
storleiken
storleiksklasse
storm
storma
stormaktene
stormar
stormeister
stormen
stormy
storparten
storslalam
storslalamrenn
stort
storting
stortinget
stortingets
stortingsbiografi
stortingsmann
stortingsperioden
stortingspresident
stortingsrepresentant
stortingsrepresentantar
stortingsval
stortingsvalet
story
stova
stra
straff
straffa
straffe
straffespark
straight
strait
straits
strake
straks
stralande
strale
straling
stralinga
strand
stranda
strange
stranger
strangers
strasbourg
strategi
strategic
strategien
strategisk
strategiske
stratford
stratosfæren
stratovulkan
straum
straumar
straume
straumen
straumsnes
strauss
stravinskij
strawberry
stray
stream
street
streets
streik
streisand
strek
strekk
strekker
strekkjer
strekning
strekninga
strekningar
strekt
strekte
strendene
strender
streng
strengane
strengar
strenge
strengeinstrument
strengen
strenger
strengs
strengsgitar
strengt
stress
strid
stridande
stridar
striden
stridsvogner
strike
strinda
string
strings
stripa
stripe
striper
strofer
strok
strong
structure
struensee
struggle
struktur
strukturane
strukturar
strukturen
strupe
strupen
stryk
strykarar
strykearrangement
strykekvartett
stryn
strøk
strøm
strømmen
strømper
strømsgodset
strøymde
strøyme
strøymer
sts
stsci
stu
stuart
student
studentane
studentar
studentmallaget
studentmallagsbibelen
studentsamskipnaden
studera
studere
studerer
studert
studerte
studia
studiane
studiar
studie
studien
studier
studies
studiet
studietida
studio
studioalbum
studioalbuma
studioalbumet
studioet
studiomusikar
studiomusikarar
studios
studium
study
stuff
stund
stundom
sture
sturlason
stutt
stutte
stuttgart
stykka
stykke
stykket
style
styra
styrar
styre
styreformann
styreleiar
styremedlem
styrer
styresmakt
styresmakta
styresmaktene
styresmakter
styret
styring
styringa
styrka
styrkane
styrkar
styrke
styrken
styrkt
styrkte
styrt
styrta
styrte
styx
stø
stønad
stør
støren
større
størst
største
størstedelen
størsteparten
støtt
støtta
støttar
støtte
støv
støy
støyt
støytte
su
suarez
sub
subantarktiske
subjekt
subjektet
subkontinentet
submarine
subsp
subst
substantiv
substantiva
substantivet
subtropisk
subtropiske
success
such
suche
suchen
sud
sudan
sue
suezkanalen
suffiks
suffikset
suffolk
sugar
suicide
suisse
suite
suiten
sukker
sukkerrøyr
suksess
suksessen
suksessfulle
suksessrik
suksessrike
sul
sula
sulawesi
suldal
suleiman
sulitjelma
sullivan
sultan
sultanatet
sultanen
sultans
sum
sumaren
sumatra
summary
summen
summer
summers
summertime
summit
summitpost
sun
sunbird
sund
sunda
sundag
sundagen
sunday
sundby
sunde
sunderland
sundet
sundsvall
sundt
sunflower
sung
sunge
sungen
sunndal
sunnfjord
sunnhordland
sunnhordlandske
sunni
sunnimuslimar
sunniva
sunnmøre
sunnmørsposten
sunny
sunnylven
sunrise
sunset
sunshine
suomalais
suomen
suomi
super
superficie
supergruppa
superior
superkontinentet
superlativ
superman
supernova
superstar
supertramp
supper
supplement
supply
support
sur
sure
surf
surface
surfer
surfin
surfing
surgery
surinam
surnadal
surprise
surrealistiske
surrender
surrey
survey
surveys
survival
survive
sus
susan
susanna
susanne
sussex
sutherland
sutton
suveren
suverene
suverenitet
suverent
suzanne
suzi
suzuki
sv
svaart
svak
svakare
svake
svakt
svalbard
svar
svara
svarar
svare
svarer
svaret
svarstad
svart
svarte
svartedauden
svartehavet
svein
sveio
sveits
sveitsisk
sveitsiske
svekka
svelvik
sven
svend
svendsen
svensk
svenska
svenskane
svenske
svensken
svensson
sverd
sverdet
sverdlovsk
sverdrup
sverige
sveriges
sverigetopplistan
sverre
sverresborg
svetisiske
svin
sving
svinga
svingar
svingen
svingingar
svizzera
svolder
svolt
svolvær
svor
svovel
svt
svulst
svært
sw
swahili
swainson
swallow
swamp
swan
swansea
swarbrick
swaziland
swe
sweat
sweden
swedish
swedishcharts
sweet
sweetheart
swift
swing
swinging
swiss
swisscharts
switch
switzerland
sword
swp
sx
sy
syd
sydd
sydney
sykehus
sykkel
sykkylven
syklar
sykling
syklist
syklon
syklonar
syklonen
syklus
syklusen
sylinder
sylinderen
sylte
sylvain
sylvester
sylvia
sym
symbol
symbola
symbolet
symboliserer
symbols
symbolsk
symbolske
symfoni
symfoniar
symfonien
symfoniorkester
symfoniske
symje
symjing
symmetri
symmetrisk
symmetriske
sympathy
symphony
symptom
symptoma
syn
syna
synagoge
synagogen
synd
syndicat
syndrom
syndrome
syne
syner
synest
synet
syng
synga
synge
synger
syngje
synleg
synlege
synnøve
synonym
synonymt
syns
synspunkt
synt
syntaks
synte
syntest
syntetisk
syntetiske
synth
synthesiser
synthesizer
synthesizerar
syre
syrgde
syria
syrian
syrisk
syriske
sysken
syskena
syskenbarnet
system
systema
systematisk
systematiske
systemet
systems
syster
systera
systrene
syter
sytte
sytten
syv
syvertsen
syzygium
sz
szabo
szovetsege
sæbø
særeige
særeigen
særeigne
særleg
særlege
særmerkt
særmerkte
særprega
særs
særskild
særskilde
særskilt
sæter
sæther
sætre
søgne
søk
søke
søker
søkja
søkje
søkjer
søkk
søkkt
søknad
søknaden
søksmal
søkt
søkte
sølv
sølvet
sølvmedaljar
sølvmedalje
sølvmedaljen
sølvplass
sølvvinnaren
sømna
søn
søndag
søndagen
søndeled
søndre
sønene
søner
sør
sørafrikansk
sørafrikanske
søramerikanske
søraust
søraustenden
søraustkysten
søraustlege
søraustover
søraustre
søraustsida
søre
søren
sørenden
sørensen
sørfjorden
sørfold
sørgde
sørgjer
sørishavet
sørkysten
sørlandet
sørlandsbanen
sørleg
sørlegaste
sørlege
sørom
sørover
sørpolen
sørreisa
sørsamisk
sørsamiske
sørsida
sørspissen
sørstatane
sørum
sørvest
sørvestenden
sørvestkysten
sørvestlege
sørvestover
sørvestre
sørvestsida
sørøya
søster
søstera
søt
søte
søv
søvn
søyle
søyler
t
t0
t1
t2
t3
t4
t5
t6
t7
t8
t9
ta
tabell
tabellen
table
tablesl
tabu
tacitus
tadsjikistan
tafjord
tag
tai
tail
tailed
taiwan
taj
tak
taka
takast
take
taken
takes
taket
taking
takk
takka
takke
takle
taksonomi
taksonomisk
takt
taktikk
taktisk
tal
tala
talande
talar
talarane
talarar
talbot
talde
tale
talemal
talemalet
talen
talent
talentet
taler
tales
talet
taliban
talk
talkin
talking
talks
tall
tallak
tallet
tallinn
talmud
talrike
tals
talsmann
talt
talte
tam
tamara
tambourine
tamburin
tamil
tamilske
tampa
tampen
tan
tana
tanager
tandberg
tande
tang
tanganyika
tangen
tangentar
tangentinstrument
tangerine
tangerte
tango
tank
tankane
tankar
tanke
tanken
tankskip
tann
tante
tanum
tanzania
tap
tapa
tapande
tape
tapes
tapestry
tapet
tapir
tappa
tapt
tapte
tar
tara
taranaki
tarjei
tarn
tarna
tarnet
tartu
tartus
tarzan
tasman
tasmania
taste
tatarar
tate
tatjana
tatra
tatt
tau
tauern
taupin
taupo
tauris
taxi
tay
taylor
tb
tbilisi
tc
td
te
tea
team
teams
tear
tears
teater
teateret
teatersjef
teaterstykke
teatralske
teatret
teatro
tech
technical
techno
technology
ted
teddy
tee
teen
teenage
tegl
teglstein
tegn
teheran
teige
teigen
teikn
teikna
teiknar
teikne
teikneseriar
teikneserie
teikneserien
teiknet
teikning
teikningane
teikningar
teiknsprak
tek
teke
teken
tekne
teknikar
teknikk
teknikkane
teknikkar
teknikken
teknisk
tekniske
teknologi
teknologiartikkelen
teknologien
teknologisk
teknologiske
tekst
teksta
tekstane
tekstar
teksten
tekster
tekstforfattar
tekstil
tekstilar
tekstilindustri
tekstilindustrien
tel
telefon
telegram
telegraph
telemann
telemark
telenor
telescope
teleskop
teleskopet
television
tell
tellefsen
telt
tema
temaet
temaside
tematisk
temmeleg
temminck
tempel
tempelet
temperatur
temperaturane
temperaturar
temperature
temperaturen
temperert
tempererte
tempest
temple
tempo
tempoet
temps
temptations
tempus
ten
tena
tenar
tenara
tenarar
tenaring
tench
tendens
tendensen
tender
tene
tener
tenerife
tenesta
teneste
tenestedistrikt
tenestegjorde
tenestene
tenester
tenke
tenking
tenkjar
tenkje
tenkjer
tenkt
tenkte
tennene
tenner
tennessee
tennis
tennyson
tenor
tenorsaksofon
tent
tente
teolog
teologi
teologisk
teologiske
teorem
teoretisk
teoretiske
teori
teoriane
teoriar
teorien
teppe
teppet
ter
terence
teresa
teresia
terje
term
termen
terminal
terminologi
termisk
terms
tern
terra
terrasse
terre
terreng
terrenget
territoria
territorial
territoriale
territoriell
territories
territoriet
territorium
territory
terror
terrorisme
terry
tertiær
test
testa
testament
testamentet
testar
testing
tett
tettare
tettast
tettbygd
tettbygde
tette
tettleik
tettleiken
tettstad
tettstaden
tettstadene
tettstader
tettsteder
tevla
tevlar
tevling
tevlinga
tevlingane
tevlingar
tex
texas
text
texts
tf
tg
th
thai
thailand
thames
than
thank
that
thatcher
the
theater
theatre
thee
theft
their
them
theme
themsen
then
theo
theodor
theodore
theol
theory
there
therese
these
thespa
thessalia
thessaloniki
theta
they
thick
thiel
thin
thing
things
think
third
thirty
this
thom
thomas
thomassen
thompson
thomson
thor
thorbjørn
thoresen
thorkildsen
thorleif
thorn
thornton
thorsen
thorshavn
thorsnæs
thorstein
thorvald
those
thou
thought
thousand
thraki
thrakia
thrane
threatened
three
thrill
throated
through
thrush
thue
thule
thumb
thun
thunder
thurgau
thuringen
thursday
thurston
thy
ti
tiande
tiandeplass
tiandeplassen
tiar
tiara
tiaret
tiberias
tiberius
tibet
tibetansk
ticino
ticket
tickets
ticknor
tid
tida
tide
tidels
tidemand
tiden
tidend
tidende
tidene
tidenes
tidens
tider
tidfesta
tidleg
tidlegare
tidlegaste
tidlege
tidligere
tids
tidspunkt
tidspunktet
tidsrekning
tidsrom
tidsrommet
tidsskrift
tidsskriftet
tidvatn
tidvatnet
tidvis
tie
tierra
tiger
tigris
tikamp
til
tilbake
tilbakegang
tilbaketrekking
tilbaketrekkinga
tilbaud
tilbod
tilbodet
tilby
tilbygg
tilbyr
tildels
tildelt
tildelte
tileigna
tilfeldig
tilfeldige
tilfeldigvis
tilfella
tilfelle
tilfellet
tilflukt
tilfredsstillande
tilførsel
tilført
tilgang
tilgangen
tilgjenge
tilgjengeleg
tilgjengelege
tilgrensande
tilhald
tilhaldsstad
tilhengar
tilhengarar
tilhengjar
tilhengjarane
tilhengjarar
tilhøva
tilhøve
tilhøvet
tilhøyrande
tilhøyrde
tilhøyrer
tilknyting
tilknytinga
tilknytt
tilknytte
tilkomst
till
tillagt
tillate
tillegg
tiller
tillet
tillit
tillitsverv
tilnamnet
tilnærma
tilnærming
tilnærminga
tilpassa
tilpasse
tilpassing
tilradd
tilradde
tilreisande
tilsett
tilsette
tilskodarar
tilskot
tilskriven
tilslutta
tilstades
tilstand
tilstandar
tilstanden
tilstrekkeleg
tilstøytande
tilsvarande
tilsvarar
tilsvarer
tilsyn
tilsynelatande
tiltak
tiltredde
tim
timar
time
timeless
timeline
timen
timer
times
timor
timothy
timur
tin
tina
tindar
tine
ting
tinga
tinget
tinglag
tingrett
tingvoll
tinn
tiny
tippeligaen
tipton
tirana
tirion
tirol
titals
titan
titanic
titel
titlane
titlar
title
tito
tittel
tittelen
tittelsporet
titus
tivoli
tj
tjeldsund
tjern
tjernet
tjue
tjukk
tjukkare
tjukke
tjukt
tjøme
tjøtta
tk
tl
tm
tn
to
tobago
tobakk
tobias
toby
toccata
tochigi
today
todd
todelt
tog
toga
toget
together
togo
tok
tokke
tokt
toktet
tokushima
tokyo
told
tole
toledo
toler
toleranse
tolga
tolka
tolkar
tolkast
tolkien
tolking
tolkinga
tolkingar
toll
tollkomiteen
tolstoj
tolv
tolvte
tom
tomas
tomat
tome
tommar
tomme
tommy
tomorrow
tomsk
tomt
tomta
tomter
ton
tonane
tonar
tone
toneart
tonen
toneskapar
tonga
tongariro
tongue
toni
tonight
tonje
tonk
tonn
tonnasjen
tony
too
took
top
topalov
topic
topografisk
topographic
topography
topp
toppa
toppane
toppar
toppdivisjonen
toppen
toppfart
topps
toppserien
toppskarar
tops
tor
tora
toraen
torbjørn
tord
tore
torever
torfinn
torg
torgeir
torget
torino
torkjell
torleiv
tormod
tornado
tornadoar
toronto
torp
torre
torres
torsdag
torshavn
torshov
torsk
torsken
torstein
tortur
torv
toscana
tosu
total
totale
totalt
toten
totland
toto
tottenham
tottori
touch
toulon
toulouse
tour
tourism
tourist
tours
tous
tout
tove
towards
tower
town
towns
townshend
toy
toyama
tp
tq
tr
track
tracks
tracy
trad
tradar
trade
traden
tradisjon
tradisjonane
tradisjonar
tradisjonell
tradisjonelle
tradisjonelt
tradisjonen
tradition
traditional
traditions
traffic
trafikk
trafikken
trafikkerte
trafikkmeldingar
trafikknutepunkt
tragedie
tragedien
tragedy
trail
train
training
traktaten
traktor
traktorane
traktorar
traktoren
tran
trans
transactions
transilvania
transit
transition
transjordan
transkribert
transkripsjon
translated
translation
transliterated
transport
transportartikkelen
transporten
transportera
transportere
transportert
transsibirske
tranøy
trappa
trase
trasear
traseen
trash
trass
travel
traveling
travels
travers
travis
tre
trea
treasure
treatment
treaty
treblaseinstrument
tredde
tredel
tredelt
tredje
tredjedel
tredjedelar
tredjemann
tredjeplass
tredjeplassen
tree
trees
treet
treff
treffe
treffer
treft
trefte
tregrensa
trek
trekant
trekanta
trekk
trekka
trekke
trekker
trekket
trekkfugl
trekkfuglar
trekkja
trekkje
trekkjer
trekkspel
trekol
trekt
trekte
trelast
tremila
trena
trenar
trend
trenden
treng
trengde
trenge
trengereid
trengjer
trengst
trening
trent
trente
tres
treslag
tresnitt
tresteg
tresteghopp
trettande
tretten
tretti
trettiarskrigen
treverk
trevirke
trevor
tri
trial
trias
tribe
tribune
tribute
trick
trident
trier
trieste
trikala
trilogien
trilogy
trine
trinidad
trinita
trinity
trinityhalvøya
trinn
trio
trioen
trip
triple
tripoli
trist
tristan
triumf
triumfen
trivst
tro
trod
trois
troll
trolldom
trombone
tromma
tromme
trommemaskin
trommene
trommer
trommeslagar
trommeslagaren
trompet
trompetar
troms
tromsø
trona
trond
trondenes
trondheim
trondheims
trondheimsfjorden
trondhjem
trondhjems
trong
tronge
tropane
tropical
tropicos
tropisk
tropiske
troposfæren
tropp
troppa
troppane
troppar
troppen
tross
trotskij
troubadour
trouble
troy
tru
trua
truande
trucks
trudd
trudde
trude
true
truga
trugsmal
truleg
trulova
truls
truman
trump
trur
truskap
trussel
trust
truth
truverdig
try
trygg
trygge
tryggleik
tryggleiken
tryggvason
trygt
trygve
trykk
trykka
trykkeri
trykket
trykt
trykte
trysil
trøgstad
trøndelag
trøyer
trøytt
ts
tsar
tsaren
tsj
tsjad
tsjajkovskij
tsjekkia
tsjekkisk
tsjekkiske
tsjekkoslovakia
tsjeljabinsk
tsjetsjenia
tsjetsjensk
tsjetsjenske
tsunami
tt
tu
tuba
tuberkulose
tubular
tucker
tuddal
tudor
tuesday
tufta
tufte
tula
tulkarm
tull
tun
tundra
tune
tunes
tunet
tung
tunga
tunge
tungt
tunguska
tunisia
tunnel
tunnelar
tunnelen
tunsberg
tur
turar
turban
turbulens
turbulent
turdus
turen
turid
turisme
turismen
turistane
turistar
turistattraksjon
turistattraksjonar
turistdestinasjon
turistforening
turisthytte
turistinformasjon
turistmal
turistside
turiststad
turkey
turkish
turkmenistan
turks
turku
turlag
turn
turne
turneane
turnear
turneen
turner
turnere
turnering
turneringa
turneringar
turnert
turnerte
turning
turns
turtles
turun
tusen
tusenaret
tusenvis
tustna
tutti
tuva
tuvalu
tv
tvang
tvedestrand
tvedt
tveit
tveiten
tver
tvers
tvert
tvil
tvinga
tvinge
tvnorge
tvungen
tw
twain
twelve
twentieth
twenty
twice
twilight
twin
twist
twitter
two
tx
ty
tycho
tyda
tydal
tydar
tydde
tyde
tydeleg
tydelege
tyder
tyding
tydinga
tydingar
tykte
tyler
tyne
tyngdekrafta
tyngre
tynn
tynnare
tynne
tynset
tynt
typane
typar
type
typen
typisk
typiske
tyr
tyrkarane
tyrkarar
tyrkia
tyrkisk
tyrkiske
tyrrenhavet
tysdag
tysfjord
tysk
tyskarane
tyskarar
tyske
tyskland
tysklands
tyskspraklege
tysktalande
tysnes
tysvær
tz
tær
tømmer
tømmeret
tømra
tønne
tønner
tønsberg
tørka
tørkar
tørke
tørr
tørrare
tørraste
tørre
tørt
tøy
u
u0
u1
u2
u3
u4
u5
u6
u7
u8
u9
ua
uae
uansett
uavgjort
uavhengig
uavhengige
ub
ubat
ubatar
ubaten
uber
ubunde
ubunden
ubuntu
uc
uccle
ucla
ud
udi
ue
uefa
uekte
uendeleg
uendra
uf
uferdig
uferdige
ufo
uformelle
uformelt
ufullstendig
ug
uganda
ugift
ugler
ugras
ugriske
ugyldig
uh
uheldig
uhell
ui
uib
uio
uit
uj
ujamn
ujamne
uk
ukjend
ukjende
ukjent
uklar
uklare
uklart
ukraina
ukrainarar
ukraine
ukrainian
ukrainsk
ukrainske
ukulele
ul
ula
ulf
ulik
ulike
ulikt
ull
ulla
ullensaker
ullensvang
ullevaal
ulleval
ullmann
ulm
ulovleg
ulovlege
ulrich
ulrik
ulstein
ulster
ultimate
ultra
ultrafiolett
ultratop
ultravox
ulukka
ulukke
ulukker
ulv
ulven
ulvik
ulysses
um
umberto
umea
umiddelbart
umm
umogeleg
umogleg
un
una
uncle
uncut
und
under
underart
underartane
underartar
underarten
underdistrikt
underfamilie
underfamilien
underground
undergruppe
undergrupper
underhaldning
underhuset
underjordisk
underjordiske
underkant
underlag
underlagd
underlaget
underlagt
underordna
underprefektur
undersida
underside
undersjøisk
undersjøiske
underskriven
understanding
understreka
undersøke
undersøking
undersøkinga
undersøkingane
undersøkingar
undersøkt
undersøkte
underteikna
undertittelen
undertrykking
undervegs
undervise
undervising
undervisning
undervisninga
undervist
underviste
underwood
undset
une
unesco
ung
ungane
ungar
ungarn
ungarsk
ungarske
ungdom
ungdomen
ungdommar
ungdommen
ungdomsbok
ungdomslag
ungdomslitteratur
ungdomsroman
ungdomsskole
ungdomsskule
ungdomsskulen
unge
ungen
ungfuglar
uni
unicode
uniform
unik
unike
unikt
union
unionen
unionist
unionsoppløysinga
unit
united
univ
universal
universe
universell
universelle
universet
universidad
universitat
universite
universitet
universiteta
universitetet
universitetets
universitets
universitetsbiblioteket
universitetsforlaget
university
unix
unknown
unna
unnatak
unnateke
unnga
unngar
unngjekk
unni
unntak
unntaket
unntakstilstand
unntatt
unofficial
unplugged
unrecognized
unreleased
unrwa
uns
unser
unt
unter
unterberger
until
unytta
uo
uoffisiell
uoffisielle
uoffisielt
up
update
updated
updates
upon
upp
uppdal
upper
upplagan
uppland
uppsala
ups
uptown
uq
ur
ural
uralfjella
uralske
uran
uranus
urawa
urban
urbane
urbanliknande
urbant
urdu
ure
urfolk
uri
url
uro
uroa
uroleg
urt
urter
uruguay
urville
urørt
us
usa
usamde
usarp
usas
usbekistan
usd
use
used
usemje
uses
usgs
usikker
usikkert
usikre
using
usn
uspesifisert
uss
ust
ustabil
ustabile
ut
utafor
utah
utan
utandørs
utanfor
utanfra
utanlands
utanlandsk
utanlandske
utanom
utanpa
utanriks
utanriksdepartementet
utanrikskomiteen
utanriksminister
utanriksministeren
utanrikspolitikk
utarbeidd
utarbeidde
utbetra
utbreidd
utbreidde
utbreiing
utbreiinga
utbreiingsomrade
utbreiingsomradet
utbrot
utbrota
utbrotet
utbygd
utbygde
utbygging
utbygginga
utc
utdanna
utdanning
utdanninga
utdannings
utdanningsinstitusjonar
utdelinga
utdelt
utdjupande
utdrag
utdøydd
utdøydde
ute
uteksaminert
uteljande
utelukkande
uten
utenfor
utestengd
utfallet
utfor
utfordra
utfordrande
utfordring
utfordringar
utforma
utforming
utforminga
utformingar
utforrenn
utforrennet
utforska
utforskar
utforske
utforsking
utforskinga
utføra
utførast
utføre
utfører
utført
utførte
utg
utgangen
utgangspunkt
utgangspunktet
utgav
utgava
utgave
utgavene
utgaver
utgitt
utgjer
utgjevar
utgjeve
utgjeven
utgjeving
utgjevinga
utgjevingane
utgjevingar
utgjevne
utgjorde
utgjort
utgravingane
utgravingar
utheva
uthus
uti
utkanten
utkast
utkjempa
utland
utlandet
utlendingar
utlikna
utløp
utløpet
utløyst
utløyste
utmark
utmerka
utmerkinga
utmerkingar
utmerkt
utmerkte
utne
utnemnd
utnemnde
utnytta
utnyttar
utnytte
utnytting
utopia
utover
utpa
utpeika
utpeikt
utpeikte
utpost
utprega
utrecht
utrekningar
utropt
utropte
utruleg
utrusta
utrydda
utrydding
utryddinga
utryddingstrua
utsegn
utsegna
utsegner
utsending
utsett
utsette
utsi
utsida
utsikt
utsira
utsjanad
utsjanaden
utskild
utskilt
utskorne
utslag
utslatt
utslepp
utsletta
utsmykka
utspring
utspringet
utstikkar
utstilling
utstillinga
utstillingar
utstilt
utstrekking
utstrekning
utstrekt
utstyr
utstyret
utstyrt
utstyrte
utsyn
uttakinga
uttala
uttale
uttalen
uttalt
uttalte
uttrykk
uttrykka
uttrykkast
uttrykke
uttrykker
uttrykket
uttrykkjer
uttrykt
uttrykte
utval
utvald
utvalde
utvalet
utvalg
utvandra
utvandring
utveksla
utveksling
utvendig
utvida
utvidar
utvidast
utvide
utviding
utvidinga
utvikla
utviklar
utvikle
utvikling
utviklinga
utviklingsregionar
utvinning
utvist
utvunne
utøvande
utøvar
utøvarane
utøvarar
utøvaren
utøver
uu
uv
uvanleg
uvanlege
uvdal
uventa
uver
uveret
uvisst
uw
ux
uy
uz
v
v0
v1
v2
v3
v4
v5
v6
v7
v8
v9
va
vachellia
vad
vadefugl
vadefuglar
vadsø
vag
vaga
vagan
vage
vagen
vagsøy
vai
vakker
vakkert
vakraste
vakre
vaks
vaksdal
vakse
vaksen
vaksne
vakt
vakta
vaktar
vakte
vakuum
val
vala
valais
valbolken
vald
valda
valde
valdeleg
valdelege
valdemar
valdivia
valdres
vale
valen
valencia
valens
valentin
valentine
valentino
valer
valerenga
valerengen
valerie
valerij
valet
valg
valkomiteen
valkrins
valkrinsen
valldal
valle
valley
valleys
valperioden
vals
valt
valte
valthorn
value
valuta
valutaen
vampire
van
vance
vancouver
vanda
vandra
vandrar
vandring
vandross
vane
vanebo
vanessa
vang
vangelis
vangen
vangsnes
vanguard
vanilla
vanleg
vanlegare
vanlegast
vanlegaste
vanlege
vanlegvis
vanlig
vann
vanskane
vanskar
vanskeleg
vanskelegare
vanskelege
vant
vanuatu
vanylven
vapen
vapenet
vapenkvile
vapna
var
vara
varamann
varamedlem
varanger
varaordførar
varar
vararepresentant
vardal
varde
varden
vardø
vare
varemerke
varemerket
varen
varene
varepsilon
varer
varese
varg
vargas
variabel
variablar
variable
variant
variantane
variantar
varianten
variasjon
variasjonar
variasjonen
variations
variera
varierande
variere
varierer
variert
varierte
variety
varig
varige
various
varm
varma
varmare
varmaste
varme
varmen
varmland
varmlands
varmt
varna
varsel
varsla
vart
vartdal
varte
vasa
vascular
vasilij
vaska
vass
vassdamp
vassdrag
vassdraget
vassdrags
vassenden
vassflata
vassføring
vassføringa
vasskiljet
vasskraft
vasskraftverk
vassnivaet
vasstanden
vasteras
vasterbottens
vastergotland
vasternorrlands
vastmanland
vastra
vat
vataste
vate
vatikanet
vatikanstaten
vatmarker
vatmarksomrade
vatn
vatna
vatne
vatnet
vatning
vaud
vaughan
vault
vb
vc
vd
ve
vec
ved
veden
vedkomande
vedlikehald
vedtak
vedtaket
vedtatt
vedteke
vedteken
vedtok
vedvarande
vee
vefsn
veg
vega
vegalta
vegane
vegar
vegard
vegarshei
vegas
vegdatabank
vege
vegen
vegetasjon
vegetasjonen
vegg
veggane
veggar
veggen
vegkomiteen
veglengda
vegne
vegner
vegnettet
vegsamband
vegvesen
vegvesenet
vei
veien
veit
veka
veke
vekene
veker
vekk
vekke
veks
veksa
veksande
vekse
vekselverknad
vekselvis
veksla
vekslande
vekslar
vekst
vekstar
veksten
vekt
vekta
vekte
vektor
vel
vela
veldedige
veldig
velja
veljast
velje
velkjend
velkjende
velkomen
velkommen
vellukka
vellykka
velsigna
velstaande
velstand
velta
velutvikla
velvet
ven
venda
vende
vendepunkt
vender
vendingar
vendt
vendte
venduti
vene
venen
venene
vener
venetianarane
venetiansk
venetianske
veneto
venezia
venezuela
vengen
vengene
venger
vengespenn
venleik
venn
venner
vennesla
vennskap
venskap
venskapsby
venstre
venstreflanken
venstreorienterte
venstreparti
venstresida
vent
venta
ventar
vente
ventforet
ventures
venus
ver
vera
verande
verb
verba
verbet
verd
verda
verdal
verdas
verde
verden
verdens
verdi
verdiane
verdiar
verdien
verdifulle
verdsarv
verdsarvlista
verdsarvliste
verdsarvstad
verdsbasis
verdscupen
verdscuprenn
verdseliten
verdsett
verdshandelssenteret
verdshava
verdskjend
verdskrig
verdskrigen
verdsleg
verdslege
verdsmeister
verdsmeisteren
verdsmeisterskap
verdsmeisterskapen
verdsmusikk
verdsomspennande
verdsrekord
verdsrekordar
verdsrekorden
verdsrommet
verdssjakkforbundet
verdsturne
verdsturneen
verdsutstillinga
verdt
verdy
vere
veret
verft
verftet
vergil
verk
verka
verkar
verke
verkeleg
verkelege
verkemiddel
verken
verker
verket
verknad
verknaden
verksam
verksemd
verksemda
verksemder
verkstad
verkstaden
verksted
verktøy
verlag
vern
verna
vernar
verne
vernehelgen
verneomrade
verneplan
vernet
vernon
verona
veronica
verre
vers
versa
versailles
verset
version
versions
versjon
versjonane
versjonar
versjonen
verstasjon
verste
vert
verta
verte
vertigo
vertikal
vertikale
vertikalt
vertskap
vertslandet
verv
verva
vervarsel
verve
vervet
very
vesaas
vesen
vesentleg
vesentlege
vesle
vest
vesta
vestbreidda
vestby
vesten
vestenden
vesteralen
vestfjorden
vestfold
vestfrisisk
vestindia
vestkysten
vestland
vestlandet
vestlandske
vestleg
vestlegaste
vestlege
vestnes
vestnorsk
vestover
vestre
vestromarriket
vestsida
vesttysk
vesttyske
vestvagøy
vet
veteran
veum
vev
vf
vg
vgs
vh
vhs
vi
via
viasat
vibe
vibeke
viborg
vibrafon
vic
vice
vicente
vicious
vickers
victor
victoria
victory
vid
vida
vidar
vidare
vidareføring
vidareført
vidaregaande
vidareutvikla
vidareutvikling
vide
videnskabers
videnskaps
video
videoar
videoen
videos
videospel
videospelet
videre
videregaende
vidgjeten
vidgjetne
vidkjend
vidkjende
vidkun
vidt
vie
vieillot
vienna
vienne
vietnam
vietnamesisk
vietnamkrigen
view
views
vig
vigd
vigde
vigdis
vigeland
viggo
vigra
vigsla
vii
viii
vik
vika
vikar
vike
viken
viker
vikersund
viking
vikingane
vikingar
vikingtida
vikna
viktig
viktigare
viktigast
viktigaste
viktige
viktor
viktoria
vil
vila
vilde
vilhelm
vilje
viljen
vilkar
vilkara
vilkarleg
vill
villa
village
villages
villars
ville
villig
vilnius
vilt
vin
vince
vincent
vinci
vind
vindafjord
vindane
vindar
vindauga
vindauge
vindauget
vinden
vindretninga
vindruer
vinen
vinger
vinje
vinkel
vinkelen
vinkelrett
vinklar
vinn
vinna
vinnar
vinnarane
vinnarar
vinnaren
vinnarlag
vinnarlaget
vinne
vinner
vinson
vintage
vinter
vinteren
vinterkrigen
vinterleikane
vinterstid
vintrane
vintrar
vinyl
viola
violence
violin
virgin
virginia
virka
virkar
virke
virket
virksomheten
virtual
virus
viruset
virveldyr
virvellause
vis
visa
visast
visconti
visdom
vise
viseadmiral
visepresident
viser
visesongar
visesongaren
viset
visible
vision
visions
visit
visjnu
visjon
viss
visse
vissel
visst
visste
visstnok
vist
vista
viste
visual
visuell
visuelle
visuelt
vit
vita
vitale
vitamin
vite
vitja
vitjande
vitjar
vitje
vitjing
vitnar
vitne
vitskap
vitskapen
vitskapleg
vitskaplege
vitskapsakademiet
vitskapsaret
vitskapsfolk
vitskapsmann
viva
vivaldi
vivian
vivien
vj
vk
vl
vladimir
vladivostok
vliet
vm
vn
vo
vocal
vog
vogel
vogn
vogna
vognene
vogner
vogt
voice
voices
voivodskap
voivodskapet
vojvodina
vokal
vokalane
vokalar
vokale
vokalen
vokalist
vokalisten
voks
vokse
vol
volcanic
volcanism
volcano
volcanoes
vold
volda
voldemort
volga
volgograd
voll
volleyball
vologda
vols
volt
volta
voltaire
volum
volume
volumes
volumet
volvo
vom
von
vond
vondarta
vonde
vondt
voodoo
vor
vorarlberg
vore
vorstand
vorte
vorten
vortis
vortne
voss
vostok
vox
voyage
voyager
vp
vq
vr
vraket
vs
vserossijskaja
vt
vu
vuh
vulgaris
vulkan
vulkanane
vulkanar
vulkanen
vulkansk
vulkanske
vulkanutbrot
vulpes
vunne
vunnen
vurdere
vurderer
vurdering
vurdert
vurderte
vv
vw
vx
vy
vz
væpna
vær
være
været
værnes
vært
værøy
væska
væske
væsker
w
w0
w1
w2
w3
w4
w5
w6
w7
w8
w9
wa
wade
wadi
wagner
wah
waikato
wainwright
wait
waiting
waits
wake
wakefield
wakeman
walcott
wald
waldemar
walden
wales
walid
walisisk
walisiske
walk
walker
walking
wall
wallace
waller
wallis
walls
wally
walsh
walt
walter
walther
walton
waltz
wang
wanganui
wanna
want
wanted
wants
war
warbler
ward
ware
warfare
warhol
warm
warner
warning
warren
warrior
warriors
wars
warszawa
warwick
was
washington
watch
water
waterfall
waterford
waterloo
waters
watkins
watson
watt
watts
wave
waves
way
wayback
waylon
wayne
ways
wb
wc
wd
we
wear
weather
weaver
web
webb
weber
webkamera
webmineral
webs
website
webster
weddell
weddellhavet
wedding
wedel
wednesday
week
weekend
weekly
weeks
wei
weidemann
weimar
weir
weird
weiss
welch
welcome
welhaven
well
weller
wellington
wells
welsh
welt
wembley
wenche
wendy
wenn
wenner
went
wer
were
werenskiold
wergeland
wergelands
werke
werner
wesley
wessel
wessex
west
western
westfalen
westminster
weston
westport
wet
wexler
wf
wg
wh
whale
whanganui
what
whatever
wheel
wheeler
wheels
when
where
which
while
whiskey
whisky
whistle
whistler
whitburn
white
whitehead
whitfield
whitney
who
whole
why
wi
wicklow
wide
widerøe
wie
wiel
wien
wiener
wiesbaden
wife
wight
wii
wiig
wiki
wikifrasar
wikikilden
wikimedia
wikipedia
wikiquote
wikisource
wikispecies
wikivoyage
wil
wild
wilde
wilder
wildest
wildlife
wiley
wilhelm
wilhelmsen
wilkes
wilkins
wilkinson
will
willem
william
williams
williamson
willie
willis
willoch
wills
willy
wilson
wiltersen
wiltshire
win
winchester
wind
winding
windmill
window
windows
winds
windsor
wine
wing
winged
wings
winner
winners
winnipeg
wins
winsnes
winston
winter
winther
winwood
wir
wire
wisconsin
wise
wish
wisła
witch
with
within
without
wittenberg
wiwibloggs
wizard
wj
wk
wl
wm
wn
wo
wold
wolf
wolfe
wolff
wolfgang
wolfram
wollastonmedaljen
wollert
wolverhampton
womack
woman
women
won
wonder
wonderful
wonderland
woo
wood
woodpecker
woods
woodstock
woodward
woody
woogie
woolf
woolfson
wop
worcester
word
words
wordsworth
work
workers
working
works
workshop
world
worlds
worldwide
worst
worth
would
wouldn
wow
wp
wq
wr
wray
wrecking
wren
wright
write
writer
writers
writing
written
wrong
wrote
ws
wt
wu
wuhan
wurlitzer
wurttemberg
wv
ww
www
wx
wy
wyatt
wyman
wz
x
x0
x1
x2
x3
x4
x5
x6
x7
x8
x9
xa
xavier
xb
xbox
xc
xd
xe
xf
xg
xh
xi
xian
xii
xiii
xinjiang
xiv
xj
xk
xl
xls
xm
xmas
xml
xn
xo
xp
xq
xr
xs
xt
xu
xv
xvi
xw
xx
xy
xz
y
y0
y1
y2
y3
y4
y5
y6
y7
y8
y9
ya
yahoo
yale
yamaga
yamagata
yamaguchi
yamaha
yan
yang
yard
yardbirds
yb
yc
yd
ye
yeah
year
yearbook
years
yeats
yehuda
yellow
yemen
yes
yesterday
yet
yf
yg
yh
yi
yitzhak
yj
yk
yl
yle
yliopisto
ym
ymse
yn
yngre
yngste
yngvar
yngve
ynskje
ynskjer
ynskte
yo
yoko
yokohama
york
yorkshire
yosef
you
young
younger
your
yours
yourself
youth
youtube
yp
yq
yr
yrjo
yrke
yrket
ys
yt
yting
ytre
ytringsfridom
ytst
ytste
ytterlegare
yu
yuan
yuki
yule
yunnan
yv
yver
yvonne
yw
yx
yy
yz
z
z0
z1
z2
z3
z4
z5
z6
z7
z8
z9
za
zagreb
zakopane
zaliv
zambia
zant
zanzibar
zappa
zappala
zaragoza
zb
zc
zd
ze
zealand
zeiss
zeit
zeitung
zelda
zelvia
zemlja
zeppelin
zero
zeta
zevon
zevs
zf
zg
zgharta
zh
zhang
zhejiang
zhou
zi
ziggy
zimbabwe
zimmer
zion
zj
zk
zl
zm
zn
zo
zona
zone
zoo
zoolog
zoologi
zoom
zoot
zp
zq
zr
zs
zt
zu
zuid
zum
zur
zurich
zv
zw
zx
zy
zz
{
|
}
~
¡
£
§
¨
©
«
®
¯
°
±
²
³
´
µ
·
¹
º
»
½
¿
×
ß
æ
æra
ære
æresdoktor
æreslegionen
æresmedlem
ærespris
æsene
ætt
ætta
ættesoge
ææ
ð
ø
ødegaard
ødegard
øgrim
øivind
økland
økologi
økologisk
økologiske
økonom
økonomi
økonomiartikkelen
økonomien
økonomisk
økonomiske
økosystem
økosystemet
øks
øksnes
øl
ølen
ølet
ønska
ønske
ønsker
ønsket
ønskjer
ønskt
ønskte
øre
øresund
ørken
ørkenar
ørkenen
ørkenklima
ørland
ørn
ørpen
ørskog
ørsta
øst
østby
østerdalen
østfold
østre
øvde
øve
øverland
øving
øvinga
øvingane
øvingar
øvre
øvrige
øvst
øvste
øvstkommanderande
øy
øya
øyane
øyar
øydela
øydelagd
øydelagde
øydelagt
øydelegg
øydelegging
øydelegginga
øydeleggingar
øydeleggja
øydeleggjande
øydeleggje
øye
øyene
øyer
øygarden
øygruppa
øygruppe
øyra
øyre
øyret
øystein
øystre
øyvind
øø
þ
đ
ħ
ı
ł
łodz
ŋ
œ
ŧ
ſ
ƒ
ǝ
ǥ
ɐ
ɑ
ɒ
ɓ
ɔ
ɕ
ɖ
ɗ
ə
ɛ
ɡ
ɣ
ɨ
ɪ
ɬ
ɲ
ɳ
ɹ
ɽ
ɾ
ʁ
ʂ
ʃ
ʈ
ʉ
ʊ
ʋ
ʌ
ʒ
ʔ
ʧ
ʰ
ʲ
ʷ
ʹ
ʻ
ʼ
ʾ
ʿ
ˈ
ˌ
ː
ˑ
˙
α
β
γ
δ
ε
ζ
η
θ
ι
κ
λ
μ
ν
ξ
ο
π
ρ
ς
σ
τ
υ
φ
χ
ψ
ω
ϕ
ϵ
а
аь
б
бригада
в
възраст
г
гӏ
д
державнии
е
ж
з
и
ии
институт
к
киів
кк
ккх
комітет
кх
къ
към
кӏ
л
м
места
н
на
населени
население
национален
наявного
о
области
общини
ов
остров
оь
п
по
пп
пӏ
р
река
року
рхӏ
с
сс
статистики
статистически
січня
т
тт
тӏ
у
ув
украіни
уь
уьи
ф
х
хь
хӏ
ц
цӏ
ч
чисельність
чӏ
ш
щ
ъ
ы
ь
э
ю
юь
я
яь
є
і
ј
љ
њ
ћ
џ
қ
ҟ
ҩ
ҭ
ү
ҳ
ҵ
ҷ
ҽ
ҿ
ӏ
ә
ӡ
ө
ӷ
ԥ
ՙ
՚
՛
՜
՝
՞
՟
ա
բ
գ
դ
ե
զ
է
ը
թ
ժ
ի
լ
խ
ծ
կ
հ
ձ
ղ
ճ
մ
յ
ն
շ
ո
չ
պ
ջ
ռ
ս
վ
տ
ր
ց
ւ
փ
ք
օ
ֆ
և
։
֊
א
ב
ג
ד
ה
ו
ז
ח
ט
י
ים
ית
ך
כ
ל
ם
מ
ן
נ
ס
ע
ף
פ
ץ
צ
ק
ר
ש
ת
،
ء
ا
استان
اطلس
ایران
ب
ة
ت
ث
ج
ح
خ
د
ذ
ر
ز
س
ش
شهرستان
ص
ض
ط
ظ
ع
غ
ـ
ف
ق
ك
ل
م
ن
ناحية
ه
های
و
ى
ي
پ
چ
ژ
ک
گ
گیتاشناسی
ی
ێ
ە
۱
۵
ܐ
ܒ
ܕ
ܘ
ܝ
ܟ
ܠ
ܡ
ܢ
ܪ
ܬ
अ
क
ग
च
ज
ट
ड
ण
त
द
ध
न
प
ब
भ
म
य
र
ल
व
ष
स
ह
॥
ন
র
ল
ਅ
ਆ
ਇ
ਈ
ਉ
ਏ
ਐ
ਕ
ਖ
ਗ
ਚ
ਜ
ਡ
ਣ
ਤ
ਥ
ਦ
ਧ
ਨ
ਪ
ਬ
ਭ
ਮ
ਰ
ਲ
ਵ
ਸ
ਹ
ੜ
க
ட
த
ப
ம
ர
ก
ค
ง
จ
ช
ด
ต
ท
น
บ
ป
พ
ม
ย
ร
ล
ว
ส
ห
อ
ะ
า
เ
แ
[...]
