!
"
#
##0
##1
##10
##11
##12
##13
##14
##15
##16
##17
##18
##19
##2
##20
##21
##22
##23
##24
##25
##26
##27
##28
##29
##3
##30
##31
##32
##33
##34
##35
##36
##37
##38
##39
##4
##40
##41
##42
##43
##44
##45
##46
##47
##48
##49
##5
##50
##51
##52
##53
##54
##55
##56
##57
##58
##59
##6
##60
##61
##62
##63
##64
##65
##66
##67
##68
##69
##7
##70
##71
##72
##73
##74
##75
##76
##77
##78
##79
##8
##80
##81
##82
##83
##84
##85
##86
##87
##88
##89
##9
##90
##91
##92
##93
##94
##95
##96
##97
##98
##99
$
%
&
'
(
)
*
+
,
-
.
/
0
00
000
0001
0004
0006
001
002
003
004
005
006
007
008388
009
01
010
011
014
015
0169
017
02
020
022
026
03
030
04
05
050
06
061
07
073
077
08
089
089919026
09
1
10
100
1000
10000
1001
1002
1003
1004
1005
1006
1007
1008
1009
101
1010
1011
1012
1013
1014
1015
1016
1017
1018
1019
102
1020
1021
1022
1023
1024
1025
1026
1027
1028
1029
103
1030
1031
1032
1033
1034
1035
1036
1037
1038
1039
104
1040
1041
1042
1043
1044
1045
1046
1047
1048
1049
105
1050
1051
1052
1053
1054
1055
1056
1057
1058
1059
106
1060
1061
1062
1063
1064
1065
1066
1067
1068
1069
107
1070
1071
1072
1073
1074
1075
1076
1077
1078
1079
108
1080
1081
1082
1083
1084
1085
1086
1087
1088
1089
109
1090
1091
1092
1093
1094
1095
1096
1097
1098
1099
11
110
1100
1101
1102
1103
1104
1105
1106
1107
1108
1109
111
1110
1111
1112
1113
1114
1115
1116
1117
1118
1119
112
1120
1121
1122
1123
1124
1125
1126
1127
1128
1129
113
1130
1131
1132
1133
1134
1135
1136
1137
1138
1139
114
1140
1141
1142
1143
1144
1145
1146
1147
1148
1149
115
1150
1151
1152
1153
1154
1155
1156
1157
1158
1159
116
1160
1161
1162
1163
1164
1165
1166
1167
1168
1169
117
1170
1171
1172
1173
1174
1175
1176
1177
1178
1179
118
1180
1181
1182
1183
1184
1185
1186
1187
1188
1189
119
1190
1191
11917
1192
1193
1194
1195
1196
1197
1198
1199
12
120
1200
1201
1202
1203
1204
1205
1206
1207
1208
1209
121
1210
1211
1212
1213
1214
1215
1216
1217
1218
1219
122
1220
1221
1222
1223
1224
1225
1226
1227
1228
1229
123
1230
1231
1232
1233
1234
1235
1236
1237
1238
1239
124
1240
1241
1242
1243
1244
1245
1246
1247
1248
1249
125
1250
1251
1252
1253
1254
1255
1256
1257
1258
1259
126
1260
1261
1262
1263
1264
1265
1266
1267
1268
1269
127
1270
1271
1272
1273
1274
1275
1276
1277
1278
1279
128
1280
1281
1282
1283
1284
1285
1286
1287
1288
1289
129
1290
1291
1292
1293
1294
1295
1296
1297
1298
1299
13
130
1300
1301
1302
1303
1304
1305
1306
1307
1308
1309
131
1310
1311
1312
1313
1314
1315
1316
1317
1318
1319
132
1320
1321
1322
1323
1324
1325
1326
1327
1328
1329
133
1330
1331
1332
1333
1334
1335
1336
1337
1338
1339
134
1340
1341
1342
1343
1344
1345
1346
1347
1348
1349
135
1350
1351
1352
1353
1354
1355
1356
1357
1358
1359
136
1360
1361
1362
1363
1364
1365
1366
1367
1368
1369
137
1370
1371
1372
1373
1374
1375
1376
1377
1378
1379
138
1380
1381
1382
1383
1384
1385
1386
1387
1388
1389
139
1390
1391
1392
1393
1394
1395
1396
1397
1398
1399
14
140
1400
1401
1402
1403
1404
1405
1406
1407
1408
1409
141
1410
1411
1412
1413
1414
1415
1416
1417
1418
1419
142
1420
1421
1422
1423
1424
1425
1426
1427
1428
1429
143
1430
1431
1432
1433
1434
1435
1436
1437
1438
1439
144
1440
1441
1442
1443
1444
1445
1446
1447
1448
1449
145
1450
1451
1452
1453
1454
1455
1456
1457
1458
1459
146
1460
1461
1462
1463
1464
1465
1466
1467
1468
1469
147
1470
1471
1472
1473
1474
1475
1476
1477
1478
1479
148
1480
1481
1482
1483
1484
1485
1486
1487
1488
1489
149
1490
1491
1492
1493
1494
1495
1496
1497
1498
1499
15
150
1500
1501
1502
1503
1504
1505
1506
1507
1508
1509
151
1510
1511
1512
1513
1514
1515
1516
1517
1518
1519
152
1520
1521
1522
1523
1524
1525
1526
1527
1528
1529
153
1530
1531
1532
1533
1534
1535
1536
1537
1538
1539
154
1540
1541
1542
1543
1544
1545
1546
1547
1548
1549
155
1550
1551
1552
1553
1554
1555
1556
1557
1558
1559
156
1560
1561
1562
1563
1564
1565
1566
1567
1568
1569
157
1570
1571
1572
1573
1574
1575
1576
1577
1578
1579
158
1580
1581
1582
1583
1584
1585
1586
1587
1588
1589
159
1590
1591
1592
1593
1594
1595
1596
1597
1598
1599
16
160
1600
1601
1602
1603
1604
1605
1606
1607
1608
1609
161
1610
1611
1612
1613
1614
1615
1616
1617
1618
1619
162
1620
1621
1622
1623
1624
1625
1626
1627
1628
1629
163
1630
1631
1632
1633
1634
1635
1636
1637
1638
1639
164
1640
1641
1642
1643
1644
1645
1646
1647
1648
1649
165
1650
1651
1652
1653
1654
1655
1656
1657
1658
1659
166
1660
1661
1662
1663
1664
1665
1666
1667
1668
1669
167
1670
1671
1672
1673
1674
1675
1676
1677
1678
1679
168
1680
1681
1682
1683
1684
1685
1686
1687
1688
1689
169
1690
1691
1692
1693
1694
1695
1696
1697
1698
1699
17
170
1700
1701
1702
1703
1704
1705
1706
1707
1708
1709
171
1710
1711
1712
1713
1714
1715
1716
1717
1718
1719
172
1720
1721
1722
1723
1724
1725
1726
1727
1728
1729
173
1730
1731
1732
1733
1734
1735
1736
1737
1738
1739
174
1740
1741
1742
1743
1744
1745
1746
1747
1748
1749
175
1750
1751
1752
1753
1754
1755
1756
1757
1758
1759
176
1760
1761
1762
1763
1764
1765
1766
1767
1768
1769
177
1770
1771
1772
1773
1774
1775
1776
1777
1778
1779
178
1780
1781
1782
1783
1784
1785
1786
1787
1788
1789
179
1790
1791
1792
1793
1794
1795
1796
1797
1798
1799
18
180
1800
1801
1802
1803
1804
1805
1806
1807
1808
1809
181
1810
1811
1812
1813
1814
1815
1816
1817
1818
1819
182
1820
1821
1822
1823
1824
1825
1826
1827
1828
1829
183
1830
1831
1832
1833
1834
1835
1836
1837
1838
1839
184
1840
1841
1841954543
1842
1843
1844
1845
1846
1847
1848
1849
185
1850
1851
1852
1853
1854
1855
1856
1857
1858
1859
186
1860
1861
1862
1863
1864
1865
1866
1867
1868
1869
187
1870
1871
1872
1873
1874
1875
1876
1877
1878
1879
188
1880
1881
1882
1883
1884
1885
1886
1887
1888
1889
189
1890
1891
1892
1893
1894
1895
1896
1897
1898
1899
19
190
1900
1901
1902
1903
1904
1905
1906
1907
1908
1909
191
1910
1911
1912
1913
1914
1915
1916
1917
1918
1919
192
1920
1921
1922
1923
1924
1925
1926
1927
1928
1929
193
1930
1931
1932
1933
1934
1935
1936
1937
1938
1939
194
1940
1941
1942
1943
1944
1945
1946
1947
1948
1949
195
1950
1951
1952
1953
1954
1955
1956
1957
1958
1959
196
1960
1961
1962
1963
1964
1965
1966
1967
1968
1969
197
1970
1971
1972
1973
1974
1975
1976
1977
1978
1979
198
1980
1981
1982
1983
1984
1985
1986
1987
1988
1989
199
1990
1991
1992
1993
1994
1995
1996
1997
1998
1999
2
20
200
2000
2001
2002
2003
2004
2005
2006
2007
2008
2009
201
2010
2011
2012
2013
2014
2015
2016
2017
2018
2019
202
2020
2021
2022
2023
2024
2025
2026
2027
2028
2029
203
2030
2031
2032
2033
2034
2035
2036
2037
2038
2039
204
2040
2041
2042
2043
2044
2045
2046
2047
2048
2049
205
2050
2051
2052
2053
2054
2055
2056
2057
2058
2059
206
2060
2061
2062
2063
2064
2065
2066
2067
2068
2069
207
2070
2071
2072
2073
2074
2075
2076
2077
2078
2079
208
2080
2081
2082
2083
2084
2085
2086
2087
2088
2089
209
2090
2091
2092
2093
2094
2095
2096
2097
2098
2099
21
210
2100
211
212
213
214
215
216
217
2173
218
219
22
220
2200
221
222
223
224
225
226
227
228
229
23
230
2300
2307
231
232
233
234
235
236
237
238
239
24
240
2400
241
242
243
244
245
246
247
248
249
25
250
2500
251
2510
252
253
254
255
256
257
258
259
26
260
2600
261
262
263
264
265
266
267
268
269
27
270
27022
271
272
273
274
275
276
277
278
279
28
280
2800
281
282
283
284
285
286
287
288
289
29
290
291
292
293
294
295
296
297
298
299
3
30
300
3000
301
302
303
304
305
306
307
308
309
31
310
311
312
313
314
315
316
317
318
319
32
320
3200
321
322
323
324
325
326
327
328
329
33
330
331
332
333
334
335
336
337
338
339
34
340
341
342
343
344
345
346
347
348
349
35
350
3500
351
352
3528
353
354
355
356
357
358
359
36
360
361
362
363
364
365
366
367
368
369
37
370
371
372
373
374
375
376
377
378
379
38
380
381
382
383
384
385
386
387
388
389
39
390
391
392
393
394
395
396
397
398
399
4
40
400
4000
401
402
403
404
405
406
407
408
409
41
410
411
412
413
414
415
416
417
418
419
42
420
421
422
423
424
425
426
427
428
429
43
430
431
432
433
434
435
436
437
438
439
44
440
441
442
443
444
445
446
447
448
449
45
450
4500
451
452
453
454
455
456
457
458
459
46
460
461
462
463
464
465
466
467
468
469
47
470
471
472
473
474
475
476
477
478
479
48
480
481
482
483
484
485
486
487
488
489
49
490
491
492
493
494
495
496
497
498
499
5
50
500
5000
501
502
503
504
505
506
507
508
509
51
510
511
512
513
514
515
516
517
518
519
52
520
521
522
523
524
525
526
527
528
529
53
530
531
532
533
534
535
536
537
538
539
54
540
541
542
543
544
545
546
547
548
549
55
550
551
552
553
554
555
556
557
558
559
56
560
56025
561
562
563
564
565
566
567
568
569
57
570
571
572
573
574
575
576
577
578
57859
579
58
580
581
582
583
584
585
586
587
588
589
59
590
591
592
593
594
595
596
597
598
599
6
60
600
6000
601
602
603
604
605
606
607
608
609
61
610
611
612
613
614
615
616
617
618
619
62
620
621
622
623
624
625
626
627
628
629
63
630
631
632
633
634
635
636
6361
637
638
639
64
640
641
642
643
644
645
646
647
648
649
65
650
651
652
653
654
655
656
657
658
659
66
660
661
662
663
664
665
666
667
668
669
67
670
671
672
673
674
675
676
677
678
679
68
680
681
682
683
684
685
686
687
688
689
69
690
691
692
693
694
695
696
697
698
699
7
70
700
7000
701
702
703
704
705
706
707
708
709
71
710
711
7119
712
713
7136
714
715
716
717
718
719
72
720
721
722
723
724
725
726
727
728
729
73
730
731
732
733
734
735
736
737
738
739
74
740
741
742
743
7432
744
745
746
747
748
749
75
750
751
752
7527
753
7535
754
755
756
757
758
759
76
760
761
762
763
764
765
766
767
768
769
77
770
771
772
773
774
775
776
777
778
779
78
780
781
782
783
784
785
786
787
788
789
79
790
791
792
793
794
795
7959
796
797
798
799
8
80
800
8000
801
802
803
804
8048
805
806
807
808
809
81
810
811
812
813
814
815
816
817
818
819
82
820
821
822
823
8230
824
8240
825
826
8264
827
828
829
83
830
831
832
833
834
835
836
837
838
839
84
840
841
84195
842
843
84353
844
845
846
847
848
849
85
850
851
85112
852
853
854
855
856
857
85712
858
859
86
860
86074
861
862
863
864
865
866
867
868
869
87
870
871
87131
872
873
874
875
876
877
878
879
87930
88
880
881
882
883
884
885
886
887
88728
888
889
89
890
891
892
893
894
895
896
897
898
89820
899
9
90
900
9000
901
902
903
903111
904
904994
905
906
90695
907
908
909
91
910
911
912
913
91399
914
915
916
917
91722
918
919
92
920
920405
921
922
923
924
925
926
927
928
929
93
930
931
932
933
934
935
936
937
938
939
94
940
941
942
943
944
945
946
947
948
949
95
950
951
952
95295
953
954
955
956
957
958
959
96
960
961
962
963
964
965
966
967
968
969
97
970
971
972
973
974
975
976
977
978
9788205418820
979
98
980
981
982
983
984
985
986
987
988
989
99
990
991
992
993
994
995
996
997
998
999
:
;
<
=
>
?
@
[
\
]
^
_
`
a
aa
aachen
aage
aalborg
aalesund
aall
aalto
aamodt
aar
aaraas
aare
aarflot
aargau
aarhus
aarnes
aaron
aars
aarseth
aas
aase
aasen
aasentunet
aasland
aasmund
aat
ab
aba
abba
abbas
abbasidane
abbed
abbey
abbott
abc
abd
abdiserte
abdul
abdulfattah
abdullah
abe
abel
aberdeen
aberdeenshire
abies
abingdon
abkhasia
abkhasiske
abonnement
aboriginal
abort
about
above
abraham
abrahams
abrahamsen
abram
absalon
absolute
absolutely
absolutt
absolutte
absorberer
absorbert
abstract
abstracts
abstrakt
abstrakte
abu
abyan
ac
acacia
acade
academia
academic
academy
acadia
acan
access
accessdate
accessed
acclaimed
according
account
accreditations
ace
ach
achievement
acid
acoustic
acre
acref
across
act
acta
action
active
activity
acton
actor
acts
ad
ada
adagio
adam
adams
adare
addisjon
address
ade
adeccoligaen
adel
adelaide
adele
adelege
adelen
adelsmann
adelsmenn
aden
adige
adj
adjektiv
adjektivet
adjunkt
adla
adler
admininistrasjonsreform
administrasjon
administrasjonen
administrasjonsbyen
administrasjonsdepartementet
administrasjonsenteret
administrasjonskomiteen
administrasjonssenter
administrasjonssenteret
administrasjonsstad
administration
administrativ
administrative
administrativt
administrerande
administrert
admiral
admiralen
admiralitetet
admiralty
adolf
adolph
adolphe
adoptert
adopterte
adressa
adresse
adresseavisen
adresser
adriahavet
adrian
adrien
adult
advance
advanced
advent
adventure
adventures
advisory
advokat
advokaten
ae
aerial
aero
aerosmith
aerosurveys
af
affair
affairs
afghan
afghanistan
afghansk
afghanske
afraid
africa
african
afrika
afrikanarar
afrikansk
afrikanske
afro
afroamerikanarar
afroamerikansk
afroamerikanske
aftenblad
aftenbladet
aftenposten
after
afternoon
ag
aga
again
against
agatha
agave
agdenes
agder
agdestein
age
agency
agenda
agent
agentar
agenten
ages
aggressiv
aggressive
agnar
agnes
ago
agreement
agricola
agricultural
agriculture
ah
ahead
ahmad
ahmed
ahmet
ahoy
ai
aid
aids
aiguille
aikio
aime
ain
air
aircraft
aires
airlines
airplane
airplay
airport
airways
ais
aise
aitken
aix
aj
aja
ajax
aji
ajman
ak
aka
akaba
akademi
akademien
akademiet
akademis
akademisk
akademiske
akbar
aker
akers
akerselva
akershus
akhai
akhmatova
akita
akkadisk
akkerman
akko
akkompagnement
akkompagnementet
akkompagnert
akkompagnerte
akkord
akkordane
akkordar
akkurat
akkusativ
akp
akronym
aks
akse
aksel
akselerasjon
akselerasjonen
aksen
aksent
akseptere
akseptert
aksepterte
aksjane
aksjar
aksjeselskap
aksjon
aksjonar
aksjonen
aksla
akt
akta
akter
aktig
aktige
aktiv
aktive
aktivist
aktivistar
aktivitet
aktivitetane
aktivitetar
aktiviteten
aktivt
aktuell
aktuelle
aktuelt
aktør
aktørar
akustisk
akustiske
akutt
akvarium
al
ala
alabama
aladdin
alain
alan
alarik
alarm
alaska
alawittar
alba
alban
albania
albansk
albanske
albany
albatross
albatrossar
albatrosses
albedo
albert
alberta
alberto
albertville
albion
albirex
albrecht
album
albuma
albumet
albumlista
albums
albumtittelen
albumversjonen
albuquerque
albus
alder
alderen
aldersgrupper
aldrar
aldri
ale
alec
aleine
alejandro
alekhine
aleksander
aleksandersen
aleksanderøya
aleksandr
aleksandra
aleksej
alen
alene
aleppo
alessandro
aleutane
alex
alexander
alexandra
alexandre
alexandria
alexis
alf
alfa
alfabet
alfabetet
alfabetisk
alfonso
alfred
algar
alge
algebra
algebraisk
alger
algerie
ali
alicante
alice
alien
alison
alive
alkohol
all
alla
allah
allan
alle
allegro
allen
aller
allereie
alles
alley
alliance
alliansar
allianse
alliansen
alliert
allierte
allison
allium
allkunne
allkunnebok
allman
allmenn
allmenne
allment
allmugen
allmusic
allround
allsidig
allt
alltid
alm
alma
almagro
almanac
almaty
alminneleg
almond
almost
almqvist
alomar
alone
along
alonso
alpane
alpert
alpes
alpha
alphonse
alpin
alpine
alpiner
alpinist
alpint
alps
alright
als
alsace
alsaker
also
alstahaug
alt
alta
altaj
altar
altaret
altartavla
altartavle
alte
alter
alteret
alternativ
alternative
alternativet
alternativt
altertavla
altfor
altimetrica
alto
altsa
altsaksofon
aluminium
alv
alvar
alvdal
alver
alversund
alvin
alvor
alvorleg
alvorlege
always
alyga
am
ama
amadeus
amalie
amanda
amandaprisen
amanuensis
amar
amatørar
amazing
amazon
amazonas
amazonaselva
ambassaden
ambassadør
ambassadøren
ambient
ambisiøse
ame
amelia
amen
america
american
americana
americans
americas
amerika
amerikanarane
amerikanarar
amerikanaren
amerikansk
amerikanske
ames
amfi
amfibium
amherst
ami
amiga
amin
amir
amman
ammunisjon
amnesty
amon
among
amor
amore
amos
amour
ampezzo
amplituden
amr
amsterdam
amt
amtet
amtliches
amtmann
amund
amundsen
amur
amy
an
ana
analog
analoge
analysar
analyse
analysen
analysere
analysis
analytisk
anand
anare
anarkistiske
anas
anatolia
anatolij
anatomi
anatomiartikkelen
anatomisk
anatomiske
anatomy
anbar
anca
anchorage
ancient
and
anda
andaluci
andante
ande
andebu
andeleg
andelege
anden
andenes
anderlecht
anders
andersen
anderson
anderssen
andersson
andes
andesfjella
andhra
andlet
andletet
andorra
andra
andre
andrea
andreas
andreassen
andrej
andremann
andreplass
andreplassar
andreplassen
andres
andresen
andrespra
andrew
andrews
android
andsynes
andy
andøy
andøya
ane
anemone
anerkjend
anerkjende
anerkjenning
anerkjent
anerkjente
anette
angara
ange
angel
angela
angeles
angell
angelo
angels
angelsaksisk
angelsaksiske
anger
angitt
anglesey
anglikanske
anglo
angola
angreip
angrep
angrepet
angrepsspelar
angripe
angripen
angst
angus
anhalt
anhui
ani
animal
animals
animasjon
animation
animert
animerte
anita
anja
anjou
anka
ankara
ankeny
anker
ankermann
ankra
anlagt
anledning
anlegg
anlegga
anlegget
anløp
anmeldelse
ann
anna
annakvart
annals
annan
annapurna
anne
annektert
annekterte
annen
annet
annette
annie
anniversary
annleis
anno
annonsert
annonserte
announce
announced
announces
annual
annullert
ano
anon
anonym
anonyme
anonymt
another
ans
anse
ansgar
ansikt
ansiktet
ansla
anson
ansvar
ansvaret
ansvarleg
ansvarlege
ansvarsomra
answer
answers
ant
anta
antal
antalya
antarctic
antarctica
antarktis
antarktisekspedisjonen
antarktisk
antarktiske
antarktiskekspedisjonen
antarktistraktaten
antbird
ante
anten
antenner
anthem
anthology
antholz
anthony
anthropology
anti
antibiotika
antigen
antigua
antikk
antikke
antikken
antikkens
antillane
antiokia
antiquity
antistoff
antlers
anto
antoine
antoinette
antologi
anton
antoni
antonia
antonio
antonius
antonsen
antony
antpitta
antrim
antropologi
ants
antwerpen
antwren
anund
anvers
any
anybody
anymore
anything
ao
ap
apache
apartheid
apc
ape
apg
aphra
aphrodite
apj
apocalypse
apollo
apollon
apostelen
apostelgjerningane
apostlane
apotek
apparat
appelsin
appendix
appenninane
appenzell
appice
apple
appleton
applied
approach
approx
apr
april
aqualung
aquitaine
ar
ara
arab
arabarane
arabarar
arabia
arabian
arabic
arabisk
arabiske
arabs
arad
arafat
arago
aragon
aralsjøen
aram
arameisk
arameiske
arane
arar
arbeid
arbeida
arbeidar
arbeidarane
arbeidarar
arbeidarklassen
arbeidarparti
arbeidarpartiet
arbeidarrørsla
arbeidd
arbeidde
arbeide
arbeider
arbeiderblad
arbeiderbladet
arbeidernes
arbeiderparti
arbeiderpartiet
arbeidet
arbeids
arbeidsdepartementet
arbeidskraft
arbeidskyrkje
arbeidslivet
arbeidsløysa
arbeidsløyse
arbeidsoppga
arbeidsplassar
arbeidsplassen
arbeidstittelen
arbeiten
arbo
arbor
arc
arcade
arch
archaeological
archaeology
arche
archeology
archeopress
archer
archi
archibald
archipelago
architecture
archiv
archive
archived
archives
arctic
ard
ardija
are
area
areal
arealet
areas
aremark
arena
arenaen
arenaer
arendal
aretha
arezzo
arfo
argentina
argentine
argentinsk
argentinske
arges
argument
argumenterte
argyll
ari
aria
ariar
arie
ariel
arif
arild
arista
aristide
aristokratiet
aristoteles
arizona
ark
arkadi
arkansas
arkeolog
arkeologar
arkeologen
arkeologi
arkeologisk
arkeologiske
arkhangelsk
arkheologiyot
arkimedes
arkipel
arkitekt
arkitektane
arkitektar
arkitekten
arkitekter
arkitektonisk
arkitektoniske
arkitektur
arkitekturen
arkitekturguide
arkiv
arkiva
arkivdato
arkivert
arkivet
arkivkopi
arkivportalen
arkivurl
arkivverket
arktis
arktisk
arktiske
arles
arlo
arm
armand
armane
armar
arme
armeane
armed
armeen
armen
armenarar
armenia
armensk
armenske
arms
armstrong
army
arn
arna
arne
arneberg
arnesen
arnesson
arnfinn
arno
arnold
arnstein
arnt
arntzen
arnulf
aron
around
arp
arr
arrangement
arrangementa
arrangementet
arrangere
arrangerer
arrangert
arrangerte
arrangør
arrangøren
arrangørlandet
arrestert
arresterte
arrival
arrondissement
arrow
arrowsmith
ars
arsenal
art
artane
artar
artdatabanken
arte
artemis
artemisia
arten
artene
arter
artfakta
arthur
article
articles
artikkel
artikkelen
artiklane
artiklar
artikler
artilleri
artilleriet
artist
artista
artistane
artistar
artiste
artisten
artister
artistnamnet
artists
artium
arts
artsdatabanken
artsdatabankens
artsnamnet
artsobservasjoner
artsopplysningar
artur
arturo
aruba
arv
arva
arve
arvefølgjekrigen
arveleg
arven
arverett
arvid
arving
arvingane
arvingen
arxiv
as
asa
asbjørn
asbjørnsen
ascap
ascension
aschehoug
aschehougs
ascher
aserbajdsjan
aserbajdsjansk
aserbajdsjanske
asgard
ash
ashdod
asher
ashes
asheton
ashford
ashgate
ashkelon
ashley
ashton
asia
asian
asiatisk
asiatiske
asir
ask
asked
askeland
asker
askheim
askim
askvoll
askøy
aslak
aslaug
asle
asorane
asp
aspects
aspekt
aspx
ass
assad
assam
assembly
assessment
assia
assisi
assistanse
assistent
assisterande
assistert
assisterte
associated
associates
association
assosiert
assyrarane
assyrarar
assyria
assyrisk
assyriske
ast
asta
asteroid
asteroidane
asteroidar
asteroide
asteroidefamilien
asteroidelister
asteroiden
astma
aston
astor
astrakhan
astrid
astro
astrolabe
astronaut
astronom
astronomar
astronomen
astronomi
astronomiartikkelen
astronomical
astronomiques
astronomisk
astronomiske
astronomy
astrophysical
astrophysics
astrup
asturias
asyl
asylum
asymmetrisk
at
ata
atahualpa
atari
atco
atelier
aten
athen
athena
athene
athens
athletic
atkins
atkinson
atlanta
atlanteren
atlanterhavet
atlanterhavskysten
atlantic
atlantis
atlas
atle
atmosfære
atmosfæren
atmosfærisk
atmosfæriske
atmosphere
atmospheric
atom
atoma
atombomba
atomet
atomic
atomnummer
atomuba
atomva
att
atta
attack
attande
atten
attende
attentat
attentatet
atter
attgjeve
attiki
attila
attmed
attom
attraksjon
attraksjonar
attval
attvald
attverande
au
aubert
aubrey
auch
auckland
aud
aude
audio
auditorium
audnedal
audrey
audun
auf
aug
auga
auge
auget
augneblink
augo
augsburg
august
augusta
auguste
augustin
augustine
augusto
augustus
auk
auka
aukande
aukar
auke
auken
aukra
aukrust
auksjon
aune
aur
aura
aurdal
aure
aurelius
aurland
aurora
aurskog
aus
auschwitz
ausgabe
aust
austad
austbreidda
austen
austenden
austerrikarane
austerrike
austerriksk
austerrikske
austersjøen
austersjøfinsk
austersjøfinske
austeuropeiske
austevoll
austin
austindiakompaniet
austkysten
austlandet
austleg
austlegaste
austlege
austlid
austom
austover
austra
australasia
australasiatiske
australia
australian
australiancharts
australis
australsk
australske
austre
austrheim
austria
austrian
austriancharts
austromarane
austromarriket
austromerske
austsida
austtysk
austtyske
author
authorised
authority
authors
auto
autobiography
automatic
automatisert
automatisk
automatiske
autonom
autonome
autor
autoritet
autoritetar
autoriteten
autoritære
autumn
auvergne
aux
av
ava
available
avaldsnes
avalon
avansert
avanserte
avant
avantgarde
avbilda
avbilding
avbrot
avbrote
avbroten
avdekt
avdekte
avdeling
avdelinga
avdelingane
avdelingar
avduka
avdøde
avec
avenue
average
averøy
aves
avesta
avfall
avfolka
avfyrt
avgang
avgangar
avgarde
avgift
avgifter
avgjer
avgjera
avgjerande
avgjerd
avgjerda
avgjerder
avgjere
avgjersla
avgjersler
avgjorde
avgjort
avgrensa
avgrensar
avgrense
avgrensing
avgrensingar
avhandling
avhandlinga
avhandlingar
avheng
avhengig
avhengige
avian
aviation
avignon
avinor
avis
avisa
avisene
aviser
avispa
aviv
avkjøling
avkjølt
avkjørsel
avkom
avl
avla
avlang
avlange
avleia
avleidd
avleidde
avleiing
avleiringar
avlidne
avlingane
avlingar
avlyse
avlyst
avlyste
avløp
avløyst
avløyste
avon
avory
avretta
avrettinga
avrunda
avrøystinga
avsett
avsette
avsidesliggande
avskaffa
avskjed
avskoging
avsla
avslo
avslutning
avslutninga
avslutta
avsluttande
avsluttar
avslutte
avsluttinga
avslørt
avslørte
avsnitt
avsnittet
avsta
avstamming
avstand
avstandar
avstanden
avstemming
avstikkar
avstod
avtala
avtalar
avtale
avtalen
avtalt
avvia
avvik
avvikande
avvikla
avviser
avvist
avviste
award
awards
away
ax
axe
axel
axelsen
axis
ay
ayers
ayn
aynsley
ayrshire
az
azerbaijan
aziz
azkaban
azul
b
ba
baal
bab
baba
babbler
babe
babel
babies
babord
baby
babylon
babylonia
babylonske
bac
baca
bach
bacharach
bachelor
bachelorgrad
bachmann
bachs
back
backbeat
backed
backer
background
bacon
bad
bada
baden
badet
badfinger
baez
bafta
bag
bagdad
baglarane
baha
bahamas
bahia
bahrain
bai
bailey
baja
bajkalsjøen
bak
baka
baker
bakgrunn
bakgrunnen
bakhsh
bakka
bakkar
bakke
bakken
bakkerud
bakkroppen
baklengs
bakom
bakover
bakre
baksida
bakteriar
bakterien
baku
bakverk
bal
balance
balanse
balansen
balansert
balchen
balder
baldwin
balestrand
bali
balin
balkan
balkanfjella
balkankrigen
balke
ball
ballad
balladar
ballade
balladen
ballads
ballangen
ballen
ballet
ballett
balletten
ballistiske
ballklubb
ballroom
balls
balsfjord
baltic
baltikum
baltimore
baltiske
balutsjistan
bam
bamble
ban
bana
banan
banana
bananar
banane
banar
band
banda
bandar
banded
bandet
bandleiar
bandmedlem
bandmedlemmane
bandmedlemmene
bandnamnet
bands
bandy
bane
banebrytande
banen
baneparametrar
bang
bangkok
bangladesh
bangor
bangs
bani
banjo
bank
bankar
banke
banken
bankmann
banks
banner
bannlyst
banshees
banton
bantuspra
banu
banzare
baptiste
bar
bara
barack
barar
barbados
barbara
barbarossa
barber
barbet
barbra
barbuda
barcelona
bardu
bardufoss
bare
barentshavet
bari
bark
barker
barking
barlow
barn
barna
barnard
barndom
barndomen
barndommen
barne
barnebarn
barnebarnet
barneblad
barnebok
barneboka
barnebokforfattar
barnebøker
barnehagar
barnehage
barnes
barneskule
barneskulen
barnet
barnett
barney
barokk
barokke
barokken
baron
baroque
barr
barra
barre
barrett
barrie
barrier
barrieren
barron
barrow
barry
barskog
bart
barth
barton
bartre
baryton
barytonsaksofon
bas
basalt
basar
base
baseball
based
basel
basement
basen
baserer
basert
baserte
basic
basie
basil
basilika
basilikaen
basin
basis
baskarland
basketball
baskisk
basra
bass
basse
bassen
basseng
bassenget
bassey
bassgitar
bassgitarist
bassist
bassisten
bassklarinett
basso
bastion
bat
bataljon
bataljonar
bataljonen
bates
bath
batman
bats
batt
batteri
batteriet
battista
battle
baud
bauer
baugen
bauhaus
baumann
bautastein
baxter
bay
bayer
bayern
bayerske
bayley
bayou
bayt
bb
bbc
bc
bd
bds
be
beach
beacon
beagle
bean
bear
beard
beast
beat
beate
beatles
beatrice
beatrix
beats
beau
beaumont
beautiful
beauty
beaux
beaver
bec
became
because
bech
beck
becker
beckett
become
becomes
bed
beda
bede
bedehus
bedehuskapell
beden
bedford
bedre
bedrift
bedrifta
bedrifter
beduinane
beduinar
bee
beeb
beefheart
been
beer
beersheba
beethoven
befesta
befolkning
befolkninga
before
befrukta
beg
began
begeistra
begge
begin
beginners
beginning
beginnings
begins
begynne
begynninga
begynt
begynte
behageleg
behalde
behandla
behandling
behandlinga
behavior
behaviour
beheldt
behind
behindthename
behn
behov
behovet
bei
beiarn
beijing
bein
beina
beinet
being
beinn
beint
beirut
beit
beita
beitar
beite
beitemark
beitemarker
beiting
beitstad
bekk
bekkar
bekken
bekkenet
bekrefta
bel
belafonte
belaja
belarus
belarusisk
belew
belfast
belgia
belgian
belgica
belgique
belgisk
belgiske
belgium
believe
belisarius
belize
bell
bella
bellamy
belle
bellied
bellingshausen
bellini
bellmare
bello
bells
belong
below
belt
belte
beltet
bemanna
ben
bend
bender
bendik
bendiksen
bendjoya
benedict
benedicte
benedikt
benefit
benfica
bengal
bengali
bengt
benin
benito
benjamin
benmont
bennett
benny
bensin
bensinstasjon
benson
bent
bente
bentley
benz
beograd
beordra
beowulf
ber
bera
berande
berarar
bere
berekna
berekraftig
beretning
berg
berga
bergamo
bergan
bergart
bergartane
bergartar
bergarten
bergarter
berge
bergen
bergenhus
bergens
bergensavisen
bergensbanen
bergenske
bergenskes
berger
berget
berggrunnen
bergh
bergljot
bergman
bergmann
bergset
bergsland
bergslien
bering
beringhavet
berit
berkeley
berkshire
berleva
berlin
berliner
berlinmuren
bermuda
bern
bernard
bernardo
bernd
berner
bernhard
bernhoft
bernie
bernini
bernoulli
bernstein
bernt
berntsen
berr
berre
berry
bert
bertha
berthelsen
bertil
bertolt
bertrand
berwick
berykta
berømt
berømte
besetning
besetninga
beskidane
beskjed
beskrive
beskrivelse
beskytta
best
besta
bestand
bestandar
bestanden
beste
bestefar
bestefaren
bestemann
bestemd
bestemde
bestemme
bestemmer
bestemor
bestemora
bestemt
bestemte
bestetid
bestilt
bestilte
bestod
bestseljande
besøk
besøkande
besøksdato
besøkt
besøkte
bet
beta
betala
betale
betaling
betalt
betalte
betennelse
beth
bethlehem
betlehem
betong
betongen
betra
betre
bette
better
betts
betty
betula
between
bety
betydeleg
betydelege
betydning
betyr
beundra
bevan
bevare
bevaring
bevart
bevarte
bevegelege
beverley
beverly
bevis
bevisst
bevist
bey
beyer
beyonce
beyond
bezirk
bf
bg
bgle
bhutan
bi
bianca
biathlon
bibcode
bibel
bibelen
bibelsk
bibelske
bible
biblical
bibliografi
bibliography
bibliotek
bibliotekar
biblioteket
bibsys
bidra
bidrag
bidraga
bidraget
bidragsytar
bidreg
bidrege
bidrog
bie
bieber
biel
bier
biff
big
bigger
biggest
bight
bihar
bikubar
bil
bilancio
bilane
bilar
bilbao
bilde
bilder
bildet
bilen
bileta
biletbok
bilete
biletet
biletgalleri
bilethoggar
bilethoggaren
biletkunst
biletkunstnar
bilferje
bill
billboard
billed
biller
billerman
billie
billig
billigare
billion
billy
bilo
bilulukke
bilveg
bin
bind
binda
bindal
bindande
binde
bindevev
binding
bindingar
bing
bingen
binyamin
bio
biodiversity
biografen
biografi
biografiar
biografien
biografier
biografisk
biografiske
biographical
biographie
biography
biokjemiartikkelen
biolog
biologi
biologiartikkelen
biological
biologisk
biologiske
biology
biosfærereservat
biprodukt
bir
birch
bird
birdlife
birds
bireh
birger
birgit
birgitta
birgitte
biri
birka
birkeland
birkenes
birmingham
birolle
birth
birthday
bis
biscayabukta
bischofshofen
biscoe
bishop
biskop
biskopane
biskopar
biskopen
bislett
bismarck
bispedøme
bispedømet
bispedømme
bispesete
bispesetet
bissau
bistand
bit
bitar
bitch
bite
bites
bitre
bits
bitter
biz
bizarre
bja
bjarne
bjarte
bjelke
bjelland
bjerke
bjerknes
bjerkreim
bjo
bjugn
bjøller
bjørg
bjørge
bjørgen
bjørgum
bjørgvin
bjørk
bjørke
bjørkum
bjørn
bjørnafjorden
bjørnar
bjørndal
bjørndalen
bjørneboe
bjørnen
bjørnson
bjørnstad
bjørnstjerne
bjørnøya
bk
bl
bla
blabbermouth
black
blackadder
blackburn
blackmore
blackstar
blackwell
blad
blada
blade
bladet
blaine
blair
blake
blakstad
blanc
blanca
blanche
blanchett
blanco
bland
blanda
blandar
blande
blanding
blandinga
blank
blanke
blant
blast
blaublitz
blautdyr
blaze
ble
blehr
blei
bleik
bleikare
bleike
blekinge
blekk
blekksprut
blender
blenheim
bles
bless
blev
bley
bli
blikk
blind
blinde
blindveg
blink
blir
bliss
blitt
blix
bloch
block
blod
bloda
blodet
blodig
blodige
blodlekamar
blodtrykk
blog
blogg
bloggen
blogspot
blokk
blokka
blokker
blokkert
blokkerte
blokkfløyte
blom
blomane
blomar
blome
blomen
blomster
blomstra
blomstrande
blomstrane
blomstrar
blonde
blondie
blood
bloody
bloom
bloomfield
bloomington
bloomsbury
blow
blows
blu
blue
bluebird
bluegrass
blues
bluesbreakers
bluesrock
bluessongar
bluff
bluffs
bly
blyth
blæs
blømande
blømde
blømer
bm
bmatrix
bmg
bmi
bnei
bnp
bnr
bo
board
boat
boatwr
bob
bobby
bod
boda
boddaert
bode
boden
bodensjøen
bodil
bodskap
bodskapen
body
bodø
boeing
bog
bogar
bogdanov
boge
bogen
bogle
bogota
bogtrykkeri
bohemian
bohr
bohusla
boikotta
bois
bojer
bok
boka
boken
bokform
bokhandel
bokhylla
bokklubben
boklag
bokma
bokn
boks
boksar
boksen
bokstav
bokstavane
bokstavar
bokstaveleg
bokstaven
bokstavleg
bokstavsamanstellingar
bokverk
bol
bolan
bold
bolder
boldsymbol
bolero
boleyn
boli
bolivia
bolken
bolle
bologna
bolsjaja
bolsjevikane
bolsjoj
bolstad
bolt
bolton
bolzano
bom
bomb
bomba
bombardert
bombay
bombe
bombea
bombefly
bomber
bombing
bombinga
bommen
bomstasjon
bomull
bon
bonaparte
bond
bonde
bondelag
bonden
bondepartiet
bondeungdomslaget
bondevik
bone
bones
bongo
bonham
bonn
bonnevie
bonnie
bonnier
bonniers
bono
bonus
bonusspor
boo
boogie
book
booker
booklet
books
boom
boomerang
boone
booth
bootleg
boots
bop
bor
bora
borch
borchgrevink
bord
borda
bordeaux
border
borders
bordet
bore
borealis
boren
borg
borga
borgar
borgarane
borgarar
borgarkrig
borgarkrigen
borgarleg
borgarlege
borgarmeister
borgarmeisteren
borgarskap
borgarskapet
borge
borgen
borger
borgund
boris
bork
borken
borla
born
borna
borneo
bornholm
borough
borre
bort
bortanfor
borte
borten
bortetter
bortimot
bortsett
borussia
bosch
bosnia
bosnisk
boss
boston
bot
botanical
botanikar
botanikaren
botanikk
botanisk
botaniske
botany
both
botn
botnen
botswana
bottom
botvinnik
boulder
boulevard
bound
boundary
bounty
bourbon
bourcier
bourgeois
bourgogne
bouvetøya
bow
bowen
bowers
bowie
bowl
bowler
bowles
bowling
bowman
box
boy
boyd
boye
boyer
boyle
boys
boz
bozzio
bp
bpi
br
bra
brabant
brackett
brad
bradford
bradley
brady
brage
brageprisen
bragernes
bragg
brahe
brahms
brain
brakkvatn
branch
brand
brandbu
brandenburg
brandon
brandt
brann
brannar
brannen
brant
bras
brasil
brasiliansk
brasilianske
brass
brast
bratberg
bratislava
bratland
bratsberg
bratsj
bratt
brattare
bratte
bratteli
braun
braunschweig
braut
brave
bravo
bray
brazil
brazilian
bre
bread
break
breakdown
breakfast
breaking
breaks
breane
brear
breasted
breath
breathe
brecht
brecker
breda
brede
bredesen
breeding
breen
breeze
brei
breiare
breiaste
breidd
breidda
breidde
breiddegrad
breiddegraden
breiddegrader
breiddene
breidder
breie
breier
breili
breim
breitt
breivik
brekke
brel
bremanger
bremen
bremnes
brend
brenda
brendalsmo
brendan
brende
brenn
brenna
brennan
brennande
brenne
brenner
brennevin
brenning
brensel
brent
brescia
breslau
brest
bretagne
breton
bretonsk
brett
brettet
bretunge
brev
breva
brevet
brevik
brew
brewer
brewster
brian
brick
bride
bridge
bridges
brief
brien
brigade
brigaden
briggen
briggs
bright
brighton
brikke
brikkene
brikker
brill
brilliant
bring
bringa
bringe
bringing
bringsværd
brisbane
bristol
brit
brita
britain
britane
britannia
britannica
britar
briten
british
britisk
britiske
britt
britten
britton
brjansk
brno
bro
broad
broadcast
broadcasting
broadway
broch
brochmann
brock
brockstedt
broderi
broglie
broken
bromley
bronsar
bronse
bronsealder
bronsealderen
bronsefinalen
bronsemedaljar
bronsemedalje
bronsemedaljen
bronsen
bronseplass
bronseplassen
bronsevinnaren
bronson
bronte
bronze
brook
brooke
brooker
brooklyn
brooks
bror
broren
brorskap
brorson
bros
brot
brote
broten
brotet
brother
brotherhood
brothers
brotne
brotsverk
brought
browed
brown
browne
browning
broye
brt
bru
brua
bruce
bruene
bruer
bruford
brug
brugge
bruk
bruka
brukar
brukarane
brukarar
brukaren
brukast
bruke
bruken
bruker
bruket
bruksomra
brukt
brukte
brummels
brun
brundtland
brune
brunei
brunlanes
brunleg
brunn
brunne
brunnen
bruno
brunswick
brunt
brura
brus
brusamband
brusca
bruse
brussel
brutal
brutale
bruun
bruvik
bryan
bryant
brygga
brygge
bryggen
bryggeri
bryggeriet
bryhni
bryllaup
bryllaupet
bryn
bryne
brynjulf
bryson
bryst
brystet
bryt
bryta
bryte
bryting
bræk
brød
brødet
brødrene
brøgger
brønnøy
brønnøysund
brør
brørne
bs
bt
btr
bu
bua
buande
buch
buchanan
buck
buckingham
buckinghamshire
buckley
bucures
bud
budapest
budd
budde
buddha
buddhisme
buddhismen
buddhistisk
buddhistiske
buddy
budgie
budsjett
budsjettkomiteen
budstikke
buen
buenos
buer
buffalo
buffett
buffy
bug
bugge
building
buildings
built
buk
buken
bukken
bukser
bukt
bukta
bukter
bul
bulbul
bulgaria
bulgarsk
bulgarske
bull
bullet
bulletin
bullock
bund
bunde
bunden
bundesliga
bundesverband
bundne
bunker
bur
burchill
burde
burden
burdon
bureau
burg
burgas
burgess
burgh
burgund
burke
burkina
burma
burmesisk
burn
burnett
burnham
burning
burns
burrito
burt
burtkomne
burton
burundi
bus
busby
busetje
busetjing
busetjinga
busetjingane
busetjingar
busetnad
busetnadane
busetnadar
busetnaden
busetnadene
busetnader
busett
busette
bush
business
busk
buskar
buskerud
buss
bussar
bussen
bustad
bustadblokker
bustaden
bustader
bustadhus
bustadomra
buster
but
bute
buteo
butikk
butikkane
butikkar
butikken
butler
butt
butte
butterfield
butterfly
buttress
buxwv
buy
buzz
bwv
by
bya
byane
byar
byarkiv
bybanen
bybrann
bybrannen
bydel
bydelane
bydelar
bydelen
bydistrikt
bye
byen
byens
byer
byers
byfjorden
byfut
byfylke
bygd
bygda
bygde
bygdebok
bygdemuseum
bygdene
bygder
bygdetun
bygdøy
bygg
bygga
byggast
bygge
bygger
bygget
bygging
bygginga
byggja
byggjast
byggje
byggjer
byggmeister
byggverk
byggverka
byggverket
bygland
bygning
bygninga
bygningane
bygningar
bygningen
bygrensene
bygt
bykjernen
bykle
bykommunane
bykommunar
bykommune
bykommunen
byleksikon
bymurane
bymurar
bymuren
bynamnet
byomra
byprefektur
byprefekturet
byr
byra
byrd
byrds
byrettar
byrja
byrjar
byrje
byrjing
byrjinga
byrne
byron
bys
bysantinsk
bysantinske
bysenteret
bysentrum
bystatus
byste
bystyre
bystyret
byta
byte
byter
bytt
bytta
bytte
byttedyr
byttet
byva
byzantine
bær
bæra
bærum
bærums
bø
bøe
bøk
bøkene
bøker
bøler
bølgja
bølgjande
bølgje
bølgjelengd
bølgjelengda
bølgjelengder
bølgjene
bølgjer
bømlo
bøn
bøna
bøndene
bønder
bøner
bønner
bør
børge
børre
børresen
børs
børsen
bøye
bøyer
bøygd
bøygde
bøying
c
ca
cabanis
cable
cabo
cadet
caesar
caesarea
cafe
cage
cagliari
cain
caithness
cake
cal
calabria
calais
calcutta
caldwell
cale
caledonia
calendar
calgary
calidris
california
call
called
callier
calling
calls
calvados
calvin
calypso
cam
cambridge
camden
came
camel
camera
cameron
camilla
camille
cammermeyer
camp
campaign
campania
campbell
camping
campo
campus
can
canada
canadian
canadisk
canadiske
canal
canaria
canberra
cancer
canciones
cand
candle
candlemas
candy
canis
cann
canned
cannes
cannon
cannonball
cannot
canon
canongate
cantabria
cantatas
canterbury
canto
canyon
cap
capablanca
capaldi
cape
capella
capital
capitol
caplex
capo
capped
cappelen
cappelens
cappella
capri
capricorn
captain
car
caravaggio
caravan
carcassonne
card
cardiff
care
career
carey
caribbean
carl
carla
carlisle
carlo
carlos
carlsen
carlsson
carlton
carly
carmen
carmine
carnegie
carnival
carol
carole
carolina
caroline
carols
carolyn
carpenter
carpenters
carr
carrack
carrie
carroll
carry
cars
carson
carsten
carta
cartagena
carter
carthy
cartoon
casa
casablanca
case
cases
casey
cash
cashbox
casino
caspar
cass
cassidy
cassin
cassini
cast
castilla
castle
castor
castro
cat
catalog
catalogue
catalonia
catalunya
catch
categorii
cathedral
catherine
catholic
cathrine
cato
cats
cauca
cauchy
caught
cause
cave
cavendish
cbc
cbs
cbssyr
cc
cd
cdot
cdots
cds
cdu
ce
cecil
cecilia
cecilie
celebrate
celebration
celestial
celine
cell
cella
celle
cellene
celler
cellino
cello
celsius
celtic
cembalo
cemetery
census
cent
centauri
center
centimeter
central
centralbyra
centralort
centre
centuries
century
ceremony
ceres
cerezo
cern
cerro
certain
certification
certifications
certified
cesar
cetera
cf
cfm
cg
ch
cha
chad
chain
chaka
challenge
challenger
chalmers
chamber
chamberlain
chambers
chamonix
champagne
champion
champions
championship
championships
chan
chance
chandler
chandra
chang
change
changed
changes
changing
channel
chanson
chaos
chapel
chapelle
chapin
chaplin
chapman
chapter
character
charcot
charente
charge
charisma
charles
charlie
charlois
charlotte
charlton
chart
charter
charting
charts
chartstats
chartverfolgung
chas
chase
chat
chateau
chatham
chch
che
cheap
check
checker
checklist
chef
chelsea
chemical
chemistry
chen
chengdu
chennai
cher
cherry
cheshire
chess
chessgames
chester
chestnut
chet
chi
chiang
chiba
chic
chicago
chick
chicken
chicks
chief
chieftains
child
childhood
children
childs
chile
chilensk
chilenske
chili
china
chinese
chinn
chip
chipmunks
chips
chloris
cho
chocolate
choice
choir
choisir
chomsky
chopin
choral
choralwiki
chorus
chr
chris
christ
christchurch
christen
christensen
christer
christgau
christi
christian
christiane
christiania
christianity
christians
christiansen
christie
christina
christine
christmas
christoffer
christoph
christophe
christopher
christophersen
christopulos
christy
chrome
chronicle
chronicles
chronology
chrysalis
chu
chuck
church
churches
churchill
ci
cia
cicero
cie
cima
cincinnati
cindy
cinema
cio
circle
circuit
circumstances
circus
cirka
cirque
cisterner
cisticola
cit
cite
cities
citizen
citrus
city
ciudad
civil
civilization
ck
cke
cken
cker
cl
claire
clapton
clara
clare
clarence
clarendon
clark
clarke
clash
class
classe
classement
classic
classical
classics
classification
claude
claudia
claudine
claudio
claudius
claus
clausen
clavinet
clay
clayton
cle
clean
clear
clearwater
clemens
clement
clements
clementslista
cleopatra
cleveland
click
cliff
clifford
cliffs
climate
cline
clinical
clinton
clio
clive
clock
close
closer
clothing
cloud
clouds
club
cluj
cluster
clyde
cm
cmt
cn
cnn
co
coal
coast
coastal
coasters
cobham
cobra
coca
cochran
cocker
coco
cod
code
cody
coe
coffee
cohen
cohn
col
cola
colbert
cold
cole
coleman
coleridge
colette
colin
coliseum
collar
collared
colle
collected
collection
collections
collectionscanada
collector
college
collett
collier
collins
colo
colombia
colombiansk
colombianske
colonel
colonial
color
colorado
colored
colors
colosseum
colour
colt
coltrane
columba
columbia
columbus
com
come
comeback
comedy
comes
comet
comets
comfortably
comin
coming
command
commander
commentary
commerce
commercial
commission
committee
commodore
common
commons
commonwealth
communication
communications
communities
community
como
compact
companion
company
comparative
comparison
compass
compendium
compete
compilation
complete
complex
componente
composer
composers
composite
composition
comprehensive
compton
computer
comte
comuna
comune
con
conan
concept
concerning
concert
concerto
concertos
concerts
concise
concord
concordia
conde
conder
condita
condition
conditions
condor
cone
conference
confessions
confirmed
confirms
conflict
confused
confusion
conga
congatrommer
congo
congress
conn
connecticut
connection
connie
connolly
connor
conquest
conrad
consadole
consequence
conservation
constable
constant
constantine
constellation
constitution
construction
consumer
contact
conte
contemporary
content
contest
context
conti
continent
continental
continuo
continuum
contribution
control
convention
conversation
conversations
convoy
conway
cooder
cook
cooke
cool
coolidge
coop
cooper
copa
cope
copeland
copenhagen
copleymedaljen
copper
copy
copyright
coral
cordillera
core
corelli
corioliskrafta
cork
corn
cornelis
cornelius
cornell
corner
cornish
cornwall
corona
coronae
coronation
coronavirus
corp
corporation
corps
corpus
corr
corrections
corrs
corte
cortina
corun
corvus
cos
cosmic
cosmo
cosmos
costa
costello
cotton
could
council
count
countries
country
countryartisten
countrylista
countryrock
countrysongar
county
courage
course
court
courtney
couture
cov
cove
coventry
cover
coverdale
coverla
covers
coverversjon
coverversjonar
covid
cow
cowan
cowboy
cowboys
cox
cp
cr
craddock
cradle
craft
crag
crags
craig
cramer
crane
cranner
crash
crater
crawford
crazy
crc
cre
cream
creation
creative
creatures
credits
cree
creedence
creek
creem
creeps
cremona
creole
crescent
crest
crested
crew
cricket
crickets
crime
crimean
crimson
crisis
criss
cristin
cristo
critical
critics
crocker
croix
cromwell
cropper
crosby
cross
crossing
crossroads
crow
crowd
crowe
crowell
crown
crowned
crows
cruel
cruise
cruiseskip
crusade
crusader
cruz
cry
crying
crystal
crystals
cs
cska
csny
csv
ct
cti
cu
cuba
cubanske
cuckoo
cult
cultural
culture
cultures
cum
cumberland
cumbria
cummings
cumulus
cunha
cunningham
cup
cupen
cupfinalen
cupmeister
cupmeisterskap
cupvinnarcupen
curb
cure
curie
current
currie
curruca
curry
curt
curtis
curved
curzon
customs
cut
cuts
cutting
cuzco
cv
cvn
cy
cycle
cygnus
cyndi
cynthia
cyprus
cyril
cyrus
cz
czech
czukay
cæsar
d
da
daa
daae
dab
dactylorhiza
daddy
daegu
daevid
dag
dagane
dagar
dagars
dagblad
dagbladet
dagbok
dagboka
dagen
dagens
dager
dagestan
dagfinn
daggry
dagleg
daglege
dagleglivet
daglegtale
dagmar
dagny
dags
dagsavis
dagsavisa
dagsavisen
dagslys
dagtid
dahl
dahle
dahls
dai
daily
dakar
dakota
dal
dalane
dalar
dalarna
dalarnas
dalbotn
dalbotnen
dale
dalen
dalføra
dalføre
dalføret
dallas
dalmatia
dalton
daltrey
dam
damage
damaskus
dame
damer
damien
damm
dammam
dammar
dammen
damn
damned
damp
dampba
dampmaskin
dampskibsselskab
dampskip
dampskipet
dampskipselskap
dampskipsselskap
dan
dana
dance
dancer
dances
dancing
dande
dane
danger
dangerous
daniel
daniels
danielsen
danish
danishcharts
danko
danmark
danmarks
danna
dannar
dannast
danne
dannebrogordenen
danning
danninga
danny
dans
dansa
dansar
dansarane
dansarar
danse
dansemusikk
dansen
dansk
danskane
danskar
danske
dante
danzig
daphne
dar
daraa
darin
darius
dark
darkness
darling
darmstadt
darren
darryl
darwin
daryl
das
dass
dat
data
dataartikkelen
database
databasen
datamaskin
datamaskinar
datamaskiner
dataprogram
dataspel
datatjeneste
date
datenbank
datering
datert
daterte
dates
dativ
dato
datoar
datoen
datoverdiar
datter
daud
daude
daudehavet
dauden
daughter
daun
dauphin
dauphine
dave
davey
david
davids
davidsen
davidson
davies
davik
davis
davos
davvi
davy
dawn
dawson
day
days
dazed
db
dc
dd
dde
ddr
de
deacon
dead
deal
dean
dear
death
debatt
debatten
debbie
deborah
debussy
debut
debutalbum
debutalbumet
debutantpris
debuten
debuterte
debutplata
debutsingelen
dec
decade
decades
decca
december
deceptionøya
decline
decurtis
dedicated
dedikert
dedisert
dediserte
dee
deep
deepfreeze
def
defence
defense
definerast
definere
definerer
definert
definerte
definisjon
definisjonar
definisjonen
definition
definitive
definitivt
deg
dei
deig
deigen
deim
dein
deir
deira
dekar
dekk
dekka
dekke
dekker
dekket
dekkja
dekkje
dekkjer
dekning
dekor
dekorasjon
dekorasjonar
dekorativ
dekorative
dekorert
dekorerte
dekret
dekt
dekte
del
dela
delaktig
delane
delaney
delar
delast
delaware
dele
delegasjonen
delen
deler
delfi
delfinalen
delhi
delight
deling
delinga
dell
della
delle
delomra
dels
delstat
delstatane
delstatar
delstaten
delt
delta
deltaet
deltakande
deltakar
deltakarane
deltakarar
deltakarlanda
deltake
deltaking
deltakinga
deltar
deltatt
delte
deltek
delteke
deltok
deluxe
delvis
dem
demd
deming
demning
demninga
demningar
demo
demoar
democracy
democratic
demoen
demografico
demokrati
demokratiet
demokratisk
demokratiske
demon
demonstrantar
demonstrasjon
demonstrasjonane
demonstrasjonar
demonstrerte
demos
dempa
den
dene
deneb
denis
denise
denmark
denne
dennis
denny
dens
dent
denton
denver
departement
departementa
departementet
department
dependencies
dependency
deportert
deporterte
depot
depresjon
depresjonen
depression
der
deram
derav
derby
derbyshire
dere
derek
deres
deretter
derfor
derfra
deriblant
derifra
derimot
deriverte
dermanland
dermanlands
dermed
derry
dersom
derta
des
descartes
description
desember
desert
design
designa
designar
desire
desmond
desolation
desperat
dess
dessau
desse
dessutan
dessuten
destination
destiny
destruction
det
detail
details
detalj
detaljane
detaljar
detaljert
detaljerte
detroit
dets
detta
dette
deutsch
deutsche
deutschen
deutscher
deutsches
deutschland
deux
devanagari
development
devi
devil
devils
devold
devon
dewey
dexter
deyoung
dezvoltare
dgjevande
dgjevar
dh
dhabi
dhofar
dhus
dhuset
di
dia
diabetes
diagnose
diagnosen
diagram
diagrammet
dialekt
dialektane
dialektar
dialekten
dialog
diamant
diamantar
diameter
diameteren
diamond
diamonds
diana
diane
diary
dias
dibe
dich
dick
dickens
dickinson
dickson
dictionary
dictionnaire
did
diddley
diddy
didier
didn
didrik
die
died
diego
diem
dies
diesel
dieselmotor
dieselmotorar
diesen
dieter
dietrich
dietrichson
dietten
different
difor
diftongar
dig
diger
digest
digital
digitalarkivet
digitale
digitalisert
digitaliserte
digitalt
digitaltmuseum
digte
dike
dikt
dikta
diktar
diktarane
diktarar
diktaren
diktator
diktatoren
diktatur
diktaturet
dikter
diktet
dikting
diktinga
diktning
diktsamling
diktsamlinga
diktsamlingar
dillard
diltz
dimashq
dimed
dimension
dimensjon
dimensjonar
dimery
din
dina
dinah
dinamo
dinariske
dine
ding
dinger
dino
dinosaurar
dio
diocletian
diokletian
diomedea
dion
dionne
dios
diplom
diplomat
diplomatarium
diplomatisk
diplomatiske
dir
dire
direct
direction
director
directory
direkte
direktekvalifisert
direktoratet
direktør
direktøren
dirigent
dirigenten
dirigert
dirigerte
dirk
dirt
dirty
dis
disaster
disc
disco
discography
discogs
discover
discovered
discovery
discs
discussion
disease
diseases
disguise
dish
disiplane
disiplin
disk
diskografi
diskografien
diskos
diskoskast
diskoskasting
diskret
diskrete
diskriminering
diskusjon
diskusjonar
diskusjonen
diskutere
diskuterer
diskutert
diskuterte
diskvalifisert
disney
disnorge
display
displaystyle
disponent
disse
dissertation
distance
distansane
distansar
distanse
distansen
distant
distinkte
distribuert
distribusjon
distribution
district
districts
distrikt
distrikta
distriktet
distriktsby
dit
dition
ditlev
ditt
div
diva
diverre
diverse
diversity
divided
divine
division
divisjon
divisjonar
divisjonen
dix
dixie
dixon
diz
dizionario
dizzy
dj
django
djerv
djevelen
djibouti
djup
djupare
djupaste
djupe
djupedal
djupet
djupn
djupna
djupne
djupner
djupt
djurga
dk
dl
dm
dmann
dmitrij
dn
dna
dnb
dnepr
dnipropetrovsk
dnt
do
dobbel
dobbelt
dobbeltalbum
dobbeltalbumet
dobbeltstjerne
dobla
doble
doblougprisen
dobro
doc
doch
dock
doctor
document
documentary
documents
dodd
dodekanesane
does
doesn
dog
dogg
doggett
dogs
doha
doherty
doi
doing
dokk
dokka
dokker
doktor
doktorgrad
doktorgraden
dokument
dokumenta
dokumentar
dokumentaren
dokumentarfilm
dokumentarfilmen
dokumentasjon
dokumenterer
dokumentert
dokumenterte
dokumentet
doll
dollar
dolls
dolly
dolomitt
dolphin
dom
domain
domba
dome
domen
domene
domenico
domesday
dominans
dominansen
dominerande
dominere
dominerer
dominert
dominerte
domingo
dominic
dominica
dominikanske
dominion
dominique
domino
dominos
domkyrkja
domkyrkje
dommar
dommarane
dommarar
dommaren
dommen
domprosti
domstol
domstolane
domstolen
don
donahue
donald
donau
done
donegal
donegan
donerte
donetsk
dong
donkey
donna
donne
donnie
donny
donovan
donsker
doo
doobie
doom
door
doors
dop
doping
dopmisbruk
dora
dordrecht
dore
doris
dorothea
dorothy
dorset
dorsey
dortmund
dory
dos
dose
dosent
dot
dotter
dottera
dotterselskap
douard
double
doubleday
doubt
doug
douglas
dove
dover
dovre
dovrebanen
dovrefjell
dowd
down
downbeat
downing
download
downs
downtown
doyle
dr
dra
dracula
drag
dragon
dragons
drake
draken
drakk
drakt
drakta
drakter
drama
dramaet
dramatikar
dramatikk
dramatisk
dramatiske
drammen
drammens
drammensbanen
drangedal
drap
drapet
drar
drastisk
draum
draumar
draumen
draumkvedet
draw
dray
dream
dreamer
dreaming
dreams
dreg
drege
dregen
dregs
dreidde
dreier
dreiv
drenerer
drenert
drep
drepa
drepe
drepen
drepne
dresden
dress
drew
dreyer
drift
drifta
drifters
drikk
drikka
drikkar
drikke
drikkekar
drikken
drikkevatn
drink
drip
driv
driva
drivande
drivar
drive
driven
driver
driving
drivkraft
drivkrafta
drivne
drivstoff
dro
drog
dronning
dronninga
drop
dropar
droppa
druer
drug
drugs
drukna
drum
drummer
drummond
drums
drusarar
dry
dryas
drygalski
drygt
drøbak
drøfta
drøm
ds
dsavdelinga
dt
du
duane
dub
dubai
dublin
dubrovnik
duc
duck
dudgeon
dudley
due
duer
duets
duett
duetten
dufek
duff
duffy
dugande
dugleik
dugleiken
dugnad
duk
duke
dukka
dukkar
dukke
dulcimer
dum
dumas
dumfries
dumont
dun
dunbar
duncan
dundee
dunedin
dunn
duo
duoen
dupa
dur
duran
durch
durchholz
durham
during
dus
dusin
dusky
dust
dusty
dutch
dutchcharts
dutchman
duun
dvale
dvd
dvden
dverg
dvina
dvs
dwarf
dwight
dx
dy
dybwad
dyer
dying
dyke
dykk
dykkar
dykkarar
dykking
dyktig
dyktige
dylan
dynamical
dynamics
dynamisk
dynamiske
dynamitt
dynamo
dynasti
dynastia
dynastiet
dynasty
dyntaxa
dyr
dyra
dyraste
dyre
dyreartar
dyreartikkelen
dyreliv
dyrelivet
dyret
dyrka
dyrkar
dyrkbar
dyrke
dyrking
dyrt
dyrøy
dz
dæ
død
døde
dødeleg
døden
dødsa
dødsfall
dødsfallet
dødsstraff
dødstalismanene
dødvekttonn
døger
døgn
døgnet
dølen
døma
dømd
dømde
døme
dømes
dømet
dømt
dønna
dør
døra
dørene
dører
døtrene
døtrer
døy
døyande
døydd
døydde
døyparen
døypefont
døypefonten
døypt
døypte
døyr
e
ea
each
eagle
eagles
eana
ear
eared
earl
earle
earliest
early
earring
earth
earthling
earthquake
easlea
east
easter
eastern
easton
easy
eat
eaton
eb
eberhard
ebinger
ebird
ebro
ebu
ece
echo
echoes
eckhoff
eclipse
ecm
eco
ecological
ecology
economic
economics
economist
economy
ecstasy
ecuador
ed
eda
edda
edderkoppar
eddie
eddy
edel
edelsteinar
eden
eder
edgar
edge
edicions
ediktet
edinburgh
edison
edit
edited
edith
edition
editions
editor
editorial
editors
edle
edmond
edmonton
edmund
edn
edna
eds
edu
eduard
eduardo
education
educational
edvard
edward
edwards
edwin
ee
eerdmans
eesti
ef
effect
effects
effekt
effektane
effektar
effekten
effektiv
effektive
effektivt
efta
efter
eg
ege
egearhavet
egede
egeiske
egeland
egen
eger
egersund
eget
egg
egga
egge
eggen
egget
eggs
eggum
egil
egmont
egna
egne
egner
egnund
ego
egon
egypt
egyptarane
egyptian
egyptisk
egyptiske
ehf
ehime
ehir
ei
eia
eid
eidanger
eide
eidem
eidet
eidfjord
eidsberg
eidsfjorden
eidskog
eidsva
eidsvoll
eidsvollsmann
eiendom
eig
eiga
eigar
eigarane
eigarar
eigaren
eigarskap
eigd
eigde
eige
eigedom
eigedomane
eigedomar
eigedomen
eigedommane
eigedommar
eigedommen
eigen
eigenleg
eigenskap
eigenskapane
eigenskapar
eigenskapen
eigentleg
eigentlege
eigersund
eight
eigna
eignar
eigne
eik
eika
eikaas
eikefjord
eiker
eilat
eilean
eilert
eilif
ein
einannan
einar
einast
einaste
eindhoven
eine
einer
einera
eines
einesta
eingong
einige
eining
eininga
einingane
einingar
einkvan
einkvar
einmannskrinsen
eins
einsam
einsame
einsarta
einsemd
einsfarga
einskapleg
einskild
einskilde
einsleg
einslege
einspora
einstein
eintal
eintydig
eira
eirik
eiriksson
eisenhower
eit
eitt
eitta
eivind
eivindvik
ej
ek
ekeberg
ekko
eklund
ekman
ekroll
eks
eksakt
eksakte
eksamen
eksempel
eksemplar
eksil
eksingedalen
eksistens
eksistensen
eksisterande
eksistere
eksisterer
eksistert
eksisterte
ekskludert
eksklusiv
eksklusive
eksotiske
ekspanderte
ekspansjon
ekspansjonen
ekspedisjon
ekspedisjonane
ekspedisjonar
ekspedisjonen
ekspedisjonsskipet
eksperiment
eksperimenta
eksperimentell
eksperimentelle
eksperimentelt
eksperimentere
eksperimenterte
eksperimentet
ekspert
ekspertar
eksplisitt
eksploderte
eksplosiv
eksplosive
eksplosjon
eksplosjonar
eksplosjonen
eksponert
eksport
eksporten
eksportert
eksterne
ekstra
ekstranummer
ekstraomgangar
ekstrem
ekstreme
ekstremt
ekstremve
ekte
ektefellen
ektemann
ektemannen
ekteparet
ekteskap
ekteskapet
ekvator
ekvatorial
el
ela
elaine
elastisk
elbasan
elbe
eld
eldar
elden
elder
eldgamle
eldlandet
eldre
eldste
eleanor
election
electric
electronic
electronicagruppa
elefant
elefantar
elefantøya
eleg
elegant
elegante
elege
elektra
elektrifisert
elektrikar
elektrisitet
elektrisk
elektriske
elektro
elektromagnetisk
elektromagnetiske
elektromagnetisme
elektron
elektrona
elektronet
elektronikk
elektronisk
elektroniske
element
elementa
elementet
elements
elena
eleonora
elephant
elev
elevane
elevar
eleven
elfenbein
elfenbeinskysten
elg
elgar
eli
elias
eliassen
elin
eliot
elisa
elisabet
elisabeth
elise
elite
eliten
eliteserien
eliza
elizabeth
ell
ella
elle
ellen
eller
ellers
elles
ellesmere
elleve
ellevte
elling
ellingsen
ellington
elliot
elliott
elliptisk
elliptiske
ellis
ellsworth
elo
elsa
else
elsevier
elsewhere
elska
elskar
elsker
elster
elton
elv
elva
elvane
elvar
elvdal
elvebreidda
elvedalen
elvemunningen
elven
elvene
elver
elverum
elvin
elvis
ely
em
emanuel
emberiza
embete
embetet
embetseksamen
embetsmann
embetsmenn
emblem
emerald
emergency
emeritus
emerson
emi
emigrantar
emigrerte
emil
emile
emilia
emilie
emilio
emily
emir
emirata
emirates
emiratet
emiren
emma
emmanuel
emmental
emmy
emmylou
emna
emne
emnet
emperor
empire
empires
empty
ems
emu
en
enare
enaresamisk
encyclopaedia
encyclopedia
encyclopædia
end
enda
endane
endangered
endar
ende
endeavour
endeleg
endelege
endemisk
endemiske
enden
endepunkt
ender
enderby
endestasjon
endestasjonen
ending
endinga
endless
endra
endrar
endrast
endre
endresen
endring
endringa
endringane
endringar
endringer
ends
endt
endurance
ene
enebakk
enemy
energi
energidepartementet
energidirektorat
energien
energiniva
energisk
energy
eneste
enfield
eng
engadin
engasjement
engasjementet
engasjert
engasjerte
enge
engel
engelberg
engelbert
engelen
engels
engelsk
engelske
engelskmenn
engelskmennene
engelskspra
engelsktalande
engelstad
engen
enger
engerdal
engine
engineering
engineers
england
englar
english
enigma
enka
enke
enkel
enkelt
enkelte
enkeltrenn
enkja
enkje
enklare
enklaste
enkle
enn
enna
enno
eno
enorm
enorme
enormt
enough
enrico
enrique
ensembl
ensemble
ensemblet
enten
enter
enterprise
enterprises
entertainment
entreprenør
entry
entusiastisk
entwistle
environment
environmental
enzym
eo
eocen
eos
ep
epen
epic
epipactis
episk
episke
episodar
episode
episoden
eple
epoke
epoken
eposet
epsilon
epstein
er
era
erasmus
erdal
ere
erebus
erfaring
erfaringane
erfaringar
erfarne
eric
erich
erichsen
ericson
ericsson
erik
erika
eriksen
eriksson
erindringer
eritrea
erkebiskop
erkebiskopen
erkehertug
erklært
erklærte
erlangen
erlanger
erlend
erlewine
erling
erlingsson
erna
ernest
ernie
ernst
erobra
erobraren
erobre
erobring
erobringa
erodert
eros
erosjon
erotiske
erskine
erstatning
erstatta
erstattar
erstatte
erter
ertva
eruption
ervik
erwin
es
esa
esc
escape
escarpment
esctoday
esel
eskeland
eskil
eskilstuna
eskimo
espan
especially
espeland
espen
esperanto
ess
essay
essays
essen
essential
essex
est
estate
este
ester
estetikk
estetisk
estetiske
esther
estimat
estimates
estimert
estimerte
estisk
estiske
estland
estonia
estonian
estrada
estuar
estuaret
et
eta
etablera
etablere
etablering
etableringa
etablert
etablerte
etanol
etappane
etappe
etappen
etasjar
etasje
etast
etaten
etc
ete
eten
eternal
eternity
ethelred
ethnic
ethnologue
etiketten
etikk
etiopia
etiopisk
etiopiske
etisk
etiske
etne
etnedal
etnisitet
etnisk
etniske
eto
etoloakarnani
ett
etta
etter
etterfylgd
etterfylgjande
etterfølgd
etterfølgde
etterfølgjande
etterfølgjar
etterfølgjarane
etterfølgjaren
etterfølgt
etterkant
etterkomarane
etterkomarar
etterkommarar
etterkrigstida
etterkvart
etterlate
etterle
etterlet
etterlikna
etterliknar
etterlikne
ettermiddagen
etternamn
etternamnet
etterord
etterpa
etterretning
ettersom
etterspurnad
etterspurnaden
ettertid
ettertida
ettertrakta
etymologisk
etymology
etzion
eu
euch
eufrat
euge
eugen
eugene
euler
eurasia
eurasian
eure
euro
eurogamer
europa
europacupen
europameister
europameisterskap
europameisterskapen
europaparlamentet
europara
europarekord
europas
europaveg
europe
european
europearane
europearar
europearen
europeisk
europeiske
eurovision
eurovoix
eusebius
euwe
ev
eva
evakuert
evakuerte
evaluation
evan
evang
evangelia
evangeliet
evangelisk
evangelist
evangelisten
evanger
evans
eve
evelyn
even
evenes
evening
evensen
event
events
eventuell
eventuelle
eventuelt
eventyr
eventyra
eventyret
eventyrspel
ever
everest
everett
everly
everton
every
everybody
everyday
everyhit
everyone
everything
everywhere
evic
evidence
evig
evige
evil
evje
evna
evne
evnene
evner
evolusjon
evolution
evolutionary
evt
ew
ex
examen
example
excavations
excel
exchange
exclusive
executive
exeter
exhibition
exile
exit
expanded
expansion
expedition
expeditions
experience
experiment
experimental
explained
explicit
exploration
explorer
explorers
exploring
expo
express
expression
extended
external
extinction
extra
extreme
ey
eye
eyed
eyes
eyre
eystein
eyvind
ez
ezra
ezrin
eøs
f
fa
faber
fabian
fablar
fabricius
fabrikk
fabrikkane
fabrikkar
fabrikken
fabrikker
fabulous
face
facebook
faced
faces
facility
fact
factbook
facto
factor
factory
facts
factsheet
fade
fader
faderen
fag
faga
fagbokforlaget
fagen
fagernes
fagert
faget
fagfelt
fagfeltet
fagfolk
fagiano
fagleg
faglege
fagomra
fagott
fagrørsla
fahd
fair
fairbanks
fairport
fairweather
fairy
fairytale
faith
faithfull
fakta
faktaark
faktisk
faktiske
faktor
faktorane
faktorar
faktoren
faktum
fakultet
fakultetet
falch
falck
falco
falcon
falk
falkland
falklandsøyane
falkner
fall
falla
fallande
falle
fallen
fallet
falling
falls
falne
false
falsen
falsk
falske
falt
falun
fame
familiane
familiar
familie
familien
families
familjebok
family
famous
fan
fana
fancy
fane
fang
fanga
fangane
fangar
fange
fangeleir
fangen
fangenskap
fangst
fangsten
fann
fanny
fans
fansen
fanside
fanst
fant
fantasi
fantastic
fantastisk
fantastiske
fantasy
fao
faq
far
fara
faraday
farah
farao
farbar
fare
faren
farewell
farfar
farfaren
farga
fargane
fargar
farge
fargen
farger
fargerik
fargerike
fargestoff
farinella
farleg
farlege
farm
farmen
farmer
farmington
farner
farnese
farrell
fars
farsgarden
farsi
farsund
fart
farten
fartøy
fartøya
fartøyet
farvatn
farvatna
farvatnet
farvel
fasa
fasaden
fasar
fascination
fascinert
fascismen
fascistiske
fase
fasen
fashion
faso
fast
fastbuande
faste
fasting
fastlandet
fastlands
fastsett
fastsette
fastsla
fat
fatah
fate
fateh
father
fatra
fats
fatt
fatta
fattig
fattigaste
fattigdom
fattige
faulkner
fault
fauna
fauske
faust
favorite
favoritt
favorittane
favoritten
favourite
faye
fbi
fc
fe
fear
fearnley
fears
feast
feat
feather
feature
features
featuring
feb
feber
februar
february
fecture
federal
federation
federico
fedje
feed
feedback
feeding
feel
feelin
feeling
feelings
feels
feet
feil
feila
feilaktig
feilen
feira
feirar
feire
feiring
feiringa
feiringar
feit
feitt
fekk
fela
felder
feldman
fele
feliciano
felipe
felix
fell
feller
felles
fellesbusetnad
fellesnemning
fellesra
fellesskap
fellesskapet
fellesstart
fellestrekk
fellow
fellowship
felt
felta
feltet
feltmarskalk
feltspat
felttog
felttoga
felttoget
fem
fema
female
feminist
femkamp
femmila
femna
femnar
femner
femtande
femte
femten
femteplass
femteplassen
femti
fender
fengande
fengsel
fengselet
fengsla
fenomen
fenomenet
fenrik
fer
ferd
ferda
ferdast
ferdig
ferdige
ferdigstilt
ferdinand
ferdsel
ferguson
ferie
feriestad
ferja
ferje
ferjeinfo
ferjekai
ferjer
ferjesamband
ferjesambandet
ferjestrekninga
fermi
ferna
fernand
fernando
ferrara
ferrari
ferry
fersk
ferske
ferskvatn
fest
festa
festar
feste
festen
festival
festivalar
festivalen
festivali
festning
festninga
festningane
festningar
festningen
festningsverk
festningsverka
festskrift
festspela
fet
fetteren
fever
few
feynman
ff
ffk
ffs
fi
fiasko
fiat
fiber
ficedula
fiction
fidase
fide
fidel
fidelity
fidjestøl
fids
field
fields
fiemme
fiendane
fiendar
fiende
fienden
fiendtleg
fiendtlege
fier
fifa
fife
fifth
fifty
fig
figaro
fight
fighters
fighting
figur
figurane
figurar
figure
figuren
figures
fiji
fiken
fikk
fiktiv
fiktive
fil
filchner
file
filefjell
filer
files
filharmoniske
filip
filippinane
filippinsk
filippinske
filippo
fillmore
film
filma
filmane
filmar
filmartikkelen
filmatiseringa
filmatisert
filmen
filmfestivalen
filmmusikk
filmmusikkalbum
filmmusikkalbumet
filmmusikken
filmregissør
films
filmskapar
filmskodespelar
filolog
filologi
filosof
filosofar
filosofen
filosofi
filosofien
filosofisk
filosofiske
filter
fimi
fin
final
finalane
finale
finalekampen
finalen
finalesiger
finalist
finalistane
finally
financial
finans
finansdepartementet
finansielle
finansiere
finansiering
finansiert
finansierte
finanskomite
finanskomiteen
finansminister
finare
finaste
finch
find
findbestscript
finding
finds
fine
finger
fingers
fingrane
fingrar
finkorna
finland
finlands
finn
finna
finnane
finnar
finnast
finne
finnes
finnish
finnishcharts
finnmark
finno
finnsnes
finnur
finnøy
finsk
finske
finskebukta
finskspra
finst
fint
fiolett
fiolin
fiolinar
fiolinist
fiolinisten
fiolinkonsert
fionn
fiordland
fiorentina
firda
fire
firea
firedelt
firefly
firenze
fireside
firkamp
firkanta
firma
firmaet
first
firth
fis
fischer
fish
fishbase
fisher
fisk
fiska
fiskane
fiskar
fiskarane
fiskarar
fiskarlag
fiske
fiskeartar
fiskeba
fisken
fiskeoppdrett
fiskeri
fiskeria
fisket
fiskevær
fiskeværet
fit
fitch
fitjar
fitzgerald
five
fja
fjaler
fjeld
fjell
fjella
fjellet
fjellførarane
fjellkjeda
fjellkjede
fjellkjedene
fjellkjeder
fjellklatrar
fjellklatrarar
fjellklatring
fjellmassiv
fjellmassivet
fjellomra
fjellovergang
fjellrygg
fjellryggen
fjells
fjellsida
fjellsidene
fjellsider
fjellskrent
fjelltopp
fjelltoppane
fjelltoppar
fjelltoppen
fjerde
fjerdedel
fjerdemann
fjerdeplass
fjerdeplassen
fjern
fjerna
fjernar
fjernast
fjerne
fjerning
fjernsjakk
fjernsyn
fjernsynet
fjernsynskanal
fjernsynskanalen
fjernsynsprogram
fjernsynsprogrammet
fjernsynsserie
fjernsynsserien
fjerntliggande
fjodor
fjord
fjordane
fjordar
fjordarm
fjordarmen
fjorden
fjortande
fjorten
fjærland
fjør
fjøra
fjørdrakt
fjørdrakta
fjøre
fjørene
fjører
fjørtoft
fk
fl
fla
flack
flag
flagg
flagga
flaggermus
flagget
flaggskipet
flags
flakstad
flame
flames
flaming
flamme
flamsk
flamske
flandern
flankane
flanken
flash
flaske
flasker
flat
flata
flatanger
flate
flatema
flater
flatevidd
flatevidda
flatland
flatt
flaug
flaum
flaumar
flaumen
flaut
flavius
flavour
fleet
fleetwood
fleira
fleire
fleirtal
fleirtalet
fleirtyding
fleischer
flekk
flekkar
flekkefjord
flekker
fleming
flere
flesberg
flesh
flesland
flest
fleste
fletcher
fletta
flickr
flies
flight
flink
flint
flittig
flo
flokk
flokkar
flokken
flood
floor
flora
floraen
florence
flores
florian
florida
florø
flott
flotte
flow
flower
flowers
floyd
flu
fluger
fluid
flukt
flukta
fly
flya
flybase
flycatcher
flydde
flyet
flyfoto
flyfotografi
flyg
flygande
flygar
flyge
flygedyktige
flygelhorn
flyging
flyginga
flygingar
flying
flykta
flykte
flyktningar
flynn
flyplass
flyplassar
flyplassen
flyr
flyselskap
flyselskapet
flyt
flytande
flytt
flytta
flyttar
flyttast
flytte
flytter
flytting
flyttinga
flytur
flyturen
flyva
fløgstad
fløy
fløya
fløyta
fløyte
fløyter
fm
fn
fo
focus
fogderi
fogerty
foghat
fokus
fokusere
fokuserer
fokusert
fokuserte
fokuset
folda
folk
folka
folke
folkeavstemming
folkebibliotek
folkeblad
folkedans
folkeeventyr
folkeforbundet
folkegruppa
folkegruppe
folkegruppene
folkegrupper
folkehøgskole
folkehøgskule
folkehøgskulen
folkeleg
folkelege
folkemengd
folkemengda
folkemengde
folkeminne
folkeminnesamlar
folkemordet
folkemunne
folkemuseum
folkemusikar
folkemusikk
folkemusikken
folkeparti
folkepartiet
folkerepublikken
folkeretten
folkerikaste
folkerike
folkerøysting
folkerøystingar
folkesetnad
folkesetnaden
folkesett
folkesette
folkeskulen
folkeslag
folkeslaga
folkesongar
folkestad
folket
folketal
folketala
folketalet
folketalsstatistik
folketalsutvikling
folketeljing
folketeljinga
folketeljingane
folketeljingar
folketettleik
folketinget
folketom
folketonar
folketru
folkets
folkevalde
folkevandringstida
folkevise
folkeviser
folklore
folkrock
folks
folldal
follo
follow
following
folque
fond
fonda
fondet
fonds
fonem
fonetisk
fonetiske
fonna
fonologi
fonologisk
fonologiske
fontaine
fontana
foo
food
foods
fool
fools
foot
football
for
fora
foramen
foran
forandra
forandre
forandring
forandringar
forankra
forbaud
forbes
forbetra
forbetre
forbetring
forbetringar
forbi
forbiga
forbod
forbode
forboden
forbodet
forbodne
forbrenning
forbruk
forbrukar
forbund
forbunde
forbundet
forbundslandet
force
forces
ford
fordampar
fordamping
fordel
fordelar
fordelen
fordeler
fordeling
fordelinga
fordelt
fordelte
fordi
fordømde
foredrag
foreign
foreigner
foreining
foreininga
forelda
foreldra
foreldre
forelska
forening
foreningen
forenkla
foresla
foreslo
forest
forever
forfall
forfatning
forfatta
forfattar
forfattarane
forfattarar
forfattaren
forfattarliste
forfattarskap
forfattarskapen
forfatter
forfatterforening
forfatterkatalogen
forfedrane
forfremja
forfremma
forfølgde
forfølging
forget
forgifta
forgjengaren
forgotten
forhandla
forhandle
forhandlingane
forhandlingar
forhindra
forhold
forholda
forholdet
forholdsvis
forkant
forkasta
forkastinga
forkjempar
forkla
forklara
forklarar
forklarast
forklare
forklarer
forklaring
forklaringa
forklaringar
forklart
forklarte
forkorta
forkorting
forkortinga
forl
forlag
forlaget
forlagt
forlandsbre
forlata
forlate
forlaten
forlatne
forle
forleggjar
forlenga
forlenging
forlet
forlik
forlikskommisjonen
forlikskommissær
forlis
forliset
forliste
forløpar
forløparen
form
forma
formann
formannen
formannskap
formannskapet
formannskapsdistrikt
formar
formasjon
formasjonar
formasjonen
format
formatet
formation
forme
formel
formelen
formell
formelle
formelt
formene
former
formgjevar
formidla
formidlar
formidle
formidling
formlar
formoe
formue
formuen
formuleringar
formulert
formulerte
fornamn
fornebu
fornminne
fornuft
fornya
fornying
forord
forordet
forplantar
forplikta
forrest
forretning
forretningar
forretningsmann
forretningsmannen
forrige
forsamling
forsamlinga
forsand
forseinka
forsiktig
forska
forskansa
forskar
forskarane
forskarar
forskaren
forsking
forskinga
forskingsdokumentasjonssystemet
forskingsekspedisjon
forskingsinstitutt
forskingssentral
forskingsstasjon
forskjell
forskjellen
forskjellig
forskjellige
forskning
forskningsdatas
forskningsra
forskrift
forskrifter
forslag
forslaget
forsta
forstad
forstadane
forstaden
forstader
forstand
forster
forsterka
forsterkar
forsterkarar
forsterke
forsterkingar
forstod
forstyrra
forstyrringar
forstørra
forsvann
forsvar
forsvara
forsvarar
forsvararane
forsvare
forsvaret
forsvarets
forsvarsdepartementet
forsvarskomiteen
forsvarsminister
forsvarsspelar
forsvarsverk
forsvart
forsvarte
forsvinn
forsvinne
forsvunne
forsyner
forsyningane
forsyningar
forsøk
forsøka
forsøket
forsøkt
forsøkte
fort
fortald
fortalde
fortalt
fortalte
fortare
forteikn
fortel
fortelja
forteljande
forteljar
forteljaren
fortelje
forteljing
forteljinga
forteljingane
forteljingar
fortelling
fortellinger
fortenestemedalje
fortenestmedalje
fortet
forth
fortid
fortida
fortidsminneforeningen
fortsatt
fortset
fortsetja
fortsetje
fortsetjing
fortsett
fortsette
fortuna
fortune
forty
fortællinger
forum
forureina
forureining
forutan
forvalta
forvaltar
forvalting
forvaltingsreforma
forvaltingsreformen
forvaltning
forveksla
forvekslast
forveksling
forventa
forverra
forvilla
forvirra
forvirrande
forvirring
forvist
forvitring
forward
fosen
fosfat
fosfor
fosnava
fosnes
foss
fossa
fossane
fossar
fosse
fossefall
fossen
fossil
fossile
fossum
foster
fostra
fot
fotball
fotballag
fotballaget
fotballartikkelen
fotballforbund
fotballigaen
fotballklubb
fotballklubbar
fotballklubben
fotballspelar
fotballspelaren
fotballstatistikk
fotballtrenar
foten
fotfeste
fotnotar
foto
fotograf
fotografen
fotografert
fotograferte
fotografi
fotografiet
fotografisk
foton
fots
fotturar
found
foundation
four
fourier
fourth
fowler
fox
foxtrot
foyn
fr
fra
fraa
frac
fragment
frakt
frakta
frakte
fram
framand
framande
framdrift
frame
frametter
framferd
framferda
framfor
framføra
framføre
framfører
framføring
framføringa
framføringane
framføringar
framført
framførte
framgang
framgangen
framgangsma
framhald
framheva
framifra
framkommeleg
framlegg
framlegget
framleis
framme
framom
framover
frampton
framrykkinga
framsida
framsta
framsteg
framstegspartiet
framstilla
framstille
framstiller
framstilling
framstillinga
framstillingar
framstilt
framstilte
framsyning
framsyninga
framsyningar
framtid
framtida
framtidig
framtidige
framtredande
framveksten
franc
franca
france
frances
francesco
franche
francis
francisco
franck
franco
frank
frankarane
franke
frankenstein
frankfurt
frankie
frankiske
franklin
frankrike
franks
frans
fransk
franske
franskmannen
franskmenn
franskmennene
franskspra
fransktalande
franz
fraser
fre
freak
fred
freda
fredag
freddie
freddy
fredeleg
fredelege
freden
frederic
frederick
fredericks
frederik
fredrik
fredriksen
fredrikshald
fredrikstad
fredsavtale
fredsavtalen
fredspris
free
freedom
freeman
freeze
frei
freiburg
freidig
freista
freistar
freiste
freistnad
frekvens
frekvensar
frekvensen
frelse
frelsers
frelsesarmeen
frem
fremja
fremje
fremme
fremre
fremst
fremste
french
fresh
fresvik
freud
frey
fri
friare
fribourg
fricke
frida
friday
fridom
fridomen
fridommen
fridtjof
frie
friedman
friedrich
friele
friend
friends
friesland
frigg
frigjere
frigjering
frigjeringa
frigjeringsorganisasjon
frigjeve
frigjorde
frigjort
frihet
friidrett
friidretts
friidrettsforbundet
friidrettsutøvar
friis
frikjend
friksjon
friluftsliv
friluftsomra
frimann
frimerke
fripp
frisinna
frisisk
frisk
friske
fristaten
fristil
fritida
fritt
frittsta
fritz
friviljug
frivillig
frivillige
fro
frode
frodig
frodige
froeschle
froese
frogn
frogner
froland
from
fron
front
frontale
fronted
fronten
frontfigur
frontier
frontiers
frontmann
frontmannen
froskar
frost
frosta
frozen
frp
fru
frue
fruit
frukost
frukt
frukta
fruktbar
fruktbare
fruktbart
fruktene
frukter
frukttre
frustrert
fry
frydenlund
frygia
frykt
frykta
frys
fryse
frysepunktet
fræna
frø
frøa
frøken
frøy
frøya
ft
fu
fuchs
fuego
fuel
fuge
fugl
fuglane
fuglar
fugleart
fugleartar
fugleatlas
fugleguide
fugleliv
fuglelivet
fuglen
fugler
fuglereservat
fujairah
fujian
fujieda
fukt
fukta
fuktig
fuktige
fukuoka
fukushima
fulfulde
fulham
full
fulle
fuller
fullføra
fullføre
fullført
fullførte
fullma
fullmaktskomite
fullmaktskomiteen
fullmektig
fullstendig
fullstendige
fullt
fulltekst
fulltext
fullverdig
fun
function
fund
fundacio
fundament
fundamental
fundamentale
fundamentet
funeral
fungera
fungerande
fungere
fungerer
fungert
fungerte
funk
funksjon
funksjonane
funksjonar
funksjonen
funky
funn
funna
funne
funnen
funnet
funny
fur
furay
fure
furnes
further
furu
furuset
furuskog
fury
fusa
fusion
fusjon
fusjonerte
fut
futen
future
fv
fvt
fy
fykerud
fylgde
fylgjande
fylgje
fylgjer
fylka
fylke
fylkes
fylkesarkiv
fylkesarkivet
fylkesbaatane
fylkesgrensa
fylkesinndelingen
fylkeskommune
fylkeskommunen
fylkesleksikon
fylkesmann
fylkesmannen
fylkesordførar
fylkesra
fylkesting
fylkestinget
fylkesveg
fylket
fyll
fylla
fylle
fyller
fylt
fylte
fyn
fyr
fyra
fyresdal
fyret
fyrhistorisk
fyrliste
fyrst
fyrstane
fyrstar
fyrstasjon
fyrstasjonar
fyrstasjonen
fyrste
fyrstedøme
fyrstedømet
fyrstehuset
fyrsten
fyrsteplass
fyrsteplassen
fyrta
fyrverkeri
fysikar
fysikaren
fysikk
fysikkartikkelen
fysikken
fysiologi
fysisk
fysiske
fær
færder
færrast
færre
færøyane
færøysk
færøyske
føda
fødd
fødde
føde
fødebyen
føder
føderal
føderale
føderasjonen
føderasjonssubjekta
fødestaden
fødsel
fødselen
fødselsdag
fødselsdagen
født
føler
følgd
følgde
følge
følgja
følgjande
følgje
følgjeleg
følgjer
følgjet
følgt
følte
fønikarane
fønikisk
fønikiske
før
føra
førande
førar
føraren
førast
førde
føre
førebels
førebilete
førebu
førebuande
førebudd
førebudde
førebuing
førebuingane
førega
føregangaren
føregjekk
førehand
førekjem
førekomst
førekomstane
førekomstar
førekomsten
førema
føremon
føren
førenamn
fører
føresetnad
føresla
føreslo
førestilling
førestillinga
førestillingar
føretak
føretaka
føretaket
føretrekk
føretrekkjer
føretrekte
førevegen
førhistorisk
førhistoriske
føringa
førkristen
føroya
førre
først
første
førsteamanuensis
førsteplass
førsteplassen
førstnemnde
førstninga
førsund
ført
førte
førti
føtene
føter
g
ga
gaardnavne
gabbro
gabon
gabrels
gabriel
gabrieli
gabrielle
gad
gaga
gaia
gail
gainare
gaines
gainsbourg
gaius
gal
gala
galaksane
galaksar
galakse
galaksen
galaxy
galdt
gale
galen
galicia
galilea
galilei
galileo
gall
gallagher
gallen
galleri
galleriet
gallery
gallia
gallo
galloway
gallus
galtvort
galway
gamal
gamalengelsk
gamalnorsk
gamalt
gamba
gambia
game
gamecube
gamer
games
gamespot
gamla
gamle
gamlebyen
gamlekyrkja
gamma
gammal
gammalengelsk
gammalgresk
gammalnorsk
gammalsyrisk
gammalt
gammastra
gammel
gammleng
gamvik
gan
gandhi
gang
ganga
gangar
gange
gangen
ganske
gansu
ganze
gap
gar
garage
garbarek
garborg
garci
garcia
gard
gardane
gardar
gardbrukar
garde
garden
gardens
gardermoen
gardner
gards
gardsbruk
gardsdrift
gardsnamn
gardsnamnet
gardsnummer
gare
gareliggande
garfunkel
garland
garmisch
garn
garnes
garnison
garnisonen
garonne
garrett
garry
garson
garth
gary
gas
gasherbrum
gasje
gass
gassane
gassar
gassen
gassisk
gast
gaste
gaston
gat
gata
gate
gatelandsbyen
gatene
gater
gates
gateway
gauguin
gaular
gauldal
gaulle
gaup
gaupne
gausdal
gauss
gaute
gav
gave
gavin
gay
gaye
gaynor
gaza
gazastripa
gazeteer
gazette
gazetteer
gb
gc
gdan
ge
gear
gecko
geddy
gee
gees
geffen
geilo
geils
geir
geiranger
geirr
geist
geistleg
geistlege
geit
geiter
gels
gemeindeverzeichnis
gemini
gen
gender
gene
genera
general
generalane
generalar
generalen
generalforsamlinga
generalguvernør
generalløytnant
generalmajor
generalsekretær
generasjon
generasjonar
generasjonen
generation
generator
generell
generelle
generelt
genererer
genes
genesaretsjøen
genesis
genet
genetic
genetics
genetisk
genetiske
geneva
geneve
genfersjøen
genitiv
genius
genom
genome
genomet
genova
genrelexikon
genres
genresuche
gent
gentile
gentle
gentleman
gentlemen
genus
geo
geoff
geoffrey
geofysikar
geofysiske
geograf
geografen
geografi
geografiartikkelen
geografisk
geografiske
geographic
geographical
geographische
geographischen
geography
geolog
geologar
geologen
geologi
geological
geologien
geologisk
geologiske
geology
geometri
geometrien
geometrisk
geometriske
geonames
geophysical
georg
george
georges
georgia
georgie
georgisk
georgiske
geospatial
ger
gerald
gerard
gerd
gerhard
gerhardsen
gerlache
gerlista
germain
german
germania
germansk
germanske
germany
gerry
gers
gershwin
gert
gertrude
geschichte
gesellschaft
gesta
gestapo
get
gets
getting
getz
gevær
gfk
gg
gh
ghana
ghetto
ghost
ghosts
gi
giacomo
giant
giants
gibb
gibbons
gibbs
gibraltar
gibson
gibøen
gideon
gift
gifta
giftarma
gifte
giftig
giftige
gifu
gig
gigantisk
gikk
gil
gilbert
gildeska
giles
gill
gillan
gilles
gillespie
gilliland
gilmore
gilmour
gimme
gina
ginger
ginsberg
gion
giorgio
giovanni
gips
gir
giravanz
girji
girl
girls
giske
gisle
gitar
gitarar
gitaren
gitarist
gitaristane
gitaristar
gitaristen
gitarriff
gitarsolo
gitarsoloar
gitarsoloen
gitashenasi
gitt
giulio
giuseppe
giv
givat
give
given
gives
giving
giæver
gjaldt
gje
gjedde
gjekk
gjel
gjeld
gjelda
gjeldande
gjelde
gjelsvik
gjemnes
gjendikta
gjendikting
gjenerobra
gjenforeint
gjeng
gjengen
gjengjeld
gjeninnført
gjennom
gjennombrot
gjennombrotet
gjennomføra
gjennomføre
gjennomføringa
gjennomført
gjennomførte
gjennomga
gjennomgang
gjennomsiktig
gjennomslag
gjennomsnitt
gjennomsnittet
gjennomsnittleg
gjennomsnittlege
gjenom
gjenoppbygd
gjenoppbygginga
gjenoppdaga
gjenoppretta
gjenreist
gjensidig
gjensidige
gjenskape
gjenstand
gjenstandane
gjenstandar
gjenta
gjentekne
gjentok
gjenvald
gjenverande
gjer
gjera
gjerast
gjerda
gjerde
gjerdet
gjerdrum
gjere
gjermund
gjerne
gjerning
gjerpen
gjerstad
gjertsen
gjesdal
gjest
gjesta
gjestar
gjesteartist
gjesteartistar
gjestemusikarar
gjestene
gjester
gjev
gjeva
gjevast
gjeve
gjeven
gjevne
gjirokaste
gjord
gjorde
gjort
gjær
gjæser
gjødsel
gjør
gjøre
gjørme
gjøvik
gl
gla
glacier
glaciers
glad
glade
gladys
glam
glamrock
gland
glandet
glans
glarus
glas
glasgow
glasiolog
glasma
glass
glassverk
glastonbury
glatt
glatte
gleda
glede
glee
glei
glen
glenn
gli
glimmer
glimrande
glimt
glir
glise
glitter
global
globale
globalt
globe
glomma
gloppen
gloria
glory
glossary
gloucester
gloucestershire
glover
glow
glu
gluck
glukose
glyn
glødande
gløymd
gløymde
gløymt
gmbh
gmelin
gnagarar
gneis
gnis
gnome
gnr
gnu
go
goa
goal
god
godal
godchaux
goddard
gode
godfrey
godkjend
godkjende
godkjenning
godkjent
gods
godseigar
godset
godt
godta
godteke
godteri
godtok
goes
goethe
goffin
gogh
goin
going
gol
golan
golanhøgdene
gold
goldberg
golden
goldman
goldsmith
goldstein
golf
golfkrigen
golfstraumen
golv
golvet
gomez
gondwana
gone
gong
gongane
gongar
gongen
gonger
gonna
gonza
gonzaga
good
goodbye
goodman
goodnight
google
goose
gora
gorbatsjov
gordon
gordy
gore
gorge
gorkij
gospel
got
goth
gothic
gotisk
gotiske
gotland
gott
gotta
gottes
gottfried
gotthard
gottlieb
gottorp
gould
gouldman
gov
government
governor
governorate
govt
gp
gps
gr
gra
graaf
grace
graceland
grad
grada
gradar
graden
gradene
grader
gradvis
graeme
graf
graff
graffiti
grafikar
grafikk
grafisk
grafiske
graham
grain
grallaria
gram
gramm
grammar
grammaticus
grammatik
grammatikk
grammatikken
grammatisk
grammatiske
grammy
grammyprisar
grammyprisen
grampus
gran
granada
granat
granatar
grand
grande
grane
grange
granger
granitt
granska
gransking
granskingar
grant
granvin
grappa
gras
graset
grashopper
grass
grassletter
gratangen
grateful
gratis
graubu
graut
grav
grava
grave
graven
gravene
graver
graves
gravferd
gravferda
gravhaugar
gravid
gravitasjon
gravity
gravkapell
gravlagd
gravlagde
gravlagt
gravlund
gravlunden
gravminne
gravminner
gravplass
gravplassen
gravstaden
gravy
gray
graz
gre
great
greater
greatest
greco
greece
greek
green
greenberg
greene
greenland
greenwich
greenwood
grefsen
greg
gregg
gregor
gregorianske
gregory
greidde
greie
greier
grein
greina
greinene
greiner
greip
grekarane
grekarar
gren
grenada
grenadinane
grend
grenda
grendene
grender
grenland
grenlandsma
grenoble
grensa
grensar
grense
grenseland
grensen
grensene
grenseomra
grenser
grep
grepstad
gresk
greske
greta
grete
grethe
grev
grevane
greve
greven
grevinne
grevskap
grevskapa
grevskapet
grey
gri
grieg
griffin
griffith
griffiths
grimm
grimstad
grin
grind
grini
grip
gripe
gris
gritty
gro
grong
groningen
groove
grop
gror
grorud
groruddalen
gros
grosch
gross
grossman
grotius
grotta
grotte
grottene
grotter
ground
group
groups
grov
grove
groven
grovt
grow
growing
growth
große
grp
gru
grue
grundig
grundtvig
grunge
grunn
grunna
grunnane
grunnar
grunne
grunneininga
grunnen
grunner
grunnfag
grunnfjellet
grunngjevinga
grunnkrins
grunnla
grunnlag
grunnlagd
grunnlagde
grunnlaget
grunnlagt
grunnleggande
grunnleggaren
grunnlegginga
grunnleggjande
grunnleggjar
grunnleggjarane
grunnleggjaren
grunnleggje
grunnlov
grunnlova
grunnloven
grunnskule
grunnskulen
grunnsteinen
grunnstoff
grunnstoffa
grunnstoffet
grunnstøytte
grunntal
grunnvatn
grunnvatnet
grunt
gruppa
gruppe
gruppeleiar
gruppen
gruppene
grupper
grupperingar
gruppespelet
grus
gruva
gruve
gruvedrift
gruvedrifta
gruvene
gruver
gruyter
gry
gryande
gryta
gryte
grytten
grytviken
grøde
grøn
grøndahl
grøne
grønland
grønlandsk
grønlandske
grønne
grønningen
grønsaker
grønt
gskolan
gsøy
gt
gtliggande
gtrykk
gtrykka
gtrykket
gtysk
gu
guadalajara
guadeloupe
guajira
guangdong
guangxi
guangzhou
guard
guardian
guatemala
gud
gudane
gudar
gudbrand
gudbrandsdal
gudbrandsdalen
guddom
guddommeleg
guddommelege
gude
guden
gudinna
gudinne
gudmund
gudrun
guds
gudstenesta
gudsteneste
gudstenester
gudvangen
gue
guercio
guerin
guernsey
guerre
guess
guest
guevara
guez
guide
guides
guido
guild
guillaume
guilty
guinea
guinness
guitar
guitarist
guitarists
guitars
guizhou
gujarat
gul
gulag
gulaktig
gulatinget
gulbrandsen
guld
gule
gulen
gulf
gull
gullalder
gullalderen
gullet
gullfinalen
gullmedaljar
gullmedalje
gullmedaljen
gullplate
gullruten
gult
gumiljov
gummi
gun
gundersen
gunhild
gunma
gunn
gunnar
gunnhild
gunnlaug
guns
gunstig
gunstige
gunvor
guralnick
guri
gurion
guro
guru
gus
gush
gustaf
gustav
gustave
gustavsen
gut
gutane
gutar
guten
gutenberg
guthrie
guttorm
guttormsen
guvernement
guvernementet
guvernør
guvernøren
guy
guyana
guys
gvatn
gwen
gwh
gyda
gyldendal
gyldendals
gyldig
gyldne
gyllen
gylne
gymnadenia
gymnas
gymnaset
gynt
gyo
gypsy
gælisk
gæliske
gøteborg
gøy
gøymd
gøymde
h
ha
haag
haakon
haaland
haaretz
haarlem
haas
habitat
habitata
habitatet
habsburg
habsburgarane
habsburgmonarkiet
habsburgske
hackett
had
hadashot
hadawi
hadde
hadeland
hadera
hades
hadhramaut
hadi
hadley
hadrian
hadrianmuren
hadsel
haffner
hafrsfjord
hafslo
haga
haganah
hagar
hage
hagebruk
hagen
hagerup
haggard
hagia
hagl
hague
hahn
hai
haifa
hail
haim
hainan
hair
haiti
haitisk
hakea
hakka
hal
hala
hald
halda
haldast
halde
halden
haldeplass
haldeplassen
haldne
haldning
haldninga
haldningar
haldt
hale
halefjørene
halen
haley
half
halfdan
halford
halhjem
halifax
hall
halland
hallands
halldis
halldor
halle
hallelujah
hallen
hallett
halley
hallgeir
halling
hallingdal
hallo
halloween
hallvard
halm
halmstad
halo
hals
halsa
halse
halsen
halsnøy
haltdalen
halv
halva
halvannan
halvard
halvbror
halvbroren
halvdan
halvdel
halvdelen
halve
halvkula
halvkule
halvma
halvor
halvorsen
halvparten
halvt
halvtanna
halvvegs
halvøy
halvøya
ham
hama
hamar
hamarøy
hamas
hambro
hamburg
hamburger
hamilton
hamish
hamkam
hamlet
hammar
hammaren
hammer
hammerfest
hammersmith
hammill
hammond
hammondorgel
hamn
hamna
hamnar
hamne
hamneby
hamnebyane
hamnebyen
hamnene
hamneomra
hamner
hamp
hampshire
hampton
hamra
hamre
hamsun
han
hana
hancock
hand
handa
handball
handballspelar
handballturneringar
handbok
handbook
handbuch
handel
handelen
handels
handelsby
handelsdepartementet
handelsfla
handelsfolk
handelsmann
handelsmenn
handelssenter
handelssentrum
handelsskip
handelsstad
handelsstaden
handfull
handla
handlar
handle
handling
handlinga
handlingane
handlingar
hands
handsama
handsamar
handsame
handsaming
handsaminga
handtak
handtere
handverk
handverkarar
hane
hang
hank
hankjønn
hann
hanna
hannah
hannane
hannar
hanne
hannen
hannfuglar
hannfuglen
hannibal
hanno
hannover
hans
hansa
hansaen
hansen
hanshaugen
hanson
hanssen
hansson
hansteen
happened
happiness
happy
har
hara
harald
haraldsson
haram
harbor
harbour
harcourt
hard
hardanger
hardangerfjorden
hardangervidda
hardare
hardaste
hardcore
harde
hardin
harding
hardingfele
hardingfeleverket
hardra
hardrock
hardrockbandet
hardt
hardy
hardyguttene
hare
hareid
hareide
hari
harlem
harley
harlow
harman
harmoni
harmoniar
harmonisk
harmoniske
harmonium
harmonivokal
harmony
harold
harp
harpe
harper
harpercollins
harr
harriet
harris
harrison
harry
harstad
hart
hartert
hartlaub
hartman
hartmann
hartvedt
hartvig
harum
harvard
harvest
harvey
has
hasan
hasharon
hashomer
haskell
haslam
haslum
hassan
hassel
hast
hastings
hasvik
haswell
hat
hata
hatchet
hate
hatfield
hathaway
hatt
hatten
hattfjelldal
hatzair
haug
haugar
hauge
haugen
haugerud
hauges
haugesund
haugesunds
haugland
haugtussa
hauk
hauka
haukeland
haukjem
hauran
haus
haust
hausta
hausten
haut
haute
hautes
hauts
hav
hava
havana
havanna
havbotn
havbotnen
havde
have
haven
havet
havilland
having
havnen
havniva
havomra
havoverflata
havran
havre
havs
havstraum
havstraumar
hawaii
hawk
hawke
hawkins
hawks
hawley
hay
haydn
hayes
haynes
hayward
hbw
hc
hcv
hd
he
head
headed
heads
health
hear
heard
heardøya
hearn
heart
heartache
heartbeat
heartbreak
heartbreakers
hearts
heat
heath
heathen
heather
heaven
heavy
hebei
hebraisk
hebraiske
hebridane
hebron
hector
hedda
heddal
hedemarkens
hedmark
hedvig
heerenveen
hefte
heftet
hege
hegel
hegge
hegra
hegre
hei
heia
heiberg
heide
heidelberg
heiden
heidensk
heidenske
heider
heiderspris
heidersprisen
heidi
heidra
heights
heil
heila
heilag
heilagdagar
heilagdom
heilagdomen
heilage
heile
heilo
heilongjiang
heilskap
heilt
heiltal
heiltid
heim
heimane
heimar
heimbyen
heimbygda
heimdal
heime
heimebane
heimebanen
heimehøyrande
heimekampane
heimel
heimelaga
heimen
heimesida
heimeside
heimesidene
heimesider
heimland
heimlandet
heimlause
heimlege
heimskringla
heimstad
heimstaden
heine
heinemann
heinrich
heinz
heit
heitande
heite
heiter
heitt
heitte
hejaz
hekk
hekkande
hekkar
hekke
hekkedrakt
hekkefugl
hekkefuglar
hekkeomra
hekkesesongen
hekketida
hekking
hekkinga
hektar
hel
held
heldigvis
heldt
hele
helen
helena
helene
helga
helge
helgeland
helgen
helgenar
helgenen
helianthus
helikopter
helium
hell
hella
helland
hellas
helle
helleland
hellenistisk
hellenistiske
heller
helleristingar
hellesylt
hellige
helling
hello
helm
helmer
helmut
help
helsa
helse
helseproblem
helsing
helsingborg
helsingfors
helsingør
helsinki
helst
helt
heltar
helten
helter
helvete
hemma
hemmeleg
hemmelege
hemn
hemne
hemnes
hemoglobin
hemsedal
hen
henan
hende
henden
hendene
hender
henderson
hending
hendinga
hendingane
hendingar
hendrik
hendrix
heng
henga
hengande
hengd
hengde
henge
hengt
henie
henley
hennar
henne
hennes
henning
henri
henriette
henrik
henriksen
henriksveen
henry
henta
hentar
hente
hentet
hepatitis
hepatitt
hepburn
her
hera
herad
heradet
heradsstyre
heradsstyret
herakles
herald
herb
herbert
herbie
hercegovina
hercules
herdla
here
herfra
herifra
heritage
herja
herman
hermann
hermansen
hermansverk
hermes
hermine
hermits
hermon
hermund
herna
hernes
hero
herodes
heroes
heroin
heron
herr
herrar
herre
herred
herredøme
herredømet
herregarden
herrelandslag
herrelandslaget
herren
herrens
herschel
herska
herskande
herskar
herskarane
herskarar
herskaren
hertfordshire
hertug
hertugane
hertugdøme
hertugdømet
hertugdømmet
hertugen
hertuginne
hertz
hertzberg
herz
herzegovina
herzog
herøy
hess
hesse
hessen
hest
hestane
hestar
hestekrefter
hesten
het
hetland
hette
hettittane
hev
heva
hevd
hevda
hevdar
hevde
heve
hevel
hever
heving
hewitt
hey
heyerdahl
heylin
hf
hh
hi
hicks
hidden
hide
hieronymus
higgins
high
higher
highest
highjump
highland
highlands
highway
hilda
hilde
hill
hillary
hillbilly
hille
hillman
hills
hilmar
hilton
him
himalaya
himmel
himmelen
himmelhalvkula
himmellekam
himmellekamar
himmelske
hin
hindenburg
hinder
hindi
hindra
hindrar
hindre
hindringar
hindu
hinduar
hinduiske
hinduismen
hine
hines
hinman
hinnøya
hint
hinterrhein
hip
hipgnosis
hiphop
hipparcos
hippie
hiroshima
his
hiseman
hispania
hispaniola
hist
histoire
historia
historic
historical
historie
historieartikkelen
historielag
historielaget
historiema
historien
historiene
historier
historikar
historikarane
historikarar
historikaren
historikk
historique
historisches
historisk
historiska
historiske
history
hit
hitchcock
hite
hitler
hitlista
hitlistene
hitparade
hitparadeitalia
hitra
hits
hitsingel
hitsingelen
hitsinglane
hitsinglar
hitt
hittane
hittar
hitten
hittil
hiv
hizbollah
hja
hjalmar
hjarta
hjartdal
hjarte
hjarteinfarkt
hjartekammer
hjartet
hjelm
hjelmeland
hjelp
hjelpa
hjelpe
hjelpemiddel
hjelper
hjelpt
hjelpte
hjeltnes
hjem
hjemmeside
hjerne
hjernen
hjerneslag
hjerte
hjertet
hjort
hjorth
hjul
hjula
hjulet
hjørne
hjørnet
hjørundfjord
hjørundfjorden
hjørungava
hk
hl
hler
hlig
hm
hmen
hms
hn
ho
hoa
hoard
hobbs
hobby
hoboken
hobson
hobøl
hockey
hodder
hodges
hodgson
hoel
hoem
hoene
hoer
hof
hoff
hoffet
hoffman
hoffmann
hofmannfjella
hoftun
hofuglar
hofuglen
hogan
hogarth
hogd
hogde
hogg
hogge
hognestad
hogst
hohe
hohenzollern
hokjønn
hokjønnsord
hokkaido
hokksund
hol
hola
holbein
holberg
holck
hold
holden
holder
holding
hole
holer
holet
holger
holiday
holidays
holland
hollies
holly
hollyhock
hollywood
holm
holman
holmane
holmar
holmboe
holmbukta
holme
holmedal
holmen
holmenkollen
holmenkollmedaljen
holmenkollrennet
holmes
holmestrand
holmsen
holocaust
holocen
holrom
holst
holstein
holt
holta
holtermann
holtsmark
holy
hom
home
homepage
homer
homme
homo
homofil
homofile
homs
hon
honda
honduras
honey
hong
hongkong
honky
honning
honningsva
honolulu
honom
honor
honorary
honors
honour
hood
hook
hooker
hooper
hoople
hoover
hooverphonic
hop
hope
hopen
hopes
hopkins
hopp
hoppa
hoppar
hoppe
hopper
hopprennet
hoppveka
horace
horats
hordaland
horden
horisontal
horisontale
horisontalt
horisonten
horizon
horizons
hormon
horn
horna
horne
hornet
hornindal
hornnes
horns
hornsby
horror
horse
horses
horseshoe
horsfield
horst
horten
horton
hos
hosanger
hospital
host
hot
hotel
hotell
hotellet
hotspur
houens
houghton
hound
hour
hours
house
houses
housing
houston
hov
hovden
hovding
hovdingen
hove
hovedserien
hovin
hovland
hovud
hovuda
hovudartikkel
hovudartikkelen
hovudbelteasteroide
hovudbeltet
hovudbyen
hovudbygningen
hovuddelen
hovudet
hovudfag
hovudgata
hovudgrupper
hovudinngangen
hovudkjelda
hovudkontor
hovudkontoret
hovudkvarter
hovudkvarteret
hovudma
hovudmaskinen
hovudnæring
hovudnæringa
hovudnæringane
hovudomra
hovudoppga
hovudperson
hovudpersonane
hovudpersonen
hovudplagg
hovudrolla
hovudrolle
hovudrollene
hovudsak
hovudsakleg
hovudserien
hovudsete
hovudsetet
hovudskallen
hovudstad
hovudstaden
hovudtoppen
hovudtrenar
hovudtypar
hovudveg
hovudvegen
hovudverk
hovudverket
hovudøya
how
howard
howe
howie
howlin
hoy
hoyo
hoyt
hp
hpa
hr
hren
hrer
hrsg
hsd
htm
html
http
https
hu
hua
huang
hubbard
hubble
hubei
hubert
hud
huda
huddinge
hudson
hudsonbukta
huey
huffington
hug
hugh
hughes
hugo
hugsa
hugsar
hugse
hui
huitfeldt
hulda
hull
human
humaniora
humanist
humanistisk
humanistiske
humble
humboldt
hume
humlesnurr
hummingbird
humor
humoristisk
humoristiske
humperdinck
humphrey
humphries
hun
hunan
hund
hundane
hundar
hunden
hundre
hundrea
hundred
hundredels
hundrevis
hundva
hung
hungary
hunger
hungersnaud
hungry
hunky
hunt
hunter
huntford
hunting
hurdal
hurrem
hurricane
hurst
hurt
hurtig
hurtigba
hurtigruta
hurtigruten
hurts
hurum
hus
husa
husar
husby
husdyr
husdyrhald
huse
huseby
huser
huset
hush
hushald
hushaldningar
husky
huslærar
husmannsplass
husnes
hussein
hustad
hustadvika
hustru
hustrua
husvik
husvære
husøy
hut
hutchings
hutchinson
hutt
hutton
huxley
huygens
hv
hva
hvad
hvaler
hvem
hver
hvis
hvite
hvor
hvordan
hvorfor
hy
hybrid
hybridar
hyde
hyderabad
hydraulisk
hydrauliske
hydro
hydrogen
hydrographic
hydrography
hydrostatisk
hygge
hylla
hylle
hyllest
hyllestad
hyllestalbumet
hymn
hymne
hymns
hyperion
hypotese
hypotesen
hyppig
hyppige
hyra
hyrte
hyser
hytta
hytte
hyttene
hytter
hz
hægebostad
hær
hæren
hærens
hærførar
hætta
hødd
høeg
høegh
høg
høgare
høgareliggande
høgast
høgaste
høgastliggande
høgd
høgda
høgde
høgdedrag
høgdehopp
høgdene
høgdepunkt
høgdepunkta
høgdepunktet
høgder
høgdeskilnad
høge
høgland
høglanda
høglandet
høgnorsk
høgre
høgreflanken
høgres
høgresida
høgskole
høgskolen
høgskular
høgskule
høgskulen
høgst
høgste
høgsterett
høgsteretten
høgsterettsadvokat
høgsterettsdommar
høgt
høgtalar
høgtalarar
høgtid
høgtida
høgtider
høgtliggande
høgtrykk
høgtsta
høland
høna
høne
hønefoss
hør
høst
høsten
høva
høvande
høvde
høvding
høvdingen
høve
høveleg
høver
høvesvis
høvet
høvik
høy
høyanger
høyland
høylandet
høyr
høyra
høyrast
høyrd
høyrde
høyrdest
høyre
høyrer
høyres
høyrespel
høyrest
høyrt
høyrte
i
ia
iaaf
iain
ian
iata
iau
iaugefallande
ib
iberia
iberiske
ibestad
ibis
ibiza
iblant
ibm
ibn
ibrahim
ibsen
ibsens
ibuarane
ibuarar
ic
ica
icao
ice
icefall
icefalls
iceland
ich
ichihara
icking
icon
id
ida
idag
idaho
idar
ide
idea
ideal
ideane
idear
ideas
ideell
ideelle
ideen
identification
identifisera
identifisere
identifiserer
identifisert
identifiserte
identisk
identiske
identitet
identiteten
identity
ideologi
ideologien
ideologisk
ideologiske
idet
idf
idiot
idlib
idol
idrett
idrettar
idretten
idrettsartikkelen
idrettsforbund
idrettsforening
idrettshall
idrettslag
idrettslaget
idrettsmann
idrettsutøvar
ie
if
ifk
ifpi
ifra
ifylgje
ifølge
ifølgje
ig
iggy
igjen
igjennom
ign
ignored
ignorert
igor
ihf
ihk
ihop
ihr
ii
iii
ija
ijssel
ik
ike
ikke
ikkje
ikon
ikring
ikt
il
ila
ile
ili
iliaden
iliff
ilja
ill
ille
illinois
illusion
illustrasjon
illustrasjonar
illustrated
illustratør
illustrerer
illustrert
illustrerte
im
image
images
imagination
imagine
imam
imdb
imellom
immanuel
immigrantar
imot
impact
imperial
imperiet
imperium
implications
imponerande
imponert
imponerte
import
important
importert
importerte
impossible
imprimerie
improvisasjon
improvisert
improviserte
impulsar
impulse
imslp
in
ina
inc
inca
incarnata
inch
including
incorporated
incredible
indarar
indeks
indenrigsministeriet
independence
independent
inderøy
index
india
indiahavet
indian
indiana
indianarane
indianarar
indians
indianske
indie
indigenous
indigo
indikerer
indikert
indikerte
indirekte
indisk
indiske
individ
individa
individet
individuell
individuelle
individuelt
indo
indoariske
indoeuropeisk
indoeuropeiske
indonesia
indonesisk
indonesiske
indre
indrebø
inductees
indus
industri
industrial
industrialiseringa
industrialiserte
industriar
industriby
industriell
industrielle
industrielt
industrien
industries
industrikomiteen
industriomra
industrisenter
industry
ine
inen
infanteri
infanteribrigade
infanteriet
infanteriregiment
infection
infeksjon
infeksjonar
inferno
infinitiv
infinity
inflasjon
influence
info
infodisc
informasjon
informasjonen
informasjonsside
informatikk
information
infraraud
infraraude
infrastruktur
infrastrukturen
infty
ing
inga
ingar
inge
ingebjørg
ingeborg
ingebrigt
ingebrigtsen
ingen
ingeniør
ingeniørar
ingeniøren
ingenting
inger
ingmar
ingolf
ingrediensar
ingrid
ingstad
ingunn
ingvald
ingvar
ingvild
initiativ
initiativet
ink
inkariket
inkje
inkjekjønn
inkl
inkludere
inkluderer
inkludert
inkluderte
inklusive
inkvisisjonen
inlet
inn
innafor
innan
innandørs
innanfor
innanlands
innb
innblanda
innblanding
innbyggarane
innbyggarar
innbyggjar
innbyggjarane
innbyggjarar
innbyggjartal
innbyggjartalet
innbyrdes
innbytar
inndeling
inndelinga
inndelt
inne
innebar
inneber
innebygd
innehalda
innehalde
innehavar
inneheld
inneheldt
inner
innfødde
innføra
innføre
innføring
innføringa
innført
innførte
innga
inngang
inngangen
inngjekk
inngrep
innhald
innhaldet
innhenta
inni
innimellom
innkjøpt
innlandet
innlandsisen
innlegg
innleia
innleiande
innleidde
innleiing
innleiinga
innlemma
innløp
innløpet
innocens
innocent
innom
innovasjon
innovative
innover
innpa
innpass
innretning
innretningar
innretta
innrømde
innsa
innsamla
innsamling
innsats
innsatsen
innsbruck
innsett
innsette
innsida
innsikt
innsjø
innsjøane
innsjøar
innsjøen
innskrift
innskrifta
innskrifter
innslag
innspeling
innspelinga
innspelingane
innspelingar
innspelt
innspelte
innstifta
innstilling
innstilt
inntak
innteikna
inntekt
inntekta
inntektene
inntekter
inntil
inntog
inntok
inntrykk
innuendo
innvald
innvandra
innvandrarar
innvandring
innvendig
innverknad
innverknaden
innverknadsrike
innvigd
innvik
innvilga
ins
insekt
insekta
insektetande
inside
insisterte
inskripsjon
inskripsjonar
inskripsjonen
inspektør
inspirasjon
inspirasjonen
inspirasjonskjelde
inspiration
inspired
inspirert
inspirerte
inst
instagram
installasjonar
installert
inste
institusjon
institusjonane
institusjonar
institusjonen
institut
institute
institution
instituto
institutt
instituttet
institutul
instruksjonar
instruktør
instrument
instrumenta
instrumental
instrumentalar
instrumentale
instrumentalen
instrumentalist
instrumentalt
instrumentalversjon
instrumentering
instrumentert
instrumentet
instruments
insulin
int
intakt
inte
integral
integrasjon
integrert
integrerte
intel
intellektuell
intellektuelle
intelligence
intelligens
intelligent
intens
intense
intensitet
intensiteten
intensiv
intenst
inter
interactive
interessa
interessant
interessante
interesse
interessene
interesser
interessert
interesserte
interest
interior
interiør
interiøret
intern
internal
internasjonal
internasjonale
internasjonalen
internasjonalt
international
internationale
interne
internet
internett
internettsidene
internt
interpret
intervall
interview
interviews
intervju
intervjua
intimate
into
intro
introducing
introduction
introduksjon
introduksjonen
introdusert
introduserte
introen
inuit
inuittane
inuittar
inuittisk
inuittiske
inuktitut
invadere
invadert
invaderte
invalid
invasion
invasjon
invasjonar
invasjonen
inventar
inventaret
invention
inverness
investeringar
investigation
investigations
invisible
invitasjon
invitert
inviterte
involverer
involvert
involverte
io
ioa
ioc
iok
ion
iona
ional
ionosfæren
ios
iowa
ip
ipa
iphone
ipswich
ir
ira
irak
irakisk
irakiske
iran
iranian
iransk
iranske
iraq
iraqi
irbid
ire
ireland
irene
irgens
irina
iris
irish
irishcharts
irkutsk
irland
irma
iron
ironisk
irrigert
irsk
irske
irskesjøen
irvine
irving
irwin
is
isa
isaac
isaak
isabel
isabella
isak
isaksen
isar
isbjørn
isbn
isbre
isbreane
isbrear
isbreen
isbrem
isbremmen
isdekket
isdekt
isdekte
ise
isen
isfahan
isfall
isfjell
isfjorden
isfri
isfrie
isfritt
ishall
ishaug
ishockey
ishockeyklubb
ishockeyspelar
isis
iskrystallar
isla
islagd
islam
islamic
islamsk
islamske
island
islands
islandsk
islandske
islay
isle
isles
ismail
isn
iso
isola
isolasjon
isolde
isolert
isolerte
isotopar
israel
israelarane
israelarar
israeli
israelittane
israels
israelsk
israelske
issn
issue
issues
ist
istaden
istanbul
istid
istida
istituto
især
it
italia
italian
italiana
italiancharts
italienarane
italienaren
italiensk
italienske
italy
item
ithaca
itis
ito
its
itself
itunes
itv
iucn
iv
iva
ivan
ivanov
ivanovitsj
ivanovo
ivar
ivareta
ivarsson
iveland
iver
iversen
ives
ivo
ivor
ivory
ivrig
ivy
iwata
ix
ixodes
j
ja
jaaroverzichten
jabal
jack
jacket
jackie
jackson
jaco
jacob
jacobs
jacobsen
jacopo
jacqueline
jacques
jade
jaffa
jag
jaga
jagar
jagarfly
jagger
jahn
jahr
jahre
jahrescharts
jahreshitparade
jakarta
jake
jakke
jakob
jakobsen
jakt
jakta
jaktar
jakten
jaktstart
jaktstarten
jam
jama
jamaica
jamaican
jamaicansk
jamaicanske
james
jamfør
jamie
jamleg
jamn
jamna
jamnast
jamne
jamnt
jamsides
jamt
jamvel
jan
jana
jane
janeiro
janet
janis
jann
janne
jansch
jansen
janson
jansson
januar
january
janus
japan
japanarane
japanese
japansk
japanske
jar
jardine
jare
jarl
jarlane
jarle
jarlen
jarlsberg
jarn
jarnalderen
jarnbana
jarnbane
jarnbanekomiteen
jarnbanen
jarnbanestasjon
jarnvegen
jaroslav
jaroslavl
jarvis
jason
java
javier
jawbone
jay
jazeera
jazz
jazzmusikar
je
jean
jeanne
jeans
jebel
jebsen
jef
jeff
jefferson
jeffrey
jeg
jeger
jegerar
jekaterinburg
jelena
jelsa
jemen
jemenittiske
jena
jenin
jenisej
jenkins
jenner
jenness
jennifer
jennings
jenny
jens
jensen
jenssen
jenta
jente
jentene
jenter
jeremy
jeriko
jern
jernalder
jernalderen
jernbane
jernbaneklubb
jernbaneknutepunkt
jernbanelinja
jernbanen
jernbanesamband
jernbanestasjon
jernbanestasjonen
jernbaneverket
jernmalm
jernverk
jerome
jerry
jersey
jerusalem
jerv
jesaja
jesper
jesse
jessica
jesu
jesus
jet
jethro
jets
jevgenij
jevnaker
jewel
jewish
jews
jezreeldalen
jf
jfr
ji
jiang
jiangsu
jiangxi
jidda
jiddisch
jihad
jill
jim
jimi
jimmie
jimmy
jin
jinnah
jiri
jizan
jj
jo
joa
joachim
joakim
joan
joanna
joar
job
jobb
jobba
jobbar
jobbe
jobben
jobs
jobson
jocelyn
jody
joe
joel
joerg
joey
joh
johan
johann
johanna
johanne
johannes
johannesburg
johannesen
johannesevangeliet
johannessen
johans
johansen
johansson
john
johnnie
johnny
johns
johnsen
johnson
johnston
johnstone
johs
joik
join
joint
joinville
jokkmokk
jolly
jom
jomfru
jon
jonas
jonathan
jondal
jones
joni
joniske
jonny
jonsson
joplin
jord
jorda
jordal
jordan
jordanaires
jordandalen
jordanelva
jordanske
jordatmosfæren
jordbruk
jordbruket
jordbruksland
jordbruksomra
jordebok
jorden
jordi
jordoverflata
jordras
jordskjelv
jordskjelvet
jordskorpa
jordsmonn
jordsmonnet
jorge
jorgensen
jorn
joruba
jorunn
jos
jose
josef
josefs
josefus
josep
joseph
josephine
josh
joshua
jostedalsbreen
jostein
josva
jotunheimen
joule
journal
journalist
journalistar
journalisten
journalistikk
journey
jovan
jovi
joy
joyce
jp
jpg
jpl
jr
jstor
ju
juan
juana
jubilee
jubileet
jubileum
judaism
judas
judd
jude
judea
judet
judete
judge
judith
judy
juel
jug
jugoslavia
jugoslaviske
juha
juice
jul
jula
julaftan
julealbumet
juledag
julehefte
julenissen
jules
julesong
julesongar
juletre
juli
julia
julian
julianske
julie
julien
juliet
julio
julius
july
jump
jun
junction
june
jung
jungle
juni
junior
junioreurovision
juniperus
juno
jupiter
jur
jura
jurafjella
jurassic
juratida
jurek
juridisk
juridiske
jurij
jurist
jury
juryane
juryen
jus
juss
just
justert
justice
justin
justinian
justis
justisdepartementet
justiskomite
justiskomiteen
justisminister
juventus
juvkam
jylland
jæren
jødane
jødar
jøde
jødedom
jødedommen
jødedomsartikkelen
jødisk
jødiske
jølster
jørgen
jørgensen
jørn
k
ka
kaare
kaas
kabel
kabir
kablar
kabul
kadett
kafe
kafear
kaffi
kafka
kafr
kagge
kahn
kai
kaia
kaien
kairo
kaiser
kaka
kakao
kake
kaker
kala
kald
kaldare
kaldaste
kalde
kaldera
kalderaen
kaldt
kale
kaledonske
kalender
kalenderen
kaler
kali
kaliber
kalif
kalifatet
kalifen
kaliningrad
kalium
kalk
kalkstein
kall
kalla
kallar
kallast
kalle
kallenamn
kallenamnet
kallesignal
kallikratis
kalmar
kalsium
kalt
kalte
kaluga
kalv
kalva
kam
kama
kamal
kambodsja
kambrium
kamelar
kamen
kamera
kameraet
kamerun
kammer
kammeret
kammermusikk
kamp
kampane
kampanje
kampanjen
kampar
kampen
kamsky
kamtsjatka
kamtsjatkahalvøya
kan
kana
kanaan
kanadisk
kanadiske
kanal
kanalane
kanalar
kanalen
kanalisert
kanariøyane
kanawa
kanazawa
kandidat
kandidatane
kandidatar
kandidaten
kandidatturneringa
kane
kanel
kanin
kann
kano
kanon
kanonane
kanonar
kanonen
kansas
kanskje
kanslar
kant
kantane
kantar
kantate
kantaten
kantater
kanten
kantner
kanton
kantonane
kantonen
kanye
kaos
kap
kapasitet
kapasiteten
kapell
kapellan
kapellet
kapellmeister
kapital
kapittel
kapittelet
kapitulerte
kaplan
kapp
kappa
kappe
kappgang
kapra
kaptein
kapteinen
kapteinløytnant
kar
kara
karabakh
karachi
karahavet
karakter
karakterane
karakterar
karakteren
karakterisert
karakteriserte
karakteristisk
karakteristiske
karane
karar
karasjok
karat
karate
karbon
karbondioksid
kardemomme
kardi
kardinal
karel
karelen
karelia
karen
kari
karibia
karibiske
karin
karine
karl
karlsen
karlskrona
karlsruhe
karlsson
karlstad
karlsøy
karma
karmelberget
karmøy
karnataka
karoline
karpatane
karpov
karriere
karrieren
karst
karsten
kart
karta
kartago
kartet
kartikkelen
kartla
kartlagd
kartlagde
kartlagt
kartlagte
kartlegging
kartlegginga
kartograf
kartografar
kartverk
kartverket
kasakhisk
kasakhstan
kashima
kashiwa
kashmir
kasimir
kasparov
kaspihavet
kassel
kasserar
kassett
kast
kasta
kastar
kaste
kastet
kasus
kat
katalansk
katalanske
kataller
katalog
katalogen
katalognummer
katarina
katastrofale
katastrofe
katastrofen
kate
katedral
katedralen
katedralskole
katedralskulen
kategori
kategoriane
kategoriar
kategorien
kategorisert
kath
katherine
kathleen
kathrine
kathy
katie
katolikk
katolikkar
katolisismen
katolsk
katolske
katrine
katt
kattar
kattegat
katten
katy
katz
kaufman
kaukasus
kaunas
kaupang
kaupanger
kautokeino
kava
kavaleri
kavaleriet
kavaleristar
kawasaki
kay
kaye
kazan
kb
kbruk
kc
ke
kea
keane
keefe
keep
keeper
keeping
keeps
kefalonia
keiino
keisar
keisarane
keisarar
keisardømet
keisaren
keisarinne
keisarlege
keisarriket
keith
keller
kelley
kelly
keltarar
keltisk
keltiske
keltner
kelvin
kemerovo
kemp
ken
kendall
kennedy
kenneth
kenney
kenny
kensington
kent
kenton
kentucky
kenya
kenyansk
kenyon
kepler
ker
kerala
keramikk
keren
keres
kerguelen
kerr
kerrang
kerry
kessel
ket
kete
ketil
kevin
kew
key
keyboard
keynes
keys
kfamilie
kfamilien
kfar
kforskar
kforsking
kfum
kg
kgb
kgl
kgruppa
kh
kha
khabarovsk
khaimah
khalid
khalidi
khalifa
khan
khanatet
khania
khanty
kharkiv
khet
khi
khirbet
khistorie
khmer
khor
khorasan
khrusjtsjov
khz
ki
kibbutz
kibbutzen
kick
kid
kids
kiel
kielland
kiev
kievriket
kikkert
kil
kilden
kildinsamisk
kill
killed
killer
killers
killing
kills
kilo
kilogram
kilometer
kilometeren
kilometers
kim
kimono
kina
kinas
kind
kinesarane
kinesarar
kinesisk
kinesiske
kinetisk
kinetiske
king
kingdom
kingfisher
kings
kingsmen
kingston
kinks
kinn
kino
kinsarvik
kipling
kirby
kirgisistan
kiri
kiribati
kirk
kirkby
kirke
kirkebøker
kirkeleksikon
kirken
kirkenes
kirkens
kirkenær
kirker
kirkesøk
kirkpatrick
kirkuk
kirkwall
kirov
kirsten
kirsti
kiruna
kirurg
kirurgi
kirwan
kiryat
kis
kiss
kisses
kista
kiste
kit
kitakyushu
kitchen
kitchener
kittelsen
kitts
kitty
kiwi
kj
kjappe
kjartan
kje
kjeda
kjede
kjegleforma
kjelda
kjelde
kjeldekode
kjeldene
kjelder
kjell
kjellaren
kjeller
kjem
kjemi
kjemiartikkelen
kjemikaliar
kjemikar
kjemisk
kjemiske
kjempa
kjempar
kjempe
kjemper
kjend
kjende
kjendis
kjendisar
kjenna
kjennast
kjenne
kjenneleg
kjennemerke
kjenner
kjennest
kjennetegna
kjenneteikn
kjenneteikna
kjenningsmelodi
kjenningsmelodien
kjennskap
kjensla
kjensle
kjenslene
kjensler
kjent
kjente
kjerland
kjerne
kjernefysisk
kjernefysiske
kjernen
kjerneomra
kjerring
kjersti
kjetil
kjole
kjos
kjæledyr
kjær
kjæraste
kjærasten
kjære
kjærleik
kjærleiken
kjærlighet
kjøbenhavn
kjøkken
kjøl
kjølen
kjølig
kjøligare
kjølige
kjølvatnet
kjønn
kjønna
kjønnsdimorfisme
kjønnsorgan
kjøp
kjøpa
kjøpe
kjøper
kjøpesenter
kjøpmann
kjøpmenn
kjøpstad
kjøpstadene
kjøpt
kjøpte
kjøt
kjøtet
kjøtt
kk
kka
kl
kla
klaga
klage
klan
klanen
klang
klapping
klar
klara
klarar
klarde
klare
klarer
klarinett
klart
klarte
klassa
klassane
klassar
klasse
klassekampen
klassen
klasser
klassetrinn
klassifiserast
klassifiserer
klassifisering
klassifiseringa
klassifisert
klassifiserte
klassikar
klassikarar
klassisk
klassiske
klatra
klatrar
klatrarar
klatre
klatring
klatringa
klaudios
klaus
klaveness
klaver
klaverinstrument
klaverspelar
klaverspelaren
klavier
kle
kleberstein
kleda
kledd
kledde
klede
kleg
klege
klein
kleine
kleiv
kleiva
klekking
klekte
klemens
kleopatra
klepp
kleppa
kleppe
kler
kleveland
kleven
klig
klikk
klima
klimaendringar
klimaet
klimaklassifisering
klimatiske
klinisk
klio
klipp
klippa
klippe
klippeframspring
klippene
klipper
klipperik
klo
kloakk
klok
klokka
klokkar
klokke
klokkene
klokker
klokkespel
klokketa
kloster
klostera
klosteret
klostret
klubb
klubbane
klubbar
klubben
klubblag
klypa
klæbu
kløft
kløfta
klør
kløyvd
km
knapp
knappar
knappe
knapt
knarvik
kne
knechtel
kneip
knesset
knew
knife
knight
knights
kniksen
kniv
knivar
knm
knock
knoklane
knoklar
knoll
knop
knopf
knopfler
know
knowledge
knowles
known
knows
knox
knud
knudsen
knuse
knust
knuste
knut
knute
knutepunkt
knutsen
knutsson
knyt
knyta
knytast
knyte
knyter
knytt
knytte
ko
koalisjon
koalisjonen
koalisjonsregjering
kobe
koch
koda
kodar
kode
koden
kofu
kognitiv
kohl
koht
koka
kokain
kokk
kokt
kokte
kol
kola
kolahalvøya
kolbjørn
kolbotn
kolfyrt
kolibriar
kollapsa
kollega
kollegaen
kollegaene
kollektiv
kollektive
kollektivt
kolliderte
kollisjon
kollisjonen
koloni
koloniane
koloniar
kolonien
kolonisering
koloniseringa
kolonisert
koloniserte
kolonistane
kolonistar
kolonitida
kolsa
kolsrud
kolstad
kom
koma
komande
kombinasjon
kombinasjonar
kombinasjonen
kombinere
kombinerer
kombinert
kombinerte
kome
komediar
komedie
komedien
komen
komet
kometar
kometen
komi
komikar
komikaren
komintern
komisk
komiske
komite
komitear
komiteen
komm
komma
kommandant
kommandanten
kommande
kommandert
kommanderte
kommando
kommandoen
kommandør
komme
kommentar
kommentarar
kommentator
kommentert
kommenterte
kommer
kommersiell
kommersielle
kommersielt
kommisjon
kommisjonen
kommun
kommuna
kommunal
kommunale
kommunaleining
kommunaleininga
kommunaleiningar
kommunalt
kommunane
kommunar
kommune
kommunegrensa
kommunegrensene
kommunegrenser
kommunen
kommuner
kommunereforma
kommunes
kommunesamansla
kommunesenter
kommunesenteret
kommunestyre
kommunestyret
kommuneva
kommunevalet
kommunikasjon
kommunisera
kommunisere
kommunisme
kommunismen
kommunistane
kommunistar
kommunistisk
kommunistiske
kommunistparti
kommunistpartiet
komne
komorane
kompakt
kompani
kompaniet
komparativ
kompass
kompensasjon
kompetanse
kompetansesenter
kompleks
komplekse
komplekset
komplekst
komplett
komplette
komplikasjonar
komplisert
kompliserte
komponent
komponentane
komponentar
komponenten
komponentlokalitetar
komponere
komponert
komponerte
komponist
komponistane
komponistar
komponisten
komposisjon
komposisjonane
komposisjonar
komposisjonen
kompromiss
komra
kon
kona
kondenserer
kone
konene
koner
konferanse
konferansen
konflikt
konfliktane
konfliktar
konflikten
konføderasjonen
kong
kongane
kongar
konge
kongedøma
kongedøme
kongedømet
kongedømmet
kongefamilien
kongehuset
kongeleg
kongelege
kongelige
kongemakta
kongen
kongens
kongepokal
kongepokalen
kongerike
kongeriket
kongesoger
kongo
kongress
kongressen
kongsberg
kongsga
kongsvinger
konkluderte
konklusjonen
konkret
konkrete
konkurransar
konkurranse
konkurransen
konkurrent
konkurrerande
konkurrere
konkurrerer
konkurrerte
konkurs
konow
konrad
konsekvens
konsekvensane
konsekvensar
konsekvent
konsentrasjon
konsentrasjonar
konsentrasjonen
konsentrasjonsleir
konsentrasjonsleirar
konsentrasjonsleiren
konsentrere
konsentrert
konsentrerte
konsept
konseptalbum
konseptet
konsernet
konsert
konsertalbum
konsertalbumet
konsertane
konsertar
konserten
konserthus
konsertopptak
konsertutga
konsertversjon
konsertversjonar
konservativ
konservative
konservativt
konservator
konservatoriet
konsesjon
konsistens
konsollen
konsonant
konsonantane
konsonantar
konsonanten
konsson
konstant
konstanten
konstantin
konstantinopel
konstantius
konstanz
konstituert
konstitusjonelt
konstitusjonskomite
konstitusjonskomiteen
konstruere
konstruert
konstruerte
konstruksjon
konstruksjonar
konstruksjonen
konsul
konsular
konsulent
kontakt
kontakta
kontaktar
kontakten
kontekst
kontinent
kontinenta
kontinentale
kontinentalklima
kontinentalsokkel
kontinentalsokkelen
kontinentalt
kontinentet
kontinuerleg
kontinuerlege
kontor
kontoret
kontorsjef
kontrabass
kontrakt
kontrakten
kontrapunkt
kontrast
kontreadmiral
kontroll
kontrollen
kontrollera
kontrollere
kontrollerer
kontrollert
kontrollerte
kontroversiell
kontroversielle
kontroversielt
konveksjon
konvensjonelle
konvensjonen
konversationsleksikon
konvertert
konverterte
konvoi
konvoien
kooper
koordinatar
koordinatsystem
kopar
kopervik
kopi
kopiar
kopiert
kopierte
kopla
kopp
koppar
koptiske
kor
koral
korallrev
koraltemaet
koranen
korc
korea
koreakrigen
koreansk
koreanske
koren
koret
korg
korger
korgplantefamilien
korhonen
korint
kork
korkje
korleis
korn
korna
korner
kornet
kornisk
koronaviruset
koronaviruspandemien
koronavirusutbrotet
korps
korpset
korrekt
korrekte
korrespondanse
korrespondent
korrupsjon
kors
korsika
kort
korta
kortare
kortaste
kortchmar
korte
kortfilm
kortfilmen
kortform
kortformer
korthekken
kortliva
kortvarig
kortvarige
korvokal
korvokalist
kos
kosakkar
kosmisk
kosmos
kosovo
koss
kost
kosta
kostbare
kosten
kosthald
kosthaldet
kostnad
kostnaden
kostnadene
kostroma
kostyme
kot
kova
koza
kq
kr
kra
krabbar
krabbe
kraft
krafta
kraftfulle
kraftig
kraftigare
kraftigaste
kraftige
kraftstasjon
kraftstasjonen
kraftverk
kraftverket
kraftwerk
krag
krage
kragerø
kraj
krako
krall
kramer
kramnik
krangel
krangla
krangling
krans
krar
krasnodar
krasnojarsk
krater
krateret
kratt
krattskog
krause
krauss
krautrock
krav
krava
kravd
kravde
kravet
kravomra
kreativ
kreative
kreditert
kreft
kreftene
krefter
kreis
kreml
kreps
krepsdyr
kreta
krets
kretsar
kretsen
kreutzmann
krev
krevja
krevjande
krevje
krf
krieger
krig
krigane
krigar
krigarar
krigen
krigføring
krigsa
krigsfangar
krigsskip
krigsskulen
krim
krimhalvøya
kriminalitet
kriminalroman
kriminelle
krimkrigen
kring
kringkasta
kringkastar
kringkastaren
kringkasting
kringkastingsunionen
kringliggande
kringom
kringsetjinga
kringsett
kringsette
krins
krinsane
krinsar
krinsen
kris
krisa
krise
krishna
krisjna
kristeleg
kristelege
kristen
kristendom
kristendomen
kristendommen
kristensen
kristent
kristi
kristian
kristiania
kristiansand
kristiansen
kristiansund
kristin
kristina
kristine
kristna
kristne
kristofer
kristoffer
kristoffersen
kristofferson
kristus
krit
kriterium
kritikar
kritikarane
kritikarar
kritikaren
kritikarprisen
kritikarrost
kritikarroste
kritikerprisen
kritikk
kritikkar
kritikken
kritisert
kritiserte
kritisk
kritiske
krittida
kro
kroatar
kroatia
kroatisk
kroatiske
krog
krogh
krohg
krohn
krok
kroken
kromosom
krona
kronblad
krone
kroner
kronikk
kroninga
kronisk
kronobergs
kronologisk
kronprins
kronprinsen
kronprinsesse
kropp
kroppen
kroppslengd
kroppslengda
kross
krossen
krossfararane
krossfestinga
krosskyrkje
krosstog
krosstoga
krosstoget
kru
krum
kruse
krusifiks
krut
krydder
krydra
kryp
krypdyr
kryss
kryssa
kryssar
krysse
krysset
kryssing
kryssinga
krystall
krystallar
krystalliserer
krødsherad
krønika
krønike
ks
kt
ku
kua
kubansk
kubikkmeter
kuke
kula
kulde
kule
kuler
kulestøyt
kuling
kull
kullet
kulminerte
kult
kultur
kulturane
kulturar
kulturartikkelen
kulturarv
kulturdepartementet
kulturell
kulturelle
kulturelt
kulturen
kulturhistorie
kulturhistorisk
kulturhistoriske
kulturhus
kulturlandskap
kulturliv
kulturlivet
kulturminne
kulturminneforskning
kulturminner
kulturminnesok
kulturminnesøk
kulturnett
kulturpris
kulturra
kultursenter
kumamoto
kun
kundane
kundar
kunde
kungliga
kunkel
kunna
kunne
kunngjorde
kunngjort
kunnskap
kunnskapar
kunnskapen
kunnskapsforlaget
kunst
kunstakademi
kunstakademiet
kunstartikkelen
kunsten
kunstforening
kunstgalleri
kunsthandverk
kunsthistorie
kunstig
kunstige
kunstindustrimuseum
kunstindustriskole
kunstløp
kunstma
kunstmuseum
kunstnar
kunstnarane
kunstnarar
kunstnaren
kunstnarisk
kunstnariske
kunstnere
kunstnerisk
kunstneriske
kunstnerleksikon
kunstrock
kunstverk
kupert
kuperte
kupp
kuppel
kuppelen
kuppelforma
kuppet
kur
kurdarar
kurdisk
kurdiske
kurdistan
kurfyrste
kurfyrstedømet
kurfyrsten
kurgan
kurilane
kurland
kurs
kursen
kursiv
kursk
kurt
kurva
kurve
kurver
kusama
kusatsu
kutta
kutte
kuwait
kv
kva
kvad
kvadet
kvadrat
kvadratisk
kvadratkilometer
kvadratmeter
kval
kvalar
kvalba
kvalen
kvalfangarar
kvalfangst
kvalheim
kvalifisere
kvalifisering
kvalifiseringa
kvalifiseringskamp
kvalifisert
kvalifiserte
kvalitet
kvalitetar
kvaliteten
kvalsund
kvaløya
kvam
kvamme
kvanndal
kvantemekanikk
kvantemekanikken
kvar
kvarandre
kvardagen
kvarkar
kvart
kvartal
kvarter
kvartermeister
kvartett
kvartetten
kvartfinalane
kvartfinalen
kvarts
kvass
kveg
kveite
kveld
kvelden
kven
kvensk
kverneland
kvernes
kvifor
kvik
kvikksølv
kvikne
kvile
kviler
kvinesdal
kvinna
kvinne
kvinnelandslag
kvinneleg
kvinnelege
kvinnelige
kvinnenamn
kvinnenamnet
kvinnene
kvinner
kvinners
kvinnherad
kvintett
kvistar
kvit
kvite
kviterussisk
kviterussiske
kviterussland
kviteseid
kvitlauk
kvitsjøen
kvitskap
kvitsøy
kvitt
kvæfjord
kvænangen
kværner
kw
ky
kyal
kyiv
kykladane
kyle
kylie
kylling
kyndelsmesse
kyoto
kypriotiske
kypros
kyr
kyrillisk
kyrilliske
kyrka
kyrkja
kyrkje
kyrkjea
kyrkjeartikkelen
kyrkjebygg
kyrkjebygga
kyrkjebø
kyrkjebøker
kyrkjedepartementet
kyrkjegard
kyrkjegarden
kyrkjekomiteen
kyrkjeleg
kyrkjelege
kyrkjelyd
kyrkjelyden
kyrkjemusikk
kyrkjemøtet
kyrkjene
kyrkjer
kyrkjerommet
kyrkjesamfunn
kyrkjesokn
kyrkjesongar
kyrkjestad
kyrkjestaden
kyrkjestader
kyrkjestaten
kyrkjesøk
kyros
kyrre
kyst
kystane
kystar
kystby
kystbyen
kysten
kystlinja
kystlinje
kystnære
kystomra
kystsletta
kystvakta
kystverket
københavn
københavns
køyra
køyrd
køyrde
køyre
køyrer
køyretøy
køyretøyet
køyring
køyrt
køyrte
l
la
lab
label
labor
laboratoriet
laboratorium
laboratory
labour
labrador
labyrinth
lac
lacy
lada
ladd
ladde
lade
laden
ladies
ladning
ladoga
lady
lafresnaye
lafta
lag
laga
lagabøte
lagar
lagast
lagd
lagde
lagdelt
lage
lager
lagerlo
laget
lagkameratane
lagkaptein
lagmannsrett
lagnad
lagnaden
lago
lagoon
lagos
lagra
lagrar
lagrast
lagre
lagring
lagt
lagtevlinga
lagtinget
laguna
lagune
lagunen
lahore
lahti
lahtis
lai
laila
laine
laird
laji
lake
lakes
lakoni
laks
lakselv
laksen
lakseva
lalo
lam
lama
lamb
lambda
lambert
lamm
lamma
lampe
lan
lana
lanarkshire
lancashire
lancaster
lance
land
landa
landar
landareal
landarealet
landau
landbruk
landbruket
landbruksdepartementet
landbruksforlaget
landbrukskomiteen
landbruksskule
lande
landegrensa
landemerke
landessternwarte
landet
landets
landevegssykling
landfast
landformer
landing
landjorda
landkommunane
landkommunar
landkommune
landkommunen
landkreis
landleg
landlege
landma
landmark
landna
landomra
landon
lands
landsby
landsbyane
landsbyar
landsbybuarane
landsbyen
landsbygda
landscape
landschaft
landsdelen
landsforbund
landsforening
landsgymnas
landskamp
landskampar
landskampen
landskap
landskapa
landskapet
landskappleiken
landskapsma
landskapsvernomra
landskommun
landskvinna
landslag
landslaget
landslagsdebut
landslagsma
landslagssjef
landslagstrenar
landsma
landsmann
landsmannen
landsmennene
landsmøtet
landsstyret
landstad
landstads
landtunga
landtunge
lane
lang
langa
langdistanse
langdistanseløpar
lange
langeland
langesund
langesundsfjorden
langeva
langfjorden
langhekken
langkyrkje
langrenn
langrennar
langrennsløpar
langs
langsam
langsame
langsamt
langsetter
langsga
langsmed
langstrekt
langt
language
languages
languedoc
langvarig
langvarige
langøya
lanius
lanka
lanois
lanseringa
lansert
lanserte
laos
laplace
lapp
lappland
lapse
lar
lara
larane
larar
lardal
laren
large
largest
largo
lark
larkin
larkunst
larkunsten
larry
lars
larsen
larson
larssen
larsson
larus
larvane
larvar
larvik
las
laser
lass
lasse
lassen
lasso
last
lasta
laste
lastebil
lastebilar
lasteevna
lasterommet
lasteskip
lasting
lat
lata
latakia
late
latent
later
latest
latham
latimer
latin
latinamerikanske
latinsk
latinske
lattakia
latter
latvia
latvisk
latviske
lauk
launch
lauper
laupet
laura
laurdag
lauren
laurence
laurent
laurentius
laurie
lauritz
lauritzen
laus
lausanne
lause
laust
laut
lauv
lauvskog
lauvtre
lav
lava
lavaen
lavangen
lavastraumar
lavik
law
lawrence
laws
lawson
lay
layla
layton
lazarev
lazarus
lazio
lb
lc
ld
ldots
ldsvik
le
lea
lead
leader
leadon
leaf
league
leah
lear
learn
learning
leary
least
leather
leave
leaves
leaving
lebanon
leben
lebesby
lech
lecture
lectures
led
leda
ledd
ledda
leddet
leddyr
leder
ledge
ledig
lednik
lee
leeds
leer
left
leg
legacy
legal
leganger
legar
legat
lege
legen
legend
legenda
legendarisk
legendariske
legendary
legende
legender
legends
legg
legga
leggast
legge
leggja
leggjast
leggje
legion
legionen
lego
legs
lehmann
lei
leia
leiande
leiar
leiarane
leiarar
leiaren
leiarskap
leiber
leibniz
leicester
leichtathletik
leid
leidd
leidde
leiden
leie
leier
leif
leigd
leigde
leige
leigesoldatar
leigh
leiing
leiinga
leik
leikane
leikanger
leikar
leiken
leilegheit
leilegheita
leine
leining
leininga
leipzig
leir
leira
leirane
leirar
leire
leiren
leirfjord
leirvik
leis
leit
leita
leite
leith
leiting
leiv
leivningane
leivningar
lek
leka
lekam
lekamar
lekamen
lekk
leknes
leksikon
leksvik
lektor
leland
lemeso
lemon
len
lena
lende
lene
lenet
lengd
lengda
lengde
lengdegrad
lengdehopp
lengder
lenge
lenger
lengje
lengre
lengst
lengste
length
lenin
leningrad
lenk
lenkje
lenkjer
lennart
lennon
lennox
lenny
lens
lensmann
lenvik
leo
leon
leonard
leonardo
leone
leonhard
leonid
leonis
leopard
leopold
lepontinske
ler
lerenga
lerengen
leri
leria
leriet
leroy
lerret
lerum
les
lesa
lesarane
lesarar
lesaren
lesartal
lesast
lescharts
lese
lesen
lesh
lesing
lesja
lesley
leslie
lesne
lesotho
less
lesser
lessing
lesson
lessons
lest
lester
lestokk
lesund
let
lett
letta
lettare
lettast
lettaste
lette
letter
letterman
letters
lettres
lev
leva
levande
levanger
levanten
levd
levde
leve
levea
levealder
level
levema
levende
leveomra
lever
levera
levere
leverer
levering
leverkusen
levert
leverte
levetid
levetida
levi
levin
levine
levka
levkosi
levon
levra
levy
lewis
lewisohn
lex
lexicon
lexikon
lexington
lez
lezhe
lføre
lga
li
lia
liam
lian
liaoning
libanesisk
libanesiske
libanon
libanonfjella
liber
liberal
liberale
liberation
liberec
liberia
liberty
libraries
library
libretto
librettoen
libris
libya
lichtenstein
lid
lide
lidenskap
liding
lidingar
lie
liebe
liechtenstein
lied
lieder
lien
lier
lierne
lies
liestøl
lieutenants
life
lifeson
lifetime
liga
ligacupen
ligaen
ligameister
ligg
liggande
ligge
ligger
liggja
liggjande
liggje
light
lighthouse
lightning
lights
ligue
liguria
lik
lika
likar
like
likeeins
likeins
liker
likestilling
liket
likevekt
likevel
likna
liknande
liknar
likne
likning
likninga
likningane
likningar
liks
likskap
likskapar
likskapen
liksom
likt
likte
lil
lill
lilla
lille
lillebjørn
lillehammer
lillesand
lillestrøm
lillian
lilly
lily
lim
lima
lime
limerick
limited
limits
lin
lina
lincoln
lincolnshire
lind
linda
lindberg
lindeman
linden
lindesnes
lindgren
lindisfarne
lindsay
lindsey
lindstrøm
lindstøl
line
linear
linene
liner
lines
lineær
lineære
lineært
ling
linga
lingane
lingar
linge
lingua
linguistic
linguistics
lingvist
lingvistar
lingvisten
lingvistikk
lingvistisk
lingvistiske
linja
linje
linjene
linjer
linjeskip
link
linko
links
linn
linnaeus
linne
linsa
linse
linser
linstow
linus
linux
linz
lio
lion
lionel
lions
lippe
lips
lis
lisa
lisbeth
lisboa
lise
lisens
lisensen
lisensiert
lislevand
list
lista
listar
liste
listeførte
listen
listene
listener
listening
lister
listing
lists
liszt
lit
lita
litauen
litauisk
litauiske
lite
liteleg
litelege
liten
liter
literary
literatur
literature
lithuania
litle
lito
litt
litteratur
litteraturartikkelen
litteraturen
litteraturhistorie
litteraturkritikar
litteraturpris
litteraturvitskap
litterær
litterære
litterært
little
littlefield
liturgi
liturgien
liturgisk
liturgiske
liu
liv
liva
livba
live
liverpool
lives
livet
livets
livin
living
livingston
livingstone
livius
livland
livleg
livlege
livnærte
livs
livskraftig
livsstil
livsstilen
livssyn
livstid
liwa
lix
liz
liza
lizard
lizzy
lja
lje
ljos
ljoset
ljubljana
ljudmila
ll
lla
llag
llaget
llagsbibelen
llc
lle
ller
llet
llivare
llosa
lloyd
llyn
lm
lmann
lmenta
ln
lo
loaded
loaf
lobos
local
localita
localitati
localities
locality
location
loch
lock
locke
lockheed
loco
lodd
loddrett
lodge
lodger
lodi
loen
lofgren
lofoten
loftesnes
lofthus
log
logaland
logan
loggins
logic
logikk
logisk
logiske
logistikk
logo
logoen
logos
loire
lojale
lojalitet
lok
lokal
lokala
lokalavis
lokalavisa
lokale
lokalhistorie
lokalhistoriewiki
lokalhistorikar
lokalhistorisk
lokalhistoriske
lokalisert
lokalitetskategoriar
lokallag
lokalpolitikar
lokalsamfunn
lokalsamfunnet
lokalt
loke
lokka
lokomotiv
lola
lom
lomax
lombardia
lomma
lomond
london
londonderry
lone
lonely
lonesome
long
longest
longman
longplay
longyearbyen
lonnie
look
lookin
looking
looks
loose
lopez
loppa
lord
lorentz
lorentzen
lorenz
lorenzo
loretta
lorraine
los
lose
losing
losna
loss
lost
lot
lothar
lothe
lothian
lotta
lotte
lotus
lou
loud
lough
loughnane
louie
louis
louise
louisiana
lounge
louvre
lov
lova
lovande
lovane
lovar
lovbrot
lovdata
lovde
love
loved
lovely
loven
lovene
lover
lovers
loves
lovgjevande
lovin
loving
lovisa
lovleg
lovlege
lovnad
lovverk
lovverket
low
lowe
lowell
lower
lp
lps
lrørsla
ls
lsd
lselv
lsforbundet
lsingland
lsk
lska
lsordboka
lstreken
lswikipedia
lswikipediaen
lt
lta
ltd
lte
ltid
ltidet
lu
lua
lubbock
luc
luca
lucas
lucca
lucia
luciano
lucius
luck
lucky
lucy
ludlow
ludvig
ludvigsen
ludvika
ludwig
luft
lufta
luftfart
luftfartøy
luftforsvaret
luftforureining
lufthamn
lufthamna
lufthavn
luftskipet
luftstraumen
lufttrykk
lufttrykket
lugano
luhansk
lui
luigi
luis
luk
luka
lukas
lukather
luke
lukka
lukkast
lukke
lukkeleg
luksusutga
lukt
lukta
lulea
lulesamisk
lully
lulu
luna
lunar
lunch
lund
lundberg
lunde
lundefugl
lunden
lunds
lune
lungdom
lungebetennelse
lungene
lunner
lupus
lur
lura
lure
lurt
lurte
lurøy
lust
luster
luten
luther
luthersk
lutherske
lutt
luxembourg
luxembourgsk
luxemburg
luzern
lv
lvakt
lvakta
lven
lviv
ly
lycksele
lyd
lydane
lydar
lydband
lydbanda
lydbandet
lydbilete
lydbiletet
lydeffektar
lyden
lyder
lydia
lydkort
lydon
lydopptak
lydspor
lydsporet
lydteknikar
lydteknikarar
lydteknikaren
lyga
lykkast
lykke
lykkelege
lyle
lyn
lynch
lyng
lyngdal
lyngen
lynn
lynne
lynnedslag
lynx
lynyrd
lyon
lyons
lyra
lyrics
lyrikar
lyrikaren
lyrikk
lyrikken
lyrisk
lyriske
lys
lysa
lysaker
lysande
lysare
lyse
lysefjorden
lyser
lyset
lysfarten
lyssterk
lyssterke
lysstra
lysstyrken
lyst
lyste
lyt
lytta
lyttarane
lyttarar
lyttaren
lytte
lyttelton
lækjar
lækjemiddel
lær
læra
lærar
lærarane
lærarar
læraren
lærarskule
lærarutdanning
lærd
lærdal
lærde
lære
lærebok
lærebøker
lærer
læring
lærling
lært
lærte
læte
lætet
lødingen
løfta
løfte
løken
løkke
løkken
løland
løn
løna
løndal
lønn
lønning
løp
løpar
løparane
løparar
løpet
lørdag
lørenskog
løten
løva
løve
løvenskiold
løver
løvland
løy
løynd
løynde
løyndom
løypa
løype
løypelengd
løysa
løysast
løyse
løyser
løysing
løysinga
løysingar
løyst
løyste
løytnant
løyve
m
ma
maa
maakond
maal
maas
maastricht
mabbett
mac
macao
macbeth
macdonald
macedonia
machida
machine
mack
mackay
mackenzie
mackintosh
maclean
macleod
macmillan
macroregiuni
maculata
mad
madagascar
madagaskar
madame
maddy
made
madeira
madeleine
madinah
madison
madness
madonna
madras
madre
madrid
mads
madsen
mae
mael
maestro
mag
magasin
magasinet
magazine
magdalena
magdalene
magdeburg
mage
magen
magerøy
magga
maggie
maggiore
magi
magic
magical
magisk
magiske
magma
magn
magna
magnar
magne
magnesium
magnet
magnetfelt
magnetfeltet
magnetic
magnetisk
magnetiske
magnetisme
magnhild
magnum
magnus
magnusson
magyar
mahal
maharashtra
mahasz
mahatma
mahmood
mahmud
mahon
mai
maid
maiden
maier
maihaugen
maiken
mail
main
maine
mainland
mainstream
maint
mainz
mais
maison
maj
maja
majalis
majdal
majestet
majesty
major
majoris
majoritet
majoriteten
majorstuen
make
makedoni
makedonia
makedonsk
makedonske
maker
makes
making
makrell
makroregionar
maks
maksim
maksimal
maksimale
maksimalt
maksimum
makt
makta
maktene
makter
mal
mala
malangen
malaria
malawi
malayalam
malaysia
malcolm
maldivane
male
malen
mali
malik
malin
mall
mallorca
malm
malmo
malo
malone
malt
malta
maltesisk
malvik
mama
mamas
mamelukkane
mamma
man
mana
management
manager
manageren
manama
manawatu
manchester
mancini
mandal
mandals
mandarin
mandat
mandatet
mandatstyresmaktene
mandel
mandela
mandlar
mandolin
manfred
manga
mangan
mange
mangea
mangekamp
mangel
mangelen
manger
mangfald
mangfaldet
mangfaldig
mangfaldige
mangla
manglande
manglar
manglerud
mango
manhattan
mani
manifest
manila
manilow
manitoba
mann
manne
mannen
mannheim
manning
mannleg
mannlege
manns
mannskap
mannskapet
mannsnamn
mannsnamnet
manor
mans
mansfield
mansijsk
manson
mantelen
mantova
manu
manual
manuel
manuelt
manus
manuset
manusforfattar
manuskript
manuskripta
manuskriptet
many
manzanera
manzarek
mao
maori
maoriane
maoriar
map
mapa
mapping
maps
mar
mara
maracas
marathi
marathon
maraton
marble
marc
marcel
march
marche
marco
marconi
marcos
marcus
mardin
mare
maren
margaret
margareta
margarita
margin
margit
margrete
margrethe
marguerite
mari
maria
mariah
marian
marianne
marie
marienlyst
marihandfamilien
marija
marillion
marilyn
marimba
marin
marina
marine
marinebase
marinedepartementet
marinefartøy
marinen
marineoffiser
mariner
marino
marinos
marint
mario
marion
marit
marita
maritim
maritime
maritimt
marius
mark
marka
markant
markante
marked
marker
markera
markere
markerer
markering
markeringa
markeringar
markert
markerte
market
markham
marki
marknad
marknaden
marknader
marknadsby
marknadsføre
marknadsføring
marknadsføringa
marknadsført
marknadsførte
marks
markus
marlborough
marlene
marley
marmarahavet
marmor
marnardal
marne
marokkansk
marokko
maronittiske
maroon
marquee
marquis
marr
marriage
mars
marsden
marseille
marsh
marshall
marshalløyane
marsj
marsjen
marsjerte
marskalk
marta
marte
martha
marti
martin
martina
martinez
martini
martinique
martins
martinsen
martinus
marty
martyn
martyr
marvin
marx
marxistisk
mary
maryland
mas
masaryk
masfjorden
mask
maske
masker
maskin
maskina
maskinane
maskinar
maskinen
maskinene
maskiner
maskingevær
maslin
mason
mass
massachusetts
massacre
massakren
massakrerte
massane
massar
masse
massen
massey
massif
massiv
massive
massivet
massivt
mast
masta
master
mastergrad
mastering
masters
mastra
mat
mata
matar
matartikkelen
match
matchvinnar
mate
mateh
matematikar
matematikarar
matematikaren
matematikk
matematikken
matematisk
matematiske
maten
mater
material
materiala
materialar
materiale
materialet
materials
materie
materiell
materielle
mathbb
mathbf
mathcal
mathematical
mathematics
mathews
mathias
mathilde
mathis
mathisen
mathrm
matias
matilda
matlaging
matre
matrett
matrikkelgard
matrikkelgarden
matrise
matrix
mats
matsumoto
matt
mattacks
matteartikkelen
matter
matterhorn
matters
matteus
matthew
matthews
matthias
matti
mattias
matvarer
maud
maudfjella
maudheimekspedisjonen
maur
maurarane
maureen
maurice
mauritania
mauritius
maurstad
mausoleum
mawson
max
maxi
maximianus
maximilian
maximus
maxwell
may
maya
mayall
mayaspra
maybe
mayen
mayer
maynard
mayo
mayor
mazandaran
mb
mbox
mc
mca
mcbrain
mcbride
mccarthy
mccartney
mccormick
mccoy
mcculloch
mcdonald
mcdowell
mcfarland
mcgarrigle
mcgee
mcgraw
mcguinn
mckay
mckenzie
mclaren
mclaughlin
mclean
mcmurdo
mcvie
md
me
mea
meadows
mean
meaning
means
meat
mechanics
mecklenburg
med
medal
medaljane
medaljar
medalje
medaljen
medals
medan
medarbeidar
medarbeidarar
meddle
medeigar
medforfattar
medfødde
medføre
medfører
medførte
medhald
media
medical
medici
medicine
medieartikkelen
mediebedriftenes
medien
medier
mediet
medieval
medikament
medina
medisin
medisinar
medisinartikkelen
medisinsk
medisinske
meditasjon
mediterranean
medium
medla
medlem
medlemane
medlemar
medlemene
medlemer
medlemmane
medlemmar
medlemmen
medlemmene
medlemmer
medlemmet
medlemskap
medlemsland
medlemslanda
medley
medprodusent
medredaktør
medrekna
medverka
medverkande
medverkar
medverke
medvit
medvite
meet
meeting
meets
meg
mega
megacharts
megan
meget
mehmet
meieri
mein
meine
meiner
meinig
meining
meininga
meiningar
meint
meinte
meir
meisner
meister
meisteren
meisterligaen
meisterskap
meisterskapane
meisterskapen
meistertittelen
meisterverk
meistra
meistrar
mek
mekanikar
mekanikk
mekanisk
mekaniske
mekka
meksikansk
meksikanske
mektig
mektigaste
mektige
mel
meland
melanie
melbourne
melchior
meld
meldal
melde
melding
meldinga
meldingane
meldingar
meldt
meldte
melhus
melissa
mellem
mellom
mellomalder
mellomalderen
mellomalderkyrkja
mellomalderske
mellombels
mellombelse
mellomengelsk
mellomfag
mellomkrigstida
mellomrom
mellomspel
mellomspelet
mellomstor
mellomstore
mellomtida
mellotron
mellow
melodi
melodiane
melodiar
melodien
melodifestivalen
melodisk
melodiske
melody
melsom
melville
meløy
member
members
membran
membranen
memoir
memoirs
memorial
memories
memory
memphis
men
mendel
mendelssohn
mengd
mengda
mengde
mengdene
mengder
menighet
menighetsfakultetet
menighetsra
menn
mennene
menneska
menneske
menneskekroppen
menneskeleg
menneskelege
menneskeliv
mennesker
menneskerettane
menneskerettar
menneskeskapte
mennesket
menneskja
menneskje
menomonee
menorca
mens
mensch
mental
mentale
mentor
menuett
mer
mera
mercedes
mercer
merchant
mercia
mercury
mercy
mere
merete
meridianen
merk
merka
merkar
merkbart
merke
merkeleg
merker
merket
merknad
merksam
merksemd
merksemda
merkt
merkte
merkur
merkverdig
merle
merriam
merry
mersey
mersin
mes
mesa
meson
mesopotamia
mesozoikum
messa
message
messe
messenger
messer
messias
messier
messina
messing
messingbla
messini
mest
mesta
meste
mesteparten
mestseljande
met
meta
metacritic
metafor
metal
metall
metallet
metallica
metallisk
metamorfe
metan
meteor
meteorittar
meteoritten
meteorolog
meteorologi
meteorological
meteorologisk
meteorologiske
meteorology
meter
meteren
meters
metheny
method
methods
metodane
metodar
metode
metoden
metro
metroid
metrolyrics
metropolitan
metrosideros
metta
mette
metz
mexican
mexicansk
mexicanske
mexico
mexicogolfen
meyer
meyers
mez
mf
mfl
mg
mgm
mgp
mh
mhz
mi
mia
miami
mic
mich
michael
michel
michelangelo
michele
michelet
michelle
michelsen
michigan
mick
mickey
mickie
microbiology
microsoft
mid
middag
middel
middelalder
middelalderen
middelalderske
middelhavet
middelhavsklima
middelhavslanda
middelhavsomra
middels
middeltemperatur
middeltemperaturen
middelvassføring
middelvassføringa
middle
middlesbrough
middlesex
middleton
midgard
midge
midi
midla
midland
midlands
midlar
midlare
midler
midnatt
midnight
midsund
midt
midtausten
midtbane
midtbanen
midtbanespelar
midten
midtpunktet
midtre
midtstoppar
midttun
midtun
midtvegs
midtvesten
mie
mifflin
mig
might
mighty
migrasjon
migration
migrerer
miguel
mika
mikael
mikal
mike
mikhail
mikkel
mikkelsen
mikko
mikrofon
mikrofonar
mikroorganismar
mikroskop
miks
miksa
miksar
mikse
miksen
miksing
mil
mila
milan
milano
mild
mildare
milde
mildt
mile
milecastle
milepa
miles
milestone
miletos
milford
militante
military
militsen
militær
militærartikkelen
militærbase
militærdistrikt
militære
militæret
militærkomiteen
militærkupp
militærlege
militært
militærteneste
miljø
miljøet
miljøstatus
miljøvern
miljøverndepartementet
milk
mill
millennium
miller
milliard
milliardar
millimeter
million
millionar
millioner
millom
mills
milne
milorg
milos
milt
milton
milwaukee
mimi
mimus
min
mina
mind
mindat
minde
mindre
mindrea
mindretal
minds
mine
miner
mineral
minerala
mineralet
mineralog
mineralogi
mineralogy
minerva
ming
mingus
mini
minimal
minimoog
minimum
mining
minister
ministry
minka
minkande
minkar
minke
minna
minnar
minnast
minne
minneapolis
minneord
minner
minnesmerke
minnesota
minnestein
minnet
minogue
minor
minoris
minoritet
minoritetar
minoriteten
minoritetsspra
minsk
minska
minske
minst
minste
mint
mintele
minus
minute
minutes
minutt
minuttar
minuttars
minuttet
mio
miocen
mir
mira
miracle
miracles
mirage
mirakel
miranda
miriam
mirror
misbruk
misforsta
misjon
misjonær
misjonærar
misjonæren
mislikte
mislukka
mislukkast
mislykka
misnøgd
misnøgde
misnøye
miss
missa
missil
missile
missilet
missing
mission
mississippi
missouri
mist
mista
mistanke
mistar
miste
mistenkt
mistenkte
mister
mit
mitch
mitchell
mito
mitt
mittelland
mix
mixed
mja
mjelde
mjo
mjuk
mjukare
mjuke
mjukt
mjøl
mjølk
mjølka
mjølkevegen
mjømna
mjøndalen
mjøsa
mk
ml
mli
mm
mn
mo
moa
moberg
mobil
mobile
mobiltelefonar
moby
mod
modalen
mode
model
modell
modellane
modellar
modellen
modena
moder
moderat
moderate
modern
moderne
modernisering
modernisert
modernismen
modernistisk
modest
modi
modifisert
modig
modne
modular
module
modum
modus
moe
moen
mogeleg
mogelege
mogleg
moglege
moglegheit
moglegheiter
moglegvis
mogne
moh
mohamed
mohammad
mohammed
mohn
mohr
moi
mojo
mol
moland
moldavia
molde
moldova
mole
molecular
molekyl
molekyla
molekylet
molina
moll
molland
molly
moltke
moment
momentary
moments
mon
mona
monaco
monaleg
monark
monarkar
monarken
monarki
monarkiet
monday
monde
monet
money
mongolane
mongolar
mongolia
mongolsk
mongolske
monica
monika
monitor
monk
monkees
monkey
monn
mono
monogame
monographs
monolog
monopol
monotypisk
monrad
monroe
mons
monsen
monsieur
monster
monsters
monsunen
mont
montana
monte
montedio
montenegro
monterey
montert
monterte
monteverdi
montevideo
montgomery
month
monthly
montmartre
montpellier
montreal
montreux
montserrat
monty
monument
monumenta
monumentale
monumentet
monuments
mood
moods
moody
moog
moon
mooney
moonlight
moor
moore
mor
mora
moral
moralen
morales
moralsk
moralske
moran
morava
moray
mord
mordet
mordvinsk
more
moren
morene
moreno
morfologi
morfologisk
morfologiske
morgan
morgen
morgenbladet
morges
morgon
morgonen
mori
morioka
moritz
mork
morley
morning
moro
moroder
morris
morrison
morrissey
morrow
mors
morse
morsma
mort
morten
mortensen
mortensson
morton
mos
mosafinn
mosaikk
mosambik
moscow
mose
mosebok
mosel
moselle
moses
moshav
moshaven
moshe
mosjøen
moske
moskear
moskeen
moskenes
moskva
moslems
moss
most
moster
mosul
mot
mota
motala
mote
moten
motet
mother
mothers
motion
motiv
motiva
motivet
moto
motor
motorane
motorar
motoren
motoriserte
motors
motorveg
motorvegen
motown
motsetnad
motsetning
motsett
motsette
motsta
motstand
motstandar
motstandarane
motstandarar
motstandaren
motstanden
motstandsmann
motstandsrørsla
mott
motta
mottakar
mottakarar
mottakaren
mottaking
mottar
mottatt
mottek
motteke
motteken
mottoet
mottok
motvillig
motzfeldt
mount
mountain
mountains
mouse
mouth
mouton
move
movement
moves
movie
movies
moving
mowinckel
mozart
mp
mr
mrd
mrenn
mrs
ms
msn
mt
mtland
mtlands
mtv
mu
mubarak
much
mud
muddy
mudra
muh
muhammad
muhammed
muharraq
muir
muldaur
mule
mull
mullen
mulligan
multi
multimedia
multimedium
multiple
multiplikasjon
mumbai
mun
munch
mundi
municipal
municipalities
municipality
municipalsamha
municipii
municipiu
munk
munkane
munkar
munken
munn
munnar
munnen
munningen
munnleg
munnlege
munnspel
munro
munt
munthe
mur
mura
murane
murar
murat
murcia
murder
muren
muri
murmansk
murphy
murray
murstein
mus
musa
muscat
muscle
muse
musea
museet
museo
museum
museums
music
musica
musical
musicale
musichound
musician
musicians
musicline
musicoutfitters
musiikkituottajat
musik
musikal
musikalar
musikalen
musikalsk
musikalske
musikar
musikarane
musikarar
musikaren
musikars
musikindustrie
musikk
musikkalbum
musikkarrieren
musikkartikkelen
musikken
musikkgruppa
musikkgruppe
musikkhøgskole
musikkindustrien
musikkinstrument
musikkmagasinet
musikkmiljøet
musikkonservatoriet
musikkpressa
musikkpris
musikkprodusent
musikkstilar
musikkstilen
musikkstykke
musikkvideo
musikkvideoar
musikkvideoen
musique
musklane
musklar
muslim
muslimane
muslimar
muslimsk
muslimske
muslingar
mussolini
must
mustafa
mv
mw
my
myanmar
mycena
mye
myers
myfc
myhre
myhren
mykje
mykland
myklebust
myllarguten
mynde
myndigheitene
mynt
myntane
myntar
mynten
myotis
myr
myra
myrar
myrda
myrdal
myrene
myrer
myrlendt
myromra
myself
myspace
mysteriet
mysterious
mysterium
mystery
mystic
mystisk
mystiske
mytar
myte
myten
myter
myth
mythology
myths
mytiske
mytologi
mytologien
mytologiske
mæland
møbel
møblar
mølle
møller
mønster
mønsteret
mønstra
møre
mørk
mørkare
mørke
mørket
mørkret
mørkt
mørland
møta
møtast
møte
møter
møtes
møtest
møtestad
møtet
møtt
møtte
møttest
møy
n
na
naar
nabla
nablus
naboane
naboar
nabobyen
naboen
nabokommunane
nabokommunen
nabolag
nabolaget
nabolanda
nabolandet
naboøya
nach
nacional
nad
nadane
nadar
naden
nadene
nader
naders
nadine
nadir
nadu
nagano
nagasaki
nagorno
nagoya
nahal
nahiya
nahiyah
nails
naipaul
najd
naked
naken
nakke
nakken
nakne
nam
namdal
namdalen
namdalseid
name
named
names
namibia
namn
namna
namneboka
namnedag
namnestatistikk
namnet
namnetre
namngav
namngje
namngjetne
namngjeve
namngjeven
namngjevne
namnsett
namsos
namur
nan
nana
nancy
nane
nanjing
nanna
nannestad
nanny
nansen
nantes
napier
napole
napoleon
napoleonskrigane
napoli
nar
narkotika
narr
narrative
narva
narve
narvik
nas
nasa
nasal
nasaret
nase
naselenija
nasen
nash
nashville
nasjon
nasjonal
nasjonalbiblioteket
nasjonale
nasjonalforsamlinga
nasjonalgalleriet
nasjonalisme
nasjonalistar
nasjonalistiske
nasjonalitetar
nasjonalmuseet
nasjonalpark
nasjonalparkar
nasjonalparken
nasjonalsong
nasjonalsongen
nasjonalsymbol
nasjonalt
nasjonane
nasjonar
nasjonen
nassau
nasser
nat
natalia
natalie
natfinals
nathan
nathaniel
nation
national
nationale
nationaltheatret
nationen
nations
native
nato
natrium
natsionalen
natt
natta
nattehimmelen
natten
nattverd
nattverden
natur
natural
naturalist
naturbasen
nature
naturen
naturforskar
naturforvaltning
naturgass
naturhistorisk
naturleg
naturlege
naturomra
naturpark
naturreservat
naturreservatet
naturressursar
naturvitskap
naturvitskaplege
naud
naudsynt
naudsynte
nauru
naust
naustdal
nautisk
nautiske
nav
naval
navarra
navigasjon
navigation
navigatør
navn
navnekomite
navnet
navy
nazareth
nazi
nazionale
nazismen
nazistane
nazistiske
nb
nbc
nberg
nbl
nbsae
nc
ncbi
nchen
nchengladbach
nchez
ncipe
nd
nda
ndag
ndalsnes
nde
ndel
ndeleg
ndelege
nden
nder
ndez
ndverks
ne
nea
neal
near
nebb
nebba
nebbet
nebraska
nebula
neburg
necessary
neck
neckar
ned
nedanfor
nedbryting
nedbør
nedbøren
nedbørsnormal
nede
nedenes
nederlag
nederlaget
nederland
nederlanda
nederlandse
nederlandsk
nederlandske
nederlendarane
nedgang
nedgangen
nedkjempa
nedlagd
nedlagde
nedlagt
nedlasting
nedover
nedre
nedrykk
nedsetjande
nedsett
nedskrift
nedskrifter
nedskriven
nedskrivne
nedslagsfelt
nedslagsfeltet
nedslagskrater
nedst
nedste
nedstilt
nedteikna
need
needle
needs
negativ
negative
negativt
negev
negevørkenen
negro
nei
neil
neill
nekrolog
nekta
nektar
nelson
nemleg
nemna
nemnast
nemnd
nemnde
nemne
nemner
nemning
nemninga
nemningane
nemningar
nemnt
nemnte
nen
neo
neon
nepal
neppe
neptun
neptune
ner
nerløkka
nern
nero
nervesystemet
nes
neset
nesheim
nesmith
nesna
nesodden
ness
nesseby
nesset
nest
neste
nesten
nestformann
nestkommanderande
nestleiar
nestor
nesttun
nesøya
net
netanya
netflix
netherlands
nett
nettavisen
nettbaserte
netter
nettet
nettkjenningar
netto
nettoopplag
nettoopplaget
nettopp
nettsida
nettside
nettsidene
nettsider
nettstad
nettstaden
nettstader
nettsted
nettutga
nettverk
nettverket
network
neu
neucha
neue
neuerscheinungen
neuf
neujmin
neumann
neustadt
neva
nevada
neve
never
nevik
neville
nevis
nevø
nevøen
new
newark
newcastle
newfoundland
newman
newport
news
newsletter
newspaper
newspapers
newton
newzealandsk
newzealandske
next
nez
ng
nga
ngc
nge
ngel
ngen
nger
ngermanland
nh
nho
ni
nia
niande
niandeplass
niandeplassen
nic
nica
nicaragua
niccolo
nice
nicholas
nichols
nicholson
nicht
nick
nickel
nicko
nicks
nicky
nico
nicol
nicola
nicolai
nicolas
nicolay
nicolaysen
nicole
nicolson
nidar
nidaros
nidarosdomen
nidelva
nie
niedero
niedersachsen
niels
nielsen
nietzsche
nieuwe
nig
nigel
niger
nigeria
nigeriansk
night
nightingale
nightjar
nightmare
nights
nigsberg
nigstuhl
niigata
nik
nikita
nikkel
niko
nikola
nikolai
nikolaj
nikolas
nikolaus
nikon
nile
nilen
niles
nils
nilsen
nilssen
nilsson
nimrod
nin
nina
nine
nineteenth
ning
ninga
ningar
nintendo
nio
nir
nirvana
nis
nissedal
nissen
nite
nitrogen
nittedal
nitten
nitty
nitzsche
niue
niva
nixon
nizjnij
nj
nja
nk
nke
nkischen
nko
nkp
nl
nland
nlc
nm
nme
nn
nna
nne
nnina
nnkf
no
noaa
noah
noam
nobel
nobelprisen
nobelprisvinnar
nobelprize
nobels
noble
nobody
nocturne
noddy
noe
noel
noen
noir
noise
noize
nok
noka
noko
nokolunde
nokon
nokonsinne
nokosinne
nokre
noksa
nolevande
nom
nomadiske
nome
nomenclature
nominasjonar
nominatforma
nominations
nominativ
nominees
nominelle
nominert
nominerte
non
nonesuch
noord
nor
nora
norbert
nord
norda
nordahl
nordamerikansk
nordamerikanske
nordan
nordaust
nordaustkysten
nordaustleg
nordaustlege
nordaustover
nordaustpassasjen
nordaustre
nordaustsida
nordberg
nordbreidda
nordby
nordbø
norddal
norddelen
norden
nordenden
nordenfjeldske
nordens
nordenskio
nordenskjo
norderhov
nordfjord
nordfjordeid
nordfjorden
nordheim
nordhordland
nordic
nordishavet
nordisk
nordiska
nordiske
nordkapp
nordkysten
nordland
nordlands
nordlandsbanen
nordleg
nordlegaste
nordlege
nordli
nordlys
nordmann
nordmannen
nordmarka
nordmenn
nordmennene
nordmøre
nordnes
nordnorsk
nordnorske
nordom
nordover
nordpolen
nordre
nordreisa
nordrhein
nordsamisk
nordsamiske
nordsida
nordsjøen
nordstjernen
nordstoga
nordstrand
nordveggen
nordvest
nordvestenden
nordvestkysten
nordvestleg
nordvestlege
nordvestover
nordvestre
nordvestsida
nordvik
nordøya
nore
noreg
noregs
noregsmeister
noregsmeisterskap
noregsmeisterskapen
noregsrekorden
norfolk
norge
norges
norgeshistorie
norgeskart
norheim
norheimsund
norli
norm
norma
normal
normala
normalbakken
normale
normalen
normalt
norman
normandie
normann
normannarane
normannisk
normanniske
normer
norr
norra
norrbotten
norrbottens
norris
norrko
norrta
norrøn
norrøne
norrønt
norsk
norske
norskehavet
norskekysten
norte
north
northampton
northamptonshire
northern
northland
northug
northumberland
northumbria
northwest
norton
nortraship
norvegia
norvegicum
norway
norwegen
norwegian
norwegiancharts
norwich
nos
nosed
not
notane
notar
notasjon
notat
note
noter
notert
noterte
notes
nothing
nothoscordum
notid
notida
notodden
notorious
notre
nottingham
nou
nouveau
nouvelle
nov
nova
novaja
novel
novella
novelle
novellene
noveller
novellesamling
novellesamlinga
novello
november
noverande
novgorod
novi
novo
novosibirsk
novus
now
nowhere
np
npr
nr
nrk
nrks
nrt
ns
nsa
nsb
nsd
nsdap
nsf
nsr
nssdc
nsson
nster
nstler
nsw
nt
nta
ntb
nte
nter
nth
nther
ntnu
nu
nuclear
nucleus
nueva
null
nullpunktet
num
numb
number
numbered
numbering
numbers
numedal
numenius
numerisk
numeriske
numerus
nummer
nummererte
nummeret
nun
nunatak
nunatakar
nunataken
nunataks
nunavut
nuoro
nupi
nur
nursery
nve
ny
nya
nyare
nyaste
nyborg
nybygde
nybygg
nybyggjarane
nybyggjarar
nybø
nyc
nye
nyfødde
nyga
nygaard
nygaardsvold
nyhende
nyheter
nyhus
nyi
nyinnspeling
nyinnspelinga
nyinnspelingar
nyko
nyland
nyleg
nylege
nyma
nymastra
nynorsk
nynorske
nynorsken
nynorskordboka
nyon
nyoppretta
nyskapande
nystad
nyt
nytimes
nytt
nytta
nyttar
nyttast
nytte
nytter
nyttig
nyttige
nyutgjeving
nyutgjevinga
nz
nzgsae
nær
nærare
nærast
næraste
nærbø
nære
næring
næringa
næringane
næringar
nærings
næringsdrivar
næringskomite
næringskomiteen
næringsliv
næringslivet
næringsmiddel
næringsmiddelindustri
næringsstoff
næringsveg
næringsvegane
nærleiken
nærliggande
nærliggjande
nærma
nærmar
nærmare
nærmast
nærmaste
nærme
næromra
nærskyld
nærskylde
nærskyldt
nært
nærvær
nærværet
nærøy
nærøysund
næss
nødvendig
nødvendige
nødvendigvis
nøgd
nøgde
nøgletal
nøkkel
nøkkelen
nøtter
nøtterøy
nøyaktig
nøyaktige
nøydd
nøye
nøytral
nøytrale
nøytralt
nøytron
o
oak
oakland
oasen
oasis
oates
ob
obama
oberland
obero
oberst
oberstdorf
oberstløytnant
obituary
object
objects
objekt
objekta
objektet
objektiv
oblast
oblastet
obligatorisk
obligatoriske
oblivion
obo
oboar
observasjon
observasjonane
observasjonar
observations
observatoire
observatoriet
observatorio
observatorium
observatoriumet
observatory
observatør
observatørar
observatøren
observer
observerast
observere
observerer
observert
observerte
occasion
occupied
ocean
oceanic
oceans
och
oclc
oct
october
oda
odal
odd
odda
oddbjørn
odde
odden
oddgeir
oddity
oddmund
odds
oddvar
ode
odelstinget
odense
odeon
oder
odessa
odetta
odin
odysseen
odyssevs
odyssey
oed
of
off
offensiv
offensiven
offentleg
offentlege
offentleggjord
offentleggjorde
offentleggjort
offentlige
offer
offera
offeret
office
officer
official
officialcharts
offiser
offiserane
offiserar
offiseren
offisiell
offisielle
offisielt
offizielle
offiziellecharts
offshore
ofoten
ofra
oftare
oftast
ofte
oftedal
og
ogae
ogg
ogilvie
ographique
ogsa
ogso
oh
ohio
oi
oil
ois
oise
oita
ok
oka
okayama
okhotskhavet
okkupasjon
okkupasjonen
okkupasjonsmakta
okkupert
okkuperte
oklahoma
okse
okshovd
oksitansk
oksygen
okt
oktav
oktober
oktoberrevolusjonen
ol
ola
olaf
olai
olaug
olaus
olav
olavs
olavsson
old
olden
oldenburg
oldfield
oldham
oldtida
ole
oleg
olga
olimpbase
olis
olive
oliveira
oliven
olivenolje
oliventre
oliver
olivia
olivier
olivin
olja
olje
oljefelt
oljema
oljeraffineri
oljeselskap
olof
ologie
ologique
olsen
olsenbanden
olson
olsson
oluf
olympedia
olympia
olympiaden
olympiameister
olympiastadion
olympic
olympics
olympique
olympische
olympisk
olympiske
olympus
om
oman
omar
omarbeidd
omarbeidde
ombord
ombygd
ombygde
ombygging
ombygginga
omdanna
omdirigerer
omdiskutert
omdøypt
omega
omegn
omfang
omfanget
omfatta
omfattande
omfattar
omfatte
omforma
omformar
omframstortinget
omframt
omga
omgang
omgangar
omgangen
omgitt
omgivnadane
omgjeve
omgjeven
omgjevnadane
omgjevnader
omgjorde
omgjort
omgrep
omgrepa
omgrepet
omhandla
omhandlar
omiya
omkamp
omkom
omkomne
omkransa
omkring
omkringliggande
omkrins
omlag
omland
omleira
omleiring
omleiringa
omliggande
ommadawn
ommastra
omn
omnibus
omorganisert
omra
omringa
oms
omsetjar
omsetjast
omsetjing
omsetjinga
omsetjingar
omsett
omsette
omsetting
omsider
omsk
omslag
omslaget
omslutta
omsorg
omstende
omstridd
omstridde
omstridt
omsut
omsyn
omtala
omtalar
omtale
omtalen
omtalt
omtalte
omtrent
omtrentleg
omtykt
omvendt
omverda
on
once
one
onega
ones
ongul
onkel
onkelen
online
only
ono
onsdag
onstad
ontario
oo
op
ope
opedal
open
openberring
opening
opens
opent
opera
operaen
operaene
operaer
operahuset
operasjon
operasjonane
operasjonar
operasjonen
operasongar
operation
operations
operativ
operative
operativsystem
operativsystemet
operatorname
operatør
operere
opererer
operert
opererte
opinion
opium
opna
opnar
opnast
opne
opning
opninga
opningar
opningsseremonien
opningssporet
opp
oppa
oppatt
oppbevart
oppbygging
oppbygginga
oppdaga
oppdagar
oppdagarar
oppdagaren
oppdage
oppdaginga
oppdagingar
oppdagingsplassar
oppdal
oppdateringar
oppdatert
oppdaterte
oppdelinga
oppdelt
oppdikta
oppdrag
oppdraget
oppdrift
oppdyrka
oppe
oppedal
oppega
oppfatning
oppfatninga
oppfatta
oppfattar
oppfattast
oppfinnar
oppfinnaren
oppfinning
oppfinninga
oppfor
oppfordra
oppfordring
oppfunne
oppfunnen
oppfylle
oppfyller
oppfylt
oppfylte
oppfølgjar
oppfølgjaren
oppfører
oppføring
oppføringa
oppførsel
oppførselen
oppført
oppførte
oppga
oppgav
oppgitt
oppgje
oppgjer
oppgjeret
oppgjev
oppgjeve
oppgjeven
oppgradert
opphald
opphaldet
opphav
opphavet
opphavleg
opphavlege
opphavsmann
opphavsmannen
opphavsrett
opphavsretten
oppheldt
oppheva
opphøgd
opphøyrde
oppi
oppkalla
opplag
opplaget
opplagt
oppland
oppleva
opplevd
opplevde
oppleve
opplever
oppleving
opplevinga
opplevingane
opplevingar
opplysingstida
opplysningane
opplysningar
opplysningsvesenets
opplyst
opplyste
opplæring
opplæringa
oppløysing
oppløysinga
oppløyst
oppløyste
oppma
oppmoda
oppmuntra
oppna
oppnemnd
oppom
opposisjon
opposisjonen
oppover
oppreist
oppreisten
opprett
oppretta
opprette
oppretthalde
opprettheldt
opprettinga
opprykk
opprør
opprøra
opprørarane
opprørarar
opprøret
opprørske
oppsett
oppsikt
oppskrift
oppskrifter
oppslag
oppslagsordet
oppslagsverk
oppslutning
oppsta
oppstanden
oppstarten
oppstod
oppsving
oppsyn
opptak
opptaka
opptaket
opptatt
oppteken
opptekne
opptil
opptog
opptre
opptredd
opptredde
opptreden
opptredenar
opptrer
oppvaksen
oppvarma
oppvarming
oppvarminga
oppvarmingsband
oppvekst
oppveksten
optikk
optisk
optiske
opus
or
ora
oral
orange
orangeordenen
oranien
oransje
oras
orase
oratorium
orbison
orchestra
orchid
orchidaceae
orchis
ord
orda
ordbog
ordbok
ordboka
ordbøker
orde
orden
ordenar
ordenen
ordens
ordenstalet
order
ordet
ordforra
ordførar
ordførarar
ordføraren
ordfører
ordinary
ordinert
ordinær
ordinære
ordliste
ordna
ordnance
ordning
ordninga
ordovicium
ordre
ords
ordspel
ordspra
ordsprog
ordtak
ore
oregon
orenburg
orf
org
organ
organa
organet
organisasjon
organisasjonane
organisasjonar
organisasjonen
organisation
organisera
organisere
organiserer
organisering
organiseringa
organisert
organiserte
organisk
organiske
organismane
organismar
organisme
organismen
organist
organisten
organization
orgel
orgelet
ori
oricon
orient
oriental
orientalske
orientering
orientert
orienterte
orig
origin
original
originale
originalen
originally
originalt
originaltittel
originalversjonen
origins
origo
orinoco
oriole
oriolus
orion
oristano
orkan
orkanar
orkanen
orkanger
orkdal
orkester
orkesterarrangement
orkesteret
orkestrering
orkide
orkla
orkland
orkney
orknøyane
orknøyingasoga
orlando
orle
orleans
orm
ormen
ornament
orne
ornithology
ornitologisk
oro
orography
ortodoks
ortodokse
ortografi
ortografien
orwell
os
osa
osaka
osb
osborn
osborne
osbourne
oscar
oscarprisen
ose
oseania
oseanograf
oseanografi
osen
oska
oskar
oske
oslo
oslofeltet
oslofjord
oslofjorden
oslos
osmanarane
osmansk
osmanske
osmond
oss
ossetia
ost
ostanhai
osten
osterfjorden
osterøy
ostrov
osv
oswald
ot
otago
oter
other
others
otis
otta
ottar
ottawa
otte
otter
ottesen
otto
ottoman
otus
ou
oude
our
out
outer
outlaws
outside
outstanding
ouverture
ov
oval
ovale
ovanfor
ovanfra
ovanom
ove
over
overalt
overdose
overdrive
overdriven
overeins
overfamilie
overflata
overflate
overflateareal
overflod
overfor
overføra
overførast
overføre
overfører
overføring
overføringa
overført
overførte
overga
overgang
overgangen
overgav
overgje
overgrep
overhalla
overhuset
overkant
overklassen
overlappande
overlappar
overlegen
overlegne
overlet
overleva
overlevande
overlevd
overlevde
overleve
overlever
overlevert
overline
overlærar
overnatting
overnaturlege
overordentlege
overordna
overraska
overraskande
overs
oversatt
oversett
oversida
overside
oversikt
oversjøisk
oversjøiske
overskot
oversyn
overta
overtala
overtale
overtalt
overtalte
overtatt
overteke
overteken
overtok
overture
overtydande
overtydd
overtydde
overvaka
overvaking
overvann
overveldande
overview
overvintra
overvintrar
overvintring
overvintringsomra
overvunne
ovid
ow
owen
owens
owl
own
ownership
oxford
oxfordshire
oy
oz
ozonlaget
ozzy
p
pa
paa
paal
pablo
pac
pacific
pack
package
padma
padova
page
pages
pai
paice
paich
pain
paint
painted
painting
pair
paisley
pakistan
pakistansk
pakistanske
pakka
pakke
pakkisen
pakta
pala
palace
palais
palass
palasset
palau
palawan
palazzo
pale
paleo
paleontolog
paleozoikum
palermo
palestina
palestinamandatet
palestinarane
palestinarar
palestine
palestinian
palestinsk
palestinske
palgrave
palisa
pallas
pallen
palm
palma
palmas
palme
palmer
palmerston
pamela
pan
panama
pandora
panel
panic
panikk
panjab
panjabi
pankow
panna
panne
pannonia
panorama
panozzo
pansra
pantheon
paolo
papa
papas
paper
paperback
papers
papir
papiret
papua
par
para
parade
paradis
paradise
paradox
parafin
paragraf
paraguay
parakeet
parallell
parallelle
parallelt
paralympiske
parameter
parameteren
paramore
paramount
parasittar
parazaider
parc
parceiro
pareles
parentes
paret
parfitt
paris
parish
park
parkar
parken
parker
parks
parlament
parlamentarisk
parlamentariske
parlamentet
parlamentsmedlem
parlamentsvalet
parliament
parlophone
parma
parodi
parr
parra
parrot
parry
parsons
part
partane
partar
parten
partenkirchen
parti
partia
partial
participation
partido
parties
partiet
partikkel
partikkelen
partiklane
partiklar
partileiar
partisipp
partitur
partnar
partnaren
partner
parton
partridge
parts
party
parvis
pas
pascal
pasha
pasientane
pasientar
pasienten
pass
passa
passage
passande
passar
passasjar
passasje
passasjen
passasjer
passasjerane
passasjerar
passasjerfly
passe
passed
passer
passere
passerer
passeriformes
passert
passerte
passet
passion
passiv
passive
past
paste
pasteur
pastor
pastorius
pat
patagonia
patent
paterson
path
patriark
patriarken
patricia
patrick
patriotisme
pattedyr
pattedyra
patterns
patterson
patti
patty
pau
pauke
pauker
paul
paula
pauli
pauline
paulo
paulsen
paulus
paus
pause
pausen
pave
pavel
pavels
paven
pavia
pax
payne
pays
paytress
paz
pb
pbs
pc
pcbs
pdf
pds
pe
peace
peach
peacock
peak
peakbagger
peaks
pearl
pearson
peart
pedagog
pedagogikk
pedagogisk
pedagogiske
pedal
pedalsteelgitar
peder
pedersen
pedro
peel
peer
pegasus
pegg
peggy
peika
peikar
peike
peiker
peikt
peikte
pekka
pelagisk
pelle
peloponnes
pels
pelsen
pen
pena
pendlar
penelope
penet
pengane
pengar
penguin
penguins
penhus
penhuset
peninsula
penkvile
penn
pennsylvania
penny
pensacolafjella
pensjon
pensjonert
pensjonerte
pensjonist
pensjonskomiteen
penskjoldet
pent
pentangle
people
peoples
pepar
pepper
peppers
per
percy
pereira
perepis
perez
perfect
perfekt
perfekte
perfektum
performance
performances
performing
perifere
periferieininga
periferieiningane
periferien
period
periodane
periodar
periode
perioden
periodesystemet
periodisk
periodiske
perkins
perkusjon
perkusjonist
perkusjonisten
perler
perm
permanent
permanente
permisjon
permittert
pernille
perone
perry
persarane
persarriket
perseus
persia
persiabukta
persian
persisk
persiske
person
personal
personalunion
personane
personar
personbeste
personbilar
personell
personen
personer
personleg
personlegdom
personlege
personnamn
persons
perspective
perspectives
perspektiv
persson
perth
peru
peruansk
peruanske
perugia
pesah
pest
pesten
pet
pete
peter
peters
petersburg
petersen
peterskyrkja
peterson
petit
petite
petra
petraea
petrel
petrellar
petri
petridis
petroleum
petroleumsverksemd
petsjora
petter
pettersen
petty
petula
pez
pfa
pfalz
pg
pga
ph
phalacrocorax
phane
phantom
phase
phd
phi
phil
philadelphia
philharmonic
philip
philipp
philippe
philips
phillip
phillips
philol
philos
philosophical
philosophy
phish
pho
phoenix
phonographic
phonographique
phonology
phononet
photo
photographic
photos
php
phylloscopus
phylogenetic
phylogenetics
phylogeny
physical
physics
physiology
pi
pia
piacenza
pianist
pianisten
piano
pianoet
pianokonsert
pianosonate
pic
picasso
piccadilly
picea
pick
pickett
picks
pickwick
pico
picture
pictures
pie
piece
pieces
pied
piemonte
pierce
piero
pierre
pieter
pietro
pig
pigeon
pigment
pihl
pike
pil
pilatus
pilegrimar
pilgrim
pilot
pimlico
pin
pinder
pine
ping
pings
pingvinar
pink
pinnar
pinus
pinyin
pione
pioneer
pioneers
pioner
pionerane
pionerar
pip
pipe
piper
pipes
pippi
pirates
pireus
piros
pisa
pistol
pistolen
pistols
pitchfork
pitt
pitta
pittsburgh
piu
pius
piz
pizarro
pizza
pizzo
pjotr
pl
pla
place
places
placid
plaga
plagg
plagget
plain
plains
plakaten
plan
planane
planar
planck
plane
planen
planer
planet
planetane
planetar
planetarisk
planetary
planeten
planets
planica
plank
plankton
planla
planlagd
planlagde
planlagt
planlegging
planlegginga
planning
plans
plant
planta
plantane
plantar
plantasjar
plante
planteartar
planteliv
plantelivet
planten
plantene
planter
planteslekt
plants
plar
plasma
plass
plassane
plassar
plassen
plassera
plasserast
plassere
plasserer
plassering
plasseringa
plasseringar
plassert
plasserte
plast
plastic
plata
platanthera
plate
plateau
plateboks
plateboksen
platekontrakt
platene
plateomslag
plateomslaget
plateprodusent
plater
plateselskap
plateselskapet
platestudio
platin
platina
platinaplate
platinum
platon
platters
plattform
plattforma
plattformer
plattformspel
play
playboy
played
player
players
playing
plays
playstation
plaza
plc
please
pleasure
pleiades
pleidde
pleistocen
plenty
pleso
plexus
plikt
plikter
plinius
pliocen
plo
plovdiv
plukka
plukkar
plukke
plus
pluss
pluto
plutseleg
plymouth
plyndra
pm
pmc
pmi
pmid
pna
po
pocket
poco
podiceps
poe
poem
poems
poeng
poenga
poengsum
poesi
poesien
poet
poeten
poetisk
poetiske
poetry
poets
point
pointe
pointer
points
poison
pokal
pokalen
poke
pol
polakkane
polakkar
poland
polane
polar
polare
polarinstitutt
polaris
polaromra
polarsirkelen
pole
polen
polert
poli
police
policy
polish
politi
political
politics
politidistrikt
politiet
politikar
politikarar
politikararkiv
politikaren
politikk
politikkartikkelen
politikken
politimann
politisk
politiske
polka
poll
pollen
pollock
pollux
polo
polsk
polske
poltava
polydor
polygon
polygram
polynesia
polynom
pommern
pompeii
pompeius
pond
pont
ponte
pontoppidan
ponty
pony
pool
poole
poor
pop
pope
popgruppa
poplista
popmatters
popmusikk
popmusikken
popoff
popol
pops
popsong
popsongar
popular
popularitet
populariteten
populasjon
populasjonar
populasjonen
populat
populatia
population
populations
populær
populære
populærmusikk
populært
por
porcaro
porsanger
porsche
porselen
porsgrunn
port
portal
portalen
portane
portar
porten
porter
portland
porto
portrait
portrett
portrettet
portrettma
portsmouth
portugal
portugisarane
portugisisk
portugisiske
portuguese
portuguesecharts
pose
poseidon
posisjon
posisjonane
posisjonar
posisjonen
position
positions
positiv
positive
positivt
possession
possible
post
posten
posthumt
postkontor
postkort
pot
potato
potensial
potensialet
potensiell
potensielle
potensielt
potential
potet
poteter
potsdam
potter
poul
pound
pour
pourquoi
povey
powell
power
powers
poznan
pp
ppen
pr
pra
practical
practice
pradesh
praeger
praha
prairie
praksis
praksisen
praktisert
praktiserte
praktisk
praktiske
prat
prato
pratt
pravda
prayer
pre
preben
precious
predasjon
predatorar
predikant
prefektur
prefekturet
prefiks
prefikset
preg
prega
pregar
prege
preget
preika
preikestol
preikestolen
prekambrium
preliminary
prelude
preludium
premie
premien
premier
premiere
premieren
prenta
prentice
pres
presence
presens
present
presentasjon
presenterer
presentert
presenterte
presents
preservation
president
presidentar
presidenten
presidentvalet
presis
presise
presisjon
presist
presley
press
pressa
pressar
presse
pressekonferanse
pressemelding
pressen
presset
pressure
prest
prestane
prestar
prestasjon
prestasjonane
prestasjonar
prestasjonen
prestega
prestegard
prestegarden
prestegjeld
prestegjelda
prestegjeldet
presten
presterte
prestetenesta
prestige
prestisjefylte
presto
preston
preteritum
pretty
preus
preussen
prevention
pri
price
pride
priest
prikkar
prima
primary
prime
primera
primitiv
primitive
primorskij
primstaven
primær
primære
primærfaktor
primært
prince
princess
princeton
principles
pringle
prins
prinsen
prinsessa
prinsesse
prinsipp
prinsippa
prinsippet
print
printing
prior
pris
prisane
prisar
prisen
prison
prisoner
prisvinnarar
privat
private
privatlandskamp
privatpersonar
privilegia
privilegium
prix
prize
pro
problem
problema
problematisk
problemet
problems
problemstillingar
proc
proceedings
process
processing
procol
producer
producers
product
production
productions
productores
products
produksjon
produksjonar
produksjonen
produkt
produkta
produktet
produktiv
produktive
produsent
produsentane
produsentar
produsenten
produsera
produsere
produserer
produsert
produserte
prof
profesjonell
profesjonelle
profesjonelt
professional
professor
professorat
professoren
profet
profeten
profil
profile
profilen
profiles
profitt
prog
program
programleiar
programleiarane
programleiarar
programleiaren
programma
programme
programmering
programmeringsspra
programmet
programvare
progress
progressiv
progressive
progrockbandet
project
projected
projects
proklamerte
prometheus
prominente
promise
promo
promontory
pronomen
propaganda
properties
prophet
proporsjonal
prosa
prosent
prosess
prosessane
prosessar
prosessen
prosjekt
prosjekta
prosjektet
prosjektleiar
prost
prosten
prosti
prostiet
protea
protection
protein
protektorat
protest
protestantar
protestantisk
protestantiske
protestar
protesterte
proto
protokoll
protokollen
protokollkomiteen
proton
prototypen
proud
prov
prova
provence
proverbs
province
provinces
provincia
provins
provinsane
provinsar
provinsen
provinshovudstad
provinshovudstaden
provisoriske
pru
prudence
prytz
prøva
prøvar
prøvd
prøvde
prøve
prøver
prøysen
prøyssarane
prøyssisk
prøyssiske
ps
pseudonym
pseudonymet
psevdonymet
psi
pskov
psv
psychedelic
psychology
psykedelisk
psykedeliske
psykiatrisk
psykisk
psykiske
psykolog
psykologi
psykologisk
psykologiske
pt
pte
pterodroma
ptolemaios
pu
pub
public
publication
publications
publikasjon
publikasjonar
publikum
publikummet
publisere
publisert
publiserte
published
publisher
publishers
publishing
puccini
pudding
puerto
puffinus
puglia
pull
puls
pulse
pulver
pumpa
pumpe
pumpkins
punarkrigen
punch
pund
punjab
punk
punkrock
punkt
punkta
punktet
punta
purcell
pure
purple
push
pushing
pusjkin
pussa
put
putin
putnam
puy
py
pye
pyeongchang
pyle
pynt
pynta
pyramid
pyramideforma
pyre
pyreneane
python
q
qa
qaida
qasr
qatar
qi
qigong
qin
qing
qq
qt
qu
quad
quadrophenia
quality
quantum
quarter
quarterly
quartet
quaternary
quatro
quds
que
quebec
quechua
queen
queens
queensland
quentin
quest
question
questions
qui
quick
quiet
quietus
quincy
quinn
quintet
quisling
quito
quo
quotations
quoted
qutb
qvam
r
ra
raade
rabbi
rabbinar
rabbit
rabin
race
races
rachel
racing
rad
radar
radcliffe
rader
radiation
radikal
radikale
radikalt
radio
radioaktiv
radioaktive
radioaktivt
radiobølgjer
radioen
radiohead
radioprogram
radioprogrammet
radiostasjon
radiostasjonar
radiostasjonen
radiotelegrafist
radius
radiusen
radøy
raf
rafael
rafah
rafferty
rag
ragar
rage
ragna
ragnar
ragnarok
ragnhild
ragnvald
ragtime
rahman
rai
raid
raida
raiders
raidet
rail
railroad
railway
rain
rainbow
rainer
rainy
raise
raised
raitt
rajasthan
rajon
rak
rake
rakett
rakettar
rakhmaninov
rakiura
rakk
rakkestad
raknes
ralf
rally
ralph
ram
rama
ramallah
ramat
ramen
ramillies
ramla
ramm
ramma
ramme
rammer
ramn
ramo
ramon
ramone
ramones
ramsar
ramsau
ramsay
ramsey
ran
rana
rand
randaberg
randall
randen
randers
randi
randis
randolph
random
randy
rane
rang
range
rangering
rangers
rangert
rangerte
ranges
rangle
ranheim
ranking
rann
raoul
rap
raphael
rapid
rappar
rapparen
rapport
rapportar
rapporten
rapportert
rapporterte
rar
rarar
rard
rare
rart
ras
rasa
rasande
rasar
rasch
rase
rasen
rasert
raset
rashid
rasisme
rask
raskare
raskast
raskaste
raske
raskt
rasmus
rasmussen
raste
rat
rate
rather
ratifisert
rating
ration
rats
rattle
rau
raud
raudbrun
raudbrune
raude
raudehavet
raudekrossen
raudleg
raudlista
raudliste
raudrev
raudt
raufoss
rauk
rauland
rauma
raumabanen
rav
rave
ravel
raven
ravenna
ravi
ravn
raw
ray
rayman
raymond
rbar
rbare
rbok
rbundet
rca
rd
rdal
rde
rden
rder
rdoba
re
rea
reach
read
reader
readers
reading
ready
reagan
reagerer
reagerte
reaksjon
reaksjonar
reaksjonen
real
realfag
realisert
realisme
realismen
realistisk
realistiske
realiteten
reality
really
reason
reasons
reba
rebecca
rebel
rebellion
rebels
rebro
recensa
recent
reconstruction
record
recorded
recorders
recording
recordings
records
recovery
red
redaksjonen
redaktør
redaktørar
redaktøren
redd
redda
redde
redding
redigering
redigert
redigerte
redningsselskapet
redningsskøyte
redningsskøytene
reds
reduksjon
redusera
redusere
reduserer
redusert
reduserte
ree
reed
reef
reell
reelle
reelt
rees
reese
reeves
ref
referansar
referanse
referansen
reference
referer
referere
refererer
referert
refererte
reflections
refleksjon
reflekterer
reflektert
reflekterte
refling
reform
reforma
reformasjonen
reformene
reformer
reformerte
refreng
refrenget
refugee
refugees
reg
regel
regelen
regelmessig
regelmessige
regensburg
regent
regentar
reggae
reggio
regi
regime
regiment
regimentet
regimet
regina
reginald
regio
region
regional
regionale
regionalt
regionane
regionar
regionen
regionreforma
regions
regis
regissert
regisserte
regissør
regissøren
register
registeret
registrere
registrering
registreringar
registrert
registrerte
registry
regiuni
regjerande
regjering
regjeringa
regjeringane
regjeringar
regjeringen
regjeringstid
regjeringstida
regjerte
reglane
reglar
regler
regn
regnar
regnet
regnskog
regnskogen
regntida
regulera
regulere
regulerer
regulering
reguleringa
regulert
regulerte
regulær
regulære
rehabilitering
rei
reiarlag
reiarlaget
reich
reichenow
reid
reidar
reidun
reign
reignier
reilly
reims
rein
reindrift
reine
reinen
reinhard
reinhardt
reinhold
reiniger
reinmuth
reinsa
reinsdyr
reinsing
reinska
reint
reir
reira
reiret
reis
reisa
reisande
reise
reiseguide
reisema
reisen
reisene
reiser
reiskap
reiskapar
reiskapen
reissue
reissues
reist
reistad
reiste
reitan
reiv
reker
rekk
rekka
rekke
rekkefølgja
rekkefølgje
rekkja
rekkje
rekkjefølgja
rekkjefølgje
rekkjer
rekkjevidd
reklame
rekna
reknar
reknast
rekne
rekning
rekonstruere
rekonstruert
rekonstruksjon
rekord
rekordar
rekordbok
rekorden
rekruttert
rekrutterte
rektangulært
rektor
relasjon
relasjonar
related
relatert
relaterte
relation
relations
relationships
relativ
relative
relativitetsteorien
relativt
release
released
releases
relevant
relevante
relf
relief
relieff
religion
religionane
religionar
religionen
religions
religionsartikkelen
religious
religiøs
religiøse
religiøst
rem
rema
remains
remaster
remastered
remember
remembered
remembering
remiks
remiksa
remiksar
remis
remix
remo
remus
ren
rena
renaissance
renate
renault
renberg
renbourn
rendalen
rene
renessanse
renessansen
rening
renn
renna
rennande
renne
rennebu
rennesøy
rennet
renovert
renreiter
rent
reparasjon
reparasjonar
reparere
reparert
repertoar
repertoaret
repertoire
report
reporter
reports
represent
representant
representantane
representantar
representanten
representasjon
representative
representera
representere
representerer
representert
representerte
reprint
reprise
republic
republik
republika
republikanske
republikk
republikkane
republikken
requiem
required
requires
rer
res
rescue
research
researches
reservat
reservatet
reserve
reservert
reservoar
reservoaret
resett
residens
residents
residerande
resitativ
resolusjon
resolution
resort
resource
resources
respect
respekt
respektert
respekterte
respektive
respons
response
ressurs
ressursane
ressursar
rest
restane
restar
restaurant
restaurantar
restauranten
restaurering
restaureringa
restaurert
restaurerte
resten
resterande
restless
restriksjonar
result
resultat
resultata
resultatet
resultatlista
resultatoversikt
resulterer
resulterte
results
ret
retail
rete
retning
retninga
retningane
retningar
retorikk
retoromansk
retrieved
rets
rett
retta
rettane
rettar
rette
retten
retter
rettferd
rettferdig
rettleiing
rettskriving
rettskrivinga
rettsleg
rettslege
rettssak
rettssaka
rettsvitskap
rettvinkla
retur
return
returnere
returnerte
returns
reunion
reuss
reuters
rev
reveal
revealed
reveals
revelation
reven
revenge
revere
revidert
reviderte
review
reviews
revis
revised
revision
revisited
revisjon
revival
revolusjon
revolusjonen
revolusjonær
revolusjonære
revolution
revolutionary
revolver
revue
revy
rex
rey
reyes
reykjavi
reykjavik
reynolds
reysol
rez
rezidenta
rfagre
rg
rga
rgang
rgangar
rgen
rgos
rhapsody
rhein
rheinland
rhin
rhinen
rhino
rhipidura
rho
rhode
rhodes
rhodesia
rhododendron
rhundre
rhus
rhythm
ri
ria
riaa
ribe
ric
rica
ricardo
rice
ricerca
rich
richard
richards
richardson
richie
richmond
richter
rick
ricky
rico
rida
riddar
riddarane
riddarar
riddarordenen
ridder
riddle
ride
rider
riders
rides
ridge
riding
ridpath
rie
rif
riff
riffet
riftdalen
rig
riga
rige
riggs
right
righteous
rights
rihanna
riis
riise
riiser
rijn
rik
rika
rikard
rikare
rikaste
rikdom
rikdomen
rikdommen
rike
rikeleg
riket
riksantikvaren
riksarkivet
riksdagen
riksdalar
riksforbund
riksforsamlinga
riksgrensa
rikshospitalet
rikskringkasting
riksma
riksra
riksretten
riksva
riksveg
riksvegen
rikt
riktig
riley
rim
rimbaud
rimeleg
rin
rindal
ring
ringa
ringane
ringar
ringde
ringdrotten
ringe
ringebu
ringen
ringer
ringerike
ringnes
ringo
rings
ringsaker
rio
riot
rip
ripley
ris
risa
rise
risiko
risikoen
rising
risk
rissa
rista
riste
risør
rita
ritchie
rite
ritscher
ritter
ritual
rituell
rituelle
ritz
riv
riva
rival
rivalen
rivaliserande
rive
riven
river
rivera
rivers
riverside
riviera
rivne
riyadh
rja
rjazan
rjedalen
rjos
rjukan
rk
rka
rke
rko
rkyra
rlag
rlaget
rleg
rlegare
rlegaste
rlege
rlig
rm
rmland
rmlands
rms
rn
rna
rnaka
rnberg
rner
rnes
rnet
rno
rnsko
rnten
ro
roa
road
roads
roald
roar
roasso
rob
roba
robbie
robbins
robby
roberson
robert
roberta
robertchristgau
roberto
roberts
robertson
robeson
robin
robinson
robot
robson
robust
roche
rochelle
rochester
rock
rocka
rockabilly
rocke
rockeband
rockebandet
rockefeller
rockegruppa
rockegruppe
rockehistoria
rockemusikar
rockemusikk
rocken
rocker
rockers
rockesong
rockesongar
rocket
rockin
rocking
rocks
rocky
rod
rode
rodeo
rodgers
rodin
rodney
rodri
rodriguez
roe
rogaland
rogalands
rogan
roger
rogers
rogn
roi
roing
roland
role
roleg
rolegare
rolege
rolf
rolfsen
roll
rolla
rollag
rolle
rollefiguren
rollene
roller
rollespel
rollin
rolling
rollingstone
rollo
rolls
rolv
rom
roma
romagna
roman
romanane
romanar
romance
romanen
romani
romania
romano
romansk
romanske
romantic
romantikk
romantikken
romantisk
romantiske
romarane
romarar
romarriket
romartal
romartida
rome
romeo
romerike
romersk
romerske
romferda
romferja
romma
rommar
rommet
romsdal
romsdalen
romsdals
romsdalsfjorden
romsonden
romstasjonen
ron
ronald
rondane
rondo
ronne
ronnie
ronny
ronson
ronstadt
rooke
room
roosevelt
root
roots
rop
ropa
rope
roper
roppongi
ropte
ror
rory
ros
rosa
roscoe
rose
rosema
rosemary
rosen
rosenberg
rosenborg
rosendal
rosenkrantz
roser
roses
rosetta
rosie
roskilde
ross
rossbarrieren
rosshavet
rossi
rossini
rossisen
roste
rostock
rostov
rot
rota
rotasjon
rotasjonen
roterande
roterer
roth
rother
rothschild
rotten
rotter
rotterdam
rouen
rouge
rough
roulette
round
rounder
rousseau
roussillon
route
routledge
rovaniemi
rovdyr
rovfuglar
rovi
row
rowan
rowe
rowland
rowling
rowman
roxy
roy
royal
royale
royce
rpm
rr
rrekkje
rres
rrs
rs
rsaftan
rsak
rsaka
rsakene
rsaker
rsalderen
rsamling
rsbeste
rsbolken
rsdag
rsdagen
rshavn
rshei
rsjubileet
rsjubileum
rskrigen
rsmelding
rsmøte
rsmøtet
rsnedbør
rsnedbøren
rsperiode
rsperioden
rsproduksjon
rss
rsskiftet
rsskrift
rsssf
rst
rsta
rstad
rstal
rstalet
rstasjon
rstid
rstida
rstidene
rstider
rt
rta
rte
rterbuch
rth
rtha
rttemberg
ru
ruapehu
rubber
ruben
rubens
rubin
rubinstein
ruby
rud
rudi
rudolf
rudolph
rudy
rudyard
rue
rufous
rufus
rug
ruga
rugar
rugby
rugetida
ruhlmann
ruhpolding
ruhr
ruin
ruinane
ruinar
rule
rules
rull
rulla
rulle
rulleteksten
rum
rumensk
rumenske
rumours
rumped
run
runa
runar
runaway
rund
runda
rundar
runde
runden
rundgren
rundt
rune
runeberg
runene
runer
runestein
runner
runnin
running
runs
rupert
rural
rus
ruse
rush
rushdie
ruskin
ruslan
russ
russarane
russarar
russel
russell
russia
russian
russisk
russiske
russland
russlands
russo
rust
rusta
rusty
rut
ruta
rute
ruteba
rutene
ruter
ruth
rutherford
rutledal
ruud
rv
rva
rvarsel
rvi
rwanda
ry
ryan
rybak
rydda
ryder
rye
ryfylke
ryfylkemuseet
rygg
ryggar
rygge
ryggen
ryggmergen
rygh
rykka
rykke
rykodisc
rykte
ryktet
rymill
rypdal
rytmar
rytme
rytmegitar
rytmen
rytmisk
rytmiske
ryukyu
rælingen
rður
røa
rød
røde
rødliste
rødt
rødøy
røed
røldal
rømde
rømme
rønne
rønneberg
rønning
rønningen
røntgenstra
røra
røre
rører
røros
rørsla
rørsle
rørslene
rørsler
rørt
rørte
rørvik
røst
røtene
røter
røye
røyk
røyken
røynda
røyndom
røyndomen
røynsle
røyr
røyret
røyrvik
røyst
røysta
røyste
røystene
røyster
røysterett
røystinga
s
sa
saa
saab
saale
saami
saba
sabbath
sabeltann
sabine
sacd
sachs
sachsen
sacred
sad
saddam
saddle
sadie
safari
safe
safed
safety
saft
sag
saga
sagamihara
sagan
sagbruk
sage
sagen
sagene
sager
sagn
sagt
sahara
sai
said
sail
sailing
sailor
saint
sainte
saints
sak
saka
saken
sakene
saker
sakførar
sakha
sakhalin
sakna
sakprosa
saksarane
saksisk
saksiske
saksofon
saksofonist
saksofonisten
saksøkte
sakte
sal
sala
salaam
salad
saladin
salah
salangen
salat
salaverri
sale
saleh
salem
salen
salerno
sales
salet
salhus
salisbury
sally
salman
salmane
salmar
salme
salmebok
salmeboka
salmediktar
salmen
salmer
salmon
salmonsens
salo
salomo
salomon
salomonøyane
salon
salongen
salslista
salslistene
salstal
salstala
salstrofe
salt
salta
saltdal
salte
salten
saltet
saltvatn
salvador
salvadori
salvatore
salvesen
salvin
salzburg
sam
saman
samandrag
samane
samanheng
samanhengande
samanhengar
samanhengen
samanhengjande
samanlagt
samanlikna
samanliknande
samanliknar
samanliknast
samanlikne
samanlikning
samansetjing
samansetjinga
samansetning
samansett
samansette
samansettinga
samansla
samanslutning
samar
samara
samarbeid
samarbeida
samarbeidd
samarbeidde
samarbeide
samarbeider
samarbeidet
samaria
samarie
samba
samband
sambandet
sambandsstatane
sambindingar
samd
samde
same
sameina
sameine
sameint
sameinte
sameleis
samer
samers
sametinget
samferdsel
samfunn
samfunna
samfunnet
samfunnsartikkelen
samfunnsfag
samfunnsvitenskapelig
samfunnsvitskap
sami
samisk
samiske
samla
samlaget
samlar
samlarar
samlast
samle
samlealbum
samlealbumet
samlede
samleie
samleomgrep
samleplata
samleplate
samleplater
samling
samlinga
samlingane
samlingar
samlinger
samlingspartiet
samliv
samløpet
sammallahti
samme
sammen
sammy
samnanger
samoa
sampla
sample
sampler
sampling
sams
samskipnad
samskipnaden
samson
samspel
samspelet
samstundes
samsvar
samsvarar
samt
samtalar
samtale
samtid
samtida
samtidig
samtidige
samtidskunst
samtidsmusikk
samtlege
samtykke
samuel
samveldeleikane
samveldet
san
sana
sanborn
sanctuary
sand
sandal
sandane
sandberg
sanddyner
sande
sandefjord
sandemose
sanden
sander
sanders
sandman
sandnes
sandnessjøen
sandra
sandro
sands
sandsdalen
sandstad
sandstein
sandstrand
sandstrender
sandvik
sandvika
sandviken
sandwich
sandwichøyane
sandy
sandøy
sandøya
sane
sanfrecce
sang
sanga
sange
sangen
sanger
sanka
sankt
sann
sanna
sanne
sanning
sanninga
sannsyn
sannsynet
sannsynleg
sannsynlegvis
sanremo
sans
sanskrit
sant
santa
santana
santander
santiago
santo
santos
sao
sapiens
sapir
sapporo
sar
sara
sarabande
sarah
sarajevo
sarar
saratov
sardegna
sardinia
sardisk
sargatal
sari
sarpsborg
sars
sas
sassari
sat
satan
sataøen
satellite
satellitt
satellittane
satellittar
satellittbilete
satellitten
satire
satirisk
satiriske
sato
sats
satsa
satsane
satsar
satse
satsen
satsing
satt
saturday
saturn
saturnma
sau
saucerful
saud
sauda
saudi
saudiarabiske
sauer
sauherad
saul
saunders
saus
sava
savage
savannar
save
saved
savoie
savoy
saw
sax
saxo
saxon
say
sayer
says
sb
sc
scaggs
scala
scale
scandinavia
scandinavian
scar
scarecrow
scarlatti
scarlet
scary
scegli
scena
scenar
scene
scenen
scenenamnet
scener
scenes
scha
schaatsen
schaffhausen
schaffner
scheff
schei
schibsted
schifrin
schiller
schirmer
schjelderup
schlegel
schlesien
schlesiske
schleswig
schmidt
schmit
schmitt
schneider
scho
scholl
scholz
schon
school
schools
schro
schu
schubert
schulenberg
schultz
schulze
schumacher
schumann
schuster
schwa
schwaben
schwartz
schwarzwald
schweigaard
schweiz
schweizer
schwerin
schwyz
sci
science
sciences
scientific
scientist
scientists
sclater
scora
score
scores
scoresby
scotia
scotland
scots
scott
scottbreen
scottish
scotty
scratch
scream
screaming
screen
scripts
scrolls
scruggs
scytalopus
sd
sde
se
sea
seabrook
seal
seals
sean
search
searchable
searchers
searle
searrangement
seas
season
seasons
seat
seattle
sebastia
sebastian
second
seconds
secret
secretary
secrets
section
security
seder
sediment
sedimenta
sedimentære
see
seed
seeds
seefeld
seeger
seeland
seele
seems
seen
sefardisk
sefardiske
seg
sega
seger
segl
segla
seglar
seglba
segle
seglet
segling
seglskip
segment
segn
segna
segnene
segner
sei
seia
seiast
seie
seier
seig
seigler
seil
seim
sein
seinare
seinast
seinaste
seine
seinen
seinmellomalderen
seinsommaren
seinstrument
seint
seip
seismisk
seismiske
sekken
sekkepipe
sekretariatet
sekretær
seks
seksdagarskrigen
seksjon
seksjonar
seksjonen
sekstande
seksten
seksti
seksualitet
seksuell
seksuelle
seksuelt
sektor
sektoren
sekulær
sekulære
sekund
sekundar
sekundet
sekundær
sekundære
sekundært
sekvens
sekvensar
sel
selar
selbu
seld
selde
seldsjukkane
sele
select
selected
selection
self
selfangarar
selfangst
selim
selja
seljast
selje
seljord
seller
sellers
selling
selma
selmer
selo
selskab
selskabet
selskap
selskapa
selskapet
selt
selte
selv
sem
semb
sement
semi
semifinalane
semifinalar
semifinale
semifinalen
seminar
semittisk
semittiske
semje
sen
senatet
senator
send
senda
sendai
sendast
sende
sender
sending
sendinga
sendingane
sendingar
sendt
sendte
senegal
senegalia
senere
seng
senga
senger
senior
senja
senka
senking
senkinga
sense
sent
senter
sentera
senteret
senterpartiet
sentimental
sentinel
sentral
sentralafrikanske
sentralbanken
sentralbyra
sentrale
sentralnervesystemet
sentralstasjon
sentralstyret
sentralt
sentrert
sentrum
sentrumet
sentrumssoner
seoul
sep
separat
separate
sept
september
septimius
sequence
ser
seral
seraphine
serbarar
serbia
serbisk
serbiske
seremoni
seremoniar
seremonielle
seremonien
serenade
serge
sergej
sergio
seriane
seriar
serie
seriegull
seriekampar
seriema
seriemeister
seriemeisterskap
seriemeisterskapen
serien
serierunde
series
seriesystemet
serious
seriøs
seriøse
seriøst
serra
sersjant
sertifisert
servera
serverast
serverer
servering
servert
service
services
ses
sesjonane
sesjonen
sesong
sesongane
sesongar
sesongen
sesongslutt
session
sessions
set
sete
seter
setesdal
setet
seth
setja
setjast
setje
setlist
setlista
setning
setninga
setningar
sett
setta
sette
setter
settet
setting
settlement
settlements
seura
seuran
sevastopol
sevat
seven
seventh
seventies
several
severin
severn
severus
sevilla
sex
sexe
sexual
sexy
seychellane
seymour
sezione
sf
sg
sgae
sgard
sgt
sh
sha
shaanxi
shaar
shackleton
shackletonkjeda
shade
shades
shadow
shadows
shaft
shah
shahr
shake
shakespeare
shakin
shall
shalom
shame
shams
shan
shandong
shane
shang
shanghai
shankar
shannon
shanxi
shape
shapiro
share
sharjah
sharon
sharonsletta
sharp
sharpe
shaw
shawn
shaykh
she
shea
sheep
sheer
sheet
sheffield
sheikh
sheila
sheldon
shelf
shell
shelley
shelly
shelter
shelton
shepard
shepherd
sheppard
sherlock
sherman
sherwood
sheryl
shetland
shetlandsøyane
shi
shimizu
shimon
shine
shining
ship
shipping
ships
shire
shirelles
shirley
shkode
sho
shoals
shock
shoe
shoes
shonan
shoot
shop
shore
short
shorter
shot
should
shout
show
showet
shows
shrike
shropshire
shtml
shu
shuffle
shut
si
sia
siam
sibelius
siberia
siberian
sibir
sibirske
sic
sica
sich
sichuan
sicilia
siciliansk
sid
sida
sidan
side
sidebre
sideelv
sideelva
sideelvane
sideelvar
siden
sidene
sider
sides
sideveg
sidney
sidon
sidor
sie
siege
siegel
siegfried
siemens
siena
sier
sierra
siffer
sig
sigbjørn
sigd
sigdal
siger
sigeren
sigerspallen
sight
sigismund
sigla
sigma
sigmund
sign
signa
signal
signala
signalet
signalhandsaming
signaturla
signe
signere
signert
signerte
signifikant
signs
signy
sigra
sigrande
sigrane
sigrar
sigrid
sigrun
sigur
sigurd
sigurdsson
sik
sikh
sikhar
sikker
sikkert
sikra
sikre
sikt
sikta
sikte
sil
sild
silence
silent
silikat
silisium
siljan
silje
silk
silke
silkevegen
silur
silva
silver
sim
sima
simbad
simeiz
simen
simeon
simmons
simo
simon
simone
simonsen
simple
simply
simpson
simpsons
sims
sin
sina
sinai
sinatra
since
sinclair
sind
sinding
sindre
sine
sinfonia
sing
singapore
singel
singelen
singellista
singellistene
singelutga
singelversjonen
singer
singers
singh
singing
singlane
singlar
single
singles
sings
sink
sinn
sinne
sint
sinus
sio
sion
sioux
siouxsie
siple
sir
sira
siracusa
sirdal
sire
siren
siri
sirius
sirkel
sirkelen
sirkelforma
sirklar
sirkulasjon
sirkulasjonen
sirkulær
sirkumpolar
sirkus
sis
sissel
sist
siste
sisteplass
sister
sisters
sistnemnde
sistnemnte
sit
sita
sitar
sitat
sitatet
sitatsamling
sitattype
site
siterer
sitert
siterte
sites
sitja
sitjande
sitje
sitjeplassar
sitron
sitt
sitting
situ
situasjon
situasjonar
situasjonen
siv
sivert
sivertsen
sivil
sivile
sivilingeniør
sivilisasjon
sivilisasjonar
sivilisasjonen
sivilt
siviløkonom
sivle
six
sixteen
sixth
sixties
size
sj
sja
sjah
sjakk
sjakkblad
sjakkforbund
sjakkparti
sjakkspelar
sjanger
sjangeren
sjangrane
sjangrar
sjanse
sjansen
sjef
sjefen
sjefredaktør
sjeik
sjekk
sjel
sjela
sjeldan
sjeldant
sjeldnare
sjeldne
sjette
sjetteplass
sjetteplassen
sjia
sjiamuslimar
sjiva
sjo
sjokk
sjokolade
sjtsj
sju
sjua
sjuande
sjuandeplass
sjuandeplassen
sjuk
sjukamp
sjukdom
sjukdomar
sjukdomen
sjukdommar
sjukdommen
sjuke
sjukehus
sjukehuset
sjukepleiar
sjur
sjælland
sjø
sjøane
sjøar
sjøen
sjøfart
sjøfarts
sjøfartsmuseum
sjøfolk
sjøforsvaret
sjøfugl
sjøfuglar
sjøhistorie
sjølv
sjølvbiografi
sjølvbiografien
sjølvbiografisk
sjølvbiografiske
sjølve
sjølvga
sjølvmord
sjølvoppkalla
sjølvportrett
sjølvsagt
sjølvstende
sjølvstendekrigen
sjølvstendepartiet
sjølvstendet
sjølvstendig
sjølvstendige
sjølvstyre
sjølvstyresmakta
sjølvstyrt
sjølvstyrte
sjømann
sjømenn
sjørøvarar
sjøs
sjøsett
sjøslag
sjøvatn
sjøvegen
sk
ska
skaar
skada
skadane
skadar
skadd
skadde
skade
skadedyr
skadeleg
skadelege
skaden
skader
skaffa
skaffe
skaft
skagen
skagerrak
skaggs
skal
skala
skalaen
skald
skaldatal
skalden
skaldic
skaldyr
skalet
skallen
skam
skandale
skandinavia
skandinavisk
skandinaviske
skanna
skanse
skansen
skapa
skapar
skaparen
skape
skaper
skapinga
skapningar
skapt
skapte
skar
skard
skardet
skarp
skarpe
skarpt
skatt
skattane
skattar
skattelister
skatten
skatval
skaun
skaut
skavlan
ske
skedag
skedsmo
skei
skeid
skeiseløpar
skeiser
skelleftea
skelter
skeptisk
ski
skia
skidspelen
skien
skiensvassdraget
skies
skifer
skiffle
skiflyging
skift
skifta
skiftande
skiftar
skifte
skifter
skiftet
skihoppar
skihopping
skiidrett
skikk
skikkar
skikkeleg
skikken
skiklubb
skil
skild
skilde
skildra
skildrande
skildrar
skildrast
skildre
skildring
skildringa
skildringane
skildringar
skilja
skiljast
skilje
skiljet
skilling
skilnad
skilnadane
skilnaden
skilnadene
skilnader
skilsmisse
skilt
skilte
skiløpar
skin
skinande
skinn
skinner
skinnet
skip
skipa
skipe
skipet
skipinga
skipper
skipreide
skipreidene
skipsbygging
skipsfart
skipsfarten
skipsleia
skipsreiar
skipsverft
skiptvet
skirennar
skisenter
skiskyting
skiskyttar
skisse
skisser
skissert
skiva
skive
skiver
skiweltcup
skja
skje
skjeberg
skjedd
skjedde
skjegg
skjel
skjelett
skjelvet
skjer
skjera
skjeret
skjergard
skjerm
skjerma
skjermar
skjermen
skjerstad
skjervøy
skjold
skjoldet
skjorte
skjorter
skjul
skjule
skjult
skjulte
skjøna
skjønnlitteratur
skjønnlitterær
skjønnlitterære
skjørt
sko
skodespel
skodespela
skodespelar
skodespelarane
skodespelarar
skodespelaren
skodespelarinna
skodespelet
skodje
skoen
skog
skogane
skogar
skogbruk
skogen
skoger
skogkledd
skogkledde
skogn
skogomra
skogsomra
skolar
skole
skoleklassar
skolen
skoltesamisk
skopje
skore
skoren
skorne
skorpa
skot
skota
skote
skoten
skotne
skotsk
skotske
skottane
skottland
skra
skram
skreiv
skremmande
skrent
skrenten
skrev
skrevet
skribent
skribenten
skrift
skrifta
skriftene
skrifter
skriftet
skriftleg
skriftlege
skriftspra
skriftsystem
skrik
skrinlagd
skritt
skriv
skriva
skrivast
skrive
skrivema
skriven
skriver
skriving
skrivinga
skrivne
skrog
skroget
skuffa
skuffande
skugge
skuggen
skulane
skular
skuld
skulda
skuldast
skulde
skulder
skulderbladet
skuldig
skuldingane
skuldingar
skuldra
skuldrene
skule
skulea
skulegang
skulegangen
skulema
skulemann
skulen
skulestyret
skulle
skulptur
skulpturane
skulpturar
skulpturen
skulptør
skum
skuta
skvadron
skvadronen
sky
skya
skye
skyene
skyer
skyld
skyline
skynyrd
skyt
skyta
skyte
skyteva
skyting
skøyen
skøyta
skøyteløpar
skøyter
sl
sla
slade
slag
slaga
slaget
slagmarka
slagordet
slags
slagverk
slakt
slakta
slala
slam
slangar
slange
slanke
slant
slapp
slash
slate
slavane
slavar
slave
slaveri
slaveriet
slavisk
slaviske
slede
sleep
sleeping
sleeps
sleeve
slege
slegen
slegne
sleipner
sleit
slekt
slekta
slektene
slekter
slektning
slektningane
slektningar
slektningen
slektskap
slektsnamn
slektsnamnet
slemmestad
slendt
slepp
sleppa
sleppe
sleppt
sleppte
slept
slesvig
slett
sletta
slette
slettene
sletter
slick
slide
slidegitar
slidre
sligo
slik
slike
slikt
slim
slip
slit
slite
slo
sloppe
sloppen
slost
slott
slottet
slovakia
slovakisk
slovakiske
slovenia
slovensk
slovenske
slow
sluppen
sluser
slutt
slutta
sluttar
slutte
slutten
sluttresultatet
sluttspel
sluttspelet
sly
slør
sløva
sløyfe
sm
sma
smaalenenes
smak
smaken
smal
smalare
smalaste
smale
small
smalnar
smalt
smart
smash
smashing
smed
smedal
smell
smelta
smeltar
smelte
smeltevatn
smelteverk
smelting
smerte
smerter
smil
smile
sminke
smith
smiths
smithsonian
smitta
smitte
smoke
smokey
smolensk
smooth
sms
smund
smykke
smyslov
smyth
smøla
smør
smøra
sn
sna
snake
snakes
snakk
snakka
snakkar
snakke
snarare
snart
sne
snep
snes
sniglar
snikkar
snipe
snitt
snittet
snl
snor
snorre
snow
sns
snu
snudd
snudde
snur
snø
snødekt
snødekte
snøen
snøfall
snøgg
snøggare
snøggaste
snøggba
snøggleik
snøggleiken
snøgt
snømark
snøras
snøsmelting
snøstorm
so
soc
social
socialdemokratiske
socialist
socie
society
sofa
sofia
sofie
sofistikerte
soft
software
soga
soge
sogelag
sogene
soger
sogn
sogndal
sognefjorden
sogns
soil
sokalla
sokk
sokkel
sokn
sokna
sokndal
soknegrenser
soknekyrkja
soknekyrkje
sokneprest
soknepresten
soknera
soknet
sokrates
sol
sola
solar
solbakken
solberg
sold
soldat
soldatane
soldatar
soldaten
soldier
soldiers
sole
soleis
solen
solheim
solid
solidaritet
solide
solinnstra
solist
solistar
soll
solli
sollys
sollyset
solnedgang
solo
soloalbum
soloalbuma
soloalbumet
soloar
soloartist
soloen
sologitar
sologitarist
solokarriere
solokarrieren
solomon
soloppgang
soloprosjekt
solothurn
solovokal
solovokalist
solovokalisten
solstad
solstra
solsystemet
solum
solund
solvang
solveig
solør
som
soma
somalia
somby
some
somebody
someone
somerset
something
sometimes
somewhere
sommar
sommaravlingar
sommaren
sommarfuglar
sommarhalva
sommarleikane
sommarma
sommarsesongen
sommarstid
sommartid
somme
sommer
somrane
somrar
son
sona
sonar
sonata
sonatar
sonate
sonden
sonderband
sondre
sone
sonen
soner
soneson
song
songane
songar
songarane
songarar
songaren
songbook
songen
songfacts
songpartitur
songs
songsolistar
songteksten
songtevlinga
songwriter
songwriters
sonia
sonic
sonja
sonny
sons
sony
soon
sophia
sophie
sophus
sopp
soppar
soppen
sopran
sopransaksofon
sorbonne
sorbus
sorenskrivar
sorenskrivaren
sorg
soria
sorrow
sorry
sort
sortar
sorte
sortert
sortland
sos
sosial
sosialdemokratane
sosialdemokratisk
sosialdemokratiske
sosialdepartementet
sosiale
sosialisme
sosialismen
sosialist
sosialistar
sosialistisk
sosialistiske
sosialistpartiet
sosialkomiteen
sosialt
sosiolog
sosiologi
sotra
sotsji
soul
souls
sound
sounds
soundtrack
soundtracks
sounes
soup
source
sources
sous
south
southampton
souther
southern
southland
sov
sovande
sove
soviet
sovjet
sovjetarane
sovjetisk
sovjetiske
sovjetrepublikken
sovjettida
sovjetunionen
sovjetunionens
sp
spa
space
spain
span
spanande
spania
spanish
spanishcharts
spanjolane
spanjolar
spann
spansk
spanske
spar
sparboe
spare
sparebank
sparebanken
spark
sparka
sparken
sparks
sparrow
sparta
spartacus
spasskij
spd
spe
speak
special
species
spector
spectrum
spedbarn
speech
speed
spegel
spegla
speglar
spektakulære
spekter
spekteret
spektralklasse
spektrum
spekulasjonar
spekulert
spel
spela
spelar
spelarane
spelarar
spelaren
spelarprofil
spelast
spele
spelefilm
spelemann
spelemannen
spelemenn
speler
spelestilen
spelet
speletid
spelinga
spell
spellemann
spellemannprisen
spelt
spelte
spencer
spenn
spennande
spenner
spenning
spenninga
spenningar
spent
sperra
spesialiserer
spesialisert
spesialiserte
spesialist
spesialutga
spesiell
spesielle
spesielt
spesifikk
spesifikke
spesifikt
spesifisert
spesifiserte
sphaerodactylus
spice
spider
spiders
spiegel
spike
spill
spiller
spin
spinn
spinning
spion
spionasje
spiral
spire
spirit
spirits
spiss
spisse
spissen
spisst
spit
spitsbergen
spitz
split
splitta
sponsa
spontant
spoon
spoonful
spor
spora
sporadisk
sporadiske
sporar
sporast
spore
sporet
sport
sporten
sporting
sports
sportsboken
sportsklubb
sportsklubben
sporvefugl
sporvefuglar
spot
spotify
spotlight
spotted
spp
spra
sprache
sprang
spreadsheet
spreia
spreidd
spreidde
spreie
spreier
spreiing
spreiinga
spreitt
sprekk
sprekkar
sprekker
sprengt
spring
springar
springaren
springe
springer
springfield
springs
springsteen
sprint
sprinten
sprog
sprø
spur
spurde
spurt
spurte
spurten
sputnik
sputnikmusic
spy
spyd
spydeberg
spydet
spydkast
spøk
spør
spørsma
sqrt
square
squaw
squire
sr
sri
ss
ssa
ssb
sseldorf
ssn
ssp
ssr
st
sta
stabbur
stabelen
staben
stabil
stabila
stabile
stabilitet
stabilt
stabæk
stack
stad
stadane
stadar
stade
staden
stadene
stader
stades
stadfesta
stadfestar
stadfeste
stadiet
stadig
stadige
stadion
stadionet
stadium
stadnamn
stadnamnet
stadnamnregister
stadt
stafett
stafettar
stafetten
stafettlag
stafettlaget
staff
stafford
staffordshire
stage
stakk
stal
stalin
stalingrad
stallen
stamfar
stamma
stammane
stammar
stamme
stammen
stammene
stammer
stan
stand
standal
standar
standard
standardar
standarden
standardisert
standardiserte
standardmodellen
standards
standen
standfugl
standfuglar
standing
standpunkt
stanford
stang
stange
stanisław
stanley
stansa
stanton
star
stara
stardust
stark
starling
starman
starr
stars
starship
start
starta
startar
starte
starten
startnummer
stasjon
stasjonane
stasjonar
stasjonen
stasjonert
stasjonsbygningen
stasjonsdatabasen
stasjonære
stat
statane
statar
state
statement
staten
statens
states
stathelle
station
stations
statisk
statistica
statistical
statistics
statistik
statistikk
statistisk
statistiska
statistiske
statistitsjeski
statkraft
statleg
statlege
statoids
statoil
stats
statsarkivet
statsborgar
statsborgarar
statsborgarskap
statsbudsjettet
statskupp
statsleiar
statsmann
statsminister
statsministeren
statsministerens
statsoverhovud
statsra
statsraadet
statssekretær
statsstipendiat
statsvitar
statsvitskap
statthaldar
statuane
statuar
statue
statuen
status
statusen
stav
stava
stavanger
stavar
stavema
stavern
stavhopp
staving
stavinga
stavingar
stavkirke
stavkirker
stavkyrkja
stavkyrkje
stavkyrkjene
stavkyrkjer
stavropol
stax
stay
ste
steady
steam
sted
stedje
steel
steele
steeleye
steelgitar
steely
steen
stefan
stefano
steffen
steg
steget
steiermark
steig
steigen
steikt
stein
steinalder
steinalderen
steinane
steinar
steinbrot
steinen
steiner
steinete
steinkjer
steinkyrkje
steinsland
steinsvik
stella
stemd
stemde
stemma
stemme
stemmen
stemmene
stemmer
stemmerett
stemne
stemnet
stemning
stemninga
stempel
stemplet
stemshaug
stemt
stemte
sten
stend
stendig
stenersen
stengd
stengde
stengel
stengelen
stenger
stengt
step
stephan
stephanie
stephen
stephens
stephenson
steppa
steps
stera
sterbotten
sterbottens
stereo
stergo
sterk
sterkare
sterkast
sterkaste
sterke
sterkt
sterling
stern
sternorrlands
sternwarte
sterreich
stersund
stettin
steve
steven
stevens
stevenson
stevie
stewart
sti
stian
stiar
stica
stichting
stick
sticky
stien
stift
stifta
stifte
stiftelsen
stifting
stiftinga
stig
stigande
stige
stigen
stikk
stikke
stikkord
stiklestad
stil
stilar
stilartar
stilen
stilisert
stiliserte
stilken
still
stilla
stille
stilleben
stillehavet
stillehavskysten
stiller
stilling
stillinga
stillingane
stillingar
stills
stilmessig
stilt
stilte
stina
stine
sting
stipe
stipend
stipendet
stipendiat
stirling
stiv
stive
stja
stjerna
stjerne
stjernebilde
stjernebileta
stjernebilete
stjernebiletet
stjernekamp
stjernene
stjerner
stjert
stjerten
stjørdal
stk
stmanland
sto
stock
stockholm
stockholms
stod
stoda
stoff
stoffa
stoffet
stogga
stoke
stokes
stokk
stokke
stokken
stokmarknes
stol
stole
stolen
stoller
stolt
stolte
stoltenberg
stomp
stone
stones
stong
stonington
stooges
stop
stopp
stoppa
stoppar
stoppe
stoppestad
stor
stora
storbakken
storband
storbritannia
storby
storbyar
storbyen
storbyomra
stord
stordal
stordomstid
store
storelva
storfe
storfjord
storfjorden
storfyrstedømet
storgarden
storgata
storhamar
storhaug
storhertug
storhertugdømet
storico
stories
storkommunen
storkrossen
storleik
storleikar
storleiken
storleiksklasse
storleiksorden
storm
storma
stormakt
stormaktene
stormar
stormeister
stormen
stormfuglar
stormy
storparten
storskala
storsla
storslala
storstilt
stort
storting
stortinget
stortingets
stortingsbiografi
stortingsmann
stortingsperioden
stortingspresident
stortingsrepresentant
stortingsrepresentantar
stortingsval
stortingsvalet
story
storøya
stova
stra
strabon
straff
straffa
straffe
straffespark
straight
strait
straits
strake
straks
stralsund
strand
stranda
strandebarm
strange
stranger
strangers
strasbourg
strategi
strategic
strategien
strategisk
strategiske
strategy
stratford
stratosfæren
stratovulkan
stratton
straum
straumar
straume
straumen
straumsnes
strauss
stravinskij
strawberry
strawbs
stray
stream
street
streets
streik
streisand
strek
strekar
strekk
strekker
strekkjer
strekning
strekninga
strekningar
strekt
strekte
strendene
strender
streng
strengane
strengar
strengare
strenge
strengeinstrument
strengen
strengene
strenger
strengs
strengsgitar
strengt
strength
stress
strid
stridande
stridar
striden
stridsvogn
stridsvogner
strike
strikes
strinda
strindberg
string
strings
strip
stripa
stripe
striper
stro
strofer
strok
stroket
strong
structure
structures
struensee
struggle
struktur
strukturane
strukturar
strukturelle
strukturen
strupe
strupen
stryk
strykarar
strykearrangement
strykekvartett
stryketrio
stryn
strøk
strøket
strøm
strømme
strømmen
strømper
strømsgodset
strøymde
strøyme
strøymer
strøyming
sts
stsci
stu
stuart
stuck
student
studentane
studentar
studenten
studentma
students
studentsamskipnaden
studera
studere
studerer
studert
studerte
studia
studiane
studiar
studie
studien
studier
studies
studiet
studietida
studio
studioalbum
studioalbuma
studioalbumet
studioet
studiomusikar
studiomusikarane
studiomusikarar
studioopptak
studios
studium
study
stuff
stund
stundom
stup
sture
sturla
sturlason
stutt
stutte
stuttgart
stygge
stykka
stykke
stykket
style
styles
styra
styrande
styrar
styrbord
styre
styreformann
styreleiar
styremedlem
styrer
styresett
styresmakt
styresmakta
styresmaktene
styresmakter
styret
styreverv
styring
styringa
styrka
styrkane
styrkar
styrke
styrken
styrkt
styrkte
styrt
styrta
styrte
styx
stø
stønad
stør
støre
støren
større
størst
største
størstedelen
størsteparten
støtt
støtta
støttar
støtte
støtter
støttespelar
støttespelarane
støttespelarar
støv
støy
støypt
støyt
støytande
støytte
su
sua
sub
subantarktiske
subglacial
subjekt
subjektet
subkontinentet
submarine
subsp
subst
substantiv
substantiva
substantivet
subtropisk
subtropiske
success
such
suche
suchen
sud
sudan
sue
suede
suezkanalen
suffiks
suffikset
suffolk
sugar
sui
suicide
suisse
suite
suiten
sukker
sukkerrøyr
suksess
suksessen
suksessfulle
suksessrik
suksessrike
sul
sula
sulawesi
suldal
suleiman
sulitjelma
sullivan
sultan
sultanatet
sultanen
sultans
sum
sumaren
sumatra
summar
summary
summen
summer
summers
summertime
summit
summitpost
sun
sunbird
sund
sunda
sundag
sundagen
sunday
sundby
sunde
sunderland
sundet
sundsvall
sundt
sunflower
sung
sunge
sungen
sungne
sunn
sunndal
sunndalsøra
sunne
sunnfjord
sunnhordland
sunnhordlandske
sunni
sunnimuslimar
sunniva
sunnmøre
sunnmørsposten
sunny
sunnylven
sunrise
sunset
sunshine
sunt
suny
suomalais
suomen
suomi
super
superficie
supergruppa
superior
superkontinentet
superlativ
superman
supernova
superstar
supertramp
suppe
supper
supplement
supply
support
supreme
supremes
sur
sure
surf
surface
surfer
surfin
surfing
surgery
surinam
surnadal
surprise
surrealistiske
surrender
surrey
surt
survey
surveys
survival
survive
survivor
sus
susan
susanna
susanne
sussex
sutcliffe
sutherland
sutton
suveren
suverene
suverenitet
suverent
suzanne
suzi
suzuki
sv
sva
svaart
svak
svakare
svakaste
svake
svakt
svalbard
svangerskap
svar
svara
svarar
svare
svarer
svaret
svarstad
svart
svarta
svarte
svartedauden
svartehavet
svartehavsregionen
svartisen
svein
sveinung
sveio
sveits
sveitsisk
sveitsiske
svekka
svelvik
sven
svend
svendsen
svensk
svenska
svenskane
svenskar
svenske
svensken
svenskspra
svenskt
svensson
sverd
sverdet
sverdlovsk
sverdrup
sverdrupfjella
sverige
sveriges
sverigetopplistan
sverre
sverresborg
svetisiske
svetlana
svigersonen
svik
svikta
svin
sving
svinga
svingar
svingen
svingingar
svizzera
svogeren
svolder
svolt
svolvær
svor
svos
svovel
svt
svulst
svær
svært
swahili
swainson
swallow
swamp
swan
swansea
swarbrick
swaziland
swe
sweat
sweden
swedish
swedishcharts
sweet
sweetheart
swift
swing
swinging
swiss
swisscharts
switch
switzerland
sword
swp
sy
syd
sydd
sydney
sykehus
sykes
sykkel
sykkylven
syklar
sykling
syklist
syklon
syklonar
syklonen
syklus
syklusen
sylinder
sylinderen
sylindrar
sylte
syltetøy
sylv
sylvain
sylvester
sylvia
sym
symbol
symbola
symbolet
symboliserer
symbolismen
symbols
symbolsk
symbolske
symfoni
symfoniane
symfoniar
symfonien
symfoniorkester
symfonisk
symfoniske
symjar
symje
symjing
symmetri
symmetrisk
symmetriske
sympathy
sympati
symphonies
symphony
symposium
symptom
symptoma
syn
syna
synagoge
synagogen
synast
synd
syndicat
syndrom
syndrome
syne
syner
synest
synet
syng
synga
synge
synger
syngje
synleg
synlege
synnøve
synonym
synonymt
syns
synspunkt
synspunktet
synt
syntaks
synte
syntest
syntetisk
syntetiske
synth
synthesiser
synthesizer
synthesizerar
syre
syrer
syrgde
syria
syrian
syrisk
syriske
sysken
syskena
syskenbarnet
sysselsette
system
systema
systematic
systematics
systematikk
systematisk
systematiske
systemet
systems
syster
systera
systrene
systrer
syter
sytte
sytten
syv
syvertsen
syzygium
sz
szabo
szo
sæbø
særeige
særeigen
særeigne
særleg
særlege
særlig
særmerkt
særmerkte
særprega
særs
særskild
særskilde
særskilt
særtrekk
sæter
sæther
sætre
søgne
søk
søke
søker
søkja
søkje
søkjer
søkk
søkke
søkkt
søknad
søknaden
søksma
søkt
søkte
sølv
sølvet
sølvi
sølvmedaljar
sølvmedalje
sølvmedaljen
sølvplass
sølvplassen
sølvvinnaren
sømna
søn
søndag
søndagen
søndeled
søndre
sønene
søner
sønn
sør
sørafrikansk
sørafrikanske
søralpane
søramerikanske
søraust
søraustenden
søraustkysten
søraustlege
søraustover
søraustre
søraustsida
sørbreidda
søre
søren
sørenden
sørensen
sørfjorden
sørfold
sørga
sørgde
sørgje
sørgjer
sørishavet
sørkoreansk
sørkysten
sørlandet
sørlandsbanen
sørleg
sørlegaste
sørlege
sørom
sørover
sørpolen
sørreisa
sørsamisk
sørsamiske
sørsida
sørspissen
sørstatane
sørum
sørvest
sørvestenden
sørvestkysten
sørvestleg
sørvestlege
sørvestover
sørvestre
sørvestsida
sørøya
søster
søstera
søstre
søt
søte
søv
søvn
søy
søyle
søylene
søyler
t
ta
tab
tabell
tabellen
tabla
table
tablesl
tabu
tacitus
tadsjikistan
tafjord
tag
tai
tail
tailed
tait
taiwan
taj
tak
taka
takashi
takast
take
taken
takes
taket
taking
takk
takka
takke
takle
taksonomi
taksonomisk
takt
taktar
takten
taktikk
taktikken
taktisk
taktiske
tal
tala
talande
talands
talar
talarane
talarar
talbot
talde
tale
talema
talen
talent
talentet
taler
[...]
