!
"
#
##0
##1
##10
##11
##12
##13
##14
##15
##16
##17
##18
##19
##2
##20
##21
##22
##23
##24
##25
##26
##27
##28
##29
##3
##30
##31
##32
##33
##34
##35
##36
##37
##38
##39
##4
##40
##41
##42
##43
##44
##45
##46
##47
##48
##49
##5
##50
##51
##52
##53
##54
##55
##56
##57
##58
##59
##6
##60
##61
##62
##63
##64
##65
##66
##67
##68
##69
##7
##70
##71
##72
##73
##74
##75
##76
##77
##78
##79
##8
##80
##81
##82
##83
##84
##85
##86
##87
##88
##89
##9
##90
##91
##92
##93
##94
##95
##96
##97
##98
##99
$
%
&
'
(
)
*
+
,
-
.
/
0
00
000
001
002
003
004
005
006
007
01
010
02
022
03
04
05
050
06
07
08
09
1
10
100
1000
10000
1001
1005
101
1010
1013
1014
1015
1016
1018
102
1020
1024
1025
103
1030
1035
104
1040
1047
105
1050
106
1060
1066
107
1070
108
1080
1086
109
1093
1095
1099
11
110
1100
111
112
1120
1127
113
1130
1135
1136
114
1146
1147
115
1150
1153
1154
1155
1157
116
1160
117
1170
118
1180
1187
1189
119
1190
12
120
1200
1202
1204
1206
121
1217
122
1220
1225
123
1230
124
1240
1241
125
1250
126
1260
1263
1266
127
1270
1275
1279
128
1280
129
1290
1291
1299
13
130
1300
131
1319
132
1320
1325
133
1330
134
1340
1349
135
1350
136
1360
137
1370
138
1380
1389
139
1390
14
140
1400
141
1410
142
1420
143
1430
144
1440
145
1450
1453
146
1460
147
1470
1476
148
1480
1482
1483
1485
149
1490
1492
1493
1494
1495
1497
1498
1499
15
150
1500
1501
1502
1503
1504
1505
1506
1509
151
1510
1512
1513
1514
1515
1516
1517
1518
1519
152
1520
1521
1522
1523
1524
1525
1526
1527
1528
1529
153
1530
1531
1532
1533
1534
1535
1536
1537
1538
1539
154
1540
1541
1542
1543
1545
1547
1548
155
1550
1551
1552
1553
1555
1556
1557
1558
1559
156
1560
1561
1562
1563
1564
1565
1566
1567
1568
1569
157
1570
1571
1572
1573
1574
1575
158
1580
1581
1582
1583
1584
1585
1587
1588
1589
159
1590
1594
1595
1596
1597
1598
1599
16
160
1600
1601
1602
1603
1604
1605
1606
1607
1608
1609
161
1610
1611
1612
1613
1614
1615
1616
1617
1618
1619
162
1620
1621
1622
1623
1624
1625
1626
1627
1628
1629
163
1630
1631
1632
1633
1634
1635
1636
1637
1638
1639
164
1640
1641
1642
1643
1644
1645
1646
1647
1648
1649
165
1650
1651
1652
1653
1654
1655
1656
1657
1658
1659
166
1660
1661
1662
1663
1664
1665
1666
1667
1668
1669
167
1670
1671
1672
1673
1674
1675
1676
1677
1678
1679
168
1680
1681
1682
1683
1684
1685
1686
1687
1688
1689
169
1690
1691
1692
1693
1694
1695
1696
1697
1698
1699
17
170
1700
1701
1702
1703
1704
1705
1706
1707
1708
1709
171
1710
1711
1712
1713
1714
1715
1716
1717
1718
1719
172
1720
1721
1722
1723
1724
1725
1726
1727
1728
1729
173
1730
1731
1732
1733
1734
1735
1736
1737
1738
1739
174
1740
1741
1742
1743
1744
1745
1746
1747
1748
1749
175
1750
1751
1752
1753
1754
1755
1756
1757
1758
1759
176
1760
1761
1762
1763
1764
1765
1766
1767
1768
1769
177
1770
1771
1772
1773
1774
1775
1776
1777
1778
1779
178
1780
1781
1782
1783
1784
1785
1786
1787
1788
1789
179
1790
1791
1792
1793
1794
1795
1796
1797
1798
1799
18
180
1800
1801
1802
1803
1804
1805
1806
1807
1808
1809
181
1810
1811
1812
1813
1814
1815
1816
1817
1818
1819
182
1820
1821
1822
1823
1824
1825
1826
1827
1828
1829
183
1830
1831
1832
1833
1834
1835
1836
1837
1838
1839
184
1840
1841
1841954543
1842
1843
1844
1845
1846
1847
1848
1849
185
1850
1851
1852
1853
1854
1855
1856
1857
1858
1859
186
1860
1861
1862
1863
1864
1865
1866
1867
1868
1869
187
1870
1871
1872
1873
1874
1875
1876
1877
1878
1879
188
1880
1881
1882
1883
1884
1885
1886
1887
1888
1889
189
1890
1891
1892
1893
1894
1895
1896
1897
1898
1899
19
190
1900
1901
1902
1903
1904
1905
1906
1907
1908
1909
191
1910
1911
1912
1913
1914
1915
1916
1917
1918
1919
192
1920
1921
1922
1923
1924
1925
1926
1927
1928
1929
193
1930
1931
1932
1933
1934
1935
1936
1937
1938
1939
194
1940
1941
1942
1943
1944
1945
1946
1947
1948
1949
195
1950
1951
1952
1953
1954
1955
1956
1957
1958
1959
196
1960
1961
1962
1963
1964
1965
1966
1967
1968
1969
197
1970
1971
1972
1973
1974
1975
1976
1977
1978
1979
198
1980
1981
1982
1983
1984
1985
1986
1987
1988
1989
199
1990
1991
1992
1993
1994
1995
1996
1997
1998
1999
2
20
200
2000
2001
2002
2003
2004
2005
2006
2007
2008
2009
201
2010
2011
2012
2013
2014
2015
2016
2017
2018
2019
202
2020
2021
2022
2023
2025
203
204
205
206
207
208
209
21
210
2100
211
212
213
214
215
216
217
218
219
22
220
2200
221
222
223
224
225
226
227
228
229
23
230
2300
231
232
233
234
235
236
237
238
239
24
240
2400
241
242
243
244
245
246
247
248
249
25
250
2500
251
252
253
254
255
256
257
258
259
26
260
2600
261
262
263
264
265
266
267
268
269
27
270
271
272
273
274
275
276
277
278
279
28
280
2800
281
282
283
284
285
286
287
288
289
29
290
291
292
293
294
295
296
297
298
299
3
30
300
3000
301
302
303
304
305
306
307
308
309
31
310
311
312
313
314
315
316
317
318
319
32
320
3200
321
322
323
324
325
326
327
328
329
33
330
331
332
333
334
335
336
337
338
339
34
340
341
342
343
344
345
346
347
348
349
35
350
3500
351
352
3528
353
354
355
356
357
358
359
36
360
361
362
363
364
365
366
367
368
369
37
370
371
372
373
374
375
376
377
378
379
38
380
381
382
383
384
385
386
387
388
389
39
390
391
392
393
394
395
396
397
398
399
4
40
400
4000
401
402
403
404
405
406
407
408
409
41
410
411
412
413
414
415
416
417
418
419
42
420
421
422
423
424
425
426
427
428
429
43
430
431
432
433
434
435
436
437
438
439
44
440
441
442
443
444
445
446
447
448
449
45
450
4500
451
452
453
454
455
456
457
458
459
46
460
461
462
463
464
465
466
467
468
469
47
470
471
472
473
474
475
476
477
478
479
48
480
481
482
483
484
485
486
487
488
489
49
490
491
492
493
494
495
496
498
499
5
50
500
5000
501
502
503
504
505
506
507
508
509
51
510
511
512
513
514
515
516
517
518
519
52
520
521
522
523
524
525
526
527
528
529
53
530
531
532
533
534
535
536
537
538
539
54
540
541
542
543
544
545
546
547
548
549
55
550
5500
551
552
553
554
555
556
557
558
559
56
560
561
562
563
564
565
566
567
568
57
570
571
572
573
574
575
576
577
58
580
581
582
583
584
585
586
588
589
59
590
592
593
595
597
6
60
600
6000
601
602
603
604
605
606
607
608
609
61
610
611
612
613
614
615
616
617
618
62
620
621
622
624
625
626
627
628
629
63
630
631
632
633
634
635
636
637
638
639
64
640
641
642
645
65
650
651
652
653
654
655
656
657
658
66
660
661
662
663
664
665
666
668
67
670
671
674
675
679
68
680
681
682
683
684
685
687
688
69
690
691
692
695
699
7
70
700
7000
701
702
705
706
707
709
71
710
711
7119
712
714
715
716
717
718
72
720
721
722
724
725
73
730
731
732
735
737
738
74
740
741
743
744
745
747
749
75
750
751
7527
753
754
755
756
757
759
76
760
762
765
768
77
770
771
773
774
777
78
780
79
790
8
80
800
8000
801
802
804
805
808
81
810
812
813
815
817
818
82
820
822
824
825
827
83
830
84
840
842
843
847
849
85
850
852
858
86
860
861
862
864
865
87
870
875
876
88
880
885
886
888
89
890
892
9
90
900
9000
904
907
909
91
910
911
914
915
92
920
924
925
929
93
930
935
939
94
940
944
945
95
950
951
952
954
96
960
961
962
965
97
970
974
975
976
978
98
980
985
986
987
99
990
995
996
997
999
:
;
<
=
>
?
@
\
^
_
`
a
aa
aachen
aage
aalborg
aalesund
aall
aalto
aamodt
aan
aar
aaraas
aare
aarflot
aargau
aarhus
aaron
aars
aas
aase
aasen
aasmund
aat
ab
aba
abba
abbas
abbasidane
abbed
abbeden
abbey
abbott
abc
abd
abdiserte
abdul
abdulfattah
abdullah
abe
abel
aber
aberdeen
aberdeenshire
abies
abingdon
abkhasia
abo
abort
about
above
abraham
abrahams
abrahamsen
abram
abruzzo
absalon
absolute
absolutt
absolutte
absorberer
absorbert
absorpsjon
abstract
abstrakt
abstrakte
abu
abyan
ac
acacia
acade
academia
academic
academy
acadia
acan
access
accessed
according
account
ace
ach
achievement
acid
acoustic
acre
across
act
acta
action
actor
ad
ada
adagio
adam
adams
adare
adderley
addisjon
ade
adeccoligaen
adel
adelaide
adele
adelege
adelen
adelsmann
adelsmenn
aden
adige
adj
adjektiv
adjektivet
adjunkt
adkins
adla
adler
admininistrasjonsreform
administrasjon
administrasjonen
administrasjonsenteret
administrasjonssenter
administrasjonssenteret
administrasjonsstad
administration
administrativ
administrative
administrativt
administrerande
administrert
admiral
admiralen
admiralitetet
admiralty
adolf
adolph
adolphe
adoptert
adopterte
adressa
adresse
adresseavisen
adriahavet
adrian
adrien
adso
adult
advance
advanced
advent
adventure
adventures
adverb
advisory
advokat
advokatar
advokaten
ae
aerial
aero
aerosmith
aerosurveys
af
affair
affairs
afghanistan
afghansk
afghanske
afraid
africa
african
afrika
afrikaans
afrikanarar
afrikansk
afrikanske
afro
afroamerikanarar
afroamerikansk
afroamerikanske
aftenblad
aftenposten
aftenpostens
after
afternoon
ag
aga
again
against
agave
agdenes
agder
agdestein
age
agency
agent
agentar
agenten
ages
agglutinerande
aggressiv
aggressive
agnar
agnes
ago
agricola
agricultural
agriculture
ah
ahead
ahern
ahmad
ahmed
ahmet
ahoy
ai
aid
aids
aiguille
aikio
aime
ain
air
airbus
aircraft
aires
airlines
airplane
airport
airways
ais
aise
aix
aj
aja
ajax
aji
ajjubidane
ajjubide
ajman
ajos
ak
aka
akaba
akademi
akademien
akademiet
akademisk
akademiske
akbar
aker
akers
akerselva
akershus
akhai
akhmatova
akita
akkadisk
akkerman
akko
akkompagnement
akkompagnementet
akkompagnert
akkompagnerte
akkord
akkordane
akkordar
akkurat
akkusativ
akp
akronym
akropolis
aks
aksa
akse
aksel
akselerasjon
akselerasjonen
aksen
aksent
akseptere
akseptert
aksepterte
aksjane
aksjar
aksjeselskap
aksjon
aksjonar
aksjonen
aksla
aksling
akt
akta
akter
aktig
aktige
aktiv
aktive
aktivist
aktivistar
aktivitet
aktivitetane
aktivitetar
aktiviteten
aktivt
aktuell
aktuelle
aktuelt
aktør
aktørane
aktørar
akustikk
akustisk
akustiske
akutt
akvarellar
akvarium
al
ala
alabama
aladdin
alagoas
alain
alan
alarik
alarm
alaska
alawittar
alba
alban
albania
albansk
albanske
albany
albatross
albatrossar
albedo
albert
alberta
alberto
albertville
albion
albirex
albrecht
album
albuma
albumet
albumlista
albumlistene
albums
albumspor
albumtittelen
albumversjonen
albuquerque
albus
alder
alderen
aldrande
aldrar
aldri
ale
aleine
alejandro
alekhine
aleksander
aleksandersen
aleksanderøya
aleksandr
aleksandra
aleksej
alen
alene
aleppo
alessandro
aleutane
alex
alexander
alexandra
alexandre
alexandria
alexis
aley
alf
alfa
alfabet
alfabetet
alfabetisk
alfonso
alfred
algar
algarve
alge
algebra
algebraisk
algebraiske
alger
algerie
algeriske
algonkinske
ali
alias
alicante
alice
alien
align
alison
alive
alkan
alkefuglar
alkohol
all
alla
allah
allan
alle
allegori
allegretto
allegro
allein
allen
aller
allereie
alles
alley
alliance
alliansar
allianse
alliansen
alliert
allierte
allison
allium
allkunne
allkunnebok
allman
allmenn
allmenne
allment
allmugen
allmusic
allround
allsidig
alltid
alltinget
alm
alma
almagro
almaty
alminneleg
almond
almost
alna
alomar
alone
along
alonso
alpane
alpert
alpes
alpha
alphonse
alpin
alpine
alpiner
alpinist
alpinistar
alpint
alps
alright
als
alsace
also
alstahaug
alt
alta
altaj
altar
altaret
altartavla
altartavle
alte
alter
alteret
alternate
alternativ
alternative
alternativet
alternativt
altertavla
altertavle
altfor
altimetrica
alto
altocumulus
altsa
altsaksofon
aluminium
aluminiummineral
alv
alvane
alvar
alvdal
alver
alversund
alvin
alvor
alvorleg
alvorlege
always
am
ama
amadeus
amalie
amanda
amandaprisen
amanuensis
amatørar
amazing
amazon
amazonas
amazonaselva
ambassaden
ambassadør
ambassadøren
amber
ambient
ambisiøse
ambisjonar
ame
amelia
amen
america
american
americana
americans
amerika
amerikanarane
amerikanarar
amerikanaren
amerikansk
amerikanske
amfi
amfibium
amherst
ami
amiga
amin
aminosyrer
amir
amman
ammunisjon
amnesty
amon
among
amor
amore
amos
amour
ampezzo
amplituden
amr
amsterdam
amt
amtet
amtliches
amtmann
amtmenn
amund
amundsen
amur
amy
an
ana
analog
analoge
analogt
analysar
analyse
analysen
analysere
analysis
analytisk
anand
anare
anarkistar
anarkistiske
anas
anatolia
anatolij
anatomi
anatomisk
anatomiske
anatomy
anbar
anca
anchor
anchorage
ancient
ancona
and
anda
andaluci
andante
ande
andebu
andefamilien
andeleg
andelege
anden
andenes
anderlecht
anders
andersen
anderson
anderssen
andersson
andes
andesfjella
andhra
andlet
andletet
andorra
andra
andre
andrea
andreas
andreassen
andrej
andremann
andreplass
andreplassar
andreplassen
andres
andresen
andrespra
andrew
andrews
android
andromeda
andsynes
andy
andøy
andøya
ane
anemone
anerkjend
anerkjende
anerkjenner
anerkjenning
anerkjent
anerkjente
anette
angara
ange
angel
angela
angeles
angell
angelo
angels
angelsaksisk
angelsaksiske
anger
anglesey
anglia
anglikanske
anglo
angola
angra
angreip
angrep
angrepet
angrepsspelar
angrip
angripa
angripe
angripen
angripne
angst
angus
anh
anhalt
anhui
ani
animal
animals
animasjon
animasjonsfilmar
animation
animert
animerte
anita
anja
anjou
anka
ankara
anker
ankermann
ankra
anlagt
anlegg
anlegga
anlegget
anløp
ann
anna
annakvart
annan
annapurna
anne
annektert
annekterte
annen
annet
annette
annie
anniversary
annleis
anno
annonse
annonsert
annonserte
annual
annullert
anonym
anonyme
anonymt
another
ans
anse
ansgar
ansikt
ansiktet
ansla
anson
ansvar
ansvaret
ansvarleg
ansvarlege
ansvarsomra
answer
ant
anta
antal
antalya
antarctic
antarctica
antarktis
antarktisekspedisjonen
antarktisk
antarktiske
antarktiskekspedisjonen
antarktistraktaten
antbird
ante
anten
antenner
anthem
anthology
antholz
anthony
anti
antibiotika
antigua
antikk
antikke
antikken
antikkens
antillane
antiokia
antiokos
antistoff
antlers
anto
antoine
antoinette
antologi
anton
antoni
antonia
antonio
antonius
antonsen
antony
antpitta
antrim
antropologi
ants
antwerpen
antwren
anund
anvers
any
anybody
anymore
anything
ao
aostadalen
ap
apache
apartheid
apc
apertium
apg
aphrodite
apocalypse
apollo
apollon
apostelen
apostelgjerningane
apostlane
apotek
apparat
apparatet
appelsin
appenninane
appenzell
appice
apple
apples
applied
approach
approx
apr
april
aqualung
aquitaine
ar
ara
arab
arabarane
arabarar
arabia
arabiahavet
arabic
arabisk
arabiske
arad
arafat
arago
aragon
aralsjøen
aram
arameisk
arameiske
arane
arar
arbeid
arbeida
arbeidar
arbeidarane
arbeidarar
arbeidarklassen
arbeidarparti
arbeidarpartiet
arbeidarrørsla
arbeidd
arbeidde
arbeide
arbeider
arbeiderblad
arbeiderbladet
arbeidernes
arbeiderparti
arbeiderpartiet
arbeidet
arbeids
arbeidskraft
arbeidskyrkje
arbeidskyrkjer
arbeidsliv
arbeidslivet
arbeidsløysa
arbeidsløyse
arbeidsoppga
arbeidsplassar
arbeidsplassen
arbeidstittelen
arbo
arbor
arc
arcade
arch
archaeological
archaeology
archer
archipelago
architecture
archiv
archive
archives
arctic
ard
arden
ardija
are
area
areal
arealbruk
arealet
areas
aremark
arena
arenaen
arenaer
arendal
aretha
arezzo
argentina
argentinsk
argentinske
arges
argument
argumenterer
argumenterte
argyll
ari
aria
ariar
arie
ariel
arif
arild
arista
aristide
aristokratiet
aristokratiske
aristoteles
arizona
ark
arkadi
arkansas
arkeolog
arkeologar
arkeologen
arkeologi
arkeologisk
arkeologiske
arkhangelsk
arkimedes
arkipel
arkitekt
arkitektane
arkitektar
arkitekten
arkitektonisk
arkitektoniske
arkitektur
arkitekturen
arkiv
arkiva
arkivert
arkivet
arkivportalen
arkivverket
arktis
arktisk
arktiske
arles
arlo
arm
armand
armane
armar
arme
armeane
armeen
armen
armenarar
armenia
armensk
armenske
arms
armstrong
army
arn
arna
arne
arneberg
arnesen
arnesson
arnfinn
arno
arnold
arnstein
arnt
arntzen
arnulf
aron
around
arp
arr
arrangement
arrangementa
arrangementet
arrangere
arrangerer
arrangert
arrangerte
arrangør
arrangørane
arrangørar
arrangøren
arrangørlandet
arrestert
arresterte
arrondissement
arrow
ars
arsenal
art
artane
artar
arte
artemis
artemisia
arten
artene
arter
arthur
article
articles
artie
artikkel
artikkelen
artiklane
artiklar
artikler
artilleri
artilleriet
artist
artistane
artistar
artisten
artistnamnet
artists
artium
arts
artsdatabanken
artslista
artsliste
artsnamnet
artur
arturo
aruba
arup
arv
arva
arve
arvefølgjekrigen
arveleg
arven
arverett
arvid
arvika
arving
arvingane
arvingar
arvingen
as
asa
asbjørn
asbjørnsen
ascension
aschehoug
aschehougprisen
aschehougs
ascher
aserbajdsjan
aserbajdsjanarar
aserbajdsjansk
aserbajdsjanske
asgard
ash
ashdod
asher
ashes
asheton
ashford
ashgate
ashkelon
ashley
ashton
asia
asian
asiatisk
asiatiske
asir
ask
askeland
askenasisk
askenasiske
asker
askheim
askim
askvoll
askøy
aslak
aslaug
asle
asorane
asp
aspects
aspekt
aspx
ass
assad
assam
assembly
assia
assisi
assistanse
assistent
assistenten
assisterande
assistert
assisterte
associated
associates
association
assosiert
assyrarane
assyrarar
assyria
assyrisk
assyriske
ast
asta
asteroid
asteroidane
asteroidar
asteroide
asteroidefamilien
asteroidelister
asteroiden
asti
astma
aston
astrakhan
astrid
astrofysikk
astronaut
astronom
astronomar
astronomen
astronomi
astronomical
astronomisk
astronomiske
astronomy
astrup
asturias
asyl
asylum
asymmetrisk
at
ata
atahualpa
atari
atco
atelier
aten
ath
athen
athena
athens
athletic
atkins
atkinson
atlanta
atlanteren
atlanterhavet
atlanterhavskysten
atlantic
atlantis
atlantiske
atlas
atle
atmosfære
atmosfæren
atmosfærisk
atmosfæriske
atmospheric
atom
atoma
atomet
atomic
atomnummer
atomuba
atomva
att
atta
attack
attande
atten
attende
attentat
attentatet
atter
attgjeve
attiki
attila
attmed
attom
attraksjon
attraksjonar
attval
attvald
attverande
au
aubrey
auch
auckland
aud
aude
audio
auditorium
audnedal
audrey
audun
auf
aug
auga
auge
auget
augneblink
augo
augsburg
august
augusta
auguste
augustin
augustine
augusto
augustus
auk
auka
aukande
aukar
auke
auken
aukra
aukrust
auksjon
aune
aunt
aur
aura
aurdal
aure
aurelius
aurland
aurlandsdalen
aurora
aurskog
aus
auschwitz
aust
austad
austbreidda
austen
austenden
austerrikarane
austerrike
austerriksk
austerrikske
austersjøen
austersjøfinsk
austersjøfinske
austeuropeiske
austevoll
austfronten
austin
austindiakompaniet
austindiske
austkysten
austlandet
austleg
austlegaste
austlege
austnorsk
austom
austover
austprovinsen
austra
australasia
australasiatiske
australia
australian
australis
australsk
australske
austre
austrheim
austria
austromarane
austromarriket
austromerske
austsida
austtysk
austtyske
authority
auto
autobiography
automatic
automatisert
automatisk
automatiske
autonom
autonome
autoritet
autoritetar
autoriteten
autoritære
autumn
auvergne
aux
av
ava
available
avaldsnes
avalon
avansert
avanserte
avant
avantgarde
avbilda
avbilding
avbraut
avbrot
avbrote
avbroten
avdekt
avdekte
avdeling
avdelinga
avdelingane
avdelingar
avduka
avdøde
ave
avec
avenue
averøy
aves
avfall
avfolka
avfyrt
avføring
avgang
avgangar
avgarde
avgift
avgifter
avgjer
avgjera
avgjerande
avgjerd
avgjerda
avgjerder
avgjere
avgjersla
avgjersle
avgjersler
avgjorde
avgjort
avgrensa
avgrensar
avgrense
avgrensing
avgrensingar
avhandling
avhandlinga
avhandlingar
avheng
avhengig
avhengige
avian
aviation
avignon
avinor
avis
avisa
avisene
aviser
avispa
aviv
avkall
avkjøling
avkjølt
avkjørsel
avkom
avkommet
avl
avla
avlang
avlange
avleia
avleidd
avleidde
avleiing
avleiringar
avlidne
avlingane
avlingar
avlyse
avlyst
avlyste
avløp
avløyst
avløyste
avmerkt
avon
avory
avretta
avrettinga
avrunda
avrøystinga
avsett
avsette
avsidesliggande
avskaffa
avskjed
avskoging
avsla
avslo
avslutning
avslutninga
avslutningsseremonien
avslutta
avsluttande
avsluttar
avslutte
avslørt
avslørte
avsnitt
avsnittet
avsta
avstamming
avstand
avstandar
avstanden
avstemming
avstikkar
avstod
avtala
avtalar
avtale
avtalen
avtalt
avvik
avvikande
avvikla
avviser
avvist
avviste
award
awards
away
axe
axel
axis
ay
aydın
ayers
ayn
aynsley
ayrshire
az
azerbaijan
aziz
azkaban
azul
azur
b
ba
baader
baal
baalbek
bab
baba
babbler
babe
babel
babies
babord
baby
babylon
babylonia
babylonske
bac
baca
bach
bacharach
bachelor
bachelorgrad
bachs
back
backbeat
backed
backer
bacon
bad
bada
baden
badet
badfinger
baez
bafta
bag
bagdad
baglarane
baha
bahai
bahamas
bahia
bahrain
bahrainske
bai
bailey
baja
bajkalsjøen
bak
baka
baker
bakgrunn
bakgrunnen
bakgrunnsstoff
bakgrunnsvokal
bakka
bakkant
bakkar
bakke
bakken
bakkerud
bakkroppen
baklengs
bakom
bakover
bakr
bakre
baksida
bakteriar
bakterien
baku
bakverk
bal
bala
balance
balanse
balansen
balansert
balchen
balder
baldry
balduin
baldwin
balearane
balestrand
bali
balin
balkan
balkanfjella
balkankrigen
balke
ball
ballad
balladar
ballade
balladen
ballads
ballangen
ballar
ballard
ballen
ballet
ballett
balletten
ballistiske
ballklubb
ballroom
balsfjord
baltikum
baltimore
baltiske
balutsjistan
bam
bamble
ban
bana
banan
banana
bananar
bananblad
banane
banar
banat
band
banda
bandar
banded
bandet
bandleiar
bandmedlem
bandmedlemmane
bandmedlemmar
bandmedlemmene
bandnamnet
bands
bandy
bane
banebrytande
banen
baneparametrar
bang
bangkok
bangladesh
bangs
bani
banjo
bank
bankane
bankar
banke
banken
bankmann
banks
banner
bannlyst
banshees
banton
bantuspra
banu
banzare
baptiste
bar
bara
barack
barar
barbados
barbara
barbarossa
barber
barbet
barbra
barbuda
barcelona
bardu
bardufoss
bare
barentshavet
bari
bark
barken
barker
barking
barlow
barn
barna
barnard
barndom
barndomen
barndommen
barne
barnebarn
barnebarnet
barnebok
barneboka
barnebokforfattar
barnebokforfattarar
barnebøker
barnehagar
barnehage
barnelitteraturpris
barnes
barneskular
barneskule
barneskulen
barnet
barnett
barney
barokk
barokke
barokken
barokkomponistar
baron
baroque
barr
barra
barre
barrett
barrie
barrier
barrieren
barron
barrow
barry
bars
barskog
bart
barth
barton
bartre
baryton
barytonsaksofon
bas
basalt
basar
base
baseball
based
basel
basement
basen
baserer
basert
baserte
basic
basie
basil
basilika
basilikaen
basin
basis
basjkortostan
baskarland
basketball
baskisk
basra
bass
basse
bassen
basseng
bassenget
bassey
bassgitar
bassgitarist
bassist
bassistar
bassisten
bassklarinett
basso
bastion
bat
bataljon
bataljonar
bataljonen
bates
bath
batman
bats
batt
batteri
batteriet
battista
battle
battuta
baud
bauer
baugen
bauhaus
baumann
bautastein
baxter
bay
bayer
bayern
bayerske
bayley
bayou
bayt
bb
bbc
bc
bd
bds
be
beach
beacon
beagle
bean
bear
beard
beast
beat
beate
beatles
beatrice
beatrix
beau
beaumont
beautiful
beauty
beaux
beaver
bebop
bec
because
bech
beck
becker
beckett
bed
beda
bede
bedehus
bedehuskapell
beden
bedford
bedre
bedrift
bedrifta
bedrifter
beduinane
beduinar
bee
beeb
beefheart
been
beer
beersheba
beethoven
befesta
befolkning
befolkninga
before
befrukta
beg
begeistra
begge
begin
beginners
beginning
beginnings
begynt
begynte
behageleg
behaldar
behalde
behandla
behandling
behandlinga
beheldt
behind
behn
behov
behovet
bei
beiarn
beijing
bein
beina
beinet
being
beinn
beint
beirut
beit
beita
beitar
beite
beitemark
beitemarker
beiteomra
beiting
beitstad
bekk
bekkar
bekken
bekkenet
bekrefta
bel
belafonte
belaja
belarus
belarusisk
belarusiske
belew
belfast
belgia
belgica
belgique
belgisk
belgiske
belgorod
believe
belisarius
belize
bell
bella
bellamy
belle
bellied
bellingshausen
bellini
bellmare
bello
bells
belly
belong
below
belta
belte
beltet
bemanna
ben
bend
bender
bendik
bendiksen
bendjoya
benedict
benedicte
benedikt
benefit
benevento
benfica
bengal
bengali
bengt
benin
benito
benjamin
benmont
bennett
benny
bensin
bensinmotorar
bensinstasjon
benson
bent
bente
bentley
benton
benz
beograd
beordra
beowulf
beqaa
ber
bera
berande
berarar
berat
bere
berekna
berekraftig
beretning
berg
berga
bergamo
bergan
bergart
bergartane
bergartar
bergarten
bergarter
berge
bergen
bergenhus
bergens
bergensbanen
bergenske
berger
berget
berggrunnen
bergh
bergljot
bergman
bergset
bergsland
bergslien
bering
beringhavet
berit
berkeley
berkshire
berleva
berlin
berliner
berlinmuren
bermuda
bern
bernadotte
bernard
bernardo
bernd
berner
bernhard
bernhoft
bernie
bernina
bernini
bernoulli
bernstein
bernt
berntsen
berr
berre
berrføtt
berry
bert
bertha
bertil
bertolt
bertrand
berwick
berykta
berømt
berømte
bes
besetning
besetninga
beskidane
beskjed
beskrive
beskrivelse
beskytta
best
besta
bestand
bestandar
bestanden
beste
bestefar
bestefaren
bestemann
bestemd
bestemde
bestemme
bestemmer
bestemor
bestemora
bestemt
bestemte
besteplasseringar
bestetid
bestilt
bestilte
bestod
bestseljande
bestseljar
besøk
besøkande
besøkt
besøkte
bet
beta
betala
betale
betaling
betalt
betalte
betennelse
beth
bethlehem
betlehem
betong
betongen
betra
betre
betring
bette
better
betts
betty
between
bety
betydde
betydeleg
betydelege
betydning
betydninger
betyr
beundra
bevan
bevare
bevaring
bevart
bevarte
beverley
beverly
bevis
bevisst
bevist
bey
beyer
beyond
bezirk
bg
bgle
bhutan
bi
bianca
biathlon
bibel
bibelen
bibelsk
bibelske
bible
biblical
bibliografi
bibliotek
biblioteka
bibliotekar
biblioteket
bibsys
bidra
bidrag
bidraga
bidraget
bidragsytar
bidreg
bidrege
bidrog
bie
biel
bier
biff
big
bigger
bihar
bikubar
bil
bilancio
bilane
bilar
bilbao
bild
bilde
bilder
bildet
bilen
bileta
biletbok
bilete
biletet
biletgalleri
bilethoggar
bilethoggarar
bilethoggaren
biletkunst
biletkunstnar
biletkunstnarar
bilferje
bill
billboard
billed
billeg
billegare
biller
billettar
billie
billig
billigare
billige
billion
billy
bilo
bilulukke
bin
bind
binda
bindal
bindande
binde
bindevev
binding
bindingar
bing
bingen
bint
binyamin
binære
bio
biografen
biografi
biografiar
biografien
biografisk
biografiske
biography
biolog
biologar
biologi
biologisk
biologiske
biology
biosfærereservat
bir
birch
bird
birdlife
birds
bireh
birger
birgit
birgitta
birgitte
biri
birka
birkeland
birkenes
birmingham
birolle
birth
birthday
bis
biscayabukta
bischofshofen
biscoe
biscuit
bishop
biskop
biskopane
biskopar
biskopen
bislett
bismarck
bispedøme
bispedømet
bispedømme
bispesete
bispesetet
bissau
bistand
bit
bitar
bitch
bite
biten
bites
bitre
bits
bitter
bizarre
bja
bjarne
bjarte
bjelke
bjelland
bjerke
bjerknes
bjerkreim
bjo
bjorli
bjugn
bjøller
bjørg
bjørgen
bjørgum
bjørgvin
bjørk
bjørke
bjørn
bjørnafjorden
bjørnar
bjørndal
bjørndalen
bjørneboe
bjørnen
bjørnson
bjørnstad
bjørnstjerne
bjørnøya
bjørvika
bk
bl
bla
black
blackburn
blackmore
blackpool
blackstar
blackwell
blad
blada
blade
bladet
blagoevgrad
blaine
blair
blake
blakstad
blanc
blanche
blanchett
blanco
bland
blanda
blandakor
blandar
blande
blanding
blandinga
blank
blanke
blant
blautdyr
ble
blehr
blei
bleik
bleikare
blekinge
blekk
blekksprut
blenheim
bles
bless
blev
bley
bli
blikk
blind
blinde
blindheim
blindveg
blink
blir
bliss
blitt
blix
bloch
block
blod
bloda
blodet
blodig
blodige
blodlekamar
blodtrykk
blog
blogg
bloggen
blokaden
blokk
blokka
blokker
blokkert
blokkerte
blokkfløyte
blom
blomane
blomar
blome
blomen
blomster
blomstra
blomstrande
blomstrane
blomstrar
blonde
blondie
blood
bloody
bloom
bloomfield
bloomsbury
blow
blows
blu
blue
bluebird
bluegrass
blues
bluesbreakers
bluesgitaristar
bluesmusikarar
bluesrock
bluessongar
bluessongarar
bluff
bly
blyth
blømande
blømde
blømer
bm
bmatrix
bmg
bmw
bna
bnei
bnp
bnr
bo
board
boat
boatwr
bob
bobby
bod
boda
boddaert
bode
boden
bodensjøen
bodil
bodin
bodskap
bodskapen
body
bodø
boeing
bog
boga
bogar
bogdanov
boge
bogen
boggi
bogle
bogota
bohemian
bohr
bohusla
boikotta
bois
bok
boka
boken
bokform
bokhandel
bokhylla
bokklubben
boklag
bokma
bokn
boknafjorden
boks
boksar
boksen
boksing
bokstav
bokstavane
bokstavar
bokstaveleg
bokstaven
bokstavleg
bokverk
bol
bolan
bolder
boldsymbol
bolero
bolet
boleyn
boli
bolin
bolivia
bolken
bolle
bologna
bolsjaja
bolsjevikane
bolsjoj
bolstad
bolt
bolton
bolzano
bom
bomb
bomba
bombardert
bombay
bombe
bombea
bombefly
bomber
bombing
bombinga
bommen
bomstasjon
bomull
bon
bonaparte
bond
bonde
bondelag
bonden
bondepartiet
bondeungdomslaget
bondevik
bone
bones
bongo
bonham
bonn
bonnie
bonniers
bono
bonus
bonusplate
bonusspor
boo
boogie
book
booker
booklet
books
boom
boone
booth
bootleg
boots
bop
bor
bora
borch
borchgrevink
bord
borda
bordeaux
border
borders
bordet
bore
boreale
borealis
boren
borg
borga
borgar
borgarane
borgarar
borgarda
borgarkrig
borgarkrigen
borgarkrigstida
borgarleg
borgarlege
borgarmeister
borgarmeisteren
borgarrettar
borgarskap
borgarskapet
borge
borgen
borger
borgesyssel
borgund
boris
bork
borken
borla
born
borna
borneo
bornholm
borough
borre
bort
bortanfor
borte
borten
bortetter
bortimot
bortsett
borussia
bosch
bose
bosnia
bosnisk
bosniske
boss
bossa
boston
bot
botanikar
botanikarar
botanikaren
botanikk
botanisk
botaniske
both
botn
botnen
botswana
bottom
botvinnik
boulder
boulevard
bound
bourbon
bourcier
bourgeois
bourgogne
bouvetøya
bow
bowen
bowers
bowie
bowl
bowles
bowling
bowman
box
boy
boyd
boye
boyer
boyle
boys
boz
bozzio
bp
br
bra
brabant
brad
bradford
bradley
brady
brage
brageprisen
bragernes
bragg
brahe
brahms
brain
brakkvatn
bramlett
branch
brand
brandenburg
brandon
brandt
brann
brannar
brannen
brant
bras
brasil
brasiliansk
brasilianske
brass
brast
bratislava
bratland
bratsberg
bratsj
bratsjar
bratt
brattare
bratte
bratteli
braun
braunschweig
braut
brave
bravo
bray
brazil
bre
bread
break
breakdown
breakfast
breaking
breane
brear
breasted
breath
breathe
brecht
brecker
breda
brede
bredesen
breen
breeze
brei
breiare
breiaste
breidd
breidda
breidde
breiddegrad
breiddegraden
breiddegrader
breiddene
breidder
breie
breier
breim
breitt
breivik
brekke
brel
bremanger
bremen
bremnes
brend
brenda
brendalsmo
brendan
brende
brenn
brenna
brennan
brennande
brenne
brenner
brennevin
brenning
brensel
brent
brescia
breslau
brest
bretagne
breton
bretonsk
brett
bretta
brettet
bretunge
brev
breva
brevet
brevik
brewer
brian
brick
bride
bridge
bridges
brief
brien
brigade
brigaden
briggen
briggs
bright
brighton
brigitte
brikke
brikkene
brikker
brill
briller
brilliant
brinchmann
bring
bringa
bringe
bringsværd
brisbane
briskeby
bristol
brit
brita
britain
britane
britannia
britannica
britar
briten
british
britisk
britiske
britt
britten
brjansk
brno
bro
broad
broadcast
broadcasting
broadway
broch
brock
brockstedt
broderi
broglie
broken
bromley
bromwich
bronsar
bronse
bronsealder
bronsealderen
bronsefinale
bronsefinalen
bronsemedaljar
bronsemedalje
bronsemedaljen
bronsemedaljevinnarar
bronsen
bronseplass
bronseplassen
bronsevinnaren
bronze
brook
brooke
brooker
brooklyn
brooks
bror
broren
brorskap
brorson
bros
brot
brote
broten
brotet
brother
brotherhood
brothers
brotne
brotsverk
browed
brown
browne
browning
broye
brt
bru
brua
bruce
brudgommen
bruene
bruer
bruford
brug
brugge
bruk
bruka
brukar
brukarane
brukarar
brukaren
brukarprogram
brukast
bruke
bruken
bruker
bruket
bruksomra
brukt
brukte
brummels
brun
brundtland
brune
brunei
brunleg
brunn
brunne
brunnen
bruno
brunswick
brunt
brura
brus
brusamband
bruse
brussel
brustad
brutal
brutale
bruun
bruvik
bryan
bryant
brygga
brygge
bryggen
bryggeri
bryggeriet
bryllaup
bryllaupet
bryllup
bryn
bryne
brynjulf
bryson
bryst
brystet
bryt
bryta
bryte
bryting
bræk
brød
brødet
brødrene
brødtekst
brøgger
brønnøy
brønnøysund
brør
brørne
bs
bt
btr
bu
bua
buande
bubble
buchanan
buck
buckingham
buckinghamshire
buckley
bucures
bud
budapest
budd
budde
buddha
buddhisme
buddhismen
buddhistar
buddhistisk
buddhistiske
buddy
budgie
budsjett
budsjettkomiteen
buen
buendi
buenos
buer
bufaste
buffalo
buffett
buffy
bug
bugge
building
built
buk
buken
bukken
bukser
bukspyttkjertelen
bukt
bukta
bukter
bul
bulbul
bulgaria
bulgarsk
bulgarske
bull
bullet
bulletin
bullock
bunad
bunch
bund
bunde
bunden
bundesliga
bundne
bunker
bur
burchill
burde
burden
burdon
bureau
burg
burgas
burgenland
burgess
burgh
burgund
burjatia
burke
burkina
burma
burmesisk
burn
burnett
burnette
burning
burns
burrell
burrito
bursa
burt
burton
burundi
burzum
bus
busby
busetje
busetjing
busetjinga
busetjingane
busetjingar
busetnad
busetnadane
busetnadar
busetnaden
busetnadene
busetnader
busett
busette
bush
business
busk
buskar
buskerud
buskeruds
buss
bussar
bussen
bustad
bustadblokker
bustaden
bustader
bustadhus
bustadomra
buster
but
butch
bute
buteo
butikk
butikkane
butikkar
butikken
butler
butt
butte
butterfield
butterfly
buxwv
buy
buzz
bwv
by
bya
byane
byar
bybanen
byblos
bybrann
bybrannen
bydel
bydelane
bydelar
bydelen
bydistrikt
bye
byen
byens
byer
byers
byfjorden
byfut
byfylke
bygd
bygda
bygde
bygdebok
bygdemuseum
bygdene
bygder
bygdetun
bygdøy
bygg
bygga
byggast
bygge
bygger
bygget
bygging
bygginga
byggja
byggjast
byggje
byggjer
byggmeister
byggverk
byggverka
byggverket
bygland
bygning
bygninga
bygningane
bygningar
bygningen
bygningsdetaljar
bygrensene
bygt
bykjernen
bykle
bykommunane
bykommunar
bykommune
bykommunen
byleksikon
bymurane
bymurar
bymuren
bynamnet
byomra
byplanlegging
byprefektur
byprefekturet
byr
byra
byrd
byrds
byrettar
byrja
byrjar
byrje
byrjing
byrjinga
byrne
byron
bys
bysantinarane
bysantinsk
bysantinske
bysants
bysenteret
bysentrum
bystatane
bystatus
byste
bystyre
bystyret
byta
byte
byter
bytt
bytta
bytte
byttedyr
byttet
byva
bær
bæra
bærum
bærums
bø
bøe
bøk
bøkene
bøker
bøler
bølgja
bølgjande
bølgje
bølgjelengd
bølgjelengda
bølgjelengder
bølgjene
bølgjer
bømlo
bøn
bøna
bøndene
bønder
bøner
bønner
bør
børge
børre
børresen
børs
børsen
børud
bøter
bøye
bøyer
bøygd
bøygde
bøying
bøyinga
c
ca
cabanis
cabo
cactus
cadet
cadillac
caen
caesar
caesarea
cafe
cage
cagliari
cain
caithness
cajun
cake
cal
calabria
calais
calcutta
caldwell
cale
caledonia
calgary
calidris
california
call
called
callier
calling
calvados
calvin
calypso
cam
cambridge
cambridgeshire
camden
came
camel
camera
cameron
camilla
camille
camp
campaign
campania
campbell
camping
campo
campus
can
canada
canadian
canadiske
canal
canaria
cancer
cand
candle
candy
canis
cann
canned
cannes
cannon
cannonball
canon
canongate
cantabria
cantatas
canterbury
canto
canyon
cap
capablanca
capaldi
cape
capella
capital
capitol
caplex
capo
capped
cappelen
cappelens
cappella
capri
capricorn
caprimulgus
captain
car
caravaggio
caravan
carcassonne
card
cardiff
cardinal
cards
care
career
careful
carey
caribbean
carica
carl
carla
carlisle
carlo
carlos
carlsen
carlsson
carlton
carly
carmen
carmine
carnegie
carnival
carol
carola
carole
carolina
caroline
carols
carolyn
carpenter
carpenters
carr
carrack
carrie
carroll
carry
cars
carson
carsten
carta
cartagena
carter
carthy
cartoon
casa
casablanca
case
cases
casey
cash
cashbox
casino
caspar
cass
cassidy
cassin
cassini
cast
castello
castilla
castle
castor
castro
cat
catalog
catalogue
catalonia
catalunya
catch
category
cathe
cathedral
catherine
catholic
cathrine
cato
cats
cauca
cauchy
caught
cause
cave
cb
cbc
cbs
cc
cd
cdot
cdots
cdu
ce
cecil
cecilia
cecilie
celebration
celine
cell
cella
celle
cellene
celler
cellino
cello
cellulose
celsius
celtic
cembalo
cemetery
census
cent
centauri
center
centimeter
central
centralort
centre
centuries
century
ceres
cerezo
cern
cerro
certain
cesar
cetera
cf
ch
cha
chad
chain
chaka
challenge
challenger
chalmers
chamber
chamberlain
chambers
chamonix
champagne
champion
champions
championship
championships
champlin
chan
chance
chandler
chang
change
changed
changes
changing
channel
chanson
chaos
chapel
chapelle
chapin
chaplin
chapman
chapter
charcot
charente
charge
charisma
charles
charlie
charlois
charlotte
charlton
chart
charter
charts
chas
chase
chat
chateau
chatham
chaucer
che
cheap
checker
checklist
chef
chelsea
chemical
chemistry
chen
chengdu
chennai
cher
cherry
cheshire
chesney
chess
chessgames
chester
chestnut
chet
chi
chiang
chiba
chibchanske
chic
chicago
chick
chicken
chico
chief
chieftains
child
children
childs
chile
chilena
chilensk
chilenske
chili
china
chinese
chinn
chip
chipmunks
chips
cho
chocolate
choice
choir
chomsky
chopin
chorus
chr
chris
christ
christchurch
christe
christen
christensen
christer
christgau
christi
christian
christiane
christiania
christians
christiansen
christie
christina
christine
christmas
christoffer
christoph
christophe
christopher
christy
chrome
chronicle
chronicles
chronology
chrysalis
chu
chubby
chuck
church
churchill
ci
cia
cicero
cie
cilla
cima
cincinnati
cindy
cinema
circ
circle
circuit
circumstances
circus
cirka
cirque
cirrus
cisterner
cisticola
cit
citadellet
cite
cities
citizen
citroe
city
ciudad
civil
civilization
ck
cke
cken
cker
cl
claire
clancy
clapton
clara
clare
clarence
clarendon
clark
clarke
clash
class
classic
classical
classics
classification
claude
claudia
claudio
claudius
claus
clavinet
clay
clayton
cle
clean
clear
clearwater
clemens
clement
clements
clementslista
cleopatra
cleveland
cliff
clifford
cliffs
climate
cline
clint
clinton
clio
clive
clock
clooney
close
closer
cloud
clouds
club
clyde
clydie
cm
cnn
co
coal
coast
coastal
coasters
coat
coats
cobham
cobra
coburg
coca
cochran
cocker
code
codex
cody
coe
coffee
cohen
cohn
col
cola
colbert
cold
cole
coleman
colin
coliseum
collared
colle
collected
collection
collector
college
collett
collins
colo
colombia
colombiansk
colombianske
colonel
colonial
color
colorado
colored
colors
colosseum
colour
colours
colt
coltrane
columba
columbia
columbus
com
come
comeback
comedy
comes
comet
comets
comfortably
comin
coming
command
commander
commercial
commission
committee
commodore
common
commons
commonwealth
communication
communications
community
como
companion
company
comparative
compass
compilation
complete
complex
composite
composition
computer
comte
comuna
con
conan
concert
concerto
concertos
concerts
concise
concord
concordia
concrete
conde
conder
condita
condor
cone
conference
confessions
conflict
confused
confusion
conga
congatrommer
congo
congress
connecticut
connection
connie
conniff
connolly
connor
conny
conquest
conrad
consadole
conservation
console
constant
constantine
constellation
constitution
construction
contact
conte
contemporary
content
contest
conti
continental
continuo
continuum
control
controls
convair
convention
conversation
convoy
conway
cooder
cook
cooke
cool
coolidge
coolpix
coop
cooper
copa
copeland
copenhagen
copleymedaljen
copper
cor
coral
cordillera
core
corea
corelli
corgan
corioliseffekten
corioliskrafta
cork
corn
cornelis
cornelius
cornell
corner
cornish
cornwall
coromandel
corona
coronae
coronation
corporation
corps
corpus
corrs
corte
cortina
corun
corvus
cos
cosimo
cosmic
cosmos
costa
costello
cotton
could
council
count
countries
country
countryartistar
countryartisten
countrylista
countrymusikarar
countryrock
countrysong
countrysongar
countrysongarar
county
courage
course
court
courtney
cov
cove
coventry
cover
coverdale
coverla
covers
coverversjon
coverversjonar
covid
cow
cowan
cowboy
cowboys
cox
cp
cr
craddock
cradle
craft
crag
craig
cramer
crane
cranner
crash
crater
crawford
crawl
crazy
cre
cream
creation
creative
creatures
credits
credo
cree
creedence
creek
creeps
cremona
crescent
crest
crested
crew
cricket
crickets
crime
crimson
crisis
criss
cristo
critical
critics
croix
cromwell
cropped
cropper
crosby
cross
crossing
crossroads
crow
crowe
crowell
crown
crowned
crows
cruel
cruijff
cruise
cruiseskip
crusade
cruz
cry
crying
crystal
crystals
cs
csa
cska
csny
css
ct
cti
cu
cuba
cubanske
cuckoo
cuenca
cult
cultural
culture
cum
cumberland
cumbria
cummings
cumulonimbus
cumulus
cunha
cunningham
cup
cupen
cupfinalar
cupfinalen
cupmeister
cupmeisterskap
cupmeisterskapen
cupvinnarcupen
curb
cure
curie
current
currie
curruca
curt
curtis
curved
cut
cuts
cuzco
cv
cycle
cyndi
cynthia
cyprus
cyril
cyrus
cz
czukay
cæsar
d
da
daa
daae
dab
dactylorhiza
daddy
daegu
daevid
dag
dagane
dagar
dagars
dagblad
dagbladet
dagbok
dagboka
dagen
dagens
dager
dagestan
dagfinn
daggry
dagleg
daglege
dagleglivet
daglegtale
dagmar
dagny
dags
dagsavis
dagsavisa
dagsavisen
dagslys
dagtid
dahl
dahle
dahls
dai
daily
daisy
dakar
dakota
dal
dalane
dalar
dalarna
dalarnas
dalbotn
dalbotnar
dalbotnen
dale
dalen
dalføra
dalføre
dalføret
dallas
dalmatia
dalton
daltrey
dam
damage
damaskus
dame
damer
damm
dammam
dammar
dammen
damn
damned
damp
dampba
damplokomotiv
dampmaskin
dampskibsselskab
dampskip
dampskipet
dampskipsselskap
damsga
dan
dana
dance
dancer
dances
dancin
dancing
danco
dande
dane
danger
dangerous
daniel
daniels
danielsen
danko
danmark
danmarks
danna
dannar
dannast
danne
dannebrogordenen
danning
danninga
danny
dans
dansa
dansar
dansarane
dansarar
danse
dansemusikk
dansen
dansk
danskane
danskar
danske
danskekongen
dante
danzig
daphne
dar
daraa
dare
darin
darius
dark
darkness
darling
darmstadt
darryl
darwin
daryl
das
dass
dat
data
database
databasen
datamaskin
datamaskinar
datamaskiner
dataprogram
dataspel
date
datering
datert
daterte
dativ
dato
datoar
datoen
datter
daud
daude
daudehavet
dauden
daughter
dauphin
dauphine
dave
davey
david
davids
davidson
davies
davik
davis
davos
davy
dawn
dawson
day
daydream
days
dazed
db
dc
dd
dde
ddr
de
deacon
dead
deal
dean
dear
death
debatt
debatten
debbie
deborah
debussy
debut
debutalbum
debutalbumet
debutantar
debutantpris
debuten
debuterte
debutplata
debutsingelen
debutsinglar
dec
decade
decca
december
deceptionøya
deco
dedikert
dedisert
dediserte
dee
deep
deepfreeze
def
defence
defense
definerast
definere
definerer
definert
definerte
definisjon
definisjonar
definisjonen
definitive
definitivt
deg
dei
deig
deigen
dein
deine
deir
deira
dekar
dekk
dekka
dekke
dekker
dekket
dekkja
dekkje
dekkjer
dekko
dekning
dekor
dekorasjon
dekorasjonar
dekorativ
dekorative
dekorert
dekorerte
dekret
dekt
dekte
del
dela
delaktig
delane
delaney
delar
delast
delaware
dele
delegasjon
delegasjonen
delen
deler
delfi
delfinale
delfinalen
delfinar
delhi
deling
delinga
dell
della
delle
delomra
dels
delstat
delstatane
delstatar
delstaten
delt
delta
deltaet
deltakande
deltakar
deltakarane
deltakarar
deltakarlanda
deltake
deltaking
deltakinga
deltar
deltatt
delte
deltek
delteke
deltok
deluxe
delvis
dem
demd
demning
demninga
demningar
demo
demoane
demoar
democracy
democratic
demoen
demografi
demografico
demokrati
demokratiet
demokratisk
demokratiske
demon
demonar
demons
demonstrantane
demonstrantar
demonstrasjon
demonstrasjonane
demonstrasjonar
demonstrerte
demos
dempa
den
dene
deneb
denis
denise
denmark
denn
denne
dennis
denny
dens
densmore
dent
denver
departement
departementa
departementet
department
dependencies
dependency
deportert
deporterte
depot
depotet
depresjon
depresjonen
der
deram
derav
derby
derbyshire
derek
deres
deretter
derfor
derfra
deriblant
derifra
derimot
deriverte
dermanland
dermanlands
dermed
dern
derringer
derry
dersom
derta
des
descartes
description
desember
desert
design
designa
designar
designet
desire
desmond
desolation
desperat
dess
dessau
desse
dessutan
dessuten
destinasjonar
destiny
destruction
det
detail
details
detalj
detaljane
detaljar
detaljert
detaljerte
determinativ
detroit
dets
detta
dette
deutsch
deutsche
deutschen
deutscher
deutsches
deutschland
deux
devanagari
development
devi
devil
deville
devils
devold
devon
dewey
dexter
deyoung
df
dgjevande
dgjevar
dgjevarar
dh
dhabi
dhofar
dhus
dhuset
di
dia
diabetes
diagnose
diagnosen
diagram
diagrammet
dialekt
dialekta
dialektane
dialektar
dialekten
dialog
dialogen
diamant
diamantar
diameter
diameteren
diamond
diamonds
diana
diane
diary
dias
diaspora
dibe
dich
dick
dickens
dickey
dickinson
dickson
dictionary
did
diddley
didier
didn
didrik
die
diego
dies
diesel
dieselmotor
dieselmotorar
diesen
dieter
dietrich
dietrichson
dietten
differensiallikningar
different
difor
difteri
diftongane
diftongar
dig
dige
diger
digital
digitalarkivet
digitale
digitalisert
digitaliserte
digitalt
digitaltmuseum
digte
dike
dikt
dikta
diktar
diktarane
diktarar
diktaren
diktator
diktatoren
diktatur
diktaturet
dikter
diktet
dikting
diktinga
diktsamling
diktsamlinga
diktsamlingar
dillard
diltz
dimashq
dimed
dimension
dimensjon
dimensjonar
din
dina
dinah
dinamo
dinariske
dine
ding
dinger
dino
dinosaurar
dio
diocletian
diokletian
dion
dionne
dios
diplom
diplomat
diplomatar
diplomatarium
diplomati
diplomatisk
diplomatiske
dir
dire
direct
direction
director
directory
direkte
direktekvalifisert
direktoratet
direktør
direktøren
dirigent
dirigentar
dirigenten
dirigert
dirigerte
dirk
dirt
dirty
dis
disc
disco
discography
discogs
discovery
disease
disguise
disiplane
disiplin
disk
diskografi
diskografien
diskos
diskoskast
diskoskastarar
diskoskasting
diskret
diskrete
diskriminering
diskusjon
diskusjonar
diskusjonen
diskutere
diskuterer
diskutert
diskuterte
diskvalifisert
disney
disnorge
disponent
disposisjon
disse
dissertation
distance
distansane
distansar
distanse
distansen
distant
distinkt
distinkte
distribuert
distribusjon
distribution
district
districts
distrikt
distrikta
distriktet
distriktsby
dit
ditlev
ditt
diva
diverre
diverse
diversity
divine
division
divisjon
divisjonar
divisjonen
dixie
dixon
diz
dizzy
dj
django
djevelen
djibouti
djm
djup
djupare
djupaste
djupe
djupedal
djupet
djupn
djupna
djupne
djupner
djupromsobjekt
djupt
djurga
dk
dl
dm
dmann
dmitrij
dn
dna
dnb
dnepr
dnipropetrovsk
dnt
do
dobbel
dobbelt
dobbeltalbum
dobbeltalbumet
dobbeltfirar
dobbeltsculler
dobbeltstjerne
dobbeltstjerner
dobla
doble
doblougprisen
dobro
doc
doch
dock
doctor
document
documentary
documents
dodd
dodekanesane
does
dog
dogg
dogs
doha
doherty
doi
doing
dokk
dokka
dokken
dokker
doktor
doktorgrad
doktorgraden
doktrinen
dokument
dokumenta
dokumentar
dokumentaren
dokumentarfilm
dokumentarfilmen
dokumentasjon
dokumenterer
dokumentert
dokumenterte
dokumentet
doll
dollar
dolls
dolly
dolphin
dom
domarane
domba
dome
domen
domene
domenet
domenico
domesday
dominans
dominansen
dominerande
dominere
dominerer
dominert
dominerte
domingo
dominic
dominica
dominikanske
dominique
domino
dominos
domkirke
domkyrkja
domkyrkje
dommar
dommarane
dommarar
dommaren
dommen
domprosti
domstol
domstolane
domstolar
domstolen
don
donahue
donald
donau
done
donegal
donegan
donerte
donetsk
dong
donna
donnie
donny
donovan
doo
doobie
doom
door
doors
dop
doping
dopmisbruk
dora
dordrecht
dore
doris
dorothea
dorothy
dorset
dorsey
dortmund
dory
dos
dosent
dot
dotter
dottera
dotterselskap
douard
double
doug
douglas
dove
dover
dovre
dovrebanen
dovrefjell
dowd
down
downes
downing
download
downs
downtown
doyle
dp
dr
dra
draco
dracula
drag
dragon
dragons
drakar
drake
draken
drakk
drakt
drakta
drakter
drale
drama
dramaet
dramaserie
dramatikar
dramatikarar
dramatikk
dramatisk
dramatiske
drammen
drammens
drammensbanen
drangedal
drap
drapa
drapet
drar
drastisk
draum
draumar
draumen
draumkvedet
dream
dreamer
dreaming
dreams
dreg
drege
dregen
dregs
dreiar
dreidde
dreier
dreiv
drenerer
drenering
drenert
drep
drepa
drepe
drepen
drepne
dresden
dress
drew
dreyer
dreyfus
drift
drifta
drifters
drikk
drikka
drikke
drikkekar
drikken
drikkevatn
drink
driv
driva
drivande
drivar
drive
driven
driver
driving
drivkraft
drivkrafta
drivne
drivstoff
drivstoffet
dro
drog
dronning
dronninga
dronningar
drop
dropar
droppa
druer
drugs
drukna
drum
drummer
drummond
drums
drusarar
dry
dryden
drygt
drøbak
drøfta
drøm
drømmen
ds
dsavdelinga
dt
du
duane
dub
dubai
dublin
dubrovnik
duc
duck
dudes
dudgeon
dudley
due
duell
duer
duets
duett
duettar
duetten
dufek
duff
duffy
dugande
dugleik
dugleiken
dugnad
duk
duke
dukka
dukkar
dukke
dulcimer
dum
dumas
dumdum
dumfries
dumont
dun
dunbar
duncan
dundee
dunedin
dunkerque
dunn
duo
duoen
dur
duran
durch
durham
during
durkheim
durre
dus
dusin
dusky
dust
dusty
dutch
dutchman
dvd
dvden
dverg
dvergar
dvina
dvs
dwarf
dwight
dx
dy
dybwad
dyer
dying
dyke
dykk
dykkar
dykkarar
dykking
dyktig
dyktige
dylan
dynamical
dynamics
dynamikk
dynamisk
dynamiske
dynamitt
dynamo
dynasti
dynastia
dynastiet
dynasty
dyr
dyra
dyrare
dyraste
dyre
dyreartar
dyreliv
dyrelivet
dyret
dyrka
dyrkar
dyrkbar
dyrke
dyrking
dyrkinga
dyrt
dyrøy
dz
dæ
død
døde
dødeleg
døden
dødsa
dødsfall
dødsfallet
dødsstraff
dødstalismanene
dødvekttonn
døger
døgn
døgnet
dølen
døma
dømd
dømde
døme
dømes
dømet
dømt
dønna
dør
døra
dørene
dører
dørumsgaard
døtrene
døtrer
døy
døyande
døydd
døydde
døyparen
døypefont
døypefonten
døypt
døypte
døyr
e
ea
each
eagle
eagles
ealing
ear
eared
earl
earle
early
earring
earth
earthling
east
easter
eastern
easton
easy
eat
eaton
eb
ebba
eberhard
ebird
ebro
ebu
ece
echo
echoes
eckhoff
eclipse
ecm
eco
ecology
economic
economics
economy
ecstasy
ecuador
ed
eda
edda
edderkoppar
eddie
eddy
edel
edelsteinar
eden
eder
edessa
edgar
edge
edicions
ediktet
edinburgh
edison
edit
edited
edith
edition
editions
editor
edle
edmond
edmonton
edmund
edn
edna
eds
edu
eduard
eduardo
education
edvard
edward
edwards
edwin
eesti
ef
effect
effekt
effektane
effektar
effekten
effektiv
effektive
effektivt
efta
efter
eg
egearhavet
egebergs
egede
egeiske
egeland
egen
egersund
egg
egga
egge
eggen
egget
eggum
egil
egmont
egna
egne
egner
egnund
ego
egon
egypt
egyptarane
egyptisk
egyptiske
ehf
ehime
ehir
ei
eia
eid
eidanger
eide
eiden
eidet
eidfjord
eidsberg
eidsfjorden
eidskog
eidsva
eidsvoll
eidsvollmenn
eidsvollsmann
eig
eiga
eigar
eigarane
eigarar
eigaren
eigarskap
eigd
eigde
eige
eigedelar
eigedom
eigedomane
eigedomar
eigedomen
eigedommane
eigedommar
eigedommen
eigedomsrett
eigen
eigenleg
eigenskap
eigenskapane
eigenskapar
eigenskapen
eigentleg
eigentlege
eigersund
eight
eigna
eignar
eigne
eik
eika
eiker
eilat
eilean
eilert
eilev
eilif
ein
einannan
einar
einast
einaste
eindhoven
eine
einer
einera
eines
einesta
eingong
einige
eining
eininga
einingane
einingar
einkvan
einmannskrinsen
eins
einsam
einsarta
einsemd
einsfarga
einskapleg
einskild
einskilde
einskildspra
einsleg
einslege
einstein
eintal
eintydig
eira
eirik
eiriksson
eit
eitt
eitta
eivind
eivindvik
ej
ek
ekeberg
ekko
eklund
eks
eksakt
eksakte
eksamen
eksempel
eksemplar
eksil
eksingedalen
eksistens
eksistensen
eksisterande
eksistere
eksisterer
eksistert
eksisterte
ekskludert
eksklusiv
eksklusive
eksotiske
ekspanderte
ekspansjon
ekspansjonen
ekspedisjon
ekspedisjonane
ekspedisjonar
ekspedisjonen
ekspedisjonsskipet
eksperiment
eksperimenta
eksperimentell
eksperimentelle
eksperimentelt
eksperimentere
eksperimentering
eksperimenterte
eksperimentet
ekspert
ekspertar
eksplisitt
eksploderte
eksplosiv
eksplosive
eksplosjon
eksplosjonar
eksplosjonen
eksponert
eksport
eksporten
eksportert
eksterne
ekstra
ekstranummer
ekstraomgangar
ekstrem
ekstreme
ekstremt
ekstremve
ekte
ektefellen
ektemann
ektemannen
ekteparet
ekteskap
ekteskapet
ekvator
ekvatorial
ekvivalent
el
ela
elaine
elastisk
elbasan
elbe
eld
eldar
elden
elder
eldgamle
eldlandet
eldre
eldste
eleanor
electric
electronic
electronica
elefant
elefantar
elefantordenen
elefantøya
eleg
elegant
elegante
elege
elektra
elektrifisert
elektrikar
elektrisitet
elektrisk
elektriske
elektro
elektromagnetisk
elektromagnetiske
elektromagnetisme
elektron
elektrona
elektronet
elektronika
elektronikk
elektronisk
elektroniske
element
elementa
elementet
elementær
elena
eleonora
elephant
elev
elevane
elevar
eleven
elfenbein
elfenbeinskysten
elg
eli
elia
elias
eliassen
elin
eliot
elisa
elisabet
elisabeth
elise
elite
eliten
eliteserien
eliza
elizabeth
ell
ella
elle
ellen
eller
ellers
elles
ellesmere
elleve
ellevte
ellevteplass
ellie
elling
ellingsen
ellington
elliot
elliott
elliptisk
elliptiske
ellis
ellsworth
elo
elsa
else
elska
elskar
elsker
elster
elton
elv
elva
elvane
elvar
elvdal
elvebreidda
elvedalen
elveløpet
elvemunningen
elvene
elver
elverum
elvin
elvira
elvis
em
emanuel
emberiza
embete
embetet
embets
embetseksamen
embetsmann
embetsmenn
emblem
emerald
emeritus
emerson
emi
emigrantar
emigrerte
emil
emile
emilia
emilie
emilio
emily
emir
emirat
emirata
emirates
emiratet
emiren
emma
emmanuel
emmental
emmy
emmylou
emna
emne
emnet
emperor
empire
empires
empirisk
empty
ems
en
enare
enaresamisk
encyclopaedia
encyclopedia
encyclopædia
end
enda
endane
endar
ende
endeavour
endeleg
endelege
endemisk
endemiske
enden
endepunkt
ender
enderby
endestasjon
endestasjonen
ending
endinga
endingar
endless
endra
endrar
endrast
endre
endresen
endring
endringa
endringane
endringar
endringer
ends
endurance
ene
enebakk
enemy
energi
energidepartementet
energien
energiniva
energisk
energy
eng
engadin
engasjement
engasjementet
engasjert
engasjerte
engel
engelberg
engelbert
engelen
engels
engelsk
engelske
engelskmenn
engelskmennene
engelskspra
engelsktalande
engelstad
engen
enger
engerdal
engine
engineering
england
englands
englar
english
enigma
enja
enka
enke
enkel
enkelt
enkelte
enkeltrenn
enkja
enkje
enklare
enklaste
enkle
enn
enna
enno
eno
enorm
enorme
enormt
enough
enrico
enrique
ensemble
ensemblet
enten
enter
enterprise
entertainment
entreprenør
entry
entusiastisk
entwistle
environment
environmental
enzym
eo
eocen
eos
ep
epen
epic
epidemiar
episk
episke
episodane
episodar
episode
episoden
eple
epoke
epoken
epos
eposet
epsilon
epstein
er
era
erasmus
erdal
erebus
erfaring
erfaringane
erfaringar
erfarne
eric
erich
erichsen
ericsson
erik
erika
eriksen
eriksson
erindringer
eritrea
erkebiskop
erkebiskopen
erkehertug
erklære
erklæringa
erklært
erklærte
erlend
erlewine
erling
erlingsson
erna
erne
ernest
ernie
ernst
erobra
erobraren
erobre
erobring
erobringa
erobringane
erobringar
erodert
eros
erosjon
erotiske
erskine
erslev
erstatning
erstatta
erstattar
erstatte
ertva
ervik
erwin
es
esa
esbjerg
esc
escape
escarpment
esel
eskeland
eskilstuna
eskimo
espan
espeland
espen
esperanto
ess
essay
essays
essen
essensielle
essential
essex
est
estate
este
estetikk
estetisk
estetiske
esther
estimat
estimert
estimerte
estisk
estiske
estland
estonia
estrada
estridsson
estuar
estuaret
et
eta
etablera
etablere
etablerer
etablering
etableringa
etablert
etablerte
etande
etanol
etappane
etappar
etappe
etappen
etasjar
etasje
etast
etaten
etc
ete
eten
eternal
eternity
ethelred
ethnic
ethnologue
etiketten
etikk
etiopia
etiopisk
etiopiske
etisk
etiske
etna
etne
etnedal
etnisitet
etnisk
etniske
eto
etoloakarnani
ett
etta
etter
etterfylgd
etterfylgde
etterfylgjande
etterfølgd
etterfølgde
etterfølgjande
etterfølgjar
etterfølgjarane
etterfølgjaren
etterfølgt
etterkant
etterkomar
etterkomarane
etterkomarar
etterkommarar
etterkrigstida
etterkvart
etterlate
etterle
etterlet
etterlikna
etterliknar
etterlikne
ettermiddagen
ettermæle
etternamn
etternamnet
etterord
etterpa
etterretning
ettersom
etterspurnad
etterspurnaden
ettertid
ettertida
ettertrakta
etterverknad
etymologi
etymologisk
etzion
eu
euch
eufrat
euge
eugen
eugene
euklidsk
euler
eurasia
eure
euro
europa
europacupen
europameister
europameisterskap
europameisterskapen
europameistrar
europaparlamentet
europara
europas
europaveg
europe
european
europearane
europearar
europearen
europeisk
europeiske
eurosong
eurovision
eurythmics
eusebius
euwe
ev
eva
evakuert
evakuerte
evan
evang
evangelia
evangeliet
evangelisk
evangeliske
evangelist
evangelisten
evanger
evans
eve
evelyn
even
evenes
evening
evensen
event
events
eventuell
eventuelle
eventuelt
eventyr
eventyra
eventyret
eventyrspel
ever
everest
everett
everly
everton
every
everybody
everyday
everyone
everything
everywhere
evic
evidence
evig
evige
evil
evje
evna
evne
evnene
evner
evolusjon
evolution
evt
ex
examen
excavations
exchange
executive
exeter
exhibition
exile
exit
expedition
expeditions
experience
experiment
exploration
explorer
exploring
expo
express
extended
extra
extreme
eye
eyed
eyes
eyre
eystein
eyvind
ez
ezra
ezrin
eøs
f
fa
faber
fabian
fablar
fabrikk
fabrikkane
fabrikkar
fabrikken
fabrikker
fabulous
face
facebook
faced
faces
fact
factbook
facto
factor
factory
facts
factsheet
fade
fader
faderen
fag
faga
fagen
fagernes
faget
fagfelt
fagfeltet
fagfolk
fagiano
fagleg
faglege
faglitteratur
fagomra
fagott
fagrørsla
fair
fairbanks
fairport
fairweather
fairy
fairytale
faith
faithfull
fakta
faktisk
faktiske
faktor
faktorane
faktorar
faktoren
faktum
fakultet
fakultetet
falch
falck
falco
falcon
falk
falkland
falklandskrigen
falklandsøyane
falkner
fall
falla
fallande
falle
fallen
fallet
fallie
falling
falls
falne
false
falsen
falsk
falske
falun
fame
familiane
familiar
familie
familien
families
familjebok
family
famous
fan
fana
fancy
fane
fanga
fangane
fangar
fange
fangeleir
fangeleiren
fangen
fangenskap
fangst
fangsten
fann
fanny
fans
fansen
fanst
fant
fantasi
fantasia
fantastic
fantastisk
fantastiske
fantasy
fao
far
fara
faraday
farao
farar
farbar
fare
faren
farewell
farfar
farfaren
farga
fargane
fargar
farge
fargen
farger
fargerik
fargerike
fargestoff
farinella
farleg
farlege
farlowe
farm
farmen
farmer
farner
farnese
farrar
farrell
fars
farsgarden
farsi
farsund
fart
farten
fartøy
fartøya
fartøyet
farvatn
farvatna
farvatnet
farvel
fasa
fasaden
fasar
fascination
fascinert
fascismen
fascistiske
fase
fasen
fashion
fasilitetar
faso
fast
fasta
fastbuande
faste
fastlandet
fastlands
fastsett
fastsette
fastsla
fat
fatah
fate
father
fatimidane
fats
fatt
fatta
fattig
fattigaste
fattigdom
fattige
fault
fauna
fauske
faust
favorite
favoritt
favorittane
favorittar
favoritten
faye
fbi
fc
fe
fear
fearnley
fearnleys
feast
feat
feather
feature
features
featuring
feb
feber
februar
february
fecture
federal
federation
federico
fedje
feedback
feel
feelin
feeling
feelings
feels
feet
feil
feila
feilaktig
feilen
feira
feirar
feire
feiring
feiringa
feiringar
feit
feitt
fekk
fela
felder
feldman
fele
feleverkene
feliciano
felipe
felix
fell
feller
felles
fellesbusetnad
fellesbusetnader
fellesnemning
fellesra
fellesskap
fellesskapet
fellesstart
fellestrekk
fellow
fellowship
felt
felta
feltet
feltmarskalk
feltspat
felttog
felttoga
felttoget
fem
fema
female
feminist
femkamp
femme
femmila
femna
femnar
femner
femtande
femte
femten
femteplass
femteplassen
femti
fender
fengande
fengsel
fengselet
fengsla
fennoskandia
fenomen
fenomenet
fenrik
fer
ferd
ferda
ferdast
ferdig
ferdige
ferdigstilt
ferdinand
ferdsel
ferguson
ferie
feriestad
ferja
ferje
ferjekai
ferjer
ferjesamband
ferjesambandet
ferjestrekninga
fermi
ferna
fernand
fernando
ferrara
ferrari
ferry
fersk
ferske
ferskvatn
fest
festa
festar
festdag
feste
festen
festival
festivalar
festivalen
festivali
festning
festninga
festningane
festningar
festningen
festningsverk
festningsverka
festskrift
festspela
fet
fetteren
feuerbach
fever
few
feyenoord
feynman
ff
ffk
fi
fiasko
fiat
fiber
fibrar
ficedula
fiction
fide
fidel
fidelity
fidjestøl
fids
field
fields
fiemme
fiendane
fiendar
fiende
fienden
fiendtleg
fiendtlege
fier
fifa
fife
fifth
fifty
fig
fight
fighters
fighting
figur
figurane
figurar
figure
figuren
fiji
fiken
fikk
fiktiv
fiktive
fil
filchner
file
filer
files
filharmoniske
filip
filippinane
filippinsk
filippinske
filippo
fille
fillmore
film
filma
filmane
filmar
filmatiseringa
filmatisert
filmen
filmfestival
filmfestivalen
filminga
filmmanus
filmmusikk
filmmusikkalbum
filmmusikkalbumet
filmmusikken
filmmusikkomponistar
filmografi
filmregissør
films
filmskapar
filmskodespelar
filmversjonen
filolog
filologi
filosof
filosofar
filosofen
filosofi
filosofien
filosofisk
filosofiske
filter
filthy
fin
final
finalane
finalar
finale
finalekampen
finalen
finalesiger
finalist
finalistane
finans
finansdepartementet
finansielle
finansiere
finansiering
finansiert
finansierte
finanskomite
finanskomiteen
finansminister
finansministrar
finare
finaste
finch
find
fine
finger
fingers
fingrane
fingrar
finland
finlands
finmarkens
finn
finna
finnane
finnar
finnast
finne
finnes
finnmark
finnsnes
finnur
finnøy
finsk
finske
finskebukta
finskspra
finst
fint
fiolett
fiolin
fiolinar
fiolinist
fiolinistar
fiolinisten
fiolinkonsert
fiolinsonate
fionn
fiordland
fiorentina
firar
firda
fire
firea
firedelt
firenze
firkamp
firkanta
firma
firmaet
first
firth
fis
fischer
fish
fishbase
fisher
fisjon
fisk
fiska
fiskane
fiskar
fiskarane
fiskarar
fiske
fiskeartar
fiskeba
fisken
fiskeri
fiskeria
fisket
fiskevær
fiskeværet
fitch
fitjar
fitzgerald
five
fja
fjaler
fjeld
fjell
fjella
fjellet
fjellførarane
fjellheim
fjellkjeda
fjellkjede
fjellkjedene
fjellkjeder
fjellklatrar
fjellklatrarar
fjellklatring
fjellmassiv
fjellmassivet
fjellomra
fjellovergangar
fjellrygg
fjellryggen
fjells
fjellsida
fjellsidene
fjellsider
fjellskrent
fjelltopp
fjelltoppane
fjelltoppar
fjelltoppen
fjerde
fjerdedel
fjerdemann
fjerdeplass
fjerdeplassen
fjern
fjerna
fjernar
fjernast
fjerne
fjerning
fjernsjakk
fjernsyn
fjernsynet
fjernsynskanalar
fjernsynskanalen
fjernsynsprogram
fjernsynsprogrammet
fjernsynsseriar
fjernsynsserie
fjernsynsserien
fjerntliggande
fjodor
fjord
fjordane
fjordar
fjordarm
fjordarmen
fjorden
fjortande
fjorten
fjærland
fjør
fjøra
fjørdrakt
fjørdrakta
fjøre
fjørene
fjører
fjørtoft
fk
fl
fla
flack
flag
flagg
flaggberar
flaggdagar
flaggermus
flagget
flaggskipet
flags
flakstad
flame
flames
flaming
flamme
flamsk
flamske
flandern
flankane
flanken
flash
flaske
flasker
flat
flata
flatanger
flate
flatema
flater
flatevidd
flatevidda
flatland
flatt
flaug
flaum
flaumar
flaumen
flaut
flavius
fleet
fleetwood
fleira
fleirartsflokkar
fleire
fleirspra
fleirtal
fleirtalet
fleirtyding
fleischer
flekk
flekkar
flekkefjord
flekker
fleming
flensburg
flere
flesberg
flesh
flesland
flest
fleste
fletcher
fletta
flickr
flies
flight
flink
flinke
flint
flittig
flo
flokk
flokkar
flokken
flood
floor
flora
floraen
florence
flores
florian
florida
florø
flott
flotte
flow
flower
flowers
floyd
flu
fluger
flukt
flukta
flute
fly
flya
flybase
flycatcher
flydde
flyet
flyfoto
flyfotografi
flyg
flygande
flygar
flygarar
flyge
flygedyktige
flygeevne
flygel
flygelhorn
flyging
flyginga
flygingar
flying
flykta
flykte
flyktningar
flyplass
flyplassar
flyplassen
flyr
flyselskap
flyselskapet
flyt
flytande
flytt
flytta
flyttar
flyttast
flytte
flytter
flytting
flyttinga
flytur
flyturen
flyva
fløgstad
fløy
fløya
fløyta
fløyte
fløyter
fm
fn
fo
focus
fogderi
fogerty
foghat
fokus
fokusere
fokuserer
fokusert
fokuserte
fokuset
folda
folk
folka
folke
folkeavstemming
folkeblad
folkedans
folkedikting
folkeeventyr
folkeforbundet
folkegruppa
folkegruppe
folkegruppene
folkegrupper
folkehøgskole
folkehøgskular
folkehøgskule
folkekunst
folkeleg
folkelege
folkemengd
folkemengda
folkeminne
folkeminnesamlar
folkemordet
folkemunne
folkemuseum
folkemusikar
folkemusikarar
folkemusikk
folkemusikken
folkeparti
folkepartiet
folkerepublikken
folkeretten
folkerikaste
folkerike
folkerøysting
folkerøystinga
folkerøystingar
folkesetnad
folkesetnaden
folkesett
folkesette
folkeskulen
folkeslag
folkeslaga
folkesongar
folkestad
folket
folketal
folketala
folketalet
folketalsutvikling
folketeljing
folketeljinga
folketeljingane
folketeljingar
folketettleik
folketettleiken
folketinget
folketom
folketonar
folketru
folkets
folkevald
folkevalde
folkevandringstida
folkevise
folkeviser
folklore
folkrock
folks
folkways
folldal
follo
follow
folque
fond
fonda
fondet
fonds
fonem
fonetikk
fonetisk
fonetiske
fonna
fonologi
fonologien
fonologisk
fonologiske
fontaine
fontana
fontsize
foo
food
fool
fools
foot
football
for
fora
foramen
foran
forandra
forandring
forandringar
forankra
forbaud
forbes
forbetra
forbetre
forbetring
forbetringar
forbi
forbiga
forbod
forbode
forboden
forbodet
forbodne
forbrenning
forbrenningsmotorar
forbruk
forbrukar
forbund
forbunde
forbundet
forbundslandet
forby
force
forces
ford
fordampar
fordamping
fordel
fordelar
fordelen
fordeler
fordeling
fordelinga
fordelt
fordelte
fordi
fordømde
foredrag
foreign
foreigner
foreining
foreininga
forelda
foreldra
foreldre
forelska
foreløpig
forening
foreningen
forenkla
foresla
foreslo
forest
forever
forfall
forfatning
forfatta
forfattar
forfattarane
forfattarar
forfattaren
forfattarskap
forfattarskapen
forfatter
forfedrane
forfedrar
forflytta
forfremja
forfremma
forfølgde
forfølging
forfølginga
forget
forgifta
forgjengar
forgjengaren
forgotten
forhandla
forhandle
forhandlingane
forhandlingar
forhindra
forhistorisk
forhold
forholda
forholdet
forholdsvis
forkant
forkasta
forkastinga
forkjempar
forkla
forklara
forklarar
forklarast
forklare
forklarer
forklaring
forklaringa
forklaringar
forklart
forklarte
forkorta
forkorting
forkortinga
forlag
forlaget
forlagt
forlandsbre
forlata
forlate
forlaten
forlatne
forle
forleggjar
forlenga
forlenging
forlet
forlik
forlikskommisjonen
forlikskommissær
forlis
forliset
forliste
forløpar
forløparen
form
forma
formann
formannen
formannskap
formannskapet
formannskapsdistrikt
formar
formasjon
formasjonar
formasjonen
format
formatet
forme
formeiring
formel
formelen
formell
formelle
formelt
formene
former
formgjevar
formidla
formidlar
formidle
formidling
formlar
formoe
formue
formuen
formulert
formulerte
fornamn
fornebu
fornminne
fornuft
fornya
fornying
forord
forordet
forplantar
forplanting
forplikta
forrest
forretning
forretningar
forretningsfolk
forretningsmann
forretningsmannen
forsamling
forsamlinga
forsamlingar
forsand
forseggjorte
forseinka
forsiktig
forska
forskansa
forskar
forskarane
forskarar
forskaren
forsking
forskinga
forskingsekspedisjon
forskingsinstitutt
forskingsstasjon
forskjell
forskjellar
forskjellen
forskjellig
forskjellige
forskning
forskningsra
forskrift
forskrifter
forslag
forslaget
forsoning
forsta
forstad
forstadane
forstaden
forstader
forstand
forster
forsterka
forsterkar
forsterkarar
forsterke
forsterkingar
forstod
forstyrra
forstyrringar
forstørra
forsvann
forsvar
forsvara
forsvarar
forsvararane
forsvare
forsvaret
forsvarets
forsvarsdepartementet
forsvarskomiteen
forsvarsminister
forsvarsspelar
forsvarsverk
forsvarsverka
forsvart
forsvarte
forsvinn
forsvinne
forsvunne
forsyner
forsyningane
forsyningar
forsøk
forsøka
forsøket
forsøkt
forsøkte
fort
forta
fortald
fortalde
fortalt
fortalte
fortare
forteikn
fortel
fortelja
forteljande
forteljar
forteljaren
fortelje
forteljing
forteljinga
forteljingane
forteljingar
fortellinger
fortenestemedalje
fortenestmedalje
fortet
forth
fortid
fortida
fortidsminneforeningen
fortsatt
fortset
fortsetja
fortsetje
fortsetjing
fortsett
fortsette
fortuna
fortune
forty
forum
forureina
forureining
forutan
forvalta
forvaltar
forvalting
forvaltingsreforma
forvaltingsreformen
forvaltning
forveksla
forvekslast
forveksling
forventa
forverra
forvilla
forvirra
forvirrande
forvirring
forvist
forviste
forvitring
forvrengd
forward
fosen
fosfat
fosnava
fosnes
foss
fossa
fossane
fossar
fosse
fossefall
fossen
fossil
fossile
fossilt
fossum
foster
fostra
fot
fotball
fotballag
fotballaget
fotballforbund
fotballigaen
fotballklubb
fotballklubbar
fotballklubben
fotballspelar
fotballspelarar
fotballspelaren
fotballstadion
fotballtrenar
fotballtrenarar
foten
fotfeste
fotnotar
fotnote
foto
fotograf
fotografar
fotografen
fotografert
fotograferte
fotografi
fotografiet
fotografisk
foton
fots
found
foundation
four
fourier
fourth
fowler
fox
foyn
fr
fra
fraa
frac
fragment
fraksjonen
frakt
frakta
fraktar
frakte
fraktur
fram
framand
framande
framandspra
framdrift
frame
frametter
framferd
framferda
framfor
framføra
framføre
framfører
framføring
framføringa
framføringane
framføringar
framført
framførte
framgang
framgangen
framgangsma
framgrunnen
framhald
framheva
framifra
framkammer
framlegg
framlegget
framleis
framme
framom
framover
frampton
framrykkinga
framsida
framsta
framsteg
framstegspartiet
framstilla
framstille
framstiller
framstilling
framstillinga
framstillingar
framstilt
framstilte
framstod
framsyning
framsyninga
framsyningar
framtid
framtida
framtidig
framtidige
framtredande
framveksten
framvoksteren
franc
franca
france
frances
francesco
franche
francis
francisco
franck
franco
frank
frankarane
franke
frankenstein
frankfurt
frankie
frankiske
franklin
frankrike
franks
frans
fransk
franske
franskmannen
franskmenn
franskmennene
franskspra
fransktalande
franz
fraser
fraus
fre
freak
fred
freda
fredag
freddie
freddy
fredeleg
fredelege
freden
frederic
frederick
frederik
fredrik
fredriksen
fredrikshald
fredrikstad
fredsavtalar
fredsavtale
fredsavtalen
fredspris
free
freedom
freeman
freeze
frei
freiburg
freista
freistar
freiste
freistnad
frekvens
frekvensar
frekvensen
frekvensomra
frelse
frelsers
frelsesarmeen
frem
fremja
fremje
fremme
fremre
fremst
fremste
french
fresh
fresvik
freud
frey
fri
friare
fribourg
fricke
frida
friday
fridom
fridomen
fridtjof
frie
friedman
friedrich
friele
friend
friends
friesland
frigg
frigjere
frigjering
frigjeringa
frigjeve
frigjeven
frigjorde
frigjort
frihet
friidrett
friidretts
friidrettsforbundet
friidrettsutøvar
friidrettsutøvarar
friis
frikjend
friksjon
friksjonen
friluftsliv
friluftsmuseum
friluftsomra
frimann
frimerke
fripp
frisinna
frisisk
frisiske
frisk
friske
fristaten
fristil
fritid
fritida
fritt
frittsta
fritz
friuli
friviljug
frivillig
frivillige
fro
frode
frodig
frodige
froeschle
froese
frogn
frogner
froland
from
fromme
fron
front
frontale
frontar
fronted
fronten
frontfigur
frontier
frontiers
frontmann
frontmannen
froskar
frosne
frost
frosta
frozen
frp
fru
frue
fruit
frukost
frukt
frukta
fruktbar
fruktbare
fruktbart
fruktene
frukter
frukttre
frustrert
fry
frydenlund
frygia
frykt
frykta
frys
fryse
frysepunktet
fræna
frø
frøa
frøken
frøy
frøya
ft
fu
fuchs
fuck
fuego
fuge
fugl
fuglane
fuglar
fugleart
fugleartar
fugleatlas
fugleliv
fuglelivet
fuglen
fugler
fuglereservat
fugleslekter
fujairah
fujian
fukt
fukta
fuktig
fuktige
fukuoka
fukushima
fulfulde
fulham
full
fulle
fuller
fullføra
fullføre
fullført
fullførte
fullma
fullmaktskomiteen
fullmektig
fullstendig
fullstendige
fullt
fulltekst
fulltext
fulltidsmedlem
fullverdig
fun
fund
fundament
fundamental
fundamentale
fundamentet
fungera
fungerande
fungere
fungerer
fungert
fungerte
funk
funksjon
funksjonane
funksjonar
funksjonelle
funksjonen
funky
funn
funna
funne
funnen
funnet
funny
furay
fure
furnes
further
furu
furuset
furuskog
fury
fusa
fusion
fusjon
fusjonen
fusjonerte
fut
futen
future
fv
fvt
fy
fykerud
fyldig
fylgde
fylgjande
fylgje
fylgjer
fylka
fylke
fylkes
fylkesarkiv
fylkesarkivet
fylkesgrensa
fylkesinndelingen
fylkeskommune
fylkeskommunen
fylkesleksikon
fylkesmann
fylkesmannen
fylkesmenn
fylkesordførar
fylkesra
fylkesting
fylkestinget
fylkesveg
fylkesvegar
fylkesvegfleirtyding
fylkesvei
fylket
fyll
fylla
fylle
fyller
fylt
fylte
fyn
fyr
fyra
fyresdal
fyret
fyrst
fyrstane
fyrstar
fyrstasjon
fyrstasjonar
fyrstasjonen
fyrste
fyrstedøme
fyrstedømet
fyrstedømmet
fyrstehuset
fyrsten
fyrsteplass
fyrsteplassen
fyrta
fyrverkeri
fysikar
fysikarar
fysikaren
fysikk
fysikken
fysiologi
fysisk
fysiske
færder
færrast
færre
færøyane
færøysk
færøyske
føda
fødd
fødde
føde
fødebyen
føder
føderal
føderale
føderasjonen
føderasjonssubjekt
føderasjonssubjekta
fødestaden
fødsel
fødselen
fødselsdag
fødselsdagen
født
føler
følgd
følgde
følge
følgja
følgjande
følgje
følgjeleg
følgjene
følgjer
følgjet
følgt
følte
fønikarane
fønikisk
fønikiske
føniksordenen
fønvind
før
føra
førande
førar
føraren
førast
førde
føre
førebels
førebilete
førebu
førebuande
førebudd
førebudde
førebuing
førebuingane
førebuingar
førega
føregangaren
føregjekk
førehand
førekjem
førekomst
førekomstane
førekomstar
førekomsten
førema
føremon
føremonen
føren
førenamn
fører
føresegner
føresetnad
føresetnader
føresla
føreslo
førespurnad
førestilling
førestillinga
førestillingar
føretak
føretaka
føretaket
føretrekk
føretrekkjer
føretrekte
førevegen
førhistorisk
førhistoriske
føringa
førkristen
førre
først
første
førsteamanuensis
førsteplass
førsteplassen
førstnemnde
førstninga
ført
førte
førti
føtene
føter
føydale
g
ga
gaardnavne
gabbro
gabrels
gabriel
gabrieli
gabrielle
gad
gadd
gaga
gaia
gail
gainare
gainsbourg
gaius
gal
gala
galaksane
galaksar
galakse
galaksen
galaktiske
galaxy
galdt
gale
galen
galicia
galilea
galilei
galileo
galizia
gall
gallagher
gallen
galleri
galleriet
gallery
gallia
galliard
galliske
gallo
galloway
gallus
galtvort
galway
gamal
gamalnorsk
gamalt
gamba
gambia
game
gamecube
games
gamla
gamle
gamlebyen
gamlekyrkja
gamma
gammal
gammalengelsk
gammalgresk
gammalhøgtysk
gammalnorsk
gammalt
gammastra
gammel
gammleng
gamvik
gan
gandhi
gang
ganga
gangar
gange
gangen
ganske
gansu
gap
gar
garage
garantert
garbarek
garborg
garci
garcia
gard
gardane
gardar
gardbrukar
gardbrukarar
garde
garden
gardens
gardermoen
gardner
gards
gardsbruk
gardsdrift
gardsnamn
gardsnamnet
gardsnummer
gare
gareliggande
garfunkel
garland
garmisch
garn
garnes
garnison
garnisonen
garonne
garrard
garrett
garry
garson
garth
gary
gas
gasje
gass
gassane
gassar
gassen
gassfelt
gast
gaste
gaston
gat
gata
gate
gatelandsbyen
gatene
gater
gates
gateway
gauguin
gaular
gauldal
gaulle
gaup
gaupe
gaupne
gausdal
gauss
gaute
gav
gave
gavin
gay
gaye
gaynor
gaza
gazastripa
gazeteer
gazette
gazetteer
gb
gdan
ge
gear
gecko
gee
gees
geffen
geilo
geils
geir
geiranger
geirr
geist
geistleg
geistlege
geit
geiter
gemeindeverzeichnis
gemini
gen
gender
gene
general
generalane
generalar
generalen
generalforsamlinga
generalguvernør
generalløytnant
generalmajor
generalsekretær
generasjon
generasjonar
generasjonen
generation
generativ
generator
generell
generelle
generelt
genererer
genesaretsjøen
genesis
genet
genetikk
genetisk
genetiske
geneve
genfersjøen
genitiv
genius
genom
genova
gent
gentile
gentle
gentleman
gentlemen
genus
geo
geoff
geoffrey
geofysikar
geofysikk
geofysiske
geograf
geografar
geografen
geografi
geografien
geografisk
geografiske
geograph
geographic
geographical
geography
geolog
geologar
geologen
geologi
geological
geologien
geologisk
geologiske
geology
geometri
geometrien
geometrisk
geometriske
geonames
geophysical
georg
george
georges
georgia
georgie
georgisk
georgiske
geospatial
ger
gerald
gerard
gerd
gerhard
gerhardsen
gerlache
germain
german
germania
germansk
germanske
germany
gerrard
gerry
gers
gershwin
gert
gertrude
geschichte
gesellschaft
gesta
gestapo
get
gets
getting
getz
gevær
ghana
ghetto
ghost
ghosts
gi
giacomo
giant
giants
gibb
gibbons
gibbs
gibraltar
gibson
gibøen
gideon
gif
gift
gifta
giftar
giftarma
gifte
giftig
giftige
gifu
gigantisk
gikk
gil
gilan
gilbert
gildeska
giles
gill
gillan
gille
gilles
gillespie
gilmour
gimme
gina
ginger
ginsberg
giorgio
giovanni
gips
gir
giravanz
girl
girls
giske
gisle
gitar
gitarane
gitarar
gitaren
gitarist
gitaristane
gitaristar
gitaristen
gitarriff
gitarsolo
gitarsoloar
gitarsoloen
gitashenasi
gitt
gitter
giulio
giuseppe
giv
givat
give
given
giæver
gjaldt
gje
gjedde
gjekk
gjel
gjeld
gjelda
gjeldande
gjelde
gjelsvik
gjemnes
gjendikta
gjendikting
gjenerobra
gjenforeining
gjenforeininga
gjenforeint
gjeng
gjengen
gjengjeld
gjeninnført
gjennom
gjennombrot
gjennombrotet
gjennomføra
gjennomføre
gjennomføringa
gjennomført
gjennomførte
gjennomga
gjennomgang
gjennomgjekk
gjennomsiktig
gjennomslag
gjennomsnitt
gjennomsnittet
gjennomsnittleg
gjennomsnittlege
gjenom
gjenoppbygd
gjenoppbygginga
gjenoppdaga
gjenoppliva
gjenoppretta
gjenopprette
gjenreist
gjensidig
gjensidige
gjenskape
gjenstand
gjenstandane
gjenstandar
gjentekne
gjentok
gjenvald
gjenverande
gjer
gjera
gjerast
gjerde
gjerdrum
gjere
gjermund
gjerne
gjerning
gjerpen
gjerstad
gjesdal
gjest
gjesta
gjestar
gjesteartist
gjesteartistar
gjestemusikar
gjestemusikarar
gjestene
gjester
gjev
gjeva
gjevast
gjeve
gjeven
gjevne
gjirokaste
gjord
gjorde
gjort
gjær
gjæra
gjæser
gjødsel
gjør
gjørme
gjøvik
gjøvikbanen
gl
gla
glacier
glad
glade
gladys
glam
glamrock
gland
glandet
glans
glarus
glas
glasgow
glasiolog
glasiologi
glasma
glass
glassverk
glastonbury
glasverk
glatt
glatte
gleda
glede
glee
glei
glen
glenn
gli
glimmer
glimrande
glimt
glir
glise
glitter
global
globale
globalt
globe
glomma
gloppen
gloria
glory
gloucester
gloucestershire
glover
glow
glu
gluck
glukose
glyn
glødande
gløymd
gløymde
gløymt
gmbh
gmelin
gnagarar
gneis
gnome
gnr
gnu
go
goa
god
godchaux
goddard
gode
godfrey
godkjend
godkjende
godkjenning
godkjent
godkjente
godley
gods
godseigar
godset
godt
godta
godtek
godteke
godteken
godteri
godtok
godwin
goes
goethe
goffin
gogh
goin
going
gol
golan
golanhøgdene
gold
goldberg
golden
goldsmith
goldstein
golf
golfkrigen
golfstraumen
golv
golvet
gomez
gondwana
gone
gong
gongane
gongar
gongen
gonger
gonna
gonza
gonzaga
good
goodbye
goodman
goodnight
google
goose
gora
gorbatsjov
gordon
gordy
gore
gorge
gorkij
gospel
got
gotarane
goth
gotha
gothic
gotisk
gotiske
gotland
gott
gotta
gottes
gottfried
gotthard
gottlieb
gottorp
gould
gouldman
gov
government
governorate
gp
gps
gr
gra
graaf
grace
graceland
grad
grada
gradar
graden
gradene
grader
gradvis
graeme
graf
graffiti
grafikar
grafikk
grafisk
grafiske
grafitt
graham
grain
grallaria
gram
gramm
grammar
grammaticus
grammatik
grammatikk
grammatikken
grammatisk
grammatiske
grammy
grammyprisar
grammyprisen
grampus
gran
granada
granat
granatar
grand
grande
grane
grange
granitt
granska
gransking
granskingar
grant
grantham
granvin
grappa
gras
graset
grashopper
grass
grassletter
gratangen
grateful
gratis
graubu
graut
grav
grava
grave
graven
gravene
graver
graves
gravferd
gravferda
gravhaugar
gravid
gravitasjon
gravity
gravkapell
gravlagd
gravlagde
gravlagt
gravlund
gravlunden
gravminne
gravminner
gravplass
gravplassen
gravstaden
gray
graz
gre
great
greater
greatest
greco
greece
greek
green
greenberg
greene
greenwich
greenwood
grefsen
greg
gregg
gregor
gregoriansk
gregorianske
gregorius
gregory
greidde
greie
greier
grein
greina
greinene
greiner
greip
greitt
grekarane
grekarar
gren
grenada
grenadinane
grend
grenda
grendene
grender
grenland
grenlandsk
grenlandsma
grenoble
grensa
grensar
grense
grenseland
grensen
grensene
grenseomra
grenser
grensesnitt
grep
grepet
gresk
greske
grete
grethe
grev
grevane
greve
greven
grevinne
grevskap
grevskapa
grevskapet
grey
gri
grieg
griffin
griffith
griffiths
grimm
grimstad
grini
grip
gripe
gripen
gris
gritty
gro
grong
groningen
groove
grop
gror
grorud
groruddalen
gros
grosch
gross
grosse
grossman
grotius
grotta
grotte
grottene
grotter
ground
group
groups
grov
grovare
grove
groven
grovt
grow
growing
große
grp
gru
grue
grundig
grundtvig
grunge
grunn
grunna
grunnane
grunnar
grunne
grunneininga
grunnen
grunner
grunnfag
grunnfjellet
grunngjeving
grunngjevinga
grunnkrins
grunnla
grunnlag
grunnlagd
grunnlagde
grunnlaget
grunnlagt
grunnleggande
grunnleggaren
grunnlegginga
grunnleggjande
grunnleggjar
grunnleggjarane
grunnleggjaren
grunnleggje
grunnlov
grunnlova
grunnloven
grunnplan
grunnskule
grunnskulen
grunnsteinen
grunnstoff
grunnstoffa
grunnstoffet
grunnstøytte
grunnvatn
grunnvatnet
grunt
gruppa
gruppe
gruppeleiar
gruppen
gruppene
grupper
grupperingar
gruppespelet
grus
gruva
gruve
gruvedrift
gruvedrifta
gruvene
gruver
gruyter
gry
gryande
gryllefjord
gryta
gryte
grytten
grytviken
grøde
grøn
grøndahl
grøne
grønland
grønlandsk
grønlandske
grønne
grønningen
grønsaker
grønt
gs
gskolan
gsøy
gsøya
gt
gtliggande
gtrykk
gtrykka
gtrykket
gtysk
gu
guadalajara
guadeloupe
guajira
guangdong
guangxi
guangzhou
guard
guardian
guatemala
gud
gudane
gudar
gudbrand
gudbrandsdal
gudbrandsdalen
guddom
guddommeleg
guddommelege
gude
guden
gudinna
gudinne
gudmund
gudrun
guds
gudstenesta
gudsteneste
gudstenester
gudvangen
gue
guercio
guernsey
guerre
guess
guest
guevara
guez
guide
guides
guido
guild
guillaume
guilty
guinea
guinness
guitar
guitars
guizhou
gujarat
gul
gulag
gulaktig
gulatinget
gulbrandsen
gule
gulen
gulf
gull
gulla
gullalder
gullalderen
gullet
gullfinalen
gullmedaljar
gullmedalje
gullmedaljen
gullplate
gullruten
gult
gumiljov
gummi
gun
gundersen
gunhild
gunma
gunn
gunnar
gunnhild
gunnlaug
guns
gunstig
gunstige
gunvor
gur
guri
gurion
guro
guru
gus
gush
gustaf
gustav
gustave
gustavsen
gut
gutane
gutar
guten
gutenberg
guthrie
guttorm
guttormsen
guvernement
guvernementet
guvernør
guvernørar
guvernøren
guy
guyana
guys
gvatn
gwh
gwynedd
gyda
gyldendal
gyldendals
gyldig
gyldne
gyllen
gylne
gymnas
gymnaset
gynt
gyo
gypsy
gælisk
gæliske
gøteborg
gøy
gøymd
gøymde
h
ha
haag
haakon
haaland
haaretz
haarlem
haas
habitat
habitata
habitatet
habsburg
habsburgarane
habsburgmonarkiet
habsburgske
hackett
had
hadawi
hadde
hadeland
hadera
hades
hadhramaut
hadi
hadley
hadrian
hadrianmuren
hadsel
hafjell
hafrsfjord
hafslo
haga
haganah
hagar
hage
hagebruk
hagen
hageplantar
hagerup
haggard
hagia
hagl
hague
hai
haifa
haim
hainan
hair
haiti
haitisk
haitiske
hajjah
hakea
hakim
hakka
hal
hala
halar
hald
halda
haldast
halde
halden
haldeplass
haldeplassen
haldne
haldning
haldninga
haldningar
haldt
hale
halefjørene
halen
haley
half
halfdan
halford
halhjem
halifax
hall
halland
hallands
halldis
halldor
halle
hallelujah
hallen
hallett
halley
halling
hallingdal
hallo
halloween
hallvard
halm
halmstad
halo
hals
halsa
halse
halsen
halsnøy
haltdalen
halv
halva
halvannan
halvard
halvbror
halvbroren
halvdan
halvdel
halvdelen
halve
halvkula
halvkule
halvma
halvor
halvorsen
halvparten
halvt
halvtanna
halvvegs
halvøy
halvøya
halvøyar
ham
hama
hamar
hamarøy
hamas
hamat
hamawi
hambro
hamburg
hamburger
hamid
hamilton
hamish
hamkam
hamlet
hammar
hammaren
hammer
hammerfest
hammersmith
hammill
hammond
hammondorgel
hamn
hamna
hamnar
hamne
hamneby
hamnebyane
hamnebyar
hamnebyen
hamnene
hamneomra
hamner
hamp
hampshire
hampton
hamra
hamre
hamsun
han
hancock
hand
handa
handball
handballspelar
handballspelarar
handballturneringar
handbook
handel
handelen
handels
handelsby
handelsdepartementet
handelsfla
handelsfolk
handelsmann
handelsmenn
handelsrutene
handelsruter
handelssenter
handelssentrum
handelsskip
handelsstad
handelsstaden
handfull
handla
handlar
handle
handling
handlinga
handlingane
handlingar
hands
handsama
handsamar
handsamast
handsame
handsaming
handsaminga
handtak
handtere
handverk
handverkarar
hane
hanen
hang
hangzhou
hank
hankjønn
hann
hanna
hannah
hannane
hannar
hanne
hannen
hannfuglar
hannfuglen
hannibal
hanno
hannover
hans
hansa
hansaen
hansen
hanshaugen
hanson
hanssen
hansson
hansteen
happened
happiness
happy
har
hara
harald
haraldsson
haram
harbor
harbour
hard
hardanger
hardangerfjorden
hardangervidda
hardare
hardaste
hardcore
harde
hardin
harding
hardingfele
hardingfeleverket
hardra
hardrock
hardrockbandet
hardt
hardy
hardyguttene
hare
hareid
hareide
harem
haremet
hari
harlem
harley
harlow
harman
harmoni
harmoniar
harmonisk
harmoniske
harmonium
harmonivokal
harmony
harold
harp
harpe
harper
harpercollins
harr
harriet
harris
harrison
harry
harstad
hart
hartert
hartlaub
hartley
hartman
hartmann
hartvig
harum
harvard
harvest
harvey
has
hasan
hasharon
hashomer
haskell
haslam
haslum
hassan
hassel
hasselblad
hast
hastings
hasvik
haswell
hat
hata
hatay
hatchet
hate
hatfield
hathaway
hatt
hattar
hatten
hattfjelldal
haug
haugalandet
haugar
hauge
haugen
haugerud
haugesund
haugland
hauk
hauka
haukeland
haukjem
hauran
haus
hausa
haust
hausta
hausten
haut
haute
hautes
hauts
hav
hava
havana
havanna
havbotn
havbotnen
have
haven
havens
havet
havilland
having
havniva
havomra
havoverflata
havre
havs
havstraumar
hawaii
hawk
hawke
hawkins
hawks
hay
haydn
hayes
haynes
hayward
hazlewood
hc
hcv
hd
he
head
headed
heads
health
hear
heard
heardøya
hearn
heart
heartache
heartbeat
heartbreak
heartbreakers
hearts
heat
heath
heathen
heather
heaven
heavy
hebei
hebraisk
hebraiske
hebridane
hebron
hector
hedda
heddal
hedeby
hedemarkens
hedmark
hedvig
heerenveen
hefte
heftet
hege
hegel
hegge
hegra
hei
heia
heiberg
heide
heidelberg
heiden
heidensk
heidenske
heider
heiderspris
heidersprisen
heidi
heidne
heidra
height
heights
heil
heila
heilag
heilagdag
heilagdagar
heilagdom
heilagdomen
heilage
heiland
heile
heilo
heilongjiang
heilskap
heilt
heiltal
heiltid
heim
heimane
heimar
heimbyen
heimbygda
heimdal
heime
heimebane
heimebanen
heimehøyrande
heimekampane
heimel
heimelaga
heimen
heimesida
heimeside
heimesidene
heimesider
heimevernet
heimland
heimlandet
heimlause
heimlege
heimskringla
heimstad
heimstaden
heine
heinrich
heinz
heiomra
heist
heit
heitande
heite
heiter
heitt
heitte
hejaz
hekk
hekka
hekkande
hekkar
hekke
hekkedrakt
hekkefugl
hekkefuglar
hekkeløparar
hekkeomra
hekkeplassane
hekker
hekkesesongen
hekketida
hekking
hekkinga
hektar
hel
held
heldt
hele
helen
helena
helene
helg
helga
helge
helgedag
helgeland
helgen
helgenar
helgendag
helgenen
helianthus
helikopter
helium
hell
hella
helland
hellas
helle
helleland
hellenistisk
hellenistiske
heller
helleristingar
hellesylt
hellige
helling
hello
helm
helmer
helmut
help
helsa
helse
helsepersonell
helseproblem
helsing
helsingborg
helsingfors
helsingør
helsinki
helst
helt
heltane
heltar
helten
helter
helvete
hemma
hemmeleg
hemmelege
hemn
hemne
hemnes
hemoglobin
hemsedal
hen
henan
hende
henden
hendene
hender
henderson
hending
hendinga
hendingane
hendingar
hendrik
hendrix
heng
hengande
hengd
hengde
henge
hengt
henie
henley
hennar
henne
hennes
henning
henri
henriette
henrik
henriksen
henry
henta
hentar
hente
hentet
hepatitis
hepatitt
hepburn
her
hera
herad
heradet
heradsstyre
heradsstyret
herakles
herald
herb
herbert
herbie
hercegovina
hercules
herder
herdla
here
herfra
herifra
heritage
herja
herman
hermann
hermansen
hermansverk
hermine
hermits
hermon
hernes
hero
herodes
heroes
heroin
heroiske
heron
herr
herrar
herre
herredøme
herredømet
herregard
herregarden
herrelandslag
herrelandslaget
herren
herring
herschel
herska
herskande
herskapshus
herskar
herskarane
herskarar
herskaren
hertfordshire
hertha
hertug
hertugane
hertugar
hertugdøme
hertugdømet
hertugdømmet
hertugen
hertuginne
hertz
hertzberg
herz
herzegovina
herzog
herøy
hess
hesse
hessen
hest
hestane
hestar
hestekrefter
hesten
het
hetland
hette
hettittane
hev
heva
hevar
hevd
hevda
hevdar
hevde
heve
hevel
hever
heving
hewitt
hey
heyerdahl
heylin
hf
hi
hicks
hidalgo
hidden
hide
hier
hieronymus
higgins
high
higher
highjump
highland
highway
hilda
hilde
hill
hillage
hillary
hillbilly
hille
hillman
hills
hilmar
hilton
him
himalaya
himmel
himmelen
himmelhalvkula
himmellekamar
himmelske
hin
hindenburg
hinder
hindi
hindra
hindrar
hindre
hindringar
hindu
hinduar
hinduiske
hinduisme
hinduismen
hine
hines
hinnøya
hint
hinterrhein
hip
hipgnosis
hiphop
hippie
hiroshima
his
hiseman
hispania
hispaniola
hist
histoire
historia
historic
historical
historie
historielag
historielaget
historiema
historien
historiene
historier
historikar
historikarane
historikarar
historikaren
historikk
historisk
historiske
history
hit
hitchcock
hite
hiten
hitler
hitlista
hitlistene
hitra
hits
hitsingel
hitsingelen
hitsinglane
hitsinglar
hitt
hittane
hittar
hitten
hittil
hiv
hizbollah
hja
hjalmar
hjarta
hjartdal
hjarte
hjartefeil
hjarteinfarkt
hjartekammer
hjartet
hjelm
hjelmeland
hjelp
hjelpa
hjelpe
hjelpemiddel
hjelper
hjelpt
hjelpte
hjeltnes
hjem
hjemmeside
hjerne
hjernen
hjerneslag
hjerte
hjertet
hjort
hjorth
hjul
hjula
hjulet
hjørna
hjørne
hjørnet
hjørundfjord
hjørundfjorden
hjørungava
hk
hl
hler
hlig
hm
hmen
hms
hn
ho
hoa
hobby
hobson
hobøl
hockey
hodges
hodgson
hoel
hoene
hoer
hof
hoff
hoffet
hoffman
hoffmann
hofmannfjella
hoftun
hofuglar
hofuglen
hogarth
hogd
hogde
hogg
hogge
hogst
hohe
hohenzollern
hokjønn
hokjønnsord
hokkaido
hokksund
hol
hola
holbein
holberg
hold
holden
holder
holding
hole
holer
holet
holger
holiday
holidays
holland
hollandsk
hollies
holly
hollyhock
hollywood
holm
holman
holmane
holmar
holmboe
holmbukta
holme
holmedal
holmen
holmenkollen
holmenkollmedaljen
holmenkollrennet
holmes
holmestrand
holocaust
holocen
holrom
holst
holstein
holt
holta
holtermann
holy
home
homer
homme
homo
homofil
homofile
homofili
homs
hon
honda
honduras
honey
hong
hongkong
honky
honning
honningsva
honnør
honolulu
honor
honorar
honour
honshu
hood
hook
hooker
hooper
hoople
hoover
hop
hope
hopen
hopkins
hopp
hoppa
hoppar
hoppe
hopper
hopprenn
hopprennet
hoppveka
horace
hordaland
horden
horisontal
horisontale
horisontalt
horisonten
horizon
horizontal
hormon
horn
horna
horne
hornet
hornindal
hornnes
horns
hornsby
hornsrud
horror
horse
horses
horseshoe
horsfield
horst
horten
hos
hosanger
hospital
hot
hotel
hotell
hotellet
hotspur
houens
houghton
hound
hour
hours
house
houses
houston
hov
hovden
hovding
hovdingen
hove
hovedserien
hovedstaden
hovin
hovland
hovud
hovuda
hovudartikkel
hovudbelteasteroide
hovudbeltet
hovudbyen
hovudbygningen
hovuddelen
hovudet
hovudfag
hovudgata
hovudgrupper
hovudinngangen
hovudkjelda
hovudkontor
hovudkontoret
hovudkvarter
hovudkvarteret
hovudma
hovudmaskinen
hovudnæring
hovudnæringa
hovudnæringane
hovudomra
hovudoppga
hovudperson
hovudpersonane
hovudpersonen
hovudplagg
hovudregel
hovudrolla
hovudrolle
hovudrollene
hovudsak
hovudsakleg
hovudserien
hovudseriestjerne
hovudsete
hovudsetet
hovudskallen
hovudstad
hovudstaden
hovudstader
hovudtemaet
hovudtoppen
hovudtrenar
hovudtypar
hovudveg
hovudvegen
hovudverk
hovudverket
hovudøya
how
howard
howe
howie
howlin
hoy
hoyo
hp
hpa
hr
hren
hrer
hrsg
hsd
htm
html
http
https
hu
hua
huang
hubbard
hubble
hubei
hubert
hud
huda
hudaydah
huddinge
hudson
hudsonbukta
huey
hug
hugh
hughes
hugo
hugsa
hugsar
hugse
hui
huitfeldt
hulda
hull
human
humaniora
humanist
humanistisk
humanistiske
humanitære
humble
humboldt
humboldtfjella
hume
humler
humlesnurr
hummingbird
humor
humoristisk
humoristiske
humperdinck
humphrey
humphries
hun
hunan
hunarane
hund
hundane
hundar
hunden
hundre
hundrea
hundred
hundredels
hundrevis
hundva
hunger
hungersnaud
hungry
hunky
hunt
hunter
huntford
hunting
hurdal
hurrem
hurricane
hurt
hurtig
hurtigba
hurtigruta
hurtigruten
hurtigruteskip
hurts
hurum
hus
husa
husar
husby
husdyr
husdyrhald
huse
huseby
huser
huset
hush
hushald
hushaldningar
huslærar
husmannsplass
husnes
hussein
hustadvika
hustru
hustrua
husvik
husvære
hut
hutchings
hutchinson
hutt
hutton
huxley
huygens
hv
hva
hvad
hvaler
hvem
hver
hvis
hvite
hvor
hvordan
hybrid
hybridar
hyde
hyderabad
hydraulisk
hydrauliske
hydro
hydrogen
hydrographic
hydrologi
hydrostatisk
hygiene
hylla
hylle
hyllest
hyllestad
hyllestalbum
hyllestalbumet
hymn
hymne
hymns
hypotese
hypotesen
hyppig
hyppige
hyra
hyrte
hyser
hytta
hytte
hyttene
hytter
hz
hægebostad
hær
hærar
hæren
hærens
hærførar
hætta
hødd
høegh
høg
høgare
høgareliggande
høgast
høgaste
høgastliggande
høgd
høgda
høgde
høgdedrag
høgdehopp
høgdehopparar
høgdene
høgdepunkt
høgdepunkta
høgdepunktet
høgder
høgdeskilnad
høge
høgfjellet
høgland
høglanda
høglandet
høgre
høgreflanken
høgreordførarar
høgres
høgresida
høgrestatsra
høgskole
høgskolen
høgskular
høgskule
høgskulen
høgst
høgste
høgsterett
høgsteretten
høgsterettsadvokat
høgsterettsdommar
høgt
høgtalar
høgtalarar
høgtid
høgtida
høgtider
høgtliggande
høgtrykk
høgtsta
høiland
høland
hønefoss
høns
høst
høva
høvande
høvde
høvding
høvdingen
høve
høveleg
høvelege
høver
høvesvis
høvet
høy
høyanger
høyland
høylandet
høyra
høyrast
høyrd
høyrde
høyrdest
høyre
høyrer
høyrespel
høyrest
høyrt
høyrte
i
ia
iaaf
iain
ian
iata
iaugefallande
ib
ibb
iberia
iberiske
ibestad
ibiza
iblant
ibm
ibn
ibrahim
ibsen
ibsens
ibuarane
ibuarar
ic
ica
ice
ich
ichihara
icon
id
ida
idag
idaho
idar
ide
ideal
ideala
ideane
idear
ideell
ideelle
ideelt
ideen
identifisera
identifisere
identifiserer
identifisert
identifiserte
identisk
identiske
identitet
identiteten
identity
ideologi
ideologiar
ideologien
ideologisk
ideologiske
idet
idf
idiot
idlib
idol
idrett
idrettar
idretten
idrettsanlegg
idrettsforbund
idrettsforening
idrettshall
idrettslag
idrettslaget
idrettsmann
idrettstilskipingar
idrettsutøvar
idrettsutøvarar
ie
if
ifk
ifra
ifylgje
ifølge
ifølgje
ig
iggy
igjen
igjennom
iglesias
ignorerte
igor
ihf
ihk
ihr
ii
iii
ij
ija
ijssel
ik
ike
ikke
ikkje
ikon
ikonet
ikring
ikt
il
ila
ile
ili
iliaden
ilja
ill
ille
illinois
illsley
illusion
illustrasjon
illustrasjonar
illustrated
illustratør
illustratørar
illustrerer
illustrert
illustrerte
im
image
images
imagesize
imaget
imagination
imagine
imam
imamen
imdb
imellom
img
immigrantar
imot
impact
impatiens
imperativ
imperial
imperiet
imperium
imponerande
imponert
imponerte
import
important
importert
importerte
impossible
impresjonistiske
improvisasjon
improvisert
improviserte
impulsar
impulse
in
ina
inc
inca
inch
including
incorporated
increment
indarar
indeks
indeksen
independence
independent
inderøy
index
india
indiahavet
indian
indiana
indianarane
indianarar
indians
indianske
indie
indigenous
indigo
indikasjon
indikasjonar
indikerer
indikert
indikerte
indirekte
indisk
indiske
individ
individa
individet
individuell
individuelle
individuelt
indo
indoariske
indoeuropeisk
indoeuropeiske
indonesia
indonesisk
indonesiske
indre
indrebø
indus
industri
industrial
industrialisering
industrialiseringa
industrialiserte
industriar
industriby
industriell
industrielle
industrielt
industrien
industries
industriomra
industrisenter
industry
ine
inen
infanteri
infanteribrigade
infanteriet
infanteriregiment
infanteristar
infeksjon
infeksjonar
inferno
infinitiv
infinity
inflasjon
inflasjonen
influence
info
informasjon
informasjonen
informatikk
information
informert
informerte
infraraud
infraraude
infrastruktur
infrastrukturen
infty
ing
inga
ingar
inge
ingebjørg
ingeborg
ingebrigt
ingebrigtsen
ingen
ingeniør
ingeniørar
ingeniøren
ingenting
inger
ingmar
ingolf
ingrediensane
ingrediensar
ingrid
ingstad
ingunn
ingvald
ingvar
ingvild
initiativ
initiativet
inka
inkariket
inkarnasjonen
inkje
inkjekjønn
inkl
inkludere
inkluderer
inkludert
inkluderte
inklusive
inkvisisjonen
inlet
inn
innafor
innan
innandørs
innanfor
innanlands
innb
innblanda
innblanding
innbyggarane
innbyggarar
innbyggjar
innbyggjarane
innbyggjarar
innbyggjartal
innbyggjartalet
innbyrdes
innbytar
inndeling
inndelinga
inndelingar
inndelt
inne
innebar
inneber
innebygd
innehalda
innehalde
innehavar
inneheld
inneheldt
inner
innfødde
innføra
innføre
innføring
innføringa
innført
innførte
innga
inngang
inngangar
inngangen
inngjekk
inngrep
innhald
innhaldet
innhenta
inni
innimellom
innkalla
innkjøp
innkjøpt
innlagt
innlandet
innlandsisen
innlegg
innleia
innleiande
innleidde
innleiing
innleiinga
innlemma
innløp
innløpet
innocens
innocent
innom
innovasjon
innovative
innover
innpa
innpass
innretning
innretningar
innretta
innrømde
innsa
innsamla
innsamling
innsats
innsatsen
innsbruck
innseglinga
innsett
innsette
innsida
innsikt
innsjø
innsjøane
innsjøar
innsjøen
innskrenka
innskrift
innskrifta
innskrifter
innslag
innspeling
innspelinga
innspelingane
innspelingar
innspelt
innspelte
innstifta
innstilling
innstillinga
innstilt
inntak
innteikna
inntekt
inntekta
inntektene
inntekter
inntil
inntog
inntok
inntrykk
inntrykket
innvald
innvandra
innvandrarar
innvandring
innvandringa
innvendig
innverknad
innverknaden
innverknadsrike
innvigd
innvik
innvikla
innvilga
ins
insekt
insekta
insektetande
insektetarar
inside
insisterte
inskripsjon
inskripsjonar
inskripsjonen
inspektør
inspirasjon
inspirasjonen
inspirasjonskjelde
inspirasjonskjeldene
inspirasjonskjelder
inspiration
inspirert
inspirerte
inst
installasjon
installasjonar
installert
inste
institusjon
institusjonane
institusjonar
institusjonen
institut
institute
institution
instituto
institutt
instituttet
instruksjonar
instruktør
instrument
instrumenta
instrumental
instrumentalar
instrumentale
instrumentalen
instrumentalist
instrumentalmusikk
instrumentalt
instrumentalversjon
instrumentering
instrumenteringa
instrumentert
instrumentet
instruments
insulin
int
intakt
inte
integral
integrasjon
integrert
integrerte
intel
intellektuell
intellektuelle
intelligence
intelligens
intelligent
intens
intense
intensitet
intensiteten
intensiv
intenst
inter
interactive
interessa
interessant
interessante
interesse
interessene
interesser
interessert
interesserte
interest
interferens
interior
interiør
interiøret
intern
internasjonal
internasjonale
internasjonalen
internasjonalt
international
internationale
interne
internet
internett
internettsidene
internt
interstellar
intervall
interview
intervju
intervjua
into
intrikate
intro
introducing
introduction
introduksjon
introduksjonen
introdusert
introduserte
introen
inuit
inuittane
inuittar
inuittisk
inuittiske
inuktitut
invaderande
invadere
invadert
invaderte
invasjon
invasjonar
invasjonen
inventar
inventaret
invention
inverness
investeringar
investigations
investorar
invisible
invitasjon
invitert
inviterte
involverer
involvert
involverte
io
ioa
ioc
iok
ion
iona
ionala
ionosfæren
ios
iowa
ip
ipa
iphone
ipswich
ir
ira
irak
irakisk
irakiske
iran
iransk
iranske
iraq
irbid
ireland
irene
irgens
irina
iris
irish
irkutsk
irland
irma
iron
ironisk
irregulære
irrigert
irsk
irske
irskesjøen
irvine
irving
irwin
is
isa
isaac
isaak
isabel
isabella
isak
isaksen
isbjørn
isbn
isbre
isbreane
isbrear
isbreen
isbrem
isbremmar
isbremmen
isdekket
isdekt
isdekte
ise
isen
isfahan
isfall
isfjell
isfjorden
isfri
isfrie
isfritt
ishall
ishaug
ishockey
ishockeyklubb
ishockeyspelar
ishockeyspelarar
isil
isis
iskrystallar
isla
islagd
islam
islamic
islamistiske
islamsk
islamske
island
islands
islandsk
islandske
islay
isle
isles
isley
ismail
iso
isola
isolasjon
isolde
isolert
isolerte
isotopar
israel
israelarane
israelarar
israeli
israelittane
israels
israelsk
israelske
issn
isstraumar
issue
issues
ist
istaden
istanbul
istid
istida
istider
istituto
istria
især
it
italia
italian
italiana
italienarane
italienarar
italienaren
italiensk
italienske
italienskspra
italy
ithaca
itkonen
its
itunes
itv
iucn
iv
iva
ivan
ivanov
ivanovitsj
ivanovo
ivar
ivareta
ivarsson
iveland
iver
iversen
ives
ivo
ivor
ivory
ivrig
ivy
iwata
ix
ixodes
izmir
j
ja
jabal
jack
jackie
jackson
jaco
jacob
jacobs
jacobsen
jacopo
jacques
jade
jaffa
jag
jaga
jagar
jagarfly
jagger
jagland
jah
jahn
jahr
jahre
jakarta
jake
jakke
jakob
jakobsen
jakobson
jakt
jakta
jaktar
jakte
jakten
jaktstart
jaktstarten
jam
jama
jamaica
jamaicansk
jamaicanske
james
jamfør
jamie
jamleg
jamn
jamna
jamnast
jamne
jamnt
jams
jamsides
jamt
jamvel
jan
jana
jane
janeiro
janet
janis
janne
jansch
jansen
janson
jansson
januar
january
janus
japan
japanarane
japanese
japansk
japanske
jar
jardine
jare
jarl
jarlane
jarlar
jarle
jarlen
jarlsberg
jarn
jarnalderen
jarnbana
jarnbane
jarnbanekomiteen
jarnbanen
jarnbanestasjon
jarnbanestasjonar
jarnbanestasjonen
jarnbanestrekningar
jarnbanetunnelar
jarnvegen
jaroslav
jaroslavl
jarrett
jarvis
jason
java
javier
jay
jazeera
jazz
jazzen
jazzfusion
jazzmusikar
jazzmusikarar
jbeil
je
jean
jeanne
jeans
jebel
jebsen
jef
jeff
jefferson
jeffrey
jeg
jeger
jegerar
jekaterinburg
jektene
jekter
jelena
jelsa
jeløy
jemen
jemenittisk
jemenittiske
jena
jenin
jenisej
jenkins
jenner
jenness
jennifer
jennings
jenny
jens
jensen
jenssen
jenta
jente
jentene
jenter
jerash
jeremy
jeriko
jern
jernalder
jernalderen
jernbane
jernbaneknutepunkt
jernbanelinja
jernbanen
jernbanesamband
jernbanestasjon
jernbanestasjonen
jernbaneverket
jernmalm
jernmineral
jernverk
jerome
jerry
jersey
jerusalem
jesaja
jesc
jesper
jesse
jessica
jesu
jesus
jet
jethro
jets
jetstraumen
jevgenij
jevnaker
jewel
jewish
jews
jezreeldalen
jf
jfr
jhvh
ji
jiang
jiangsu
jiangxi
jidda
jiddisch
jihad
jilin
jill
jim
jimi
jimmie
jimmy
jin
jir
jive
jizan
jo
joa
joachim
joakim
joan
joanna
joar
job
jobb
jobba
jobbar
jobbe
jobben
jobs
jobson
joe
joel
joerg
joey
joh
johan
johann
johanna
johanne
johannes
johannesburg
johannesen
johannesevangeliet
johannessen
johans
johansen
johansson
john
johnnie
johnny
johns
johnsen
johnson
johnston
johnstone
johs
joik
join
joint
joinville
jokkmokk
jolly
jom
jomfru
jomfrua
jomfruøyane
jon
jonas
jonathan
jondal
jones
joni
joniske
jonny
jonsson
joplin
jord
jorda
jordal
jordan
jordanaires
jordandalen
jordanelva
jordansk
jordanske
jordatmosfæren
jordbruk
jordbruket
jordbruksland
jordbruksomra
jordbær
jorden
jordoverflata
jordras
jordskjelv
jordskjelvet
jordskorpa
jordsmonn
jordsmonnet
jorge
jorgensen
jorn
jorunn
jos
jose
josef
josefs
josefus
joseph
josephine
josh
joshua
jostedalsbreen
jostein
josva
jotunheimen
joule
journal
journalist
journalistar
journalisten
journalistikk
journey
jovi
joy
joyce
jpeg
jpg
jpl
jr
ju
juan
juana
jubilee
jubileet
jubileum
judaism
judas
judd
jude
judea
judet
judge
judit
judith
judy
juel
jug
jugoslavia
jugoslaviske
juice
jul
jula
julaftan
julealbumet
juledag
julehefte
julenissen
jules
julesong
julesongar
juletider
juletre
juli
julia
julian
julianske
julie
julien
juliet
julija
julio
julius
july
jump
jun
junction
june
jung
jungle
juni
junior
juniperus
juno
jupiter
jupiterma
jur
jura
jurafjella
jurassic
juratida
juridisk
juridiske
jurij
jurist
juristar
jury
juryane
juryen
juryrøystar
jus
juss
just
justert
justice
justin
justinian
justis
justisdepartementet
justiskomite
justiskomiteen
justisminister
juventus
jylland
jæren
jødane
jødar
jøde
jødedom
jødedommen
jødisk
jødiske
jølster
jørgen
jørgensen
jørn
k
ka
kaare
kaas
kabel
kabir
kablar
kabul
kafe
kafear
kaffi
kafka
kafr
kagge
kahn
kai
kaia
kaien
kairo
kaiser
kaizers
kaka
kakao
kake
kaker
kala
kald
kaldare
kaldaste
kalde
kaldera
kalderaen
kalderaer
kaldt
kale
kaledonske
kalender
kalenderen
kali
kaliber
kalif
kalifatet
kalifen
kaliningrad
kalium
kalk
kalkstein
kall
kalla
kallar
kallast
kalle
kallenamn
kallenamnet
kallesignal
kallikratis
kalmar
kalmarunionen
kalsium
kalsiummineral
kalte
kaluga
kalv
kam
kama
kambodsja
kambrium
kamelar
kamen
kamera
kameraet
kamerun
kammer
kammeret
kammermusikk
kamp
kampane
kampanje
kampanjen
kampar
kampen
kampfakta
kamphandlingar
kamsky
kamtsjatka
kamtsjatkahalvøya
kan
kana
kanaan
kanadisk
kanadiske
kanal
kanalane
kanalar
kanalen
kanalisert
kanariøyane
kanawa
kanazawa
kandidat
kandidatane
kandidatar
kandidaten
kandidatturneringa
kane
kanel
kanin
kaninar
kann
kannik
kano
kanon
kanonane
kanonar
kanonen
kansas
kansellert
kanskje
kanslar
kant
kantane
kantar
kantate
kantaten
kantater
kanten
kantner
kanton
kantonane
kantonen
kaos
kaoset
kap
kapasitet
kapasiteten
kapell
kapellan
kapellet
kapellmeister
kapital
kapitalen
kapitalismen
kapittel
kapittelet
kapitulerte
kaplan
kapp
kappa
kappe
kappgang
kapra
kaptein
kapteinen
kapteinløytnant
kar
kara
karabakh
karachi
karahavet
karak
karakoram
karakter
karakterane
karakterar
karakteren
karakterisert
karakteriserte
karakteristikk
karakteristisk
karakteristiske
karane
karar
karasjok
karate
karbala
karbohydrat
karbon
karbonatom
karbondioksid
kardemomme
kardi
kardinal
karel
karelen
karelia
karelske
karen
kari
karibia
karibisk
karibiske
karin
karine
karl
karla
karlsen
karlskrona
karlsruhe
karlsson
karlstad
karlsøy
karma
karmelberget
karmøy
karnataka
karnatisk
karneval
karnevalet
karoline
karpatane
karpov
karriere
karrieren
karst
karsten
kart
karta
kartagarane
kartagiske
kartago
kartet
kartla
kartlagd
kartlagde
kartlagt
kartlagte
kartlegging
kartlegginga
kartograf
kartografar
kartverk
kasakhisk
kasakhstan
kasakhstanske
kashima
kashiwa
kashmir
kasimir
kasparov
kaspihavet
kassel
kasserar
kassett
kast
kasta
kastar
kaste
kastet
kasus
kata
katalansk
katalanske
kataller
katalog
katalogen
katalognummer
katarina
katastrofale
katastrofar
katastrofe
katastrofen
kate
katedral
katedralen
katedralskole
katedralskulen
kategori
kategoriane
kategoriar
kategorien
kategorisert
kath
katherine
kathleen
kathy
katie
katolikk
katolikkar
katolisismen
katolsk
katolske
katrine
katt
kattar
kattegat
katten
katy
katz
kaukasus
kaunas
kaupang
kaupanger
kautokeino
kava
kavaleri
kavaleriet
kavaleristar
kawasaki
kay
kaye
kazan
kb
kbruk
kc
kde
ke
kea
keane
keefe
keegan
keep
keeper
kefalonia
kefuglar
keisar
keisarane
keisarar
keisardømet
keisaren
keisarinne
keisarlege
keisarriket
keith
keller
kelley
kelly
keltarar
keltisk
keltiske
keltner
kelvin
kemerovo
kemp
ken
kennedy
kenneth
kenny
kensington
kent
kenton
kentucky
kenya
kenyansk
kenyanske
kepler
ker
kerala
keramikk
keren
keres
kerguelen
kerman
kerr
kerrang
kerry
ket
kete
ketil
kevin
key
keyboard
keynes
keys
kf
kfamiliar
kfamilie
kfamilien
kfar
kforskar
kforskarar
kforsking
kfum
kg
kgb
kgl
kgruppa
kh
kha
khabarovsk
khaimah
khalid
khalidi
khalifa
khan
khanatet
khania
khanty
kharkiv
khet
khi
khirbet
khistorie
khmer
khor
khorasan
khrusjtsjov
khuzestan
khz
ki
kibbutz
kibbutzar
kibbutzen
kick
kid
kidd
kidnappa
kids
kiel
kielland
kiev
kievriket
kikkert
kil
kildinsamisk
kill
killed
killer
killers
killing
kilo
kilogram
kilometer
kilometeren
kilometers
kim
kimono
kina
kinas
kind
kinesarane
kinesarar
kinesisk
kinesiske
kinetisk
kinetiske
king
kingdom
kingfisher
kings
kingsmen
kingston
kinks
kinn
kino
kinoar
kinross
kinsarvik
kipling
kirby
kirgisistan
kirk
kirke
kirkebøker
kirkeleksikon
kirken
kirkenes
kirkens
kirkenær
kirker
kirkpatrick
kirkuk
kirkwall
kirov
kirsten
kirsti
kiruna
kirurg
kirurgi
kirurgisk
kirurgiske
kirwan
kiryat
kis
kiss
kista
kiste
kit
kitakyushu
kitchen
kitchener
kittelsen
kitts
kitty
kiwi
kj
kjappe
kjartan
kje
kjeda
kjede
kjegleforma
kjelda
kjelde
kjeldekode
kjeldene
kjelder
kjell
kjellaren
kjeller
kjem
kjemi
kjemikaliar
kjemikar
kjemikarar
kjemisk
kjemiske
kjempa
kjempar
kjempe
kjemper
kjempestjerne
kjend
kjende
kjendis
kjendisar
kjenna
kjennast
kjenne
kjenneleg
kjennemerke
kjenner
kjennest
kjennetegna
kjenneteikn
kjenneteikna
kjenningsmelodi
kjenningsmelodien
kjennskap
kjensla
kjensle
kjenslemessig
kjenslene
kjensler
kjent
kjente
kjerland
kjernane
kjernar
kjerne
kjernefysikk
kjernefysisk
kjernefysiske
kjernen
kjerneomra
kjerring
kjersti
kjetil
kjetting
kjole
kjos
kjæledyr
kjær
kjæraste
kjærasten
kjære
kjærleik
kjærleiken
kjærlighet
kjøbenhavn
kjøken
kjøkken
kjøkkenet
kjøl
kjølen
kjølig
kjøligare
kjølige
kjølvatnet
kjønn
kjønna
kjønnet
kjønnsdimorfisme
kjønnsorgan
kjøp
kjøpa
kjøpe
kjøper
kjøpesenter
kjøpet
kjøpmann
kjøpmenn
kjøpstad
kjøpstadene
kjøpt
kjøpte
kjøt
kjøtet
kjøtt
kk
kka
kl
kla
klaga
klage
klan
klanen
klang
klapping
klar
klara
klarar
klarde
klare
klarer
klarinett
klart
klarte
klassa
klassane
klassar
klasse
klassekampen
klassen
klasser
klassetrinn
klassifiserast
klassifiserer
klassifisering
klassifiseringa
klassifisert
klassifiserte
klassikar
klassikarar
klassikaren
klassisismen
klassisistiske
klassisk
klassiske
klatra
klatrar
klatrarar
klatre
klatring
klatringa
klaudios
klaus
klaver
klaverinstrument
klaverspelar
klaverspelarar
klaverspelaren
klavier
kle
kleberstein
kleda
kledd
kledde
klede
kleg
klege
klein
kleine
kleiv
kleiva
klekking
klekte
klemens
kleopatra
klepp
kleppa
kleppe
kler
kleveland
kleven
klig
klima
klimaendringar
klimaet
klimaklassifisering
klimatiske
kling
klinisk
klio
klipp
klippa
klippe
klippeformasjonar
klippeframspring
klippene
klipper
klipperik
kloakk
klokka
klokkar
klokke
klokker
klokkespel
klokketa
kloster
klostera
klosteret
klostret
klubb
klubbane
klubbar
klubben
klubbens
klubblag
klubbspel
klæbu
kløft
kløfta
kløfter
klør
kløyvd
km
knapp
knappar
knappe
knapt
knarvik
kne
kneip
knesset
knew
knife
knight
knights
kniksen
kniv
knivar
knm
knock
knoklane
knoklar
knoll
knop
knopfler
know
knowledge
known
knows
knox
knud
knudsen
knuse
knust
knuste
knut
knute
knuten
knutepunkt
knutsen
knutsson
knyt
knyta
knytast
knyte
knyter
knytt
knytte
ko
koalisjon
koalisjonen
koalisjonsregjering
kobe
koch
koda
kodar
kode
koden
kofu
kognitiv
koht
koka
kokain
kokk
kokt
kokte
kol
kola
kolahalvøya
kolbotn
kolera
kolfyrt
kolibriar
kollapsa
kollega
kollegaen
kollegaene
kollektiv
kollektive
kollektivt
kollektivtransport
kolliderte
kollisjon
kollisjonar
kollisjonen
koloni
koloniane
koloniar
kolonien
kolonisering
koloniseringa
kolonisert
koloniserte
kolonistane
kolonistar
kolonitida
kolsa
kolsrud
kolstad
kolyma
kom
koma
komande
kombinasjon
kombinasjonar
kombinasjonen
kombinerast
kombinere
kombinerer
kombinert
kombinerte
kombinertløparar
kome
komediar
komedie
komedien
komen
komet
kometar
kometen
komi
komikar
komikarar
komikaren
komintern
komisk
komiske
komite
komitear
komiteen
komm
komma
kommandant
kommandantane
kommandanten
kommande
kommandert
kommanderte
kommando
kommandoen
kommandør
komme
kommentar
kommentarar
kommentator
kommentatorar
kommentert
kommenterte
kommer
kommersiell
kommersielle
kommersielt
kommisjon
kommisjonen
kommissær
kommun
kommuna
kommunal
kommunale
kommunaleining
kommunaleininga
kommunaleiningar
kommunalt
kommunane
kommunar
kommune
kommunegrensa
kommunegrensene
kommunegrenser
kommunen
kommuner
kommunereforma
kommunes
kommunesamansla
kommunesenter
kommunesenteret
kommunestyre
kommunestyret
kommuneva
kommunevalet
kommunikasjon
kommunisera
kommunisere
kommuniserer
kommunisme
kommunismen
kommunistane
kommunistar
kommunistisk
kommunistiske
kommunistparti
kommunistpartiet
komne
komorane
kompakt
kompani
kompaniet
kompass
kompensasjon
kompetanse
kompetansesenter
kompleks
komplekse
komplekset
komplekst
komplett
komplette
komplikasjonar
komplisert
kompliserte
komponent
komponentane
komponentar
komponenten
komponere
komponert
komponerte
komponist
komponistane
komponistar
komponisten
komposisjon
komposisjonane
komposisjonar
komposisjonen
kompromiss
komra
kon
kona
kondensasjon
kondenserer
kondensert
kone
konene
koner
konferanse
konferansen
konfiskert
konflikt
konfliktane
konfliktar
konflikten
konføderasjonen
kong
kongane
kongar
konge
kongedøma
kongedøme
kongedømet
kongedømmet
kongefamilien
kongehuset
kongeleg
kongelege
kongelige
kongemakta
kongen
kongens
kongepokal
kongepokalen
kongepokalvinnarar
kongerike
kongeriket
kongesoger
kongo
kongress
kongressen
kongsberg
kongsga
kongsgarden
kongsvinger
konkluderte
konklusjon
konklusjonen
konkret
konkrete
konkurransar
konkurranse
konkurransen
konkurrent
konkurrenten
konkurrerande
konkurrere
konkurrerer
konkurrerte
konkurs
konow
konrad
konsekvens
konsekvensane
konsekvensar
konsekvent
konsentrasjon
konsentrasjonar
konsentrasjonen
konsentrasjonsleir
konsentrasjonsleirar
konsentrasjonsleiren
konsentrere
konsentrert
konsentrerte
konsept
konseptalbum
konseptet
konsernet
konsert
konsertalbum
konsertalbumet
konsertane
konsertar
konserten
konserthus
konsertopptak
konsertopptaka
konsertutga
konsertversjon
konsertversjonar
konservativ
konservative
konservativt
konservatoriet
konsesjon
konsilet
konsistens
konsollen
konsonant
konsonantane
konsonantar
konsonanten
konsson
konstans
konstant
konstante
konstanten
konstantin
konstantinopel
konstantius
konstanz
konstituert
konstitusjonelt
konstitusjonskomite
konstitusjonskomiteen
konstruere
konstruert
konstruerte
konstruksjon
konstruksjonar
konstruksjonen
konsul
konsular
konsulent
kontakt
kontakta
kontaktar
kontakten
kontekst
kontinent
kontinenta
kontinental
kontinentale
kontinentalklima
kontinentalsokkel
kontinentalsokkelen
kontinentalt
kontinentet
kontinuerleg
kontinuerlege
kontor
kontoret
kontrabass
kontrakt
kontrakten
kontrapunkt
kontrast
kontreadmiral
kontroll
kontrollen
kontrollera
kontrollere
kontrollerer
kontrollert
kontrollerte
kontrovers
kontroversar
kontroversiell
kontroversielle
kontroversielt
konveksjon
konvensjonelle
konvensjonen
konversationsleksikon
konvertert
konverterte
konvoi
konvoien
konya
kooper
koordinatane
koordinatar
koordinatsystem
kopar
kopervik
kopi
kopiar
kopiert
kopierte
kopla
kople
kopling
kopp
koppar
koptiske
kor
koral
korallrev
koraltemaet
koranen
korc
korea
koreakrigen
koreansk
koreanske
koren
koreografi
koret
korg
korger
korgplantefamilien
korhonen
korint
korkje
korleis
korn
korna
korner
kornet
kornisk
koronaviruset
koronaviruspandemien
koronavirusutbrotet
korovin
korps
korpset
korrekt
korrekte
korrespondanse
korrespondent
korrupsjon
kors
korsika
kort
korta
kortare
kortaste
kortchmar
korte
kortfilm
kortfilmar
kortfilmen
kortform
kortformer
korthekken
kortliva
kortnamn
kortvarig
kortvarige
korvald
korvokal
korvokalist
kos
kosakkar
kosmisk
kosmologi
kosmos
kosovo
koss
kost
kosta
kostar
kostbar
kostbare
kosten
kosthald
kosthaldet
kostnad
kostnadane
kostnaden
kostnadene
kostroma
kostyme
koura
kova
koza
kpolitikk
kr
kra
krabbar
krabbe
kraft
krafta
kraftfulle
kraftig
kraftigare
kraftigaste
kraftige
kraftstasjon
kraftstasjonen
kraftverk
kraftverket
kraftwerk
krag
krage
kragerø
kraj
krako
krall
kramer
kramnik
krangel
krangla
krangling
krar
krasnodar
krasnojarsk
krater
krateret
kratt
krattskog
krauss
krautrock
krav
krava
kravd
kravde
kravet
kravomra
kreativ
kreative
kreditert
kreft
kreftene
krefter
kreis
krem
kreml
kreolspra
krepsdyr
kreta
krets
kretsar
kretsen
kreutzmann
krev
krevja
krevjande
krevje
krf
krieger
krig
krigane
krigar
krigarane
krigarar
krigen
krigføring
krigføringa
krigsa
krigsfangar
krigsskip
krigsutbrotet
krim
krimhalvøya
kriminalforfattarar
kriminalitet
kriminalroman
kriminelle
krimkrigen
kring
kringkasta
kringkastar
kringkastaren
kringkasting
kringkastingsunionen
kringliggande
kringliggjande
kringom
kringsetjing
kringsetjinga
kringsett
kringsette
krins
krinsane
krinsar
krinsen
kris
krisa
krise
kriser
krisjna
kristeleg
kristelege
kristen
kristendom
kristendomen
kristendommen
kristensen
kristent
kristi
kristian
kristiania
kristians
kristiansand
kristiansen
kristiansund
kristin
kristina
kristine
kristna
kristne
kristofer
kristoffer
kristoffersen
kristofferson
kristus
krit
kriteria
kriterium
kritikar
kritikarane
kritikarar
kritikaren
kritikarprisen
kritikarrost
kritikarroste
kritikerprisen
kritikk
kritikkar
kritikken
kritiserer
kritisert
kritiserte
kritisk
kritiske
krittida
kro
kroatar
kroatia
kroatisk
kroatiske
krog
krogh
krohg
krohn
krok
kroken
kromosom
krona
kronblad
kronborg
krone
kroner
kroninga
kronisk
kronobergs
kronologisk
kronprins
kronprinsen
kronprinsesse
kropp
kroppen
kroppsdelar
kroppslengd
kroppslengda
kross
krossar
krossen
krossfararane
krossfararar
krossfestinga
krosskyrkje
krosskyrkjer
krosstog
krosstoga
krosstoget
kru
krum
kruse
krusifiks
krut
krydder
krydra
krypdyr
kryss
kryssa
kryssar
krysse
krysset
kryssing
kryssinga
krystall
krystallar
krystalliserer
krødsherad
krønika
krønike
ks
kt
ku
kua
kubikkmeter
kudu
kuke
kula
kulde
kule
kuleforma
kuler
kulestøyt
kulestøytarar
kuling
kull
kullet
kulminerte
kult
kultur
kulturane
kulturar
kulturarv
kulturdepartementet
kulturell
kulturelle
kulturelt
kulturen
kulturhistorie
kulturhistorisk
kulturhistoriske
kulturhus
kulturkanonen
kulturlandskap
kulturliv
kulturlivet
kulturminne
kulturminner
kulturnett
kulturpris
kulturra
kultursenter
kumamoto
kun
kundane
kundar
kunde
kungliga
kungsbacka
kunkel
kunna
kunne
kunngjorde
kunngjort
kunnskap
kunnskapar
kunnskapen
kunnskapsforlaget
kunst
kunstakademi
kunstakademiet
kunsten
kunstforening
kunstgalleri
kunsthandverk
kunsthistorie
kunstig
kunstige
kunstindustrimuseum
kunstindustriskole
kunstløp
kunstma
kunstmuseum
kunstnar
kunstnarane
kunstnarar
kunstnaren
kunstnarisk
kunstnariske
kunstnerisk
kunstneriske
kunstnerleksikon
kunstrock
kunstverk
kupert
kuperte
kupp
kuppel
kuppelen
kuppelforma
kuppet
kur
kurdarar
kurdisk
kurdiske
kurdistan
kurfyrste
kurfyrstedømet
kurfyrsten
kurgan
kurilane
kurland
kurs
kursen
kursiv
kursk
kurt
kurva
kurve
kurver
kusama
kusatsu
kutta
kutte
kuwait
kuwaitiske
kv
kva
kvad
kvadet
kvadrat
kvadratisk
kvadratkilometer
kvadratmeter
kval
kvalar
kvalba
kvalen
kvalfangarar
kvalfangst
kvalheim
kvalifisere
kvalifisering
kvalifiseringa
kvalifiseringskamp
kvalifisert
kvalifiserte
kvalitet
kvalitetar
kvaliteten
kvalsund
kvaløya
kvam
kvanndal
kvantemekanikk
kvantemekanikken
kvar
kvarandre
kvardagen
kvarkar
kvart
kvartal
kvarter
kvarteret
kvartett
kvartetten
kvartfinalane
kvartfinalar
kvartfinalen
kvarts
kvass
kveg
kveite
kveld
kveldar
kvelden
kven
kvensk
kverneland
kvernes
kvifor
kvik
kvikksølv
kvikne
kvile
kviler
kvinesdal
kvinna
kvinne
kvinnelandslag
kvinneleg
kvinnelege
kvinnenamn
kvinnene
kvinner
kvinnerørsla
kvinnherad
kvint
kvintett
kvistar
kvit
kvite
kviterussisk
kviterussiske
kviterussland
kviteseid
kvitlauk
kvitsjøen
kvitskap
kvitsøy
kvitt
kvæfjord
kvænangen
kværner
kw
ky
kyal
kyiv
kykladane
kyle
kylie
kylling
kyoto
kypriotiske
kypros
kyr
kyrie
kyrillisk
kyrilliske
kyrka
kyrkja
kyrkje
kyrkjea
kyrkjebygg
kyrkjebygga
kyrkjebygget
kyrkjebø
kyrkjebøker
kyrkjedepartementet
kyrkjegard
kyrkjegarden
kyrkjeklokker
kyrkjekomiteen
kyrkjeleg
kyrkjelege
kyrkjelyd
kyrkjelyden
kyrkjemusikk
kyrkjemøtet
kyrkjene
kyrkjer
kyrkjerommet
kyrkjesamfunn
kyrkjesokn
kyrkjesongar
kyrkjestad
kyrkjestaden
kyrkjestader
kyrkjestaten
kyrkjesøk
kyrkjeta
kyros
kyrre
kyst
kystane
kystar
kystbusetnader
kystby
kystbyen
kysten
kystkultur
kystlinja
kystlinje
kystnære
kystomra
kystsletta
kystvakta
københavn
københavns
køyra
køyrd
køyrde
køyre
køyrer
køyretøy
køyretøyet
køyring
køyrt
køyrte
l
la
lab
label
labelle
laboratoriet
laboratorium
laboratory
labour
labrador
labyrinth
lac
lacy
lad
lada
ladd
ladde
lade
ladejarl
laden
ladies
ladning
ladningar
ladoga
lady
lafresnaye
lafta
lag
laga
lagabøte
lagar
lagast
lagd
lagde
lagdelt
lage
lager
lagerlo
laget
laghopp
laghopping
lagkameratane
lagkamp
lagkaptein
lagmannsrett
lagnad
lagnaden
lago
lagoon
lagoppstillingane
lagos
lagra
lagrar
lagrast
lagre
lagring
lagt
lagtempo
lagtevling
lagtevlinga
lagtinget
laguna
lagunen
lahore
lahti
lahtis
lai
laila
laine
laiv
lake
lakes
lakoni
laks
lakselv
laksen
lakseva
lalo
lam
lama
lamb
lambda
lambert
lament
lamm
lamma
lampe
lan
lanarkshire
lancashire
lancaster
land
landa
landar
landareal
landarealet
landau
landbruk
landbruket
landbruksdepartementet
landbruksforlaget
landbrukshistorie
landbrukshøgskule
landbrukskomiteen
landbruksskule
lande
landegrensa
landegrenser
landemerke
landessternwarte
landet
landets
landevegssykling
landfast
landformer
landing
landjorda
landkommunane
landkommunar
landkommune
landkommunen
landkreis
landleg
landlege
landma
landmark
landna
landomra
landon
lands
landsby
landsbyane
landsbyar
landsbybuarane
landsbyen
landsbygda
landscape
landschaft
landsdelen
landsforbund
landsforening
landsgymnas
landskamp
landskampar
landskampen
landskap
landskapa
landskapet
landskapsma
landskapsvernomra
landskommun
landskvinna
landslag
landslaget
landslagsdebut
landslagsma
landslagssjef
landslagsspel
landslagsspelarar
landslagstrenar
landsma
landsmann
landsmannen
landsmennene
landsmøtet
landsstyret
landssvik
landstad
landstads
landtunge
lane
lang
langa
langdistanse
langdistanseløpar
langdistanseløparar
lange
langeland
langesund
langesundsfjorden
langeva
langfjorden
langhekken
langkyrkje
langkyrkjer
langle
langobardane
langrenn
langrennar
langrennsløpar
langrennsløparar
langs
langsam
langsame
langsamt
langsetter
langsga
langsmed
langstrekt
langt
language
languages
languedoc
langvarig
langvarige
langøya
lanius
lanka
lanois
lanseringa
lansert
lanserte
lanzarote
laos
laplace
lapp
lappland
lapse
laptevhavet
lar
lara
larane
larar
lardal
laren
large
largo
lark
larkin
larkunst
larkunsten
larry
lars
larsen
larson
larsson
larus
larvane
larvar
larvik
larviks
las
laser
lasker
lass
lasse
lassen
lasso
last
lasta
laste
lastebil
lastebilar
lasteevna
lasterommet
lasteskip
lasting
lat
lata
latakia
late
latent
later
latham
latimer
latin
latinamerikansk
latinamerikanske
latinsk
latinske
lattakia
latter
latvia
latvisk
latviske
laughing
lauk
lauper
laupet
laura
laurdag
laurdagen
lauren
laurence
laurent
laurentius
laurie
lauritz
lauritzen
laus
lausanne
lausare
lause
laust
laut
lauv
lauvskog
lauvtre
lav
lava
lavaen
lavangen
lavastraumar
lavik
law
lawrence
laws
lawson
lay
layer
layla
lazio
lb
lc
ld
ldots
le
lea
leach
lead
leader
leadon
leaf
league
leah
leann
lear
learning
leary
least
leather
leave
leaves
leaving
lebanon
leben
lebesby
lech
lectures
led
leda
ledd
ledda
leddet
leddyr
leder
ledig
ledige
lee
leeds
leer
lefkos
left
leg
legacy
legal
leganger
legar
legat
lege
legen
legend
legenda
legendarisk
legendariske
legendary
legende
legender
legends
legeringar
legg
legga
leggast
legge
leggja
leggjast
leggje
legion
legionen
lego
legs
lei
leia
leiande
leiar
leiarane
leiarar
leiaren
leiarskap
leiarskapen
leiber
leibniz
leicester
leicestershire
leichtathletik
leid
leidd
leidde
leiden
leie
leier
leif
leigd
leigde
leige
leigesoldatar
leigh
leiing
leiinga
leik
leikane
leikanger
leikar
leiketøy
leilegheit
leilegheita
leine
leining
leiningar
leinstrument
leipzig
leir
leira
leirane
leirar
leire
leiren
leirfjord
leirvik
leis
leit
leita
leite
leith
leiting
leiv
leivningane
leivningar
lek
leka
lekam
lekamane
lekamar
lekamen
lekk
lekkasje
leksikon
leksvik
lektor
leland
lem
lemeso
lemon
len
lena
lende
lene
lenet
lengd
lengda
lengde
lengdegrad
lengdehopp
lengdehopparar
lengdeløp
lengder
lenge
lenger
lengje
lengre
lengst
lengste
lenin
leningrad
lenk
lenkje
lenkjer
lennart
lennon
lennox
lenny
lens
lensmann
lenvik
leo
leon
leonard
leonardo
leone
leonhard
leonid
leonis
leopard
leopold
lepontinske
leppard
lepus
ler
lerenga
leri
leria
leriet
leroy
lerret
les
lesa
lesarane
lesarar
lesaren
lesast
lese
lesen
lesh
lesida
lesing
lesja
lesley
leslie
lesne
lesotho
less
lesser
lessing
lesson
lest
lester
lestokk
lesund
let
lett
letta
lettare
lettast
lettaste
lette
letter
letterman
letters
lettres
lettvekt
leukemi
lev
leva
levande
levanger
levanten
levd
levde
leve
levea
levealder
leveka
level
levema
levende
leveomra
lever
levera
levere
leverer
levering
leverkusen
levert
leverte
levesett
levetid
levetida
levevis
levi
levin
levine
levka
levkosi
levon
levra
levy
lew
lewis
lex
lexicon
lexikon
lez
lezhe
lfolk
lforma
lføre
lg
lga
li
lia
lian
liaoning
libanesisk
libanesiske
libanon
libanonfjella
liber
liberal
liberale
liberec
liberia
liberty
library
libretto
librettoen
libris
libya
lichtenstein
lid
lide
liding
lidingar
lie
liebe
liechtenstein
lied
lieder
lien
lier
lierne
lies
liestøl
life
lifetime
liga
ligacupen
ligaen
ligameister
ligg
liggande
ligge
ligger
liggja
liggjande
liggje
light
lighthouse
lightning
lights
liguria
lik
lika
likar
like
likeeins
likeins
liker
likestilling
liket
likevekt
likevel
likna
liknande
liknar
likne
likning
likninga
likningane
likningar
liks
likskap
likskapar
likskapen
liksom
likt
likte
lil
lill
lilla
lille
lillebjørn
lillehammer
lillesand
lillestrøm
lillian
lilly
lily
lim
lima
lime
limerick
limited
limits
lin
lina
lincoln
lincolnshire
lind
linda
lindberg
lindbergh
lindeman
linden
lindesnes
lindgren
lindisfarne
lindley
lindsay
lindsey
lindstøl
line
linear
linene
liner
lines
lineær
lineære
lineært
ling
linga
lingane
lingar
linge
lingua
linguistic
linguistics
lingvist
lingvistar
lingvisten
lingvistikk
lingvistisk
lingvistiske
linja
linje
linjene
linjer
linjeskip
link
linko
links
linn
linnaeus
linne
linsa
linse
linser
linstow
linus
linux
linz
lio
lion
lionel
lions
lippe
lips
lis
lisa
lisbeth
lisboa
lise
lisens
lisensen
lisensiert
list
lista
listar
liste
listeførte
listen
listene
listening
listeplasseringar
lister
liszt
lit
lita
litauen
litauisk
litauiske
lite
liteleg
litelege
liten
liter
literary
literatur
literature
litle
litt
litteratur
litteraturen
litteraturhistorie
litteraturkritikar
litteraturpris
litteraturprisar
litteraturvitskap
litterær
litterære
litterært
little
liturgi
liturgien
liturgisk
liturgiske
liu
liv
liva
livba
live
liverpool
lives
livet
livets
livgren
livin
living
livingston
livingstone
livland
livleg
livlege
livnærte
livs
livskraftig
livssoge
livsstil
livsstilen
livssyn
livstid
liwa
lix
liz
liza
lizard
lizzy
lja
lje
ljos
ljoset
ljubljana
ljudmila
ll
lla
llag
llaget
lle
ller
llet
llivare
llosa
lloyd
llyn
lm
lmann
lmenta
ln
lo
loa
loaded
loaf
lobos
local
locality
locatelli
loch
lock
locke
lockheed
loco
lodd
loddrett
lodge
lodger
lodi
loen
lofgren
lofoten
lofthus
log
logaland
logan
loggins
logic
logikk
logisk
logiske
logistikk
logo
logoen
loir
loire
lojal
lojale
lojalitet
lok
lokal
lokala
lokalavis
lokalavisa
lokalaviser
lokale
lokalhistorie
lokalhistoriewiki
lokalhistorikar
lokalhistorisk
lokalhistoriske
lokalisert
lokallag
lokalpolitikar
lokalpolitikarar
lokalsamfunn
lokalsamfunnet
lokalt
lokativ
loke
lokka
lokomotiv
lola
lom
lomax
lombardia
lomma
lomond
london
londonderry
lone
lonely
lonesome
long
longman
longyearbyen
lonnie
look
lookin
looking
looks
loose
lopez
loppa
lord
lorentz
lorentzen
lorenz
lorenzo
loretta
lorraine
los
lose
losing
losna
loss
lost
lot
lothar
lothe
lothian
lotta
lotte
lotus
lou
loubet
loud
lough
loughnane
louie
louis
louise
louisiana
lounge
louvre
lov
lova
lovande
lovane
lovar
lovbrot
lovdata
lovde
love
loved
lovely
loven
lovene
lover
lovers
loves
lovfesta
lovgjevande
lovgjeving
lovin
loving
lovisa
lovleg
lovlege
lovnad
lovord
lovverk
lovverket
low
lowe
lowell
lower
lp
lrørsla
ls
lsd
lselv
lsforbundet
lsforfattarar
lsingland
lsk
lska
lsson
lstreken
lswikipedia
lswikipediaen
lt
ltd
lte
ltid
ltidet
lu
luc
luca
lucas
lucca
lucia
luciano
lucius
luck
lucky
lucy
ludlow
ludvig
ludvigsen
ludvika
ludwig
luft
lufta
luftfart
luftfartøy
luftforsvaret
luftforureining
luftfoto
lufthamn
lufthamna
lufthavn
luftmassar
luftskip
luftskipet
luftstraumen
lufttrykk
lufttrykket
luftwaffe
lugano
luhansk
lui
luigi
luis
luk
luka
lukas
lukather
luke
lukka
lukkar
lukkast
lukke
lukkeleg
luksusutga
lukt
lukta
lulea
lulesamisk
lullaby
lully
lulu
luna
lunch
lund
lundberg
lunde
lundefugl
lunden
lunds
lune
lungdom
lunge
lungebetennelse
lungega
lungekreft
lungene
lunner
lupus
lur
lura
lure
lurt
lurte
lurøy
lust
luster
luten
luther
luthersk
lutherske
lutt
luxembourg
luxemburg
luzern
lv
lvakt
lvakta
lvakter
lven
lviv
ly
lycksele
lyd
lydane
lydar
lydband
lydbanda
lydbandet
lydbilete
lydbiletet
lydbølgjer
lydde
lydeffektar
lyden
lyder
lydia
lydkort
lydopptak
lydspor
lydsporet
lydteknikar
lydteknikarar
lydteknikaren
lyfta
lykkast
lykke
lyle
lyn
lynch
lyng
lyngdal
lyngen
lynn
lynne
lynnedslag
lynx
lynyrd
lyon
lyons
lyra
lyrics
lyrikar
lyrikarar
lyrikaren
lyrikk
lyrikken
lyrisk
lyriske
lys
lysa
lysaker
lysande
lysare
lyse
lysefjorden
lyser
lyset
lysfarten
lyssterk
lyssterke
lysstra
lysstyrke
lysstyrken
lyst
lyste
lyt
lytta
lyttarane
lyttarar
lyttaren
lytte
lyttelton
lækjar
lækjemiddel
læra
lærar
lærarane
lærarar
læraren
lærarskule
lærarutdanning
lærd
lærdal
lærde
lærdom
lære
lærebok
lærebøker
lærer
læring
lærling
lært
lærte
læte
lætet
lødingen
løfta
løfte
løken
løkken
løland
løn
løna
løndal
lønn
lønning
løp
løpar
løparane
løparar
løpet
lørdag
lørenskog
løten
løva
løve
løvenskiold
løver
løvland
løy
løynd
løynde
løyndom
løypa
løype
løypelengd
løysa
løysast
løyse
løyser
løysing
løysinga
løysingar
løyst
løyste
løytnant
løyve
m
ma
maa
maakond
maas
maastricht
mac
macbeth
macdonald
machida
machine
machines
macht
macintosh
mack
mackay
mackenzie
mackintosh
maclean
macleod
macmillan
macneil
mad
madaba
madagaskar
madame
maddy
made
madeira
madeleine
madinah
madinat
madison
madness
madonna
madras
madre
madrid
madrigalar
mads
madsen
mae
mael
maestro
mag
magadan
magasin
magasinet
magazine
magdalena
magdalene
magdeburg
mage
magen
magesekken
magga
maggie
maggiore
magi
magic
magical
magisk
magiske
magma
magn
magna
magnar
magne
magnesium
magnesiummineral
magnet
magnetfelt
magnetfeltet
magnetic
magnetisk
magnetiske
magnetisme
magnhild
magnus
magnusson
mahal
maharashtra
mahatma
mahmud
mai
maid
maiden
maier
maihaugen
mail
main
maine
mainland
mainstream
mainz
mais
maison
maj
maja
majdal
majestet
majesty
major
majoris
majoritet
majoriteten
majorstuen
make
makedoni
makedonia
makedonsk
makedonske
maker
makes
making
makkah
maks
maksim
maksimal
maksimale
maksimalt
maksimum
makt
makta
maktene
makter
mal
mala
malangen
malaria
malawi
malayalam
malaysia
malcolm
male
malevitsj
malfang
malherbe
mali
malignum
malik
malin
mall
mallet
mallorca
malm
malmo
malo
malone
malt
malta
maltesisk
maltesiske
malvik
mama
mamas
mamelukk
mamelukkane
mamma
man
mana
management
manager
manageren
manama
manawatu
mancha
manchester
mancini
manco
mandag
mandal
mandals
mandarin
mandat
mandatet
mandatstyresmaktene
mandel
mandela
mandlar
mandolin
manduca
manfred
manga
mangan
mange
mangea
mangekamp
mangekjemparar
mangel
mangelen
manger
mangfald
mangfaldet
mangfaldig
mangfaldige
mangla
manglande
manglar
manglerud
mango
manhattan
manhattanprosjektet
mani
manifest
manila
manilow
manitoba
mann
manne
mannen
mannheim
manning
mannleg
mannlege
manns
mannsa
mannskap
mannskapet
mannskor
mannsnamn
mannsnamnet
manor
mans
mansfield
mansijsk
manson
mansur
mantelen
mantova
manu
manual
manuel
manuell
manuelt
manus
manuset
manusforfattar
manuskript
manuskripta
manuskriptet
many
manzanera
manzarek
mao
maori
maoriane
maoriar
map
mapping
maps
mar
mara
maracas
marathi
marathon
maraton
marble
marc
marcel
march
marche
marco
marconi
marcos
marcus
mardin
mare
maren
margaret
margareta
margarita
margin
margit
margrete
margrethe
marguerite
mari
maria
mariah
mariakyrkja
marian
marianne
marias
marie
marienlyst
marihandfamilien
marihuana
marija
marillion
marilyn
marimba
marin
marina
marine
marinebase
marinefartøy
marinen
marineoffiser
mariner
marino
marinos
marint
mario
marion
marit
marita
maritim
maritime
maritimt
marius
mark
marka
markant
markante
marked
marker
markera
markere
markerer
markering
markeringa
markeringar
markert
markerte
market
markham
marki
markien
marknad
marknaden
marknader
marknadsby
marknadsføre
marknadsføring
marknadsføringa
marknadsført
marknadsførte
marks
markus
marlborough
marlene
marley
marmarahavet
marmor
marnardal
marne
marokkansk
marokkanske
marokko
maronittiske
maroon
marquee
marquis
marr
marriage
mars
marsalis
marsden
marseille
marsh
marshall
marsj
marsjen
marsjere
marsjerte
marskalk
marta
marte
martha
marti
martin
martina
martinique
martino
martins
martinsen
martinus
marty
martyn
martyr
marvin
marx
marxistisk
mary
maryland
mas
masaryk
masfjorden
mask
maske
maskene
masker
maskin
maskina
maskinane
maskinar
maskinen
maskinene
maskiner
maskingevær
maskinomsette
maskinvare
mason
mass
massachusetts
massacre
massakre
massakren
massakrerte
massane
massar
masse
massen
massey
massif
massiv
massive
massivet
massivt
mast
masta
master
mastergrad
mastering
masters
mastra
mat
mata
matar
matchvinnar
mate
mateh
matematikar
matematikarar
matematikaren
matematikk
matematikken
matematisk
matematiske
maten
mater
material
materiala
materialar
materiale
materialet
materials
materie
materiell
materielle
mathbb
mathbf
mathcal
mathematical
mathematics
mathews
mathias
mathilde
mathis
mathisen
mathrm
matias
matilda
matlaging
matn
matre
matrikkelen
matrikkelgard
matrikkelgardar
matrikkelgarden
matrise
matrix
mats
matsumoto
matt
mattacks
matter
matterhorn
matteus
matthew
matthews
matthias
matti
mattias
matvarer
mau
maud
maudfjella
maudheimekspedisjonen
maur
maurarane
maureen
maurfuglar
maurfuglfamilien
maurice
mauritania
mauritius
maurstad
mausoleet
mausoleum
mawson
max
maxentius
maxi
maximianus
maximilian
maximus
maxwell
may
maya
mayaene
mayall
mayaspra
maybe
mayen
mayer
maynard
mayo
mazandaran
mb
mbox
mc
mca
mcbrain
mcbride
mccarthy
mccartney
mccarty
mccaslin
mccormick
mccoy
mcculloch
mcdonald
mcdonaldøyane
mcentire
mcfarland
mcgarrigle
mcgee
mcgraw
mcguinn
mckay
mclaren
mclaughlin
mclean
mcmurdo
mcvie
md
me
mea
meadows
mean
meaning
meat
mechanics
mecklenburg
med
medal
medaljane
medaljar
medalje
medaljen
medaljevinnarane
medaljevinnarar
medals
medan
medarbeidar
medarbeidarar
medeigar
medforfattar
medfødd
medfødde
medfølgjande
medføre
medfører
medførte
medhald
media
medical
medici
medicine
mediet
medieval
medikament
medina
medisin
medisinar
medisinsk
medisinske
meditasjon
medium
medla
medlem
medlemane
medlemar
medlemene
medlemer
medlemmane
medlemmar
medlemmen
medlemmene
medlemmer
medlemmet
medlemskap
medlemsland
medlemslanda
medley
medprodusent
medredaktør
medrekna
medverka
medverkande
medverkar
medverke
medvit
medvite
medvitet
meet
meeting
meets
meg
mega
meget
mehmet
meieri
mein
meine
meiner
meinhof
meining
meininga
meiningar
meint
meinte
meir
meisner
meister
meisteren
meisterligaen
meisterskap
meisterskapane
meisterskapen
meistertittelen
meisterverk
meistra
meistrar
mek
mekanikar
mekanikk
mekanisk
mekaniske
mekanismar
mekanisme
mekka
meksikansk
meksikanske
mektig
mektigaste
mektige
mel
meland
melanie
melbourne
melcher
melchior
meld
meldal
melde
melding
meldinga
meldingane
meldingar
meldt
meldte
melhus
melissa
mellersta
mellom
mellomalder
mellomalderen
mellomalderkyrkja
mellomalderske
mellombels
mellombelse
mellomdistanseløparar
mellomkrigstida
mellomrom
mellomspel
mellomspelet
mellomstor
mellomstore
mellomtida
mellotron
mellow
melodi
melodiane
melodiar
melodien
melodifestivalen
melodisk
melodiske
melody
melsom
melville
meløy
members
membran
membranen
memoirs
memorial
memories
memory
memphis
men
mendel
mendelssohn
mendes
mengd
mengda
mengde
mengdene
mengder
menighet
menighetsfakultetet
menn
mennene
menneska
menneske
menneskekroppen
menneskeleg
menneskelege
menneskeliv
mennesker
menneskerettane
menneskerettar
menneskeskapte
mennesket
menneskja
menneskje
menorca
mens
mensch
mental
mentale
mentor
menuett
mer
mera
mercedes
mercer
merchant
mercia
mercury
mercy
mere
merete
meridianen
merittar
merk
merka
merkar
merkbart
merke
merkedag
merkeleg
merker
merket
merknad
merknadar
merknader
merksam
merksemd
merksemda
merkt
merkte
merkur
merkverdig
merle
merry
mersey
mersin
mes
mesa
meson
mesopotamia
mesozoikum
messa
message
messe
messenger
messer
messias
messier
messina
messing
messingbla
messini
mest
mesta
meste
mesteparten
mestseljande
met
meta
metacritic
metafor
metal
metall
metallet
metallica
metallisk
metamorfe
metan
meteor
meteorittar
meteoritten
meteorolog
meteorologar
meteorologi
meteorological
meteorologisk
meteorologiske
meteorology
meter
meteren
meters
metheny
metodane
metodar
metode
metoden
metro
metropolitan
metta
mette
metz
mexicanske
mexico
mexicogolfen
meyer
meyers
mf
mg
mgm
mgp
mhnt
mhz
mi
mia
miami
mic
mich
michael
michel
michelangelo
michele
michelet
michelle
michelsen
michigan
mick
mickey
mickie
microsoft
mid
midas
middag
middel
middelalder
middelalderen
middelhavet
middelhavsklima
middelhavslanda
middelhavsomra
middels
middeltemperatur
middeltemperaturen
middelvassføring
middelvassføringa
middle
middlesbrough
middleton
midgard
midge
midi
midla
midland
midlands
midlar
midlare
midler
midnatt
midnight
midsund
midt
midtausten
midtbane
midtbanen
midtbanespelar
midtbyen
midten
midtjylland
midtpunkt
midtpunktet
midtre
midtstoppar
midttun
midtvegs
midtvesten
mie
mig
might
mighty
migrasjon
migration
miguel
mika
mikael
mike
mikhail
mikkel
mikkelsen
mikko
mikrofon
mikrofonar
mikrofonen
mikroorganismar
mikroskop
miks
miksa
miksar
mikse
miksen
miksing
mil
mila
milan
milano
mild
mildare
milde
mildt
mile
milepa
miles
milestone
miletos
milford
militante
military
militsen
militær
militærbase
militærdistrikt
militære
militæret
militærkomiteen
militærkupp
militærlege
militært
militærtenesta
militærteneste
militærvesen
miljø
miljøet
miljøproblem
miljøvern
miljøverndepartementet
milk
mill
millennium
miller
milliard
milliardar
millimeter
million
millionar
millioner
millom
mills
milne
milorg
milos
milt
milton
milwaukee
mime
mimi
min
mina
mind
minde
mindre
mindrea
mindretal
minds
mine
miner
mineral
minerala
mineralet
mineralogi
minerva
ming
mingus
mini
miniatyr
minimal
minimale
minimoog
minimum
minister
ministeren
ministrar
ministry
mink
minka
minkande
minkar
minke
minna
minnar
minnast
minne
minneapolis
minnedag
minneord
minner
minnesmerke
minnesmerket
minnesota
minnestein
minnet
minneverdige
minogue
minor
minoris
minoritet
minoritetar
minoriteten
minoritetsspra
minsk
minska
minske
minst
minste
mint
minus
minute
minutt
minuttar
minuttars
minuttet
mio
miocen
mir
mira
miracle
miracles
mirage
mirakel
miranda
miriam
mirror
mirrors
misbruk
misforsta
misjon
misjonær
misjonærar
misjonæren
mislikte
mislukka
mislukkast
mislykka
misnøgd
misnøgde
misnøye
miss
missa
missil
missile
missilet
missing
mission
mississippi
missouri
mist
mista
mistanke
mistar
miste
mistenkt
mistenkte
mister
mit
mitch
mitchell
mito
mitt
mittelland
mix
mixed
mja
mjelde
mjo
mjuk
mjukare
mjuke
mjukt
mjøl
mjølk
mjølka
mjølkeproduksjon
mjølkeprodukt
mjølkevegen
mjøndalen
mjøsa
mk
ml
mli
mm
mn
mo
moa
mobil
mobile
mobiltelefonar
moby
mod
modalen
mode
model
modell
modellane
modellar
modellen
modena
moder
moderat
moderate
modern
moderne
modernisering
modernisert
modernismen
modernistiske
modest
modi
modifisert
modifiserte
modig
modne
modular
modum
modus
moe
moen
moerlen
mogeleg
mogelege
mogleg
moglege
moglegheit
moglegheita
moglegheiter
moglegvis
mogne
mogulriket
moh
mohamed
mohammad
mohammed
mohn
mohr
moi
mojo
mol
moland
moldavia
molde
moldova
moldovske
mole
molecular
molekyl
molekyla
molekylet
molina
moll
molland
molly
molotov
moltke
moment
moments
mon
mona
monaco
monaleg
monark
monarkane
monarkar
monarken
monarki
monarkiet
monday
monde
monet
money
mongolane
mongolar
mongolia
mongolsk
mongolske
monica
monika
monk
monkees
monkey
monkman
monn
mono
monogame
monogram
monokline
monolog
monopol
monotypisk
monrad
monroe
mons
monsen
monster
monsters
monsunen
mont
montana
montcalm
monte
montedio
montenegrinsk
montenegrinske
montenegro
monterey
montert
monterte
monteverdi
montevideo
montgomery
montmartre
montpellier
montreal
montreux
montrose
montserrat
monty
monument
monumenta
monumentale
monumentet
monuments
mood
moods
moody
moog
moon
mooney
moonlight
moor
moore
mor
mora
moral
moralen
morales
moralsk
moralske
moran
morava
moray
mord
mordet
mordvinsk
more
moren
morene
moreno
morfem
morfologi
morfologisk
morfologiske
morgan
morgen
morgenbladet
morges
morgon
morgonen
morioka
moritz
mork
morley
mormor
morning
moro
moroder
morris
morrison
morrissey
morrow
mors
morse
morsma
mort
morten
mortensen
mortensson
morton
mos
mosafinn
mosaikk
mosambik
mosar
moscow
mose
mosebok
mosel
moselle
moses
moshav
moshavar
moshaven
moshe
mosjøen
moske
moskear
moskeen
moskenes
moskva
mosque
moss
most
moster
mosul
mot
mota
motala
mote
moten
motet
motettar
mother
mothers
motion
motiv
motiva
motivet
moto
motor
motorane
motorar
motorba
motoren
motoriserte
motors
motorsager
motorskip
motorsport
motorsykkel
motorsyklar
motorveg
motorvegen
motown
motsetnad
motsetning
motsett
motsette
motsta
motstand
motstandar
motstandarane
motstandarar
motstandaren
motstanden
motstandsmann
motstandsrørsla
motstridande
mott
motta
mottakar
mottakarar
mottakaren
mottaking
mottar
mottatt
mottek
motteke
motteken
mottoet
mottok
motverka
motverke
motvillig
motzfeldt
mount
mountain
mountains
mouse
mouth
mouton
move
movement
moves
movie
movies
moving
mowinckel
mozart
mp
mps
mr
mrd
mrenn
mrs
ms
mt
mtland
mtlands
mtv
mu
mubarak
much
mud
muddy
mudra
mug
muh
muhammad
muhammed
muharraq
muir
muldaur
mule
muleg
mull
mullen
mulligan
multi
multimedia
multiple
multiplikasjon
mumbai
mumiar
mun
munch
mundi
municipalities
municipality
municipiu
munk
munkane
munkar
munken
munn
munnar
munnen
munningen
munnleg
munnlege
munnspel
munro
munt
munthe
mur
mura
murane
murar
murat
murcia
murder
muren
muri
murmansk
murphy
murray
murstein
mus
musa
muscat
muscle
muse
musea
museet
museo
museum
museums
music
musica
musical
musician
musicians
musik
musikal
musikalar
musikalen
musikalsk
musikalske
musikar
musikarane
musikarar
musikaren
musikk
musikkalbum
musikkarrieren
musikken
musikkformer
musikkgruppa
musikkgruppe
musikkgrupper
musikkindustrien
musikkinstrument
musikkmagasinet
musikkmiljøet
musikkonservatoriet
musikkpressa
musikkpris
musikkprodusent
musikksjangrar
musikkstil
musikkstilar
musikkstilen
musikkstykke
musikkteori
musikktevlingar
musikkverk
musikkvideo
musikkvideoar
musikkvideoen
musikkvitenskap
musique
muskelen
musklane
musklar
muslim
muslimane
muslimar
muslimsk
muslimske
muslingar
mussolini
must
mustafa
mv
mw
my
myanmar
mycena
myers
myggar
myhre
myhren
mykje
mykland
myklebust
myllarguten
mynde
myndigheitene
mynt
myntane
myntar
mynten
myotis
myr
myra
myrar
myrda
myrdal
myrene
myrer
myrlendt
myromra
myself
myspace
mysteriekammeret
mysteriet
mysterium
mystery
mystic
mystisk
mystiske
mytar
myte
myten
myter
myth
mythology
mytisk
mytiske
mytologi
mytologien
mytologiske
mæ
møbel
møblar
mølle
møller
mønster
mønsteret
mønstra
møre
mørk
mørkare
mørke
mørkebla
mørket
mørkret
mørkt
mørland
møta
møtast
møte
møter
møtes
møtest
møtestad
møtet
møtt
møtte
møttest
møy
n
na
naar
nabatieh
nabi
nabla
nablus
naboane
naboar
nabobyen
nabokommunane
nabokommunen
nabokov
nabolag
nabolaget
nabolanda
nabolandet
naboøya
nach
nacht
nacional
nad
nadane
nadar
naden
nadene
nader
naders
nadine
nadir
nadu
nagano
nagasaki
nagorno
nagoya
nahal
nahiya
nahiyah
nai
nails
naipaul
najd
najran
naked
naken
nakenskap
nakke
nakken
nakne
nam
namdal
namdalen
namdalseid
name
names
namibia
namn
namna
namneberarar
namneboka
namnedag
namnet
namngav
namngje
namngjeve
namngjeven
namngjeving
namngjevne
namnsett
namsos
namsskogan
namur
nan
nana
nancy
nane
nanjing
nanna
nannestad
nanny
nansen
nantes
nao
napier
napole
napoleon
napoleonskrigane
napoli
nar
narkotika
narr
narva
narve
narvik
nas
nasa
nasal
nasaret
nase
nasen
nash
nashville
nasjon
nasjonal
nasjonalbiblioteket
nasjonaldagar
nasjonale
nasjonalforsamlinga
nasjonalgalleriet
nasjonalgarden
nasjonalisme
nasjonalismen
nasjonalistar
nasjonalistiske
nasjonalitet
nasjonalmuseet
nasjonalpark
nasjonalparkar
nasjonalparken
nasjonalsong
nasjonalsongar
nasjonalsongen
nasjonalsymbol
nasjonalt
nasjonane
nasjonar
nasjonen
nassau
nasser
nat
natalie
natalja
nathan
nathaniel
nation
national
nationale
nationalmuseet
nationaltheatret
nations
native
nato
natrium
natriummineral
natsionalen
natt
natta
nattehimmelen
natten
nattklubbar
nattverd
nattverden
natur
natural
nature
naturen
naturforskar
naturgass
naturkatastrofar
naturleg
naturlege
naturomra
naturpark
naturreservat
naturreservatet
naturressursar
naturvern
naturvitskap
naturvitskaplege
naud
naudsynt
naudsynte
nauru
naust
naustdal
nautisk
nautiske
nav
naval
navarra
navigasjon
navigatør
navn
navy
nazareth
nazi
nazionale
nazismen
nazistane
nazistiske
nb
nbc
nbl
nbsae
nchen
nchengladbach
nchez
nd
nda
ndag
ndalsnes
nde
ndel
ndeleg
ndelege
nden
nder
ndez
ndverks
ne
nea
neal
near
nebb
nebba
nebbet
nebraska
nebula
neburg
neck
neckar
ned
nedanfor
nedbryting
nedbør
nedbøren
nedbørsmengdene
nedbørsmengder
nedbørsnormal
nede
nedenes
nederlag
nederlaget
nederland
nederlanda
nederlandsk
nederlandske
nederlendarane
nedgang
nedgangen
nedkjempa
nedlagd
nedlagde
nedlagt
nedlasting
nedleggingar
nedover
nedre
nedrykk
nedsetjande
nedsett
nedskrift
nedskrifter
nedskrive
nedskriven
nedskrivne
nedslagsfelt
nedslagsfeltet
nedslagskrater
nedst
nedste
nedstilt
nedteikna
need
needle
needs
negativ
negative
negativt
negev
negevørkenen
negro
nei
neil
neill
nejd
nekrolog
nekta
nektar
nelson
nemleg
nemna
nemnast
nemnd
nemnde
nemne
nemner
nemning
nemninga
nemningane
nemningar
nemnt
nemnte
nen
neo
neon
neoplasma
neotropiske
nepal
neppe
neptun
neptune
ner
nerløkka
nern
nero
nervar
nervesystemet
nes
nesbyen
nesbø
neset
nesheim
nesmith
nesna
nesodden
ness
nesseby
nesset
nest
neste
nesten
nestformann
nestkommanderande
nestleiar
nestor
nesttun
net
netanya
netherlands
nett
nettavisen
netter
nettet
nettkjenningar
netto
nettopp
nettsida
nettside
nettsidene
nettsider
nettstad
nettstaden
nettstader
nettsted
nettutga
nettverk
nettverket
network
neu
neucha
neue
neuf
neumann
neustadt
neva
nevada
neve
never
nevik
neville
nevis
nevø
nevøen
new
newark
newcastle
newfoundland
newman
newport
news
newsletter
newton
newtons
newzealandsk
newzealandske
next
nez
nf
ng
nga
ngc
nge
ngel
ngen
nger
ngermanland
ngs
nh
ni
nia
niagara
niande
niandeplass
niandeplassen
nic
nica
nicaragua
niccolo
nice
nicholas
nichols
nicholson
nicht
nick
nicko
nicks
nicky
nico
nicol
nicola
nicolai
nicolas
nicolay
nicole
nicolette
nidar
nidaros
nidarosdomen
nidelva
nie
niedero
niedersachsen
niels
nielsen
nietzsche
nieuwe
nig
nigel
niger
nigeria
nigerianske
night
nightingale
nightjar
nightmare
nights
nigsberg
nigstuhl
niigata
nik
nikea
nikita
nikkel
niko
nikola
nikolai
nikolaj
nikolas
nikolaus
nikon
nile
nilen
niles
nils
nilsen
nilssen
nilsson
nimrod
nin
nina
nine
ning
ninga
ningar
ninive
nintendo
nio
nir
nirvana
nis
nissedal
nissen
nite
nitrogen
nittedal
nitten
nitty
nitzsche
niva
nixon
nizjnij
nj
nja
nk
nko
nkp
nl
nland
nm
nme
nn
nna
nne
nnina
nno
no
noaa
noah
nobel
nobelkomiteen
nobelprisen
nobelprisvinnar
nobelprisvinnarar
nobelprize
nobels
noble
nobody
noch
nocturne
noddy
noe
noel
noen
noir
noise
noize
nok
noka
noko
nokolunde
nokon
nokonsinne
nokosinne
nokre
noksa
nolevande
nom
nomadar
nomadiske
nome
nominasjon
nominasjonar
nominatforma
nominativ
nominelle
nominert
nominerte
non
none
nonesuch
nonner
noord
nor
nora
norbert
nord
norda
nordahl
nordamerikansk
nordamerikanske
nordan
nordaust
nordaustkysten
nordaustleg
nordaustlege
nordaustover
nordaustpassasjen
nordaustre
nordaustsida
nordberg
nordbreidda
nordby
nordbø
norddal
norddelen
norden
nordenden
nordenfjeldske
nordens
nordenskio
nordenskjo
norderhov
nordfjord
nordfjordeid
nordfjorden
nordhagen
nordheim
nordhordland
nordic
nordirske
nordishavet
nordisk
nordiska
nordiske
nordkapp
nordkysten
nordland
nordlands
nordlandsba
nordlandsbanen
nordleg
nordlegaste
nordlege
nordli
nordlys
nordmann
nordmannen
nordmarka
nordmenn
nordmennene
nordmøre
nordnes
nordnorsk
nordnorske
nordom
nordover
nordpolen
nordre
nordreisa
nordrhein
nordsamisk
nordsamiske
nordsida
nordsjøen
nordstjernen
nordstjerneordenen
nordstoga
nordstrand
nordveggen
nordvest
nordvestenden
nordvestkysten
nordvestleg
nordvestlege
nordvestover
nordvestre
nordvestsida
nordvestterritoria
nordvik
nordøya
nore
noreg
noregs
noregsmeister
noregsmeisterskap
noregsmeisterskapen
noregsmeistrar
noregsrekorden
norfolk
norge
norges
norheim
norheimsund
norm
norma
normal
normala
normalbakke
normalbakken
normale
normalen
normalprogram
normalt
norman
normandie
normann
normannarane
normannisk
normanniske
normer
norr
norra
norrbotten
norrbottens
norris
norrko
norrta
norrøn
norrøne
norrønt
norsk
norske
norskehavet
norskekysten
norskspra
norte
north
northampton
northamptonshire
northern
northland
northug
northumberland
northumbria
northwest
norton
nortraship
norvegia
norvegicum
norway
norwegen
norwegian
norwich
nos
nosed
not
notane
notar
notasjon
notat
note
noter
notert
noterte
notes
nothing
nothoscordum
notida
notoc
notodden
notorious
notre
nottingham
nou
nouveau
nouvelle
nov
nova
novaja
nove
novel
novella
novelle
novelleforfattarar
novellene
noveller
novellesamling
novellesamlinga
novello
november
noverande
novgorod
novi
novo
novosibirsk
novus
now
nowhere
nozick
np
npr
nr
nrk
nrks
nrt
ns
nsa
nsb
nsdap
nsf
nsr
nsson
nster
nt
ntb
nte
nter
nth
nther
ntnu
nu
nuclear
nucleus
nueva
null
nullpunktet
numan
numb
number
numbered
numbers
numedal
numerisk
numeriske
numerus
nummer
nummererte
nummeret
nun
nunatak
nunatakar
nunataken
nunataks
nunavut
nuoro
nupi
nur
nve
ny
nya
nyare
nyaste
nyborg
nybygde
nybygg
nybyggjarane
nybyggjarar
nyc
nydanna
nye
nyfødde
nyga
nygaard
nygaardsvold
nygotisk
nyhende
nyheter
nyhus
nyinnspeling
nyinnspelinga
nyinnspelingar
nyko
nyland
nyleg
nylege
nyma
nymastra
nynorsk
nynorske
nynorsken
nynorskforfattarar
nynorskordboka
nyoppretta
nysibirøyane
nyskapande
nyskaping
nystad
nyt
nytt
nytta
nyttar
nyttast
nytte
nytter
nyttig
nyttige
nyutgjeving
nyutgjevinga
nyutgjevingar
nyvinningar
nz
nzgsae
nær
nærare
nærast
næraste
nærbø
nære
næring
næringa
næringane
næringar
nærings
næringsdrivar
næringskomite
næringskomiteen
næringsliv
næringslivet
næringsmiddel
næringsmiddelindustri
næringsstoff
næringsveg
nærleiken
nærliggande
nærliggjande
nærma
nærmar
nærmare
nærmast
nærmaste
nærme
næromra
nærskyld
nærskylde
nærskyldt
nært
nærvær
nærværet
nærøy
nærøysund
næss
nødvendig
nødvendige
nødvendigvis
nøgd
nøgde
nøkkel
nøkkelen
nøtter
nøtterøy
nøyaktig
nøyaktige
nøydd
nøydde
nøye
nøytral
nøytrale
nøytralt
nøytron
o
oak
oakland
oasar
oasen
oasis
oates
ob
obama
oberland
obero
oberst
oberstdorf
oberstløytnant
obituary
object
objekt
objekta
objektet
objektiv
oblast
oblastet
obligatorisk
obligatoriske
oblivion
obo
oboar
observasjon
observasjonane
observasjonar
observations
observatoire
observatoriet
observatorio
observatorium
observatoriumet
observatory
observatør
observatørar
observatøren
observer
observerast
observere
observerer
observert
observerte
obwalden
ocean
oceans
och
ochs
oct
october
oda
odal
odd
odda
odde
odden
oddity
oddmund
odds
oddvar
ode
odelstinget
odense
odeon
oder
odessa
odetta
odfjell
odin
odysseen
odyssevs
odyssey
of
off
offensiv
offensiven
offentleg
offentlege
offentleggjord
offentleggjorde
offentleggjort
offentlige
offer
offera
offeret
office
official
offiser
offiserane
offiserar
offiseren
offisiell
offisielle
offisielt
offshore
ofoten
ofra
oftare
oftast
ofte
oftedal
og
ogae
ogg
ogilvie
ogsa
ogso
oh
ohio
oi
oil
ois
oise
oita
ok
oka
okayama
okhotskhavet
okkupasjon
okkupasjonen
okkupasjonsmakta
okkupere
okkupert
okkuperte
oklahoma
okse
okshovd
oksitansk
oksygen
okt
oktav
oktober
oktoberrevolusjonen
ol
ola
olaf
olai
olaus
olav
olavs
olavsrosa
olavsson
old
olden
oldenburg
oldfield
oldham
oldtida
ole
oleg
olga
olimpbase
olive
oliveira
oliven
olivenolje
oliventre
oliver
olivia
olivier
olivin
olja
olje
oljefelt
oljeindustrien
oljema
oljeraffineri
oljeselskap
olof
olsen
olsenbanden
olson
olsson
oluf
olympia
olympiaden
olympiameister
olympiastadion
olympic
olympics
olympique
olympische
olympisk
olympiske
olympus
om
omajadane
oman
omanske
omar
omarbeidd
omarbeidde
ombord
ombygd
ombygde
ombygging
ombygginga
omdanna
omdiskutert
omdøme
omdøypt
omega
omegn
omfang
omfanget
omfatta
omfattande
omfattar
omfatte
omforma
omformar
omframstortinget
omga
omgang
omgangar
omgangen
omgitt
omgivnadane
omgjeve
omgjeven
omgjevnadane
omgjevnadene
omgjevnader
omgjorde
omgjort
omgrep
omgrepa
omgrepet
omhandla
omhandlar
omiya
omkamp
omkom
omkomne
omkransa
omkring
omkringliggande
omkrins
omlag
omland
omleira
omleiring
omleiringa
omliggande
ommastra
omn
omnibus
omorganisert
omra
omreisande
omringa
oms
omsetjar
omsetjarar
omsetjast
omsetjing
omsetjinga
omsetjingar
omsett
omsette
omsetting
omsider
omsk
omslag
omslaget
omslutta
omsorg
omstenda
omstende
omstridd
omstridde
omstridt
omsut
omsyn
omtala
omtalar
omtale
omtalen
omtaler
omtalt
omtalte
omtrent
omtrentleg
omtykt
omvende
omvendt
omverda
on
once
onde
one
ones
ongul
onkel
onkelen
online
only
ono
onsdag
onstad
ontario
op
ope
opedal
open
openberring
openbert
opent
opera
operaen
operaene
operaer
operahuset
operakomponistar
operasjon
operasjonane
operasjonar
operasjonen
operasongar
operation
operations
operativ
operative
operativsystem
operativsystemet
operatorname
operatør
operere
opererer
operert
opererte
opna
opnar
opnast
opne
opning
opninga
opningar
opningsseremonien
opningssporet
opp
oppa
oppatt
oppbevart
oppbygging
oppbygginga
oppdaga
oppdagar
oppdagarar
oppdagaren
oppdage
oppdaging
oppdaginga
oppdagingar
oppdagingsplassar
oppdal
oppdatert
oppdaterte
oppdelinga
oppdelt
oppdikta
oppdrag
oppdraget
oppdrift
oppdyrka
oppe
oppega
oppfatning
oppfatninga
oppfatningar
oppfatta
oppfattar
oppfattast
oppfinnar
oppfinnarar
oppfinnaren
oppfinning
oppfinninga
oppfinningar
oppfor
oppfordra
oppfordring
oppfunne
oppfunnen
oppfylle
oppfyller
oppfylt
oppfylte
oppfølgjar
oppfølgjaren
oppfører
oppføring
oppføringa
oppførsel
oppførselen
oppført
oppførte
oppga
oppgang
oppgav
oppgitt
oppgje
oppgjer
oppgjeret
oppgjev
oppgjeve
oppgjeven
oppgradert
opphald
opphaldet
opphav
opphavet
opphavleg
opphavlege
opphavsmann
opphavsmannen
opphavsrett
opphavsretten
oppheldt
oppheva
opphøgd
opphøyrde
oppi
oppkalla
oppkallingar
opplag
opplaget
opplagstal
opplagt
oppland
oppleva
opplevd
opplevde
oppleve
opplever
oppleving
opplevinga
opplevingane
opplevingar
opplysingstida
opplysningane
opplysningar
opplysningsvesenets
opplyst
opplyste
opplæring
opplæringa
oppløysing
oppløysinga
oppløyst
oppløyste
oppma
oppmoda
oppmuntra
oppna
oppnemnd
oppom
opposisjon
opposisjonen
oppover
oppreist
oppreisten
opprett
oppretta
opprette
oppretthalda
oppretthalde
opprettheldt
opprettinga
opprykk
opprør
opprøra
opprørarane
opprørarar
opprøret
opprørske
oppsett
oppsikt
oppskrift
oppskrifter
oppskytinga
oppslag
oppslagsordet
oppslagsverk
oppslutnad
oppslutning
oppsta
oppstanden
oppstarten
oppstod
oppsummering
oppsummerte
oppsving
oppsyn
opptak
opptaka
opptaket
opptakt
opptatt
oppteken
opptekne
opptil
opptog
opptre
opptredd
opptredde
opptreden
opptredenar
opptrer
opptøyar
oppvaksen
oppvarma
oppvarming
oppvarminga
oppvarmingsband
oppvekst
oppveksten
opry
optikk
optisk
optiske
opus
or
ora
oral
orange
orangeordenen
oranien
oransje
oras
oratorium
orbison
orchestra
orchestral
orchidaceae
ord
orda
ordbog
ordbok
ordboka
ordbøker
orde
orden
ordenar
ordenen
ordens
ordenstalet
order
ordet
ordforra
ordførar
ordførarar
ordføraren
ordinert
ordinær
ordinære
ordliste
ordna
ordning
ordninga
ordovicium
ordrar
ordre
ords
ordsoge
ordspel
ordspra
ordtak
ore
oregon
orenburg
org
organ
organa
organet
organisasjon
organisasjonane
organisasjonar
organisasjonen
organisation
organisera
organisere
organiserer
organisering
organiseringa
organisert
organiserte
organisk
organiske
organismane
organismar
organisme
organismen
organist
organistar
organisten
organization
orgel
orgelet
orient
oriental
orientalske
orientation
orientering
orientert
orienterte
orig
origin
original
originale
originalen
originalt
originaltittel
originalutga
originalversjonen
origins
orinoco
oriole
oriolus
orion
oristano
orkan
orkanar
orkanen
orkanger
orkdal
orkester
orkesterarrangement
orkesteret
orkesterverk
orkestrering
orkide
orkidear
orkla
orkland
orkney
orknøyane
orknøyingasoga
orlando
orle
orleans
orm
ormen
ornament
orne
ornithology
ornitologisk
oro
orontes
ortodoks
ortodokse
ortografi
ortografien
orwell
os
osa
osaka
osb
osborn
osborne
osbourne
oscar
oscarprisen
oscarvinnarar
oscillasjonen
ose
oseania
oseanografi
osen
oska
oskar
oske
oslo
oslofeltet
oslofjord
oslofjorden
osman
osmanarane
osmansk
osmanske
osmond
oss
ossetia
ost
ostanhai
osten
osterfjorden
osterøy
ostrov
osv
oswald
ot
otago
oter
other
others
otis
otra
otta
ottar
ottawa
ottesen
otto
ottoman
otus
ou
oude
our
out
outlaws
outrosong
outside
outstanding
ouverture
ov
oval
ovale
ovanfor
ovanfra
ovanom
ove
over
overalt
overda
overdose
overdrive
overdriven
overeins
overfamilie
overflata
overflate
overflateareal
overflater
overflod
overfor
overføra
overførast
overføre
overfører
overføring
overføringa
overført
overførte
overga
overgang
overgangen
overgav
overgje
overgrep
overhalla
overhuset
overkant
overklassen
overlappande
overlappar
overle
overlegen
overlegne
overlet
overleva
overlevande
overlevd
overlevde
overleve
overlever
overlevert
overline
overnatting
overnaturlege
overordentlege
overordna
overraska
overraskande
overs
oversatt
oversett
oversida
overside
oversikt
oversjøisk
oversjøiske
overskot
oversyn
overta
overtala
overtale
overtalt
overtalte
overtatt
overteke
overteken
overtok
overture
overtydande
overtydd
overtydde
overtyde
overvaka
overvaking
overvann
overveldande
overview
overvintra
overvintrar
overvintre
overvintring
overvintringsomra
overvunne
overvunnen
owen
owens
owl
own
oxford
oxfordshire
oy
oz
ozark
ozonlaget
ozzy
p
pa
paa
paal
pablo
pac
pacific
pack
padgham
padma
padova
page
pages
pai
paice
paich
pain
paint
painted
painting
paisley
pakistan
pakistansk
pakistanske
pakka
pakkar
pakke
pakkisen
pakta
palace
palais
palass
palasset
palau
palawan
palazzo
pale
paleo
paleontolog
paleozoikum
palermo
palestina
palestinamandatet
palestinarane
palestinarar
palestine
palestinian
palestinsk
palestinske
palisa
pallas
pallen
palm
palma
palmas
palme
palmer
palmerston
palmyra
paloma
pamela
pan
panama
panamakanalen
panamerikanske
panel
panic
panikk
panjab
panjabi
pankow
panna
panne
pannonia
panorama
panoramabilete
panozzo
panser
pansra
paolo
papa
papas
papegøyar
paper
paperback
papers
papin
papir
papiret
papua
par
para
parade
paradis
paradise
paradox
parafin
paragraf
paraguay
parakeet
parallell
parallelle
parallelt
paralympiske
paramilitære
paramount
parasittar
parazaider
parc
parentes
paret
parfitt
paring
paris
parish
park
parkar
parken
parker
parks
parlament
parlamentarisk
parlamentariske
parlamentet
parlamentsmedlem
parlamentsvalet
parliament
parlophone
parma
parodi
parr
parra
parrot
parry
parsons
part
partane
partar
parten
partenkirchen
parti
partia
partial
partido
partiet
partikkel
partikkelen
partikkelfysikk
partiklane
partiklar
partileiar
partisipp
partituret
partnar
partnarar
partnaren
partner
parton
partridge
parts
party
parvis
pas
pascal
pasha
pasient
pasientane
pasientar
pasienten
pass
passa
passage
passande
passar
passasjar
passasje
passasjen
passasjer
passasjerane
passasjerar
passasjerfly
passasjerskip
passe
passer
passera
passere
passerer
passeriformes
passert
passerte
passet
passion
passiv
passive
past
pasteur
pastor
pastorius
pat
patagonia
patent
paterson
path
paton
patriark
patriarken
patricia
patrick
patriotiske
patriotisme
patsy
pattedyr
pattedyra
patterson
patti
patty
pau
pauke
pauker
paul
paula
pauli
pauline
paulo
paulsen
paulus
paus
pause
pausen
pavane
pavar
pave
pavel
pavelege
paven
pavia
pax
payne
pays
paz
pazardzjik
pb
pbs
pc
pcbs
pdf
pe
peace
peach
peacock
peak
peaks
pearl
pearson
peart
pedagog
pedagogar
pedagogikk
pedagogisk
pedagogiske
pedal
pedalsteel
pedalsteelgitar
peder
pedersen
pedro
peel
peer
pegasus
pegg
peggy
peika
peikar
peike
peiker
peikt
peikte
pekka
pelagisk
pelagiske
pelle
peloponnes
pels
pelsen
pembrokeshire
pen
pena
pendlar
penelope
penet
pengane
pengar
penguin
penhus
penhuset
peninsula
penis
penkvile
penn
pennell
pennsylvania
penny
pensacolafjella
pensjon
pensjonert
pensjonerte
pensjonist
pensjonskomiteen
penskjold
penskjoldet
pentangle
people
peoples
pepar
pepper
peppers
per
percy
peredvizjniki
peredvizjnikij
perfect
perfekt
perfekte
perfektum
performance
performing
perifere
periferieininga
periferieiningane
periferien
perim
period
periodane
periodar
periode
perioden
periodesystemet
periodevis
periodisk
periodiske
perkins
perkusjon
perkusjonist
perkusjonistar
perkusjonisten
perkusjonsinstrument
perler
perm
permafrost
permanent
permanente
permisjon
permittert
permtida
pernille
perry
persarane
persarriket
persia
persiabukta
persisk
persiske
person
personal
personalunion
personane
personar
personbeste
personbilar
personell
personen
personer
personleg
personlegdom
personlegdomar
personlege
personnamn
persons
perspective
perspektiv
perspektivet
persson
perth
peru
peruansk
peruanske
perugia
pesah
pest
pesten
pet
pete
peter
peters
petersburg
petersen
peterskyrkja
peterson
petit
petite
petra
petrel
petrellar
petri
petroleum
petroleumsverksemd
petrologi
petrov
petsjora
petter
pettersen
petty
petula
pez
pfalz
pg
pga
ph
phalacrocorax
phane
phantom
phi
phil
philadelphia
philharmonic
philip
philipp
philippe
philips
phillip
phillips
philol
philos
philosophical
philosophy
phish
phoebe
phoenix
phonology
photo
photos
php
phylloscopus
phylogeny
physical
physics
pi
pia
piacenza
pianist
pianistar
pianisten
piano
pianoet
pianokonsert
pianosonate
pianotrio
piazza
pic
picasso
piccadilly
picea
pick
pickett
pickwick
pico
picture
pictures
picumnus
pie
piece
pieces
pied
piemonte
pier
pierce
piero
pierre
pieter
pietro
pig
pigeon
pigment
pihl
pike
pil
pilatus
pilegrimane
pilegrimar
pilegrimsma
piler
pilgrim
pilot
piloten
pin
pinder
pine
ping
pings
pingvinar
pink
pinnar
pinus
pinyin
pioneer
pioner
pionerane
pionerar
pip
pipe
piper
pipistrelle
pipistrellus
pippi
pirate
pirates
piratkopiplater
pireus
piros
pisa
pistol
pistolar
pistolen
pistols
pitchfork
pitesamisk
pitka
pitt
pitta
pittsburgh
pius
piz
pizarro
pizza
pizzo
pjotr
pk
pl
pla
place
places
placid
plaga
plagg
plagget
plain
plains
plakat
plakaten
plakett
plan
planane
planar
planck
plane
planen
planet
planetane
planetar
planetarisk
planetary
planeten
planets
planica
plank
plankton
planla
planlagd
planlagde
planlagt
planlegg
planlegging
planlegginga
planning
plant
planta
plantane
plantar
plantasjar
plante
planteartar
planteetarar
planteliv
plantelivet
planten
plantene
planter
planteslekt
planteslekter
plants
plar
plasma
plass
plassane
plassar
plassen
plassera
plasserast
plassere
plasserer
plassering
plasseringa
plasseringar
plassert
plasserte
plast
plastic
plata
plate
plateau
plateboks
plateboksen
platekontrakt
platene
plateomslag
plateomslaga
plateomslaget
plateprodusent
plateprodusentar
plater
plateselskap
plateselskapa
plateselskapet
platestudio
platetektonikk
platina
platinaplate
platinum
platon
platters
plattform
plattforma
plattformer
plattformspel
play
playboy
playboys
played
player
players
playing
plays
playstation
plaza
please
pleasure
pleidde
pleier
pleistocen
plenty
pleso
pleven
plikt
pliktene
plikter
plinius
pliocen
plo
plogar
plogen
plotarea
plotdata
plovdiv
plukka
plukkar
plukke
pluralis
plus
pluss
pluto
plutseleg
plymouth
plyndra
plyndring
pm
pmi
pmid
pna
png
po
pocket
poco
poe
poems
poeng
poenga
poengsum
poesi
poesien
poet
poetar
poeten
poetisk
poetiske
poetry
poets
point
pointe
pointer
points
poirot
poison
pokal
pokalen
poke
pol
polakkane
polakkar
poland
polane
polar
polare
polarinstitutt
polaris
polarplata
polarsirkelen
pole
polen
polert
poli
police
policy
politi
political
politics
politidistrikt
politiet
politifolk
politikar
politikarane
politikarar
politikaren
politikk
politikken
politimann
politisk
politiske
poll
pollen
pollock
pollux
polo
polog
polsk
polske
poltava
polydor
polygram
polynesia
polynom
pommern
pompeii
pompeius
pond
poneys
pont
ponte
pontoppidan
ponty
pony
pool
poole
poor
pop
pope
popgruppa
popkulturen
poplista
popmusikk
popmusikken
popol
poprock
pops
popsong
popsongar
popsongarar
popular
popularitet
populariteten
populasjon
populasjonane
populasjonar
populasjonen
population
populus
populær
populære
populærkultur
populærkulturen
populærmusikk
populært
por
porcaro
porsanger
porsche
porselen
porsgrund
porsgrunn
port
porta
portal
portalen
portane
portar
porten
porter
portland
porto
portrait
portrett
portrettert
portrettet
portrettma
portsmouth
portugal
portugisarane
portugisisk
portugisiske
pose
poseidon
posisjon
posisjonane
posisjonar
posisjonen
position
positiv
positive
positivt
possession
possible
post
postar
posten
posthume
posthumt
postkontor
postkort
postposisjonar
pot
potensial
potensialet
potensiell
potensielle
potensielt
potet
poteter
potsdam
potter
poul
pound
pour
pourquoi
powell
power
powers
powys
poznan
pp
ppen
pr
pra
practical
practice
pradesh
praha
prairie
praksis
praksisen
praktisert
praktiserte
praktisk
praktiske
prat
pratt
pravda
prayer
pre
precious
predasjon
predatorar
predikant
prefektur
prefekturet
prefiks
prefikset
preg
prega
pregar
prege
preget
preika
preikestol
preikestolen
prekambrium
preludium
premie
premier
premiere
premieren
prenta
prentice
preposisjonar
presence
presens
present
presentasjon
presentere
presenterer
presentert
presenterte
presents
preservation
president
presidentar
presidenten
presidentvalet
presis
presise
presisjon
presist
presley
press
pressa
pressar
presse
pressekonferanse
pressemelding
pressen
presset
pressure
prest
prestane
prestar
prestasjon
prestasjonane
prestasjonar
prestasjonen
prestega
prestegard
prestegardar
prestegarden
prestegjeld
prestegjelda
prestegjeldet
presten
presterte
prestetenesta
prestige
prestisje
prestisjefylte
presto
preston
pretenders
preteritum
pretty
preus
preussen
pri
price
pride
priest
prikkar
prima
prime
primera
primitiv
primitive
primorskij
primstaven
primær
primære
primærfaktor
primærstjerna
primært
prince
princess
princeton
principles
prins
prinsar
prinsen
prinsessa
prinsesse
prinsesser
prinsipp
prinsippa
prinsippet
print
prior
pris
prisane
prisar
prisen
prison
prisoner
prisvinnarar
privat
private
privatlandskamp
privatliv
privatpersonar
privilegia
privilegium
prix
prize
pro
problem
problema
problematisk
problemet
problems
problemstillingar
proceedings
procol
prod
producer
production
productions
produksjon
produksjonar
produksjonen
produkt
produkta
produktet
produktiv
produktive
produsent
produsentane
produsentar
produsenten
produsera
produsere
produserer
produsert
produserte
profesjonell
profesjonelle
profesjonelt
professor
professorar
professorat
professoren
profet
profeten
profil
profile
profilen
profitt
prog
program
programleiar
programleiarane
programleiarar
programleiaren
programma
programme
programmering
programmeringsspra
programmet
programvare
progress
progressiv
progressive
progrock
project
projected
proklamerte
prominente
promise
promo
pronomen
pronomena
propaganda
prophet
proporsjonal
prosa
prosent
prosess
prosessane
prosessar
prosessen
prosjekt
prosjekta
prosjektet
prosjektil
prosjektleiar
prost
prosten
prosti
prostiet
prostitusjon
protea
protection
protein
protektorat
protest
protestantar
protestantisk
protestantiske
protestar
protesterte
proto
protokoll
protokollen
protokollkomiteen
proton
prototype
prototypen
proud
prov
prova
provence
province
provincia
provins
provinsane
provinsar
provinsen
provinshovudstad
provinshovudstaden
provisoriske
pru
prudence
pryda
prytz
prærie
prøva
prøvar
prøvd
prøvde
prøve
prøver
prøysen
prøyssarane
prøyssisk
prøyssiske
ps
pseudonym
pseudonymet
psevdonymet
psi
pskov
psv
psychedelic
psykedelia
psykedelisk
psykedeliske
psykiatrisk
psykisk
psykiske
psykolog
psykologi
psykologisk
psykologiske
pt
pte
pterodroma
ptolemaios
pu
pub
public
publication
publications
publikasjonar
publikum
publikummet
publisere
publisert
publiserte
published
publishers
publishing
puccini
pudding
puerto
puffinus
puglia
puls
pulse
pulver
pumpa
pumpar
pumpe
pumpkins
punarkrigen
punch
pund
punjab
punk
punkrock
punkt
punkta
punktet
punta
purcell
pure
purple
push
pusjkin
pussa
put
putin
putnam
puy
pv
px
py
pye
pyeongchang
pyle
pynt
pynta
pyramid
pyramideforma
pyramiden
pyre
pyreneane
python
q
qa
qaida
qasr
qatar
qi
qigong
qin
qing
qquad
qt
qu
quad
quadrophenia
quantum
quarter
quarterly
quartet
quatro
quds
que
quebec
quechua
queen
queens
queensland
quentin
quesada
quest
question
questions
qui
quick
quiet
quincy
quinn
quintet
quisling
quito
quneitra
quo
quoted
qutb
qvigstad
r
ra
rabbi
rabbinar
rabbit
rabin
race
races
rachel
racing
rad
radar
radcliffe
radikal
radikale
radikalt
radio
radioaktiv
radioaktive
radioaktivitet
radioaktivt
radiobølgjer
radioen
radiohead
radioprogram
radioprogrammet
radiostasjon
radiostasjonar
radiostasjonen
radius
radiusen
radøy
raf
rafael
rafah
rafferty
rag
ragar
rage
ragna
ragnar
ragnarok
ragnhild
ragnvald
ragtime
rahman
rai
raid
raida
raiders
raidet
rail
railroad
railway
rain
rainbow
rainer
rainy
raise
raised
raitt
rajasthan
rajon
rak
rake
rakett
rakettar
rakhmaninov
rakiura
rakk
rakkestad
raknes
ralf
rally
ralph
ram
rama
ramallah
ramat
ramayana
ramblin
ramen
ramillies
ramla
ramma
ramme
rammer
rammstein
ramn
ramo
ramon
ramone
ramones
ramsarstader
ramsau
ramsay
ramsey
ran
rana
rand
randa
randaberg
randall
randen
randers
randi
randolph
random
randy
rane
rang
range
rangering
rangers
rangert
rangerte
ranges
rangle
ranheim
rann
raoul
rap
raphael
rapid
rappar
rapparen
rapport
rapportane
rapportar
rapporten
rapportert
rapporterte
rapture
raqqah
rar
rarar
rard
rare
rart
ras
rasa
rasande
rasar
rasch
rase
rasen
rasert
raset
rashid
rasisme
rask
raskare
raskast
raskaste
raske
raskt
rasmus
rasmussen
raste
rat
rate
ratifisert
rating
ration
rats
rau
raud
raudbrun
raudbrune
raude
raudehavet
raudekrossen
raudfarga
raudleg
raudlista
raudliste
raudrev
raudt
raufoss
rauk
rauland
rauma
raumabanen
rav
ravana
rave
ravel
raven
ravenna
ravi
ravn
raw
rawls
ray
rayman
raymond
rayyan
rbar
rbare
rbok
rbundet
rca
rd
rdal
rde
rden
rdoba
re
rea
reach
read
reader
reading
ready
reagan
reagerer
reagerte
reaksjon
reaksjonane
reaksjonar
reaksjonen
reaktoren
real
realfag
realisert
realisme
realismen
realistisk
realistiske
realiteten
reality
really
reason
reasons
reba
rebecca
rebel
rebellion
rebels
rebro
recommended
record
recorded
recorders
recording
recordings
records
recovery
red
redaksjonen
redaktør
redaktørar
redaktøren
redd
redda
redde
redding
reddy
rederi
redigering
redigert
redigerte
redningsselskapet
redningsskøyte
redningsskøytene
reds
reduksjon
redusera
reduserast
redusere
reduserer
redusert
reduserte
ree
reed
reef
reell
reelle
reelt
rees
reese
reeves
ref
referansar
referanse
referansen
referanser
referansesystem
reference
referer
referere
refererer
referert
refererte
reflections
refleksjon
reflekterande
reflekterer
reflektert
reflekterte
refling
reform
reforma
reformasjonen
reformene
reformer
reformerte
refreng
refrenget
refugee
reg
regel
regelen
regelmessig
regelmessige
regensburg
regent
regentar
reggae
reggio
regi
regime
regiment
regimentet
regimet
regina
reginald
regio
region
regional
regionale
regionalt
regionane
regionar
regionen
regionreforma
regions
regis
regissert
regisserte
regissør
regissørar
regissøren
register
registeret
registrere
registrerer
registrering
registreringar
registrert
registrerte
registry
regjerande
regjering
regjeringa
regjeringane
regjeringar
regjeringen
regjeringstid
regjeringstida
regjerte
reglane
reglar
regler
regn
regnar
regnbyer
regnet
regnskog
regnskogen
regntida
regnve
regulera
regulere
regulerer
regulering
reguleringa
regulert
regulerte
regulær
regulære
rehabilitering
reiarlag
reiarlaget
reich
reichenow
reid
reidar
reidun
reign
reilly
reims
rein
reindrift
reine
reinen
reinhard
reinhardt
reinhold
reiniger
reinmuth
reinsa
reinsdyr
reinsing
reinska
reint
reir
reira
reiret
reirplassen
reis
reisa
reisande
reise
reiseguide
reiseliv
reisema
reisen
reisene
reiser
reiseskildringar
reiskap
reiskapar
reiskapen
reissue
reist
reiste
reitan
reiv
reker
rekka
rekke
rekkefølgja
rekkefølgje
rekkja
rekkje
rekkjefølgja
rekkjefølgje
rekkjer
rekkjevidd
reklame
rekna
reknar
reknast
rekne
rekneskap
rekning
rekonstruere
rekonstruert
rekonstruerte
rekonstruksjon
rekord
rekordar
rekordbok
rekorden
rekreasjon
rekruttert
rekrutterte
rektangulær
rektangulært
rektor
rektorar
rekve
rekviem
rekvirert
relasjon
relasjonar
relatert
relaterte
relations
relativ
relative
relativitetsteorien
relativt
release
released
releases
relevant
relevante
relf
relief
relieff
religion
religionane
religionar
religionen
religious
religiøs
religiøse
religiøst
rem
remains
rembrandt
remember
remiks
remiksa
remiksar
remis
remisar
remix
remo
remus
ren
rena
renaissance
renate
renault
renberg
renbourn
rendalen
rendezvous
rene
renessanse
renessansen
renewal
rening
renn
renna
rennande
renne
rennebu
rennesøy
rennet
renovert
renreiter
rent
reparasjon
reparasjonar
reparere
reparert
repertoar
repertoaret
repertoire
repeterande
repetert
repin
report
reporter
reports
representant
representantane
representantar
representanten
representasjon
representative
representera
representere
representerer
representert
representerte
reprint
reprise
reproduksjon
republic
republikanske
republikk
republikkane
republikkar
republikken
requiem
rer
res
rescue
research
reservat
reservatet
reserve
reservert
reservoar
reservoara
reservoaret
residens
residerande
resitativ
resolusjon
resolution
resort
resource
resources
respect
respekt
respektert
respekterte
respektive
respons
ressurs
ressursane
ressursar
rest
restane
restar
restaurant
restaurantar
restauranten
restaurering
restaureringa
restaurert
restaurerte
resten
resterande
restless
restriksjonar
resultat
resultata
resultatet
resultatlista
resulterer
resulterte
results
ret
rete
retning
retninga
retningane
retningar
retningslinjer
retorikk
retoromansk
retrett
retrieved
rets
rett
retta
rettane
rettar
rette
retten
retter
rettferd
rettferdig
rettleiing
rettskriving
rettskrivinga
rettsleg
rettslege
rettssak
rettssaka
rettssaker
rettsvitskap
rettvinkla
retur
return
returnere
returnerer
returnerte
reunion
reuss
rev
revelation
reven
revenge
revere
revidert
reviderte
review
reviews
revis
revised
revisited
revisjon
revival
revolusjon
revolusjonen
revolusjonær
revolusjonære
revolution
revolver
revue
revy
rex
rey
reyes
reykjavi
reykjavik
reynolds
reysol
rez
rfagre
rg
rga
rgang
rgangar
rgen
rgos
rhapsody
rhein
rheinland
rhin
rhinen
rhino
rho
rhode
rhodes
rhodesia
rhododendron
rhodos
rhundre
rhus
rhythm
ri
ria
riaa
rib
ribe
ric
rica
ricardo
rice
rich
richard
richards
richardson
richelieu
richie
richmond
richsjøen
richter
rick
rickie
ricky
rico
rida
riddar
riddarane
riddarar
riddarordenen
ridder
riddle
ride
rider
riders
rides
ridge
riding
rif
riff
riffet
riftdalen
rig
riga
rige
rigg
rigga
right
rightarrow
righteous
rights
riis
riise
riiser
rijn
rik
rika
rikard
rikare
rikaste
rikdom
rikdomen
rike
rikeleg
riket
riksantikvaren
riksarkivet
riksdagen
riksdalar
riksforbund
riksforsamlinga
riksgrensa
rikshospitalet
rikskringkasting
riksma
riksra
riksretten
riksva
riksveg
riksvegar
riksvegen
rikt
riktig
riley
rim
rimbaud
rimeleg
rimes
rimini
rin
rindal
ring
ringa
ringane
ringar
ringde
ringdrotten
ringe
ringebu
ringen
ringer
ringerike
ringnes
ringo
rings
ringsaker
rio
riot
rip
ripa
rir
ris
risa
rise
risiko
risikoen
rising
rissa
rista
risør
rita
ritchie
rite
ritscher
ritter
ritual
rituell
rituelle
ritz
riv
riva
rival
rivalen
rivaliserande
rivalisering
rive
riven
river
rivera
rivers
riverside
riviera
rivieraen
rivne
riyadh
rja
rjazan
rjedalen
rjukan
rk
rka
rke
rko
rkyra
rlag
rlaget
rleg
rlegare
rlegaste
rlege
rm
rmland
rmlands
rms
rn
rna
rnaka
rnberg
rner
rnes
rnet
rno
rnsko
rnten
rnu
ro
roa
road
roads
roald
roar
roasso
rob
roba
robbie
robbins
robby
robert
roberta
roberto
roberts
robertson
robeson
robin
robinson
robot
robust
robuste
robyn
roche
rochelle
rochester
rock
rocka
rockabilly
rocke
rockealbum
rockeartistar
rockeballadar
rockeband
rockebandet
rockebassistar
rockefeller
rockegitaristar
rockegruppa
rockegruppe
rockegrupper
rockehistoria
rockeklaverspelarar
rockela
rockemusikar
rockemusikk
rocken
rockeopera
rocker
rockesong
rockesongar
rockesongarar
rocket
rocketrommeslagarar
rockin
rocking
rocks
rocky
rod
rode
rodeo
rodgers
rodin
rodney
rodopifjella
rodri
rodrigues
rodriguez
roe
rogaland
roger
rogers
rogn
roi
roing
rokne
roland
role
roleg
rolegare
rolege
rolf
rolfsen
roll
rolla
rollag
rolland
rolle
rollefiguren
rollene
roller
rollespel
rollin
rolling
rollo
rolls
rolv
rom
roma
romagna
roman
romanane
romanar
romance
romanen
romanforfattarar
romani
romania
romano
romanov
romanse
romansk
romanske
romantic
romantikk
romantikken
romantisk
romantiske
romarane
romarar
romarriket
romartal
romartida
rome
romeo
romerike
romersk
romerske
romfart
romfartøy
romferda
romferja
romma
rommar
rommet
romsdal
romsdalen
romsdals
romsdalsfjorden
romsonden
romstasjonen
romutforsking
ron
ronald
rondane
rondo
ronne
ronnie
ronny
ronson
ronstadt
rooke
room
roosevelt
root
roots
rop
ropa
rope
roper
ropte
ror
roret
rory
ros
rosa
rosanne
rose
rosefamilien
rosema
rosemary
rosen
rosenberg
rosenborg
rosendal
rosenkrantz
roser
roses
rosetta
rosie
roskilde
ross
rossbarrieren
rosshavet
rossi
rossini
rossisen
roste
rostock
rostov
rot
rota
rotasjon
rotasjonen
roterande
roterer
roth
rothchild
rother
rothschild
rotten
rotter
rotterdam
rouen
rouge
rough
roulette
round
rounder
rourke
rousseau
roussillon
roussos
route
routledge
rovaniemi
rovdyr
rovfuglar
row
rowan
rowe
rowland
rowling
roxy
roy
royal
royale
royce
rpm
rr
rrekkje
rres
rrs
rs
rsaftan
rsak
rsaka
rsakene
rsaker
rsalderen
rsbeste
rsdag
rsdagen
rshavn
rshei
rsjubileet
rsjubileum
rsjubileumsutga
rskontrakt
rskrigen
rslister
rsmøte
rsmøtet
rsnedbør
rsnedbøren
rsperiode
rsperioden
rsproduksjon
rss
rsskiftet
rsskrift
rsssf
rsstad
rst
rsta
rstad
rstal
rstalet
rstasjon
rstid
rstida
rstidene
rstider
rt
rta
rte
rterbuch
rth
rtha
rtica
rtsh
rttemberg
ru
ruapehu
rub
rubber
ruben
rubens
rubin
rubinstein
ruby
rud
rudi
rudolf
rudolph
rudy
rue
rufous
rufus
rug
ruga
rugar
rugby
ruge
rugetida
ruging
ruginga
ruhpolding
ruhr
ruin
ruinane
ruinar
rule
rules
rull
rulla
rullande
rulle
rulleteksten
rum
rumensk
rumenske
rumours
rumped
run
runa
runar
runaway
rund
runda
rundar
runde
runden
rundgren
rundt
rune
runeberg
runene
runer
runestein
runesteinar
runner
runnin
running
rupert
rural
rus
ruse
rush
ruslan
russ
russarane
russarar
russel
russell
russia
russian
russisk
russiske
russland
russlands
rust
rusta
rusty
rut
ruta
rute
ruteba
rutene
ruter
ruth
rutherford
rutledal
ruud
rv
rva
rvarsel
rvarsling
rvi
rwanda
ry
ryan
rybak
rydda
ryder
rye
ryet
ryfylke
ryfylkemuseet
rygg
ryggar
rygge
ryggen
ryggmergen
rygh
rykka
rykke
rykodisc
rykta
rykte
ryktet
rymill
rypdal
rytmar
rytme
rytmegitar
rytmen
rytmeseksjonen
rytmisk
rytmiske
ryttarar
ryukyu
række
rælingen
rður
røa
rød
røde
rødt
rødøy
røldal
rømde
rømme
rønne
rønneberg
rønning
rønningen
røntgenstra
røra
rørande
røre
rører
rørlege
røros
rørsla
rørsle
rørslene
rørsler
rørte
rørvik
røst
røtene
røter
røye
røyk
røyken
røynda
røyndom
røyndomen
røynsle
røynsler
røyr
røyret
røyrvik
røyst
røysta
røyste
røystene
røyster
røysterett
røysting
røystinga
s
sa
saa
saab
saale
saami
saba
sabbath
sabeltann
sabha
sabine
sachs
sachsen
sachsenhausen
sacred
sad
saddam
saddle
sadie
safari
safe
safed
safety
saft
sag
saga
sagamihara
sagan
sagbruk
sage
sagen
sagene
sager
sagn
sagt
sahara
sahel
said
sail
sailing
sailor
saint
sainte
saints
sak
saka
saken
sakene
saker
sakførar
sakha
sakhalin
sakna
sakprosa
sakprosaforfattarar
saksarane
saksisk
saksiske
saksofon
saksofonar
saksofonist
saksofonistar
saksofonisten
saksøkte
sakte
sal
sala
salaam
saladin
salah
salangen
salat
sale
saleh
salem
salen
salerno
sales
salet
salfit
salhus
salisbury
salish
sally
salman
salmane
salmar
salme
salmebok
salmeboka
salmediktar
salmediktarar
salmen
salmon
salo
salomo
salomon
salon
salongen
sals
salsa
salslista
salslistene
salslister
salssuksess
salstal
salstala
salstrofe
salt
salta
saltdal
salten
saltet
saltfjellet
saltvatn
salvador
salvadori
salvesen
salvin
salzburg
sam
saman
samanbrot
samanbrotet
samandrag
samane
samanheng
samanhengande
samanhengar
samanhengen
samanlagt
samanlikna
samanliknande
samanliknar
samanliknast
samanlikne
samanlikning
samansetjing
samansetjinga
samansetning
samansett
samansette
samansetting
samansettinga
samansla
samanslutning
samanstøyt
samar
samara
samarbeid
samarbeida
samarbeidd
samarbeidde
samarbeide
samarbeider
samarbeidet
samaria
samarra
samba
samband
sambandet
sambandsstatane
sambindingar
samd
samde
same
sameina
sameine
sameint
sameinte
sameleis
samer
samers
sametinget
sametingsrepresentantar
sametingsvalet
samferdsel
samferdsle
samfunn
samfunna
samfunnet
samfunnsfag
samfunnsvitskap
sami
samisk
samiske
samla
samlaget
samlar
samlarar
samlast
samle
samlealbum
samlealbumet
samlede
samleie
samleomgrep
samleplata
samleplate
samleplater
samling
samlinga
samlingane
samlingar
samlinger
samlingspartiet
samliv
samløpet
sammallahti
samme
sammen
sammy
samnanger
samoa
sampdoria
sampla
sample
sampler
sampling
samplingar
sams
samskipnaden
samson
samspel
samspelet
samstundes
samsvar
samsvarar
samt
samtalar
samtale
samtid
samtida
samtidig
samtidige
samtidskunst
samtidsmusikk
samtlege
samtykke
samuel
samveldeleikane
samveldet
san
sana
sanborn
sanctuary
sand
sandal
sandane
sandberg
sanddyner
sande
sandefjord
sanden
sander
sanders
sandman
sandnes
sandnessjøen
sandra
sandro
sands
sandsdalen
sandstein
sandstrand
sandstrender
sandvik
sandvika
sandviken
sandwich
sandwichøyane
sandy
sandøy
sane
sanfrecce
sang
sanga
sangen
sanger
sanjak
sanka
sankt
sanmarinske
sann
sanna
sanne
sanning
sanninga
sannsyn
sannsynet
sannsynleg
sannsynlegvis
sanremo
sans
sanskrit
sant
santa
santana
santander
santiago
santo
santos
sao
sapir
sapporo
sar
sara
sarabande
sarah
sarajevo
sarane
sarar
sararrangement
saratov
sardegna
sardinia
sardisk
sargatal
sari
sarpsborg
sars
sas
sassari
sat
satan
sataøen
satellite
satellitt
satellittane
satellittar
satellittbilete
satellitten
satire
satirisk
satiriske
sato
satriani
sats
satsa
satsane
satsar
satse
satsen
satsing
satt
saturday
saturn
saturnma
sau
saucerful
saud
sauda
saudi
saudiarabisk
saudiarabiske
sauen
sauer
sauherad
saul
saunders
saus
sava
savage
savannar
save
saved
savoie
savoy
saw
sax
saxo
saxon
say
sayer
says
sb
sc
scaggs
scala
scale
scalemajor
scandinavia
scandinavian
scar
scarborough
scarecrow
scared
scarlatti
scarlet
scary
scena
scenar
scene
scenen
scenenamnet
scener
scenes
scha
schaatsen
schaffhausen
scheff
schelde
schibsted
schifrin
schiller
schirmer
schjelderup
schlegel
schlesien
schlesiske
schleswig
schloss
schmidt
schmit
schmitt
schneider
scho
scholl
scholz
schon
school
schools
schro
schu
schubert
schulenberg
schultz
schulze
schumacher
schumann
schuster
schwaben
schwartz
schwarzwald
schweiz
schwerin
schwyz
schøning
sci
science
sciences
scientific
sclater
scora
score
scoresby
scotia
scotland
scott
scottish
scotty
scratch
scream
screaming
screen
scrolls
scruggs
scytalopus
sd
sde
se
sea
seal
sean
search
searchers
searle
searrangement
seas
season
seasons
seattle
sebastia
sebastian
second
seconds
secret
secretary
secrets
section
security
seder
sediment
sedimenta
sedimentære
see
seed
seeds
seefeld
seeger
seekers
seele
seen
sefardisk
sefardiske
seg
sega
seger
segl
segla
seglar
seglarar
seglba
segle
seglet
segling
seglskip
segment
segn
segna
segnene
segner
sei
seia
seiast
seie
seier
seig
seil
seim
sein
seinare
seinast
seinaste
seine
seinen
seinmellomalderen
seinsommaren
seinstrument
seint
seip
seismisk
seismiske
sekken
sekkepipe
sekretariatet
sekretær
sekretæren
seks
seksdagarskrigen
seksjon
seksjonar
seksjonen
seksten
seksti
seksualitet
seksuell
seksuelle
seksuelt
sektor
sektorar
sektoren
sekulær
sekulære
sekund
sekundar
sekundet
sekundær
sekundære
sekundært
sekvens
sekvensar
sekvensen
sel
selar
selbu
seld
selde
seldsjukkane
sele
select
selected
selevkos
self
selfangarar
selfangst
selim
selja
seljast
selje
seljord
seller
sellers
selma
selmer
selo
selskab
selskabet
selskap
selskapa
selskapet
selt
selte
selv
sem
semb
sement
semi
semifinalane
semifinalar
semifinale
semifinalen
seminar
semittisk
semittiske
semje
sen
senatet
senator
send
senda
sendai
sendar
sendast
sende
sender
sending
sendinga
sendingane
sendingar
sendt
sendte
senegal
senegalia
senere
seng
senga
senger
senior
senja
senka
senking
senkinga
sensation
sense
sensorar
sensur
senter
sentera
senteret
senterpartiet
sentimental
sentimentale
sentinel
sentral
sentralbanken
sentralbyra
sentrale
sentralnervesystemet
sentralstasjon
sentralstyre
sentralstyret
sentralt
sentrert
sentrum
sentrumet
sentrumssoner
seoul
sep
separat
separate
sept
september
septimius
ser
seral
seraphine
serbarar
serbia
serbisk
serbiske
seremoni
seremoniar
seremonielle
seremonien
serenade
serge
sergej
sergio
seriane
seriar
serie
seriegull
seriekampar
seriema
seriemeister
seriemeisterskap
seriemeisterskapen
serien
serierunde
series
seriesystemet
serious
seriøs
seriøse
seriøst
serra
sersjant
sertifisert
servera
serverast
serverer
servering
servert
service
services
ses
sesjonane
sesjonen
sesong
sesongane
sesongar
sesongen
sesongslutt
session
sessions
set
seta
sete
seter
setesdal
setet
seth
setja
setjast
setje
setlista
setning
setninga
setningar
sett
setta
sette
settet
setting
settlement
settlements
seura
seuran
sevastopol
sevat
seven
seventh
severin
severn
severnaja
severus
sevilla
sex
sexy
seymour
sf
sfærisk
sg
sgard
sgt
sh
sha
shaanxi
shaar
shackleton
shackletonkjeda
shade
shades
shadow
shadows
shaft
shah
shahr
shake
shaker
shakespeare
shakin
shall
shalom
sham
shamal
shame
shams
shan
shandong
shane
shang
shanghai
shankar
shanks
shannon
shanxi
shapiro
sharjah
sharon
sharonsletta
sharp
sharpe
shaun
shaw
shawn
shaykh
she
shea
sheep
sheer
sheet
sheffield
sheikh
sheila
shel
shell
shelley
shelly
shelter
shelton
shepard
shepherd
sheppard
sherlock
sherman
sherwood
sheryl
shetland
shetlandsøyane
shi
shift
shimizu
shimon
shine
shining
ship
shipping
ships
shire
shirelles
shirley
shkode
sho
shoals
shock
shoemaker
shoes
shonan
shoot
shop
shore
short
shorter
shorty
shot
should
shout
show
showet
shrike
shropshire
shtetlar
shu
shuffle
shuman
shut
si
sia
siam
sibelius
siberia
siberian
sibir
sibirske
sich
sichuan
sicilia
siciliansk
sid
sida
sidan
side
sidebre
sideelv
sideelva
sideelvane
sideelvar
sidemann
siden
sidene
sider
sides
sideveg
sidney
sidon
sie
siege
siegel
siegfried
siemens
siena
sierra
siffer
sig
sigbjørn
sigd
sigdal
siger
sigeren
sigerspallen
sight
sigismund
sigla
sigma
sigmund
sign
signa
signal
signala
signalet
signalhandsaming
signaturla
signe
signere
signert
signerte
signifikant
signs
signy
sigra
sigrande
sigrane
sigrar
sigrid
sigrun
sigurd
sigurdsson
sigøynarar
sik
sikh
sikhar
sikker
sikkert
sikra
sikrar
sikre
sikring
sikt
sikta
sikte
sil
sild
silda
silence
silent
silikat
silisium
siljan
silje
silk
silke
silkeborg
silkevegen
silly
silur
silva
silver
sim
sima
simeiz
simen
simeon
simmons
simo
simon
simone
simonsen
simple
simply
simpson
simpsons
sims
sin
sina
sinai
sinatra
since
sinclair
sind
sinding
sindre
sine
sinfield
sinfonia
sing
singapore
singel
singelen
singellista
singellistene
singelutga
singelversjonen
singer
singers
singh
singing
singlane
singlar
single
singles
singlesculler
sings
singularis
sink
sinn
sinne
sinnet
sint
sinus
sio
sion
sioux
siouxsie
siple
sir
sira
siracusa
sirdal
sire
siri
sirius
sirkel
sirkelen
sirkelforma
sirklar
sirkulasjon
sirkulasjonen
sirkulær
sirkulære
sirkumpolar
sirkus
sis
sissel
sist
siste
sisteplass
sister
sisters
sistnemnde
sistnemnte
sit
sita
sitar
sitat
sitatet
site
siterer
sitert
siterte
sites
sitja
sitjande
sitje
sitjeplassar
sitron
sitt
sitting
situ
situasjon
situasjonar
situasjonen
siv
sivert
sivertsen
sivil
sivile
sivilingeniør
sivilisasjon
sivilisasjonane
sivilisasjonar
sivilisasjonen
sivilt
siviløkonom
sivle
six
sixteen
size
sj
sja
sjabba
sjah
sjakk
sjakkblad
sjakkforbund
sjakkparti
sjakkspelar
sjakkspelarar
sjakkturneringar
sjanger
sjangeren
sjangrane
sjangrar
sjanse
sjansen
sjef
sjefen
sjefredaktør
sjeik
sjel
sjela
sjeldan
sjeldant
sjeldnare
sjeldne
sjette
sjetteplass
sjetteplassen
sjia
sjiamuslimar
sjikt
sjiva
sjo
sjokk
sjokolade
sjokoladen
sju
sjua
sjuande
sjuandeplass
sjuandeplassen
sjuk
sjukamp
sjukdom
sjukdomar
sjukdomen
sjukdommar
sjukdommen
sjuke
sjukehus
sjukehuset
sjukepleiar
sjur
sjælland
sjø
sjøane
sjøar
sjøen
sjøfararen
sjøfart
sjøfarts
sjøfartsmuseum
sjøfly
sjøfolk
sjøforsvaret
sjøfugl
sjøfuglar
sjølv
sjølvbiografi
sjølvbiografien
sjølvbiografisk
sjølvbiografiske
sjølve
sjølvga
sjølvmord
sjølvoppkalla
sjølvportrett
sjølvsagt
sjølvstende
sjølvstendekrigen
sjølvstendet
sjølvstendig
sjølvstendige
sjølvstyre
sjølvstyresmakta
sjølvstyrt
sjølvstyrte
sjømann
sjømat
sjømenn
sjørøvarar
sjøs
sjøsett
sjøsida
sjøslag
sjøvatn
sjøvegen
sk
ska
skaar
skada
skadane
skadar
skadd
skadde
skade
skadedyr
skadeleg
skadelege
skaden
skader
skaffa
skaffe
skaft
skagen
skagerrak
skaggs
skal
skala
skalaen
skalaer
skald
skaldar
skalden
skaldic
skaldyr
skalet
skalla
skallen
skam
skandale
skandinavia
skandinavisk
skandinaviske
skanna
skanse
skansen
skapa
skapar
skaparen
skape
skaper
skapinga
skapningar
skapt
skapte
skar
skard
skardet
skarp
skarpe
skarpt
skatt
skattane
skattar
skattelister
skatten
skatval
skaun
skaut
ske
skedag
skedsmo
skei
skeid
skeise
skeiseløpar
skeiseløparar
skeiser
skelleftea
skeptisk
skeptiske
ski
skia
skidspelen
skie
skien
skiensvassdraget
skies
skifer
skiffle
skiflyging
skift
skifta
skiftande
skiftar
skifte
skiftet
skihoppar
skihopparar
skihopping
skiidrett
skikk
skikkar
skikkeleg
skikken
skiklubb
skil
skild
skilde
skildra
skildrande
skildrar
skildrast
skildre
skildring
skildringa
skildringane
skildringar
skilja
skiljast
skilje
skiljet
skilling
skilnad
skilnadane
skilnaden
skilnadene
skilnader
skilsmisse
skilt
skilta
skilte
skiløpar
skin
skinande
skinn
skinnet
skip
skipa
skipe
skipet
skipinga
skipingar
skipper
skipreide
skipreidene
skipreider
skipsbygging
skipsfart
skipsfarten
skipsleia
skipsreiar
skipsreiarar
skipsverft
skiptvet
skirennar
skisenter
skiskyting
skiskyttar
skiskyttarar
skisse
skisser
skissert
skiva
skive
skiver
skiweltcup
skja
skje
skjeberg
skjebnen
skjedd
skjedde
skjegg
skjel
skjelett
skjelettet
skjelvet
skjema
skjematisk
skjer
skjera
skjeret
skjergard
skjerm
skjerma
skjermar
skjermen
skjermplantefamilien
skjerstad
skjervøy
skjold
skjoldet
skjoldvulkanar
skjorte
skjorter
skjul
skjula
skjule
skjult
skjulte
skjøna
skjønnlitteratur
skjønnlitterære
skjønte
skjørbuk
skjørt
sko
skodde
skodespel
skodespela
skodespelar
skodespelarane
skodespelarar
skodespelaren
skodespelarinna
skodespelet
skodje
skog
skogane
skogar
skogbruk
skogen
skoger
skogkledd
skogkledde
skogn
skogomra
skogsomra
skolar
skole
skolen
skoltesamisk
skopje
skore
skoren
skorne
skorpa
skot
skota
skote
skoten
skotne
skotsk
skotske
skottane
skottland
skouen
skra
skram
skranke
skred
skreiv
skremmande
skrent
skrenten
skrev
skribent
skribenten
skrift
skrifta
skriftene
skrifter
skriftet
skriftleg
skriftlege
skriftspra
skriftsystem
skrik
skrikande
skrinlagd
skritt
skriv
skriva
skrivast
skrive
skrivema
skriven
skriving
skrivinga
skrivne
skrog
skroget
skuffa
skuffande
skugge
skuggen
skulane
skular
skuld
skulda
skuldast
skulde
skulder
skulderbladet
skuldig
skuldingane
skuldingar
skuldra
skuldrene
skule
skulea
skulegang
skulegangen
skulema
skulemann
skulen
skulestyret
skulle
skulptur
skulpturane
skulpturar
skulpturen
skulptør
skulptøren
skum
skuta
skvadron
skvadronar
skvadronen
sky
skya
skydekke
skye
skyene
skyer
skyld
skyline
skynyrd
skyt
skyta
skyte
skyteva
skyting
skøyen
skøyta
skøyteløpar
skøyter
sl
sla
slade
slag
slaga
slaget
slagmarka
slagord
slagordet
slags
slagverk
slakt
slakta
slala
slam
slangar
slange
slangen
slanke
slapp
slash
slate
slavane
slavar
slave
slaveri
slaveriet
slavisk
slaviske
slede
sledge
sleep
sleeping
sleeps
slege
slegen
sleggekast
sleggjekast
slegne
sleipner
sleit
slekt
slekta
slektene
slekter
slektning
slektningane
slektningar
slektningen
slektskap
slektsnamn
slektsnamnet
slemmestad
slendt
slepp
sleppa
sleppe
sleppt
sleppte
slept
slesvig
slett
sletta
slette
slettene
sletter
slick
slide
slidegitar
slidre
sligo
slik
slike
slikt
slim
slip
slit
slitasje
slite
slo
sloppe
sloppen
slost
slott
slotten
slottet
slovakia
slovakisk
slovakiske
slovenia
slovensk
slovenske
slow
sluppen
slur
sluser
slutt
slutta
sluttar
slutte
slutten
sluttresultatet
sluttsegla
sluttspel
sluttspelet
sly
sløyfe
sm
sma
smaalenenes
smak
smaken
smal
smalare
smalaste
smale
small
smalnar
smalt
smart
smash
smashing
smed
smedal
smelta
smeltar
smelte
smeltevatn
smelteverk
smelting
smerte
smerter
smile
sminke
smith
smiths
smithsonian
smitta
smitte
smoke
smokey
smolensk
smooth
sms
smund
smykke
smyslov
smyth
smøla
smør
smøra
sn
sna
snake
snakes
snakk
snakka
snakkar
snakke
snarare
snart
sne
snes
sniglar
snikkar
snipefamilien
snitt
snittet
snl
snor
snorre
snow
sns
snu
snudd
snudde
snur
snø
snødekt
snødekte
snøen
snøfall
snøgg
snøggare
snøggaste
snøggba
snøggleik
snøggleiken
snøgt
snømark
snøras
snøsmelting
snøstorm
so
soc
social
socialdemokratiske
socialist
socie
society
sofa
sofia
sofie
sofistikerte
soft
software
soga
soge
sogelag
sogene
soger
sogn
sogndal
sognefjorden
sognesjøen
sohn
sokalla
sokk
sokkel
sokn
sokna
sokndal
soknegrenser
soknekyrkja
soknekyrkje
sokneprest
soknepresten
sokner
soknera
soknet
sol
sola
solar
solbakken
solberg
sold
soldat
soldatane
soldatar
soldaten
soldier
soldiers
sole
soleil
soleis
solen
solformørking
solguden
solheim
solid
solidaritet
solide
solinnstra
solist
solistar
soll
solli
sollys
sollyset
solnedgang
solo
soloalbum
soloalbuma
soloalbumet
soloar
soloartist
soloen
sologitar
sologitarist
sologitaristar
soloinstrument
solokarriere
solokarrieren
solokonsertar
solomon
soloppgang
soloprosjekt
solothurn
solovokal
solovokalist
solstad
solstra
solsystemet
solum
solund
solveig
solør
som
soma
somalia
some
somebody
someone
somerset
something
sometimes
somewhere
sommar
sommaravlingar
sommaren
sommarfuglar
sommarhalva
sommarleikane
sommarma
sommarsesongen
sommarstid
sommartid
somme
sommer
somrane
somrar
son
sona
sonar
sonata
sonatar
sonate
sonden
sondre
sone
sonen
soner
soneson
song
songane
songar
songarane
songarar
songaren
songbook
songen
songfestival
songpartitur
songs
songsolistar
songteksten
songtevlinga
songwriter
songwriters
sonia
sonic
sonics
sonja
sonny
sons
sony
soon
sophia
sophie
sophus
sopp
soppar
soppen
sopran
sopransaksofon
sorbonne
sorbus
sorenskrivar
sorenskrivarar
sorg
soria
sorrow
sorry
sort
sortar
sorte
sortert
sortland
sos
sosial
sosialdemokratane
sosialdemokratisk
sosialdemokratiske
sosialdepartementet
sosiale
sosialisme
sosialismen
sosialist
sosialistar
sosialistisk
sosialistiske
sosialistpartiet
sosialkomiteen
sosialt
sosiolog
sosiologi
sotra
sotsji
soul
souls
sound
sounds
soundtrack
sounes
soup
source
sources
sous
south
southampton
souther
southern
southland
sov
sovande
sove
soviet
sovjet
sovjetarane
sovjetisk
sovjetiske
sovjetrepublikken
sovjettida
sovjetunionen
sovjetunionens
sp
spa
space
spain
span
spanande
spania
spaninga
spanish
spanjolane
spanjolar
spann
spansk
spanske
spanskspra
spara
sparboe
spare
sparebank
sparebanken
spark
sparka
sparken
sparks
sparrow
sparta
spartacus
spasskij
spd
spe
speak
special
species
spector
spedbarn
speech
speed
spegel
spegla
speglar
spektakulære
spekter
spekteret
spektralklasse
spektroskopi
spektrum
spekulasjonar
spekulert
spel
spela
spelar
spelarane
spelarar
spelaren
spelarstall
spelast
spele
spelefilm
spelemann
spelemannen
spelemenn
speler
spelestil
spelestilen
spelet
speletid
spelinga
spell
spellemann
spellemannprisen
spelt
spelte
spencer
spenn
spennande
spenner
spenning
spenninga
spenningar
spent
sperra
spesialiserer
spesialisert
spesialiserte
spesialist
spesialistar
spesialutga
spesiell
spesielle
spesielt
spesifikk
spesifikke
spesifikt
spesifisert
spesifiserte
spetsnaz
sphaerodactylus
spice
spider
spiders
spike
spin
spinn
spinning
spion
spionasje
spiral
spiralgalakse
spirit
spirits
spiss
spisse
spissen
spisst
spitsbergen
spitz
spjutkast
split
splitta
sponsa
spontant
spoonful
spor
spora
sporadisk
sporadiske
sporar
sporast
spore
sporet
sporliste
sport
sporten
sporting
sports
sportsboken
sportsklubb
sportsklubben
sporvefugl
sporvefuglar
sporvogn
spot
spotted
spp
spra
sprache
sprang
spreia
spreidd
spreidde
spreie
spreier
spreiing
spreiinga
spreitt
sprekk
sprekkar
sprekker
sprengde
sprengstoff
sprengt
spring
springar
springaren
springe
springer
springfield
springs
springsteen
sprint
sprintarar
sprinten
sprog
sprø
spur
spurd
spurde
spurt
spurte
spurten
sputnik
spy
spyd
spydeberg
spydet
spydkast
spydkastarar
spøk
spør
spørsma
sqrt
square
squaw
squire
sr
sri
ss
ssa
ssb
sseldorf
ssn
ssp
ssr
st
sta
stabbur
stabelen
staben
stabil
stabile
stabilitet
stabiliteten
stabilt
stabæk
stack
stad
stadane
stadar
stade
stadeigne
staden
stadene
stader
stades
stadfesta
stadfestar
stadfeste
stadiet
stadieveksling
stadig
stadige
stadion
stadionet
stadium
stadnamn
stadnamnet
stadnamnregister
stadt
stae
stafett
stafettar
stafetten
stafettlaget
staff
stafford
staffordshire
stage
stakk
stal
stalin
stalingrad
stallen
stamceller
stamfar
stamma
stammane
stammar
stamme
stammen
stammene
stammer
stan
stand
standal
standane
standar
standard
standardar
standarden
standardisert
standardiserte
standardmodellen
standards
standen
standfugl
standfuglar
standing
standpunkt
stanford
stang
stange
stanisław
stanley
stansa
stanton
star
stara
stardust
stark
starling
starr
stars
starship
start
starta
startar
starte
starten
startnummer
stasjon
stasjonane
stasjonar
stasjonen
stasjonert
stasjonsbygningen
stasjonær
stasjonære
stat
statane
statar
state
staten
statens
states
station
statisk
statiske
statistica
statistical
statistics
statistikk
statistisk
statistiske
statistitsjeski
statkraft
statleg
statlege
statoil
stats
statsarkivet
statsborgar
statsborgarar
statsborgarskap
statsbudsjettet
statskupp
statsleiar
statsmann
statsminister
statsministeren
statsministrar
statsoverhovud
statsra
statsraadet
statssekretær
statssekretærar
statsstipendiat
statsstipendiatar
statsvitar
statsvitskap
statthaldar
statuane
statuar
statue
statuen
status
statusen
stav
stava
stavanger
stavar
stavema
staven
stavern
stavhopp
stavhopparar
staving
stavinga
stavingar
stavkirke
stavkyrkja
stavkyrkje
stavkyrkjene
stavkyrkjer
stavropol
stax
stay
ste
steady
steam
sted
stedje
steel
steele
steeleye
steelgitar
steely
steen
steeplechase
stefan
stefano
steffen
steg
steget
steiermark
steig
steigen
steikt
steikte
stein
steinalder
steinalderen
steinane
steinar
steinbrot
steinen
steiner
steinete
steingrim
steinkjer
steinkyrkje
steinkyrkjer
steinsland
steinsvik
stele
stella
stemd
stemde
stemma
stemme
stemmen
stemmene
stemmer
stemmerett
stemming
stemne
stemnet
stemning
stemninga
stempel
stempla
stemplet
stemt
stemte
sten
stend
stendig
stenersen
stengd
stengde
stengel
stengelen
stenger
stengt
step
stephan
stephanie
stephen
stephens
stephenson
steppa
steppene
steps
stera
sterbotten
sterbottens
stereo
stergo
sterk
sterkare
sterkast
sterkaste
sterke
sterkt
sterling
stern
sternorrlands
sternwarte
sterreich
stersund
stettin
steve
steven
stevens
stevenson
stevet
stevie
stewart
sti
stian
stiar
stick
stien
stift
stifta
stifte
stiftelsen
stifting
stiftinga
stig
stigande
stige
stigen
stikk
stikke
stiklestad
stil
stilane
stilar
stilartar
stilen
stilisert
stiliserte
stilken
still
stilla
stille
stilleben
stillehavet
stillehavskysten
stiller
stillesta
stilling
stillinga
stillingane
stillingar
stills
stilmessig
stilt
stilte
stina
stine
sting
stipe
stipend
stipendet
stipendiat
stirling
stiv
stive
stja
stjerna
stjerne
stjernebilde
stjernebileta
stjernebilete
stjernebiletet
stjernene
stjerner
stjerneta
stjert
stjerten
stjørdal
stk
stmanland
stmanlands
sto
stock
stockholm
stockholms
stod
stoda
stoff
stoffa
stoffet
stogga
stoke
stokes
stokk
stokkar
stokke
stokken
stokmarknes
stol
stole
stolen
stoller
stolpar
stolt
stolte
stoltenberg
stomp
stone
stones
stong
stonington
stony
stooges
stop
stopp
stoppa
stoppar
stoppe
stoppestad
stor
stora
storbakke
storbakken
storband
storbritannia
storby
storbyar
storbyen
storbyomra
stord
stordal
stordomstid
stordomstida
store
storelva
storfe
storfjord
storfjorden
storfyrstedømet
storgarden
storgata
storhamar
storhaug
storhertug
storhertugdømet
stories
storkommunen
storkrossen
storleik
storleikar
storleiken
storleiksklasse
storleiksorden
storm
storma
stormakt
stormaktene
stormar
stormeister
stormeistrar
stormen
stormfuglar
stormfuglfamilien
stormy
storparten
storskala
storsla
storslala
storstilt
stort
storting
stortinget
stortingets
stortingsbiografi
stortingskomite
stortingskomitear
stortingsmann
stortingsperioden
stortingspresident
stortingsrepresentant
stortingsrepresentantar
stortingsval
stortingsvalet
story
storøya
stova
stra
strabon
straff
straffa
straffe
straffeskyting
straffespark
straight
strait
straits
strake
straks
stralsund
strand
stranda
strange
stranger
strangers
strasbourg
strategi
strategien
strategisk
strategiske
stratford
stratosfæren
stratovulkan
stratovulkanar
stratton
straum
straumar
straume
straumen
straumsnes
strauss
stravinskij
strawberry
strawbs
stray
stream
street
streets
streiffuglar
streik
streisand
strek
strekar
strekk
strekker
strekkjer
strekning
strekninga
strekningar
strekt
strekte
strendene
strender
streng
strengane
strengar
strengare
strenge
strengeinstrument
strengen
strengene
strenger
strengs
strengsgitar
strengt
streptokokkar
stress
strid
stridande
stridar
striden
stridsvogn
stridsvogna
stridsvogner
strike
strinda
strindberg
string
strings
strip
stripa
stripe
striper
stripes
stripete
stro
strofe
strofer
strok
stroket
strong
structure
struensee
struggle
struktur
strukturane
strukturar
strukturelle
strukturen
strupe
strupen
stryk
strykarar
strykearrangement
strykekvartett
strykeorkester
stryketrio
stryn
strøk
strøket
strøm
strømme
strømmen
strømnes
strømper
strømsgodset
strøymde
strøyme
strøymer
strøyming
sts
stsci
stu
stuart
student
studentane
studentar
studenten
studentma
studentsamskipnaden
studera
studere
studerer
studert
studerte
studia
studiane
studiar
studie
studien
studier
studies
studiet
studietida
studio
studioalbum
studioalbuma
studioalbumet
studioet
studioinnspelingar
studiomusikar
studiomusikarane
studiomusikarar
studioopptak
studios
studioversjon
studioversjonen
studium
study
stuff
stund
stundom
stup
sture
sturla
sturlason
stutt
stutte
stuttgart
stygge
stykka
stykke
stykket
stykkgods
style
styra
styrande
styrar
styrbord
styre
styreformann
styreleiar
styremedlem
styrer
styresett
styresmakt
styresmakta
styresmaktene
styresmakter
styret
styreverv
styring
styringa
styrka
styrkane
styrkar
styrke
styrken
styrkt
styrkte
styrmann
styrt
styrta
styrte
styx
stø
stønad
stør
støre
støren
større
størst
største
størstedelen
størsteparten
støtt
støtta
støttar
støtte
støtter
støttespelar
støttespelarane
støttespelarar
støv
støvlar
støy
støypt
støyt
støytande
støytte
su
sua
sub
subantarktiske
subjekt
subjektet
subkontinentet
submarine
subsp
subst
substantiv
substantiva
substantivet
subtropisk
subtropiske
such
sud
sudan
sue
suede
suezkanalen
suffiks
suffikset
suffolk
sugar
sui
suicide
suitar
suite
suiten
sukker
sukkerrøyr
suksess
suksessar
suksessen
suksessfulle
suksessrik
suksessrike
sul
sula
sulawesi
suldal
suleiman
sulitjelma
sullivan
sultan
sultanatet
sultanen
sum
sumaren
sumatra
summar
summary
summen
summer
summers
summertime
summit
summitpost
sun
sunbird
sund
sunda
sundag
sundagen
sunday
sundby
sunde
sunderland
sundet
sundsvall
sundt
sunflower
sung
sunge
sungen
sunn
sunndal
sunndalsøra
sunne
sunnfjord
sunnhordland
sunnhordlandske
sunni
sunnimuslimar
sunniva
sunnmøre
sunnmørsposten
sunny
sunnylven
sunnyside
sunrise
sunset
sunshine
suny
suomalais
suomen
suomi
super
superficie
supergruppa
superior
superkjempe
superkombinasjon
superkontinentet
superman
supernova
superstar
supertramp
suppe
supper
supplement
supplert
supply
support
supremes
sur
sure
surf
surface
surfin
surfing
surinam
surnadal
surprise
surrealistiske
surrender
surrey
surt
survey
surveys
survival
survive
sus
susa
susan
susanna
susanne
sussex
sutherland
sutton
suveren
suverene
suverenitet
suverent
suzanne
suzi
suzuki
sv
sva
svaart
svak
svakare
svakaste
svake
svakt
svalbard
svangerskap
svar
svara
svarar
svare
svarer
svaret
svarstad
svart
svarta
svarte
svartedauden
svartehavet
svartehavsregionen
svartisen
svegen
svein
sveio
sveits
sveitsisk
sveitsiske
svekka
svekt
svelvik
sven
svend
svendsen
svensk
svenska
svenskane
svenskar
svenske
svenskegrensa
svensken
svenskspra
svensson
sverd
sverdet
sverdlovsk
sverdrup
sverige
sveriges
sverre
sverresborg
svetlana
svg
svigersonen
svik
svikta
svin
sving
svinga
svingar
svingen
svingingar
svogeren
svolder
svolt
svolvær
svor
svos
svovel
svt
svulst
svær
svært
swahili
swainson
swallow
swamp
swan
swansea
swarbrick
sweat
sweden
swedish
sweeney
sweet
sweetheart
swift
swing
swinging
swiss
switch
switzerland
sword
swp
sy
syd
sydd
sydney
syfilis
sykehus
sykes
sykkel
sykkylven
syklar
sykling
syklist
syklistar
syklon
syklonar
syklonen
syklus
syklusen
sylinder
sylinderen
sylindrar
sylte
syltetøy
sylv
sylvain
sylvester
sylvia
sym
symbol
symbola
symbolet
symbolikk
symboliserer
symbolismen
symbolsk
symbolske
symfoni
symfoniane
symfoniar
symfonien
symfoniorkester
symfonisk
symfoniske
symjar
symje
symjing
symmetri
symmetrisk
symmetriske
sympati
symphony
symptom
symptoma
syn
syna
synagogar
synagoge
synagogen
synast
synd
syndrom
syne
syner
synest
synet
syng
synga
synge
synger
synginga
syngje
synleg
synlege
synnøve
synonym
synonymt
synoptiske
syns
synspunkt
synspunktet
synt
syntaks
synte
syntese
syntest
syntetisk
syntetiske
synth
synthesiser
synthesizer
synthesizerar
synthpop
syre
syrer
syrgde
syria
syrian
syrisk
syriske
syse
sysken
syskena
syskenbarn
syskenbarnet
sysselsette
system
systema
systematikk
systematisk
systematiske
systemet
systems
syster
systera
systrene
systrer
syte
syter
sytte
sytten
syv
syvertsen
syzygium
sz
szabo
szczecin
sæbø
særdrag
særeige
særeigen
særeigne
særleg
særlege
særmerkt
særmerkte
særprega
særs
særskild
særskilde
særskilt
særtrekk
sæter
sæther
sætre
søgne
søk
søka
søke
søker
søkja
søkje
søkjer
søkk
søkke
søkkt
søknad
søknaden
søksma
søkt
søkte
sølv
sølvet
sølvmedaljar
sølvmedalje
sølvmedaljen
sølvmedaljevinnarar
sølvplass
sølvplassen
sølvvinnaren
sømna
søn
søndag
søndagen
søndeled
søndre
sønene
søner
sør
sørafrikansk
sørafrikanske
søramerikanske
søraust
søraustenden
søraustkysten
søraustlege
søraustover
søraustre
søraustsida
sørbreidda
søre
søren
sørenden
sørensen
sørfjorden
sørfold
sørga
sørgde
sørgje
sørgjer
sørishavet
sørkoreanske
sørkysten
sørlandet
sørlandsbanen
sørleg
sørlegaste
sørlege
sørom
sørover
sørpolen
sørreisa
sørsamisk
sørsamiske
sørsida
sørspissen
sørstatane
sørum
sørveggen
sørvest
sørvestenden
sørvestkysten
sørvestleg
sørvestlege
[...]
