!
"
#
##0
##1
##10
##11
##12
##13
##14
##15
##16
##17
##18
##19
##2
##20
##21
##22
##23
##24
##25
##26
##27
##28
##29
##3
##30
##31
##32
##33
##34
##35
##36
##37
##38
##39
##4
##40
##41
##42
##43
##44
##45
##46
##47
##48
##49
##5
##50
##51
##52
##53
##54
##55
##56
##57
##58
##59
##6
##60
##61
##62
##63
##64
##65
##66
##67
##68
##69
##7
##70
##71
##72
##73
##74
##75
##76
##77
##78
##79
##8
##80
##81
##82
##83
##84
##85
##86
##87
##88
##89
##9
##90
##91
##92
##93
##94
##95
##96
##97
##98
##99
$
%
&
'
(
)
*
+
,
-
.
/
0
00
000
0000
000000
001
01
010
011
0180
02
021
023
027
03
032
0342
038
04
044
045
046
05
051
053
054
06
061
0638527777778
07
070
0729
073
0730
0733
076
078
08
0845
09
094
098
1
10
100
1000
10000
101
1010
102
1022
1024
1025
103
104
10429758
10429912
105
106
10685961
107
10713
107343683
107456632
108
10855166
109
1093
11
110
1100
1101
1102
110250907
1103
1104
1105
1106
1107
1108
1109
111
1110
1111
1112
1113
1114
1115
11152
1116
1117
1118
1119
112
1120
1121
1122
1123
1124
1125
1126
1127
1128
1129
113
1130
1131
1132
1133
1134
11342
1135
1136
1137
1138
1139
114
1140
1141
1142
1143
1144
1145
1146
1147
1148
1149
115
1150
1151
1152
1153
1154
1155
1156
1157
1158
1159
116
1160
1161
1162
1163
1164
1165
1166
1167
1168
1169
117
1170
1171
1172
1173
1174
1175
1176
1177
1178
1179
118
1180
1181
1182
1183
1184
1185
1186
1187
1188
1189
11896574
119
1190
1191
1192
1193
1194
1195
1196
1197
1198
1199
11992482
11992497
12
120
1200
1201
1202
1203
1204
1205
1206
1207
1208
1209
121
1210
1211
1212
1213
1214
12148
1215
1216
1217
1218
1219
122
1220
1221
1222
1223
1224
1225
1226
1227
1228
1229
123
1230
1231
1232
1233
1234
1235
1236
1237
1238
1239
124
1240
1241
1242
1243
1244
1245
1246
1247
1248
1249
125
1250
1251
1252
1253
1254
1255
1256
1257
1258
1259
126
1260
1261
1262
1263
1264
1264934
1265
1266
1267
1268
1269
127
1270
1271
1272
1273
1274
1275
1276
1277
1278
1279
128
1280
1281
1282
1283
1284
1285
1286
1287
1288
1289
129
1290
1291
1292
1293
1294
1295
1296
1297
1298
1299
13
130
1300
1301
1302
1303
1304
1305
1306
1307
1308
1309
131
1310
1311
1312
1313
1314
1315
1316
1317
1318
1319
132
1320
1321
1322
1323
1324
1325
1326
1327
1328
1329
133
1330
1331
1332
1333
1334
1335
1336
1337
1338
1339
134
1340
1341
1342
1343
1344
1345
1346
1347
1348
1349
135
1350
1351
1352
1353
1354
1355
13550863
1356
1357
1358
1359
136
1360
1361
1362
1363
1364
1365
1366
1367
1368
1369
137
1370
1371
1372
1373
1374
1375
1376
1377
1378
1379
138
1380
1381
1382
1383
1384
1385
1386
1387
1388
1389
139
1390
1391
1392
1393
1394
1395
1396
1397
1398
1399
14
140
1400
1401
1402
1403
1404
1405
1406
1407
1408
1409
141
1410
1411
1412
1413
1414
1415
1416
1417
1418
1419
142
1420
1421
1422
1423
1424
1425
1426
1427
1428
1429
143
1430
1431
1432
1433
1434
1435
1436
1437
1438
1439
144
1440
1441
1441863756180
1442
1443
1444
1445
1446
1447
1448
1449
145
1450
1451
1452
1453
1453477
1454
1455
1456
1457
1458
1459
146
1460
1461
1462
1463
1464
1465
1466
1467
1468
1469
147
1470
1471
1472
1473
1474
1475
1476
1477
1478
1479
148
1480
1481
1482
1483
1484
1485
1486
1487
1488
1489
149
1490
1491
1492
1493
1494
1495
1496
1497
1498
1499
15
150
1500
1501
1502
1503
1504
1505
1506
1507
1508
1509
151
1510
1511
1512
1513
1514
1515
1516
1517
1518
1519
152
1520
1521
1522
1523
1524
15241312
1525
1526
1527
1528
1529
153
1530
1531
1532
1533
1534
1535
1536
1537
1538
1539
154
1540
1541
1542
1543
1544
1545
1546
1547
1547776
1548
1549
155
1550
1551
1552
1553
1554
1555
1556
1557
1558
1559
156
1560
1561
1562
1563
1563206
1564
1565
1566
1567
1568
1569
157
1570
15706812
1571
1572
1573
1574
1575
1576
1577
1578
1579
158
1580
1581
1582
1583
1584
1585
1586
1587
1588
1589
159
1590
1591
1592
1593
1594
1595
1596
1597
1598
1599
16
160
1600
1601
1602
1603
1604
1605
1606
1607
1608
1609
161
1610
1611
1612
1613
1614
1615
1616
1617
1618
1619
162
1620
1621
1622
1623
1624
1625
1626
1627
1628
1629
163
1630
1631
1632
16323063
16323066
1633
1634
1635
1636
1637
1638
1639
164
1640
1641
1642
1643
1644
1645
1646
1647
1648
1649
165
1650
1651
1652
1653
1654
1655
1656
1657
1658
1659
166
1660
1661
1662
1663
1664
1665
1666
1667
1668
1669
167
1670
1671
1672
1673
1674
1675
1676
1677
1678
1679
168
1680
1681
1682
1683
1684
1685
1686
1687
1688
1689
169
1690
1691
1692
1693
1694
1695
1696
1697
1698
1699
17
170
1700
1701
170109
1702
1703
1704
1705
1706
1707
1708
1709
171
1710
1711
1712
1713
1714
1715
1716
1717
1718
1719
172
1720
1721
1722
1723
1724
1724971
1725
1726
1727
1728
1729
17299517
173
1730
1731
1732
1733
1734
1735
1736
1737
17378135
1738
1739
174
1740
1741
1742
1743
1744
1745
1746
1747
1748
1749
175
1750
1751
1752
1753
1754
1755
1756
1757
1758
1759
176
1760
1761
1762
1763
1764
1765
1766
1767
1768
1769
177
1770
1771
1772
1773
1774
1775
1776
1777
1778
1779
178
1780
1781
1782
1783
1783910
1784
1785
1786
1787
1788
1789
1789619
179
1790
1791
1792
1793
1794
1795
1796
1797
1798
1798125
1799
18
180
1800
1801
1802
1803
1804
1805
1806
1807
1808
1809
181
1810
1811
1812
1813
1814
1815
1816
1817
1818
1819
182
1820
1821
1822
1823
1824
1825
1826
1827
1828
1829
183
1830
1831
1832
1833
1834
1835
1836
1837
1838
1839
184
1840
1841
1842
1843
1844
18446
1845
1846
1847
1848
1849
185
1850
1851
1852
1853
1854
1855
1856
1857
1858
1859
186
1860
1861
1862
1863
1864
1865
1866
1867
1868
1869
18696256
187
1870
1871
1872
1873
1874
1875
1876
1877
1878
1879
188
1880
1881
1882
1883
1884
1885
1886
1887
1888
1889
189
1890
1891
1892
1893
1894
1895
1896
1897
1898
1899
19
190
1900
1901
1902
1903
1904
1905
1906
1907
1908
1909
191
1910
1911
1912
1913
1914
1915
1916
1917
1918
1919
192
1920
1921
1922
1923
1924
1925
1926
1927
1928
1929
193
1930
1931
1932
1933
1934
1935
193563
1936
1937
1938
1939
194
1940
1941
1942
1943
1944
1945
1946
1947
1948
1949
195
1950
1951
1952
1953
1954
1955
1956
1957
1958
1959
196
1960
1961
1962
1963
1964
1965
1966
1967
1968
1969
197
1970
1971
1972
1973
1974
1975
1976
1977
1978
1979
198
1980
1981
1982
1983
1984
1985
1986
1987
1988
1989
199
1990
1991
1992
1993
19938912
1994
1995
1996
1997
1998
1999
2
20
200
2000
2001
2002
2003
2004
2005
2006
2007
2008
2009
201
2010
2011
2012
201213124
2013
2014
2015
2016
2017
2018
2019
202
2020
2021
2022
2023
2024
2025
203
2030
204
205
2050
206
207
208
209
21
210
2108
211
212
2122776
213
214
21401824
215
216
217
2174
217595
218
219
22
220
2206
221
222
223
224
225
226
22681075
227
228
229
23
230
231
232
233
234
235
236
237
237227
238
239
24
240
241
242
24255573
243
244
245
2450
246
2464
247
248
249
2494649
25
250
251
252
2529
253
254
255
256
256507
257
258
2586178
259
2590
26
260
2605
261
262
2629164
263
2639
264
265
266
2664168
266603
267
2671
268
269
27
270
271
272
273
27302
274
275
276
277
278
28
280
281
2818469
282
283
284
2843
285
286
287
288
2886420
289
29
290
292
293
294
295
296
298
29861311
299
3
30
300
3000
301
302
303
304
304037
305
306
307
308
309
31
310
3100478
311
312
313
314
315
316
317
318
319
31964
32
320
3200
321
321541
3217
322
323
324
324303
325
3251055555556
326
327
328
329
33
330
331
332
333
334
335
336
3362041
337
338
339
34
340
3407324
341
342
343
3430
344
345
346
347
348
349
35
350
3500
351
352
353
354
355
356
3561957
357
358
359
3595
36
360
361
362
3621644
363
364
365
36578
366
367
368
369
37
370
371
37312
375
376
378
379406
38
380
382
383
384
384602
385
387
39
392
393
3965189
399
4
40
400
4000
404
406
407
408
409
41
410
4100
411
4115441
412
413
415
42
420
424
425
429032
43
430
432
434
4342
437
44
440
441
443
444
446
447
448
449
4498
45
450
454
456
458
459
45958
46
460
461
462
463
4638
464633
467
468
469
47
470
475
476
479
48
480
482
483
487
488
49
490
493
498
499
5
50
500
5000
50000
501
5019
502
503
504
504063
505
506
5061737
508
5080
5081
509
51
5100
513
515
516
52
520
521
524
528
529
53
530
532
535
536
5375741
539
54
540
541
542
544
546
547
548
54837
55
550
551
555
5587
559
56
560
561
5611
562
565
569
57
570
572
574
578
579
58
580
581
5822
586
587
589
59
590
596
6
60
600
6000
601
602
603
6036
604
605
606
607
6079
608
6080
609
61
610
611
612
613
61356138
614
615
616
617
618
619
62
620
621
622
623
624
625
626
627
628
629
63
630
63056
631
632
633
634
635
636
637
638
639
64
640
641
642
643
644
645
646
647
648
648625
649
65
650
651
652
653
654
655
656
657
658
659
66
660
661
662
663
664
665
666
667
668
669
67
670
6708
671
67129259
672
6722
672948
673
674
675
676
677
678
679
68
680
681
682
683
684
6844
6845
6846
6847
6848
68485
685
6859
686
687
688
689
69
690
691
692
693
694
695
696
697
698
699
7
70
700
7000
7043
706
707
71
712
713
716
717
719
72
720
721
725
726
728
729
73
730
731
73268604
733
737
7374
74
743
746
746368
75
750
756
76
760
7601
763
7649541
767
769544
77
770
77541206
7796
7797
7798
78
781
782
783
788
789
79
790
7929
7982
8
80
800
8000
801
802
802437
803
804
805
806
807
808
809
8094
81
810
811
812
813
814
815
816
817
818
819
82
820
8200
821
822
823
824
825
826
8263
827
828
829
8290
83
830
831
8310
832
833
834
8349
835
83552
836
837
838
839
84
840
841
842
843
844
8448
845
846
847
848
849
85
850
851
852
853
854
855
856
857
858
859
86
860
861
862
863
864
865
866
867
868
869
87
870
871
872
873
8732
874
875
876
877
878
879
88
880
881
882
883
884
885
886
887
888
889
89
890
891
892
893
8939
894
895
896
8963
897
898
899
9
90
900
9000
901
902
903
904
905
906
907
908
909
91
910
911
912
913
914
915
916
917
918
919
92
920
92044
921
9218
9219
922
923
924
925
926
927
9272
928
929
93
930
931
932
933
934
935
936
937
938
939
94
940
941
942
943
944
945
946
947
948
949
95
950
9500
951
952
953
954
955
9554
956
957
958
959
96
960
961
962
963
964
965
966
967
968
969
97
970
971
972
973
974
975
976
977
977378
9779
978
9789510399545
979
98
980
981
982
983
984
985
986
987
98769076
988
989
99
990
991
9915
992
993
994
995
996
997
998
999
:
;
<
=
>
?
@
[
\
]
^
_
`
a
aa
aage
aams
aanar
aarne
aartomaa
aasen
ab
abbedabb
abbes
abbreviation
abeale
abf
abies
ability
abisko
able
abm
abonnemang
about
above
abraham
abroad
abruzzo
absence
absolut
absoluta
absorbs
abu
ac
academia
academic
academics
academy
accelerator
acceptabel
accepted
acceptera
accepterade
accepterar
accepteras
accepterat
access
accessed
accessibility
accessible
accessing
accipiter
accipitridae
acclamation
accomplish
accomplishments
accordance
according
account
accounting
accounts
accreditation
accurate
achieve
achieved
achieving
aciram
acklamation
ackrediterad
ackrediterade
ackreditering
acl
acrocephalus
across
act
acting
action
actions
activate
activated
active
actively
activities
activity
actor
actors
actual
actually
ad
ada
adam
adaptations
adapted
adapter
add
adda
addadeaddjit
addagas
addan
addanguovdda
addat
adde
added
addet
adding
addit
addition
additional
additionally
addoc
addon
addonamahusat
addosat
addosohka
address
addresses
addresspoint
adds
addu
adekvat
adeniidna
adige
adit
adja
adjungerad
adjust
adjusted
adjusting
admin
administration
administrationen
administrationskunskaper
administrativa
administrative
administrato
administrator
administrera
adminsettingscontroller
adno
adnojuvvo
adnojuvvojit
adnojuvvon
adnon
adolf
adopt
adopted
adoption
adrar
adress
adressa
adressen
adresser
adressuppgifter
ads
adult
advance
advanced
advantage
advantages
advertising
advice
adville
advocacy
advocates
advoka
advokatbyra
aerial
aethaloessa
af
afanasjeva
afbeelding
affa
affairs
affect
affected
affecting
affects
affiliate
affiliated
affiliates
affisch
affischer
afon
africa
african
afrihka
afrihkka
afrika
afrikanska
aftenposten
after
afterwards
aftonbladet
ag
aga
again
against
agat
agatha
agder
agdera
age
agencies
agency
agenda
agendan
agent
agents
agera
agerande
agerar
agi
agiel
agiela
agiella
agil
agillii
agis
agm
agms
agneta
ago
agree
agreed
agreement
agreements
agrees
agricola
agricultural
agriculture
ahead
ahki
ahmad
aho
ahr
ahras
ahrekord
ahresta
ahte
ahtiala
ahtisaari
ahtti
ai
aid
aiddo
aide
aif
aiguin
aika
aikana
aikio
aili
ailo
ailu
aim
aimed
aiming
aims
ain
aina
ainali
ainalis
ainaliwikimedia
ainge
aino
air
aires
airport
aisne
aitosas
aivve
ajournerades
ajtte
ak
akaa
akademalas
akademi
akademiker
akademin
akademisk
akademiska
akazu
akc
akershus
akershusa
akilles
akk
akkusatiiva
akl
akronym
akseli
akt
aktie
aktier
aktierna
aktiivvalac
aktiivvalas
aktinium
aktiv
aktiva
aktivera
aktiverade
aktiveras
aktiverat
aktivering
aktivitet
aktiviteten
aktiviteter
aktiviteterna
aktivt
akto
aktoga
aktualitet
aktuell
aktuella
aktuellt
akuhta
akut
akuta
al
ala
alabama
alaja
alakyla
alan
alanen
alas
alaska
alaskas
alavieska
alavus
alba
albacete
albasa
albbas
albenius
albert
albin
albma
albmala
albmi
alborz
albrecht
album
albuma
albumas
albumis
alccesis
alchemilla
aldagaid
aldat
alddes
alddi
alddis
alde
aldi
aldrig
ale
aleami
aledje
aleksander
aleksandr
aleksandra
aleph
aletta
aleuhtalas
alex
alexa
alexander
alexandersson
alexandra
alf
alfabehta
alfabehtain
alfabehtas
alfred
algeria
algerias
algiers
alho
alhoniemi
ali
alicante
alicia
align
aligned
alii
alike
alimus
alit
alkohol
alkohola
alkupera
all
alla
allah
allan
allas
allaskuvla
allaskuvlla
allaskuvllas
allavuohta
alldeles
alle
allehanda
allen
alli
allier
allma
allocation
allodagas
allodat
allosas
allow
allowed
allowing
allows
allra
alls
allt
alltfo
alltid
allting
alltsa
allum
allvar
allvarliga
allvarlighetsgrad
allvarligt
alma
almedalen
almedalsveckan
almeri
almma
almmena
almmi
almmiga
almmiid
almmiiguin
almmis
almmit
almmolac
almmolas
almmuha
almmuhan
almmuhedje
almmuhii
almmuhit
almmuhuvvo
almmuhuvvon
almmuhuvvui
almmustahtii
almmustahtta
almmustahttit
almmustahttojuvvui
almmustahtton
almmustuvai
almmustuvva
almmustuvvan
almmustuvvon
almost
almqvist
aloddi
alom
alone
along
alpes
alpha
alpina
alpinus
already
als
also
alster
alt
alta
alter
alternativ
alternativa
alternative
alternativen
alternatives
alternativet
alternativt
although
alto
altsa
alu
aluejohtaja
alumiidna
alumiinna
alvesta
always
am
ama
amadeus
amanda
amanita
amar
amas
amato
amazing
ambarzumjan
ambassader
ambassaderna
ambassadevra
ambassado
ambassador
ambassadors
ambitio
ambition
ambitionen
ambitioner
ambitious
amen
amendments
america
american
amerihka
amerihkka
amerikansk
amerikanska
amet
amin
aminoha
aminosivrrat
amis
amoc
among
amongst
amor
amount
amounts
amour
amp
amsterdam
amundsen
an
ana
anac
anagiella
anagillii
analog
analogt
analys
analyse
analyser
analysera
analysis
analytisk
analyze
analyzing
anamma
anara
anas
anassan
anassii
anasvuođa
anasvuođabeaivi
and
anda
andebu
andel
andelen
anders
andersen
anderson
andersson
anderssonwikimedia
andorra
andra
andras
andre
andrea
andreas
andreasa
andrew
android
andrus
aneby
anette
anfo
anga
angav
ange
angela
angeles
anger
anges
angett
angiven
angivet
angivits
angivna
angola
angra
anguovllu
anguovllus
anguvlui
anha
anho
ani
anii
animas
animationer
anime
anita
anja
ankara
anknytning
anla
anledning
anledningar
anledningen
anlita
anlitar
anm
anma
ann
anna
annaba
annan
annans
annanstans
annars
annas
annat
anne
anneli
anni
annie
annika
anniken
anniversary
annons
annonsen
annonser
annonsera
annonsering
annorlunda
annotations
annoteringar
announce
announced
annual
annukka
anoda
anonym
anonymiserad
anonymt
anordna
anordnade
anordnades
anordnande
anordnar
anordnas
anordnat
anoreksiija
another
anpassa
anpassad
anpassade
anpassar
anpassas
anpassat
anpassning
anpassningar
ans
ansa
ansats
ansatsen
ansatte
anse
anser
anses
ansikte
ansikten
ansip
anskaffning
anslag
anslo
anslut
ansluta
ansluter
anslutit
anslutna
anslutning
anso
anspra
anst
ansta
anstra
ansvar
ansvara
ansvarar
ansvaret
ansvarig
ansvariga
ansvarsfo
ansvarsfrihet
ansvarsfullt
ansvarsomra
answer
answered
answering
answers
anta
antagande
antagandedatum
antagen
antagits
antagligen
antagna
antal
antalet
antar
antas
ante
anteckna
antecknas
anteckningar
antero
anthus
anti
antigua
antihka
antingen
antog
antogs
antoine
antologiija
anton
antoni
antonova
antti
anttila
anttilain
anu
anus
anv
anva
anvisningar
any
anyone
anything
aosta
aotearoa
aotearoas
ap
apart
apg
api
apimain
apis
aponline
apotehka
app
appar
appen
appert
appframework
apple
applicable
application
applications
applied
applikationer
apply
applying
appointed
appreciate
appreciated
approach
approaches
appropriate
approval
approved
approximately
apps
april
apropa
apt
aquila
ar
ara
arabic
arabiskspra
arad
aragoniagiella
arbeta
arbetade
arbetande
arbetar
arbetarro
arbetas
arbetat
arbetats
arbete
arbeten
arbetet
arbetets
arbetetsmuseum
arbets
arbetsam
arbetsbelastningen
arbetsbeskrivning
arbetsdag
arbetsdagar
arbetsdagen
arbetsdokument
arbetsfo
arbetsformer
arbetsfria
arbetsgivaransvar
arbetsgivaravgifter
arbetsgivardeklaration
arbetsgivare
arbetsgivaren
arbetsgivarens
arbetsgivarfo
arbetsgrupp
arbetsgruppen
arbetsgrupper
arbetsgrupperna
arbetsinsats
arbetsintensivt
arbetslivserfarenhet
arbetslivsmuseer
arbetslivsmuseerna
arbetslivsmuseernas
arbetsmaterial
arbetsmiljo
arbetsmo
arbetsordning
arbetsordningen
arbetsplan
arbetsplats
arbetsplatsen
arbetsprocessen
arbetsprover
arbetsrummen
arbetssa
arbetssida
arbetstagare
arbetstagaren
arbetstagarens
arbetstakt
arbetstid
arbetstiden
arbetstider
arbetstimmar
arbetsuppgiften
arbetsuppgifter
arbetsuppgifterna
arbetsverktyg
arboga
architecture
archive
archives
arctic
arctos
arctostaphylos
ardabil
ardabila
arde
ardennes
are
area
areal
areas
arena
arenan
aretha
argentiinna
argentina
arges
arguably
argument
argumentation
argumentera
argumenterar
arguments
ari
arianaick
arie
arild
arildv
aring
arizona
arja
arjel
arjelsaemien
arjepluovvi
ark
arkansas
arkeologalas
arkiiva
arkiteakta
arkitektur
arkitekturmuseet
arkiv
arkivarie
arkiven
arkivera
arkiverade
arkiverar
arkiveras
arkiverejuvvon
arkivet
arktiske
arlanda
armas
arme
armenia
armor
armoury
arna
arne
arneng
arnold
aronsson
around
arrange
arranged
arrangemang
arrangemanget
arrangera
arrangerade
arrangerades
arrangerar
arrangeras
arrangerat
arranging
arrango
array
arre
arrondissemeanta
arrondissemeantta
arrondissements
art
arte
artfo
arthur
artibonite
article
articles
artificial
artificiell
artihkal
artihkkal
artihkkala
artihkkalat
artihkkaliid
artihkkaliin
artihkkalis
artikel
artikeln
artikelns
artikeltexten
artikkel
artiklar
artiklarna
artist
artista
artists
artisttat
artnet
arts
artwork
artworks
arv
arvec
arvensis
arvi
arvidsjaurs
arvodering
arvsfonden
arvvi
as
asa
asat
asbjørn
asbjørnsen
asc
asema
aserbaiz
aset
asia
asikkala
ask
aska
aske
asked
askim
asking
asko
askola
askvoll
aslak
aslottiide
asp
aspaker
aspect
aspects
aspekt
aspekten
aspekter
asperger
aspx
assembly
assessment
assigned
assignment
assist
assistance
assistant
assistent
assisting
associac
associacio
associated
association
associations
assume
asta
astit
astoa
astrid
astronomalas
asturia
asturiagiella
at
athens
atla
atlantique
atlantiques
atlas
atna
atne
atnet
atnit
atnon
atnosat
atnui
atoma
atomaid
atomat
att
atta
attached
attack
attacker
attai
attas
atte
attempt
attend
attendance
attended
attendees
attending
attention
attestera
attesterad
attesterade
attesteringar
attii
attitude
attitudes
attityd
attityder
attitydfo
attract
attracting
attrahera
attraktiv
attribuering
attribution
attu
attuid
attuide
attut
au
aube
aude
audience
audiences
audio
audiovisuella
audit
auditors
audrey
audun
auf
aug
august
augusti
augustimo
augustsson
auktoriserad
auktoriserade
auktoriteter
auktoritetsdata
auktoritetskontroll
aula
auml
aune
aunusga
aura
aurskog
austlandet
austra
australia
australialas
australien
austria
austurland
aut
auteurs
author
authorities
authority
authors
auto
autogiro
autogirobetalningar
autogiromedgivande
automatically
automatisera
automatiserad
automatiserade
automatiserat
automatisk
automatiska
automatiskt
autonomalas
autumn
auvainen
av
ava
available
avancerad
avancerade
avancerat
avbilda
avbildade
avbildar
avbildas
avbildning
avbrutna
avbryta
avc
avdelningar
avdelningen
avdrag
average
avesta
aveyron
avfo
avg
avga
avge
avgift
avgiften
avgifter
avgivna
avgo
avgra
avi
aviisa
aviissa
aviissas
avkastning
avkastningen
avklarat
avla
avlasta
avlo
avoid
avprickade
avra
avrapportering
avresa
avrundade
avsa
avsatt
avsedd
avsedda
avseende
avser
avses
avsett
avseva
avsikt
avsikten
avsikter
avsiktligt
avsiktsfo
avskytt
avsla
avslag
avslut
avsluta
avslutad
avslutade
avslutades
avslutande
avslutas
avslutat
avslutats
avslutning
avsnitt
avsnittet
avsta
avstod
avtal
avtalade
avtalet
avtalets
avtals
avtalsbrott
avtalsparterna
avva
avvakta
avvaktar
avvikelse
avvikelser
avvil
avvilis
avvir
award
awarded
awards
aware
awareness
away
axel
axels
aymara
aythya
azerbaiz
ađa
ađahan
ađahii
ađahit
ađahuvvo
ađahuvvot
ađahuvvui
ađamihttu
ađat
aŋkke
b
ba
baakoegærja
baca
bachelor
back
background
backlog
backlogg
backloggen
backpack
backstagepass
backup
backuprutiner
backupstrategi
bad
badajoz
badge
badges
badja
badje
badjeda
badjel
badjelas
badjelis
badjelmeara
badjeolmmos
badjesa
baemira
bagadallan
bagadalli
bagiella
bagillii
baha
bahtara
baicca
baicce
baiu
baja
bajil
bajilc
bajimus
bajit
baka
bakgrund
bakgrunden
bakgrunder
bakgrundsfa
bakgrundsinformation
bakhs
bakke
bakom
baksidan
baktearaid
bakterat
bala
balance
balans
balansen
balansera
balanserad
balanseras
balanskonton
balansra
balas
balea
ball
balla
ballong
balto
baluc
balzi
bambuser
bamse
ban
banbrytande
band
banderoller
bang
bangkok
bangkoka
bangladesh
bank
banken
banker
bankgiro
bankgirokonto
bankgirot
bankkonto
bankkonton
bankkort
banner
banners
bar
bara
barack
barbara
barcelona
barentsa
barga
bargan
bargat
barge
barget
barggai
barggu
bargguid
bargguin
barggus
barggut
bargi
bargiid
bargiidbellodaga
bargiidbellodagas
bargiidbellodat
bargit
bargo
bargoba
bargu
bargui
bargun
barn
barnen
barnens
barria
barriers
bas
basam
base
based
basel
baserad
baserade
baseras
baserat
basic
basics
basilicata
basinformation
basis
basista
basku
bassa
bassanguovz
basshunter
bassi
bassiva
basta
bastholm
batch
batchuppladdning
batchuppladdningar
batchuppladdningsmo
batna
batterier
bauer
bay
bayadh
bayerische
baylan
bađvera
bb
bba
bbac
bbar
bbc
bc
be
beadwork
beagga
beahca
beaiv
beaiva
beaivegirji
beaivi
beaividuvvon
beaivva
beaivve
beaivvi
beaivvis
beaivvit
beakka
beakta
beaktande
beaktas
beaktilis
beal
bealde
beale
beales
beali
bealis
bealja
bealla
beallai
bealle
beallebuokc
beallemuttus
bealli
bealus
beana
bearalduodji
bearalva
bearas
bearbeta
bearbetas
bearbetning
beardu
beare
bearehaga
bearjadaga
bearra
bearras
beas
beasa
beasai
beaska
beassa
beassan
beassat
beat
beatnaga
bebyggelseregistret
became
because
become
becomes
becoming
bedo
bedra
bedriva
bedrivas
bedriver
bedrivits
bedrivs
been
befattning
befinner
befintlig
befintliga
befintligt
befogenhet
befogenheter
befolkning
befolkningen
befolkningsendringar
befolkningsfo
befolkningsfond
before
beftett
bega
begin
beginners
beginning
begra
begrepp
begreppet
beh
beha
behandla
behandlades
behandlar
behandlas
behandling
behavior
behaviour
behind
behja
behn
beho
behov
behoven
behovet
behovsanalysen
behovsanalysrapport
behovsprofil
behovsstyrd
behovsstyrda
beibbos
being
beivviid
beka
bekant
bekanta
bekantskaper
bekosta
bekostade
bekostar
bekostas
bekostnad
bekra
bekva
bekymmer
bel
bela
belastning
belfort
belgia
belgiai
belgialac
belgialas
belgiassa
belgium
believe
belize
belizes
bell
bellodaga
bellodagaid
bellodagain
bellodagas
bellodagat
bellodahkan
bellodahkii
bellodat
bellodatc
bellodatjođiheaddji
belo
belohahkii
belong
belopp
beloppet
below
belysa
belyser
bema
bemanning
bemanningsplan
bemo
ben
bena
benedictus
benefit
benefits
benezit
bengalgiella
bengt
benin
bepro
ber
bera
bereda
beredd
beredda
beredning
beredningsgrupp
beredskap
berg
bergen
bergenis
bergroth
bergslagen
bergslagssafari
bergsland
berika
berikats
berit
berleva
berlin
bern
bernard
bernhard
bernkonventionen
bero
berodde
beroende
beroendet
beropa
beror
beros
bes
besides
besitter
beska
beskattningsbar
besked
beskedet
beskrev
beskrevs
beskriv
beskriva
beskrivande
beskrivas
beskriver
beskrivet
beskrivna
beskrivning
beskrivningar
beskrivningen
beskrivs
beslo
beslut
besluta
beslutad
beslutade
beslutades
beslutande
beslutar
beslutas
beslutat
beslutats
besluten
beslutet
beslutsdatum
beslutsfattande
beslutsfattare
beslutsma
beslutsprocessen
beslutsprotokollet
beslutspunkt
beslutspunkter
beslutsunderlag
beslutsuppfo
beso
besparingar
besparingarna
bessa
besse
besset
best
besta
bestod
besvara
besvarad
besvarade
besvaras
besvarat
beta
betala
betalades
betalande
betalar
betalas
betalat
betalats
betald
betalda
betalkort
betalkortet
betalkortspolicy
betallo
betalning
betalningar
betalningen
betalningsmeddelande
betalt
betalva
beteende
betona
betra
betrakta
betraktar
betraktas
bett
better
betula
between
betyda
betydande
betydelse
betydelsen
betyder
betydligt
betyg
bevaka
bevakar
bevakning
bevakningslista
bevara
bevarande
bevaras
bevilja
beviljad
beviljade
beviljades
beviljande
beviljar
beviljas
beviljat
beviljats
bevis
beweb
beyond
bhutan
bi
bia
bibcamp
bibeha
bibel
bibelo
bible
bibliografisk
bibliografiska
bibliographisches
biblioteca
bibliotek
bibliotekarier
biblioteken
bibliotekens
biblioteket
bibliotekets
biblioteks
biblioteksdata
biblioteksdirektionen
biblioteksma
bibliotekssektorn
bibliothe
bic
bidja
bidjan
bidjat
bidje
bidra
bidrag
bidragen
bidraget
bidragit
bidragsanso
bidragsgivare
bidragsgivarna
bidrar
bidrog
biebmoa
biebmoprogra
biebmu
biegga
biehta
biehttalanvearba
biekka
biepmu
bierggu
biergu
bies
bieva
bifall
bifalla
bifallas
bifalles
bifo
bifoga
bifogas
bifogat
big
biga
bigbluebutton
bigger
biggest
bihceba
bihor
bihta
bihtta
biibbal
biibbala
biibbalis
biid
biila
biire
bijai
biktasat
bil
bilaga
bilagor
bild
bilda
bildades
bildar
bildarkiv
bildas
bildbanken
bilddonationer
bilden
bildens
bilder
bilderna
bildkonst
bildkonstverk
bildmaterial
bildmaterialet
bildspel
bildupphovsra
bilersa
biljetter
bill
billa
billas
billefjord
billig
billigare
billigt
billy
bilresa
bin
bina
bindande
binding
bio
biodiversity
biogra
biografi
biografier
biografiija
biografisk
biographies
biography
biologalas
biologi
biologisk
biosphere
bir
biras
birasbellodat
bircu
birdie
birds
biret
birger
birgit
birgon
birkeland
birra
birrasa
birrasiid
birrasiin
birrasis
birrat
birth
bis
bisa
biskra
bisma
bismagoddi
bismagotti
bismma
bismmastuollu
bispedømme
bissau
bissehit
bissojohka
bissovas
bissu
bista
bistevas
bistrit
bisttii
bit
bittut
bivde
bivdit
bivdu
bivnnuheamos
bivnnuhin
bivnnuhis
bivnnut
biđon
biđonsa
bjo
bjuda
bjudas
bjuder
bjudits
bjuds
bjurholmma
bjørnar
bl
bla
black
bland
blanda
blandade
blandning
blandningen
blank
blankett
blanketten
blant
ble
blekinge
bler
blev
bli
blica
blida
blimedlem
blir
blivit
blixt
block
blocked
blocker
blockera
blockeras
blockering
blocking
blog
blogg
blogga
bloggar
bloggare
blogged
bloggen
blogginla
bloggposter
blogpost
blogs
blogspot
blomgren
blommor
blott
blue
bluegarden
blueprinting
blues
blur
bma
bmagovat
bmama
bme
bmen
bmet
bnf
bo
boahta
boahte
boahtimus
boahtit
boahtte
boahttea
boahttevas
boahttevuođa
boahttevuođas
boallobeavdi
boalu
boara
board
boards
boares
boaris
boarra
boasta
boastut
boazodoallu
boazosa
boazu
boađe
boađus
boađusin
bob
boberger
bobergers
bocka
boda
boddu
boden
body
boende
bogota
bohcco
bohccobiergu
bohccot
bohccuid
bohciidii
bohte
bohtet
bohtosat
bohtosiid
boine
bojaxhiu
bojer
bok
boka
bokar
bokas
bokat
boken
bokens
bokfo
bokhandeln
bokhylla
bokma
bokning
bokningar
bokningen
boksa
bokscanner
boksidor
boksidorna
bokskannern
bokslut
bokslutet
bokslutsbilaga
bokslutsbilagan
boksta
bokte
boktrykkeri
bolag
bold
bolivia
bolla
bollestad
bollplank
bond
bondevik
bondevika
bonnier
bonniers
bono
book
bookfair
books
bootcamp
booth
bootleg
bor
bora
boras
borasda
boraspire
bord
borde
border
bordet
bordj
bordla
bordlades
bordlagd
borealis
borg
borga
borgema
borgguheapmi
boris
borla
born
borra
borramus
borrat
borrow
borrowed
borsi
bort
borta
borten
bortfall
bortom
borttagen
bosatt
bosnia
bosniagiella
bostad
bostadsort
boston
bot
botar
boten
both
botko
botkonton
botkyrka
botos
bots
botswana
bott
botta
botten
bottom
bottus
bou
bouaghi
bouches
bought
bouira
boumerde
bovd
box
bođez
bođii
bođuvala
br
bra
brachot
bradford
brainstorming
bramelid
brand
brands
brandt
branschen
branschstandarder
branta
bras
brasil
brasilia
bratislava
bratteli
breach
break
breakfast
breaks
bred
breda
bredare
bredd
bredda
bredvid
breivik
bretonagiella
brett
brev
brevet
bribrigiella
bridge
brief
brihttalas
bring
bringing
brings
brinkhoff
brinner
brion
brist
bristande
bristen
brister
bristfa
brit
brita
britain
britannia
britannias
britannica
british
britt
britta
brno
bro
broad
broadcast
broadcasting
broadly
broadway
broch
brochure
brochures
brockhaus
broken
brons
bronsaa
broschyr
broschyren
broschyrer
brother
brothers
brott
brought
brown
brozovic
bruges
bruk
brukar
brundtland
brunnshack
brus
brusselles
brussels
brutas
bruttoa
bruvda
brygga
bryggeri
bryr
bryssel
bryta
bryter
bu
bubblar
bubo
bud
budapest
buddha
budejju
budget
budgetarbete
budgeted
budgeten
budgetera
budgeterad
budgeterade
budgetfo
budgetplan
budgetpost
budgetstorlekar
budgetuppfo
budskap
budskapet
buenos
buffe
buffert
bug
bugg
buggar
buggrapporter
buggrapportering
bugs
buhtadusa
buhtte
buhttet
build
building
built
bukta
bukte
buktet
buktit
bulga
bulii
bulimiija
buljo
bull
buohcca
buohccediks
buohccedivs
buohcceviesus
buohcci
buohkaide
buohkain
buohkat
buohta
buoidi
buokc
buolas
buolbma
buolla
buorebut
buoremus
buoremusat
buoret
buori
buoridit
buorit
buorra
buorre
buorrin
buot
buotla
bureau
bureha
bures
burgos
buriid
burkina
burma
burnchart
burncharten
burroughs
burundi
bus
bush
business
buskerud
buskeruda
buss
bussa
bussen
busta
but
butik
button
buttons
buvssas
buvtta
buvttada
buvttadeaddji
buvttii
buy
buza
by
bybrunnen
bygga
byggas
byggd
byggde
bygger
byggnad
byggnaden
byggnader
byggnadsminnen
byggs
byggt
bylaws
byn
byra
byt
byta
bytas
byte
byter
bytes
bytte
bærum
bærumas
bø
c
ca
cabe
cache
caesar
cafe
calabria
calais
calandrella
calcutta
calcuttas
calendar
calidalis
california
call
calle
called
calls
calvados
cambridge
came
camenzind
camera
cameras
camilla
camp
campaign
campaigners
campaigns
campania
camps
campus
can
canada
canadian
cancel
canceled
cancelled
cancer
candidate
cannot
canon
cantal
canus
capabilities
capacities
capacity
cape
capital
cappelen
capsulam
caras
carduelis
care
carey
carl
carla
carles
carlos
carlsson
carlswa
carolina
caroline
carried
carry
carsten
casa
case
cases
cash
castello
castle
castrenianumin
cat
catalana
catalogue
catalunya
catapp
categories
category
cater
catering
cathrine
cause
cb
cc
cca
ccc
ccii
ccl
ccma
ccuheh
cd
ce
ceahki
cealka
cealkagis
cealkka
cecilia
ceggii
cehkiide
celkkii
celkojuvvui
cell
censo
census
center
centerpartiet
centerpartiets
central
centrala
centralbyra
centralmuseer
centralmuseerna
centralmuseernas
centralt
centre
centret
centrum
century
ceo
ceremony
ceres
cern
certain
certifikat
cest
cet
ch
cha
chad
chair
chairman
challenge
challenges
chalmers
chamber
chance
chances
change
changed
changes
changing
channel
channels
chans
chansen
chanser
chapcom
chapter
chaptermo
chapters
chaptersmo
chaptersrapport
chaptren
char
charente
charge
charitable
charles
charlie
charlotta
charlotte
charts
chasing
chat
chatt
chatta
chatten
chatterjee
chattrutan
che
check
checklista
checklistan
checklistor
checklistorna
chef
chefen
chefer
chelha
cher
chi
chicago
chief
chiesacattolica
child
children
chile
chimaltenango
chlef
choice
choices
chomsky
choose
chose
chosen
chris
christian
christie
christina
christmas
christophe
christopher
chrome
church
ci
cia
cinerea
cios
circa
circle
cirka
cis
citat
citations
citatra
citatsamlingen
citerade
cities
city
citypopulation
ciudad
civ
civic
civicrm
civiid
civil
civila
civilsamha
ciza
ck
cka
ckande
ckas
cke
cker
ckerna
cklig
ckliga
ckligt
ckning
ckningen
cks
cksburg
ckt
ckta
ckte
cktes
ckvidd
ckvidden
claims
clangula
clara
clarify
clarke
class
classroom
claude
claudia
clean
clear
clearer
clearly
click
client
climate
clinton
clip
close
closed
closely
closer
closeup
closing
cloud
cloudberry
cloudminne
cluj
cm
cms
cmt
co
coach
coca
code
codes
coh
col
cola
colbengtson
collab
collabora
collaborating
collaboration
collaborations
collaborative
colleagues
collect
collected
collecting
collection
collections
collective
collector
collectum
college
collinder
colombia
color
colorado
colours
columbianus
column
columns
com
combat
combination
combined
come
comes
comfortable
comi
comics
coming
comment
comments
commercial
commission
commit
commitment
commitments
committe
committed
committee
common
commonist
commons
commonsgemenskapen
commonsis
commonskategori
communicate
communicated
communication
communications
communities
community
communityn
compact
companies
company
compared
compendium
competence
competition
competitions
compile
complete
completed
completely
completion
complex
complexity
compliance
comply
comprehensive
computer
con
concat
concept
concepts
concerning
concerns
concert
conclusion
conclusions
concrete
conditions
conduct
conducted
conference
conferences
confident
config
confirmation
conflict
confusion
congress
connect
connected
connecticut
connecting
connection
connections
consectetur
consent
consequat
consider
considered
consistent
consisting
consists
constant
constantine
constantly
constitute
constitution
constraint
constraints
constructive
consultancy
consultants
consulted
contact
contacted
contacting
contacts
contain
containing
contains
contemporary
content
contents
contest
contests
context
contexts
continuation
continue
continued
continues
continuing
continuous
continuously
contra
contract
contracts
contribute
contributed
contributes
contributing
contribution
contributions
contributors
control
controller
convenience
convention
conversation
conversations
conwy
coo
cookies
cool
coola
coolest
coop
cooperate
cooperation
cooperations
coordinate
coordinates
coordinating
coordination
coordinator
coordinators
cop
copco
copenhagen
copies
copy
copyleft
copyright
core
cornelia
corner
cornerstone
coronapandemin
coronavirus
coronaviruset
corporate
corre
correct
corresponding
corresponds
corse
corsicagiella
corun
corvus
cosmetic
cost
costa
costawikimedia
costs
could
council
councils
count
counties
counting
countries
country
counts
county
couple
course
courses
court
cov
covasna
cover
coverage
covered
covering
covid
coworker
coworking
coworkingspace
cp
crash
crawl
create
created
creates
creating
creation
creative
creator
creators
credit
creuse
crises
crisis
cristatus
criteria
critical
crm
cross
crowd
crowdfunding
crowdsourca
crowdsourcing
crucial
cruz
css
cuenca
cuixart
cultural
culture
cultures
cummings
cuoŋoma
cup
currency
current
currently
curriculum
cut
cv
cvandenor
cygnus
cykel
cyklar
cymru
cz
czur
d
da
daaroen
dadja
dadjan
dadjat
dag
daga
dagaha
dagahan
dagahii
dagahit
dagai
dagaid
dagain
dagar
dagarna
dagars
dagas
dagat
dagbladet
dagen
dagens
dagliga
dagligen
dagordning
dagordningen
dags
dagsla
dagstidningar
dagu
dahje
dahjege
dahka
dahkan
dahkat
dahke
dahket
dahkii
dahkki
dahkkojuvvo
dahkkojuvvon
dahkkon
dahkkui
daid
daidda
daily
dain
dainna
dair
dakka
dakko
dakota
dal
dala
dalai
dalarna
dalarnas
dalas
dallat
dalle
dam
dame
daministtar
dan
dana
danbeaivi
danbeaivvi
dance
dande
daniel
danielsen
danielsson
danin
daningo
danish
danma
danmark
danmarks
danne
dans
dansk
dant
dao
dar
dare
darjjesa
dark
darogilli
das
dasa
dasgo
dashboard
dassa
dasto
dat
data
dataa
databas
database
databasen
databaser
databases
datainspektionen
dataka
datama
datan
datasa
datasamlingar
dataset
dataseten
datasets
dataskyddsfo
dataskyddsforordningen
dataskyddsreform
dataskyddsreformen
datat
date
datnja
dato
dator
datorer
datorerna
datorn
datorvana
dattege
dattetge
datum
datumet
dava
david
davimus
davve
davvejovkui
davvenuorta
davvenuorti
davvenuortin
davvesiidda
davvesiiddas
davvi
davvijoavkku
davvijoavku
davvin
davvinja
davvioasis
davviosiin
davviriikalas
davviriikkaid
davviriikkaide
davviriikkain
davviriikkalas
davvisa
day
days
dađi
dađistaga
daŋass
db
dc
dd
dda
ddagat
ddas
dde
ddejuvvo
ddejuvvui
dden
ddes
ddet
ddfinansiering
ddi
ddii
ddinbycha
ddja
ddje
ddjejuvvon
ddning
ddokument
ddonamahusat
ddu
de
dead
deadda
deaddil
deaddu
deadline
deadlines
deahkit
deahkki
deahtisvuohta
deaiva
deal
deami
deanu
deanuleagi
deanus
dearvvas
death
deatnu
deattu
deattuha
deattuhii
deavda
deavdde
deaŧalas
deaŧaleamos
debate
debatt
debattartikel
debattartiklar
debatten
debatto
debit
decals
december
decembermo
decide
decided
deciding
decision
decisions
declaration
decrease
dedicated
dedikerad
dedikerade
dedje
dedupe
deemed
deep
deepen
deeper
default
defaults
define
defined
definiera
definierade
definierar
definieras
definierat
definis
definition
definitionen
definitioner
definitivt
defla
deg
dego
degomat
degree
deha
dei
deike
dekaler
deklaration
deklarationen
deklarationer
deklarerar
del
dela
delad
delade
delades
delaktig
delaktiga
delaktighet
delalika
delandet
delar
delarna
delas
delat
delats
delaware
delays
delegation
delegationsordning
delegationsordningen
delegera
delegeras
delen
delete
deleted
delge
delhi
delictes
deliver
delivered
della
delma
delning
delningar
delningstja
deloitte
delphine
delprojekt
delprojektet
dels
delse
delsedatum
delta
deltaga
deltagande
deltagandet
deltagare
deltagarlistan
deltagarna
deltagarnas
deltagit
deltar
deltid
deltidsansta
deltog
delvis
dem
demand
demo
democratic
demokra
demokrati
demokratiija
demokratin
demokratisk
demokratiska
demokratiskt
den
dena
dendrocopos
denis
denmark
denna
denne
dennes
dennis
densamma
departemeanta
departemeantta
departemeanttas
departemeanttat
department
dependencies
dependent
depending
depicts
deploy
deployment
depres
depth
der
deras
derby
derhjelm
derivative
dermalm
dermanla
derna
derstro
derut
des
desavtal
desc
descr
describe
described
describing
description
descriptions
design
designa
designcentrum
designed
designer
desire
desk
dess
dessa
desse
dessutom
dessva
desto
desvis
det
deta
detail
detailed
details
detalj
detaljer
detaljerad
detaljerade
determine
detroit
dets
detsamma
detta
dette
deutsche
deutschland
deutschlands
deux
dev
develop
developed
developer
developers
developing
development
deviations
devil
df
dfo
dga
dgivande
dgivning
di
dia
diabetes
diabetesa
diagnosa
diagra
diagram
dialeavtta
dialect
dialekt
dialekter
dialog
dialogen
dialogue
diama
diana
dianthus
diarie
diariefo
diariet
diarium
diariumwikimedia
dictionary
did
didn
die
diehta
diehtit
diehtosa
diehtovuođđu
diehtu
diekka
dielddanuorri
dien
dies
diet
dievas
dievasc
dievdduid
dievdoolbmot
dievva
dieđa
dieđagoddi
dieđalas
dieđe
dieđu
dieđuid
dieđus
dieđusge
dieđut
diff
difference
different
differently
difficult
difficulties
diftoŋga
dig
diga
digas
digidel
digikult
digisam
digita
digital
digitala
digitalarchivioricordi
digitalisera
digitaliserad
digitaliserade
digitaliseras
digitaliserat
digitaliserats
digitalisering
digitaliseringen
digitaliseringsarbetet
digitalkamera
digitally
digitalt
digitization
digitized
digitizing
digt
dihte
dihtii
dihto
dihtola
dihtosis
dihtto
dii
diibmu
diimmu
diks
dikta
diktac
diktan
dila
dili
diliid
dilis
dilli
dimension
dimis
din
dina
dio
diplom
diploma
diplomats
diputat
direct
directed
direction
directive
directly
director
directors
directory
direkt
direkta
direktiv
direktivet
direktivets
direktora
dirigents
disable
disadvantages
disagree
disclosure
discogs
discovered
discovery
discuss
discussed
discussing
discussion
discussions
diskriminering
diskussion
diskussionen
diskussioner
diskussionerna
diskussionsforum
diskussionsinla
diskussionspunkt
diskussionssida
diskussionssidan
diskussionssidor
diskutera
diskuterade
diskuterades
diskuterar
diskuteras
diskuterat
diskuterats
disney
display
displaystyle
disponeras
dispositionen
disseminate
disseminated
dissemination
dissiminate
distance
distans
distansarbete
distansarbetspolicy
distansdeltagande
distribuera
distribus
distributed
distribution
district
dit
ditt
diu
dive
diverse
diversifierad
diversifieras
diversifierat
diversity
divided
divo
divohaga
divohagas
divohat
divrra
divs
divtta
divttaid
divttasvuona
divttasvuonas
divttat
divvun
diz
diđolas
diŋggaid
dj
dja
djadoahpaga
djai
djan
djande
djas
dje
djefylkkat
djegielda
djegielddat
djeguovlluin
djeleanat
djelfa
djer
djeriikkat
djesuohkanat
dji
djibouti
djii
djoeanagumppes
dju
djup
djupare
djupdykning
djupgranskning
djupt
djur
djurga
djvu
dk
dla
dlas
dlig
dlo
dmaterial
dmedlemskap
dn
dna
dning
do
doaba
doahpaga
doaibm
doaibma
doaibmabijuid
doaibman
doaibmana
doaibmat
doaim
doaimm
doaimma
doaimmaha
doaimmahaga
doaimmahan
doaimmahat
doaimmaheaddji
doaimmaheaddjin
doaimmaheaddjit
doaimmahii
doaimmahit
doaimmahus
doaimmai
doaimmaid
doaimmaide
doaimmain
doaimmas
doaimmashehttejuvvon
doaimmat
doakta
doalahit
doalai
doalla
doallat
doalut
doalvu
doalvut
doarjaga
doarjja
doarju
doarjut
doarra
doarva
doavttir
doavttirin
doc
dock
docs
docstrings
document
documentacio
documentation
documented
documenting
documents
dod
does
doesn
dog
dohka
dohkka
dohkke
dohkkeha
dohkkehan
dohkkehii
dohkkehit
dohkkehuvvon
dohkkehuvvui
dohko
doi
doibmet
doibmii
doing
dok
doktorander
dokumeanta
dokumeanttaid
dokument
dokumenta
dokumentation
dokumentationen
dokumentationsarbetet
dokumentationsplanen
dokumenten
dokumentera
dokumenterad
dokumenterar
dokumenteras
dokumenterat
dokumenterats
dokumentet
dokumentfo
dokumenthantering
dokumentplan
dokumentplanen
dold
dolin
dolj
dolla
dollava
dolle
dollet
dollojuvvo
dollojuvvui
dolors
dolos
doloz
dolvo
dolvojuvvo
dolvot
dom
doma
domain
domen
domestica
domkyrka
domstol
domstolen
domstolens
domstolsverket
don
donald
donate
donated
donation
donationen
donationer
donationerna
donations
donationskampanj
donationssystem
donator
donatorer
done
donera
donerade
donerar
donerat
donor
donors
doo
doodle
doors
doppe
dor
dordogne
dorotea
dorvoba
dorvvastit
dorvvu
dos
dot
dota
doubs
doubt
douglas
douro
dovda
dovdameahttun
dovdat
dovdda
dovddaldagat
dovddastii
dovddastusa
dovddus
dovddusin
dovdomassii
dovdomearkkat
dovdoseamos
dovdu
down
download
dozen
dr
dra
draft
drake
drar
dras
draw
dret
dricka
drift
drifta
driftadressen
driva
drivande
drivas
drive
driven
driver
driving
drivit
drivna
drivs
dro
drog
droger
drogpolicy
dronnet
drop
dropbox
drosera
drupal
dryck
drygt
ds
dsbon
dsfall
dskande
dsorganisationer
du
dua
dubbelarbete
dubbelkolla
dubbelt
dubbla
dublin
dubmet
duck
duddjon
due
duha
duhpa
duiska
duiskalac
duiskalas
duiskka
duiskkagiella
duiskkagillii
duiskkalas
duiskkas
duktig
duktiga
dulkot
dunkels
duoddarat
duoddariin
duoddaris
duodji
duoga
duohka
duohken
duohkin
duohta
duohtan
duohtavuođa
duohtavuođas
duoja
duoji
duolbbas
duolva
duolvac
duon
duopma
duopmostuollu
duopmostuolu
duopmostuolut
duors
duortnus
duottar
duođai
duođaid
duođalas
duođas
dura
duran
durdnosa
during
durka
durkalas
durkka
durkkas
dus
dusa
dusaid
dusain
dusas
dusat
dusbellodaga
dusbellodat
dusjagi
dusjagis
dutch
duties
dutka
dutkama
dutkamus
dutkan
dutkanfa
dutkanguovdda
dutkat
dutki
dutkin
dutkit
dutkkai
dutkojuvvon
duty
duv
duvah
duvvon
duvvui
dva
dvd
dvs
dyfrdwy
dygn
dygnet
dyka
dyker
dyl
dylan
dylika
dylikt
dynamic
dynamisk
dyr
dyra
dyrare
dyrt
dz
dzim
død
e
ea
eaba
eabeha
eabet
each
eaddji
eadna
eadni
eager
eahkagiella
eahkagillii
eahkka
eahpa
eahpec
eahpeda
eahpeiehc
eahpes
eahppi
eai
eaige
eaigga
eakins
eakta
eaktoda
eala
ealla
ealli
ealligovvebagadalli
ealliid
ealliin
eallima
eallimii
eallimis
eallin
eallit
eambbo
eami
eamia
eamida
eamit
eamitgahpira
ean
eana
eanagottis
eanan
eanandoallu
eanangoddeguovdda
eanangoddi
eanangoddis
eanangotti
eanangottis
eananra
eanas
eandalii
eanemus
eanemusat
eanemusta
eanet
eanetlogu
eanetlohku
eanodaga
eanodagas
eanodat
eanu
eanut
eara
earala
earda
eardda
earddalas
earddat
earenoama
earet
earkebisma
earlier
early
earra
earret
earru
eartas
earth
earuha
earuhit
eas
ease
easier
easily
easka
easkka
east
eastadit
easy
eat
eatnama
eatnamat
eatnamii
eatnamiid
eatnamis
eatnan
eatnandiehtaga
eatnandiehtu
eatnandieđalas
eatnanoassi
eatnanspa
eatnasat
eatnemen
eatni
eatnigiela
eatnigiella
eatnigiellan
eatnigillii
eatnu
eavetja
eavtta
eavttuid
eaŋg
eaŋgalasgiella
eaŋgalasgillii
eaŋgals
eaŋgalsgiela
eaŋgalsgiella
eaŋgalsgillii
eb
eba
ebba
eboras
ebu
ec
ecdc
ece
economic
ecosystem
ecosystems
ecuador
ecuadora
ed
edaen
edgar
edge
edgeøya
edirne
edit
editathon
editathons
edited
editing
edition
editor
editorial
editors
edits
editsp
edje
edlund
edmund
edovdi
edu
educate
educating
education
educational
educators
eduskunta
edvard
edward
ee
eec
ees
eesti
eeva
efal
effect
effective
effectively
effects
effekt
effekten
effekter
effekterna
effektiv
effektiva
effektivare
effektivisera
effektivitet
effektiviteten
effektivt
efficiency
efficient
efficiently
effort
efforts
efter
eftera
efterfo
efterforskningar
efterfra
efterhand
efterkommande
eftermiddag
eftermiddagen
efternamn
efterso
eftersom
efterstra
eftertanke
eg
egalt
egen
egendom
egenfinansiering
egeninsats
egenskap
egenskaper
egentliga
egentligen
eget
egil
egna
egypta
egyptalas
ehas
ehf
ehkkia
ehkoslovakia
ehn
ehpet
ehpiid
ehr
ei
eibyelva
eidsvoll
eiffel
eight
eiker
ein
einar
einarsen
eine
einnosteaddji
einnostit
einnostusaid
einnostusat
einstein
eira
eiseva
eit
either
ej
ek
ekg
eklund
ekonomalas
ekonomi
ekonomiadministrato
ekonomiarbete
ekonomiassistent
ekonomiassistenten
ekonomiija
ekonomiijalas
ekonomin
ekonomirevisor
ekonomisk
ekonomiska
ekonomiskt
ekonomisystem
ekonomisystemet
ekosystem
ekosystemet
ekovuoga
ekstro
ektui
ekumenalas
ekva
ekvationen
ekvatoria
el
ela
eldsja
ele
elected
election
elections
elefa
elektralas
elektrihkalas
elektroda
elektronat
elektronba
elektronisk
elektroniska
elektroniskt
elektrovnna
elektrovnnalas
elektrovnnat
element
elementa
elev
elevator
elever
eleverna
elevers
elevra
elges
eli
elias
elicit
eliel
elig
eliga
eligt
elii
elima
elin
elisabet
elisabeth
elizabeth
ella
elle
ellen
eller
ellet
elliid
ellinor
elmfeldt
els
elsa
else
elsen
elsewhere
elsker
elva
elza
em
email
emanuel
embassies
embassy
emberiza
emellan
emellana
emellertid
emeritus
emil
emilia
emma
emner
emot
emotta
employed
employee
employees
employer
employers
employment
emuls
en
ena
enable
enabled
enabling
enas
enbart
enciclope
enciclopedia
enciklopedija
encounter
encountered
encourage
encouraged
encouraging
encyclopedia
encyclopedias
encyclopædia
encyklopedi
encyklopedin
end
enda
endast
ende
ended
enden
endera
endes
ending
endjukovskij
endorse
endringer
enebakk
eneloop
energi
energiija
energiijan
energiijas
enetsagiella
eng
enga
engage
engaged
engagemang
engagemanget
engagement
engagera
engagerad
engagerade
engagerande
engagerar
engageras
engagerat
engaging
engelsk
engelska
engelskspra
engerdal
engine
engla
england
english
enha
enhance
enhanced
enhancement
enhet
enheter
enhetlig
enhetliga
enhetlighet
enhetligt
eniga
enjoyed
enka
enkel
enkelhet
enkelt
enkla
enklare
enklast
enklaste
enlighet
enligt
enlli
enn
eno
enonkoski
enontekio
enorm
enormous
enormt
enough
enpa
enrich
ens
ensam
ensamra
enskild
enskilda
enskilt
enstaka
ensure
ensured
ensures
ensuring
enter
entertainment
entire
entirely
entities
entity
entre
entsymat
entydigt
envar
environment
environmental
envisioning
enwp
eos
ep
epa
epiroc
epitela
epost
epostadress
equal
equality
equipment
equisetum
equity
equivalent
er
era
erasmus
erat
erbjo
erbjuda
erbjudande
erbjudas
erbjuder
erbjudit
erbjuds
erdii
erenoama
erenoma
erenomas
eret
erfaren
erfarenhet
erfarenheten
erfarenheter
erfarenheterna
erfarenhetsutbyte
erfarna
erforderlig
erha
eric
erik
eriksen
eriksson
eritrea
erka
erke
erkki
erland
erling
erna
ernst
erohus
erohusaid
erohusat
eros
erroneous
error
errors
ersa
ersagiella
ert
es
esa
esc
eskilstuna
eskimo
eskimogielat
espa
espan
especially
espen
espoo
essa
essay
essential
essiiva
essonne
est
establish
established
establishing
estates
estelle
ester
estetiska
estimate
estimated
estla
estland
esto
estteeana
estteeatnama
estteeatnamis
esttegiella
esttegillii
estteriika
estteriikkas
esuonaid
esuonat
et
etablera
etablerad
etablerade
etablerar
etableras
etablerat
etablerats
etablering
etableringsbidrag
etc
etcetera
etela
etherpad
ethnologue
etikett
etiopia
etne
etnihkalas
etnografiska
ett
etta
etter
ettiin
etymologas
eu
euipo
eur
eura
eurajoki
eure
euro
eurohpa
eurohpalas
euroopan
europa
europaparlamentariker
europaparlamentet
europas
europe
european
europeana
europeanas
europeisk
europeiska
europeiskt
eurovision
ev
eva
evaluate
evaluation
evangelium
evaŋgelalas
eveaijohka
evelina
evelyn
even
evena
evenemang
evenemangen
evenemanget
evenemangets
evenemangs
event
eventbrite
eventen
eventet
events
eventuell
eventuella
eventuellt
ever
everest
every
everybody
everyone
everything
evidence
evija
evttoha
evttohas
evttohasa
evttohassan
evttohii
evttohusa
evttohuvvon
evuojas
ex
exact
exakt
exakta
examen
examensarbete
example
examples
exceeding
excellent
except
exception
exceptions
exchange
exciting
exclusive
execute
executing
executive
exempel
exempelvis
exemplar
exemplen
exemplet
exhibition
exist
existerande
existerar
existing
exists
exkl
exkluderas
exklusiva
exklusive
expand
expanded
expandera
expansion
expect
expectations
expected
expenses
experience
experienced
experiences
experiment
experimental
experimentation
experimented
experimentell
experimentella
experimenten
experimentera
experimenterade
experimenterande
experimenterar
experimenting
experiments
expert
experter
expertgrupp
experthja
expertis
expertise
expertkommitte
expertkunskap
experts
explain
explicit
explicitly
explore
explorer
exploring
exponering
export
exportera
exporteras
expressed
expressen
expression
extend
extended
extends
extension
extensions
extensive
extensively
extent
extern
externa
external
externalid
externally
externfinansierade
externt
extra
extraarbete
extraordinary
extrema
exupe
eye
eyes
eystra
eøs
eŋg
eŋgelas
eŋgelasgiela
eŋgelasgiella
eŋgelasgillii
eŋgla
f
fa
face
facebook
facebookgrupp
facebooksida
facilitate
facilitator
fackfo
facklig
facklitteratur
fact
facto
factors
facts
fagersta
fagerving
fail
failed
failure
fair
fairly
fairs
fake
fakta
faktabaserat
faktagranskning
faktiska
faktiskt
faktor
faktorer
faktum
faktura
fakturadatum
fakturan
fakturanummer
fakturerar
faktureras
fakturering
fakturor
fakturorna
fakultehta
fal
falanger
falangstrider
falas
falco
falk
fall
falla
falleheami
fallen
faller
fallet
fallstudier
fallstudierna
false
falsk
falun
familjen
family
fanas
fann
fanns
fantastisk
fantastiska
fantastiskt
fao
faq
far
fara
fargga
farmer
fars
fart
fartyg
fas
fasa
fasen
fashion
faso
fast
fasta
faster
fastpack
fastsla
fastslagna
fastslogs
faststa
fat
fataburen
fatta
fattade
fattar
fattas
fattat
fb
fc
fd
fdc
fear
feara
fearagiella
fearsullot
fearsulluid
fearsulluin
feaska
feaskkir
feature
featured
features
februari
february
federal
federas
federation
fedje
fee
feedback
feedbacken
feel
feeling
fees
feif
fel
felaktig
felaktiga
felaktigheter
felaktigt
felet
felis
fellowship
felmeddelande
felmeddelanden
felo
felso
fem
fema
female
fembio
feminism
feminisma
femte
fenno
fennougristihka
fenomen
feodoroff
ferdinand
ferm
ferner
ferte
fertejit
fertii
fest
festiva
festival
festivalen
fet
fetstil
few
fewer
ff
ffa
ffade
ffades
ffande
ffar
ffarna
ffas
ffat
ffats
ffe
ffen
fi
fiba
ficedula
fick
fiction
fidnii
field
fields
fiellu
fierpma
fievrredit
fifth
figure
fiila
fijisullot
fika
fikabro
fikarummet
fil
filbma
filbmadahkki
filbmafestiva
filbmii
file
filed
filen
filename
filenamn
filer
filerna
files
filformat
filip
filipendula
filippiinnat
fill
filled
film
filma
filmen
filmer
filmerna
filmkamera
filmklipp
filmma
filmmaid
filmmain
filmmas
filmportal
filmprojekt
films
filnamn
filnamnet
filosofa
filosofi
filosofiija
filter
fin
fina
final
finalen
finalist
finalized
finally
finance
financed
financial
financing
finansia
finansiell
finansiella
finansiellt
finansiera
finansierad
finansierade
finansierades
finansierar
finansieras
finansierat
finansiering
finansieringar
finansieringen
finansieringsa
finansieringsmo
finansieringsplan
finansieringsplaner
finansieringspolicy
finansieringspolicyn
finansinspektionens
find
finding
findingglams
findings
fine
finess
finesser
fingeravtryck
finish
finished
finiste
finla
finland
finlandia
finlands
finma
finmarken
finn
finna
finnas
finnemis
finner
finnes
finnish
finnma
finnmark
finnmarken
finno
finns
finsk
finska
finspa
fint
fira
firande
firandet
fire
firefox
firm
firma
firman
firmatecknare
firmateckning
firmateckningsordning
firmateckningsra
first
fis
fiscal
fischer
fiskes
fiskesra
fist
fit
fitnan
fitnat
fitnessma
fitnodaga
fitnodagaid
fitnodagas
fitnodat
five
fix
fixa
fixar
fixat
fixed
fixing
fiz
fja
fjellheim
fjodor
fjordane
fk
fkageu
fkey
fl
fla
flagga
fleming
fler
flera
flerspra
flertal
flertalet
flest
flesta
flex
flexibel
flexibelt
flexibilitet
flexibla
flexible
flexla
flextid
flextider
flight
flikar
fliken
flip
flipped
flitigt
flo
floor
flora
florida
flyers
flyg
flygblad
flygfoto
flygfoton
flygplan
flying
flytande
flytt
flytta
flyttade
flyttar
flyttas
flyttat
flyttats
flytten
fmx
fn
fo
focus
focused
focuses
focusing
fofonoff
fogelberg
fokus
fokusera
fokuserad
fokuserade
fokuserar
fokuseras
fokuserat
fokuset
fokusomra
folk
folkbildarforum
folkbildning
folkbildningen
folkbildningens
folkbildningsna
folkbildningsra
folkemengde
folkendrkv
folkesson
folket
folkha
folkho
folkma
folkpartiet
folkpartiets
folkro
folkvalda
folldal
follow
followed
followers
following
follows
fonder
fonetihkalas
font
food
football
footer
fop
for
fora
forcadell
force
forced
forces
fordran
fordringar
foreign
foremothers
foreningens
forest
forlag
forlandas
form
forma
formal
formally
formas
format
formatet
formats
formatted
formed
formell
formella
formellt
formen
former
formerna
formgivning
forming
forms
formula
formulera
formulerad
formulerade
formulerar
formuleras
formulerat
formulering
formuleringar
formuleringen
forn
fornla
fornminnen
fornminnesjakten
fornminnesregistret
forsa
forska
forskar
forskare
forskarkonferenser
forskning
forskningen
forskningens
forskningsbibliotek
forskningsprojekt
forskrift
forssa
fort
fortare
fortbildning
fortbildningar
fortfarande
fortga
fortlo
fortnox
forts
fortsa
fortsatt
fortsatta
fortsatte
fortskrider
forum
foruma
forward
fosen
foss
fot
fota
fotat
foto
fotograf
fotografen
fotografer
fotografera
fotograferade
fotograferande
fotograferar
fotograferas
fotograferat
fotografering
fotograferingen
fotograferna
fotografi
fotografier
fotografierna
fotografisk
fotografiska
fotografiskt
fotoklubbar
fotoma
foton
fotoobjekten
fotosafari
fotosafarier
fotosafarin
fotosafaris
fotosidan
fotot
fotota
fototillfa
fotoutsta
fou
found
foundation
foundations
founded
founding
four
fr
fra
fragile
frakt
frakturstil
fram
frama
framework
framfo
framga
framha
framho
framkant
framkommit
framme
framo
framskjuten
framskridande
framsta
framsteg
framtagande
framtagandet
framtagen
framtaget
framtagna
framtid
framtida
framtiden
framtidssa
framtra
framva
fran
franc
france
frances
francis
francisco
franciscos
francke
frank
frankfurt
franklin
frankriika
frankriikalas
frankriikka
frankriikkas
frankrike
franska
fransson
fre
fred
fredag
fredagen
fredags
frederick
frederik
fredrik
fredrika
fredriksen
fredrikstad
free
freebase
freedom
freely
freiburg
frem
fremia
french
frendin
frequency
frequent
freud
fri
fria
friare
friddja
friddjavuođa
friddjavuođaid
fridman
friedrich
friendly
frigo
frihet
friheten
friheter
friija
friis
friisagiella
frikunskap
frilicensierat
fringilla
friskriva
friskva
frisla
frista
fritext
fritextsvar
fritid
fritt
friuli
frivillig
frivilliga
frivilligas
frivilligengagemang
frivilliggemenskap
frivilligt
frivilliguppdrag
frivilligutbildning
fro
frode
frogn
from
fron
fronts
frost
frosta
frp
frukost
frukt
frukter
frustration
fruvva
fs
fscons
fta
ftar
ftat
fte
ftelse
ften
fu
fujitsu
fulfill
fulfilled
fulfilling
full
fulla
fullfo
fullgjort
fullgo
fullmakt
fullmakts
fullo
fullsta
fullt
fully
fun
func
function
functionalities
functionality
functioning
functions
fund
funded
fundera
funderar
funderat
funderingar
funders
funding
fundraise
fundraiser
fundraisern
fundraising
fundraisingen
funds
fungera
fungerade
fungerande
fungerar
fungerat
funkade
funkar
funkjoker
funks
funktion
funktiona
funktionalitet
funktionaliteten
funktionell
funktionen
funktioner
funktionerna
funktionsadresser
funktionsnedsa
funktionsvariationer
funnit
funnits
fuobma
fuolaha
fuolahit
fuolakeahtta
fuolkegiella
fuolki
fuoma
fuones
further
furthermore
fus
fuscus
futuna
future
fuðborgarsvæðið
fylka
fylke
fylkestinget
fylkii
fylkka
fylkkagielddas
fylkkain
fylkkama
fylkkas
fylkkasuohkanis
fylkkat
fyll
fylla
fyllas
fyllde
fyller
fylls
fyllts
fyra
fyraa
fyrtio
fyrtiotal
fysihka
fysihkar
fysihkka
fysihkkar
fysika
fysisk
fysiska
fysiskt
førde
først
første
g
ga
gabon
gabriel
gade
gadget
gadoalli
gadoallin
gadoallit
gaelagiella
gaga
gagn
gagna
gagnef
gahc
gahperba
gahperma
gahpir
gahpira
gahr
gaid
gain
gained
gajođiheaddji
gajođiheaddjin
gal
gala
galaksaid
galaksat
galas
galat
galaxy
galbarihcci
galbma
galdhøpiggen
galegogiella
galerie
galga
galge
galget
galgga
galggai
galggas
galggat
galle
gallen
gallerier
galleries
gallery
gallis
gallras
gallring
gallringen
galmmas
galva
game
games
gamla
gamle
gamlega
gammal
gammalt
gan
ganat
ganda
gande
gandhi
gang
ganin
ganska
gao
gap
gaps
gar
gara
garantera
garanterar
garanteras
garantier
garas
garci
gard
gardner
gare
garen
garfield
gargiaelva
gargŋil
garna
garonne
garra
garrasit
gas
gasa
gaska
gaskaa
gaskal
gaskameara
gaskan
gaskaneaset
gaskasas
gaski
gaskii
gaskka
gaskkaid
gaskkal
gaskkamus
gaskkas
gaskkat
gaskkohagaid
gasku
gassa
gat
gate
gather
gathered
gathering
gatherings
gats
gaup
gaupa
gauriloff
gav
gave
gavia
gavs
gaz
gazette
gazetteer
gb
gberg
gbeskrivning
gbiljett
gc
gcu
gda
gdansk
gde
gdpr
ge
geafesvuođa
geahc
geahppa
geaid
geaidda
geaidnu
geaiga
geain
geainnu
gean
gearbmas
geardde
gearddi
geardi
gearggai
geas
geasa
geassa
geassema
geasset
geassit
geasuha
geat
geatki
geatkki
geatnegasvuohta
geatnegasvuođa
geatnegasvuođaid
geatnegasvuođat
geavadis
geavaha
geavahan
geavaheami
geavaheapma
geavaheapmi
geavahedje
geavahettiin
geavahii
geavahis
geavahit
geavahusas
geavahussii
geavahuvvo
geavahuvvojit
geavahuvvon
geavahuvvui
geavat
geavatlas
geavu
geaz
geađgea
geađggis
geađgi
gec
gedigen
gefiid
geformula
gefvert
gehc
geir
gelbbolas
gelo
gemensam
gemensamma
gemensamt
gemenskap
gemenskapen
gemenskapens
gemenskapensprojekt
gemenskaper
gemenskaperna
gen
gena
gender
genealogy
geneastar
genehtalas
genera
general
generally
generalsekreterare
generalsekreteraren
generation
generationer
generell
generella
generellt
generera
genererandet
genererar
genereras
generering
genero
generous
genetiiva
geneve
genhet
genom
genoma
genomf
genomfo
genomga
genomslag
genomsnitt
genomta
gentemot
genusfotografen
genva
geocaching
geogra
geografi
geografiija
geografisk
geografiska
geografiskt
geographical
georg
george
georges
georgia
georgias
ger
gerdeltagare
gerhard
gerhardsen
geri
gerier
gerklicka
gerledare
germa
german
germany
gerrit
gers
ges
gesanalys
gessymbolerna
gesta
get
gets
gett
getting
getts
getty
gg
gga
ggande
ggar
ggas
gge
ggen
gger
gget
ggi
ggmingel
ggning
ggningar
ggningen
ggs
ggsavtal
ggu
ghana
ghanas
ghardai
gi
gick
gicks
gid
gida
gidan
giddagasas
giddagassii
giddejuvvon
gidii
gidit
giduvvo
giduvvon
giduvvui
giebmega
giehka
giehta
giehtac
giehtavuona
giel
giela
gielaid
gielaide
gielain
gielalas
gielas
gielat
gielda
gieldan
gieldat
gieldda
gielddaid
gielddain
gielddas
gielddasa
gielddat
gielddus
giella
giellabearras
giellabeasi
giellabeassedoaibma
giellabeassi
gielladiehtaga
gielladutkama
gielladutki
giellaeala
giellaga
giellagas
giellagodda
giellala
giellan
giellaoahpu
giellatekno
giemaja
giemasa
giepma
gierda
gievra
gievrras
gieđahalai
gieđahalla
gieđahallat
gift
gihttel
gii
giid
giin
giitu
gila
gildii
gili
giliin
gilis
gilit
gilla
gillade
gillar
gilli
gillii
giltighetstid
gilvu
gilvui
gilvvohallama
gilvvohallamii
gilvvohallit
gilvvu
gilvvuid
gilvvuin
gilvvus
gilvvut
girdet
girdi
girdis
girdisa
girdit
girja
girje
girjeba
girjec
girjeda
girjega
girjegiisa
girjera
girji
girjja
girjji
girjjiid
girjjiide
girjjiin
girjjis
girjjistis
girjjit
girkkus
girkoga
girkogilli
girkonja
girkora
girku
girkui
girkuid
girkus
girkusla
girkut
girl
girls
girokonto
girokontot
giron
girona
gironde
gironis
gis
gita
github
gitta
giulia
giurgiu
giva
givande
givare
givaren
givarens
givares
give
giveaways
given
gives
givet
givetvis
giving
givit
givits
gizmodo
giđa
giđđa
giđđat
gjennom
gjerdrum
gjord
gjorda
gjorde
gjordes
gjort
gjorts
gkvalitativ
gkvalitativa
gkvalitativt
gl
gla
glad
glada
glam
glamcamp
glamorous
glams
glamwiki
glapp
glar
glas
gleda
gledande
gledning
glesys
glo
globa
global
globala
globally
globalt
globe
glossary
glu
gmail
gna
gnar
gnas
gnd
gnesta
gning
gningar
gningen
gningsdatum
gningstid
gnosjo
gnu
go
goabba
goabbat
goahta
goal
goalmma
goals
goappa
goappas
goas
goasii
goaskin
goaskinviellja
goassege
goassige
goasttadeaddjit
goasttideaddji
goavddis
goaŧŧoc
god
goda
godda
godde
goddesa
goddi
goddima
goddit
godka
godo
goes
goethe
gogh
gohc
gohte
going
goit
goitge
goittoge
goittot
goittotge
gokc
gokko
golbma
gold
golden
golga
golggotma
golgi
golla
gollegiella
gollemeda
gollera
golli
golmma
golmmac
gomuvuhtii
gomuvuohta
gomuvuođa
gomuvuođas
gon
gonagas
gonagasa
gonagasas
gonagaslas
gonagasriika
gonagasriikka
gonagassan
gonagassii
gonagasviessu
gone
gonprincip
gons
gonsin
gonstans
gonting
good
goodwill
google
googles
gor
gordon
gorj
gorna
goros
goroz
gorrot
goruda
gorut
gorz
gos
gosa
gosławski
got
goteborg
gothenburg
gotla
gotland
goto
gott
gotti
gottis
gov
gova
govaid
govat
govc
govda
govern
governance
governing
government
governmental
govttolas
govva
govvac
govvada
govvagirji
govvara
govvet
govvida
govvidit
goya
goz
gođii
gođus
gođđosiid
gp
gpl
gprioriterade
gprioriterat
gps
gr
gra
grace
grad
gradvis
grafik
grafisk
grafiska
grafiskt
gramm
grammar
grammatica
grammatik
grammatikk
gran
granada
grand
grande
granska
granskad
granskar
granskas
granskat
granskning
granskningen
grant
grantee
grants
grantthornton
graphics
gratis
grattis
grave
gravitas
gre
great
greater
greatest
greavva
green
greenland
gregoria
greika
greikalas
greikka
greikkagiela
greikkagillii
greikkalas
greikkas
greinsmark
grej
grejer
gren
grenen
gret
gri
gro
group
groups
grov
grow
growing
grown
growth
gru
grund
grundades
grundare
grundas
grundat
grunden
grunder
grunderna
grundla
grundpla
grundprinciperna
grundskola
grundskolans
grup
grupp
grupparbete
gruppdeltagare
gruppdiskussioner
gruppen
grupper
grupperingar
grupperna
gruppmo
gruppo
grupprum
gruppuppdelad
gruppuppdelat
gs
gskola
gskolan
gskolans
gskoleverket
gskolor
gskolorna
gst
gsta
gstadiet
gsuite
gt
gu
guadalajara
guadeloupe
guam
guardian
guatemala
guatemalas
guayaquil
gudneba
gudni
gudnin
gudrun
guelma
guhka
guhkes
guhkesgirku
guhkimus
guhkit
guhkki
guhkkin
guhkkodat
guhkkodatnjuiken
guhkkosas
guhkku
guhku
guhte
guhtege
guhtet
guhtta
guida
guidance
guide
guidelines
guiden
guider
guidning
guillermo
guinea
guipu
guktii
gul
gula
gulai
gulda
guldalit
guldbrandsson
guliid
gulla
gullan
gullat
gulle
gullet
gullevas
gullo
gullojit
gult
gumpe
gumposat
gunilla
gunnar
gunvor
guobbarat
guoddit
guoibmi
guokta
guokte
guoktenuppeloga
guola
guolga
guoli
guolli
guoras
guoros
guorosvuohta
guoska
guoskat
guoskevas
guoski
guossa
guovdageaidnu
guovdageaidnulas
guovdageaineanu
guovdageainnu
guovdageainnus
guovdda
guovddas
guovdu
guovllu
guovlluha
guovlluid
guovlluide
guovlluin
guovllus
guovllut
guovlogielda
guovlogielddain
guovlogildii
guovloha
guovlu
guovlugielda
guovlugildii
guovtte
guovttegielat
guovttela
guovtteta
guovtti
guovttos
guovvama
guovz
guođđit
gupplo
guru
gurut
gurutbellodagain
gurutbellodat
gusket
gustaf
gustav
gustave
gusto
gutenberg
guttorm
guttormsen
guvlui
guvttiidlohku
guvttiin
guy
guyana
guyane
guđa
guđat
guđe
guđege
guđet
guđetge
guđetgela
guđetla
guđii
gwynedda
gymnasieklubbar
gymnasiela
gymnasieskola
gymnasieskolor
gymnasiet
gymnasium
gynna
gynnar
gynnas
gz
gøy
h
ha
haag
haakon
haapaja
haapakoski
haapala
haapama
haapaniemi
haapasalo
haapavesi
haavisto
habitual
habsburg
habyarimana
hac
hack
hackathon
hackathonet
hackathons
hacked
had
hadde
hade
haft
haga
hagaid
hagas
hagat
hahkii
haifa
hailuoto
haiti
haka
hal
halai
halden
half
haliaeetus
halikon
halla
hallan
halle
hallitus
hallunda
hallwyl
hallwyllska
hallwylska
halmstad
halsua
halv
halva
halvan
halvtid
hamar
hamina
hammarba
hammarby
hammerfest
hamna
hamnade
hamnar
hampshire
han
hand
handbok
handboken
handbook
handed
handel
handeln
handelsdirektivet
handen
handfull
handgrepp
handhar
handhavande
handkassa
handla
handlade
handlar
handlat
handle
handled
handledare
handledning
handles
handling
handlingar
handlingarna
handlingsplan
hands
handuppra
hanes
hangout
hangouts
hankasalmi
hann
hanna
hannele
hannibal
hannu
hans
hansen
hantera
hanterar
hanteras
hanterat
hanterats
hantering
hanteringen
hantigiella
hantverkargatan
haparanda
happen
happened
happening
happens
happy
har
harald
hard
harder
hareide
harghita
harjavalta
harju
harjumaa
harlem
harmonisering
harpercollins
harri
harriet
harry
hartola
has
hashfunktioner
hashtag
hashtags
haskiya
hasselberg
hasselbrink
hastighet
hasvik
hat
hatla
hattula
haugesund
haukipudas
haukivuori
hausja
haut
hautala
haute
hautes
hauts
hava
have
haven
having
hawaiisullot
haxpett
haŋŋa
hbtqi
hc
hca
hcai
hcaptcha
hcatloddi
hcca
hccat
hcce
hce
hceda
hcesullo
hcesullos
hcesuolu
hci
hd
hdmi
he
hea
head
header
headquarters
headset
heahta
heaita
heaitit
heaittihuvvui
heajos
health
healthy
heanalas
hear
heargi
hearing
hearra
heart
hearva
hearvvat
heasta
heastafa
heastta
heasttaid
heasttain
heasttat
heath
heavy
heaŋga
hebreagillii
hedemora
hedjonan
hedma
hedmark
heidi
height
heikki
heikkila
heina
heino
heinola
heinrich
heittii
heittot
heive
heivvolas
hej
hejda
hel
hela
helander
held
heldag
heldags
hele
helen
helena
helene
helg
helga
helge
helgen
helgens
helhet
helheten
helhetsbild
helicopter
helikopter
helium
helixgymnasiet
hell
hellaakoski
heller
hello
hellre
hellroth
helmi
helmikirjonta
help
helpdesk
helpdesken
helped
helpful
helping
helps
helsingborg
helsingborgs
helsingfors
helsingin
helsinki
helssega
helssegis
helsset
helst
helt
helta
heltid
heltidsansta
heltidstja
hem
hemarbete
hembygd
hembygdens
hembygdsfo
hembygdsro
hemifra
hemisfa
hemla
hemma
hemmakontoren
hemmo
hemresa
hemsida
hemsidan
hemsidor
hen
hence
hendrik
henkilo
henne
hennes
henning
henri
henrietta
henrik
henriksen
henriksson
henry
her
hera
hercegovina
here
hereby
heritage
herman
hermann
herrarna
herttot
herøy
hesitate
hesse
hesses
het
heter
hetta
hexa
hh
hi
hieraaetus
higgsa
high
higher
highest
highlight
highlighted
highlighting
highlights
highly
hii
hiid
hiippakunta
hilda
hill
hillary
himanka
himmelsfa
hin
hinder
hindigiella
hindra
hindrar
hindras
hindren
hindulas
hinna
hinner
hip
hippolais
hiraganas
hirbmat
hire
hired
hiring
hirundo
hirvasvuopio
hirvensalmi
hirvioja
hirvonen
his
hiss
hissingen
historia
historical
historically
historie
historien
historihkka
historik
historiker
historisk
historiska
historiskt
historja
historjja
history
hit
hitintills
hitler
hits
hitta
hittade
hittar
hittas
hittat
hittil
hittills
hja
hjalp
hjo
hjulet
hka
hkaa
hkada
hkadan
hkadeaddjit
hkadedje
hkadii
hkadit
hkadoallin
hkadus
hkadusa
hkaduvvo
hkaduvvon
hkaduvvui
hkai
hkan
hkanja
hkas
hkat
hke
hki
hkidii
hkii
hkis
hkisvuohta
hkisvuođa
hkka
hkket
hkkilsa
hkkimis
hkkor
hkku
hko
hku
hl
hlberg
hlin
hnemat
hnemiid
hnemiin
hnenguovttos
ho
hoas
hoavda
hobby
hobøl
hoc
hof
hofors
holbrook
hold
holding
holds
hole
holger
holgers
holla
hollola
holm
holmberg
holmestrand
holstein
home
homo
hon
hongisto
honkajoki
honnesva
honom
honor
honshu
hop
hope
hoped
hopeful
hopefully
hoping
hopp
hoppa
hoppades
hoppar
hoppas
hoppats
horbma
hordala
horizon
horizontal
hornsgatan
hornstull
horse
horses
hos
host
hosted
hot
hotel
hotell
hotmail
houdini
hour
hours
house
housing
hovedstaden
how
however
hoŋkoŋ
hp
hpa
hpaid
hpal
hpana
hpangiela
hpanis
hpat
hpedovtta
hpi
hpis
hpoluobbala
hpoluobbalis
hpoluoppal
hppa
hppan
hppes
hppi
hpv
hr
href
hrsg
hrvatska
hs
hta
htaid
htaide
htain
htalac
htalas
htaministara
htaministtar
htaministtarin
htamus
htan
htaoaiva
htaolmma
htara
htareaddji
htaredje
htarii
htarit
htarusis
htarussii
htas
htat
htava
htdocs
hte
htengillii
hter
htera
hterbihta
htii
htm
htme
html
htolas
htor
htora
htta
httan
htte
httet
httit
http
https
httu
htu
htus
htusa
hu
huang
hub
hubb
hubbar
hubben
hubbens
hubble
hubbverksamhet
hubmit
hubs
huddinge
hudson
huelva
huesca
huge
hugo
hui
huittinen
huksejuvvo
huksejuvvon
huksejuvvui
huksen
hukset
human
humaniora
humanisttalas
humans
humility
humor
humppila
hun
hundra
hundratal
hundratals
hundratusentals
hundred
hundreds
hunedoara
hunnit
hunt
hunts
huomiota
hupma
hupmat
hupmet
hupmi
hupmiin
hupmojuvvo
hupmojuvvui
hur
hurdal
hurdles
hurum
huruvida
hus
husa
husaid
husaide
husain
husas
husat
huserar
huset
husnr
hussein
hutki
hutkkai
hutkojuvvon
hutu
hutuid
hutut
huvai
huvud
huvudarbetsplatsen
huvudbok
huvudboken
huvuddelen
huvudfokus
huvudkontor
huvudma
huvudpersoner
huvudsak
huvudsakliga
huvudsakligen
huvudsakligt
huvudsida
huvudsidan
huvudsyfte
huvva
huvvan
huvvo
hva
hvem
hwnn
hydrogena
hyggligt
hyperla
hypotermiija
hyr
hyra
hyresva
hyrynsalmi
hyva
hyvinka
hætta
høgskole
høland
høybra
i
ia
ialomit
ian
ias
iata
iba
iban
ibbas
ibbi
ibc
ibenik
ibfk
ibi
ibida
ibidedje
ibidit
ibiduvvo
ibland
ibmo
ibmosa
ibmosat
ibmosis
ibmosuonat
ibmu
ibmui
ibrahim
ibsen
ic
ica
ican
icao
icat
iccastagaid
iccastagat
icde
ice
icelandic
icke
icom
icon
id
ida
idag
idaga
idaho
idalit
idda
iddac
iddaguovdda
iddalas
iddamusea
iddamuseas
iddar
iddu
idduid
idduin
iddus
iddut
ide
idea
ideal
idealt
ideas
ideell
ideella
ideellt
iden
identification
identified
identifiera
identifierade
identifierar
identifierare
identifieras
identifierat
identifierats
identifiering
identifiers
identify
identifying
identitehta
identitet
identities
identity
ideologi
ideologiija
idet
idg
idga
idgirjec
idgirji
idi
idja
idla
idna
idnasa
idnasat
idnasiid
idnosat
idnu
idogovaid
idskuvla
idskuvllas
idsuodjalusa
idsuolu
idu
idut
iduvvan
ie
iega
iegaga
iegahas
iegat
iegus
iehc
iehka
iehtadus
iehtadusa
iekc
iekŋaleamos
iekŋalis
ielga
ielgasit
ielgeađa
ielgeađđama
ielgeda
ielggas
ielggi
ielgi
ies
ievc
iez
iezas
ieŋal
if
ifall
ifinnmark
ifla
ifra
iga
igasas
ige
igeahc
igec
igeguovdilis
igemearkkas
igen
igenka
igenom
igge
iggi
iggiid
iggiin
iggis
iggit
iggui
igi
igin
ignore
igodaga
igodagaid
igodagas
igodahkii
igodat
igos
igu
iguin
igumenia
igumus
ih
iha
ihc
ihni
ihnniide
ihnnit
ihop
ihta
ii
iid
iidda
iide
iidna
iige
iigo
iiguin
iii
iin
iirragiella
iis
iisakki
iisalmi
iitti
ij
ija
ijagiella
ijahis
ik
ika
ikaalinen
ikdc
ikea
ikemearkkas
ikenama
ikenamaid
ikenamat
ikenamma
iki
ikin
ikit
ikka
ikke
ikki
ikkiid
ikkiin
ikkis
ikkistis
ikkit
ikkje
ikko
ikkuha
ikkuhan
ikkuhii
ikkuhit
ikkuhus
ikkuhusa
ikkuhusaid
ikkuhusat
iko
ikonen
iks
iksa
ikt
il
ila
ilbma
ilbmi
ile
ilevas
ilfov
ilge
ilgehus
ilget
ilgii
ilit
ilju
iljus
ilkka
illa
illatiiva
ille
illinois
illizi
illjocihcelottiide
illjocihci
illju
illjui
illohas
illustration
illustrationer
illustrationsbehov
illustrera
illustrerar
ilmajoki
ilmari
ilmma
ilmmai
ilmme
ilmmea
ilmmemeas
ilmmesoađi
ilmmi
ilmmia
ilmmiid
ilmmimeas
ilmmis
ilmmisoahti
ilmmisoađi
ilmmiviidosas
ilo
iloinen
ilomantsi
ilshammar
iltalehti
ilu
ilves
im
ima
image
images
imas
imatra
imbalance
imdb
img
immanuel
immateriellt
immediately
immigrants
immu
immunitehta
immus
immusfa
immuvdnavuoga
imorgon
impact
impairment
imperatiiva
imperatiivva
implement
implementation
implemented
implementera
implementerade
implementeras
implementering
implementeringen
implementeringstid
implementing
imponerande
import
importance
important
importantly
imported
importen
importera
importeras
impossible
improve
improved
improvement
improvements
improving
in
ina
inari
inarinsaamen
inbegripet
inbetalade
inbetalning
inbetalningar
inbetalningen
inbetalningskort
inbjudan
inbjuden
inbjudit
inbjudna
inbjudningar
inblandade
inblick
inbo
inbyggda
inc
incategory
incheckningen
incidentrapport
incidentrapporter
incitament
include
included
includes
including
inclusion
inclusive
income
incomes
increase
increased
increases
increasing
increasingly
incremental
ind
independent
independently
index
indexera
india
indiai
indialas
indiana
indias
indien
indigenous
indikatiiva
indikatiivva
indikation
indikerar
indirekt
indirekta
individ
individer
individual
individuals
individuell
individuella
individuellt
indo
indoarjalas
indoeurohpa
indonesia
indre
indretning
industriija
ine
inec
inen
infantil
infeks
inflas
influence
influenced
inflytande
inflytelserika
info
infobox
infoboxar
infoga
infografik
inform
informal
informas
informasjon
information
informationen
informations
informationska
informationskampanj
informationskunnighet
informationsmaterial
informationspunkt
informationssamha
informationstja
informed
informell
informella
informera
informerad
informerade
informerades
informerar
informeras
informerat
informing
infosoc
infowikimedia
infrastructure
infrastruktur
infrastrukturen
ing
inga
inge
ingen
ingenjo
ingenting
inger
inget
ingick
ingolf
ingos
ingrid
ingvar
inha
inherently
inhouse
ini
inifra
initial
initiala
initialfo
initially
initialt
initiate
initiated
initiativ
initiative
initiativen
initiatives
initiativet
initiativfo
initiativtagare
initiera
initierade
initierades
initieras
initierat
initierats
inkeroisgiella
inkl
inkludera
inkluderad
inkluderade
inkluderande
inkluderar
inkluderas
inkludering
inklusive
inko
inkom
inkomma
inkommen
inkommer
inkommit
inkomna
inkomst
inkomstdeklaration
inkomsten
inkomster
inkomstka
inla
inled
inleda
inledande
inledas
inledd
inledde
inleddes
inleder
inledning
inledningen
inledningsvis
inleds
inlett
inletts
inlo
inloggad
inloggade
inloggning
inloggningsuppgifter
inmatningen
inn
inna
innan
innas
innasa
inne
inneba
innebar
innebo
inneboende
inneburit
innefatta
innefattar
innefattas
inneha
innehar
inneho
innevarande
innlandet
innovation
innovationer
innovativa
innovative
innus
ino
inom
inomhus
inplanerade
inplanerat
input
inra
inre
inriktad
inriktade
inriktat
inriktning
inriktningar
inriktningen
ins
insa
insamlade
insamling
insamlingar
insamlingen
insamlings
insamlingsarbete
insamlingsarbetet
insamlingskampanj
insamlingskampanjen
insamlingskampanjer
insamlingskontroll
insamlingspolicy
insamlingsteam
insats
insatsen
insatser
insatserna
insatt
inscannade
inscanning
inscanningsprojekt
inse
inser
insert
insett
inside
insight
insights
insikt
insikten
insikter
insikterna
insitute
inskannade
inskickad
inskickade
inskickat
inskra
inslag
inspel
inspelad
inspelade
inspelning
inspelningar
inspiras
inspiration
inspirationsfo
inspire
inspired
inspirera
inspirerad
inspirerade
inspirerande
inspireras
insta
instagram
install
installation
installera
installerad
installerar
instance
instans
instanser
instead
instituhta
instituhtas
instituhtta
institus
institut
institute
institutet
institutets
institution
institutionella
institutionen
institutionens
institutioner
institutionerna
institutionernas
institutions
institutionsomra
instruction
instructions
instruerar
instruktion
instruktioner
instruktionerna
instruktionsfilm
instruktionsfilmer
instruktionsmaterial
instruktionsvideo
instruktionsvideos
instrukto
instrument
insyn
int
inta
inte
integer
integral
integrate
integrated
integrating
integration
integrera
integrerad
integrerade
integreras
integrerat
integritet
integriteten
integritetsmyndigheten
integritetspolicy
integritetspolicyn
integrity
intellectual
intellektuell
intellektuella
intelligence
intelligens
intend
intended
intensifieras
intensiv
intensiva
intensivdagarna
intensivt
intent
intention
intentionally
intentions
inter
interacting
interaction
interagera
interagerar
interaktion
interaktionen
interaktiva
interdum
interest
interested
interesting
interests
interface
intergovernmental
interhamwe
interimstyreskommitte
interio
interjeks
intern
interna
internal
internally
internas
international
internationalization
internationally
internationell
internationella
internationellt
interneahta
interneahtas
interneahtavers
interneahtta
internet
internetanva
internetbanken
internetbaserade
internetdagarna
internetfonden
internetinfrastruktur
internets
internetstiftelsen
internetuppkoppling
internetva
internkontrollrapport
interns
internship
internt
internutbildning
interoperabilitet
interoperabla
interpretations
interview
interviewed
interviews
intervju
intervjua
intervjuad
intervjuade
intervjuar
intervjuer
intervjuerna
interwikila
intill
intja
into
intra
intrana
intressant
intressanta
intresse
intresseanma
intresseavva
intressekonflikt
intressekonflikter
intressen
intressent
intressenter
intressenterna
intressentgrupper
intresseomra
intresserad
intresserade
intresserar
intresset
intrigue
introduce
introduced
introducera
introduceras
introduction
introductory
introduktion
introduktionen
introduktioner
intryck
intyg
inuhkat
inuit
inuktitut
inva
invaders
invandrare
inventarielistan
inventarier
inventering
inventeringen
inventory
inverkan
invest
invested
investera
investerar
investerat
investering
investeringar
investigate
investigated
investigating
investigation
investment
investments
invitation
invitations
invite
invited
inviting
invoice
invoke
involve
involved
involvement
involvera
involverad
involverade
involverar
involveras
involvering
involving
io
iona
ionac
ionaid
iordningsta
iowa
ip
ipa
iphone
ipma
ipmil
ipmila
ipmilba
ipmiliin
ipmirdit
ipsum
ir
ira
irak
iraka
iran
irana
iranalas
iranas
iranian
iranis
irasa
irasat
irat
irc
irene
irja
irl
irla
irma
iron
irras
irrasin
iru
is
isa
isaac
isabart
isak
isaksen
isamaa
isbn
ise
isfahan
isfahana
isi
isida
isit
iskelottiide
iski
iskkit
isla
islam
islamlas
island
isn
iso
isojoki
isokoski
isokyla
isokyro
isolated
isotalo
isotrohpalas
israel
israela
issa
issas
issevra
issn
issoras
issue
issues
issuing
ista
istaleapmi
istanbul
istva
isy
it
ita
italan
italeigga
italia
italian
italias
italienska
italii
italit
italkeahtes
italy
itatvulos
item
items
itilleq
itkonen
itojuvvon
itp
its
itself
itsena
ittardeaddji
iv
iva
ivan
ivar
ivc
ivdna
ivdni
iver
ivgga
ivggaid
ivi
ivnnit
ivuona
ivuonas
ivuotna
ivva
ix
iz
izettle
iđida
iđut
j
ja
jaakko
jack
jackson
jacob
jacobsen
jacobsson
jacques
jae
jag
jaga
jagas
jagi
jagia
jagiid
jagiide
jagiin
jagis
jagland
jahka
jahkec
jahki
jai
jain
jakob
jakobstads
jalasja
jalkena
jalvi
jamaica
james
jan
janakkala
janas
janasa
jane
janne
jannok
jans
jansson
januar
januari
january
janwikifoto
japa
japan
jarl
jarls
jarlsgatan
jas
jaskes
jaskesa
jasuz
jat
javascript
jazz
jd
jda
jdpunkter
je
jea
jean
jeavddalac
jedje
jeha
jehan
jehii
jehit
jehusaid
jehuvvon
jehuvvui
jemen
jen
jenni
jenny
jens
jensen
jer
jeremy
jersey
jes
jesus
jesusa
jeugdliteratuur
ji
jie
jiehki
jiehkki
jiehkku
jiekŋa
jiekŋaa
jiekŋaguovz
jiekŋameara
jiella
jielleva
jiena
jienaid
jienaiguin
jienain
jienastanvuoigatvuođa
jienasteaddjit
jienastit
jienat
jierbma
jierets
jierpmi
jietna
jietnadagat
jietnadeapmi
jietnaduvvo
jietnagirji
jih
jiid
jijel
jikŋon
jil
jimme
jimmy
jis
jit
jjsa
jlig
jliga
jligen
jliggjorde
jliggjort
jliggo
jlighet
jligheten
jligheter
jligheterna
jligt
jligtvis
jna
jning
jningar
jo
joakim
joan
joaquim
joatka
joatkas
joatkit
joatkkaskuvla
joavkku
joavkkuid
joavkkuide
joavkkuin
joavkkus
joavkkut
joavku
job
jobb
jobba
jobbade
jobbar
jobbat
jobbet
jobbwikimedia
jobjo
joe
joensuu
joga
jogain
jogas
jogat
joh
johan
johanas
johanasa
johanna
johannes
johansen
johansson
johka
johkamohki
johkamohkis
johkamohkki
john
johnny
johns
johnson
johta
johtet
johtilit
johtin
johtit
johto
johtti
johttisa
johtui
joik
join
joined
joining
joint
joka
jokela
joki
jokikyla
jokioinen
jokkmokk
jomppanen
jon
jona
jonas
jonathan
jones
jong
jonny
jonsson
jonsssve
joona
joonas
jopparn
jor
jorba
jorda
jordbruk
jorden
jordi
jordis
jorgal
jorgalan
jorgaleaddji
jorgaleapmi
jorgalii
jorgalit
jorgalus
jorgaluvvon
jorma
joroinen
jorra
jos
jose
josef
josefine
josep
joseph
jotkkii
jouko
jouni
journal
journaler
journalist
journalista
journalisten
journalister
journalists
journals
journey
joutsa
joutseno
jovkui
jovnna
jođa
jođas
jođiha
jođihan
jođiheaddji
jođiheaddjin
jođiheaddjit
jođiheami
jođihii
jođihit
jođihuvvon
jođii
jođus
jpeg
jpg
jr
js
jsma
json
jt
jtte
ju
juan
juankoski
jubileum
jugosla
juha
juhani
juhkat
juhket
juhkkojuvvo
juhkkojuvvon
juhkkon
juho
jukka
jul
julbord
julevsa
julga
julggas
julggiid
julggiin
juli
julia
julius
julkaisuja
julle
july
june
juni
junior
junna
junqueras
juo
juoba
juobe
juoga
juogala
juogaman
juogo
juogu
juohka
juohkas
juohke
juohkehac
juohkehas
juohkela
juohkit
juoida
juoigi
juolggit
juolludit
juos
juovlama
juovllaid
juovllat
jupitera
jur
jura
juratsagiella
jurdaga
jurdagat
jurdagiid
jurdda
jurddas
juridihka
juridihkalas
juridik
juridisk
juridiska
juridiskt
jurisdiction
jurist
jurista
jurister
jury
juryarbetet
jurymedlemmar
juryn
juryordfo
jus
jussi
just
justa
juste
justera
justerad
justerade
justerades
justerare
justeras
justerat
justerats
justering
justeringar
justeringsman
justin
justitiedepartementet
justitiedepartementets
juuka
juupajoki
juuso
juva
juvdda
jylla
jynx
jyrki
jyva
jørgen
k
ka
kaari
kaarina
kaavi
kabel
kad
kadavoor
kade
kades
kaffe
kai
kainuu
kaira
kaisa
kaiser
kaj
kajaani
kajsa
kakor
kaksi
kalaallit
kalajoki
kaleandar
kaleandara
kaledonia
kalender
kalendera
kalendern
kalendrar
kalevala
kalifornia
kalkylark
kalkylarket
kalkylerad
kalla
kallad
kallade
kallar
kallas
kallat
kalle
kallela
kallelse
kallelsen
kallelser
kallio
kalmar
kalmara
kamassagiella
kamera
kamerahus
kamerahusen
kameran
kameror
kamerorna
kamerun
kammaren
kamp
kampanj
kampanjen
kampanjens
kampanjer
kamppi
kamprad
kan
kana
kanada
kanadalas
kanadas
kanal
kanalen
kanaler
kanalerna
kande
kandida
kandidat
kandidaten
kandidater
kandidaterna
kandidatlista
kandidatur
kandidera
kandiderar
kangas
kangasala
kangasniemi
kankaanpa
kannattaa
kannonkoski
kannus
kansalliskirjasto
kansas
kanske
kansli
kanslia
kansliet
kansliets
kanslipersonal
kanslipersonalen
kanssa
kant
kanta
kantabria
kantona
kantuvra
kap
kapacitet
kapaciteten
kapacitetsbyggande
kapacitetsuppbyggnad
kapealla
kapinasta
kapital
kapitalet
kapitel
kapning
kar
karachi
karakorpi
karakta
karasjok
karaz
kare
karen
karhula
kari
karijoki
karikatyr
karin
karine
karisto
karjala
karjalan
karkkila
karl
karls
karlshamn
karlskrona
karlsson
karlstad
karlstads
karman
karmøy
karna
karoline
karria
karsten
karstula
kart
karta
kartan
kartla
kartor
karttula
karvala
karvia
kas
kasakstan
kaskinen
kasso
kat
katakanas
katala
katalog
kataloger
katalonia
katalonialas
katalonian
kataloniassa
katarina
kate
katedralskolan
kategori
kategorier
kategorierna
kategorin
kategorisera
kategorisering
kategorisystemet
katherine
kathmandu
kati
katja
katoda
katolalas
katolihkalas
katri
kats
kattelus
katya
kauhajoki
kauhava
kaukola
kaunis
kauppila
kaupunki
kaustinen
kautokeino
kb
kbanken
kbar
kbara
kbarhet
kc
kdata
kde
ke
keahtta
keaisa
kec
keen
keenan
keep
keeping
keiino
keijo
keila
keisa
keitele
kekkonen
kela
kelan
keljo
kelttalas
kemi
kemiijaba
kemiijalas
keminmaa
kemio
kemista
kempele
ken
kenia
kennedy
kenno
kenskaper
kenskaperna
kenskapsa
kentucky
kenya
kept
ker
kera
kerava
kerhet
kerheten
kerhetsgranskning
kerhetsha
kerima
kernu
kersta
kersti
kert
kerttu
kes
kesa
kesguovz
keski
keskikyla
keskitalo
keskusta
kestila
ket
keuruu
keva
kevin
key
keynote
kg
khenchela
khomeini
ki
kia
kiagiella
kick
kid
kids
kiel
kiela
kielen
kielet
kielten
kiera
kig
kiga
kighet
kigt
kihnio
kii
kiikoinen
kiili
kiiminki
kiinna
kiinni
kiinnitta
kil
kilimanjaro
kilo
kilomehter
kilomehtera
kim
kind
kinda
kindly
kinds
king
kinnula
kiribati
kirja
kirjallisuuden
kirjasampo
kirke
kirkko
kirkkonummi
kirkonkyla
kirste
kirsten
kirsti
kiruna
kiskon
kit
kitee
kitti
kiukainen
kiuruvesi
kivija
kiviniemi
kivisto
kjell
kjo
kka
kkastalla
kkis
kko
kkolas
kkosgirji
kkunskaper
kkyla
kl
kla
klagoma
klang
klar
klara
klarar
klargo
klarhet
klart
klass
klasser
klassihkalas
klassiska
klaus
klavrestro
klemens
klemet
klemetti
klick
klicka
klickar
klient
klig
kliga
kligt
klima
klimat
klimatpa
klipp
klippa
klisterma
klistra
klistrar
kloastara
kloastaris
kloasttar
klockan
kloten
klotter
klubben
klyftan
km
kmh
kml
kmotor
kna
knad
knade
knapp
knappa
knappar
knapparna
knappast
knappen
knappt
knar
knare
knaren
knas
knat
knew
kniga
kning
kningar
kningarna
kningen
kningsdag
kningssidan
kningstid
kno
know
knowing
knowledge
known
knows
knr
knud
knut
knuten
knutna
knyta
knytas
knyter
ko
kobber
kod
koda
koden
koder
koderna
kofi
kohgilujeh
koivisto
koivuniemi
kokema
kokkola
kokoomusa
kokous
kolari
koldioxidavtryck
koll
kolla
kollaborativ
kollaborativa
kollaborativt
kollar
kollega
kollegor
kollektiv
kollektiva
kollektivavtal
kollektivavtalet
kollektivt
kollektivtrafik
kolmunen
kolokani
koloniija
koltta
kolttasaamelainen
kolttien
kolumn
kolumnen
kolumner
kom
komagelva
kombination
kombinera
kombinerar
kombineras
komehta
komi
komigielas
komigiella
komipermja
komipermjakgiella
komisyrja
komitatiiva
komitea
komiteer
komma
kommande
kommentar
kommentarer
kommentarerna
kommentera
kommer
kommersiell
kommersiella
kommersiellt
kommissionen
kommissionens
kommit
kommitte
kommun
kommuna
kommunala
kommunar
kommune
kommunen
kommunens
kommuner
kommunereforma
kommunerna
kommunfullma
kommunicera
kommunicerar
kommuniceras
kommunicerat
kommunicerats
kommunikas
kommunikation
kommunikationen
kommunikations
kommunikationsarbete
kommunikationsarbetet
kommunikationsbyra
kommunikationsinsatser
kommunikationskampanj
kommunikationskanaler
kommunikationsmaterial
kommunikationsplan
kommunikationspolicy
kommunikationspolicyn
kommunikationsstrategi
kommunikationsteknik
kommunikationsverktyg
kommunikato
kommunisttalas
kompatibel
kompensation
kompetens
kompetensen
kompetenser
kompetensutveckling
kompetent
kompetenta
komplement
komplett
kompletta
komplettera
kompletterade
kompletterande
kompletterar
kompletteras
kompletterat
komplettering
komplexa
komplexitet
komplicerad
komplicerat
komponent
komponenter
komponista
komptidsaldo
kon
koncentrera
koncept
koncepten
konceptet
konceptutveckla
konceptutveckling
konditiona
konferens
konferensavgift
konferensdeltagarna
konferensen
konferensens
konferenser
konferensrum
konferensrummet
konflikt
konflikten
konflikter
konfliktlo
kong
kongens
kongeriket
kongo
kongreassa
kongsberg
konkret
konkreta
konkretisera
konkurrens
konnevesi
konqueror
konrad
konsekvens
konsekvenser
konsekvenserna
konsensus
konsentras
konservatiiva
konsolidering
konsona
konst
konsta
konstant
konstantinopoli
konstatera
konstaterade
konstaterar
konstellationer
konsten
konstenius
konsthallar
konstituerande
konstitus
konstitutionsutskottet
konstmuseer
konstna
konstra
konstruktiv
konstruktivt
konstverk
konstverken
konstverket
konsult
konsultarbete
konsultation
konsultbesta
konsulter
konsultkostnader
konsulttja
konsultuppdrag
konsumtion
kontakt
kontakta
kontaktade
kontaktar
kontaktas
kontaktat
kontaktats
kontakten
kontakter
kontakterna
kontaktfo
kontaktinformation
kontaktna
kontaktperson
kontaktpersonen
kontaktpersoner
kontaktuppgifter
kontant
kontanter
kontext
kontinuerlig
kontinuerliga
kontinuerligt
kontinuitet
kontiolahti
konto
kontokoppling
konton
kontor
kontoret
kontorets
kontorshotell
kontorslokal
kontorslokaler
kontorsmaterial
kontorsplats
kontorsplatser
kontorssta
kontorstid
kontorsutrustning
kontot
kontoutdrag
kontra
kontraks
kontrakt
kontraktet
kontraktsfo
kontraktsfra
kontroll
kontrollen
kontroller
kontrollera
kontrollerar
kontrolleras
kontrolluppgifter
konvens
konvertera
koordina
koordinat
koordinater
koordinator
koordinatorer
koordinera
koordinerar
koordineras
koordinering
kopia
kopiator
kopiera
kopierar
kopieras
kopiering
kopior
koppla
kopplad
kopplade
kopplar
kopplas
kopplat
koppling
kopplingar
kopplingen
kopplingssprint
kor
kora
korea
koreagillii
korhonen
kornagiella
korpela
korpi
korpilahti
korrekt
korrekta
korrekturla
korrigera
korrigerande
korrigerat
korrigeringar
korrla
korruption
korset
korsna
kort
korta
kortare
kortesja
kortet
kortfattad
kortfattat
korthet
kortla
kortnavn
kortsiktiga
korvald
korvenkyla
kose
koskela
koskenkyla
koski
kosmalas
kosmologalas
kosmologiija
kosovo
kost
kosta
kostar
kostnad
kostnaden
kostnader
kostnaderna
kostnadsbera
kostnadseffektivt
kostnadsfritt
kostnadsposterna
kostnadsspann
kostnadssta
kostnadsta
kostsam
kotka
kouvola
kovaleanta
kpmg
kr
kra
krad
krade
kraft
kraften
krafter
kraftfulla
kraftfullt
kraftigt
krar
krare
kras
krat
krats
krav
kraven
kravet
kravprofil
kravspec
kravspecifikation
kreablo
kreativa
kreativitet
kreato
kreditera
kreditkort
kreditkortbetalningar
kreditupplysning
krekling
krf
kriber
krig
kring
kringar
kringen
kringsfra
kris
krisen
kriser
krishantering
krishanteringsa
krishanteringso
krishanteringsteam
kriso
krisplan
krissituation
krissituationer
kristdemokraterna
kristdemokraternas
kristi
kristian
kristiansand
kristianstad
kristiansund
kristider
kristiina
kristiinankaupunki
kristin
kristina
kristoffer
kristtalas
kristus
kristusa
kriterier
kriterierna
kriteriet
kriterium
kritihkalas
kritik
kritisk
kritiska
kritiskt
kro
kroatia
kroatiagiella
kroatiagillii
krona
kronobergga
kronor
krutan
kruunupyy
kryssa
ks
ksa
ksadress
ksit
kt
kta
kte
ktema
kten
kter
kterna
ktes
ktesa
ktforskare
ktforskarfo
kth
kti
ktige
ktingar
kts
ktska
ktsstro
ku
kua
kubuntu
kuhmalahti
kuhmo
kuhmoinen
kuhmunen
kui
kuin
kuivaniemi
kujalleq
kuka
kukin
kul
kultur
kultura
kulturarv
kulturarvet
kulturarvets
kulturarvsdata
kulturarvsinstitutioner
kulturarvsmaterial
kulturarvssektorn
kulturba
kulturbryggan
kulturdata
kulturell
kulturella
kulturellt
kulturen
kulturfo
kulturguovdda
kulturhistoria
kulturhistorjja
kulturhuvudstad
kulturhuvudstadsa
kulturmiljo
kulturminnen
kulturnatten
kulturnav
kulturpolitisk
kulturra
kulturskatter
kulturstiftelse
kultuvra
kultuvrra
kultuvrrain
kultuvrralas
kultuvrras
kun
kund
kunde
kunder
kundnumret
kungliga
kungso
kuninkaan
kunna
kunnat
kunnig
kunniga
kunnskapsforlaget
kunskap
kunskapen
kunskapens
kunskaper
kunskaps
kunskapsfo
kunskapska
kunskapsprojekt
kunskapsro
kunskapssamha
kunskapsspridare
kunskapsspridning
kunskapsutbyte
kunstnerleksikon
kunt
kunta
kuntien
kuo
kuobz
kuollut
kuopio
kuortane
kurikka
kurkela
kurs
kursa
kursanpassat
kursdeltagare
kursen
kursens
kurser
kurserna
kursinfo
kursmaterial
kurssidan
kurstillfa
kursuppla
kurt
kustaa
kustavi
kuusalu
kuusamo
kuusikko
kuvauksia
kuvert
kva
kvadra
kvalificerade
kvalitativ
kvalitativa
kvalitativt
kvalite
kvalitehta
kvalitet
kvaliteten
kvalitetsbrister
kvalitetskod
kvalitetssa
kvalitetssta
kvantitativa
kvar
kvarn
kvarsta
kvartal
kvartalen
kvartalet
kvartalsavsta
kvartalsrapport
kvartalsrevideringen
kvartalsslut
kvartalsslutskontroller
kvartalsslutsma
kvartalsvise
kvarvarande
kveanagillii
kversion
kversionen
kversioner
kversionerna
kvh
kvinna
kvinner
kvinnliga
kvinnodagen
kvinnor
kvitto
kvitton
kvittona
kvittot
kw
kyla
kylma
kymileagi
kymraeatnama
kymraeatnamis
kymragiela
kymragielat
kymragiella
kymragillii
kyo
kypros
kyrillalas
kyrka
kyrkan
kyrkliga
kyrkor
kyro
kyto
kyu
kyyja
kyyna
københa
københavn
l
la
laavla
laba
labb
labba
labs
lac
lack
ladan
ladda
laddade
laddades
laddar
laddare
laddas
laddat
laddats
lade
lademokra
lades
ladiagra
lady
lag
laga
lagabui
lagaid
lagamus
lagar
lagas
lagat
lage
lagen
lager
lagercrantz
lagerlo
lagfa
lagfo
laghouat
lagiella
lagillii
lagið
laglig
lagligt
lagom
lagopus
lagos
lagra
lagrar
lagras
lagring
lagstiftare
lagstiftaren
lagstiftarens
lagstiftarna
lagstiftning
lagstiftningen
lagt
lagtexten
lagts
lahden
lahdenkyla
laheaju
laheajus
lahka
lahkosiin
lahkosis
lahti
lahttu
lahttun
lahtu
lahtuid
lahtut
lai
laid
laihia
laila
lain
laiti
laitila
laj
laja
lajla
lakkala
lakta
lala
lalac
lalas
lama
lamos
lamp
lan
land
landa
landade
landareal
landes
landet
landing
landningssida
lands
landscape
landsforbund
landshypotek
landskap
landskapet
landsort
landsting
lang
language
languages
lanius
lanka
lansera
lanserade
lanserades
lanseras
lanserat
lanserats
lansering
lanseringen
lantbruksuniversitet
lantma
lanva
lapin
lapinja
lapinlahti
lapista
lapp
lappaja
lappee
lappeenranta
lapperne
lappi
lappischen
lappisk
lappiske
lappland
lapplandsresa
lapsen
laptop
laptops
lapua
lar
lara
larbete
larbetet
lardal
large
larger
largest
larm
larry
lars
larsen
larske
larsson
larus
larvik
las
laserna
lasi
lasihit
lassa
lasse
lassebusta
lassi
lassibeavdegirjji
lassin
last
lasta
lastavizariidda
laste
lastet
lastit
lasttii
lat
late
later
lateralus
latest
lathund
latiinnalas
latin
latium
latnja
latter
latvia
latvuomi
lau
laukaa
laula
laull
launch
launched
launching
laura
laureate
lauri
lava
lavallen
lavia
law
laws
laxa
laying
layout
laz
lbeho
lbeso
lbma
lbmi
lbmoga
lbmogat
lbmogii
lbmogiid
lbmogiidda
lbmogiidgaskasas
lbmogiin
lbmogin
lbmogis
lbmot
lbmotbeaivi
lbmotbeaivve
lbmotbellodaga
lbmotbellodagain
lbmotbellodagas
lbmotbellodat
lbmotda
lbmotdearvvas
lbmoteala
lbmotgirjera
lbmotgoddima
lbmotgoddin
lbmotjienasteami
lbmotla
lbmotlas
lbmotlohkama
lbmotma
lbmotmeahcci
lbmotmeahci
lbmotmeahcis
lbmotva
lbmotvuoigatvuođaid
lbor
lborbeaivi
lby
lcea
ld
lda
ldaga
ldagaid
ldagas
ldas
ldat
ldda
lddahus
lddahusa
lddahusas
lddahusguovdda
lddahuslac
lddahuslas
lddahusvirgedoaimmahat
lddas
ldde
lddi
lddii
lddiid
lddiide
lddiiguin
lddiin
lddis
lddit
lddus
lde
ldegotti
lder
ldern
ldet
ldi
ldigt
ldin
ldit
ldoa
ldoartihkal
ldoc
ldodoaimmaheaddji
ldogirji
ldojuvvon
ldojuvvui
ldokantuvra
ldon
ldooassi
ldosiidu
ldova
ldraledighet
ldraledigheter
ldralo
ldrar
ldre
ldu
lduin
ldut
le
lea
leaba
lead
leader
leaders
leadership
leading
leads
leage
leago
leahkimin
leahkit
leahkki
leai
leamas
leamen
leammi
leammis
leamos
leamus
lean
leana
leanain
leanara
leanas
leanat
learn
learned
learning
learnings
leaskagahpira
leaskan
least
leat
leatge
leatna
leatnaođastus
leatnas
leavai
leavdnjajohka
leave
leavga
leavgga
leavggas
leavnnjas
leavttuin
leavvan
leaŋga
lebesby
lebioda
lecture
lecturer
lectures
led
leda
ledamo
ledamot
ledande
ledare
ledarna
ledarroll
ledarskap
ledde
leddes
leder
ledes
ledger
lediga
ledighet
ledigheten
ledje
ledning
ledningen
ledningsrapport
ledningsrapporten
ledningsrapporter
ledningsrapporterna
leds
lee
leem
leena
left
legacies
legacy
legal
legat
legislation
legislative
legitim
legitimate
legitimitet
lehtiranta
lehtola
lei
leif
leige
leigga
leikanger
leinonen
leipzig
leivo
leksand
leksikon
leksvik
lektion
lektorin
lemai
lemi
lempa
len
lena
lene
lengua
lennart
lennarts
lens
leo
leonard
leonardo
leone
leopold
leppa
ler
les
lesnuori
lesnuorri
lesotho
less
lessebo
lessons
lestija
lesund
let
leta
letar
lett
letter
letters
leuven
leva
levande
level
levels
lever
leverage
leverans
leveranser
leveranto
leverera
levererad
levererar
levereras
levererats
levi
levu
lex
lexica
lexicographical
lexikala
lexikon
lez
lfa
lften
lfu
lfungerande
lga
lgabiire
lgabiirre
lgaortnet
lge
lget
lgga
lggaha
lggahan
lggahedje
lggahii
lggahit
lggahuvvon
lggahuvvui
lggaid
lggain
lggas
lggat
lggii
lggis
lggos
lggu
lggus
lgit
lgo
lgoa
lgoba
lgosas
lgovuolggalas
lgrupp
lgruppen
lgrupper
lgrupperna
lgruppsinstitutioner
lgu
lhyvyr
li
lia
liagiella
liagillii
liai
lialas
liam
lias
lib
liber
libera
liberation
liberia
librarians
libraries
library
libre
libris
libya
licences
licens
license
licensed
licensen
licenser
licenserna
licenses
licensiera
licensierad
licensierade
licensieras
licensierat
licensiering
licensing
licensmarknad
lida
lidingo
lidko
lie
liechtenstein
liegga
lieggasa
lieggasis
liekkas
lieksa
liet
lieto
lietuva
lieđit
life
lifespan
lig
liga
ligen
ligga
ligger
light
lightning
ligt
liguria
lihkada
lihkadeapmi
lihkadit
lihkadus
lihkostuvvan
lihttoda
lihttu
lihtu
lii
liid
liida
liidan
liidat
liidedje
liidii
liidni
liiki
liikka
liikki
liikon
liisa
liitto
liivi
liivigiella
lij
lika
likadant
likasa
likasinnade
like
likely
likes
likhet
likheter
liknade
liknande
liknar
liks
liksom
likt
likva
likvida
lila
lilla
lille
lima
liminka
limit
limitations
limited
limo
lin
linda
lindberg
lindborg
lindeberg
linder
lindgren
line
lines
lingua
lingualibre
linguistic
linguistics
linja
linje
linjen
linjja
link
linked
linking
linko
links
linn
linna
linne
linnea
linriktat
linting
lintula
linux
linuxa
lio
lipa
liperi
lipson
lis
lisa
lisbon
list
lista
listade
listan
listar
listas
listat
listed
listen
listening
listing
listor
listorna
lists
listtu
listtus
listu
lit
lita
litade
litar
lite
liten
literature
litet
litlig
litliga
litligt
littera
litteratur
litterature
litteraturen
litteraturhus
litteraturhuset
litteratursa
little
liv
livc
live
livesa
livestream
livestreaming
livet
living
livla
livrustkammaren
livsla
livstidsmedlemskap
lj
lja
ljande
ljare
ljas
ljd
ljde
ljder
ljdes
ljdfra
lje
ljens
ljer
ljning
ljningar
ljningen
ljningsmo
ljningspunkter
ljningstabell
ljs
ljt
ljud
ljudet
ljudfiler
ljudinspelare
ljudmixer
ljungby
ljus
lk
lka
lkasa
lkasat
lkasiid
lki
lkit
lkka
lkkas
lkkasdiehtaga
lkkasdieđalas
lkki
lkkodit
lko
lkommen
lkomna
lkomnar
lkomstbrev
ll
lla
llaga
llan
llande
llanden
llandena
llandet
llandevis
llar
llare
llaren
llas
llat
llbar
llbara
llbarhet
llbarhetsma
llbart
llbela
lld
llda
lldas
llde
lldes
lldhet
lle
lleby
lleida
llen
llens
ller
lles
llesfra
llesorganisationer
llet
llets
llha
lli
llig
lliga
lligođii
lligt
lliid
lliide
lliidla
lliin
llin
llingiela
llinmeatta
llinvugiin
llinvuogi
llinvuohki
llit
llits
llje
lljejit
lljejuvvo
lljejuvvojit
lljejuvvon
lljejuvvot
lljejuvvui
lljen
lljet
lljii
llkod
llkoden
llkritik
llmaterial
llna
llning
llningar
llningarna
llningen
llningsavtal
llningskontrakt
llningssa
llningstagande
llo
llobihtta
llojuvvo
llojuvvojit
llojuvvon
llojuvvui
llon
llor
llorna
llosa
llosat
llosiid
llosiin
llosis
lloyd
llplats
lls
llsa
llsdonationer
llsfo
llsgivare
llskap
llskapet
llspartner
llspartners
llspartnerskap
llsskapande
llt
llts
llu
llui
lluis
lma
lmas
lmasc
lmhulta
lmma
lmmas
lmmi
lmmis
lning
lningar
lningsformula
lo
loaba
load
loahpa
loahpageahc
loahpahuvvui
loahpalas
loahpas
loahppa
loahppastas
loatnasa
loba
lobbying
lobi
loc
local
locality
localized
locally
location
locations
locka
lockar
locke
locked
locustella
lod
loddec
loddegonagas
loddes
loddi
lodenius
log
loga
logahallan
logai
logala
logaland
logg
logga
loggan
loggar
loggat
logged
logging
logi
logic
logijagi
login
logiskt
logistics
logistiken
logistiska
logo
logotyp
logotypen
logotyper
logu
loguin
logus
logut
lohja
lohka
lohkan
lohkat
lohket
lohkkiid
lohkkit
lohkojuvvon
lohkosa
lohku
lohkui
lohpi
lohppii
loimaa
loir
loire
loiret
loja
lokal
lokala
lokalavdelning
lokalavdelningar
lokalavdelningen
lokalen
lokaler
lokalerna
lokalhistoria
lokalisera
lokalisering
lokalt
lokalta
lokatiiva
loksa
lol
lom
lombardia
lon
london
londona
londonis
long
longer
longielda
look
looking
looks
loppi
lord
lordi
lords
lorentzen
los
losada
loss
lossa
lossat
losses
lost
lot
lots
lotta
lottery
lottiid
lottiin
lottit
louis
louisiana
lov
lovande
lovdata
love
lovelace
loves
loviisa
lovisa
lovva
low
lowepro
lower
loxia
loze
lp
lpa
lpen
lper
lpmedel
lppat
lpsidor
lpt
lpte
ls
lsa
lsade
lsar
lsenlig
lsenliga
lsh
lskar
lskat
lsmans
lsning
lsningar
lssa
lt
lta
ltal
ltalas
lten
ltes
ltet
lti
ltid
ltider
lts
ltsamaa
ltta
lu
lucia
luciano
luckor
ludde
ludvig
ludvika
ludwig
luften
lugn
lugo
luhanka
luhtte
luid
luis
luitet
luja
lukas
lukkari
lula
lulea
luleju
lulesamisk
lulimus
lullesla
lulli
lullin
lullisa
lumijoki
lumikivi
lumisalmi
lunch
lunchen
lund
lunddolac
lunddolas
lundqvist
lunds
lundstro
lundy
lungra
luodda
luohka
luohkka
luohpa
luohti
luohtta
luoita
luoma
luonddu
luondduga
luonddumeahcci
luonddumeahci
luonddumeahcis
luonddupa
luonddus
luondu
luosa
luossa
luossaguolli
luostarin
luoto
luođi
luppfo
luppfyllelse
luppfyllnad
lus
lusa
luscinia
lut
luteralas
luth
luther
luthwikimedia
luuma
luvia
luvlla
luxemburg
luxemburggagiella
lv
lva
lvalanba
lvalit
lvalus
lvalusa
lvalusaid
lvalusain
lvalusas
lvalusat
lvbesta
lvdalen
lven
lvesoađi
lvet
lvga
lvi
lvit
lvklar
lvklarhet
lvklart
lvnominerad
lvnominering
lvsbyn
lvsjo
lvsta
lvt
lvu
lvvu
lvvuid
lvvut
ly
lyckad
lyckade
lyckades
lyckas
lyckat
lyckats
lycksele
lydelse
lydelsen
lyder
lyfta
lyftas
lyfte
lyfter
lyftes
lyfts
lymfac
lyng
lynx
lysbakken
lyssna
lyssnar
lyssnat
lyydigiella
lyytikka
lz
lzmk
læ
læk
læt
lørenskog
m
ma
maa
maailman
maalahti
maan
maaninka
maaria
maarit
mac
machine
made
madonna
madrid
magazine
magga
magic
magisttar
magna
magne
magnehtalas
magnus
magnusson
magreta
maher
mai
maid
maidda
maiddai
maidege
maidige
maiguin
maija
mail
maila
mailar
mailet
mailing
mailinglista
mailinglistor
mailings
maillista
mailserver
mailto
mailva
main
maine
mainly
mainna
maintained
maintaining
maintenance
mais
maj
majlis
major
majoritet
majoriteten
majority
maka
make
makedonia
makedoniagiella
maker
makers
makes
making
makka
maksamaa
makt
mala
malawi
malaysia
male
mali
mall
mallar
malldokumentation
mallen
malmo
malta
malung
man
mana
manage
managed
management
manager
managers
manages
manai
manat
manche
mandat
mandatory
mandatperiod
mandela
manfrotto
manga
mange
manin
manksgiella
mann
manna
mannan
mannanvuogi
mannat
manne
manner
mannerheim
mannet
mano
mansigiella
manual
manualen
manualer
manuell
manuella
manuellt
manus
many
mao
maori
map
mapillary
mapp
mappar
mapparna
mappen
mapping
mappning
mappstruktur
maps
mar
marakatt
maramures
march
marche
marck
marcos
mare
margareta
margaretas
margin
marginalen
marginally
marginellt
margrethe
mari
maria
marianne
marie
mariehamna
marigiella
marija
marika
marin
marina
marino
marit
marita
maritima
maritime
maritimes
maritta
marius
marja
marjatta
mark
markant
markaryda
marked
marken
markera
markerade
markerar
markeras
markerat
markeringar
market
marketing
markku
marknad
marknaden
marknadsdomstolen
marknadsfo
marko
marks
markup
markus
marne
marokko
mars
marshallsullot
martin
martinique
martinsen
martinsena
martta
martti
marttila
marx
mary
maryland
mas
masa
mascara
mascaro
maskiner
maskininla
maskinla
maskino
masku
mass
massa
massachusetts
massii
massively
massor
massuppladdning
massuppladdningar
master
mat
mata
match
matcha
matchar
matchas
matchning
matematihkar
matematihkka
matematihkkar
matematik
materia
material
materialet
materials
materna
mathias
mathis
matleena
matomo
matorigiella
matrial
matris
mats
matsta
matta
matter
matters
matti
mattias
mattila
mattson
mattu
mattus
maturity
mauno
maunula
max
maximal
maximalt
maximera
maximum
may
maybe
mayen
mayenne
maza
mazandaran
mađe
mađi
maŋa
maŋemus
maŋggaidlohku
maŋil
maŋimus
maŋis
maŋisboahtti
maŋit
maŋosguvlui
maŋŋa
maŋŋel
maŋŋelas
maŋŋeleappo
maŋŋelis
maŋŋil
maŋŋit
mb
mbazzi
mbetet
mbetets
mbovit
mbox
mbuvra
mbuvrra
md
mda
mde
mdes
me
mea
meahcci
meahcira
meahcis
mean
meaning
means
meant
meara
mearain
mearas
meari
mearka
mearkka
mearkkas
mearkkat
mearra
mearrabahta
mearraga
mearrara
mearrasa
mearri
mearrida
mearridan
mearridedje
mearridii
mearridit
mearriduvvo
mearriduvvojedje
mearriduvvojit
mearriduvvon
mearriduvvui
meas
measta
measurable
measure
measures
med
medan
medarbetare
medarbetaren
medarbetarna
medarbetarsamtal
medarrango
medborgare
medborgarna
meddela
meddelade
meddelande
meddelandegrupp
meddelanden
meddelandena
meddelandet
meddelar
meddelas
meddelat
medel
medelhavsmuseet
medelstor
medeltidsmuseet
medfo
medger
medgivande
media
mediadatabas
mediadatabasen
mediafiler
mediaomna
medias
mediation
mediator
mediawiki
mediawikis
medici
medicin
medicine
medicinsk
medie
mediearkivet
mediedatabas
mediedatabasen
mediefiler
medieinneha
medieproduktion
medier
medigga
mediggea
mediggeva
mediggi
medikki
medikkis
medisiinnalas
medium
medlem
medlemmar
medlemmarna
medlemmarnas
medlemmars
medlemmen
medlems
medlemsanso
medlemsantal
medlemsantalet
medlemsarkiv
medlemsavgift
medlemsavgiften
medlemsavgifter
medlemsbas
medlemsbrev
medlemsdialogen
medlemsengagemang
medlemsfo
medlemshantering
medlemshanteringssystem
medlemshanteringssystemet
medlemsidalogen
medlemskap
medlemskapet
medlemskapsavgifter
medlemsla
medlemsmo
medlemsnr
medlemsnummer
medlemsregister
medlemsregistret
medlemsrekrytering
medlemssida
medlemsskap
medlemsstater
medlemsstaterna
medlemssystem
medlemssystemet
medlemsuppgifter
medlemsutskick
medlemsva
medlemwikimedia
medlen
medresena
medskick
medverka
medverkan
medverkande
medverkar
medverkat
medveten
medvetenhet
medvetenheten
medvetet
medvetna
meen
meenkyla
meenkyro
meenlinna
meet
meeting
meetings
meetup
meetups
mega
megiel
megiela
megielaid
megielaide
megielain
megielas
megielat
megiella
megilli
megillii
meguovllu
mehedint
mehter
mehtera
meid
meida
meile
meir
meita
mejl
mejla
mejladress
mejlar
mejlas
mejlat
mejlen
mejlet
mejlnotifikation
mekanism
mekanismer
mekonfereansa
mekonfereanssas
meksiko
meksikolas
mekultuvrra
melampyrum
melanitta
melanocephala
melanocorypha
mellan
mellanhavanden
mellano
mellanrum
mellanstatliga
mellberg
mellersta
mellom
mellunma
melodi
melodifestivalen
mem
mema
member
members
membership
memberships
membres
membro
memis
memo
memorandum
memusea
memusihka
men
mena
menade
menar
menas
menddo
menestuvai
menestuvvan
mening
meningar
meningen
meningsfullt
mentioned
mentions
mentorskap
menu
menuoraid
menyn
mepolitihkalas
mepolitihkka
mer
mera
merarbete
mercedes
mergus
meri
meridia
merija
merikarvia
meriterande
meritfo
meritxell
merja
merkejuvvon
merkostnader
meros
merparten
merrii
merva
mesa
mesearvi
mesearvvi
meskuvlla
message
messages
messaging
mest
mesta
mestadels
met
meta
metadata
metal
meter
method
methods
metod
metoden
metoder
metodik
metodprojekt
metrics
metro
metroasema
metropolitan
metrostas
metrostation
metsa
metta
mette
meurthe
meuse
mexico
mfo
mi
mia
michael
michel
michigan
micke
micro
microphone
microphones
mid
middag
middle
middot
midjiide
mie
miehikka
miehta
miel
miela
mielas
mielddisbukta
mielde
miella
miellac
miellahttosta
miellahttu
miellahttun
miellahtut
miessema
miestta
mieđihii
mig
might
miguel
miha
mihin
mihkkege
mihkkige
mihtidit
mihtiduvvon
mihtilmas
mii
miid
miide
miij
miin
mij
mija
mika
mikael
mikaela
mikaellindmark
mike
mikiela
mikka
mikkel
mikkeli
mikkelsen
mikko
mikroba
mikrofon
mikrofonen
mikrofoner
mikronesia
mikroorganismmat
mikroskohpa
mikroskohpain
mikroskohpas
mikrova
mil
mila
milan
mile
military
milja
miljard
miljarder
miljo
miljon
miljoner
miljontals
miljovnna
milla
miller
millii
million
millions
milstolpar
milstolparna
milstolpe
mima
min
mina
mind
minde
mindera
mindre
mingel
minh
mini
minibidrag
minimal
minimera
minimeras
miniminiva
minimize
minimum
ministara
ministarat
ministe
minister
ministry
ministtar
minna
minnas
minne
minnelse
minnelsebrev
minnelsen
minnelser
minnen
minner
minnesfond
minneskort
minneslista
minnesma
minnesota
minor
minoriteter
minoritetsspra
minska
minskad
minskade
minskar
minskas
minskat
minskning
minst
minsta
minuhta
minuorra
minus
minut
minute
minuter
minuters
minutes
mipolitihkka
mira
miranda
mirjam
mirkkolas
mis
misearvi
miss
missa
missade
missat
missbruk
missfo
missing
mission
mississippi
missno
missouri
missta
misstag
missword
mistakes
mit
mita
mitigge
mitt
mitten
mittuniversitetet
miun
mix
mj
mja
mjandeperioden
mjandet
mjar
mjare
mjo
mjukvara
mjukvaran
mjukvaruutvecklare
mjukvaruutveckling
mk
ml
mligen
mlik
mlikhet
mm
mma
mmaid
mman
mmande
mmandera
mmans
mmar
mmara
mmas
mmdd
mme
mmelse
mmelsen
mmelser
mmelserna
mmen
mmer
mmii
mmirii
mmkar
mmlai
mn
mna
mnad
mnade
mnades
mnande
mnanden
mnar
mnas
mnat
mnats
mnd
mnda
mnden
mnder
mndes
mne
mnen
mnena
mnesexperter
mneskunnig
mnesomra
mnet
mning
mningar
mningen
mningsanso
mningsgrunden
mningsmo
mns
mnt
mnts
mo
moadde
moai
moanaid
moarsi
moatti
mobil
mobila
mobilavdrag
mobile
mobilen
mobilt
mobiltelefon
mobiltelefoner
mobiltelefonf
mode
modearna
model
modell
modellen
modeller
moderaterna
moderaternas
moderator
modern
moderna
moderniserad
modernt
modersma
modifiera
modular
modulbaserat
module
modulen
moduler
modules
moe
mogen
mogna
mognad
mohkka
mohtorat
mohtorgielka
mohtorgielkka
moires
moisio
moks
molac
molas
molde
molekyla
molekylaid
molekylat
moleski
molise
molkom
molntja
molsas
molssui
moma
moment
momentum
moms
momsredovisning
mon
mona
monaco
monarkiija
moneta
money
mongolia
moni
monica
monika
monitor
monitoring
monni
monografier
mons
montana
montanus
monte
montenegro
monter
montern
montevideo
month
monthly
months
montserrat
montsoreau
monument
monumental
monuments
moon
moore
mora
moras
morbihan
morc
more
morfologiija
morgan
morgon
morgonen
morning
morottaja
morris
mortalidad
morten
mortensson
mos
mosambik
moscow
moselle
mosesgirji
moshnikoff
moskova
moskva
moskvas
mosnikoff
moss
most
mostaganem
mostly
mot
motacilla
motacillidae
motala
mother
motion
motiona
motionen
motionens
motioner
motionerna
motionstiden
motiv
motivated
motivation
motivera
motiverad
motiverade
motiveras
motivering
motiveringen
motivet
moto
motocross
motprestation
motsa
motsta
motsvarande
motsvarar
motta
mottagande
mottagare
mottagaren
mottagarna
mottagit
mottagning
mottar
mottog
mottogs
motverka
motverkar
motverkas
motzkau
mouchent
mount
mountain
move
moved
movement
movements
movie
movies
moving
movt
moxnes
mozart
mozilla
mp
mpa
mpade
mpar
mpas
mpat
mpel
mpihtta
mplig
mpliga
mpligen
mpligt
mpning
mpningen
mppas
mps
mr
mre
mrnd
ms
msa
msek
msesidig
msooǥǥ
mst
msta
mt
mta
mtar
mtas
mte
mtla
mtland
mtning
mts
mtv
mu
mua
much
mudde
muddet
muddui
muggar
muhos
muhtimat
muhtimin
muhtin
muhto
muhtumat
muhtumin
muhtun
muhtunat
muhtunla
muid
muilu
muita
muitala
muitalan
muitalii
muitalit
muitalus
muitalusa
muitalusaid
muitalusat
muitaluvvo
muittalus
muittalægje
muittas
multi
multia
multilingual
multiple
mumensta
mumenva
mun
mundo
muni
municipalities
municipality
munnje
munno
muntlig
muntliga
muntligen
muntligt
munzinger
muohta
muohtac
muohttaga
muona
muora
muoraid
muoras
muorat
muorjjit
muorra
muosa
muotka
murcia
mures
murma
murmansk
mus
muse
musea
museas
museat
museer
museerna
museernas
museers
museet
museets
museipersonal
museisamlingar
museum
museums
music
musicians
musihka
musihkain
musihkar
musihkas
musihkka
musihkkaba
musihkkafestiva
musihkkajoavku
musik
musikho
musikverk
musikverket
musikverkets
muslima
muslimat
must
mustama
mustasaari
musuem
mutto
muttu
muttus
mutual
muurame
muđui
mw
my
mycket
myllykyla
myllypera
myna
myndig
myndighet
myndigheten
myndigheter
myndigheterna
myndigheters
mynewsdesk
myo
myself
myspace
mysql
mytologiija
møre
n
na
naa
naantali
nach
nacional
nacionalna
nacka
nackdel
nackdelar
nad
naden
nadens
nader
naderna
naders
nadersperiod
nadersperioden
nads
nadsbasis
nadsgivare
nadslista
nadslo
nadsrapport
nadsrapporter
nadsskiftet
nadsvis
nagiella
nagillii
nagodan
nagot
nai
naid
naide
nain
nakkila
nala
nalas
nalde
nama
namahus
namain
namalassii
namas
namat
name
names
namespace
namibia
namma
nammada
nammadii
nammaduvvon
nammaduvvui
namman
nammasas
nammat
nammii
namn
namnbyte
namnen
namnet
namnfo
namnge
namngivna
namnrymder
namnunderskrift
namuhuvvon
nan
nana
nancy
nande
nanna
nannen
nannestad
nannet
nanu
napoleon
nappo
nar
nare
nartes
narttiid
narvik
nas
nasa
nascimento
nasko
nat
natalia
natalidad
nation
nationa
national
nationalbibliothek
nationaldagen
nationale
nationalencyklopedin
nationalisttalas
nationally
nationalmuseum
nationalpark
nationell
nationella
nationellt
nations
native
natliga
nato
natt
natten
natur
natural
nature
naturen
naturhistoriska
naturlig
naturliga
naturligt
naturligtvis
naturreservat
naturva
nauru
nav
navarra
navdojuvvon
navigation
navigera
navn
nađđa
nbr
nbsp
nc
nchen
nchez
ncipe
nd
nda
ndag
ndagar
ndagassii
ndagen
ndalas
ndama
ndan
ndande
ndandet
ndar
ndardiskussion
ndare
ndaren
ndarens
ndares
ndargenererade
ndargenererat
ndargrupper
ndarkonto
ndarkonton
ndarmall
ndarna
ndarnamn
ndarnamnet
ndarnas
ndarnytta
ndarperspektiv
ndarsida
ndarsidan
ndarsidor
ndartester
ndarunderlag
ndarunderso
ndarva
ndarvillkor
ndas
ndash
ndbar
ndbara
ndbarhet
ndbart
ndda
nddagiella
nddagillii
nddaheasta
nddaheasttaid
nddaheasttat
nddalas
nddardit
nddas
nddat
ndde
nde
ndelse
ndelsen
ndelser
nder
nderlig
nderna
nders
ndes
ndet
ndi
ndig
ndiga
ndigheter
ndigheterna
ndigt
ndigtvis
ndii
ndila
ndisar
ndliga
ndning
ndningar
ndningen
ndningsomra
ndningsstatistik
ndo
ndora
ndpunkt
ndpunkter
ndra
ndrad
ndrade
ndrades
ndrar
ndras
ndrat
ndrats
ndring
ndringar
ndringarna
ndringars
ndringen
ndringsfo
nds
ndsk
ndska
ndssektorn
ne
nea
neaddji
neadministration
neahtas
neahttaa
neahttaba
neahttadigisa
neahttasiiddus
neahttasiiddut
neahttasiidu
neakta
neami
neamis
neamos
neamt
neanspra
neapma
neapmi
near
nearly
neavtta
nebesked
nebraska
necessary
ned
neda
nedagen
nedan
nedansta
nederla
nedje
nedre
need
needed
needing
needs
neg
negatiiva
negatiivvalas
negativ
negativa
negative
negativt
negga
neither
nej
nejuvvon
nekad
neko
nekoski
nekostnader
nelista
nelistan
nellim
nelson
nen
nenetsagiella
neniva
neo
nepal
nepolicy
nepolicyn
ner
nerd
nere
nerelaterade
nerelevanta
nerevidering
nerevision
nerna
neruda
nes
nesa
nesamtal
nesc
nesodden
nespecifikationer
nesseby
nesystem
nesystemet
net
netherlands
nettoresultat
network
networking
networks
neunderlag
neutbetalning
neutbetalningar
neutra
neutral
neutrala
neutralt
neva
nevada
never
nevttii
new
newcomers
newly
news
newsid
newsletter
newsletters
newspaper
newspapers
next
nextcloud
nfo
ng
nga
nganasanagiella
ngande
ngar
ngare
ngarna
ngas
ngd
ngda
ngden
ngder
ngdes
nge
ngen
nger
ngerna
nget
ngfald
ngfalden
ngfaldigande
ngfaldiganden
ngfaldigandet
ngfaldsarbete
ngiella
nglig
ngliga
ngliggjort
ngliggjorts
ngliggo
nglighet
ngligheten
nglighetsanpassat
nglighetspolicy
ngligt
ngna
ngning
ngningar
ngningarna
ngningen
ngo
ngos
ngre
ngs
ngsamt
ngse
ngsfo
ngsiktig
ngsiktiga
ngsiktighet
ngsiktigt
ngskostnader
ngskostnaderna
ngspunkt
ngspunkten
ngsrik
ngsrika
ngsrikt
ngssa
ngsslag
ngst
ngt
ngtidsbesparingar
ngts
ngvarig
ngvariga
ngvarigt
nha
nhemat
nhemiid
nhet
nheten
nhetens
ni
nia
niagiella
nialas
nias
nibh
nice
nick
nickel
nickul
nicolai
nicolas
nid
nidaros
nie
niebaum
niehkkela
niehku
nieida
nieidanamma
nieidda
nieiddaide
nieiddain
nieiddat
nielsen
niemela
niemenkyla
niemi
nien
niger
nigeria
night
nigra
nih
nii
niid
niiguin
niila
niillas
niilo
niin
niinima
niinisto
niitomarigiella
nika
nikirje
niko
nikolai
nikon
nils
nilsen
nilsia
nilsson
nimi
nin
nina
ning
ningar
ningen
nio
nis
nishikado
nissi
nisson
nissona
nissonat
nissoniid
nissoniidda
nissoniin
nissonolbmo
nissonolbmot
nissonolbmuid
nissonolbmuide
nisu
nit
nittedal
niue
niva
nivala
nivalis
nja
njalla
njeaiga
njealja
njealje
njealjec
njealjehas
njealjehaskilomehter
njealjehaskilomehtera
njealjehasmehtera
njealji
njeallje
njic
njiedja
njiedjan
njiejai
njiŋŋelas
njja
njoammu
njoammudit
njohka
njommon
njozet
njuiket
njuikii
njukc
njunni
njunnos
njunnoz
njunus
njuolga
njuolgga
njuolggadus
njuolggadusaid
njuolggadusat
njuolggadusla
njuolggo
njuolggoc
njuorgga
njuoska
njuvc
nk
nka
nkad
nkade
nkande
nkar
nkare
nkarna
nkas
nkat
nkbar
nkbara
nkbart
nken
nker
nkning
nkningar
nkningarna
nkningen
nkningsa
nko
nkp
nkt
nkta
nkte
nkyla
nl
nlahti
nlas
nlig
nliga
nligen
nligt
nm
nma
nmaa
nn
nna
nnagivande
nnam
nnande
nnanden
nnas
nndb
nne
nnedom
nnedomen
nnejohka
nnen
nner
nni
nnia
nnias
nniemi
nnila
nning
nningsteknik
nniska
nniskor
nniskors
nnja
nnjas
nnjii
nnk
nno
nnrot
nns
nnu
nnui
nnyttig
nnyttiga
nnyttigt
no
noaidi
noam
noarsa
nobel
nobela
nobelin
nobelmuseet
nobelmuseets
nobelpriset
nobelpristagare
noemi
noereh
nog
noga
nogai
noggrann
noggranna
noggrant
nohka
nohkan
noinclude
noja
noje
nok
nokia
noll
noma
nome
nomen
nomena
nomenat
nomenis
nominatiiva
nomination
nominera
nominerad
nominerade
nomineras
nominerat
nominering
nomineringar
nomineringen
non
none
nonna
noormarkku
nor
nora
nord
nordea
norden
nordenmo
nordens
nordic
nordin
nordisk
nordiska
nordiskt
nordla
nordland
nordli
nordmalings
nordre
nordsamiska
nordsletta
noreg
norga
norgalac
norgalas
norge
norges
norgeskart
norgga
norggabeal
norggas
norgii
norja
norm
normal
normala
normalportfo
normalt
normen
normprojekt
norr
norra
norrbotten
norrbottena
norrby
norrhult
norrko
norrla
norrsken
norrta
norsjo
norsk
norska
norske
norskt
norstedts
north
northern
norway
norwegian
norðurland
nostradamus
nostradamusa
nostredame
not
notable
notbadji
notbaji
note
noted
noter
notera
noterade
noterades
noterar
noterat
notering
notes
nothing
notice
noticed
noticia
notis
nousiainen
nov
novealla
noveallat
november
novgorod
now
npa
npera
nr
nra
nrk
ns
nsa
nsaari
nsabeaivi
nsad
nsade
nsagiella
nsande
nsar
nsas
nsat
nsbeskattas
nsbeskattning
nsen
nser
nserna
nsf
nsfo
nsi
nska
nskad
nskade
nskagillii
nskalas
nskan
nskar
nskas
nske
nskelista
nskema
nskka
nskkagiel
nskkagiela
nskkagielas
nskkagiella
nskkagillii
nskkalas
nskkas
nsklig
nskliga
nskligheten
nsklighetens
nskva
nsla
nsler
nslig
nsliga
nsman
nsning
nsningar
nsningarna
nso
nsr
nssa
nssas
nssnitt
nssnittet
nsson
nst
nstagare
nstebeskrivning
nstegrupplivfo
nsteleveranto
nstema
nsteman
nstemannaavtal
nsten
nstens
nster
nsteresa
nsteresan
nsteresor
nsterna
nsterpartiet
nsterpartiets
nstesta
nstgo
nstledighet
nstra
nstret
nsu
nsun
nsyn
nt
nta
ntac
ntad
ntade
ntan
ntar
ntas
ntat
nte
nteba
nthal
nting
ntligen
ntningar
ntningarna
nto
ntor
nts
ntsa
ntt
ntta
nttas
nttat
nty
ntyharju
ntyla
nu
nuba
nubba
nubbi
nubbijođiheaddji
nubbin
nubbinjođiheaddji
nue
nugo
nula
null
nulla
number
numbers
numera
nummar
nummer
nummi
nummir
nummret
numret
nunaat
nunaata
nuo
nuoraid
nuoraide
nuoraidorganisas
nuoraidroma
nuoraidskuvla
nuoraidskuvllas
nuoramus
nuorat
nuorgam
nuori
nuorra
nuorran
nuorta
nuortago
nuortalac
nuortalas
nuortalullin
nuortameara
nuortamearas
nuortamearasuopmelas
nuortamearra
nuortan
nuortariika
nuortariikalas
nuortariikka
nuortasa
nuortasla
nuortin
nuortta
nuorttabealde
nuorttanaste
nuorttas
nuortti
nuorttis
nuppa
nuppe
nuppegez
nuppi
nuppiideaset
nuppiin
nuppit
nurash
nurmes
nurmija
nus
nussir
nut
nuts
nuuc
nuuk
nuutinen
nuvarande
nuvtta
nvaara
nvarande
nvaro
nvisa
nvisar
nvisas
nvisning
nvisningar
ny
nya
nyansta
nyberg
nybo
nyckel
nyckelband
nyckeln
nyckelorganisationer
nyckelperson
nyckelpersoner
nyckeltal
nycklar
nye
nyfiken
nyfikenhet
nyfikna
nyheter
nyhetsbrev
nyhetsbreven
nyhetsbrevet
nyhetsflo
nyinspelningar
nyka
nyko
nykytaidetta
nyligen
nynorsk
nyskapade
nyskapande
nyss
nystad
nystø
nyt
nyta
nytimes
nytt
nytta
nyttan
nyttig
nyttige
nyttja
nyttjande
nyttjandera
nyttjar
nyttjas
nyuppladdade
nyval
nyvalda
nøtterøy
o
oa
oabba
oac
oaffarus
oagga
oahkis
oahkka
oahkkana
oahkkanan
oahkkanit
oahkkeba
oahkkimiid
oahkkimis
oahkkin
oahkkisvuohta
oahpa
oahpaha
oahpahan
oahpaheaddji
oahpaheaddjin
oahpaheaddjit
oahpaheapmi
oahpahii
oahpahit
oahpahus
oahpahusa
oahpahusas
oahpahusdirektora
oahpahusguovdda
oahpahussii
oahpai
oahppa
oahppan
oahppat
oahppi
oahppit
oahppo
oahppoa
oahppopla
oahppu
oahpu
oahpuid
oaidna
oaidnit
oaidnu
oainna
oainnu
oainnuid
oainnus
oaiva
oaivega
oaiveministtar
oaiveska
oaivi
oaivila
oaivilat
oaivilis
oaivvi
oaivvilda
oaivvildii
oaivvildit
oaivvilduvvon
oaivvis
oakka
oala
oalgejohka
oalle
oamasta
oamedovddu
oana
oanehac
oanehas
oanehis
oaniduvvon
oappa
oarje
oarjedavvi
oarjejovkui
oarjel
oarjelulli
oarjelullin
oarjema
oarjeoasis
oarjeriikkain
oarjesa
oarjesla
oarjin
oarjja
oarjjabealde
oarjje
oarvegahpir
oasa
oase
oasi
oasis
oasit
oassa
oassalastan
oassefina
oassesta
oasseva
oassi
oassin
oastit
oauth
oavdda
oavdinra
oavjec
oavjjis
oavsett
oaz
oađđa
oba
obalansen
obama
obanassiige
oberger
oberoende
objeakta
object
objective
objectives
objects
objekt
objekten
objektet
objektiv
objektiven
objektivet
oblast
obligation
obligations
obligatorisk
obligatoriska
obligatoriskt
obs
observera
obstacles
obunden
obvious
obviously
oc
oca
occasion
occasions
och
ochnu
ockelbo
ocksa
ocr
october
odal
odd
odda
oddaga
odii
odit
odne
ods
oduvvo
oduvvojit
oduvvon
oduvvui
odvar
oeiseva
oenanthe
oer
oerho
oesterreich
of
ofelac
ofelas
off
offentlig
offentliga
offentliggo
offentligkonst
offentligkonstlista
offentligt
offer
offered
offert
offerter
office
officer
offices
official
officials
officiell
officiella
officiellt
offisielle
offline
offlinevolonta
offset
ofo
ofta
oftare
oftast
often
ofullsta
og
oga
ogsa
ogv
oh
ohcamus
ohcat
ohcejoga
ohcejogas
ohcejohka
ohchr
ohio
ohka
ohkiida
ohkka
ohkkansaji
ohkkava
ohkkejuvvon
ohkkii
oidno
oidnojit
oidnosii
ois
oise
oj
oja
ojakyla
ojusterat
ojuvvon
ok
oka
okategoriserade
okej
oklahoma
oklar
oklara
oklarhet
oklarheter
oklart
okr
oksita
oksygena
okta
oktage
oktagearda
oktan
oktanaga
oktasas
oktavuohta
oktavuođa
oktavuođain
oktavuođas
oktavuođat
oktii
oktiibuot
oktiic
okto
oktober
ol
ola
olagligt
olaha
olahit
olaug
olav
olavi
olavs
olbma
olbmo
olbmos
olbmot
olbmu
olbmui
olbmuid
olbmuide
olbmuin
olbmus
old
older
oldid
ole
olet
olga
olgara
olges
olgez
olggobealde
olggos
olggosaddi
olgguldas
olggumus
olggut
olgomusea
olgoriikaministtar
olgoriikka
olgun
oliid
olika
olis
oliver
oljobohcci
olla
ollas
olle
ollege
ollenge
olles
olli
ollislas
ollu
olmmos
olof
olsen
olsson
olt
olthuis
olu
om
oma
oman
ombeds
ombokning
ombokningar
ombokningen
ombord
ombud
ombuden
ombudet
omd
omedelbar
omedelbart
omega
omfamnar
omfatta
omfattande
omfattar
omfattas
omfattning
omfattningen
omfo
omformuleras
omga
omil
omkostnader
omkring
omna
omo
ompro
omra
omro
omsa
omskolen
omsta
omva
omval
omvandla
omvandlas
on
ona
onboard
onboarding
once
one
ones
ongoing
online
onlineanva
onlinegemenskapen
onlineleveranto
onlinemo
onlineta
onlinetra
only
onlyoffice
ono
onsdag
onto
onwards
oo
oopa
oosmo
op
opad
opas
opc
open
opendocument
opened
openglam
opengov
opening
openness
openrefine
opens
openstreetmap
opera
operala
operate
operatiivavuoga
operating
operation
operational
operations
operativ
operativa
operativt
opinion
opinions
opinionsbildande
opinionsbildare
opinionsbildning
opmodaga
oppa
oppalac
oppalas
oppama
oppega
oppgitt
oppla
oppland
opportunities
opportunity
opposis
oppvekstsenter
optatiiva
optatiivva
option
options
or
ora
oral
oran
orange
oravainen
orci
ord
ordbok
ordboken
orden
ordentlig
ordentligt
order
ordered
ordet
ordf
ordfo
ordfoerer
ordforer
ordfører
ordinarie
ordinary
ordlista
ordlistan
ordna
ordnade
ordnar
ordnas
ordnejuvvo
ordnejuvvon
ordnejuvvui
ordnema
ordnen
ordnet
ordnii
ordning
ordningsfra
oregelbundet
oregon
ores
org
orga
organ
organen
organisas
organisation
organisational
organisationella
organisationen
organisationens
organisationer
organisationerna
organisationers
organisations
organisationsassistent
organisationsassistenten
organisationsbidrag
organisationsfo
organisationsmedlemmar
organisationsmedlemskap
organisationsnr
organisationsnummer
organisationsstrateg
organisationsstruktur
organisationsutveckling
organisato
organisatorisk
organisatoriska
organise
organised
organisera
organiserad
organiserade
organiserades
organiserar
organiseras
organiserat
organiserats
organiserejuvvon
organisering
organization
organizational
organizations
organize
organized
organizer
organizers
organizing
orgel
orientales
oriented
origina
original
originellt
orimattila
orimlig
orimligt
oriol
oripa
orivesi
orkland
orne
oro
oroliga
orro
orron
orrot
orru
orrut
orsa
orsak
orsaka
orsakar
orsaker
ort
orten
orter
orthodox
ortnega
ortnet
ortodoksalas
ortografiija
orui
os
osa
osannolikt
osasto
oscar
oseania
oseanias
osiid
osiide
osiin
oskal
oskar
oskarshamn
oskkolas
oskkoldaga
oskkoldatlas
oskku
oskkus
osku
oslo
oslos
oss
ossodat
osta
osterøy
ostet
osttii
osv
ot
otava
otettu
other
others
otherwise
otillbo
otillra
otna
otne
otrolig
otroligt
otrs
otta
otto
otydligt
ouargla
oued
ouest
ougrienne
oula
oulainen
oulu
oulujoki
oulun
oulunsalo
oulus
oum
ouml
oup
our
ourense
ourselves
out
outcome
outcomes
outi
outline
outlined
outokumpu
output
outreach
outside
ouzou
ov
ova
ovan
ovana
ovanfo
ovanliga
ovanligt
ovanpa
ovansta
ovat
ovcca
ovcci
ovd
ovda
ovdal
ovdalac
ovdalas
ovdalgo
ovdalis
ovdamearka
ovdamearkan
ovdamearkka
ovdamearkkat
ovdan
ovdanbukta
ovdaolmmos
ovdda
ovddabealde
ovddalgihtii
ovddas
ovddasta
ovddasteaddji
ovddasteaddjin
ovddasteaddjit
ovddastii
ovddastit
ovddasva
ovddemus
ovddemusta
ovddes
ovddidan
ovddideaddji
ovddideamis
ovddidit
ovddit
ovddos
ovddosguvlui
ovdii
over
overall
overarching
overcome
overdue
overhead
overheaddelen
overlap
overview
ovtta
ovttaa
ovttadat
ovttage
ovttagielat
ovttaid
ovttaidlogu
ovttaidlogus
ovttaidlohku
ovttain
ovttala
ovttas
ovttasbarggu
ovttasbarggus
ovttasbargu
ovttaskas
ovttastahtta
ovttastahttojuvvui
ovttastus
ovttastuvvan
ovttastuvve
ovttastuvvon
ovttastuvvui
ovttavearda
own
owncloud
owner
owners
owns
oxelo
oxford
oy
oz
ozai
ođasmuvvi
ođđa
ođđaa
ođđada
ođđajagema
ođđajagima
ođđasat
ođđaseamos
ođđasis
ođđasit
p
pa
paadar
paavo
paavola
pablo
pace
packages
padasjoki
padise
page
pages
paid
paimio
painos
paintings
pair
pajala
paket
pakistan
pakistanis
pakkala
pakku
palace
palau
palencia
palkinto
palmas
palo
paltamo
paltto
palustris
pan
panama
panasonic
pande
pandemi
pandemic
pandemin
pandemiskt
panel
paneldebatt
paneldeltagare
paneldiskussion
panelen
panelsamtal
panelsamtalet
panorama
panoramafrihet
panoramafriheten
pantone
paper
papers
papper
pappila
papua
par
para
paragraf
paragrafen
paragrafer
paragraphs
paraguay
parainen
parallel
parallella
parallellt
parameter
parametern
parameters
parametrar
paraske
parental
pargas
parikkala
paris
parisa
parisas
parisii
park
parkano
parker
parlameanta
parlameantava
parlameantta
parlameanttas
parlament
parlamenta
parlamentariker
parlamentarisma
parlamentii
parlamenttalas
parliament
parliamentary
parodi
part
parten
parter
parterna
parti
partial
participant
participants
participate
participated
participating
participation
particular
particularly
partier
partierna
parties
partiet
partiets
partihkal
partihkkalat
partipants
partipolitiskt
partiprogram
partista
partly
partner
partnered
partnerorganisationer
partners
partnership
partnerships
partnerskap
partnerskapet
parts
party
parus
pas
pasila
pass
passa
passade
passande
passar
passed
passer
passerade
passerat
passing
passion
passiv
password
past
paste
pasted
pastisch
patches
patent
path
paths
pathways
patil
patria
patriarka
patrik
pattern
pattypan
paul
pauliina
paulo
paus
pause
pavarotti
pay
payment
payments
paypal
pays
payson
pc
pd
pdf
pdfs
pe
pea
peace
pear
pedagog
pedagogen
pedagoger
pedagogical
pedagogihkalas
pedagogik
pedagogiken
pedagogisk
pedagogiska
pedagogiskt
pedagogue
pedar
pedersen
pederso
pedia
pedro
pee
peer
peerage
peka
pekade
pekar
pekka
pekkala
pekurinen
pelkosenniemi
pelle
pellentesque
pello
peltola
pen
pending
pengar
pengarna
penhamn
pennsylvania
pension
pensiona
pentti
penttila
people
per
pera
perbmelas
percent
perfect
perfekt
performance
performing
perhaps
perho
perid
perinneka
period
perioden
perioder
periodiserade
periodisering
periods
perlebroderi
permanent
permanenta
permission
pernilla
pernio
pers
persen
persiagillii
person
persona
personal
personalansvar
personalen
personalens
personalfra
personalgrupp
personalgruppen
personalkostnader
personally
personalmo
personalpolicy
personalpolicyn
personalstyrka
personalstyrkan
personaltid
persone
personella
personen
personer
personerna
personers
personka
personlig
personliga
personligen
personligt
personnummer
persons
personuppgifter
personuppgifterna
personuppgiftsansvarig
personuppgiftsansvarige
personuppgiftsbehandling
personuppgiftsbitra
personuppgiftsincident
personuppgiftsincidenten
personuppgiftslag
personuppgiftslagen
personval
persovdna
persovdnapronomenat
persovnna
persovnnalas
perspective
perspektiv
perspektivet
persson
pertti
pertunmaa
peru
perus
perva
pet
peta
peter
petra
petri
petsamo
petsamon
petter
petterson
pettersson
petterssonwikimedia
peđar
pfauth
pg
pga
ph
phabricator
phase
philip
phoenicurus
phone
photo
photograph
photographers
photographic
photographs
photography
photohunt
photos
php
phra
phylloscopus
physical
pi
pia
pianista
pica
picea
picture
pictures
picus
pid
pieksa
pielavesi
piemonte
piera
pierre
pieski
pietari
pietarsaari
pietila
pihtipudas
pihtta
pike
pikka
pilot
piloten
piloter
pilotprojekt
pilotprojektet
pilotstudie
pilotstudien
ping
pinga
pings
pinguicula
pingviinnat
pionja
pipe
pipeline
piratpartiet
pirila
pirita
pirjo
pirkanmaa
pirkkala
pirkko
pirttija
pita
pitcairn
pite
pitesamisk
pitka
pixlar
pizza
pl
pla
place
placed
placera
placerad
placerade
placeras
placerat
placering
placeringar
placeringskonto
placeringspolicy
placeringspolicyn
placeringstillga
places
plan
planck
planehta
planehtat
planen
planer
planera
planerad
planerade
planerar
planeras
planerat
planerats
planering
planeringen
planeringsmo
planeringsstadiet
planerna
planet
planeten
planing
planned
planning
plans
platform
platforms
plato
platon
platona
plats
platsen
platser
platserna
plattform
plattformar
plattformarna
plattformarnas
plattformen
play
played
player
playing
please
pledge
plenty
plo
plocka
plockar
plockas
plrk
plus
pm
pma
pman
pme
pmelac
pmelas
pmelaz
pmet
pmi
pmii
pmima
pmimii
pmin
pms
pmt
pmu
pmui
png
pnummer
po
poa
poava
poavan
poblacio
podcast
podd
podden
podiceps
pohjanmaa
pohjois
pohjolain
pohjolan
point
points
poke
pola
poland
polarinsitutt
polen
polenis
policies
policy
policyer
policyn
policys
politica
political
politicians
politihka
politihkalas
politihkar
politihkas
politihkka
politihkkar
politihkkii
politik
politiker
politikerna
politisk
politiska
politiskt
polkunen
polling
polmak
polska
polskalas
polskka
polskkagiella
polskkagillii
polvija
polygona
polynesia
polytechs
pomarkku
ponsati
pontevedra
poo
pool
pop
pope
popmusihkka
popula
popular
populas
population
populous
pori
pornainen
porsa
porsanger
porsgrunn
port
porta
portal
portalen
portalens
portfo
porto
portra
portuga
portugal
portunes
porvoo
posio
positiiva
position
positioner
positionera
positions
positiv
positiva
positive
positively
positivt
possibilities
possibility
possible
possibly
post
posta
postadress
postadresser
postadresserna
postal
postas
postcode
posten
poster
posters
posthantering
postkodlotteriet
postkodlotteriets
postkodstiftelsen
postlistor
postmeddelande
postnr
postort
postponed
postposis
posts
postutskick
potential
potentialen
potentially
potentiell
potentiella
potentiellt
pott
power
pp
ppa
ppagirjja
ppas
ppe
ppen
ppenhet
pper
ppet
pplet
ppna
ppnade
ppnades
ppnande
ppnar
ppnare
ppnas
ppnat
pps
ppt
ppta
pptes
pr
pra
practical
practice
practices
prag
praha
prahova
praktik
praktikaliteter
praktikant
praktikanten
praktikanter
praktiken
praktikplatser
praktisk
praktiska
praktiskt
prao
prata
pratade
pratar
pratat
pratibha
praxis
pre
precis
predika
predikatiiva
prefektuvra
prefer
preferenser
prefix
prelimina
preliminary
prentehus
prentehusa
prentejuvvon
prenten
prenumeranter
prenumerera
prep
prepara
preparation
preparations
preparatory
prepare
prepared
preparing
preposis
pres
presence
present
presentation
presentationen
presentationer
presentationerna
presentations
presentationsmaterial
presentationsrunda
presented
presentera
presenterad
presenterade
presenterades
presenterar
presenteras
presenterats
presideanta
presideantan
presideantava
presideantta
presideanttan
presideanttas
president
presidentin
presidentti
preso
press
pressackreditering
pressemelding
presskontakt
pressmeddelande
pressmeddelanden
presspublikation
presspublikationer
presspublikationernas
pressrelease
pressreleaser
prestanda
prestigelo
pretoria
prevektuvrrat
prevent
prevents
preview
previous
previously
prezi
pri
price
prices
pride
prima
primarily
primary
prince
princess
princip
principals
principen
principer
principerna
principiella
principle
principles
principprogram
prins
prinsa
prinseassa
prinsihppa
print
printed
printing
prio
prior
prioritera
prioriterad
prioriterade
prioriterar
prioriteras
prioriterat
prioriterats
prioritering
prioriteringar
prioriteringsordningen
prioritet
prioritetslista
priorities
prioritize
prioritized
priority
pris
priser
priserna
priset
prissumman
pristagare
prisutdelning
prisutdelningen
priva
privacy
privat
privata
private
privatperson
privatpersoner
prix
prize
pro
proactive
proaktiva
proaktivt
proava
probably
proban
problem
problematisk
problematiska
problematiskt
problemen
problemet
problems
procedural
procedures
procent
process
processa
processara
processed
processen
processens
processer
processerna
processes
processing
processor
produce
produced
producera
producerar
produceras
producerat
producing
product
production
productive
products
produkt
produkten
produkter
produktion
produktionen
produktiva
produktivt
prof
profehta
professional
professionalisera
professionalisering
professionals
professionell
professionella
professionellt
professor
professora
professorin
professors
profil
profile
profilen
profit
profits
prognos
prognosen
prognosverktyg
progra
program
programdelen
programes
programid
programmatiska
programme
programmen
programmerare
programmet
programmets
programo
programomra
programpunkter
programs
programvara
programvaran
progress
project
projectos
projects
projekt
projekta
projektadministrato
projektaktiviteter
projektanso
projektansta
projektansvarig
projektarbete
projektassistent
projektbeskrivning
projektbeskrivningar
projektbeskrivningen
projektbidrag
projektbidragen
projektbidraget
projektbidragets
projektdata
projektdatamallen
projekten
projektens
projektet
projektets
projektfakta
projektfinansierande
projektfinansiering
projektfo
projektgrupper
projektid
projektide
projektledare
projektledaren
projektledarna
projektledartra
projektledarutbildning
projektledning
projektma
projektmedel
projektnamn
projektniva
projektnr
projektnummer
projektor
projektpartner
projektpartners
projektperioden
projektplan
projektplanen
projektrader
projektrapporter
projektrelaterade
projektresultaten
projektresultatet
projekts
projektsida
projektsidan
projektsidor
projektstart
projektsto
projekttid
projekttiden
projekttitel
projektuppstart
proleksis
prolineserver
promemoria
promemorian
promenad
promota
promote
promoted
promoters
promoting
pronomen
pronomenat
proof
prop
properly
properties
property
prophecies
propheties
proposal
proposals
propose
proposed
proposition
propositionen
propositioner
proprieta
pros
proseantamearka
proseantta
proseassa
proseassas
prosent
prospective
protect
protected
protection
proteiinnaid
proteiinnat
protest
protokoll
protokollen
protokollet
protokollfo
prototyp
prototype
prov
prova
provansta
proven
provence
provences
provide
provided
providers
provides
providing
province
provinces
provincias
provinsa
provinsii
provinssa
provinssain
provinssas
provinssat
provisions
proxy
proyecto
prunella
prunus
prylar
ps
psi
psn
pspolicy
psyhkalas
psykisk
pt
pta
pte
pts
pu
pua
pub
public
publicart
publication
publications
publicera
publicerad
publicerade
publicerades
publicerar
publiceras
publicerat
publicerats
publicering
publicitet
publicly
publik
publika
publikas
publikation
publikationer
publiken
publique
publish
published
publishing
pudasja
puerto
puglia
puig
puigdemont
pukara
pukkila
puku
pul
pulkkila
pull
pulska
pump
punkaharju
punkalaidun
punkt
punkten
punkter
punkterna
punktform
punktum
puolanka
pupils
purchase
puro
purpose
purposes
push
pushed
pusselbit
put
putin
putsa
putting
puumala
puy
pwc
px
py
pyha
pyhta
pyo
pyre
pyrrhula
pythagorasa
python
pywikibot
q
qaasuitsup
qaem
qaqortoq
qeqertarsuaq
qeqqata
qi
qqx
qr
qrpedia
quadriga
qualitative
quality
quam
quantitative
quarter
quarterly
que
quechua
queda
queen
queering
querella
queries
query
question
questionnaire
questions
quetzaltenango
queue
quick
quickly
quiet
quins
quis
quite
quito
quo
quote
r
ra
raa
raahe
raasepori
raasiku
raavrevijhke
rabai
rabas
rabatt
rac
race
rad
raden
rader
radera
raderade
raderas
radering
radikal
radio
radioaktiiva
radios
radon
rae
rafael
ragiella
ragierddu
ragnar
ragnhild
ragunda
rahc
rahikkala
rahissta
rahpasii
rahppojuvvojedje
rahppojuvvui
rai
raid
railway
raimo
rain
raise
raised
raisio
rak
rakt
ralas
rallivuoddji
rallt
ramar
ramarna
rambeslut
ramen
ramp
rampljuset
ramus
ramverk
ran
ranas
rande
randekod
randen
randet
random
range
ranka
rankning
rankra
rankrat
ranleder
rannankyla
ranta
rantakyla
rantala
rantasalmi
ranttila
ranua
ranunculaceae
ranunculus
rap
rapid
rapporerad
rapport
rapporten
rapportens
rapporter
rapportera
rapporterad
rapporterade
rapporterades
rapporterar
rapporteras
rapporterat
rapporterats
rapportering
rapporteringar
rapporteringen
rapporterna
rapportformat
rapportsidor
rar
rarbete
rarbetet
rare
raren
rarho
rarkva
rarna
rarnas
rarutbildningar
ras
rasa
rasande
rasavvonis
rasisma
rask
rasmus
rasmussen
rast
rasta
raste
rat
rate
rather
ratifiseren
rationale
rattsdokument
rattsligvagledning
rau
rauhanpalkinto
rault
rauma
rauna
rauni
rautalampi
rautavaara
rautja
rav
ravddalas
ravddas
ravggon
ravna
raw
raymond
rba
rbar
rbara
rbarhet
rbart
rbbas
rbbi
rbbolas
rbbu
rbbuid
rbbut
rbeha
rbered
rbereda
rberedande
rberedas
rberedd
rberedda
rberedde
rberedelse
rberedelser
rberedelserna
rbereder
rbereds
rberett
rberetts
rbevierru
rbevieru
rbevieruid
rbevirolac
rbevirolas
rbi
rbilder
rbindelser
rbinder
rbjudet
rblir
rbmu
rbu
rbud
rbudet
rbund
rbunden
rbundet
rbyra
rd
rda
rdade
rdades
rdag
rdagen
rdan
rdar
rdare
rdas
rdats
rdda
rddas
rddi
rde
rdefull
rdefulla
rdefullt
rdegrund
rdel
rdela
rdelade
rdelaktigt
rdelar
rdelarna
rdelas
rdelat
rdelen
rdelning
rdelningen
rden
rdepapper
rder
rdera
rderar
rderas
rderats
rdering
rderingar
rderingen
rderingssession
rderna
rdes
rdeskapande
rdet
rdheter
rdi
rdig
rdiga
rdighet
rdigheter
rdigsta
rdigt
rdima
rdin
rdjupa
rdjupad
rdjupat
rdmyndighet
rdni
rdoba
rdom
rdomar
rdomarna
rdro
rdsbidrag
rdsdag
rdsfo
rdshus
rdsplan
rdvara
re
rea
reach
reached
reaching
read
reader
readers
reading
ready
reagan
reagera
reagere
reaks
reaktioner
real
realisera
realiseras
realistisk
realistiskt
reality
realize
realized
really
realtid
reason
reasonable
reasons
reb
rebel
rebild
rebro
rebygga
rebyggande
receipt
receipts
receive
received
receiving
recent
recently
recieved
recipients
recognition
recommend
recommendation
recommendations
recommended
reconciliation
record
recorded
recording
recordings
records
recruited
recruiting
recruitment
recur
recurring
red
reda
redaktevra
redaktionella
redakto
redan
reddit
redigera
redigerade
redigerades
redigerande
redigerar
redigerare
redigeras
redigerat
redigering
redigeringar
redigeringsla
redigeringstra
redo
redogjorde
redogjordes
redogjort
redogo
redovisa
redovisade
redovisades
redovisar
redovisas
redovisning
redovisningar
redovisningen
redovisningsbyra
redra
redrag
redragande
redragningslista
redragningslistan
redragspunkter
redrar
redrog
redrogs
redskap
reduce
reduced
reducerade
ref
refer
refera
referansen
reference
references
referens
referenser
referenslitteratur
referensnummer
referensverk
refererar
referred
referring
refine
refinement
reflective
reflektera
refocus
reform
refter
rega
regard
regarding
regardless
regards
regasnja
regel
regelbunden
regelbundet
regelbundna
regeln
regelverk
regelverket
regering
regeringen
regeringens
regeringskansliet
regi
region
regional
regionala
regionarkivet
regionbibliotek
regionen
regioner
regiones
regiovnna
regisso
register
registered
registerfo
registration
registrera
registrerad
registrerade
registrerades
registrerar
registreras
registrerat
registrerats
registrerejuvvon
registrering
regiuvdna
regiuvnna
regiuvnnas
regiuvnnat
regjeringa
regjeringen
regler
reglera
reglerad
reglerar
regleras
reglerat
reglerna
regular
regularly
regulation
regulations
regulus
reha
rehkenastit
rehkenastojuvvo
reier
reijo
reimbursement
reindeer
reinikkala
reino
reinøya
reisja
reivvet
reivviid
reja
rekisterikeskus
reklam
reklamfri
rekommande
rekommendation
rekommendationen
rekommendationer
rekommendationerna
rekommendera
rekommenderade
rekommenderar
rekommenderas
rekommenderat
rekommer
rekrytera
rekryteras
rekrytering
rekryteringen
rekta
rektor
rela
relander
related
relaterad
relaterade
relaterar
relaterat
relating
relation
relationen
relationer
relations
relationship
relationships
relatively
relativitehtateoriija
relativt
release
released
releases
relevans
relevanskriterier
relevant
relevanta
reliable
religger
religio
religion
relizane
relse
relsen
relsens
relser
rema
remain
remaining
remember
reminders
remiss
remisser
remissinstans
remissvar
remix
remot
remote
remotely
removed
ren
rena
rename
renberg
renberga
rende
renden
rendet
rene
renew
renewal
renewed
rengagemang
renigen
rening
reningar
reningarna
reningen
reningens
reningsengagemang
reningsmedlemmar
reningssekreterare
reningssekreteraren
reningsspecifika
reningswiki
reningswikin
renkla
renklar
renklas
renkling
renlig
renliga
renligt
rens
rensa
rensas
rensning
rensningsprotokoll
rensningsrutiner
rent
renta
rentzhog
reo
repeated
repeatedly
repens
repetera
replace
replikas
reply
repo
report
reported
reporting
reports
repositories
repository
representant
representantene
representanter
representantfordeling
representation
representative
representatives
represented
representera
representerade
representerar
reprinted
reproducera
repu
republic
republihkka
republika
request
requested
requests
require
required
requirement
requirements
requires
rer
rerna
rernas
rers
res
resa
resan
resande
resans
resbeslut
rese
research
researchers
researching
resebeslut
resebeslutet
resebeslutfattare
resebeslutsformula
resebidrag
resebudget
resebyra
resedatum
reseersa
reseguide
reseguiden
resekostnaden
resekostnader
resekostnaderna
resema
resemall
resena
resepolicy
resepolicyn
reser
resera
reserapport
reserapporten
reserapporter
reserapporteringar
reserv
reservation
reservationer
reserve
reserved
reserver
reservera
reserverar
reserves
reservtid
resestipendier
resestipendium
reset
residence
residencia
reskostnader
reskrivs
resla
reslagen
reslaget
reslagit
reslagits
reslagna
reslog
reslogs
resolution
resolved
resonemang
resor
resource
resources
resp
respective
respekt
respektera
respektive
respond
respondenter
respondenterna
respondents
respons
response
responsen
responses
responsibilities
responsibility
responsible
responsiv
respra
rest
resta
restaura
restaurang
restauranger
resten
resterande
restid
restidersa
restidsersa
restora
restricted
restricting
restrictions
restriktioner
restriktiv
result
resultat
resultaten
resultatet
resultatra
resultatrapport
resulted
resultera
resulterade
resulterar
resulterat
resulting
results
resurs
resursen
resurser
resurserna
ret
retag
retagen
retaget
retagets
retagskonto
retagssponsring
retoroma
retra
retriever
retroaktiv
retroaktivt
rets
return
returned
retweets
reuse
reused
rev
revenue
revenues
revidera
reviderad
reviderade
revideras
reviderats
revidering
revideringar
review
reviews
revised
revision
revisionsbera
revisionsfirmor
revisor
revisorer
revisorerna
revisorn
revisorns
revisors
revisorssuppleant
revisorssuppleanter
revisorsuppleanter
revolus
revolutionen
reykjavi
rfa
rfaller
rfarande
rfaranden
rfarandet
rfatta
rfattande
rfattare
rfattaren
rfeasta
rfeastta
rfeasttas
rfina
rfo
rfogande
rfoganden
rfra
rfsl
rg
rga
rgabeaivvi
rge
rgemenskap
rgemenskapen
rgen
rger
rgga
rggas
rggogoalsi
rgii
rgon
rgosat
rgrupper
rgrupperna
rgumat
rha
rhand
rhandla
rhandling
rhandlingar
rhandlingarna
rhandlingsframsta
rheten
rhin
rhindra
rhindrar
rho
rhode
rhoppning
rhoppningen
rhoppningsvis
ri
ria
riagiella
rias
ribes
ribland
rica
ricas
rice
richard
richards
riddarholmstorget
riddu
ridj
rieban
riega
riegga
riehpovuonjohka
riekta
riektac
riekteveahki
riekti
rievda
rievdadan
rievdadii
rievdadit
rievdadusaid
rievdadusat
rievdaduvvon
rievdaduvvui
rievdan
rievdat
rievddai
rievssat
rievttes
rievtti
rifra
rig
riga
rigenom
righet
righeter
righeterna
right
rights
rigt
rii
riid
riidda
riidduid
riihima
riika
riikara
riikii
riikka
riikkaba
riikkabeaivea
riikkabeaiveva
riikkabeaivvit
riikkabeivviid
riikkabeivviin
riikkageaidnu
riikkagiella
riikkaid
riikkaide
riikkaidgaskasac
riikkaidgaskasas
riikkain
riikkara
riikkas
riikkasearvi
riikkat
riikkaviidosas
riikkavulos
riikkavuloz
riin
riitakorpi
riitta
rika
rike
riket
rikkis
riksantikvariea
riksarkivet
riksarkivets
riksdag
riksdagen
riksdagens
riksdagsfoto
riksdagsledamo
riksdagsledamot
riksdagsma
riksdagspartierna
riksfo
riksma
riksmo
riksmuseet
riksutsta
rikt
rikta
riktad
riktade
riktar
riktas
riktat
riktig
riktiga
riktigt
riktlinje
riktlinjen
riktlinjer
riktlinjerna
riktmikrofon
riktning
riktningar
riktningen
riku
rila
rimlig
rimliga
rimligen
rimlighet
rimligt
rin
rindal
ring
ringa
ringar
ringen
ringer
ringerike
rings
ringsdepartementet
ringsidkare
ringslagen
ringsliv
ringslivet
ringsmaterial
ringsrelaterade
ringssystem
rinsatser
rio
rioja
riparia
ris
risk
riska
riskanalys
riskanalyser
risken
risker
riskera
riskerar
riskerna
riskhantering
riskka
risks
risktagande
rissa
rista
risten
ristiina
ristija
risto
risttalac
risttalas
rit
rita
ritva
rivdet
river
rivers
rivtta
rivttes
rivttiid
riđđu
riŋget
rja
rjad
rjade
rjades
rjan
rjar
rjare
rjas
rjat
rjats
rje
rjedalen
rjesson
rjestyksessa
rjila
rjilgiela
rjilgiella
rjj
rjja
rjjaga
rjjagis
rjjat
rjoga
rjohka
rk
rka
rkan
rkanat
rkanba
rkaniid
rkaniin
rkanis
rkas
rkd
rkdartists
rke
rkelse
rkelsen
rken
rker
rkeska
rket
rkilis
rkilit
rkka
rkkat
rkku
rkkuha
rkkus
rklara
rklarade
rklarades
rklarande
rklarar
rklaras
rklaring
rklaringar
rklaringen
rkning
rkningar
rknippade
rknippat
rko
rkokomis
rkomeannu
rkortat
rkortning
rkortningar
rks
rksamhet
rksamma
rksammas
rksammat
rkt
rkta
rktalas
rkte
rktisa
rku
rkui
rkunskaper
rla
rlag
rlas
rld
rlden
rldens
rldsbevakning
rldskriget
rldsnaturfonden
rldsomspa
rleg
rlek
rlig
rliga
rligen
rliggande
rligt
rlita
rlitlig
rlitlighet
rlitligt
rlora
rlorade
rlorar
rlorat
rlurar
rlust
rm
rma
rmar
rmare
rmast
rmaste
rmed
rmedel
rmedla
rmedlar
rmedlare
rmedlas
rmedling
rmedlingen
rmen
rmiddag
rmiddagen
rminspelning
rmla
rmland
rmlands
rmo
rmodligen
rmre
rmsta
rn
rna
rnamn
rnamo
rnan
rnas
rnet
rnets
rning
rningar
rningarna
rningen
rno
rns
rnsko
rnva
rnya
rnyat
rnyelse
ro
roadmap
roald
roavvenja
robert
roberts
robertsfors
robinson
robo
rock
rockjoavku
rog
rogala
roger
rogiel
rogiela
rogielas
rogiella
rogillii
roglo
rohttuda
role
roles
rolf
rolffa
rolig
roliga
roligt
roll
rolla
rollen
roller
rollfo
rolling
rollup
rom
roma
romagna
romalas
roman
romani
romania
romanias
romas
romaterial
rome
romedel
romedlen
romeva
romra
romsa
romsda
romsdal
romssa
romssas
ron
ronald
ronma
room
rooms
root
roplanen
ropstad
rordar
rordnad
rordning
rordningen
rosa
rosaceae
rose
roslagen
rossi
rotavirus
rough
roughly
round
router
routines
rovira
row
roy
royal
rpa
rpf
rpio
rr
rra
rran
rrar
rrasta
rrat
rre
rrea
rrejeaddjit
rrejedje
rrela
rrelahttu
rremarigiella
rren
rresa
rresurs
rresurser
rresurserna
rri
rrii
rriika
rrla
rro
rru
rrui
rs
rsa
rsalen
rsavgift
rsavgiften
rsbasis
rsbera
rsbok
rsbokslutet
rscykel
rscykeln
rse
rseningar
rses
rsfinansiering
rsfirande
rsiktiga
rsiktighet
rsjubileum
rskaffa
rskaffas
rskap
rskild
rskilda
rskilja
rskilt
rskoleklassens
rsla
rslag
rslagen
rslaget
rslagsra
rslagsvis
rsm
rsmo
rso
rsperiod
rsplan
rsprojekt
rsquo
rsra
rsrapport
rsrapporten
rsredovisning
rsredovisningen
rsrollen
rsskiftet
rsslut
rsslutet
rsspecifikt
rssta
rst
rsta
rsto
rstrategi
rstudie
rstudien
rsumbart
rsva
rsvarsmakten
rsverksamhet
rsvinner
rsvis
rt
rta
rtal
rtat
rte
rteckning
rteckningen
rterbuch
rtid
rtiden
rtill
rtja
rtligt
rtni
rtniid
rtnis
rtom
rtroende
rtroendet
rtroendevald
rtroendevalda
rts
rtsell
rtsila
rtstartare
rttai
rttal
rttas
rttsa
rtydliga
rtydligande
rtydliganden
rtydligas
ru
rua
rubrik
rubriken
rubriker
rubrikerna
rubus
rudberg
rudolf
ruficollis
ruhta
ruhtadeapmi
ruiduhttin
rukses
ruksesspektrasirda
rules
rull
rullande
rullar
rum
ruma
rumas
rummet
run
runda
rundan
rundkvist
rune
runeberg
runeberga
running
runot
runs
runt
runtom
ruoholahti
ruoholahtis
ruohttama
ruokolahti
ruoksat
ruoktosiiddut
ruoktosiidu
ruoktot
ruoktu
ruoktumet
ruona
ruonas
ruong
ruos
ruossa
ruots
ruovdema
ruovdi
ruovesi
ruovttoluotta
ruovttu
ruovttuba
ruovttueatnan
ruovttuguovllu
ruovttus
ruovttusiiddut
ruovttusiidu
ruoŧa
ruoŧagiel
ruoŧagiela
ruoŧagiella
ruoŧagillii
ruoŧain
ruoŧas
ruoŧelas
ruoŧŧa
ruoŧŧelas
rupmas
ruppdrag
ruppgifter
rus
rusko
russell
russia
russian
rustica
rut
ruta
rutan
ruth
rutin
rutinbeskrivning
rutinen
rutiner
rutinerna
ruto
rutom
rutorna
rutsa
rutsedda
ruvdnaprinsa
ruvdnaprinseassa
ruvdno
ruvnno
ruvnnu
ruvsus
ruđa
ruđaid
ruŧŧii
rv
rva
rvalta
rvaltar
rvaltning
rvaltningar
rvaltningen
rvaltningsprocess
rvaluvvo
rvaluvvon
rvar
rvara
rvarande
rvarar
rvare
rvarning
rvaro
rve
rven
rvenas
rvenkyla
rvenpa
rverkliga
rvesk
rvi
rviesja
rvikyla
rvirring
rvis
rvisso
rvning
rvningskampanj
rvo
rvomearkka
rvosas
rvu
rvva
rvvis
rvvos
rvvu
rvvuid
rvvus
rwanda
rwandai
rwandas
ry
ryan
ryda
rydberg
ryggen
ryggsa
rykte
ryma
rymmer
ryms
ryo
ryssland
rz
rælingen
rður
røyken
s
sa
saa
saamassa
saamelainen
saamelais
saamelaiset
saamelaiska
saamelaispuvut
saamelaista
saamelaisten
saamen
saami
saanijd
saara
saaremaa
saarenkyla
saari
saarija
saarikoski
saba
sabbat
sabbaten
sac
sacred
sadja
sadjeha
sadji
saemie
saemien
safari
safarin
safaris
safe
safety
saga
sagai
sagat
sagt
saha
sahalahden
sahan
saheaddji
saheapmi
sahii
sahit
sahus
sahusa
sahusaid
sahusas
sahusat
sahuvvon
sahuvvui
sai
said
saijets
saint
saja
saji
sajiin
sajis
sajten
sajter
sak
saken
saker
sakerna
sakka
saklig
saklighet
saknad
saknade
saknades
saknar
saknas
saknat
saknats
sakrevision
saksigiella
saku
sal
sala
salaam
salainen
salamanca
saldo
salem
salems
sales
salix
salla
salmenkyla
salmi
salminen
salming
salo
saloinen
salomonsullot
salonkyla
salvador
salvelinus
sam
sama
samarbeta
samarbetade
samarbetar
samarbetat
samarbete
samarbeten
samarbetet
samarbetsavtal
samarbetspartner
samarbetspartnern
samarbetspartners
samarbetsprojekt
samarbetsra
samarbetssida
samband
sambandet
sambo
sambruk
same
samenes
samer
sametinget
samha
sami
samica
samid
samisk
samiska
samiske
samiskt
samla
samlad
samlade
samlades
samlar
samlas
samlat
samlats
samling
samlingar
samlingarna
samlingssida
samma
sammallahti
samman
sammanfatta
sammanfattad
sammanfattar
sammanfattning
sammanfattningsvis
sammanha
sammanhang
sammanhanget
sammankallande
sammanla
sammanlagt
sammanra
sammansa
sammansta
sammantaget
sammantra
sammen
sammensla
samoa
samordna
samordnar
samordnas
samordning
sample
samra
samso
samsung
samsyn
samt
samtal
samtalen
samtalet
samtidigt
samtliga
samtycke
samuel
samuli
samverka
samverkan
samverkanspart
san
sanakirja
sand
sande
sandefjord
sandla
sandra
sanger
sanila
sankt
sanktioner
sanna
sanner
sanning
sannolikhet
sannolikheten
sannolikt
sanomat
sant
santa
santiago
sao
sapiens
sapmi
sar
sara
saran
sardigiella
sardinia
sare
saren
sarens
sarna
sars
sarsy
sarthe
sarupplevelse
sas
sassarigiella
sastamala
sat
satakunta
satellihta
satellite
satisfaction
satsa
satsar
satsat
satsning
satsningar
satsningen
satt
satta
satte
sattes
satts
satu
saudi
sauli
sauvo
save
saved
savio
savitaipale
savo
savoie
savonlinna
saw
saxifraga
say
says
saz
saǥai
sb
sbar
sbara
sbart
sbu
sby
sc
scale
scaled
scaling
scan
scandinavia
scandinavian
scanna
scannas
scanned
scanner
scanners
scanning
scansnap
scb
scenarier
scenario
scenarios
scenkonst
schedule
scheduled
schema
schemala
schen
schiff
schildt
schjerfbeck
schleswig
scholarship
school
schools
schulenburg
schulstad
schweiz
sci
science
sciences
scientific
scifigirjec
scope
scott
script
scrive
sd
sdc
sdgs
sdoallat
sds
se
sea
seahka
seaibi
seailluhit
sealla
seallaid
seallain
seallas
seallat
seallava
seami
seamma
seammala
seammanamat
seammasullasas
seamos
seapmi
seappot
search
searva
searvan
searvat
searvi
searvin
searvvai
searvvi
searvvis
seat
seats
sebastian
second
secondary
seconds
secret
secretary
section
sector
sectors
secure
secured
security
sed
sedan
sedvanligt
see
seeing
seek
seeking
seem
seems
seen
seg
segovia
segu
seilon
seina
seine
sek
sekreterare
sekreteraren
seksua
sektionen
sektor
sektorer
sektorn
sekund
sekunda
sekundda
sekunder
sela
sele
select
selected
self
selkupagiella
sell
selma
selv
sem
semenoff
semester
semestera
semesterdagar
semesterersa
semesterlo
semestern
semesterresa
semestrar
semina
seminar
seminarier
seminariet
seminarium
seminars
sen
sena
senare
senarelagts
senast
senaste
send
sending
senior
seniorer
seniornet
senioruniversitetet
senord
senordet
sense
sent
sentences
sentlig
sentliga
sentligt
sentralbyra
seoul
sepa
separat
separata
separate
separated
seppa
seppo
september
ser
serbia
serbiagiella
serbias
serbokroatiagiella
sergei
serie
serien
serienummer
serier
series
serio
seriously
sermersooq
serra
serret
sertion
serve
server
serveras
serverfra
serverleveranto
serverlo
servermiljo
servern
servi
service
serviceinriktad
services
servodaga
servodagas
servodahkii
servodat
servodatma
servos
servrar
servrarna
servviid
servviin
ses
session
set
setbacks
sets
sett
setting
settings
setup
seura
seuraavan
seuran
seuruja
seva
sevdnjes
seven
several
severin
sevilla
sevnnjodeapmi
sex
sexma
sexuell
sfa
sfd
sff
sfi
sfis
sg
sgeassit
sgoddi
sgs
shahr
shall
shapefiles
share
shared
sharing
she
sheet
shi
shift
shine
shirt
shirts
sho
shop
shopen
short
shorter
shortly
should
show
showcase
showed
showing
shown
shows
shtml
shu
si
sia
sialas
sias
sibirja
sibirjja
sibiu
sicilia
sida
sidan
sidans
siddhartha
side
sidfoten
sidi
sidjiide
sidor
sidorna
sidvisningar
siebe
siecles
sierra
sierrala
sierrana
sierranit
sievi
siffra
siffran
siffror
siffrorna
sig
sigfrid
sightseeing
sign
signa
signal
signe
signed
signera
signerar
signering
significant
significantly
signifikant
signifikanta
signing
signpost
signs
sigrid
sihii
sihke
sihkkar
sihkkarastit
sihkkarit
sihtat
sii
siid
siida
siidda
siiddas
siiddu
siidduin
siiddus
siiddut
siidsa
siidu
siikainen
siikajoki
siikalatva
siilinja
siin
siiri
sijddsa
sijte
sikt
siktar
sikte
sikter
sila
silba
silbaba
silbba
silje
sillanpa
sillen
silva
silvia
similar
simma
simo
simon
simple
simply
simuleras
sin
sina
since
single
singularitehta
sino
sinu
sinun
sipila
sipoo
sir
sirda
sirdas
sirdit
sirdojuvvui
siri
sirkka
sirpa
sis
sisa
sisafa
sisdoallu
sisdoalu
sisiliagiella
siskka
siskkit
siskkobealde
siskkobeale
sisko
sisriikkalas
sist
sista
sistan
siste
sister
sistna
sisttis
sisttisdoalai
sisttisdoalla
sisttisdollet
sit
sita
site
sitemap
siteringsfeil
sites
sitt
sitta
sittande
sitter
situation
situationen
situationer
sityo
siuntio
siva
sivas
sivat
siviila
siviilaba
sivistysseura
sivut
sivva
sivvan
six
size
siŋgel
siŋka
siŋkka
sj
sja
sjo
sju
sjukdom
sjukdomar
sjukva
sjælla
sk
ska
skada
skador
skaffa
skaffar
skaffat
skal
skala
skalas
skalbart
skall
skan
skandina
skandinaviske
skanna
skannad
skannade
skannas
skannat
skanner
skannern
skansen
skapa
skapad
skapade
skapades
skapande
skapandet
skapar
skapare
skaparen
skapas
skapat
skapats
skapelse
skara
skarvik
skatt
skattedeklaration
skattefra
skattefria
skatteinbetalningen
skattejurister
skattekonto
skattema
skattepliktig
skattepliktiga
skatter
skatteregler
skattesedel
skatteverket
skatteverkets
skattkistan
ske
skearru
skearruin
skearrus
skedde
skede
skedsmo
skei
skelleftea
skeln
skeppsholmen
skepsis
skeptiska
sker
skett
ski
skick
skicka
skickad
skickade
skickades
skickar
skickas
skickat
skickats
skicklig
skickliga
skiellet
skien
skierru
skiervva
skiipa
skikda
skilda
skilja
skiljer
skill
skille
skilled
skillnad
skillnaden
skillnader
skillnaderna
skills
skiss
skit
skjuta
skjutits
skjuts
skl
sklar
sklarna
sko
skoarra
skoklosters
skol
skola
skolan
skolans
skole
skolelever
skolelinux
skolfederation
skolforum
skolor
skolorna
skolt
skolva
skolverket
skopje
skotla
skr
skra
skrev
skrevs
skribent
skribenter
skribenterna
skrift
skrifter
skriftlig
skriftliga
skriftligen
skriftligt
skriftspra
skript
skriv
skriva
skrivande
skrivandet
skrivare
skrivaren
skrivarstuga
skrivarstugan
skrivarstugor
skrivas
skrivbord
skrivelse
skrivelsen
skrivelser
skriven
skriver
skrivet
skrivit
skrivits
skrivna
skrivning
skrivningar
skrivningen
skrivs
skrivstuga
skrivstugan
skrivstugor
skrivstugorna
sks
sku
skugge
skulder
skulffiide
skull
skulle
skulpturer
skum
skuolfi
skuvla
skuvlahistorja
skuvlaverra
skuvlejumi
skuvlejupma
skuvlen
skuvlla
skuvllaid
skuvllain
skuvllas
skuvllat
skv
sky
skydd
skydda
skyddade
skyddas
skyddat
skyddet
skyddsombud
skyddstid
skyddstiden
skyddsva
skyla
skyldig
skyldighet
skyldigheter
skyltar
skynda
skyndsamt
skype
skypemo
sla
slag
slaget
slagit
slags
slagsvold
slant
slettaelva
slides
slidre
slightly
slincraze
slippa
slipper
sll
slo
slott
slottet
slova
slovakia
slovenagiella
slovenia
slow
slowly
slp
sls
slu
slut
sluta
slutade
slutanva
slutar
slutat
slutdatum
sluten
slutet
slutfo
slutgiltiga
slutgiltigt
slutlig
slutliga
slutligen
slutligt
slutna
slutrapport
slutrapporten
slutsats
slutsatsen
slutsatser
slutseminarium
sm
sma
smaka
small
smaller
smart
smarta
smartgroup
smartphone
sme
smedjebacken
smhi
smidigare
smidigt
smii
smirnov
smith
sms
smuvai
smuvva
sna
snabb
snabba
snabbare
snabbhet
snabbt
snac
snap
snar
snarare
snarast
snart
sning
sningar
sningarna
sningen
sningsfokuserad
sningsmekanismen
sningsmekanismer
sningssalen
snitt
snl
sno
snoasa
snoasas
snygg
snygga
snyggt
so
soabahallanra
soahki
soahpamus
soahta
soahtefa
soahteveaga
soahti
soai
soaita
soaitta
soaldda
soames
soapma
soađegili
soađegilis
soađegilli
soađi
soađis
sobiranistes
sobre
soccer
social
sociala
socialdemokraterna
socialdemokraternas
socialt
socie
societal
societatis
societies
society
socio
socken
socknar
sodjet
sodju
sofi
sofia
sofie
soft
software
soga
sogas
sogn
sohka
sohkii
soi
soini
soitet
sojahuvvo
sojahuvvojit
solbakk
solberg
solberga
sold
sole
solen
solid
solju
solleftea
solution
solutions
solve
solved
solveig
solving
som
soma
somateria
somby
some
someone
somero
something
sometime
sometimes
somewhat
somewhere
sommar
sommaren
somme
son
song
songs
sonja
sonkaja
soon
sopa
sophie
sophies
soppa
sorbigiella
soria
sorjjasmeahttun
sorsele
sortera
sorteras
sorterat
sorters
sorts
sorø
sosia
sosialisttalas
sotkamo
sotnabeaivi
sou
souk
soul
sound
sounds
source
sources
south
sovjetlihttu
sovjetlihttulas
sovjetlihtu
sovjetlihtus
sp
spa
space
spaces
spagetti
spain
span
spanien
spanska
spara
sparade
sparar
sparas
sparat
sparql
sparrooabba
sparsamt
speak
speaker
speakers
speaking
speallu
spec
special
specialfall
specialiserad
specialiserade
specialiserat
specialist
specialized
speciell
speciella
speciellt
species
specific
specifically
specificera
specificerade
specificeras
specificerat
specified
specifik
specifika
specifikation
specifikationen
specifikationer
specifikt
specify
speculative
speech
speeches
speed
spel
spela
spelade
spelades
spelar
spelare
spelarna
spelas
spelat
spencer
spend
spendera
spending
spent
spesia
spetz
sphinx
spiehkastagat
spikat
spirit
spitsbergen
splatta
split
spoken
sponsor
sponsored
sponsorer
sponsorship
sponsra
sponsrade
sponsrar
sponsring
spontana
spontant
sport
spotlight
spra
sprache
spread
spreading
spreadsheet
spreadsheets
spreadshirt
sprid
sprida
spridandet
spridas
sprider
spridning
spridningen
sprids
spring
spritt
sprog
sql
sqlstmt
sr
src
sreaŋggat
ss
ssa
ssaid
ssan
ssas
ssat
ssb
sse
ssea
ssedeattu
ssertuejj
sses
sset
sseva
ssi
ssidis
ssig
ssiga
ssigt
ssiid
ssiin
ssit
ssjo
ssleholm
ssn
ssor
sspn
st
sta
staatsbibliothek
stabil
stabila
stabilitet
stabiliteten
stability
stabilt
stable
stack
stad
stade
staden
stadens
stadgan
stadgar
stadgarna
stadgea
stadgeenliga
stadgeenligt
stadgerevision
stadigt
stadigvarande
stadium
stadkomma
stads
stadsbibliotek
stadsbiblioteket
stadsdel
stadsmiljo
stadsmuseum
staff
staffan
stakeholders
stakston
stan
stand
standa
standard
standardama
standardavtal
standarden
standarder
standardiserade
standardmall
standards
standardspra
standing
stands
stanley
stanna
stannar
stapeln
star
stare
stark
starka
starkare
starkt
starlink
start
starta
startad
startade
startades
startar
startas
startat
startats
startbild
startdatum
started
starten
starting
startpunkt
starts
startsidan
startsto
stas
stat
state
stated
statement
statements
staten
statens
staterna
states
station
statistical
statistics
statistik
statistiken
statistikkvariabel
statistikverktyg
statistisk
statistiska
stativ
statlig
statliga
statligt
statoids
stats
statsminister
statsra
statue
status
statusen
statusname
staty
stavanger
stavfel
stay
stbera
stblogg
ste
steapmi
stearkalas
stearkalasa
stefan
steg
stegen
steget
stegsverifiering
sten
stens
step
stephen
steps
ster
stera
sterberg
sterbotten
sterbottena
sterbottens
sterby
stergo
stern
sterna
sterreich
sterrike
stersund
stevdnega
stevdnii
steve
stfo
sti
stida
stideaddji
stidii
stidit
stientjie
stiftelse
stiftelsen
stiftelser
stig
stil
still
stilla
stillbild
stillbilder
stimulans
stimulera
stinla
stipendier
stipendiet
stipendium
stit
stivra
stivre
stivrejupmi
stivret
stivrii
stivrra
stivrras
stja
stkommande
stla
stm
stma
stmanla
stmo
stning
stningar
stningen
stningsfo
sto
stockfleth
stockholbma
stockholm
stockholmma
stockholmmas
stockholms
stod
stokke
stolar
stolt
stolta
stoltenberg
stone
stop
stoppa
stopped
stor
stora
storbildsska
storbritannien
store
stored
stories
storlek
storlekar
storleken
storleksordning
stormo
storskaliga
stort
stortinget
storuman
story
storyn
stra
straight
strand
stranda
strasbourg
strategi
strategiarbete
strategiarbetet
strategic
strategically
strategidiskussion
strategier
strategierna
strategies
strategimo
strategin
strategins
strategiomra
strategirekommendationerna
strategisk
strategiska
strategiskt
strategist
strategy
strax
stream
streama
streamas
streamen
streaming
streamyard
street
strength
strengthen
strengthening
strengths
stress
stressenka
strict
strid
strider
strigidae
string
strive
strix
stro
strong
stronger
strongly
structure
structured
structures
struggled
struggling
struktur
strukturen
strukturer
strukturera
strukturerad
strukturerade
strukturerat
struve
stryka
strykas
stryks
stryn
sts
stta
sttas
stterminen
stti
sttiid
sttiin
sttis
sttit
stts
stubbar
studeantta
student
studenter
studenterna
studentfo
studentklubbar
students
studera
studerar
studeren
studeret
studerii
studie
studiebeso
studiecirkel
studiecirkelledare
studiecirkeln
studiecirklar
studiefo
studiefra
studiematerial
studier
studies
studio
study
stuhka
stuimmiid
stuimmis
stuimmit
stund
stuora
stuoradiggeva
stuoradiggi
stuoradikki
stuoradikkis
stuoramus
stuorat
stuoribut
stuorimus
stuoris
stuorit
stuorra
stuorradigga
stuorradiggea
stuorradiggeva
stuorradiggi
stuorradikki
stuorradikkis
stuorru
stuoru
sturrodaga
sturrodagas
sturrodat
sturron
sturrosas
stus
stuvai
styck
stycke
stycken
stycket
style
styr
styra
styrande
styrdokument
styrelesmaillistan
styrelse
styrelsearbete
styrelsearbetet
styrelsebeslut
styrelseledamo
styrelseledamot
styrelseledamoten
styrelselistan
styrelsemedlem
styrelsemedlemmar
styrelsemedlemmarna
styrelsemo
styrelsen
styrelsens
styrelseordfo
styrelseprotokoll
styrelsesammantra
styrelseutbildning
styrelsewiki
styrelsewikin
styremedlem
styrka
styrkan
styrkor
styrning
styrs
støre
su
sua
sub
subject
submission
submissions
submit
submitted
subscribe
subsequent
subsp
subst
substa
substantial
substantially
substantiiva
substantiivvat
substantiv
substring
succeeded
success
successes
successful
successfully
successivt
suceava
such
sud
sudan
sudana
sudda
sudno
sudnos
sudnuide
sudo
sue
sufficient
suggest
suggestions
suinna
suitable
suite
sulastahtta
sulastahttet
sulkava
sullasas
sulli
sullii
sullo
sullos
sullot
sulloz
sullui
sulluid
sulluin
sum
summa
summan
summarize
summarized
summary
summer
summeras
summit
summor
sun
sund
sunda
sundin
sundsvall
sunmi
sunndal
suo
suodjalit
suodjalusa
suohkan
suohkana
suohkanat
suohkaniid
suohkanis
suohkansa
suoidnema
suoji
suokŋadahkki
suola
suoloc
suoloriika
suolovuopmi
suolu
suoma
suomagiel
suomagiela
suomagielas
suomagielat
suomagiella
suomagillii
suomalainen
suomalais
suomalaisen
suomaruottelas
suomaruoŧŧelas
suomas
suomen
suomessa
suomi
suomussalmi
suonat
suonenjoki
suoninen
suonjardeami
suonjardeapmi
suonnjel
suonnjela
suopma
suopman
suopmanat
suopmanii
suopmaniid
suopmaniin
suopmelac
suopmelas
suorga
suorggi
suorggis
suorgi
suori
suoris
suorpmasiid
suorsa
suovastuhtta
suovastuhttin
suovastuhttit
suovvaguoika
super
superstar
supmii
suppleant
suppleanter
support
supported
supporters
supporting
supporttelefon
suppressloggingcond
suprem
sur
sure
surfa
surfplatta
surggiin
suriname
surnadal
survey
surveys
surviving
sus
susa
susanna
susanne
susning
sustainability
sustainable
sut
sutnje
suttit
suupohja
suur
suurpiiri
suuva
suvi
suzan
suðurland
suðurnes
sv
sva
svaga
svagheter
svalba
svalbard
svar
svara
svarade
svarande
svarar
svaras
svarat
svaren
svaret
svart
svarta
svd
svein
sveitarfe
sven
svensk
svenska
svenskar
svenske
svenskspra
svenskt
svensktalande
sveper
sverige
sverigedemokraterna
sveriges
sverigesradio
sverker
sverre
svg
svhannibal
svinhufvud
svolvær
svt
svwiki
svwp
swallow
swamid
swecon
swedbank
swedbanks
sweden
swedens
swedish
swedsess
swish
swisha
swishnummer
syda
sydafrika
syddanmark
sydney
sydow
sydsamisk
syfta
syftande
syftar
syfte
syften
syftet
sylvi
sylvia
symbol
symbola
syn
synas
synd
synen
synergieffekter
synergy
synes
synlig
synliga
synliggo
synlighet
synligheten
synligt
synnerhet
synnøve
synpunkt
synpunkter
syns
synsa
synunderso
synvinkel
syria
syskon
sysma
sysslar
system
systema
systematically
systematiska
systematiskt
systemdokumentation
systemen
systemet
systemkamera
systemkameran
systemkameror
systems
systerfo
systerorganisationer
systerprojekt
systerprojekten
syva
syytteen
sz
søndre
sør
sørli
sørum
t
ta
tab
tabeallas
tabell
tabellen
tabeller
tabid
table
tablename
tables
tack
tacka
tackade
tackar
tacksamma
tacksamt
tadorna
tag
tagande
taganden
tagen
taget
tagg
taggar
taggen
tagit
tagits
tagna
taipale
taipalsaari
taivalkoski
taivassalo
tak
taka
take
taken
takes
taking
takt
takten
tal
tala
talade
taland
talandsregionen
talanger
talar
talare
talarna
talas
talat
talbot
taldata
taldatainsamlaren
taldatainsamling
tale
talent
tales
talesperson
talet
taligenka
talinspelningar
talk
talking
talks
talla
tallama
tallamiid
tallamis
tallan
tallat
tallet
tallinn
tallinna
tallojuvvo
tallojuvvon
talo
talresursinsamlaren
tals
talsyntes
talsyntesen
talteknologi
tamanrasset
tammela
tammi
tammima
tampere
tan
tana
tande
tangentbord
tankar
tankarna
tanke
tanken
tankesmedja
tansa
tanza
tap
tapani
tapio
tapiola
tar
taref
target
targeted
targeting
targets
tarja
tarn
tarragona
tartu
tarvasjoki
tas
tasa
tasavallan
task
tasks
tastydata
tatum
taught
tauno
tavla
tax
taxes
taxi
taxiresa
taylor
taytu
taz
tbara
tbart
te
tea
teach
teacher
teachers
teaching
teaddji
teahouse
teaksta
team
teamet
teams
tearbma
teavstta
teavsttaid
teavsttat
teborg
teborga
teborgs
tech
technical
technique
technologies
technology
techradar
techsoup
tecken
teckenspra
teckna
tecknade
tecknar
tecknas
tecknat
teckningar
tedje
teheran
teherana
teheranas
tehran
tehrantimes
tek
teknihkalas
teknik
tekniken
tekniker
teknikfo
teknikinko
teknikneutral
teknikneutralt
tekniknytt
teknikpool
teknikpoolen
teknikpoolens
teknikutskottet
teknisk
tekniska
tekniskt
teknologi
teknologiija
teknologipoolen
tekst
teksten
tel
tele
telefon
telefonbanken
telefonen
telefoner
telefonkonferens
telefonmo
telefonnummer
telefonsamtal
telefovnna
telegraph
telema
telemark
teleobjektiv
teleorman
telephone
telestyrelsen
television
tell
tellus
telse
telugu
tem
tema
teman
temat
tematisk
tematiska
temperatuvra
temperatuvrra
template
templates
temps
ten
tena
tendency
tenerife
tenglin
tennessee
tenora
teo
teorehtalas
teoretiska
teori
teoriija
teoriijas
teoriijat
teorin
teppo
ter
tera
teranva
terbetalning
terenius
teresa
teresas
terfinns
terfo
terge
tergivning
tergivningar
terha
terhi
terho
terigen
terje
terkomma
terkommande
terkommer
terkomst
terkopplar
terkoppling
terla
term
termen
termer
terminate
termination
terminologi
terms
terna
ternas
territoire
terrorism
tersamling
tersta
teruel
terupprepa
teruppta
teruppva
tervo
tervola
tes
tesbeslut
tesdeltagare
tesfo
tesfunktiona
tesfunktioner
tesga
teshandlingar
teshandlingarna
tesordfo
tesordning
tesordningen
tesplats
tesplatser
tespresidium
tesprotokoll
tesprotokollet
tesrum
tessekreterare
test
testa
testade
testameanta
testamenten
testamenterade
testar
testat
tested
tester
testing
testmo
tests
tet
tetal
tets
tettsteder
teuva
teuvo
tex
texas
text
textbook
texte
texten
texter
texterna
texts
tga
th
tha
thaieatnama
thales
than
thank
thanks
that
the
their
them
thematic
theme
themes
themselves
then
theodor
theory
there
therefore
these
thesis
they
thing
things
think
thinking
third
thirty
this
thomas
thon
thons
thorbjørn
thornton
thorntons
thorough
those
though
thought
thoughts
thousand
thousands
threats
three
threshold
thrive
through
throughout
thule
thumb
thus
ti
tiaret
tibet
tica
tickets
tid
tiden
tider
tiderna
tidig
tidiga
tidigare
tidigarelagts
tidigast
tidigt
tidning
tidningar
tidningen
tidplan
tidplanen
tidpunkt
tidpunkter
tidrapport
tidrapporter
tidrapportering
tidsa
tidsbegra
tidsbrist
tidsbudget
tidskra
tidskrift
tidskrifter
tidslinje
tidsma
tidsperiod
tidsplan
tidsplanen
tidsramen
tidsrapportering
tidsrapporteringar
tidsregistrering
tie
tiedekunta
tierp
tieteiden
tif
tiff
tii
tiina
tiipa
til
tilbake
tildes
till
tilla
tillagd
tillagda
tillbaka
tillbaks
tillbeho
tilldelas
tilldelats
tillegg
tillfa
tillfo
tillfra
tillfredssta
tillga
tillgodose
tillhandaha
tillho
tillika
tillka
tillkom
tillkommer
tillkommit
tillmo
tillra
tills
tillsa
tillsammans
tillse
tillser
tillsta
tillsvidare
tillsvidareansta
tilltra
tillva
tillvara
tillvaratas
tim
time
timebound
timeline
timelines
times
timestamp
timis
timkostnad
timmar
timmarna
timmars
timme
timmen
timo
timra
tina
tincidunt
tindouf
ting
tingsra
tingsryd
tingsryda
tio
tiosiffriga
tiotal
tiotusentals
tipaza
tips
tipsa
tis
tisdag
tisdagen
tissemsilt
tit
titel
titeln
title
titt
titta
tittar
tittat
titti
tizi
tja
tjeckien
tjo
tjugotal
tjøme
tk
tka
tki
tkki
tkkis
tkkos
tkomst
tkr
tl
tla
tlands
tlas
tld
tlemcen
tmig
tminstone
tmp
tna
tnegirji
tnegirjji
tnejođiheaddji
tnejođiheaddjin
tneluohkka
tnera
tni
tnin
tning
tningar
tnjuter
to
toartna
toc
today
todo
tog
togat
together
togo
togs
tohmaja
toholampi
toimitteita
toimituksia
toivakka
tokyo
toledo
tolga
tolka
tolkar
tolkas
tolkien
tolkning
tolkningar
tolkningen
tolvanen
tolvma
tom
tomas
tome
tomma
tomt
ton
tona
tone
tonga
too
took
tool
toolforge
tools
toolserver
toolservern
toomas
top
topi
topic
topics
toppko
tor
torbjo
torde
tore
torg
toriidda
torikka
torne
tornedalen
tornen
toronto
torp
torsa
torsdag
torsdagen
torsten
torternas
toscana
tot
total
totala
totalbelopp
totalinta
totalkostnad
totalsumman
totalt
toten
touch
tour
tourism
tours
tous
tove
toward
towards
tower
town
towns
tox
tr
tra
track
trackable
tracked
trackuback
trackubacks
trade
trademark
tradis
tradition
traditional
traditionell
traditionella
traditionellt
traditionen
traffic
trafik
train
trainers
training
trainings
trakasserier
traktamente
traktamenten
traktamentet
trana
tranportmedel
transaction
transaktion
transaktionen
transaktioner
transfer
transferred
transformation
transition
translate
translated
translatewiki
translation
translations
transparency
transparens
transparensen
transparent
transparenta
transport
transportmedel
trapesa
travel
travelers
travels
travis
tre
trea
treasurer
treasures
tredimensionella
tredje
tredjedel
tree
trend
trender
trends
trentino
trettiofem
trettiotal
tretton
trevlig
trevliga
trevligare
trevligt
tricolor
tried
trifolium
trigger
triktade
triktat
trine
trio
trip
trivial
triviala
trivs
trix
tro
troandimis
troandin
troberg
trodde
trogen
trogna
trolig
troliga
troligen
troligt
troligtvis
troms
tromso
tromsø
tromsøya
trond
tror
trosa
trots
trova
true
trumbbut
trump
trust
trusted
trustees
truvdnui
trxn
try
tryck
trycka
trycker
tryckkostnader
tryckning
trycksaker
tryckt
tryckta
trygg
trygga
trygghet
trygve
trying
trøgstad
trøndela
trøndelag
ts
tsa
tscheremissischen
tskilliga
tt
tta
ttad
ttade
ttande
ttandet
ttanva
ttaosiin
ttar
ttara
ttare
ttas
ttasa
ttast
ttaste
ttat
ttats
tte
ttebra
ttega
ttelse
ttelsen
ttelser
ttelserna
tten
tter
tterna
ttes
ttet
ttfa
ttfo
ttha
tti
ttigad
ttigade
ttighet
ttigheten
ttigheter
ttigheterna
ttighetsfo
ttighetsinnehavare
ttighetsinnehavaren
ttighetsinnehavares
ttighetsinnehavarna
ttiid
ttiin
ttila
ttillga
ttingen
ttir
ttis
ttisvuohta
ttisvuođaid
ttisvuođat
ttit
ttla
ttning
ttningar
ttningarna
ttningen
ttningsgarantin
ttningsgra
ttningsgrad
ttningsprojekt
ttningssprint
ttningsvis
tto
ttoa
ttra
ttrad
ttrade
ttrar
ttras
ttrat
ttrats
ttre
ttring
ttringar
ttringsarbete
ttringsfo
tts
ttsbekymmer
ttsbrott
ttsdirektiv
ttsdirektivet
ttsdirektivets
ttsfra
ttsinnehavare
ttsinnehavaren
ttsinnehavarna
ttsintra
ttslagar
ttslagen
ttslagens
ttslagstiftning
ttslagstiftningen
ttslicenser
ttslig
ttsliga
ttsligt
ttsomra
ttssa
ttssituationen
ttsskyddade
ttsskyddat
ttu
ttut
ttvik
ttvis
ttyla
tu
tua
tuija
tulcea
tumi
tumiid
tunderso
tunealla
tung
tunga
tungt
tunisia
tunnelbana
tuo
tuomas
tupmi
tur
turdus
turi
turisma
turister
turkmenistan
turku
turkus
turn
turne
turned
turpo
turull
turun
turunmaa
tus
tusa
tusaid
tusas
tusen
tusental
tusentals
tutak
tutsa
tutsaid
tutsat
tuu
tuupa
tuusniemi
tuusula
tuvai
tuvalu
tuvvan
tuvvon
tv
tva
tveka
tveksam
tverk
tverkande
tverket
tvia
tvingar
tvingas
tvist
tvisten
tvister
tvistlo
tvungen
tvungna
tweet
tweets
twitter
twitterkonto
twittrar
two
txt
tycka
tycker
tycks
tyckt
tyckte
tyda
tyder
tydlig
tydliga
tydligare
tydliggo
tydlighet
tydligt
tynset
tyo
typ
type
typen
typer
types
typsnitt
tyrna
tysk
tyska
tyskland
tyskspra
tyst
tyva
u
ua
ub
ubmi
ubmisa
ubuntu
ud
udda
udmurtagiella
ue
uganda
ugandiska
ugc
ugralas
ugricae
ugrilainen
ugrilaisen
ugyldig
uha
uhca
uhcit
uhedje
uhii
uhit
uhttima
uhttit
uhus
uhusa
uhusat
ui
uid
uielem
uiga
uiguragiella
uin
uit
ujuha
ujuhedje
ujuhit
ujuhus
ujuhuvvon
uk
ukraina
ukrainagiella
ukrainas
ul
ulan
ulbmil
ulbmila
ulbmiliid
ulbmilin
ulf
ulkomaat
ulla
ullensaker
ulrika
ultra
ultrajiena
ulvila
uma
umayya
umbria
umea
umepedia
umga
umi
umiid
umis
un
una
unable
unamir
unanticipated
uncertain
uncertainties
uncertainty
unclarities
unclarity
unclear
und
undan
undantag
undantagen
undantaget
undantagsfall
undantas
under
underground
underha
underla
underlag
underlaget
underleveranto
underliggande
underprojekt
underra
underrepresented
underrepresenterade
undersida
undersidor
underskrift
underskriven
underso
underspenderat
underspendering
underspenderingen
underspending
underspent
understand
understandable
understanding
understiger
understo
understood
understryker
underteckna
undertecknad
undertecknade
undertecknande
undertecknas
undertecknat
undertexter
underutnyttjad
undervisning
undervisningen
undga
undrar
undvik
undvika
undvikas
undviker
une
unep
unesco
unescos
unfortunately
unfpa
ung
unga
ungdom
ungdomar
ungdoms
ungdomsfo
ungdomsstyrelsen
ungefa
unicode
unik
unika
unikt
union
unionen
unionens
uniovdna
uniovdnii
uniovnna
unique
unit
unite
united
units
universa
universal
universidad
universita
universitehta
universitehtas
universitehtii
universitet
universiteten
universitetet
universitets
universitetsbibliotek
universitetsforlaget
universitetskurs
universities
university
unix
unja
unknown
unless
unna
unnecessary
unni
unnibut
unnidit
unnimus
unnimusat
unnimusta
unnit
unohas
unset
unspecified
until
untranslated
unwin
uo
uoc
uogga
uohti
uoigi
uojaha
uojahan
uojaheaddji
uojahedje
uojahit
uojanas
uojanasat
uokkis
uokŋa
uokŋadahkki
uolmmat
uonja
uotnja
uovga
uovgga
uovgi
uovui
uovvovas
uovvu
uovvumus
uovvumuz
uovvut
uovz
uoz
uoza
uođi
uoŋa
up
upanija
upcoming
update
updated
updates
upgrade
upload
uploaded
uploading
uploads
upmi
upon
upp
uppa
upparbetade
uppbyggd
uppbyggnad
uppdatera
uppdaterad
uppdaterade
uppdaterades
uppdaterar
uppdateras
uppdaterat
uppdaterats
uppdatering
uppdateringar
uppdateringen
uppdelad
uppdelat
uppdelning
uppdra
uppdrag
uppdraget
uppdragsgivare
uppdrog
uppdrogs
uppe
uppeha
uppenbara
uppenbarligen
uppenbart
uppfattar
uppfattas
uppfattning
uppfattningen
uppfo
uppfylla
uppfyllande
uppfyllas
uppfyllde
uppfyller
uppfylls
uppfyllt
uppga
uppgav
uppge
uppges
uppgick
uppgift
uppgiften
uppgifter
uppgifterna
upphandling
upphandlingar
uppho
upphov
upphovsmannen
upphovsmannens
upphovspersonens
upphovspersoner
upphovsra
uppkom
uppkommen
uppkommer
uppkommit
uppkoppling
uppla
uppladdad
uppladdade
uppladdat
uppladdning
uppladdningar
uppladdningen
uppladdningsfilter
uppladdningsformula
upplaga
upplagan
upplagd
upplagda
uppland
upplands
uppleva
upplevas
upplevde
upplevelse
upplever
upplo
upplupna
upplysa
uppma
uppmanades
uppmanar
uppmanas
uppmaning
uppmuntra
uppmuntrar
uppmuntras
uppna
uppra
upprepa
upprepade
upprepas
uppsa
uppsala
uppsats
uppsatser
uppsatt
uppsatta
uppsjo
uppskatta
uppskattad
uppskattade
uppskattar
uppskattas
uppskattat
uppskattning
uppskattningen
uppskattningsvis
uppskriven
uppslag
uppslagsord
uppslagsverk
uppslagsverket
uppso
uppsta
uppstart
uppstartsmo
uppstod
uppta
upptaget
upptagna
upptra
uppvidinge
uppvuxen
ups
ur
ura
uralic
urban
urho
uri
urjala
url
urmia
urpo
ursprungliga
ursprungligen
ursula
ursus
uruguay
uruguays
urval
urvalet
us
usa
usability
usage
usas
usb
usd
use
used
useful
uselang
user
username
userpage
users
uses
using
uskelan
usp
ustit
usual
usually
ut
uta
utah
utaja
utan
utanfo
utarbetas
utav
utbetala
utbetalas
utbetald
utbetalning
utbetalningar
utbetalningen
utbetalningsdatum
utbetalt
utbilda
utbildad
utbildade
utbildar
utbildare
utbildingsinstitutioner
utbildning
utbildningar
utbildningarna
utbildningen
utbildnings
utbildningsdag
utbildningsinstanser
utbildningsinstitutioner
utbildningsmaterial
utbildningsmoduler
utbildningso
utbildningsomra
utbildningspolitisk
utbildningsprogram
utbildningsprogrammet
utbildningsprojekt
utbildningsrad
utbildningsradion
utbildningsresurser
utbildningssektorn
utbildningssystem
utbildningstillfa
utbildningsva
utbrott
utbrottet
utbud
utbyggnaden
utbyta
utbyte
utbytesprogram
utbytesprogrammet
utbytet
utc
utdanning
utdelade
utdelning
utdelningen
utdrag
ute
utela
utesluta
uteslutande
utesta
utf
utfa
utfall
utfallet
utfo
utforma
utformad
utformandet
utformar
utformas
utformat
utformning
utformningen
utforska
utga
utgick
utgiften
utgifter
utgifterna
utgivare
utgo
utha
utifall
utifra
utilize
utils
utkast
utkastet
utla
utlysande
utlysas
utlyser
utlysning
utlysningar
utlysningen
utlyst
utlysta
utm
utma
utmanande
utmaning
utmaningar
utmaningarna
utmaningen
utnyttja
utnyttjande
utnyttjar
utnyttjas
uto
utom
utomhus
utomlands
utomsta
utreda
utredas
utreder
utredning
utredningar
utredningen
utredningens
utreds
utrikesdepartementet
utrio
utrustning
utrustningen
utrymme
utrymmen
utsa
utsatta
utse
utsedd
utsedda
utseende
utseendet
utser
utses
utsett
utsetts
utsi
utsikten
utsjoki
utskick
utskickad
utskickade
utskickat
utskicket
utskott
utskottet
utskottets
utsla
utsta
utstra
utsuddade
uttag
uttal
uttala
uttalade
uttalande
uttalanden
uttalat
uttra
uttryck
uttrycka
uttryckas
uttrycker
uttryckligen
uttrycks
uttryckt
uttryckte
utva
utvald
utvalda
utveckla
utvecklade
utvecklades
utvecklande
utvecklar
utvecklare
utvecklarna
utvecklas
utvecklat
utvecklats
utveckling
utvecklingen
utvecklingsprojekt
utvecklingssamtal
utvecklingssto
utvidga
uurainen
uusi
uusikaarlepyy
uusikaupunki
uusikyla
uusimaa
uutiset
uv
uva
uvai
uvdna
uvdnan
uvdnaoappa
uvdnara
uvdnii
uvgehuslas
uvgehussearvi
uvges
uvnna
uvnnaid
uvnnaide
uvnnain
uvnnalas
uvnnas
uvnnat
uvva
uvvan
uvvat
uvvet
uvvo
uvvon
uvvot
uvvui
uđiid
uŋga
v
va
vaala
vaalit
vaara
vaasa
vab
vaccinium
vackert
vad
vade
vadstena
vaha
vahkku
vahkkus
vahku
vahkus
vai
vaid
vaikke
vaikko
vain
vaja
vakans
val
vala
valamon
valas
valberedare
valberedning
valberedningen
valberedningens
vald
valda
valde
valdes
valencia
valet
valfri
valfritt
valgt
valjit
valkeakoski
valkeapa
valkommen
valladolid
valle
vallonagiella
valt
valtimo
valtion
valts
valuable
value
values
valuhta
van
vana
vanda
vandalism
vande
vanha
vanhakyla
vanhanen
vanlig
vanliga
vanligare
vanligaste
vanligen
vanligt
vanligtvis
vann
vannet
vansbro
vant
vantaa
vanuatu
var
vara
varandra
varandras
varanger
varannan
varar
varas
varav
vardag
vardera
vare
varfo
variant
varianter
varias
variation
variera
varierande
varierar
variety
varifra
various
varit
varje
varkaus
varkausa
varken
varmt
varor
varpaisja
varra
varrajohtui
varrasuonaid
varrasuonat
varrii
vars
varsel
varsin
varsinais
vart
vartannat
vartsala
varuma
varvet
vas
vasa
vasalemma
vasamuseet
vasas
vaslui
vat
vatjagiella
vatten
vattenrike
vaucluse
vb
vc
vcca
vccat
vcci
vd
vda
vdamearka
vdamearkkaid
vdamearkkat
vdda
vddaid
vddaide
vddas
vddat
vddi
vddos
vde
vdegoddi
vdegotti
vdegottis
vdes
vdi
vdii
vdnan
vdnasa
vdnasat
vdnasiid
vdnasiin
vdnasis
vdnat
vdnek
vdnji
vdno
vdnojedje
vdnojit
vdnon
vdnot
vdnui
ve
veadjemeahttun
veagas
veaha
veahc
veahkava
veahkeha
veahkehii
veahkehit
veahki
veahkkin
vealahusa
vealla
veallut
vearba
vearbba
vearbbat
vearda
veardde
veardidit
vearjjuid
vearjogovva
vearra
vearssa
vecka
veckan
veckans
veckobasis
veckomo
veckor
veckorna
vector
ved
vederbo
vedertaget
vedtak
vedum
vega
vegas
vegetarisk
veha
vehkiin
vehmaa
veica
veicca
veikko
vejit
vejolac
vejolas
vejolaz
vel
vela
velat
veli
vella
vem
ven
vena
vende
venenatis
veneto
venezia
venezuela
venn
venue
vepsa
ver
vera
verblick
verblivna
verblockering
verbrygga
verens
verenskommelse
verenskommelsen
verenskommelser
verenskommen
verenskommet
verenskommits
verenssta
verfo
verga
vergripande
verhuvudtaget
verifiera
verifikat
verify
verifying
verk
verka
verkade
verkan
verkansarbete
verkansredovisning
verkar
verkas
verkat
verkats
verken
verket
verklagar
verklig
verkliga
verkligen
verklighet
verkligheten
verkligt
verksam
verksamhet
verksamheten
verksamhetens
verksamheter
verksamhetplanen
verksamhetsa
verksamhetsbera
verksamhetsbidrag
verksamhetschef
verksamhetschefen
verksamhetschefens
verksamhetschefer
verksamhetschefsavtalet
verksamhetsinriktning
verksamhetsma
verksamhetsomra
verksamhetsplan
verksamhetsplanen
verksamhetsplanering
verksamhetsplaneringen
verksamhetsrevisionen
verksamhetsrevisor
verksamhetsrevisorn
verksamhetsrevisorns
verksamhetssto
verksamhetsstrategi
verksamhetsutveckling
verksamma
verksho
verksta
verkstaden
verktyg
verktygen
verktyget
verktygsla
verla
verlag
verlappande
verliggande
vermont
verna
vernattning
verordnad
verordnade
verraskning
verrepresenterade
vers
versa
versatt
versatta
versattes
versatts
versikt
versikten
versiktlig
version
versionen
versioner
versionerna
versions
verska
verskott
verskrida
verskridande
verspenderat
verst
versta
versteg
verstiga
verstiger
versyn
vertical
vertid
vertra
vertyga
vertygad
vertygade
vertygelse
verva
vervakning
vervakningsskyldighet
very
ves
vesa
vesanto
vesi
vesilahti
vest
vestfirðir
vestfold
vestfolda
vestfoldda
vestibulum
vestla
vestra
vestre
vesturland
vestva
vet
veta
veteli
vetenskap
vetenskaplig
vetenskapliga
vetenskapligt
vetenskapsra
vetja
vettigt
vg
vga
vgga
vgos
vgs
vi
via
vias
vibe
vice
vicinity
victoria
vid
vida
vidare
vidareanva
vidarebefordra
vidarebefordrar
vidareutnyttjande
vidareutveckla
vidareutvecklas
vidareutveckling
vidareutvecklingen
video
videofilmer
videokamera
videokameran
videokameror
videoklipp
videokonferens
videokonferensen
videokonferenser
videokonferenssystemet
videola
videomixern
videomo
videon
videor
videoredigering
videos
videoutrustning
viderega
vidga
vidta
vidtas
vidvinkel
viehka
viehkamis
viehkki
vielgat
vielja
viellja
vienne
vierema
viessu
viesu
viesuid
vietnama
vietnamagillii
vietnamas
view
viewed
views
viez
vigga
viggamus
vigget
vihaheami
vihanti
vihta
vihti
vihtta
vii
viida
viiddes
viiddidit
viiddiduvvon
viiddis
viidodaga
viidodagain
viidodagas
viidodat
viidu
viiduma
viidun
viii
viika
viikon
viimmat
viimsi
viinni
viisa
viissa
viitasaari
vik
vikt
vikten
viktig
viktiga
viktigare
viktigast
viktigaste
viktigt
viktor
vil
vila
vilaine
vilande
vilar
vilda
vilddas
vile
vilges
vilgesla
vilgesnierc
vilgesruos
vilhelm
vilhelmina
vilho
vilja
viljo
vilka
vilken
vilket
vill
village
ville
villiga
villkor
villkoren
villmarksenter
vilma
vilppula
vimpeli
vincent
vinci
vindeln
vindskydd
vinklar
vinna
vinnare
vinnaren
vinnarna
vinner
vinning
vinnova
vinnovas
vinst
vinstdrivande
vinsten
vinster
vinstmedel
vinstsyfte
vinter
viola
violaid
violas
virga
virgga
virgi
virginia
virolahti
virolainen
virpi
virrat
virta
virtual
virtually
virtuella
virumaa
virus
virusa
virusat
viruset
vis
visa
visade
visades
visar
visas
visat
visats
visby
visibility
visible
vision
visionen
visioner
visions
visit
visited
visiting
visitkort
visitors
visits
visning
visningar
visot
viss
vissa
visserligen
visst
visste
visstidsansta
vistas
visti
vistti
visual
visualeditor
visualisera
visualisering
visualiseringar
visualization
visualizations
visuell
visuella
vit
vita
vitae
vital
vitali
vitbok
vitboken
vitt
vivienda
vivo
viz
vizariidda
vizcaya
viđa
viđat
vja
vjju
vju
vka
vkan
vki
vkin
vkka
vkkai
vkkan
vkkeheami
vkkeheapmeteoriija
vkkeheapmi
vkki
vla
vladimir
vlaga
vlagat
vlagiid
vlagiin
vlasko
vlasova
vle
vleborgga
vli
vlig
vling
vlingar
vlingarna
vlingen
vlingens
vlla
vlladahkki
vllagilvvohallama
vllagilvvohallamis
vllagilvvohallan
vllan
vllui
vlosa
vlu
vlun
vlut
vm
vning
vningar
vningarna
vningsarbeta
vnnai
vnnas
vnnasin
vnnji
vo
vobevis
vocab
vocational
voice
voices
voka
vokabula
vol
voloddi
volonta
volume
volunteer
volunteering
volunteers
von
vonnegut
vor
vore
vosges
voss
vote
voteit
votes
voting
vpeguovdda
vperiekti
vpi
vpoga
vpogat
vpogii
vpogiid
vpogiin
vpogin
vpogis
vpot
vpota
vpotgielda
vppa
vppas
vppi
vppiid
vr
vra
vrancea
vre
vres
vri
vrig
vriga
vrigt
vrri
vrrie
vrriin
vrris
vrrit
vs
vsjo
vsriktlinjer
vssa
vssii
vssolas
vssu
vt
vttat
vtti
vttiid
vttiin
vttis
vttit
vu
vua
vuelie
vugiid
vuhat
vuhtii
vuite
vuittii
vuittiiga
vujii
vulgaris
vulge
vulggii
vulka
vulkan
vulle
vulos
vunnit
vuo
vuoddji
vuoden
vuodjala
vuodjit
vuoga
vuogas
vuogi
vuohc
vuohki
vuohta
vuoi
vuoibma
vuoigatvuohta
vuoigatvuohtaministeriija
vuoigatvuođa
vuoigatvuođaid
vuoigatvuođaide
vuoigatvuođain
vuoigatvuođat
vuoiggalas
vuoigŋa
vuoigŋas
vuoita
vuoiti
vuoitit
vuoittahalai
vuoivuonas
vuoivuotna
vuoiŋŋa
vuoiŋŋahat
vuoiŋŋalas
vuoiŋŋamac
vuoiŋŋas
vuoja
vuojas
vuokko
vuoktafiehta
vuola
vuolab
vuolde
vuolga
vuolgge
vuolgit
vuolimus
vuolit
vuolla
vuollai
vuolle
vuollec
vuolleeatnamat
vuolleeatnamiid
vuolleeatnamiin
vuollegas
vuollegis
vuollel
vuollerim
vuolles
vuollesaksigiella
vuols
vuona
vuoraz
vuorda
vuorja
vuorka
vuoruhit
vuos
vuosaarii
vuossa
vuosta
vuostea
vuostta
vuosttaldus
vuosttas
vuosttaz
vuotna
vuovddit
vuovdesa
vuovdi
vuovdit
vuovttat
vuođa
vuođaba
vuođadirektora
vuođageahc
vuođaid
vuođain
vuođas
vuođat
vuođul
vuođus
vuođđoa
vuođđoc
vuođđola
vuođđoskuvla
vuođđovuoigatvuođat
vuođđu
vuođđudan
vuođđudanbeaivi
vuođđudeaddji
vuođđudedje
vuođđudii
vuođđudit
vuođđudus
vuođđudusa
vuođđuduvva
vuođđuduvvet
vuođđuduvvo
vuođđuduvvon
vuođđuduvvui
vuođđun
vus
vuvddii
vuvddiin
vuvdojuvvo
vuvdojuvvojedje
vuvdojuvvon
vuxit
vuxna
vv
vva
vvagat
vvagiid
vvala
vvalmearka
vvalmearkaortnegiin
vvalsubstantiivvas
vvardat
vve
vvet
vvir
vvira
vvirat
vviriid
vvosa
vvosis
vvudit
vvuduvvo
vy
vykort
vz
w
wa
wager
waiting
wales
walesa
walesis
walk
wall
wallentin
wallis
walt
walter
want
wanted
wants
war
warg
warsawa
warszawa
was
washington
watch
water
waxin
way
ways
wd
we
weakness
weaknesses
wealthy
web
webb
webbapp
webbappen
webbaserat
webbdesigner
webben
webbgra
webbisiidu
webbla
webbplats
webbplatsen
webbplatser
webbplatserna
webbportal
webbshop
webbsida
webbsidan
webbsidor
webbstja
webbtja
webm
webmail
webshop
website
websites
wedding
week
weekend
weekly
weeks
weight
welcome
weleda
well
wenche
wenderfalck
wennergren
wennersten
wennstro
went
were
wesslin
west
wester
westermarck
western
westman
wettin
what
when
whenever
where
whereas
whether
which
while
white
whiteboard
who
whole
whom
whose
why
wi
wide
widely
wider
width
wien
wifi
wiki
wikibase
wikibooks
wikibussen
wikicite
wikicommons
wikidata
wikidataobjekt
wikidatas
wikier
wikifem
wikifika
wikifikaturne
wikifikor
wikigap
wikigemenskapen
wikikoder
wikiloves
wikilovesmonuments
wikilovespublicart
wikimania
wikimanias
wikimaps
wikimedia
wikimediachapter
wikimediaevenemang
wikimediafo
wikimediafoundation
wikimediagemenskapen
wikimediagemenskapens
wikimediagemenskaper
wikimedian
wikimedianer
wikimedians
wikimediaorganisation
wikimediaorganisationer
wikimediaplattformarna
wikimediapriset
wikimediaprojekt
wikimediaprojekten
wikimediaprojektens
wikimediaro
wikimedias
wikimediasammanhang
wikimediase
wikimediasverige
wikimediatv
wikimini
wikin
wikinem
wikinews
wikip
wikipe
wikipedia
wikipediaacademy
wikipediaambassado
wikipediaartikel
wikipediaartikeln
wikipediaartiklar
wikipediaartiklarna
wikipediacentret
wikipediadag
wikipediadagen
wikipediafo
wikipediagemenskapen
wikipediaklubb
wikipediakurs
wikipediala
wikipedian
wikipedianer
wikipedianerna
wikipedians
wikipediapodden
wikipediaprojekt
wikipedias
wikipediautbildning
wikipediava
wikiproject
wikiprojekt
wikipub
wikiquote
wikis
wikisidor
wikiskills
wikisource
wikisourcetexter
wikispecies
wikispeech
wikiswedia
wikitext
wikitra
wikitravel
wikiversity
wikivoyage
wiksell
wiktionary
wile
wilhelm
wilhelmsen
will
willem
william
williams
willing
willingness
willoch
wills
willy
wilson
wimme
win
wind
window
windows
winner
winners
winning
winter
wipo
wir
wisconsin
wish
wishes
wishing
wishlist
wissen
with
within
without
wiu
wle
wlm
wlpa
wm
wmap
wmat
wmch
wmde
wmdk
wmf
wmfi
wmflabs
wmfr
wmfs
wmnl
wmno
wmse
wmses
wmuk
wo
wolf
wolfgang
woman
women
won
wonder
woodard
word
wordpress
words
work
workboard
workboarden
workboards
worked
workflows
working
workplace
works
workshop
workshopar
workshopen
workshoppar
workshops
workspace
worktime
world
worlds
worship
worth
would
wp
write
writers
writing
written
wrong
wrote
ws
wsoy
wubi
wwf
www
wyatt
wyeth
wyoming
x
xa
xande
xeln
xelvis
xer
xhja
xi
xico
xiv
xjo
xl
xla
xling
xlingar
xlr
xml
xt
xte
xten
xtfas
xtverk
xv
xvi
xx
xxx
xxxx
xxxxxx
y
ya
ydre
year
yearbook
yearly
years
yes
yet
yk
ykka
yla
yle
yleisradio
yli
ylikyla
ylio
ylipa
ylistaro
ylivieska
ylo
ylva
ylvap
yngre
yny
ynys
yo
yonne
york
yoshkar
you
young
your
yourself
youth
youtube
youtubes
ypa
yra
yri
yrja
yrjo
yrkade
yrkande
yrkanden
yrkar
yrkesma
yrkessed
yrkesutbildning
yry
yryla
ysa
yta
ytan
yto
ytor
ytterligare
ytterst
ytto
yttrande
yttrandefrihet
yttrandefriheten
yttranden
yttrandera
yttre
ytya
yungmiqu
yvelines
yvonne
yy
z
za
zachte
zagreb
zahusaid
zambia
zamora
zaragoza
zcoa
ze
zedong
zef
zenon
zero
zes
zi
zii
ziid
ziin
zimbabwe
zip
zis
zit
zon
zoom
zooms
zu
zum
zynatic
zz
zza
zzi
zzit
{
|
}
~


£
§
¨
«
­
®
°
±
²
³
´
·
¹
º
»
¿
×
æ
ø
østfold
østfolda
østre
øyvind
đ
đa
đi
đii
điid
điin
đis
đit
đđa
đđeaddi
đđehus
đđehusa
đđehusas
đđehussii
đđi
ŋ
ŋga
ŋgala
ŋgan
ŋgasat
ŋgaviika
ŋgavuhtii
ŋgga
ŋggaid
ŋggaidlogu
ŋggaidlohku
ŋggain
ŋggala
ŋggas
ŋggat
ŋggu
ŋggus
ŋgii
ŋgirus
ŋgu
ŋkku
ŋku
ŋŋa
ŧ
ǥǥ
ɑ
ə
ɪ
ʒ
ʔ
ʰ
ʹ
ʻ
ʼ
ʾ
ʿ
ˇ
ˈ
ː
ˑ
̀
́
̂
̃
̄
̆
̇
̈
̉
̊
̋
̌
̓
̔
̛
̜
̣
̦
̧
̨
͂
͡
α
β
γ
δ
ε
ζ
η
θ
ι
κ
λ
μ
ν
ξ
ο
π
ρ
ς
σ
τ
υ
φ
χ
ψ
ω
а
антонова
архив
афанасьева
б
банк
большая
брокгауз
в
википедия
всероссии
выгрузка
выдающихся
г
года
д
данных
для
е
ж
женщинах
з
и
иван
идентификатор
изд
изобразительного
искусства
к
ки
контроль
л
м
марии
мурманск
мь
н
на
населения
нндрэ
нормативныи
о
общии
открытых
п
перепись
платформа
по
под
прохоров
р
ред
россии
русскии
с
са
северносаамская
ская
ского
словарь
советская
спб
т
у
ф
х
ц
ч
член
ш
швеции
щ
ъ
ы
ь
э
энциклопедическии
энциклопедия
ю
я
языка
ӈ
،
ا
استان
ب
ة
د
ر
ك
ل
لا
م
ن
و
ي
َ
ُ
ِ
ّ
ْ
ٓ
ٔ
ٕ
ی
ं
क
ड
द
ल
ा
ि
ी
ु
्
া
ਦ
ਲ
ਿ
ੀ
ੱ
ต
น
ั
ิ
ี
ุ
ู
่
์
་
ུ
ជ
ព
រ
ា
្
​
‌
‎
‏
‑
‒
–
—
―
‘
’
“
”
†
•
…
›
€
⅔
→
↔
↷
−
≈
≤
≥
③
④
⑦
█
☐
☒
♥
ⴱ
ⵉ
ⵍ
ⵎ
ⵔ
ⵖ
ⵜ
⸗
⺀
⺄
⺆
⺈
⺊
⺌
⺕
⺝
⺸
⺼
⿰
⿱
⿲
⿳
⿴
⿵
⿶
⿷
⿸
⿹
⿺
⿻
〢
あ
゙
ア
イ
カ
コ
ス
ヘ
マ
ユ
ン
ー
㇁
㇂
㇄
㇇
㇈
㇉
㇓
㐁
㐄
㐅
㐌
㐫
㐬
㐭
㐮
㐱
㑒
㒵
㒸
㒼
㓁
㓞
㔾
㕛
㕣
㖾
㘝
㚅
㚇
㚔
㚘
㝉
㝡
㝴
㝵
㞋
㞢
㞷
㠩
㠭
㠯
㡀
㡭
㡿
㢲
㢴
㣇
㣺
㥯
㪅
㫄
㫐
㫒
㫺
㬅
㬎
㬥
㬰
㲋
㳄
㷠
㸒
㸚
㸦
㼌
㼲
㽞
㿟
䀠
䂞
䍃
䏍
䒑
䖍
䖒
䖝
䖵
䙴
䚻
䜌
䝿
䡛
䧹
䪞
一
丁
丂
七
丄
丅
丆
万
丈
三
上
下
丌
不
与
丏
丐
丑
专
且
丕
世
丘
丙
业
东
丞
丢
丣
两
严
並
丨
丩
个
丫
丬
中
丮
丰
丱
串
丵
丶
丷
丸
丹
为
主
丽
丿
乀
乂
乃
久
乆
乇
么
义
之
乌
乍
乎
乏
乐
乑
乔
乖
乗
乘
乙
乚
乛
乜
九
乞
也
习
乡
乳
乾
亀
亅
了
亇
予
争
事
二
亍
于
亏
亐
云
互
亓
五
井
亘
亚
亜
亞
亟
亠
亡
亢
交
亥
亦
产
亨
亩
享
京
亭
亮
亯
亰
亲
亳
亶
亷
人
亻
亼
亾
仁
今
介
仌
从
仐
仑
仒
仓
仕
他
付
仝
代
令
以
任
企
伊
伏
伐
休
会
伯
但
位
何
佘
余
作
佥
使
來
侈
侌
侖
侯
侵
便
保
俞
信
修
倉
倍
候
倠
備
僉
僕
儿
兀
允
兂
元
兄
充
兆
兇
先
光
兊
克
兌
免
兑
兒
兓
兔
党
兜
兟
入
全
兩
兪
八
公
六
兮
兰
共
关
兵
其
具
典
兹
兼
冀
冂
冃
冄
内
冈
冉
冊
冋
册
再
冎
冏
冐
冒
冓
冖
冗
冘
军
农
冝
冡
冥
冫
冬
冷
几
凡
凢
凵
凶
凷
凸
凹
出
函
凾
刀
刁
刂
刃
刄
刅
分
切
刍
刑
刕
刖
列
刘
则
初
別
利
别
到
制
刺
則
削
剌
前
剡
剽
劉
力
功
加
劦
助
劫
劳
劵
勃
勇
勉
勒
動
務
勞
勤
勹
勺
勻
勾
勿
匀
匂
包
匆
匈
匊
匋
匍
匕
化
北
匚
匝
匡
匪
匱
匸
匹
区
医
匽
匿
區
十
卂
千
卄
卅
卆
升
午
卉
半
卌
华
卑
卒
卓
单
卖
南
卜
卝
卞
占
卡
卢
卣
卤
卦
卩
卪
卬
卯
印
危
即
却
卵
卷
卸
卻
厂
厃
厄
历
厈
厉
厌
厓
厘
厚
原
厤
厥
厨
厭
厲
厶
厷
厸
去
厼
厽
叀
参
參
叅
又
叉
及
友
双
反
叐
发
叒
叔
叕
取
受
叚
叜
叟
口
古
句
另
叩
只
召
可
台
叱
史
右
叵
号
司
叹
吂
各
吅
合
吉
吊
吋
同
名
后
吏
向
吕
君
吝
吞
否
含
启
吳
吴
吹
吾
呂
呆
呈
告
员
呙
周
命
咅
和
咎
咠
咢
咨
咸
咼
哀
品
哉
員
哥
哲
唐
商
啇
問
啚
啬
啻
善
喜
喬
單
喿
嗇
噩
嚴
囊
囗
囘
囙
囚
四
回
囟
因
囧
囬
困
囱
囷
固
国
圂
圅
國
圍
圓
土
圡
圣
圥
在
圭
地
圶
圼
坐
坒
坚
坴
垂
垔
垚
埀
埋
埶
執
基
堂
堅
堆
堇
堯
塞
墨
壘
士
壬
壯
声
壳
壴
壹
壺
壽
夂
处
夅
夆
备
夊
夋
夌
复
夏
夒
夕
外
夗
夘
多
夜
夢
大
夨
天
太
夫
夬
夭
央
失
夲
头
夷
夸
夹
夻
夾
奂
奄
奇
奈
奉
奎
奏
奐
契
奓
奔
奚
奞
奠
奢
奥
奭
女
奴
奻
好
如
妄
妙
妟
妥
妻
妾
姑
委
姜
威
娄
婁
婴
嬰
嬴
子
孑
孔
孕
孖
字
存
孚
孛
孝
孟
季
孤
学
孫
孱
學
宀
宁
宂
它
宅
宇
守
安
宋
完
宏
宓
宗
官
定
宛
宜
宝
客
宣
室
宮
宰
害
家
容
宾
宿
寄
寅
密
富
寒
察
寧
審
寫
寬
寮
寸
对
寺
寻
寽
対
寿
封
尃
射
将
將
專
尉
尊
尋
尌
對
小
少
尒
尓
尔
尖
尗
尚
尞
尢
尣
尤
尧
尨
尭
就
尸
尹
尺
尻
尼
尽
尾
尿
局
居
屈
屋
屎
屏
屑
展
屖
屚
属
屠
屡
屬
屮
屯
屰
山
屵
屾
岁
岂
岑
岡
岩
岳
岸
峯
島
崇
崑
崔
崖
崙
崩
嵬
嶲
巂
巛
川
州
巟
巠
巢
巤
工
左
巧
巨
巩
巫
差
己
已
巳
巴
巷
巸
巽
巾
巿
帀
市
布
希
帚
帛
帝
带
師
席
帶
常
干
平
年
幵
并
幷
幸
幺
幻
幼
幽
幾
广
広
庄
床
底
店
庚
府
度
庫
庭
庶
康
庸
廉
廌
廛
廣
廩
廴
延
廷
建
廾
廿
开
弁
弃
弄
弇
弋
式
弓
弔
引
弗
弘
弜
弟
弥
弦
弱
張
強
强
彊
彌
彎
彐
彑
当
彔
录
彖
彗
彡
形
彥
彦
彧
彭
彳
役
彼
往
待
律
徒
得
徙
從
復
微
徵
心
忄
必
忌
忍
志
忝
忠
忩
快
念
忽
忿
思
怠
急
怱
恆
恒
恩
恭
息
悉
患
悤
悲
悶
惠
惡
惢
愁
愈
意
愛
感
慈
慧
慮
憂
憲
應
戀
戈
戉
戊
戋
戌
戍
戎
成
我
戒
戔
或
戚
戠
戢
截
戲
戶
户
戹
戼
戾
房
所
扁
扇
手
扌
才
打
托
执
承
折
拉
拜
拿
掌
推
提
摩
支
攴
攵
收
攸
改
放
政
敄
敏
敕
敖
敗
敝
敞
敢
散
敦
敫
敬
数
敷
數
斂
文
斉
斊
斗
斤
斥
斩
斬
斯
新
方
於
施
斿
旁
旋
族
无
旡
既
旣
日
旦
旧
旨
早
旬
旱
旲
时
旾
昆
昇
昌
昍
明
昏
易
昔
昗
昜
星
春
昬
是
昱
昴
昷
時
晃
晋
晏
普
景
晶
智
暑
暴
曇
曩
曰
曲
曳
更
曷
書
曹
曼
曾
替
最
朁
會
月
有
朋
服
朔
朕
朗
望
朝
木
朩
未
末
本
札
朮
术
朱
朵
朶
朿
杀
杏
杜
束
条
来
東
杲
杳
松
析
林
枚
果
枝
枲
枼
某
柔
查
柬
柰
柴
栗
桀
桑
桼
梁
條
梟
梨
棘
棠
棥
森
楚
業
楽
榮
樂
樊
權
欠
次
欣
欮
欲
欶
欽
款
歆
歇
歛
止
正
此
步
武
歨
歪
歮
歯
歰
歲
歴
歷
歸
歹
歺
死
殳
段
殷
殸
殹
殺
殻
殿
毋
毌
母
每
毒
比
毕
毚
毛
毳
氏
氐
民
气
氣
水
氵
氶
氷
永
氺
氾
求
汝
汞
江
沃
沓
沙
沝
泉
法
波
泣
泥
泰
洛
洪
活
派
流
浦
浪
浮
淡
淮
清
渚
渠
湯
滿
漫
漸
火
灬
灭
灰
灵
灷
炅
炎
炏
炗
炙
炭
為
烈
烏
烝
焉
無
焦
焱
然
煞
熊
熏
燕
營
燮
爪
爫
爭
爯
爰
爱
爲
爵
父
爻
爽
爾
爿
片
牙
牚
牛
牜
牟
牢
牧
牪
牽
犀
犬
犭
犮
狂
狄
狊
独
狺
猋
猒
猪
献
獻
玄
率
玉
王
玟
玨
现
珎
班
琴
瑟
瑩
璠
瓜
瓦
甘
甚
生
産
用
甫
甬
田
由
甲
申
电
甶
男
甸
甹
画
甾
畀
界
畏
畐
留
畜
畟
畢
畧
畨
番
畫
異
畱
當
畺
畾
疊
疋
疌
疑
疒
疾
癶
癸
癹
登
發
白
百
皀
皃
的
皆
皇
皋
皐
皕
皮
皷
皿
盃
盆
盇
盈
益
盍
盎
监
盒
盖
盛
盡
監
盤
盧
目
直
相
盾
省
眇
眉
看
眔
眞
真
眷
眼
眾
着
睘
睪
睿
瞏
瞢
瞿
矍
矛
矞
矢
矣
知
矦
短
石
破
碎
磊
磨
示
礻
礼
祟
票
祭
禀
禁
禸
禹
禺
离
禽
禾
禿
秀
秃
秉
秋
科
秝
秦
移
稟
穀
穌
穴
究
穹
空
穿
突
窄
窒
立
竒
竜
竝
竟
章
童
竹
笑
笠
筆
等
答
箕
算
箴
節
篤
篭
米
粉
粛
粟
粤
粦
粲
糞
糸
糹
系
約
納
素
索
紫
累
細
絜
絫
絲
維
綿
縣
繇
纍
纟
缶
网
罒
罔
罕
罗
罙
罡
罢
罪
署
罷
羅
羊
羌
羍
美
羔
羕
羗
羞
羡
羣
群
義
羲
羸
羽
翁
翏
習
翕
翟
翠
翼
老
耂
考
者
耆
而
耎
耑
耒
耳
耴
耶
耷
聂
聊
聖
聚
聶
聿
肀
肃
肅
肉
肖
肙
肥
肩
肯
育
肴
胃
背
胡
胥
能
脊
脩
膚
臣
臤
臧
自
臬
臭
臯
臱
至
致
臺
臼
臽
臾
臿
舀
舂
舄
與
興
舉
舌
舍
舛
舜
舞
舟
般
艮
良
色
艸
艹
艾
芒
芔
芬
芮
花
芳
芺
芻
苔
苗
苟
若
苦
英
茶
茸
荅
草
荒
荣
荼
莆
莧
莫
莽
菆
菊
菐
華
萬
落
葉
著
葛
董
葵
蒙
蒦
蒼
蓋
蓬
蓺
蔑
蔡
蕉
蕭
薄
薛
薦
薰
藍
藏
藥
蘭
虍
虎
虐
虒
虔
處
虖
虗
虘
虚
虛
虜
虞
虫
虽
蚤
蚩
蜀
蜜
蟲
蠡
血
行
衍
衛
衣
衤
表
衮
衰
袁
袞
褭
褱
襄
襾
西
覀
要
覃
見
規
覓
覧
親
覽
见
角
解
言
訁
訇
計
詹
誩
諸
讠
谷
豆
豈
豊
豐
豕
豖
豙
象
豦
豩
豪
豸
貇
貝
貞
貟
負
貢
貧
貪
貫
責
貳
貴
買
費
賁
資
賈
賏
賓
賔
賛
賞
賢
賣
質
賴
贊
贝
贡
责
贯
贲
贵
赖
赞
赤
赦
走
越
足
路
蹇
身
躬
車
軍
軎
軟
輦
车
辛
辜
辟
辥
辰
辱
農
辵
辶
边
达
过
近
连
迷
追
退
送
逆
逐
通
速
造
逢
連
逮
進
遀
遂
過
道
達
遣
適
遷
遺
邊
邑
邕
那
邦
邪
郎
部
郭
都
鄉
酉
酋
配
酓
釆
采
里
重
野
量
金
釒
錢
钅
長
镸
长
門
閃
閉
開
閏
閑
閒
間
閔
閵
閻
闌
门
间
闷
阑
阜
阝
阿
降
陳
隆
隊
隋
際
隡
隨
隱
隶
隹
隺
隻
隼
隽
难
雀
雁
集
雈
雋
雍
雐
雔
雙
雚
雜
雝
離
難
雨
雩
雪
雲
零
雷
需
霍
霜
霝
霞
霸
靈
靑
青
非
靡
面
靣
革
韋
韦
韭
韯
韱
音
頁
頃
項
須
頗
頡
頻
顛
页
風
风
飛
飞
食
飠
養
饣
首
香
馬
馮
駦
马
骨
高
髟
鬥
鬯
鬲
鬼
魚
魯
鮮
鱼
鲁
鳥
鳳
鸟
鹵
鹿
麃
麗
麥
麦
麻
黃
黄
黍
黎
黑
黒
黨
黹
黽
黾
鼎
鼓
鼠
鼻
齊
齋
齐
齒
齿
龍
龙
龜
龟
龠
龰
龱
龴
龵
龶
龷
龸
龹

者
艹
ﬁ
﻿
？
｢
｣
�
𐌰
𒀸
𒋚
𒋢
𠀁
𠀃
𠀆
𠀉
𠀎
𠀐
𠁁
𠁣
𠂆
𠂇
𠂈
𠂉
𠂊
𠂋
𠂎
𠂒
𠂔
𠂛
𠂡
𠂢
𠂤
𠂬
𠂭
𠂹
𠃊
𠃋
𠃌
𠃍
𠃎
𠃑
𠃓
𠃔
𠃜
𠄌
𠄎
𠄠
𠄢
𠆢
𠆥
𠇍
𠈌
𠌵
𠓜
𠔉
𠔥
𠔼
𠔽
𠔿
𠕀
𠕁
𠕋
𠘧
𠘨
𠙻
𠙼
𠚏
𠚒
𠚤
𠚪
𠣏
𠤎
𠤕
𠥓
𠦄
𠦑
𠦝
𠧒
𠧗
𠧪
𠩺
𠪚
𠫓
𠫔
𠫤
𠬛
𠬝
𠬞
𠬢
𠬤
𠬶
𠮛
𠮦
𠮷
𠯑
𠱠
𠳮
𠷎
𡈼
𡉀
𡉵
𡌥
𡍮
𡏳
𡕒
𡕩
𡕰
𡖅
𡗗
𡗜
𡘆
𡘤
𡧱
𡨄
𡩧
𡬠
𡭽
𡰣
𡰥
𡰪
𡰯
𡰱
𡷈
𡸁
𡿨
𡿩
𡿪
𡿺
𢀖
𢀛
𢀩
𢁙
𢆉
𢆰
𢆶
𢇁
𢇇
𢉖
𢌬
𢌿
𢏚
𢑑
𢑚
𢖻
𢙣
𢛳
𢦏
𢦒
𢧵
𢼄
𢾕
𣁋
𣄼
𣅀
𣅽
𣍘
𣎳
𣎵
𣏋
𣏼
𣗥
𣥂
𣥖
𣦵
𣦼
𣧄
𣪊
𣪠
𣬉
𣳾
𣶒
𤇾
𤊽
𤐫
𤓰
𤔔
𤕨
𤣩
𤰇
𤰔
𤰞
𤴓
𤴔
𤽄
𥁑
𥁕
𥃦
𥃩
𥃭
𥇡
𥑟
𥘅
𥘈
𥝢
𥫗
𥱡
𦈢
𦉪
𦉬
𦉼
𦍌
𦍒
𦎧
𦐇
𦓔
𦔮
𦘒
𦙃
𦚏
𦣝
𦣞
𦣻
𦥑
𦥔
𦥯
𦨉
𦭝
𦰩
𧆞
𧈧
𧘇
𧰨
𧴪
𧴮
𧵩
𧾷
𨸏
𨾴
𩙿
𩠐
𩫏
𩵋
𪉷
𪜀
𪟽
𪠲
𪩲
𫇦
𫔭
𫜸
𫝀
𫠣
𫠩
𫢉
𫥞
𫩏
𫩠
𫪡
𫲽
𫶧
𬀷
𬐘
𬗌
𬙙
𬛸
𬜯
𬟩
𬯁
𬴘
𬺻
𬼉
𬼖
𭀰
𭁈
𭁨
𭅰
𭑈
𭕄
𭗼
𭤨
𭥫
𭻾
𮅕
𮊿
𮍌
𮍏
𮓗
𮥼
𮧮
廾
𰀁
𰀄
𰀈
𰀉
𰀕
𰀠
𰀡
𰀢
𰀪
𰁜
𰃮
𰆊
𰆘
𰋙
𰕎
𰢴
𰧭
𰯲
01--
06--
08--
325--
42--
51--
53--
59--
978--
981--
a--
aa--
ab--
ac--
acc--
acce--
ad--
adapt--
addoj--
ael--
af--
affilia--
afgan--
ag--
ah--
ai--
ak--
akkusa--
aktie--
aktio--
al--
ala--
albic--
alcc--
ali--
all--
alle--
almm--
almmos--
almmustah--
am--
ama--
an--
ana--
anas--
angu--
aniso--
anse--
ante--
anti--
antibio--
antropo--
any--
ap--
api--
app--
ar--
ara--
arbets--
archi--
are--
ari--
ark--
arkitek--
arkiv--
art--
artikel--
as--
ase--
ask--
asso--
astro--
astrono--
at--
atno--
att--
attribu--
au--
auc--
auto--
av--
ava--
avakti--
avi--
avli--
avlist--
avsa--
avspeg--
avtals--
avveck--
avy--
b--
ba--
baga--
baks--
bakte--
balka--
bank--
bar--
barga--
bargo--
barn--
baryo--
bas--
baska--
bb--
be--
bea--
beaives--
beal--
bealle--
beky--
bel--
bela--
bely--
ben--
benefi--
bensin--
berg--
berlin--
bes--
besluts--
beta--
bete--
bg--
bi--
bia--
biddjo--
bieb--
biebmos--
bieđ--
bil--
bild--
bin--
bir--
birge--
bis--
bja--
bju--
bjørnø--
bl--
bli--
blogg--
blom--
bo--
boah--
boazodo--
boh--
bohc--
bohcco--
bohci--
bok--
bombar--
bor--
bort--
bot--
bou--
br--
bra--
brahui--
brei--
bro--
bru--
brut--
bry--
bu--
budget--
bugg--
buhta--
buo--
buot--
by--
bæ--
bø--
c--
ca--
cal--
can--
carpen--
cat--
ce--
cele--
certif--
ch--
cha--
chatt--
ci--
cihr--
cinc--
ck--
co--
col--
com--
compati--
compi--
con--
conse--
consu--
conti--
corn--
cre--
cro--
cus--
d--
da--
dag--
dagars--
dah--
dal--
dam--
dan--
dar--
das--
data--
davve--
davvi--
dd--
dda--
dde--
ddje--
de--
dea--
deai--
deaivva--
dearv--
dec--
deci--
dedi--
deducti--
def--
del--
dem--
demo--
der--
des--
det--
detalj--
dev--
di--
dia--
dialog--
diarie--
dictio--
die--
dieh--
diehto--
dier--
dieđa--
dieđi--
difto--
din--
direkt--
disc--
disse--
distans--
dja--
dje--
do--
doarja--
doarjaled--
dobb--
dok--
dokumea--
dokument--
dom--
dor--
dr--
dra--
dres--
driv--
dro--
drog--
ds--
du--
dubme--
dun--
duo--
duohta--
duol--
duopmo--
duottar--
durkka--
dus--
dutk--
duv--
dys--
e--
ea--
ealli--
eallin--
ean--
eanan--
eaŋg--
eb--
ebor--
ec--
ed--
edit--
edu--
ee--
egen--
egirj--
ei--
einno--
ek--
ekol--
ekonomi--
el--
ela--
ele--
elec--
elekt--
elektron--
eli--
em--
emer--
emph--
en--
end--
eng--
entsy--
entus--
ep--
er--
eryth--
es--
esc--
est--
esuo--
et--
eu--
ev--
evange--
evtto--
ex--
exc--
exhi--
expert--
extra--
eŋg--
f--
fa--
fack--
fakta--
fal--
falk--
familje--
fantasii--
fat--
feara--
feb--
fed--
fel--
fem--
fer--
fi--
fika--
fil--
filbma--
film--
filter--
fin--
fis--
fje--
fl--
fla--
fler--
flo--
fly--
flyg--
flygvapen--
fo--
fokus--
folk--
fono--
for--
foren--
fort--
foto--
fra--
fram--
fred--
frek--
fri--
frivillig--
fti--
fu--
fund--
fuola--
fuolke--
fysa--
g--
ga--
gahper--
gal--
gall--
gar--
gas--
gaska--
gatup--
gazza--
ge--
gea--
geahp--
geahpes--
gear--
geava--
geađ--
gen--
genea--
genus--
ger--
ges--
gg--
ggs--
gi--
gid--
gie--
gied--
giella--
giema--
gier--
giev--
gieđa--
gilvvo--
girko--
gisla--
gjen--
gjø--
gla--
glo--
go--
goah--
god--
gon--
gor--
gov--
gova--
gođđ--
gpris--
gra--
grafi--
gre--
gri--
gro--
gru--
grund--
grunn--
grupp--
gs--
gt--
gu--
gudnedoa--
guim--
gul--
gula--
guo--
guol--
guolle--
guora--
guov--
guovssa--
gurut--
gy--
gymnasie--
gæ--
h--
ha--
hag--
hal--
halv--
han--
har--
haras--
hauk--
hca--
hcca--
hce--
he--
hea--
heaitti--
heaju--
hebrea--
heive--
hel--
hem--
her--
hertto--
hi--
hiet--
hii--
hilt--
hin--
hirvi--
his--
hja--
hk--
hka--
hki--
hnen--
ho--
holm--
homo--
hon--
horison--
hot--
hp--
hppes--
hr--
hta--
htengie--
hu--
hus--
hutk--
hutu--
huvud--
hy--
hypo--
hyr--
hyy--
hæ--
hø--
høy--
i--
ibi--
ibmo--
id--
ida--
idda--
ide--
idsuo--
ie--
ielgea--
ify--
iga--
ige--
ih--
iha--
ii--
iin--
ija--
ik--
il--
illus--
ilmmi--
ilu--
im--
impo--
in--
inc--
ind--
ine--
infla--
info--
ing--
inn--
ino--
ins--
insamlings--
int--
inter--
internet--
inu--
invi--
io--
ir--
ira--
is--
isa--
iso--
it--
ita--
italkea--
itt--
itto--
iv--
iver--
j--
ja--
jae--
jau--
jd--
je--
jea--
jen--
jes--
ji--
jie--
jo--
joatkka--
joh--
johto--
joki--
jon--
jor--
jov--
ju--
jul--
juo--
juoga--
juovla--
jur--
jy--
k--
ka--
kai--
kaj--
kalen--
kalk--
kamera--
kan--
kap--
kapih--
kar--
karol--
kart--
kas--
kassa--
kauk--
ke--
kemi--
ken--
ker--
kes--
key--
kho--
ki--
kia--
kii--
kil--
kl--
klar--
kloa--
kna--
kne--
ko--
kod--
kom--
komi--
kompati--
kompl--
kompo--
kon--
konferens--
konfigu--
konju--
konku--
konst--
kontakt--
kontra--
kontro--
kor--
kort--
kosm--
kost--
koutoke--
kr--
kra--
kret--
kring--
krit--
kritise--
kro--
krono--
kry--
ks--
kt--
kte--
ku--
kui--
kul--
kultur--
kun--
kungs--
kunskaps--
kunst--
kuo--
kurs--
kutbild--
kuus--
kve--
kvinno--
ky--
kŋolu--
l--
la--
lac--
lag--
lagas--
lah--
lan--
lapp--
lar--
las--
lasi--
lau--
lbmot--
ld--
lde--
ldi--
ldo--
ldogie--
ldoj--
ldos--
le--
lea--
leah--
leavga--
led--
leh--
lehti--
lei--
len--
les--
leu--
leucop--
lga--
lgo--
li--
lia--
lie--
ligura--
lih--
lihko--
lihkohis--
lihtto--
lii--
liiko--
lik--
lika--
lin--
lind--
lis--
liv--
ljud--
lk--
lkomst--
ll--
lle--
lli--
llin--
llje--
llo--
lls--
lmas--
lmu--
lo--
lod--
loga--
logi--
loh--
lokal--
lokta--
lon--
long--
lot--
lp--
ls--
lt--
lu--
luc--
lulle--
lulli--
luomus--
luonddu--
luov--
lus--
lv--
ly--
læ--
m--
ma--
maa--
mag--
magas--
mail--
maj--
makt--
mal--
man--
manif--
mannan--
map--
mar--
mas--
mass--
mat--
materie--
max--
maŋ--
maŋŋ--
mb--
me--
mea--
meahci--
mearra--
mecha--
med--
media--
medie--
medisi--
medlems--
mehr--
mejl--
mel--
mellan--
memusea--
men--
menest--
mer--
meta--
metri--
mey--
mi--
mid--
mie--
miellahtto--
mig--
mih--
mihtid--
mil--
miljø--
mini--
mirha--
mis--
miss--
mitt--
mjuk--
ml--
mm--
mo--
mode--
moha--
mon--
mos--
mot--
mp--
mr--
ms--
mu--
muha--
muit--
muođ--
musihkka--
my--
n--
na--
nads--
nai--
namn--
namu--
nan--
nanno--
nar--
nat--
natur--
nav--
nd--
ndar--
ndda--
nde--
nds--
ne--
nea--
neahtta--
nece--
ned--
neg--
negotia--
nes--
neurol--
neuv--
new--
ng--
nge--
ngs--
ngt--
ni--
nica--
nie--
nieder--
nih--
nii--
nisson--
nja--
nje--
nju--
njuikej--
njuo--
nk--
nko--
nn--
nne--
nno--
nny--
no--
nobel--
nor--
nord--
not--
nov--
now--
ns--
nsi--
nska--
nso--
nst--
nt--
nta--
nu--
nuo--
nuorra--
nuorta--
ny--
nyckel--
nyhet--
næ--
nærøyf--
o--
oa--
oahpa--
oahpahus--
oahppo--
oaiv--
oamas--
oane--
oarje--
oarvec--
oat--
oavj--
occ--
of--
off--
oh--
ohk--
oid--
oikeu--
oj--
ok--
oksideren--
ol--
ola--
olggo--
olgo--
olgoriika--
olj--
olov--
oly--
om--
omar--
omdirige--
omy--
on--
online--
[...]
