!
"
#
##0
##1
##10
##11
##12
##13
##14
##15
##16
##17
##18
##19
##2
##20
##21
##22
##23
##24
##25
##26
##27
##28
##29
##3
##30
##31
##32
##33
##34
##35
##36
##37
##38
##39
##4
##40
##41
##42
##43
##44
##45
##46
##47
##48
##49
##5
##50
##51
##52
##53
##54
##55
##56
##57
##58
##59
##6
##60
##61
##62
##63
##64
##65
##66
##67
##68
##69
##7
##70
##71
##72
##73
##74
##75
##76
##77
##78
##79
##8
##80
##81
##82
##83
##84
##85
##86
##87
##88
##89
##9
##90
##91
##92
##93
##94
##95
##96
##97
##98
##99
$
%
&
'
(
)
*
+
,
-
.
/
0
00
000
0003
001
002
007
008
01
010
011
012
016
017
019
02
020
021
022
023
026
027
028
028149
03
031
033
034
036
037
038
039
04
040
044
045
046
049
05
052
053
054
057
06
061
063
066
07
072
075
076
077
078
08
081
084
09
094
096
1
10
100
1000
10000
1004984
101
102
103
1030
104
105
1054
106
107
108
109
11
110
1100
111
112
1120
113
114
115
116
1165
117
118
119
1191
12
120
1200
121
122
1227
123
124
125
12573
126
127
128
129
13
130
1300
131
132
1323
133
134
135
1350
136
137
138
139
14
140
1400
141
142
143
144
1445
145
1452
1455
146
1469
147
1471
1472
1475
1478
148
1483
149
1490
1492
1495
1497
1498
15
150
1500
1501
1502
1503
1504
1505
1506
1507
1508
151
1510
1512
1513
1515
1519
152
1520
1521
1522
1523
1525
1526
1528
1529
153
1530
1531
1533
1534
1537
1538
154
1540
1541
1545
1546
1547
1549
155
1550
1551
1554
1555
1556
1557
1558
156
1560
1561
1562
1564
1565
1566
1567
1568
157
1570
1571
1572
1575
1576
1577
1578
158
1580
1583
1584
1585
1587
159
1593
1594
1596
16
160
1600
1601
1603
1604
1605
1606
1607
1609
161
1610
1611
1612
1613
1614
1616
1617
1619
162
1620
1621
1622
1623
1624
1625
1628
1629
163
1632
1633
1634
1635
1636
1638
1639
164
1640
1641
1642
1643
1644
1645
1647
1649
165
1650
1652
1654
1656
1657
1658
166
1660
1665
1666
1667
1668
1669
167
1672
1673
1674
1675
1676
1678
1679
168
1680
1682
1683
1684
1685
1686
1687
1689
169
1690
1691
1693
1694
1695
1696
1697
1698
1699
17
170
1700
1701
1704
1705
1706
1707
1708
171
1710
1711
1714
1715
1716
1718
1719
172
1720
1721
1723
1727
1728
1729
173
1730
1731
1732
1734
1735
1737
174
1740
1742
1743
1744
1746
1748
1749
175
1751
1752
1754
1755
1756
1757
1758
1759
176
1760
1761
1762
1763
1764
1767
1768
1769
177
1770
1771
1772
1773
1774
1775
1776
1777
1778
1779
178
1780
1781
1782
1783
1784
1785
1786
1787
1788
1789
179
1790
1791
1792
1793
1794
1795
1796
1797
1798
1799
18
180
1800
1801
1802
1803
1804
1805
1807
1808
1809
181
1810
1811
1812
1813
1814
1815
1816
1817
1818
182
1820
1821
1823
1824
1825
1826
1827
1828
1829
183
1830
1831
1832
1833
1834
1835
1836
1837
1838
1839
184
1840
1841
1842
1843
1844
1845
1846
1847
1848
1849
185
1850
1851
1852
1853
1854
1855
1856
1857
1858
1859
186
1860
1861
1862
1863
1864
1865
1866
1867
1868
1869
187
1870
1871
1872
1873
1874
1875
1876
1877
1878
1879
188
1880
1881
1882
1883
1884
1885
1886
1887
1888
1889
189
1890
1891
1892
1893
1894
1895
1896
1897
1897010380
1898
1898810179
1899
19
190
1900
1901
1902
1903
1904
1905
1906
1907
1908
1909
191
1910
1911
1912
1913
1914
1915
1916
1917
1918
1919
192
1920
1921
1922
1923
1924
1925
1926
1927
1928
1929
193
1930
1931
1932
1933
1934
1935
1936
1937
1938
1939
194
1940
1941
1942
1943
1944
1945
1946
1947
1948
1949
195
1950
1951
1951005098
1952
1953
1954
1955
1956
1957
1958
1959
196
1960
1961
1962
1963
1964
1965
1966
1967
1968
1969
197
1970
1971
1972
1973
1974
1975
1976
1977
1978
1979
198
1980
1981
1982
1983
1983401779
1984
1985
1986
1987
1988
1989
199
1990
1991
1992
1993
1994
1995
1996
1997
1998
1999
2
20
200
2000
2001
2002
2003
2004
2005
2006
2007
2008
2009
201
2010
2011
2012
2013
2014
2015
2016
2017
201711052200511665
2018
20180316
20180414091837
2019
202
2020
2021
2022
2023
203
2038
204
205
206
207
208
209
21
210
211
212
213
214
215
216
217
218
219
22
220
221
222
223
224
225
226
227
228
229
23
230
231
232
233
234
235
236
237
238
239
24
240
241
242
243
244
245
245913
246
2469
247
248
249
25
250
2500
251
252
253
254
255
256
257
258
259
26
260
261
262
263
264
265
266
267
268
269
27
270
271
272
273
274
27403
275
276
277
278
279
28
280
281
2818469
282
283
2834193
284
285
286
287
288
289
29
290
291
292
293
294
295
296
297
298
299
3
30
300
3000
301
302
303
304
305
306
307
308
309
31
310
311
312
313
314
315
316
317
318
319
32
320
321
322
323
324
325
326
327
328
329
33
330
331
332
333
334
335
336
337
338
339
34
340
341
342
343
344
345
346
347
348
349
35
350
3500
351
352
353
354
355
356
357
358
359
36
360
361
362
363
364
365
366
367
368
369
37
370
371
372
373
374
375
376
378
379
38
380
381
382
383
384
385
386
387
389
39
390
391
392
393
394
395
396
397
398
399
4
40
400
4000
403
404
405
406
407
408
409
41
410
411
412
413
414
414125782
415
416
417
419
42
420
421
4217
422
424
425
427
428
43
430
431
432
434
435
437
439
44
440
441
441554874607
443
446
447
448
449
45
450
453
454
455
456
457
458
459
46
460
461
463
464
467
468
469
47
470
471
472
473
475
476
477
478
479
48
480
481
483
484
485
487
488
489
49
490
491
492
493
496
498
499
5
50
500
5000
501
502
503
504
505
506
508
51
510
513
515
516
517
519
52
520
521
522
526
528
528019
529
53
530
532
535
536
537
538
539
54
540
541
542
544
546
547
548
549
55
550
551
552
553
555
556
557
559
56
560
561
562
563
565
566
568
569
57
570
571
572
574
576
578
579
58
580
581
582
583
585
586
587
588
589
59
590
592
593
594
595
596
597
6
60
600
6000
601
603
606
607
61
610
612
614
615
62
621
622
623
628
63
630
637
638
639
64
640
642
643
644
645
646
649
65
650
652
653
654
658
66
665
666
669
67
670
671
674
675
677
678
679
68
680
681
682
684
685
686
688
689
69
690
693
695
698
7
70
700
7000
701
704
705
706
707
709
71
710
712
713
714
716
717
719
72
720
721
723
724
725
726
727
728
729
73
730
731
732
733
736
737
74
740
742
743
746
749
75
750
753
756
757
76
763
765
767
768
769
77
770
777
778
78
780
783
785
788
789
79
791
792
794
797
799
8
80
800
8000
803
804
805
806
807
808
809
81
812
813
815
816
8168
817
818
819
82
820
823
824
827
828
829
83
830
835
839
84
840
844
845
847
848
849
85
850
852
853
854
855
857
858
859
86
860
862
865
866
87
872
873
874
877
878
88
880
883
885
887
89
892
895
9
90
900
9000
901
904
907
908
909
91
910
911
916
92
92044
922
925
927
929
93
930
935
936
939
94
940
941
943
944
945956
946
949
95
951
952
953
955
959
96
966
97
970
973
974
977
978
98
9816686
9816835
985
988
9886263
99
9905674
991
993
995
997
998
:
;
<
=
>
?
@
\
^
_
`
a
aa
aage
aalborg
aali
aalkove
aalto
aamen
aams
aanteges
aapinen
aapo
aarehgi
aarhus
aarne
aaro
aartomaa
aasen
aasiaat
ab
abahara
abba
abeale
abel
abergement
aberhonddulas
aberteifi
abessiiva
abiedju
abies
abildgaard
ablatiiva
ablo
ablon
ablono
about
above
abraham
abruzzo
absoluhta
absolute
absorberejuvvo
absorbs
abu
ac
academia
academy
access
accio
accipiter
accipitridae
acrocephalus
acrpcephalus
act
actm
actual
acuta
acute
ad
ada
adam
adams
adamsii
adana
add
adda
addada
addadeaddjit
addadit
addagas
addai
addama
addamii
addan
addanguovdda
addat
adde
addelep
addet
addit
addoc
addoga
addogalleria
addojuvvui
addon
addos
addosat
addosohka
addu
addui
addus
adeaddjit
adegan
adelsteen
ademiid
adeniidna
adige
adii
adit
adja
adjektiivvat
administra
administreren
adno
adnojuvvo
adnojuvvojit
adnojuvvon
adnojuvvot
adnojuvvui
adnon
adolf
ados
adposis
advearba
advearbbat
adventures
adverbia
advoka
ae
aedon
aegithalos
aejrie
aellis
aerial
af
afabad
afanasjeva
afganistan
afganistana
afon
afrihka
afrihkka
afrika
afroa
aftenposten
after
afterdrop
ag
aga
again
against
agalas
agat
agatha
agdenes
agder
agdera
agent
agi
agiel
agiela
agielas
agiella
agillii
agis
agit
agnes
agricola
aguilera
agunnaryd
ahar
aheada
ahin
ahki
ahkin
ahmad
ahmada
aho
ahola
ahonen
ahr
ahra
ahrekord
ahrekorda
ahresta
ahreza
ahte
ahten
ahti
ahtiala
ahtisaari
ahtta
ahtti
ahttinma
ahvenanmaan
ahvo
ai
aichi
aid
aidasamet
aiddo
aide
aidisguin
aige
aiguin
aikanahttp
aikio
aili
ailo
ailu
ain
aina
ainge
ainjuo
aino
air
aires
airport
ais
aise
aitosas
aittonassii
aivve
aix
aj
aja
ak
akaa
akade
akademalas
akademiens
akademihkar
akademiija
akademiijas
akazu
akc
akershus
akershusa
akershusas
akilles
akita
akkala
akkusatiiva
akkusatiivvas
ako
akseli
aktiivvalac
aktiivvalas
aktinium
aktivista
aktivistta
akto
aktoga
aku
akuhta
akusttalas
al
ala
alabama
alac
alageavvama
alaha
alaja
alajuela
alakyla
alamehtigan
alan
alanortnet
alanortnetdoaibma
alapa
alas
alaska
alaskai
alaskas
alauda
alaudidae
alavieska
alavus
alba
albacete
albania
albanias
albarn
albasa
albasat
albbas
albellus
albert
alberto
albicilla
albicollis
albifrons
albma
albmala
albmanias
albmes
albmi
albmoneamit
albmoneapmin
alborz
alborza
albrecht
album
albuma
albumas
albumat
albumis
alcces
alccesan
alccesis
alccis
alchemilla
alcott
alda
aldaga
aldagaid
aldagaide
aldagain
aldagas
aldat
alddes
alddi
alddis
alddit
alde
aldersgruppa
aldi
ale
aleami
aleamis
aleapmi
alec
aledje
aleksander
aleksandr
aleksandra
aletta
aleuhtaid
aleuhtalas
alex
alexander
alexandra
alf
alfabehta
alfabehtain
alfabehtan
alfabehtas
alfabehtat
alfred
algat
alge
algeria
algerias
alho
alhoniemi
ali
aliases
alicante
alien
align
alii
alimus
alimusriekteduopma
alimusriekti
alinc
alit
alitbađus
alitbossu
alitbossut
alitgaccet
alitna
alitnarti
aljaksandr
alko
alkohola
alkoholajuhkamus
all
alla
allabassi
allada
allah
allan
allaskuvla
allaskuvlla
allaskuvllas
allaskuvllat
allat
allavuohta
alle
allen
allergalas
allergiija
allergiijalas
allet
alli
allodaga
allodagas
allodat
allodatnjuiken
allon
allos
allosas
allosaz
alloset
alloska
allot
alltid
allu
alluh
allum
allun
allup
allus
alluseh
alluska
alluteh
alluten
alluv
alma
almeest
almen
almeri
almest
almhult
almma
almmena
almmi
almmiga
almmiid
almmiiguin
almmiin
almmis
almmit
almmolac
almmolas
almmostuvai
almmuha
almmuhan
almmuheapmi
almmuhedje
almmuhii
almmuhit
almmuhus
almmuhusat
almmuhuvvo
almmuhuvvon
almmuhuvvui
almmustahtii
almmustahtta
almmustahttima
almmustahttin
almmustahttit
almmustahttojuvvui
almmustahtton
almmustuvai
almmustuvva
almmustuvvan
almmustuvvon
almodo
almqvist
alne
alnus
aloddi
alofa
alom
alp
alpes
alpestris
alpina
alpinus
alpo
alpua
als
also
alstahaug
alt
alta
altaposten
altar
alternate
alternative
altice
alto
altsa
alu
aluco
alue
alumiidna
alumiinna
alusa
alussii
alvar
alvesta
alwen
am
ama
amade
amadet
amadeus
amalie
amame
amamet
aman
amanda
amas
amaset
amaska
amat
amazing
ambarzumjan
ambassa
ambassadevra
ambe
ambula
ame
amelanchier
amen
america
american
americas
amerihka
amerihkka
amerihkkalas
amii
amin
aminoha
aminojoavku
aminosivrra
aminosivrrat
amis
amma
ammassalik
ammonia
amoc
amodji
amok
amol
amola
amor
amour
amsterdam
amsterdamii
amundsen
amuorji
amus
amyla
an
ana
anagiella
analyhtalas
analyse
anara
anas
anasgođđosis
anassan
anassii
anastasia
anasvuohta
anasvuođa
anasvuođabeaivi
anasvuođajulggas
anat
anatomiija
anatomy
anaximander
and
andagassi
andebu
andel
ander
anders
andersen
andersson
andorra
andra
andre
andreas
andreasa
andresen
andrew
android
andrus
andy
ane
aneby
anette
anfiteatro
angel
angela
angeles
angelica
angelit
angelniemen
angels
angelstad
angelstada
anger
angirji
angke
anglilac
anglosa
angola
anguovllu
anguovllus
anguovlu
anguvlui
anha
ani
anii
animas
animation
anime
anis
anisotropiija
anisotropiijaid
anita
anja
anjala
ankara
anla
anlihttu
ann
anna
annan
anne
anneli
anni
annihilas
annika
anniken
annukka
anoda
anola
anolas
anoreksiija
anorga
another
ansatte
anse
anser
ansip
anta
antarctic
antarktis
ante
anteckningar
anteeksi
antennaria
antero
antes
anthony
anthus
anti
antia
antibiohta
antibiohtaid
antibiohtat
antigua
antihka
antikvaria
antila
antimateriija
antoine
antoinette
antola
antologiija
antologiijain
anton
antonello
antoni
antonio
antonova
antropologa
antropologiija
antti
anttila
anttilain
anu
anus
anusin
anva
anvuogi
anvuohka
any
anza
aomori
aorta
aosta
aotearoa
aotearoas
ap
apartheid
apollo
apostallas
apostillasteampil
apotehka
apotehkas
appelsiidna
appenzell
appert
apple
april
apus
aquila
ar
ara
arabia
aram
aran
araukarias
arboga
arborea
archibald
archive
archived
arctic
arctica
arcticus
arctos
arctostaphylos
ardabil
ardabila
ardea
ardestan
are
area
areenas
aremark
arena
arenai
arenas
arendal
aresta
aretha
argentatus
argentiinna
argentina
ari
ariana
arianaick
arie
arild
aristide
aristokra
arizona
arja
arjalas
arjel
arjelsaemien
arjeplog
arjeploginsaamen
arjepluovvi
ark
arka
arkansas
arkeologalas
arkhangelsk
arkhangelska
arkiiva
arkisto
arkiteakta
arkiteavttat
arkivverket
arktalas
arktikum
arktiske
armand
armas
armenia
armenialas
armfelt
armstrong
arnaisebuonjus
arndt
arne
arnesen
arnold
around
arrondissemeanta
arrondissemeantta
arrondissemeanttat
arrondissements
arroyo
arseni
art
arte
artemare
arthur
artibonite
article
articles
artihkal
artihkkal
artihkkala
artihkkalat
artihkkaliid
artihkkaliin
artihkkalis
artikel
artikkel
artikkelen
artist
artista
artistanamma
artistta
artisttat
arto
artrosa
arts
artur
arundinaceus
arusha
arushai
arva
arvat
arvec
arveda
arvense
arvensis
arvi
arvid
arvidsjaur
arvo
arvvi
arvvit
as
asa
asat
asbjørn
asbjørnsen
asehac
asehis
asema
aserbaiz
aset
ashfield
asia
asiid
asikkala
asio
aska
askainen
aske
asker
askeris
askim
askit
askkiiga
asko
askola
askvoll
askøy
aslak
aslaksen
aslottiide
asoasi
asoassi
aspaker
aspects
aspx
assa
assegurar
assen
asser
assisteantan
association
associations
assodaga
asson
assosias
ast
asta
asteroida
astit
astoa
astrakhan
astrid
astrologiija
astrona
astronoma
astronomalas
astronomiija
asturia
asturiana
asu
asv
at
ataqatigiit
atatu
ateismi
ateismma
ater
atheism
atheisms
athena
atla
atlas
atmosfearas
atmosferii
atna
atnasa
atnasan
atnasat
atnasii
atnasit
atnat
atne
atnet
atnit
atno
atnon
atnosat
atnosiid
atnosis
atnot
atnu
atnui
atoma
atomaid
atomaide
atomain
atoman
atomat
atp
atra
atratus
atricapilla
atrogularis
att
atta
attachment
attai
attaiga
attas
atte
attii
attosohka
attu
attuid
attuide
attuin
attus
attut
aturjan
au
audiencia
auditorias
audun
auf
august
auguste
augusto
augustus
aukande
aulikki
aunusga
aura
aurdal
aure
aureola
aureum
auritus
aurland
aurora
aurskog
aus
aust
austevoll
austlandet
austra
australia
australialas
australias
austrheim
austur
austurland
auto
autokefalalas
autokefalia
automa
autonomalas
autonomiija
autorisas
auvainen
av
ava
avannaa
avannaas
avaskari
avc
avdeling
avenue
avesta
avga
avge
avi
avignonas
aviisa
aviisasiiddut
aviissa
aviissas
aviissat
avr
avvil
avvila
avvilis
avvir
award
awards
away
axel
aymara
aythya
az
azad
azerbaiz
ađa
ađaha
ađahan
ađahii
ađahit
ađahuvvo
ađahuvvot
ađahuvvui
ađamihttu
ađat
aŋkke
b
ba
baajh
babar
babez
baby
bach
bachelor
back
background
bad
badajoz
baden
badja
badje
badjeda
badjel
badjelas
badjelasas
badjelis
badjelmeara
badjelmeare
badjeolmmos
badjeravda
badjesa
badji
badjin
baemira
bagadallan
bagadalli
bagadii
bagadus
bagadusa
bagadusat
bagiella
bagillii
bagjel
bagosora
baha
bahama
bahc
bahkkejedje
bahmai
bahrain
bahtara
bai
baicca
baicce
baika
baja
bajas
bajidit
bajil
bajildus
bajiloaidnu
bajimus
bajit
bakhs
bakhtiari
bakka
bakke
bakku
baksalen
baktearaid
baktearaide
baktearain
baktearat
bakteraid
bakterat
baku
bala
balai
balas
baldit
balea
baleahttada
balestrand
balka
balkan
balkanis
balkanlastavizar
balkannja
ball
balla
ballamis
balle
bals
baltia
balto
balu
baluc
balvvain
bamako
bambara
bamble
bamir
bamse
ban
band
banda
bandar
bang
bangkok
bangkoka
banglades
bangladesh
bantugielaide
bantugielat
bar
barack
baranja
barayagwiza
barbados
barbara
barbuda
barcelona
barcelonas
bardne
bare
barents
barentsa
barentshavet
barga
bargagohte
bargagođii
bargame
bargan
bargat
barge
barget
bargga
barggai
barggu
bargguhisvuođa
bargguid
bargguide
bargguin
barggus
barggustis
barggut
bargi
bargiid
bargiidbellodaga
bargiidbellodagas
bargiidbellodahkii
bargiidbellodat
bargit
bargo
bargoba
bargobiergasat
bargobiergasiid
bargoeallima
bargogođii
bargojoavkku
bargola
bargoma
bargoneavvu
bargu
bargui
bargun
bari
barks
barnard
baron
baronette
barry
bartolo
bartolome
barut
baryogenesa
baryonaeahpesymmetriija
baryonagenesan
baryonalas
baryonalohku
bas
basam
base
basel
baselii
baselis
basic
basilicata
basista
baskaeatnama
baskaeatnamis
baskagiella
baskot
basku
baskut
bass
bassa
bassanguovz
bassat
basse
basshunter
bassi
bassiva
basta
bastet
bastholm
bastil
bastilis
bastille
bastte
basttii
basuhuvvos
bataille
bauer
bay
bađos
bađvera
bb
bba
bbac
bbar
bbb
bbc
bbele
bbioo
bd
be
bea
beach
beagga
beahca
beahceba
beahces
beahci
beaiva
beaivea
beaivebadja
beaivec
beaivedoaibma
beaivegirji
beaivegirjji
beaivemearit
beaivemeriid
beaiveruovttus
beaivesuotnjarat
beaivet
beaivi
beaivva
beaivvas
beaivve
beaivvi
beaivvis
beaivvit
beakka
beaktilis
beal
beala
bealde
bealdocihci
bealdovuoras
beale
beales
bealgeloddi
bealgelottit
beali
bealis
bealistis
bealja
bealla
beallai
bealle
beallebuokc
beallega
beallelac
beallelavttis
beallemaraton
beallemuddui
beallemuttu
beallemuttus
beallesoaldda
bealli
bealljeloađgu
bealljera
bealtta
bealus
beana
bearalhearvvat
bearalskuolfi
bearalva
bearas
bearatgotti
beardu
beare
bearehaga
bearjadaga
bearjadat
bearra
bearraha
bearralat
bearraliid
bearraliiguin
bearras
beas
beasa
beasai
beaska
beasos
beassa
beassan
beassat
beassenanodas
beassi
beast
beastte
beat
beatles
beatlesa
beatnaga
beatnagat
beatnagiid
beatnatra
beatnatsuoidni
beautiful
beavddi
beavvi
beađut
beaŋkkain
bee
beethoven
befolkning
before
beftett
begge
beginner
behtolas
bei
beibbos
beibboz
beivviid
beivviide
bel
bela
belalca
belat
belbo
belfort
belgia
belgiai
belgialac
belgialas
belgias
belgica
belgorod
belgrad
belgradii
beliid
belize
belizes
bell
belle
bellis
bellodaga
bellodagaid
bellodagain
bellodagas
bellodagat
bellodahkan
bellodahkii
bellodat
bellodatc
bellodatjođiheaddji
bellodatjođiheaddjin
bellodatpolitihkalas
bells
belmopan
belohahkii
ben
bend
benedictus
benedikte
benfro
bengalgiella
bengt
benin
benjamin
benny
bensinstas
bent
bente
ber
bera
berfabrihkka
berg
berga
bergen
bergena
bergenis
bergkvara
bergman
bergqvist
bergroth
bergsland
bergslandain
beringnuori
berit
berleva
berliinna
berlin
berliner
berlinmuvra
bermuda
bern
bernadotte
bernard
bernhard
bernoulli
beros
beroskeahtta
berre
berry
bertolt
bertrand
bes
beskkos
besse
besset
best
besøkte
betty
betula
betulaceae
between
beynost
bg
bhuta
bhutan
bhutana
bi
bia
biabanaka
biagillii
biarmicus
bibliografiija
biddjo
biddjojit
biddjojuvvon
biddjojuvvot
biddjon
biddjui
biden
bidgol
bidja
bidjan
bidjat
bidje
bidjet
bidjon
bidrag
bieber
biebmoa
biebmoprogra
biebmora
biebmosuddadan
biebmosuddadeamis
biebmosuddadeapmi
biebmu
biedjova
biegga
bieggafa
biehta
biehttalanvearba
biejjien
biejus
biejvvegirjje
biekka
biekkat
biellodoardna
biepmu
biepmuid
biepmut
bierggu
biergu
bies
biesa
bieva
bieđgana
bieđganit
big
biga
bihc
bihceba
bihta
bihtta
biibbal
biibbala
biibbalis
biid
biigga
biila
biilalihkohisvuođas
biin
biinnideami
biire
biiregoddi
bijai
biktasat
biktasiid
bilde
bildet
bilida
bilideapmi
biljovnna
bill
billa
billas
billistit
billy
bilogora
bimaculata
bin
bingenis
binna
biografi
biografiija
biologalas
biologiija
bir
biras
birasbellodat
birasga
biraskomiteas
birasva
birccasta
bircu
biret
birge
birgejit
birgekeahtta
birgenla
birger
birget
birggi
birgi
birgii
birgit
birgitta
birgon
birgona
birievssat
birkeland
birokra
birokratiija
birra
birrajohtina
birrasa
birrasii
birrasiid
birrasiin
birrasis
birrat
birth
birz
bis
bisa
bishop
bishops
bislett
bisma
bismagoddi
bismagotti
bismagottiid
bismagottit
bismma
bismmaid
bismmain
bismmastuollu
bismmat
bispedømme
bissau
bissehit
bissojoga
bissot
bissovac
bissovas
bissu
bissun
bissut
bista
bistevac
bistevas
bisti
bisttii
bistu
bisui
bit
bitcoin
bite
bittut
bivdda
bivddii
bivddus
bivde
bivdet
bivdit
bivdu
bivdui
bivnnuhat
bivnnuheamos
bivnnuhin
bivnnuhis
bivnnut
bivnnutvuođa
bivttas
bivttasma
bivvalebbon
biđgema
biđona
biđonsa
bj
bjarkøy
bjelovar
bjo
bjurholmma
bjørgvin
bjørnar
bjørnevatn
bjørnson
bjørnstjerne
bjørnøya
bla
black
blacksheeps
blad
blant
ble
blekinge
bless
bleu
bli
blir
blitt
block
blod
bloemhoff
bloga
blogga
bloggac
blood
blue
blues
blur
bma
bmagovat
bmama
bmanieida
bme
bmejuvvon
bmen
bmengilvvu
bmet
bmi
bmii
bmir
bmira
bmu
bmuid
bn
bo
boahta
boahte
boahtimin
boahtimus
boahtin
boahtit
boahtte
boahttea
boahttevas
boahttevuhtii
boahttevuođa
boahttevuođas
boahtti
boalda
boaldinmuoraid
boallobeavdi
boallonjukc
boallooaivi
boallora
boaluide
boaluiguin
boalut
boanda
boanddat
boara
boares
boareskaleanda
boarga
boaris
boarisin
boarra
boasta
boasttu
boasttuvuođaid
boastut
boat
boazodoalloskuvla
boazodoallu
boazodoalu
boazodoalus
boazodollui
boazosa
boazu
boađa
boađan
boađe
boađi
boađus
boađusin
boađđocivkka
bob
boda
boddu
bodena
bodensee
bodil
bodna
bodni
bodom
body
boehmer
bogota
bohcciid
bohcco
bohccobierggu
bohccobiergu
bohccot
bohccuid
bohccuide
bohciida
bohciidii
bohciidit
bohte
bohtet
bohtos
bohtosat
bohtosiid
boine
boineaolmusic
boines
bois
bojaxhiu
bojer
bokhandeln
boklund
bokma
boksa
boksenga
boksenka
bokte
boktit
bold
bolde
bolivia
bols
bomba
bombardier
bombardiera
bombycilla
bombycillidae
bonaparte
bonasia
bond
bondevik
bondevika
bonelli
bongo
bonilla
bonnier
bonniers
book
books
boole
booth
bootleg
bora
borai
boras
borasda
boraspire
boraspiret
boraspiriid
border
borealis
borg
borga
borgema
borgguhan
borgguheapmi
borgguhit
borgheim
borin
boris
borkhar
borla
bornholm
borra
borramus
borran
borranva
borrat
borre
borret
bors
borten
bosco
bosnia
bosniagiella
boson
boston
boten
botken
botket
botswana
botta
bottom
bottu
bottus
bourg
bovd
bovdejedjege
bovdejuvvon
bovdii
bovtta
box
boy
boyle
boz
bođes
bođez
bođii
bođuvala
br
bra
braa
brachot
brachydactyla
brachyrhynchus
bradanovic
bragi
brahe
brahma
brahms
brahuigiela
brahuigiella
branta
brasil
brasilalas
brasilas
brasilia
brasilialas
brasilias
bratislava
bratteli
braun
bre
breakfast
brecht
breeds
breilia
breinigerberg
breivika
breivikbotn
brekstad
bremanger
bresse
bretonagiella
brev
brevik
brian
bribrigiela
bribrigiella
bridge
brihtta
brihttalas
briord
brita
britain
britannia
britannias
british
britt
britta
brjansk
brno
bro
broch
brod
bronkiolat
bronsaa
bronssa
bror
bros
brother
brothers
brown
bru
bruce
bruger
bruges
bruk
brukar
brukaren
brukeren
brukes
brukt
brundtland
brunei
brusselles
bruta
brutas
bruttoa
bruvda
bryggen
bryggeri
bryna
bryssel
bs
bsd
bts
bu
bua
bubo
bucephala
buchanani
bucures
budapest
budapestas
buddha
buddhisma
budejju
buenos
bugey
buhcet
buhtadusa
buhtadusat
buhtes
buhtte
buhttet
building
bukkedauen
bukta
bukte
buktet
buktimis
buktit
bulga
bulgaria
bulgarialas
bulgarias
bulii
bulimiija
buljo
bull
bulletin
buohcanoadjola
buohcca
buohccediks
buohccedivs
buohcceviessu
buohcceviesuid
buohcceviesuin
buohcceviesus
buohccevissui
buohcci
buohccivuoidan
buohcuvuohta
buohkaide
buohkain
buohkanassii
buohkat
buohta
buohtastahtta
buoidda
buoiddes
buoiddi
buoidi
buoidun
buokc
buolas
buolbma
buolbmatja
buolla
buollima
buollin
buolvvaide
buonjus
buorebut
buorededje
buoremus
buoremusat
buoremussan
buoret
buori
buorideaddji
buoridit
buoriduvvon
buorit
buorra
buorre
buorrin
buot
buotla
buotvuođa
buovc
bupma
bur
burana
bures
burgos
buriid
burkina
burma
burroughs
burundi
bus
bush
business
buskerud
buskeruda
buskerudas
bussa
bussemetro
bussemetrofierpma
bussemetrojohtolaga
busset
busta
but
buteo
butnjosat
buvtta
buvttada
buvttadeaddji
buvttadeapmi
buvttadedje
buvttadit
buvttii
buđetnjuvddus
by
bysa
bystatus
bældo
bære
bærum
bærumas
bø
bømlo
c
ca
cabe
caboodle
cadascun
caeruleus
caesia
cafe
caicossullot
calabria
calais
calandra
calandrella
calcarius
calcutta
calcuttas
california
californias
caligata
calle
calling
calliope
caltha
calvin
calwa
cam
cambridge
camenzind
camilla
camp
campania
campestris
campora
camuzzi
can
canada
canadas
canadensis
cand
candle
cannabina
cannes
canonical
canorus
canth
cantillans
canus
cape
capita
capital
cappelen
carduelis
care
carey
cargiella
carina
carl
carla
carles
carlos
carolina
carpenter
carpenters
carpodacus
carruth
carsten
carta
cartago
caryocatactes
caryophyllaceae
casa
casanova
caspar
cassette
castello
castle
castrenianumin
cat
catalunya
catarina
catedral
categories
category
catharus
catherine
cathrine
catus
caudatus
cautela
cave
cavendish
cayes
cayo
cc
cca
ccc
cci
ccii
ccit
ccma
ccmo
cctld
cd
cdm
ce
ceagga
ceahki
ceakko
ceakkus
cealka
cealkaga
cealkagis
cealkan
cealkka
cegge
ceggii
cel
celki
celkii
celkke
celkkii
celkojuvvui
censo
census
center
central
centralbyra
centre
centrum
century
cercotrichas
ceres
cern
cerro
certhia
certhiidae
cervantes
cervinus
cevzzii
ceyze
cf
ch
cha
chad
chalaronne
chamberlain
champagne
champollion
chancellor
change
chaplin
chapman
charente
charles
charlie
charlotta
charlotte
chateau
chatterjee
chavannes
chavigny
chazey
che
check
cher
chess
chi
chiba
chicago
chihiro
child
children
chile
chilelas
chileno
chili
chimaltenango
chimbote
china
chiquimula
chis
chistu
chler
chloris
chomsky
chopin
chowk
chris
christchurch
christen
christer
christiaan
christian
christie
christina
christine
christmas
christoffer
christophe
christopher
chrome
chrysaetos
chsischen
chulalongkorn
chung
chuqi
church
ci
cia
ciebanat
cihceskuolfi
cihranat
cihrrelastavizar
ciiko
cinclidae
cinclus
cinctus
cinerea
circle
circus
cities
citreola
citrinella
citrus
city
citysa
ciudad
ciudadana
ciza
cizit
cizopas
ck
cka
ckb
cke
ckelsa
cksburg
clangula
clara
clarissa
clarke
claude
claudia
cle
clear
cleveland
climat
clinton
close
clypeata
clywedog
cm
cnico
co
coagulation
coba
cobar
cobe
coca
coccothraustes
code
coelebs
coggamis
coil
cola
colbengtson
cole
colegio
collapsed
collapsible
collaris
collection
college
collinder
collines
collurio
collybita
colombia
colombialas
color
colorado
colours
columbarius
columbia
columbianus
column
columns
com
come
comi
comics
comme
common
commons
communications
communis
community
company
complete
composite
compte
comte
con
concepcio
concerning
concert
conditionally
conference
congress
connecticut
consellers
constant
constitution
contact
contacts
contempora
content
context
contract
contribuir
convention
conversation
conwy
coop
cooper
coord
copied
corax
corbin
coregonus
cornelius
cornix
coronavirus
corozal
corpus
correa
corse
corun
corvidae
corvus
costa
coste
counter
country
courtes
cov
cover
covered
cp
cr
cracca
crash
crazy
create
crecca
creek
criminal
crist
cristata
cristatus
croacia
croix
cropped
cross
crossover
crusade
cruz
crying
cs
cseremisz
csf
css
ct
cu
cuba
cuculus
cuenca
cugu
cuixart
cultural
cuneo
cuoŋoma
cuoŋu
cuoŋuma
cup
curitiba
current
curruca
curvirostra
cusco
cut
cuvket
cv
cy
cyanurus
cyanus
cygnus
cymru
cz
czerepanovii
cælkam
d
da
dac
dadd
daddjo
dadja
dadjan
dadjat
dadje
dag
daga
dagaha
dagahan
dagahedje
dagahii
dagahit
dagai
dagaid
dagaige
dagain
dagaldagat
dagas
dagat
dagbok
dagfinn
dagu
daguid
daguideaset
daguin
dagus
dagut
dahje
dahjege
dahka
dahkamis
dahkan
dahkat
dahke
dahket
dahkii
dahkki
dahkkojuvvo
dahkkojuvvon
dahkkon
dahkkot
dahkkui
dahku
dahkua
dahtii
daid
daidda
daiguin
dain
dainna
daisy
dajahus
dajai
dajaldat
dakka
dakkat
dakkaviđe
dakkek
dakko
dakota
dakotas
dal
dala
dalai
dalarna
dalas
dale
dallaire
dallama
dallamiid
dallamis
dallan
dallat
dalle
dalmatia
dals
dam
damanaga
damavand
dame
daministtar
daministtarin
damon
dan
dana
danba
danbeaivi
danbeaivvi
danbeivviid
dance
dancing
dangriga
daniel
daniela
danielsen
danin
daningo
danma
danmark
danne
danny
dans
dansk
danske
dante
daoaiva
dar
dardalas
darja
darjjesa
dark
darkfiber
darogilli
darva
darvvehuvvon
darwin
das
dasa
dasalassin
dasgo
daspealut
dassa
dast
dastgo
dasto
dat
data
database
date
dateformat
datiiva
datlogan
datnja
dato
datomaler
datte
dattege
dattetge
daugava
daughter
dauma
daurica
dauuricus
dava
david
davimus
davis
davve
davvegielddat
davvejovkui
davvelastavizar
davvenuorta
davvenuorti
davvenuortin
davveoarjin
davveoassi
davveosiin
davvesiida
davvesiidda
davvesiiddas
davvi
davviguovllu
davviguovlluin
davvijoavkku
davvijoavku
davvil
davvin
davvinja
davvinuorta
davvinuortaeana
davvioarjin
davvioasis
davvioasit
davvioassi
davviosiin
davvipola
davviriikalas
davviriikkaid
davviriikkaide
davviriikkain
davviriikkalas
davviriikkat
davvisa
davvisiidda
daworks
day
days
dađe
dađi
dađistaga
daŋass
daǥai
dba
dd
dda
ddagat
ddagii
ddagiid
ddagis
ddan
ddanoaz
dde
ddejedje
ddejit
ddejupmi
ddejuvvo
ddejuvvojit
ddejuvvon
ddejuvvui
ddemis
dden
ddet
ddi
ddii
ddinbycha
ddja
ddje
ddjehusa
ddjehusat
ddjejuvvon
ddjet
ddodat
ddogirjjit
ddu
de
dead
deadache
deadda
deaddit
deaddu
deagga
deahkit
deahkka
deahkki
deahtis
deahtisvuohta
deahtisvuođa
deahtisvuođas
deahtta
deaiva
deaivida
deaivva
deaivvadan
deaivvadeami
deaivvai
deami
deamis
deamit
dean
deanu
deanuleagi
deanus
deapmi
dearvan
dearvvahansa
dearvvas
dearvvuođat
death
deatnu
deatta
deattu
deattuha
deattuhii
deattuhit
deattuhus
deavda
deavdinskovvi
deavdit
deaŧalas
deaŧaleamos
debussy
debyhttaskearru
declaracio
decoration
dedje
default
definerejuvvon
definis
deg
degas
dego
degomat
deha
dehalas
dehaqan
dehesta
dehkiid
dei
deike
dejtie
del
dela
delano
delat
delaware
delen
delhi
delichon
dem
demian
demilitariserejuvvon
demo
demografiija
demokra
demokrahtalas
demokratiija
demokritos
demokritosa
den
dendrocopos
denis
denise
denna
denne
dennis
dep
departemeanta
departemeantta
departemeanttain
departemeanttas
departemeanttat
depres
der
dera
derby
derhjelm
derko
dermanla
derpmos
derrick
derstro
des
description
deserti
desho
desire
desse
det
deta
detektiivaroma
detencions
detroit
dette
dettii
deuterium
devdet
devil
devonis
dewi
dhe
dhoka
di
diabetes
diabetesa
diabetesii
diabeteslihttu
diabolae
diagnosa
diagra
diakonissa
dialeakta
dialeavtta
dialect
dialektar
dialekten
diama
diamehter
diana
dianthus
diaspora
diawara
dictators
dictionary
didier
die
diego
diehta
diehtaga
diehtagiid
diehtit
diehto
diehtogirjec
diehtojuohkin
diehtosa
diehtosiida
diehtoteoriija
diehtovuođus
diehttelas
diehtti
diehtu
dieinna
diekka
dielddanuori
dielddanuorri
dien
dierbma
dierpmis
diet
dieter
dievas
dievasc
dievaslas
dievasmahttit
dievdduid
dievddut
dievdoolbmot
dievdoolbmuid
dievdoolbmuin
dievva
dievvan
dieđa
dieđagoddi
dieđagotti
dieđalas
dieđama
dieđaolmma
dieđas
dieđe
dieđihanguovdda
dieđihemiid
dieđihii
dieđihit
dieđu
dieđuid
dieđus
dieđusge
dieđut
diftoŋga
diftoŋgga
diftoŋggat
digas
diggea
diggeviessu
digilehti
digita
digjidi
dihte
dihtet
dihtetgo
dihtii
dihto
dihtola
dihtor
dihtorat
dihtorii
dihtoriin
dihtorprogra
dihtorsimulas
dihtosis
dihtto
dihtton
dii
diibmu
diid
diidada
diidaoskun
diimmu
diimmus
diimmut
dikki
diks
dikta
diktac
diktagirji
diktan
diktatuvra
diktatuvran
dila
dili
diliid
diliide
diliin
dilis
dilla
dilli
dimbariid
dimis
din
dinii
dio
dioboles
diobolgealdae
diobolgeldae
dios
diploma
dipma
dipolac
dipolc
diputat
direct
direction
direktora
dirigeanta
dirk
dirty
dis
disclosure
discogs
discussion
disko
diskografiija
disney
display
distansere
distribus
district
distrito
dit
diu
div
divga
divohaga
divohagas
divohat
divrra
divrras
divs
divtta
divttaid
divttaidis
divttasvuona
divttasvuonas
divttasvuotna
divttat
divttii
divttis
divvun
divvut
diz
diđii
diđolas
diđos
diŋga
diŋgga
diŋggaid
diŋggat
dj
dja
djadoaba
djadoahpaga
djai
djan
djas
djat
dje
djefylkkat
djegielda
djegielddat
djeguovlluid
djeguovlluin
djeleanat
djeprovinssat
djeriikkat
djesuohkanat
dji
djibouti
djii
djit
djo
djoeanagumpe
djoeanagumppes
djolusma
djosat
dju
dk
dl
dlappischen
dna
dne
dni
dnu
do
doaba
doahpaga
doahpagat
doai
doaibm
doaibma
doaibmabijuid
doaibmageahc
doaibman
doaibmaorga
doaibmat
doaibmava
doaim
doaimaheadji
doaimm
doaimma
doaimmadettiin
doaimmaha
doaimmahaga
doaimmahagas
doaimmahagat
doaimmahan
doaimmahat
doaimmaheaddji
doaimmaheaddjin
doaimmaheaddjit
doaimmaheddjiid
doaimmahii
doaimmahit
doaimmahus
doaimmahusas
doaimmahussii
doaimmahuvvo
doaimmahuvvon
doaimmai
doaimmaid
doaimmaide
doaimmain
doaimmalas
doaimmas
doaimmashehttejuvvon
doaimmat
doaja
doakta
doala
doaladupmi
doalahit
doalai
doalla
doallat
doaluid
doaluide
doaluin
doalut
doalvu
doalvut
doalvvo
doarjaga
doarjaleddjiide
doarjja
doarjjui
doarjjun
doarju
doarjun
doarjut
doarra
doarrun
doarva
doaskku
doasku
doavttir
doavttirgra
doavttirin
dobbel
dobbelii
dobbelis
doc
documentation
doddjon
dog
dohka
dohkka
dohkke
dohkkeha
dohkkehan
dohkkehanbeaivi
dohkkehii
dohkkehit
dohkkehuvvo
dohkkehuvvon
dohkkehuvvui
dohko
doibme
doibmet
doibmii
dok
doktagat
doktagiin
dokumeanta
dokumeantafilbma
dokumeantta
dokumeanttaid
dokumenta
dokumentacija
dokumentasjon
dokumentasjonssiden
dokumentation
dola
dolgefa
dolin
dolla
dollava
dolle
dollet
dollojedje
dollojuvvo
dollojuvvojedje
dollojuvvojit
dollojuvvot
dollojuvvui
dolors
dolos
doloz
dolvo
dolvojuvvo
dolvojuvvojit
dolvon
dolvot
dom
domaine
dombes
domenico
domestica
domesticus
dominerer
dominerte
domingo
dominica
dominika
dominion
dominique
dompierre
don
donald
dong
donizetti
doo
doors
doppe
doppler
dore
doris
dorjon
dorjot
dorotea
dorski
dorvoba
dorvvastit
dorvvolas
dorvvu
dos
dot
dota
douglas
douro
dov
dovda
dovdameahttun
dovdat
dovdda
dovddaldat
dovddasta
dovddastan
dovddastii
dovddastit
dovddastusa
dovddastuvvon
dovddastuvvot
dovddatgo
dovddiidus
dovddu
dovddus
dovddusin
dovdomassii
dovdomearkkat
dovdon
dovdoseamos
dovdu
dovre
dovtta
down
dr
dra
dragon
drake
dramaturga
drammen
drammena
drammenis
dravidalas
dream
dreaming
drnovs
dro
drone
dronnega
dronnegat
dronnet
drosera
drum
dryas
dryocopus
dryopteris
drøm
dsb
dt
dtedh
du
dua
dub
dubbejuvvon
dublin
dublinis
dubme
dubmejeaddji
dubmejumit
dubmejuvvojedje
dubmejuvvon
dubmejuvvui
dubmet
dubrovnik
duck
duddjon
duha
duhpa
duinna
duiska
duiskagielat
duiskalac
duiskalas
duiskii
duiskka
duiskkagiela
duiskkagiella
duiskkagillii
duiskkalas
duiskkas
dujiin
duke
dulcis
dulko
dulkojumi
dulkojuvvon
dulkoma
dulkot
dulvi
dulvviid
dulyn
dumetorum
duo
duoddar
duoddara
duoddarat
duoddarii
duoddariin
duoddaris
duodja
duodji
duoga
duogi
duogus
duohka
duohken
duohkin
duohkut
duohta
duohtan
duohtavuohki
duohtavuohta
duohtavuođa
duohtavuođas
duoja
duoji
duojit
duolba
duolbbas
duolbbasvuođas
duollet
duolmmasta
duolmmastit
duolva
duolvac
duomu
duomut
duon
duopma
duopmogirku
duopmogirkus
duopmostuollu
duopmostuolu
duopmostuoluide
duopmostuoluin
duopmostuolus
duopmostuolut
duopmova
duors
duortnus
duot
duottar
duottarguovllut
duođai
duođaid
duođalac
duođalas
duođas
dupmejuvvui
duran
durdnosa
during
durka
durkalas
durkka
durkkagiella
durkkas
durtnosleagi
dus
dusa
dusaid
dusaide
dusain
dusas
dusat
dusbeaivi
dusbellodaga
dusbellodagas
dusbellodat
dusit
dusjagi
dusjagis
dussan
dussii
duste
dustet
dutka
dutkagoahta
dutkama
dutkamat
dutkamiid
dutkamis
dutkamus
dutkan
dutkanfa
dutkanguovdda
dutkankomis
dutkankommis
dutkanla
dutkanma
dutkat
dutki
dutkiid
dutkin
dutkit
dutkkai
dutkojuvvon
dutkosa
dutkosiid
dutnje
duty
duv
duvdet
duvva
duvvan
duvvon
duvvui
dvor
dwight
dyfrdwy
dylan
dynastiija
dz
dzim
død
e
ea
eaba
eabeha
eabehat
eabehiid
eabet
eaddji
eadna
eadni
eagi
eagle
eahka
eahkaeana
eahkagiella
eahkagillii
eahkas
eahkeda
eahkedac
eahkedas
eahkediid
eahket
eahkka
eahkkalas
eahpa
eahpec
eahpeda
eahpepolitihkalas
eahpes
eahpevirgga
eahppi
eahtta
eai
eaige
eaigga
eakins
eakta
eakti
eaktoda
eaktovuohki
eala
ealgga
ealla
ealli
ealligova
ealligovas
ealligovat
ealligovva
ealligovvebagadalli
ealliid
ealliide
ealliin
eallilan
eallima
eallimii
eallimis
eallin
eallinagi
eallinahka
eallinba
eallinda
eallinfilosofiija
eallingeardda
eallingeardi
eallinguovlu
eallis
eallisilba
eallit
eallun
eambbo
eami
eamia
eamida
eamidiinnis
eamiolbmuid
eamis
eamit
eamitgahpira
ean
eana
eanadieđama
eanadoallu
eanagierraga
eanagoddeguolit
eanagottis
eanaha
eanamuorjjit
eanan
eanandoallu
eanandoargga
eanangodda
eanangoddeguovdda
eanangoddi
eanangoddiguovdda
eanangoddis
eanangotti
eanangottis
eanangottit
eananra
eananviidodat
eanara
eanas
eanaspa
eandalii
eandalit
eandalitge
eanebus
eanebut
eanemus
eanemusat
eanemusta
eanet
eanetlogu
eanetlogus
eanetlohkoa
eanetlohku
eanodaga
eanodagas
eanodat
eanu
eanut
eapma
eapmi
eara
earala
earda
eardabivttas
eardda
earddalas
earddat
earenoama
earet
earkebisma
earkebismagodda
earkebismagoddi
earkebismagotti
earl
earra
earrat
earret
earru
earta
eartas
earth
earuha
earuhii
earuhit
earut
eas
easka
easkaba
easkka
east
eastadit
eastern
eastit
eastte
eat
eatnama
eatnamat
eatnamii
eatnamiid
eatnamiin
eatnamis
eatnan
eatnandiehtu
eatnandieđalas
eatnanlas
eatnanlaz
eatnanoasit
eatnanoassi
eatnanspa
eatnasat
eatnatlohkosas
eatnemen
eatni
eatnigiela
eatnigielat
eatnigiella
eatnigiellalinnja
eatnigiellan
eatnigillii
eatnis
eatnu
eavetja
eavtta
eavttaiguin
eavttas
eavttat
eavttuid
eavttut
eazi
eaŋ
eaŋg
eaŋgalas
eaŋgalasgiela
eaŋgalasgiella
eaŋgalasgiellii
eaŋgalasgillii
eaŋgals
eaŋgalsgiela
eaŋgalsgielat
eaŋgalsgiella
eaŋgalsgillii
eaŋla
eba
ebbug
eboras
eborrasa
ebu
ec
ece
ecm
ecuador
ecuadora
ed
eda
edamaruku
eddie
edgar
edgeøya
ediciones
edirne
edit
edition
editorial
edje
edjege
edmund
edo
edovdi
edovdit
edu
education
edvard
edward
edwards
edwin
edłoga
edłoha
ee
eec
eenna
eero
eesti
eeva
ef
efal
efter
eg
ega
egen
egil
egirjjiid
egirjjit
egypta
egyptalas
egyptas
egyptologa
ehas
ehasaid
ehasain
ehasat
ehime
ehir
ehkkia
ehkoslovakia
ehpe
ehpet
ehpiid
ehppodaga
ehr
ehra
ehtemas
ei
eid
eidda
eiddet
eide
eidfjord
eidsberg
eidskog
eidsvoll
eidsvollas
eiffel
eige
eiker
eila
eimme
ein
einar
eine
einfu
einnosta
einnostan
einnosteaddji
einnosteapmi
einnostedje
einnostii
einnostit
einnostusa
einnostusaid
einnostusat
eino
einstein
eira
eirik
eisege
eiseva
eit
ek
ekg
ekologiija
ekonomalac
ekonomalas
ekonomiija
ekonomiijalas
ekovuoga
ekpyrohta
eksa
eksisteanssa
eksjo
eksklusiiva
eksperimenta
eksponentialalac
eksterne
ekstremahutut
ektui
ekumenalas
ekumeniijan
ekva
ekvatoria
el
ela
elatiiva
ele
eleanor
election
elefa
elegita
elektralas
elektrihkalas
elektrisitehta
elektroda
elektronat
elektronba
elektronegatiivavuohta
elektrongarra
elektrosta
elektrovnna
elektrovnnaid
elektrovnnain
elektrovnnalas
elektrovnnat
elemeanttas
elemeanttat
elements
eleonora
elfa
elfenbenariddu
elges
eli
elias
eliel
elii
elima
elin
elinor
elis
elisabet
elisabeth
elizabeth
ella
elle
ellen
eller
ellet
elli
elliid
elliide
ellinor
elmieri
elonetis
elra
els
elsa
else
elsker
elton
elve
elvira
elwyn
em
emanuel
emberiza
emberizidae
emelie
emerald
emeritus
emigra
emil
emile
emilia
emilie
emittalas
emma
emmaboda
empire
empty
emuls
en
ena
ence
encyclopedia
end
ende
endjukovskij
endorii
endotela
endringer
enebakk
energiija
energiijadeahtisvuohta
energiijadeahtisvuođa
energiijaga
energiijan
energiijas
eneryda
enetsagiella
enevra
engas
engel
engerdal
engla
english
enka
enkla
enko
enkyla
enlli
enn
eno
enonkoski
enontekio
enpa
ensamble
ensen
entertainment
entrena
entrevista
entsymain
entsymat
enucleator
eo
ep
epa
epilobium
epitela
eppet
equisetum
er
era
erdii
eremophila
erenoama
erenoma
erenomas
eres
eret
eric
erich
erik
erika
eriksen
eriksson
erithacus
eritrea
erke
erkel
erkki
erland
erling
erna
erne
erno
ernst
erohus
erohusa
erohusaid
erohusat
eros
ersagiella
erythrinus
erythropus
es
esa
esari
esc
eschweiler
escuela
escuintla
eshinbun
eske
eskilstuna
eskimo
eskimogielat
esko
eskola
esla
espa
espan
espen
esperanza
espoo
essa
essay
essays
essea
esseas
esseastis
esseita
essential
essiiva
esso
est
estados
estan
estana
estcube
este
esteban
estelle
ester
esteriikka
estimated
estla
estteeana
estteeanalas
estteeanan
estteeatnama
estteeatnamis
esttegiela
esttegiella
esttegillii
esttelas
estteriika
estteriikkas
esuonaid
esuonain
esuonat
esuotna
esutnii
eswatini
et
etanola
etela
etes
ethnologue
etihkka
etiopia
etiopialac
etiopialas
etiopias
etnalas
etne
etnihkalas
etniin
etniinis
ett
ette
etter
ettiin
etymologalac
etymologiija
etæmek
eu
eugen
eukaryohta
eur
eura
eurajoki
eurasialas
eure
euro
eurohpa
eurohpalas
eurohpas
eurohpii
europa
europaea
europe
european
europeiske
eurovision
eva
evangelalas
evangelisk
evangelium
evangeliuma
evaŋgelalas
evci
eve
evelyn
even
evena
ever
everest
eversta
evideansa
evideanssa
evideanssat
evihkat
evija
evil
evind
evolus
evttoha
evttohan
evttohas
evttohasa
evttohasat
evttohassan
evttohedje
evttohii
evttohit
evttohus
evttohusa
evttohuvvo
evttohuvvon
evttohuvvui
evttolac
evuojas
evuojaz
ex
example
examples
excubitor
explorer
expression
ext
external
extiw
extra
exupe
eye
eymu
eystra
ezra
eøs
eŋg
eŋgelas
eŋgelasgiel
eŋgelasgiela
eŋgelasgielalas
eŋgelasgiella
eŋgelasgillii
eŋgeliid
eŋgla
f
fa
fabaceae
fabalis
facebook
facto
fadaer
fade
fag
fagersta
faisal
fakultehta
fakultehtaid
fal
falac
falas
falavarz
falco
falk
falklandsullot
fall
falleha
falleheami
falleheamit
fallehemiid
fallehii
fallehit
falling
false
falu
falun
familia
familiaris
family
fana
fanas
fanta
fantasiijagirjec
fantasiijagirjja
far
faraday
fargga
faridan
farmakologiija
fars
farsa
fas
fasa
fashion
faso
fat
father
fatnasat
fatnasiin
fatoumata
fe
feaillaid
fear
feara
fearagiela
fearagiella
fearagillii
fearsullot
fearsulluid
fearsulluin
feaska
feaskkir
feasta
feat
federas
federation
federico
fedje
feif
felipe
felis
fellini
fem
female
feminisma
feminista
feministtalas
feministtat
fennia
fenno
fennougristihka
fenomena
feodoroff
ferdinand
ferejduns
ferenc
ferina
fernando
ferner
ferte
fertejedje
fertejit
ferten
fertet
fertii
fes
festiva
festival
fet
fete
ff
ffa
ffe
ffemas
ffestohpu
ffi
fi
fiac
fiaktivista
fiba
ficedula
fidnemis
fidnet
fidnii
fidniiga
fidnoautorisas
fidnodagaide
fidnodagain
fidnodagas
field
fiellojohgorz
fiellu
fierbmecuzzii
fierbmi
fierpma
fievrredit
fievrriduvvon
fifa
fight
figuvrrat
fihc
fiidna
fiila
fiilla
fiinna
fijisullot
fiktiivvalas
filbma
filbmabagadalli
filbmabagadallit
filbmadahkamin
filbmadahkki
filbmafestiva
filbmainstituhtta
filbman
filbmet
filbmii
file
fileavga
filioque
filip
filipendula
filippiinnat
fillui
film
filmfestival
filmma
filmmaid
filmmaide
filmmain
filmmas
filmmat
filmografiija
filomena
filosofa
filosofalas
filosofat
filosofi
filosofiija
fina
finai
final
finalista
finby
find
finland
finlandia
finma
finmarken
finn
finnair
finnemis
finnic
finnisch
finnma
finnmark
finnmarken
finno
finns
finnskogen
finsk
finspa
finst
fiorden
fire
firefox
firenze
first
fis
fischer
fisherman
fiskat
fiskes
fiskesbes
fiskescihci
fiskesgaccet
fiskesjievz
fiskesra
fiskesruoivil
fiskesviola
fisoahpamus
fistit
fit
fitjar
fitnan
fitnat
fitnodaga
fitnodagaid
fitnodagain
fitnodagas
fitnodagat
fitnodat
fitnodatolmma
fitnodatolmmos
fitnu
fitzgerald
five
fiz
fja
fjaler
fjell
fjellheim
fjellstue
fjord
fjordane
fjordar
fjældlapperne
fla
flag
flakstad
flammea
flatanger
flava
flavirostris
fleire
flekkefjord
fleming
fleminga
flen
flesberg
fleurs
flex
float
flora
floreahttamiehka
flores
florida
florø
floyd
flrw
flu
fluviatilis
flynn
flytande
fmx
fo
foalda
fofanoff
fofonoff
folk
folket
folklorista
folldal
following
fon
fonetihkalas
fonetihkka
fonologalas
fonologiija
font
fontsize
food
football
for
forbund
forcadell
force
ford
foremothers
forest
forhold
forlag
forlanda
forlandas
forliksra
form
forma
formans
format
formene
forms
formula
forn
forsa
forsacho
forskning
forssa
fort
fortellinger
forum
foruma
forvaltning
fosen
fosfa
fosnes
fossiila
fotonat
foundation
four
fr
fra
fragaria
fram
frameless
franc
france
frances
francesco
francis
francisco
franciscos
franco
frank
frankfurt
franklin
frankriika
frankriikalas
frankriikii
frankriikka
frankriikkas
frans
franska
franskalas
franskkalas
franz
frary
frau
fre
fred
freddie
frederick
fredericka
frederik
fredrik
fredrika
fredriksen
fredrikstad
free
freebsd
freedom
freestyle
freiburg
frem
fremja
fremst
frerk
frette
freud
freuda
friant
frica
frida
friddja
friddjan
friddjavuhtii
friddjavuohta
friddjavuođa
friddjavuođaid
friddjavuođat
friddjavuođavuoigatvuođat
fridman
friedrich
friija
friijavuođa
friis
friisagiella
fringilla
fringillidae
fritz
friuli
fro
frode
frogn
from
fron
frost
frosta
frp
fru
frugilegus
fruvva
fu
fukui
fukuoka
fukushima
fulica
fuligula
full
funereus
funks
funksjonen
fuobma
fuoisku
fuola
fuolaha
fuolahii
fuolahit
fuolakeahtta
fuolatkeahtta
fuolkegielain
fuolkegielat
fuolkegiella
fuolkevuohta
fuolki
fuoma
fuomas
fuona
fuones
furtado
fus
fusa
fusca
fuscatus
fuscus
futuna
futunasullot
future
fuðborgarsvæðið
fylka
fylkan
fylkasa
fylke
fylkesmannen
fylkii
fylkka
fylkkadiggeva
fylkkagielda
fylkkagielddas
fylkkaid
fylkkain
fylkkala
fylkkama
fylkkara
fylkkas
fylkkasa
fylkkasuohkan
fylkkasuohkana
fylkkasuohkanis
fylkkat
fylogenehtalas
fysalas
fysihka
fysihkain
fysihkalas
fysihkar
fysihkka
fysihkkaba
fysihkkar
fysika
færder
førde
først
første
g
ga
gabon
gaborone
gabriel
gac
gacaca
gaccat
gaccepas
gaccepat
gaccet
gadoalli
gadoallin
gadoallit
gaelagiella
gaetano
gagarin
gahc
gahperba
gahperma
gahpervizar
gahpervuođđu
gahpir
gahpira
gahpirat
gahpiriin
gahpiris
gahr
gahtta
gahttit
gaid
gain
gajanas
gajođiheaddji
gajođiheaddjin
gal
gala
galactotes
galaksaid
galaksain
galaksajoavkkuid
galaksajoavkkut
galaksat
galas
galba
galbarihcci
galbma
galbmasa
galbmasis
galdhøpiggen
gale
galegogiella
galerida
galerie
galga
galgan
galge
galget
galgga
galggai
galggan
galggas
galggat
galileolas
galle
gallen
gallery
gallestalliin
gallinula
gallis
galljot
gallo
galmmas
galmmiha
galva
galæd
gama
gambia
game
games
gamla
gamle
gamus
gan
ganat
gandhi
ganes
ganin
ganvuođa
gao
garas
garci
gard
garden
gare
garfield
gargŋil
garonne
garra
garrasat
garraseabbo
garraset
garrasit
garrii
garrulus
gary
gas
gaska
gaskaa
gaskaboddosas
gaskaeatnamii
gaskaguhkkosas
gaskaija
gaskal
gaskameara
gaskamuttus
gaskan
gaskaneaset
gaskaoapmi
gaskaoapmin
gaskas
gaskasas
gaskasudanalas
gaskavoka
gaskavuohta
gaskavuođa
gaskavuođaid
gaskavuođat
gaski
gaskii
gaskka
gaskkaid
gaskkain
gaskkal
gaskkalduhtii
gaskkamus
gaskkas
gaskkat
gaskkohagaid
gaskkustit
gasku
gassa
gassanjunni
gassat
gastallamat
gastallan
gastallat
gat
gate
gates
gauguin
gaular
gaulle
gaup
gaupa
gaupe
gauriloff
gauss
gav
gava
gavia
gavja
gaz
gazette
gazetteer
gazza
gazzaloddi
gazzalottit
gb
gc
gdan
gdansk
ge
gea
geafes
geafesvuođa
geafimus
geafit
geahc
geahca
geahnohis
geahpadeppon
geahpedit
geahpes
geahpesboras
geahpesborrasii
geahpesda
geahpesmorc
geahpil
geahppa
geaid
geaidda
geaidnu
geaiga
geain
geainna
geainnu
geainnuid
geainnut
geaisa
gealddu
gealdu
gealla
gean
geange
gearbmas
geardde
gearddi
geardduhii
geardduhit
geardi
geargan
gearggai
gearpmas
geas
geasa
geassa
geassea
geassema
geasset
geassi
geassit
geassu
geasuha
geasuhit
geat
geatki
geatkki
geatnegahtta
geatnegahtton
geatnegasvuohta
geatnegasvuođa
geatnegasvuođaid
geatnegasvuođat
geavadis
geavaha
geavahan
geavaheaddji
geavaheaddjit
geavaheamen
geavaheami
geavaheamis
geavaheapma
geavaheapmi
geavaheddjiid
geavahedje
geavahettiin
geavahii
geavahis
geavahit
geavahusas
geavahussii
geavahuvvo
geavahuvvojedje
geavahuvvojit
geavahuvvon
geavahuvvot
geavahuvvui
geavat
geavatlas
geavleoarit
geavu
geavva
geaz
geađgea
geađgera
geađges
geađggi
geađggis
geađggit
geađgi
gec
gefiid
gefiide
gehc
geidnosis
geir
geiranger
gelaltar
gelbbolas
gelo
gen
gena
genat
genehtalas
genera
general
generation
genesis
genetiiva
geneve
genitiiva
genitiivaha
geno
genoma
gentilis
geogra
geografi
geografiija
geografiske
geograph
geologalas
geometriija
georg
george
georges
georgia
georgias
ger
gerd
gerddiid
gerhard
gerhardsen
germa
germain
german
germanischen
germany
germunda
gertrud
ges
get
gez
gg
gga
gge
ggejuvvo
ggi
ggoba
ggojohtimiid
ggu
ghana
ghanalas
ghanas
ghost
gi
gida
gidan
giddagasas
giddagasat
giddagasra
giddagassasat
giddagassii
giddagassiihttps
giddejedje
giddejuvvon
giddejuvvui
giddemii
giddet
gidii
gidit
giduvvo
giduvvojedje
giduvvojit
giduvvon
giduvvui
gieallaoahppa
giebmega
gieddemuorji
gieddesa
gieddesta
giegabiiga
giehka
giehpavuonccis
giehta
giehtac
giehtaspa
giehtavuona
giehtavuotna
giel
giela
gielaid
gielaide
gielaiguin
gielain
gielalas
gielas
gielat
gielda
gieldan
gieldat
gieldda
gielddaid
gielddain
gielddara
gielddas
gielddasa
gielddat
gielddava
gielddus
gielkka
giella
giellabearras
giellabeasi
giellabeasit
giellabeassedoaibma
giellabeassi
giellabesiid
giellada
gielladiehtaga
gielladieđa
gielladieđalas
gielladiks
gielladutkama
gielladutkan
gielladutki
gielladutkit
giellaeala
giellaga
giellagas
giellagodda
giellaguovdda
giellaguvlui
giellahistorja
giellahistorjja
giellajoavkku
giellala
giellan
giellaoahpahus
giellaoahpalas
giellaoahppa
giellapolitihkka
giellasymbolama
giellatekno
giellateknologiija
giellavealgu
giellun
giemaja
giemajoga
giemajohka
giemasa
giepma
giera
gierda
gierdoc
gierdoma
gierdora
gierdosevnnjodeapmi
gierdu
gierdugovva
gievkkan
gievra
gievrras
gievrrat
gieđahalai
gieđahalla
gieđahallama
gieđahallan
gieđahallat
gieđahallet
gieđahallo
gieđaid
gieđaide
gieđain
gieđas
gieđat
gif
gifu
gihligodda
gihpu
gihttel
gihttela
gii
giid
giige
giin
giita
giittii
giitu
gila
gilbbesja
gilbert
gildii
gildojuvvon
gildojuvvui
giles
gili
giliide
giliin
gilis
gilit
giljobas
gilla
gillespie
gilli
gillii
gilvaleaddjit
gilvit
gilvohallan
gilvu
gilvui
gilvve
gilvvohalai
gilvvohallama
gilvvohallamii
gilvvohallamiin
gilvvohallan
gilvvohallat
gilvvohallet
gilvvohalli
gilvvohallit
gilvvu
gilvvuid
gilvvuide
gilvvuin
gilvvus
gilvvut
gime
gin
gina
giovanni
gir
girdet
girdi
girdima
girdin
girdinjohtolat
girdinma
girdins
girdis
girdisa
girdit
girja
girje
girjeba
girjec
girjeca
girjeda
girjega
girjegiisa
girjelivkka
girjera
girji
girjie
girjja
girjjalas
girjji
girjjiid
girjjiide
girjjiin
girjjis
girjjistis
girjjit
girkku
girkkus
girko
girkoc
girkoga
girkogilis
girkogilli
girkojahki
girkolas
girkonja
girkora
girkosiidda
girkosiiddas
girkovihaheami
girku
girkui
girkuid
girkuide
girkuin
girkun
girkus
girkusla
girkut
girl
girls
giron
girona
gironis
gironlasta
gis
giske
gita
gitarra
gitta
giulia
give
given
gizmodo
gizzut
giđa
giđđa
giđđac
giđđada
giđđadivgara
giđđalodden
giđđanuorsa
giđđat
gj
gje
gjek
gjekk
gjennom
gjerdrum
gjøvik
gl
gla
glacialis
glaciar
glandarius
glass
glauca
glaucidium
glaucoides
glenn
gliaseallat
glo
globa
global
globe
glomma
gloppen
gloria
glossar
glu
gluteus
gnesta
gnosjo
gnu
go
goabba
goabbat
goahccemuorat
goahppilfa
goahta
goahti
goahtit
goaikkanasat
goallu
goalmma
goals
goalselottiide
goalssit
goappa
goappas
goarggu
goargohaŋŋa
goargŋut
goas
goasii
goaski
goaskimat
goaskin
goaskinva
goaskinviellja
goaskki
goasse
goassege
goassige
goastta
goasttadeaddjit
goasttideaddji
goasttideaddjit
goavddis
goađi
goaŧŧoc
goaŧŧu
gobind
goc
god
godda
goddalii
godde
goddesa
goddess
goddi
goddima
goddimiid
goddit
godes
godlewskii
gods
goes
goethe
gogh
goh
gohc
gohce
gohcet
gohppoga
gohte
gohtet
goikaduvvo
goikaduvvon
goikeguolli
goikka
goiku
goit
goitge
goittoge
goittot
goittotge
gojoga
gokc
gokko
gol
golas
golbma
golbmac
golbmanuppeloga
gold
golden
goldwater
golga
golggotma
golggus
golgi
golla
golle
gollegiela
gollegiella
gollemeda
gollenja
golleozat
gollera
golli
gollis
golmma
golmmac
golmmaoktasas
golmmas
golpajegan
goluid
golut
gomuvuhtii
gomuvuohta
gomuvuođa
gomuvuođas
gonagas
gonagasa
gonagasaid
gonagasas
gonagasat
gonagasgoddi
gonagaslac
gonagaslas
gonagasriika
gonagasriikii
gonagasriikka
gonagasriikkas
gonagassan
gonagassii
gonagasviessu
gonagasviesu
gone
gonza
good
goodbye
google
gopma
gora
goralas
gorcum
gorda
gordon
goris
goros
goroz
gorro
gorrojuvvon
gorron
gorrot
gorski
goruda
gorudis
goruhii
gorut
gorz
gos
gosa
gosahat
gosnu
gosławski
got
gotla
gotta
gotti
gottii
gottiid
gottis
gourd
gov
gova
govahallat
govaid
govain
govas
govat
govc
govda
govdat
govddimus
govdodat
govdu
govern
government
govttolas
govuskuolfi
govva
govvac
govvada
govvagirji
govvajeaddji
govvan
govvara
govvateaksta
govve
govvejeaddji
govvejeaddjin
govven
govvet
govvida
govvideaddji
govvidii
govvidit
goya
goz
gozihit
gozuid
gođii
gođus
gođusoahppa
gođđosat
gođđosiid
gođđosiidda
gođđosiin
gra
grace
grafihkar
grafiikkaa
graham
grama
gramm
grammar
grammatica
grammatihka
grammatihkalas
grammatik
grammatikk
grammy
gran
granada
grand
grande
grandma
gransholms
granvin
gravita
gravitas
gray
grc
great
greatest
greavva
green
gregoria
gregorius
greika
greikagielas
greikalac
greikalas
greikii
greikka
greikkagiela
greikkagiella
greikkagillii
greikkalas
greikkas
grenada
grenadiinnat
gri
grid
grieg
grigori
grisegena
gro
group
gru
grunnla
grunnskole
gruppe
grøvan
gs
gss
gsw
gsøy
gu
gua
guadalajara
guadeloupe
guam
guanacaste
guangxi
guaniidna
guatemala
guatemalas
guayana
guayaquil
gud
gudmund
gudneba
gudnejahttojumi
gudni
gudnin
gudrun
guerra
guhka
guhkes
guhkesa
guhkesbearjadat
guhkesgirku
guhkesperiodalas
guhkibut
guhkimus
guhkit
guhkka
guhkki
guhkkin
guhkkodaga
guhkkodat
guhkkodatnjuikemis
guhkkodatnjuiken
guhkkosas
guhkku
guhku
guhte
guhtege
guhtemus
guhtet
guhton
guhtta
guhtur
guia
guide
guido
guila
guillermo
guimmiideaset
guin
guinea
guipu
gujaratagiella
guksi
guksin
guktie
guktii
guktot
gul
gula
gulahallan
gulahallangaskaomiid
gulahallet
gulai
gulatgo
guldaleddjiidis
guldalit
guldalmas
gulen
gulesider
guliid
guliin
gulla
gullaba
gullan
gullat
gulle
gullet
gullevac
gullevas
gulli
gullo
gullojedje
gullojit
gullspra
gullui
gulul
gumpe
gumposat
gun
gundert
gunma
gunnar
gunvor
guobbarat
guoddit
guohtumii
guoibmi
guoikga
guoimmuhanprogra
guoimmuheapmi
guoiratra
guokta
guokte
guoktelogiviđat
guoktenuppeloga
guokteta
guola
guolbma
guolga
guolggat
guoli
guolit
guollebiepmahat
guolleha
guollemuorran
guolli
guora
guorahalai
guorahallamiin
guorahallan
guorahallat
guorahallojuvvojit
guoras
guoros
guorosvuohta
guorrat
guoska
guoskameahttun
guoskat
guoskevas
guoski
guossa
guossaba
guovdageaidnu
guovdageaidnulac
guovdageaidnulas
guovdageaineanu
guovdageainnu
guovdageainnus
guovdageidnui
guovdda
guovddas
guovdogielddat
guovdu
guovllu
guovlluguovdasas
guovlluha
guovlluid
guovlluide
guovlluin
guovllupolitihkar
guovllus
guovllut
guovlogielda
guovlogieldda
guovlogielddain
guovlogielddat
guovlogildii
guovloha
guovlojuohkin
guovlu
guovlugielda
guovlugildii
guovlun
guovssahasat
guovssat
guovssoloddi
guovtta
guovtte
guovttegielat
guovttela
guovttesa
guovtteta
guovtti
guovttis
guovttos
guovvama
guovz
guođđa
guođđit
guru
gurut
gurutbealde
gurutbeale
gurutbellodaga
gurutbellodagain
gurutbellodat
gurz
gus
gusas
guske
gusket
gussa
gussagoalsi
gustaf
gustafa
gustav
gustave
gustavi
gustavs
gustavsen
gusto
gutie
gutni
gutte
guttorm
guttormsen
guvlui
guvttiid
guvttiidlohku
guvttiin
guvvan
guy
guyana
guðnado
guđa
guđat
guđe
guđege
guđek
guđelagan
guđenai
guđet
guđetge
guđetgela
guđetla
guđetlagan
guđii
guđik
gw
gwadarii
gwenfro
gwynedda
gyatso
gæc
gærja
gøy
h
ha
haabersti
haaga
haakon
haakona
haamilas
haapaja
haapajoki
haapakoski
haapala
haapalahti
haapama
haapaniemi
haapasaari
haapasalo
haapavesi
haapavesis
haavisto
habita
habitual
habyarimana
hac
hadde
haddi
hadron
hadu
haga
hagaid
hagas
hagat
hagen
hagman
hahkii
haikola
hailey
hailuoto
haiti
hakkila
hakola
hala
halai
halden
haliaeetus
halikon
halkivaha
hall
halla
hallama
hallan
halle
hallelujah
hallitus
hallstahammar
halmeja
halmstad
halonen
hals
halstemjeegi
halsua
haltta
halvparten
ham
hamar
hamina
hammerfest
hammond
hampshire
hamula
han
hand
handboek
handbuch
hande
hands
hanes
hangul
hanhija
hanja
hankasalmi
hanna
hannele
hannibal
hanning
hannu
hanoi
hans
hansaga
hansalihtu
hansen
hansena
hanssen
hantigiella
hanuman
har
harald
hard
hareid
hareide
harjavalta
harju
harjumaa
harlem
harold
harpercollins
harri
harriet
harry
harstad
hartikkala
hartley
hartola
harvey
has
haspelmath
hassan
hasselbrink
hasvik
hat
hatla
hatti
hattula
haugesund
haukilahti
haukipudas
haukka
hauptbahnhof
haus
hausja
haut
haute
hautes
hava
have
havomra
hawaii
hawaiisullot
hawking
hayden
haz
haŋŋa
hc
hca
hcahallanc
hcai
hcatloddi
hcavuona
hcavuotna
hcca
hccama
hccat
hccavuona
hccavuotna
hcce
hccet
hce
hceda
hcefa
hcega
hceloddi
hcelottit
hcera
hcesullo
hcesullos
hcesuolu
hcevuonca
hcevuonccis
hci
hcu
hd
hde
hdr
he
hea
heabus
head
header
heahta
heahtedilis
heaika
heaisa
heaissa
heaita
heaitit
heaittihii
heaittihit
heaittihuvvo
heaittihuvvon
heaittihuvvui
heajos
heajumus
heakkas
heanalas
heandarat
hear
heargevuodjimat
hearggi
heargi
hearki
hearra
heart
heartavizar
hearva
hearvaba
hearvama
hearvvain
hearvvat
heasta
heastafa
heastan
heastana
heastta
heasttaid
heasttaide
heasttain
heasttat
heath
heatta
heaven
heavvaneapmi
heavy
heavyjoik
heađis
heaŋga
hebreagiela
hebreagillii
hector
hedemora
hedje
hedjona
hedma
hedmark
hedvig
hee
heft
hege
hehpos
hehtte
hehttejedje
hehttejit
hehttema
hehtten
hehttet
hei
heidi
height
heikki
heikkila
heikkinen
heikkuri
heilage
heile
heimo
heina
heino
heinola
heinrich
heittii
heive
heivehallat
heivehan
heivehuvvon
heivejit
heiven
heivvolas
hejolojla
helander
helandera
hele
helen
helena
helene
helenius
helga
helge
heli
helium
hell
hella
hellaakoski
hellas
helle
hellevi
helmi
helsingfors
helsingin
helsinki
helssega
helssegis
helsset
helvi
hemming
hemmo
hendrik
henk
henning
henri
henriette
henrik
henriksen
henry
hepatica
hepojoki
her
hera
herbert
hercegovina
here
heredia
herman
hermann
herrala
herrarna
herrene
herrga
herrmann
herskedala
hertta
herttoniemi
herttot
herttuala
hervejuvvo
hervejuvvon
herøy
hesse
hesses
het
hetta
hetteen
heŋgenmohtorra
hh
hhohho
hi
hia
hide
hieraaetus
hietama
hietanen
hietaniemi
higgsa
high
hihta
hii
hiid
hiippakunta
hiisi
hilaire
hilda
hilde
hilggui
hilkka
hill
hillary
hillevi
hin
hindigiella
hindulas
hintsala
hip
hippolais
hira
hiragana
hiraganas
hirbmat
hirmuinen
hiroshima
hirundinidae
hirundo
hirvas
hirvasvuopio
hirvela
hirvensalmi
hirvija
hirvikoski
hirvonen
his
hispanica
hispaniolensis
histo
histologiija
historia
historiaa
historie
historien
historihkar
historihkka
historisk
historiska
historiske
historja
historjja
history
hit
hitchcock
hitchens
hitler
hitra
hits
hjelpemal
hjelpemaler
hjem
hjerteknuser
hjo
hka
hkaa
hkada
hkadan
hkadeaddji
hkadeaddjit
hkadeamis
hkadeapmi
hkadedje
hkadeigga
hkadii
hkadis
hkadit
hkadoalli
hkadoallin
hkadus
hkadusa
hkadusain
hkadusat
hkaduvvo
hkaduvvojit
hkaduvvon
hkaduvvot
hkaduvvui
hkai
hkan
hkanja
hkara
hkas
hkat
hke
hkehahtti
hkesvuohta
hket
hki
hkida
hkidii
hkidit
hkii
hkis
hkistatgo
hkisvuohta
hkisvuođa
hkit
hkka
hkkabreahtta
hkkanemiin
hkkanus
hkkera
hkkestaga
hkket
hkki
hkkilsa
hkkimis
hkkoma
hkkor
hkku
hkkun
hko
hku
hkus
hkut
hl
hlberg
hlist
hn
hnear
hnemat
hnemiid
hnemiiddis
hnemiin
hnenguovttos
hnenovddasva
ho
hoas
hoavda
hoavdan
hobbit
hobøl
hoch
hodet
hodgsoni
hof
hofors
hogue
hoi
hoist
hokkaido
hokksund
hold
hole
holla
holland
hollola
holm
holmberg
holmestrand
holokausta
holosena
holstein
home
homma
homo
homogenalas
honda
honduras
hondurasa
hong
hongisto
honkajoki
honnesva
honolulu
honshu
hop
horbma
hordala
hordaland
horisonta
horisontac
horisonttas
horisonttat
horizontal
hornemanni
hornindal
horoskohpaid
horse
horses
hortulana
hos
hospital
hot
hotealla
hoteallas
hotel
houdini
house
housing
hovedstaden
hover
hovmantorp
hovmantorpa
hovudma
hovudsakleg
how
howard
hoŋkoŋ
hp
hpa
hpaid
hpain
hpal
hpan
hpana
hpangiela
hpanii
hpanis
hpat
hpedorpmis
hpedovtta
hpegirku
hpeha
hpelottit
hpenja
hpi
hpis
hpoluobbala
hpoluobbalis
hpoluoppal
hppa
hppan
hppat
hppavuohta
hppes
hppesbuokc
hppesgaccet
hppesnjukc
hppesra
hppesva
hppi
hppon
hppot
hppu
hppui
hpv
hr
hrihat
hrit
hrung
hrys
hs
hsb
hta
htaboarga
htac
htadutkosa
htaeallima
htaid
htaide
htain
htalac
htalas
htalaz
htaministara
htaministarat
htaministtar
htaministtarin
htamus
htan
htanjuolggadusa
htaoaiva
htaolmma
htara
htaran
htareaddji
htareaddjigirku
htareaddjin
htaredje
htarii
htarit
htarusis
htarussii
htas
htaskuvlii
htaskuvllat
htat
htava
htavuoga
hte
htengielat
htengillii
hter
htera
hterbihta
hterbihtta
hterc
hteris
hterjoavkkut
htes
htet
htii
htm
htme
html
htmlhttp
htmlhttps
htolas
htonat
htor
htora
htorat
htoris
htt
htta
httan
htte
httejeaddji
httema
httemis
htten
httengielat
httengillii
httet
htti
httii
httit
httje
http
https
httu
htu
htuid
htun
htus
htusa
hu
huang
hubble
hubmiin
hubmit
hubmojuvvo
hubmojuvvui
hudson
huehuetenango
huelva
huesca
hugo
huhtama
huhti
hui
huitfeldt
huittinen
huksejedje
huksejuvvo
huksejuvvon
huksejuvvui
huksema
huksemis
huksen
hukset
huksetkursa
hulluus
huma
human
humanisttalas
humei
humor
humora
humppila
hunter
huomiota
huovi
hupma
hupmamis
hupmanguovlu
hupmanolmma
hupmat
hupme
hupmet
hupmi
hupmiin
hupmojuvvo
hupmojuvvui
hupmon
hurdal
hurri
hurtigrutefanas
hurum
hus
husa
husaid
husaide
husain
husas
husat
husby
huset
hush
hussan
hussein
hutkan
hutki
hutkkai
hutkojuvvon
hutkosa
hutkosat
hutu
hutuha
hutuid
hutuin
hutujoavkkuid
hutunjunnoz
hutut
hutuva
huuto
huvai
huvas
huvva
huvvan
huvvat
huvve
huvvet
huvvo
huvvon
huvvui
hva
hvaler
hvis
hwnn
hy
hydrogena
hydrogenc
hyemalis
hyllestad
hylte
hyman
hyo
hyperboreus
hypoleuca
hypotehtalas
hypotermiija
hyrkka
hyrynsalmi
hyva
hyvinka
hyyryla
hær
hærra
hætta
høgare
høgnorsk
høgskole
høgskolen
høgste
høiby
høie
høland
høyanger
høybra
høyere
høyres
i
ia
ian
iba
ibada
ibaraki
ibbas
ibbi
ibbiid
ibc
ibega
ibejov
ibenik
ibi
ibida
ibidedje
ibidit
ibiduvvo
ibiid
ibit
ibitdoavttir
ibmel
ibmo
ibmobisa
ibmogearda
ibmogovva
ibmokirurga
ibmonuoskkideapmi
ibmora
ibmosa
ibmosat
ibmosiin
ibmosis
ibmospa
ibmosuonaid
ibmosuonat
ibmouvssohat
ibmu
ibmui
ibsen
ibsena
ic
icama
icamis
ican
icat
iccastagaid
iccastagain
iccastagat
ice
icelandic
ich
icojuvvojit
icon
icterina
ictr
icu
id
ida
idaea
idaga
idagiid
idaho
idalasa
idalit
idalusat
idanleavttu
idbla
idda
iddaba
iddac
iddaguovdda
iddalas
iddamusea
iddar
iddauniversitehta
idde
iddoavttir
iddu
idduid
idduin
iddumus
iddus
iddut
ide
idea
ideaid
ideaset
idehus
idej
ideja
iden
identifiserema
identitehta
ideologiija
idet
idga
idgirjec
idgirji
idgirjji
idgirjjiid
idgirjjit
idi
idii
idima
idimiid
idis
idit
idja
idjadanba
idkonvens
idla
idma
idmeannu
idna
idnasa
idnasat
idnasiid
idnes
idni
idnit
idnosa
idnosat
idnu
idogovaid
idogovaide
idogovvada
idols
idroma
idskuvla
idskuvlla
idskuvllas
idskuvllat
idsullo
idsuodjalus
idsuodjalusa
idsuodjalusba
idsuolu
idtea
idu
iduvvan
iduvvet
ie
ieatnanlas
iega
iegaga
iegagat
iegahas
iegar
iegat
iegus
ieh
iehc
iehka
iehp
iehpe
iehpit
iehtadallanvuoigatvuođa
iehtadus
iehtadusa
iehtadusat
iejka
iejme
iejte
iekc
iekŋaleamos
iekŋalis
iele
ielga
ielgan
ielgasa
ielgasit
ielgeađa
ielgeađđama
ielgeađđamis
ielgeda
ielggadan
ielggademiin
ielggadii
ielggadit
ielggai
ielggas
ielggi
ielgi
iellaspeajal
ielle
iellit
iellun
iellup
ielluseh
ielluska
ielluteh
ielluten
ien
iep
iepa
ierastit
ies
ievc
iez
iezas
ieŋal
if
ifa
iga
igangsett
igarat
igasas
ige
igeahc
igeassu
igeava
igec
igeguovdil
igeguovdilis
igemearkkas
igemeel
igga
igge
iggi
iggiid
iggiin
iggis
iggit
iggu
iggui
iggun
iggut
igi
igin
igjen
iglesia
iglu
igna
ignacio
ignicapilla
igodaga
igodagaid
igodagas
igodahkii
igodat
igor
igot
igu
iguin
igumenia
igumus
ih
ihalainen
ihc
ihkenassii
ihkku
ihkosii
ihnegaccepat
ihnegaccet
ihnelottit
ihni
ihnniide
ihnnit
ihpe
ihpit
ihta
ihtet
ihttin
ii
iid
iidda
iide
iidna
iige
iigo
iiguin
iii
iin
iinna
iinnat
iiro
iirragiella
iisakki
iisalmi
iitia
iitti
ij
ija
ijagiel
ijagiella
ijahis
ijaid
ijas
ijat
ijatbeaiva
ik
ika
ikaalinen
ike
ikea
ikemearkkas
ikenama
ikenamaid
ikenamat
ikenamma
iki
ikin
ikistan
ikit
ikka
ikkalas
ikke
ikki
ikkiid
ikkiide
ikkiin
ikkis
ikkistis
ikkit
ikkje
ikko
ikkuha
ikkuhan
ikkuhanva
ikkuheaddji
ikkuhedje
ikkuhii
ikkuhit
ikkuhus
ikkuhusa
ikkuhusaid
ikkuhusat
ikola
ikona
iks
iksa
ikte
ikŋodaga
ikŋodat
il
ila
ilaavlakirje
ilbma
ilbman
ilbmi
ile
ilevas
ilevuođaid
ilge
ilgehus
ilgehusa
ilgejuvvo
ilgejuvvon
ilgejuvvot
ilgen
ilget
ilgii
iliacus
ilit
ilju
iljuin
iljus
iljut
ilkka
illa
illatiiva
illatiivvas
illinois
illjocihcelottiide
illjocihcelottit
illjocihci
illjocizit
illju
illjui
illjus
illohac
illohas
illustras
ilma
ilmajoki
ilmari
ilmarinen
ilmestyi
ilmma
ilmmai
ilmme
ilmmea
ilmmemeas
ilmmesoahti
ilmmesoađi
ilmmi
ilmmia
ilmmiid
ilmmiloahpa
ilmmimeas
ilmmiolahusat
ilmmis
ilmmisoahti
ilmmisoađi
ilmmisoađis
ilmmiviidosac
ilmmiviidosas
ilmo
ilo
iloinen
ilola
ilomantsi
ilot
ilpo
ilta
iltalehti
ilu
ilulissat
ilves
im
ima
image
images
imagesize
imama
imas
imatra
imdb
ime
img
imir
immaldat
immanuel
immer
immesoađi
immu
immunitehta
immus
immuscuozza
immusfa
immussyntesa
immuvdnaseallat
immuvdnavuoga
imot
imperatiiva
imperatiivan
imperatiivva
impola
impulssaid
in
ina
inactivity
inari
inarin
inarinsaamen
inc
increment
incubator
ind
independentista
inderøy
index
india
indiaa
indiai
indialas
indian
indiana
indias
indigenous
indikatiiva
indikatiivva
indiviidat
indo
indoa
indoarjalas
indoeurohpa
indoira
indonesia
indonesias
indre
industries
industriija
industriijas
ine
inec
inen
inena
inessiiva
infantil
infaustus
infeks
infinihttavearbbat
inflas
info
infoboks
infobovssat
infobox
informas
informasjon
information
infotiila
inga
ingalill
inge
ingeborg
ingebrigt
ingen
inger
inglinge
ingmar
ingolf
ingres
ingrid
ingvar
inha
inka
inkeri
inkeroisgiella
inkila
inklusiiva
inkoo
inline
inn
inna
innas
innasa
innasc
innasroma
innbyggere
innbyggjarane
innenansicht
innenraum
innir
innlandet
innuid
innus
innvandrarar
ino
inoculum
inom
inornatus
inostroza
ins
insitute
inspiras
instalerejuvvo
instalerejuvvot
instituhta
instituhtas
instituhtta
instituhttii
institus
institut
institute
instituto
institutt
instkode
insuliinna
integrerejuvvon
intellektua
interahamwe
interhamwe
interjeks
interna
internas
internasjonale
internationa
international
internationala
interneahta
interneahtas
interneahtta
internet
interwiki
intialas
into
intrigue
intro
introduction
inuhkaid
inuhkat
inuihtagielat
inuihtat
inuit
inuktitut
inuktitutagiela
inuktitutagiella
inuktitutas
inv
invaders
invadersa
invitational
io
iolbmo
iona
ionac
ionaid
ionan
ionat
ioniseren
iowa
ipa
iphone
ipma
ipmas
ipmil
ipmila
ipmilaeatni
ipmilat
ipmilba
ipmiliid
ipmiliin
ipmirdan
ipmirdit
iprage
ir
ira
irak
iraka
iran
irana
iranalas
iranas
iranis
irans
irasa
irasat
irasiid
irat
iraz
irene
irina
irja
irjala
irkutsk
irla
irma
irras
irrasin
irssat
iru
irving
is
isa
isaac
isabellina
isabellinus
isadora
isak
isaksen
isamaa
isavuona
isavuotna
isbn
iset
isfahan
isfahana
ishikawa
isi
isida
isidiinnis
isit
iskelottiide
iskelottit
iskes
isket
iski
iskis
iskkadeapmi
iskkademiid
iskkit
iskosa
iskosat
iskyla
isla
islam
islamabad
islamlas
island
isle
iso
isojoki
isokoski
isokyla
isokyro
isolerejuvvon
isotrohpalas
isotropiija
israel
israela
israelis
issa
issas
isseret
issevra
issn
issoras
istagat
istaleaddji
istaleamis
istaleapmi
istanbul
istria
istva
isy
isyyteen
it
ita
italan
italeigga
italia
italialas
italian
italiano
italias
italic
italii
italit
italkeahtes
italkeahtta
itamar
itatvulos
items
itilleq
itivdleq
itkonen
itkonena
itojuvvon
itosa
its
itsena
itta
ittardeaddji
ittjih
ittjij
ittjijka
ittjijmeh
ittjijmen
ittjijte
ittjijteh
ittjin
ittjiv
ittoqqortoormiit
ittosdili
ittosdilli
ittosearu
ittoslihttu
iucn
iurra
iv
iva
ivalo
ivan
ivanovo
ivar
ivc
ivdna
ivdnesa
ivdni
iver
ivga
ivgga
ivggaid
ivggat
ivggu
ivgi
ivgu
ivi
iviid
ivittuut
ivnnat
ivnni
ivnnit
ivuona
ivuonas
ivuotna
ivva
ivves
iw
iwan
iwate
ix
iz
izu
iđida
iđit
iđut
iđđes
j
ja
jaakko
jaala
jack
jackson
jacob
jacobsen
jacques
jae
jaenisch
jaettiin
jag
jaga
jagas
jage
jages
jagi
jagia
jagiid
jagiide
jagiin
jagis
jagit
jagland
jaglanda
jahka
jahkec
jahkema
jahki
jahpa
jahr
jai
jaid
jain
jakob
jakobstads
jalapa
jalasja
jalvi
jamaica
james
jan
janakkala
janarti
janas
janasa
jane
janez
janne
janneriitakorpi
jannok
jansson
janssona
japa
japan
jari
jaroslavl
jas
jaska
jaskat
jaskes
jaskesa
jason
jasuz
jat
jaufra
jaume
javier
jazyk
jazz
jdda
je
jea
jeaddjit
jeaggeviola
jeahka
jean
jearakeahtta
jearrat
jeavddalac
jeavddalas
jedje
jefferson
jeha
jehan
jehedje
jehii
jehit
jehki
jehusaid
jehuvvo
jehuvvojit
jehuvvon
jehuvvui
jeltsin
jemen
jemenlas
jen
jeniseilas
jenna
jenni
jennifer
jenny
jens
jensen
jeremy
jersey
jes
jesper
jessen
jessica
jesus
jesusa
jet
jevnaker
jewels
jezebro
jhkesne
ji
jia
jie
jiehki
jiehkki
jiehkku
jiehtanas
jiehtanassan
jiekŋa
jiekŋaa
jiekŋaguovz
jiekŋalahtta
jiekŋameara
jiella
jielleva
jielluma
jiena
jienaid
jienain
jienastan
jienastanvuoigatvuohta
jienastanvuoigatvuođa
jienaste
jienasteaddjit
jienasteamis
jienasteapmi
jienastemiin
jienastit
jienastuslohku
jienastuslohkui
jienat
jierbma
jierets
jierpmi
jietna
jietnaba
jietnadagat
jietnadatoahppa
jietnadeapmi
jietnaduvvo
jietnagirji
jietnagirjin
jietnaneavtta
jievja
jievz
jieŋa
jieŋat
jigme
jih
jihde
jiid
jiin
jikŋon
jil
jim
jimmy
jin
jingle
jis
jit
jitnosit
jitzhak
jj
jna
jnoeh
jo
joa
joachim
joakim
joan
joaquim
joatka
joatkas
joatkit
joatkkaskuvla
joatkkaskuvlla
joatkkaskuvllat
joatkkasoahti
joatkkasoađi
joavda
joavkku
joavkkui
joavkkuid
joavkkuide
joavkkuiguin
joavkkuin
joavkkus
joavkkut
joavkogoddimat
joavkogoddimiid
joavkogoddin
joavku
joavkun
joavkut
job
jobs
joe
joel
joensuu
joga
jogain
jogas
jogat
jogo
joh
johan
johanas
johanasa
johann
johanna
johannes
johansen
johansson
johka
johkamohki
johkamohkis
johkamohkki
johkaroggi
johke
johkh
johkii
john
johnny
johnsen
johnson
johta
johtalanluomusvuohta
johtalat
johte
johtet
johtil
johtilabbot
johtilis
johtilit
johtimii
johtin
johtit
johtolagat
johtolat
johtta
johtti
johttisa
johtui
joik
joiken
joka
jokela
joki
jokikyla
jokioinen
jokivarsi
jokkmokk
joks
joksanmearrin
joksat
jokŋa
jokŋanieiddas
jokŋas
jomppanen
jon
jona
jonas
jonbargi
jondal
jones
jong
joo
joona
joonas
jorba
jorbbas
jorda
jordania
jorddmo
jordi
jordis
jorgal
jorgalan
jorgaleaddji
jorgaleaddjin
jorgaleaddjit
jorgaleami
jorgaleapmi
jorgalii
jorgalit
jorgalus
jorgalusa
jorgalusat
jorgaluvvon
jori
jorma
joroinen
jorra
jorret
jos
jose
josef
josep
joseph
joshua
jostain
jotke
jotkkii
jouko
joulun
jouni
journal
journalista
journalistta
journalisttat
jouste
joutsa
joutseno
jovkkoz
jovkui
jovna
jovnna
jovsset
jođa
jođas
jođe
jođiha
jođihan
jođiheaddji
jođiheaddjin
jođiheaddjit
jođiheami
jođihedje
jođihii
jođihit
jođihuvvon
jođii
jođit
jođus
joŋaid
jpeg
jpg
jr
jre
ju
juan
juankoski
judit
juga
jugii
jugosla
jugoslavia
jugoslavias
jugus
juha
juhan
juhani
juhka
juhkamus
juhkat
juhket
juhkkojuvvo
juhkkojuvvojit
juhkkojuvvon
juhkkojuvvui
juhkkon
juho
juhusat
jukka
juksojuvvon
jules
julev
julevsa
julga
julggas
julggiid
julggiin
juli
julia
juliana
julie
julio
julisteita
julius
julkaisuja
july
jumhu
junior
junna
junqueras
juo
juoba
juobe
juoga
juogadeapmi
juogadit
juogaduvvon
juogala
juogaman
juogo
juogot
juogu
juohka
juohkas
juohke
juohkehac
juohkehas
juohkela
juohkin
juohkit
juoida
juoigan
juoigi
juoigiid
juoigit
juoksa
juolgela
juolggi
juolggit
juolgi
juolludit
juolluduvvui
juopmos
juos
juovlabiebmu
juovlala
juovlama
juovlamuorra
juovlaruohta
juovlaskeaŋkkat
juovlasta
juovllaid
juovllat
juovllatbeavdi
juovvaga
jupitera
jur
jura
juratsagiella
jurdaga
jurdagat
jurdagiid
jurdagiidda
jurdda
jurddabohtosiid
jurddas
juri
juridihka
juridihkalas
jurista
jurjen
jurvala
jus
juss
jussi
just
justa
juste
justify
justin
jut
jutiapa
juuka
juupajoki
juuso
juva
juvdda
juve
juvva
jylha
jylla
jynx
jyp
jyrki
jyva
jæd
jødar
jølster
jørgen
k
ka
kaama
kaari
kaarina
kaarlo
kaass
kaavi
kabelva
kabul
kac
kaczyn
kadat
kagawa
kagoshima
kahlo
kai
kainu
kainuu
kaira
kairo
kaisa
kaitainen
kaivola
kajaani
kajala
kajava
kala
kalaallit
kalainen
kalajoki
kaleandar
kaleandara
kaleandargaz
kaleandarođas
kaleanddarma
kaledonia
kalela
kalervo
kalevala
kalevalas
kalevi
kalifa
kalifornia
kalifornias
kaliningrad
kaljulaid
kalkutta
kalla
kallas
kalle
kallela
kallio
kalliokoski
kallis
kalmar
kalmara
kalstad
kaluga
kalvsvika
kamassagiella
kambodja
kamerun
kameruna
kamp
kamppi
kamprad
kan
kana
kanada
kanadalas
kanadas
kanagawa
kandida
kangaatsiaq
kangas
kangasala
kangaskyla
kangaslampi
kangasniemi
kangura
kanjona
kanjonala
kankaanpa
kankainen
kankare
kannattaa
kannisto
kannonkoski
kannus
kanonalas
kansas
kanssa
kant
kanta
kantabria
kantala
kantokyla
kantola
kantona
kantonat
kantuvra
kantuvrrat
kap
kapealla
kapell
kapihttal
kapihttalis
kapilla
kapillearaid
kapteainna
kar
karachi
karakorpi
karakterisere
karankama
karasjok
karaz
karboksylajoavku
karbondioksiidda
kardina
karen
karhi
karhula
karhunpa
karhusaari
kari
karijoki
karim
karin
karine
karisto
karitia
karjala
karjalainen
karjalan
karkkila
karl
karlovac
karls
karlsen
karlskrona
karlstad
karman
karmøy
karolina
karoline
karrieara
karriera
karsten
karstula
kart
kartano
kartanon
karvala
karvan
karvia
kas
kasakstan
kashmirlastavizar
kaskinen
kasperi
kat
katakanas
katala
katalonia
katalonialas
kataloniassa
kataloniija
katalyhtat
kate
katedra
kategoralas
kategori
kategoriija
kategoriijat
kategoriseren
kath
kathmandu
kathryn
kati
katja
katoavat
katoda
katolalac
katolalas
katolihkalas
katri
katrin
kattelus
katwijk
kauempaa
kauhajoki
kauhava
kaukasusa
kaukola
kauniainen
kaunis
kaunotar
kauppakeskus
kauppamies
kauppila
kauppilanma
kaupunki
kausa
kaustinen
kaustinena
kauto
kautokeino
kautokeinok
kawasaki
kayibanda
kazakstan
kazakstana
kazan
kbm
kc
kca
kce
kde
kdelibs
ke
keahtes
keahtta
keaisa
kec
kedah
keele
keenan
kefalalas
kehys
keiha
keiino
keijo
keila
keisa
keitele
keith
kekkonen
kela
keljo
kelttalas
kelvinii
kemal
kemerovo
kemi
kemiija
kemiijaba
kemiijalas
kemiijas
keminmaa
kemio
kemista
kempele
kemppila
ken
kenia
kenias
kennedy
kennet
kenny
kent
kentucky
ker
kera
kerava
kerima
kerman
kernowa
kernowis
kersti
kert
kerttu
kes
kesa
kesguovz
kesha
keski
keskikyla
keskinen
keskitalo
keskus
keskusta
kestila
ket
ketola
kettula
keuruu
keva
kevin
kevo
key
keyboard
keyritty
kg
khalid
khama
khan
khansar
khesar
khlong
khomeini
khomejni
khorasan
khorosan
khur
khuzestan
ki
kia
kiagiella
kibo
kid
kids
kiedis
kiel
kiela
kielen
kielet
kieli
kiella
kielra
kielten
kiera
kierla
kigala
kihnio
kii
kiikala
kiinna
kiinnittaa
kiiskila
kikyla
kilimanjaro
kilo
kilomehter
kilomehtera
kilpia
kim
kin
kind
kinda
king
kinnula
kinyarwandagiella
kiova
kirche
kirdadzim
kirgisistan
kiribati
kirik
kiril
kirila
kirja
kirjailijat
kirjala
kirjallisuuden
kirjasampo
kirje
kirke
kirkko
kirkkonummi
kirkon
kirkonkyla
kirov
kirste
kirsten
kirsti
kiruna
kis
kiskon
kiss
kita
kitaa
kitaas
kitee
kitti
kiuruvesi
kivija
kiviloo
kiviniemi
kivisto
kjell
kjem
kjent
kjo
kk
kka
kkain
kkam
kkan
kkastalla
kki
kkila
kkis
kko
kkolas
kkontakt
kkosgirji
kku
kkuide
kkus
kkyla
kla
klara
klassifiseren
klassihkalas
klaus
klavrestro
kleg
klege
klein
kleist
klemens
klemet
klemetti
klima
klimaet
klimt
kloastara
kloastarii
kloastariin
kloastaris
kloasttar
kloten
klubba
klubben
klæbu
km
knight
knin
know
knowledge
knr
knud
knut
ko
koalis
koasttida
kobber
koda
kodaid
kodat
kode
kodiakguovz
kodomo
kodona
kofi
kogd
kohgilujeh
koikkala
koillismaa
koistinen
koivisto
koivuja
koivukyla
koivuniemi
koivusaari
kokema
kokkila
kokkola
kokoomusa
kol
kolari
kolleks
kolmelle
kolmina
kolokani
kolombia
kolonialismma
kolonialisttalas
koloniija
koltansaame
koltansaamen
kom
koma
komas
kombinas
komedia
komehta
komehtaid
komehtan
komehtat
komi
komigiela
komigielas
komigiella
komihka
komihkka
komihkkar
komijazvas
komipermja
komipermjakgiella
komis
komisyrja
komitatiiva
komite
komitea
kommanda
kommenta
kommenteret
kommis
kommun
kommuna
kommune
kommunen
kommunereforma
kommunia
kommunikas
kommunisma
kommunismma
kommunisttalas
komoraid
komorat
komorosullot
komparatiiva
kompleaksa
komplett
komponeanttaid
komponista
kon
konditiona
konfera
konfereanssa
konfereanssas
kong
kongelige
kongen
kongens
kongeriket
kongo
kongolas
kongreassa
kongreassas
kongsberg
kongsbergas
konjugas
konjunks
konkola
konkurranse
konnevesi
konqueror
konrad
konsearta
konseartta
konsearttat
konsentras
konservatiiva
konsona
konst
konsta
konstantinopoli
konstitus
kontiolahti
kontraks
kontula
konvens
kooi
koordina
kopernika
kopierejedje
kopiija
koprivnica
kor
kora
korea
koreagiella
koreai
korealas
koreas
koreogra
koreografiija
korhonen
kornagiella
kornagillii
koronavirus
korpela
korpi
korpija
korpilahti
korpo
korsberg
korsna
kortnavn
korvald
korvalda
korvenkyla
kose
koskela
koskenkyla
koski
kosmalas
kosmologalas
kosmologat
kosmologiija
kosmona
kosola
kosovo
kosta
kostroma
kotar
kote
kotka
kotus
kou
koululaisroma
koutokeino
kouvola
kovaleanta
kr
kra
kramfors
krapina
krd
kring
krista
kristelig
kristian
kristiansand
kristiansund
kristiina
kristiinankaupunki
kristin
kristina
kristine
kristne
kristoffer
kristtalas
kristus
kristusa
kritihka
kritihkalas
kritihkka
kritihkkariid
kritisere
kritiserejuvvon
kriz
kro
kroa
kroatia
krogh
krokom
kromosomat
kronalas
kronobergga
kronologalas
kruger
kruunupyy
kruvnnaprinsa
kruvnno
krødsherad
ks
ksa
ksalas
kset
ksil
ksila
ksin
ksinen
ksit
kssjuo
kta
ktega
ktegovat
kteha
ktehoallu
ktehoalus
ktema
ktes
ktesa
kti
ktor
ktora
ku
kua
kubuntu
kudne
kuelnegk
kuhmo
kuhmoinen
kuhmunen
kui
kuin
kuinka
kuivaniemi
kujalleq
kujalleqa
kuka
kukkola
kukola
kulminerejuvvon
kultainen
kulttuurirahasto
kultur
kultura
kulturba
kulturbargi
kulturguovdda
kulturhistorjja
kulturminner
kulturmuittut
kultursearvi
kultuvra
kultuvraarkiiva
kultuvralas
kultuvrii
kultuvrra
kultuvrrain
kultuvrralas
kultuvrras
kultuvrrat
kum
kumamoto
kun
kunda
kungliga
kungsbacka
kungso
kuni
kuninkaan
kunne
kunnee
kunskaper
kunsthøgskolen
kuo
kuobz
kuokkala
kuopio
kuoppala
kuortane
kuparsaare
kuqi
kur
kurala
kurdisk
kuressaare
kurgan
kurgast
kurhila
kurikka
kurkela
kuro
kursa
kursk
kurssaid
kurssat
kurt
kuru
kustaa
kustavi
kuttila
kutvikling
kuupik
kuusamo
kuusankoski
kuusiogielddaid
kuusirati
kuusisto
kuusjoki
kuuslahti
kuusto
kuvansi
kuwait
kva
kvadra
kvalitehta
kvalsund
kvaløysletta
kvam
kvantagravitas
kvar
kvasa
kvasaraid
kveana
kveanagiella
kveanagillii
kveanat
kvenar
kvensk
kvinneprosenten
kvinner
kvinnherad
kvitsøy
kw
kyelisieidi
kyla
kylma
kymileagi
kymraeatnama
kymraeatnamis
kymragiela
kymragielat
kymragiella
kymragillii
kyo
kypros
kyrillalac
kyrillalas
kyrka
kyrkja
kyrkoby
kyro
kysten
kystlinja
kyto
kyu
kyyja
kyyna
københa
københavn
kŋoluokta
kŋoluovtta
l
la
laagendalsposten
laakk
laakkola
laavla
laba
labba
labeaivi
label
labero
lac
lacta
lacuna
lad
lademokra
lademokratiija
laden
ladiagra
ladni
ladorvui
ladorvvu
lady
lafierdda
lag
laga
lagabui
lagabus
lagaid
lagamus
lagamusta
lagas
lagasbirasguovdda
lagasguovlluin
lagat
lagercrantz
lagerlo
lagiela
lagiella
lagirjera
lagið
lago
lagomuvuođa
lagopus
lagos
lah
lahden
lahdenkyla
lahdenpera
laheadju
laheaju
laheajus
lahka
lahkai
lahkalagaid
lahkosiin
lahkosis
lahti
lahtinen
lahttu
lahttun
lahtu
lahtuid
lahtuide
lahtuin
lahtut
lai
laibid
laid
laiguin
laihia
laiho
laila
lain
laiti
laitiala
laitila
laja
lajat
lajla
lake
lakonservatiiva
lakta
laktojuvvui
lala
lalac
lalas
laldaga
laldagaid
laldat
lama
lammhult
lammhulta
lammhults
lammi
lamos
lampinsaari
lan
lanceolata
land
landa
landet
lands
landsforbund
landskap
landsma
lane
lang
langa
langesund
langs
langt
language
languages
langue
laniidae
laniitoluotta
lanius
lanja
lanjas
lanjat
lanka
lankila
laos
lapin
lapinja
lapinkyla
lapinlahti
lapista
lapp
lappaja
lappee
lappeenranta
lappekodisilla
lapperne
lappernes
lappetela
lappi
lappische
lappischen
lappischer
lappisches
lappish
lappisk
lappiske
lappmark
lapponica
lapponicus
lapse
lapsi
lapua
lara
lardal
larestan
large
largest
largo
larin
larry
lars
larsen
larsson
larus
larvik
las
lasa
lasagne
lasi
lasiha
lasihii
lasihit
lasihuvvojit
lasihuvvon
lasker
lassa
lassanan
lasse
lassebusta
lassi
lassibeavdegirji
lassibeavdegirjji
lassila
lassin
lasso
last
lasta
lastamuorra
lastan
lastavizar
lastavizarat
lastavizariidda
laste
lastet
lasti
lastima
lastimis
lastin
lastit
lasttat
lastte
lasttii
lat
latch
latea
later
latera
lateralus
latiinnalac
latiinnalas
latin
latium
latnja
latnjalassii
latvia
latviagiella
latvias
latvuomi
latvuopmi
lau
laukaa
laukka
laukkala
laula
laull
lauluja
laulukirja
laura
laurence
lauri
lautrec
lava
lavangen
lavignes
lavola
lavttis
lawrence
lay
laz
lb
lbma
lbmanii
lbmi
lbmoga
lbmogat
lbmogii
lbmogiid
lbmogiidda
lbmogiidgaskasas
lbmogiidservodatriikka
lbmogiin
lbmogin
lbmogis
lbmot
lbmotallaskuvlla
lbmotallaskuvllas
lbmotbeaivi
lbmotbeaivve
lbmotbeaivvi
lbmotbellodaga
lbmotbellodagain
lbmotbellodagas
lbmotbellodat
lbmotbuvttadus
lbmotda
lbmotdearvvas
lbmotduopmostuolut
lbmoteala
lbmotgielat
lbmotgirjera
lbmotgoddima
lbmotgoddimiid
lbmotgoddimiidda
lbmotgoddimis
lbmotgoddin
lbmotguossit
lbmotjienasteami
lbmotjoavkkut
lbmotla
lbmotlac
lbmotlas
lbmotlohkama
lbmotma
lbmotmeahcci
lbmotmeahci
lbmotmeahcis
lbmotmusea
lbmotrievtti
lbmotva
lbor
lborbeaivi
lbumat
lby
lc
ld
lda
ldaga
ldagaid
ldagaide
ldagas
ldagat
ldas
ldat
ldda
lddahalla
lddahus
lddahusa
lddahusas
lddahusbiirii
lddahusbiirriin
lddahusdirektevra
lddahusguovdda
lddahusguovllut
lddahusha
lddahuslac
lddahuslas
lddahussii
lddahusvirgedoaimmahaga
lddahusvirgedoaimmahat
lddalaga
lddalasha
lddas
ldde
lddi
lddie
lddii
lddiid
lddiide
lddiiguin
lddiin
lddis
lddit
lddu
lddus
lddut
lde
ldegotti
ldegottis
ldegottit
ldekodde
lderihpama
ldet
ldi
ldikodde
ldima
ldin
ldit
ldo
ldoa
ldoartihkal
ldobargu
ldoc
ldodoaimmaheaddji
ldodoaimmaheaddjin
ldodoaimmaheaddjit
ldoeala
ldogiella
ldogiellan
ldoguovllus
ldoguovllut
ldojuvvon
ldojuvvot
ldojuvvui
ldokantuvra
ldokantuvrrat
ldokonsearttas
ldokultuvrra
ldoma
ldon
ldooassi
ldopla
ldorollii
ldos
ldosiidu
ldosivva
ldoulbmil
ldova
ldu
ldui
lduid
lduin
ldun
ldut
le
lea
leaba
leabbo
leage
leago
league
leah
leahket
leahkima
leahkimin
leahkit
leahkki
leahttospa
leai
leaibbit
leaibeloddi
leaigga
leamas
leame
leamen
leamma
leammi
leammis
leamos
leamus
lean
leana
leanada
leanain
leanara
leanas
leanat
learn
leaska
leaskagahpir
leaskagahpira
leaskan
leat
leatge
leatgo
leatna
leatnaha
leatnai
leatnan
leatnaođastus
leatnas
leavai
leavdnja
leavga
leavgabeaivi
leavgga
leavggain
leavggas
leavggat
leavnnjas
leavttuin
leavva
leavvan
leaŋga
leaŋkkat
lech
leddje
ledger
ledje
ledjen
ledjon
lee
leeibi
leem
leema
leems
leena
leer
left
legal
legend
leggji
legje
lehkos
lehnwo
lehtima
lehtinen
lehtipalvelu
lehtiranta
lehtola
lehuvvan
lei
leif
leige
leigga
leigo
leikanger
leila
leimme
leino
leipa
leipzig
leisha
leivo
leivvos
leivvoz
leksikogra
leksikon
leksvik
lektora
lektorin
lem
lema
lemai
lemet
lemi
lempa
lempia
lempila
len
lena
lene
lengua
lenhovda
lenin
leningrad
lenker
lennart
lennon
lenta
lenz
leo
leon
leonard
leonardo
leone
leopold
leppa
ler
les
lesja
leskela
lesnuori
lesnuorri
lesotho
lessebo
lestija
lesund
let
letter
letterkunde
letters
leu
leucocephalos
leucopsis
leucoptera
leucotos
lev
leva
level
levgenbeaivi
levgenbeaivvit
levget
levi
levu
lewis
lex
lexica
ley
leymah
lez
lffut
lfu
lga
lgabadja
lgabeaivi
lgabiire
lgabiireaji
lgabiiret
lgabiirre
lgabiirres
lgabiirret
lgabires
lgabiriin
lgabohtosat
lgaortnega
lgaortnet
lge
lget
lgga
lggaha
lggahan
lggaheami
lggahedje
lggahii
lggahit
lggahuvvon
lggahuvvui
lggaid
lggain
lggas
lggat
lggi
lggii
lggis
lggos
lggu
lggus
lghult
lghulta
lgii
lgima
lgit
lgo
lgoa
lgoba
lgogeahc
lgojalgejeaddji
lgologijagiin
lgomuttu
lgomuttus
lgosas
lgosii
lgovuolggalas
lgu
lhc
lhyvyr
li
lia
liagielas
liagiella
liai
lialas
liar
lias
libanon
liber
libera
liberia
liberialas
library
libre
libya
liceo
lida
lidhult
lidii
lidingo
lidnu
lie
liechtenstein
liegga
lieggana
lieggasa
lieggasis
liekkas
lieksa
lier
lierne
liesja
liet
lieto
lietuva
lietuvas
lieđbmi
lieđit
lieđđi
life
ligg
ligge
light
lighthouse
lights
liguria
lihit
lihkada
lihkadeami
lihkadeapmi
lihkadit
lihkadus
lihkadussii
lihkkos
lihkkus
lihkohisvuođa
lihkostuvai
lihkostuvvan
lihttoda
lihttoka
lihttosta
lihttu
lihttui
lihtu
lihtus
lihuvvon
lii
liid
liida
liidago
liidan
liidat
liidedje
liidii
liidit
liidivc
liidni
liiga
liigegievrras
liigudii
liiki
liikka
liikki
liiko
liikojit
liikon
liinni
liinniin
liisa
liit
liitto
liiveassi
liivi
liivigiella
liivvi
liivvis
lij
lika
likc
like
likevel
liks
liksom
likyla
lila
lill
lilla
lille
lillehammer
lillesand
lillestrøm
lima
liminka
limo
lincom
lind
linda
lindgren
lindh
lindi
line
linegrey
lingua
linguistic
linguistics
linja
linjat
linjja
link
linko
links
linn
linna
linnaea
linne
linnea
linneryd
linneryda
linnja
linssa
lintula
lintulan
lintulas
linus
linux
linuxa
lion
liperi
lipetsk
lipia
lipson
lipsona
lis
lisa
lisboa
lisboas
lisensia
lisin
lisma
list
lista
liste
listitem
lists
listtu
listtus
listtut
listu
listui
lit
lite
liten
literatur
litteratur
litteratursa
little
littoinen
liv
livc
live
lives
livestock
livkka
livla
livvi
liŋka
liŋkkat
lja
ljaid
ljat
lje
ljo
ljubljana
ljungby
lk
lka
lkas
lkasa
lkasat
lkasiid
lkesteaddji
lki
lkidahttit
lkii
lkimus
lkit
lkk
lkka
lkkas
lkkasdiehtaga
lkkasdiehtagis
lkkasdieđa
lkkasdieđalas
lkkass
lkkasumi
lkki
lkkit
lkkodit
lko
ll
lla
llaga
llagat
llaid
llan
llana
llara
llarena
llas
llat
lle
lled
lleida
llema
llen
ller
lles
llet
lletkategoriija
lleva
llevuođđu
lli
lligođii
llii
lliid
lliide
lliidla
lliiguin
lliin
llin
llinbeavdi
llingiela
llingielas
llingiella
llinha
llinvugiin
llinvuogi
llinvuogis
llinvuogit
llinvuohki
llir
llira
lliris
llit
lliw
llje
lljejeaddji
lljejedje
lljejit
lljejuvvo
lljejuvvojit
lljejuvvon
lljejuvvot
lljejuvvui
lljen
lljet
lljii
lljkea
llkue
llo
lloba
llobihta
llobihtta
llojuvvo
llojuvvojit
llojuvvon
llojuvvui
llon
lloola
llos
llosa
llosat
llosiid
llosiin
llosis
lloyd
llskapet
llu
llui
lluis
llun
llut
lma
lmas
lmasaid
lmasc
lmasgirjec
lmeboda
lmen
lmhult
lmhulta
lmma
lmmas
lmmi
lmmis
lmuvva
lmuvvan
ln
lo
loaba
loahpa
loahpacealka
loahpageahc
loahpahii
loahpahuvvui
loahpalac
loahpalas
loahpas
loahppa
loahppastas
loahtta
loaiddasteaddjin
loaiddastii
loatnasa
loađgu
loba
lobalas
lobeibbos
lobi
lobihis
lobos
local
locality
localization
localized
locke
lockes
locustella
loddec
loddegonagas
loddegonagasat
loddejievz
loddejit
lodden
loddera
loddes
loddesohka
loddi
lodegiid
lodjuduvvon
log
loga
logahaga
logahagas
logai
logala
logaland
logaldallama
logaldallan
logan
logge
logi
logihkka
logijagi
logijagiid
logje
logo
logu
loguid
loguin
logus
logut
lohii
lohja
lohka
lohkameahttun
lohkamis
lohkan
lohkansa
lohkat
lohke
lohket
lohkki
lohkkiid
lohkkit
lohkkojuvvon
lohkojuvvon
lohkosa
lohku
lohkui
lohpi
lohpiduvvon
lohppii
loikkai
loimaa
loir
loire
loja
lokatiiva
lokka
lokkam
lokomotiiva
loktanan
loktaneapmi
loktii
lol
lolcat
lom
lombardia
london
londona
londonis
lonely
longielda
longuovllu
longuovlluid
longuovlu
longyearbyen
longyearbyena
loniid
lopes
loppet
loppi
lord
lordi
lords
lorentzen
lorenzo
lorre
los
losada
lossa
lossagat
lossat
losses
lost
lot
lotta
lottiid
lottiin
lottit
louhivaara
louis
louisa
louise
louisiana
louvre
lovdata
love
lover
loviisa
lovisa
loxia
loz
lppain
lppat
ls
lsa
lsi
lssa
lssatanjeakki
lt
lta
ltalas
ltes
ltet
lteva
lti
ltis
ltsamaa
ltta
lttit
lu
luang
lucia
luciano
ludde
ludvig
ludwig
ludwigs
lugo
luhanka
luhc
luhtte
luhttet
luid
luigi
luin
luis
luitet
luja
lukas
lukasa
lukkari
luksa
lukukirja
lula
lulde
lule
lulea
luleju
lulimus
lulle
lullec
lullelis
lullesla
lulli
lulliafrihka
lulliamerihka
lulligielddat
lullijoavku
lullijovkui
lullil
lullin
lullioarjeoasis
lullioarjin
lullioasis
lullioassi
lullipola
lullisa
lullula
lumijoki
lumikivi
lumisalmi
lunacy
lund
lunddolac
lunddolas
lundon
lundui
lunner
luntat
lunttat
luobahii
luodda
luohka
luohkka
luohpa
luohti
luohtta
luoita
luokan
luoma
luomankyla
luomejahki
luomi
luomusvuohta
luomusvuođat
luonddu
luonddudutki
luondduga
luondduguovdda
luonddumeahcci
luonddumeahci
luonddumeahcis
luonddupa
luondduriggodagat
luonddus
luondduva
luondu
luopma
luosa
luossa
luossaguolit
luossaguolli
luostari
luostarin
luoto
luottaid
luottat
luovttat
luovvana
luođi
luođit
lupus
lus
lusa
luscinia
luscinioides
luster
lut
luteralas
luther
lutherske
luuma
luvddiidc
luvia
luvun
luvva
luvvilis
luvvilvuohta
luvvodagas
luxembourg
luxemburg
luxemburggagiella
lv
lva
lvalanba
lvalit
lvalus
lvalusa
lvalusaid
lvalusain
lvalusas
lvalusat
lvalussii
lvebivuid
lvegahpir
lvegahpira
lven
lveruoivil
lvesoađi
lvet
lvevala
lvi
lvia
lvit
lvsbyna
lvu
lvun
lvva
lvvet
lvvi
lvvit
lvvu
lvvuid
lvvut
lycksele
lydia
lymfac
lymfoida
lyng
lyngdal
lynx
lyon
lyrihkka
lys
lysekil
lyydigiella
lyytikka
lz
læ
læk
læm
lærdal
lærebok
læt
lørenskog
løten
løy
m
ma
maa
maailman
maalahti
maan
maanpa
maari
maaria
maarit
maavesi
mac
macbook
macca
machiavelli
machine
mack
madagaskar
madame
madonna
madrid
magadan
magasiidna
magazine
magga
magic
magisttar
magisttarin
magna
magne
magnehtalas
magnhild
magnus
magreta
magyar
maha
mahaal
mahatma
mai
maia
maid
maida
maidai
maidda
maiddai
maidege
maidige
maiguin
maija
maila
main
maina
maine
mainna
maintenance
maja
majalis
majestehta
majoneasa
major
makarla
make
makedonia
makedoniagiella
makka
makrana
maksima
mal
mala
malas
malawi
malaysia
male
malediivvat
malen
malesia
malgrat
mali
malin
malis
mall
malline
malm
malmi
malmo
malta
malvik
mammografiija
man
mana
manahii
manai
manan
manat
mandal
mandariidna
mandela
manfred
manga
mangaka
mangas
mange
mangela
manif
maniitsoq
manin
manksgiella
mann
manna
mannamin
mannan
mannanvugiid
mannanvugiin
mannanvuogi
mannanvuohki
mannanvuohkin
mannat
manne
mannerheim
mannet
mannila
mannji
mano
mansigiella
manu
manua
manual
mao
maori
map
maps
maputo
mar
marakatt
maraton
march
marche
marck
marco
marcos
mare
margareeta
margaret
margareta
margin
margrethe
mari
maria
marianne
marie
mariehamna
marielle
marigiella
marija
marika
marila
marin
marina
marino
marinus
mario
marit
marita
maritima
maritime
maritta
marius
marja
marjatta
mark
markaryd
markaryda
marked
marker
markku
marko
markomeannu
markus
marlene
marne
marokko
marriage
mars
marsa
marshallsullot
martha
martin
martinique
martinsen
martinsena
martti
marttila
marvin
marx
mary
maryland
marzouki
mas
masa
maseru
masfjorden
masku
massa
massachusetts
masse
masset
massii
master
masuvdna
masz
mat
mata
matejko
matematihkalas
matematihkar
matematihkka
matematihkkar
materia
materialismma
materna
mathis
matka
matke
matorigiella
mattajægjek
matteusa
matti
mattila
mattson
mattsson
mattus
mau
maud
mauno
maunula
maureta
maurice
maurita
mauritius
max
maxida
may
mayen
mayena
maynard
mayo
maza
mazandaran
mađe
mađi
maŋa
maŋemus
maŋggaidlohku
maŋil
maŋimuc
maŋimus
maŋis
maŋisboahtti
maŋit
maŋos
maŋosguvlui
maŋŋa
maŋŋeba
maŋŋejuolgi
maŋŋel
maŋŋelabbos
maŋŋelas
maŋŋeleappo
maŋŋelis
maŋŋeoaivvi
maŋŋevoka
maŋŋidis
maŋŋil
maŋŋit
maŋŋonii
mbabane
mbia
mbuvra
mbuvrra
mbuvrraid
mbuvrrain
mc
md
me
mea
meahccehehpos
meahcceviehkan
meahccevuoncceslottit
meahcci
meahci
meahciealli
meahcieallit
meahcira
meahcis
meahttun
mealbmot
mealgat
meannuda
meannudit
meara
mearain
mearas
meare
mearehis
meari
mearit
mearka
mearkka
mearkkaid
mearkkas
mearkkat
mearra
mearrabahta
mearraga
mearragierraga
mearragoaskin
mearrara
mearrasa
mearrea
mearri
mearrida
mearridan
mearrideaddji
mearridedje
mearridii
mearridit
mearridus
mearriduvvo
mearriduvvojedje
mearriduvvojit
mearriduvvon
mearriduvvui
meas
measta
meatta
meavrresga
mech
med
meda
medaljjaid
medan
media
mediain
mediat
medici
medicine
medigga
mediggea
mediggeva
mediggi
medikki
medikkiin
medikkis
medikkit
medisiinna
medisiinnaba
medisiinnain
medisiinnalas
medisiinnas
medlemer
meednam
meen
meenkoski
meenkyla
meenkyro
meenlinna
meera
mefilmmain
mega
megarhynchos
megiel
megiela
megielaid
megielaide
megielain
megielas
megielat
megiella
megielma
megilli
megillii
meguovllu
mehciid
mehrabadin
mehrs
mehta
mehter
mehtera
meid
meida
meiden
meie
meija
meile
meir
meita
mejmeh
meka
mekonfereansa
mekonfereanssas
meksiko
meksikolas
meksikos
mekulturguovdda
mekultuvra
mekultuvrra
melampyrum
meland
melanitta
melanocephala
melanocorypha
meldal
meletios
melhus
mellinger
mellom
mellomalderen
mellunma
melodi
melodiija
melzi
meløy
mema
members
memis
memorial
memusea
memuseavuođđudus
memusihka
memusihkka
men
mena
menddo
menelik
menestumis
menestuvai
menestuvva
menestuvvan
menestuvvi
meni
menn
mens
mentha
menuoraid
mepolitihka
mepolitihkalas
mepolitihkka
mer
mera
mercedes
merganser
mergellus
mergus
meri
meridia
meridionalis
merija
merikarvia
meritxell
merja
merkejuvvo
merkejuvvon
merkel
merket
merkurius
meros
merrii
merula
mervi
mes
mesearvi
mesearvvi
mesearvvit
meskuvla
meskuvlastivra
meskuvlla
mesolihtalas
message
messages
messina
mest
mester
mesternes
met
meta
metaboksa
metal
metawiki
metodain
metralas
metrihkas
metrihkka
metro
metropoliitta
metropolitan
metrostas
metrosystema
metsa
metsola
mette
mexico
meyer
međimurje
mg
mgp
mhnt
mi
mia
michael
michel
michela
michelangelo
michigan
mickiewicz
microsoft
middle
midjiide
midjij
midsund
midt
mie
mieatnan
mieenna
miehen
miehikka
miehta
miel
miela
mielahisvuohta
mielas
mielat
mielbargi
mielc
mielddis
mielddisbukta
mielddisbuvttii
mielde
mieleavttus
miella
miellac
miellagiddevas
miellahttoriikkat
miellahttosta
miellahttovuođa
miellahttu
miellahttun
miellahttusearvvit
miellahttuvuođa
miellahtu
miellahtut
mienna
mies
miesiej
miessema
miestta
miesttas
miesttaskilki
miesttavizar
mieđaid
mieđiha
mieđihan
mieđihii
mieđihuvvui
migjidi
miguel
miha
mihcama
mihin
mihkkal
mihkkege
mihkkige
mihkku
mihtida
mihtidan
mihtideaddji
mihtideamit
mihtidemiid
mihtidit
mihtiduvvon
mihtilmas
mihttomearri
mihttu
mii
miia
miid
miide
miiga
miiguin
miij
miijan
miijen
miila
miin
miira
mij
mija
mijja
mijjem
mijjen
mijuv
mika
mikael
mikiela
mikka
mikkal
mikkel
mikkeli
mikkelsen
mikko
mikkola
mikroba
mikronesia
mikroorganisma
mikroorganismmat
mikroskohpa
mikroskohpain
mikroskohpas
mila
milan
mile
militant
militeara
milja
miljon
miljovnna
miljovnnaid
miljøstatus
milla
mille
miller
millii
milloseappot
mills
milton
min
mina
mind
minera
minerva
minh
mini
ministara
ministarat
ministtar
ministtarin
minna
minne
minnesota
minor
minoritet
minoriteten
minsk
minst
minsttar
minuhta
minuhtas
minuorra
minutus
mio
mipolitihkka
miquelon
mira
mirabilis
miranda
mirađis
mirhavuoidama
mirhavuoidan
mirja
mirjam
mirkkolas
mirko
mirku
mirror
mirva
mis
misearvi
miska
miss
missa
missing
mississippi
missouri
mit
mita
miten
mitigge
mitt
mitterand
mitterrand
miyagi
miyazaki
mja
mjo
mk
mkr
ml
mm
mma
mmaga
mmaid
mmait
mman
mmara
mmas
mmat
mme
mmi
mmii
mmir
mmirii
mmiriid
mmkar
mmol
mnalla
mo
moadde
moai
moalagha
moallafa
moanaid
moanat
moarsa
moarsi
moatte
moatti
mobarakeh
mobiltelefovdna
modalen
mode
modearna
modern
moderna
moderne
moderniserejupma
modja
modji
modularis
module
modum
moe
moenje
moft
mohammad
mohammed
moheda
mohki
mohkka
mohtorat
mohtorgielka
mohtorgielkka
mohtoriid
mohtorsihkkel
mohtorsihkkeliin
mohtorvala
mohuvai
moires
moisio
moiva
moivedili
mojhtesh
mojhtestasse
moks
molac
molas
molda
molde
moldova
molekyla
molekylaid
molekylalas
molekylat
molise
mollissima
molotov
molsas
molsojuvvui
molson
molssaeaktu
molssaeaktun
molssaevttolas
molssui
molsut
moments
mon
mona
monaco
monarkiija
monedula
money
mongolia
moni
monimuc
monit
monkey
monni
monopola
monopolat
monroe
mons
monster
monsters
mont
montagne
montagnola
montana
montanella
montanus
monte
montenegro
montes
montevideo
monticola
montifringilla
montola
montpelliera
montreal
montserrat
montsoreau
monty
monument
moon
moore
mora
moras
morc
more
moreno
morfologalas
morfologiija
morfologiijas
morning
morottaja
morphological
morris
mors
morse
morsma
mortalidad
morten
mortensen
mortensnes
mortensson
mos
mosambik
moscow
moselle
mosesgirji
moskea
moskeaid
moskenes
moskova
moskva
moskvas
moslavina
mosnikoff
moson
moss
most
mostara
mot
motacilla
motacillidae
motala
motd
mother
moto
motocross
moulin
mount
mountain
mountains
movie
movt
moxnes
mozart
mozilla
mp
mpa
mppa
mppas
mr
mrdn
mrna
mrnd
ms
msa
msna
msooǥǥ
msund
mtla
mtv
mu
mua
mudde
muddenc
muddet
muddui
mudenia
muhammad
muhammed
muhos
muhtimat
muhtimin
muhtin
muhtinla
muhto
muhtumat
muhtumin
muhtun
muhtunat
muhtunla
muid
muistelmia
muita
muital
muitala
muitalan
muitaledje
muitalii
muitalit
muitalus
muitalusa
muitalusaid
muitalusat
muitalussii
muitaluvvo
muitaluvvon
muite
muitomearka
muittalus
muittalægje
muittas
muittuhanc
muittuhii
muittus
muittut
muitun
mukka
mullsjo
multia
mumeniid
mumensta
mumenva
mumenvaggi
mumi
mun
munch
mundart
mundo
munich
munkki
munnje
munno
muno
munə
muohta
muohtac
muohtama
muohtasa
muohttaga
muohttagis
muona
muora
muoraid
muoras
muorat
muorji
muorjjit
muorra
muorragakcu
muorragakcut
muorragirku
muosa
muotka
muovjejierihat
muođut
muoŧa
muoŧŧa
murcia
mures
murillo
murjjiid
murma
murmansk
murray
murrii
mus
musat
muscicapa
muscicapidae
musculus
muse
musea
museas
museasearvi
museat
museum
music
musihka
musihkain
musihkar
musihkas
musihkka
musihkkaba
musihkkabihta
musihkkabuvttadeaddji
musihkkada
musihkkafestiva
musihkkajoavkkuin
musihkkajoavkkus
musihkkajoavku
musihkkar
musihkkavideo
muslima
muslimaid
muslimat
must
musta
mustama
mustamaa
mustang
mustasaari
mut
muta
mutti
mutto
muttu
muttuid
muttuin
muttum
muttus
muurame
muurlan
muvrava
muvrra
muvvan
muđui
muđuid
muđuige
muŋka
muŋkkaid
mw
my
myanmar
myhtas
myllykyla
myllyma
myllypera
myna
mynydd
myo
myrtillus
myself
myspace
mysteriija
mytologi
mytologiija
mytologiijas
møre
n
na
naakka
naantali
nac
nach
nacional
nada
naevia
nagano
nagasaki
nagiela
nagiella
nagierddus
nagierdu
nagillii
nagodan
nagodii
nagodit
nagot
nagu
nahhal
nahimana
nahttit
nai
naid
naide
nain
nairobi
naiselle
nakkila
nal
nala
nalas
nalde
nalta
nama
namahis
namahus
namahusat
namahuvvon
namahuvvui
namain
namalassii
namas
namat
name
names
namgyel
namibia
namma
nammabeaivvit
nammada
nammadii
nammaduvvon
nammaduvvui
namman
nammasas
nammat
nammii
namnet
namuhit
namuhuvvon
nan
nana
nancy
nang
nanna
nannan
nanne
nannejit
nannemis
nannen
nannestad
nannet
nannii
nannoset
nanortalik
nanu
nanus
napa
napoleon
nappo
nara
narkissos
narrenschyp
narsaq
nartes
narttiid
narttit
narva
narvik
nas
nasa
nascimento
nasjonale
nat
natalidad
natalie
natanz
nathan
nathaniel
nationa
national
nationalisma
nationalisttalas
nationalmuseum
nationalsta
nations
nato
natoi
natten
natur
nature
naughty
naumanni
nauru
naustdal
navarra
navbox
navda
navddus
navdojuvvo
navdojuvvon
navigas
navn
navullosas
navy
naz
nađa
nađđa
nb
nbr
nchen
nchez
ncipe
nd
nda
ndabarggu
ndagassii
ndalas
ndama
ndare
ndda
nddagiela
nddagiella
nddagillii
nddaheasta
nddaheastaservviid
nddaheastta
nddaheasttaid
nddaheasttain
nddaheasttas
nddaheasttat
nddaide
nddalas
nddardeaddjit
nddardit
nddas
nddasullo
nddat
ndde
nde
ndelat
nderna
ndii
ndil
ndila
ndilc
ndo
ndor
ndora
ndorat
ndorfi
ndoris
nds
ne
nea
neaddji
neahtas
neahttaa
neahttaba
neahttasa
neahttasiidduid
neahttasiidduin
neahttasiiddus
neahttasiiddut
neahttasiidu
neakta
neaktit
nealga
nealla
neami
neamis
neamos
neapma
neapmi
neappot
nearva
nearvafierbma
nearvafierbmi
nearvafierpmi
nearvafierpmis
nearvvat
neas
neavtta
neavvu
nebraska
nebulosa
ned
nedbørsfeltet
nederla
nedersaksische
nedertysk
nedje
nedre
need
neg
negatiiva
negatiivvalas
negga
neil
nejeaddji
nejuvvon
nekoski
nelgo
nelja
nellehat
nellim
nellimis
nelson
nemii
nen
nenetsa
nenetsagiella
neo
neolihtalas
neon
nepal
nepala
neptunus
neptunusa
ner
neretva
nerkoo
nero
neruda
nes
nesbuokc
nesc
nesheim
neslivkka
nesodden
nesra
nesseby
nesset
nesska
nesskuolfi
nessna
nest
net
nettiin
nettutstilling
neue
neutra
neutronana
neva
nevada
never
neville
nevis
nevttii
new
newbery
newell
news
newton
next
nez
ng
nga
nganasanagiella
nge
ngelma
ngeze
ngiella
ngna
ngo
ngsfo
ngvik
nh
nha
nhat
nhemat
nhemiid
nhemiidda
nhemiin
nhemis
nhl
nhurskkis
ni
nia
niagiella
nialas
niamey
nias
nicaragua
niccolo
nicholas
nicht
nick
nickel
nickul
nicolai
nicolas
nidaros
nie
niebaum
niederdeutsch
niederdeutsche
niederdeutschen
niegadan
niegu
niehkkela
niehku
niehtit
niehttegarja
nieida
nieidagorz
nieidan
nieidanamma
nieidda
nieiddagahpir
nieiddahus
nieiddaide
nieiddain
nieiddas
nieiddat
niels
nielsen
nielsena
niemenkyla
niemi
nieminen
niemisja
nietos
niger
nigeralas
nigeria
nigerialas
nigerias
night
nigra
nigrum
nihattula
nihkkel
nihkolas
nii
niibi
niid
niigata
niiguin
niila
niillas
niillasa
niilo
niin
niiniluoto
niinima
niinisto
niitobiellora
niitomarigielas
niitomarigiella
niitosa
niittuin
nika
nikaia
nikean
nikirje
nikkila
niko
nikolai
nikolaus
nikosia
nilla
nils
nilsen
nilsia
nilsson
nimboralas
nimetto
nimi
nin
nina
ninas
nintendo
nippes
nipponchi
nira
nirpi
nis
nishikado
nisoria
nissi
nisson
nissona
nissonat
nissonga
nissoniid
nissoniidda
nissoniidsearvvit
nissoniin
nissonis
nissonolbmo
nissonolbmos
nissonolbmot
nissonolbmuid
nissonolbmuide
nissonolbmuin
nissonolmmos
nissonpresideanta
nisu
nisun
nit
nittedal
niue
nivala
nivalis
niveau
nivel
niven
nizjnij
nja
njaarke
njagas
njagiid
njalas
njalla
njamma
njaudda
njeaiga
njealja
njealje
njealjec
njealjehas
njealjehaskilomehter
njealjehaskilomehtera
njealjehasmehtera
njealjeta
njealji
njealjis
njealjitvearssa
njealjitvearssain
njealjitvearssat
njeallja
njeallje
njealljejuvllagiid
njealljeta
njenecat
njenecia
njic
njiedja
njiedjan
njiejai
njielu
njiŋŋa
njiŋŋelas
njiŋŋelasa
njja
njoammu
njoammuda
njoammudeami
njoammudit
njoammuin
njoammuma
njoammut
njoavku
njoki
njolggi
njommon
njovkui
njozet
njuhc
njuike
njuikejeaddji
njuikejeaddjit
njuikensuorggi
njuiket
njuikii
njukc
njunni
njunnos
njunnoz
njunus
njuohtteja
njuolga
njuolgga
njuolggadus
njuolggadusaid
njuolggadusain
njuolggadusat
njuolggadusla
njuolggaduslas
njuolggo
njuolggoc
njuolla
njuoratma
njuorgga
njuorggis
njuoska
njuovz
njurggoluovttas
njurggu
njuvc
nka
nko
nkyla
nl
nla
nlahti
nlas
nm
nma
nmaa
nn
nna
nnai
nnam
nne
nni
nnia
nniai
nnias
nniemi
nnila
nnin
nnis
nniskor
nnja
nnjas
nnjii
nno
nnosas
nnrot
nnu
nnui
no
noaidda
noaiddi
noaidevuohta
noaidi
noam
noarsa
nobel
nobela
nobelin
nodyn
noeditsection
noemi
noereh
nogai
nohka
nohkan
nohkat
noi
noja
nok
nokia
nokkala
noko
nokon
nolla
nollatolera
noma
nomemiid
nomen
nomena
nomenat
nomeniid
nomeniidda
nomeniin
nomenis
nominatiiva
nominatiivvas
non
none
nonna
nopeasti
nor
nora
nord
nordatlanteren
nordaust
nordea
nordic
nordisk
nordkapp
nordla
nordland
nordli
nordmalings
nordmenn
nordmøre
nordnorsk
nordre
nordsamisk
nordsjøen
noreg
norga
norgalac
norgalas
norge
norges
norgeskart
norgga
norggabeal
norggabeale
norggameas
norggas
norgii
norja
norma
normal
normann
norpmat
norra
norrbotten
norrbottena
norrby
norrhult
norrko
norrla
norrta
norsjo
norsk
norske
norskehavet
norstedts
norte
north
northern
norway
norwegian
norður
norðurland
nos
nostradamus
nostradamusa
nostredame
not
nota
notbadji
notbaji
notbajit
note
nothing
noticia
notification
notoc
notodden
notre
nousiainen
nouvelle
novealla
noveallac
noveallaid
noveallat
novel
novela
novelleh
november
novgorod
novgoroda
novosibirsk
novus
now
npa
npera
nr
nranta
nriddu
nrk
nro
ns
nsa
nsaari
nsagiella
nsdap
nsf
nsi
nsikyla
nsimetro
nska
nskagiela
nskagielat
nskagiella
nskagillii
nskalac
nskalas
nske
nskka
nskkagiel
nskkagiela
nskkagielas
nskkagiella
nskkagillii
nskkalas
nskkas
nsler
nsman
nso
nsomeda
nsr
nssa
nssas
nssat
nssolas
nster
nsu
nsun
nsungilvohallamiid
nsut
nt
nta
ntac
ntadulvvit
ntajoavkkut
ntalas
ntaservos
nte
ntel
ntela
nthal
ntico
ntila
ntinen
ntnu
nto
ntor
ntorin
ntsa
ntt
ntta
nttain
nttas
nttat
ntyharju
ntyla
nu
nuba
nubba
nubbe
nubbi
nubbijođiheaddji
nubbin
nubbinjođiheaddji
nubbinjođiheaddjin
nubicus
nucifraga
nue
nuge
nugo
nui
nuklea
nuku
numera
numma
nummar
nummi
nummir
nummira
numo
nunaat
nunaata
nunaatas
nuo
nuohtain
nuora
nuoraid
nuoraide
nuoraidgirjec
nuoraidkonsearta
nuoraidla
nuoraidorganisas
nuoraidroma
nuoraidskuvla
nuoraidskuvlla
nuoraidskuvllas
nuoraidskuvllat
nuorain
nuoramus
nuorat
nuorgam
nuori
nuorra
nuorran
nuorravuohta
nuorravuođa
nuorri
nuorta
nuortaba
nuortabealde
nuortacihci
nuortadava
nuortadavvin
nuortaeurohpalac
nuortago
nuortalac
nuortalas
nuortalulli
nuortalullin
nuortameara
nuortamearas
nuortamearasuopmelas
nuortamearra
nuortan
nuortaoasis
nuortaosiin
nuortariika
nuortariikalas
nuortariikka
nuortariikkas
nuortasa
nuortasla
nuortasuopmanat
nuorti
nuortilastavizar
nuortin
nuortta
nuorttabealde
nuorttanaste
nuorttas
nuortti
nuorttil
nuorttis
nuoskkideapmi
nuoskkidit
nuppa
nuppe
nuppebeliid
nuppegez
nuppela
nuppi
nuppiid
nuppiideaset
nuppiideasetguin
nuppiin
nuppis
nuppit
nurash
nurmes
nurmi
nurmija
nurse
nus
nussir
nut
nute
nuts
nutti
nuu
nuuc
nuuk
nuut
nuutko
nuuvtko
nuvtta
nvaara
ny
nybro
nye
nyelv
nyheter
nyka
nyko
nynorsk
nystad
nystø
nytta
nz
næl
nærøy
nærøyfjorden
nærøyfjordenis
nøtterøy
o
oa
oabba
oac
oadjebasvuhtii
oaffara
oaffarus
oagga
oaggigohte
oaggit
oahka
oahkis
oahkisvuohta
oahkka
oahkkana
oahkkanan
oahkkanedje
oahkkanit
oahkkeba
oahkkima
oahkkimiid
oahkkimiin
oahkkimis
oahkkin
oahkkisvuohta
oahkuma
oahkumis
oahpa
oahpaha
oahpahallat
oahpahan
oahpaheaddji
oahpaheaddjin
oahpaheaddjit
oahpaheami
oahpaheimmet
oahpahii
oahpahit
oahpahus
oahpahusa
oahpahusaid
oahpahusas
oahpahusdirektora
oahpahusfilbma
oahpahusguovdda
oahpahusministeriija
oahpahussii
oahpahuvvo
oahpahuvvot
oahpai
oahpis
oahpistanla
oahpistanprogra
oahppa
oahppagođii
oahppama
oahppamateria
oahppan
oahppat
oahppi
oahppit
oahppo
oahppoa
oahppogirjji
oahppogirjjit
oahppola
oahppopla
oahppu
oahppus
oahpu
oahpuid
oahpuide
oaidna
oaidni
oaidnit
oaidnu
oainna
oainnu
oainnuid
oainnuide
oainnus
oainnut
oaiva
oaiveba
oaivedoaimmaheaddjit
oaivega
oaiveministarat
oaiveministtar
oaiveministtarjienasteamis
oaiveska
oaivi
oaivil
oaivila
oaivilat
oaiviliid
oaivilis
oaivvi
oaivvilda
oaivvildat
oaivvildii
oaivvildit
oaivvilduvvon
oaivvis
oak
oakka
oala
oalgejohka
oalggi
oalis
oalle
oaltu
oamasta
oamastangehc
oamasteaddji
oamasteami
oamastii
oamastusas
oamedovddu
oana
oanehac
oanehas
oaneheabbo
oaneheabbot
oanehis
oanehisnjunc
oanehit
oaniduvvon
oappa
oappaguovttos
oarbbeldeahkit
oarje
oarjedavvi
oarjedavvin
oarjeeurohpa
oarjegeaz
oarjegerma
oarjejoavku
oarjejovkui
oarjel
oarjelsa
oarjelulli
oarjelullin
oarjema
oarjeoasis
oarjera
oarjeriikkain
oarjesa
oarjesla
oarjesuopmanat
oarjevuotna
oarji
oarjin
oarjja
oarjjabealde
oarjjalula
oarjje
oarjji
oarjjil
oarjjimus
oarvecuocca
oarvegahpir
oarvi
oarvvi
oarvvis
oasa
oase
oasi
oasis
oasit
oaska
oassa
oassalastan
oassefina
oassesta
oasseva
oassi
oassin
oasti
oastit
oatnu
oatnut
oavdda
oavddusin
oavdimii
oavdinra
oavdit
oavjec
oavjeha
oavjji
oavjjis
oaz
oađgi
oađđa
oba
obama
obanassiige
obbonda
objeakta
object
oblast
oblastas
obs
obscurus
obstruktiiva
oc
oca
och
ochruros
ockelbo
od
oda
odal
odas
odd
odda
oddaga
odedje
odense
odii
odin
odis
odit
odna
odne
odnege
odoaimma
oduvvo
oduvvojit
oduvvon
oduvvot
oduvvui
odvar
oeiseva
oenanthe
of
ofelac
ofelas
ofelaz
office
official
offisearat
offisielle
ofte
og
oga
ogg
oggo
ogsa
ogv
oh
ohasvuoigatvuođala
ohc
ohca
ohcama
ohcamus
ohcat
ohcejoga
ohcejogas
ohcejohka
ohcejohkii
ohcet
ohio
ohka
ohkat
ohkiida
ohkiidan
ohkiidii
ohkka
ohkkansaji
ohkkava
ohkke
ohkkejuvvon
ohkken
ohkkii
ohm
ohppet
ohppui
oidne
oidnet
oidno
oidnojit
oidnosii
oidnosis
oidnot
oidnui
oinnii
oire
ois
oise
oisy
oiva
oja
ojakyla
ojala
ojeaddjit
ojuvvo
ojuvvojit
ojuvvon
okayama
okinawa
okkupas
oklahoma
okr
oksidere
oksideren
oksiderenlohku
oksita
oksygena
oksygenahis
oksygenalas
okta
oktagasa
oktage
oktagearda
oktan
oktanaga
oktanuppeloga
oktanuppelot
oktasac
oktasas
oktavuhtii
oktavuohta
oktavuođa
oktavuođaid
oktavuođain
oktavuođas
oktavuođat
okteahttala
oktibuot
oktii
oktiibuot
oktiic
oktilas
okto
oktober
oktonas
oktora
ol
ola
olaha
olahan
olahit
olahusa
olahusat
olas
olaug
olav
olava
olavi
olavs
olbma
olbmo
olbmos
olbmot
olbmu
olbmui
olbmuid
olbmuide
olbmuiguin
olbmuin
olbmus
old
ole
oleander
oled
olet
olga
olgara
olges
olgez
olggobeal
olggobealde
olggobeale
olggobealla
olggos
olggosaddi
olggosaddindoaimma
olggosaddon
olggosoaidnit
olggu
olggul
olgguldas
olgguldasat
olggumus
olggus
olggut
olgolis
olgoministeriija
olgoministtar
olgomusea
olgoriikakomite
olgoriikalac
olgoriikaministtar
olgoriikii
olgoriikka
olgoriikkaide
olgoriikkain
olgoriikkalas
olgoriikkaministtar
olgoriikkas
olgun
olhava
olii
oliid
oliin
olis
oliver
oljja
oljju
oljobohcci
oljokriissa
olju
olla
ollas
olle
ollege
ollenge
olles
ollesguhkes
ollesolmmoz
olless
ollet
olli
ollii
ollikkala
ollila
ollislac
ollislas
ollisvuođa
ollosat
ollu
ollugat
olmai
olmma
olmmos
olmmoz
olor
olsen
olt
olthuis
olu
olus
olympiagilvvuin
olympiamitalista
om
oma
omaa
omaid
oman
omanluokta
omarbejdelse
omasvuona
omasvuotna
omd
omega
omil
ommanis
omra
omsk
omskolen
on
ona
one
oneste
onis
online
only
onnistunut
oolmijn
oosmo
opas
open
openbsd
opendocument
opendocumenthttp
openvms
opera
operala
operas
operatiivavuoga
ophaug
opiate
opmec
opmodaga
opmodagas
opmodahkii
opmodat
opmodatsuodji
opp
oppa
oppalac
oppalas
oppalohka
oppama
oppanassiige
oppas
oppdal
oppega
opphav
oppla
oppland
opposis
oppositifolia
opprøret
oppuu
oppvekstsenter
optatiiva
optatiivva
option
oq
or
ora
oran
orange
oravala
orbin
orbina
ordbok
orden
ordnejuvvo
ordnejuvvojedje
ordnejuvvojit
ordnejuvvon
ordnejuvvui
ordnema
ordnen
ordnet
ordnii
oregon
orenburg
org
orga
organis
organisas
organiserejedje
organiserejuvvon
organiseren
organismmaid
organization
orgel
orhon
orienta
oriental
orientalis
orientation
origina
original
orimattila
oriol
oriolus
oripa
orivesi
orkdal
orkester
orkland
orlando
oro
orodit
orokeahtes
orre
orrefors
orro
orron
orrot
orru
orrui
orruid
orrunsaji
orrut
orthodox
ortnega
ortnegis
ortnet
ortodoksa
ortodoksaid
ortodoksalas
ortodoksat
ortodoksateologat
ortodoksisen
ortografiija
ortografiijain
orui
oruos
os
osa
osaka
osasco
osasto
osat
oscar
oseania
oseanias
osgorz
osiid
osiide
osiin
osijek
oskal
oskar
oskkodatvuosta
oskkolac
oskkolas
oskkoldaga
oskkoldagaha
oskkoldagaid
oskkoldalas
oskkoldatgottiid
oskkoldatlas
oskkoldatvuosta
oskku
oskkudovddastus
oskkudovddastusa
oskkuide
oskkus
osku
oskui
oskumus
oslo
oslolac
oslos
oslossa
osma
osmo
osohahkii
oss
ossi
ossodaga
ossodat
ossodatjođiheaddji
osta
osterøy
ostet
osttii
ot
otava
other
otna
otne
otnege
otta
ottaboras
ottac
otto
otus
oudas
ouest
ougrienne
oula
oulainen
oulu
oulujoki
oulun
oulunkaari
oulus
our
ourense
out
outi
outokumpu
ov
ova
ovc
ovcca
ovcci
ovd
ovda
ovdaboksa
ovdaga
ovdagovvan
ovdahistorja
ovdajuolgi
ovdal
ovdalac
ovdalas
ovdalgo
ovdalis
ovdalisa
ovdamearka
ovdamearkan
ovdamearkasa
ovdamearkat
ovdamearkateaksta
ovdamearkka
ovdamearkkat
ovdan
ovdanbukta
ovdanbuktet
ovdanbuktit
ovdanbuvttii
ovdaolmmos
ovdasiidu
ovdavoka
ovdda
ovddabealdde
ovddabealde
ovddageahc
ovddal
ovddalgihtii
ovddas
ovddasta
ovddasteaddji
ovddasteaddjin
ovddasteaddjit
ovddastii
ovddastit
ovddastus
ovddasva
ovddemus
ovddemusat
ovddemusta
ovddes
ovddez
ovddida
ovddidan
ovddidanriikkain
ovddideaddji
ovddideami
ovddideamis
ovddideapma
ovddidii
ovddidit
ovddit
ovddos
ovddosguvlui
ovdduid
ovdii
ove
over
overhalla
oversikt
overy
ovlla
ovnnesjohka
ovtta
ovttaa
ovttada
ovttadat
ovttage
ovttagearda
ovttagielat
ovttaid
ovttaidlogu
ovttaidlogus
ovttaidlohku
ovttain
ovttala
ovttamađodagaid
ovttaoaivilis
ovttas
ovttasbarga
ovttasbarggu
ovttasbarggus
ovttasbargoartihkal
ovttasbargoorga
ovttasbargu
ovttaseallat
ovttasge
ovttaskas
ovttasra
ovttastahtojuvvui
ovttastahtta
ovttastahttet
ovttastahttit
ovttastahttojuvvojedje
ovttastahttojuvvojit
ovttastahttojuvvui
ovttastahtton
ovttasteaddji
ovttastus
ovttastuvvan
ovttastuvve
ovttastuvvet
ovttastuvvojedje
ovttastuvvon
ovttastuvvui
ovttavearda
oxelo
oxford
oxyria
oy
oz
oza
ozai
ozongeardi
oððasat
ođas
ođasmahtta
ođasmahttimii
ođasmuvvi
ođassa
ođastus
ođastusaid
ođastusas
ođđa
ođđaa
ođđada
ođđajagema
ođđajagima
ođđajahki
ođđala
ođđama
ođđasaksilas
ođđasat
ođđaseamos
ođđasiin
ođđasis
ođđasit
p
pa
paadar
paamiut
paasikivi
paast
paavali
paavo
paavola
pablo
pace
paceleavga
padasjoki
padding
padus
paganini
page
pages
pagophila
pagos
pahasta
pahat
pahkala
pahlavi
pai
paikannimisto
paimio
pain
painting
paintings
pair
pairs
pajala
pajuja
pajula
pakila
pakinoita
pakistan
pakistana
pakistanii
pakistanis
pakkala
pakke
pakku
palace
palacio
palau
palazzo
paleface
palencia
paleolihtalas
palermo
paljon
pallida
palm
palmas
palo
paloja
paltamo
paltto
paludicola
palustre
palustris
pan
panama
pandemiija
panjabigiella
panorama
panoramio
pantone
papak
pappila
pappinen
papua
paradise
paradoksa
paradoksat
paraguay
parainen
parallella
parallellogra
parameter
parametera
parametre
paraske
pargas
paridae
pariisalas
parikkala
paris
parisa
parisas
parisii
parisis
park
parkano
parker
parlameanta
parlameantava
parlameantta
parlameanttalas
parlameanttas
parlameanttat
parlament
parlamenta
parlamentarihkka
parlamentarisma
parlamentii
parlamenttalas
parliament
parmehutu
parmenides
parola
parque
part
partala
partapuoli
partido
partihkal
partihkkalat
partihkkalfysihka
partihkkalfysihkka
partihkkalhorisonta
partihkkaliid
party
partyjoik
parus
parva
pas
pasanen
paseo
pasi
pasienta
pasifisma
pasifisttaid
pasifisttat
pasila
pasilas
pasottum
passer
passeridae
passerinum
passiiva
pastabiebmu
patan
pateanta
pateantta
pathways
patil
patria
patriarka
patricia
patrik
patrom
patrono
pattijoki
pauanne
paul
paula
pauli
pauliina
pauline
paulo
paulus
pavarotti
paz
pc
pdf
pe
peace
peahoone
peak
peake
pearl
peda
pedagogalas
pedagogihka
pedagogihkalas
pedar
peder
pedersen
pederso
pedro
pee
peeivi
peer
peesti
pehr
peking
pekka
pekkala
pekurinen
pelagicus
pelkola
pelkosenniemi
pellila
pello
pellonpa
peltola
pendant
penelope
penguin
penn
pennsylvania
penrose
pentti
penttila
peo
people
peppers
per
pera
perbmelas
perfeakta
perho
perija
period
perioda
periodalas
perisoreus
pernio
perry
pers
persen
persena
persihkkaivdna
personar
persovdna
persovdnapronomenat
persovdnavaha
persovnna
persovnnalac
persovnnalas
persovnnas
persovvna
persson
pertti
pertunmaa
peru
perukka
perulas
perus
perva
pesa
peso
peta
pete
peter
petersburg
petra
petri
petroleumgeahc
petrosus
petrus
petsamo
petsamon
petter
pettila
peurala
peđar
pfarrkirche
ph
phale
phane
philadelphia
philby
philip
philipp
philomelos
phoenicurus
phoenix
php
phra
phu
phylloscopus
pia
pianista
piano
piazza
pic
pica
picasso
picea
picoides
picus
piehinki
pieksa
pielavesi
pielis
piemonte
pieni
piera
piere
piero
pierre
pierva
pieski
pietari
pietarsaari
pietila
pihlajaniemi
pihlajavaara
pihlstro
pihtipudas
piikkio
piirteet
pikka
pikku
pilaris
ping
pinga
pings
pinguicula
pingviinnat
pini
pinicola
pink
pinochet
pinsio
pinus
pipeline
pirhonen
pirila
pirita
pirjo
pirkanmaa
pirkkala
pirttija
pirttima
pis
pisa
pisum
pita
pitcairn
pite
pitka
pitstop
pituffik
pius
pizza
pjotr
pl
pla
place
planck
planehta
planehtas
planehtat
planet
plantilla
plass
plassje
plata
plato
platon
platona
platt
platyrhynchos
player
playstation
plaza
please
plectrophenax
pleistosena
pleschanka
plexus
plommat
plotarea
plotdata
plura
pluskvamperfeakta
pm
pma
pmamis
pman
pmana
pmanat
pmas
pme
pmelac
pmelas
pmelaz
pmet
pmi
pmii
pmima
pmimat
pmimii
pmimiid
pmin
pminbeaivi
pminra
pmira
pmit
pmorusttet
pmot
pmu
pmudeamis
pmui
png
po
poaka
poasta
poastta
poava
poavan
poavvaga
poblacio
podgorica
podiceps
podravina
poe
poehta
poehtalas
pohja
pohjanmaa
pohjois
pohjolain
pohjolan
point
poke
pol
pola
polarinsitutt
polarinstituhtta
polaris
polarkovaleanta
polen
polena
polenis
police
polite
politica
politihka
politihkalac
politihkalas
politihkar
politihkarin
politihkas
politihkka
politihkkar
politihkkii
polkunen
polmak
polo
polonia
polska
polskalas
polskii
polskka
polskkagiella
polskkagillii
polskkalas
polvija
poly
polygona
polygonaceae
polygonum
polynesia
polysticta
polytonic
pomarkku
pompidou
ponsati
pont
pontevedra
poo
pop
pope
popla
popmusihkka
popula
populas
population
pori
porkkala
porkkanalaatikko
pornainen
porsa
porsanger
porsangerfjorden
porsgrunn
port
porta
portal
porth
portrait
portuga
portugal
portugala
portugalas
porvoo
pos
posavina
posio
posis
positiiva
positiivvalas
position
post
postposis
potd
potentia
potentilla
potientia
potter
pound
pour
poutasuo
power
powysa
poz
pp
ppa
ppagirjja
ppala
ppas
ppastallan
ppat
ppe
ppejeaddji
pper
ppes
ppi
ppit
ppmo
pr
pra
prabang
praha
pratchett
pratense
pratensis
pratibha
pray
pre
preassa
preassakonfera
predefinic
predika
predikatiiva
predloga
predloz
preface
prefektuvra
prefektuvrrat
premier
prentehus
prentehusa
prentehusas
prentehusat
prentehussii
prentejuvvon
prenten
prentii
prep
prepara
preposis
pres
preseansa
preseanssas
presideanta
presideantan
presideantava
presideantta
presideanttaid
presideanttain
presideanttan
presideanttas
presideanttat
president
presidential
presiserensiiddut
press
presse
pret
preterihta
preterihtta
preussigiella
previous
pri
price
pride
prideleavga
priinsa
primorje
prince
principal
prins
prinsa
prinseassa
prinseassat
prinsihpa
prinsihpaid
prinsihpas
prinsihppa
prinsipa
prinssas
prinssat
prinssi
pris
priva
prix
prize
pro
proava
problem
processara
processats
prof
profehta
professor
professora
professorat
professorin
profil
profiles
profit
progra
programes
programid
programmer
progreso
progressiivalas
progressive
project
projekt
pronomena
pronomenat
pronomeniid
propaga
prophecies
propheties
proregulus
pros
prosac
proseanta
proseantamearka
proseantta
proseanttas
proseassa
proseassas
proseavttat
prosent
proteiidna
proteiinnaid
proteiinnat
proteinsyntesa
proteus
protokomi
protonat
protozoat
provence
provences
province
provincias
provinsa
provinsii
provinssa
provinssain
provinssas
provinssat
prunella
prunellidae
prunus
ps
pskov
psyhkalas
psykoanalysa
psykoanalysii
psykologa
pt
ptyonoprogne
pu
pua
pubescens
public
publications
publikas
pudasja
puede
puerto
pugac
puglia
puheenvuoro
puig
puigdemont
pukara
pukkila
pula
pulkkila
pulo
pulsa
pulska
pumila
pumpe
pumpejuvvo
punkalaidun
punktum
punta
puntarenas
puolanka
puotila
pur
purola
purpose
purpurea
pusilla
putin
puumala
puy
px
pyha
pyhta
pyla
pyo
pyre
pyrrhula
pythagorasa
pytyopsittacus
pyykko
pyyko
q
qaanaaq
qaasuitsup
qaem
qafqaz
qaqortoq
qasigiannguit
qatar
qeqertarsuaq
qeqqata
quechua
queda
queen
querella
querquedula
questo
quetzaltenango
quez
quiche
quiet
quito
qvigstad
r
ra
raa
raahe
raajroe
raasepori
raasiku
raavrevijhke
raba
rabai
rabas
rabaslihtus
rabasvuođa
rabat
rabin
rac
race
radda
radiant
radika
radio
radioaktiiva
radios
radiosa
radius
radon
radøy
rae
rafael
raffaello
ragiella
ragierddu
ragillii
ragnar
ragnhild
ragunda
rahc
rahi
rahikkala
rahissta
rahkadit
rahkola
rahmaninov
rahmen
rahpa
rahpasa
rahpasedje
rahpasii
rahppojuvvojedje
rahppojuvvui
rahppui
rai
raid
raija
railway
raimo
rain
rainbow
raisio
raita
raja
rak
rakas
rakkautta
rakkestad
rakultuvrras
ralas
raleway
ralf
rallivuoddji
rallus
rama
ramberg
ramus
ran
rana
ranas
ranasmuorji
ranasmuorjjit
random
ranga
range
rangifer
rannankyla
ranta
rantakyla
rantala
rantasalmi
rantsila
ranttila
ranua
ranunculaceae
ranunculus
rap
raphae
rapida
raporterejuvvui
raportta
raporttas
rapper
rare
ras
rasa
rasavvonis
rasisma
rasismma
rasisttalas
rask
rasmus
rasmussen
rasputin
rasta
raste
rastila
rasttildii
rat
ratchadamri
ratifiseren
ratikyla
rationa
rationalas
rau
rauhanpalkinto
rauma
rauna
rauni
rautalampi
rautavaara
rautio
rautja
rauvola
ravda
ravddahis
ravddain
ravddalas
ravddamus
ravddas
ravggon
ravila
ravna
ray
raymond
raz
rba
rbbalas
rbbas
rbbaslas
rbbi
rbbolac
rbbolas
rbbu
rbbuid
rbbut
rbeaivi
rbeba
rbeeadni
rbevierru
rbevieru
rbevieruid
rbevierut
rbevirolac
rbevirolas
rbevirrui
rbi
rbma
rbmoa
rbmoloddi
rbmu
rbu
rbundet
rby
rd
rda
rdal
rdda
rddas
rddi
rddis
rden
rdi
rdima
rdimis
rdin
rdna
rdnestuollu
rdni
rdnideaddji
rdnideaddjit
rdnin
rdoba
rdus
rdusa
rdusas
re
rea
reaga
reagan
reagana
reagere
reahkka
reaiddut
reaks
real
reality
reason
reasta
reastaluvve
rebecca
rebellio
rebro
records
rect
rector
red
redaktevra
redirect
redirects
reese
reeve
ref
refera
refleaksa
reflist
regasnja
reggae
regiones
regiovnna
register
registrerejuvvon
regiuvdna
regiuvnna
regiuvnnas
regiuvnnat
regjeringa
regjeringen
regulidae
regulus
reha
rehkenasta
rehkenaste
rehkenastit
rehkenastojuvvo
rehkenastojuvvojit
rehn
reidar
reier
reijo
reima
reindeer
reindeerman
reinikkala
reino
reintegrerii
reinøya
reisande
reise
reisja
reiulf
reive
reivve
reivvet
reivviid
reivviin
reker
rekola
rekta
rektor
rela
relander
relatiiva
relative
relativitehtateoriija
relativitehtateoriijas
release
religiovnna
rem
rema
rembrandt
remember
remix
remixed
ren
renberg
renberga
rendalen
rene
renesa
reni
renner
renuncien
reo
repeat
repens
replikas
representert
republic
republihka
republihkain
republihkka
republika
rer
res
research
reserva
residencia
resource
respiratory
restaura
restora
restored
results
ret
retalhuleu
retouched
rets
return
reuion
reverberation
reverie
reverse
revised
revision
revolus
revolution
revolutiona
revolutionen
revonlahti
reykjavi
reyssouze
rfa
rfagre
rfeasta
rfeastta
rfeasttas
rfi
rflyttningarna
rga
rgabeaivvi
rgajoavku
rgb
rgba
rge
rgen
rgga
rggalmastin
rggas
rggiidanmuttuin
rggiideami
rggiideapmi
rggiideapmiroma
rggogoalsi
rgii
rgojeaddji
rgojuvvon
rgon
rgosat
rgovva
rgu
rgumat
rgun
rgut
rha
rhead
rhin
rho
rhode
rhodesia
rhundre
ri
ria
riagiella
rias
riat
ribahit
ribes
ribme
ribosomaide
ribosomain
ribosomat
ric
rica
ricas
rice
richard
richardi
richter
rico
rida
ridda
riddoduottarmuseat
riddu
ridduguovlu
ridibundus
rieban
riebanat
riebaniid
riega
riegadan
riegadii
riegga
riekta
riektac
riektec
riekteda
riekteveahki
riekteveahkki
riekti
rieu
rieux
rievda
rievdadan
rievdadeami
rievdadeamis
rievdadeapmi
rievdadedje
rievdadii
rievdadit
rievdadusa
rievdadusaid
rievdadusat
rievdaduvvo
rievdaduvvojedje
rievdaduvvon
rievdaduvvui
rievdama
rievdan
rievdat
rievddada
rievddadit
rievddai
rievssat
rievssatciza
rievssatfa
rievssatmuorji
rievttes
rievtti
rießler
riffi
riga
rigga
right
rights
rignat
rihkkojuvvon
rihkkot
rihkkumus
rihkolas
riho
rihppaoktavuođa
rihppaskuvlla
rii
riiba
riid
riidda
riiddu
riidduid
riidduide
riiddut
riidet
riidna
riidoc
riiguin
riihima
riik
riika
riikac
riikan
riikara
riikaradio
riikasearvi
riikasearvvi
riikii
riikka
riikkaba
riikkabeaia
riikkabeaiva
riikkabeaivea
riikkabeaiveva
riikkabeaivvit
riikkabeivviid
riikkabeivviide
riikkabeivviin
riikkada
riikkageaidnu
riikkagielat
riikkagiella
riikkaid
riikkaide
riikkaidgaskasac
riikkaidgaskasas
riikkain
riikkara
riikkas
riikkasearvi
riikkasearvvi
riikkat
riikkaviidosas
riikkavulos
riikkavuloz
riiko
riikola
riin
riitta
riittio
rijkka
rika
rikala
rikard
rike
rikka
rikkes
rikkis
rikkom
riksfo
riksma
riku
rila
rin
rinaldo
rindal
rinen
ring
ringerike
rings
rintala
rio
rioja
riparia
ris
riska
riskka
rissa
rista
risteadni
risten
ristiina
ristiinna
ristija
ristima
risto
risttalac
risttalas
risttalaz
rit
rita
ritola
rittuin
rittus
ritua
ritva
rivdet
river
rivera
rivtta
rivttes
rivttesla
rivttiid
riđus
riđđu
riŋge
riŋget
rja
rjalas
rje
rjedalen
rjeheaddji
rjeheapmi
rjil
rjila
rjilac
rjilas
rjilgiel
rjilgiela
rjilgiella
rjilgillii
rjilis
rjj
rjja
rjjabeaivi
rjjaga
rjjagis
rjjat
rjjis
rjoga
rjukan
rk
rka
rkabisma
rkan
rkanat
rkanba
rkanii
rkaniid
rkaniin
rkanis
rkans
rkanviiddidaniskkadeamit
rkela
rkfja
rki
rkija
rkilahti
rkilis
rkilit
rkka
rkkastuollu
rkkat
rkkistit
rkku
rkkuha
rkkuhuvvon
rkkus
rko
rkokomis
rkola
rkomeannu
rkomeanu
rkomeanus
rkosa
rktalas
rktis
rktisa
rku
rkui
rkus
rla
rlac
rlas
rld
rm
rma
rmf
rmla
rn
rna
rnas
rnberg
rno
rnsko
rnu
rnva
ro
road
roahkkeruossa
roald
roasmmohuvvan
roavvenja
robert
roberto
roberts
robertsfors
robertson
robinson
robot
robotasoahti
rock
rockjoavku
rocks
rocky
rog
rogala
rogaland
roger
rogers
rogiel
rogiela
rogielas
rogiella
rogier
rogillii
rohkos
rohkosa
rohkosii
rohtogaccet
rohtovizar
rohttuda
rok
roland
rolf
rolffa
rolla
rollag
rollas
rollat
roma
romagna
romalac
romalas
roman
romanaid
romane
romania
romanias
romanifolk
romanov
romas
rome
romerike
romeva
romney
romsa
romsda
romsdal
romsdalas
romssa
romssas
romssasullo
romssasuolu
ron
ronald
ronaldo
ronja
ronneby
roosevelt
roosevelta
ropstad
rosa
rosaceae
rose
roseus
rosshalde
rotavirus
rotundifolia
roubaix
rousseau
route
routledge
rovira
rovvilt
rovviltspørsma
row
rowling
rows
roy
royal
rpa
rpf
rpio
rppu
rr
rra
rrabaja
rrac
rran
rrana
rranis
rrasta
rrat
rre
rrea
rrebes
rrejeaddjit
rrejedje
rrejuvvon
rrela
rrelahttu
rrelahttun
rrelahttusearvvit
rrelahtut
rrelastavizar
rremarigiella
rremiid
rren
rrera
rresa
rret
rreviđji
rrez
rri
rrii
rriiga
rriika
rriikkas
rru
rrugasat
rrui
rrunamma
rs
rsa
rsta
rt
rta
rtan
rte
rtegis
rten
rter
rterbuch
rtha
rtidii
rtidit
rtni
rtniid
rtniide
rtnis
rtnit
rtsila
rtta
rttai
rttaid
rttain
rttal
rttas
rttat
ru
rua
ruah
rubecula
ruben
rubens
rubetra
rubrum
rubus
rudolf
rudolph
rueppelli
rufescens
ruff
ruficollis
ruha
ruhta
ruhtadan
ruhtadanministarat
ruhtadeamis
ruhtadeapmi
ruhtadili
ruhtaovttadagat
ruhtaovttadat
ruhtava
ruiduhttin
ruijan
ruiz
rukses
ruksesbeibbos
ruksesc
ruksesfiehta
ruksesgardistan
ruksesla
ruksesruoivil
ruksessoadja
ruksesspektrasirda
ruktaja
ruktui
rull
rumas
rumbbostalli
rumbbut
rumex
run
runageađgi
rundberg
rune
runeberg
runeberga
runoja
runot
ruoholahti
ruoholahtis
ruohonen
ruohtta
ruohttama
ruohttasat
ruohttasiid
ruohttasiin
ruokolahti
ruokoniemi
ruoksadin
ruoksat
ruoktosiiddut
ruoktosiidu
ruoktot
ruoktu
ruoktut
ruona
ruonas
ruong
ruos
ruossa
ruossaduors
ruossalas
ruotagillii
ruotnasat
ruots
ruotsala
ruovada
ruovddagas
ruovddi
ruovddis
ruovdea
ruovdeciza
ruovdegeaidnostas
ruovdema
ruovdi
ruovesi
ruovttoluotta
ruovttu
ruovttuba
ruovttueatnamis
ruovttueatnan
ruovttuguovllu
ruovttuguovllus
ruovttuguvlui
ruovttuid
ruovttuin
ruovtturiikan
ruovtturiikkain
ruovttus
ruovttusiiddut
ruovttusiidu
ruoŧa
ruoŧademokra
ruoŧagiel
ruoŧagiela
ruoŧagielas
ruoŧagiella
ruoŧagillii
ruoŧain
ruoŧas
ruoŧelas
ruoŧŧa
ruoŧŧelac
ruoŧŧelas
rupestris
rupmas
ruprecht
rus
rusesabagina
ruska
rusko
russell
russia
russian
russland
russun
rustica
rusticolus
rut
ruth
rutila
ruuhikoski
ruukki
ruvdnaprinsa
ruvdnaprinseassa
ruvdnaprinseassain
ruvdno
ruvke
ruvkedoaibma
ruvkedoaimma
ruvnno
ruvnnu
ruvsus
ruvsut
ruvttofa
ruvttot
ruz
ruđa
ruđaid
ruđalac
ruđalas
ruŋgu
ruŧŧii
rv
rva
rvala
rvalan
rvalii
rvalit
rvalusaid
rvalusain
rvaluvvo
rvaluvvon
rve
rvela
rven
rvenas
rvenkyla
rvenpa
rvenpera
rvesk
rvi
rviesja
rvikyla
rvis
rviseutu
rvoga
rvomearkka
rvonama
rvonamat
rvosac
rvosas
rvsk
rvu
rvui
rvva
rvvaga
rvvis
rvvisin
rvvohan
rvvolas
rvvos
rvvu
rvvuid
rvvus
rvvusnai
rvvut
rwanda
rwandai
rwandalac
rwandalas
rwandas
ry
ryd
ryda
ryha
ryo
ryti
rz
rælingen
ræsonneret
rður
rømskog
røst
røyken
røymo
s
sa
saa
saaledes
saamelaiset
saamelaiska
saamelaisten
saamen
saamenkieliset
saami
saamma
saamskij
saana
saara
saaran
saaremaa
saarenkyla
saari
saarija
saarikoski
saba
sabbat
sabbata
sabbaten
sabbatin
sabehat
sablon
sac
sacatepe
sachsen
sacred
sacrified
saddam
sadde
sadja
sadjeha
sadji
saemie
saemien
safari
saga
sagai
sagat
saha
sahalahden
sahan
saheaddji
saheami
saheamis
saheapma
saheapmi
sahii
sahit
sahus
sahusa
sahusaid
sahusaiguin
sahusas
sahusat
sahussan
sahuvvon
sahuvvui
sai
said
saiduvai
saijets
sailor
saimaa
saint
sainte
saitama
saja
saji
sajiin
sajis
sajos
sajosa
sajosis
sajus
saka
sakari
sakka
sakrameanttain
sakrameanttat
sakramentii
saksala
saksigiela
saksigiella
saksilac
saksilas
saksofona
saku
sala
salaam
salainen
salama
salamanca
salar
salis
salix
salla
sallit
salluma
sally
salma
salmenkyla
salmi
salminen
salming
salmo
salo
saloinen
salokyla
salomonsullot
salon
salonkyla
salto
salvador
salvelinus
salwam
sam
saman
samar
same
samefolket
samefolkets
samegielat
samegillii
sameland
samemis
samene
samenes
samer
samerna
sametinget
sami
samica
samid
samis
samisk
samiske
samlet
sammallahti
sammen
samnanger
samnorsk
samoa
samojedagielat
sampo
samu
samuel
samuelgirji
samuli
san
sanakirja
sanctus
sand
sandberg
sande
sandefjord
sandham
sandra
sandvik
sandvika
sandvikena
sandøy
sandøya
sanila
sanilas
sankt
sanna
sanner
sanomat
sans
santa
santiago
santo
sao
sapa
sapiens
sapmi
sar
sara
sarajevo
saran
sardinia
sarga
sargent
sarja
sarkaniemi
sarkkila
sarkozy
sarpsborg
sarri
sarrit
sars
sarsy
sartre
sas
sass
sastamala
sat
satakunta
satellihta
satellihtta
satellihttagovas
satellite
sativum
satni
satte
satu
satuja
saturday
saturnus
saturnusa
saudi
sauli
sauvo
sava
savda
save
savela
saviniemi
savio
savitaipale
savo
savoie
savolainen
savonlinna
savvon
saxatilis
saxicola
saxifraga
saxno
saxon
says
saz
saǥai
sby
sc
scalemajor
scandiacus
scandinavian
scar
scg
schildt
schirra
schism
schjerfbeck
schjerfbecka
schleswig
schmidt
schoeniclus
schoenobaenus
school
schuster
schwarzi
science
scifi
scifigirjec
scirpaceus
scoba
scotland
scott
scull
sd
sdoalla
sdoallat
sds
se
sea
seabbo
seaddji
seaggi
seaguheami
seaguhit
seaguhuvvon
seahka
seaibbi
seaibena
seaibi
seailluhan
seailluheapma
seailluhit
seaillui
seailun
seakka
sealggi
sealla
seallaid
seallain
seallas
seallaseaidni
seallat
seallava
seami
seamis
seamma
seammala
seammanamat
seammanammasas
seammas
seammasturrosas
seammasullasas
seamos
seamus
seapmi
seappot
seapput
searva
searvan
searvat
searve
searvegoddi
searvegotti
searvi
searvigodda
searvin
searvvadanluomusvuohta
searvvai
searvvaiga
searvvi
searvvis
searvvit
seasta
seastinba
seattle
seaŋa
sebastia
second
seconds
secret
seda
sedin
sedje
see
sefabrihkka
seg
segovia
segu
seh
seija
seilon
seina
seinare
seine
seinmellomalderen
sekai
seksua
sekundda
sekuntta
sela
selbu
sele
selena
selje
selka
selkupagiella
selma
semb
semifina
semiid
semina
seminar
semirom
sen
sena
senator
sendte
senegal
senior
senj
senja
sentimehter
sentralbyra
sentrum
seoul
sepa
seppa
seppo
september
ser
serbia
serbiagiella
serbialas
serbias
serbokroatiagiella
sergei
sergina
serie
serier
series
serif
serinus
sermeq
sermersooq
serrator
serret
sert
serve
servet
servi
servodaga
servodagaid
servodagain
servodagas
servodagat
servodahkii
servodat
servodatdiehtagiid
servodatlas
servodatma
servodatsihkarvuođa
servos
servviid
servviin
set
sett
seura
seuraavan
seuran
seuruja
sevdnjes
seven
severin
severus
sevilla
sevnnjodeami
sevnnjodeamit
sevnnjodeapmi
sex
seychellsullot
seđelis
sg
sge
sgeassima
sgeassimis
sgeassinpla
sgeassit
sgodda
sgoddi
sgs
shadow
shahadah
shahr
shakespeare
shakira
shatner
sheffield
shefki
shi
shift
shiga
shikoku
shimane
ship
shizuoka
sho
shot
should
show
showbanda
shown
shrine
shtml
shu
si
sia
siagirjec
sialas
sias
sibelius
sibilatrix
sibirja
sibirjja
sica
sicilia
sick
sida
sidan
siddhartha
siddjiide
side
sider
sidjiide
sidney
sie
siebe
siebza
siecles
siegfried
sieidda
sieiddit
sieiva
siellaga
siellat
siellu
siemon
siepmanat
sierra
sierraduopmostuollu
sierrala
sierralagaid
sierralas
sierramielalas
sierramielatvuođat
sierrana
sierranan
sierraneami
sierraneapmi
sierranedje
sierranit
siesa
sievi
sieđgacivkka
sieđgaskierri
sieđggaide
sieđggat
sig
sigbjørn
sigdal
sigga
siggjiidi
sigjidi
sigmund
signa
signe
signs
sigrid
sigurd
sigvard
sigøynarar
sihii
sihit
sihke
sihkkar
sihkkarastindihte
sihkkarastit
sihkkarit
sihkkarvuođa
sihkkojuvvon
sihko
sihta
sii
siid
siida
siidda
siiddas
siiddu
siidduid
siidduide
siidduin
siiddus
siiddut
siidsa
siidu
siiguin
siikainen
siikaja
siikajoki
siikalatva
siilinja
siin
siiri
siivu
sijte
sikh
sikila
silba
silbaba
silbba
sildega
sildi
silesiagiella
silesiagillii
silje
silkebuokc
sillanpa
sillen
silmarillion
siltala
silva
silvestris
silvia
silvo
sima
simana
simensen
simeoni
simma
simo
simon
simonkyla
simple
sin
sina
since
sine
singapore
singer
singh
single
singlet
singuin
singula
singularitehta
sininen
sino
sint
sinu
sinun
sioux
sipila
sipoo
sir
sirda
sirdas
sirde
sirdit
sirdojuvvojedje
sirdojuvvon
sirdojuvvui
sirdolac
sire
sirenikagiella
siri
sirkka
sirleaf
sirrejedje
sirrejit
sirret
sis
sisa
sisafa
sisak
sisar
sisc
sisdoalla
sisdoallu
sisdoalluboksa
sisdoalu
sisimiut
siskelis
siskil
siskka
siskkibut
siskkildas
siskkit
siskkobealde
siskkobeale
siskkos
siskkoz
sisko
sispolitihkalas
sisriikkalas
sist
sistan
siste
sister
sisters
sisttis
sisttisdoalai
sisttisdoalas
sisttisdoalla
sisttisdolle
sisttisdollet
sisttiset
sit
sita
sitruss
sitt
sitta
sitter
sittidae
situacio
siun
siuntio
siv
siva
sivahusaid
sivahusat
sivaid
sivalas
sivas
sivasgo
sivat
sivdna
siviila
siviilaba
siviilaseađu
sivistysseura
sivva
sivvan
size
siŋgel
siŋgelat
siŋka
siŋkka
sja
sjabloon
sji
sjo
sjælla
sjølv
sk
ska
skabelon
skabmagovat
skagerrak
skahttima
skahttimis
skahttin
skal
skan
skandina
skandinavisches
skandinaviske
skasii
skbo
skby
skealbma
skearrofitnodat
skearru
skearruid
skearruin
skearrus
skearrut
skearut
skeaŋkahus
skedsmo
skei
skela
skelleftea
skenet
skeŋke
skeŋkii
ski
skien
skiena
skierri
skierroba
skierru
skierrus
skieru
skierus
skierva
skiervva
skihpa
skii
skiipa
skiippagurra
skilkeska
skille
skin
skire
skirri
skirrit
skit
skja
skk
skka
sko
skoarra
skodje
skog
skoglund
skojuvvojedje
skole
skolelinux
skolensledelse
skolt
skopje
skoski
skotla
skra
skram
skriftspra
skruva
skruvs
sku
skuhtton
skulffiide
skum
skuolffit
skuolfi
skuvla
skuvlaagis
skuvlagiella
skuvlama
skuvlava
skuvlaverra
skuvlejumi
skuvlejupma
skuvlejupmi
skuvlejuvvon
skuvlema
skuvlen
skuvlii
skuvlla
skuvllaid
skuvllain
skuvllas
skuvllat
sky
skyla
skyline
skytrain
sl
sla
slagsvold
slaughterhouse
slavonia
sledju
sleep
slettaelva
slidre
slik
slincraze
sll
slova
slovakia
slovakiagillii
slovenagiella
slovenia
sls
sm
sma
smahtta
smaller
sme
smii
smiles
smirnov
smith
smithsonian
smuvai
smuvva
smuvvan
smuvvet
smøla
sn
sna
snake
snakka
snasa
snellman
snihkka
snillfjord
snl
sno
snoasa
snoasas
snow
so
soabahallanra
soagit
soahkes
soahki
soahpamus
soahta
soahtea
soahteba
soahtefa
soahterihkkumus
soahtes
soahteveaga
soahteveagas
soahteveahka
soahtevehkii
soahti
soahttin
soai
soaita
soaitta
soaja
soajit
soaldda
soames
soamet
soapma
soađegili
soađegilis
soađegilli
soađi
soađia
soađis
sobbar
sober
sobre
soc
socie
sociedad
societatis
society
sodaga
soddjil
sodja
sodje
sodjet
sodju
sofe
sofi
sofia
softengine
soga
sogaid
sogalac
sogas
sogat
sogn
sogndal
sohka
sohkabeali
sohkabealla
sohkabealli
sohkabuolva
sohkar
sohkii
sohkkara
soini
soiniemi
soinila
soitet
soja
sojahanoahppu
sojahuvvo
sojahuvvojit
sokk
sokrates
sokratesa
sol
sola
solaris
solbakk
solberg
solberga
sole
solheim
soli
solid
solista
solitarius
solitude
solju
solleftea
sollentuna
solola
solund
solveig
som
soma
somalia
somateria
somby
sombys
some
somero
son
sonderburg
song
songlines
songs
sonja
sonkaja
soppa
sorbigiella
sorbmema
soria
sorjavas
sorjjasmeahttun
sorsakoski
sorsele
sorø
sosia
sosialisttalas
sosioleakta
sosioleavtta
sosiologiija
sothogiella
sotkamo
sotnabeaivi
sotnabeivviin
sotra
soul
soundtrack
source
south
southern
sov
soviet
sovjet
sovjetlihttu
sovjetlihttulas
sovjetlihtu
sovjetlihtus
sovkina
sow
sp
spa
space
spagetti
spaghetti
sparrooabba
spb
speadjalasta
speaks
speallan
speallanha
speallat
speallu
spealu
spealut
spec
spectabilis
spede
speke
spektra
spelar
spencer
spesia
spesialistadearvvas
spiehkastagaid
spiehkastagat
spiehkastat
spiehkkasa
spiehkkaseapmi
spink
spinus
spiovdna
spira
spirit
spitsbergen
split
spoađđoduors
spodocephala
sponta
sport
spra
sprach
sprache
sprachen
sprachlehre
spriita
spring
sprog
sprogart
sproglære
spydeberg
sqrt
square
sr
sreaŋggaid
sreaŋggat
sri
ss
ssa
ssabearalspeallu
ssabearalspealu
ssabearalspealus
ssac
ssaid
ssan
ssanba
ssas
ssat
ssb
sse
ssea
ssedeaddoa
ssedeattu
ssedeattus
ssedettolas
ssejuolggat
sseoahkun
sses
ssesiiddot
sset
sseva
ssg
ssi
ssidis
ssidit
ssiid
ssiiguin
ssiin
ssin
ssis
ssit
ssmo
ssn
ssner
sspn
ssr
st
sta
stad
stadionas
stadium
stala
stalihtti
stalin
stalit
stallama
stallan
stallanreporttar
stallu
stalohpa
stamforda
stan
stanamma
stand
standa
standard
standardama
standing
stange
stanisław
stanley
stann
star
stari
start
stas
state
statens
states
statfin
stathelle
station
statistical
statistics
statistihkalac
statistihkalas
statistikk
statistisk
statistiska
statoids
statoil
status
stavanger
stavangeris
stay
stbr
ste
steaddji
steaddjit
steami
steapmi
stearkalas
stearkalasa
steavlideamis
steel
stefan
steffen
stegovva
steinar
steinem
steinfjell
stejoavkkuid
stejoavkkut
stella
stellaria
stellata
stellen
stelleri
stellmacher
stellung
stenarti
stephen
stepopulas
steppenwolf
stera
sterbottena
sterby
stergo
sterkast
sterna
sternorrla
stersund
stevdnega
stevdnii
steve
steven
sti
stida
stideaddji
stidedje
stidii
stidit
stien
stientjie
stift
stig
stii
stiila
stille
stilling
stinkfist
stipeandda
stipeanddaid
stit
stivra
stivralahttu
stivre
stivrejeaddji
stivrejedje
stivrejumis
stivrejupmi
stivrema
stivren
stivrenguovlu
stivret
stivrii
stivrra
stivrrain
stivrras
stja
stm
stma
stmanla
sto
stoa
stoahkama
stockfleth
stockholbma
stockholm
stockholmma
stockholmmas
stohpoga
stokke
stoltenberg
stoltenberga
stone
stor
stora
stord
stordal
store
stories
storslett
stortinget
storuman
storumana
stra
strada
strand
stranda
strange
stranger
strangers
strasbourg
stravinsky
street
strepera
striata
strider
strigidae
strikland
string
strix
stro
struktuvra
struktuvrra
struve
stryn
stta
sttas
stte
stti
sttiid
sttiin
sttis
sttit
sttu
stu
stuart
studeantta
studeanttaid
studeanttat
studerejit
studeren
studeret
studerii
studies
studio
stuhka
stuibmejeddjiid
stuimmiid
stuimmis
stuimmishttps
stuimmit
stuollu
stuora
stuoradiggea
stuoradiggejoavkkus
stuoradiggepresideantta
stuoradiggeva
stuoradiggi
stuoradikki
stuoradikkis
stuoragiljobas
stuoramus
stuorat
stuoribut
stuorimus
stuorimusat
stuoris
stuorit
stuoritla
stuorra
stuorrabrita
stuorradigga
stuorradiggea
stuorradiggepresideantan
stuorradiggeva
stuorradiggi
stuorradikki
stuorradikkis
stuorrafiehta
stuorrafursta
stuorrala
stuorraska
stuorrava
stuorru
stuorrugoahta
stuorrun
stuoru
stuorui
sturnidae
sturnus
sturrodaga
sturrodagas
sturrodat
sturron
sturrosas
sturrot
stus
stusa
stusaid
stusas
stusat
stussan
stuvai
stuvva
stuvvan
stuđeantadutkosa
style
støre
største
su
sua
suba
submi
subpage
subsp
substantiiva
substantiivvain
substantiivvat
substantiv
such
suchitepe
sud
suda
sudan
sudana
sudda
suddadeamis
suddadit
suddan
suddat
suddet
suddje
suddjet
suddoid
sudnji
sudno
sudnos
sudnuide
suffering
suggested
suhkkes
suhpi
suinna
sujala
sula
sulastahtta
sulastahttet
suldal
sulkava
sulla
sullalas
sullalasat
sullasas
sulli
sullii
sullo
sulloriika
sullos
sullot
sulloz
sullui
sulluid
sulluide
sulluin
sumeragiella
summal
sun
sund
sunda
sunday
sundsvall
sung
sunji
sunmi
sunna
sunndal
sunnmøre
suno
sunrise
sunset
suo
suodjala
suodjaleaddji
suodjalit
suodjalus
suodjalusa
suodjaluvvon
suodji
suohkadin
suohkan
suohkana
suohkanat
suohkaniid
suohkaniin
suohkanis
suohkansa
suohkanstivrras
suohkanviessu
suohkanviesu
suohkat
suohkatvuohta
suohtas
suoidnec
suoidneleavs
suoidnema
suoji
suojoki
suokŋadahkki
suola
suoli
suollemas
suollemaslihttus
suoloc
suoloriika
suoloriikkat
suolovuopmi
suolu
suom
suoma
suomagiel
suomagiela
suomagielas
suomagielat
suomagiella
suomagillii
suomalainen
suomalais
suomalaisen
suomaluokta
suomaluovtta
suomaruottelas
suomaruoŧŧelac
suomaruoŧŧelas
suomas
suomen
suomenniemi
suomi
suomusja
suomussalmi
suomussalmis
suonat
suonenjoki
suonikyla
suonjardeami
suonjardeamis
suonjardeapmi
suonnjel
suonnjela
suonnjelis
suopma
suopman
suopmana
suopmanat
suopmanguovllut
suopmanii
suopmaniid
suopmaniin
suopmanis
suopmelac
suopmelas
suorga
suorggi
suorggis
suorggit
suorgi
suori
suoris
suorpmasiid
suorrespa
suorsa
suorssa
suorta
suortta
suotnas
suotnjarat
suovastuhtta
suovastuhttin
suovastuhttit
suovastuvvon
suovkacihci
suovvaguoika
super
superbus
supernovaid
supernovan
superstar
supiidna
supmii
supplied
suprem
sur
suran
surfet
surggiin
suriname
surnadal
surnia
sus
susa
susanna
susannas
susanne
susat
susiin
sut
sutela
sutge
sutnje
suttuid
suuha
suupohja
suur
suurin
suurkontio
suurpiiri
suutarla
suuva
suvas
suvi
suðurland
suðurnes
sv
sva
svaipa
svalba
svalbard
svazieana
svd
sve
svecica
svein
sveio
sveitarfe
sveitsas
sven
svensk
svenska
svenssons
sverige
sveriges
sverigesradio
sverre
svg
svinhufvud
svolvær
svt
svært
sw
swallow
swan
swazieana
swazieatnama
sweden
swedish
syda
syddanmark
sydney
sydsamisk
sykkylven
syklalas
sylva
sylvaticum
sylvester
sylvi
sylvia
sylviidae
symbola
symbolain
symbolan
symmetriija
syndroma
synnøve
synoda
synta
synty
syria
syrialas
syrja
syrmia
sysma
system
systema
systemas
systembolaget
syva
sz
szablon
szo
særleg
søndre
sør
sørli
sørover
sørum
sørvest
t
ta
taal
taan
tab
tabealla
tabeallas
tabid
table
tabriz
tabula
tacvba
tadorna
tahmapa
tai
taida
taidemuseo
taigalastavizar
taina
taipale
taipalsaari
taipei
taito
taivahas
taivalkoski
taivassalo
taivutusopin
taiwan
taiz
tajæg
taka
takana
take
tala
talai
talar
talbot
tale
talent
tales
talet
taliesin
talk
tall
talla
tallama
tallamiid
tallamiin
tallamis
tallan
tallandoalut
tallat
talle
tallet
talli
tallinn
tallinna
tallit
tallojuvvo
tallojuvvon
tallojuvvui
tallon
tallui
talo
talola
tamara
tammela
tammi
tammima
tammisto
tammsaare
tampere
tamperes
tan
tana
tanba
taneli
tango
tanila
tanja
tankobon
tansa
tansanias
tanza
tanzaniaid
tanzanias
tapani
tapes
tapetinva
tapio
tapiola
tar
tara
tarcov
tarinoita
tarja
tarjei
tarn
tarragona
tarsiger
tartu
taru
tarvola
tarzan
tas
tasa
tastko
tata
tatrar
tatum
taulu
tauno
tawakkol
tawakkul
taylor
taytu
taz
tbilisi
tdoarjjaba
te
tea
teaddji
teaksta
teakstabihta
tealtta
team
teami
teapmi
tearbma
tearpma
tearpmat
teau
teavstta
teavsttaid
teavsttain
teavsttas
teavsttat
teborg
teborga
teddjiide
tedje
teema
teen
tefekkur
teheran
teherana
teheranas
tek
teka
teknihka
teknihkalas
teknihkka
teknologiija
tel
telefovnna
telefovnnas
telegra
telema
telemark
televis
tell
telugu
tem
tema
temmes
tempel
tempelis
temperatuvra
temperatuvrra
temperatuvrrain
temperatuvrras
templat
template
templates
temple
ten
tenay
tenerife
tengstro
tennessee
tenora
tenzin
teo
teodor
teologa
teologalas
teologiija
teorehtalas
teoremain
teoriija
teoriijaid
teoriijain
teoriijan
teoriijas
teoriijat
teppana
teppo
tera
teresa
teresai
teresas
terese
terhi
terho
terje
termina
terminal
termwiki
tero
terra
terry
terttu
teruel
tervetuloa
tervo
tervola
tes
test
testameanta
testameantta
testamentii
tet
tetrao
tetraonidae
tetrasykliinnat
tetrix
tettiin
tettstader
tettsteder
tettstedet
teuva
teuvo
tevdnet
texas
text
texte
texts
th
tha
thai
thaieana
thaieatnama
thailand
thales
thalesa
than
thank
thanon
that
the
their
then
theodor
theory
there
theunis
they
thing
this
thomas
thomasson
thon
thor
thorbjørn
thoughts
three
through
thu
thule
thumb
thumbnail
thunaer
ti
tibet
tibeta
tibetagillii
tica
tid
tida
tidskrift
tie
tiedekunta
tienne
tieteiden
tietolipas
tif
tiff
tiger
tii
tiihion
tiina
tiipa
tiippa
tikka
tikkala
til
tilbake
tilknyting
till
tillegg
tillon
tim
time
timeaxis
timelapse
times
timestamp
timo
timor
timra
timsfors
timsforsa
tingsa
tingsryd
tingsryda
tingvoll
tio
tiran
tis
tiskarla
tit
titan
titanic
title
titov
titta
tiziano
tja
tjea
tji
tjo
tjuvrieh
tjøme
tk
tka
tkegaskka
tki
tkkagilvvus
tkki
tkkiin
tkkis
tkkos
tkyla
tl
tla
tlas
tld
tna
tne
tnegirji
tnegirjji
tnegirjjiid
tnegirjjis
tnegirjjit
tneha
tnejođiheaddji
tnejođiheaddjin
tnejođiheaddjit
tneluohka
tneluohkka
tneluomusvuohta
tneortnet
tnera
tnevuorka
tni
tnin
tnjava
tnjunnos
to
toardna
toardnaga
toartna
tobago
toc
tochigi
toei
togain
togat
toggle
togo
tohmaja
toholampi
toid
toijala
toikkala
toimitteita
toimituksia
toini
toivakka
toivila
toivo
toivola
tokio
tokushima
tokyo
tokyopop
toledo
tolga
tolkien
tom
toma
tomas
tomb
tome
tomohiro
ton
tone
tonga
toni
tonna
too
tool
tools
toomas
top
topelius
topi
topografiija
topp
tor
tora
torat
torbjørn
tore
torhola
toriidda
tormod
torne
tornen
tornensis
toronto
torontos
torp
torquatus
torquays
torquilla
torsa
torsby
toscana
tot
total
totalt
toten
totonicapa
totti
tottori
tour
tove
tower
towers
town
towns
toyama
tr
tra
tracks
tracy
trad
trade
tradis
tradisjonelt
trakta
trang
transatla
transition
transkriberenvuoga
translate
translated
translation
translations
trapesa
traryda
traryds
tre
tree
trentino
tres
tribunal
tricolor
tricolorvar
tridactyla
tridactylus
trier
trifolium
triivik
trine
trinidad
trivialis
tro
troandimis
troandin
trochiloides
trochilus
troglodytes
troglodytidae
trojalas
trollius
troms
tromsdalen
tromso
tromsø
tromsøbrua
tromsøya
tromsøysundtunnelen
trond
trondheim
tropihkalas
trosa
trosten
troubadour
trude
true
trumbbut
trump
trumpetista
trussamfunn
trutta
truvdnui
trygve
trysil
trøen
trøgstad
trøndela
trøndelag
ts
tsa
tscheremissischen
tsi
tswanagiella
tt
tta
ttabiegga
ttaga
ttagilvvus
ttagilvvut
ttanuorti
ttaosiin
ttara
ttasa
tte
ttelser
tti
ttiid
ttiiguin
ttiin
ttila
ttingen
ttir
ttirgilvvuin
ttirgilvvut
ttirgoahkka
ttirvuođa
ttirvuođagilvvuid
ttis
ttisin
ttisvuohta
ttisvuohtan
ttisvuođaid
ttisvuođain
ttisvuođat
ttit
ttmes
tto
ttoa
ttovuonccis
ttrar
ttu
ttuid
ttut
tu
tua
tuba
tuberkulosa
tuberkulosii
tui
tuija
tuiskula
tujula
tukiala
tulgah
tumi
tumiid
tun
tundra
tunealla
tuneallas
tunica
tunisia
tunsberg
tunu
tunus
tuo
tuomaala
tuomas
tuomi
tupmi
turdidae
turdus
turi
turisma
turistaguovdda
turisttat
turkiija
turkmenistan
turku
turkus
turning
turpo
turpon
turull
turun
turunen
turunmaa
tus
tusa
tusaid
tusaide
tusas
tusat
tuslihttu
tusministtarge
tussii
tust
tusvulos
tutsa
tutsaid
tutsain
tutsanjunnoz
tutsat
tuu
tuukkala
tuula
tuuleen
tuuleveski
tuupa
tuuparecords
tuuru
tuusniemi
tuusula
tuvai
tuvalu
tuvrrahasat
tuvvan
tuvvon
tuvvui
tuy
tv
tva
tvangsflyttingen
tvia
two
txantiloi
tydal
tyko
tynset
tyo
type
typically
tyrna
tyske
tysnes
tyto
tytto
tønsberg
u
ua
uagiela
ubmeje
ubmi
ubmisa
ubuntu
ucca
ucla
uda
udda
uddan
uddi
uddni
udi
udm
udmurtagiella
uduvvon
ue
uetersen
uga
uganda
ugandai
ugandas
ugralas
ugric
ugricae
ugrilainen
ugrilaisen
uha
uhan
uhca
uhcaba
uhcabuokc
uhcac
uhcacihci
uhcanjukc
uhcas
uhcaviros
uhcca
uhcco
uhci
uhcibun
uhcit
uhedje
uhii
uhit
uhtta
uhttima
uhttit
uhus
uhusa
uhusain
uhusat
uhusvuohki
uhuvvon
ui
uid
uiga
uiguragiela
uiguragiella
uin
uit
ujuha
ujuheaddji
ujuheamit
ujuhedje
ujuhii
ujuhit
ujuhus
ujuhusat
ujuhuvvon
ujume
uk
ukc
ukens
ukraina
ukrainagiella
ukrainalas
ukrainas
uksa
ukŋii
ul
ulbmii
ulbmil
ulbmila
ulbmilat
ulbmiliid
ulbmilin
ulbmosat
ulda
ulike
ulkomaat
ulla
ullensaker
ullensvang
ulli
ulrik
ulstein
ultra
ultrajiena
ultrajietna
ulula
ulvik
ulvila
uma
umbria
umea
umi
umiid
umiin
umis
umit
umk
ummolciza
un
una
unalba
unalla
unamir
unbuonjus
und
undata
under
underground
underra
underside
understanding
undertow
undset
une
unesco
ung
unga
ungdom
ungdomsskole
unge
unholdum
unicode
unidos
union
unionen
uniovdna
uniovdnii
uniovnna
uniovnnas
unit
united
universa
universe
universidad
universita
universiteahta
universitehta
universitehtain
universitehtas
universitehtat
universitehtii
universitet
universitetet
universiteti
universitets
universitetsforlaget
university
unix
unja
unknown
unla
unna
unnafiskesjievz
unnalivkka
unnavizar
unni
unnibut
unnida
unnidit
unniduvvon
unnimus
unnimusat
unnimusta
unnin
unnit
unnitlogu
unnitlogugielat
unnitlogut
unno
unnon
unnu
unnui
unohas
unreleased
untersuchung
unvuohki
unwin
uo
uoc
uoffisielle
uogga
uohte
uohtegielas
uohtejagi
uohtejagiid
uohtejagit
uohti
uoigan
uoigi
uojaha
uojahan
uojaheaddji
uojaheaddjit
uojaheami
uojahedje
uojahettiin
uojahii
uojahit
uojanas
uojanasat
uokkis
uokŋa
uokŋadahkki
uokŋadahkkit
uolbma
uolda
uoldda
uolli
uolmmat
uonja
uorvu
uorvvasga
uos
uotnja
uovga
uovgatoardna
uovgga
uovggas
uovgi
uovui
uovvovac
uovvovas
uovvu
uovvumus
uovvumuz
uovvun
uovvut
uovz
uoz
uoza
uozihan
uođi
uoŋa
uoŋaid
uoŋat
up
upernavik
upload
upma
upmi
upmin
upmisa
upplands
uppsala
uppvidinge
upright
ur
ura
uralensis
uralic
uralica
uranus
uranusa
urban
urbicum
urdugillii
urfolk
urho
urjala
url
urmia
urnes
urogallus
urolasta
urolastas
urpo
urpon
urrevizar
urrevizarat
urshult
urshulta
ursula
ursus
uruguay
uruguays
us
usa
usage
usas
use
used
user
uskelan
uskonnonfilosofia
usteb
ustibac
ustibat
ustibiid
ustibis
ustit
ustitlas
ustulatus
usuario
ut
utah
utaja
utan
utanfo
utc
utdanning
uten
utente
utf
utgivning
utgjer
utgjorde
utm
utoaztekalas
utrio
utsi
utsira
uu
uuh
uummannaq
uurainen
uus
uusi
uusikaarlepyy
uusikaupunki
uusikyla
uusimaa
uusisuomi
uuteen
uutiset
uv
uva
uvai
uvas
uvc
uvdna
uvdnac
uvdnageassu
uvdnagihppun
uvdnai
uvdnama
uvdnan
uvdnaoappa
uvdnara
uvdnasubstantiivvas
uvdnasubstantiivvat
uvdnateoriija
uvdnii
uvgehuslas
uvgehussearvi
uvges
uvget
uvnna
uvnnaid
uvnnaide
uvnnaiguin
uvnnain
uvnnalas
uvnnas
uvnnat
uvssa
uvva
uvvama
uvvan
uvvat
uvve
uvvet
uvvo
uvvojit
uvvojuvvo
uvvon
uvvot
uvvovas
uvvui
ux
uz
uzbekistan
uđiid
uđit
uŋga
v
va
vaala
vaalit
vaapste
vaara
vaasa
vac
vaccinium
vad
vademekum
vadstena
vadsø
vaduz
vaha
vahca
vahkkosas
vahkku
vahkkus
vahku
vahkus
vai
vaid
vaiguin
vaikke
vaikko
vain
vainikkala
vaja
vakka
vaksdal
val
vala
valamo
valamon
valas
valborg
valeansaelektrovnnat
valencia
valentina
valeri
valg
valji
valjis
valjit
valkeakoski
valkeama
valkeapa
valkola
valladolid
valle
valletta
vallila
valljejuvvui
vallji
valtimo
valtion
valtola
value
valuhta
valuhtta
van
vanaja
vanda
vandaliseret
vandenhoek
vang
vanha
vanhakyla
vanhala
vanhanen
vanja
vann
vannet
vantaa
vanuatu
vanylven
vappu
var
vara
varanger
varangergebiets
varas
varaz
varela
varia
varias
varieteahtaid
varis
varkaus
varkausa
varpanen
varra
varradeaddu
varragolgosis
varrajohtima
varrajohtu
varrajohtui
varrajođu
varraseallat
varrasuonaid
varrasuonaide
varrasuonat
varrasuotnada
varrii
varris
vars
varsinais
vart
vartsala
vas
vasa
vasalemma
vasili
vaskion
vastaan
vat
vatika
vatjagiella
vc
vcca
vccaid
vccat
vcci
vccis
vd
vda
vdamearka
vdamearkkaid
vdamearkkat
vdda
vddaid
vddaide
vddain
vddas
vddat
vddi
vddis
vdeeatnamii
vdegoddi
vdegotti
vdegottis
vdeteaksta
vdi
vdii
vdin
vdna
vdnan
vdnasa
vdnasat
vdnasii
vdnasiid
vdnasiiguin
vdnasiin
vdnasis
vdnat
vdnek
vdnen
vdnji
vdno
vdnojedje
vdnojit
vdnojuvvon
vdnomis
vdnon
vdnosat
vdnot
vdnui
vdu
ve
vea
veadja
veadjemeahttun
veadjinvuohki
veagas
veaha
veahc
veahka
veahkadahkii
veahkadat
veahkava
veahkeha
veahkehii
veahkehit
veahki
veahkka
veahkkeprofessorin
veahkki
veahkkin
veaikeruvke
veaikki
vealahusa
vealggi
vealla
veallut
vealtameahttun
vearba
vearbba
vearbbaid
vearbbas
vearbbat
vearda
veardde
veardidit
veardiduvvo
veardiduvvojit
vearjjuid
vearjo
vearjobiehttaleaddji
vearjogovas
vearjogovva
vearra
vearssa
ved
vedtieh
vedum
vega
vegas
veha
vehkiin
vehmaa
vehmaskyla
veica
veicalas
veicca
veiccas
veikko
vejit
vejolac
vejolas
vejolaz
vel
vela
velge
velggolac
veli
vella
velsa
ven
vena
venetma
veneto
venezia
venezuela
venn
ventrilo
venus
venusa
vepsa
vepsaid
vepsat
ver
vera
verapaz
verby
verdal
verde
verden
verjejuvvon
verka
verlag
vermeer
vermont
verna
verner
veronika
verran
vers
versio
version
vert
ves
vesa
vesaas
vesanto
vesi
vesilahti
vesolbmot
vesolmmoz
vest
vestby
vestfirðir
vestfold
vestfolda
vestfoldas
vestfoldda
vestfolddas
vesties
vestla
vestlandet
vestnes
vestra
vestre
vestur
vesturland
vestva
veteli
vetenskap
veterina
vetlanda
veyle
vg
vga
vgga
vgi
vgos
vgs
vi
via
viai
vias
vibe
viborg
vicia
victoria
victoriagorz
victory
vid
vidar
video
videre
viderega
viec
viegahagas
viegahahkii
viegahas
viegahat
viehka
viehkala
viehkama
viehkamat
viehkamii
viehkamis
viehkan
viehkangilvu
viehkansuorggit
viehkki
viehkkis
vielgadat
vielgat
vielja
vieljain
vieljaz
viellja
vienne
vieno
vierema
vieris
vierisgiela
vierru
vieru
vieruid
vieso
viessu
viesu
viesuid
viesus
vietnam
vietnama
vietnamas
vietnamis
vietnat
view
views
viez
vifta
vigdis
vigga
viggamus
viggat
vigge
vigget
vigiheapme
vihaheami
vihahuvvon
vihahuvvui
vihanti
vihket
vihta
vihti
vihtta
vii
viida
viiddes
viiddidan
viiddidit
viiddiduvvon
viiddis
viiddui
viidna
viidni
viidodaga
viidodagain
viidodagas
viidodat
viidon
viidosas
viidu
viiduma
viidun
viii
viika
viikka
viikon
viimeinen
viimmat
viimsi
viinni
viisa
viisodagaide
viissa
viissaid
viissas
viitasaari
viitattu
vik
viken
vikena
vikiŋŋa
vikkas
viksell
viktor
viktoria
vil
vila
vilbealli
vilda
vildaluodda
vilddas
vilges
vilgesla
vilgesnierc
vilgesnjuna
vilgesruos
vilgessealc
vilgesseallat
vilgessieđga
vilgessoadjeska
vilgesummolciza
vilhelm
vilhelmina
vilho
vilja
viljo
villarroel
ville
villepin
villila
villmarksenter
villosa
vilma
vilnius
vilppula
vimmerby
vimpeli
vimus
vincent
vinci
vindelns
vindens
vinga
vinmonopolet
vinta
vinteren
viola
violaid
violas
virga
virgeolbmuin
virgga
virggi
virggis
virggit
virgi
virgin
virginia
viridis
viritta
virolahti
virolainen
viron
virovitica
virpi
virrat
virta
virtu
virumaa
virus
virusa
virusat
virusiin
vis
visby
viscivorus
vises
vision
visit
visited
vislanda
visot
vissa
vissis
vissui
vista
visti
vistti
visttis
visttit
vit
vita
vitali
viti
vitis
vivienda
viz
vizarat
vizariidda
vizcaya
viđa
viđas
viđat
vja
vjjes
vjjibut
vjju
vjodat
vjova
vju
vjui
vka
vkadit
vkaleami
vkalit
vkan
vkat
vke
vkema
vken
vki
vkii
vkin
vkka
vkkai
vkkan
vkkas
vkkeheami
vkkeheapma
vkkeheapmeteoriija
vkkeheapmi
vkkehemiin
vkkehii
vkki
vkkiheapmi
vla
vladimir
vlaga
vlagat
vlagiid
vlagiidda
vlagiin
vlagis
vle
vleborgga
vli
vlla
vlladahkki
vllagilvohallan
vllagilvvohallama
vllagilvvohallamis
vllagilvvohallan
vllain
vllan
vllo
vllon
vllui
vllut
vlon
vlosa
vlu
vluma
vlun
vlungilvui
vlungilvvu
vlungilvvus
vlunoasi
vlunoasis
vlut
vm
vms
vnna
vnnadeigga
vnnahan
vnnaheamit
vnnahii
vnnahit
vnnai
vnnas
vnnasin
vnnaslas
vnnasmolsuma
vnnasmolsun
vnnji
vnnjis
vo
voice
voices
voitto
voka
vol
volda
volga
volgalas
voloddi
volta
volume
volution
von
vonnegut
voodoo
vorlage
vorrede
vosges
voss
vpealbma
vpealmma
vpeguovdda
vpehomma
vpejassan
vperepublihka
vperiekti
vpi
vpoga
vpogas
vpogat
vpogii
vpogiid
vpogiin
vpogin
vpogis
vpoguovllu
vpot
vpota
vpotgielda
vpotgiellabeassi
vpotguovdda
vpotoasit
vpotsta
vpotstivrras
vppa
vppas
vppi
vppiid
vppis
vr
vra
vre
vres
vri
vrist
vrres
vrri
vrrie
vrriin
vrris
vrrit
vsjo
vssa
vssii
vssolas
vssu
vssut
vt
vta
vtta
vttas
vttat
vtti
vttiid
vttiin
vttis
vttit
vu
vua
vudjet
vue
vuei
vuelie
vuelieh
vugiid
vugiin
vuhat
vuhiide
vuhtii
vuhtiiva
vuigestaga
vuin
vuite
vuitiin
vuittii
vuittiiga
vujii
vukovar
vulgaris
vulge
vulget
vulggii
vulka
vulle
vullosaz
vulos
vulosba
vuls
vumiin
vuo
vuoddja
vuoddji
vuodjala
vuodjalasttaide
vuodjalasttat
vuodjinkoarttaid
vuodjinskurbmuin
vuodjit
vuodju
vuodjut
vuoga
vuogas
vuogi
vuogodolgi
vuohc
vuohki
vuohon
vuohppu
vuohta
vuoi
vuoibma
vuoidamis
vuoigaduvvon
vuoigatvuohta
vuoigatvuođa
vuoigatvuođadieđa
vuoigatvuođaid
vuoigatvuođaide
vuoigatvuođain
vuoigatvuođakonvens
vuoigatvuođasoahpamus
vuoigatvuođat
vuoiggalas
vuoigŋa
vuoigŋanfrekveansa
vuoigŋanva
vuoigŋanvuoga
vuoigŋas
vuoimmehis
vuoita
vuoiti
vuoitit
vuoittahalai
vuoittu
vuoitun
vuoivasii
vuoivuonas
vuoivuotna
vuoiŋŋa
vuoiŋŋahaga
vuoiŋŋahat
vuoiŋŋalas
vuoiŋŋamac
vuoiŋŋas
vuoja
vuojas
vuojaz
vuojui
vuokki
vuokko
vuoktafiehta
vuoktagaccet
vuoktagoalsi
vuola
vuolab
vuolde
vuolga
vuolgga
vuolggahussa
vuolgge
vuolginrusttet
vuolgit
vuoli
vuolijoki
vuolil
vuolimus
vuolit
vuolla
vuollaga
vuollai
vuolle
vuollec
vuolleda
vuolleeatnamaid
vuolleeatnamat
vuolleeatnamiid
vuolleeatnamiin
vuolleeatnanlas
vuollegas
vuollegis
vuollejoavku
vuollel
vuollelis
vuollemorc
vuolles
vuollesaksigiella
vuollin
vuols
vuolus
vuona
vuonas
vuonat
vuonca
vuoncceslottiide
vuoncceslottit
vuoraz
vuorda
vuordimis
vuordit
vuorenmaa
vuori
vuorka
vuorrova
vuoruha
vuoruhit
vuos
vuosa
vuosaari
vuosaarii
vuossa
vuosta
vuostamuz
vuostea
vuostegeahc
vuosteha
vuostta
vuosttaldus
vuosttas
vuosttasat
vuosttaz
vuosttildii
vuotna
vuovda
vuovdaguoika
vuovdaguoikka
vuovdaguoikkas
vuovddi
vuovddit
vuovdedoallu
vuovdegaccet
vuovdera
vuovdesa
vuovdeviola
vuovdi
vuovdin
vuovdinolahus
vuovdit
vuovttat
vuođa
vuođaa
vuođaba
vuođabargi
vuođabargiid
vuođadirektora
vuođageahc
vuođaguovdda
vuođaid
vuođaide
vuođain
vuođala
vuođalas
vuođaorganisas
vuođara
vuođas
vuođastis
vuođat
vuođaveahki
vuođu
vuođul
vuođus
vuođustusat
vuođđo
vuođđoa
vuođđoc
vuođđodahkki
vuođđodieđut
vuođđoeala
vuođđogaz
vuođđogirji
vuođđojurdagiid
vuođđojurddan
vuođđola
vuođđooahpahusa
vuođđoprinsihppa
vuođđoskuvla
vuođđoskuvlla
vuođđoskuvllas
vuođđoskuvllat
vuođđovuoigatvuođaid
vuođđovuoigatvuođaide
vuođđovuoigatvuođat
vuođđu
vuođđudan
vuođđudanbeaivi
vuođđudanjahki
vuođđudeaddji
vuođđudeaddjin
vuođđudeamen
vuođđudeami
vuođđudeamin
vuođđudeapmi
vuođđudedje
vuođđudeigga
vuođđudii
vuođđudit
vuođđudus
vuođđudusa
vuođđuduvai
vuođđuduvva
vuođđuduvvet
vuođđuduvvo
vuođđuduvvon
vuođđuduvvui
vuođđun
vuođŋŋagoddi
vuođŋŋagoddui
vurdon
vurkejuvvon
vus
vut
vuvddii
vuvddiin
vuvde
vuvdet
vuvdojedje
vuvdojuvve
vuvdojuvvo
vuvdojuvvojedje
vuvdojuvvon
vuđolac
vuđolas
vv
vva
vvaga
vvagat
vvagiid
vval
vvala
vvalalfabehta
vvaliid
vvalis
vvallohku
vvalmearka
vvalmearkaortnegiin
vvalsubstantiiva
vvalsubstantiivvain
vvalsubstantiivvas
vvan
vvardaga
vvardat
vvavuohta
vve
vven
vvet
vvi
vvir
vvira
vvirat
vviriid
vvordat
vvosa
vvosis
vvu
vvudeamas
vvudeamit
vvudeapmi
vvudit
vvudivttat
vvuduvvo
vvuduvvon
vw
vyborg
vyeimi
vz
vza
værøy
w
wa
wager
wakas
wakayama
wales
walesa
walesis
walk
walker
wall
wallace
wallis
wally
walt
waltari
walter
wangchuck
want
wanted
war
ware
warmth
warning
warren
warsawa
warszawa
was
washington
wat
water
watson
way
wayne
wałe
we
web
webbasiiddut
webber
webbisiidu
weber
webm
websiidu
wedding
week
weight
weke
welcome
wells
weltzheimer
wengera
wercum
west
westerfjell
westermarck
western
weyden
whanga
what
when
where
which
whitchurch
white
who
whole
width
wien
wienis
wieselgren
wiki
wikibooks
wikidata
wikimedia
wikinews
wikipedia
wikipediai
wikipedias
wikiquote
wikisource
wikispecies
wikiversity
wikivoyage
wiklund
wiklunda
wiksell
wiktionary
wilbur
wildlife
wildpark
wilhelm
wilhelmsen
will
willem
william
williams
willoch
willocha
willy
wilson
wimme
wind
windhoek
windows
winter
winterbrook
wisconsin
with
witherspoon
within
without
wmap
wo
wola
wolfgang
woman
women
wonder
woodard
woods
woolf
word
wordpress
wordum
work
works
world
worldfengur
worship
would
wozniak
wright
wsoy
wubi
wulff
www
wyeth
wyoming
x
xi
xianfan
xico
xii
xiii
xiv
xjo
xose
xv
xvi
y
ya
yamagata
yamaguchi
yamaha
yamanashi
ydre
ye
year
years
yehuda
yeltoniensis
yes
yho
ykka
ykkyla
yksin
yla
yle
yleisradio
ylen
yli
ylikoski
ylikyla
ylio
ylipa
yliskyla
ylistaro
ylivieska
ylla
ylo
ylva
yna
yny
ynys
yo
york
yorka
yorkis
yoshkar
you
young
your
youtube
youtubes
ypa
yra
yraid
yri
yrila
yrja
yrjo
yry
yryla
ysa
ysta
yta
ytelma
yto
ytta
ytto
ytya
yu
yuko
yungmiqu
yupik
yupikagiella
yvonne
yyyy
z
za
zacapa
zacharias
zadar
zagorje
zagreb
zahedan
zahedana
zahedanas
zahusaid
zaire
zambia
zamenhof
zamora
zar
zaragoza
zcoa
ze
zeala
zealand
zedong
zef
zellweger
zenon
zes
zeta
zh
zi
zii
ziid
ziin
zimbabwe
zion
zis
zit
zn
zonotrichia
zoo
zoothera
zr
zu
zum
zur
zz
zza
zzi
zzii
zzin
zzit
zzoummu
{
|
}
~


£
§
¨
«
­
®
°
±
²
³
´
µ
¶
·
º
»
¿
×
ß
æ
ænima
ø
ørskog
ørsta
østfold
østfolda
østfoldas
østmo
østre
øvre
øyer
øygarden
øystein
øystre
øyvind
đ
đa
đai
đas
đi
đii
điid
điide
điin
đis
đisvuođa
đit
đot
đotmuorjjit
đotmurjjiid
đđa
đđeaddi
đđec
đđehus
đđehusa
đđehusas
đđehusat
đđehussii
đđejeaddjiide
đđenvuogis
đđeviessu
đđi
đđin
łobez
łobzie
ŋ
ŋga
ŋgaetnihkalas
ŋgaka
ŋgala
ŋgaleairraide
ŋgalot
ŋgan
ŋgasat
ŋgaseallat
ŋgasiin
ŋgaviika
ŋgaviikka
ŋgavuhtii
ŋgel
ŋgga
ŋggabeala
ŋggabealat
ŋggageavahanarena
ŋggagielat
ŋggaid
ŋggaidlogu
ŋggaidlogus
ŋggaidlohku
ŋggain
ŋggala
ŋggas
ŋggat
ŋggu
ŋggus
ŋgii
ŋgiris
ŋgirit
ŋgirus
ŋgu
ŋkku
ŋkriikkas
ŋku
ŋŋa
ŋŋat
ŧ
ǥǥar
ɑ
ə
əs
ɯ
ʃ
ʎ
ʒ
ʒʒ
ʔ
ʰ
ʷ
ʹ
ʻ
ʼ
ʾ
ʿ
ˀ
ˈ
ˌ
ː
ˑ
̀
́
̂
̃
̄
̆
̇
̈
̉
̊
̋
̌
̓
̔
̛
̜
̟
̠
̣
̥
̦
̧
̨
͂
͕
͡
α
β
γ
δ
ε
ζ
η
θ
ι
κ
λ
μ
ν
ξ
ο
π
ρ
ς
σ
τ
υ
φ
χ
ψ
ω
а
антонова
афанасьева
б
в
г
д
для
е
есенин
ж
з
и
издательство
к
ка
ки
ко
куруч
л
м
марии
мурманск
мь
н
на
не
ни
нндрэ
о
около
п
пеппи
перевод
р
ру
русскии
с
са
саамско
сергеи
скии
ского
слов
словарь
т
у
участник
ф
х
ц
ч
ш
шаблон
шш
щ
ъ
ы
ь
э
этот
ю
я
язык
языка
языки
яковлев
ј
ҋ
ҍ
ҏ
ҫ
һ
ӆ
ӈ
ӊ
ӎ
ԑ
בן
י
תבנית
ا
الله
قالب
لا
ن
و
َ
ّ
ٓ
ٔ
ٕ
٪
ی
ँ
ं
क
ग
च
ट
ड
द
न
प
म
य
ल
स
ा
ि
ी
ु
ू
े
ो
्
ট
ধ
ন
ম
ল
ি
ূ
ে
্
ਂ
ਦ
ਲ
ਿ
ੀ
ੱ
ં
ચ
ઢ
ા
ો
ப
ர
வ
ா
ு
்
మ
స
ూ
ം
ദ
ഫലക
ല
വ
ി
െ
്
ค
ง
ต
ท
น
บ
ย
ร
ล
สถาน
สะพานพระราม
ห
ั
ิ
ี
ึ
ื
ุ
ู
่
้
์
་
ན
མ
ས
ུ
ྤ
틀
​
‌
‍
‎
‏
‑
–
—
‘
’
“
”
„
•
…
‰
′
″
€
₼
₿
ⅰ
ⅲ
→
↔
↷
−
③
④
⑦
█
►
◄
☉
☾
☿
♀
♂
♃
♄
♆
⛢
ⱪ
⺀
⺄
⺆
⺈
⺊
⺌
⺕
⺝
⺸
⺼
⿰
⿱
⿲
⿳
⿴
⿵
⿶
⿷
⿸
⿹
⿺
⿻
〈
〉
〢
あ
い
う
え
お
こ
し
と
の
ア
イ
ウ
エ
オ
コ
ユ
㇁
㇂
㇄
㇇
㇈
㇉
㇓
㐁
㐄
㐅
㐌
㐫
㐬
㐭
㐮
㐱
㑒
㒵
㒸
㒼
㓁
㓞
㔾
㕛
㕣
㖾
㘝
㚅
㚇
㚔
㚘
㝉
㝡
㝴
㝵
㞋
㞢
㞷
㠩
㠭
㠯
㡀
㡭
㡿
㢲
㢴
㣇
㣺
㥯
㪅
㫄
㫐
㫒
㫺
㬅
㬎
㬥
㬰
㲋
㳄
㷠
㸒
㸚
㸦
㼌
㼲
㽞
㿟
䀠
䂞
䍃
䏍
䒑
䖍
䖒
䖝
䖵
䙴
䚻
䜌
䝿
䡛
䧹
䪞
一
丁
丂
七
丄
丅
丆
万
丈
三
上
下
丌
不
与
丏
丐
丑
专
且
丕
世
丘
丙
业
东
丞
丢
丣
两
严
並
丨
丩
个
丫
丬
中
丮
丰
丱
串
丵
丶
丷
丸
丹
为
主
丽
丿
乀
乂
乃
久
乆
乇
么
义
之
乌
乍
乎
乏
乐
乑
乔
乖
乗
乘
乙
乚
乛
乜
九
乞
也
习
乡
乳
乾
亀
亅
了
亇
予
争
事
二
亍
于
亏
亐
云
互
亓
五
井
亘
亚
亜
亞
亟
亠
亡
亢
交
亥
亦
产
亨
亩
享
京
亭
亮
亯
亰
亲
亳
亶
亷
人
亻
亼
亾
仁
今
介
仌
从
仐
仑
仒
仓
仔
仕
他
付
仝
代
令
以
任
企
伊
伏
伐
休
会
伯
但
位
何
佘
余
作
佥
使
來
侈
侌
侖
侯
侵
便
保
俞
信
修
倉
倍
候
倠
備
僉
像
僕
儿
兀
允
兂
元
兄
充
兆
兇
先
光
兊
克
兌
免
兑
兒
兓
兔
党
兜
兟
入
全
兩
兪
八
公
六
兮
兰
共
关
兵
其
具
典
兹
兼
冀
冂
冃
冄
内
冈
冉
冊
冋
册
再
冎
冏
冐
冒
冓
冖
冗
冘
军
农
冝
冡
冥
冫
冬
冷
几
凡
凢
凵
凶
凷
凸
凹
出
函
凾
刀
刁
刂
刃
刄
刅
分
切
刍
刑
刕
刖
列
刘
则
初
別
利
别
到
制
刺
則
削
剌
前
剡
剽
劉
力
功
加
劦
助
劫
劳
劵
勃
勇
勉
勒
動
務
勞
勤
勹
勺
勻
勾
勿
匀
匂
包
匆
匈
匊
匋
匍
匕
化
北
匚
匝
匡
匪
匱
匸
匹
区
医
匽
匿
區
十
卂
千
卄
卅
卆
升
午
卉
半
卌
华
卑
卒
卓
单
卖
南
単
卜
卝
卞
占
卡
卢
卣
卤
卦
卩
卪
卬
卯
印
危
即
却
卵
卷
卸
卻
厂
厃
厄
历
厈
厉
厌
厓
厘
厚
原
厤
厥
厨
厭
厲
厶
厷
厸
去
厼
厽
叀
参
參
叅
又
叉
及
友
双
反
叐
发
叒
叔
叕
取
受
叚
叜
叟
口
古
句
另
叩
只
召
可
台
叱
史
右
叵
号
司
叹
吂
各
吅
合
吉
吊
吋
同
名
后
吏
向
吕
君
吝
吞
否
含
启
吳
吴
吹
吾
呂
呆
呈
告
员
呙
周
命
咅
和
咎
咠
咢
咨
咸
咼
哀
品
哉
員
哥
哲
唐
商
啇
問
啚
啬
啻
善
喜
喬
單
喿
嗇
噩
嚴
囊
囗
囘
囙
囚
四
回
囟
因
囧
囬
困
囱
囷
固
国
圂
圅
國
圍
圓
土
圡
圣
圥
在
圭
地
圶
圼
坐
坒
坚
坴
垂
垔
垚
埀
埋
埶
執
基
堂
堅
堆
堇
堯
塞
墨
壘
士
壬
壯
声
壳
壴
壹
壺
壽
夂
处
夅
夆
备
夊
夋
夌
复
夏
夒
夕
外
夗
夘
多
夜
夢
大
夨
天
太
夫
夬
夭
央
失
夲
头
夷
夸
夹
夻
夾
奂
奄
奇
奈
奉
奎
奏
奐
契
奓
奔
奚
奞
奠
奢
奥
奭
女
奴
奻
好
如
妄
妙
妟
妥
妻
妾
始
姑
委
姜
威
娄
婁
婴
嬰
嬴
子
孑
孔
孕
孖
字
存
孚
孛
孝
孟
季
孤
学
孫
孱
學
宀
宁
宂
它
宅
宇
守
安
宋
完
宏
宓
宗
官
定
宛
宜
宝
客
宣
室
宮
宰
害
家
容
宾
宿
寄
寅
密
富
寒
察
寧
審
寫
寬
寮
寸
对
寺
寻
寽
対
寿
封
尃
射
将
將
專
尉
尊
尋
尌
對
小
少
尒
尓
尔
尖
尗
尚
尞
尢
尣
尤
尧
尨
尭
就
尸
尹
尺
尻
尼
尽
尾
尿
局
居
屈
屋
屎
屏
屑
展
屖
屚
属
屠
屡
屬
屮
屯
屰
山
屵
屾
岁
岂
岑
岡
岩
岳
岸
峯
島
崇
崑
崔
崖
崙
崩
嵬
嶲
巂
巛
川
州
巟
巠
巢
巤
工
左
巧
巨
巩
巫
差
己
已
巳
巴
巷
巸
巽
巾
巿
帀
市
布
希
帚
帛
帝
带
師
席
帶
常
干
平
年
幵
并
幷
幸
幺
幻
幼
幽
幾
广
広
庄
床
底
店
庚
府
度
庫
庭
庶
康
庸
廉
廌
廛
廣
廩
廴
延
廷
建
廾
廿
开
弁
弃
弄
弇
弋
式
弓
弔
引
弗
弘
弜
弟
弥
弦
弱
張
強
强
彊
彌
彎
彐
彑
当
彔
录
彖
彗
彡
形
彥
彦
彧
彭
影
彳
役
彼
往
待
律
徒
得
徙
從
復
微
徵
心
忄
必
忌
忍
志
忝
忠
忩
快
念
忽
忿
思
怠
急
怱
恆
恒
恩
恭
息
悉
患
悤
悲
悶
惠
惡
惢
愁
愈
意
愛
感
慈
慧
慮
憂
憲
應
戀
戈
戉
戊
戋
戌
戍
戎
成
我
戒
戔
或
戚
戠
戢
截
戲
戶
户
戹
戼
戾
房
所
扁
扇
手
扌
才
打
托
执
承
折
拉
拍
拜
拿
掌
推
提
摩
攝
支
攴
攵
收
攸
改
放
政
敄
敏
敕
敖
敗
敝
敞
敢
散
敦
敫
敬
数
敷
數
斂
文
斉
斊
斗
斤
斥
斩
斬
斯
新
方
於
施
斿
旁
旋
族
无
旡
既
旣
日
旦
旧
旨
早
旬
旱
旲
时
旾
昆
昇
昌
昍
明
昏
易
昔
昗
昜
星
春
昬
是
昱
昴
昷
時
晃
晋
晏
普
景
晶
智
暑
暴
曆
曇
曩
曰
曲
曳
更
曷
書
曹
曼
曾
替
最
朁
會
月
有
朋
服
朔
朕
朗
望
朝
木
朩
未
末
本
札
朮
术
朱
朵
朶
朿
杀
杏
杜
束
条
来
東
杲
杳
松
析
林
枚
果
枝
枲
枼
某
柔
查
柬
柰
柴
栗
桀
桑
桼
梁
條
梟
梨
棘
棠
棥
森
楚
業
楽
榮
樂
樊
欠
次
欣
欮
欲
欶
欽
款
歆
歇
歛
止
正
此
步
武
歨
歪
歮
歯
歰
歲
歴
歷
歸
歹
歺
死
殳
段
殷
殸
殹
殺
殻
殿
毋
毌
母
每
毒
比
毕
毚
毛
毳
氏
氐
民
气
氣
水
氵
氶
氷
永
氺
氾
求
汝
汞
江
沃
沓
沙
沝
河
泉
法
波
泣
泥
泰
洛
洪
活
派
流
浦
浪
浮
淡
淮
清
渚
渠
港
湯
滿
漫
漸
潘
灣
火
灬
灭
灰
灵
灷
炅
炎
炏
炗
炙
炭
為
烈
烏
烝
焉
無
焦
焱
然
煞
照
熊
熏
燕
營
燮
爪
爫
爭
爯
爰
爱
爲
爵
父
爻
爽
爾
爿
片
牙
牚
牛
牜
牟
牢
牧
牪
牽
犀
犬
犭
犮
狂
狄
狊
独
狺
猋
猒
猪
献
獻
玄
率
玉
王
玟
玨
珎
班
琴
瑟
瑩
瓜
瓦
甘
甚
生
産
用
甫
甬
田
由
甲
申
电
甶
男
甸
甹
画
甾
畀
界
畏
畐
留
畜
畟
畢
畧
畨
番
畫
異
畱
當
畺
畾
疊
疋
疌
疑
疒
疾
癶
癸
癹
登
發
白
百
皀
皃
的
皆
皇
皋
皐
皕
皮
皷
皿
盃
盆
盇
盈
益
盍
盎
监
盒
盖
盛
盡
監
盤
盧
目
直
相
盾
省
眇
眉
看
眔
眞
真
眷
眼
眾
着
睘
睪
睿
瞏
瞢
瞿
矍
矛
矞
矢
矣
知
矦
短
石
破
碎
磊
磨
示
礻
礼
神
祟
票
祭
禀
禁
禸
禹
禺
离
禽
禾
禿
秀
秃
秉
秋
科
秝
秦
移
稟
穀
穌
穴
究
穹
空
穿
突
窄
窒
立
竒
竜
竝
竟
章
童
竹
笑
笠
第
筆
等
答
箕
算
箴
節
篤
篭
米
粉
粛
粟
粤
粦
粲
糞
糸
糹
系
約
納
素
索
紫
累
細
絜
絫
絲
維
綿
線
縣
繇
纍
纟
缶
网
罒
罔
罕
罗
罙
罡
罢
罪
署
罷
羅
羊
羌
羍
美
羔
羕
羗
羞
羡
羣
群
義
羲
羸
羽
翁
翏
習
翕
翟
翠
翼
老
耂
考
者
耆
而
耎
耑
耒
耳
耴
耶
耷
聂
聊
聖
聚
聶
聿
肀
肃
肅
肉
肖
肙
肥
肩
肯
育
肴
胃
背
胡
胥
能
脊
脩
膚
臣
臤
臧
自
臬
臭
臯
臱
至
致
臺
臼
臽
臾
臿
舀
舂
舄
與
興
舉
舌
舍
舛
舜
舞
舟
航
般
艮
良
色
艸
艹
艾
节
芒
芔
芬
芮
花
芳
芺
芻
苔
苗
苟
若
苦
英
茶
茸
荅
草
荒
荣
荼
莆
莧
莫
莽
菆
菊
菐
華
萬
落
葉
著
葛
董
葵
蒙
蒦
蒼
蓋
蓬
蓺
蔑
蔡
蕉
蕭
薄
薛
薦
薰
藍
藏
藥
蘭
虍
虎
虐
虒
虔
處
虖
虗
虘
虚
虛
虜
虞
虫
虽
蚤
蚩
蜀
蜜
蟲
蠡
血
行
衍
衛
衣
衤
表
衮
衰
袁
袞
褭
褱
襄
襾
西
覀
要
覃
見
規
覓
覧
親
覽
见
角
解
言
訁
訇
計
詹
語
誩
諸
讠
谷
豆
豈
豊
豐
豕
豖
豙
象
豦
豩
豪
豸
貇
貝
貞
貟
負
貢
貧
貪
貫
責
貳
貴
買
費
賁
資
賈
賏
賓
賔
賛
賞
賢
賣
質
賴
賽
贊
贝
贡
责
贯
贲
贵
赖
赞
赤
赦
走
越
足
路
蹇
身
躬
車
軍
軎
軟
輦
车
辛
辜
辟
辥
辰
辱
農
辵
辶
边
达
过
近
连
迷
追
退
送
逆
逐
通
速
造
逢
連
逮
進
遀
遂
過
道
達
遣
適
遷
遺
邊
邑
邕
那
邦
邪
郎
部
郭
都
鄉
酉
酋
配
酓
釆
采
里
重
野
量
金
釒
錢
钅
長
镸
长
門
閃
閉
開
閏
閑
閒
間
閔
閵
閻
闌
门
间
闷
阑
阜
阝
阪
阿
降
陳
隆
隊
隋
隠
隡
隨
隱
隶
隹
隺
隻
隼
隽
难
雀
雁
集
雈
雋
雍
雐
雔
雙
雚
雜
雝
離
難
雨
雩
雪
雲
零
雷
需
霍
霜
霝
霞
霸
靈
靑
青
非
靡
面
靣
革
韋
韦
韭
韯
韱
音
頁
頃
項
須
頗
頡
頻
顛
页
風
风
飛
飞
食
飠
養
饣
首
香
馬
馮
駦
马
骨
高
髟
鬥
鬯
鬲
鬼
魚
魯
鮮
鱼
鲁
鳥
鳳
鸟
鹵
鹿
麃
麗
麥
麦
麻
黃
黄
黍
黎
黑
黒
黨
黹
黽
黾
鼎
鼓
鼠
鼻
齊
齋
齐
齒
齿
龍
龙
龜
龟
龠
龰
龱
龴
龵
龶
龷
龸
龹
者
艹
％
？
𒀭
𒀴
𒀵
𒀸
𒁀
𒁄
𒁔
𒂠
𒄈
𒄉
𒄬
𒅗
𒅚
𒅛
𒅜
𒅝
𒅞
𒅢
𒅤
𒅨
𒅪
𒅯
𒅲
𒅴
𒅺
𒅻
𒅽
𒅾
𒅿
𒆀
𒆂
𒆈
𒆋
𒈮
𒈯
𒊿
𒋚
𒋢
𒋩
𒋻
𒌗
𒌚
𒌛
𒍪
𒐀
𒐁
🜨
𠀁
𠀃
𠀆
𠀉
𠀎
𠀐
𠁁
𠁣
𠂆
𠂇
𠂈
𠂉
𠂊
𠂋
𠂎
𠂒
𠂔
𠂛
𠂡
𠂢
𠂤
𠂬
𠂭
𠂹
𠃊
𠃋
𠃌
𠃍
𠃎
𠃑
𠃓
𠃔
𠃜
𠄌
𠄎
𠄠
𠄢
𠆢
𠆥
𠇍
𠈌
𠌵
𠓜
𠔉
𠔥
𠔼
𠔽
𠔿
𠕀
𠕁
𠕋
𠘧
𠘨
𠙻
𠙼
𠚏
𠚒
𠚤
𠚪
𠣏
𠤎
𠤕
𠥓
𠦄
𠦑
𠦝
𠧒
𠧗
𠧪
𠩺
𠪚
𠫓
𠫔
𠫤
𠬛
𠬝
𠬞
𠬢
𠬤
𠬶
𠮛
𠮦
𠮷
𠯑
𠱠
𠳮
𠷎
𡈼
𡉀
𡉵
𡌥
𡍮
𡏳
𡕒
𡕩
𡕰
𡖅
𡗗
𡗜
𡘆
𡘤
𡧱
𡨄
𡩧
𡬠
𡭽
𡰣
𡰥
𡰪
𡰯
𡰱
𡷈
𡸁
𡿨
𡿩
𡿪
𡿺
𢀖
𢀛
𢀩
𢁙
𢆉
𢆰
𢆶
𢇁
𢇇
𢉖
𢌬
𢌿
𢏚
𢑑
𢑚
𢖻
𢙣
𢛳
𢦏
𢦒
𢧵
𢼄
𢾕
𣁋
𣄼
𣅀
𣅽
𣍘
𣎳
𣎵
𣏋
𣏼
𣗥
𣥂
𣥖
𣦵
𣦼
𣧄
𣪊
𣪠
𣬉
𣳾
𣶒
𤇾
𤊽
𤐫
𤓰
𤔔
𤕨
𤣩
𤰇
𤰔
𤰞
𤴓
𤴔
𤽄
𥁑
𥁕
𥃦
𥃩
𥃭
𥇡
𥑟
𥘅
𥘈
𥝢
𥫗
𥱡
𦈢
𦉪
𦉬
𦉼
𦍌
𦍒
𦎧
𦐇
𦓔
𦔮
𦘒
𦙃
𦚏
𦣝
𦣞
𦣻
𦥑
𦥔
𦥯
𦨉
𦭝
𦰩
𧆞
𧈧
𧘇
𧰨
𧴪
𧴮
𧵩
𧾷
𨸏
𨾴
𩙿
𩠐
𩫏
𩵋
𪉷
𪜀
𪟽
𪠲
𪩲
𫇦
𫔭
𫜸
𫝀
𫠣
𫠩
𫢉
𫥞
𫩏
𫩠
𫪡
𫲽
𫶧
𬀷
𬐘
𬗌
𬙙
𬛸
𬜯
𬟩
𬯁
𬴘
𬺻
𬼉
𬼖
𭀰
𭁈
𭁨
𭅰
𭑈
𭕄
𭗼
𭤨
𭥫
𭻾
𮅕
𮊿
𮍌
𮍏
𮓗
𮥼
𮧮
廾
𰀁
𰀄
𰀈
𰀉
𰀕
𰀠
𰀡
𰀢
𰀪
𰁜
𰃮
𰆊
𰆘
𰋙
𰕎
𰢴
𰧭
𰯲
00--
01--
105--
110--
440--
73--
74--
77--
80--
823--
87--
89--
94--
940--
96--
978--
978828--
978828263--
978911--
98--
a--
aa--
aaj--
ab--
abdu--
aber--
ac--
ad--
add--
adda--
adjekti--
advea--
ae--
aegitha--
af--
afghanis--
ag--
agi--
ah--
ahke--
ahnulŧ--
aho--
ahven--
ai--
aimar--
ain--
air--
aitto--
aj--
aja--
ak--
akti--
aktii--
akure--
al--
ala--
alan--
alas--
alb--
albma--
albme--
albmot--
alda--
ale--
alho--
ali--
alimus--
alit--
alka--
alku--
all--
alla--
alle--
almme--
almmu--
almmus--
almmusta--
almmustahtt--
alo--
alp--
alt--
alve--
am--
ame--
ameri--
amlw--
an--
ana--
and--
ane--
angu--
angus--
ani--
annjuolgga--
anti--
anu--
ap--
appelsi--
approks--
ar--
ara--
arago--
arca--
are--
ari--
ark--
arkii--
aron--
art--
as--
ase--
assi--
asso--
ast--
astro--
at--
atoma--
att--
atta--
au--
auto--
av--
ava--
avi--
aviisa--
ay--
aya--
az--
ađa--
ađđa--
aŋŋ--
b--
ba--
bad--
badje--
baga--
bagirmi--
bah--
bai--
bak--
bal--
bala--
ban--
bar--
bargiid--
bargo--
baryo--
bas--
baska--
bass--
basse--
bassi--
basu--
bay--
bađ--
bb--
be--
bea--
beahce--
beaivebora--
beaivemea--
beaives--
bealle--
beana--
beat--
beatnat--
bee--
begin--
bei--
bel--
bell--
bellodat--
ben--
ber--
berg--
bergs--
bi--
bia--
bie--
bieb--
biebman--
biebmo--
biebmoe--
biel--
bier--
biergo--
bieđ--
bin--
bio--
biod--
biog--
biol--
bir--
biras--
bis--
bivnnu--
bivttas--
biđ--
biđggi--
bj--
bjer--
bjø--
bl--
bla--
blo--
bme--
bo--
boah--
boahku--
boast--
boasta--
boastto--
boaz--
boazo--
boazodoa--
boazodoallo--
boađ--
boel--
boh--
bohtta--
bom--
bombe--
bora--
borg--
bot--
botkkis--
botky--
botnja--
bou--
boul--
bow--
box--
br--
bra--
bre--
bri--
bro--
bron--
bru--
bry--
brø--
bu--
buddhis--
buh--
buhta--
buhtis--
bulja--
bum--
buohcce--
buohcuvuo--
buohta--
buol--
buolle--
buolli--
buori--
buođ--
bur--
bures--
bus--
buvtta--
buđ--
buđa--
buđe--
by--
bæ--
bø--
c--
ca--
cahkke--
calw--
cam--
camp--
can--
car--
carna--
carte--
cat--
ce--
ceav--
ceavzi--
cel--
cer--
ch--
cha--
char--
che--
chi--
chlo--
ci--
cici--
cir--
city--
cla--
cle--
cli--
co--
colli--
colo--
com--
con--
cong--
copenha--
cor--
corn--
coun--
cour--
cow--
cr--
cras--
crot--
cu--
cult--
culti--
cy--
cæ--
d--
da--
dag--
daga--
daja--
dal--
dam--
dan--
dar--
darje--
das--
dasku--
dat--
davve--
davvi--
davvisa--
dda--
dde--
dden--
de--
deahkkes--
deak--
dear--
deav--
defi--
deger--
deha--
dei--
del--
delph--
den--
dep--
der--
des--
deut--
di--
diag--
diako--
diakona--
dial--
dicci--
die--
diehto--
diet--
dievdo--
dieđa--
dieđi--
dii--
diibmo--
diid--
dik--
dikta--
dim--
din--
dio--
dis--
div--
dja--
dje--
djo--
dju--
dni--
do--
doahpa--
doaibma--
doal--
doala--
doar--
doarja--
doarri--
doavtter--
docu--
dog--
dokta--
doku--
dola--
dom--
don--
dor--
dorvo--
dorvva--
dou--
dov--
dovdda--
down--
dr--
dra--
dres--
dro--
du--
dub--
dudd--
duddjo--
duhko--
dun--
duo--
duodje--
duohtan--
duottar--
dus--
dutk--
dutkan--
duv--
dy--
dø--
e--
ea--
eahpi--
eak--
eakta--
eali--
eallin--
eami--
eamit--
eana--
eanado--
eanan--
eanando--
eapmi--
ear--
earda--
earu--
eastad--
eat--
eatna--
eatnan--
eaŋgas--
eaŋka--
ec--
ed--
edu--
ee--
eg--
egy--
ehr--
ei--
ein--
einnos--
einnostus--
ek--
ekon--
eksp--
ekstremahutu--
el--
ela--
ele--
elek--
elektro--
elektroly--
elektroni--
elektronihkka--
elemea--
eli--
elm--
em--
en--
ena--
end--
enevra--
eno--
ensyklope--
enzy--
ep--
epide--
eq--
equi--
er--
eroh--
ersta--
es--
esc--
eskimo--
esperanto--
est--
et--
etab--
etno--
etymo--
eu--
eukari--
euro--
ev--
every--
evi--
evtto--
ex--
exo--
ez--
f--
fa--
fag--
falk--
falken--
falle--
fami--
far--
faris--
fas--
fat--
fe--
feara--
feasta--
fes--
ff--
ffadat--
ffe--
fi--
fidno--
fidorvva--
fie--
fier--
fievrred--
fievrri--
fievrru--
figu--
fikti--
fil--
filbma--
finddar--
finihtta--
fis--
fit--
fje--
fla--
fli--
flo--
fly--
fo--
foar--
foku--
folk--
for--
fors--
fort--
foton--
fr--
fre--
frei--
frek--
frekvea--
friija--
fro--
frø--
fu--
fuol--
fuolahus--
fuolke--
fy--
fylkka--
fø--
g--
ga--
gag--
gagausa--
gaien--
gajođihedd--
gal--
galb--
galbmo--
galle--
gam--
gan--
gar--
garr--
gas--
gaska--
gav--
gavjj--
gazza--
ge--
gea--
geaidno--
gear--
geas--
geasse--
geat--
geatke--
geava--
geavahan--
geađ--
geađge--
geg--
gen--
genti--
geol--
ger--
geđ--
gg--
gga--
gge--
gi--
gidead--
gie--
giedde--
giega--
giehta--
gielda--
gieldda--
giella--
gier--
gieđa--
gii--
gij--
gikta--
gili--
gilv--
gilva--
gilvi--
gin--
gins--
gir--
girdi--
girdin--
girje--
girko--
gis--
gisla--
gita--
givssi--
giđđa--
gje--
gjø--
gl--
gla--
glo--
go--
goa--
goahcce--
goai--
goallu--
goan--
goar--
god--
godde--
goike--
gol--
gola--
golga--
golle--
goro--
gorolei--
goru--
got--
gov--
gova--
govdo--
govva--
govvid--
govvo--
gođus--
gođđ--
gra--
grafi--
gre--
gren--
gro--
groen--
gru--
grund--
grunn--
grø--
gs--
gu--
gua--
gud--
gudne--
gudnedoa--
gudneja--
gufi--
guh--
guhki--
guhkk--
guhko--
guk--
gul--
gula--
guldaledd--
gump--
gun--
guo--
guoh--
guoktelogi--
guol--
guolbba--
guolle--
guora--
guoskka--
guov--
guovd--
guovlo--
guovssa--
guođ--
gur--
gurga--
gurr--
gurut--
gus--
gy--
gynekol--
h--
ha--
haan--
haap--
haat--
hali--
hall--
halo--
ham--
han--
hangas--
hange--
har--
hard--
has--
hat--
hau--
hauk--
hay--
hca--
hcca--
hce--
hde--
he--
hea--
heahte--
heaitti--
heaju--
hearge--
heasta--
hebre--
hedjo--
hegge--
hei--
heidel--
heive--
hel--
hels--
helsing--
hem--
her--
hevon--
heye--
hh--
hi--
hier--
hiet--
hii--
hil--
hilt--
hin--
hindi--
hippo--
hirs--
hirvi--
his--
hje--
hjel--
hka--
hkade--
hkadus--
hkan--
hkari--
hki--
hkka--
hkkasp--
hkke--
hko--
hl--
hnem--
hnen--
ho--
hoi--
holm--
hong--
honka--
horm--
horon--
horosko--
hp--
hpa--
hppa--
hppes--
hr--
hta--
htamini--
htared--
htasku--
hte--
hter--
hto--
htor--
htten--
hu--
hui--
huks--
hukse--
huma--
humi--
huo--
huom--
hupma--
hus--
hutu--
hy--
hybr--
hyper--
hypo--
hyy--
hø--
høy--
i--
ia--
iba--
ibb--
ibi--
ibmo--
ibmomedia--
ic--
icca--
id--
ida--
idda--
ide--
idea--
idja--
idna--
idnos--
idtji--
idu--
idy--
ie--
iegus--
iehta--
iej--
iekŋ--
ielge--
ielgga--
iga--
ige--
igg--
igu--
ih--
ihmiso--
ii--
iid--
iin--
ij--
ija--
ik--
ike--
ikkuhan--
il--
ilbme--
ile--
illjo--
illus--
ilmme--
ilmmi--
ilo--
ilu--
ilves--
im--
ima--
in--
ina--
inc--
ind--
infi--
infinitii--
infra--
ing--
inge--
inklu--
inn--
ins--
instru--
insul--
inte--
inter--
inu--
inv--
io--
ipmil--
ipmird--
ir--
ira--
is--
isa--
isen--
iskka--
isko--
iso--
ista--
it--
ita--
itto--
ittosea--
iv--
iva--
ivgovuo--
ivuo--
iw--
iz--
iđi--
iŋ--
j--
ja--
jacque--
jahke--
jam--
jan--
jas--
jau--
jaw--
jazz--
je--
jea--
jeagge--
jeara--
jerus--
jes--
ji--
jie--
jiekŋa--
jienastus--
jier--
jietna--
jievja--
jj--
jo--
joa--
joatkka--
joavko--
joe--
joh--
johto--
joki--
jona--
joo--
jor--
jorggi--
joste--
jout--
joutsen--
jođi--
joŋ--
ju--
juh--
juhko--
juliste--
juo--
juoga--
juolge--
juollu--
juovla--
jur--
juridi--
justii--
juur--
jy--
jye--
jø--
k--
ka--
kaara--
kaart--
kai--
kal--
kala--
kalk--
kalv--
kan--
kanoh--
kansa--
kansan--
kap--
kapil--
kar--
karhu--
kari--
karja--
kas--
kat--
kataja--
katal--
kateke--
kauk--
kaul--
kaune--
kaus--
kaut--
ke--
kemi--
ken--
ker--
kes--
ket--
key--
kha--
kho--
ki--
kia--
kihl--
kii--
kil--
kim--
kin--
kir--
kiru--
kitt--
kiusa--
kive--
kivi--
kivik--
kj--
kje--
kk--
kka--
kke--
kkehea--
kki--
kla--
kle--
kli--
kling--
kna--
kniv--
kno--
ko--
koh--
koiv--
kokko--
kokoel--
kokon--
kol--
kolle--
kolonia--
kolum--
kom--
kome--
kommunista--
kompa--
kompl--
kompo--
kon--
konfi--
konti--
kontinea--
koor--
kor--
korea--
korke--
korpi--
kortte--
kosk--
kosken--
kosti--
kou--
kr--
kra--
krii--
kris--
kro--
kromos--
krono--
kruv--
ks--
ksin--
kta--
kte--
kteri--
ku--
kui--
kukko--
kukon--
kul--
kuln--
kulo--
kult--
kulta--
kulttuuri--
kultur--
kum--
kun--
kunst--
kuo--
kur--
kurki--
kuuk--
kuus--
kva--
kvanta--
kvi--
ky--
kyrk--
l--
la--
laaja--
laak--
laav--
lad--
lag--
lagas--
lah--
lahko--
lahpas--
lahtto--
lai--
lak--
lakta--
lam--
lamp--
lan--
lap--
las--
lasi--
lasse--
lat--
latnja--
lato--
lau--
law--
laz--
lađđa--
lb--
lbma--
lbmot--
lbor--
lda--
ldas--
ldat--
lddahus--
ldde--
ldeko--
ldo--
ldohoav--
ldosuo--
ldsv--
ldu--
le--
lea--
leabuhis--
leana--
leavga--
legis--
leh--
lei--
leke--
lem--
lempo--
len--
leppi--
les--
let--
leu--
lev--
ley--
lfo--
lga--
lgg--
lgga--
lgo--
li--
lia--
lie--
lieđ--
lieđđ--
lig--
lih--
lihka--
lihkasta--
lihko--
lihto--
lii--
liige--
liike--
liiko--
lik--
lim--
lin--
lind--
ling--
linna--
lipp--
lis--
lit--
litur--
liuk--
liv--
liŋ--
ljus--
lk--
lkesuo--
lkida--
lkkas--
lkkod--
ll--
lla--
llan--
lle--
lli--
llin--
llo--
lma--
lmas--
lnly--
lo--
loa--
loahpa--
loahppa--
lodde--
log--
loga--
loh--
lohi--
lohkan--
lohko--
lok--
lokal--
lokta--
lol--
lom--
lomp--
long--
lonu--
loo--
lot--
lovo--
lpe--
ls--
lt--
lta--
lteg--
lu--
lubma--
lud--
luit--
lule--
lulle--
lulli--
lumi--
luo--
luoh--
luoj--
luom--
luomus--
luon--
luonddu--
luotta--
luov--
lus--
lut--
luuk--
luut--
luvva--
lv--
lva--
lvalus--
lves--
lvomea--
ly--
lycopo--
lyly--
lym--
lymfasuo--
lymfo--
lyri--
lys--
lyy--
læ--
m--
ma--
maa--
maan--
mac--
mag--
magis--
mai--
maj--
maja--
mal--
man--
mando--
mansi--
mar--
mari--
marja--
mars--
marshall--
mas--
masse--
mat--
mata--
matematih--
mau--
maximil--
maŋ--
mc--
me--
mea--
meahcce--
meannu--
mearra--
med--
media--
medigge--
medii--
megiel--
mehr--
meis--
melan--
men--
menest--
menuo--
mer--
meren--
meri--
mes--
met--
meta--
meteoro--
metro--
meur--
mi--
mia--
micr--
mie--
miehte--
miel--
miela--
mieđi--
mih--
mihtid--
mii--
mij--
mikon--
mikro--
miljo--
miljø--
milli--
min--
mini--
minuhtta--
mirandesa--
mire--
mis--
miskito--
mitt--
mjønda--
mm--
mma--
mmohallan--
mo--
mode--
molle--
molssa--
mon--
monnes--
monol--
mor--
mord--
mordva--
morfo--
mos--
mot--
motii--
mou--
movttii--
movttiida--
mp--
ms--
mu--
muhtu--
muik--
muit--
mul--
multi--
mum--
mun--
munk--
muorra--
muoto--
muođ--
murt--
mus--
musea--
musihkka--
must--
musta--
mut--
muta--
muu--
muuk--
muur--
my--
myll--
mylly--
myrs--
myste--
n--
na--
naapur--
nai--
namma--
namu--
nan--
narvi--
nas--
nasjonal--
naut--
navd--
nazis--
nd--
nda--
nddal--
nddard--
ne--
nea--
neahte--
neahtta--
nealge--
nealgu--
nearva--
nenet--
ner--
nes--
net--
neu--
neurol--
neut--
neuv--
new--
ng--
nh--
ni--
nie--
nieida--
nii--
nikka--
nis--
nisson--
nit--
nja--
nje--
njea--
njel--
njie--
njo--
njoa--
nju--
njuo--
nka--
nko--
nn--
nne--
nni--
nnja--
nno--
no--
noaide--
noar--
noi--
nor--
nord--
nordan--
nos--
not--
nous--
ns--
nsa--
nsi--
nsun--
nt--
nta--
ntgen--
nty--
nu--
nubbi--
nue--
nukleo--
num--
numme--
nuo--
nuolad--
nuoraid--
nuorta--
nus--
nuuv--
ny--
nygaardsv--
næ--
nærøy--
o--
oa--
oadjo--
oaffa--
oagu--
oahkkanan--
oahpaheaddje--
oahpahus--
oahppo--
oaiv--
oalge--
oamas--
oamastan--
oane--
oani--
oarje--
oassa--
oasse--
oasus--
oav--
oavda--
oba--
obser--
oc--
octo--
od--
oda--
odd--
of--
off--
offe--
oh--
ohkii--
ohkke--
ohkki--
oidno--
oina--
oit--
oja--
okku--
oks--
okta--
oktii--
ol--
ola--
olbmo--
olggos--
olgo--
olgoriika--
oljo--
olles--
olof--
oly--
olympia--
om--
omuo--
on--
one--
onnis--
oor--
oov--
opp--
or--
ora--
ord--
ordfø--
ordl--
ordne--
org--
orkeast--
oro--
orpma--
orto--
ortodok--
os--
oskko--
oskku--
ot--
otta--
ou--
out--
ov--
ovd--
ovda--
ovdda--
ovddi--
over--
ovtta--
ovttas--
oxyco--
oza--
ođ--
ođas--
ođasma--
ođđa--
p--
pa--
paak--
paar--
paas--
paci--
pai--
paju--
pakin--
palat--
palo--
palt--
pan--
par--
para--
paras--
paren--
parii--
paro--
pas--
pata--
pav--
pe--
pedagogi--
pelt--
pelto--
pend--
peps--
pept--
per--
pers--
persia--
persialu--
peter--
petro--
peura--
ph--
philhar--
pi--
pic--
pie--
pih--
pihlaja--
pii--
piipp--
piispa--
pil--
pilo--
pio--
pir--
pirtti--
pit--
pite--
pl--
pla--
plasma--
plasti--
pm--
pmin--
pmorustte--
po--
poasta--
poe--
pohja--
pol--
polar--
polit--
politii--
poly--
pon--
pop--
positii--
pout--
pp--
ppa--
pr--
pra--
prakti--
pre--
pri--
prip--
pro--
prote--
przewalski--
ps--
psy--
pu--
pun--
punka--
pur--
px--
py--
q--
quadr--
que--
qui--
r--
ra--
raa--
rac--
radio--
rae--
rag--
rai--
raja--
rak--
ram--
ran--
ranas--
randa--
rap--
ras--
rastti--
rastu--
rat--
rau--
rautatie--
rbe--
rbelis--
rd--
rda--
re--
rea--
rebe--
recog--
red--
refer--
reflea--
refor--
reg--
rege--
regi--
regis--
rehke--
reit--
reitangru--
reki--
reli--
religi--
rem--
ren--
req--
res--
resur--
ret--
rettskr--
rey--
reyk--
rga--
rge--
rggi--
rgos--
rgu--
rhi--
ri--
riba--
ribo--
rie--
riek--
riekte--
riektesihkar--
ries--
rigalu--
rih--
rihkko--
rihkus--
rii--
riidejedd--
riiden--
riihi--
riika--
riikka--
rij--
rika--
riks--
rin--
ris--
risti--
rje--
rk--
rkan--
rki--
rkkis--
rkku--
rko--
rku--
rm--
rn--
rnu--
ro--
rock--
rod--
rog--
rohto--
rok--
ron--
rou--
rr--
rra--
rre--
rrejedd--
rren--
rrenmi--
rroguhkko--
rry--
rs--
rt--
ru--
ruhta--
ruhtadan--
ruidu--
rukses--
rum--
rumbb--
run--
runo--
ruo--
ruoh--
ruohtas--
ruokto--
ruov--
ruovdeg--
ruovtto--
ruovttu--
ruođ--
rus--
ruske--
rut--
ruu--
ruv--
ruvke--
rv--
rva--
rvi--
rvo--
rvu--
ry--
rø--
s--
sa--
saa--
saame--
saari--
sabme--
sahkan--
sai--
said--
sakramea--
sala--
salmen--
salt--
sam--
same--
sami--
samojedagie--
san--
sand--
sanskrita--
santa--
sar--
sara--
sat--
satu--
sauna--
savi--
savo--
savu--
sc--
scand--
sch--
sche--
schi--
schl--
sd--
sdoa--
se--
sea--
seagu--
seaiv--
sealla--
sear--
seava--
seavd--
seavdnja--
see--
sefa--
seg--
segmea--
sel--
sen--
ser--
seremonii--
servodat--
servv--
setogie--
seyche--
sg--
sha--
shan--
she--
shi--
si--
sie--
siepman--
sierra--
sieđ--
sig--
sih--
sii--
siika--
sij--
silba--
silta--
sin--
sinc--
sir--
sis--
sisa--
sit--
sitro--
siv--
siva--
sivakka--
sivil--
sja--
sju--
sk--
ska--
skeaŋ--
skep--
ski--
skin--
skk--
sko--
skoa--
skog--
sku--
skuvla--
skuvle--
sky--
sl--
sla--
slen--
sli--
sluo--
sm--
sma--
sn--
sno--
so--
soa--
soaba--
soagŋ--
soahte--
soar--
sohka--
sojahan--
sok--
sol--
som--
son--
sor--
sorbme--
sorva--
sosia--
sotna--
sov--
sovje--
sp--
spa--
spea--
speadja--
spirometrii--
spon--
sr--
ss--
ssa--
ssan--
sse--
ssi--
st--
sta--
staffans--
stan--
statisti--
stats--
ste--
sterbo--
stesko--
sti--
stier--
stii--
stipe--
stivra--
stivren--
stjø--
sto--
stor--
stre--
stru--
struk--
stu--
studeanta--
stuor--
stuoradigge--
stuorra--
stuorradigge--
sturr--
stus--
sty--
stø--
su--
subj--
substan--
sudda--
sul--
sun--
sunda--
suo--
suodja--
suodjalus--
suolo--
suoma--
suor--
suovas--
super--
supp--
supra--
sur--
sura--
surggi--
sus--
sut--
suttes--
suur--
suut--
suvr--
sv--
sva--
sve--
sw--
swazigi--
sy--
syli--
synt--
sz--
sø--
sør--
t--
ta--
tah--
tahko--
tai--
taiva--
tallan--
tamme--
tammi--
tan--
tapa--
tar--
tas--
tastro--
te--
tea--
techno--
teer--
tek--
tel--
telef--
telefon--
telesko--
tem--
ten--
tennis--
teo--
terr--
terri--
terva--
tes--
test--
tet--
teut--
text--
th--
the--
tho--
thom--
thu--
ti--
tid--
tie--
tii--
tiili--
til--
tim--
ting--
tippa--
tit--
tja--
tju--
tk--
tkka--
tl--
tne--
tni--
to--
toij--
toim--
tom--
ton--
tor--
touk--
tous--
tr--
tra--
trans--
tre--
trilo--
tro--
try--
ts--
tscheremis--
tt--
tta--
tti--
ttir--
tto--
tu--
tuli--
tun--
tunnelb--
tuo--
turbu--
turi--
turk--
tus--
tutki--
tutsa--
tuu--
tv--
tvedest--
tvida--
tw--
ty--
tyy--
u--
ugri--
uhca--
uhtt--
ui--
uigu--
uigura--
uju--
uk--
ukon--
ul--
ulbmil--
un--
una--
une--
unnit--
uo--
uohpa--
uoigan--
uoja--
uovga--
uođi--
up--
upp--
ur--
ura--
urdu--
us--
usti--
ustit--
ut--
util--
uu--
uusi--
uv--
uvdna--
uvge--
uvgehus--
uđegie--
v--
va--
vagge--
vai--
val--
valg--
valke--
vall--
valta--
van--
vanda--
vanha--
var--
vardi--
varra--
vars--
vartio--
vas--
vat--
vcci--
vd--
vdee--
vdnje--
ve--
vea--
veadde--
veahke--
veahkk--
veahkkedoai--
veahkkepro--
veajuidu--
veh--
vehka--
vej--
vel--
ven--
ver--
verkko--
ves--
vesi--
vest--
vg--
vga--
vi--
via--
vid--
video--
vie--
viek--
vier--
vierro--
viest--
vih--
viha--
vii--
viiddi--
viidne--
viini--
vik--
viki--
vil--
vilges--
vin--
virge--
virus--
vis--
vit--
viđa--
vjj--
vka--
vke--
vla--
vlla--
vlu--
vlun--
vnna--
vnnas--
vo--
vol--
vpe--
vpejas--
vperie--
vpot--
vr--
vu--
vua--
vuo--
vuodji--
vuoigada--
vuoigat--
vuoja--
vuoju--
vuol--
vuolggahus--
vuolle--
vuoren--
vuori--
vuoru--
vuos--
vuovd--
vuovdeguo--
vuođa--
vuođđo--
vurk--
vus--
vv--
vva--
vval--
vve--
vvu--
vvudan--
vye--
vz--
vza--
væ--
w--
wa--
wal--
war--
wat--
water--
we--
web--
wert--
west--
wiki--
wil--
wir--
wis--
wo--
x--
y--
ya--
ye--
yli--
yne--
yng--
yo--
yry--
ytt--
ytte--
yty--
yu--
yupih--
yə--
z--
za--
ze--
zh--
zi--
zoo--
zu--
zulu--
zz--
zzi--
æ--
æppe--
ð--
ø--
øks--
øst--
øste--
þ--
đ--
đa--
đii--
đis--
đoh--
đđ--
đđe--
đđega--
ŋ--
ŋga--
ŋgga--
ŋŋ--
ŧest--
ə--
δ--
π--
τ--
в--
дз--
ез--
к--
л--
м--
ма--
мо--
му--
н--
п--
по--
про--
пу--
русс--
с--
саамс--
си--
стра--
т--
х--
ш--
я--
--0
--00
--04
--05
--06
--08
--1
--14
--2
--20
--22
--27
--3
--31
--37
--4
--40
--48
--5
--53
--6
--60
--7
--71
--8
--9
--90
--97
--98
--99
--a
--aa
--aan
--aara
--aari
--ab
--abad
--ac
--aceae
--ad
--ada
--ade
--ado
--ae
--aga
--age
--ah
--ahka
--ahta
--ai
--aid
--ain
--ainen
--aivi
--aji
--ajja
--ak
--aka
--akko
--aktivista
--al
--ala
--alas
--almi
--alo
--am
--ama
--ami
--amo
--amos
--an
--ana
--and
--ane
--ang
--anma
--ans
--ansa
--ant
--ao
--apmi
--ar
--ara
--arby
--ard
--are
--ari
--ary
--as
--ase
--asi
--at
--ata
--ation
--atus
--au
--aw
--ax
--ay
--az
--ađu
--b
--ba
--bad
--baji
--bal
--barggu
--bargi
--bargu
--bat
--bbi
--bbo
--be
--beaivi
--beaivvi
--beal
--beale
--bellodat
--beros
--bi
--biergasat
--bihta
--biras
--bjørg
--bla
--ble
--bo
--boađuid
--bok
--bos
--breen
--bu
--bun
--burg
--but
--by
--byen
--byggð
--bælt
--c
--ca
--caid
--cain
--cal
--cas
--cat
--ce
--ceae
--cen
--cent
--cer
--ces
--ch
--cha
--che
--chen
--cht
--ci
--ciid
--cio
--ck
--co
--cos
--cs
--ct
--ctic
--cu
--cuocca
--cuoccas
--cuozza
--cus
--cy
--d
--da
--dae
--dal
--dan
--das
--dat
--dd
--dda
--ddji
--ddjin
--dduid
--de
--deaddji
--deaddjin
--deami
--deapma
--deddjiin
--demiid
--demiin
--den
--departementii
--der
--des
--det
--dettiin
--dh
--di
--dieđa
--diggeva
--dihte
--dii
--diks
--dil
--dila
--dili
--dilli
--dima
--din
--direktevra
--dis
--dit
--dja
--dje
--dji
--djin
--dments
--do
--doalu
--doalus
--doargga
--doarjagiin
--don
--dor
--dora
--ds
--dt
--du
--duct
--dui
--dun
--dus
--dut
--duvvo
--dy
--e
--ea
--eabbo
--eae
--eaks
--eamet
--eamos
--eana
--eappot
--earvi
--earvvi
--easet
--ec
--ect
--ed
--ee
--een
--ef
--eg
--eh
--eha
--ei
--eid
--eigga
--eille
--ejuvvon
--ek
--eksi
--el
--ela
--elag
--ell
--elva
--em
--ema
--emat
--emi
--emiid
--emis
--emo
--en
--ena
--ene
--eng
--enii
--eniin
--ening
--enis
--enma
--ens
--ensis
--ent
--entere
--eq
--er
--era
--erby
--erd
--ere
--erejuvvon
--erejuvvui
--erema
--eremis
--eren
--erer
--erg
--eri
--erie
--erii
--ero
--ers
--ert
--ery
--es
--esa
--esi
--esta
--et
--eta
--ete
--eth
--etihka
--etta
--eu
--eus
--eux
--ev
--evttohas
--ey
--ez
--ezer
--f
--fa
--fc
--fen
--fer
--ff
--fi
--filbma
--filmma
--fja
--fjellet
--foandda
--folium
--fonna
--for
--fors
--fs
--ft
--g
--ga
--gada
--gaid
--gar
--gas
--gat
--ge
--geahc
--gearda
--geaz
--geh
--gehc
--gen
--ger
--gga
--gh
--gi
--gia
--gieddi
--giel
--giela
--giella
--gii
--giid
--giin
--gillii
--gilvu
--girji
--girjja
--gis
--git
--gl
--gle
--gma
--gn
--gna
--gne
--gny
--go
--goa
--goddi
--goga
--gokc
--govva
--gođii
--gođus
--gra
--gren
--gs
--gt
--gu
--gua
--gue
--guin
--guovdda
--guovlu
--guovssu
--gus
--gut
--h
--ha
--haka
--hal
--hamn
--han
--hat
--haug
--hc
--he
--heaba
--headdji
--heami
--heamis
--heamit
--heapma
--heapme
--heapmi
--hed
--heddjiide
--hehttejumi
--hen
--hii
--hija
--hild
--hima
--his
--hit
--hk
--hka
--hkka
--hkke
--hkkin
--ho
--hoavda
--hola
--hon
--hova
--hreppur
--hta
--hti
--htton
--http
--https
--htu
--hu
--hus
--husa
--hy
--i
--ia
--iae
--ial
--iala
--ialas
--ian
--ias
--iat
--ic
--ica
--ical
--ich
--ick
--ico
--ics
--id
--ida
--idae
--ide
--ie
--iel
--iella
--iemi
--ien
--ier
--ies
--iet
--ieu
--iformes
--ig
--ige
--ign
--iguin
--ihka
--ihkka
--ii
--iid
--iida
--iidda
--iija
--iin
--iina
--iippa
--iiva
--ij
--ija
--ije
--ijn
--ik
--ikt
--il
--ila
--ilac
--ilas
--ild
--ill
--ille
--illo
--im
--ima
--imus
--in
--ina
--inae
--ine
--inen
--ing
--ings
--ini
--iniemi
--inio
--inis
--inma
--ins
--inta
--inus
--io
--ion
--ions
--ios
--ir
--ire
--iro
--is
--isch
--isen
--isenma
--iserejuvvon
--isk
--iska
--iske
--iskosiid
--iskosiin
--ism
--isma
--ist
--ista
--isten
--isti
--istihka
--isto
--isttalas
--it
--ita
--ite
--ito
--ittula
--ity
--ium
--ius
--iv
--iva
--ive
--ivi
--iz
--ization
--j
--ja
--jagi
--jahka
--jala
--jas
--je
--jeaddji
--jedje
--jen
--jer
--ji
--jieret
--jierihat
--jii
--jit
--jja
--jn
--jo
--joavkku
--joavku
--joen
--johka
--joki
--jola
--jon
--joner
--jođu
--jt
--ju
--jui
--jula
--jumi
--jupmi
--juvvo
--juvvojit
--juvvon
--juvvos
--juvvot
--juvvui
--k
--ka
--kainen
--kama
--kan
--kana
--kaukasialas
--ke
--kel
--kema
--ken
--kh
--ki
--kija
--kila
--kio
--kit
--kja
--kk
--kka
--kkaid
--kkala
--kke
--kki
--kko
--kku
--kna
--ko
--koda
--korva
--ks
--ksa
--ksen
--ksi
--kt
--ktu
--ku
--kuvllas
--ky
--kyla
--l
--la
--laakso
--lac
--laga
--lahtut
--lai
--lainen
--laista
--lam
--lampi
--lan
--land
--lar
--las
--lat
--lax
--laz
--lc
--ld
--lduvvo
--le
--leami
--leg
--lege
--lehto
--len
--ler
--les
--lew
--ley
--lf
--lfi
--lgi
--li
--lia
--lica
--lig
--lige
--lii
--lik
--lin
--ling
--lio
--lis
--list
--lit
--litehta
--lius
--liv
--lja
--ll
--lla
--llat
--lle
--lli
--llin
--llio
--llo
--lm
--lma
--lmi
--ln
--lna
--lo
--load
--lobi
--loga
--logi
--logiga
--logu
--lohpi
--lon
--lot
--lp
--ls
--lse
--lt
--lte
--ltz
--lu
--lue
--lui
--luma
--luovvar
--luvvot
--lv
--lva
--ly
--lyn
--m
--ma
--maa
--mahtii
--man
--mar
--mas
--mat
--mbo
--me
--meahttumat
--meara
--meari
--mearra
--mearri
--meas
--mela
--men
--ment
--mentii
--met
--mi
--mic
--mii
--miid
--miidda
--miin
--min
--ministeriija
--mis
--mit
--mm
--mma
--mn
--mo
--mola
--mos
--mpi
--ms
--mstad
--mu
--mund
--muorjji
--mus
--musa
--musea
--my
--n
--na
--nae
--naga
--naja
--nan
--narti
--nas
--nat
--nay
--nba
--nberg
--nby
--nc
--nce
--nch
--nd
--nda
--nde
--ndi
--ndra
--ndu
--ne
--neet
--nek
--nen
--neniin
--ner
--nes
--ness
--ng
--nga
--ngas
--ngen
--nger
--ngiela
--nguovlu
--ni
--nia
--nica
--nidae
--nie
--nieida
--niemi
--nihka
--nii
--niid
--niija
--niitty
--nila
--ninae
--ning
--nis
--niva
--nja
--njuikema
--nk
--nka
--nkartano
--nkel
--nki
--nkoski
--nkyla
--nla
--nluoto
--nma
--nmaa
--nn
--nna
--nnan
--nne
--nniemi
--no
--noaivi
--nos
--noz
--npa
--npelto
--npera
--ns
--nsa
--nsalmi
--nsalo
--nsis
--nsk
--nt
--nta
--ntaka
--ntan
--ntin
--nto
--nts
--nu
--num
--nuppeloga
--nuppelohka
--nuppelot
--nus
--nuvvat
--nva
--ny
--nz
--o
--oa
--oahpa
--oahpu
--oasa
--oasat
--oasi
--oasis
--oassa
--oassi
--oc
--oe
--oeh
--off
--ogi
--ogiija
--ogra
--ohja
--ohta
--oi
--oja
--ok
--oki
--ol
--ola
--olahus
--oli
--olia
--olium
--olm
--olmma
--olmmos
--ologiija
--olu
--om
--oma
--on
--ona
--ong
--onne
--ons
--oo
--ook
--oon
--op
--or
--ora
--organisas
--ori
--oria
--orm
--orn
--orrun
--ors
--ort
--orta
--os
--oski
--osum
--osus
--ot
--otek
--oto
--ou
--oux
--ov
--ova
--ovic
--ow
--oz
--ođa
--ođđu
--p
--pa
--pah
--paja
--pala
--parvusz
--pe
--pedia
--pel
--pelto
--pera
--pes
--pet
--ph
--phe
--pi
--ping
--pla
--pma
--pmi
--pmu
--po
--pp
--ppo
--ppu
--progra
--pros
--ps
--psis
--ptes
--pu
--puhto
--pus
--q
--qi
--que
--qvist
--r
--ra
--rala
--rande
--ranta
--rar
--ras
--rat
--rc
--rd
--rda
--rde
--rdii
--rdo
--rds
--re
--rejuvvon
--rek
--ren
--res
--ret
--rett
--rg
--rggu
--rgu
--ri
--ria
--ric
--rid
--riega
--riekti
--rien
--ries
--rii
--riid
--riija
--riika
--rija
--rima
--rin
--rio
--ris
--rius
--rix
--rja
--rk
--rla
--rm
--rn
--rnes
--rnis
--ro
--roaivi
--roggama
--rola
--roma
--ror
--ros
--rov
--rs
--rssa
--rt
--rth
--rtista
--rto
--ru
--rud
--ruid
--rum
--ruohta
--rup
--rus
--rusttega
--rva
--ry
--rðarsy
--røy
--s
--sa
--saari
--sac
--sain
--sajit
--salo
--san
--sas
--sat
--sba
--sbo
--sby
--sch
--sdal
--se
--searvi
--sed
--sel
--selva
--semina
--sen
--sena
--senter
--ser
--seret
--ses
--set
--seva
--sey
--sfo
--sga
--sh
--sha
--si
--sia
--sii
--siidii
--siidu
--siin
--sila
--silta
--sin
--sion
--sis
--sit
--sja
--sjonen
--sk
--ska
--ske
--ski
--slahti
--sma
--smma
--smmas
--sniemi
--so
--soahti
--sojuvvon
--son
--sor
--spa
--spra
--ss
--ssa
--sse
--sson
--st
--sta
--stad
--ste
--stein
--sten
--ster
--stii
--stis
--sto
--stuvvo
--su
--sue
--sullot
--sum
--suma
--sut
--suu
--suus
--svik
--svuođa
--sy
--syhdistys
--sz
--søra
--t
--ta
--taa
--tac
--tad
--tada
--taga
--tagat
--tage
--taid
--taja
--tal
--tam
--tama
--tan
--tar
--tas
--tat
--taus
--tausta
--tbo
--tby
--te
--tea
--teaset
--ted
--tee
--tein
--ten
--ter
--teri
--tes
--tet
--teus
--tga
--th
--ti
--tia
--tic
--tige
--tihka
--tihkalas
--tii
--tiiva
--tik
--tila
--tin
--ting
--tion
--tions
--tis
--tische
--tiske
--tit
--tius
--tive
--tivrras
--tle
--tn
--to
--tojuvvon
--tok
--tola
--ton
--tor
--tos
--town
--tra
--trum
--ts
--tsra
--tt
--tta
--ttaid
--ttat
--tte
--ttofa
--tty
--tu
--tula
--tupmi
--ture
--tus
--tusa
--tut
--ty
--tyr
--tz
--u
--ua
--uc
--ud
--ue
--ug
--ugh
--ugn
--ui
--uid
--uks
--ula
--ulata
--ullot
--ulluid
--ult
--um
--ume
--umen
--umi
--un
--und
--unki
--uo
--uohka
--uoktu
--uolu
--uoma
--uori
--uortin
--uoto
--uođa
--up
--ur
--ura
--ure
--uri
--us
--usa
--ut
--uta
--uu
--uv
--uvrii
--uvrras
--ux
--v
--va
--vaga
--vas
--vatn
--vc
--ve
--vearjjut
--vei
--veig
--vet
--vi
--via
--vic
--vie
--vik
--vin
--ving
--vio
--vna
--vo
--vojit
--vs
--vsa
--vu
--vuhtii
--vuoga
--vuogi
--vuogit
--vuohka
--vuohki
--vuohta
--vuođa
--vuođat
--vva
--vvaid
--vvo
--vvon
--vvos
--vvot
--w
--wa
--way
--we
--wi
--wich
--wissenschaft
--wy
--x
--xa
--y
--ya
--yan
--yd
--yda
--ying
--yma
--yn
--yo
--yor
--yotat
--ys
--ytina
--z
--za
--zen
--zer
--zi
--zin
--zo
--zung
--zy
--ße
--ær
--ð
--ø
--økt
--ør
--ørg
--øy
--øya
--đa
--đe
--đga
--đu
--đus
--ŋa
--ʒ
--α
--η
--ν
--ο
--ς
--а
--ан
--в
--ва
--го
--д
--е
--з
--и
--к
--ле
--м
--н
--о
--ов
--р
--с
--т
--х
--ца
--ыи
--э
--я
--م
