!
"
#
##0
##1
##10
##11
##12
##13
##14
##15
##16
##17
##18
##19
##2
##20
##21
##22
##23
##24
##25
##26
##27
##28
##29
##3
##30
##31
##32
##33
##34
##35
##36
##37
##38
##39
##4
##40
##41
##42
##43
##44
##45
##46
##47
##48
##49
##5
##50
##51
##52
##53
##54
##55
##56
##57
##58
##59
##6
##60
##61
##62
##63
##64
##65
##66
##67
##68
##69
##7
##70
##71
##72
##73
##74
##75
##76
##77
##78
##79
##8
##80
##81
##82
##83
##84
##85
##86
##87
##88
##89
##9
##90
##91
##92
##93
##94
##95
##96
##97
##98
##99
$
%
&
'
(
)
*
+
,
-
.
/
0
00
000
0000
000000
0001
001
002
003
004
005
007
01
010
015
017
01745329252
02
03
04
05
06
064
07
08
09
1
10
100
1000
10000
100000
1000000
1001
1002
1003
10035
1004
1005
1006
1007
1008
1009
101
1010
1011
10117
1012
1013
1014
1015
1016
101655
1017
1018
1019
102
1020
1021
1022
1023
1024
1025
1026
1027
10278
1028
1029
103
1030
103000
1031
1032
1033
1034
1035
1036
1037
1038
1039
104
1040
10400
1041
1042
1043
1044
1045
1046
1047
1048
1049
105
1050
1051
1052
1053
1054
1055
1056
1057
1058
1059
106
1060
1061
1062
1063
1064
1065
1066
1067
1068
1069
107
1070
1071
1072
1073
1074
1075
1076
1077
1078
1079
108
1080
108000
1081
1082
1083
1084
1085
1086
10860
1087
1088
1089
109
1090
1091
1092
1093
1094
1095
1096
1097
1098
1099
11
110
1100
11000
1101
1102
11022
1103
1104
1105
1106
1107
1108
1109
111
1110
1111
1112
1113
1114
1115
1116
1117
1118
1119
112
1120
1121
1122
1123
1124
1125
1126
1127
1128
1129
113
1130
1131
1132
1133
1134
1135
1136
1137
1138
1139
114
1140
1141
1142
1143
1144
1145
1146
1147
1148
1149
115
1150
1151
1152
1153
1154
1155
1156
1157
1159
116
1160
1161
1162
1163
1164
1165
1166
1167
1168
1169
117
1170
1171
1172
1173
1174
1175
1176
1177
1178
1179
118
1180
1181
1182
1183
1184
1185
1186
1187
1188
1189
119
1190
119000
1191
1192
119200
1193
1194
119476
1195
1196
1197
1198
1199
12
120
1200
12000
1201
1202
1203
1204
1205
1206
1207
1208
1209
121
1210
121000
1211
1212
1213
1214
1215
1216
1217
1218
1219
122
1220
12201
1221
1222
1223
1224
1225
1226
1227
1228
1229
123
1230
123000
1231
1232
1233
1234
123456
12345678
123456789
1234567890
1235
1236
1237
1238
1239
124
1240
124000
1241
1242
1243
1244
1245
1246
1247
1248
1249
125
1250
1251
1252
1253
1254
1255
1256
1257
1258
1259
126
1260
1261
1262
1263
1264
1265
1266
1267
1268
1269
127
1270
1271
1273
1275
1276
1277
1278
1279
128
1280
1281
1282
1283
1284
1285
1286
1287
12871
1288
1289
129
1290
1291
1292
1293
1294
1295
1296
1297
1298
1299
13
130
1300
13000
1301
1302
1303
1304
1305
1306
1307
1308
1309
131
1310
1311
131187
1312
1313
1314
1315
1316
1317
1318
1319
132
1320
1321
1322
13220
1323
1324
1325
132515
1326
1327
1328
1329
133
1330
1331
1332
1333
1334
1335
1336
1337
1338
1339
134
1340
1342
1343
1344
1345
1346
1347
1348
1349
135
1350
1351
1352
1353
1354
1355
1356
1357
1358
1359
136
1360
1361
1362
1363
1364
1365
1366
1367
1368
1369
137
1370
1371
1372
1373
1374
1375
1376
1377
1378
138
1380
1381
1382
1383
1384
1385
1386
1387
1388
1389
139
1390
1391
1392
1393
1394
1395
1396
1397
1398
1399
14
140
1400
14000
1401
1402
1403
1404
1405
1406
1407
1408
1409
141
1410
1411
1412
1413
1415
1416
1417
1418
1419
142
1420
142000
1421
1422
1423
1424
1425
1426
1427
1428
1429
143
1430
1431
1432
1433
1434
1435
1436
1437
1438
1439
144
1440
1441
1442
1443
1444
1445
1446
1447
1448
1449
145
1450
1451
1452
1453
1454
1455
1456
1457
1458
1459
146
1460
1461
1462
1463
1464
1465
1466
1467
1468
1469
147
1470
1471
1472
1473
1474
1475
1476
1477
1478
1479
148
1480
1481
1482
1483
1484
1485
1486
1487
1488
1489
149
1490
1491
1492
1493
1494
1495
1496
1497
1498
1499
15
150
1500
15000
1501
1502
1503
1504
1505
1506
1507
1508
1509
151
1510
1511
1512
1513
1514
1515
1516
1517
1518
1519
152
1520
1521
1522
1523
1524
1525
1526
1527
1528
1529
153
1530
1531
1532
1533
1534
1535
15356
1536
1537
1538
1539
154
1540
1541
1542
1543
1544
1545
1546
1547
1548
1549
155
1550
1551
1552
15529
1553
1554
1555
1556
1557
1558
1559
156
1560
1562
1563
1564
1565
1566
1567
1568
15686
1569
157
1570
1571
1572
1573
1574
1575
1576
1577
1578
1579
158
1580
1581
1582
1583
1584
1585
1587
1588
1589
159
1590
1591
15919
1592
15924
1593
1594
1595
1596
1597
1598
1599
16
160
1600
16000
1601
1602
1603
1604
1605
1606
1608
1609
161
1610
1611
1612
1613
1614
1615
1616
1617
1618
1619
162
1620
1621
1622
1623
1624
1625
1626
1627
1628
1629
163
1630
1631
1632
1633
1634
1635
1636
1637
1638
1639
164
1640
1641
1642
1643
1644
1645
1646
1647
1648
1649
165
1650
1651
1652
1653
1654
1655
1656
1657
1658
1659
166
1660
1661
1662
1663
1664
1665
1666
1667
1668
1669
167
1671
1672
1673
1674
1675
1676
1677
1678
1679
168
1680
1681
1682
1683
1684
1685
1686
1687
1688
1689
169
1690
1691
1692
1693
1694
1695
1696
1697
1698
1699
17
170
1700
17000
1701
1702
1703
1704
1705
1706
1707
1708
1709
171
1710
1711
1712
1713
1714
1715
1716
1717
1718
1719
172
1720
1721
1722
1723
1724
1725
1726
1727
1728
1729
173
1730
1731
1732
1733
1734
1735
1736
1737
1738
1739
174
1740
1741
1742
1743
1744
1746
1747
1748
1749
175
1750
1751
1752
1753
1754
1755
1756
1757
1758
1759
176
1760
1761
1762
1763
1764
1765
1766
1767
1768
1769
177
1770
1771
1772
1773
1774
1775
1776
1777
1778
1779
178
1780
1781
1782
1783
1784
1785
1786
1787
1788
1789
179
1790
1791
1792
1793
1794
1795
1796
1797
1798
1799
18
180
1800
18000
1801
1802
1803
1804
1805
1806
1807
1808
1809
181
1810
1811
1812
1813
1814
1815
1816
1817
1818
1819
182
1820
1821
1822
1823
1824
1825
1826
1827
1828
1829
183
1830
1831
1832
1833
1834
1835
1836
1837
1838
1839
184
1840
1841
1842
1843
1844
1845
1846
1847
1848
1849
185
1850
1851
1852
1853
1854
1855
1856
1857
1858
1859
186
1860
1861
1862
1863
1864
1865
1866
1867
1868
1869
187
1870
1871
1872
1873
1874
1875
1876
1877
1878
1879
188
1880
1881
1882
1883
1884
1885
1886
1887
1888
1889
189
1890
1891
1892
1893
1894
1895
1896
1897
1898
1899
19
190
1900
19000
1901
1902
1903
1904
1905
1906
1907
1908
1909
191
1910
1911
1912
1913
1914
1915
1916
1917
1918
1919
192
1920
1921
1922
1923
1924
1925
1926
1927
1928
1929
193
1930
1931
1932
1933
1934
1935
1936
1937
1938
1939
194
1940
1941
1942
1943
1944
1945
1946
1947
1948
1949
195
1950
1951
1952
1953
1954
1955
1956
1957
1958
1959
196
1960
1961
1962
1963
1964
1965
1966
1967
1968
1969
197
1970
197000
1971
1972
1973
1974
1975
1976
1977
1978
1979
198
1980
1981
1982
1983
1984
1985
1986
1987
1988
1989
199
1990
1991
1992
1993
1994
1995
1996
1997
1998
1999
2
20
200
2000
20000
2001
2002
2003
2004
2005
2006
2007
2008
2009
201
2010
2011
2012
2013
2014
2015
2016
2017
2018
2019
202
2020
2021
2022
2023
2024
2025
2026
2027
2028
2029
203
2030
2031
2032
2033
2035
2036
2037
2038
2039
204
2040
2041
2042
2047
2049
205
2050
2051
2053
2054
2055
2056
2057
2058
2059
206
2061
2062
2064
2065
2066
2067
2069
207
2070
2071
2072
2073
2074
2076
2077
2079
208
2080
2081
2082
2083
2085
2086
2087
2088
209
2091
2092
2094
2095
2096
2097
2098
2099
21
210
2100
21000
2101
2102
2103
2104
2105
2106
2109
211
2110
2112
2113
2114
2115
2116
2117
2118
2119
212
2120
2121
2122
2123
2124
2125
2127
2128
2129
213
2131
2132
2133
2134
2135
2136
2137
2138
214
2140
2141
2142
2143
2144
2147
2148
215
2150
2153
2154
2159
216
2160
2161
2162
2164
2165
2166
2167
2169
217
2170
2171
2174
2176
2177
2178
218
2181
2184
2185
2189
219
2191
2193
2194
2195
2196
22
220
2200
22000
2201
2205
22051
221
2210
2211
2212
2214
2215
2216
2217
2218
2219
222
2220
2221
2224
2226
2228
223
2230
2231
2232
2233
2234
2236
2237
2238
224
2241
2246
2247
2248
2249
225
2251
2252
2253
2254
2256
2257
2258
2259
226
2260
2261
2262
2263
2266
2267
227
2271
2272
2274
2277
2278
2279
228
2280
2281
2282
2283
2284
2285
2286
2287
2288
2289
229
2290
229000
2291
2293
2294
2295
2296
2297
2298
2299
23
230
2300
23000
2301
2302
2303
2304
2305
2306
2309
231
2310
231000
2313
2314
2316
2317
232
232000
2321
2322
2326
2327
2329
233
2330
2331
2332
2334
2335
2336
2337
2338
234
2340
2341
2342
2344
2345
2347
2348
2349
235
2353
2354
2356
2357
2359
236
2360
2361
2362
2363
2364
2366
2368
2369
237
2371
2375
2376
2377
2378
2379
238
2383
2384
2385
2386
2389
239
2390
2391
2393
2395
2397
2398
24
240
2400
24000
2402
2405
2406
2407
241
2411
2415
2417
2418
2419
242
2423
2424
2427
243
2431
2433
2434
2435
2436
2439
244
2440
2442
2443
2444
2447
2448
2449
245
2453
2454
2455
2458
246
2464
2466
2469
247
2470
2474
2475
2479
248
2481
2483
2484
2488
2489
249
2494
2495
2496
2498
25
250
2500
25000
250000
2502
2503
2504
2506
2508
2509
251
2512
2517
2518
252
2522
2523
2524
2525
2526
2528
2529
253
2530
2532
2536
2538
254
2542
2544
2548
255
2550
2552
2553
2555
2559
256
2560
2561
2563
2564
2565
2566
2567
2568
2569
257
2572
2575
258
2582
2583
2588
2589
259
2592
2594
2595
2596
2597
2598
26
260
2600
26000
2602
2603
2608
261
2612
2613
2615
2616
2617
262
2622
263
2630
2633
264
2640
2641
265
2656
2657
2659
266
2665
267
2677
2678
2679
268
2683
2684
2686
2687
2689
269
2693
2695
2696
27
270
2700
27000
2706
2707
2708
271
2710
2711
2713
2714
2715
2716
2717
272
2721
2722
2723
2724
2726
2728
273
2730
2731
2733
2737
2738
2739
274
2741
2746
2749
275
2750
27500
2753
2756
2757
276
2763
2764
2765
2769
277
2773
2777
2778
2779
278
2781
2785
2786
2788
279
2791
2792
2793
2794
2797
2798
28
280
2800
28000
2801
2803
2804
2805
2806
2809
281
28100
281000
2811
28125
2813
2814
2815
2817
2818
282
2820
2821
2824
2827
2828
2829
283
2830
2831
2833
2838
284
2842
2843
2844
2846
2848
2849
285
2850
2852
2853
2854
2858
2859
286
2860
286000
2861
2864
2865
2869
287
2871
2874
2878
288
2880
2885
2886
2887
2888
2889
289
2890
2893
2894
2895
2897
29
290
2900
29000
2901
2903
2904
2908
2909
291
2911
2914
2915
2918
2919
292
2923
2926
2927
293
2935
2939
294
2947
2948
2949
295
2950
2952
2955
296
2963
2964
2967
2969
297
2972
2974
2975
2976
298
2980
2983
2986
2989
299
2990
2993
3
30
300
3000
30000
3002
301
3011
3012
3013
3015
302
3025
3026
3027
3029
303
3030
3032
304
3041
3043
3046
3048
3049
305
3050
3051
3052
3053
3057
3059
306
3060
307
3071
3073
308
3087
309
309000
3091
3093
3099
31
310
3100
31000
3101
3107
3109
311
3111
3116
312
312000
3127
313
3131
3136
314
3142
3148
3149
315
3150
3151
3154
3155
3157
316
31635
3165
3166
316846592
31685
317
318
3182
3188
319
3192
3195
3197
32
320
3200
32000
320000
3208
321
3213
3215
322
3220
322000
3221
3223
3224
3226
323
3230
3232
3235
3236
324
3243
3246
3249
325
3250
3254
326
3260
3261
3263
3264
3269
327
327000
3271
3279
328
3283
3285
3289
329
3295
3296
3297
3298
33
330
3300
33000
3301
3305
3307
331
3313
3319
332
3327
333
3335
3336
3338
334
3342
335
3352
3359
336
336000
3361
3362
337
3372
338
338000
339
3390
3396
3398
34
340
3400
34000
3402
341
3412
3417
342
3423
3425
3429
343
343000
3438
344
344000
3446
3449
345
346
3463
3469
347
3471
3473
3475
348
349
3490
35
350
3500
35000
3508
351
3511
352
3522
3525
3526
353
3530
35300
353000
3531
3536
3537
3539
354
3540
3541
3547
3548
355
3554
3555
3558179483314004
3559
356
3567
357
3570
3572
3574
358
359
3591
3592
3593
3594
36
360
3600
36000
3602
3608
361
3612
362
3625
363
3630
3632
3636
3637
364
3647
365
366
3666
367
3672
3675
3679
368
369
3695
37
370
3700
37000
3702
371
3711
372
373
3731
3732
3736
374
3740
3743
3749
375
3752
3753
3755
376
3763
3764
3765
377
3771
3774
378
3781
3789
379
3795
3797
38
380
3800
38000
3802
3805
3807
381
382
3820
3821
383
3831
3835
384
385
3851
3856
3858
386
386000
3863
3864
3867
387
3874
3877
388
3883
389
3892
39
390
3900
39000
3904
3905
391
3913
392
3926
393
3932
3933
3937
3939
394
3946
3947
395
3954
3958
396
3967
397
3976
398
399
3993
3995
4
40
400
4000
40000
401
4014
402
4022
4024
403
4031
4035
4037
404
4041
4045
405
406
407
4071
4073
4074
408
4081
409
41
410
4100
41000
4109
411
4111
412
413
4132
4137
4139
414
4140
4147
415
4150
416
417
418
4185
419
4190
42
420
4200
4202
4206
421
4212
4217
422
4226
4228
423
424
4245
4246
425
4254
426
426000
4262
4267
4269
427
4270
428
4282
4289
429
4299
43
430
4300
43000
4302
431
431000
4313
4314
4317
432
4327
433
4331
4337
434
435
4357
436
437
438
439
4395
44
440
4400
44000
441
442
443
4438
444
445
4453
446
447
4479
448
4483
449
45
450
4500
4501
451
4514
452
4524
453
4531
454
455
4552
456
4567
457
458
4587
459
46
460
4600
46000
461
462
463
4637
464
465
4654
4659
466
467
4677
468
4682
469
4690
47
470
4700
47000
471
472
4721
473
474
4743
475
4759
476
4766
4769
477
478
4782
4788
479
48
480
4800
48000
4803
4809
481
482
4827
483
4835
484
485
4855
486
487
4870
4871
488
4886
489
4893
49
490
4900
49000
491
4911
4915
492
4929
493
494
4949
495
496
497
498
4985
499
4994
5
50
500
5000
50000
500000
501
5017
502
503
504
5042
505
506
5060
507
508
509
5095
51
510
5100
51000
5101
5107
511
5111
5117
512
513
514
515
516
517
518
5185
519
5195
5199
52
520
5200
52000
521
5211
5212
522
5221
523
5237
5238
524
5249
525
5252
526
527
528
5281
529
529000
53
530
5300
53000
531
5310
532
5322
5327
5329
533
534
5340
535
536
5360
537
538
539
5391
5393
54
540
5400
54000
541
542
5428
5429
543
544
5443
545
546
5467
547
548
549
55
550
5500
55000
5503
551
5516
552
5522
5526
553
554
555
556
557
5572
558
559
55919
56
560
5600
561
562
563
56322
564
565
566
567
568
569
57
570
5700
57000
571
572
573
574
575
576
577
5774
578
5783
579
58
580
5800
581
582
583
584
585
5851
5851582170
586
587
588
589
58987294928
59
590
5900
59000
591
592
5922
593
594
595
5951
596
597
5977
598
599
6
60
600
6000
601
602
602176487
603
604
605
606
607
608
609
61
610
6100
61000
6103
611
612
613
6135
614
615
616
617
6171
618
619
62
620
6200
6207
621
622
623
624
625
626
62684
627
6272
62749
628
629
63
630
6300
63000
6305566
631
632
633
634
6340
635
636
637
638
639
64
640
6400
64000
641
642
643
644
645
646
6461
647
648
649
65
650
6500
651
652
653
654
655
6558
656
657
658
6583
659
66
660
6600
661
662
663
664
665
666
667
668
669
67
670
6700
6703
671
672
673
674
675
676
677
6778
678
679
68
680
6800
681
682
6829
683
684
685
686
6862
687
688
689
6897
69
690
6900
6904
691
692
693
694
695
6959
696
697
698
6983
699
7
70
700
7000
70000
701
702
7023
703
704
705
706
707
708
709
7098
71
710
7100
711
712
713
714
715
716
717
7179
718
719
7197
72
720
72000
721
722
723
724
725
726
7267
727
7277
728
729
7292
73
730
7300
73000
731
732
7322
7327
7328
733
734
735
736
7366
7369
737
738
739
74
740
7400
74000
741
742
743
7437
744
745
746
747
748
749
75
750
7500
751
7519
752
753
754
755
7556
756
757
758
759
76
760
7600
761
762
7624
763
764
765
766
767
768
769
77
770
7700
7708
771
772
773
7737
7739
774
775
776
777
7771
778
779
78
780
7800
781
782
783
784
785
785411784
786
787
788
789
79
790
7900
791
792
793
794
795
796
797
798
799
8
80
800
8000
80000
8006
801
802
803
804
805
806
80665
807
808
809
81
810
8100
811
8112027
812
813
814
815
816
817
818
819
82
820
8200
821
822
823
824
825
8258093
826
827
828
829
83
830
8300
831
8316846592
832
833
834
835
836
837
838
839
84
840
8400
841
842
843
844
845
846
847
848
849
85
850
8501
851
852
853
854
855
856
857
858
859
8591
86
860
8600
8601
861
862
863
864
865
866
867
868
869
87
870
8700
87000
871
872
873
874
875
8753
876
877
878
879
88
880
881
882
883
8833
884
8841
8848
885
886
887
888
889
89
890
8900
8907
891
892
893
894
895
896
8966
897
898
899
9
90
900
9000
90000
901
902
903
9031
904
9043
905
906
907
908
9088
909
91
910
9100
911
912
913
914
915
916
917
918
919
92
920
9200
921
922
9223372036854775808
923
924
925
926
9268
927
928
929
93
930
9300
931
932
933
934
935
936
937
938
939
94
940
9400
94000
941
942
943
944
945
946
947
948
949
95
950
9500
951
952
953
954
955
956
957
958
959
96
960
9600
961
962
963
964
965
966
967
968
969
97
970
9700
97000
971
972
973
974
975
976
977
978
979
98
980
9800
981
982
983
984
985
986
987
988
989
99
990
9900
991
992
993
994
995
996
997
998
999
9999
999999
:
;
<
=
>
?
@
\
^
_
`
a
aa
aaa
aakhmedova
ab
abandon
abbr
abbreviation
abbreviations
abbrn
abc
abd
abdulaziz
abe
abeyance
able
ablo
ablon
ablona
ablono
abolished
about
above
abovebelow
aboveclass
abovestyle
abraham
abs
absence
absent
absolute
absolutely
abstract
abtei
abu
abubakaraimaki
abuse
ac
academic
academy
acceleration
accept
acceptable
accepted
accepting
accepts
access
accessdate
accessed
accessibility
accessible
accipiter
according
accordingly
account
accounts
accumulate
ace
achieve
acre
acres
across
act
action
actions
activate
active
activeusers
activities
activity
actm
actor
actual
actualdate
actualdateboundariesproperties
actually
acute
ad
adam
adams
adapt
adb
add
addcalendar
addcat
addcell
addclass
added
adding
addition
additional
addnamed
addon
address
addrow
adds
addsuffix
adg
adipisicing
adj
adjacent
adjacentnumbers
adjectival
adjust
adjusted
admin
administrative
administrators
admins
ads
advance
advanced
ady
ae
aerial
af
affairs
affect
affected
affecting
affects
affricate
affricates
afghanistan
aforementioned
africa
african
aft
after
afterwards
ag
again
against
age
agency
ages
ago
agta
agx
ah
ahead
ahmad
ahnentafel
ai
aiatsis
aid
aidan
aids
ainu
air
airbus
aircraft
airdate
airlines
airport
airways
ais
aise
aja
ak
aka
akkadian
ako
al
ala
alabama
alan
alaska
alba
albanian
album
alemania
aleppo
alert
alexander
alexis
alfred
algorithm
ali
alias
aliases
aliaseslist
aliasesp
alighieri
align
alignbars
alignment
aliqua
aliquip
all
allen
alliance
allocine
allow
allowed
allowing
allows
almost
alnum
along
alongside
alpha
alphabet
alpine
alpinus
alps
already
als
also
alt
alta
alter
alternate
alternative
alternatively
alternativemap
although
altitude
altname
altnames
altogether
alttype
altvalue
alveolar
always
am
ama
amazon
ambox
america
american
americana
amet
ami
amikeco
amk
amn
among
amount
amp
ampersand
amsterdam
amu
an
ana
analecta
analysis
analyze
anatomy
ancash
ancestor
ancestral
anchor
anchorencode
anchors
ancient
and
andersen
andes
andoza
andress
andrew
android
ang
angle
anglo
anim
animal
animation
anime
ann
anne
annotation
annotations
announce
announced
announcement
announcements
announcing
annual
annum
another
answer
ant
antarctica
anthem
anthony
anthropology
antilope
antiquity
antonio
any
anylang
anyone
anything
ao
aor
ap
apache
apart
api
apoidea
apologies
apologize
apostrophe
app
apparent
appear
appearance
appearing
appears
append
appended
appendimpl
appending
appendproperty
appendsnaks
apple
appletons
applicable
application
applications
applied
applies
apply
appreciate
appreciated
approach
appropriate
approved
approximant
approximately
apr
april
apsnyteka
ar
ara
arab
arabia
arabian
arabic
aramaic
arbitrary
arc
archaeology
architecture
archive
archived
archivedate
archiveis
archives
archiveurl
are
area
areaplace
areas
aren
arg
argentina
argkeys
arglist
argname
argnumber
args
argsarg
argscellnum
argscfg
argsi
argsii
argsk
argskey
argsname
argsnumdata
argsv
argtables
argument
arguments
arhiv
ari
aria
ariel
ark
armenia
armenian
arms
army
aromanian
around
arp
arr
arrange
arranged
array
arraydatas
arrayreg
arrays
arraytocheck
arrow
ars
art
arthur
article
articles
articulated
artist
artists
arts
arxiv
ary
arz
as
ascii
ashe
ashley
asia
asin
ask
asked
asking
asmat
aspects
aspx
assalam
assemble
assembleoutput
assembly
assert
assertnotnull
assign
assigned
assignment
assist
assisted
associate
associated
association
assume
assuming
assyrian
ast
asterisk
asterisks
astronomy
asu
asv
at
ata
atdate
athletes
athletics
atlas
attempt
attempts
attend
attention
attr
attribute
attributes
attribution
au
audio
auf
aug
august
aus
australia
australian
austria
aut
aute
author
authority
authorlink
authorlist
authormask
authors
auto
autocollapse
autoconfirmed
autoheaders
automated
automatic
automatically
autonomous
autoreview
autos
autovalue
av
ava
available
avar
avary
ave
average
avg
avoid
avoided
aw
awa
award
awarddata
awards
aware
away
awr
awyu
ax
axk
axtypara
ay
aya
aymara
ayta
az
azerbaijan
azerbaijani
b
ba
baba
babel
bach
back
background
backgroundcolor
backtranslate
backward
backwards
bad
badge
badges
baga
bahrain
bai
bal
balinese
balkans
balochi
ban
band
banda
bangladesh
bank
banned
banner
banners
bannertemplate
bantu
bar
barbara
bare
barnes
barrel
barrels
bars
barset
barwidth
bas
basa
base
baseball
based
basel
baseline
baseresult
basestyle
basic
basically
basis
basketball
basque
bat
batak
battle
battles
bau
bavarian
baxter
bay
baynes
baynessmith
bb
bbc
bbkl
bbl
bbook
bc
bce
bcl
bcp
bd
bda
bdh
bdi
be
beach
bear
beatles
because
become
becomes
becoming
bee
been
beer
bef
before
beforecontent
begin
beginning
begins
begun
behalf
behaves
behavior
behaviour
behind
bei
being
bel
belarus
belarusian
belong
belonged
belongs
below
belowclass
belowstyle
belt
ben
beneath
bengali
benin
benjamin
ber
berber
berkeley
berli
berlin
bernard
best
bestchange
beststart
beststop
bet
beta
betawiki
better
between
beyond
bez
bf
bfa
bfb
bg
bgd
bh
bhasa
bhp
bi
bibcode
bible
bibliographic
bibliography
bidayuh
big
bikol
bilabial
billion
bin
binary
biografico
biographical
biographies
biography
biological
biology
biorxiv
birth
birthday
bis
bishop
bishops
bit
bj
bjn
bk
bl
black
blacklist
blacklisting
blackwell
blank
blanked
blanks
block
blocker
blockposition
blocks
blog
blp
blue
blurb
blurbobj
bm
bmj
bms
bn
bnc
bne
bnf
bo
board
bodo
body
bodyclass
bodystyle
boeing
bold
bolivia
bolivian
bontok
book
bookmark
books
bookseries
bookseriesentity
booktitle
boolean
bor
border
bordercolor
borderless
borders
borderwidthnum
born
bos
bosnia
boston
bosworth
bot
both
bots
botsuana
bottom
bound
boundaries
bovidae
box
boxargs
boxdate
boxes
boxstyle
boxtable
boyd
bozo
bp
bpn
bprecision
bpy
bq
br
brace
bracket
brackets
braille
branch
brazil
brazilian
break
breaking
breaks
breton
bridge
bridgewater
brief
brien
brill
bring
britain
britannica
british
britishlococat
brk
broadest
broadway
broken
bronze
brown
browser
browsers
brt
brts
bru
brunei
brunner
bry
bs
bsh
bst
bstructure
bt
btable
btu
bu
bua
budapest
bug
bugs
build
builder
building
buildrow
built
builtin
bulgaria
bulgarian
bulleted
bulletin
bullets
bump
bun
buntarion
bunu
bur
burana
burg
buriat
burma
burmese
bush
bushel
business
but
button
buttonlabel
buttons
bv
bvalue
bw
bx
bxor
bxr
by
byte
byzantine
byzantini
byzantium
bz
c
ca
cache
cached
cadastre
cairo
cal
calculate
calculated
calculation
calculations
calendar
calendarmodel
california
call
called
calling
callparserfunction
calls
calorie
calories
cam
cambridge
cameroon
camii
campaign
campaignbox
can
canada
canadensis
canadian
canal
candidate
candidates
canidae
canis
cannot
canonical
canonicalname
canterbury
canvas
cao
cap
cape
capita
capital
capitalid
capitalization
capitalsnaks
caption
captions
captionstyle
capture
captured
captures
car
card
cardinal
cards
care
caribbean
carl
carlos
carmina
carolina
casa
case
cases
cassell
castle
casualties
cat
catalan
catalana
catedral
categories
categorisation
categorise
categorization
categorize
categorized
category
categoryauthoritycontrol
categoryexternallink
categoryhandler
categoryitem
categorynameprefix
cathcart
cathedral
catherine
catholic
catmain
catname
catnocountry
cats
caucasian
caucasus
cause
caused
causes
cb
cbd
cbk
cc
ccaatteeggoorryy
ccc
ccd
ccit
ccita
ccitar
ccitation
ccite
cd
cdata
cdc
cdo
ce
ceb
cee
cef
ceil
cel
cell
cellnum
cellpadding
cells
cellspacing
cellstyle
celsius
celtic
census
cent
center
centered
centers
centimeter
centimetre
central
centralnotice
centre
centuries
century
cephalophus
certain
cervantes
cervicapra
cest
cet
cf
cfg
cgi
ch
cha
chad
chain
chains
challenge
challengedclosureheading
cham
chamber
championship
chan
chance
change
changed
changer
changes
changing
channel
chapter
chapterurl
char
character
characters
chargs
charles
charlie
chars
chart
chartargs
chartheight
charts
chatino
chavacano
che
check
checkarg
checkdim
checked
checkflag
checking
checknumandaddsuffix
checks
checkself
checktype
checktypefornamedarg
checkvalue
chembox
chemical
chemistry
chess
chi
chicago
child
childnode
children
chile
chin
china
chinantec
chinese
chiricahua
chm
cho
chobe
choice
cholera
cholerae
choose
chosen
chr
christchurch
christian
christianity
christmas
christoph
christopher
chronological
chu
church
churchill
chv
chy
ci
cia
ciconia
cid
cillum
circle
circumstances
citation
citationclass
citations
cite
cited
citeparams
citeq
citeref
citerefbaxter
citerefbosworth
citerefboyd
citerefgazette
citerefgrothendieckdieudonne
citerefhistoric
citerefle
citerefmadelung
citerefmarshall
citerefo
citerefschmitt
citerefshahbazi
citerefsolomon
citereftolkien
citerefvan
citeseerx
citeweb
cities
citing
citoid
citroe
city
civil
civilian
civilization
cjk
ck
ckb
cke
ckt
cl
claim
claimcommands
claimed
claims
claimspropertyid
class
classes
classic
classical
classification
clausewitz
cle
clean
cleannumber
cleanup
clear
clearly
click
clicking
clicks
climate
clinical
clock
clone
cloneoptions
close
closing
closurecontent
closureheading
cm
cmbox
cmn
cmp
cn
cnt
co
coa
coarticulated
coast
coastline
coat
coauthor
coauthors
cocos
code
coded
codepoint
codes
coding
coins
col
colclass
cold
collaboration
collapse
collapsed
collapsible
collect
collection
collections
collective
collectlinks
college
colombia
colon
color
colorado
colors
colour
coloured
cols
colspan
colstyle
columbia
column
columns
colwidth
com
combatant
combatants
combination
combinations
combine
combined
combo
combos
come
comes
comics
coming
comma
command
commander
commanders
commands
commas
comment
comments
commission
committee
commodo
common
commonly
commonparentsresult
commons
commonsmedia
commonwealth
communication
communities
community
comorian
comoros
comp
compact
companion
company
comparative
compare
compareurl
comparing
comparison
compat
compatibility
compatible
competition
complete
completed
completely
complex
component
components
composite
compositions
compresssparsearray
compton
compulsory
compute
computer
con
concat
concatenate
concatenated
concatenation
concerns
concise
concolor
condition
conditions
conduct
conf
conference
config
configtables
configuration
configured
confirmed
conflict
conflicting
conflicts
confused
confusing
confusion
congo
congress
conjunction
conlang
conlangs
connect
connecticut
connochaetes
cons
consectetur
consensus
consequat
consider
consideration
considered
considering
consistency
consistent
consists
console
consonants
constable
constituencies
constituency
constructed
consultation
consultations
contact
contain
contained
container
containing
contains
contemporary
content
contentmodel
contents
contest
context
continent
continue
continues
contrast
contribute
contribution
contributions
contributor
contributors
control
controlling
controls
convenience
convenient
convention
conventional
conversation
conversations
conversion
conversions
convert
converted
converting
convertnumeric
converts
convey
cook
cooper
coord
coordinate
coordinates
coordinatespec
coordinator
coords
copied
copte
coptic
copy
copying
copyrendered
copytable
copyto
core
cornish
coronavirus
corporate
correct
correctly
corresponding
corresponds
coruler
cos
costa
cot
could
council
count
counter
counting
countnotempty
countries
country
countryentityid
countryflags
counts
county
coup
couple
course
court
cov
cover
covering
covers
covid
cox
cp
cpa
cq
cr
create
created
createrow
creates
creating
creation
creative
creator
cree
creek
creole
crh
cricket
crimean
crit
critical
croatia
croatian
cropped
cross
crosses
crown
crusades
crystal
cs
csa
csb
csl
css
csstext
cst
ct
cta
cu
cuba
cubic
cuft
cuin
cuisine
culpa
cultural
culture
cuneiform
cuon
cup
cupidatat
cur
curly
curr
currency
current
currentdate
currententity
currentindex
currently
currentnumber
currentprot
currenttitle
curry
cursor
curstate
custom
customary
customized
customtitle
cut
cuyd
cv
cvt
cw
cwt
cx
cy
cycle
cygnus
cyprus
cyrene
cyril
cyrillic
cyrl
cz
czech
d
da
daa
dab
dag
dagestan
dagger
daghestan
dai
daily
daju
dakota
dall
dam
dama
damascus
dame
dan
dance
dances
dani
danish
dans
dante
danube
dar
das
dash
dashboard
dashes
data
database
databases
datacell
datacode
dataid
datalabel
datalength
dataresourceid
datarow
dataset
datastyle
datatype
datavalue
date
dateclaims
dateformat
datein
dateofbirth
dateout
datepart
dates
datesi
datestr
datetime
david
davies
daw
dawn
day
daylight
days
db
dbi
dbinet
dbscripts
dc
dcb
dcc
dd
dda
ddd
ddddff
ddead
de
dead
deal
dealing
dear
death
deaths
debates
debug
dec
decade
decat
december
decide
decimal
decimalprecision
decimals
decimetre
decision
declaration
decode
decodewaybackdate
decompose
decorate
dedabbed
dedicated
deep
deepcopy
def
default
defaultargs
defaultkey
defaultns
defaults
defaultseparators
defense
define
defined
definition
definitions
deg
degli
degree
degrees
degruyter
del
delaware
delete
deleted
deletion
delim
delimited
delimiter
delink
delivered
delivery
dem
demo
democracy
democratic
demographics
demonym
demoscope
demospace
den
dene
denh
denmark
denominator
denoting
density
denstr
dental
dep
department
depend
dependencies
depending
depends
dependvalue
deployed
deployment
deployments
deprecated
depth
deputy
der
dera
des
desan
desc
describe
described
description
descriptions
deserunt
design
designation
designed
desirable
desired
desktop
detail
detailed
details
detect
detected
detects
determine
determined
determines
deutsch
deutsche
deutschland
develop
developed
developers
developing
development
devices
dew
df
dgrbm
dh
dhm
di
dia
diacritics
diagram
dialect
dialects
dialog
dic
dictated
dictatorship
dictionaries
dictionary
did
didn
die
diego
diff
differ
difference
differences
different
difficult
diffs
dig
digit
digital
digitletter
digits
dili
dimensions
din
dinka
diplomacy
diplomatic
diq
dir
direct
direction
directions
directly
directory
dis
disable
disabled
disables
disambiguation
disambiguator
disambiguators
disaster
discover
discuss
discussion
discussions
disease
diseases
disp
display
displayauthors
displayed
displaying
displayname
displays
displaytext
displaytitle
dispute
disputed
disputes
disruption
dissemination
dissertation
distance
distancefromleft
distinct
distinguish
distributed
distribution
district
districts
div
diverse
diversity
divide
divided
division
divisions
dizionario
dj
dk
dl
dm
dms
dmy
dnb
do
doc
docpage
docs
doctitle
document
documentation
documented
documents
dodson
does
doesn
dog
dogon
doi
doing
doit
dokumentation
dolor
dolore
dom
domain
domains
dome
domestic
don
donald
donation
done
dong
dot
dotted
double
doubled
douglas
dow
down
downcase
dprec
dr
draft
drafting
draw
drawing
draws
drive
drop
dropped
drug
dry
ds
dsb
dsc
dst
dstructure
dt
dtxt
dtype
du
dual
dudley
due
duis
duisburg
duke
dummy
dump
dunam
dunams
dup
dupes
duplicate
duration
durham
during
dusun
dutch
duty
dv
dvd
dw
dy
dyan
dyk
dynasty
dynend
dynlink
dynstart
dz
dza
e
ea
each
eaecf
earl
earlier
early
earth
ease
easier
easily
east
eastern
easy
eb
ebook
ebsco
ec
economic
economics
ecuador
ed
edcp
ede
edgar
edge
edit
edited
editing
editintro
edition
editions
editlink
editor
editorlink
editorlist
editormask
editors
editrequest
edits
edo
eds
edt
edu
education
educational
edw
edward
edłoga
edłoha
ee
eee
een
ef
effect
effectively
effects
efficient
eg
ega
egerton
egy
egypt
egyptair
egyptian
ei
eid
eight
eighteenth
eighth
eira
eissn
either
eiusmod
ej
ejective
el
election
elections
electoral
electric
electrical
electricity
electronic
electronvolt
elem
element
elements
elevation
eleven
eligible
eliminated
elit
elitre
elizabeth
else
elseif
elsevier
elsewhere
em
ema
email
embargo
embargoed
embed
embedded
embedding
embera
emblem
emerald
emirates
emission
emit
emperor
emphasis
empire
empty
ems
emulated
en
enable
enabled
enables
enc
enclose
enclosed
encloses
encode
encoded
encoding
encountered
encourage
encouraged
encyclopaedia
encyclopedia
encyclopædia
end
endash
endashes
ended
ending
endparam
ends
endtime
endtimey
endyear
energy
enforcement
eng
engagement
engineering
england
english
enim
enlightenment
enough
ensure
enter
entered
entering
entire
entirely
entities
entitled
entity
entityid
entries
entriestolookupcategory
entry
enum
enumerated
enumerator
env
envfuncs
environment
environments
enwiki
eo
epiglottal
episode
eq
equal
equals
equalsigns
equalsignspattern
equation
equipment
equivalent
equivalents
er
era
eradata
eraindex
eras
erg
err
errformat
errmiss
errmsg
errns
error
errororentity
errors
errortext
errtag
es
escape
escaped
escapepattern
escapes
ese
espan
especially
esperanto
essays
esse
essential
est
established
establishment
estados
estimate
estonian
et
etal
etc
ethiopia
ethiopian
ethnic
ethnicity
ethno
ethnologue
eu
europe
european
ev
evaluate
evaluated
evaluation
even
evenodd
evenstyle
event
events
eventually
ever
everest
every
everyone
everything
evolution
ew
ewe
ex
exact
exactly
examined
example
exampleargs
examples
except
excepted
excepteur
exception
exceptional
exceptions
excerpt
excited
exclude
excluded
exclusively
exercitation
exhaust
exhaustive
exile
exist
existing
exists
exit
expand
expanded
expandspecialsqualifiers
expandtemplate
expected
expecttype
expensive
experience
experienced
experiment
experiments
experts
expiry
explains
explanation
explanationblurb
explanations
explicitly
explorer
exponent
export
exported
exports
expr
expressed
expression
ext
extend
extended
extendedconfirmed
extension
extensions
extensiontag
extent
external
extinct
extinction
extra
extraclasses
extract
extracted
extraneous
extraordinary
extreme
eye
ez
f
fa
facebook
fact
factbook
factor
fahrenheit
fail
failed
failing
fails
failsafe
failure
fair
fairy
fakefathernode
fakemothernode
fali
falign
fall
fallback
falls
false
fam
families
family
familycolor
familytree
famname
famous
fang
faq
far
fargs
fascism
fashion
faster
fatal
fath
father
fatiha
fault
favor
favorite
fb
fc
fdate
fdc
fdfdfd
fe
feasible
feature
featured
features
feb
february
fed
federal
feedback
feel
feet
fehler
felidae
felipe
fellow
female
feminism
femlabels
fer
festival
festivals
fetch
fetchlanguagename
fetchwikidata
few
ff
ffe
fff
ffff
ffffff
fg
fi
fiction
field
fieldname
fields
fieldsi
fifth
figure
figures
fiji
file
filename
files
filetype
fill
filled
fills
film
filter
filtercapitalof
filtered
fin
final
finalize
finally
find
findlang
finds
finish
finished
finland
finnish
fire
first
firstchar
firstn
fish
fit
fits
fiu
five
fix
fixchildboxes
fixed
fj
fl
flag
flagbegindate
flagged
flagicon
flagimagestatement
flags
flat
flex
flexibility
flickr
flight
flip
float
floating
floor
florida
flow
flu
flush
fm
fmargs
fmbox
fmt
fn
fo
focus
focused
fold
folk
folklore
follow
followed
following
follows
fon
font
fonts
fontsize
fontstyle
foo
food
fooentity
foot
football
footer
footnote
footnotes
for
forall
force
forced
forces
foreign
forest
form
formal
format
formatcategory
formatdate
formatentityid
formatf
formations
formatlink
formatmessage
formatnum
formatparams
formatphonemegroup
formatproperty
formatpropertyvalues
formatpropertywithmostrecentclaimandindicator
formatrefs
formats
formatsnak
formatspattern
formatstatement
formatstatementdefault
formatstr
formatt
formatted
formattedclaims
formattedstatement
formatter
formatting
formattingindex
formed
former
formerly
forms
formula
forrow
fort
forth
fortress
fortuna
forum
forward
foto
found
foundation
foundations
four
fourth
fr
fra
frac
fracpart
fraction
fragment
frame
frameless
frameonly
framestyle
framework
franc
france
francis
francisco
frank
frankish
free
freely
french
frequently
frhdkazan
fricative
friday
friedrich
frietjes
frisian
frm
fro
from
front
frp
frr
fru
fruit
fry
ft
ftin
fu
fuel
fugiat
fulfulde
full
fullcontent
fullname
fulltext
fullurl
fullwidth
fully
fun
func
funcname
function
functional
functionality
functions
funding
fundraiser
fundraising
funds
fur
furnish
further
furthermore
future
fy
g
ga
gaa
gabon
gadget
gadgets
gaelic
gag
gal
gale
galleries
gallery
gallon
gallons
game
games
gan
ganjavi
gap
gaps
garden
gary
gas
gaw
gazella
gazette
gazetteer
gazimagomedov
gb
gbaya
gbe
gd
gdp
ge
gelaltar
gem
gen
gender
gene
general
generalcommands
generally
generaloptions
generate
generatebibleerror
generated
generates
generating
generation
generic
genetic
genitive
genitivusmonthesnm
genre
geo
geoffrey
geographic
geographical
geography
geohack
geoinfobox
geology
geopolitical
georg
george
georgia
georgian
gerardm
german
germanic
germany
geschichte
get
getallstatements
getargnums
getargs
getbeststatements
getboolean
getcategory
getcatforid
getcode
getcontent
getcontentlanguage
getcurrentframe
getcurrenttitle
getdate
getelementlink
getentity
getentityidforcurrentpage
getentityobject
getenvironment
getexpandedmessage
getexports
getfullpage
getinvocation
getlabel
getlabelwithlang
getlabelwithlink
getlabelwithoutlink
getline
getlocalizedtext
getmapparams
getmetatable
getn
getname
getnotempty
getopt
getoutput
getparameters
getparammappings
getparent
getparentsinboundariessnakimpl
getproperty
getreferences
gets
getsingle
getsinglestringqualifiervalue
getsitelink
getsourcingcircumstances
gettaxpar
gettemplate
gettemplateoutput
getting
gettitle
getvalue
getvaluebyqual
gez
gfdl
ghana
ghi
ghs
gi
gif
gini
git
give
given
gives
giving
gj
gje
gkeyfromval
gks
gl
glass
glk
glo
global
globals
globe
glorious
glossary
glottal
glotto
glottolog
glottoname
gmatch
gmol
gn
gnd
gnu
go
goal
goals
god
goes
goethe
going
golden
gondi
good
goodflag
google
gor
got
gothic
gov
govern
governing
government
governmental
governor
gr
gradient
gram
grammaire
grammar
grammatical
grammatik
grams
gran
grand
grandchild
grant
granting
grants
graph
grave
gray
grc
great
greater
greatly
grebo
greece
greek
green
greenwood
greetings
gregorian
gregory
grey
grid
grimal
ground
group
groupcell
groupclass
grouped
groupn
groupname
groupnstyle
groups
groupstyle
groupwidth
grus
gruyter
gs
gsub
gsw
gt
gu
guarani
guarantee
gue
guide
guidelines
guinea
guiyang
gula
gulf
gun
gutenberg
guthrie
gv
gw
gwich
gyptische
h
ha
hack
had
haida
haitian
hak
hakka
half
hall
hamadan
hamedan
han
hand
handbook
handle
handled
handler
handlers
handles
handling
hands
hanging
hangul
hannig
hans
happen
happening
happens
happy
harassment
hard
harold
harper
harpercollins
harris
harv
harvard
harvc
has
hasadditionalqualifiers
hascolon
hash
hasmissing
hatnote
hausa
have
haven
having
haw
hawai
hawaii
haystack
hbo
hcard
hdi
hdl
hdr
he
head
header
headerid
headers
headerstyle
headertext
heading
headings
headnotes
health
hear
heard
heart
heavily
hebdo
hebrew
hectare
hectares
height
heights
heiligengrabe
heir
heirs
held
helen
hello
help
helped
helper
helpful
helping
helps
hemisphere
hen
henry
hepburn
her
herbermann
here
hereafter
heritage
herpestes
herzegovina
herzog
het
hex
hh
hi
hidden
hide
hides
hiding
hierarchy
hieroglyphs
hif
high
highbeam
higher
highest
highland
highlight
highlighting
highlights
highly
hill
hilton
him
hindi
hindu
hint
his
hist
histo
historia
historians
historic
historical
historiography
history
historyofparliament
hit
hitler
hittite
hlist
hm
hmong
hms
hnoptions
ho
hold
holder
holders
holding
holds
hole
holy
home
homer
homeri
honduras
hong
hook
hooks
hop
hope
horizontal
horizontally
horse
horsepower
host
hosted
hostname
hoststartposition
hotel
hou
hour
hours
house
hover
how
however
hp
hq
hr
href
hsb
ht
htm
html
http
https
hu
hua
huave
hudson
hue
huge
hughes
hugo
huishui
human
humanities
humidex
humidity
hun
hundreds
hundredweight
hungarian
hus
hut
hy
hydro
hydrologybook
hydrologycode
hyphen
hyphenated
hyphens
hypothetical
hz
i
ia
iabot
ian
iana
ib
ibdb
ibn
ic
iccu
ice
iceland
ich
icon
icons
id
idea
idealab
ideas
identical
identified
identifier
identifiers
identify
identifying
identity
ideograph
ido
ids
idx
idxformat
ie
ietf
if
ifany
ifexists
iff
ifset
ifsingle
ifsubst
ifugao
ig
igbo
iglesia
ign
ignore
ignoreblank
ignored
ihp
ii
iii
ik
il
ila
ili
iliad
ill
illegal
illustrated
illustration
ilo
im
image
imagealt
imageargs
imagecaption
imageclass
imagediv
imageemptycell
imagefilename
imageleft
imageleftstyle
imagemap
imagephysical
imageright
imagerowclass
images
imagesize
imagestyle
imagetemplate
imax
imbox
imc
imdb
img
immediate
immediately
imp
impact
impaired
imperial
imperii
impgal
implement
implementation
implemented
implements
implied
import
importance
important
importantly
imported
impoz
improper
improve
improved
improvements
improving
in
ina
inactive
inappropriate
inbord
inc
incat
inch
inches
incididunt
include
included
includes
including
inclusion
inclusive
incnis
incomplete
incorporate
incorporated
incorporates
incorrect
increase
increased
increases
increasing
increasingly
increment
incubator
incumbent
incumbents
ind
indef
indent
indents
independent
index
indexed
indexer
indexes
indexing
india
indian
indiana
indic
indicate
indicated
indicates
indicating
indicator
indices
individual
individuals
indo
indonesia
indonesian
indus
industrial
ine
inflation
info
infobox
infoboxes
infoboxstyle
infocardclass
infocards
infocardtemplate
infocolor
inform
information
informed
infrastructure
ing
ingdate
inh
inhabitants
inherit
inherited
inherits
init
initial
initialise
initialize
initially
initials
initiative
initindex
initpos
injdate
inline
inlineerror
inlinered
inmarsat
inn
innenraum
inner
innercell
inout
input
inputs
inputyear
insensitive
insert
inserted
inserter
insertfromsnak
inserting
insertion
inserts
inside
instagram
instance
instances
instead
institute
institutes
institutions
instructions
int
integer
integrated
intended
interest
interested
interface
interfere
interior
interlanguage
intermediate
internal
international
internet
internetarchivebot
interpret
interpreted
interprojects
interview
interviewer
interviewers
interwiki
into
intro
introduce
introduction
introductory
introfragment
introtosingle
inuit
inuktitut
inv
invalid
inventor
inversed
inversion
invert
inverted
invisible
invitation
invite
invited
inviting
invocation
invocationobj
invocations
invoke
invokeargs
invoked
invoking
involved
io
iof
ip
ipa
ipac
ipairs
iparm
ipsum
ipv
ir
ira
iran
iranian
iranica
iraq
irc
ireland
irish
irk
iron
irure
is
isblank
isblockformatted
isbn
iscomplex
iscountry
isdate
isempty
isfaha
isfahan
isfdb
isinstanceof
isinversed
islabel
islam
islamic
islamica
island
islands
ismn
isn
isnegative
isni
isnotempty
iso
isoexception
isomers
isoname
isplain
israel
iss
issmall
issn
issue
issues
ist
istalkpage
istana
istanbul
istemporary
isthmus
istmat
isu
isunion
isvalid
iswordend
isxn
isyear
iszero
it
italian
italiani
italiano
italic
italicised
italicize
italicized
italics
italictitle
italy
item
itemid
items
iterate
iteration
iterator
itneg
its
itself
itu
iu
iv
iva
ivoire
ivory
iw
ix
iyo
izh
j
ja
jack
jackson
jae
jam
jamaican
james
jan
jane
january
japan
japanese
javanese
javascript
jbo
jdz
je
jean
jersey
jerusalem
jethrobt
jew
jewish
jfm
ji
jimmy
jo
jobs
joe
johann
johanna
john
johnson
join
joins
joint
jointly
jones
joseph
journal
journals
jpeg
jpg
jr
js
json
jst
jstor
ju
juan
judeo
jukoff
jul
julian
july
jun
june
junior
jupiter
just
justify
juǀ
jv
k
ka
kaa
kaapor
kab
kaba
kadavoor
kag
kai
kaiyr
kal
kalinga
kam
kan
kanji
kannada
kansas
kanum
kanuri
kao
kar
kara
karen
karta
kartposisjon
kas
kashan
kategori
kavkaz
kavkaze
kayan
kazakh
kazakhstan
kb
kba
kbd
kcal
kdr
ke
keegan
keep
keeping
kei
keith
kelvin
kem
kennedy
kenneth
kenning
kenya
kept
kerman
kern
kev
key
keyboard
keycell
keypos
keys
keyword
keywords
kg
kgf
kha
kham
khk
khmer
khorasan
ki
kia
kilimanjaro
kill
killed
kilocalorie
kilogram
kilograms
kilojoule
kilometer
kilometers
kilometre
kilometres
kilotonne
kilowatt
kim
kind
king
kingdom
kingfisher
kings
kinnauri
kir
kirche
kirchspiel
kirke
kit
kj
kk
kl
kloster
km
kmol
kn
know
knowledge
known
ko
kob
kobus
koi
kok
kol
kom
komi
kong
konkani
kopenhagen
koptisch
koptische
korea
korean
koro
kos
kosack
kota
kpa
kpelle
kr
kra
krc
krit
krl
krm
ks
ksh
ku
kua
kug
kui
kuku
kum
kuo
kur
kurdish
kurumba
kuwait
kv
kw
kwa
kwh
ky
kya
kyo
kyoto
l
la
label
labelclass
labelid
labelledby
labelorid
labels
labelstyle
labiodental
labore
laboris
laborum
lack
lad
lago
lak
lake
lan
land
lands
lang
langcode
langentityid
langi
langobj
langs
language
languages
languagescode
langue
lao
laos
large
larger
largest
las
last
lastarg
lastauthoramp
lastheader
lastmsgdate
lastn
lastnum
lastrecord
lat
latdegrees
late
later
lateral
latest
latin
latitude
latminutes
latn
latrans
latseconds
latter
latvia
law
lawrence
lay
layout
laysummary
layurl
laz
lazily
lazy
lb
lbe
lbf
lbfft
lbl
lbm
lbmol
lc
lccn
lcwt
ld
ldf
ldn
le
lead
leader
leaders
leading
leadout
league
leap
learn
learning
least
leave
leaving
led
lee
left
lefthidelink
legacy
legal
legend
legenda
legends
legislative
legislature
legitimate
leiden
leipzig
lele
len
length
lengua
lenin
leo
leone
leopardus
leptailurus
les
leslie
less
let
lets
letter
letterdigit
letterpos
letters
leuven
lev
levantine
level
levels
levelstyle
lewis
lexicon
lexikon
leymaniye
lez
lfn
lg
lh
lhs
li
liability
lib
liberia
libraries
library
libraryutil
license
lif
life
light
lighthouse
ligurian
lij
like
likely
lim
limit
limitations
limitdouble
limited
limits
line
linear
lineconnectionx
lineconnectiony
lineendconnectto
linegrey
lines
linestartconnectfrom
linglist
lingname
lingua
linguasphere
linguist
linguistic
linguistics
lingvarium
link
linkcurrent
linked
linking
linkn
linkprefix
linkprev
links
lip
lipos
lir
lissabon
list
listcell
listclass
listed
listen
listframestyle
listing
listn
listname
listnstyle
listnum
listpadding
lists
liststyle
listtotext
listtype
lit
liter
literal
literary
literature
lithuania
lithuanian
litre
little
liv
live
living
lk
ll
ller
lmen
lmo
ln
lnb
lo
load
loaddata
loaded
loadi
loading
loads
loc
local
localisation
localise
localised
localising
localized
locally
localval
localvalue
locate
located
locatie
location
locations
locator
lock
locmap
locomotive
locomotives
locoslner
log
logged
logic
logo
logobject
lokacijska
lon
londegrees
london
long
longer
longitude
lonminutes
lonseconds
look
looked
looking
looks
lookup
loop
lord
lords
lorem
lorestan
los
loss
losses
lost
lot
louis
louvre
love
loves
low
lower
lowerbound
lowercase
lowland
loxodonta
lp
lpost
lpre
lr
lsa
lsi
lt
ltd
ltf
ltg
ltu
lu
lua
ludwig
lufthansa
lui
lum
luo
lupus
luri
luther
luwian
lv
ly
lydia
lynx
lzh
m
ma
macedonia
macedonian
mach
machine
macmillan
macrolanguage
macron
mad
made
madonna
madoqua
mag
magazine
magazines
magic
magna
magnitude
mai
mail
mailing
mailinglist
main
maincat
mainly
mainsnak
mainspace
maint
maintain
maintained
maintenance
maintext
mainz
major
mak
make
makebannertext
makecategorylink
makedata
makeheader
makeinvokefunc
makelabel
makeordinal
makes
makesection
maketext
maketitle
maketoolbar
makeurllink
makewikilink
makewikitexterror
makewrapper
makhachkala
makhuwa
making
mal
mala
malagasy
malawi
malay
malaysia
male
malformed
mali
mall
malline
mallnitz
malls
man
manage
management
manager
manda
mandaic
mandatory
manga
manitoba
manobo
mantissa
manual
manually
many
map
mapa
mapalt
mapcaption
mappings
maps
mapsize
mar
march
margaret
margin
marguments
mari
maria
marine
maritime
mark
marked
marker
markers
marks
marksize
markup
marlborough
mars
martes
martial
martin
marwari
mary
mashan
mask
maskn
mason
mass
massachusetts
master
match
matched
matches
matching
material
materials
math
mathematical
mathematics
mathsf
matter
mausoleum
max
maxdiff
maximum
maxlen
maxnum
maxnumber
maxsigfig
maxvals
may
maya
mayan
maybe
mayor
mazahua
mazama
mazatec
mba
mbe
mbox
mbq
mcal
mcode
md
mdf
mdy
me
mean
meaning
means
meant
measurement
medal
medals
media
median
mediawiki
medical
medicine
medieval
medium
meet
meeting
meetings
meets
mel
melanau
member
members
membership
memoized
memory
men
mentioned
menu
mer
mercury
merge
merged
mergedtoprow
mescalero
message
messagebox
messages
messy
met
meta
metaargs
metadata
metatable
meter
meters
method
methods
metre
metres
metric
metro
metropole
metropolitan
mev
mexico
mezquita
mf
mg
mh
mhatlist
mhatnote
mhr
mi
miami
miao
michael
michigan
microformat
microformats
micronesia
microsoft
mid
middle
mie
mien
might
miguel
mil
mile
miles
military
millennium
million
mime
min
mind
mindiff
minerals
minerva
mingrelian
minguo
minguoyear
mini
minim
minimize
minimum
minister
ministers
ministry
minnesota
minor
minority
minus
minute
minutes
mir
mirror
mis
mismatch
miss
missing
mission
misspelling
mistake
mit
miwok
mix
mixe
mixed
mixtec
mixtepec
mj
mk
ml
mlt
mm
mmm
mmol
mn
mni
mo
mobile
mod
mode
model
modelo
modern
modf
modified
modifier
modify
module
modules
moi
mojgorod
mol
molar
moldova
mole
molecular
moles
molie
mollit
moment
mon
monarch
monarchs
monarchy
monasterio
monastery
monday
monde
money
mong
mongol
mongolia
mongolian
monitoring
mono
monoaut
monolingualtext
monospace
mont
montage
month
monthgm
monthly
months
moon
mor
more
moreargumentsexist
morgunovskaya
moroccan
morris
mos
moscow
mosflag
mosque
most
mostly
mother
motto
mount
mountain
mountains
mountbatten
move
moved
movement
moves
moving
mow
moz
mp
mph
mr
mrj
mrsi
ms
msg
msgcount
msgs
mshared
msk
mst
msw
mt
mtabletools
mtext
mu
much
mud
mul
mult
multi
multilingual
multimedia
multiple
multiplier
munich
munst
mur
murray
murut
mus
muse
museum
museums
music
musical
musicbrainz
mussolini
must
mustelidae
mut
mw
mwh
mwl
mwlang
mww
my
myanmar
mythology
myv
myx
mzn
n
na
naar
nabokov
nacional
naga
nah
nahuatl
nam
nama
name
named
namelist
namely
names
namespace
namespaces
namibia
naming
nan
nap
napole
napoleon
nar
nara
narod
narrower
nasa
nasal
nation
national
nationalism
nations
native
natural
nature
nautical
nav
navajo
navarre
navbar
navbox
navboxargs
navboxdata
navboxes
navigate
navigation
navigational
navseasoncats
nb
nba
nbg
nbsp
ncbi
nci
nd
nda
ndargs
ndataset
ndb
nde
ndebele
ndefaultlanguage
ndl
ndn
nds
ne
near
nearest
nearly
necessary
necessitated
ned
need
needed
needing
needle
needs
negative
neil
neither
nen
neo
nepal
nepali
neptune
nested
nesting
net
netherlands
network
networks
neutral
never
new
newari
newattributes
newchild
newclaims
newcomers
newer
newest
newline
newlines
newly
newoptions
newparentsnaks
newrawmessage
newrecord
news
newsectioncontent
newsgroup
newsletter
newspaper
newspapers
newsru
newton
next
nextarg
nextlabel
nez
nezami
nfl
nfpa
ng
nga
ngr
ni
nia
nicaragua
nicholas
nickname
nicolson
nie
niger
nigeria
night
nih
nihongo
nii
nil
nile
nilorr
nin
ninka
ninth
nisi
nisu
niz
nizami
nj
nkey
nl
nla
nlm
nm
nmi
nn
nnnnnn
nnot
no
noble
nobr
nocat
nocomma
node
nodes
nodyn
noeditsection
noexpiry
noflip
nog
noicon
nolink
nolinks
nom
nomatch
nominal
nominate
nominations
nominativeyear
non
nonblank
none
noon
nooverwrite
nopp
noprefix
nor
nord
normal
normalize
normally
norman
north
northeast
northeastern
northern
northumberland
northwest
northwestern
norway
norwegian
nostrud
not
notable
notation
notcollapsed
note
noted
notempty
notes
nothing
notice
notification
notifications
notify
notoc
notre
nov
novalue
novel
november
now
nowiki
nowikicode
nowikiinvocation
nowrap
nowrapitems
nowraplinks
np
nqo
nrhp
nrm
ns
nscategory
nsk
nso
nss
nster
nstext
nte
nth
nts
nu
nuclear
nudge
nulla
num
number
numbered
numbering
numberof
numberofloops
numberol
numbers
numcell
numcolumns
numdata
numdigits
numdot
numeral
numerals
numerator
numeric
numerical
numerous
numgroups
numrecord
nums
numsep
numstr
numvalues
numyear
nv
nvs
nw
ny
nya
nz
o
oaxaca
obj
object
objects
obl
obligatory
obscure
obsolete
oc
ocaasi
occaecat
occasionally
occasions
occitan
occupation
occupations
occur
occurences
occurrence
occurs
ocean
och
ocinsoutput
oclc
oct
october
od
odb
odd
oddeven
oddstyle
odla
odnb
odyssey
of
off
offer
offered
office
offices
officia
official
officio
offline
offset
often
oga
ogg
oh
oil
oirat
ois
oj
ojibwa
ok
oko
ol
old
older
oldest
oldrecord
olo
olympiad
om
omarius
omarov
ombox
ombudsperson
omit
omitsep
omitted
oms
on
once
one
ones
ongoing
online
only
onlysourced
onlysrc
onlystats
onset
ontario
op
open
opener
opening
opera
operating
operation
operations
operator
opinions
opportunities
oppose
opposed
opposite
opt
option
optional
optionalarg
optionally
options
optionsk
optname
optval
oq
or
ora
order
ordered
ordereddata
orders
ordinal
ordsuffix
ore
oregon
org
organisation
organization
organizations
organize
organized
organizing
ori
oriental
orientalia
orientation
orig
origargs
origargsargname
origin
original
originally
origink
origins
origyear
oriya
orl
oro
oromo
orphan
orphans
orthographic
orthography
orto
oryx
os
osaka
osd
osti
ota
other
otherprojects
others
otherwise
otomi
ottoman
ou
ought
ounce
our
ourebi
ourebia
out
outcome
outdated
outer
outinfo
output
outputs
outside
outstring
outtype
outvalue
over
overall
overflow
overlap
overlay
overridden
override
overrides
overriding
overruled
overview
overwrite
owl
own
oxford
oy
oz
p
pa
pacific
pad
padding
padlock
pag
page
pagename
pageobject
pagepointer
pageprops
pages
pagetitle
pagetitletext
pagetype
pagetypes
pahari
pahawh
pair
pairs
pakistan
pal
palace
palacio
palatal
palestine
pam
pan
pano
panorama
panther
panthera
pap
paper
paperback
papers
papilio
papua
par
para
paraguay
param
parameter
parameterdata
parameterfuncs
parameterlength
parametername
parameters
paramkey
paramkeyformat
paramorder
params
paramsaliasesp
paramvalueformat
pardalis
parens
parent
parentargs
parentclaim
parententityids
parentfirst
parentheses
parenthetical
parentid
parentnode
parentonly
parentoptions
parentsnak
parentsnaks
parg
pargs
pariatur
paris
park
parliament
parliamentary
parm
parms
parmsi
parque
parse
parsed
parseddate
parsedec
parsedformat
parsedtime
parsedvalue
parseformat
parseinput
parseiso
parseparam
parser
parserfunctions
parses
parsetimefromsnak
part
partial
partialclosureheading
participants
participate
participated
participating
participation
particular
particularly
parties
partners
partnerships
parts
party
pashai
pashayi
pashto
pass
passed
passes
passing
past
paste
pat
patent
path
pathoschild
patron
patrono
pattern
patterni
patterns
patternspattern
paul
paulo
pay
pc
pcall
pcd
pct
pd
pdc
pdf
pdt
pe
peace
peerage
peerages
peers
peeters
pen
pencil
pending
penguin
peninsula
pennsylvania
people
peoples
pepper
per
percent
percentage
perepis
perform
performance
performed
perhaps
period
periodical
periods
permanent
permanently
permit
permitted
persia
persian
person
personal
personname
persons
perspective
perspectives
peru
peso
pestis
peter
petersburg
pf
pfarrkirche
pfl
pframe
pg
pgs
ph
phaa
phab
phabricator
pharaohs
phase
philadelphia
philip
philippines
philosophy
phoneme
phonemes
phonemic
phonetic
phonetics
phonology
photo
photos
php
phrase
phu
physical
pi
pic
picture
pictures
pid
pidgin
pieces
pierre
pig
pih
pilot
pint
pintscher
pinyin
pipe
piped
pipes
pixels
pj
pk
pl
place
placed
placedatanumrecord
placeholder
placeid
placement
placename
places
placing
plague
plain
plaindata
plainlinks
plainlist
plains
plan
plane
planned
planning
plant
plantilla
plate
platform
plato
play
player
playing
plays
please
pleased
plosive
plotarea
plotdata
plural
plus
pm
pmc
pmid
pms
pn
pnb
png
pnt
pnz
po
poem
poems
poet
poetry
pog
point
pointer
pointers
points
pol
poland
polar
policy
polish
political
politics
poly
polynesian
pomo
pop
popoloca
popoluca
popplace
popular
populatedatafromclaims
populates
populatesourcedataimpl
population
por
port
portal
portalbox
portals
portion
portrait
portraits
portugal
portuguese
pos
position
positional
positions
positionskarte
positive
possible
possibleage
possibledatestring
possibly
post
postal
postcondition
posted
posteriori
postfix
posting
postscript
potential
pound
pounds
pov
pow
power
pp
ppp
pr
pra
practice
practices
prague
prange
pre
prec
preceded
precedence
preceding
precipitation
precision
precondition
predecessor
predefined
predefinic
predloga
predloz
prefer
preferable
preferably
preference
preferences
preferids
preferred
prefix
prefixed
prefixedtext
prefixes
prefixtable
prefsection
pregnancy
preload
prepare
prepared
preprint
preprocess
preprocessargs
preprocesssinglearg
presence
present
presentation
presented
preserve
preserved
preset
president
press
pressure
presume
presumptive
pretender
pretenders
pretitle
preunit
prev
prevalenceclaim
prevalencevalue
prevendyear
prevent
prevents
preview
previewing
previews
previewwarning
previous
previously
prevlabel
prevp
pri
primarily
primary
prime
prince
princeton
print
printtitle
prior
priorities
priority
privacy
private
prizes
pro
probably
problem
problems
proceedings
process
processed
processes
processing
processitem
processportalargs
processtext
produce
produced
produces
producing
product
production
professional
profile
program
programming
proident
project
projects
prominent
pron
pronunciation
proof
prop
proper
properly
properties
property
propertyclaims
propertyentity
propertyid
propertyids
propertyparams
propertyselector
propertyvalue
propertyvalueandquals
proposal
proposals
proposed
props
prose
protect
protected
protection
protectionblurb
protectioncategories
protectiondate
protectionlevel
protectionlevels
protectionlog
protectionobj
proto
protocol
protolanguage
prototype
provenc
provide
provided
provides
providing
province
provinces
prr
ps
pseudo
psi
psk
pst
psychology
pt
ptr
pub
pubentity
public
publication
publicationdate
publications
publish
published
publisher
publishers
publishing
puebla
puerto
pulmonic
puma
pump
punan
punctuation
punjabi
purge
purif
purple
purpose
purposes
pushpin
put
puts
putting
puzzle
pval
pwo
px
pxxx
py
pyu
pywikibot
pywikipedia
pywikipediabot
q
qid
qlist
qnumber
qom
qq
qt
qtr
qu
qual
qualid
qualifier
qualifierentityid
qualifierid
qualifierpropertyid
qualifiers
qualifierscount
qualifiersqualifiername
quality
quals
quantity
quart
quarter
que
quechua
queen
query
question
questions
qui
quichua
quick
quickly
quis
quite
quito
quotation
quote
quoted
quotes
qv
qval
qxxx
qya
r
ra
racing
rad
radio
radius
rai
rail
railway
rain
ralfr
ramesses
ran
random
rang
rangcolors
range
ranges
rangs
rank
rankbyindex
rankbysite
ranking
rankpos
ranks
raphicerus
rar
rare
rate
rather
ratio
rationale
raw
rawget
rawset
rawvalue
rb
rct
rcts
rd
re
reach
read
readability
reader
readers
reading
readonly
reads
ready
real
really
reason
reasons
receive
received
recent
recently
recognised
recognition
recognize
recognized
recommend
recommended
reconstructed
record
records
rect
rectangle
red
redcatlink
redefinition
redirect
redirected
redirects
redlink
redlinks
reduce
reduced
redundant
ref
refbegin
refer
reference
references
referenceurl
referencing
referred
refhash
reflist
reform
reformat
reformatted
reformatting
refparts
refs
reg
regard
regarding
regardless
regards
regencies
regent
regents
regex
region
regional
regionpage
regions
regiony
register
registered
registration
regnal
regular
reich
reign
rejang
related
relations
relationship
relative
relatively
release
released
relevant
reliable
reliably
relief
religion
religions
religious
rem
remain
remainder
remaining
remains
remember
removal
remove
removeblanks
removed
removes
removing
render
renderaboverow
renderbelowrow
rendercategories
renderdocumentationcategory
rendered
renderer
rendering
renderline
rendernavbar
rendernum
renderpercombatant
renderresult
renderrows
renders
rendersnak
rendertitle
rendertrackingcategories
rendervalue
renumber
rep
repeat
repeated
repetitions
repl
replace
replaced
replacedecimalmark
replacement
replacements
replaces
replacetext
replacing
reply
report
reported
reports
reprehenderit
represent
representation
representations
representative
representatives
represented
representing
represents
reprint
republic
republican
reqranks
request
requested
requests
requesttype
require
required
requiremagicword
requirements
requires
requiring
rer
res
research
reserved
reset
resian
resolution
resource
resourceid
resources
respective
respectively
responsible
rest
restrictions
result
resultclaims
resultheight
resulting
resultlist
resultmode
resultproperty
resultresultproperty
results
resultwidth
resultwikitext
ret
retain
retains
retrieved
retroflex
return
returnasdata
returned
returning
returns
returnval
retval
reuse
rev
reverse
reversed
reverseorder
review
reviewed
reviews
revised
revision
revisionslider
revival
revived
revolution
revolutionary
rez
rfc
rft
rgb
rhodes
rhs
ri
ria
riang
rib
ric
rica
rich
richard
rico
rid
right
rightarrow
righthidelink
rights
rio
risk
river
riyadh
rk
rkc
rm
rmy
rn
rname
rnb
rnd
rnste
ro
roa
road
roads
robert
rock
rod
roger
role
roles
rolling
rom
roma
romaji
roman
romance
romani
romania
romanian
romanization
romansh
rome
ronald
room
root
ros
rose
rosstat
round
rounded
rounding
roundto
routledge
row
rowargs
rowcellstyle
rowclass
rowend
rowheader
rowid
rowindex
rowlett
rownum
rownums
rows
rowstyle
royal
rozaj
rp
rr
rref
rs
rsl
rt
rterbuch
rtext
rtl
ru
rue
rufus
rugby
rule
ruler
rulerend
rulerlink
rulers
rulerstart
rules
ruling
rumani
run
running
runs
rup
rural
rus
russia
russian
rustaveli
rut
ruwiki
rvalue
rw
rwanda
rya
s
sa
sablon
safe
safely
safety
saffron
sah
sahidic
said
saint
sak
salish
salman
salt
salvador
sam
sama
samba
same
sami
samo
sampa
sample
san
sandbox
sandboxtitle
sans
sanskrit
santa
santiago
sao
sar
sara
sarah
sardinian
sasanian
sassanid
sat
satellite
satellites
saturn
saudi
save
saved
saving
savings
saw
saxon
say
sayisi
says
sbargs
sbn
sbornik
sbs
sc
scale
scaled
scalemajor
scalewidth
scaling
scan
scat
schafer
schaff
schedule
scheme
schemes
schloss
scholar
scholarly
scholars
scholarship
scholarships
school
schools
schro
schubert
science
sciences
scientific
scientists
scn
sco
scope
scotland
scots
scott
scottish
scream
screen
screenshot
scribunto
script
scripts
scwt
sd
se
sea
seal
search
searchbuttonlabel
searches
season
seasons
seat
seats
sebastian
sec
second
secondary
seconds
secret
secretary
sect
section
sectioncontent
sectionheading
sectionheadinglink
sectionnotexistmessage
sections
security
sed
see
seek
seeking
seen
seg
segment
select
selectclaims
selected
selecting
selection
selector
selectors
self
selfref
semi
semicolon
semitic
sen
senior
senoufo
sent
sentence
sep
separate
separated
separately
separator
separators
sepc
seps
september
sequence
sequences
sequential
serbia
serbian
serial
series
seriesidx
serif
serval
serve
served
server
service
services
servicesindex
serving
session
set
setlink
setmetatable
setoffset
setranks
sets
setting
settings
settlement
setton
setup
setwidth
setyear
setyearrange
sev
seven
seventh
several
sfn
sfnref
sg
sgrabarczuk
sh
sha
shackle
shadow
shaftesbury
shah
shakespeare
shall
share
shared
shaw
she
sheet
sheets
shi
shield
shift
ship
shl
shn
sho
shopping
short
shortcut
shorter
shorthand
shortname
shortnamelist
shortnames
should
shouldn
show
showcode
showerrors
showheader
showid
showing
shown
shows
showtemplate
shp
shr
si
sibilant
siconversion
side
sidebar
sides
sie
sierra
sig
sigfig
sighnaghi
sign
signal
signature
signed
significand
significant
significantly
signify
signs
signup
signups
sil
silent
silesian
silver
similar
similarly
simple
simpler
simplicity
simplified
simplify
simply
sin
sinai
since
sindhi
sing
singapore
single
singular
sinhala
sint
siprefixes
sir
sister
sit
site
sitelink
sitelinks
sites
sits
situation
situations
six
sixth
size
sizes
sizing
sjabloon
sjn
sk
skabelon
skew
skin
skins
skip
skippropertyids
skr
sky
skyline
sl
slash
slashes
slavic
slavonic
slice
slightly
slot
slovenia
slower
sm
small
smaller
smartphone
smg
smith
smo
smth
sn
snak
snaks
snaksaliasesp
snaktype
snakvalue
snapdate
snið
snow
so
social
society
sock
socks
software
solar
solid
solo
solomon
solution
some
somehow
someone
something
sometimes
somevalue
somewhere
son
song
sonnets
sons
soon
sorbian
sorry
sort
sortable
sorted
sorting
sortkey
sortspan
sossusvlei
sotho
sou
soul
sound
sounds
source
sourced
sourceentity
sourceid
sources
south
southeast
southeastern
southern
southwest
southwestern
sovereignty
soviet
sp
space
spaced
spaces
spacing
spain
span
spanish
spans
spb
speak
speaker
speakers
speaking
spec
special
specialised
specially
species
specific
specifically
specified
specifies
specify
specifying
speech
speed
speedy
spell
spelled
spelling
spencer
spin
spit
splat
split
spliti
spoken
sports
spp
spring
springer
spurious
spx
sq
sqbr
sqft
sqin
sqkm
sqmi
sqry
squad
square
squared
sr
src
sri
srn
ss
ssp
ssr
ssrn
ssss
sst
st
sta
stack
staff
stage
stained
stampa
stanbul
stand
standalone
standard
standardheading
standardization
standardized
standards
standardsectionheading
stanford
star
stars
start
started
starting
starts
starttime
starttimey
startyear
stat
state
stated
statedas
statedin
statement
statements
states
statesparam
statesparameters
static
station
stations
statistic
statistical
statisticheskih
statistics
statoids
stats
statue
status
stay
std
steady
steam
stenography
step
stephen
steven
stevenson
steward
stewards
stewart
stf
stift
still
stockholm
stone
stop
stopped
stops
store
stored
stores
stories
story
stq
str
stradivarius
strange
strategic
strategy
straße
strcolspan
street
strength
strformat
strictly
strin
string
strings
strip
striped
striping
stripmarker
stripmarkers
stripped
strippedtemplate
striptonil
strodt
strong
strongly
strout
structure
strvalue
sts
stt
stuart
stub
studies
study
stuff
style
styles
stylesheet
styling
su
sub
subanen
subbox
subboxes
subcategory
subcellsk
subdiv
subdivision
subdivisions
subdivs
subgroup
subgroups
subheader
subheaderargs
subheaderclass
subheaderrowclass
subheaderstyle
subinfo
subject
subjectlink
subjectns
subjects
subjectspace
submission
submit
subpage
subpages
subpagetext
subrule
subs
subscribe
subscription
subsequent
subset
subsidiary
subst
substitute
substituted
substituteparameters
substitution
substring
subtables
subtag
subtags
subtitle
subtype
subunit
subway
success
successful
succession
successions
successive
successor
successors
succinctly
such
sudan
suffice
suffix
suffixes
suggest
suggested
suggestion
suggestions
suicide
suitable
suku
sul
sum
sumerian
summarizes
summary
summer
sun
sunset
sunshine
sunt
sup
superscript
supl
supplementary
supplied
support
supported
supporting
supports
supposed
suppress
suppressed
sur
sure
surname
surrounding
survey
susan
suspended
sutherland
suzanne
sv
sval
sve
svedeniy
svg
svn
sw
swadesh
swahili
swap
swedish
swiss
switch
switcher
switching
switzerland
syllable
syllables
sym
symbol
symbols
synagogue
synonym
synonyms
syntax
syria
syriac
sysop
system
systemmessages
systems
szablon
szl
t
ta
tab
tabari
table
tableargs
tablecode
tablei
tableinvocation
tablelength
tableroot
tablerows
tables
tabletools
tablevalue
tabs
tabula
tag
tagbanwa
tagline
tagname
tags
tai
tail
tailed
taiwan
take
taken
takes
taking
tales
talk
talkpage
talkpagemode
talkpagetitle
talktitle
tally
tam
tamang
tamazight
tamil
tanzania
tap
tara
tarahumara
tarask
target
targs
task
taskforce
tasks
tat
tatar
taurinus
taxon
taxonomy
tay
taylor
tbilisi
tbl
tcoins
tcon
tct
tcy
td
tdv
te
team
teams
tech
technical
technically
technology
tehran
teke
tel
telavi
telecommunications
television
tell
tem
temp
temperature
temperatures
templat
template
templatecallcode
templatecategory
templatedata
templateeditor
templateerrorcategory
templateformat
templatename
templateoptions
templatepar
templates
templatestemplate
templatestyles
templatetitle
temple
tempor
temporarily
temporary
temprow
tempstring
ten
tend
tennis
tens
term
terminal
terminate
terminated
terminological
terms
territories
territory
test
testament
testcase
testcaseobj
testcases
testcaseslink
testcasestitle
tested
testfunc
testing
tests
tet
tex
texas
text
textcell
textoptions
textpart
texts
textstyle
tey
tf
tfp
tfrac
tg
th
tha
thai
thailand
than
thank
thanks
tharu
that
the
theatre
their
them
theme
themselves
then
theory
there
therefore
therm
thermal
thermochemical
these
thesis
they
thing
things
think
third
this
thisera
thisvalue
thm
thomas
those
though
thought
thoughts
thousand
thousands
thread
three
throne
through
throughout
throwerror
thu
thumb
thumbnail
thumbnails
thumbtime
thursday
thus
ti
tibetan
tidyval
tie
tied
tilde
till
tim
time
timeaxis
timedec
timeless
timeline
times
timestamp
timezone
timothy
tin
tip
title
titlebar
titlecell
titleclass
titlecolspan
titled
titledelimeterposition
titleformats
titlegroup
titlegroupstyle
titleobj
titlepart
titleparts
titlerow
titles
titlestyle
titular
tiwa
tj
tk
tkm
tkr
tl
tlapanec
tld
tlh
tlinks
tls
tlv
tmbox
tmcid
tmon
tmp
tmplt
tn
tname
tnt
to
tobago
toc
tocright
today
todo
together
toggle
togo
tokenized
tokenizename
toku
tokyo
tolkien
tolstoy
tom
ton
tonga
tonne
tonumber
too
took
tool
toolbar
tools
tooltip
top
topic
topics
topological
topology
toronto
torque
tostring
tostringsnak
totable
total
totextwithtip
totonac
tourist
towards
tower
towers
town
tp
tpi
tr
trace
track
tracked
tracking
trackingcat
trackingcategories
tracks
trade
trademark
traditionally
traffic
tragelaphus
trailing
train
trains
trans
transchapter
transcluded
transcluding
transclusion
transcript
transcription
transcriptions
transform
transition
transl
translate
translated
translateparameters
translates
translatewiki
translathon
translating
translation
translations
translator
translators
translit
transliteration
transparent
transport
transwiki
travel
tre
treat
treated
tree
trees
triage
trick
tries
trigger
triggered
trill
trillion
trim
trimarg
trimmed
trimming
trims
trimstr
trinidad
true
trust
trustees
try
trying
ts
tscript
tstart
tstyles
tt
tte
tter
ttingen
ttl
tu
tuesday
tul
tum
tunebo
tur
turkey
turkic
turkish
turkmenistan
turn
turned
turns
tuv
tv
tval
tve
tw
twelve
twentieth
twenty
twi
twice
twitter
twl
two
txantiloi
txt
txtdatein
txtlang
ty
tyldesley
type
typed
typefilter
types
typical
typically
typing
typography
tyu
tyv
tʃ
u
ua
uabbr
ublist
ucfirst
ucoc
udate
udi
udm
ug
uganda
ui
uk
ukraine
ukrainian
ul
ullamco
uls
ultimate
ulx
uly
uma
umm
un
una
unbulleted
uncategorized
uncollapsed
und
undate
undefined
under
underscore
underscores
underside
understand
understanding
understood
unesco
unexpected
unfortunately
unicode
unidos
unified
union
uniq
unique
unit
unitcode
united
unitentity
unitonly
units
universal
university
unix
unknlast
unknown
unless
unlike
unmodified
unnamed
unnecessary
unneeded
unordered
unpack
unprotected
unrecognized
unregistered
unrounded
unset
unsorted
unstrip
unstripnowiki
unsupported
until
unusual
unwieldy
up
upcoming
update
updated
updates
upload
uploads
upon
upper
upperbound
uppercase
uppermost
upright
ur
ura
uranus
urban
urdu
uri
uricomponents
url
urlhead
urls
ursus
uru
us
usa
usability
usage
usbu
usdrygal
use
usecollapsibletextfields
used
useful
usename
user
userbox
users
uses
usesymbol
usgal
using
usoz
ussr
ustring
usual
usually
ut
utable
utc
utcin
utf
utilities
utility
utils
utype
uvular
uz
uzbek
v
va
vac
vacancies
vacancy
vacant
val
valid
validate
validation
validity
valinfo
valley
vals
valsv
value
valuefunc
valuepref
values
valuesarray
valuesi
van
vanc
vancouver
vandalism
vanuatu
var
variable
variables
variant
variants
variations
variety
various
varname
vatican
vauthors
vc
vcard
vcite
ve
vec
vector
veditors
veidne
velar
velit
venezuela
veniam
venus
vep
verlag
versa
verse
verses
version
versions
vertical
very
vgg
vi
via
viaf
vibrio
vice
victor
victoria
victory
video
vie
viet
vietnam
view
viewed
viewer
views
vii
viii
village
villages
villingerød
vincent
virgin
virginia
viscount
visible
visit
vista
visual
visualeditor
visually
vk
vla
vladimir
vlg
vls
vmin
vname
vnames
vo
voice
voiced
voiceless
vol
volapu
vols
volume
volumes
volunteer
volunteers
voluptate
von
vor
vorlage
voronov
vot
vote
votes
voting
vowel
vowels
voy
vparam
vpn
vro
vs
vstr
vt
vtype
vvancite
vvcite
w
wa
wait
wales
wall
wallace
walter
want
wanted
wantmixture
wantname
wantrow
wants
wantsingleline
war
warn
warning
warnings
warriors
wars
was
washington
wasn
wat
watch
watchlist
watchlists
water
watt
wau
way
wayback
ways
wbr
wbstatus
wcm
wd
wds
we
weather
web
webarchive
webb
webcite
webkit
website
wednesday
week
weekly
weeks
weight
welcome
well
welsh
went
were
west
western
wet
what
whatamidoing
whatever
when
where
whereas
wherever
whether
which
while
white
whitelist
whitelisting
whitespace
who
whole
wholestr
whose
why
wi
wide
widely
wider
width
widths
wiedii
wien
wiesbaden
wik
wiki
wikibase
wikibooks
wikicite
wikicode
wikidata
wikidataib
wikidataids
wikidataselectors
wikidatavaluetoarray
wikiedu
wikigap
wikilink
wikilinked
wikilinks
wikimania
wikimedia
wikimedians
wikinews
wikipedia
wikipedians
wikipedias
wikiproject
wikiquote
wikis
wikisource
wikispecies
wikitable
wikitech
wikitext
wikivalue
wikiversity
wikivoyage
wikt
wiktionary
wiley
wilhelm
will
william
wilmington
wilson
win
winchester
window
windsor
wing
winner
winners
winston
winter
wir
wish
wishes
wishlist
with
within
without
wl
wm
wmde
wmf
wo
wolf
wolfgang
wom
woman
women
won
word
words
work
workaround
worked
workflow
working
works
world
worldcat
worldcatid
would
wounded
wp
wpbannermeta
wps
wrap
wrapinurl
wrapped
wrapper
wrapperconfig
wrappers
wrapping
wraps
write
writer
writers
writing
written
wroclaw
wrong
ws
wuu
wweb
www
wy
x
xal
xg
xh
xi
xii
xiii
xiv
xix
xlate
xlo
xls
xmf
xml
xn
xpx
xth
xv
xvi
xvii
xviii
xx
xxi
xxviii
xxx
xxxxors
y
ya
yaka
yale
yan
yar
yard
yau
yazd
yd
year
yearbc
yearmark
years
yellow
yersinia
yes
yesno
yet
yfactor
yi
yields
yj
ym
ymd
yo
yom
york
you
young
your
youtube
yr
yrk
yround
yucatec
yue
yupik
yy
yyy
yyyy
z
za
zab
zam
zambia
zapotec
zbl
zea
zealand
zeit
zero
zeros
zh
zhuang
zimbabwe
zip
zj
zo
zone
zones
zoo
zoom
zoque
zu
zum
zur
{
|
}
~

¡
¢
£
¦
§
©
«
­
®
°
±
²
³
´
µ
¶
·
¹
»
½
×
æ
ð
ø
ħ
ı
ł
ŋ
œ
ƛ
ƣ
ƨ
ƶ
ǀ
ǁ
ǂ
ǃ
ǝ
ȴ
ȵ
ɏ
ɐ
ɑ
ɒ
ɓ
ɔ
ɕ
ɗ
ɘ
ə
ɚ
ɛ
ɛə
ɜ
ɝ
ɞ
ɟ
ɠ
ɡ
ɢ
ɣ
ɤ
ɥ
ɨ
ɪ
ɪə
ɫ
ɬ
ɭ
ɮ
ɯ
ɰ
ɱ
ɲ
ɳ
ɴ
ɵ
ɶ
ɸ
ɹ
ɻ
ɽ
ɾ
ʀ
ʁ
ʂ
ʃ
ʄ
ʈ
ʉ
ʊ
ʊə
ʋ
ʌ
ʍ
ʎ
ʏ
ʑ
ʒ
ʔ
ʕ
ʘ
ʙ
ʛ
ʝ
ʟ
ʡ
ʢ
ʤ
ʧ
ʰ
ʲ
ʷ
ʻ
ʼ
ʾ
ʿ
ˀ
ˁ
ˈ
ˌ
ː
ːʼ
˔
˕
˖
˗
˛
ˠ
ˤ
̀
́
̂
̃
̄
̆
̇
̈
̉
̊
̋
̌
̍
̏
̑
̓
̔
̛
̜
̝
̞
̟
̠
̣
̤
̥
̦
̧
̨
̩
̪
̫
̬
̰
̱
̲
̴
̹
̺
̻
̼
̽
͂
͆
͇
͍
͞
͡
α
β
γ
δ
ε
ελληνικου
θ
θνους
ι
ιστορι
κ
μ
του
φ
χ
ω
ϲ
а
аб
абабково
абадзехская
абадзехское
абадияб
абаза
абазда
абазде
абазин
абазинал
абазул
абакумово
абалаково
абанскии
абараб
абас
абатурово
абашево
аббакумово
абджадия
абдрахманово
абдул
абдулат
абдуллино
абдурах
абзелиловскии
аби
абиб
абиг
абиги
абидосалъул
абизе
абилеб
абилев
абилел
абиял
аблатив
аблаут
абрамково
абрамовка
абрамово
абрамовскии
абрамовское
абрамцево
абросимово
абросово
абруптив
абруптивияб
абсолютияб
абсолютиял
абстрактивиял
абу
абубакар
абубакарил
абуге
абула
абулаан
абулаго
абулеб
абулев
абулел
абулмуслим
абумуслим
абун
абуна
абунги
абуни
абураб
абурабила
абурав
абураи
абурал
абуубаи
абухъе
абухъего
абхаз
абхазал
абхазия
ав
ава
авадан
авал
авалал
авалалда
авалалъул
авангард
авар
авараг
аварагас
аварагасда
аварагасде
аварагасул
аварагасулги
аварагзабазул
аварагзаби
авараз
аваразги
аваразул
аваразулги
аварал
аваргіорул
аваргӏоралъул
аварии
аваристан
аваристаналда
аваристаналъул
авария
авариялда
авариялъул
аварскии
аварского
аварскои
аварском
аварцев
авах
август
августа
августалда
августалъ
авдеевка
авдеево
авдотьино
аверино
аверкиевская
аверьяновка
авиа
авиакомпания
авиакомпанияби
авиакомпаниялъ
авиакомпаниялъул
авиаконструктор
авиалаи
авиациялъул
авлахъ
авлахъалда
австер
австралия
австрии
австрия
австриягин
австриялъул
автомат
автоматически
автомобилияб
автономияб
автономиял
автономная
автономныи
автор
автора
авторас
авторасул
авторлъун
авторов
авторские
авторских
аг
ага
агараб
агарал
агарково
агарлъи
агафоново
агачаул
агвали
агеевка
агеево
агенс
агенсалъул
аги
агинскии
аглоби
аго
агроном
агульскии
агульско
агъа
агъвали
агъу
агъул
агъулал
агьлулъи
агьлулъиялъул
ад
ада
адаб
адабияб
адабиял
адабият
адабияталда
адабияталъе
адабияталъул
адабияталъулаб
адав
адал
адам
адамаз
адамазда
адамазе
адамазул
адамал
адамасул
адамии
адамовка
адамово
адамовскии
адан
адана
аданак
адатияб
адатиял
аде
адег
адеги
адехун
аджидада
аджимажагатюрт
адиг
адигъ
адигъистан
адиль
адин
адис
административияб
административиябгин
административиябгун
административиял
административно
административныи
административных
администратор
администратора
администраторал
администраторасул
администраторов
администратором
администраторы
администрации
администрация
администрациялъ
администрациялъул
адольф
адрес
адреса
адресов
адресу
адур
адыгеи
адыгея
ае
ажаибаб
ажам
ажи
ажил
ажимурад
ажица
ажияв
ажияс
ажиясул
аз
аза
азадоглы
азар
азарбижан
азарбижанал
азарбижаналда
азарбижаналъул
азарго
азаровка
азарово
азарсон
азарсоналъул
азархана
азбар
азд
азда
аздаги
аздагьо
азде
азе
азеи
азербаи
азиз
азим
азимутальная
азия
азиялда
азиялдаги
азиялде
азиялъул
азовскии
азовское
азрго
азул
аи
ак
академии
академик
академическии
академиялъул
акаи
акатово
акатьево
акбар
акбулатюрт
аким
акимовка
акишево
акка
акнада
аксаи
аксаково
аксе
аксениха
аксеново
аксентьево
аксиньино
акт
актаи
актал
акте
актив
активияб
активного
активности
активные
актриса
актюбинскии
акулово
акуловская
акутагава
акушинскии
акъ
акъаб
акъалъулъ
акъго
акъикъат
акъикъаталда
акълу
акъсса
ал
ала
алаб
аладаш
аладьино
алазан
алазаналъул
алазул
алаи
алак
алал
алалда
алалъ
аламалъул
алан
алана
алания
алануб
аларскии
алат
алатазул
алатал
албан
албания
албаниялъул
алвеоларияб
алг
алга
алги
алгоритм
алда
алданскии
алдаса
алде
але
алеево
алеи
алекино
александр
александра
александрии
александрия
александро
александров
александрова
александровка
александрово
александровская
александровскии
александровское
алексеев
алексеевка
алексеево
алексеевская
алексеевскии
алексеевское
алексеи
алексино
алехино
алешково
алешня
алжан
алжаналъул
али
алиб
алиги
алиго
алида
алиде
алиев
ализе
аликберов
алил
алим
алимзабазда
алимзабазул
алимзаби
алимчи
алимчияс
алимчиясул
алип
алипал
алипалда
алипба
алипбаязда
алипбаял
алипбаялда
алипбаялъул
алисово
алиф
алифба
алих
алиханов
алк
алла
аллагь
аллагьас
аллагьасда
аллагьасдаса
аллагьасде
аллагьасе
аллагьасул
аллагьу
аллатив
алмак
алмало
алман
алмания
алманиялъул
алт
алтаи
алтухово
алун
алфавит
алфавиталда
алфавиталъул
алфе
алферьево
алх
алъ
алъе
алъи
алъиялъул
алъул
алъун
аль
альберт
альвеолярияб
альпазул
альт
альтернатива
альтернативная
альтернативнои
альтернативные
альшеевскии
аляскаялда
аляскаялъул
ам
амад
амадил
амадица
амадов
амадх
амал
амалросу
аман
амг
амгинскии
аменхіотеп
америка
америкалъул
американ
американав
американазул
американияв
американияи
американскии
америкаялда
америкаялъул
аметеркмахи
амза
амзат
амзатица
амизе
амин
аминат
амир
амирасул
амирх
амит
амма
аммаб
аммад
аммадг
аммадил
аммал
амрабазул
амру
амруялдалъун
амстердам
амун
амуна
амур
амурская
амухъ
ан
ана
анаб
анав
аналда
аналде
анализ
анализу
аналитикияб
аналитикиял
аналогал
ананьино
анапилросу
анасеб
анаткасы
анатолии
анатомия
анатомиялъул
анбия
анвар
англ
англии
англия
англиялъул
ангъидаса
андал
анди
андии
андорра
андреапольскии
андреевич
андреевка
андреево
андреевская
андреевскии
андреевское
андреи
андроново
андуник
андых
ани
аниб
аниги
анила
анин
анисимово
анияб
анк
анкара
анкараялда
анклав
анклавлъун
анкь
анкьабилеб
анкьалъ
анкьго
анкьида
анкьил
анлъабилеб
анлъго
анлъун
анлӏго
анна
анненка
анненское
аннино
аннинскии
анновка
аннотации
анри
антарктида
антарктиды
антилопа
антипино
антон
антоновка
антоново
антроповскии
антропология
анц
анциферово
анцухъ
анціабилеб
анціго
анціила
анцісон
анцісоналъул
анцӏ
анцӏго
анцӏила
анч
анчих
ап
апанди
апандил
апачеязул
апачеял
апостол
аппроксимант
апрел
апрелалда
апрелалъ
апрель
апреля
април
априлалда
апухтино
ар
ара
араб
арабазул
арабия
арабиялъул
араблинское
арабские
арав
аравии
аравия
арагва
арада
арадирих
аразул
араи
араки
аракул
аракъи
арал
аралги
аралда
аралдаса
аралъул
арамеи
арамияб
аран
арац
арбузово
аргвани
аргентина
арги
аргумент
аргументов
аргументы
аргъвани
арда
ардабил
ардатовскии
арефино
ари
арикъаталъул
аристово
аристотелица
ариф
арк
аркас
аркьел
армении
армения
армии
армия
армиялда
армиялде
армиялъул
армстронг
армян
арп
арпал
арсеньевскии
арте
артикуляция
артикуляциялъул
артист
артистка
артур
арул
арулаз
арулазда
арулазул
арулал
арун
арухъ
архангелск
архангельская
архангельскии
архангельское
археология
археологияб
археологиял
археологиялъул
архив
архивныи
архиповка
архитектор
архитектура
архитектураялъул
архитектуриял
арцул
арчи
арчо
аршан
арылах
ас
аса
асад
асан
асанил
асар
асаразда
асаразул
асарал
асаралги
асаралда
асаралъул
асарлъун
асасазда
асил
асилалда
асир
асияб
аск
аскар
аскараз
аскаразул
аскарал
аскаралда
аскаралъ
аскаралъул
аскарги
аскаргун
аскоб
аскіоб
аскіор
аскӏоб
аскӏов
аскӏове
аскӏор
асланихъе
асланица
аслияб
аслиял
аслу
аслулъун
аслуял
аслуялда
аслуялдаса
аслуялде
аслуялъул
аслуялъулъ
асрабазда
асраби
асру
асруялда
асруялъул
ассаб
ассимиляция
ассоколаи
ассоциация
асср
ассралъул
аст
астан
астана
астафьево
астрахан
астраханская
астроном
астрономия
астрономиял
асх
ат
атабаскал
атаев
атал
атала
аталазул
аталда
аталде
аталъ
аталъул
атамановка
ататюрк
атги
атеизм
атеназдаса
атланаул
атлантикияб
атом
атомияб
атта
атяшевскии
аті
аудио
аул
аургазинскии
афанасово
афанасьевка
афанасьево
афанасьевскии
афанасьевское
афанди
афгъанистан
афгъанистаналда
афгъанистаналъул
афипсипское
афонино
африка
африкаялда
африкаялъул
аффриката
аффрикатал
аффрикаталъул
ах
ахал
ахалсихъ
ахаманишазул
ахар
ахвахскии
ахенатен
ахенатенил
ахир
ахираб
ахирал
ахиралда
ахиралдаса
ахиралде
ахират
ахираталда
ахирги
ахирисеб
ахирисев
ахирисел
ахирияб
ахкент
ахматово
ахтиб
ахтынскии
ахтыпаринского
ахульго
аххаде
ахьазул
ахьал
ахьаллъи
ахьалчаг
ахьалчи
ахівал
ахімад
ахімос
ахімосил
ахімосица
ахіулгохі
ахӏана
ахӏвал
ахӏи
ахӏмад
ахӏмадил
ахӏмадкъади
ахӏмаднаби
ахӏмаднабица
ахӏун
аца
ацш
ацшялъул
ач
ачи
ачхъала
ачіана
аш
ашага
ашали
ашильта
ашшур
аэродром
аэропорт
аэропортал
аэропорталда
аэропорталдаса
аэропорталъул
аэропортлъун
аюб
аязда
аял
аялда
аялде
аялизимахи
аян
аят
б
ба
баб
баба
бабаево
бабаевскии
бабаюрт
бабаюрталдасан
бабаюртовскии
бабенки
бабино
бабихьула
бабынино
бабынинскии
бавтугаи
бавыкино
баг
баге
багъа
багъари
багъариялъул
багьа
багьадур
багіараб
багіарараб
багӏараб
багӏарал
багӏархъала
бадруялъул
бажарулеб
база
базар
базаралъул
базе
баи
бак
бакалинскии
баккана
баккараб
бакки
баккун
бакр
бактериял
баку
бакшеево
бакъ
бакъалда
бакъалъул
бакъбаккуда
бакъбаккудаса
бакъбаккудасан
бакъбаккудехун
бакъбаккул
бакъваи
бакъвараб
бакъдал
бакъдасеб
бакълъул
бакълъухъ
бакът
бакътіерхьуда
бакътіерхьудаса
бакътіерхьудасан
бакътіерхьудехун
бакътіерхьул
бакътӏерхьуда
бакътӏерхьудаса
бакътӏерхьудехун
бакътӏерхьул
бакътӏерхьун
бакъул
бакь
бакьаи
бакьулъ
бакьулӏ
бакі
бакіазда
бакіазул
бакіал
бакіалда
бакіалде
бакіалъул
бакіалъулаб
бакікарта
бакӏ
бакӏазда
бакӏазул
бакӏал
бакӏалда
бакӏалде
бакӏалъул
бакӏалъулаб
бакӏалъулал
бакӏарула
бакӏарун
бакӏги
бакӏкарта
бакӏлъун
бал
бала
балагь
балагьал
балагьараб
балагье
балагьи
балагьизе
балагьун
балал
балалъ
балалъул
баларо
балахьуни
балеб
балел
балка
балкарал
балкария
балкъар
балл
балтии
балучал
балучистан
балъал
балъго
балъгояб
балъгоял
балъхъадерил
бамматюрт
бан
бана
банаи
бандар
бани
банк
банка
банкалъул
баннернои
бану
бар
бараб
барав
баракат
барал
барановка
бараново
барановская
барселона
барское
барсуки
барти
баршамаи
барятино
барятинскии
бас
баси
басиязул
басиял
баск
басма
басмаханаялда
басмаялда
басмаялде
басово
басрияб
басриял
бассеи
бат
батаб
батал
батана
батани
батаниги
батараб
баташюрт
бати
батизе
батила
батич
батлух
батула
батуларо
батулеб
батуми
батумиялъул
батун
батіа
батіаго
батіалъи
батіи
батіияб
батіиял
батӏа
батӏаго
батӏалъи
батӏалъиги
батӏи
батӏияб
батӏиял
бах
бахана
бахараб
бахине
бахтика
бахтикал
бахтикаца
баху
бахула
бахулеб
бахун
бахуна
бахунаро
бахунеб
бахчараб
бахчун
бахъана
бахъараб
бахъелел
бахъи
бахъизе
бахъин
бахъинабуна
бахъиназул
бахъинал
бахъиналъул
бахъиялда
бахъиялъул
бахъула
бахъулеб
бахъулел
бахъун
бахъунаро
бахіарчи
бахіс
бахӏарчи
бахӏарчилъи
бахӏс
бахӏсал
бац
бацӏ
бацӏица
бацӏцӏадаб
бач
бачана
бачараб
бачари
бачин
бачине
бачун
бачуна
бачунеб
бачунел
баччизе
баччун
бачіана
бачіараб
бачіин
бачіине
бачіун
бачіуна
бачіунеб
бачӏана
бачӏараб
бачӏин
бачӏун
бачӏуна
бачӏунеб
башкортостан
башкортостана
башлыкент
бащадаб
бащадаблъун
бащалъи
бащалъиялда
бащалъуда
бащалъула
бащдаб
баян
баянаб
баяназда
баяназул
баянал
баяналда
баяналъул
баянкьелал
баянлъи
баянлъун
бб
бе
бег
бегараб
бегьула
бегьулареб
бегьуларо
бегьулеб
бегьулел
бежаницкии
бежецкии
бежта
бежтинскии
бежтіа
бежтӏа
без
беи
бек
бекератида
бекетово
бекица
бекьилъ
белавино
беларусь
белая
белгород
белгородская
белград
беле
белебеевскии
бели
белиджи
беловскии
белогорскии
белое
белозе
белозерскии
белорецкии
белореченскии
белорус
белоруссия
белоруссиялъул
белосельское
белоярскии
белоярское
белъелда
белые
белыи
бельгии
бельково
бельскии
бельское
беляево
беляевскии
бенгал
бенито
бенои
бент
бер
беразда
берал
бералда
бербалагьи
бербалагьиял
бергьана
бергьараб
бергьарав
бергьенлъаби
бергьенлъи
бергьун
бере
берег
береговая
береговое
береговои
бережки
бережная
бережок
березки
березник
березники
березниковское
березняки
березовец
березовка
березово
березовскии
березовское
берзул
берлин
бертин
берцин
берцинаб
берцинаи
берцинал
берцинго
берцинлъи
берцинлъиялъул
бест
бет
бетіер
бетіераб
бетіерав
бетіерасул
бетіерлъи
бетіерлъиялда
бетіерлъун
бетӏер
бетӏераб
бетӏерав
бетӏерал
бетӏералда
бетӏерасул
бетӏерги
бетӏергьан
бетӏергьанчи
бетӏерлъи
бетӏерлъиялда
бетӏерлъуда
бетӏерлъун
бец
бече
бечедаб
бечедал
бечелъи
беэнаб
би
библеи
библии
библиография
библиотека
библиотекаялда
библиотеке
библию
библия
библиялъул
бигьа
бигьаго
бигьаяб
бидул
бидулаб
бижараб
бижбулякскии
бижула
бижулеб
бижун
бизнес
бизнесчагіи
бика
бикаца
бикерманида
бикъун
бикь
бикьана
бикьи
бикьизе
бикьиялъул
бикьула
бикьулаан
бикьулеб
бикьун
билабиалияб
билкан
бин
бинт
биографии
биография
биология
бирджанд
бирскии
бирюзяк
бис
бит
битіараб
битӏ
битӏараб
битӏахъе
битӏун
бихбизабулеб
биххана
биххараб
биххи
биххизабун
биххизабуна
биххизе
биххула
биххун
бихьана
бихьараб
бихьарав
бихьаралдаса
бихьи
бихьидал
бихьизаби
бихьизабизе
бихьизабиялъул
бихьизабул
бихьизабула
бихьизабуле
бихьизабулеб
бихьизабулел
бихьизабун
бихьизабуна
бихьизабураб
бихьизарулел
бихьизе
бихьинаб
бихьиназул
бихьинал
бихьинчи
бихьуда
бихьудаса
бихьуде
бихьул
бихьула
бихьуларо
бихьулеб
бихьулесаб
бихьун
бицана
бицани
бицанихъе
бицараб
бицатаб
бицен
биценазда
биценал
биценалда
бицине
бицун
бицуна
бицунаан
бицунаго
бицунге
бицунеб
бицухъе
биццалъи
бич
бича
бичизе
бичун
биччазе
биччаи
биччала
биччалеб
биччан
биччана
биччараб
бичічіи
бичічіизабизе
бичічіизабула
бичічіизабулеб
бичічіизабулел
бичӏчӏула
бичӏчӏулеи
бищараб
бищизе
бищула
бищун
бищунго
бл
благовещенскии
благодарим
благодаря
ближаи
близ
блика
блок
блока
блокалда
блоки
блокировке
блокировки
бо
бобби
боги
богословал
боджнурд
бодул
божарав
божи
божиялъул
божунгутіиялъул
бои
боксалъул
бокьани
бокьараб
бокьарав
бокьарал
бокьи
бокьич
бокьула
бокьулеб
бокьун
бокьухъе
бол
болгария
болгариялъул
более
болжал
боливия
болмацӏ
бологовскии
болховскии
болъихъ
болъихъа
болъон
большая
больше
большевиказ
большевиказул
большесельскии
большесидоровское
большинство
большое
большои
бор
борагангечув
борис
борисовское
боровскии
борохь
бортана
борхалъи
борхалъиялда
борхалъиялъул
борхалъуда
борхалъудаса
борхана
борхатаб
борхи
борхизе
борхиялда
борхиялъул
борхун
борцун
борч
борьба
борьбы
босана
босани
босараб
босе
боси
босизе
босния
босуге
босул
босула
босулеб
босун
бот
ботлихскии
ботом
ботулизм
бох
боц
боціи
боцӏи
боязе
боязул
боял
боялда
боялде
боялъул
бразилия
браи
бреи
британ
британия
британиялъул
брюссель
брянск
брянская
брянскии
брянское
бсэ
бугеб
бугебакіал
бугебали
бугебищ
бугеблъун
бугев
бугеи
бугел
бугелде
бугелъул
бугила
бугилан
бугин
бугищ
буглен
буго
бугоан
бугони
бугониги
бугоян
бугъа
бугьнада
бугьула
буддизм
будем
будет
будут
буздякскии
буи
бук
буква
буквы
букіана
букіаниги
букіанин
букіараб
букіарищ
букіин
букіина
букіиналъ
букіиналъул
букіине
букіинчіо
букіун
букіуна
букіунаро
букіунеб
букӏа
букӏаго
букӏана
букӏаниги
букӏанилан
букӏанин
букӏараб
букӏарав
букӏахъинабуна
букӏин
букӏиналъ
букӏиналъе
букӏинги
букӏине
букӏинчӏо
букӏун
букӏуна
букӏунаан
букӏунареб
букӏунаро
букӏунеб
булач
булгъар
буллинскии
бунт
бураевскии
бурзянскии
буркина
буркихан
буртина
буртиял
буртиялъ
буртунаи
буруны
бурятия
бусен
буссараб
буссинаби
буссинабизе
буссинабиялъул
буссинабуна
буссине
бусурбабаз
бусурбабаздаги
бусурбабазе
бусурбабазул
бусурбаби
бусурбан
бусурман
бусурманав
бусурманал
бут
бутово
бутри
бутырки
бутіа
бутіабаз
бутіабазда
бутіабазул
бутіаби
бутіалъун
бутіаялда
бутіаялде
бутіаялъул
бутірузул
бутірул
бутӏа
бутӏабазул
бутӏаби
бутӏаккун
бутӏалъун
бутӏаялда
бутӏаялдасан
бутӏаялде
бутӏаялъул
бутӏрузул
бутӏрул
бух
бухолово
бухт
бухты
бухьараб
бухьен
бухьеназул
бухьенал
бухӏун
буцра
буцӏра
бушер
буюрухъ
бы
быковка
быково
быковскии
быковское
был
была
были
было
быстрая
быстро
быстрого
быстрыи
быть
бычиха
бычки
бычково
бышевскии
бюллетень
бюро
бяково
в
ва
вабаъ
ваби
вавилово
ваг
вагаи
ваганово
вагъулев
важно
важности
вазе
вазир
ваи
вакил
вакиласул
вакилзабазул
вакилзаби
вакиллъи
вакиллъун
вал
вала
валагьун
валдаи
валерии
вали
валуи
валюта
вам
вами
ван
вана
ваназда
ваназул
ванал
ванашимахи
вандализма
ванино
ваньково
вар
вараксино
варал
варани
варваринка
варварино
варваровка
вари
вариант
вариантал
варианты
варламово
варшава
вас
васазул
васал
васас
васасда
васасе
васасул
васги
васигат
василе
василевка
василево
василии
васильев
васильевич
васильевка
васильево
васильевская
васильевскии
васильевское
васильки
васильково
васино
васият
васлъун
васькино
васьково
васюково
васютино
ват
ватана
ватани
ватизе
ватикан
ватула
ватӏан
ватӏаналде
ватӏанияб
ватӏанчилъияб
ваулино
ваулово
вах
вахарав
вахрушево
вахъана
вахъине
вахъула
вахъун
вахӏшияб
вахӏью
вац
вацал
вацас
вацасул
вацлъи
вач
вачана
вачи
вачун
вачіана
вачіарав
вачіин
вачіуна
вачӏана
вачӏарав
вачӏун
вачӏуна
ваш
ваше
вашем
вашингтон
ваших
вашкинскии
вв
введе
введение
введенскии
введенское
вд
ве
веб
веде
ведено
веденскии
веи
век
века
веке
веков
векшино
веларияб
великая
великент
великии
великово
великого
великое
великои
великолукскии
великоустюгскии
вельскии
венгрия
венера
венесуэла
вера
верб
версии
версия
версиялда
вертоле
верхне
верхнего
верхнее
верхнеи
верхнетоемскии
верхнехавскии
верхние
верхнии
верхняя
весе
веселыи
вести
вестник
весь
весьегонскии
вет
ветки
ветлужскии
ветхии
ветхого
вехь
веч
веществаби
вещество
взгляд
ви
вибрант
вид
вида
виде
видео
видное
вижарав
визуалияб
вики
викибаянал
викигъамас
викигъамасалда
викиданные
викиданных
викимактаб
викимедиа
викимедиалъул
викимедии
википе
википедии
википедию
википедия
википедиязул
википедиял
википедиялда
википедиялъул
викисклад
викискладе
викитека
викри
виктор
виктория
викторовка
вилаи
вилаят
вилаяталда
вилаяталде
вилаяталъул
вилгьелм
вилегодскии
вильгельм
виноградное
виноградныи
виноградовка
виноградовскии
високоснияб
високосниял
вит
витӏана
витӏула
вихьизавун
вице
вичугскии
вишенки
вишне
вишневая
вишневка
вишневскии
вишняково
вищана
вищарав
вищула
вка
вклад
включает
включать
включая
включение
включения
включить
вконтакте
влади
владимир
владимира
владимирович
владимировка
владимирово
владимировскии
владимировское
владимирская
владимирскии
владимирское
владыкино
власиха
власково
власовка
власово
власти
власть
власьево
влево
вместе
вместо
вне
внесе
внимание
внуково
внутреннии
внутренних
внутренняя
внутри
во
водные
водныи
воды
вое
воеи
военно
военнои
возвращает
возвращается
возвращают
воздвиженка
воздвиженскии
воздвиженское
возможно
возможности
возможность
вознесенка
вознесеновка
вознесеновское
вознесенскии
вознесенское
вознесенье
возрождение
вои
вокализация
вокализм
вокалист
волга
волгоград
волгоградская
волжскии
волжское
волк
волково
волковское
волна
волово
воловскии
вологодская
вологодскии
володарскии
володарское
володино
волоколамскии
волонте
волосово
волость
волховскии
волчанка
волчии
волчиха
волчье
вольная
вольненское
вольно
вольное
вольныи
воля
вообще
вооруже
вопрос
вопроса
вопросам
вопросов
вопросу
вопросы
воробье
воробьевка
воробьи
воронеж
воронежская
воронежское
воронов
воскресенскии
воспользоваться
воспоминания
восстание
восстания
восток
востока
востоковедения
восточная
восточного
восточнои
восточные
восход
вотум
вочепшии
вп
впервые
впн
вправо
врач
време
времен
времени
временник
время
все
всегда
всего
всем
всероссии
всесоюзная
всех
вскии
вское
вставить
вставки
встреча
всю
вторая
второго
второе
второи
втором
вугеб
вугев
вугел
вугилан
вугин
вуго
вугони
вугониги
вук
вукъула
вукъун
вукіана
вукіарав
вукіаравищ
вукіинчіо
вукіун
вукіуна
вукӏаго
вукӏана
вукӏарав
вукӏин
вукӏине
вукӏун
вукӏуна
вулкан
вуссана
вуссинч
вуссун
входит
вы
выборам
выборах
выборов
выбрать
выведен
выведено
вывести
вывод
вывода
выводит
выводится
выдвижения
выделен
вызов
вызова
вызове
вызывает
вызывается
вызываются
вызывающего
выи
вып
выпуск
выравнивание
выселки
выскажите
высокое
высота
высоты
выходит
вычислении
выше
вышневолоцкии
вьетнам
вязниковскии
г
га
габукаи
габур
гавриловскии
гагатли
гадари
гаджиев
газ
газал
газалъул
газета
газетаби
газетаздаги
газеталъул
гаи
гаквари
гакко
галанино
галерея
галичскии
галкино
галкинское
гама
гамач
гамачі
гамачӏ
гамиях
гамово
гамущ
ганино
ганч
ганчіида
ганчіил
ганчӏида
ганчӏил
гапцах
гапшима
гара
гаракь
гарбал
гарбилазда
гари
гарино
гарусово
гарь
гатлукаи
гафурии
гацалух
гачки
гашун
гвангвара
гвангъараб
гвардеи
гвардия
гватемала
гвенд
гвинея
гвоздево
гг
гггг
где
гдовскии
гдым
ге
геба
геджух
геи
гелбахъ
гели
гелчилал
гельбах
ген
гендерил
генерал
генерируется
генетив
генетика
генетикияб
гени
геннадии
генрих
гента
генуб
генуса
географии
географикияб
географические
географических
географическое
география
географияб
географиял
географиялъул
географов
геокодал
геология
геометрического
геополитикияб
георгиевка
георгиевская
георгиевскии
георгиевское
георгии
герасимова
герасимовка
герасимово
герб
герга
гергебиль
гергебильскии
гереи
герман
германии
германия
германияб
германияз
германиязул
германиял
германиялда
германиялъ
германиялъул
герменчик
герои
гертма
герхмахи
герцеговина
ги
гиагинская
гиагинскии
гиагинское
гиб
гибил
гигант
гиггз
гид
гидал
гидалги
гидрология
гидроузел
гикалол
гилан
гиле
гильяр
гимн
гимна
гимнал
гимравии
гимры
гин
гиназ
гиничукь
гиничукьа
гинта
гиреи
гирино
гия
гл
глава
главная
главного
главных
глагол
гладкии
гладково
гладкое
гладышево
глазачево
глазково
глазовка
глазово
глазовскии
глазуново
глазуновскии
глебени
глебовка
глебово
глебовское
глинище
глинка
глинки
глинное
глиньково
глобалияб
глоссарии
глотово
глотталияб
глубокая
глубокии
глубоково
глубокое
глухарево
глухая
глуховка
глухово
глуховскии
глухои
глушица
глушицы
глушково
глядень
глядково
гнездилово
гнилое
гнилуша
гну
го
говорово
гоголевка
гоготль
год
года
годек
годобери
годов
году
годы
гозолоколо
гои
гол
голенищево
голиково
голицыно
голованово
головинка
головино
головинская
головинское
головище
головкино
головково
гололобово
голос
голоса
голосов
голосование
голосовании
голосования
голосованиях
голохвастово
голубая
голубево
голубино
голубинскии
голубково
голубовка
голубои
голузино
голыгино
голышево
голышкино
гольцово
гонги
гонода
гончарка
гончаровка
гончарово
гончары
гоор
гор
гора
горах
горбатовка
горбачево
горбачи
горбачиха
горбово
горбуновка
горбуново
горбуновское
гордеевскии
горка
горки
город
города
городам
городе
городецкии
городов
городок
городских
городского
городское
городскои
гороховецкии
горское
горы
горького
гост
гостала
государств
государства
государственная
государственного
государственнои
государственные
государственныи
государство
государыня
гох
гочана
гочарал
гочине
гочун
градусах
градусов
гражданскии
гражданство
грамм
грамматика
грамматикаялда
грамматикаялъул
грамматикияб
грамматикиял
грамота
границах
границы
граф
график
графика
графикияб
грегорианияб
грек
греказ
греказул
грекал
грекиялъул
гренландиялъул
греция
грециялда
грециялъул
греческого
григорианияб
гризон
грозныи
громыко
грузинскии
грузия
групп
группа
группаялъул
группе
группои
группы
грязовецкии
губе
губернатор
губерния
гугариялъул
гугариялъулаб
гугарухъаби
гугарухъан
гудур
гулестан
гулла
гулли
гумбет
гумбетовскии
гуми
гун
гуни
гуниб
гунибскии
гурбуки
гуреб
гуребги
гурев
гуревги
гурел
гурелги
гурелъул
гуржи
гуржистан
гуржистаналда
гуржистаналъул
гуржияз
гуржиязул
гуржиял
гуржиялъ
гуржиялъе
гуржиялъул
гуржиялъулгун
гурин
гуро
гурого
гурони
гурскии
гус
гуса
гусеи
густав
густерин
гусь
гуч
гучаб
гъ
гъадари
гъадаро
гъазават
гъазаваталъул
гъази
гъазимух
гъазимухіамад
гъазимухӏамад
гъалат
гъалбац
гъалбацӏ
гъалгъаи
гъанкъи
гъарабагъ
гъарабагъалда
гъарабагъалъул
гъаргъадан
гъат
гъаталъул
гъваридаб
гъваридал
гъваридго
гъварилъи
гъведиш
гъвет
гъветі
гъветӏ
гъеду
гъеж
гъезе
гъерел
гъизилюрт
гъизляр
гъизляралда
гъизляралъул
гъизлярка
гъира
гъираги
гъодобери
гъодоберисел
гъои
гъолъе
гъоркь
гъоркьа
гъоркьан
гъоркьгьумер
гъоркьгьумерал
гъоркье
гъоркьегіан
гъоркьегӏан
гъоркьехун
гъоркьияб
гъоркьиял
гъоркьо
гъоркьхъваи
гъорлъ
гъорлъа
гъорлъе
гъорлі
гъорліе
гъорлӏ
гъорлӏе
гъугъаб
гъумекдерил
гъумекиб
гъумекиве
гъун
гъуниб
гъуниса
гъунки
гъункун
гъурана
гъурула
гъурущ
гъут
гъутӏби
гь
гьа
гьаб
гьабго
гьабе
гьабеян
гьаби
гьабиги
гьабидал
гьабизабизе
гьабизе
гьабизеги
гьабизеян
гьабила
гьабилаан
гьабич
гьабичіого
гьабичӏеб
гьабичӏо
гьабичӏого
гьабиялда
гьабиялдалъун
гьабиялде
гьабиялъ
гьабиялъе
гьабиялъул
гьабсаг
гьабсагӏат
гьабуге
гьабула
гьабулаан
гьабулаго
гьабуларо
гьабулеб
гьабулев
гьабулезул
гьабулел
гьабун
гьабуна
гьабуни
гьабуниги
гьабунин
гьабураб
гьабурав
гьабурал
гьабуралдаса
гьав
гьава
гьавадул
гьавамухъал
гьаваялда
гьаваялде
гьаваялъул
гьави
гьавизе
гьавиялъул
гьавула
гьавун
гьавуна
гьавураб
гьавурав
гьаг
гьадин
гьадинаб
гьадинал
гьазда
гьаи
гьал
гьалда
гьале
гьалмагъ
гьалъ
гьамза
гьамищтӏа
гьамущи
гьан
гьанже
гьанжеги
гьанжесеб
гьанжесев
гьанжесел
гьаниб
гьанир
гьанире
гьаниса
гьанс
гьарадерихъ
гьарак
гьаракь
гьаракьалда
гьаракьалдаги
гьаракьалде
гьаракьалъ
гьаракьалъе
гьаракьалъул
гьаракіуни
гьаракӏуниса
гьари
гьаризе
гьариялда
гьариялъе
гьариялъул
гьаркьазда
гьаркьазе
гьаркьазул
гьаркьал
гьаркьикъал
гьаркьилаб
гьаркьилал
гьарри
гьарула
гьарулаан
гьарулеб
гьарулел
гьарун
гьаруна
гьарураб
гьарурал
гьаруралкатегория
гьат
гьатіан
гьатӏан
гьатӏаналъул
гьачада
гьаюн
гьаюна
гьаюраи
гьв
гье
гьеб
гьебги
гьебго
гьев
гьевги
гьевго
гьедин
гьединаб
гьединабго
гьединал
гьединалго
гьединан
гьединги
гьединго
гьединлъидал
гьез
гьезда
гьездаго
гьездаса
гьездасан
гьезде
гьезие
гьезул
гьезулги
гьеи
гьекъезе
гьекъолеб
гьекъон
гьел
гьелги
гьелго
гьелгун
гьелда
гьелдаги
гьелдаго
гьелдалъун
гьелдаса
гьелдасан
гьелде
гьеле
гьелъ
гьелъие
гьелъул
гьелъухъ
гьен
гьениб
гьенибго
гьенибе
гьенив
гьенивго
гьениве
гьении
гьенир
гьенирго
гьенире
гьениса
гьенисан
гьереси
гьерети
гьеретиялъул
гьерои
гьес
гьесги
гьесда
гьесдаса
гьесде
гьесие
гьесизарул
гьесул
гьесулго
гьесулъ
гьесухъе
гьет
гьетӏи
гьеч
гьечіеб
гьечіел
гьечіо
гьечіого
гьечіолъи
гьечіолъиялъул
гьечіони
гьечӏеб
гьечӏел
гьечӏин
гьечӏо
гьечӏого
гьечӏолъи
гьечӏони
гьечӏониги
гьи
гьигьалъ
гьигьалъа
гьидалъа
гьидерил
гьиджаи
гьижа
гьижаялде
гьижаялъул
гьижра
гьижраялъул
гьижрияб
гьикъун
гьилиб
гьималаял
гьинд
гьиндгин
гьиндиб
гьиндустан
гьиндустаналъул
гьиристан
гьит
гьитіинаб
гьитӏинаб
гьитӏинабго
гьитӏинав
гьитӏинал
гьитӏинго
гьобо
гьобол
гьои
гьоко
гьоло
гьолокь
гьонода
гьоор
гьоркъохъеб
гьоркьгьумерал
гьоркьо
гьоркьоб
гьоркьобги
гьоркьобе
гьоркьоблъи
гьоркьов
гьоркьолъаби
гьоркьор
гьоркьоре
гьоркьоса
гьоркьосарахъиялги
гьоркьосеб
гьоркьохъеб
гьоркьохъел
гьоц
гьоцӏалӏ
гьоцӏо
гьочоб
гьудул
гьудулзаби
гьудуллъи
гьудуллъиялъул
гьужум
гьужумал
гьужумалъул
гьукъараб
гьукъарал
гьукъун
гьум
гьумер
гьумерал
гьумералда
гьумералдаса
гьумералде
гьумералъул
гьумерги
гьунар
гьунарал
гьунаралъе
гьунаралъул
гьунарги
гьунарияб
гьунариял
гьунарлъаби
гьунарлъи
гьунарлъиялъул
гьупаязул
гьури
гьухъалиса
гэс
гюхряг
гі
гіабдул
гіабдулгіазиз
гіабдуллагь
гіабдурахіман
гіага
гіагараб
гіагарал
гіагарда
гіагарлъухъ
гіадаб
гіадал
гіадалло
гіадамаз
гіадамазда
гіадамазул
гіадамал
гіадамасул
гіадан
гіадатаб
гіадатазул
гіадатал
гіадатияб
гіадатиял
гіадин
гіажам
гіазиз
гіазу
гіаи
гіаксаб
гіаламат
гіаламатал
гіаламатлъун
гіали
гіалиев
гіалим
гіалимзабаз
гіалимзаби
гіалимчи
гіамир
гіаммаб
гіаммал
гіанасеб
гіанди
гіараб
гіарабаз
гіарабазул
гіарабистаналъул
гіарабия
гіарабиялда
гіарабиялъул
гіарани
гіарац
гіарзаби
гіаркьалаби
гіаркьел
гіасрабазда
гіасрабазул
гіасраби
гіасру
гіасруялда
гіасруялдаса
гіасруялде
гіасруялъ
гіасруялъул
гіатіид
гіатіидаб
гіатіилъи
гіахъуша
гіахьалаб
гіахьаллъи
гіахьалчагіазул
гіахьалчагіазулгун
гіахьалчагіи
гіахьалчи
гіахьалчилъун
гіахьалчиясул
гіашкъабад
гіебеде
гіеблъи
гіезегіан
гіелмабазул
гіелмаби
гіелмияб
гіелмиял
гіелму
гіелмуялъул
гіем
гіемер
гіемераб
гіемерал
гіемерго
гіемерисеб
гіемерисел
гіемерлъи
гіемерлъул
гіид
гіидалъул
гіилла
гіиракъалъул
гіиса
гіиціго
гіодобе
гіоло
гіолохъан
гіолохъанав
гіор
гіорал
гіоралъул
гіорул
гіорхъаби
гіорхъи
гіорхъода
гіужалда
гіумар
гіумахан
гіумаханасул
гіумру
гіумрухъваи
гіумруялъул
гіур
гіураб
гіурул
гіурус
гіурусаз
гіурусазул
гіурусал
гіурхъаби
гіурхъи
гіурччинаб
гіусман
гіусманияб
гіусманиязул
гіуціа
гіуціана
гіуціараб
гіуціарал
гіуціи
гіуціизе
гіуціиялда
гіуціиялъул
гіуціула
гіуціун
гіуціціана
гіуціціи
гіуціціиялъул
гӏ
гӏабаси
гӏаббас
гӏаббасилги
гӏабдул
гӏабдулмажид
гӏабдурахӏимица
гӏабдурахӏман
гӏага
гӏагараб
гӏагарав
гӏагарал
гӏагарлъи
гӏагарлъухъ
гӏадаб
гӏадал
гӏадамаз
гӏадамазда
гӏадамазе
гӏадамазул
гӏадамал
гӏадамалги
гӏадамасул
гӏадан
гӏадат
гӏадатаб
гӏадатал
гӏадатияб
гӏадин
гӏадинаб
гӏадинги
гӏадлу
гӏажаибаб
гӏажам
гӏажамалъе
гӏази
гӏазу
гӏаи
гӏака
гӏакаро
гӏаксалда
гӏакълу
гӏакъуба
гӏала
гӏаламалъул
гӏаламат
гӏаламатал
гӏали
гӏалиев
гӏалил
гӏалилазул
гӏалим
гӏалимзабаз
гӏалимзабазда
гӏалимзабазул
гӏалимзаби
гӏалимчи
гӏалихӏажияв
гӏалихӏажияс
гӏалхул
гӏамал
гӏамир
гӏаммаб
гӏаммал
гӏаммго
гӏаммлъи
гӏан
гӏанасеб
гӏандал
гӏанди
гӏандиса
гӏанкӏ
гӏанчихъ
гӏараб
гӏарабаз
гӏарабазул
гӏарабал
гӏарабистаналъул
гӏарада
гӏарадаби
гӏарани
гӏарас
гӏарасал
гӏарац
гӏаркьел
гӏаркьухъ
гӏасрабазда
гӏасрабазул
гӏасраби
гӏасру
гӏасруялда
гӏасруялдаса
гӏасруялде
гӏасруялъ
гӏасруялъул
гӏатӏид
гӏатӏидаб
гӏатӏидал
гӏатӏидго
гӏатӏилъи
гӏатӏилъиялъул
гӏахъуша
гӏахьал
гӏахьалаб
гӏахьаллъарал
гӏахьаллъи
гӏахьалчагӏазул
гӏахьалчагӏи
гӏахьалчи
гӏахьалчӏи
гӏахьалчӏиса
гӏахьвалазул
гӏахьвалал
гӏахьвахъ
гӏеблъи
гӏезегӏан
гӏелмабазул
гӏелмаби
гӏелмияб
гӏелмиял
гӏелму
гӏелмуялда
гӏелмуялъул
гӏем
гӏеме
гӏемер
гӏемераб
гӏемерав
гӏемерал
гӏемерисеб
гӏемерисез
гӏемерисел
гӏемериселъ
гӏемерлъул
гӏеч
гӏи
гӏиллалъун
гӏин
гӏиракъ
гӏириб
гӏиса
гӏисаца
гӏиссинал
гӏицӏго
гӏиял
гӏиялъажо
гӏобода
гӏободаса
гӏодоб
гӏодобе
гӏодов
гӏодор
гӏоло
гӏолохъабазул
гӏолохъанав
гӏолохъанлъи
гӏор
гӏоразул
гӏорал
гӏоралъул
гӏоротӏа
гӏорхъабазул
гӏорхъаби
гӏорхъи
гӏорхъода
гӏорхъодаса
гӏочӏло
гӏуж
гӏуман
гӏумар
гӏумахан
гӏумру
гӏумрухъваи
гӏумруялда
гӏумруялде
гӏумруялъул
гӏун
гӏункӏкӏ
гӏураб
гӏурада
гӏурул
гӏурус
гӏурусаз
гӏурусазул
гӏурусал
гӏурусгин
гӏурхъаби
гӏурхъи
гӏурччинаб
гӏуси
гӏусман
гӏусманилазул
гӏусманияб
гӏуцӏа
гӏуцӏаби
гӏуцӏана
гӏуцӏараб
гӏуцӏарав
гӏуцӏарал
гӏуцӏи
гӏуцӏизе
гӏуцӏиял
гӏуцӏиялда
гӏуцӏиялде
гӏуцӏиялъе
гӏуцӏиялъул
гӏуцӏула
гӏуцӏулеб
гӏуцӏун
гӏуцӏцӏана
д
да
давам
давать
давид
давида
давла
давуд
давудил
даг
дагбаш
дагестан
дагестана
дагестане
дагестанская
дагестанские
дагестанских
дагестанское
дагестанскои
даги
дагиров
дагстат
дагъистан
дагъистаналда
дагъистаналдаги
дагъистаналдаса
дагъистаналде
дагъистаналъул
дагъистаналъулги
дагъистани
дагъистанияб
дагъистанияв
дагъистаниязул
дагъистаниял
дагъустан
дагь
дагьа
дагьаб
дагьабги
дагьабго
дагьал
дагьалги
дагьалго
дагьалъ
дагьккун
дагіба
дагӏба
дагӏватчи
дада
дае
даже
даи
даимго
дакъ
дакъалъул
дал
далее
далил
далилал
дальше
дан
даналда
данде
дандекквеялъул
дандеккола
дандеккун
данделъи
данделъиялда
данделъиялъул
дандеч
дандраи
дандраязул
дандраял
дандч
дандчівала
дандчівалеб
дандчӏваи
дандчӏвала
дандчӏвалеб
даниил
даниловскии
дания
даниял
даниялил
даниялов
даниялъул
данковскии
данного
данное
даннои
данном
данные
данныи
данным
данными
данных
данское
данте
дануб
данух
дапур
дар
дарада
даража
даражаялда
даражаялде
даражаялъул
дараи
даран
дарваг
даргин
даргинал
даргинскии
даргинского
даргиял
даркуш
дармил
дарово
дарс
дарсал
дару
даса
дасср
дассралъул
даст
дат
дата
дату
датуна
даты
дать
дахадаевскии
даховское
даци
дающии
даял
два
две
движение
движения
движок
двор
двумя
двух
двухбуквенныи
дгу
дд
де
деи
декабр
декабралда
декабралде
декабралъ
декабрь
декабря
декембер
декембералда
дел
делабиализация
делается
делам
делать
деление
деления
деличобан
дело
дельта
демография
демократия
демократияб
демократиялъул
ден
дена
дене
деникинил
денис
дено
денталияб
день
депутат
дербенд
дербендалда
дербендалъул
дербент
дербентскии
деревня
десятичное
десятичном
деятель
деятельности
деятельность
дж
джаба
джаванкент
джаи
джакъели
джалган
джана
джеи
джемикент
дженгутаи
джерокаи
джиджихабльское
джинаби
джованни
джозеф
джон
джонс
джордж
джузеппе
дзержинскии
дзержинское
ди
диагностика
диакритикал
диалект
диалектал
диалекталда
диаметр
диапазон
диаспораялъул
дибгалик
дибир
дибирилросу
дибирлъун
дибиров
дибирхӏажил
диграф
диграфал
диграфалдалъун
диграфалъ
дида
дие
диеги
диего
дизаи
диктатор
диктатура
диктатураби
дилималдаса
димишкъ
димишкъалда
димишкъалъул
дин
динал
диналда
диналде
диналъул
династии
динги
динияб
динияв
диниял
динлъун
диплом
дипломат
дипломатия
дир
дирго
директор
директора
директорлъун
дириже
диссимиляция
дисциплина
дифтонгал
дифференциация
дица
дия
длину
длины
для
дмитриевскии
дмитриевское
дмитрии
дмитровскии
днеи
дновскии
днц
днцӏ
дня
до
доб
добавить
добавления
добавляет
добавлять
добавляются
добавьте
добросовестного
дов
дои
доктор
доктора
докузпаринскии
документ
документал
документальныи
документации
документацию
документация
документирования
документы
дол
долго
долгота
должен
должна
должно
должны
доллар
долларалде
дом
домодедово
дон
дондуковское
доп
дополнительно
дополнительные
дополнительныи
дополнительных
допустимые
дор
доргели
доровскии
дороги
дос
достаточно
доступен
доступных
др
драматикияб
драматург
драматургал
древнего
древнеи
древнии
древних
другие
другим
другими
других
другое
другои
другом
дружба
дружинин
ду
дубаи
дубаялъул
дубки
дубовскии
дуг
дугъри
дугӏа
дуда
дуе
дукмасовское
дул
дун
дунги
дуниял
дуниялалда
дуниялалъул
дунял
дунялалда
дунялалдаго
дунялалъул
дунялалъулаб
дунялалъулго
дур
дуранги
дурго
дурусаб
дурусал
духовнои
дуца
дуцаго
дуче
дылым
дэвид
дюмезил
дюмезилица
е
еб
еблъи
ев
евангелие
евгении
евразия
евразиялъул
евреи
европа
европалъул
европаялда
европаялдаги
европаялде
европаялъул
европаялъулал
европе
европеи
европияб
европиял
европы
евроцолъиялъул
ег
егерухаи
еги
егип
египет
египеталда
египеталъ
египеталъе
египеталъул
египтологаз
египтяназ
египтяназул
его
егорьевскии
ед
единая
единица
единицу
ее
еж
ежалде
ежегодник
езаби
езабизе
езабилеб
езабула
езабулеб
езабун
езе
езег
еи
екатерина
екатеринал
екатеринбург
екатерине
екатерины
екеризе
ел
елал
елена
еленовское
елецкии
елизавета
елмабазул
елмаби
елмияб
елмиял
елму
елмуги
елмуялда
елмуялъул
емен
емер
емераб
емерал
емерисеб
емерисел
ему
ен
еналда
еналъул
ер
ераб
ерав
ерал
ерахӏмад
ергьан
ереван
ерлъиялда
ерлъун
ермекеевскии
ерхьул
если
есть
ех
ехь
ехьалда
ехьги
ехьлъун
еч
еще
ж
жаваб
жаваблъун
жаваблъунги
жаи
жак
жакъа
жакъаги
жакъасеб
жал
жалазул
жалалудин
жалги
жалго
жалгоги
жалил
жамаг
жамагіат
жамагіатал
жамагіаталъул
жамагӏат
жамагӏатал
жамагӏаталъ
жамагӏаталъул
жамагӏатгун
жамалудин
жамг
жамгіияб
жамгіиял
жамгӏияб
жамгӏияв
жамгӏиял
жамгӏият
жамгӏияталъул
жан
жаназа
жани
жаниб
жанибе
жаниблъиялда
жаниблъиялъул
жанив
жанир
жанире
жаниса
жанисан
жанисеб
жанисел
жанна
жанр
жанрал
жанры
жанубалда
жанубалде
жанубалдехун
жанубгун
жанубияб
жанубиябгин
жанубиябгун
жарковскии
жахӏпарилазул
же
жеги
жедер
жедерго
желательно
железнодорожная
железнодорожнои
железнодорожныи
жиб
жибги
жибго
жив
живги
живго
живгоги
живописец
жигар
жигараб
жигарал
жигарчи
жидда
жиде
жидеда
жидедаго
жидее
жидеего
жидер
жидерго
жидеца
жидецаго
жизни
жизнь
жии
жинда
жиндаго
жиндалъун
жиндаса
жиндасаго
жиндасан
жинде
жиндехун
жинди
жиндида
жиндие
жиндиего
жиндилъ
жиндир
жиндирго
жиндихъ
жиндихъе
жиндихъего
жиндица
жинс
жинсалда
жинсалдеги
жинсалъул
жинсалъулъ
жинсияб
жинсиял
жинца
жинцаго
жо
жоги
жодор
жодорго
жои
жолъун
жорж
жоялда
жоялдаса
жоялде
жоялъе
жоялъул
жуба
жубазе
жубаи
жубала
жубалеб
жубан
жубана
жубараб
жубаялдалъун
жуваи
жугьут
жугьуті
жугьутіал
жугьутӏ
жугьутӏал
жудор
жудорго
жуз
жуковскии
жумгьурият
жумгьуриятал
жумгьурияталда
жумгьурияталъул
жумлаялда
жумх
жунубгун
жунубияб
жура
журан
журарал
журнал
журнала
журналаздаги
журналал
журналалда
журналалъул
журналист
з
за
забаи
забгпу
заби
забур
завет
завета
заветалда
заветалъул
зависимости
завод
заводалъ
заводалъул
заводское
заволжскии
завьяловскии
заг
заглавная
заглавнои
заголовка
заголовков
заголовок
заготовка
загружаться
загъалав
загъалас
загъаласул
загьидат
загьир
загьирлъана
загьирлъула
загӏипаб
задавать
задае
задан
задана
задать
задеи
задонскии
заз
заи
закавказье
закагіат
закам
закат
закатала
закаталаялъул
закатул
закон
зал
залив
заливалъул
зама
заман
замана
заманалда
заманалдаги
заманалдаго
заманалдаса
заманалдасаго
заманалде
заманалъ
заманалъул
заманаялда
заманаялде
заманаялъ
заманаялъул
замена
заменена
заменить
замены
заменяет
зани
занки
запада
западного
западнодвинскии
западнои
западныи
записеи
записи
записка
записки
записываются
запись
запрет
запретить
запрещено
запрос
запятои
запятую
заработало
зарал
заралги
заревское
зарезервировано
заря
затем
зах
захаровское
захит
захімат
захіматаб
захіматго
захӏмат
захӏматаб
захӏматал
захӏматалъул
защита
защиты
защище
заявки
заявлении
заявления
звания
зве
здесь
зеи
зеландия
зеленоморск
земли
земля
зианчуринскии
зигара
зидьян
зилаирскии
зило
зильбачи
зильдик
зимовниковскии
зинжан
зирани
зирараб
зия
зиявудин
зиян
зиярат
зка
зм
знак
знака
знаменскии
знание
знании
значение
значении
значения
значениями
значимости
значка
значок
зоб
зобалазул
зовая
зовка
зово
зовскии
зовское
зовыи
зона
зонаби
зрения
зрых
зса
зубанчи
зубутли
зубцовскии
зуевскии
зул
зулму
зумруд
и
иабилеб
иабилев
иб
ибе
ибил
ибит
ибн
ибну
ибрагьим
ибрагьимил
иван
иванов
иванович
ивановка
ивановская
ивановскии
ивановское
иве
иг
иги
иго
игорь
игун
игьали
игір
игіраб
игірабазда
игірабазде
игірабал
игірабалда
игӏрабияб
ид
ида
идал
идара
идарабазул
идараби
идараялъ
идараялъул
идасан
идаялда
идаялъ
иде
идеи
идентификатор
идентификаторов
идеология
идея
идил
идица
идов
идрис
идрисил
ие
иерархию
ижаза
из
изабизе
изабиялъул
изабула
изабулеб
изабуна
изано
изаризе
избежать
избербаш
избирателя
избранная
избраннои
избранные
избранныи
известен
известия
известны
известныи
изд
издание
издания
издательство
изе
изменении
изменения
изменить
изну
изображена
изображение
изображении
изображения
изобретатель
изолят
ии
иисус
ик
иконки
икълим
икълимазда
икълимазул
икълимал
икълималда
икълималъул
икълимиял
икълимлъун
икь
икіана
икіун
икӏана
икӏараи
икӏун
икӏуна
ил
ила
илаб
илагьияб
илагьлъун
илал
илам
илан
или
илишевскии
илл
илла
иллалъун
иллюстрация
илчи
илчизабазда
илъа
илъи
ильинскии
ильинское
ильич
илья
им
имам
имамас
имамасул
имамат
имаматалъул
имамзабазул
имамлъун
иман
имарат
имараталъул
имат
име
имеет
имели
имен
имена
именем
имени
именно
именование
именованные
иметь
имеют
императивалъул
император
императрица
императрицы
империи
империя
империял
империялда
империялде
империялъ
империялъе
империялъул
имплозив
имя
ин
ина
инаб
инабула
инабуна
инав
иназул
иналда
иналде
иналдего
иналъ
иналъе
иналъул
иначе
инг
инги
ингилис
ингилисазул
ингилисалда
ингиши
инго
ингун
ингуш
ингушал
ингушетия
индал
индекс
индексы
индии
индира
индия
индустриалияб
ине
инжил
инжилалда
инжилалъул
инк
инкар
инкъи
инкъилаб
инкъилабалдаса
инкъилабалъул
иногда
иное
иностранных
иноязычных
инсан
инсанасул
инсанияталъул
институт
института
институталъул
инструмент
инструменты
инсуда
инсул
инсуца
интервики
интервью
интерес
интересал
интернет
интерфеи
интонация
инуит
инуитал
инфинитив
инфинитивалъул
инфобокс
информации
информационныи
информацию
информация
информациялъул
инфраструктура
инхело
инхо
инхоса
инч
инчха
иоанн
иоанна
иоганн
иосиф
ип
ир
иран
ирана
ираналда
ираналъул
ираналъулал
иранияб
ираниял
ирасул
ирга
иргадул
иргадулаб
иргадулал
ирганаи
иргаялда
ире
ирзаби
ириб
иркутск
иркутская
ирландия
ирода
ирс
ирсалъе
ирсалъул
ирсилаб
ирсилав
ирсилавлъун
иса
исабалда
исел
искажение
искажения
искандер
исключением
исключительно
искусства
искусство
искусствоялъул
ислам
ислама
исламалда
исламалде
исламалъул
исламги
исламияб
исламиял
исламскои
исландия
исмаг
исмагӏил
исп
испан
испания
испаниялъул
испанскии
исполнительныи
использовался
использован
использование
использованием
использовании
использованию
использования
использовать
использоваться
используемая
используемых
использует
используется
используи
используют
используются
используя
исраил
исследование
исследовании
исследования
истамбул
истамбулалда
истамбулалде
истамбулалъул
истанбул
истории
историк
историко
историческая
исторические
историческии
исторических
история
источник
источника
источники
источников
истринскии
исфагьан
исх
исходным
итал
италия
италиялда
италиялъул
итальянскии
итни
итог
итогам
итоги
итогов
иудеи
их
ихас
ихг
ихдал
ихер
ихтияр
ихтияразул
ихтиярал
ихх
ихъ
ихьизаюн
иц
ица
ицц
иццазда
иццал
иццалда
иццлъун
иццухъ
ич
ичичали
ичіабилеб
ичіго
ичӏго
иш
ишазда
ишазул
ишал
ишалги
ишалдехун
ишалъул
ишара
ишарабазул
ишараби
ишараялдалъун
ишараялъул
ишат
ишимбаи
ишо
ищ
июл
июлалда
июлалъ
июль
июля
июн
июналда
июналъ
июнь
июня
ия
ияб
иябго
ияв
иял
иялги
иялда
иялдасан
иялъ
иялъе
иялъул
к
ка
кабардин
кабардино
кабир
каваби
кавалер
кавказ
кавказа
кавказалда
кавказалдаго
кавказалдаса
кавказалде
кавказалъул
кавказалъулаб
кавказалъулал
кавказе
кавказияб
кавказиял
кавказские
кавказскии
кавказских
кавказского
кавказскои
кавкамахи
кавтар
каву
кагъат
кагътал
кагіба
кадар
кадуи
каждои
каждыи
казанище
казань
казахстан
казахстана
казбек
казбековскии
казиев
казият
казияталъул
казмаляр
казмалярскии
казни
казнь
каи
как
кака
какал
какана
каки
какие
какил
какого
какое
какои
кал
кала
каладжух
калам
каламалъул
каламалъулаб
календар
календаразда
календаралда
календаралъул
календарь
календарю
календаря
калининаул
калининград
калининградская
калининскии
калиновка
калкни
калмыкия
калуга
калужская
калук
калып
кальскии
кальское
калья
калязинскии
каменка
каменномостскии
каменномостское
каменскии
камил
камилаб
камилал
камилго
кампании
кампания
кан
канада
канадаялда
канадаялъул
канал
канасираги
канго
кандаураул
кандидат
кандидатасе
кандидатасул
кандидатов
кандидатуры
кандидаты
кани
канлъи
кантон
канцлер
каньон
капкаи
капурзабазул
капурзаби
кара
карабаглы
карабудахкент
карабудахкентскии
караидельскии
каракюре
каранаи
карачаево
карачаял
карачевскии
каргопольскии
карелия
карим
каримулагь
карл
карланюрт
кармаскалинскии
карнакалда
карт
карта
картаби
картас
картаялда
картвел
карте
картинка
картинки
картли
картлиялъул
картои
карточек
карточка
карточкаби
карточке
карточки
картошка
карту
карты
каршли
карьера
касимовскии
каспии
касторенскии
кат
катастрофа
категории
категорию
категория
категориял
категориялда
категориялъул
категориях
католикияб
католикиял
католицизм
катрух
каузатив
кафыр
ках
кахеталъул
кахетиялъул
кахіиб
качалаи
качества
качестве
качество
кашинскии
кашмар
каяев
каякент
каякентскии
каялъул
кв
квадратияб
квал
квалификация
кванаге
кваназе
кванаи
кванала
кванан
кванани
кванил
кванкъеро
кванхи
кванхидатли
квар
квараб
кваранаб
кваранидехун
квараниса
квартал
квартала
квартира
квартӏа
кватӏичӏого
квачараб
квег
квегіаб
квегіиса
квегӏаб
квемо
квен
квер
кверал
квералъ
квербакъи
кверде
кверзул
кверщаликь
кверщаликье
кверщел
квеш
квешаб
квешал
квешлъи
квине
ке
кеди
кеи
келермесское
кемал
кемерово
кемеровская
кент
керен
керман
керманшагь
кесек
кесовогорскии
кету
кеч
кечі
кечӏ
ки
киб
кибго
кибе
кибего
киг
кигӏан
кида
кидаго
киданиги
кидеро
киев
кижани
кизилюрт
кизилюртовскии
кизилюртовскому
кизляр
кизлярскии
килас
киласалъул
килиманджаро
килиса
килисаби
килисаялда
килисаялъ
килисаялъул
килограмм
километр
километралъ
километраялъ
километраялъул
килятль
кимрскии
кин
кина
кинаб
кинабго
кинабниги
киназго
киназдаго
киназдасаго
киназего
кинал
киналго
киналниги
кинго
кинематограф
кинешемскии
кинниги
кино
киноакте
кинорежиссе
киностудия
киноялда
киноялъул
кипр
кир
кирго
киреевскии
киржачскии
кири
кириллица
кириллицаялде
кириллицаялъул
кириллияб
кирилловскии
киркинскии
киров
кироваул
кировская
кировскии
кировское
киса
кисан
китаб
китаи
китая
китаялъул
кицаби
кици
кичи
кичменгско
кк
ккана
кканани
ккани
кканиги
ккараб
ккарав
ккаразул
ккарал
ккве
кквезе
кквеи
кквеялъул
ккедал
ккезабизе
ккезе
ккеи
ккела
ккеч
ккечӏого
ккеялъул
ккола
кколаан
кколареб
кколарел
кколаро
кколе
кколеб
кколев
кколел
кколилан
кколин
ккун
ккуна
ккураб
ккурав
ккурал
кл
класс
классалде
классалъул
классик
классикияб
классификация
классификациялда
классныи
классов
климат
климов
клинскии
клуб
клубалъул
ключ
ключевское
ключи
км
кминскии
кн
книг
книга
книгах
книге
книги
княгиня
князь
ко
ковернинскии
ково
ковровскии
ковскии
когда
когьгилуи
код
кода
кодал
коде
кодекс
кодекса
кодоб
кодобе
кодов
кодор
коды
кожуун
кои
коктюбеи
кол
кола
количества
количество
коллеги
коллектив
коллектива
коллективы
коло
колоб
колода
колодезь
коломенскии
колониалияб
колониял
колумбия
колхоз
колхозалъул
команда
командир
командои
команды
коми
комиссия
комитет
комитета
комитеталъул
комментариев
комментарии
комментариял
коммуна
коммунистазул
компания
компаниялъул
компас
компаса
комплекс
композитор
композиция
компонент
комсомольскии
комсомольское
конаковскии
конго
конгоялъул
конгресса
конец
коническои
кония
конкурс
коношскии
консенсус
консерватизм
константа
константин
константинов
константинова
константы
конституция
конституциялда
конституциялъул
конституциялъулаб
конструкции
конструкция
консул
консулал
консультации
континент
континенталияб
контроль
конференция
конфликт
конфликта
конфликтал
конца
конце
концепция
коньяк
коньякалъул
координат
координатал
координатам
координаты
коп
копирования
копия
копскии
копт
кор
коралъул
коран
корана
кореи
корея
король
коронаялъул
короткии
корр
корректно
корсаковскии
кортала
коса
косово
коста
костек
кострома
костромская
кот
котласскии
которая
которого
которое
которои
котором
которую
которые
которыи
которым
которых
коч
кочкин
кочубеи
кочӏолъ
кочӏохъан
кошехабльскии
коэффициент
кпссалъул
краи
красная
красноармеи
красноборскии
красногвардеи
красногорскии
краснодар
краснодарскии
красное
краснооктябрьскии
краснооктябрьское
красносельское
краснослободскии
красноульское
краснохолмскии
красноярскии
красныи
краткая
краткии
крауссида
краю
края
кремль
кризис
критерии
критик
критика
криштиану
кроме
кромскои
кротоналдаса
кругосвет
кругу
крупнеи
крупные
крым
крымскии
кто
ку
куб
куба
кубачи
кубинскии
кубок
кувеи
кувшиновскии
куг
кугарчинскии
кудалиб
кудалиса
куделдерил
куделдерица
кудиябросо
куду
кудутль
кужорское
кузнецовское
куи
кукам
кул
кулецма
кули
кулинскии
куллар
кульзеб
культура
культурияб
культуры
кум
кума
кумакалдалъун
кумек
кумекалдалъун
кумекалъе
кумекалъул
кумекалъулаб
кумекчи
кумли
кумук
кумух
кунбатар
кунгурскии
кунки
курак
курахскии
курашица
курган
курганская
курганскии
курд
курдал
курдистан
куркент
куркимахи
курми
курорт
курс
курсив
курсивом
курск
курская
курскии
куруш
кут
кутакаб
кутакал
кутакалда
кутиша
кутлаб
кутул
куц
куцалда
куцалъул
куч
кучідул
кучӏдузул
кучӏдул
куюргазинскии
къ
къабарда
къабул
къавм
къавмазул
къавмал
къавмалъул
къавуда
къаг
къагьир
къагьира
къагьираялъул
къагіида
къагіидаби
къагіидабиги
къагіидаялда
къагіидаялъ
къагіидаялъул
къагӏида
къагӏидаби
къагӏидаялда
къагӏидаялъ
къадада
къадал
къадалӏ
къадар
къадарал
къадаралда
къадаралдаса
къадаралде
къадаралъул
къадаралъулаб
къаде
къади
къадие
къадил
къадиласул
къадилъун
къадица
къадиясул
къадру
къажар
къажаразул
къажарал
къазвин
къазмаляр
къаи
къалам
къалеб
къали
къалъул
къамилухъ
къамус
къамусал
къан
къана
къанаг
къанагіат
къанагӏат
къанагӏатал
къанун
къануназда
къануназул
къанунал
къануналда
къанунияб
къануниял
къараб
къарал
къаралуазулгӏоралъул
къарахъ
къарахъа
къарачаи
къарби
къаркъала
къасд
къаси
къахӏиб
къач
къвак
къвакіараб
къвакӏараб
къвакӏарал
къвариг
къваригӏараб
къваригӏарал
къваригӏун
къваридаб
къварилъи
къват
къватіибе
къватіиве
къватіире
къватіисеб
къватіисел
къватӏ
къватӏиб
къватӏибе
къватӏив
къватӏиве
къватӏир
къватӏире
къватӏиса
къватӏисеб
къватӏисел
къебед
къебелъи
къед
къеди
къедиса
къеи
къеркьеи
къеркьеял
къеркьеялъул
къех
къец
къиблаяб
къиблаябгун
къилабгун
къилабияб
къима
къимат
къиматаб
къиматал
къираласул
къиралат
къиралаталъул
къиралияб
къираллъиялъул
къиса
къисмат
къиямасеб
къо
къоги
къого
къои
къокъ
къокъа
къокъаб
къокъабазда
къокъаби
къокъал
къокъаялда
къокъаялъ
къокъаялъул
къокъго
къола
къоло
къолъун
къоно
къорода
къородаса
къосарал
къот
къотіел
къотіелалда
къотіи
къотіиялъул
къотӏана
къотӏи
къотӏун
къояз
къоязул
къоял
къоялда
къоялдаса
къоялдасан
къоялде
къоялъ
къоялъги
къоялъул
къуват
къуватаб
къуватав
къуватаз
къуватазда
къуватазул
къуватал
къуваталда
къуваталдалъун
къуваталъул
къудукьа
къум
къун
къункъра
къункъраби
къураи
къурамух
къурбан
къуруш
къуръан
къуръаналда
къуръаналъул
кь
кьаби
кьабизаби
кьабизабиялъ
кьабизабиялъул
кьабун
кьал
кьвагьи
кьвагьулеб
кье
кьезе
кьезеги
кьеи
кьенсерухъ
кьер
кьеразул
кьерал
кьералъ
кьералъул
кьеч
кьечіо
кьеялда
кьеялъе
кьеялъул
кьеян
кьибил
кьибилалда
кьибилалъул
кьижун
кьили
кьо
кьов
кьовул
кьоге
кьогъоб
кьола
кьолаан
кьолеб
кьолев
кьолезде
кьолел
кьохъа
кьун
кьуна
кьунгутіиялъе
кьураб
кьурабго
кьурав
кьурал
кьурди
кьурул
кьуч
кьучі
кьучіаб
кьучіалда
кьучічі
кьучӏ
кьучӏаб
кьучӏалда
кэш
кяхулаи
кіал
кіалалъул
кіалгіа
кіалзул
кіалъа
кіалъаи
кіалъала
кіалъалезул
кіалъалел
кіанціизе
кіанціула
кіанціун
кіахеталъул
кіахети
кіахетиялъул
ківар
кіи
кіиабилеб
кіиабилев
кіиабилеи
кіиазаралда
кіиго
кіижубараб
кіиябго
кіиявго
кіодо
кіудияб
кіудияв
кіудияи
кіудиял
кіул
кӏ
кӏал
кӏалгӏа
кӏалзул
кӏалъазе
кӏалъаи
кӏалъалезул
кӏалъалел
кӏанцӏана
кӏанцӏи
кӏанцӏун
кӏвана
кӏвар
кӏи
кӏиабилеб
кӏиабилеи
кӏиабилел
кӏиго
кӏижурарал
кӏирекъараб
кӏицӏул
кӏиябго
кӏиялго
кӏкӏ
кӏкӏал
кӏкӏалал
кӏкӏалахъ
кӏкӏаралал
кӏкӏаратӏа
кӏкӏаратӏаса
кӏодо
кӏодолъи
кӏола
кӏолареб
кӏолеб
кӏолев
кӏособ
кӏочон
кӏудияб
кӏудияв
кӏудиял
кӏутӏбузулал
л
ла
лабиал
лабиализация
лабиаликъаб
лабиалияб
лабиалиял
лабиаллъараб
лабиаллъарал
лабиаллъи
лабиаллъичіеб
лабиаллъичӏеб
лабиоденталияб
лаваша
лага
лагадухъ
лагъ
лагъасе
лагъасул
лагъзадерида
лагъзал
лагълъи
ладерил
лаз
лаи
лак
лакал
лакониялдаса
лакскии
лакского
лакъав
лакълакъ
лал
лам
ланда
ланка
лаос
лат
латвия
латералияб
латин
латиназул
латиналда
латыни
лауреат
ле
леб
лебалав
лебалал
лев
леваши
левашинскии
левого
левои
левому
легенда
лезги
лезгин
лезгиял
леи
лек
лексика
лексикияб
лел
ленин
ленина
ленинаул
ленинград
ленинградская
ленинил
ленинкент
ленинскии
ленскии
леонид
лесничество
леснои
лет
летопись
лз
ли
либ
либо
ливан
ливиялъул
лигатураби
лигаялъул
лидер
лидерства
лидия
лингва
лингвист
лингвистика
лингвистикияб
лингволабиалияб
линк
линкал
липецкая
лир
лиса
лит
литва
литература
литературияб
литературы
лихославльскии
лихтенштеи
лица
личных
лишь
лковскии
ло
лов
лович
ловскии
ловское
лог
логика
логотип
логоялъул
лок
локатив
локтевскии
лологонитль
ломоносов
лондон
лотошинскии
лоу
лу
лугби
луи
лурал
лурестан
луховицкии
луции
лучше
лъ
лъа
лъабабго
лъабабилеб
лъабабилев
лъабабилеи
лъабго
лъабжубараб
лъабкъоялда
лъаг
лъагіалида
лъагіалил
лъагіел
лъагӏалида
лъагӏалил
лъагӏан
лъагӏелухъ
лъадал
лъади
лъадилъун
лъазаби
лъазабизе
лъазабула
лъазабулеб
лъазабун
лъазабуна
лъазабураб
лъазаризе
лъазарула
лъазарун
лъазе
лъаи
лъала
лъалаан
лъалареб
лъаларев
лъаларел
лъаларо
лъалеб
лъалев
лъалеи
лъалел
лъалхъул
лъамалъи
лъамел
лъан
лъар
лъараб
лъарав
лъараг
лъарагі
лъарагіал
лъарагӏ
лъарагӏал
лъарагӏлъиялда
лъарал
лъаралъ
лъарат
лъаратіа
лъаратӏа
лъаратӏаса
лъарахъ
лъачӏого
лъаялъул
лъе
лъебералда
лъеберго
лъеда
лъезе
лъеи
лъел
лъелго
лъеца
лъеяв
лъи
лъида
лъидаго
лъие
лъик
лъикі
лъикіаб
лъикіал
лъикілъи
лъикӏ
лъикӏаб
лъикӏав
лъикӏал
лъикӏаланго
лъикӏго
лъикӏлъи
лъил
лъим
лъимал
лъималаз
лъималазда
лъималазе
лъималазул
лъималги
лъималлъун
лъималъул
лъимги
лъимер
лъимерлъи
лъин
лъица
лълъ
лълъар
лълъел
лъоге
лъола
лъолеб
лъолел
лъуг
лъугьа
лъугьана
лъугьараб
лъугьарав
лъугьарал
лъугьин
лъугьинабизе
лъугьиналъул
лъугьинарулел
лъугьине
лъугьун
лъугьуна
лъугьунаго
лъугьунеб
лъугьунел
лъугіараб
лъугіизабуна
лъугіизабураб
лъугӏана
лъугӏараб
лъугӏарал
лъугӏи
лъугӏизегӏан
лъугӏун
лъудби
лъудбузул
лъукъана
лъукъун
лъул
лъун
лъуна
лъураб
лъурав
лъуразул
лъурал
лъутана
лъутун
лъухъаб
лы
ль
львовскии
льн
любое
любои
любом
любым
людеи
люди
людмила
люксембург
люксембургалъул
лютер
лякалізацыи
ляхлинскии
ліугьана
лӏ
лӏугьа
лӏугьана
лӏугьараб
лӏугьарал
лӏугьин
лӏугьинабула
лӏугьиналъул
лӏугьине
лӏугьун
лӏугьуна
лӏугьунаго
лӏугьунеб
лӏугьунел
лӏугӏун
м
ма
маали
маатхорнефрура
мавлет
мавлид
мавлидал
мавраевасул
маг
магадан
магарамкентскии
магомед
магомедов
магъало
магъар
магърибалда
магъулазул
магьди
магіарул
магіарулав
магіарулазул
магіарулал
магіданал
магіишат
магіишаталъул
магіна
магінаби
магінаги
магінаялда
магінаялъул
магӏарда
магӏарде
магӏарул
магӏарулав
магӏарулазда
магӏарулазе
магӏарулазул
магӏарулал
магӏарухъ
магӏишат
магӏишаталъул
магӏна
магӏнаби
магӏнаги
магӏнаялда
магӏу
мад
маданияб
маданиял
маданият
маданияталда
маданияталъул
мадина
мадинаялда
мадинаялде
мадраса
мадрасаби
мадрасаялда
мадугьалихъ
мадхан
мажгит
мажгитал
мажгиталда
мажгиталъул
мажгитги
мажиду
мажлис
мажлисалда
мажлисалъул
мажмуг
мажмугӏ
мазада
мазадинскии
мазандаран
мазгарул
мазгьаб
мазгьабалъул
мазинскии
маи
мак
мака
макарьевскии
македон
македония
македониялъул
македонскии
македонского
маки
макиса
макка
маккаялда
маккаялдаса
макс
максатихинскии
максим
максимум
макскии
мактаб
макъаб
макъала
макъалабазда
макъалабазде
макъалабазе
макъалабазул
макъалаби
макъалабиги
макъалаялда
макъалаялъул
макъсуд
макьу
мал
малаи
малаикзаби
малая
малаялам
малик
маликлъиялъул
малиновскии
малиялъул
малла
малое
малоярославецкии
малъ
малъа
малъараб
малъи
малъизе
малълъараб
малъула
малъулаан
малъуларо
малъулеб
малъун
малыи
мамааул
мамаевскои
мамедкала
ман
манас
манаскент
мангъулазул
манзил
манзилалда
мани
мание
манил
манилазул
манов
мансии
мансур
мантуровскии
манчестер
мапа
мар
маргьаби
маргьадулал
мари
марии
марин
марина
марино
мария
марк
марка
марказ
марказал
марказияб
марказлъун
марказлъунги
маркера
маркъо
мармар
марокко
марс
марсель
март
марта
мартабат
марталда
марталъ
мартин
маршрут
марьям
масала
масдар
масжид
масихі
маср
масса
массив
мастер
масъала
масъалаби
мат
матаб
матал
матвеево
математик
математика
материал
материалал
материалов
материалы
мах
махачкала
махи
махсара
махх
маххул
маххулнухлул
махщел
махіачхъала
махіачхъалаялда
махіачхъалаялдаса
махіачхъалаялъул
махімуд
махӏач
махӏачхъала
махӏачхъалаялда
махӏачхъалаялдаса
махӏачхъалаялъул
махӏмуд
махӏмудги
махӏмудие
махӏмудил
махӏмудица
мац
маці
маціазда
маціаздаса
маціаздасан
маціазде
маціазул
маціазулаб
маціал
маціалда
маціалдаса
маціалде
маціалъ
маціалъе
маціалъул
маціги
мацілъун
мацӏ
мацӏазда
мацӏаздаса
мацӏазде
мацӏазул
мацӏал
мацӏалги
мацӏалда
мацӏалдаса
мацӏалде
мацӏалъ
мацӏалъе
мацӏалъул
мацӏги
мацӏлъун
мач
мачада
машгуьрал
машгъул
машгьад
машгьур
машгьураб
машгьураблъун
машгьурав
машгьурал
машгьурлъана
машгьурлъи
машина
машинабазул
машрикъ
машрикъалда
машрикъалъул
машрикъияб
мая
маялда
маялъ
маялъул
мвд
мвф
мглинскии
мгу
мгӏ
ме
мег
мегеб
мегрел
мегіер
мегіералъул
мегӏер
мегӏералъул
медал
медалал
медаль
медвенскии
медиа
медиафаи
медицина
медицинаялъул
медынскии
между
международнои
международныи
меи
мексика
мексикаялъул
мектеб
мекъаб
мекъи
мелеузовскии
мелъелтӏа
мелъелтӏаса
мемориалияб
мемфисалда
менее
меня
меридиан
меридиана
меридианом
месед
меседил
меседилаб
мессениялдаса
места
местах
месте
местерух
местное
место
месяц
месяца
мета
металлургияб
метатеза
метер
метка
метки
метр
метра
метрада
метралъул
метраялде
метраялъ
метраялъул
метро
метрополитен
меусиша
мех
мехалда
мехалъ
механика
мехтел
мечетлинскии
мечеть
ми
миарсо
миатли
мидиялъул
микки
микьабилеб
микьго
милициялъул
миллат
миллатазда
миллатазул
миллатал
миллаталъул
миллатияб
миллиард
миллион
миллионалдаса
миллионалде
миллияб
миллиябгун
миллиял
милютинскии
мим
мин
мина
минаби
минаялда
минерал
минералазул
минералал
минералалъул
мини
минималияб
минимум
министер
министерасул
министерзабазул
министерзаби
министерлъиялъ
министерлъиялъул
министерлъун
министерство
министр
министра
министрасул
минорскии
минск
минстрои
минусом
минут
минуталъ
минутах
мир
мира
мире
мирза
мирныи
мировая
мировои
мисал
мисалал
мисалалъе
мискин
мискинаб
мискинджа
миср
митаги
митрополит
мифология
михаи
михаил
мичурина
мишкинскии
мишлеш
миякинскии
миякьуб
млн
млрд
мм
мммм
мнение
мнением
мнении
мнению
многие
многих
много
мо
мобильнои
могох
могут
могьохъ
модель
модулем
модули
модуль
модуля
модусалъул
можаи
может
можете
можно
мои
мок
моксоб
молдова
молодая
молоде
молоковскии
момент
монако
монакоялъул
монархия
монастырь
монголия
монета
моноэтникияб
монументазда
монументал
мордовия
мордовскии
морское
морскои
морфология
морфологияб
мосальскии
москва
москваялда
москваялде
москваялъул
москве
москвы
московская
московскии
мост
мох
моц
моці
моціазул
моціал
моціалъ
моціалъул
моціги
моцірол
моцӏ
моцӏал
моцӏалда
моцӏалъ
моцӏалъул
мочӏохъ
мошенскои
мс
му
муг
мугарты
мугерган
муги
мугурух
мугъ
мугъчіваи
мугъчіваял
мугъчӏваял
мугьажирзабазул
мугірузда
мугірузул
мугірул
мугӏалим
мугӏалимзаби
мугӏрузда
мугӏрузде
мугӏрузул
мугӏрузулаб
мугӏрул
муд
мужукаи
музаим
музеи
музеялда
музика
музыка
музыкалияб
музыкалиял
музыкального
музыкальныи
музыкальных
музыкант
музыканта
музыкаялъул
муи
муил
мукъадасаб
мукъадасав
мукъадасал
мулебки
мулла
мун
мунагьал
мунго
муниса
муниципалитет
муниципалитета
муниципалитеталъул
муниципалитеты
муниципалияб
муниципалиял
муниципального
муниципальное
муниципальныи
муниципальным
муниципальных
муницпалияб
мурад
мурада
мурадалда
мурадалде
мурадгун
мурадил
мурадияб
мургук
муридзабаз
мурси
муртазаг
муртазгӏали
муса
мусаев
мусалав
мусалас
мусаласул
мусаясул
муслах
муслим
муслимил
муссолини
муссолинил
муссолиница
мустафа
мустах
мустахіикъав
мустахӏикъав
мут
мутаг
мутагӏилзаби
мух
мухаммад
мухтар
мухъ
мухъазда
мухъазде
мухъазе
мухъазул
мухъазулгун
мухъал
мухъалгун
мухъалда
мухъалдаса
мухъалде
мухъалъ
мухъалъул
мухъалъулгун
мухь
мухьдахъ
мухіамад
мухіамадгіали
мухіамадов
мухіаммад
мухіканаб
мухіканго
мухӏамад
мухӏамадгӏали
мухӏамадил
мухӏамадилазул
мухӏамадица
мухӏамадов
мухӏамадсаи
мухӏамадтӏагьир
мухӏаммад
мухӏарамхур
мухӏкан
мухӏканаб
мухӏканго
муцалаул
мушули
муъминат
муъминзабазул
мценскии
мцхета
мы
мыс
мытищинскии
мэн
мэр
мю
мюзикл
мюнхен
мюнхеналда
мюнхеналъул
мюрего
н
на
наб
наби
набоков
набокова
набора
набрать
навгӏ
навгӏал
навигации
навигациялъул
навлинскии
нагагь
наги
награды
над
надар
надир
надо
надписи
надпись
нажасаб
нажмудин
нажмудинил
назализация
назалияб
название
названием
названии
названия
названные
назипат
назмаби
назначен
назначение
назначении
называть
наи
наиб
наибасул
наибзаби
наиблъи
наиблъун
наиболее
наибства
наименование
нак
накск
накскии
наку
накъада
накъшубандияб
налда
наличие
налъи
налъул
нам
наме
нами
намибия
намус
наоборот
написания
наполеон
направленнои
например
напрямую
наро
народа
народная
народного
народнои
народов
народы
нарт
нартазул
нартгун
нартул
нарушение
нас
населе
население
населения
насих
наскент
наслабазда
наслабазул
наслаби
наслег
наследие
наслу
наслуялъул
насранияб
насраниязул
насраниял
насрудин
наст
настоящее
настрои
насх
насху
наталья
нати
нато
натоялъул
натриялъул
натырбовское
наук
наука
науки
научных
нах
нахгин
нахгун
находится
находятся
нахъ
нахъа
нахъасан
нахъбакі
нахъбакӏ
нахъбуссиналъул
нахъвуссуна
нахъе
нахъисеб
нахъисел
нахъруссине
национализм
националияб
национальныи
нацистаз
нацистазул
нацистияб
начала
началась
начале
начало
начиная
начӏада
наш
нашеи
наших
ная
наялда
не
неверныи
невскии
невское
него
недели
неделю
недостаток
нее
независимости
неи
нек
некии
неклиновскии
некорректно
некоторые
некоторых
некоузскии
некі
некісияб
некісиял
некӏо
некӏсияб
некӏсиял
нелъер
нельзя
нем
немец
немецкии
немцав
немцазул
ненец
ненецкии
необходимо
необходимости
необязательные
необязательныи
неоднозначность
непал
непалалъул
непосредственно
непустое
непустом
нер
нескольких
несколько
нестандартная
несуществующее
несуществующии
нет
нефернеферуатен
нефертари
нефертарил
нечаевка
нечаевскии
ни
нива
ниг
нидерландазул
ниж
ниже
нижегородская
нижеда
нижер
нижеца
нижнее
нижнеи
нижнии
нижняя
низам
низами
ник
никита
никогда
николаевич
николаи
никольское
никто
нил
нилалъул
нилъ
нилъеда
нилъее
нилъер
нилъерго
нилъехъе
нилъеца
нилӏер
ним
нина
них
ничего
нишапур
нияв
ният
нки
нная
нного
нное
ннои
нные
нныи
нными
нных
но
нобелевскои
нобелил
нов
новая
новгород
новгородская
новеи
новембер
новембералда
новка
ново
новогагатли
нового
новодмитриевка
новое
новои
новокаре
новолакскии
новолакское
новоржевскии
новоромановка
новосибирск
новосибирская
новососитли
новости
новотроицкое
новоусманскии
новочуртах
новская
новскии
новское
новые
новыи
ногаи
ное
ножаи
нои
нок
номер
номера
номинативияб
норвегия
норвегиялъул
нохъо
ноябр
ноябралда
ноябралъ
ноябрь
ноября
нскии
нт
нубия
нубиялда
нуг
нугъаи
нугъаял
нугілъи
нугӏ
нугӏлъи
нуж
нужеда
нужер
нужеца
нужно
нужны
нулевым
нунивакалъул
нур
нурадилово
нурмух
нурмухӏамадов
нус
нусабилеб
нусго
нуси
нух
нуха
нухаздасан
нухал
нухалда
нухалъ
нухалъул
нухда
нухдасан
нухде
нухлул
нухмалъи
нухмалъиял
нухмалъиялда
нухмалъиялъул
нухмалъулев
нухмалъулевлъун
нуцабазул
нуцаби
нуцал
нуцаласул
нуцалзабазул
нуцалзаби
нуцалил
нуцаллъи
нуцаллъиялда
нуцаллъиялъул
нуцаллъун
нуцалхан
нуцӏа
ны
ные
ныи
ныне
нью
ньютон
нюгди
няндомскии
о
оао
об
обе
обеспечению
обзор
обит
област
областалъул
областеи
области
область
облегчения
обливскии
обновления
ободияв
ободиясул
обозначение
обозначения
обозрение
обороны
обох
образование
образовании
образования
образованиям
образом
обратите
обратиться
обратнои
обращение
обрезки
обс
обсудить
обсуждение
обсуждении
обсуждения
обсуждениях
обтекание
обувь
обход
общая
общеи
общем
общества
общественныи
общество
общие
общии
общими
общих
объе
объединение
объект
объекта
объектазул
объектал
объектами
объектов
объекты
объявления
обычно
обязательно
обязательныи
ов
ове
огни
ого
огузер
огь
огьанн
огюст
один
одинцовскии
одна
однако
одним
одно
одновременно
одного
однои
одном
одну
одо
одолъи
ое
озе
озера
озеро
ознакомлен
ознакомьтесь
ои
ок
окато
океан
океаналъул
океания
около
округ
округа
округал
округалда
округалъул
округов
октавиан
октобер
октобералда
октябр
октябралда
октябралъ
октябралъул
октябрь
октябрьскии
октябрьское
октября
окуловскии
ол
ола
олабго
оларо
олбол
олго
оле
олеб
оленинскии
олимпиял
олимпиялъул
оло
ололъун
олохъанаб
олъ
олъи
ольга
ом
омск
омская
он
она
онал
оналда
оналде
оналъул
онам
оне
они
ониги
онлаи
оно
онов
ону
оон
ооо
оп
операция
описание
описания
определе
определение
определяет
опрос
опубликован
опущен
опыт
ор
орада
оралда
оралъул
орган
органал
организации
организация
организациялъул
организм
организма
орден
ордена
орденалъул
оре
оренбургская
орехово
оригинал
оригиналияб
ориентация
орикс
орит
орк
оркачи
орловская
орловскии
орота
орта
ортодоксалияб
орфография
орхъи
орхъода
осетия
оси
осман
основании
основатель
основе
основного
основное
основнои
основном
основные
особенности
оставить
остальные
остальных
остан
останазул
останал
останалда
останалъул
осташковскии
остров
острова
островскии
осуществляется
ось
осями
от
отар
отв
ответственность
ответы
отд
отделение
отделения
отдельных
отель
отечественнои
отзывов
отзывы
открыт
отладочная
отличается
отличие
отмена
относительно
отношении
отображает
отображается
отображаться
отображаются
отображение
отображения
отрадныи
отраслал
отрицательно
отсутствия
отсутствует
отсутствуют
отче
официалго
официалияб
официалиял
официальныи
оформление
оформлении
оформления
оформленного
оформленых
охли
оц
оцебе
оцебесеб
оцевесев
оценить
оценка
оцересел
очень
очерк
очерки
очон
ошибка
ошибке
ошибки
ошибок
п
па
пабазул
паби
павел
павлович
павлово
павловскии
пагьму
падар
падарал
падеж
паи
пакистан
пакистаналъул
палаталияб
палато
палъун
памятник
памятники
памятников
панама
панда
пандемия
панз
панорама
пансион
папа
пар
парагваи
параллели
параллелияб
параллель
параметр
параметра
параметраби
параметрал
параметрами
параметрах
параметре
параметров
параметром
параметру
параметры
паранг
паранс
парансиялъул
параул
пардав
париж
парижа
парижалда
парижалъул
паризаяб
парк
парламент
парламенталда
парламенталъ
парламенталъул
парламенталъулаб
парс
парсазул
парсал
парсалъул
парсера
партизаназул
партии
партия
партиял
партиялъ
партиялъул
партне
парфиялъул
парччахӏзаби
пассажирал
пат
патагӏали
патрулирование
пахарь
пахьул
пациенс
пача
пачалихъ
пачалихъазда
пачалихъазде
пачалихъазул
пачалихъал
пачалихъалда
пачалихъалдаса
пачалихъалде
пачалихъалъ
пачалихъалъе
пачалихъалъул
пачалихъалъулаб
пачалихъияб
пачалихъияв
пачалихъиял
пачалихълъун
пачалъи
пачалъиялъул
пачаялъул
пачаяс
пачаясе
пачаясул
паша
пашал
паялда
паялде
паялъул
пе
певец
певица
педагог
пеи
пекин
пензенская
пентаграф
пер
первая
первого
первое
первои
первом
первомаи
первыи
первым
первых
перевод
перевода
переводе
переводить
переводом
переводчик
перед
передае
передан
передать
передаче
переи
перемышльскии
перенаправление
перенаправлении
перенаправления
перенос
переписи
перепись
пересекает
пересечения
переславскии
пересмотра
период
периодал
периодалда
периодалъул
пермскии
персазул
персиялъул
персонажал
персоналии
персоналиял
перу
песочница
пестовскии
петер
петербург
петербурга
петербургалда
петербургалъул
петербурге
петербургскии
петербургскои
петр
петра
петрил
петров
петрович
петровскии
петропавловское
петушинскии
печати
печорскии
пи
пианист
пикраби
пикру
пикруги
пикруялда
пикселях
пил
пиргіавн
пиргіавназул
пиргіавнал
пиргіавнас
пиргіавнасул
пиргіавнлъун
пиргӏан
писания
писатель
писать
письмо
питер
питна
пихъ
пиша
пкс
план
планалда
планета
планирования
плесецкии
плодопитомник
плозив
площади
площадь
плюс
по
победа
побединское
поведение
поведения
повесть
поводу
повторного
погибли
под
подгорныи
поддерживает
поддержку
поделиться
подобные
подписи
подпись
подробнее
подробности
подробную
подставит
подставится
подставляться
подстановкои
подстраница
подстраницах
подстраницу
подстраницы
пожалуи
пожеланиях
позволяет
позволяющая
позиционнои
позиционные
позиционных
позиция
позициялда
позициялъе
позкарта
поиск
поиска
пока
показ
показан
показать
показывает
показывать
покровскии
покровское
пол
поле
полеи
политиздат
политик
политика
политики
политикияб
политикияв
политикиял
политическая
политология
полк
полкалъул
полковник
полная
полно
полного
полное
полностью
полную
полныи
половине
половины
положение
положения
получает
получать
получение
получения
получившиеся
получить
полушарии
полушария
поль
пользователеи
польскии
польша
полюса
поля
поляна
полярная
помимо
помните
помочь
помощи
помощник
помощью
понадобятся
понежукаи
пономаре
поныровскии
понять
поп
попадает
попечителеи
популярияб
порт
портал
портала
порталазул
порталал
порталалъул
порталы
портрет
португал
португалия
порховскии
порядке
порядок
посадскии
посвяще
посе
поселение
поселении
поселения
поселениял
поселениялъул
послание
после
последнего
последнеи
последние
последнии
посмотреть
пособие
поссовет
пост
посталвеоларияб
постановщик
постоянного
построение
построены
постум
потери
потребуется
почалъул
поче
почему
почепскии
починок
почта
почти
почтовые
пошехонскии
поэзия
поэзиялда
поэзиялъул
поэма
поэмаялъул
поэт
поэтому
появляется
прав
права
правда
правил
правила
правилам
правилами
правило
правительства
правительство
править
правки
право
правого
правои
правок
правом
правому
правоприменения
православие
православнои
прага
праздник
практика
практикаялда
практикияб
пре
пределами
предикатлъун
предложение
предложении
предложения
предмет
предметияб
предназначен
председателлъун
председатель
председателя
представители
представительство
представлены
представляет
предупреждение
предупреждения
президент
президента
президентазул
президентал
президентас
президентасул
президентасулаб
президентлъун
президиумалъул
преимущественно
преимущество
премии
премия
премиялъул
премьер
преобразования
пресс
при
приведе
приведены
привет
приволжскии
приглашаем
пригодится
прие
призе
признае
применению
применяется
применять
пример
примера
примере
примеров
примеру
примеры
примечание
примечании
примечания
приморскии
принадлежал
принимает
принимать
принимают
принц
принцип
принципал
принципы
принял
приняли
принять
присваивается
присвоено
присоединиться
присоединяи
причинои
про
пробелами
пробелов
пробелы
проблема
проблемы
проверка
проверки
проверяющии
провинция
провинциялда
провинциялдаса
провинциялъул
прогноз
проголосовать
программа
прогресс
прогрессивияб
продолжительность
продолжить
продуктивиял
продюсер
проект
проекта
проектазул
проектал
проекталъул
проектах
проекте
проектов
проекту
проекты
проекции
проекция
проза
прозаик
прои
произведении
производит
производства
произвольные
происходит
происхождение
происхождения
пролетарскии
промышленностал
пропаганда
прорисована
просит
просто
простота
пространства
пространстве
пространственных
пространство
против
противник
прото
профессии
профессионалияб
профессор
профиль
проходит
процент
процентах
процесс
процессал
прочих
прямая
прямои
псевдонимы
психология
псковская
птахіил
птолемеи
птолемеязул
публии
публикации
публицист
пугаче
пуланаб
пункт
пунктов
пункты
пурчӏина
пустои
пустошкинскии
пустые
пути
путин
путинил
путь
пучежскии
пушкин
пушкинил
пушт
пушту
пциг
пче
пчегатлукаи
пьесаби
пятилетка
р
ра
раб
работа
работает
работать
работают
работе
работу
работы
рабочеи
равен
равно
равнопромежуточнои
равноугольная
равным
раг
рагъ
рагъазул
рагъазулъ
рагъал
рагъалда
рагъалдаса
рагъалъ
рагъалъул
рагъана
рагъда
рагъдаса
рагъде
рагъизе
рагъул
рагъулаб
рагъулабгун
рагъулав
рагъулал
рагъулъ
рагъулӏ
рагъухъабаз
рагъухъаби
рагъухъан
рагьана
рагьараб
рагьаразда
рагьаразде
рагьаразе
рагьаразул
рагьарал
рагьаралги
рагьаралъул
рагьи
рагьизе
рагьукъаб
рагьукъазда
рагьукъазул
рагьукъал
рагьукъалъ
рагьула
рагьун
рагі
рагіабазда
рагіабазул
рагіабазулъ
рагіаби
рагіалда
рагіалде
рагіарал
рагіи
рагіиги
рагіиялда
рагіиялъул
рагіудаса
рагіудасан
рагіул
рагӏабаздаса
рагӏабазе
рагӏабазул
рагӏабазулъ
рагӏабазулӏ
рагӏаби
рагӏал
рагӏалда
рагӏалде
рагӏарав
рагӏарал
рагӏи
рагӏиялдаса
рагӏиялъул
рагӏиялъулӏ
рагӏудаса
рагӏул
рагӏулӏ
радал
радианах
радианы
радио
радиус
ражаб
раз
развитию
развития
раздел
раздела
разделах
разделе
разделитель
разделов
разделы
раздолье
разе
рази
разилъи
разилъун
различные
различных
размер
размера
разметки
разметку
размещение
разных
разработке
разъезд
раи
рак
ракета
раккана
ракъдаллъиялъул
ракълил
ракь
ракьа
ракьазда
ракьазде
ракьазул
ракьал
ракьалги
ракьалда
ракьалдаса
ракьалдасан
ракьалде
ракьалъул
ракьанде
ракьги
ракьдагьоркьосеб
ракьул
ракьулъан
ракьхъваи
ракі
ракіалда
ракіалде
ракӏ
ракӏалда
ракӏалде
рал
рала
ралагье
ралагьун
ралеб
ралел
ралъад
ралъадал
ралъадалда
ралъадалъ
ралъадалъул
ралъдада
ралъдал
ралъдалъе
ралъдаца
рам
рамазан
рамазанов
рамал
раменскии
рамешковскии
рамка
рамки
рамсес
рамсесие
рамсесил
рамсесица
ран
рана
ранее
рарал
рас
расалъи
расалъиялда
расалъиялде
расалъиялъул
расизм
расмияб
расмиял
распоряжению
распростране
расстояние
рассылается
растягивается
растяжение
расул
расулил
расче
расширения
рат
ратана
ратарал
ратизе
ратила
ратлуб
ратула
ратун
ратіа
ратіалъул
ратӏа
рах
рахас
рахата
рахине
рахъ
рахъазул
рахъал
рахъалда
рахъалдаса
рахъалдасан
рахъалде
рахъалдехун
рахъалъ
рахъалъан
рахъалъул
рахъана
рахъарал
рахъги
рахъи
рахъизе
рахъин
рахъиналъе
рахъинаруна
рахъине
рахъула
рахъулаан
рахъулеб
рахъулел
рахъун
рахь
рахьдал
рахӏат
рац
рач
рачана
рачарал
рачел
рачелал
рачине
рачун
рачуна
рачунеб
рачунел
рачіана
рачіарал
рачіин
рачіул
рачіун
рачіуна
рачіунел
рачӏ
рачӏана
рачӏарал
рачӏун
рачӏуна
рачӏунел
ращалъи
ргькъ
рд
реакция
реализация
революции
революционер
революция
революциялдаса
революциялъул
рег
регент
регион
регионал
регионалда
регионалъул
регионов
регионы
регистрация
регистру
регіелал
регӏел
регӏелал
регӏелалгун
ред
редактировании
редактирования
редактор
редакторов
редакция
редукция
реж
режим
режиссе
резави
резиденция
результат
результатах
результате
результатом
результаты
реи
рек
реки
рекомендации
рекомендуется
реконструкция
рекорд
рекъав
рекъараб
рекъарал
рекъел
рекъола
рекъон
рекіарал
рекіел
рекӏее
рекӏел
рекӏелъ
рекӏун
релъараб
релъарал
релълъараб
релълъарал
релълъун
рельеф
рес
ресал
ресги
респу
республика
республикабазул
республикаби
республикалъул
республикаялда
республикаялъул
республикаялъулаб
республике
республики
ресурсы
рет
ретрофлексияб
ретіел
ретӏарав
ретӏел
реформа
реформации
реформация
реформациялъул
рех
рехалъул
рехана
рехараб
рехги
рехел
рехи
рехизе
рехсараб
рехсарал
рехсарасул
рехсезе
рехсеи
рехсолеб
рехсон
рехула
рехун
рехъен
рец
рецц
рецӏел
реч
речи
решение
решения
решт
рештіун
рештӏун
рещт
рещтӏун
ржаксинскии
ржевскии
ри
риа
ригь
ригьалда
ригьин
рии
риидал
риидалил
рик
рика
рикь
рикьи
рикьизе
рикьула
рикьулаан
рикьун
рикікіад
рикікіана
рикікіен
рикікіенал
рикікіеналги
рикікіеналда
рикікіеналъ
рикікіеналъул
рикікіине
рикікіинчіеб
рикікіинчіого
рикікіун
рикікіуна
рикікіунаан
рикікіунеб
рикікіунел
рикӏкӏад
рикӏкӏана
рикӏкӏен
рикӏкӏиналъул
рикӏкӏине
рикӏкӏинчӏого
рикӏкӏула
рикӏкӏун
рикӏкӏуна
рикӏкӏунаан
рикӏкӏунеб
рималъул
риме
рис
рисгӏоралъул
рисиб
риск
рит
ритіарал
ритіухълъиялъул
ритӏун
риххелал
рихьизари
рихьизаризе
рихьизарула
рихьизарулел
рихьизарун
рихьизарурал
рихьизе
рихьулел
рихьуни
ричард
ричун
риччаи
риччала
риччалел
рищарал
рищиязда
рищиял
рищула
рищун
рия
рияд
риядалъул
рныи
ро
роберт
ров
рово
род
родниковскии
родниковыи
роднои
рождения
роза
рок
рокъо
рокъоб
рокъобе
рокъов
рокъове
рокъор
рокъоре
рокьи
рокьул
рол
ролалда
роли
ролъ
роль
ролях
роман
романал
роналду
роол
роржен
рорженал
рорженалъул
роржунел
рорхатал
рос
росабазда
росабаздасан
росабазе
росабазул
росабалъ
росабалъе
росаби
росабиги
росарал
росасда
росасе
росги
росда
росдада
росдадаса
росдаде
росдае
росдал
росдалаб
росдалгун
росдаца
росноб
росо
россиеи
россии
россииялъул
россия
россиялда
россиялдаса
россиялде
россиялъ
россиялъул
россиялъулаб
россиялъулав
россиялъулгун
ростов
ростовская
ростовскои
росу
росуги
росузакон
росула
росулъ
росулъа
росулъасел
росулъе
росулъун
росулӏ
росулӏе
росун
росуцоял
росуялъе
росуялъул
ротмистр
рохел
рохь
рохьал
рохьоб
роцен
рочах
рочиб
роща
рскии
рских
рское
рстово
рсфср
рсфсралъул
ру
рубас
рублеи
рувики
ругеб
ругез
ругезул
ругел
ругелъул
ругилан
ругин
руго
ругони
ругъелда
ругъжа
ругъжаб
ругъжаса
ругъун
ругьунлъун
рузда
рузман
рузскии
рузул
рук
рукель
рукну
руководства
руководство
руководством
руководству
рукописи
рукъ
рукъал
рукъалда
рукъалдаса
рукъалъул
рукъзал
рукъи
рукъун
рукіа
рукіана
рукіарал
рукіин
рукіине
рукіун
рукіуна
рукіунел
рукӏа
рукӏана
рукӏаниги
рукӏаразул
рукӏарал
рукӏин
рукӏиналъ
рукӏине
рукӏинчӏо
рукӏун
рукӏуна
рукӏунел
рул
рулдаб
рум
румаб
румазул
румалъул
румыния
руниверс
рус
руси
руслан
руссана
руссине
русская
русские
русскии
русским
русских
русско
русского
русское
русскои
русском
руссун
руставели
руставелил
рустави
рутул
рутулал
рутульскии
рух
рухъа
рухіиял
рухӏ
руччабазул
руччаби
руччабиги
рф
ры
рыбинскии
рыбновскии
рюмовское
рядом
рязанская
рязанскии
с
са
сабаб
сабаблъун
сабзевар
сабнова
сабру
саг
сагаси
сагіат
сагіид
сагіидов
сагітил
сагіуд
сагіудиязул
сагіудиялъул
сагӏат
сагӏид
сагӏидов
сагӏтазул
сагӏудиязул
сад
садакъа
садовое
садовыи
сады
сазул
саи
сал
салам
салама
салах
салда
салик
салих
салихӏат
салман
салт
салта
салул
салъул
сам
самара
самарская
самбо
самбоялъул
сами
самилахъ
самого
самое
самои
самоле
самолет
самолеталъул
самостоятельно
самур
самурского
самцхе
самые
самыи
самым
сан
саназ
саназда
санаи
санал
санатория
санатчи
сангар
санигӏортӏа
санкт
санта
санчи
сапар
сапарал
сапаралда
сапарчи
сар
сарагӏурухъ
сараевскии
сараи
сарат
саратан
саратов
саратовская
сардилъ
сарир
сариралде
сариралъул
сасанидазул
сасаниязул
сасикь
саситли
сатурнин
саудовская
саудовскои
сафоново
сафоновскии
сах
саха
сахалинская
сахлъи
сахлъун
сахӏиб
саянскии
сборник
свак
свалат
сванетия
сведении
сведения
свералаби
сверана
свердловская
свердловскии
сверел
сверелазда
сверелал
свери
сверизе
свериялда
свериялъул
сверула
сверун
сверухъ
сверухъе
сверухълъаби
сверухълъи
сверухълъиялда
сверухълъиялъул
свет
светлана
светлая
светлое
светлыи
свистовка
свобода
свободен
свободного
свободное
свободныи
сводешил
свое
своего
своеи
свои
своим
своими
своих
свою
свх
связанные
связанных
связи
связь
святого
святои
священного
сделать
се
себ
себе
себя
севан
севастополь
север
севералда
севералдасан
севералдехун
севергун
северияб
севериябгун
северная
северного
северное
северныи
северо
сегодня
сезон
сеи
сек
секирино
секретарка
секретарь
сел
села
селе
селезенево
селезне
селезневка
селезнево
селезни
селекционныи
селена
селехово
селецкое
селиваниха
селиваново
селивановская
селивановскии
селиве
селиверстово
селижаровскии
селилово
селино
селитьба
селихово
селища
селище
селищи
селищинское
селково
село
сельская
сельскии
сельских
сельское
сельсовет
семе
семнан
сен
сент
сентябр
сентябралда
сентябралъ
сентябрь
сентября
септембер
септембералда
серандит
серб
сербия
сербиялъул
сергеи
сергиево
сергиевское
сергокалинскии
сергъохъала
серебрякова
сериал
сериала
серии
серия
сериязде
сериялъул
серпуховскии
сети
сетил
сеть
си
сибилант
сибиралъул
сивухъ
сигъабазулӏ
сигънагъи
силди
силу
силы
сильди
симбилалда
симбилалъул
символ
символа
символал
символика
символов
симптомал
син
синаи
синаялда
синаялъул
сингапур
сингармонизм
синтаксис
сипат
сипатаб
сипатал
сиражудин
сиражудинилазул
сиреникалъул
сирии
сирия
сириялда
сириялъул
сиртич
систан
система
системаби
системаялда
системаялъул
системе
систему
системы
ситуация
сиух
сиухъ
сифат
сифатазул
сифатал
сифаталъул
сияб
сиял
сиясат
сиясатаб
сиясаталъул
сиясатияб
сиясатиял
сиясатчагіи
сиясатчагӏи
сиясатчи
сиясияб
сиясияв
сиясиял
сиях
сияхі
сияхіазда
сияхіал
сияхіалда
сияхіалде
сияхіалъул
сияхӏ
сияхӏал
сияхӏалда
сияхӏалде
ск
ска
сказка
ская
ские
скии
ских
ско
скобках
скобки
ского
ское
скои
ском
скрыть
славян
славянал
славянскии
славянскои
слева
следствие
следует
следующие
следующии
следующим
следующих
слишком
слобода
слов
слова
словакия
словаре
словарь
словения
слово
служба
службы
служебная
служебных
служит
случае
случаи
случаях
см
смена
смерти
смертная
смертнои
смерть
смещение
сми
смоленск
смоленская
смысле
снизу
снятие
со
собинскии
собои
собрание
собрания
собраниялъул
событие
события
совет
совета
советалде
советалъул
советияб
советияв
советская
советскии
советского
советское
советскои
совместно
совпадает
совпадать
совпадают
современнои
современном
современность
современныи
современных
совхоз
совхоза
согласно
содержание
содержания
содержимое
содержит
создае
создание
создании
создания
создатель
создать
соколов
сокольскии
сокр
солецкии
солнечногорскии
солнечное
соловье
сомон
сон
соназ
соназда
соназде
соназул
сонал
соналда
соналдаса
соналдасан
соналде
соналъ
соналъго
соналъе
соналъул
сонаца
сонги
сонил
сонковскии
сонлъун
сонорияб
сообщение
сообщении
сообщения
сообществ
сообщества
сообщество
сообществом
соответственно
соответствии
соответствовать
соответствует
соответствующеи
соответствующие
соответствующих
соотношение
сордо
сордоялъ
сост
состав
составления
состоит
состоянии
состоянию
софия
социализм
социализмаялъул
социалистикияб
социалистияб
социалияб
социалиял
социально
социум
соч
сочи
союз
союза
союзалъул
спам
спас
спасибо
спб
специальная
специально
специальному
специальные
специальных
спировскии
списка
списке
списки
списков
списку
список
спокои
спорт
спорталъул
спортчіагіи
справа
справка
справочник
спустя
сразу
среди
средние
среднии
средних
средняя
средствами
сс
ссалат
ссии
сср
ссср
сссралда
сссралъул
ссылка
ссылкаби
ссылками
ссылках
ссылки
ссылкои
ссылку
ссылок
ст
ста
стаб
ставится
ставропол
ставропольскии
ставьте
стаи
стал
стали
сталин
сталина
стальскии
стамбул
стандартал
стандартияб
стандартиял
стандартные
станица
станции
станция
старина
старицкии
старо
старобжегокаи
старого
старорусскии
старыи
стат
статеи
статистика
статистики
статистические
статистическии
статистических
статистическое
статус
статуса
статусалъе
статусалъул
статусе
статуя
стать
статье
статьи
статью
статья
статьями
статьях
ств
ства
ствие
ствии
ствия
ство
ствовать
ству
ствующих
стелаялда
степени
степовои
стерлибашевскии
стерлитамакскии
стил
стилалъул
стили
стиль
стиля
стихи
стихов
стоит
сторон
стороны
стр
стран
страна
странах
страниц
страница
страницах
странице
страницу
страницы
страны
стратегии
стратегия
строк
строка
строке
строки
строку
структура
ступинскии
стіалиб
су
суал
суалазда
суалазе
суалал
суалалъе
суалалъул
суалияб
суалиял
субстантивация
субтропикияб
субъект
субъекталъул
субъектов
субэтнос
сугъралъ
сугъралъа
сугъралӏ
судан
суданалъул
судиславскии
судогодскии
сул
сулаи
сулак
сулахъ
сулахъалъул
сулевкент
сулеи
султ
султан
султіан
султіанахімет
султӏан
султӏанат
сумбатль
суметӏа
сун
сунда
сундул
сунж
суннатаб
суннатал
суннитал
супплетивияб
сур
сура
сураби
суражскии
суракъат
суракъатил
суракъатица
сурат
суратазул
суратал
сураталда
сураталъул
суратчи
сурсатал
суртал
сурхаи
суффект
суффектал
суффикс
суффиксазде
суффиксазул
суффиксал
суффиксалъул
сухая
сухиничскии
сухокумск
существует
существуют
сущностеи
сущности
схема
сценарист
сче
считается
сша
съезд
сына
сэр
сюжет
ся
т
та
табасаран
табасаранал
табасаранскии
табачныи
таблиц
таблица
таблицаялда
таблице
таблицу
таблицы
тавбу
таврат
тагиркент
тагскии
тад
тадбирал
таджикистан
таж
тажалъул
тажудин
таз
таи
так
также
такие
таким
таких
такое
такои
такрар
такрарлъи
такрарлъул
таксон
такъсирчагіи
тал
тала
талат
талда
талдомскии
талибан
талих
талихӏ
таловка
таловскии
талъ
талъул
там
тамазатюбе
тамар
тамара
тамахаб
тамахьо
тамбовская
тамбовскии
тана
тандо
тани
танты
тараб
тарав
тараи
тарал
тарбия
таржама
таржамаби
таржамачи
тарих
тарихалда
тарихалде
тарихалъул
тарихги
тарихи
тарихияб
тарихиял
тариххъваи
тарихчаг
тарихчи
тартиб
тартибалда
тартибалъул
тарумасул
тарумовка
тарумовскии
тарусскии
тархал
тасдикъ
тасс
тат
татал
татар
татарал
татарстан
татаюрт
татышлинскии
тафсир
тафсиралъул
тах
тахида
тахиде
тахо
тахтамукаи
тахшагьар
тахшагьарал
тахшагьаралъул
тахшагьарги
тахшагьарлъун
ташкент
таяммум
тберилазул
тберов
тбилиси
тверская
творчество
те
театр
театра
театралъул
тег
тега
теги
тегьран
тегьраналъул
тед
тедалъул
тезе
теи
текст
текста
текстазда
текстал
тексталъул
тексте
текстилияб
текстов
текстом
тексту
тексты
текущего
текущеи
текущии
текущую
тел
телави
телавиялъул
теле
телебихьи
телевидение
телевидениялъул
телевизионныи
телеканал
тем
тема
темабазда
темаби
тематика
тематикиял
теме
темир
темиргое
температура
темы
тенант
теории
теория
тер
терек
терекли
теречное
термин
терминал
терминология
территориалияб
территориалиял
территориальная
территориального
территориальное
территории
территория
территориял
территориялда
территориялъул
терроризм
тесь
тетраграф
теучежскии
тех
техника
техникияб
технические
технология
технологиял
теч
течение
теялъулаб
ти
тиберии
тиберия
тибеталъул
тимирязевское
тимур
тинг
тип
типа
тиризе
тисси
титул
титулал
тифлис
тифлисалде
тлондода
тлох
тлюстенхабль
тлядал
тлянуб
тлярата
тляратинскии
тмаз
тная
тнои
тные
тных
то
тобот
тов
тогда
тоге
того
тои
токаре
токсин
тола
толаро
толеб
толиб
толковыи
толстого
толстои
только
том
томас
томах
томск
томская
тоннель
топографические
топоним
торгӏо
торжокскии
торопецкии
тот
тотурбии
тохтур
точек
точка
точки
точкои
точку
точно
точности
тпиг
тр
традиции
трактор
транзитивияб
транзитивиял
транзитивлъи
трансгрессив
трансконтиненталиял
транскрипция
транслатив
транслит
транслитерация
транспорт
транспорталъул
тре
требования
требованиям
требуется
тренер
тренерлъун
третии
третьем
три
тригонометрические
триграф
триграфал
тринити
тропикиял
трубчевскии
труд
тскии
тся
тт
ту
туган
туи
тукита
тул
тула
тулпис
тулписалда
тулписалъул
тулуязулросу
тульская
тульскии
тум
тумазул
тумал
тун
тунк
тунка
туплис
туплисалда
туплисалъул
турецкии
туризм
туризмаялъул
туристал
туристикияб
турк
турказ
турказул
туркал
туркия
туркиялда
туркиялде
туркиялъ
туркиялъул
туркменал
туркменистан
туркменистаналъул
турхъалиб
турции
турция
турциялда
турциялде
турциялъ
турциялъул
туршунаи
туснахъ
тут
тутаевскии
тутмос
тутмосил
тутмосица
тухум
тухумазул
тухумал
тухумалдаса
тухумалде
тухумалъе
тухумалъул
тухчар
тушети
тушетиялъул
тушиловка
тушман
тушманлъун
тущманасдаса
ты
тыва
тюбе
тюмен
тюменская
тюрингия
тюрк
тюрказул
тіабигіат
тіабигіияб
тіабигіиял
тіагіана
тіагіиналъул
тіагіуна
тіад
тіадаб
тіаде
тіадеги
тіадегіанаб
тіадегіанав
тіадежубаи
тіадежубаял
тіадехун
тіадецуи
тіадкъаял
тіадрагіабазул
тіадрагіаби
тіадрагіи
тіаи
тіалаб
тіалабияб
тіалибан
тіалъи
тіалъиялда
тіалъиялъул
тіамула
тіамуна
тіануси
тіарада
тіаса
тіасан
тіасарищарал
тіасияб
тіахьал
тіеи
тіелалде
тіехь
тіибитіараб
тіибитіун
тіиритіарал
тіобитіараб
тіогь
тіокіціар
тіолабго
тіолго
тіолгороссиялъул
тіоразе
тіоцебе
тіоцебесеб
тіоцевесев
тіоцересел
тіубан
тіубанго
тіубараб
тіураб
тӏ
тӏа
тӏабигӏат
тӏабигӏаталда
тӏабигӏаталъул
тӏабигӏатиял
тӏабигӏияб
тӏабигӏиял
тӏагӏам
тӏагӏана
тӏагӏин
тӏагӏинабуна
тӏагӏун
тӏагӏуна
тӏад
тӏадаб
тӏаде
тӏадеги
тӏадегӏан
тӏадегӏанаб
тӏадегӏанав
тӏадегӏанал
тӏадекӏанцӏи
тӏадехун
тӏадецуи
тӏадинхело
тӏадрагӏаби
тӏадрагӏи
тӏаи
тӏалаб
тӏалъи
тӏалъиялда
тӏалъиялъул
тӏамач
тӏамун
тӏамуна
тӏанкӏ
тӏанса
тӏануси
тӏаса
тӏасабищараб
тӏасан
тӏасарищарал
тӏасияб
тӏахьазда
тӏахьазул
тӏахьал
тӏегь
тӏелалде
тӏелекь
тӏеренаб
тӏех
тӏехь
тӏехьалъул
тӏибитӏараб
тӏибитӏи
тӏибитӏун
тӏидиб
тӏиритӏарал
тӏогь
тӏогьал
тӏогьохъ
тӏокӏаб
тӏолабго
тӏолго
тӏолгодунялалъул
тӏом
тӏорщалил
тӏоцебе
тӏоцебесеб
тӏоцеве
тӏоцевесев
тӏоцере
тӏоцересел
тӏубазе
тӏубан
тӏубанго
тӏубараб
тӏун
тӏуразе
у
уб
уба
убазе
убан
убанго
убараб
убирает
убих
уважаемые
уважением
увуларияб
увулярияб
угличскии
угодно
угол
удале
удаление
удалению
удаления
удалить
удалять
ударение
удинил
удияб
удияв
удиязул
удиял
удмурт
удмуртия
удобно
удобныи
удомельскии
ужа
ужаби
уже
ужу
узбек
узбекистан
уздалросу
узнаи
узнать
узун
уи
ук
укажите
указ
указали
указан
указание
указанием
указании
указания
указанного
указанном
указанныи
указанным
указано
указатель
указать
указывает
указывается
указывать
указываются
укму
уколово
укп
украин
украина
украиналъул
украины
украі
укумат
укуматалъул
ул
ула
улаан
улго
уле
улеб
улев
улел
улка
улкабазда
улкабазул
улкаби
улкаялда
улкаялъул
уллуая
уллубии
уллутеркеме
уллучара
улос
улус
улучшению
улъ
ульяновская
уляпское
ум
умавиязул
умаи
умар
умарх
умахан
умаханас
умаханасул
уме
уменьшить
умм
умма
умолчанию
умру
умруги
умрухъваи
умруялде
умруялъ
умруялъул
умумазул
умумуз
умумузул
умумул
ун
уна
унаан
унаго
унареб
унарел
унаро
унги
унго
унгояб
унгут
унеб
унев
унел
уни
универсального
университет
университета
университеталда
университеталъул
унизе
унисеб
ункъабго
ункъабилеб
ункъабилев
ункъго
ункъо
ункъракь
ункъракьалъул
унсоколо
унсоколоса
унт
унтаби
унти
унтун
унун
унцукульскии
уорбертонида
управление
управлению
управления
упрощения
ур
ураб
урал
урала
урач
ургъараб
ургъел
ургъун
урду
уриб
урицкии
урият
урма
урмут
уровень
уровня
уругваи
урул
урус
урусаз
урусазул
урух
усеи
усемикент
усенил
усиша
усларица
условия
усман
устав
устава
уставе
устар
устарасул
устраивает
устрои
усть
устьянскии
усухчаи
ут
утамыш
утверждении
утверждения
уточнение
уфа
уфимскии
ух
ухул
ухъ
ухъан
уц
уцмиюрт
уч
учалинскии
участие
участия
участник
участника
участникалъул
участниками
участники
участников
участником
участнику
участок
уче
учебное
учеталъулаб
учкент
учреждении
учреждения
ушугъ
ф
фаи
факто
фактов
факты
факультет
факультеталъул
факъигь
фамилия
фарз
фаризаяб
фасоялъул
фашизм
фашизмалъул
фашистиял
фе
фебруар
фебруаралда
фебруаралдаса
феврал
февралалда
февралалъ
февраль
февраля
федералияб
федералиял
федеральныи
федеративияб
федерации
федерация
федерациялда
федерациялъул
феи
фердинанд
ферма
фз
фигурных
фигілабаздаса
фигілабазул
фигілаби
фигілабигун
фигілияб
фигілу
фигілуялъул
фиджи
физик
физика
физикияб
физикиял
физическая
фии
фиксатинабуна
фиксатинабураб
фиксация
фикъгьи
филиал
филолог
философ
философия
философиял
философиялъул
фильм
фильмал
филя
фин
финансазул
финикъияб
финляндии
финляндия
финляндиялъул
фите
фитіри
флавии
флаг
флага
флаги
флагификаци
флагификация
флагов
флексия
флора
флэп
фоминскии
фон
фона
фонд
фонда
фондалъул
фоне
фонема
фонетика
фонетикияб
фонетикиял
фонология
фонологияб
форма
формабазде
формабазул
формаби
формабигун
формаги
формат
формата
формате
форматирование
форматирования
формаялда
формаялде
формаялдеги
формаялъе
формаялъул
формаялъулъ
формирования
формирует
формулах
формулы
фортис
форум
форуме
фото
фотографии
фотография
фрагмент
фрагментов
франкфурт
франсия
франсиялда
франсиялъул
франсуа
франц
франции
франция
франциялъул
француз
французазул
французская
французскии
фреквентатив
фриг
фридрих
фрикатив
фрикативалъул
фрикативияб
функциеи
функции
функцию
функция
функциял
фурат
фурмановскии
футболалъул
футболалъулаб
футболист
х
ха
хабал
хабар
хабаралъул
хабарияб
хабаровск
хабаровскии
хабзал
хабль
хадижа
хадиял
хаду
хадуб
хадубги
хадубккун
хадув
хадуи
хадур
хадурегіел
хадурегіелазул
хадурегіелал
хадуса
хадусеб
хадусел
хадучӏеи
хазар
хазина
хаи
хакасия
хакуринохабльское
хал
халабтала
халалъараб
халалъарал
халалъи
халалъиялъул
халат
халатаб
халатал
халатала
халид
халил
халилбег
халилбегил
халип
халипазе
халипазул
халипал
халипалда
халипалъул
халиф
халифат
халифаталъул
халкквеи
халкъ
халкъаз
халкъазда
халкъаздагьоркьоб
халкъаздагьоркьосеб
халкъаздагьоркьосел
халкъазул
халкъал
халкъалда
халкъалдагьоркьосеб
халкъалдаса
халкъалде
халкъалъ
халкъалъе
халкъалъул
халкъалъухъе
халкъги
халкъияб
халкъияв
халкъияи
халкъиял
халкълъун
халуцинчӏеб
хамавюрт
хамаматюрт
хамиз
хан
ханас
ханасда
ханасе
ханасул
ханги
ханжар
ханзабаз
ханзабазул
ханзаби
ханлар
ханлъи
ханлъиялда
ханлъиялъул
ханлъуде
ханлъун
ханти
ханты
хань
хапизов
хар
харахи
харахьи
харачи
харбал
харбил
харбук
харж
харил
хас
хасаб
хасавхъала
хасавюрт
хасавюрталда
хасавюртовскии
хасавюртовского
хасал
хасалил
хасало
хасанаи
хасго
хасел
хасият
хасиятаб
хасиятал
хасияталъул
хаслихъе
хаслихълъи
хаслъаби
хаслъул
хассаб
хассал
хасул
хат
хатажукаи
хатукаи
хахизе
хахита
хашархота
хв
хвалчен
хвана
хвараб
хварав
хваразул
хварал
хваралкатегория
хваршини
хвасар
хвастовичскии
хведал
хвезабун
хвезабуна
хвезе
хвеи
хвел
хвеялъул
хебда
хекко
хеко
хели
хель
хельсинки
хер
херав
хералъул
херги
хеттазул
хехаб
хехго
хехлъи
хи
хив
хивскии
хидиб
хизри
химик
химикияб
химия
химиялъул
химиялъулаб
химиялъулал
хинаб
хиндах
хиндахскии
хинди
хинлъи
хиралъи
хирияб
хирияв
хириял
хис
хиса
хисана
хиси
хисизаби
хисизабизе
хисизабула
хисизе
хисичіого
хисиялъе
хисиялъул
хисула
хисулаго
хисуларо
хисулеб
хисулелъуб
хисун
хит
хиянат
хнов
хоб
хобал
ходжа
хождение
хозяи
хои
хола
холаро
холеб
холмогорскии
хомеи
хомутовскии
хоно
хорватии
хорватия
хорнунгида
хорода
хорошая
хосрех
хотели
хотите
хотода
хоточ
хотя
хпюк
христиан
христианазул
христианлъи
христос
хроника
хронология
хрустальныи
хтун
хубар
художественныи
художник
хузаи
хузестан
хулисма
хулуси
хумеи
хун
хундерил
хунзах
хунзахскии
хунзахъ
хунзахъа
хунзахъги
хунзахъе
хунздерил
хур
хурасан
хурдузул
хурдул
хурзал
хурма
хурмузган
хурхараб
хурхарал
хурхен
хурхенал
хурхинабулеб
хурхун
хуршни
хут
хутор
хутіана
хутіараб
хутіарал
хутіизегіан
хутіула
хутіун
хутӏана
хутӏараб
хутӏарал
хутӏизегӏан
хутӏула
хутӏун
хучада
хучни
хушет
хуштада
хфа
хх
ххам
ххамил
ххвел
хъ
хъазахъ
хъазахъазул
хъазахъал
хъазахъистан
хъазахъистаналъул
хъаи
хъал
хъала
хъалаялда
хъалаялъул
хъалтагъал
хъамун
хъан
хъанч
хъанчал
хъанчалъул
хъах
хъахіаб
хъахіал
хъахіилаб
хъахӏаб
хъахӏабросолъа
хъахӏабросулъа
хъахӏал
хъахӏилаб
хъвавул
хъваг
хъвагіаи
хъвагіаялда
хъвагіаялъул
хъвагіи
хъвагіиялда
хъвагіиялъул
хъвагӏаби
хъвагӏазда
хъвагӏаи
хъвагӏаязда
хъвагӏаял
хъвагӏаялъул
хъвагӏи
хъвагӏиялда
хъвагӏиялъул
хъвадаризе
хъвадарухъабазул
хъвадарухъаби
хъвадарухъан
хъвазе
хъваи
хъвала
хъвалаан
хъвалаго
хъвалеб
хъвалел
хъвалсараб
хъван
хъвана
хъвараб
хъварав
хъварал
хъварши
хъваял
хъваялда
хъваялъе
хъваялъул
хъвеи
хъергъу
хъизамалда
хъизан
хъизанал
хъизаналда
хъизаналдаса
хъизаналде
хъизаналъул
хъизангун
хъизихъ
хъизихъалъул
хъист
хъузхъул
хъуи
хъулби
хъулухъ
хъулухъал
хъулухъалда
хъулухъалдаса
хъулухъалде
хъулухъалъул
хъулухъчи
хъумторхъала
хъумур
хъутан
хь
хьаргаби
хьаргабиса
хьвадулеб
хьвадулел
хьиндахъ
хьит
хьихьи
хьихьун
хьолбохъ
хьул
хьундасеб
хі
хіадурараб
хіажи
хіажимурад
хіажимурадил
хіаи
хіакимзаби
хіакимлъи
хіакимлъиялъул
хіакъалъул
хіакъалъулъ
хіакъикъаталда
хіал
хіалалда
хіалалъ
хіалатал
хіалтіаби
хіалтіана
хіалтіи
хіалтіизабе
хіалтіизаби
хіалтіизабизе
хіалтіизабиялъул
хіалтіизабула
хіалтіизабулаан
хіалтіизабуларо
хіалтіизабулеб
хіалтіизабун
хіалтіизабуна
хіалтіизаризе
хіалтіизарула
хіалтіизарулел
хіалтіизе
хіалтіул
хіалтіула
хіалтіулев
хіалтіухъан
хіалуцинчіеб
хіамадан
хіамзат
хіана
хіарамалъул
хіарис
хіарп
хіарпазда
хіарпазул
хіарпал
хіарпалда
хіарпалдалъун
хіарпалъ
хіарпалъул
хіарпгун
хіасил
хіасилал
хіасилалда
хіатта
хіатшепсут
хіижазалъул
хіинкъи
хіинкъибукіунгутіиялъул
хіинкъикьеялъул
хіисаб
хіисабалда
хімеи
хіор
хіорал
хіоремхіаб
хіужаби
хіужжаби
хіукму
хіукмуялда
хіукмуялъул
хіукумат
хіукуматалда
хіукуматалъ
хіукуматалъе
хіукуматалъул
хіукъукъал
хіурматияб
хіусеи
хіуяи
хӏ
хӏадис
хӏадур
хӏадурав
хӏадурараб
хӏадуре
хӏадурун
хӏаж
хӏажи
хӏажил
хӏажилазул
хӏажимурад
хӏажица
хӏажиясул
хӏаи
хӏакимзаби
хӏакимлъи
хӏакимлъиялъул
хӏакъаб
хӏакъалъулъ
хӏакъалъулӏ
хӏакъикъат
хӏакъикъаталда
хӏакъикъаталдаги
хӏал
хӏала
хӏалаб
хӏалалда
хӏалалъ
хӏалел
хӏалеллъун
хӏалтӏабазухъ
хӏалтӏаби
хӏалтӏана
хӏалтӏи
хӏалтӏизабе
хӏалтӏизаби
хӏалтӏизабизе
хӏалтӏизабиялъул
хӏалтӏизабула
хӏалтӏизабулаан
хӏалтӏизабулеб
хӏалтӏизабулел
хӏалтӏизабун
хӏалтӏизаризе
хӏалтӏизарула
хӏалтӏизарулаан
хӏалтӏизарулел
хӏалтӏизарун
хӏалтӏизе
хӏалтӏуда
хӏалтӏул
хӏалтӏула
хӏалтӏулеб
хӏалтӏулев
хӏалтӏулел
хӏалтӏун
хӏалтӏухъ
хӏалтӏухъаби
хӏалтӏухъан
хӏалуцараб
хӏалхьи
хӏама
хӏамадан
хӏамаданалда
хӏамадани
хӏамзат
хӏамзатил
хӏамзатилги
хӏамзатица
хӏамил
хӏаракат
хӏаракаталдалъун
хӏаракатчи
хӏариколо
хӏарп
хӏарпаз
хӏарпазда
хӏарпаздалъун
хӏарпазул
хӏарпал
хӏарпалдаса
хӏарпалъ
хӏарпалъул
хӏасан
хӏасил
хӏасилал
хӏасилалда
хӏатта
хӏаял
хӏебдаса
хӏетӏе
хӏинкъи
хӏинчӏ
хӏисаб
хӏисабалда
хӏисабалдаги
хӏор
хӏорал
хӏоралда
хӏоралъул
хӏорихъ
хӏоцоса
хӏуби
хӏужаби
хӏужжаби
хӏукму
хӏукмуялда
хӏукумат
хӏукуматалъ
хӏукуматалъул
хӏурмат
хӏурматалъул
хӏурматияб
хӏусеи
хӏутӏ
хӏухьел
хӏучч
хӏх
ц
ца
цаган
цадах
цадахъ
цадахъго
цадахълъи
цадахълъиялъул
цакьу
цар
царе
царица
цария
цариялда
цариялъул
царь
царя
цатаних
цахур
цвел
цвелокато
цвет
цвета
це
цебе
цебеб
цебебахъи
цебего
цебеккун
цебесеб
цебет
цебетіеи
цебетіеялъе
цебетіеялъул
цебетӏеи
цебетӏеялъе
цебетӏеялъул
цебетӏураб
цебехун
цев
цеве
цевехъан
цевехъанлъун
цево
цее
цез
цезарь
цекоб
целевои
целеи
цели
целинскии
цель
целью
целягюн
целях
ценности
центер
центерлъун
центр
центра
централ
централда
централдаса
централияб
централиял
централъул
центральная
центрального
центральное
центральнои
центрлъун
центру
цер
цере
церегосел
цереса
цересел
церехун
церехъабазул
церехъаби
церкви
ци
цивилизация
цивилизациялъул
цикл
цикла
цилиндрическая
цин
цинги
циндаго
цитата
цитатаби
цитатаялъул
цитаты
цифраби
цияб
цк
цмгі
цмгіялъул
цнал
цо
цоабилеб
цовкра
цоги
цогида
цогидаб
цогидав
цогидаз
цогидазда
цогидал
цогидалги
цогиязда
цогияздаса
цогиял
цого
цогояб
цодагьаб
цожубараб
цои
цоккураб
цолъана
цолъараб
цолъарал
цолъи
цолъизабун
цолъизабураб
цолъиялъул
цолъул
цолъун
цониги
цох
цохіо
цохӏо
цохӏого
цоцада
цоцадаса
цоцаде
цоцазда
цоцазде
цоцазе
цоцалъ
цоцаца
цояб
цояблъун
цояв
цоявлъун
цояз
цоял
цоялда
цоялдаса
цояллъун
цоясулгун
цудунго
цумада
цумадинскии
цун
цунди
цунтинскии
цураб
цурдул
цутӏараб
цухта
цущар
цц
ццим
ццин
цы
цыи
ціа
ціадал
ціадалъул
ціакъ
ціакъго
ціалана
ціали
ціализе
ціалиялъе
ціан
ціар
ціаразда
ціараздаса
ціаразул
ціарал
ціаралги
ціаралда
ціаралдаса
ціаралъул
ціарги
ціаргун
ціарубакі
ціарубакіаздаса
ціарубакіазул
ціарубакіал
ціарул
ціва
цівабзазул
ціех
ціидасан
ціикікіараб
ціикікіун
ціикікіунисеб
ціияб
ціиял
ціорол
ціумада
ціуни
ціуниялъул
ціунтіа
ціунун
цӏ
цӏа
цӏад
цӏада
цӏадал
цӏадалъул
цӏадаса
цӏаи
цӏакъ
цӏакъго
цӏалана
цӏаларав
цӏалдохъаби
цӏали
цӏализе
цӏалиялъе
цӏалул
цӏалула
цӏалулеб
цӏалулев
цӏалулел
цӏалун
цӏам
цӏан
цӏар
цӏараб
цӏаразда
цӏаразул
цӏараки
цӏарал
цӏаралда
цӏаралдалъун
цӏаралъул
цӏарги
цӏаргун
цӏва
цӏваялъул
цӏвер
цӏер
цӏех
цӏехон
цӏи
цӏибил
цӏидасан
цӏидасанги
цӏикӏкӏанисеб
цӏикӏкӏараб
цӏикӏкӏун
цӏикӏкӏунеб
цӏиркъ
цӏиркъил
цӏияб
цӏиял
цӏобокь
цӏор
цӏоралда
цӏорол
цӏорораб
цӏул
цӏумада
цӏумалъул
цӏун
цӏунди
цӏуне
цӏуни
цӏунизе
цӏуниялъул
цӏунтӏа
цӏунула
цӏунулеб
цӏунун
цӏуриб
цӏуриса
цӏцӏ
цӏцӏе
цӏцӏикӏкӏун
цӏцӏикӏун
ч
чабхъен
чабхъенал
чаг
чагаротар
чагъир
чагіи
чагӏазда
чагӏи
чаи
чакар
чакаргун
чалда
чан
чанги
чанго
чапаево
чапар
чаплин
чара
чаран
чарахъ
чарли
чарльз
чарльтон
чармил
чарода
час
частеи
части
частности
часто
часть
частью
чахчах
чахъу
чачан
чачаназул
чачанал
чачаналда
чачаналъул
чачанистаналъул
чачанлъи
чвахи
чвахиялъул
чвахула
чвахулеб
че
чего
чед
чел
человек
челябинск
челябинская
чем
чемпион
чемпионал
чемпионаталда
червленные
чергес
через
череповецкии
черкес
черкесал
черкесия
черногория
чернышковскии
черту
черх
черхалдаса
черхалъул
четыре
чех
чеховскии
чехрак
чехь
чеченскои
чечня
чи
чиамахи
чиги
чигун
чили
чилъун
чин
чираг
чирката
чиркеи
чирюрт
числа
числе
численности
численность
число
чистом
чита
читателеи
читать
читль
чишили
чишминскии
чияда
чияр
чияс
чиясда
чиясдаги
чиясдаса
чиясде
чиясе
чиясул
чкаловскии
член
членал
членов
члены
чол
чонтаул
чор
чоралъул
чорхолъ
чот
чох
чтение
что
чтобы
чу
чуваш
чувашия
чуги
чугли
чудовскии
чулат
чумли
чуни
чупан
чупик
чупикал
чураяв
чури
чуризе
чуриялъул
чурула
чурун
чухломскии
чч
ччугӏа
ччукӏел
ччукӏун
чіаго
чіагоял
чіана
чіараб
чіарал
чіахіиял
чіва
чівазе
чіваи
чівала
чіван
чівана
чіегіер
чіегіераб
чіезабизе
чіезабула
чіезабун
чіезабуна
чіезе
чіеи
чіинкіиллъаби
чіинкіиллъи
чіинкіиллъиялда
чіинкіиллъиялъул
чіовул
чіужу
чіужугіадан
чіужуялъул
чіун
чічіеи
чӏ
чӏа
чӏаго
чӏадаколоб
чӏалу
чӏана
чӏанди
чӏанкӏа
чӏанкӏал
чӏанкӏаца
чӏараб
чӏарада
чӏарал
чӏахӏиял
чӏб
чӏваге
чӏвазе
чӏваи
чӏвала
чӏвалеб
чӏван
чӏвана
чӏвараб
чӏваялъул
чӏегӏераб
чӏезабун
чӏезе
чӏеи
чӏел
чӏеялъул
чӏи
чӏикӏаб
чӏикӏаса
чӏинкьулеб
чӏиркъатӏа
чӏиса
чӏобого
чӏола
чӏолеб
чӏохъ
чӏохъа
чӏужу
чӏужугӏадан
чӏужуялъул
чӏун
чӏчӏ
чӏчӏв
чӏчӏвад
ш
ша
шабдухъ
шабле
шаблон
шаблона
шаблоназе
шаблоназул
шаблонал
шаблоналда
шаблоналъ
шаблоналъе
шаблоналъул
шаблонами
шаблонах
шаблоне
шаблонов
шаблоном
шаблону
шаблоны
шаблыкинскии
шава
шаваялда
шаввал
шаг
шагада
шагарго
шагь
шагьадат
шагьар
шагьаразда
шагьараздаса
шагьараздасан
шагьаразул
шагьарал
шагьаралда
шагьаралдаса
шагьаралде
шагьаралъе
шагьаралъул
шагьаралъулаб
шагьарлъун
шагьасул
шагьидлъана
шагьре
шагьрестан
шагьрестаналда
шагіир
шагіирзаби
шагӏбан
шагӏбанил
шагӏир
шагӏирасул
шагӏирзаби
шаи
шал
шалиб
шам
шамалда
шамалде
шамалъул
шамгъуда
шамил
шамилги
шамилида
шамилил
шамилица
шамиль
шамилькала
шамильскии
шамхал
шамхалов
шапакъат
шапакъатал
шара
шарам
шаранскии
шарапудин
шарг
шаргӏияб
шариг
шаригӏат
шаригӏаталъул
шариф
шарт
шартіал
шартіияб
шартӏ
шартӏал
шарьинскии
шатурскии
шах
шахмарданил
шаховскои
швараб
швед
швезегӏан
швеи
швеция
шеи
шеки
шекснинскии
шему
шенджии
шенкурскии
шереметьево
шиг
шигіру
шигӏраби
шигӏру
шидиб
шидибскии
шие
шии
шиловскии
шималалда
шималалдаса
шималалдехун
шималалиябгин
шималгун
шималияб
шималиябгин
шималиябгун
шино
шираз
ширван
ширвана
ширваналда
ширваналде
ширваналъул
ширвани
ширина
ширину
ширины
широта
ших
шихсаидов
шияб
школа
школабазда
школаби
школалда
школалъул
школы
шмеи
шовгеновскии
шолоховскии
шота
шотода
шототӏа
шоу
шри
штаб
штат
штатазда
штатазул
штатал
штаталъул
штаталялда
штаталялъул
штгь
шуи
шумбул
шура
шурагьиб
шураялда
шураялъул
шушия
щ
щаи
щаклъи
щал
щамат
щвана
щвараб
щварав
щварал
щведал
щвезабула
щвезе
щвезег
щвезегіан
щвезегіанги
щвезегӏан
щвезегӏанги
щвеи
щвелалде
щвеч
щвечӏого
щвеялъе
щвеялъул
ще
щиб
щибаб
щибав
щибго
щибниги
щив
щивав
щии
щинаб
щинал
щокърол
щола
щолареб
щоларо
щолеб
щу
щуабилеб
щуго
щукру
щула
щулалъи
щулалъиялъул
щулалъутӏа
щулат
щулияб
щун
щущахъ
ъ
ы
ь
э
эбел
эбелалда
эбелалъ
эбелалъул
эв
эвенкии
эверест
эволюция
эгеи
эгиптос
эдвардс
эдиге
эзул
эи
экбатана
эквадор
экватора
экз
экземпляр
экология
экономика
экономикаялъул
экономикияб
экономикиял
экономист
экономическии
эксмо
экспедиция
экспорт
эл
элдарилав
электронияб
элемент
элемента
элементал
элементов
элементы
элизабет
элизия
эль
эльбрус
эмблема
эмен
эменги
эминхюр
энд
энде
эндиреи
энем
энергетика
энергия
энир
энциклопедии
энциклопедическии
энциклопедия
энциклопедияб
энциклопедиял
энциклопедиялъул
эпентезис
эпиглотталияб
эпикияб
эпоха
эпохи
эра
эрак
эраялде
эраялъул
эргатив
эргативияб
эрдогъан
эрдогъаница
эрик
эркен
эркенаб
эркенал
эркенго
эркенлъи
эркенлъиялде
эркенлъиялъе
эркенлъиялъул
эрменистан
эрменистаналъул
эрмениязул
эрмениял
эртильскии
эсадия
эсбе
эскимос
эскимосал
эсперанто
эссе
эстония
эта
эти
этим
этимология
этих
этникияб
этникиял
этнограф
этнографическое
это
этого
этои
этом
этому
этот
эту
эхебе
эхеде
эхеди
эхо
эчеда
ю
юбилеи
юг
югалъулаб
юго
югра
южная
южно
южного
южныи
юл
юлалда
юлианияб
юлии
юлия
юль
юн
юнаи
юналда
юнеско
юнескоялъул
юпик
юпикал
юпитер
юрии
юрист
юрт
юртовское
юрьев
юрьевецкии
юсуп
юсуф
юхари
юхновскии
я
яб
яблоновскии
является
являются
яги
ягьудия
язык
языка
языках
языке
языки
языков
языкового
языковом
языковых
языком
яи
як
якутия
ял
ялак
ялда
ялдаса
ялдасаги
ялдасан
ялде
ялова
ялъ
ялъул
ялъуни
ямансу
ян
янв
январ
январалда
январалдаса
январалде
январалъ
январалъул
январь
января
янги
яндекс
япон
япония
япониялда
япониялъул
яр
яраг
ярагъ
яргъид
яргъидгӏуцӏарал
ярославская
ярославскии
яс
ясазул
ясал
ясалда
ясалъ
ясалъул
ясги
ят
ях
яхі
яхӏ
яц
яцги
ячана
ячеи
ячине
ячун
ячуна
яшав
є
і
џ
ѵ
ґ
ғ
ҕ
қ
ҡ
ҡалып
ҧ
ҵ
һ
ӄ
ӏ
ӏӏ
ӡ
լ
կաղապար
տ
ր
փ
օ
ֆ
ְ
ִ
ֵ
ַ
א
ג
י
ם
מ
צ
ר
ש
،
؛
؟
ا
ال
الا
العربية
القرا
الل
الگو
ب
ة
ت
ج
ح
خ
د
ذ
ر
س
سورة
ص
ض
ط
ع
غ
ف
في
ق
قالب
ك
ل
م
من
ن
ه
های
هي
و
وا
ون
ى
ي
ين
ً
ٌ
ٍ
َ
ُ
ِ
ّ
ْ
ٓ
ٔ
ٕ
گ
ڸ
ێ
ँ
ं
क
ग
च
ज
ट
ठ
ढ
द
न
प
भ
म
र
ल
स
ह
़
ा
ि
ी
ृ
े
्
ঁ
ং
চ
ট
ঠ
ণ
ত
প
ব
মপ
য
র
ল
ষ
স
়
া
ি
ী
ু
ে
্
ਗ
ਜ
ਨ
ਪ
ਬ
ਮ
਼
ਾ
ਿ
ੀ
ੰ
ଚ
ଛ
ଞ
ା
୍
ப
ர
ழ
வ
ா
ி
ு
ெ
்
గ
త
ల
ు
ె
ಂ
ಟ
ಲ
ಿ
ು
ೆ
್
ೕ
ം
ഫലക
ള
ാ
ං
ක
ල
ස
්
ැ
ි
ก
พ
ย
ว
ิ
ี
ู
แบบ
แม
่
้
་
ག
ད
ཡ
ི
ა
ბ
გ
დ
ე
ვ
ზ
თ
თარგი
ი
კ
ლ
მ
ნ
ო
პ
ჟ
რ
ს
ტ
უ
ფ
ქ
ღ
ყ
შ
ჩ
ც
ძ
წ
ჭ
ხ
ჯ
ჰ
인용
틀
ខ
ទ
ព
ភ
ម
រ
ស
ា
ូ
ែ
ំ
័
្
ᵊ
ᵏ
ᵑ
ᵝ
ᵯ
ᶆ
ᶑ
ᶢ
ᶬ
ᶭ
​
‌
‍
‎
‐
‑
–
—
―
‖
‘
’
‚
“
”
„
†
•
…
′
″
‹
›
‼
⁄
⁠
⁶
ⁿ
₥
€
№
℠
™
ℳ
⅔
←
↑
→
↓
↔
↗
↘
↪
↷
−
≈
≥
⋅
③
④
⑦
▬
▲
▼
◄
◌
☉
♀
♂
♠
⚝
✍
⟨
⟩
ⱨ
ⱪ
ⱬ
ⱱ
ⲉ
ⲏ
ⲓ
ⲕ
ⲙ
ⲛ
ⲣ
ⲧ
ⴀ
ⴂ
ⴃ
ⴄ
ⴅ
ⴇ
ⴈ
ⴉ
ⴊ
ⴋ
ⴌ
ⴍ
ⴎ
ⴐ
ⴑ
ⴒ
ⴓ
ⴔ
ⴕ
ⴖ
ⴗ
ⴡ
ⴢ
ⴣ
ⴥ
⺀
⺄
⺆
⺈
⺊
⺌
⺕
⺝
⺸
⺼
⿰
⿱
⿲
⿳
⿴
⿵
⿶
⿷
⿸
⿹
⿺
⿻
〈
〉
〢
゙
コ
サ
ス
タ
テ
ニ
ヒ
フ
ミ
ユ
レ
ワ
ー
㇁
㇂
㇄
㇇
㇈
㇉
㇓
㐁
㐄
㐅
㐌
㐫
㐬
㐭
㐮
㐱
㑒
㒵
㒸
㒼
㓁
㓞
㔾
㕛
㕣
㖾
㘝
㚅
㚇
㚔
㚘
㝉
㝡
㝴
㝵
㞋
㞢
㞷
㠩
㠭
㠯
㡀
㡭
㡿
㢲
㢴
㣇
㣺
㥯
㪅
㫄
㫐
㫒
㫺
㬅
㬎
㬥
㬰
㲋
㳄
㷠
㸒
㸚
㸦
㼌
㼲
㽞
㿟
䀠
䂞
䍃
䏍
䒑
䖍
䖒
䖝
䖵
䙴
䚻
䜌
䝿
䡛
䧹
䪞
一
丁
丂
七
丄
丅
丆
万
丈
三
上
下
丌
不
与
丏
丐
丑
专
且
丕
世
丘
丙
业
东
丞
丢
丣
两
严
並
丨
丩
个
丫
丬
中
丮
丰
丱
串
丵
丶
丷
丸
丹
为
主
丽
丿
乀
乂
乃
久
乆
乇
么
义
之
乌
乍
乎
乏
乐
乑
乔
乖
乗
乘
乙
乚
乛
乜
九
乞
也
习
乡
乳
乾
亀
亅
了
亇
予
争
事
二
亍
于
亏
亐
云
互
亓
五
井
亘
亚
亜
亞
亟
亠
亡
亢
交
亥
亦
产
亨
亩
享
京
亭
亮
亯
亰
亲
亳
亶
亷
人
亻
亼
亾
仁
今
介
仌
从
仐
仑
仒
仓
仕
他
付
仝
代
令
以
任
企
伊
伏
伐
休
会
伯
但
位
何
佘
余
作
佥
使
來
侈
侌
侖
侯
侵
便
保
俞
信
修
倉
倍
候
倠
備
僉
僕
儿
兀
允
兂
元
兄
充
兆
兇
先
光
兊
克
兌
免
兑
兒
兓
兔
党
兜
兟
入
全
兩
兪
八
公
六
兮
兰
共
关
兵
其
具
典
兹
兼
冀
冂
冃
冄
内
冈
冉
冊
冋
册
再
冎
冏
冐
冒
冓
冖
冗
冘
军
农
冝
冡
冥
冫
冬
冷
几
凡
凢
凵
凶
凷
凸
凹
出
函
凾
刀
刁
刂
刃
刄
刅
分
切
刍
刑
刕
刖
列
刘
则
初
別
利
别
到
制
刺
則
削
剌
前
剡
剽
劉
力
功
加
劦
助
劫
劳
劵
勃
勇
勉
勒
動
務
勞
勤
勹
勺
勻
勾
勿
匀
匂
包
匆
匈
匊
匋
匍
匕
化
北
匚
匝
匡
匪
匱
匸
匹
区
医
匽
匿
區
十
卂
千
卄
卅
卆
升
午
卉
半
卌
华
卑
卒
卓
单
卖
南
卜
卝
卞
占
卡
卢
卣
卤
卦
卩
卪
卬
卯
印
危
即
却
卵
卷
卸
卻
厂
厃
厄
历
厈
厉
厌
厓
厘
厚
原
厤
厥
厨
厭
厲
厶
厷
厸
去
厼
厽
叀
参
參
叅
又
叉
及
友
双
反
叐
发
叒
叔
叕
取
受
叚
叜
叟
口
古
句
另
叩
只
召
可
台
叱
史
右
叵
号
司
叹
吂
各
吅
合
吉
吊
吋
同
名
后
吏
向
吕
君
吝
吞
否
含
启
吳
吴
吹
吾
呂
呆
呈
告
员
呙
周
命
咅
和
咎
咠
咢
咨
咸
咼
哀
品
哉
員
哥
哲
唐
商
啇
問
啚
啬
啻
善
喜
喬
單
喿
嗇
嘉
噩
嚴
囊
囗
囘
囙
囚
四
回
囟
因
囧
囬
困
囱
囷
固
国
圂
圅
國
圍
圓
土
圡
圣
圥
在
圭
地
圶
圼
坐
坒
坚
坴
垂
垔
垚
埀
埋
埶
執
基
堂
堅
堆
堇
堯
塞
墨
壘
士
壬
壯
声
壳
壴
壹
壺
壽
夂
处
夅
夆
备
夊
夋
夌
复
夏
夒
夕
外
夗
夘
多
夜
夢
大
夨
天
太
夫
夬
夭
央
失
夲
头
夷
夸
夹
夻
夾
奂
奄
奇
奈
奉
奎
奏
奐
契
奓
奔
奚
奞
奠
奢
奥
奭
女
奴
奻
好
如
妄
妙
妟
妥
妻
妾
姑
委
姜
威
娄
婁
婴
嬰
嬴
子
孑
孔
孕
孖
字
存
孚
孛
孝
孟
季
孤
学
孫
孱
學
宀
宁
宂
它
宅
宇
守
安
宋
完
宏
宓
宗
官
定
宛
宜
宝
客
宣
室
宮
宰
害
家
容
宾
宿
寄
寅
密
富
寒
寛
察
寧
審
寫
寬
寮
寸
对
寺
寻
寽
対
寿
封
尃
射
将
將
專
尉
尊
尋
尌
對
小
少
尒
尓
尔
尖
尗
尚
尞
尢
尣
尤
尧
尨
尭
就
尸
尹
尺
尻
尼
尽
尾
尿
局
居
屈
屋
屎
屏
屑
展
屖
屚
属
屠
屡
屬
屮
屯
屰
山
屵
屾
岁
岂
岑
岡
岩
岳
岸
峯
島
崇
崑
崔
崖
崙
崩
嵬
嶲
巂
巛
川
州
巟
巠
巢
巤
工
左
巧
巨
巩
巫
差
己
已
巳
巴
巷
巸
巽
巾
巿
帀
市
布
希
帚
帛
帝
带
師
席
帶
常
干
平
年
幵
并
幷
幸
幺
幻
幼
幽
幾
广
広
庄
床
底
店
庚
府
度
庫
庭
庶
康
庸
廉
廌
廛
廣
廩
廴
延
廷
建
廾
廿
开
弁
弃
弄
弇
弋
式
弓
弔
引
弗
弘
弜
弟
弥
弦
弱
張
強
强
彊
彌
彎
彐
彑
当
彔
录
彖
彗
彡
形
彥
彦
彧
彭
彳
役
彼
往
待
律
徒
得
徙
從
復
微
徳
徵
心
忄
必
忌
忍
志
応
忝
忠
忩
快
念
忽
忿
思
怠
急
怱
恆
恒
恩
恭
息
悉
患
悤
悲
悶
惠
惡
惢
愁
愈
意
愛
感
慈
慧
慮
慶
憂
憲
應
戀
戈
戉
戊
戋
戌
戍
戎
成
我
戒
戔
或
戚
戠
戢
截
戲
戶
户
戹
戼
戾
房
所
扁
扇
手
扌
才
扎
打
托
执
承
折
拉
拜
拿
掌
推
提
摩
支
攴
攵
收
攸
改
放
政
敄
敏
敕
敖
敗
敝
敞
敢
散
敦
敫
敬
数
敷
數
斂
文
斉
斊
斗
斤
斥
斩
斬
斯
新
方
於
施
斿
旁
旋
族
无
旡
既
旣
日
旦
旧
旨
早
旬
旱
旲
时
旾
昆
昇
昌
昍
明
昏
易
昔
昗
昜
星
春
昬
昭
是
昱
昴
昷
時
晃
晋
晏
普
景
晶
智
暑
暦
暴
曇
曩
曰
曲
曳
更
曷
書
曹
曼
曾
替
最
朁
會
月
有
朋
服
朔
朕
朗
望
朝
木
朩
未
末
本
札
朮
术
朱
朵
朶
朿
杀
杏
杜
束
条
来
東
杲
杳
松
板
析
林
枚
果
枝
枲
枼
某
柔
查
柬
柰
柴
栗
桀
桑
桼
梁
條
梟
梨
棘
棠
棥
森
楚
業
楽
榮
樂
樊
模
欠
次
欣
欮
欲
欶
欽
款
歆
歇
歛
止
正
此
步
武
歨
歪
歮
歯
歰
歲
歴
歷
歸
歹
歺
死
殳
段
殷
殸
殹
殺
殻
殿
毋
毌
母
每
毒
比
毕
毚
毛
毳
氏
氐
民
气
氣
水
氵
氶
氷
永
氺
氾
求
汝
汞
江
沃
沓
沙
沝
治
泉
法
波
泣
泥
泰
洛
洪
活
派
流
浦
浪
浮
淡
淮
清
渚
渠
湯
滿
漸
火
灬
灭
灰
灵
灷
炅
炎
炏
炗
炙
炭
為
烈
烏
烝
焉
無
焦
焱
然
煞
熊
熏
燕
營
燮
爪
爫
爭
爯
爰
爱
爲
爵
父
爻
爽
爾
爿
片
牙
牚
牛
牜
牟
牢
牧
牪
牽
犀
犬
犭
犮
狂
狄
狊
独
狺
猋
猒
猪
献
獻
玄
率
玉
王
玟
玨
珎
班
琴
瑟
瑩
瓜
瓦
甘
甚
生
産
用
甫
甬
田
由
甲
申
电
甶
男
甸
甹
画
甾
畀
界
畏
畐
留
畜
畟
畢
畧
畨
番
畫
異
畱
當
畺
畾
疊
疋
疌
疑
疒
疾
癶
癸
癹
登
發
白
百
皀
皃
的
皆
皇
皋
皐
皕
皮
皷
皿
盃
盆
盇
盈
益
盍
盎
监
盒
盖
盛
盡
監
盤
盧
目
直
相
盾
省
眇
眉
看
眔
眞
真
眷
眼
眾
着
睘
睪
睿
瞏
瞢
瞿
矍
矛
矞
矢
矣
知
矦
短
石
破
碎
磊
磨
示
礻
礼
神
祟
票
祭
禀
禁
禄
禸
禹
禺
离
禽
禾
禿
秀
秃
秉
秋
科
秝
秦
移
稟
穀
穌
穴
究
穹
空
穿
突
窄
窒
立
竒
竜
竝
竟
章
童
竹
笑
笠
筆
等
答
箕
算
箴
節
篤
篭
米
粉
粛
粟
粤
粦
粲
粵
糞
糸
糹
系
約
納
素
索
紫
累
細
絜
絫
絲
維
綿
縣
繇
纍
纟
缶
网
罒
罔
罕
罗
罙
罡
罢
罪
署
罷
羅
羊
羌
羍
美
羔
羕
羗
羞
羡
羣
群
義
羲
羸
羽
翁
翏
習
翕
翟
翠
翼
老
耂
考
者
耆
而
耎
耑
耒
耳
耴
耶
耷
聂
聊
聖
聚
聶
聿
肀
肃
肅
肉
肖
肙
肥
肩
肯
育
肴
胃
背
胡
胥
能
脊
脩
膚
臣
臤
臧
自
臬
臭
臯
臱
至
致
臺
臼
臽
臾
臿
舀
舂
舄
與
興
舉
舌
舍
舛
舜
舞
舟
般
艮
良
色
艸
艹
艾
芒
芔
芬
芮
花
芳
芺
芻
苔
苗
苟
若
苦
英
茶
茸
荅
草
荒
荣
荼
莆
莧
莫
莽
菆
菊
菐
華
萬
落
葉
著
葛
董
葵
蒙
蒦
蒼
蓋
蓬
蓺
蔑
蔡
蕉
蕭
薄
薛
薦
薰
藍
藏
藥
蘭
虍
虎
虐
虒
虔
處
虖
虗
虘
虚
虛
虜
虞
虫
虽
蚤
蚩
蜀
蜜
蟲
蠡
血
行
衍
衛
衣
衤
表
衮
衰
袁
袞
褭
褱
襄
襾
西
覀
要
覃
見
規
覓
覧
親
観
覽
见
角
解
言
訁
訇
計
詹
語
誩
諸
護
讠
语
谷
豆
豈
豊
豐
豕
豖
豙
象
豦
豩
豪
豸
貇
貝
貞
貟
負
貢
貧
貪
貫
責
貳
貴
買
費
賁
資
賈
賏
賓
賔
賛
賞
賢
賣
質
賴
贊
贝
贡
责
贯
贲
贵
赖
赞
赤
赦
走
越
足
路
蹇
身
躬
車
軍
軎
軟
輦
车
辛
辜
辟
辥
辰
辱
農
辵
辶
边
达
过
近
连
迷
追
退
送
逆
逐
通
速
造
逢
連
逮
進
遀
遂
過
道
達
遣
適
遷
遺
邊
邑
邕
那
邦
邪
郎
部
郭
都
鄉
酉
酋
配
酓
釆
采
里
重
野
量
金
釒
錢
钅
長
镸
长
門
閃
閉
開
閏
閑
閒
間
閔
閵
閻
闌
门
间
闷
阑
阜
阝
阿
降
陳
隆
隊
隋
隡
隨
隱
隶
隹
隺
隻
隼
隽
难
雀
雁
集
雈
雋
雍
雐
雔
雙
雚
雜
雝
離
難
雨
雩
雪
雲
零
雷
需
霍
霜
霝
霞
霸
靈
靑
青
非
靡
面
靣
革
韋
韦
韭
韯
韱
音
頁
頃
項
須
頗
頡
頻
顛
页
風
风
飛
飞
食
飠
養
饣
首
香
馬
馮
駦
马
骨
高
髟
鬥
鬯
鬲
鬼
魚
魯
鮮
鱼
鲁
鳥
鳳
鸟
鹵
鹿
麃
麗
麥
麦
麻
黃
黄
黍
黎
黑
黒
黨
黹
黽
黾
鼎
鼓
鼠
鼻
齊
齋
齐
齒
齿
龍
龙
龜
龟
龠
龰
龱
龴
龵
龶
龷
龸
龹
ꙋ
ꚋ
ꚓ
ꜛ
ꜜ
ꝗ
ꞌ
ꞩ
ꟽ
ꟿ
ꭹ
ꮃ
ꮳ
者
艹
️
﻿
！
？
ａ
ｂ
ｃ
ｄ
ｅ
ｆ
ｇ
ｈ
ｉ
ｊ
ｋ
ｌ
ｍ
ｎ
ｏ
ｐ
ｑ
ｒ
ｓ
ｔ
ｕ
ｖ
ｗ
ｘ
ｙ
ｚ
～
�
𐌌
𐤌
𐭠
𐭥
𐭩
🇺
📏
📲
🚀
𠀁
𠀃
𠀆
𠀉
𠀎
𠀐
𠁁
𠁣
𠂆
𠂇
𠂈
𠂉
𠂊
𠂋
𠂎
𠂒
𠂔
𠂛
𠂡
𠂢
𠂤
𠂬
𠂭
𠂹
𠃊
𠃋
𠃌
𠃍
𠃎
𠃑
𠃓
𠃔
𠃜
𠄌
𠄎
𠄠
𠄢
𠆢
𠆥
𠇍
𠈌
𠌵
𠓜
𠔉
𠔥
𠔼
𠔽
𠔿
𠕀
𠕁
𠕋
𠘧
𠘨
𠙻
𠙼
𠚏
𠚒
𠚤
𠚪
𠣏
𠤎
𠤕
𠥓
𠦄
𠦑
𠦝
𠧒
𠧗
𠧪
𠩺
𠪚
𠫓
𠫔
𠫤
𠬛
𠬝
𠬞
𠬢
𠬤
𠬶
𠮛
𠮦
𠮷
𠯑
𠱠
𠳮
𠷎
𡈼
𡉀
𡉵
𡌥
𡍮
𡏳
𡕒
𡕩
𡕰
𡖅
𡗗
𡗜
𡘆
𡘤
𡧱
𡨄
𡩧
𡬠
𡭽
𡰣
𡰥
𡰪
𡰯
𡰱
𡷈
𡸁
𡿨
𡿩
𡿪
𡿺
𢀖
𢀛
𢀩
𢁙
𢆉
𢆰
𢆶
𢇁
𢇇
𢉖
𢌬
𢌿
𢏚
𢑑
𢑚
𢖻
𢙣
𢛳
𢦏
𢦒
𢧵
𢼄
𢾕
𣁋
𣄼
𣅀
𣅽
𣍘
𣎳
𣎵
𣏋
𣏼
𣗥
𣥂
𣥖
𣦵
𣦼
𣧄
𣪊
𣪠
𣬉
𣳾
𣶒
𤇾
𤊽
𤐫
𤓰
𤔔
𤕨
𤣩
𤰇
𤰔
𤰞
𤴓
𤴔
𤽄
𥁑
𥁕
𥃦
𥃩
𥃭
𥇡
𥑟
𥘅
𥘈
𥝢
𥫗
𥱡
𦈢
𦉪
𦉬
𦉼
𦍌
𦍒
𦎧
𦐇
𦓔
𦔮
𦘒
𦙃
𦚏
𦣝
𦣞
𦣻
𦥑
𦥔
𦥯
𦨉
𦭝
𦰩
𧆞
𧈧
𧘇
𧰨
𧴪
𧴮
𧵩
𧾷
𨸏
𨾴
𩙿
𩠐
𩫏
𩵋
𪉷
𪜀
𪟽
𪠲
𪩲
𫇦
𫔭
𫜸
𫝀
𫠣
𫠩
𫢉
𫥞
𫩏
𫩠
𫪡
𫲽
𫶧
𬀷
𬐘
𬗌
𬙙
𬛸
𬜯
𬟩
𬯁
𬴘
𬺻
𬼉
𬼖
𭀰
𭁈
𭁨
𭅰
𭑈
𭕄
𭗼
𭤨
𭥫
𭻾
𮅕
𮊿
𮍌
𮍏
𮓗
𮥼
𮧮
廾
𰀁
𰀄
𰀈
𰀉
𰀕
𰀠
𰀡
𰀢
𰀪
𰁜
𰃮
𰆊
𰆘
𰋙
𰕎
𰢴
𰧭
𰯲
00--
000--
01--
02--
03--
04--
05--
06--
07--
08--
09--
1048--
1074--
1075--
1076--
1077--
1078--
1079--
1080--
1081--
1082--
1083--
1084--
1085--
1086--
1087--
1088--
1089--
1090--
1091--
1092--
1093--
1094--
1095--
1096--
1097--
1098--
1099--
1100--
1101--
1102--
1103--
1104--
1105--
1106--
1107--
1108--
1109--
1110--
1111--
1112--
1113--
1114--
1115--
1116--
1117--
1118--
1119--
1120--
1121--
1122--
1123--
1124--
1125--
1126--
1127--
1128--
1129--
1130--
1131--
1132--
1133--
1134--
1135--
1136--
1137--
1138--
1139--
1140--
1141--
1142--
1143--
1144--
1145--
1146--
1147--
1148--
1149--
115--
1150--
1151--
1152--
1153--
1154--
1155--
1156--
1157--
1159--
1160--
1161--
1162--
1163--
1164--
1165--
1166--
1167--
1168--
1169--
1170--
1171--
1172--
1173--
1174--
1208--
1209--
1210--
1211--
1212--
1213--
1214--
1215--
1216--
1217--
1218--
1219--
1220--
1221--
1222--
1223--
1224--
1225--
1226--
1227--
1228--
1229--
1230--
1231--
1232--
1233--
1234--
1235--
1236--
1237--
1238--
1239--
1240--
1241--
1263--
127--
1275--
1276--
1277--
1278--
1279--
1280--
1281--
1282--
1283--
1284--
1285--
1286--
1287--
1288--
1289--
1290--
1291--
1292--
1293--
1294--
1295--
1296--
1297--
1298--
1299--
1300--
1301--
1302--
1303--
1304--
1305--
1306--
1307--
1308--
1339--
134--
1342--
1343--
1344--
1345--
1346--
1347--
1348--
1349--
1350--
1351--
1352--
1353--
1354--
1355--
1356--
1357--
1358--
1359--
1360--
1361--
1362--
1363--
1364--
1365--
1366--
1367--
1368--
1369--
137--
1370--
1371--
1372--
1373--
1374--
1375--
1376--
1377--
1378--
1380--
1381--
1382--
1383--
1384--
1385--
1386--
1387--
1388--
1389--
1390--
1391--
1392--
1393--
1394--
1395--
1396--
1397--
1398--
1399--
1400--
1401--
1402--
1403--
1404--
1405--
1406--
1407--
1408--
1409--
141--
1410--
1411--
1412--
1413--
1415--
1416--
1417--
1418--
1419--
1420--
1421--
1422--
1423--
1424--
1425--
1426--
1427--
1428--
1429--
1430--
1431--
1432--
1433--
1434--
1435--
1436--
1437--
1438--
1439--
1440--
1441--
1442--
1443--
1444--
1445--
1446--
1447--
1448--
1449--
1450--
1451--
1452--
1453--
1454--
1455--
1456--
1457--
1458--
1459--
1460--
1461--
1462--
1463--
1464--
1465--
1466--
1467--
1468--
1469--
1470--
1471--
1472--
1473--
1474--
1475--
1476--
1477--
1478--
1479--
1480--
1481--
1482--
1483--
1484--
1485--
1486--
1487--
1488--
1489--
1490--
1491--
1492--
1493--
1494--
1495--
1496--
1497--
1498--
1499--
1500--
1501--
1502--
1503--
1504--
1505--
1506--
1507--
1508--
1509--
1510--
1511--
1512--
1513--
1514--
1515--
1516--
1517--
1518--
1519--
1520--
1521--
1522--
1523--
1524--
1525--
1526--
1527--
1528--
1529--
1530--
1531--
1532--
1533--
1534--
1535--
1536--
1537--
1538--
1539--
1540--
1541--
1542--
1543--
1544--
1545--
1546--
1547--
1548--
1549--
1550--
1551--
1552--
1553--
1554--
1555--
1556--
1557--
1558--
1559--
156--
1560--
1562--
1563--
1564--
1565--
1566--
1567--
1568--
1569--
1570--
1571--
1572--
1573--
1574--
1575--
1576--
158--
1595--
160--
1611--
1612--
1613--
1614--
1615--
1616--
1617--
1618--
1619--
1620--
1621--
1622--
1623--
1624--
1625--
1626--
1627--
1628--
1629--
1630--
1631--
1632--
1633--
1634--
1635--
1636--
1637--
1638--
1639--
1640--
1641--
1642--
1643--
1644--
1645--
1646--
1647--
1648--
1649--
1650--
1651--
1652--
1653--
1654--
1655--
1656--
1657--
1658--
1659--
1660--
1661--
1662--
1663--
1664--
1665--
1666--
1667--
1668--
1669--
167--
16702--
16703--
16706--
16707--
16709--
1671--
1672--
1673--
1674--
1675--
1676--
1677--
1678--
1679--
1680--
1681--
1682--
1683--
1684--
1685--
1686--
1687--
1688--
1689--
1690--
1691--
1692--
1693--
1694--
1695--
1696--
1697--
1698--
1699--
1700--
1701--
1702--
1703--
1704--
1705--
1706--
1707--
1708--
1709--
1710--
1711--
1712--
1713--
1714--
1715--
1716--
1717--
1718--
1719--
1720--
1721--
1722--
1723--
1724--
1725--
1726--
1727--
1728--
1729--
1730--
1731--
1732--
1733--
1734--
1735--
1736--
1737--
1738--
1739--
174--
1740--
1741--
1742--
1743--
1744--
1746--
1747--
1748--
1749--
1750--
1751--
1752--
1753--
1754--
1755--
1756--
1757--
1758--
1759--
1760--
1761--
1762--
1763--
1764--
1765--
1766--
1767--
1768--
1769--
1770--
1771--
1772--
1773--
1774--
1775--
1776--
1777--
1778--
1779--
1780--
1781--
1782--
1783--
1784--
1785--
1786--
1787--
1788--
1789--
1790--
1791--
1792--
1793--
1794--
1795--
1796--
1797--
1798--
1799--
1800--
1801--
1802--
1803--
1804--
1805--
1806--
1807--
1808--
1809--
1810--
1811--
1812--
1813--
1814--
1815--
1816--
1817--
1818--
1819--
1820--
1821--
1822--
1823--
1824--
1825--
1826--
1827--
1828--
1829--
1830--
1831--
1832--
1833--
1834--
1835--
1836--
1837--
1838--
1839--
1840--
1841--
1842--
1843--
1844--
1845--
1913--
1914--
1915--
1916--
1917--
1918--
1919--
1920--
1921--
1922--
1923--
1924--
1925--
1926--
1927--
1928--
1929--
1930--
1931--
1932--
1933--
1934--
1935--
1936--
1937--
1938--
1939--
1940--
1941--
1942--
1943--
1944--
1945--
1946--
1980--
1981--
1982--
1983--
1984--
1985--
1986--
1987--
1988--
1989--
1990--
1991--
1992--
1993--
1994--
1995--
1996--
1997--
1998--
1999--
2000--
2001--
2002--
2003--
2004--
2005--
2006--
2007--
2008--
2009--
2010--
2011--
2012--
2013--
2014--
2015--
2016--
2017--
2018--
2019--
2020--
2021--
2022--
2023--
2024--
2025--
2026--
2027--
2028--
2029--
203--
2030--
2031--
2032--
2033--
2035--
2036--
2037--
2038--
2039--
204--
2040--
2041--
2042--
206--
207--
208--
2081--
2082--
2083--
2085--
2086--
2087--
2088--
209--
20901--
20902--
20907--
20908--
20909--
2091--
2092--
2094--
2095--
2096--
2097--
2098--
2099--
210--
2100--
2101--
2102--
2103--
2104--
2105--
2106--
2109--
211--
2110--
2112--
2113--
213--
215--
218--
219--
220--
224--
226--
231--
237--
239--
241--
242--
245--
246--
247--
248--
249--
251--
252--
257--
258--
259--
260--
262--
263--
264--
265--
266--
267--
268--
269--
270--
271--
272--
273--
274--
275--
276--
277--
278--
279--
280--
281--
282--
283--
284--
285--
286--
287--
288--
289--
290--
291--
292--
293--
294--
295--
296--
297--
298--
299--
300--
301--
302--
303--
304--
305--
306--
307--
308--
309--
311--
312--
313--
314--
315--
3155--
316--
317--
318--
319--
320--
321--
322--
324--
325--
326--
327--
328--
329--
330--
331--
332--
333--
334--
335--
336--
337--
338--
339--
340--
341--
342--
343--
344--
345--
346--
347--
348--
349--
350--
351--
352--
35207--
353--
354--
355--
356--
357--
358--
359--
360--
361--
362--
363--
364--
365--
366--
367--
368--
369--
370--
371--
372--
373--
374--
375--
376--
377--
378--
379--
380--
381--
382--
383--
384--
385--
386--
387--
388--
389--
390--
391--
392--
393--
394--
395--
396--
397--
398--
399--
400--
401--
402--
403--
404--
405--
406--
407--
408--
409--
410--
411--
412--
413--
414--
415--
416--
417--
418--
419--
420--
421--
422--
423--
424--
425--
426--
427--
428--
429--
430--
431--
432--
433--
434--
435--
436--
437--
438--
439--
440--
441--
442--
443--
444--
445--
446--
447--
448--
449--
450--
451--
452--
453--
454--
455--
456--
457--
458--
459--
460--
461--
462--
463--
464--
465--
466--
467--
468--
469--
470--
471--
472--
473--
474--
475--
476--
477--
478--
479--
480--
481--
482--
483--
484--
485--
486--
487--
488--
489--
490--
491--
4911--
492--
493--
494--
495--
496--
497--
498--
499--
500--
501--
502--
503--
504--
505--
506--
507--
508--
509--
510--
511--
512--
513--
514--
515--
516--
517--
518--
519--
520--
521--
522--
523--
524--
525--
5252--
526--
527--
528--
529--
530--
531--
532--
533--
534--
535--
536--
537--
538--
539--
540--
541--
542--
543--
544--
545--
546--
547--
548--
549--
550--
551--
552--
553--
554--
555--
556--
557--
558--
559--
560--
561--
562--
563--
564--
565--
566--
567--
568--
569--
570--
571--
572--
573--
574--
575--
576--
577--
578--
579--
580--
581--
582--
583--
584--
585--
586--
587--
588--
589--
590--
591--
592--
593--
594--
595--
596--
597--
598--
599--
600--
601--
602--
603--
604--
605--
606--
607--
608--
609--
610--
611--
612--
613--
614--
615--
616--
617--
618--
619--
620--
621--
622--
623--
624--
625--
626--
627--
628--
629--
630--
631--
632--
633--
634--
635--
636--
637--
638--
639--
640--
641--
642--
643--
644--
645--
646--
647--
648--
649--
650--
651--
652--
653--
654--
655--
656--
658--
659--
660--
661--
662--
663--
664--
665--
666--
667--
668--
669--
670--
671--
672--
673--
674--
675--
676--
677--
678--
679--
680--
681--
682--
683--
684--
685--
686--
687--
688--
689--
690--
691--
692--
693--
694--
695--
696--
697--
698--
699--
700--
701--
702--
703--
704--
705--
706--
707--
708--
709--
710--
711--
712--
713--
714--
715--
716--
718--
719--
720--
721--
722--
725--
727--
728--
729--
731--
732--
735--
737--
738--
739--
740--
741--
742--
743--
744--
745--
746--
747--
748--
749--
750--
751--
752--
753--
754--
755--
756--
757--
758--
759--
760--
761--
762--
763--
764--
765--
766--
767--
768--
769--
770--
771--
775--
779--
780--
781--
782--
784--
785--
786--
787--
788--
789--
790--
791--
792--
793--
794--
795--
796--
797--
798--
802--
803--
804--
805--
806--
807--
809--
811--
815--
821--
824--
833--
838--
841--
842--
845--
846--
848--
850--
851--
856--
858--
862--
864--
871--
872--
873--
874--
875--
876--
877--
878--
879--
880--
881--
882--
883--
884--
885--
886--
887--
888--
889--
890--
8900--
891--
892--
893--
894--
895--
896--
897--
898--
899--
900--
901--
902--
903--
904--
905--
906--
907--
908--
909--
910--
911--
912--
913--
914--
915--
916--
917--
918--
919--
920--
921--
922--
923--
924--
925--
926--
927--
928--
929--
930--
931--
932--
933--
934--
935--
936--
937--
938--
939--
941--
944--
949--
954--
955--
958--
959--
962--
963--
964--
971--
974--
977--
979--
981--
986--
994--
996--
997--
998--
999--
a--
aa--
ab--
abuse--
ac--
activ--
ad--
add--
ae--
af--
affi--
afri--
ag--
age--
ah--
ai--
air--
ak--
al--
ala--
alex--
alge--
algon--
all--
alt--
alu--
am--
an--
ana--
anar--
and--
ang--
animenews--
ant--
any--
ao--
ap--
append--
appo--
ar--
ara--
arc--
archi--
archipe--
arg--
args--
ari--
arr--
array--
art--
as--
ast--
at--
ath--
atta--
au--
aus--
auto--
av--
ava--
aw--
award--
ax--
ay--
az--
azer--
ba--
bact--
bad--
bai--
bak--
bal--
balu--
ban--
banner--
bar--
bas--
base--
bash--
bat--
bay--
bc--
be--
bel--
ben--
ber--
bh--
bi--
bibl--
biblio--
bin--
bio--
bir--
bis--
bl--
blo--
blooms--
bo--
boha--
bor--
bot--
bour--
box--
br--
brig--
bro--
bu--
budd--
bug--
build--
bun--
bur--
bw--
by--
c--
ca--
cal--
call--
cam--
can--
cap--
car--
carto--
cat--
categ--
category--
cau--
cc--
cd--
ce--
celeb--
cer--
cfg--
ch--
cha--
chart--
che--
check--
chi--
child--
cho--
chr--
chron--
chu--
ci--
cir--
circu--
cite--
citeref--
cl--
claim--
claims--
co--
coa--
code--
col--
colla--
coln--
com--
common--
con--
concat--
contr--
copy--
cor--
corn--
corp--
corr--
cr--
create--
cs--
cu--
curr--
cy--
cyber--
cycl--
d--
da--
dab--
dag--
dam--
dan--
dar--
data--
date--
dateof--
daug--
day--
dd--
de--
dead--
dec--
decode--
def--
default--
deg--
del--
demo--
den--
dep--
des--
desc--
dh--
di--
dia--
dig--
dis--
disam--
disco--
div--
dj--
dm--
do--
doc--
dom--
don--
down--
dr--
dt--
du--
dv--
dw--
dy--
dyna--
e--
ea--
earthly--
eb--
ec--
ed--
edit--
ee--
ef--
eg--
ei--
ej--
ekate--
el--
em--
emerg--
en--
enc--
end--
eng--
entity--
epi--
eq--
equi--
er--
era--
err--
error--
es--
est--
et--
eu--
euro--
ev--
ew--
ex--
exami--
exce--
excl--
exec--
expand--
expl--
ext--
f--
fa--
faci--
fam--
fan--
far--
fb--
fc--
fe--
fed--
fer--
ff--
fi--
file--
filterby--
find--
first--
fl--
flag--
fo--
fon--
for--
format--
forsee--
fort--
fr--
free--
frie--
ft--
fu--
ful--
full--
fun--
fy--
g--
ga--
gag--
gar--
gb--
gd--
ge--
gen--
genitivus--
geo--
ger--
get--
gettimeboundariesfrom--
gha--
gho--
gi--
giga--
gl--
gm--
gn--
go--
god--
gor--
got--
gr--
grat--
grid--
gro--
gs--
gu--
gun--
gw--
gy--
gypt--
h--
ha--
hard--
has--
he--
head--
heavenly--
heavy--
heightwith--
hein--
help--
hen--
her--
hh--
hi--
him--
historicnames--
hm--
ho--
hod--
hr--
html--
hu--
hun--
hurr--
hy--
i--
ia--
ib--
ic--
id--
ideo--
ie--
if--
ig--
ik--
il--
im--
imag--
image--
img--
imp--
in--
info--
ing--
insp--
inst--
instru--
int--
inter--
inui--
inv--
io--
ip--
ir--
is--
isfdb--
iso--
iss--
issu--
issubp--
ist--
istem--
it--
iu--
iw--
ix--
iz--
j--
ja--
jan--
je--
ji--
jo--
json--
ju--
jud--
k--
ka--
kab--
kaf--
kai--
kal--
kam--
kan--
kar--
kata--
ke--
ken--
key--
kg--
kha--
kho--
ki--
kilo--
kir--
kl--
kn--
ko--
koi--
kom--
kr--
ku--
kur--
kw--
kwa--
l--
la--
label--
lak--
lan--
lang--
last--
lastmsg--
lat--
laur--
lay--
lccn--
le--
left--
leo--
les--
lexi--
lh--
li--
lib--
lim--
lin--
line--
link--
list--
listn--
live--
ll--
lo--
loc--
lon--
lt--
lu--
lua--
ly--
m--
ma--
mad--
mag--
mah--
main--
mainsnak--
mak--
make--
mal--
mam--
man--
map--
mar--
mark--
mars--
mas--
mass--
max--
mbo--
mbu--
mcc--
me--
mega--
mel--
men--
mer--
mey--
mi--
micr--
micro--
mid--
mil--
milli--
min--
mir--
mirror--
mis--
mit--
ml--
mm--
mn--
mo--
module--
mon--
mono--
mont--
monu--
mor--
mos--
moz--
mp--
msg--
mt--
mu--
muha--
multi--
mur--
mus--
mw--
my--
n--
na--
name--
nar--
nav--
naz--
nd--
ndo--
ne--
necess--
new--
next--
ng--
nga--
ni--
nil--
nj--
nl--
nn--
no--
nom--
non--
nor--
not--
note--
nou--
ns--
nu--
num--
ny--
nya--
nz--
o--
oc--
od--
ody--
oh--
ok--
ol--
old--
olym--
om--
omni--
on--
only--
op--
open--
or--
os--
other--
ou--
out--
over--
oz--
p--
pa--
pal--
pam--
pan--
pap--
par--
para--
param--
parms--
parse--
pass--
pat--
pe--
pen--
per--
pf--
ph--
pharma--
pho--
photo--
phy--
physi--
pi--
pit--
pl--
pm--
pn--
po--
pol--
politic--
pon--
portal--
possibi--
possible--
pp--
pra--
pre--
prefix--
pri--
print--
pro--
process--
professions--
pron--
prop--
proso--
psycho--
pt--
pu--
pul--
pun--
pur--
pus--
py--
q--
qu--
que--
qui--
r--
ra--
rai--
rail--
raw--
re--
ref--
reg--
rem--
remove--
ren--
render--
rep--
result--
resultchild--
ri--
right--
ro--
row--
rr--
rs--
rt--
ru--
s--
sa--
sah--
sam--
san--
sandbox--
sar--
sassan--
sat--
sc--
sch--
sd--
se--
sec--
see--
self--
sen--
sep--
set--
sev--
sexage--
sh--
sha--
she--
shi--
sho--
show--
shu--
si--
sin--
sk--
skip--
sl--
slo--
small--
sn--
snak--
so--
soci--
some--
son--
sort--
source--
sp--
split--
spo--
spra--
sq--
sr--
ss--
st--
sta--
start--
str--
stre--
stringto--
stu--
su--
sub--
subsection--
succ--
sum--
sun--
sup--
super--
sur--
susta--
sv--
sw--
sy--
sym--
t--
ta--
table--
tag--
take--
tam--
tan--
tat--
tax--
te--
ten--
tepe--
tera--
terr--
text--
texts--
tf--
th--
tha--
the--
this--
thumb--
ti--
tigr--
time--
title--
tl--
to--
ton--
top--
tour--
tr--
trad--
trans--
tre--
trim--
trop--
tru--
trun--
ts--
tsu--
tu--
tum--
tur--
tuto--
tw--
ty--
type--
u--
ug--
uk--
ul--
un--
under--
unit--
units--
univ--
unix--
up--
ur--
url--
us--
use--
user--
uses--
ut--
v--
va--
val--
van--
var--
vc--
ve--
vi--
viki--
vir--
vo--
vol--
vul--
w--
wa--
wan--
want--
war--
wat--
way--
wd--
we--
web--
wein--
west--
whe--
wi--
wiki--
wild--
win--
wit--
with--
wo--
wood--
work--
wp--
wrap--
ws--
wy--
x--
xi--
xx--
y--
ya--
yar--
yem--
yer--
yi--
ym--
yo--
yu--
yug--
yuk--
z--
za--
zen--
zh--
zim--
zo--
zu--
ı--
ŋ--
ɔ--
ə--
ɡ--
σ--
а--
аб--
абад--
абак--
абаш--
аббреви--
абдул--
абза--
аби--
абстр--
абу--
абы--
ав--
авар--
авдеев--
авер--
авиа--
авто--
автобу--
автомоб--
аг--
ага--
агапо--
агафонов--
агглюти--
агент--
аго--
агра--
агро--
агь--
ад--
ада--
адво--
аде--
адж--
адис--
адур--
ады--
аж--
ажалъ--
ажи--
аз--
аза--
азар--
азарго--
аи--
ак--
акинь--
акту--
аку--
акул--
акулов--
акустик--
акш--
акъ--
акъикъ--
ал--
ала--
алаб--
алат--
алда--
але--
алек--
алеш--
али--
алим--
алк--
алма--
алт--
алх--
алъ--
аль--
альметьев--
альтер--
ам--
амад--
амир--
амо--
амру--
амур--
ан--
ана--
анатоли--
анаш--
анг--
анга--
андер--
андр--
андри--
андрю--
ани--
анкь--
ано--
антарк--
анти--
анто--
антр--
анциферов--
анці--
анцӏ--
ап--
апок--
аппар--
ар--
ара--
араб--
аракат--
арал--
арбитраж--
аре--
арен--
арз--
ари--
арк--
арп--
арсла--
арслан--
арт--
артю--
архе--
археологиче--
архи--
ас--
аса--
асир--
асла--
аспек--
аспи--
аст--
астро--
асхӏаб--
ат--
атаманов--
атмосфе--
атом--
аудио--
аф--
афгани--
афин--
афип--
ах--
ахир--
ахме--
ахъ--
ахь--
ахьал--
ахі--
ахӏ--
ацш--
ач--
ачи--
аш--
ая--
аят--
б--
ба--
баб--
баба--
бабушкин--
баг--
багъ--
багӏ--
бадру--
баж--
баже--
баз--
бак--
бакла--
баку--
бакъ--
бакь--
бакі--
бакӏ--
бал--
бала--
балка--
балъ--
бам--
бан--
бангл--
бар--
баранов--
баргузин--
барсу--
бары--
бас--
басралъ--
бат--
батӏа--
бах--
бахти--
бахъ--
бахі--
бахӏ--
бахӏар--
бац--
баці--
бацӏ--
бач--
бачин--
бачӏ--
баш--
бащ--
бащдаб--
бащдарагь--
баян--
бе--
бег--
бегь--
без--
безвод--
безоб--
безымян--
бек--
бекетов--
бекь--
бел--
бела--
бели--
бело--
белог--
бель--
беля--
белян--
бен--
бер--
бере--
бес--
бесс--
бессроч--
бет--
бец--
бецӏ--
бече--
би--
библиографиче--
биж--
бизант--
бика--
бикъ--
бикь--
бил--
билълъ--
биль--
билӏ--
био--
бис--
биті--
битӏ--
бихх--
бихь--
бихьи--
биц--
бица--
бицин--
бицц--
бич--
бичі--
бичӏ--
биш--
бищ--
бл--
благо--
ближ--
бо--
бог--
бого--
бож--
божу--
бокь--
бокі--
бокӏ--
бол--
боль--
большин--
бом--
бон--
бор--
борж--
борзин--
борти--
борцин--
бос--
боси--
босф--
бот--
ботӏ--
бох--
брюсс--
бу--
буге--
буго--
бугъ--
бугь--
буду--
бук--
букі--
букӏ--
бул--
булла--
бур--
бусс--
бусур--
бут--
бутко--
бутурли--
буты--
бутіа--
бух--
бухь--
бухӏ--
буч--
буш--
буян--
бы--
быв--
быр--
бю--
бюрократ--
бян--
в--
ва--
вави--
ваг--
вагъ--
важ--
ваз--
вак--
вакъ--
вал--
валенти--
валь--
ван--
вар--
вас--
василь--
ват--
ваті--
ватіанч--
вах--
вахъ--
вахӏ--
вац--
вач--
вачӏ--
ваш--
вво--
вд--
вдо--
ве--
векто--
векь--
вели--
велико--
велья--
веляр--
вен--
вер--
верти--
вертикал--
верхне--
верхов--
верховаж--
верш--
вет--
веч--
веш--
вз--
взят--
ви--
вибри--
вид--
видео--
виз--
визант--
визу--
вики--
вил--
вин--
виногра--
вип--
вир--
виртуаль--
вис--
вит--
виті--
вих--
вихь--
вихьизав--
вичч--
виш--
вищ--
вла--
влади--
влады--
владыч--
вли--
вн--
внеш--
внутрен--
во--
вог--
вод--
водо--
водор--
вое--
вож--
воз--
возв--
возвра--
возне--
вок--
вокь--
вол--
волков--
воло--
волок--
волоконов--
волочае--
волх--
волч--
воль--
вон--
вор--
ворж--
воро--
воров--
вос--
воск--
восста--
вп--
все--
вспомогатель--
вставле--
вто--
ву--
вукъ--
вукі--
вукӏ--
вуль--
вусс--
вх--
вы--
выб--
выз--
выне--
выра--
выре--
выс--
выш--
г--
га--
габ--
гаври--
газ--
гал--
гала--
гали--
галь--
гам--
гамс--
ган--
гань--
гап--
гар--
гард--
гармо--
гат--
гау--
гаф--
гачи--
гаш--
гвангъ--
гви--
гвоз--
гвозд--
ге--
гек--
геме--
ген--
генже--
гео--
географиче--
геок--
геологиче--
геоме--
геор--
гер--
герасимов--
герб--
гет--
ги--
гиб--
гид--
гил--
гилди--
гиль--
гим--
гимно--
гипер--
гир--
гит--
гл--
гла--
глав--
глад--
глаз--
глаза--
глеб--
глин--
глоб--
глобаль--
глу--
глуб--
глубин--
глубоков--
глух--
глуш--
глы--
гля--
гнез--
гнезди--
гнил--
го--
говя--
гоголев--
гол--
голо--
голов--
голуб--
голубин--
голыш--
голь--
гом--
гомз--
гомо--
гомосек--
гон--
гончаров--
гор--
горизон--
горно--
гос--
гоч--
гочин--
граду--
граж--
граждан--
гренлан--
грече--
гри--
григориан--
груз--
грузин--
гу--
губ--
гуда--
гул--
гуладты--
гум--
гуманита--
гумуз--
гур--
гургин--
гуч--
гъ--
гъаз--
гъази--
гъал--
гъалгъ--
гъара--
гъат--
гъене--
гъо--
гъоркь--
гъорлӏ--
гъу--
гъум--
гъуме--
гъун--
гь--
гьа--
гьав--
гьар--
гьаркь--
гье--
гьеб--
гьеди--
гьекъ--
гьен--
гьетӏ--
гьечӏ--
гьи--
гьиксо--
гьикъ--
гьиті--
гьо--
гьодорлъи--
гьом--
гьон--
гьор--
гьу--
гьуин--
гьукъ--
гьун--
гьуъ--
гюн--
гян--
гі--
гіа--
гіаб--
гіад--
гіада--
гіахь--
гіахьал--
гіи--
гіизраи--
гіисс--
гіодо--
гіол--
гіор--
гіу--
гіуці--
гӏ--
гӏаб--
гӏабду--
гӏакъ--
гӏали--
гӏанди--
гӏар--
гӏасраб--
гӏатӏ--
гӏе--
гӏеблъел--
гӏемер--
гӏи--
гӏиба--
гӏо--
гӏодо--
гӏор--
гӏуж--
гӏун--
гӏур--
гӏурхъ--
гӏуцӏ--
д--
да--
даг--
дагь--
дал--
даль--
дам--
дан--
данд--
данде--
дандекк--
дап--
дар--
дарбег--
дахадае--
дви--
движ--
де--
деме--
демо--
демократиче--
демон--
депар--
дер--
дет--
деш--
дж--
джан--
джом--
джу--
джум--
дз--
ди--
диаг--
диаграм--
диакритик--
диаспора--
диван--
дин--
динамик--
династ--
дис--
диску--
дли--
дми--
днев--
днепро--
до--
доб--
дол--
дон--
дополни--
допу--
дор--
дос--
досто--
достоин--
доступ--
др--
древ--
дру--
друж--
ду--
дуб--
дубров--
дул--
дун--
дур--
духов--
дьяк--
дю--
е--
еб--
ев--
еван--
евро--
ег--
ед--
еж--
еза--
ел--
елизаветин--
елму--
еме--
ен--
епи--
ер--
ермо--
есф--
ех--
ехь--
ец--
ж--
жаб--
жав--
жал--
жам--
жан--
жануб--
же--
жеде--
желез--
жи--
жиз--
жин--
жинс--
жир--
жо--
жодо--
жу--
жудо--
жук--
жум--
жумла--
жун--
з--
за--
забы--
заверш--
заг--
загъ--
загь--
загіип--
загӏип--
задаю--
заинтересо--
зак--
зака--
закры--
зал--
зам--
заме--
замести--
зан--
запад--
записы--
запу--
зар--
зареги--
зареч--
заслуже--
зах--
захӏ--
защи--
зая--
заяв--
здоч--
зе--
зел--
зем--
зен--
зер--
зим--
зина--
зия--
зна--
зоб--
золо--
зона--
зу--
зуб--
зугь--
и--
иб--
ибе--
иву--
иг--
игнатьев--
игъ--
ид--
иде--
ие--
иере--
иеро--
из--
изб--
изве--
изд--
изме--
изоб--
изолирован--
ии--
ик--
икъ--
икі--
ил--
ила--
иллъ--
иллю--
илчи--
иль--
им--
имам--
иман--
импери--
ин--
инг--
инди--
индо--
индоне--
инду--
инже--
иници--
инк--
инкъ--
инкъи--
ино--
интел--
интер--
интернаци--
инф--
инхо--
инчі--
инчӏ--
иор--
ип--
ир--
иран--
ирс--
ис--
иса--
исм--
исполни--
исра--
ист--
историче--
исуп--
исф--
исх--
итальян--
иу--
их--
ихх--
ихь--
иц--
ицц--
ич--
ичӏ--
иш--
ия--
ияб--
к--
ка--
каб--
кабар--
кабине--
кав--
кавалер--
кагъ--
каде--
кадр--
каж--
каз--
каза--
как--
кал--
калинов--
кам--
каме--
каму--
камчат--
кан--
канцеляр--
кап--
капи--
капитан--
капур--
кар--
кара--
кард--
карто--
кас--
каспи--
кат--
каф--
кафедр--
кач--
каш--
кв--
квад--
квана--
квани--
квач--
квачі--
квер--
квин--
ке--
кен--
ки--
киев--
килщ--
кин--
кино--
кипр--
кир--
кири--
киш--
кк--
кке--
ккезария--
кко--
кл--
кле--
клуб--
кн--
книж--
кня--
княже--
ко--
коалици--
коб--
ков--
код--
коз--
кок--
кол--
количе--
ком--
коме--
комм--
коммента--
коммер--
компью--
компьютер--
кон--
конк--
конкрет--
консер--
консти--
конституци--
конт--
контек--
конфер--
коор--
кор--
кос--
косм--
космиче--
космо--
кочубее--
кош--
кр--
крас--
красно--
кре--
кремл--
кри--
крис--
кру--
круп--
крым--
ку--
кубри--
куз--
кузне--
кул--
кули--
куль--
кумык--
кун--
кур--
курд--
кури--
курч--
куф--
куц--
къ--
къара--
къе--
къер--
къец--
къибла--
къир--
къирал--
къо--
къорол--
къоті--
къотӏ--
къу--
къул--
къур--
кы--
кыш--
кь--
кьаб--
кьвагь--
кьвар--
кье--
кьер--
кьиж--
кьол--
кьур--
кэ--
кю--
кі--
кіанці--
кіи--
кіикі--
кіодолъи--
кіуті--
кӏ--
кӏанцӏ--
кӏахети--
кӏи--
кӏикӏ--
кӏо--
кӏу--
кӏутӏ--
л--
ла--
лав--
лага--
ладе--
лак--
лам--
лан--
лап--
лахӏза--
ле--
лег--
леги--
лен--
ли--
либ--
лин--
липе--
липо--
лирик--
литератур--
литов--
лицен--
лич--
ло--
лок--
лологъ--
лор--
лу--
лукъ--
лъ--
лъа--
лъаб--
лъазаб--
лъазав--
лъар--
лъе--
лъи--
лъим--
лъугьа--
лъугі--
лъугӏ--
лъукъ--
лъут--
ль--
лю--
люд--
ліу--
ліугь--
лӏ--
лӏу--
лӏугӏ--
м--
ма--
мав--
маг--
магъри--
магі--
магӏ--
мад--
маду--
мадугьал--
маж--
маз--
маза--
мак--
макка--
макро--
мал--
малла--
мало--
мам--
ман--
мане--
мар--
марс--
мас--
маслов--
масс--
мат--
материк--
мах--
махӏ--
мач--
маш--
ме--
мегь--
медведе--
меди--
меж--
между--
мел--
мему--
мен--
мер--
месед--
мест--
месхе--
мет--
мефо--
мех--
ми--
мик--
микро--
мил--
мин--
мир--
миср--
мисси--
мит--
мих--
мно--
много--
мо--
могиле--
модер--
модиф--
модул--
мол--
молек--
мон--
монаст--
моно--
монт--
мор--
морал--
моро--
москов--
моцӏ--
мс--
му--
мугъ--
мугь--
мугьажирлъи--
мугі--
муд--
муж--
музе--
мукъ--
мукъад--
мукъулукъ--
мун--
мунагь--
мур--
мурз--
мурид--
мурш--
мус--
мусуль--
мусульман--
мутіті--
мутӏигӏ--
муф--
мухъ--
мухі--
мьян--
мю--
н--
на--
наблю--
нав--
нави--
наг--
над--
наж--
наз--
назы--
называе--
нак--
накӏ--
напеч--
напи--
напо--
нар--
нарт--
наруш--
нас--
нату--
науч--
нах--
нахъ--
нахъа--
нахъбусс--
нахърат--
[...]
