!
"
#
##a
##aa
##ab
##ac
##ad
##ae
##af
##ag
##ah
##ai
##aj
##ak
##al
##am
##an
##ao
##ap
##aq
##ar
##as
##at
##au
##av
##aw
##ax
##ay
##az
##b
##ba
##bb
##bc
##bd
##be
##bf
##bg
##bh
##bi
##bj
##bk
##bl
##bm
##bn
##bo
##bp
##bq
##br
##bs
##bt
##bu
##bv
##bw
##bx
##by
##bz
##c
##ca
##cb
##cc
##cd
##ce
##cf
##cg
##ch
##ci
##cj
##ck
##cl
##cm
##cn
##co
##cp
##cq
##cr
##cs
##ct
##cu
##cv
##cw
##cx
##cy
##cz
##d
##da
##db
##dc
##dd
##de
##df
##dg
##dh
##di
##dj
##dk
##dl
##dm
##dn
##do
##dp
##dq
##dr
##ds
##dt
##du
##dv
##dw
##dx
##dy
##dz
##e
##ea
##eb
##ec
##ed
##ee
##ef
##eg
##eh
##ei
##ej
##ek
##el
##em
##en
##eo
##ep
##eq
##er
##es
##et
##eu
##ev
##ew
##ex
##ey
##ez
##f
##fa
##fb
##fc
##fd
##fe
##ff
##fg
##fh
##fi
##fj
##fk
##fl
##fm
##fn
##fo
##fp
##fq
##fr
##fs
##ft
##fu
##fv
##fw
##fx
##fy
##fz
##g
##ga
##gb
##gc
##gd
##ge
##gf
##gg
##gh
##gi
##gj
##gk
##gl
##gm
##gn
##go
##gp
##gq
##gr
##gs
##gt
##gu
##gv
##gw
##gx
##gy
##gz
##h
##ha
##hb
##hc
##hd
##he
##hf
##hg
##hh
##hi
##hj
##hk
##hl
##hm
##hn
##ho
##hp
##hq
##hr
##hs
##ht
##hu
##hv
##hw
##hx
##hy
##hz
##i
##ia
##ib
##ic
##id
##ie
##if
##ig
##ih
##ii
##ij
##ik
##il
##im
##in
##io
##ip
##iq
##ir
##is
##it
##iu
##iv
##iw
##ix
##iy
##iz
##j
##ja
##jb
##jc
##jd
##je
##jf
##jg
##jh
##ji
##jj
##jk
##jl
##jm
##jn
##jo
##jp
##jq
##jr
##js
##jt
##ju
##jv
##jw
##jx
##jy
##jz
##k
##ka
##kb
##kc
##kd
##ke
##kf
##kg
##kh
##ki
##kj
##kk
##kl
##km
##kn
##ko
##kp
##kq
##kr
##ks
##kt
##ku
##kv
##kw
##kx
##ky
##kz
##l
##la
##lb
##lc
##ld
##le
##lf
##lg
##lh
##li
##lj
##lk
##ll
##lm
##ln
##lo
##lp
##lq
##lr
##ls
##lt
##lu
##lv
##lw
##lx
##ly
##lz
##m
##ma
##mb
##mc
##md
##me
##mf
##mg
##mh
##mi
##mj
##mk
##ml
##mm
##mn
##mo
##mp
##mq
##mr
##ms
##mt
##mu
##mv
##mw
##mx
##my
##mz
##n
##na
##nb
##nc
##nd
##ne
##nf
##ng
##nh
##ni
##nj
##nk
##nl
##nm
##nn
##no
##np
##nq
##nr
##ns
##nt
##nu
##nv
##nw
##nx
##ny
##nz
##o
##oa
##ob
##oc
##od
##oe
##of
##og
##oh
##oi
##oj
##ok
##ol
##om
##on
##oo
##op
##oq
##or
##os
##ot
##ou
##ov
##ow
##ox
##oy
##oz
##p
##pa
##pb
##pc
##pd
##pe
##pf
##pg
##ph
##pi
##pj
##pk
##pl
##pm
##pn
##po
##pp
##pq
##pr
##ps
##pt
##pu
##pv
##pw
##px
##py
##pz
##q
##qa
##qb
##qc
##qd
##qe
##qf
##qg
##qh
##qi
##qj
##qk
##ql
##qm
##qn
##qo
##qp
##qq
##qr
##qs
##qt
##qu
##qv
##qw
##qx
##qy
##qz
##r
##ra
##rb
##rc
##rd
##re
##rf
##rg
##rh
##ri
##rj
##rk
##rl
##rm
##rn
##ro
##rp
##rq
##rr
##rs
##rt
##ru
##rv
##rw
##rx
##ry
##rz
##s
##sa
##sb
##sc
##sd
##se
##sf
##sg
##sh
##si
##sj
##sk
##sl
##sm
##sn
##so
##sp
##sq
##sr
##ss
##st
##su
##sv
##sw
##sx
##sy
##sz
##t
##ta
##tb
##tc
##td
##te
##tf
##tg
##th
##ti
##tj
##tk
##tl
##tm
##tn
##to
##tp
##tq
##tr
##ts
##tt
##tu
##tv
##tw
##tx
##ty
##tz
##u
##ua
##ub
##uc
##ud
##ue
##uf
##ug
##uh
##ui
##uj
##uk
##ul
##um
##un
##uo
##up
##uq
##ur
##us
##ut
##uu
##uv
##uw
##ux
##uy
##uz
##v
##va
##vb
##vc
##vd
##ve
##vf
##vg
##vh
##vi
##vj
##vk
##vl
##vm
##vn
##vo
##vp
##vq
##vr
##vs
##vt
##vu
##vv
##vw
##vx
##vy
##vz
##w
##wa
##wb
##wc
##wd
##we
##wf
##wg
##wh
##wi
##wj
##wk
##wl
##wm
##wn
##wo
##wp
##wq
##wr
##ws
##wt
##wu
##wv
##ww
##wx
##wy
##wz
##x
##xa
##xb
##xc
##xd
##xe
##xf
##xg
##xh
##xi
##xj
##xk
##xl
##xm
##xn
##xo
##xp
##xq
##xr
##xs
##xt
##xu
##xv
##xw
##xx
##xy
##xz
##y
##ya
##yb
##yc
##yd
##ye
##yf
##yg
##yh
##yi
##yj
##yk
##yl
##ym
##yn
##yo
##yp
##yq
##yr
##ys
##yt
##yu
##yv
##yw
##yx
##yy
##yz
##z
##za
##zb
##zc
##zd
##ze
##zf
##zg
##zh
##zi
##zj
##zk
##zl
##zm
##zn
##zo
##zp
##zq
##zr
##zs
##zt
##zu
##zv
##zw
##zx
##zy
##zz
$
%
&
'
(
)
*
+
,
-
.
/
0
00
000
0001
0002
0004
00086
001
001389
0018246
0019
002
0025100303001191
0025100304001628
0025100307002940
0026
003
004
0040
0049
00541
0059
006
00680
007
009
01
010
011
0128
013
013574
0139
014
0140
0146
015
0154
0158
016
016015
016941
017532
018306
02
020
02030
021
02121
02178
023
025
02677
028
029
0292
03
030
030420
031
032
0340928271
035
036
04
04067
04136
042
044
046
047
05
05128
0520037991
053
055
0596
06
0614
062
0622
065
067
07
073
076
08
080
081
084
085
0857
0870
0899
09
090
091
092
095
098
0a
0b
0c
0d
0e
0f
0g
0h
0i
0j
0k
0l
0m
0n
0o
0p
0q
0r
0s
0t
0u
0v
0w
0x
0y
0z
1
10
100
1000
1002
1004
1007
1008
101
1011
1016
1017
102
1020
1023
1024
1025
10261
103
1032
1038
104
10458
1046
105
1057
106
1065
1067
1068
1069
107
1070
1071
1072
1077
108
1080
1085
1086
1088
109
1091
1093
1097
11
110
1100
1107
111
1111
1114
1115
1118
112
11200
1122
1125966
113
114
1142
1146
115
116
11649
117
1170
1172
1177
118
1180
1185
1186
119
1190
1191
1194
1194038
12
120
1200
12000
1205
121
1212
1213
1216
1217
122
123
12346
1238
124
1240
1245
1247
1248
125
1250
1255
1256
126
1260
1262
1263
1265
127
1270
1275
1276
1279
128
1281
129
1292
1295
1297
12989
1299
13
130
1300
1301
1303
130747807
131
1314
1316
1317
1318
1319
132
1320
1321
1326
1327
133
1337
134
1341
1345
135
1353
1359
136
1360
1362
137
1378
138
1380
1389
139
14
140
1400
1404
1406
141
1410
1415
1416
142
1421
1423
1425
143
1431
1434
1435
144
1443
145
14525
1453
146
1460
1463
1468
147
148
1480
1482
1485
149
15
150
1500
1504
1505
151
1510
1514
1515
1517
152
1525
1527
153
1535
1537
1539
154
1540
1541
1544
1546
1547
155
1550
1551
1553
1554
1557
15585
156
1560
1563
1564
1569
157
1570
1572
1574
1576
1577
1578
1579
158
1580
1581
1582
1585
1588
1589
159
1592
1594
1595
1596
16
160
1600
1601
1605
1606
1608
161
1611
1613
1614
1615
1616
162
1620
1628
163
1630
1632
1634
1636
1638
164
1643
1646
1648
1649
165
1650
1652
1656
1657
166
1660
1664
1667
1668
167
1672
1674
1675
1677
1679
168
1680
1682
1688
1689
169
1699
17
170
1700
170109
1703
1705
1706
1707
171
17104
1711
1712
1714
1715
1717
172
1721
1722
1723
1724
1729
173
1730
1731
17324
1735
1739
174
1740
1742
1743
1744
1745
1746
174755630
175
1750
1753
1754
1755
1759
176
1760
1761
1762
1763
1764
1765
1766
1767
1768
1769
177
1770
1771
1772
1773
1774
1776
1778
1779
178
1780
1783
1784
1785
1786
1787
1788
1789
179
1790
1791
1792
1793
1794
1795
1796
1797
1798
1798125
1799
18
180
1800
1801
1802
1803
1804
1805
1806
1807
1808
1809
181
1810
1811
1812
1813
1814
1815
1816
1817
1818
182
1820
1821
1822
1823
1824
1825
1826
1827
1828
1829
183
1830
1831
1832
1833
1834
1835
1836
1837
1839
184
1840
1841
1842
1843
1844
1845
1846
1847
1848
1849
185
1850
1851
1852
1853
1854
1855
1856
1857
1858
1859
186
1860
1861
1862
1863
1864
1865
1866
1867
1868
1869
187
1870
1871
1872
1873
1874
1875
1876
1877
1878
1879
188
1880
1881
1882
1883
1884
1885
1886
1887
1888
1889
189
1890
1891
1892
1893
1894
1895
1896
1897
1898
1899
19
190
1900
1901
1902
1903
1904
1905
1906
1907
1908
1909
191
1910
1911
1912
1913
1914
1915
1916
1917
1918
1919
192
1920
1921
1922
1923
1924
1925
1926
1927
1928
1929
193
1930
1931
1932
1933
1934
1935
193563
1936
1937
1938
1939
194
1940
1941
1942
1943
1944
1945
1946
1947
1948
1949
195
1950
1951
1952
1953
1954
1955
1956
1957
1958
1959
196
1960
1961
1962
1963
1964
1965
1966
1967
1968
1969
197
1970
1971
1972
1973
1974
1975
1976
1977
1978
1979
198
1980
1981
19815
1982
1983
1984
1985
1986
1987
1988
1989
199
1990
1991
1992
1993
19938912
1994
1995
1996
1997
1998
1999
1a
1b
1c
1d
1e
1f
1g
1h
1i
1j
1k
1l
1m
1n
1o
1p
1q
1r
1s
1t
1u
1v
1w
1x
1y
1z
2
20
200
2000
2001
2002
2003
2004
2005
2006
20060310231749
2007
2008
2009
201
2010
20100327011731
2011
20110501143439
2012
2013
2014
2015
2016
2017
2018
2019
202
2020
2021
2022
2024
2027
203
2030
2032
204
205
2050
2056
206
207
2078
208
209
2096
2098
21
210
2101
211
211675
212
2120
213
214
215
2150
216
217
218
2181
219
22
220
2200
221
222
223
224
225
226
2263
227
22748592
228
2281
229
2297
23
230
2307
231
232
233
234
2345
2347
235
236
237
237227
238
239
23936
24
240
2400
241
2412
242
2423
2425
243
2433
244
244413
245
2454
246
2466
247
2476
248
249
2498
25
250
2500
2504
251
252
25245135
2526
253
254
2543
2544
255
256
2561
2563
256507
2567
257
258
2586178
2589
259
26
260
261
2613
262
2624680
263
2639
264
2646
265
2650
2657
266
267
268
2686
269
2690
27
270
2700
2707
271
272
2723
273
2730
27302
274
275
276
277
2778
278
27893152
27893345
279
28
280
2803
280458
281
282
283
284
2842
285
2853
286
287
288
28857
289
2890
29
290
2900
291
292
293
294
295
296
297
298
2982
29861311
299
2a
2b
2c
2d
2e
2f
2g
2h
2i
2j
2k
2l
2m
2n
2o
2p
2q
2r
2s
2t
2u
2v
2w
2x
2y
2z
3
30
300
3000
301
30199
302
303
3032
304
304037
305
306
307
308
3085
309
31
310
3100
3109
311
312
313
314
315
3150
316
31641
3166
3167
317
318
319
32
320
3200
321
322
323
324
325
326
327
328
329
33
330
331
332
333
3339
334
335
336
337
338
339
34
340
3400
34001
341
342
343
344
345
34579
346
3460
347
348
3480
349
34908469
35
350
3500
351
352
353
353406
354
355
356
357
358
359
36
360
361
362
363
364
3648
365
36578
366
367
368
36878
369
37
370
3700
371
372
373
374
375
376
377
378
379
38
380
381
382
383
384
385
386
3860
387
388
389
39
390
391
392
393
394
395
396
397
398
399
3a
3b
3c
3d
3e
3f
3g
3h
3i
3j
3k
3l
3m
3n
3o
3p
3q
3r
3s
3t
3u
3v
3w
3x
3y
3z
4
40
400
4000
401
40179
402
4020
403
4039
404
405
4051
406
40645
407
408
409
41
410
411
4117183
412
413
414
415
4150
41586
416
417
418
419
42
420
42089
421
4214
422
423
424
425
426
427
428
4282
4285
4289
429
43
430
4301
432
434
435
436
437
438
44
440
441
442
443
4438
444
4443
445
446
447
448
449
45
450
451
452
453
455
456
457
458
459
46
460
463
464
464633
465
467
468
469
47
470
471
472
473
474
475
476
477
478
479
47998
48
480
484
485
486
487
488
489
4890
49
490
491
492
4930
494
495
496
497
498
499
4994
4a
4b
4c
4d
4e
4f
4g
4h
4i
4j
4k
4l
4m
4n
4o
4p
4q
4r
4s
4t
4u
4v
4w
4x
4y
4z
5
50
500
5000
500267
501
502
503
504
505
506
50650
507
507993
508
509
51
510
5100
511
512
513
514
515
5155
517
517775
518
519
52
520
521
523
524
5243320
525
526
527
528
5282129
529
53
530
531
532
533
534
535
538
539
54
540
541
543
544
545
546
54837
549
55
550
551
552
553
554
555
556
557
55778
558
559
56
560
561
562
563
564
5642
566
567
568
569
57
570
571
57181
572
57322
574
57488
575
57506
576
577
578
579
57958
58
580
581
582
583
584
58487
585
58567
589
59
590
591
592
593
594
59420
594434
595
596
597
598
5985
599
5a
5b
5c
5d
5e
5f
5g
5h
5i
5j
5k
5l
5m
5n
5o
5p
5q
5r
5s
5t
5u
5v
5w
5x
5y
5z
6
60
600
6000
601
602
603
604
604273
60436
605
606
607
608
609
61
610
612
614
615
616
61694
617
618
619
62
620
622
623
6236
624
6247
625
626
629
63
630
63000
631
632
633
634
635
636
6361
637
63751
638
639
6391
64
640
641
642
643
644
645
646
647
649
6494
65
650
651
652
65236
654
656
657
66
660
661
662
663
664
665
666
667
67
670
671
672
673
6736
674
676
677
678
679
68
680
681
682
683
684
685
686
687
688
69
690
691
692
693
695
696
698
699
6a
6b
6c
6d
6e
6f
6g
6h
6i
6j
6k
6l
6m
6n
6o
6p
6q
6r
6s
6t
6u
6v
6w
6x
6y
6z
7
70
700
7006
7007
701
702
7020
703
704
705
706
707
7070
71
710
7100
711
712
7126
713
7139
714
7141
7146
715
7156
716
7166
717
718
7181
719
7190
72
720
721
722
7278
728
729
73
730
733
734
735
737
7391
74
740
741
742
7425
7432
744
745
7453
7456
747
7472
7478
748
75
750
751
752
7525
7553
756
76
760
7603
7607
762
764
765
7653
7656
766
767
769
77
770
771
772
773
775
777
7777
778
779
78
781
7818
782
783
784
785
7864
787
7894
79
790
791
7916
799
7a
7b
7c
7d
7e
7f
7g
7h
7i
7j
7k
7l
7m
7n
7o
7p
7q
7r
7s
7t
7u
7v
7w
7x
7y
7z
8
80
800
8000
801
8014
8018
802
8020
8021
8028
803
8032
804
8047
805
8050
8053
806
807
8078
80789
808
809
81
810
8117
811774
8129
813
8131
8133
8135
814
8141
8147
815
816
8160
8166
817
818
819
82
820
820873
821
8223
823
8243
8248
825
826
8262
8264
828
8289
83
830
831
832
833
8335
835
8386
839
84
840
841
84176
8420
84212
843
84511
846
84603
847
8476
848
849
85
850
8501
85052
851
85109
85120
852
85270
853
8536
854
855
85532
856
857
85728
858
85803
859
86
860
8601
86064
86189
86207
863
864
865
867
868
86840
869
87
870
871
872
873
87338
874
87444
875
87516
876
87668
878
879
87910
88
880
881
882
883
884
8844
8848
885
8850
886
887
888
88812
889
89
890
891
892
89282
893
89321
89329
8944
897
898
89875
899
8a
8b
8c
8d
8e
8f
8g
8h
8i
8j
8k
8l
8m
8n
8o
8p
8q
8r
8s
8t
8u
8v
8w
8x
8y
8z
9
90
900
900416
901
901756
902
903
904
905
906206
907
909
91
910
911
912
913
914
917
918
92
920
923
924522
925
926
9265
9268
928
929
929631
93
930
932
933
934
936
938
939
94
940
941
941694
942
943
945
947
949
95
950
951
952
9524
9524018
9525
953
9533
956
957
96
960
96053
961
9614
962
9624423
964
966
967
968
969
97
970
971
972
973
974
974701
976
977
978
9780190277727
9780192115461
9780684312422
9780815344322
9781136258459
9781139084932
9781444183092
9781444390186
979
9794
98
980
982
983
9835
98443
985
986
987
989
99
9902359
992
993
994
995
995344
996
997
9971
9976
998
999
99909
99932
9a
9b
9c
9d
9e
9f
9g
9h
9i
9j
9k
9l
9m
9n
9o
9p
9q
9r
9s
9t
9u
9v
9w
9x
9y
9z
:
;
<
=
>
?
@
[
[CLS]
[MASK]
[PAD]
[SEP]
[UNK]
\
]
^
_
`
a
a0
a1
a2
a3
a4
a5
a6
a7
a8
a9
aa
aat
ab
abaachi
abacus
abana
abandoned
abbey
abbott
abc
abd
abdel
abdolhossein
abdul
abdulaziz
abel
aben
aberta
abha
abhandlungen
abierta
abingdon
abna
abolished
abolition
abolitions
aboriginal
about
above
abraham
abrahamian
abrams
abrege
abridged
absolute
abstract
absturz
abu
abubakaraimaki
abujadin
abuses
abydos
ac
academia
academic
academy
acanthus
accents
access
accessed
accessible
accession
accident
accipiter
according
account
accounts
ackroyd
acoustic
across
act
action
activist
activities
actor
acts
acık
acıq
ad
adallo
adam
adams
adaptation
adatok
add
addax
added
adding
addition
additional
adeddin
adele
adenauer
adhan
adjusted
adjustment
adler
administration
administrative
adopted
adrese
adrian
advanced
advances
adyghe
ae
aegean
aegyptus
aepyceros
aero
aesthetics
af
affairs
affiliated
afghan
afghanistan
africa
african
africana
afrikaans
afroasiatic
after
aftermath
ag
again
against
age
agence
agency
ages
agreed
agreement
agricultural
agx
agyazı
agypten
agyptisch
agyptische
agyptischen
agyptisches
agyptologische
ah
aheku
ahmad
ahmed
ahmet
ahmose
ahram
ai
aidan
ailuropoda
ailurus
air
airasia
airbus
aircraft
airline
airlines
airport
airports
airways
aitotours
aj
ak
akhaltsikhe
akkadian
aktualisierte
al
alabama
alan
alaska
alastair
alatəmir
alba
albanian
albatros
albert
alberta
alberto
alberts
alborz
album
alcelaphus
alchemy
aldine
alessandro
alex
alexa
alexander
alexandre
alexis
alfred
ali
alif
aligadji
alighieri
align
alison
alistair
alive
all
allah
allan
alleato
allegations
allen
alliance
allied
allies
allmusic
allow
ally
alone
alpes
alpha
alphabet
alphabets
alpinus
also
alte
alten
alter
alternative
altertumskunde
altgeorgischen
although
altitude
alto
alutiiq
alw
always
am
amar
amazon
ambassador
amelie
amenemhat
amenhotep
america
american
americana
americans
americas
amir
ammodorcas
ammon
amnesty
among
amos
amounts
amphibius
amq
amsterdam
amt
an
ana
analecta
anales
analisi
analysis
anastomus
anatidae
anatolian
anatomical
anatomy
anba
anchor
ancient
and
andersen
anderson
andido
andmete
andorra
andorre
andre
andrea
andreas
andress
andrew
angbr
angeles
angelo
anglo
angus
animal
animals
ankara
ann
anna
annales
annals
anne
annette
anniversary
annotated
announced
annual
annurev
another
anthem
anthems
anthology
anthony
anthro
anthropological
anthropology
anti
antidorcas
antiken
antilope
antilopinae
antique
antiquites
antiquity
antoine
anton
antonio
antony
any
ao
aor
ap
apache
apachean
aperti
apoidea
appearance
appears
appendix
appleton
applications
applied
approach
approaches
april
apt
aq
aqua
ar
arab
araba
arabe
araber
arabia
arabian
arabic
arabica
arabisch
arabiyah
arabo
arabs
arbor
arc
archaeology
archer
archibald
architecture
archiv
archive
archived
archivedate
archives
archiveurl
arctos
ardabil
ardebil
are
area
areas
arefe
arenas
argentina
arhiv
ariel
aris
arising
aristotle
arizona
arjomand
armaments
armed
armenia
armenian
armenians
armies
armonk
arms
armstrong
army
arnason
arne
arnold
aronson
around
arrest
arrival
arsenic
art
artes
artheme
arthur
article
articles
articulatio
articulator
articulatory
artist
artists
arts
arxiv
aryan
as
asagı
asatiani
ash
ashby
ashgate
ashley
ashogot
asia
asian
asiatic
asin
asinus
asked
asn
aspects
aspx
assalam
assembly
associated
associates
association
assyria
astronomy
astrophysical
astrophysics
at
ataturk
athena
athens
atilax
atiya
atklata
atlanta
atlantic
atlantique
atlas
atlasjet
atr
attack
attacks
attempt
attempts
attinger
atvira
au
audio
auer
auflage
august
augustin
augusto
augustus
aus
auschwitz
ausspracheworterbuch
austin
australia
australian
austria
austrian
austro
author
authorities
authority
authors
authorship
automatically
autor
av
available
avanos
avar
avarayr
avariya
avartv
avary
avatud
avcilar
averil
avery
avia
aviation
avion
avoimen
avon
avstrija
aw
award
awards
ax
axaltsike
axatsike
axc
ay
ayatollah
aydintepe
ayers
ayranci
ayyıldız
az
azarbaijan
azarbayjan
azerb
azerbaijan
azerbaijani
azerbaijanis
azeri
aziz
azurmendi
azərbaycan
aɫ
b
b0
b1
b2
b3
b4
b5
b6
b7
b8
b9
ba
baba
babak
babylonia
bachrach
back
background
bacterial
bad
badenter
baggins
bahrain
bailey
baileyi
bajɹ
baker
bakhtaran
bakhtiari
bakhtika
balakən
balance
balas
ball
ballantine
baltimore
baluchestan
baluchistan
bam
ban
band
bangla
bangladesh
banja
bank
banks
banned
baptist
baptiste
bar
baramidze
barbara
barbarossa
bard
barfield
barker
barnes
barrett
barrie
barry
bart
bartlett
barzilai
basbakan
based
basel
basic
basil
basingstoke
basis
baskanı
basshunter
batasuna
bates
battle
battles
bauer
bayne
bayrambinə
bazar
baʔ
bb
bbc
bc
bd
bdeogale
be
bead
bear
beatles
beatragus
beatrix
became
because
beck
beckerath
become
bedford
bee
been
beer
bees
beevor
before
began
beginning
behalf
behavior
behavioral
behind
bei
being
beirut
beit
beitrage
bekker
bel
belediye
belgian
belgie
belgien
belgique
belgium
belknap
bell
belonging
ben
bendianashvili
benedetto
benedict
bengali
benito
benjamin
benjamins
bennettii
bentham
bentley
benton
beretbinə
berg
bergen
berghahn
berhad
berkeley
berlin
bern
bernard
bernd
bernhard
bertelsmann
beryl
best
between
beverley
bevington
bevolkerung
bewickii
beynen
beyond
bf
bg
bh
bhas
bi
bibcode
bible
biblical
bibliographisches
bibliography
biblioteca
bibliotheca
bibliotheque
bicornis
big
bij
bikes
bilbo
bilingualism
bin
biografico
biographical
biographies
biography
biological
biology
biotechnology
bioterrorism
bird
birinci
birth
birthday
birthplace
bis
bismarck
bitter
bittleston
bj
bk
bl
black
blackwell
blair
blanning
bleeck
bleu
blitzkrieg
blocks
blog
blood
bloom
bloomington
bloomsbury
blow
blp
blue
bm
bmj
bn
bnf
bo
board
boberg
body
boeing
bohairic
bohairice
bolander
bomber
bombers
bombing
bonanza
bonaparte
bonn
bonner
book
books
border
borders
borm
born
borough
bos
boselaphus
bosna
bosnia
boston
bosworth
both
botlikh
botulinum
botulism
botulus
boulder
bovidae
box
boyce
boydell
boyle
bozok
bp
bq
br
brace
bradford
bradley
brady
brain
branch
brand
brandenburg
brassey
bratislava
brazil
breaking
breasted
brenda
brethren
brewer
brian
bridge
brief
brien
brigham
bright
brill
brilliant
bringing
bristol
britain
britannica
british
broad
broadcasting
broadley
brockhaus
broers
bronk
bronze
brothers
brown
browse
browser
bruce
bruck
bruggemeier
brumaire
brunner
bruno
brunswick
bs
bt
bu
buah
bubalus
bucharest
budapest
bueno
buhtz
building
bulgaria
bulletin
bundesrepublik
buntarion
buonaparte
burana
burden
bureau
bureaucratic
burke
burridge
buselaphus
business
busses
but
butler
button
buyuk
bv
bw
bx
by
byramji
byron
byzantine
byzantium
bz
bələdiyyələr
c
c0
c1
c2
c3
c4
c5
c6
c7
c8
c9
ca
caama
cabinet
cairo
calendar
california
call
called
calvin
calvo
cambria
cambridge
came
camelus
cameron
camii
campaign
campaigns
campbell
campestris
campora
camps
campura
can
canaan
canaanite
canada
canadensis
canadian
cancer
candice
canepari
canidae
canis
canon
capital
capitalism
capo
capra
caps
captive
car
carat
carats
cardiac
cardiff
cardinal
care
career
careers
caribbean
carica
caricature
carl
carlos
carmina
carnivora
carol
carolina
caroline
carpenter
carroll
cars
carsten
cartographic
case
casebook
caspian
cass
cassell
castle
castor
castoridae
cat
catalogue
catastrophe
category
catherine
catholic
catid
catus
cau
caucas
caucase
caucasian
caucasus
cause
causes
cavendish
cb
cbo
cc
ccol
cd
cdc
cdli
cdm
ce
celaleddin
celebrated
celebrations
cell
cells
cellula
cellular
celtic
cengage
censer
census
cent
center
centers
central
centre
centrul
centuries
century
cephalophus
ceratotherium
cerny
certain
cervantes
cervantine
cervicapra
cervidae
cet
cezanne
cf
cfm
cg
cgi
ch
chabahar
chacon
chaldaea
challenge
challenges
chalmers
chamber
chambers
championship
chandler
chang
change
changed
changes
changing
channel
chapel
chapman
chapter
chapters
character
characteristics
characters
charles
charlie
charlton
charmap
chart
charter
charts
chaumont
che
chechen
check
chembox
chemical
chemistry
chicago
chickering
chief
children
china
chinar
chinese
chiricahua
chisick
chloride
choice
choices
cholera
cholerae
choralwiki
chrestomathy
chris
christensen
christian
christianity
christofferson
christoph
christopher
chronicle
chronicles
chronological
chronologie
chronology
church
churches
churchill
ci
cia
ciconia
ciconiidae
cid
cimcimax
cioc
circle
cit
cite
cites
cities
citizen
citizens
citizenship
citroen
city
citypopulation
civil
civilisation
civilization
civilizations
cj
ck
cl
claremont
clarendon
clark
clarke
clarkei
clashed
class
classic
classical
classicism
classics
classification
classifications
classique
claude
claudia
clause
clauses
clausewitz
clayton
clear
clem
clemen
clifford
cline
clinical
clinicians
clio
clive
clock
close
closely
clostridium
cloth
cloud
cm
cms
cn
cnn
co
coalition
coast
coauthors
cobankol
code
codemonk
codes
codevilla
codex
codi
coffin
cohen
coinage
coins
cold
cole
colin
collaborations
collaborative
collapse
collation
collection
collections
college
collier
collins
colloquial
colocolo
cologne
colombia
colombian
colonel
colonialism
colonies
color
columbia
columbianus
com
combat
combined
come
comedy
coming
commedia
commentary
commentators
comments
commerce
commercial
commission
commissioner
committee
common
commons
commonwealth
communication
communications
communities
community
commutatio
companion
company
comparative
comparatives
compared
comparee
comparison
compass
compendium
complaint
complete
completely
components
composition
compounds
comprehensive
compton
computational
computer
comrie
comune
comunicacion
concepts
conceptual
concise
conclusion
concolor
concordances
conference
conferences
conflict
conflicting
conflicts
congress
connect
connecticut
conner
connochaetes
connor
conquest
conscience
consciousness
conseil
consejo
consequences
conservation
consiglio
consonant
consonants
constable
constantine
constituent
constitution
constitutional
constitutionalism
construction
contained
containing
contains
contemporanea
contemporary
content
contentio
contesting
context
contexts
continent
continuation
continued
continues
continuum
contra
contrasts
contribution
control
controversial
controversies
controversy
convention
conventions
convergence
conway
coo
coogan
cooh
cook
cooking
cooper
coordinated
coordonne
copenhagen
copious
copte
coptic
coraca
corbin
cordite
core
coreca
cornelius
cornell
coronavirus
corone
corpora
corporation
corps
corpus
correspondence
corresponding
corruption
corvidae
corvus
cottoni
coturnix
could
coulmas
council
counter
counties
countries
country
county
coup
course
court
cover
coverage
covid
cowen
cox
cp
cq
cr
cra
craig
crane
crash
crashes
crc
cream
created
creation
creative
crescent
crh
crimea
crimean
crisis
critical
criticism
critique
cross
crossarchus
crossed
crossing
crossroads
crowe
crowell
crown
crus
crusades
cruttenden
cruz
crystal
crystals
cs
css
ct
cu
cuja
cultura
cultural
culture
cultures
cumhuriyeti
cuneiform
cunningham
cuon
cup
cupiik
cupiit
curitiba
curlie
currencies
currency
current
currents
curtis
curzon
cut
cv
cw
cx
cy
cycle
cygnus
cynictis
cyprus
cyril
cyrillic
cyrus
cz
czech
d
d0
d1
d2
d3
d4
d5
d6
d7
d8
d9
da
dachau
dados
dag
dagestan
daghestan
dagistan
dagpravda
dagstat
dagıstan
dagıstanlı
dagıstanlılar
daily
dailytarheel
dakota
dale
dallas
dalton
dama
damaliscus
dame
dan
dance
dane
danger
dangerous
daniel
daniels
danish
danmark
dans
dante
dantesca
danych
dar
dargi
dargwa
dari
dariusz
dark
darline
darwin
daryaee
das
data
database
datan
dataplattform
date
dates
dati
dating
datos
datu
datumoj
daughter
daughters
daum
david
davidson
davies
davis
davutoglu
dawn
day
dayalı
days
db
dc
dd
de
dead
deal
dear
death
debate
debates
deborah
dec
decade
december
decisive
declaration
declare
decline
decolonization
deep
def
default
defeat
defence
defensive
defined
definition
definitions
definitive
degli
degree
dei
del
delitzsch
dell
della
delong
delshad
delta
democracies
democracy
demographic
demotic
den
dene
denh
denial
denis
denmark
dennis
dens
dent
department
depth
deputy
der
derbianus
derek
dergisi
des
desan
descent
deschise
describe
description
descriptions
desert
design
designated
desmond
destruction
details
detected
detection
deutsch
deutsche
deutschen
deutscher
deutsches
deutschland
development
developments
devil
df
dg
dgmu
dh
dhmi
di
diagnosis
dialect
dialects
dialogues
diane
dibirop
dic
diccionario
dicembre
diceros
dickinson
dickson
dictator
dictators
dictatorship
dictionaries
dictionary
dictionnaire
did
die
died
diego
dieter
dietrich
difference
different
difficult
digestive
digital
digitised
digitus
dilemma
dili
din
dine
dingo
diplofoundation
diplomacy
diplomat
diplomatic
diplomats
dir
direct
direction
director
directory
dis
disappeared
discontents
discover
discovered
discovering
discovery
discusses
discussion
disease
diseases
diskussion
display
displaystyle
dissertation
distance
distancehistory
distancesfrom
distributed
distribution
district
districts
diversification
diversitate
diversity
divine
division
divisive
dizionario
diə
dj
djhutmose
djvu
dk
dl
dm
dmitry
dmm
dmoz
dms
dmy
dn
do
dobson
doc
docs
doctor
document
documentary
documentation
documents
dodd
dodgeon
dodson
does
doesn
doh
doi
dologale
domain
dombabinə
domestic
domesticus
dominant
dominik
dominions
don
donald
donnees
donovan
dorcas
dorcatragus
dorling
dornbusch
dos
doubleday
douglas
dover
dow
down
downfall
downing
doyle
dp
dq
dr
drakakis
drama
dramatic
dramatist
drawings
dreaming
drews
dreyer
drinking
drout
dryden
ds
dst
dt
dtv
du
dual
duce
duckworth
duden
dudenredaktion
dudenverlag
duke
dumezil
duncan
dunn
duomenu
durante
durch
durham
duriez
during
dusseldorf
dutch
dutton
dv
dw
dwellings
dwyer
dx
dy
dyan
dyen
dying
dynamics
dynastic
dynasties
dynasty
dz
e
e0
e1
e2
e3
e4
e5
e6
e7
e8
e9
ea
each
earliest
early
earth
east
eastern
easy
eat
eb
ebadi
ebchecked
ebook
ebu
ec
eclipse
eco
ecology
econ
economic
economics
economist
economy
ed
edgar
ediert
edinburgh
edit
edited
editing
editio
edition
editions
editor
editore
editori
editorial
editors
edizioni
edmund
edna
eds
edu
education
educational
edward
edwards
edwin
ee
eerdmans
ef
efendi
eg
egger
egizio
egypt
egyptair
egypte
egyptian
egyptians
egyptien
egyptologie
egyptology
eh
ehr
ehrman
ehsan
ei
eid
eighteenth
eighth
ein
einaudi
eine
einer
einfuhrung
einleitung
einsatzgruppen
eira
eisenberg
eisenbrauns
eitan
ej
ejemplares
ek
ekolu
el
elections
electronic
elegans
elementary
elements
elephantidae
elephas
elibron
eliot
elise
elite
elizabeth
elizabethan
ellen
eller
elliot
ellis
eloquentia
elsevier
elvis
em
embassies
embassy
emerald
emeralds
emergence
emerging
emerson
emi
emile
emilio
emine
emirates
emmanuel
emmet
emperor
emperors
emphasis
empire
empires
empty
en
ena
enav
enc
enciclopedia
encode
encyclopaedia
encyclopedia
encyclopedic
encyclopædia
encyklopedia
end
endangered
endgame
ending
ends
enemies
enemy
england
english
englund
engstrand
enigma
enlightenment
entered
entering
entire
entity
entries
entry
environment
environmental
eo
ep
ephippiorhynchus
epic
epidemiology
epigraphic
epilaryngeal
episodes
epstein
eq
equality
equidae
equus
er
era
eran
erdogan
erel
ergative
ergebnissen
eric
erich
erickson
erik
erinaceidae
ernest
ernst
error
ersten
erster
ervand
erweiterte
es
esat
escape
eshghi
esling
espana
espanol
espanola
essay
essays
est
estadistica
estimated
estimates
et
etc
etcsl
eternal
eternity
ethics
ethnic
ethnicities
ethnicity
ethno
ethnolinguistic
ethnologue
ethnology
etj
etnocultural
etnosmi
etymological
etymologique
etymology
eu
eudorcas
eugene
euhodios
eurasian
euronews
europa
europaea
europe
european
europeans
europeen
eurycerus
ev
eva
evaluation
evans
eve
evelyn
even
event
events
ever
everest
every
evidence
evil
evolution
evolved
ew
ewbank
ex
examples
excerpt
excerpts
exclusion
exemplary
exercises
exhibition
exil
expansion
expedition
expeditionary
expense
experience
experiment
expert
experts
explained
exploded
exploitation
exploration
explorations
exploring
expression
extended
external
extra
extracts
extreme
ey
eyewitness
ez
eɪ
f
f0
f1
f2
f3
f4
f5
f6
f7
f8
f9
fa
faber
face
facebook
faces
fact
factbook
factors
facts
fadedpage
fahd
fahnrich
failed
failure
fair
fairbank
fairleigh
fairy
faith
fakultesi
fall
falls
familiar
familiaris
families
family
famous
fantasy
faq
far
farewell
farmakologii
farrar
farrell
fars
farshid
farsi
faruque
fas
fasc
fascism
fascist
fascista
fateful
father
fatih
fatiha
fatima
fattah
faulkner
fay
fayard
fazlollah
fb
fc
fd
fe
fear
features
feb
february
federal
federation
feet
feher
fei
felice
felicity
felidae
felis
felix
fellow
feminism
feminist
fennig
ferguson
fernandez
ferris
fest
festival
festivals
feud
feudalism
few
ff
fg
fh
fi
fiction
field
fifth
fight
fighter
fighting
figure
figures
file
files
film
films
final
finance
find
finkelstein
finland
finnish
fiqh
first
fischer
fisher
five
fj
fk
fl
flavigula
fleet
fleming
fletcher
flieger
flight
flightradar
florence
florian
florida
floridanus
flug
fm
fn
fo
focus
folger
folia
folio
folios
follow
following
foltz
font
fonts
food
foorumi
for
forbes
force
forced
forces
ford
foreign
forest
forever
forgotten
forkel
form
formal
format
formation
formed
former
forms
foroughi
forrest
forster
fort
fortescue
fortress
fortuna
fortunae
forum
foto
found
foundation
founding
four
fourth
fox
foxvog
fp
fq
fr
francais
francaise
france
francia
francis
francisco
franco
francois
francorum
frank
frankfurt
frankish
franklin
franks
franz
fraser
fraternity
fredegar
frederick
frederik
free
freedom
freely
freeman
fremont
french
frequency
frequently
frey
friederike
friedman
friedrich
friends
friendship
frisian
frolova
from
fromkin
front
frontalis
frontier
frontiers
frontline
fronts
fry
frye
fs
ft
fu
fuel
fuelled
fuhrer
fulgens
full
fully
function
functions
fund
funktionell
fur
furet
further
fuscus
future
fv
fw
fx
fy
fz
fɒ
fɔn
fʁɑ
g
g0
g1
g2
g3
g4
g5
g6
g7
g8
g9
ga
gabor
gabriel
gachala
gad
gagarin
gail
gajiev
galerella
galictis
gallery
gallo
gallus
game
games
gamezardashvili
gamsatow
gamsatowitsch
gamzatov
ganenkov
ganj
garaudy
garden
gardiner
gardner
gareth
garibaldi
garland
garnsey
garosi
garratt
garrick
garth
gary
gaston
gates
gateway
gaulle
gave
gavin
gawc
gay
gazella
gazeta
gazetteer
gazi
gb
gc
gcc
gd
gdp
ge
gees
gellately
gem
gemstone
gender
gene
genealogy
general
generally
generalplan
generals
generation
genes
genesis
genetic
genetics
geneva
genocide
genome
gentilis
gentleman
geo
geoffrey
geographic
geographical
geography
geological
geonet
george
georges
georgetown
georgia
georgian
georgie
georgienne
geoscience
gerald
gerard
gerhard
germaine
german
germanic
germans
germanwings
germany
germen
gernot
gershoy
geschichte
gessler
gestapo
gets
getty
geuthner
geyl
gf
gg
gh
ghe
gi
gibbons
gif
gilaki
gilan
gilbert
giles
gill
gilles
gimson
ginor
giovanni
giroux
gitta
giuliano
giza
gj
gk
gks
gl
glantz
glass
glen
glenn
global
globalism
globalization
globalizing
globe
glory
glossar
glossary
glottochronology
glottolog
gm
gmbh
gmt
gn
gnd
gnou
gnu
go
god
goddard
gods
goes
goethe
gokcen
gold
golden
goldstein
goldsworthy
gomez
good
goodall
goodbasis
goodwin
google
gordon
gorunushu
got
gottingen
gottinger
gov
government
governments
governo
governor
governorate
governorship
goyrucuk
gp
gq
gr
grab
grady
graeco
graf
graffiti
graham
grajetzki
grammaire
grammar
grammatical
grammatik
grand
grande
grant
granta
grappling
gravity
gray
graz
grazia
great
greater
greatest
greatrex
greece
greek
green
greenberg
greenblatt
greenwood
greer
gregor
gregory
griechische
griffin
griffith
grigor
grimal
grolier
gross
grossman
ground
group
groups
grove
growing
grus
gruyter
gs
gt
gu
guadalajara
guardian
guernsey
guerra
guglielmo
guida
guide
guidelines
guides
guigna
gulag
gulo
gun
gunter
guntheri
guraba
guralnick
gurevych
gussenhoven
gutenberg
gutturosa
guy
gv
gw
gwich
gwynne
gx
gy
gz
gərəkli
h
h0
h1
h2
h3
h4
h5
h6
h7
h8
h9
ha
haan
haarmann
had
hadith
hadrill
hague
haida
haider
haim
hakan
hakikat
hakimiyyəti
halen
halevy
hall
halle
hallikan
halloran
hamadan
hambly
hamburg
hamedan
hamilton
hammarstrom
hammond
hamont
hamriyyat
han
hand
handbook
handbooks
handworterbuch
hannig
hans
hanson
harald
harassowitz
harbor
harcourt
hardcover
hardened
hare
harmondsworth
harold
harper
harpercollins
harrassowitz
harris
harrison
harrop
harry
hart
hartmut
harv
harvard
harvcoltxt
harvey
harvnb
has
haspelmath
hassan
hatshepsut
haug
haugen
hava
havalimanı
have
haven
hawaii
hawass
hawazin
hawking
hawzah
hayes
haynes
hazareesingh
hb
hbo
hc
hd
hdl
he
head
headline
headquarters
heads
health
hearn
heart
heath
hebdo
hebrew
hegmataneh
heidelberg
heinemann
heinrich
heinz
helck
held
helen
helk
hellenic
hellenistic
hellmann
helogale
help
helsinki
hemingway
henning
henry
her
herausgegeben
herbert
hercegovina
here
heritage
hermann
hero
heroes
heroic
herpestes
herpestidae
herwig
herzegovina
hew
hexagonal
heydər
hf
hg
hh
hi
hibbert
hierarchy
hieroglyphic
hieroglyphs
high
highest
highland
highlights
highly
hildesheim
hill
hilton
him
himalaya
himalayan
himalayas
himmler
himno
hindenburg
hinrichs
hippocrene
hippopotamus
hippotragus
hiroshima
his
hist
histoire
historia
historiae
historian
historians
historic
historica
historical
histories
historiographical
historiography
historiques
history
hit
hitler
hitlers
hj
hjernen
hk
hl
hm
hn
ho
hodder
hodge
hoffmann
holding
holger
holland
holm
holmes
holocaust
holt
holy
home
homer
homeri
homo
hong
hongrie
honolulu
honor
honour
honourable
hoopa
hope
hopkins
horne
horse
horst
hosking
hostile
hotel
houghton
house
housed
households
hovannisian
hovasse
how
howard
however
hp
hq
hr
hrono
hrsg
hs
hsu
ht
htm
html
http
https
hu
hubert
hudson
hufton
huge
hugh
hughes
hugo
human
humanitarian
humanities
humboldt
humphrey
humphries
hunchback
hundred
hungarian
hungary
hunt
hunter
hunteri
hunting
hunzahskoe
hupa
hurlbut
hurriyet
hurst
hutchinson
hutiya
huʔ
hv
hw
hwt
hx
hy
hyksos
hymenoptera
hz
həmədan
hənifə
i
i0
i1
i2
i3
i4
i5
i6
i7
i8
i9
ia
ian
iana
iata
iau
ib
iberian
iblist
ibn
ibrahim
ic
icao
ice
iceland
icelandic
ichneumia
icon
icons
id
idea
ideas
identities
identity
ideologies
ideology
ie
if
ig
ignored
ih
ihrer
ii
iii
iiia
iisha
ij
ik
ikekeonwu
il
ilam
ilce
iliad
ilias
iling
ill
illinois
illustrated
illustrations
illustrative
im
image
imagery
images
imagination
imagined
imarat
imberbis
imdb
imf
imfi
immigration
impact
imperatrix
imperial
imperialism
imperium
importance
important
in
ina
inauguration
inc
includes
including
incubator
independence
independent
independently
index
india
indian
indiana
indians
indicators
indices
indigenous
indirect
individual
indo
indogermanischen
indonesia
industrial
industry
ine
inegi
infection
infections
infectious
influence
influential
influenza
info
infobase
infobox
information
ing
inga
inger
inhabited
initial
initiative
inklings
inline
inmarsat
inner
innovation
inquiry
inquisition
inscription
inscriptions
inside
inspired
instagram
instead
institut
institute
institution
institutions
instrumental
int
integrated
integration
intellectual
intelligence
interactive
interdisciplinary
interest
interfax
interference
internacional
internal
international
internet
interpretation
interpretations
interpreting
intervention
interview
interviews
into
introduced
introduction
introductory
inu
inuinnait
inuit
inuk
inupiak
inupiaq
inupiat
inuuk
inuvialuit
invented
inventing
invention
investigating
investigation
io
ip
ipa
iprage
iq
ir
iran
iranian
iranica
iranicaonline
iranicarum
iraq
ireland
irene
irish
irna
irst
irving
irwin
is
isabel
isabelle
isbn
isfahan
isidore
isis
islam
islamdag
islamhouse
islamic
islamnews
island
islands
isna
iso
isolated
israel
israeli
iss
issn
issue
issues
ist
istanbul
istituto
it
ita
italia
italian
italiana
italiano
italy
item
itemid
ithaca
its
itself
itu
iu
iucn
iv
iw
ix
iy
iz
j
j0
j1
j2
j3
j4
j5
j6
j7
j8
j9
ja
jabiru
jack
jackie
jackson
jacob
jacques
jae
jahist
jake
jakob
jalisco
james
jamie
jan
jana
jane
janet
jansen
januar
january
japan
japanese
jary
jas
jassem
jaundice
javanicus
jay
jazeera
jazz
jb
jc
jd
jdt
je
jean
jeanne
jefferson
jeffrey
jekt
jena
jennifer
jeremy
jersey
jerusalem
jessica
jewish
jews
jezik
jf
jg
jh
jhu
ji
jicarilla
jies
jill
jim
jj
jk
jl
jm
jn
jo
joachim
joan
joann
joel
johan
johann
johansen
john
johns
johnson
johnston
joint
jon
jonas
jonathan
jones
jong
jonson
jordan
jorg
jose
josef
joseph
joshua
joshuaproject
journal
journalism
journalist
journey
journeys
jovan
jovian
jowett
joxe
joyce
jozo
jp
jpg
jq
jr
js
jstor
jt
jtn
ju
juan
judaism
judicial
judith
julia
julian
julie
julius
july
jun
june
jupiter
jupp
jurgen
juri
just
justice
justification
justin
jv
jw
jx
jy
jz
k
k0
k1
k2
k3
k4
k5
k6
k7
k8
k9
ka
kadmos
kafkasya
kafker
kaiser
kalaaleq
kallis
kalman
kansas
kantor
kaplan
karabakh
karen
karin
karl
karnak
kartvelian
kate
kates
katex
katherine
kathleen
katz
kaukasischen
kavkaz
kawad
kaye
kayıt
kb
kc
kd
ke
keating
keddie
keegan
keen
keeping
kegan
keith
kelly
kemal
kemp
ken
kennedy
kenneth
kent
kentucky
kerman
kermanshah
kermode
kershaw
kessinger
kevin
kf
kg
kh
khalid
khallikan
khodadad
khomeini
khorasan
khunzakh
khuzestan
ki
kierkegaard
kill
killed
killing
kim
kinder
kindersley
king
kingdom
kingdoms
kings
kiowa
kirk
kirkii
kishan
kissinger
kitchen
kitson
kj
kk
kkaakk
kl
klassika
klaus
klein
kleiner
klincksieck
kluge
km
kmz
kn
knight
knj
knobl
knopf
know
knowing
knowledge
known
ko
kob
kobler
kobus
koh
kohgiluyeh
kolko
kommersant
konemann
kong
kongeriket
konige
koninkrijk
konrad
konya
koolemans
koptisch
koptische
koptischen
koptisches
kordestan
korean
koreatimes
kortlandt
kortmann
koryakov
kosack
kotuklu
kowalski
koyukuk
kp
kq
kr
krejci
kremlin
krieger
kroeber
kroener
krugosvet
ks
kt
ktakaran
ku
kuhn
kuhrt
kultur
kulturgeschichte
kulturmaschinen
kum
kuper
kura
kurbalija
kurdish
kurdistan
kurds
kursk
kuwait
kuzey
kv
kw
kx
ky
kz
l
l0
l1
l2
l3
l4
l5
l6
l7
l8
l9
la
lab
label
labels
labor
laboratory
labour
ladefoged
lado
ladusaw
lady
lahiyat
lahıc
lak
lake
lal
lan
lancet
land
landa
landmarks
lands
landscape
lane
lang
langdon
language
languages
langue
languedoc
langues
lanham
lap
laporte
large
largest
larry
lars
laryngea
laryngeal
larynx
las
lasiorhinus
last
late
later
latest
latimer
latin
latrans
laura
laurence
laurie
laurier
laver
law
lawrence
laws
layard
layton
lazard
lb
lbe
lc
lccn
ld
le
lead
leader
leadership
leading
league
lear
learn
learner
learning
least
leavenworth
lebanon
leben
leche
lecture
lectures
led
lee
leeds
lefebvre
leffler
left
legacies
legacy
legal
legend
leiden
leipzig
lemon
lena
length
lengua
lenin
lenta
leo
leon
leonard
leonardo
leopardus
lepe
leptailurus
leptoptilos
les
lesestucke
lesko
leslie
lessons
lethal
letra
letras
letter
letters
leucoryx
leuven
lev
levant
level
levine
levinson
levy
lewis
lexica
lexical
lexico
lexicon
lexicons
lexicostatistic
lexicostatistical
lexicostatistics
lexikon
lexington
lez
lf
lg
lh
li
liaison
lib
liber
liberal
liberation
liberty
librairie
libraries
library
libris
librivox
license
lichtheim
liddell
liege
lieu
life
lifenews
light
like
lil
limburg
limited
limits
lin
lincoln
lincom
linda
lindau
line
lineage
lines
lingua
lingual
linguarium
linguarum
linguasphere
linguistic
linguistica
linguistics
linguistique
lingvarium
link
links
lion
lipan
lippincott
lisa
list
listed
listen
listing
lists
lit
literacy
literary
literatura
literature
literatures
litocranius
litres
litteraire
litterature
little
littlefield
liu
live
lives
livesey
living
livingstone
livius
lj
lja
ljubljena
lk
ll
lloyd
lm
ln
lo
loan
loanwords
local
location
locator
logic
logo
logogram
logos
london
long
longerich
longman
longmans
look
looking
looklex
loprieno
lord
lords
lorestan
los
lost
louis
lovaniensia
love
lover
low
lowe
lower
loxodonta
lp
lq
lr
ls
lt
ltd
lu
lua
lucas
luciano
lucy
ludendorff
ludwig
lufthansa
lui
luka
lumotlar
lunatus
lungs
lupus
luri
lust
luther
lv
lw
lx
lxvii
ly
lyle
lynch
lynn
lynx
lyons
lz
lɑ
ləkit
lʊ
m
m0
m1
m2
m3
m4
m5
m6
m7
m8
m9
ma
maarulal
macbeth
macdonald
macedonia
macedonian
macedoniaonline
machine
macintyre
mack
mackenzie
macmillan
madame
madden
maddieson
maddison
made
madonna
madoqua
madrid
magazine
magnus
magomed
magyarorszag
mahamalar
mahan
mahfouz
mahmoud
mahmud
main
mainstream
maint
maintenance
mainz
mairie
majesty
major
make
making
malaysia
malcolm
malden
malferma
malgre
mallama
mallory
malta
malumat
mamrux
man
management
manchester
manetho
mangold
manitoba
manley
mansour
manual
manuel
manuelian
manul
manuscript
manuscripts
manvell
many
map
maplandia
mapping
maps
maqivi
maqov
mar
marc
marcel
march
marcha
marco
marcus
marcuse
margaret
margins
maria
marie
marilyn
marin
mariner
mario
maritime
maritimus
mark
market
markham
marks
marlowe
marshall
marsupialis
martel
martes
martin
martins
martinus
martyn
marx
marxism
mary
mas
mason
maspero
mass
massachusetts
massacre
master
masterworks
mat
material
materials
materna
mathematician
mathematics
mathsf
matter
matters
matthew
mattingly
maurois
mawdsley
max
maximus
maxwell
may
maybe
mayor
mazama
mazandaran
mazandarani
mazower
mazıx
mb
mbi
mbinfo
mc
mccrory
mcdonald
mcdonough
mcgraw
mcintyre
mclynn
mcmanners
mcmeekin
mcphee
md
me
mead
meaning
meanings
means
mearnsi
measurement
measures
measuring
mechanicsburg
mechanisms
meclisi
med
medals
medecin
media
medial
median
mediawiki
medical
medicine
medieval
mediterranean
meduza
mees
meeting
megalotis
mehdi
meine
melampus
melanoleuca
melanotis
melbourne
meles
melville
melvin
melvyn
melzer
member
members
membership
memoir
memoirs
memoriae
memorial
memories
memory
memphis
men
mendelssohn
mensis
mercer
mercury
meredith
merovingian
merriam
mescalero
mesopotamia
mesquita
mesrop
messner
mesthrie
mesəsambul
metaphysics
methods
methuen
metro
metrojet
metropolis
metropolitan
mexicanos
mexico
meydanı
meyer
meymeh
mf
mg
mh
mi
michael
michal
michalowski
michigan
micodigopostal
microbial
microbiol
microbiology
mid
midant
middle
middleton
midwest
mifflin
migration
miguel
mike
mil
milan
milano
miles
militarische
military
millennium
miller
millet
millett
million
milton
min
mind
mine
minerva
ming
mingrelian
minimum
mining
minister
ministerio
ministers
ministri
ministro
ministry
miniweb
minneapolis
minnesota
minorities
minority
minorsky
mion
mir
miriam
miroslav
mirzadeh
miserables
misha
misr
missing
mission
mississippi
missouri
miszellen
mit
mj
mjesnim
mk
ml
mln
mm
mmwr
mn
mo
mobile
mobilization
mode
model
modern
modernity
modifier
moeller
mogollon
mohamed
mohammad
mokari
mol
moldova
molecular
molecules
moliere
mollis
moment
mona
monarch
monarchs
monarchy
monastery
moncloa
mondadori
monde
monetary
monograph
monro
montana
monterrey
montet
month
months
montreal
monuments
moon
moons
moonwalk
mor
moral
mordecai
more
morison
morning
morphology
morris
morrow
mortality
morto
morton
mortuary
mosaic
moschatus
moscow
moseley
mosque
most
mosul
mother
motor
mount
mountain
mountains
mouton
move
movement
movements
mowat
mp
mq
mr
ms
msk
msr
mt
mta
mu
mubarak
much
muhammad
muhammadrafi
muir
mullah
muller
multicultural
multilingual
multimedia
multiple
mummies
munchen
mundi
munegu
mungo
mungos
munich
municipalities
municipality
munst
murad
murder
muridae
murnane
murphy
murray
mus
muse
museo
museum
museums
music
muslim
muslims
mussolini
must
mustelidae
muttalib
mv
mw
mx
my
mycteria
mystery
myth
mythology
myths
myx
mz
məlumat
mʊħɑm
n
n0
n1
n2
n3
n4
n5
n6
n7
n8
n9
na
nach
nacional
nacl
nadim
naga
nagorno
naguib
nam
name
named
nameh
names
naming
nanger
nanking
nanpa
napoleon
napoleonic
narod
narodna
narrative
nasa
nash
nasir
nasomaculatus
nathalie
nathan
nation
national
nationale
nationalism
nationalist
nationalsozialismus
nationalsozialistischen
nations
native
nato
natsilingmiut
natur
natural
nature
nauka
navaho
navajo
naval
navbox
navy
nazi
nazis
nb
nc
ncbi
nd
ndee
ne
near
nebraska
need
nees
neil
neill
nelson
neme
nemesis
neo
neolithic
neonatal
neotragus
nesin
net
netherlands
network
networks
neue
neues
neugebauer
never
nevertheless
new
newcastle
newman
news
newspaper
newspapers
newsru
newton
next
nf
ng
nh
nhs
ni
niall
nicholas
nicholson
nick
nicol
nicolas
nicolson
nicosia
niemeyer
nietzsche
niewyk
nigel
niger
night
nightclub
nigra
nih
nijhoff
nikki
nikolaus
niktalab
nil
nile
nina
nineteenth
nisus
nj
nk
nl
nm
nn
nnee
no
noah
nobel
nobility
noble
noel
nog
nolling
non
none
norbert
nord
noreg
norman
north
northeastern
northern
northwest
northwesternmost
norton
norway
nos
not
notable
note
notes
notre
nova
novel
novelas
novels
november
novum
now
np
npr
nq
nr
ns
nsf
nt
ntp
nu
nubia
nufus
number
numbering
numbers
numeric
numerical
numerous
nunnally
nuova
nupedia
nur
nuvas
nuwas
nv
nw
nx
ny
nyilt
nz
o
o0
o1
o2
o3
o4
o5
o6
o7
o8
o9
oa
oaxacensis
ob
obituary
object
observations
observatory
oc
occupation
occupied
ocean
och
ochiq
ocho
oclc
october
oculus
od
odd
odense
odla
odnoselchane
odprte
odyssea
odyssey
oe
oed
oedf
oerk
of
off
offensive
office
official
officials
often
og
ogden
ogg
oh
ohio
oi
oil
oj
ok
oklahoma
oktor
ol
old
older
oldest
oldstyledate
oleg
oliver
olivier
olle
olwen
om
omar
omarius
omniglot
on
one
onh
online
only
ontology
onu
onur
oo
op
opb
open
opendata
opening
operation
operations
opinion
opowiesci
oppen
opportunities
opposition
option
oq
or
oral
orban
order
ordered
ordinary
oregon
oreotragus
orff
org
organisation
organization
organized
orhan
oriens
orient
oriental
orientale
orientalia
orientation
origin
original
originally
origins
oriolus
orion
orlin
orte
orthodox
orthographic
orthography
oryx
os
osasco
osceola
oslo
osman
osmrelation
osprey
ost
osterreich
oswald
ot
otevrena
other
others
ottawa
otte
otto
ottoman
ottomans
otvorenih
otvorenog
otvorenych
otwartych
ou
ouest
oup
our
ourebi
ourebia
out
outbreak
outbreaks
outer
outline
outlook
outreach
outside
outsiders
ouvertes
ov
over
overlook
overseas
overview
overy
ow
owen
owl
own
ox
oxf
oxford
oxfordhb
oy
oz
ozouf
ozymandias
oʊ
p
p0
p1
p2
p3
p4
p5
p6
p7
p8
p9
pa
pacific
page
pages
pahlavi
painter
painting
paintings
pakistan
palestine
palgrave
palmer
pamphlets
pan
pandemic
pandemics
panorama
pantheon
panther
panthera
pape
paper
paperback
paperbacks
papers
papyrus
papyruskodex
par
para
paracynictis
paragon
parameter
paranoia
parbury
pardalis
paris
parity
park
parker
parks
parliament
parliamentary
parsi
parsons
part
parthian
parti
partial
parts
party
parvaneh
parviz
pasa
pascal
pashto
passed
past
path
pathology
paths
patricia
patrick
patriotic
pattern
patterns
paul
pavo
paxton
pay
payam
payne
pb
pc
pd
pdf
pe
peace
peaceful
peakbagger
pearl
pearson
peasants
peattie
peer
peeters
pegasus
pelea
pendant
penerbangan
penguin
peninsula
peninsular
pennsylvania
penrose
pentru
people
peoples
per
percent
perception
percivale
perennial
perez
performance
period
periods
periphery
permanent
perry
pers
perse
persecution
perser
perseus
persia
persian
persians
persien
personal
perspective
perspectives
pestis
peter
peters
peust
pew
pf
pg
ph
phaidon
pharaoh
pharaohs
pharaonen
philadelphia
philanthropy
philantomba
philip
philipp
philippa
philippines
phillip
phillips
philology
philosopher
philosophers
philosophical
philosophy
phoenix
phoneme
phonemes
phonetic
phonetics
phonologies
phonology
photograph
photographic
photographs
photos
php
phyllis
phylogeny
physical
physician
physics
physiology
pi
piacentinii
piattaforma
pictorial
pictures
pierre
piers
pieter
pig
pilots
pimlico
piotr
pj
pk
pl
place
places
plague
plains
plan
planck
plane
planespotters
planet
planeta
planets
planning
plans
plant
plastic
plastics
plataforma
plateau
plateforme
platform
platforma
platforması
platformja
platformo
platformu
plato
plattform
platvormi
play
played
playlist
plays
plotting
plunder
pluralia
plus
pluto
pm
pmid
pn
png
po
poa
poblacion
pocket
podataka
podatke
poems
poet
poeta
poetic
poetics
poetry
poets
point
poland
poles
polet
police
policies
policy
polish
political
politics
polity
pollutants
polotsky
polska
pop
popkin
popular
population
populations
populus
por
portable
portal
portals
porter
portland
portrait
portraits
portuguese
position
positive
post
postal
postbinə
postmodern
postwar
potassium
potere
potter
pottermore
potts
pourshariati
poverty
power
powers
pp
ppp
pq
pr
practical
practice
practices
praeger
prague
praktik
prayers
pre
predominantly
predynastic
prefixes
prehistory
preliminary
prelude
premier
prentice
presbyterian
presence
present
presented
preserved
president
presidente
presidential
presley
press
presse
presses
prevention
preview
previously
price
primary
prime
primer
primitive
primo
prince
princeton
principal
principles
pringle
print
printed
printing
prior
priscilla
prisoners
private
privy
prize
pro
problem
problems
proc
procapra
proceedings
processes
processing
proctor
prods
producer
product
production
professional
professionals
profile
program
programme
project
projects
proloco
prominentia
promotion
prone
pronounced
pronouncing
pronuncia
pronunciation
propaganda
proper
property
prophet
proposal
proposals
prose
prosperity
protection
proto
protocol
provided
province
provinces
provincial
prussia
ps
pseudo
psi
psychology
pt
pth
pu
pub
public
publica
publication
publications
published
publisher
publishers
publishing
pudu
pullum
pulse
puma
punk
purchasing
purpose
pursuit
pustətala
putnam
pv
pw
pwn
px
py
pyramiden
pyramids
pz
q
q0
q1
q2
q3
q4
q5
q6
q7
q8
q9
qa
qaeda
qalasi
qalasinda
qasbinə
qasqacay
qatar
qax
qaxbas
qaysa
qazvin
qb
qc
qd
qe
qf
qg
qh
qi
qj
qk
ql
qm
qn
qo
qom
qp
qq
qr
qs
qt
qu
quality
quaritch
quarry
quarterly
quartos
que
quebec
queen
queens
quellen
quest
question
questions
quijote
quite
quixote
qullar
qum
quotes
qur
quran
quranacademy
qv
qw
qx
qy
qz
qımırlı
r
r0
r1
r2
r3
r4
r5
r6
r7
r8
r9
ra
rab
rabine
race
races
racial
radical
radicalization
radio
radiocarbon
radioerkenli
raeder
raff
raffa
raffaele
rahn
rainer
rajend
ralf
ralph
ramat
ramdhun
ramesses
ramesside
ramon
ramses
ramsey
ran
rana
randal
randolph
random
range
rank
ranked
rankings
rant
ranum
rape
raphicerus
rapid
rapids
rar
rare
ras
rashid
rassul
rasul
rate
rather
rattus
rawdata
rawlinson
rawson
ray
raymond
rayon
rayonu
raznoe
rb
rc
rd
re
reach
read
reader
reading
readings
ready
reagan
real
reality
realm
reasons
reassessing
reassessment
rebel
rebellion
rebuilding
received
recent
recently
recherches
recognition
recomm
recommendations
reconsidered
reconstruction
record
recording
records
recovery
red
redford
redirect
redunca
reed
rees
reestr
ref
reference
referenceb
references
refers
reflections
reform
reg
regard
regarded
regarding
regards
regime
regio
region
regional
regions
regiony
register
registered
registration
regnum
reich
reichs
reign
reilly
reinhard
reinhold
reintges
reinventing
reise
related
relation
relations
relationship
relationships
release
released
reliefs
religare
religion
religions
religiose
religious
relocation
remains
remarks
remembered
renaissance
renamed
renfrew
renzo
rep
replaced
report
reports
represent
representation
representative
repression
reprint
reprinted
repubblica
republic
republica
republican
republika
republique
required
res
research
reserve
resident
residents
resistance
resolution
resort
resource
resources
response
responsible
respublikası
restoration
restoring
result
results
resurse
rethinking
retratos
retrieved
reuters
reuven
rev
reveal
review
reviewed
reviews
revised
revisited
revival
revolution
revolutionary
revolutions
revue
rewriting
reynes
reynolds
reza
rezakhani
rf
rfc
rg
rgo
rh
rhein
rhetoric
rhinoceros
rhinocerotidae
rhodes
rhynchogale
ri
ria
riapa
rice
rich
richard
richardson
richter
rickard
ricke
ridge
right
rightarrow
rights
rinehart
ring
rings
rise
rising
rit
rita
ritual
river
riverhead
rivoluzionario
riyadh
rj
rk
rl
rm
rn
ro
road
robb
robert
roberts
robertson
robespierre
robin
robins
robinson
roche
rochester
rock
rocky
rocəhməd
rodman
rodopi
roger
rogers
rohl
roland
rolando
role
rolf
rom
roma
roman
romance
romania
romanian
romans
romantic
romanticism
rome
rommel
ron
ronald
roosevelt
roots
rosa
rosalind
rose
rosen
rosenberg
rosenqvist
rosetta
ross
rota
routledge
row
rowe
rowman
rowse
roy
royal
royaume
rp
rq
rr
rs
rsi
rss
rt
ru
rude
rudiger
rudolf
rudolph
rufina
rufus
ruh
rule
ruled
rulers
rural
rus
russ
russell
russia
russian
russians
russman
russo
rustaveli
rut
ruth
rv
rw
rx
ry
ryholt
rz
rɛ
rꜥ
s
s0
s1
s2
s3
s4
s5
s6
s7
s8
s9
sa
saadi
saarc
saavedra
sabiha
sabine
sabuncu
sacred
safety
sage
sahara
sahidic
sahidice
sahnazarov
sahtu
sahtugot
said
saidafandi
saiga
saladin
salah
salaries
sales
sally
salman
salt
saltiana
sam
sambul
same
sami
sample
samuel
san
sand
sanders
sandra
santa
sapiens
sarah
sarajevo
sarap
sarcee
sari
sarir
sarıbulaq
sas
sasanian
sasanians
sasaniden
sasanidischen
sassanian
sassanians
sassanid
satellite
satellitecitymaps
saudi
saul
save
saved
saw
say
saying
sayisi
says
sayyid
sayı
sb
sc
scale
scandinavian
scartazzini
scene
schalin
schama
schanidse
scheduled
schindel
schindler
schleicher
schleiermacher
schlieffen
schmidt
schmitt
schneider
schoenbaum
scholar
scholarly
scholars
school
schools
schrift
schriftsprache
schroeder
schultz
schulze
schuster
schwachstellen
schwarzkopf
science
sciences
scientific
scientist
scientists
sciuridae
scott
screen
scribner
script
scripts
scriptus
scrittore
scrofa
sculpture
sd
se
sea
seals
sean
search
searchable
season
seattle
second
seconds
secret
secretariat
secrets
section
securite
security
sed
see
seen
segretario
seguridad
seixas
select
selected
selection
selections
selena
self
selling
sema
semantic
semantics
semi
seminary
semirom
semitic
semnan
sen
senior
senwosret
sep
sepahan
september
sera
serbia
serefeddin
sereny
series
serogroup
serval
server
service
services
set
settlement
settlements
seven
seventeenth
seventh
several
sex
seyyed
sf
sg
sh
shadow
shadows
shaffer
shah
shahbazi
shahr
shakespeare
shakespearean
shakspere
shall
shape
shaping
shapiro
shapur
shared
sharm
sharon
sharpe
sharpei
shaw
sheffield
sheikh
sheila
shelley
shengelia
sherburne
sherzer
shi
shia
shias
shift
shifting
shihgot
shiites
shippey
shire
shirer
shirin
shirley
shisha
shlapentokh
shock
shooting
shore
short
shostakovich
shota
should
show
showing
shown
shows
shtml
shukman
si
sibyl
sic
side
sideways
sidney
siecle
siege
siegfried
sign
signagi
signal
signed
significant
signs
siirleri
sil
silent
siligo
siliotti
silvestris
similar
simon
simons
simple
simplified
simulation
simum
sin
sina
sinai
sinaitic
since
singapore
sino
siprage
sir
sirdeshmukh
sirius
sisi
sistan
sistema
sistemi
sister
sisterlinks
sit
site
sites
situation
siverson
six
sixteenth
sixth
size
sj
sk
sketch
skfo
skin
skjærvø
skupstina
sky
skyhorse
sl
slate
slave
slavery
slavonic
slightly
slon
slope
sm
small
smith
smithsonian
sn
snac
snogerup
snow
snowbird
snyder
so
soboul
sobre
social
socialism
socialist
societe
societies
society
sociolinguistic
sociology
sodium
software
solar
sold
soldier
solitary
solo
solution
some
son
song
songs
sonnet
sonnets
sons
sophie
sorabshaw
sorted
soudani
soul
sound
sounds
source
sourcebook
sources
south
southeast
southern
southwestern
sovereign
soviet
sp
space
spain
spam
span
spanish
spatantike
speak
speaker
speakers
speaking
special
species
speech
speed
speer
spekeii
spelling
spencer
sphere
spiegel
spielvogel
spinosus
spirit
split
spoken
spp
sprache
sprachen
spring
springer
sq
square
sr
srpska
srpski
ss
sst
st
staat
stackpole
stadelmann
stage
stalin
stalingrad
stan
stanbul
standard
standardebooks
standardization
standards
stanford
stanley
stanovnistva
star
starostin
stars
start
stat
state
stateless
states
station
stationery
statistical
statistics
statistik
statistiken
statistisches
stato
statoids
statpearls
statue
status
stay
stearns
stefan
stein
steiner
steingass
stephanie
stephen
steppes
steven
stevens
stevenson
stewart
stig
still
stina
stir
stockholm
stone
stopped
storia
stories
storm
story
storyid
storyteller
strachan
strain
strange
stranger
strangers
strategic
strategies
strategy
straus
street
strength
strepsiceros
strong
structural
structure
structures
struggle
stuart
stub
student
students
studien
studies
study
studying
stuttgart
style
styles
su
sub
subgutturosa
subject
subjects
submarine
subscript
subscription
succeeded
succession
successor
such
sudan
sudhir
sudlangues
suez
suggested
sugpiaq
suicide
suidae
suisse
sultanahmet
sumatrensis
sumerian
sumerienne
sumi
summary
summer
sun
sunexpress
sung
sunni
sunset
suny
suomen
suomi
support
sur
sura
surface
suricata
surrender
surveillance
survey
survival
survive
survivors
suryal
sus
susan
sustainability
sutherland
suzanne
sv
sven
svensk
svenskt
sverige
svizra
svizzera
sw
swadesh
swan
sweden
swedish
switzerland
sword
sx
sy
syllable
syllables
sylvia
sylvicapra
symbol
symbolic
symbolism
symbols
symptoms
synonyms
syntax
syria
syriagate
syrian
system
systematic
systems
sz
szemerenyi
søren
səki
sərif
sɛ
t
t0
t1
t2
t3
t4
t5
t6
t7
t8
t9
ta
taagepera
tab
tabasaran
taber
table
tackett
tactics
tag
tagish
taher
tail
taiwan
tajik
tajikistan
tajiks
talalar
tale
tales
taliban
talk
talks
talpidae
tan
tandfonline
tantum
tarih
taskent
tass
tat
tatarica
tatiana
tats
taught
taurinus
tauris
taurotragus
taurus
taxonbar
taxonomy
taylor
tb
tbilisi
tbilissi
tc
tcbs
td
te
teacher
teachers
teaching
technical
technology
ted
teetl
teheran
tehran
teil
telecommunications
telegraph
television
template
templates
temple
temples
temporal
temps
ten
tensions
teo
teori
term
terminal
terms
ternes
terra
terrifying
territories
territory
terror
terrorist
terrorists
terry
test
testament
testamentum
tetracerus
teuthonista
tex
texas
texensis
text
textbook
texts
tf
tg
th
thakhudh
thames
than
that
the
theater
theatre
their
thelwall
them
themes
themselves
then
theodore
theories
theory
there
thesaurus
these
thesis
they
things
thinitenzeit
third
this
thomas
thompson
thomson
thornhill
thorough
those
though
thought
thousand
thousands
threat
threatened
threats
three
thrones
through
thus
thutmose
thutmoside
ti
tiflis
tigrinus
tiina
tillotson
tilsit
tim
time
timeline
times
timothy
tin
titans
title
titulary
titus
tj
tk
tkr
tl
tm
tn
to
toby
today
todd
together
tolkien
tolstoy
tom
tomasevich
tomb
tombs
tomorrow
tongue
tonto
too
tool
tools
top
topic
topics
tor
torino
toronto
total
totalitarian
touch
tour
touraj
tourism
tourist
tourists
tours
toward
towards
town
towns
toxigenic
tp
tq
tr
track
tracy
trade
tradition
traditional
traditions
traffic
tragedy
tragelaphus
tragic
train
training
trans
transaction
transactions
transasia
transcribe
transcription
transformation
transition
transits
transl
translate
translated
translatedate
translation
translations
translator
transliteration
transmission
transparent
travel
travels
treatment
treaty
treccani
tree
trees
tremarctos
trends
trevor
trial
tribal
tribalism
tribe
tribes
tribune
triumph
triumphant
trubner
trucks
trudgill
true
trust
truth
ts
tsumada
tsur
tsuu
tsuutina
tt
ttt
tu
tucker
tudor
tufts
tui
tuite
tulcea
tulu
turchin
turin
turk
turkey
turkic
turkish
turkiye
turkleri
turkləri
turkmen
turkmenistan
turn
turned
turner
turtle
tusheti
tutorial
tutorials
tuvan
tv
tvzvezda
tw
twelfth
twelve
twentieth
twenty
twitter
two
tx
txt
ty
tyldesley
tylor
type
types
typhus
typological
typology
tyranny
tyrant
tz
u
u0
u1
u2
u3
u4
u5
u6
u7
u8
u9
ua
ub
uber
ubersetzt
ubs
uc
uchicago
ucl
ucla
ucs
ud
udajov
udi
ue
uekotter
uf
ufc
ug
uganda
uh
ui
uj
uk
ukraine
ukrainian
ul
ulrich
ultimate
uluslararası
um
umakhan
umberto
umbreit
umm
un
uncia
uncited
und
under
understanding
unesco
unicode
unification
union
unique
unit
united
unity
univ
universal
universals
universe
universel
universitarie
universitesi
universitetet
universities
university
unknown
unrecognized
unspecified
unsw
untersuchungen
until
unwin
uo
up
uparrow
upload
uploads
upper
uppsala
upton
uq
ur
ural
uralic
urban
url
urmia
ursidae
ursinus
ursus
us
usa
usage
use
used
useful
user
uses
ushmm
using
ustav
ut
utc
utilities
uttal
uttalsboken
uu
uv
uw
ux
uy
uz
uzbekistan
uzuntala
v
v0
v1
v2
v3
v4
v5
v6
v7
v8
v9
va
vaccines
valley
valleys
value
values
van
vancouver
vanvik
vardonii
variants
variation
variations
varieties
variety
various
vast
vb
vc
vcv
vd
ve
veins
veli
vendee
verbe
verbs
verdict
vergleichenden
verhoeven
verification
verilerin
verlag
verlyn
versailles
verse
version
versions
verso
versus
very
vessels
veterans
vf
vg
vh
vi
via
viajaban
vibrio
vicente
victims
victor
victoria
victorian
victory
video
videos
vienna
vier
vietnam
view
viewed
views
vii
viii
viking
village
vimy
vincent
vintage
vinten
violence
virginia
virtual
vis
visible
vision
visual
vita
vittata
vj
vk
vl
vladimir
vladimirova
vm
vn
vo
vocabulary
voice
vol
volk
volkov
volksgemeinschaft
volkszahlung
vollesen
vols
volume
volumes
vom
vombatidae
vombatus
von
vostok
votes
voting
vowel
vowels
voyage
voyager
vp
vq
vr
vrc
vs
vt
vu
vulgari
vulpes
vv
vw
vx
vy
vz
və
w
w0
w1
w2
w3
w4
w5
w6
w7
w8
w9
wa
wade
wadsworth
wafayat
waffen
wales
wali
walker
wall
wallace
walleri
walter
want
war
warfare
warplane
warren
wars
warsaw
warship
warszawa
wartime
was
washington
wasted
water
waterloo
watkins
watson
watt
way
wayback
wb
wc
wd
we
wealth
weapons
web
webarchive
website
webster
week
weekly
wegner
weidenfeld
weimar
weinberg
weiner
weinstein
welfare
well
welle
wellem
wells
welt
weltkrieg
weltwunder
went
wente
were
werner
west
westad
westendorf
western
westminster
westport
westview
wf
wg
wh
what
when
whenever
where
whereas
which
while
white
whitney
who
whole
whom
whose
why
wi
wichtigsten
wide
wiedii
wien
wiesbaden
wiesehofer
wiki
wikibooks
wikidata
wikimapia
wikimedia
wikimedians
wikipedia
wikipedias
wikiquote
wikisource
wikispecies
wikivoyage
wiktionary
wiktor
wilbur
wild
wiley
wilfrid
wilhelm
wilkins
wilkinson
will
willem
willi
william
williams
williamson
willis
wilson
windfuhr
wine
wineburg
wing
wings
winning
winona
wins
winston
winter
wisconsin
wise
wissen
wissing
wistrich
with
within
without
wixsite
wj
wk
wl
wm
wmf
wn
wo
wojtek
wolf
wolfgang
wolfhart
wolfram
women
won
wood
woodbridge
woodward
word
wordnet
words
work
workers
working
works
workshop
world
worldaerodata
worlds
worldwide
worst
worterbuch
worth
wp
wq
wr
wral
wright
writer
writers
writes
writing
writings
written
wrote
ws
wt
wu
wullschlager
wv
ww
wwi
www
wx
wy
wz
x
x0
x1
x2
x3
x4
x5
x6
x7
x8
x9
xa
xalatala
xb
xc
xd
xe
xenobiotics
xf
xg
xh
xi
xii
xiii
xiv
xix
xj
xk
xl
xls
xlsx
xm
xn
xo
xp
xq
xr
xs
xt
xu
xv
xvi
xvii
xviii
xw
xx
xxi
xxii
xxiii
xxiv
xxix
xxv
xxvi
xxvii
xxviii
xxx
xxxi
xy
xz
xələftala
y
y0
y1
y2
y3
y4
y5
y6
y7
y8
y9
ya
yale
yan
yarshater
yasar
yb
yc
yd
ye
year
yearbook
years
yeni
yersin
yersinia
yes
yet
yf
yg
yh
yi
yj
yk
yl
ym
yn
yo
york
you
young
your
youth
youtube
yp
ypyc
yq
yr
ys
yt
yu
yugoslavia
yukon
yup
yupiget
yuri
yv
yw
yx
yy
yz
z
z0
z1
z2
z3
z4
z5
z6
z7
z8
z9
za
zabern
zahedi
zahi
zaleski
zaman
zamora
zanjan
zara
zarakan
zb
zbekiston
zc
zd
ze
zealand
zee
zegher
zeichen
zeit
zeitschrift
zeller
zeno
zensus
zf
zg
zh
zheh
zi
ziegelbau
zip
zj
zk
zl
zm
zmir
zn
zo
zolyomi
zone
zones
zp
zq
zr
zs
zt
zu
zuber
zum
zur
zurich
zv
zw
zweite
zwischenzeit
zx
zy
zz
zəyəm
{
|
}
~
£
¦
§
©
ª
«
®
°
²
³
´
·
»
×
ß
æ
æd
ð
ø
đ
ħ
ı
ın
ł
łobez
ŋ
œ
ƣ
ƶ
ȝ
ɏ
ɐ
ɑ
ɒ
ɔ
ɘ
ə
əliyev
ələsgər
ɛ
ɜ
ɝ
ɞ
ɟ
ɡ
ɡo
ɢ
ɣ
ɤ
ɨ
ɪ
ɫ
ɫa
ɬ
ɬi
ɯ
ɰ
ɱ
ɳ
ɵ
ɶ
ɹ
ɾ
ʀ
ʁ
ʂ
ʃ
ʉ
ʊ
ʋ
ʌ
ʏ
ʒ
ʔ
ʔa
ʔe
ʔi
ʔu
ʕ
ʕa
ʰ
ʲ
ʷ
ʻ
ʼ
ʼʲ
ʼʷ
ʼː
ʾ
ʿ
ˁ
ˈ
ˌ
ː
ːʷ
ːʷʼ
ːʼ
ːʼʷ
˛
ˤ
α
αιγυπτος
αλεξανδρος
αμμων
ανδρονικος
ανοικτων
β
βιβλιον
γ
δ
δεδομενων
δημοκρατια
ε
ελληνικη
η
θ
ι
ιστορια
κ
καυκασος
λ
λογος
μ
ν
ξ
ο
οσυμανδυας
π
παιδεια
πλατφορμα
ρ
ς
σ
τ
των
υ
φ
χ
ω
ϧ
ϩ
ϯ
ϲ
а
аб
аба
абаг
абад
абадан
абадияб
абадиялъ
абадиялъго
абаз
абаза
абазда
абаздаса
абаздасан
абазде
абазинал
абазул
абазулъ
абазухъ
абака
абакар
абакаров
абараб
абас
абасда
абасул
абат
абахъ
абашидзе
аббас
аббревиатура
абваъ
абвер
абги
абго
абгьа
абд
абданан
абджадия
абджадиятлъун
абдул
абдула
абдулагь
абдулаева
абдулат
абдулатипов
абдулатипова
абдулг
абдулла
абдуллагь
абдуллаев
абдулмажид
абдулмаликица
абдулх
абдурах
абдурахим
абдурахман
абдурашид
абдусалам
абе
абеба
абзабазда
абзабазулгун
аби
абиб
абиг
абиги
абидал
абидос
абидосалъул
абидусалда
абидусалъул
абизе
абииек
абил
абилеб
абилебгун
абилев
абилеи
абилел
абилесул
абилъун
абич
абиял
абиялъе
абиялъул
абкилса
аблатив
аблативаздаги
аблативалъул
аблаут
аблъун
абросолъа
абруптивалъул
абруптивияб
абсолютив
абсолютивалда
абсолютияб
абсолютиял
абстрактивиял
абстрактиял
абстракция
абу
абубакар
абубакарил
абубакарица
абубакаров
абубакр
абуге
абул
абула
абулаан
абулаанила
абулаго
абуларо
абулеб
абулебги
абулебила
абулев
абулеи
абулел
абулелда
абулмуслим
абулмуслимида
абулмуслимил
абумуслим
абун
абуна
абунги
абуни
абуниги
абунила
абунин
абураб
абурабги
абурабила
абурав
абураи
абурал
абут
абухуасро
абухъе
абухъего
абх
абхаз
абхазав
абхазал
абхазгун
абхазии
абхазия
абхар
ав
ава
аваз
авал
авалазда
авалал
авалалда
авалалдаса
авалалде
авалалъул
авалги
аванта
авар
авара
аварав
авараг
аварагас
аварагасда
аварагасде
аварагасе
аварагасул
аварагасулги
аварагасухъе
аварагги
авараггун
аварагзабазул
аварагзаби
аварагзабиги
аварагзабилъунги
авараглъи
авараглъун
авараз
аваразги
аваразда
аваразул
аваразулги
аварал
аваралда
аварг
аварги
аваргин
аваргіор
аваргіорул
аваргӏоралъул
авари
авариз
аварии
аваристан
аваристана
аваристаналда
аваристаналдаго
аваристаналъул
авария
аварияб
авариялда
авариялъул
аваркан
аваро
аварскии
аварско
аварского
аварское
аварском
аварскому
авартеатралда
аварцами
аварцев
аварцы
аваф
авах
авбаш
аввакум
аввал
август
августа
августалда
августалдаса
августалдасан
августалде
августалъ
августалъул
авдии
авдусин
аверинцев
авест
авиа
авиакатастрофа
авиакатастрофе
авиакомпании
авиакомпания
авиакомпанияз
авиакомпаниязул
авиакомпаниялъ
авиакомпаниялъул
авиаконструктор
авиалаинер
авиалинии
авиапарк
авиации
авиационнои
авиациялъ
авиациялъул
авиациялъулаб
авлахъ
авлахъаз
авлахъазда
авлахъаздаги
авлахъазул
авлахъалда
авлахъалдасан
авлахъалъ
австралии
австралия
австралиялда
австралиялъул
австрии
австрия
австриягин
австриялъул
австронезиялъул
авт
автобиография
автобиографияб
автобусаз
автобусазул
автобусал
автомат
автоматикияб
автомобил
автомобилазул
автомобилал
автомобилалда
автомобилалъул
автомобилияб
автономиеи
автономии
автономия
автономияб
автономиял
автономная
автономнои
автономных
автонух
автор
автора
автораз
авторазул
авторами
авторас
авторасда
авторасул
автореф
автореферат
авторитет
авторитеталлъун
авторлъун
авторов
автоссылка
автурханилав
аг
ага
агабабян
агараб
агарал
агаралда
агарда
агарлъи
агарлъиялда
агарлъиялъул
агарлъухъ
агарун
агвали
аггеи
агглютинативияб
агеева
агенс
агенсал
агенсалъул
агентство
аги
агиографии
агиян
агларов
агломаерациялда
агломерации
агломерация
аго
аголъабазул
аголъаби
аголъи
аголъиги
агояб
агоявлъун
агрессии
агри
агул
агульскии
агульско
агъа
агъаз
агъамух
агъвали
агъвалисан
агъвалиялдасан
агъистаналъул
агъиялъул
агъу
агъул
агъулазул
агъулал
агьадиб
агьваз
агьирил
агьлоялдасан
агьлу
агьлуги
агьлуго
агьлуялъул
агіра
ад
ада
адаб
адабияб
адабиял
адабият
адабияталда
адабияталъ
адабияталъе
адабияталъул
адабияталъулаб
адабияталъулал
адабияталъулги
адабиятги
адаблъун
адав
адагьаб
адада
адаи
адал
адалло
адаллол
адам
адамаз
адамазда
адамаздаги
адамаздалъун
адамаздаса
адамазде
адамазе
адамазул
адамал
адамалги
адамасул
адамаца
адан
адана
адаса
адат
адатаб
адатазул
адатал
адаталги
адаталда
адатияб
адатиял
адвуссана
адги
адго
аддакс
аде
адег
адеги
адежоялъе
адехун
аджария
аджи
адиг
адигал
адигъ
адигъазул
адигъал
адигъисел
адигъистан
адил
адин
адинаб
адинги
адис
адисалда
адисалъ
адияман
адк
адкрытых
адкъан
адлу
адм
адмаг
административияб
административиябги
административиябгин
административиябгун
административияби
административиял
административиялгин
административная
административно
административных
администратияб
администрации
администрация
администрациял
администрациялда
администрациялде
администрациялъ
администрациялъул
админитсративияб
адмирал
адолф
адольф
адрес
адресатияб
адресов
адриатикияб
адруссун
адруссуна
аду
адур
адурал
адч
адъективал
адыг
адыгазул
адыгея
адыги
адыгэ
ае
ажаибаб
ажаибав
ажаибго
ажалъи
ажалъич
ажалъула
ажалъуларев
ажам
ажамалда
ажат
ажатаб
ажатав
ажатал
ажбит
ажи
ажиги
ажигун
ажиев
ажизаби
ажил
ажимурад
ажимух
ажир
ажица
ажияв
ажиял
ажияс
ажиясда
ажиясе
ажиясул
ажиясулги
ажиясухъе
ажуги
аз
аза
азабг
азабги
азадеган
азадоглы
азадугъли
азар
азараб
азаралда
азарб
азарбижан
азарбижанал
азарбижаналда
азарбижаналде
азарбижаналъул
азарбижаналъулги
азарбижаналъулгун
азарбижанги
азарбижангун
азарго
азаргоялдаса
азаргоялде
азариде
азарил
азарсоналъ
азарсоналъул
азарсонида
азарсонил
азархана
азау
азбар
азбаралда
азбука
азги
азгьар
азда
аздаги
аздагьо
аздалъун
аздаса
аздасан
азде
аздехун
азе
азербаиджан
азербаиджана
азербаиджаналда
азербаиджаналъул
азербаиджанскои
азербаиджанцев
азербаижан
азершагьр
азиз
азизович
азии
азим
азия
азиялда
азиялдаги
азиялдаса
азиялде
азиялъул
азиялъулги
азна
азрго
азу
азул
азухъ
азъ
аи
аибулаев
аибуллаевас
аиван
аиваназда
аиваназул
аиваназулги
аиванал
аиги
аигиптос
аигъир
аидар
аидарбегил
аидарбегилал
аидарбегица
аидарбегов
аидемир
аии
аииб
аиил
аиин
аиип
аиица
аимаки
аимакиб
аимакив
аимакиса
аин
аирес
аитберилазул
аитберов
аитберова
аитберовас
аишат
аиюб
аиюбил
аия
ак
ака
акад
академии
академик
академика
академического
академия
академиялда
академиялъул
акакии
акант
акантус
акаро
акбар
акбиев
аким
акимзабазе
акимилан
аккад
аккаунт
аккаунтазда
аккинцев
акку
акнада
акрополь
акрофонияб
аксаи
аксалда
аксараи
акт
актал
актау
актер
актив
активист
активияб
актриса
актрисалъун
актуальные
акустикияб
акушинскии
акушинского
акциязул
акшегьир
акъ
акъаб
акъав
акъаи
акъал
акъалъулъ
акъго
акъикъат
акъикъаталда
акъикъаталдаги
акъикъатги
акъикъияб
акъикъиял
акъил
акъилав
акъилчи
акълу
акълуги
акълуялъги
акълъунго
акъсса
акъуба
ал
ала
алаб
алабазда
алабги
алаби
алаг
алазан
алазаналъул
алазул
алал
алалги
алалда
алаллъизе
алаллъиялъе
алалъ
алалъул
аламалда
аламалдаго
аламалъе
аламалъул
аламат
аламатав
аламатал
аламатго
аламги
алана
аланазулги
аланго
аландские
алании
алания
аланиягун
аланиялъул
алануб
аларал
алараса
аласулги
алат
алатазул
алатал
алатлъун
алаштар
алаяб
алаялда
алб
алба
албан
албания
албаниялда
албаниялъул
албаниялъулги
албихьи
алвани
алг
алги
алгонкинал
алгоритм
алда
алдаги
алдалъун
алдамилал
алдаса
алдасаги
алдасан
алде
алдехун
алдещвеяз
алдохъанас
але
алекса
александ
александр
александра
александре
александрииская
александрица
александркент
александров
александрова
александрович
алексе
алексеев
алексеева
алексеевасул
алексеевв
алексеевич
алексеи
алексея
алеппо
алетеиа
алетеия
алеф
алжан
алжаналда
алжаналъул
алжанги
алжанул
алжир
алзул
али
алиабад
алиасх
алиб
алибег
алибекилросу
алибица
алиги
алигиери
алиго
алида
алиде
алиев
алиева
ализе
аликберов
алил
алилазул
алилал
алим
алимасе
алимзабаз
алимзабазда
алимзабаздалъун
алимзабазе
алимзабазул
алимзаби
алимзабиги
алимчи
алимчилъун
алимчияс
алимчиясул
алимчулал
алип
алипал
алипалда
алипалде
алипалъ
алипалъул
алипба
алипбалъун
алипбаязда
алипбаязул
алипбаял
алипбаялда
алипбаялдаги
алипбаялдаса
алипбаялде
алипбаялъул
алириза
алискандериялдаса
алисканди
алисулт
алиф
алифалда
алифбаи
алих
алихан
алиханил
алиханов
алица
алк
алла
аллагь
аллагьас
аллагьасги
аллагьасда
аллагьасдаса
аллагьасде
аллагьасе
аллагьасеги
аллагьасул
аллагьасулъ
аллагьги
аллагьгун
аллагьу
аллатив
аллативаздаги
аллативалъул
аллаха
аллегорияб
аллея
алма
алманазул
алмания
алманиялъул
алт
алтаи
алтаялъулал
алу
алул
алулаго
алулеб
алулев
алун
алуцараб
алфавит
алфавита
алфавиталда
алфавиталъ
алфавиталъул
алфавитук
алх
алхул
алхӏам
алъ
алъа
алъазе
алъаи
алъала
алъалев
алъалевлъун
алъана
алъе
алъи
алъиялда
алъиялъе
алъиялъул
алъул
алъула
алъулаб
алъулал
алъуларо
алъулги
алъун
аль
альберт
альбомал
альбурз
альвеолярияб
альманах
альпазда
альпазул
альпина
альпинистов
альтернативияб
альфа
альянс
альянсчагӏаз
алютикал
аляска
аляскалда
аляскаялда
аляскаялъул
ам
ама
амаги
амад
амадбег
амадие
амадил
амадилан
амадица
амадмирза
амадмирзаги
амаднаби
амаднуцалица
амадов
амадун
амадх
амазонка
амал
амалал
амалалги
амалги
амалросу
амам
аман
амана
аманат
амбар
амбарч
амг
амен
аменхіотеп
аменхіотепил
аменхіотепица
америка
америкабазда
америкалда
америкалъул
американ
американав
американазул
американияб
американияв
американская
американскии
американских
америкаялда
америкаялде
америкаялъул
амет
амза
амзалал
амзат
амзатие
амзатил
амзатица
амзатов
ами
амид
амизе
амилкаре
амин
амина
аминат
аминатги
аминатил
аминил
амир
амирабад
амирандареджаниани
амиранил
амирасул
амират
амирзаби
амирлъун
амирх
амирхан
амит
амм
амма
аммаб
аммад
аммадбина
аммадг
аммадил
аммадов
аммал
аммалги
амман
амол
амон
амос
амраби
амру
амруги
амруялда
амруялдалъун
амстел
амстердам
амула
амулеб
амулел
амун
амуна
амуние
амунил
амур
амураб
амурал
амухъ
ан
ана
анаб
анав
анаг
анагӏан
анаиробияб
анал
аналда
аналде
анализ
анализалъул
анализги
анализу
аналитики
аналитикияб
аналитикиял
аналогал
аналъул
анапаялъул
анапил
анапилросу
анасеб
анасев
анасул
анат
анато
анатолии
анатолил
анатолиялъул
анатомия
анатомиялъул
анах
анбарабад
анбииа
анбииаъ
анбия
анбияъал
анвар
ангальт
ангелов
анги
ангицин
англ
англиискии
англииском
англия
англиялда
англиялъул
англо
анго
ангоб
ангола
анграл
ангут
ангъидаса
ангіа
андал
андалал
андерс
андерсен
андерсенил
анджелес
анджело
анди
андиг
андииское
андиицы
андика
андилал
андо
андорра
андорраялъул
андорры
андре
андреа
андреев
андреевич
андреи
андрея
андуник
андуника
андых
анжи
анзали
ани
аниб
аниги
анила
анилан
анин
анинги
анисат
анихъ
анищ
анияб
анияв
аниялъул
анк
анкара
анкараялда
анкараялъул
анкаре
анклав
анкь
анкьабго
анкьабилеб
анкьадаса
анкьалъ
анкьго
анкьида
анкьидаса
анкьидасан
анкьил
анкьилаб
анкьица
анкьнусго
анкьнусиялда
анкьракьалъул
анлъабилеб
анлъабилев
анлъго
анлъгояв
анлъи
анлъун
анлӏабилеб
анлӏго
анна
аннексии
аннексинабун
анны
анри
анса
ансадерил
ансалта
ансалтіа
ансамбля
ансар
ансари
ансарияз
ант
анталия
антантаялъул
антарктида
антарктиды
антарктика
антибиотикал
антиген
антилопа
античности
антология
антон
антонио
ану
анфа
анфаль
анханасе
анхвара
анц
анцухъ
анцухъа
анці
анціабилеб
анціабилев
анціабилел
анціго
анціи
анціила
анціилакіиабилеб
анціилацоабилеб
анцісон
анцісоналъул
анцӏ
анцӏго
анцӏила
анцӏилакӏиго
анч
анчаг
анчазул
аншлюс
ао
ап
апа
апазаялъул
апанди
апандил
апандица
апандияс
апандиясе
апандиясул
апараг
апачеял
апелляциялъул
апиз
апизов
апионкарагьисар
апокрифал
апостол
апостолов
апостольскои
аппарат
апрел
апреладаса
апрелалда
апрелалдаса
апрелалъ
апрелалъул
апрель
апреля
април
априлалда
аптека
апшерон
апшероналъул
апшеронскии
ар
ара
араб
арабазул
арабалдаса
арабали
арабги
арабго
арабиия
арабин
арабистаналда
арабия
арабиязул
арабиялъул
араблъун
арабские
арабскии
арабских
арабско
арабского
арабскои
арабском
арабтала
арав
аравии
аравия
араг
арагва
арагваялъул
арада
арадаби
арадабиги
арададул
арадерил
арадерица
араз
аразда
аразде
араздеги
аразе
аразул
араи
араичо
аракани
аракат
аракаталдалъун
аракаталъеги
аракаталъул
аракатчаг
аракатчи
аракатчилъи
аракатчилъиялъул
араки
аракиялъ
аракс
аракъи
арал
аралали
аралани
аралги
аралгун
аралда
аралдалъун
аралдаса
аралдасан
араллъун
аралщинал
аралъ
аралъе
аралъул
аралъулги
арамаб
арамеи
арамияб
арамхур
аран
арана
арани
аранинская
арапов
арараб
арарал
арарат
арас
арат
арахъ
арахъез
арац
арацхан
арбагі
арбагіалда
аргентина
аргентинаялда
аргентинозу
арги
арго
аргументы
аргун
аргъан
аргъвани
аргъваниса
арда
ардабил
ардал
ардестан
ардон
аре
ареал
аренда
арзазул
арзал
ари
ариб
аризе
аризона
арикъатазул
арикъаталъул
арип
арипиназдасан
арипиназул
аристан
аристотелица
ариф
арияб
ариязул
арк
арктика
аркьел
аркьелалъул
аркьеллъун
арлъул
арм
армавир
армен
армении
армения
армениязулгун
армии
армил
арминия
армия
армиялда
армиялде
армиялъ
армиялъул
армсср
армуткои
армян
армяназул
армянская
армянского
армянскои
арналдо
арнольд
арп
арпаздалъун
арпал
арпалги
арпалъул
арраналда
арсенал
арскии
арсланхан
арт
артала
артамонов
артвин
артем
артефактал
артикуляция
артикуляциялда
артикуляциялъул
артиллерия
артист
артистка
артур
аруба
арул
арулаан
арулав
арулаз
арулазда
арулазде
арулазе
арулазул
арулал
аруласе
аруласул
арулеб
аруллъи
аруллъиялда
арун
арухъ
арухъе
арх
архангельская
археографиялъул
археолог
археологии
археологические
археологическии
археология
археологияб
археологиял
археологиялъул
археологиялъулал
архив
архивазда
архивалда
архивалъул
архивированная
архивировано
архивныи
архиепископ
архиерея
архиереясул
архитектор
архитектура
архитектураялъул
архитектурияб
архитектуриял
архитектуры
арц
арцул
арцулаб
арцухъ
арчи
арчил
арчияб
арчияв
арчиял
ас
аса
асаб
асаги
асад
асадабад
асадил
асадула
асан
асанбина
асанил
асаница
асанов
асар
асараз
асаразда
асараздаги
асараздалъун
асаразе
асаразул
асаразулъ
асаразулъги
асарал
асаралги
асаралда
асаралдалъун
асаралдаса
асаралъги
асаралъукь
асаралъул
асарги
асаргун
асарлъун
асасазда
асасалъул
асатин
асатрян
асваналда
асвт
аселдер
асил
асилал
асилалда
асир
асирлъаразе
асирлъарал
асирлъудаса
асирлъуде
асирлъун
асияб
аск
аскар
аскараз
аскаразда
аскаразул
аскарал
аскаралги
аскаралда
аскаралдаги
аскаралде
аскаралъ
аскаралъул
аскарги
аскаргун
аскариял
аскоб
аскор
аскіаб
аскіо
аскіоб
аскіов
аскіор
аскіоса
аскіосан
аскӏоб
аскӏобе
аскӏов
аскӏовги
аскӏове
аскӏор
аскӏоре
асл
аслаби
аслабиги
аслан
асландуз
асланихъе
асланица
аслияб
аслияблъун
аслиял
аслу
аслудин
аслулъун
аслуялда
аслуялдаса
аслуялде
аслуялъе
аслуялъул
аслуялъулъ
асляздеги
асма
асомтаврули
аспект
аспирант
аспирантураги
аспирация
асрабаз
асрабазда
асрабаздаса
асрабазул
асру
асруялда
асруялдаго
асруялдаса
асруялъ
асруялъул
ассаб
ассаламу
ассамалъул
ассимиляция
ассириял
ассо
ассоциация
асср
ассралда
ассралъул
аст
астан
астана
астара
астероид
астероидал
астрахан
астраханская
астрель
астрометрия
астронавт
астроном
астрономия
астрономиял
астрономиялъул
астрофизика
асфальт
асх
асхіабасул
асхӏаб
асыҡ
ат
ата
атаб
атабаскал
атабегазул
атавев
атаев
атаевасул
атазул
атал
атала
аталазул
аталда
аталдаса
аталде
аталъ
аталъе
аталъул
аталъулги
ататюрк
ататюркил
атбара
атги
атеизм
атил
атиял
атлант
атлантикияб
атлантическии
атлас
атлъун
атмосфера
атом
атомазде
атомал
атомнои
атрибут
атрнерсех
атта
аттахӏият
аті
аудио
аул
аула
ауховцев
афанди
афандил
афганистан
афганистана
афганистане
афгъаниста
афгъанистан
афгъанистаналда
афгъанистаналдаги
афгъанистаналъул
афинабазда
афинал
афразиялъул
африка
африкалда
африкалъул
африкаялда
африкаялдаги
африкаялдаса
африкаялъул
африкаялъулги
африке
африки
аффикс
аффриката
аффрикатал
аффрикаталъул
ах
ахазул
ахал
ахалги
ахалсихъ
ахалсихъалда
ахалсихъалде
ахалсихъалъул
ахалцихе
ахалцихскии
ахалчи
ахалъуда
ахаманишазул
ахар
ахбазан
ахвахскии
ахенатен
ахенатенида
ахенатенил
ахенатонил
ахетатон
ахикь
ахир
ахираб
ахираздалъун
ахирал
ахиралги
ахиралда
ахиралдаги
ахиралдаса
ахиралде
ахиралъул
ахират
ахираталда
ахираталъул
ахирги
ахирисеб
ахирисев
ахирисеи
ахирисел
ахирисесул
ахирияб
ахириял
ахирлъана
ахирлъун
ахихъан
ахкент
ахлакъияб
ахлатӏал
ахмад
ахмат
ахмед
ахмет
ахтаев
ахтиб
ахтини
ахтынскии
ахульго
аххада
аххаде
аххакь
ахъ
ахъаи
ахъан
ахъбердил
ахъе
ахъуша
ахьазда
ахьаздаги
ахьаздасан
ахьазул
ахьал
ахьалаб
ахьалги
ахьаллъана
ахьаллъарал
ахьаллъи
ахьаллъун
ахьалчаг
ахьалчи
ахьвалазул
ахьвахъ
ахіаги
ахіаяв
ахівал
ахіи
ахіизе
ахіиялъул
ахімад
ахімадил
ахімадица
ахімадханасул
ахімесил
ахімет
ахімос
ахімосидаса
ахімосиде
ахімосил
ахімосица
ахіула
ахіулаго
ахіулгохі
ахіулеб
ахіулев
ахіун
ахӏана
ахӏараб
ахӏваз
ахӏвал
ахӏе
ахӏи
ахӏизе
ахӏичӏого
ахӏмад
ахӏмадги
ахӏмадил
ахӏмадкъади
ахӏмаднаби
ахӏмаднабиев
ахӏмаднабил
ахӏмаднабица
ахӏмадхан
ахӏмосил
ахӏула
ахӏулеб
ахӏулев
ахӏулел
ахӏун
ац
аца
ацш
ацшялъул
ацшялъулгун
ацщ
ач
ачикулак
ачодо
ачхъала
ачхъалаялда
ачхъалаялъул
ачык
ачіана
аш
ашвадо
ашилт
ашильта
ашт
аштиан
ашура
ашуриял
ашхабад
ашық
аэродром
аэропорт
аэропорта
аэропортаздаса
аэропортазул
аэропорталда
аэропорталдаса
аэропорталдасан
аэропорталде
аэропорталъ
аэропорталъе
аэропорталъул
аэропортлъун
аэропорту
аэрофлот
аэрофотоснимки
аюб
аюбил
аюбов
аюбова
ая
аязда
аязул
аял
аялда
аялдаса
аялдасан
аялде
аялъе
аялъул
аян
аят
аятал
аятолла
аятоллы
аятулла
аяччо
б
ба
баб
баба
бабаджани
бабалъул
бабарап
бабаюрт
бабаюрталда
бабаюрталдасан
бабаюрталъул
бабаюртовскии
бабаюртовского
бабаюртовском
бабаян
бабек
бабихьуда
бабихьул
бабихьула
бабол
баболсер
баболь
баварская
баг
багамы
багвалал
багдасарян
баге
баги
багратилазул
багратион
багратиони
багратионие
багратионил
багулал
багъа
багъана
багъарараб
багъардахъулареб
багъари
багъариялъул
багъарулеб
багъарун
багъдад
багъулеб
багьа
багьавудин
багьадур
багьадурал
багьадурасул
багьана
багьаяб
багіар
багіараб
багіарараб
багіархъала
багіли
багӏар
багӏараб
багӏарал
багӏарараб
бад
бадави
бадиб
бадиса
бадрудин
бадруялъул
бажарана
бажарараб
бажари
бажариги
бажаричӏони
бажарулареб
бажаруларо
бажарулеб
база
базабулеб
базальталъул
базар
базаразе
базаралда
базаралде
базаралъ
базаралъе
базаралъул
базаргаби
базарги
базе
базеги
базегіан
базилика
баи
баиар
баибихьан
баибихьана
баибихьараб
баибихьаралдаса
баибихьи
баибихьиги
баибихьигун
баибихьидал
баибихьизе
баибихьизегӏан
баибихьилъун
баибихьиялда
баибихьиялъ
баибихьиялъул
баибихьуда
баибихьудаги
баибихьудаса
баибихьудасанго
баибихьуде
баибихьул
баибихьула
баибихьулеб
баибихьун
баигіат
баидал
баидан
баиданлъиялда
баидар
баиков
баиконур
баиконура
баирам
баирамалъул
баирамищ
баирамлъун
баирахъ
баирахъал
баирахъалда
баирахъалъул
баисар
баит
баитуган
баитул
баияр
баиярица
бак
бакалда
бакир
бакиханов
бакихановас
бакихановасда
бакка
баккана
баккараб
баккаралдаса
бакки
баккизеги
баккиялъул
баккудаса
баккула
баккулеб
баккун
бакр
бактериалиял
бактерии
бактерия
бактерияз
бактериязул
бактериял
бактериялъ
бактериялъул
баку
бакунин
бакур
бакуялда
бакуялде
бакуялъул
бакхъбаккул
бакъ
бакъалда
бакъалдаса
бакъалъ
бакъалъул
бакъан
бакъана
бакъанида
бакъанил
бакъара
бакъараб
бакъбаккуда
бакъбаккудаса
бакъбаккудасан
бакъбаккудахун
бакъбаккуде
бакъбаккудехун
бакъбаккул
бакъбаккулги
бакъбаккулл
бакъвазе
бакъваи
бакъвараб
бакъги
бакъда
бакъдаб
бакъдал
бакъдасеб
бакъдасебгун
бакъдасел
бакъде
бакъдехун
бакъи
бакъир
бакълъал
бакълъалалуз
бакълъул
бакълъулазул
бакълъулал
бакълъухъ
бакълъухъа
бакъназухъ
бакът
бакътерхьул
бакътіерхьуда
бакътіерхьудаса
бакътіерхьудасан
бакътіерхьудахун
бакътіерхьуде
бакътіерхьудехун
бакътіерхьул
бакътіерхьулрахъалдехун
бакътіерхьун
бакътӏерхьуда
бакътӏерхьудаса
бакътӏерхьудехун
бакътӏерхьул
бакътӏерхьун
бакъуда
бакъудаса
бакъул
бакъулаб
бакъулъ
бакъун
бакъуца
бакъшинкӏул
бакь
бакьагьич
бакьаич
бакьаичіи
бакьаичіиса
бакьаичӏи
бакьал
бакьулъ
бакьулъа
бакьулъаб
бакьулъан
бакьулъиялда
бакьулӏ
бакі
бакіазда
бакіаздаса
бакіазде
бакіазул
бакіал
бакіалгун
бакіалда
бакіалдаса
бакіалдасан
бакіалде
бакіалъа
бакіалъе
бакіалъул
бакіалъулаб
бакіалъулал
бакіарана
бакіаризе
бакіарула
бакіги
бакігун
бакілъун
бакілъунги
бакӏ
бакӏаб
бакӏазда
бакӏаздаги
бакӏаздасан
бакӏазде
бакӏал
бакӏалги
бакӏалда
бакӏалдаса
бакӏалдасан
бакӏалде
бакӏалъул
бакӏалъулаб
бакӏари
бакӏарула
бакӏарулеб
бакӏарун
бакӏги
бакӏлъи
бакӏлъун
бал
бала
балаан
балабанов
балагун
балагь
балагьал
балагьана
балагьараб
балагьги
балагье
балагьи
балагьизе
балагьич
балагьичіого
балагьичӏого
балагьиялда
балагьиялъул
балагьуге
балагьула
балагьун
балада
баладаса
баладасан
балакиши
балал
балалда
балалде
балалъ
балалъул
баланс
баланса
баларо
баласаган
балахьуни
балеб
балев
балел
балелде
балелъул
балкан
балканалъул
балкар
балкарал
балкъ
балкъар
балл
балтгин
балтгун
балтии
балугълъиялде
балучал
балучистан
балъ
балъаял
балъго
балъголъаби
балъгояб
балъгоял
балъи
балъхъадерил
балъхъал
бам
бамматов
бан
бана
банги
бангкок
бангладе
бангладеш
бангладешалъул
бангъладеш
бандар
бане
бани
банк
банка
банкалъул
бану
банщикова
бараат
бараб
барав
барадар
бараи
барак
баракат
баракатаб
барал
баралдаса
барамидзе
баранов
барахъ
барбара
баргъич
бард
бардсир
баренцево
барзас
барика
барият
баркала
баркалаги
баркат
баркула
барнаул
барон
барона
барону
барри
барселона
барти
бартольд
барщараб
бас
басаи
баси
басил
басир
басират
басиязул
басиял
басиялда
басиялъул
баск
басказул
баскин
баскунчакалъул
басм
басма
басмабазда
басмахана
басмаханаялда
басмаханаялде
басмаяз
басмаязул
басмаялда
басмаялде
басмаялъул
баср
басра
басрияб
басриял
бассеин
бассеина
бат
батальонал
батана
батани
батаниги
батараб
батасуна
батаюрт
бати
батизе
батизеги
батила
батиларо
батилародаян
батилилан
батилин
батиров
батировас
батировасул
батич
батлух
батор
бату
батула
батуларо
батулеб
батули
батулил
батулица
батуми
батумиялда
батумиялде
батумиялъул
батун
баті
батіа
батіаго
батіалъи
батіалъиялъул
батіалъула
батіалъун
батіи
батіияб
батіияв
батіиял
батӏа
батӏаго
батӏагьабула
батӏаииса
батӏалъаби
батӏалъи
батӏалъиги
батӏераб
батӏи
батӏияб
батӏияв
батӏиял
бафт
бах
бахаи
бахана
бахараб
бахарав
бахизе
бахиллъун
бахиндал
бахине
бахрам
бахреин
бахтиария
бахтика
бахтикал
бахтикаца
баху
бахубика
бахула
бахулеб
бахун
бахуна
бахунаро
бахунеб
бахча
бахчараб
бахчи
бахчизе
бахчун
бахшазда
бахъана
бахъанагіан
бахъанин
бахъараб
бахъарабго
бахъарабщинаб
бахъарав
бахъарал
бахъаралдаса
бахъе
бахъелел
бахъи
бахъидал
бахъизе
бахъизегіан
бахъила
бахъин
бахъинабизе
бахъинабула
бахъинабун
бахъинабуна
бахъиназ
бахъиназда
бахъиназул
бахъинал
бахъиналъул
бахъинаро
бахъингун
бахъине
бахъинлъун
бахъич
бахъиялда
бахъиялдалъун
бахъиялъ
бахъиялъе
бахъиялъул
бахъуге
бахъула
бахъулаан
бахъулаго
бахъулареб
бахъуларо
бахъулеб
бахъулел
бахъун
бахъуна
бахъунареб
бахъунаро
бахъунеб
бахъухъ
бахіарчи
бахіарчилъиялъухъ
бахіраин
бахіс
бахісал
бахӏарав
бахӏаралъул
бахӏарзабиги
бахӏарзал
бахӏарчи
бахӏарчиго
бахӏарчилъи
бахӏарчияв
бахӏарчиял
бахӏарчиялъухъ
бахӏарчиясул
бахӏреин
бахӏс
бац
бацбиицы
бацбиял
бацун
баціадаб
баціал
баціги
баціціадаб
бацӏ
бацӏадаб
бацӏги
бацӏие
бацӏил
бацӏилав
бацӏица
бацӏцӏад
бацӏцӏадаб
бацӏцӏадав
бацӏцӏе
бач
бачана
бачараб
бачари
бачариялъ
бачариялъул
бачин
бачиналъул
бачиндал
бачине
бачинскии
бачинчіо
бачица
бачула
бачун
бачуна
бачунеб
бачунев
бачунел
баччизе
баччуге
баччулеб
баччулел
баччун
бачіана
бачіараб
бачіаралдаса
бачіеб
бачіин
бачіиналъул
бачіине
бачіун
бачіуна
бачіунаро
бачіунеб
бачӏана
бачӏани
бачӏанин
бачӏараб
бачӏеб
бачӏин
бачӏина
бачӏиналда
бачӏине
бачӏинегӏан
бачӏинчӏо
бачӏун
бачӏуна
бачӏунаро
бачӏунеб
башар
башдаб
башир
башк
башкирал
башкирия
башкирская
башкортостан
башли
башликент
башлы
башт
башҡорттар
бащад
бащадаб
бащадаблъун
бащадабчіинкіиллъи
бащалъи
бащалъиялда
бащалъиялдаса
бащалъиялдасан
бащалъиялде
бащалъуда
бащалъуде
бащалъула
бащалъулеб
бащдаб
бащдабч
бащдабчіинкіиллъи
бащдабчіинкіиллъиялдаса
бащдабчӏинкӏиллъи
бащдабчӏинкӏиллъиялде
бащдал
бащдалдаса
бащдарагьараб
бащдарагьарал
баядерка
баялда
баян
баянаб
баяназда
баяназул
баянал
баяналги
баяналда
баяналъул
баянго
баянлъана
баянлъи
баянлъизабула
баянлъун
баянтӏехь
баянтӏехьалда
баяр
баярги
баярил
бб
ббб
бе
бег
бега
бегавул
бегавуллъун
бегараб
бегаул
бегеб
бегизе
бегил
бегилав
бегство
бегула
бегун
бегьбагьан
бегьизе
бегьуге
бегьул
бегьула
бегьулареб
бегьуларо
бегьулеб
бегьулев
бегьулел
бегьулин
бегьшагьр
бегӏераб
бегӏерараб
бежт
бежтіа
бежтӏа
бежтӏал
без
безобразова
безопасности
безопасностиялда
беи
беилис
беилиса
беиоглу
беира
беирут
беишегьир
бек
бекани
бекератида
бекица
бекула
бекулеб
бекун
бекьана
бекьани
бекьараб
бекьаралъуб
бекьдерил
бекье
бекьизе
бекьилъ
бекьилъа
бекьилъе
бекьичӏого
бекьуге
бекьулеб
бекьун
бекікіун
белару
беларуси
беларусь
белгород
белград
беленджер
белиз
белоканы
белор
белорусал
белорусия
белорусс
белоруссии
белоруссия
белоруссиялда
белоруссиялъул
белстат
белъараб
белъелда
белые
белыи
бельгии
бельгия
бельско
беляев
бен
бенгал
бенгали
бенгалиязул
бенгалиял
бенедикт
бенин
бенито
бенои
бент
бер
бераз
беразда
берал
бералда
бербалагьи
бербалагьиял
берг
бергьана
бергьараб
бергьарав
бергьарал
бергьенлъабазул
бергьенлъабазухъ
бергьенлъаби
бергьенлъи
бергьенлъиги
бергьенлъиялда
бергьенлъиялъул
бергьинаро
бергьине
бергьун
бергьуна
бергьунеб
берда
бердимухіамадов
бердымухамедов
берег
берега
берет
беретросу
берзул
берлев
берлин
берлиналда
берлиналде
берлиналъул
берлине
берлинская
бермуды
берн
бернар
бернард
бертин
берцин
берцинаб
берцинав
берцинаи
берцинал
берцинго
берцинлъараб
берцинлъи
берцинлъизе
берцинлъиялде
берцинлъиялъул
берцинлъун
бесдал
бесдалазе
бет
бета
бетіер
бетіераб
бетіерав
бетіерал
бетіералда
бетіералде
бетіерас
бетіерасда
бетіерасул
бетіербахъи
бетіерги
бетіергьан
бетіергьанчи
бетіерлъи
бетіерлъиялда
бетіерлъуда
бетіерлъун
бетіерлъунги
бетӏ
бетӏе
бетӏер
бетӏераб
бетӏерав
бетӏерал
бетӏералда
бетӏералъ
бетӏерас
бетӏерасул
бетӏербахъиги
бетӏерги
бетӏергьабазе
бетӏергьабазул
бетӏергьаби
бетӏергьабилъун
бетӏергьан
бетӏергьанлъи
бетӏергьанчи
бетӏергьанчиясул
бетӏерлъи
бетӏерлъиялда
бетӏерлъуда
бетӏерлъуде
бетӏерлъун
бехе
бец
беццаб
беццав
беццараб
беццизе
беццуге
беццулеб
беціаб
бецӏаб
беч
бече
бечед
бечедаб
бечедав
бечедаз
бечедазде
бечедазул
бечедал
бечелъана
бечелъи
бечелъиги
бечелъиларо
бечелъиялъул
бечелъиялъухъ
бечелъулеб
бечӏаро
бешел
беэкъ
беэнаб
би
биараб
библ
библеиская
библеиские
библеиских
библеискияб
библеиско
библеиского
библеиское
библеистика
библии
библиогр
библиография
библиоинформация
библиотек
библиотека
библиотекаялда
библиотеке
библиотеки
библию
библия
библиялда
библиялъул
биги
бигь
бигьа
бигьаго
бигьалъи
бигьалъиялъе
бигьалъиялъул
бигьаяб
бидгол
биде
биджар
бидул
бидулаб
бидурихь
бижана
бижараб
бижарав
бижизабула
бижизабуна
бижилалде
бижула
бижуларо
бижулеб
бижун
бизантиялъул
бизнеса
бизнесалъул
бизнесмен
биин
бика
бикаги
бикал
бикаца
бикерманида
бикъарав
бикъинаб
бикъула
бикъун
бикь
бикьана
бикьараб
бикьи
бикьиялъул
бикьула
бикьулаан
бикьулеб
бикьун
бикіун
бикӏун
билабиалияб
билал
билбилахур
биле
билет
билкан
билканалда
билканса
билъанхъизабизе
билъараб
билълъанхъизабиялъул
билълъараб
билълъинабиялъул
билълъинабулеб
билълъинабуна
билълъине
билълъинчіеб
бильбасов
биліараб
билӏинабизе
бин
бина
бинт
бину
биографии
биографическая
биографические
биографическии
биография
биографиях
биология
биологиялда
биологиялъулаб
бирючок
бис
бисау
бисмарк
бисмиллагьи
бит
битвы
биті
битіана
битіараб
битіараблъун
битіула
битіун
битӏ
битӏаги
битӏана
битӏараб
битӏахъе
битӏахъего
битӏуларо
битӏулеб
битӏуледухъ
битӏун
битӏунхъваязул
биун
бихбизабулеб
бихун
биххана
биххани
биххараб
биххарав
биххаралдаса
биххи
биххидал
биххизабизе
биххизабиялде
биххизабула
биххизабун
биххизабуна
биххизе
биххула
биххулел
биххун
бихъун
бихьаги
бихьана
бихьараб
бихьарав
бихьарасда
бихьарасул
бихьи
бихьидал
бихьизаби
бихьизабизе
бихьизабизеги
бихьизабиялъул
бихьизабул
бихьизабула
бихьизабуларо
бихьизабуле
бихьизабулеб
бихьизабулел
бихьизабун
бихьизабуна
бихьизабураб
бихьизабухъе
бихьизарулел
бихьизе
бихьинаб
бихьинав
бихьиназ
бихьиназда
бихьиназдаги
бихьиназул
бихьинал
бихьинчи
бихьинчиясда
бихьинчиясул
бихьич
бихьичӏого
бихьуге
бихьула
бихьуларо
бихьулеб
бихьулебила
бихьулев
бихьулевлъун
бихьун
бихьунила
бихьухъе
бицалъи
бицалъиялъул
бицана
бицани
бицанихъе
бицараб
бицарал
бицарасда
бицатаб
бице
бицен
биценаз
биценазда
биценазул
биценал
биценалги
биценалда
биценалъул
бицилин
бицин
бицина
бициндал
бицине
бицула
бицулеб
бицун
бицуна
бицунаан
бицунаанила
бицунаго
бицунге
бицунеб
бицунев
бицунел
бицухъе
биццалъи
биццатаб
бич
бича
бичараб
бичас
бичасул
биче
бичи
бичизе
бичизеги
бичилалде
бичуге
бичулеб
бичун
биччаге
биччазе
биччаи
биччала
биччаларо
биччалеб
биччан
биччана
биччани
биччараб
биччачӏо
биччаялъул
биччи
бичіулеб
бичічіана
бичічіи
бичічіизабизе
бичічіизабула
бичічіизабулеб
бичічіизабулел
бичічіиялда
бичічіула
бичічіулеб
бичӏизабулел
бичӏчӏелазул
бичӏчӏизе
бичӏчӏула
бичӏчӏулеб
бичӏчӏулеи
бичӏчӏун
бишун
бищана
бищараб
бищизе
бищиялъе
бищула
бищун
бищунго
бищщун
биялъул
бк
бл
благодарность
благодаря
благодатных
благои
ближнего
ближнем
ближнии
близ
близок
блика
блог
блок
блю
бо
бог
богданович
богдановскии
боги
богов
боговдохновенными
боголил
богоматерялъул
богомолов
богословил
богословов
богословская
богословскии
богота
богун
богьемиялъул
богӏол
бодбе
бодрум
бодул
бодулъ
бое
боевики
боевиков
боевых
боец
бож
божани
божарав
божарал
божелалъул
божи
божизе
божилъи
божиялъул
божуге
божула
божуларо
божун
божунгутіиялъул
боз
бои
боиня
бокарев
боккаччо
боксалъул
боксер
бокь
бокьа
бокьаии
бокьана
бокьани
бокьараб
бокьарав
бокьаразе
бокьарал
бокьарас
бокьи
бокьила
бокьилаан
бокьиня
бокьич
бокьичӏогун
бокьичӏони
бокьоб
бокьула
бокьулаан
бокьулареб
бокьулеб
бокьулев
бокьулевлъун
бокьулел
бокьун
бокьухъе
бокінида
бокіон
бокӏонги
бол
болванки
болг
болгарал
болгарии
болгария
болгариялъул
болгариялъулгун
болгарская
более
болжал
болжалалда
болжалалъ
болжалги
боливия
болмац
болмаці
болмацӏ
болола
болъе
болъихъ
болъихъа
болъон
болъонил
больница
большаков
большая
больше
большевиказ
большевиказда
большевиказде
большевиказул
большевиказулги
большевикал
большинство
большинством
большого
большое
большои
бомба
бомбаби
бонаб
бонаире
бонгард
бонго
бондаренко
бонн
боржарав
боржоми
боржунеб
борис
борисович
борлъизе
борохь
борт
борта
борталда
борталъул
бортана
бортараб
бортизаби
бортизабун
бортизабуна
бортизабунин
бортиялъе
борту
бортун
боруджерд
борхалъи
борхалъиги
борхалъиялда
борхалъиялъул
борхалъуда
борхалъудаса
борхана
борхар
борхатаб
борхатлъиялда
борхатлъуда
борхи
борхизе
борхиялда
борхиялъе
борхиялъул
борхиялъулаздаса
борхиялъулги
борхун
борхьал
борхьил
борцана
борцани
борце
борциналъул
борцине
борцун
борцуна
борцунеб
борч
борчӏизе
борьба
борьбы
босана
босани
босараб
босарав
босараи
босарал
босе
босеян
боси
босизе
босичӏин
босиялда
босиялде
босн
босния
боснияб
босниязул
босниял
босуге
босул
босула
босулаго
босуларев
босуларо
босулеб
босулев
босулел
босун
босфор
босфоралъул
босфорил
босх
бот
ботаникияб
ботанцов
ботевасул
ботлихскии
ботсвана
боттичелли
ботулизм
ботӏрода
бох
бохдул
боц
боціи
боцӏи
боцӏиги
боцӏуда
боцӏудаса
боцӏул
боязе
боязул
боял
боялги
боялгун
боялда
боялде
боялъе
боялъул
бразилия
бранденбургалъул
браницкии
брат
братом
брать
братья
бревисгун
брикнер
бринкен
британ
британия
британиялде
британиялъул
британская
британские
британскии
бритіаниялъул
бродяга
брокгауз
брокгауза
брокгаузил
броневскии
броновицкая
брунеи
брэ
брюс
брюссел
брюсселалъул
брюссель
бсэ
бу
бубал
бубонияб
бугб
буге
бугеб
бугебали
бугебги
бугебгӏан
бугеблъи
бугеблъун
бугев
бугевлъун
бугез
бугезда
бугезул
бугеи
бугел
бугелги
бугелда
бугелдаса
бугелде
бугеллъун
бугелъул
бугем
бугесул
бугила
бугилан
бугиланги
бугин
буглен
буго
бугоан
буголъи
бугони
бугониги
бугоян
бугъа
бугъица
бугьтанал
бугьула
бугӏа
бугӏаялдаса
будапешт
буддал
буддизм
буддизмалъул
будет
будун
будунас
будунлъун
будущее
буиерахімад
буиерахӏмад
буинакск
буинакскалъул
буинакскии
бук
букари
букварь
букъана
букъун
букіа
букіаго
букіадахъин
букіана
букіаниги
букіанин
букіараб
букіарабали
букіарав
букіахъе
букіин
букіина
букіиналда
букіиналдалъун
букіиналъ
букіиналъе
букіиналъул
букіиндал
букіине
букіинчіеб
букіинчіо
букіун
букіуна
букіунаро
букіунеб
букӏа
букӏаго
букӏана
букӏани
букӏаниги
букӏанила
букӏанилан
букӏанин
букӏараб
букӏарабали
букӏараблъи
букӏарав
букӏарал
букӏаралдаса
букӏахъинабуна
букӏизе
букӏин
букӏиналда
букӏиналъ
букӏиналъе
букӏиналъулги
букӏинги
букӏиндал
букӏине
букӏинин
букӏинчӏеб
букӏинчӏо
букӏинчӏолъи
букӏинчӏониги
букӏун
букӏуна
букӏунаан
букӏунареб
букӏунаро
букӏунеб
букӏунедухъ
булач
булачги
булачил
булгар
булгъа
булгъар
булдан
бунт
буо
бураналъ
бураналъул
бурангун
бурдузда
бурса
бурт
буртина
буртинаги
буртияз
буртиязул
буртиял
буртиялъ
буртиялъул
буртунаи
буруджен
бурут
бурутӏ
бурятия
бус
бусадул
бусен
бусинабуна
буссана
буссараб
буссарав
буссинаби
буссинабизе
буссинабиялъул
буссинабула
буссинабун
буссинабуна
буссинабуни
буссинабураб
буссиналъул
буссине
буссун
буссуна
буссунаро
буссунеб
бустан
бусурбабаз
бусурбабазда
бусурбабаздаги
бусурбабазде
бусурбабазе
бусурбабазул
бусурбабаца
бусурбаби
бусурбабиги
бусурбабилъун
бусурбал
бусурбан
бусурбанаб
бусурбанал
бусурман
бусурманаб
бусурманав
бусурманал
бусурманлъичӏого
бусурманчи
бусурманчиясда
бут
бутан
бутахур
бутаялда
бутковас
буто
бутри
бутіа
бутіабаз
бутіабазда
бутіабаздаса
бутіабазул
бутіаби
бутіабилун
бутіабилъун
бутіаги
бутіагун
бутіаккун
бутіалъун
бутіаяздаса
бутіаялда
бутіаялдаса
бутіаялдасан
бутіаялде
бутіаялъ
бутіаялъул
бутірузда
бутірузул
бутірул
бутӏа
бутӏабаз
бутӏабазда
бутӏабазул
бутӏаби
бутӏаги
бутӏагун
бутӏаккун
бутӏалъун
бутӏаялда
бутӏаялдаса
бутӏаялдасан
бутӏаялде
бутӏаялъ
бутӏаялъул
бутӏрузул
бутӏрул
бутӏрулги
буферияб
бух
бухара
бухарест
бухари
бухт
бухтиб
бухтиишо
буххун
бухцанахи
бухьана
бухьараб
бухьен
бухьеназул
бухьенал
бухьеналдалъун
бухьенги
бухьиналъул
бухьине
бухьун
бухьунеб
бухӏаниги
бухӏараб
бухӏи
бухӏуге
бухӏула
бухӏуларо
бухӏун
буц
буціра
бушбок
бушер
бушнев
буэнос
буюрухъ
буюрухъал
буюрухъалда
буюрухъалдалъун
българия
бывшего
бывших
был
была
были
было
былои
быт
бытие
бытность
быть
бычков
бюджет
бюро
бюст
бялаялда
бѣлоозерская
в
ва
ваба
вабаъ
вабаъалъ
вабаъалъул
вабзазда
вабзазул
ваби
вавилов
ваг
вагон
вагъана
вагъарав
вагъизе
вагъиялъул
вагъула
вагъулев
вагьб
вагьгьаб
вагӏза
вагӏзаби
вагӏзаялда
вад
вади
вадим
вадуд
важа
важную
важных
вазе
вазир
вазирасда
вазнивги
ваи
вакантияблъун
вакил
вакилаб
вакилал
вакиласул
вакилзабаз
вакилзабазе
вакилзабазул
вакилзаби
вакилзабиги
вакиллъи
вакиллъиялда
вакиллъиялъул
вакиллъун
вакиллъунги
ваккизе
ваккун
вакъарав
вакъигіат
вакъила
вакъиларилан
вакъула
вал
вала
валаан
валагьарасе
валагье
валагьичӏого
валагьуге
валагьулев
валагьун
валеб
валел
валентин
валентина
валентинов
валерии
валерия
вали
валигіагьдлъун
валид
валияб
валиялда
валовои
валют
валюта
валютныи
вамбери
ван
вана
ванада
ваневан
вани
ванкъот
вар
вараб
варав
вараг
варазул
варал
варамин
варани
варварал
вари
вариант
вариантал
варианталда
варианты
вариация
варис
варкьун
варуха
варшава
варшаваялда
варшаваялде
вас
васазул
васаил
васал
васалги
васас
васасги
васасда
васасдаса
васасе
васасул
васасухъ
васги
васиг
васигат
васигаталда
василат
василии
васильев
васильевич
васильевна
васият
васияталда
васлъун
ват
ватана
ватани
ватаниги
вати
ватизе
ватика
ватикан
ватикана
ватиканалда
ватиканалъул
ватикане
ватиларо
ватичӏо
ватула
ватун
ватіан
ватіаналде
ватіанияб
ватіанчагіазул
ватіанчагіи
ватіанчи
ватіанчилъи
ватіанчилъиялъулаб
ватіанчилъун
ватӏан
ватӏаналдаса
ватӏаналде
ватӏаналдехун
ватӏаналъе
ватӏаналъул
ватӏанияб
ватӏанлъун
ватӏанчагӏи
ватӏанчи
ватӏанчилъи
ватӏанчилъияб
ватӏанчилъиял
ватӏанчилъиялъул
ватӏанчиясул
вах
вахан
вахана
вахарав
вахинавун
вахинегіан
вахтанг
вахтангил
вахтіанг
вахун
вахушти
вахчана
вахчизе
вахчун
вахъа
вахъана
вахъарав
вахъи
вахъизе
вахъиндал
вахъине
вахъула
вахъулев
вахъун
вахъуна
вахъунев
вахіиалдалъун
вахӏшияб
вахӏью
вац
вацаз
вацазда
вацазул
вацал
вацаллъун
вацас
вацасда
вацасдаса
вацасул
вацг
вацги
вацгіал
вацлъи
вацлъун
ваціціадав
вацӏцӏадав
вач
вачана
вачи
вачин
вачине
вачнадзе
вачун
вачуна
ваччун
вачіана
вачіанин
вачіарав
вачіин
вачіине
вачіун
вачіуна
вачӏа
вачӏана
вачӏани
вачӏараб
вачӏарав
вачӏиндал
вачӏине
вачӏун
вачӏуна
вачӏунаго
вачӏунге
вашингтон
вашингтоналда
вв
введение
введении
ввел
ввп
ввс
ве
веб
вега
вегун
ведено
ведет
ведомости
ведут
ведь
веигаллида
веимар
веимаралда
веимаралъул
век
века
векалда
веках
веке
веков
векьарухъан
векьарухъанасул
великая
великии
великих
велико
великобритании
великобритания
великобританиялъул
великого
великои
величества
величие
велия
велъуге
вельяк
вельяминов
вельяминова
вельяминовасул
велярияб
вена
венгеров
венгрии
венгрия
венгриялда
венера
венесуэла
венесуэлаялъул
вера
вере
верзекан
вермахт
вермахталъул
вероучения
версалалъулаб
версии
версия
версиял
версиялда
версиялдаса
вертикалияб
вертолет
вертолетал
верующим
верхвиани
верхнего
верхние
верхнии
верхняя
верховного
верховныи
вершине
веры
вестеросалъул
вести
вестник
весь
вет
ветер
ветхии
ветхого
вехь
веццуге
веч
вече
вечера
вечернии
вечного
веществаби
вещество
взаимные
взгляд
взрыв
взрыва
взрыве
взрывы
взят
взятии
ви
вибрионалъул
вид
видео
видеоял
виды
вижарав
византияб
византиялда
визит
визита
визуалияб
вики
викигъамас
викигъамасалда
викидалил
викижамиг
викикъамус
викикъамусалда
викимактаб
викимактабалда
викимедиа
викимедиалъул
викимедиаялъул
википе
википедии
википедию
википедия
википедиязда
википедиязул
википедиял
википедиялда
википедиялъул
викисловареи
викихарбал
викицитата
викицитатаялда
виклифа
виктор
виктория
викторовна
викторовналъул
вилаиет
вилаият
вилаят
вилаятазул
вилаяталда
вилаяталдаса
вилаяталде
вилаяталъ
вилаяталъул
вилаяталъулги
вилгьелм
виллидж
вилълъа
вильгельм
вильнюс
вильям
виноградова
виноделия
винсент
виргиния
виргинские
вирд
виртуальная
виртуальныи
вирус
високоснияб
високосниял
високосныял
вит
витаминал
витраж
витруги
витіана
витіула
витӏана
витӏула
витӏун
вихьана
вихьизавизе
вихьизавула
вихьизавун
вихьизавуна
вихьизавурав
вихьизе
вихьичӏого
вихьула
вихьулев
вихьун
вице
виччаге
виччан
виччана
вишневскии
вищана
вищарав
вищарал
вищарасул
вищизе
вищула
вищулаан
вищулеб
вищулев
вищун
вияб
вк
включает
включают
включая
включены
вконтакте
вкп
вкус
владение
владении
владению
влади
владикавказ
владикавказалда
владим
владимир
владимира
владимирович
владимирскии
владимиру
владислав
владычества
власталде
власталъул
властеи
власти
власть
властями
влияние
влияния
вместе
вне
внес
внесении
внешнеи
вновь
внук
внуково
внутреннего
внутренним
внутренних
внутри
во
вов
вод
вода
водки
водного
водное
водные
водныи
водных
водохранилища
воды
воениздат
военная
военно
военного
военное
военнои
военные
военныи
военных
вождеи
возвращение
воздушные
возможно
возможности
возникновение
возникновения
воин
воина
воине
воину
воины
воиск
воиска
вокализация
вокализм
вокалист
вокруг
вокьарасе
вокьила
вокьуларев
вокьулев
волга
волге
волгоград
волинскии
волк
волков
вологда
вольтер
вольф
вольфганг
вообще
вооруженных
вопрос
вопроса
вопросам
вопросах
вопросу
вопросы
воре
воржарав
воронеж
ворхалъуда
ворхатав
ворхичӏого
ворхун
ворч
восана
воспитание
воспоминания
воспоминаниях
воспроизведение
воспроизвести
восстание
восстания
восстаниялде
восстаниялъе
вост
восток
востока
востоке
востоковедение
востоковедения
восточная
восточного
восточнои
восточном
восточныи
восточных
восун
восхождение
восхождении
восьмеричныи
вотум
вотумалдаса
вох
вошла
вошли
впервые
вперед
вплоть
впн
врач
времен
времена
временем
времени
временно
временное
временных
время
вс
всадник
все
всеволод
всевышнего
всегда
всего
вселенная
вселеннои
всем
всемирная
всемирнои
всемирныи
всеобщая
всеросс
всероссииская
всероссиискии
всероссиискои
всесоюзная
всесоюзного
всесоюзных
всех
всея
вскоре
вслед
вставки
вступ
вступил
вступительные
вступлении
вся
вт
вторая
второго
второи
вугеб
вугев
вугел
вугилан
вугин
вугиш
вуго
вугоан
вугони
вугониги
вугоян
вудард
вужудалда
вузов
вук
вукъана
вукъараб
вукъарав
вукъула
вукъун
вукъунги
вукіа
вукіаго
вукіана
вукіаниги
вукіанин
вукіараб
вукіарав
вукіин
вукіиналда
вукіиналъ
вукіине
вукіинчіо
вукіун
вукіуна
вукӏа
вукӏаго
вукӏана
вукӏаниги
вукӏанила
вукӏанин
вукӏарав
вукӏаравали
вукӏизе
вукӏин
вукӏиналда
вукӏиналъе
вукӏине
вукӏинисев
вукӏинчӏо
вукӏун
вукӏуна
вукӏунаро
вукӏунге
вулгарияб
вулкан
вулканалъул
вулканического
вульгата
вульгаты
вуссана
вуссарав
вуссин
вуссине
вуссинч
вуссун
вуссуна
вусун
вух
входит
входящих
вцикалъул
въ
вы
выборах
выборы
выдающиися
вылетел
выль
вып
выпуск
выпуска
выпустит
выражение
выразил
вырождается
выросло
высота
высоты
выставка
выступление
высш
высшая
высшего
высшие
высших
вышел
вышла
вышло
вьетнам
вьетнамалъул
вятская
вячеслав
вячеславович
відкритих
г
га
габани
габон
габу
габур
габурлъи
габурлъиялъ
гавана
гага
гагарин
гагарина
гагарине
гагу
гагъма
гаджиев
гаджиева
гаджиевич
гаджимурадович
гадири
гажукь
газ
газа
газал
газалазул
газалал
газалъул
газаргъаби
газардк
газатов
газеев
газель
газет
газета
газетазда
газетаздаги
газетал
газеталда
газеталъ
газеталъе
газеталъул
гази
газимагомедова
газификация
гаиана
гаидаи
гаити
гаквари
гал
галаби
галактикабазул
галактикаби
галактион
галам
галерея
галис
галкин
гама
гамаги
гамач
гамачі
гамачӏ
гамбия
гамбург
гамзат
гамзата
гамзатов
гамзатова
гамида
гамил
гамкрелидзе
гамма
гамсахурдиа
гамуш
гамущ
гамчӏил
ганам
ганг
гангалъул
ганготи
гандж
ганжа
ганконг
ганч
ганчіида
ганчіил
ганчӏида
ганчӏил
ганчӏихъ
гаприндашвили
гапцах
гар
гара
гарагал
гарагъар
гаралги
гарбал
гарбач
гаргадизе
гаргадулеб
гардабан
гардарики
гардемарины
гареджил
гарибалди
гарибашвили
гаркассун
гармсар
гарна
гарт
гарунова
гасанова
гат
гауди
гачиганчіида
гв
гвадалахараялъул
гважуца
гвангва
гвангвара
гвангъараб
гвангъарал
гвангъиялъул
гвангъулеб
гвангъун
гванзаб
гвардия
гватемала
гвенд
гви
гвиана
гвинея
гг
где
ге
гебекил
гевгьар
геи
гекдепе
гектар
гекчен
гекченил
гел
гелбахъ
гелии
гелчилал
гельсингфорс
геминатал
ген
геназул
гендерие
гендерил
гене
генеалогии
генеалогическая
генеалогияб
генерал
генерала
генералияб
генералияв
генералиял
генетив
генетика
генетики
генетикияб
гени
гении
геничутлинскии
геннадии
геноцид
генрих
гент
гента
генуб
генуре
генуса
генштаб
генштаба
гены
гео
географ
географии
географическая
географические
географическии
географических
географического
географическое
географическом
география
географияб
географиял
географиялда
географиялъул
географиялъулаб
географов
географчи
геодезии
геокод
геокодал
геол
геологии
геологическии
геологиябгин
геологиял
геоморфологияб
геополитикияб
геополитикиял
георгиевич
георгии
георгииил
георгия
георгиясул
гер
геральдика
герасимов
герасимова
герб
гербазул
гербал
гербалда
гербе
гергебиль
гергебильскии
гере
гереги
геренук
герма
герман
германии
германия
германияб
германиягун
германияз
германиязул
германиязулаб
германиял
германиялда
германиялде
германиялъ
германиялъги
германиялъе
германиялъул
германского
германцы
герменчик
герми
гернси
герои
герцеговина
герцеговинаялда
герцеговинаялъул
гете
гетел
гетеца
ги
гибб
гибель
гибралтар
гигант
гид
гидатлинскому
гикалол
гиксосазул
гилан
гиланал
гилангерб
гилияр
гилян
гиляровскии
гималаи
гималаиские
гимбатова
гимн
гимна
гимналъул
гимне
гимнов
гимнографикияб
гимравии
гимрах
гимры
гиназ
гиназазул
гиназлъи
гиничукь
гиничукьа
гинчи
гипертекст
гипотеза
гираи
гиреи
гирун
гитарист
гитлерил
гичиногӏоралъул
гия
гл
глав
глава
главе
главная
главного
главное
главнокомандующего
главным
главои
главы
глагол
глаголь
глазами
глинка
глобалияб
глотталияб
глюк
глюкоза
гну
го
говорят
говорящих
гог
гоги
гоголь
гоготль
год
года
годах
годек
годекӏан
годекӏаниб
годи
годов
году
годы
гозолоколинская
голанские
голос
голоса
голубев
гольпаиеган
гом
гомбори
гомес
гомо
гомог
гомосексуаллъи
гонги
гондурас
гонконг
гоор
гоорскии
гор
гора
горах
горги
горгиб
горде
гордилъ
гордин
гордится
гордо
гордон
горизонталиял
горн
горного
горном
горныи
город
города
городам
городе
городов
городок
городским
городских
городского
городскои
городу
горскии
горскихъ
горцев
горцы
горчаков
горы
горькиясул
гос
госкомиссию
гост
гостеи
гостиница
гость
государств
государства
государствам
государствах
государстве
государственная
государственного
государственное
государственнои
государственном
государственные
государственныи
государственными
государственных
государство
государством
государыня
гох
гохӏ
гохӏалда
гохӏда
гоцинскии
гочана
гочанила
гочарал
гочизе
гочин
гочинабиялъул
гочинабуна
гочиналъул
гочинари
гочинарун
гочинаруна
гочине
гочун
гоялдаса
гоялдасан
град
градусазда
градусалда
градусалдаса
градусалде
градусные
граждан
гражданинасе
гражданских
гражданскои
гражданство
грам
грамм
грамматика
грамматикаялда
грамматикаялъул
грамматикияб
грамматикиял
грамматическии
грамота
грамоты
гран
гранд
границ
границах
границе
границы
грант
граф
графа
графема
графика
графикияб
графу
грачев
грегориан
грегорианияб
грек
греказ
греказул
греказулгун
грекал
грекгун
гренландия
гренландияалда
гренландиялда
гренландиялъул
грепплингалъул
греция
грециялда
грециялде
грециялъул
грециялъулгун
греческии
греческим
греческого
греческое
греческои
греческом
гржимаило
григорианияб
григорианского
григории
григорьев
григорьевич
григорянц
гризон
грисбок
гробница
гробницы
грозном
грозныи
гру
грузии
грузино
грузинская
грузинские
грузинскии
грузинскихъ
грузинско
грузинского
грузинскои
грузия
грузиялъул
грумм
групп
группа
группаби
группаялдаса
группаялъул
группе
группировка
группировки
группы
гс
гуам
губанков
губарев
губдан
губденалдаса
губе
губернатор
губернаторасул
губерния
губерниязде
губерниялда
губерниялдаса
гугари
гугаризе
гугариялда
гугариялде
гугариялъул
гугарухъабазул
гугарухъаби
гугарухъан
гугьар
гудава
гудермес
гудр
гудур
гужгат
гулестан
гулишат
гулия
гулла
гуллида
гуллица
гульельми
гуляковасул
гуманитариял
гуманитарные
гуманитарных
гумбет
гумбетовскии
гумералъул
гуми
гумпараби
гумру
гумузда
гумузде
гумузул
гун
гунаш
гуниб
гунибскии
гуп
гурбангулы
гурга
гурган
гургинаб
гургинлъарал
гургинлъун
гурджаани
гуреб
гуребги
гуребила
гуреблъун
гурев
гуревги
гурезе
гурел
гурелги
гурелиги
гурелила
гуреллъун
гурелъул
гурж
гуржи
гуржигин
гуржистан
гуржистаналда
гуржистаналде
гуржистаналъ
гуржистаналъул
гуржияв
гуржияз
гуржиязда
гуржияздаса
гуржиязде
гуржиязе
гуржиязул
гуржиязулгин
гуржиязулгун
гуржияи
гуржиял
гуржиялги
гуржиялгун
гуржиялда
гуржиялде
гуржиялъ
гуржиялъа
гуржиялъан
гуржиялъе
гуржиялъул
гуржиялъулгун
гури
гурин
гурищ
гуро
гурого
гурони
гурониги
гуру
гурун
гурх
гурхъи
гурхӏел
гурхӏи
гус
гусеин
гусеинов
густав
густерин
гут
гутенберг
гуц
гуціун
гуч
гучаб
гучал
гучалдалъун
гучалъул
гучлъана
гушу
гхуинои
гъ
гъабу
гъагъалъ
гъадари
гъадариса
гъадаро
гъадил
гъадица
гъазават
гъазаватал
гъазаваталда
гъазаваталде
гъазаваталъул
гъазагъстаналде
гъазанфар
гъази
гъазигъумекдерил
гъазигъумекиса
гъазизаби
гъазимух
гъазимухіамад
гъазимухіамадил
гъазимухіаммад
гъазимухӏамад
гъазимухӏамадил
гъазиязде
гъазиязул
гъаиирбег
гъаирбегова
гъалал
гъалат
гъалатӏ
гъалатӏал
гъалатӏалги
гъалбац
гъалбаці
гъалбацӏ
гъалбацӏал
гъалгъ
гъалгъаи
гъалгъаял
гъалгъаялъул
гъалм
гъалмугъ
гъамас
гъанаколоб
гъани
гъанкъи
гъансил
гъарабагъ
гъарабагъазул
гъарабагъалда
гъарабагъалде
гъарабагъалъул
гъарабудагъкент
гъараваш
гъаран
гъарачаи
гъарбияб
гъаргъадан
гъарданущив
гъарин
гъармил
гъасда
гъат
гъатазда
гъаталъул
гъафур
гъаффар
гъаякент
гъв
гъвала
гъванща
гъваридаб
гъваридал
гъваридго
гъваридлъи
гъварилъаби
гъварилъи
гъварилъиги
гъварилъиялъул
гъварилъуде
гъве
гъвел
гъвелалда
гъвет
гъветі
гъветӏ
гъебгъуда
гъебцех
гъегъ
гъеду
гъеж
гъезе
гъезегӏан
гъенеколоб
гъенеколоса
гъерел
гъи
гъибат
гъиз
гъизилюрт
гъизилюрталдаса
гъизляр
гъизляралда
гъизляралъул
гъизлярка
гъира
гъираги
гъираялда
гъирим
гъоб
гъов
гъогъода
гъогъол
гъогъолъ
гъодоб
гъодобери
гъодоберисезул
гъодоберисел
гъоису
гъоисуялъул
гъокье
гъола
гъолода
гъолодаса
гъолодисел
гъолъе
гъонохъ
гъорах
гъоркь
гъоркьа
гъоркьан
гъоркьгьаквари
гъоркьгьумералде
гъоркьгіаркьел
гъоркье
гъоркьег
гъоркьегіан
гъоркьегӏан
гъоркьехун
гъоркьиса
гъоркьияб
гъоркьиябги
гъоркьиял
гъоркьлъалие
гъоркьнуб
гъоркьо
гъоркьоб
гъоркьобгӏасрулъиялъулаб
гъоркьосан
гъоркьохъеб
гъоркьтаипа
гъоркьхъваршини
гъоркьяб
гъорлъ
гъорлъа
гъорлъги
гъорлъе
гъорлъеги
гъорлі
гъорліе
гъорлічагіазул
гъорлӏ
гъорлӏе
гъорлӏчагӏаз
гъорлӏчагӏазул
гъорлӏчи
гъорлӏчилъун
гъосул
гъот
гъотӏода
гъотӏое
гъотӏол
гъубараб
гъугъаб
гъугъаи
гъугъал
гъуд
гъудр
гъулбасуна
гъулгъудулел
гъулдузда
гъумек
гъумекги
гъумекдерил
гъумекиб
гъумекибги
гъумекиве
гъумекиса
гъумухъ
гъун
гъуна
гъунашев
гъуни
гъуниб
гъуниса
гъунки
гъункун
гъурана
гъурула
гъурун
гъуруш
гъурущ
гъут
гъутаналда
гь
гьа
гьаб
гьабал
гьабаразе
гьабги
гьабго
гьабе
гьабеян
гьаби
гьабиги
гьабигун
гьабидал
гьабизабизе
гьабизе
гьабизеги
гьабизегӏан
гьабизелъун
гьабизеян
гьабизин
гьабил
гьабила
гьабилаан
гьабилалда
гьабилалде
гьабилалдего
гьабиларо
гьабилеб
гьабилилан
гьабихъ
гьабич
гьабичіого
гьабичіони
гьабичӏеб
гьабичӏев
гьабичӏесе
гьабичӏо
гьабичӏого
гьабичӏогоги
гьабичӏони
гьабиялда
гьабиялдаги
гьабиялдалъун
гьабиялдалъунги
гьабиялдаса
гьабиялде
гьабиялдеги
гьабиялъ
гьабиялъе
гьабиялъул
гьабиялъулъ
гьаблеб
гьабсаг
гьабсагіат
гьабсагіаталъ
гьабсагӏат
гьабсагӏаталдаги
гьабсагӏаталъ
гьабсагӏатги
гьабу
гьабуге
гьабула
гьабулаан
гьабулаго
гьабулареб
гьабуларев
гьабуларел
гьабуларин
гьабуларо
гьабуле
гьабулеб
гьабулеблъун
гьабулев
гьабулевлъун
гьабулез
гьабулезда
гьабулезул
гьабулеи
гьабулел
гьабулесул
гьабун
гьабуна
гьабунги
гьабуни
гьабуниги
гьабунила
гьабунилан
гьабунин
гьабураб
гьабураблъун
гьабурабщинаб
гьабурав
гьабуразда
гьабуразе
гьабуразул
гьабураи
гьабурал
гьабуралдаса
гьабурас
гьабурасе
гьабухъе
гьав
гьава
гьавадул
гьавамухъаз
гьавамухъазул
гьавамухъал
гьавард
гьаваялда
гьаваялдасан
гьаваялде
гьаваялъул
гьави
гьавидал
гьавизе
гьавилалдего
гьавиялъул
гьавуге
гьавула
гьавулеб
гьавулев
гьавун
гьавуна
гьавураб
гьавураббакі
гьавурав
гьавуралдаса
гьаг
гьагъав
гьадав
гьадин
гьадинаб
гьадинал
гьадинанго
гьадинги
гьадинго
гьадири
гьазда
гьаи
гьаибатаб
гьаибатаи
гьаибатал
гьаии
гьаквари
гьакида
гьакил
гьакица
гьакъо
гьакъоб
гьал
гьала
гьалбал
гьалдаса
гьале
гьалил
гьалица
гьалмагъ
гьалмагъзабаз
гьалмагъзабазе
гьалмагълъиялде
гьалъ
гьалъав
гьалъул
гьама
гьамал
гьамат
гьаматӏа
гьамаца
гьамза
гьамищтіа
гьамущи
гьамчукъотӏи
гьамщал
гьан
гьанал
гьанги
гьандихъ
гьанже
гьанжеги
гьанжего
гьанжеиин
гьанжелъизег
гьанжесеб
гьанжесев
гьанжесел
гьанжеялдаса
гьани
гьаниб
гьанибги
гьанибго
гьанибе
гьанив
гьанир
гьанире
гьаниса
гьанисан
гьаниъ
гьар
гьарадерихъ
гьарак
гьаракь
гьаракьазул
гьаракьалда
гьаракьалдаги
гьаракьалдаса
гьаракьалде
гьаракьалъ
гьаракьалъе
гьаракьалъул
гьаракьги
гьаракьлъун
гьаракьхиналъул
гьаракіуни
гьаракіуниса
гьаракӏуниб
гьаракӏуниса
гьардухъанасул
гьаре
гьареги
гьарзаго
гьарзалъи
гьари
гьариги
гьаризе
гьаризег
гьаризеян
гьарич
гьариял
гьариялда
гьариялъе
гьариялъул
гьаркьазда
гьаркьазде
гьаркьазе
гьаркьазул
гьаркьал
гьаркьалги
гьаркьикъал
гьаркьилаб
гьаркьилал
гьаркьица
гьарри
гьартіан
гьарула
гьарулаан
гьарулаго
гьаруларо
гьарулеб
гьарулев
гьарулел
гьарун
гьаруна
гьарунгутӏи
гьарураб
гьарурав
гьарурал
гьарурел
гьарчида
гьасда
гьасул
гьат
гьатаи
гьатіан
гьатіаналда
гьатӏан
гьатӏаналде
гьатӏаналъул
гьаціалухъ
гьацӏдалги
гьашим
гьаюла
гьаюн
гьаюна
гьаюраб
гьаюраи
гьв
гьве
гьвелцӏибил
гье
гьеб
гьебги
гьебго
гьебгун
гьебмехалъ
гьев
гьевги
гьевго
гьевгун
гьего
гьегь
гьедана
гьедиг
гьедигӏан
гьедизе
гьедин
гьединаб
гьединабго
гьединав
гьединаи
гьединал
гьединалго
гьединаллъун
гьединан
гьединанго
гьединги
гьединго
гьединлъида
гьединлъидал
гьединлъидалги
гьединлъидалин
гьединого
гьез
гьезда
гьездаги
гьездаго
гьездалъун
гьездаса
гьездасаги
гьездасан
гьезде
гьездехун
гьезие
гьезиеги
гьезул
гьезулги
гьезулгун
гьезухъ
гьезухъа
гьезухъе
гьеи
гьекъезе
гьекъеи
гьекъечӏого
гьекъолеб
гьекъон
гьел
гьелги
гьелго
гьелгун
гьелда
гьелдаги
гьелдаго
гьелдалъун
гьелдаса
гьелдасаги
гьелдасан
гьелде
гьелдехун
гьеле
гьеленал
гьелъ
гьелъги
гьелъи
гьелъие
гьелъиеги
гьелъин
гьелъул
гьелъулги
гьелъулго
гьелъулгун
гьелъулъ
гьелъулӏ
гьелъун
гьелъухъ
гьен
гьеналда
гьениб
гьенибги
гьенибго
гьенибе
гьенибин
гьенив
гьенивги
гьенивго
гьениве
гьенивеги
гьении
гьенир
гьенирги
гьенирго
гьенире
гьениса
гьенисан
гьенисанги
гьенисанго
гьерек
гьерекіли
гьереси
гьеретеиялъул
гьерети
гьеретиялъул
гьерманн
гьерои
гьероял
гьероясул
гьерсал
гьерсиде
гьес
гьесги
гьесго
гьесда
гьесдаги
гьесдаго
гьесдалъун
гьесдаса
гьесдасаги
гьесдасан
гьесде
гьесдехун
гьесдехунги
гьесие
гьесиеги
гьесизарул
гьесул
гьесулги
гьесулго
гьесулгун
гьесулъ
гьесухъа
гьесухъги
гьесухъе
гьет
гьетіараб
гьетіи
гьетӏарал
гьеч
гьечіеб
гьечіеблъун
гьечіев
гьечіел
гьечіин
гьечіо
гьечіого
гьечіолъи
гьечіолъиялъ
гьечіолъиялъул
гьечіони
гьечіониги
гьечіоян
гьечӏеб
гьечӏеблъиги
гьечӏев
гьечӏел
гьечӏелъуб
гьечӏесда
гьечӏесе
гьечӏесул
гьечӏилан
гьечӏин
гьечӏина
гьечӏо
гьечӏоан
гьечӏого
гьечӏолъи
гьечӏолъиялдаса
гьечӏони
гьечӏониги
гьечӏоян
гьи
гьиатус
гьибрит
гьигьа
гьигьалъ
гьигьалъа
гьигьалъдерица
гьигьалъе
гьигьальа
гьигьихъ
гьидалъ
гьидалъа
гьидалъе
гьидаят
гьидаятил
гьидаятица
гьидерил
гьиджаи
гьиджра
гьижа
гьижабазда
гьижабазул
гьижаялда
гьижаялдаса
гьижаялде
гьижаялъул
гьижра
гьижраялъул
гьижрияб
гьиксосазда
гьиксосазде
гьиксосазул
гьикъана
гьикъараб
гьикъарабила
гьикъараи
гьикъе
гьикъеян
гьикъизе
гьикъулебила
гьикъун
гьилиб
гьимал
гьималаязда
гьималаязул
гьималаял
гьимат
гьимбатил
гьимерсо
гьин
гьинд
гьиндалъулгин
гьиндгин
гьинди
гьиндиб
гьиндустан
гьиндустаналда
гьиндустаналъул
гьир
гьиристан
гьирияз
гьириязул
гьириял
гьит
гьитлер
гьитлерил
гьитлерица
гьитіинаб
гьитіинабго
гьитіинав
гьитіинаи
гьитіинал
гьитіинго
гьитіинцівабзазул
гьитӏинаб
гьитӏинабги
гьитӏинабго
гьитӏинав
гьитӏинаи
гьитӏинал
гьитӏинго
гьишам
гьобо
гьобол
гьоболас
гьоболги
гьоболлъи
гьоболлъухъ
гьог
гьод
гьодида
гьодорлъиялдаса
гьодорлъиялдасаги
гьои
гьоида
гьоица
гьоко
гьолланд
гьоло
гьолокь
гьолокьги
гьолъ
гьомер
гьомерил
гьонлъоб
гьонода
гьонодаса
гьоор
гьор
гьоркъохъеб
гьоркь
гьоркье
гьоркьияб
гьоркьо
гьоркьоб
гьоркьобги
гьоркьобгӏасрулъиялъул
гьоркьобе
гьоркьоберех
гьоркьоблъи
гьоркьоблъиязда
гьоркьоблъиялъул
гьоркьов
гьоркьолъаби
гьоркьор
гьоркьоре
гьоркьорлъабазда
гьоркьорлъабазул
гьоркьорлъаби
гьоркьоса
гьоркьосабахъи
гьоркьосаги
гьоркьосан
гьоркьосарахъиял
гьоркьосарахъиялги
гьоркьосарахъияллъун
гьоркьосеб
гьоркьосел
гьоркьохъеб
гьоркьохъел
гьорол
гьоролеб
гьороялъул
гьортоница
гьорчо
гьорькоб
гьохъ
гьоц
гьоціалъ
гьоцӏалӏ
гьоцӏдерил
гьоцӏо
гьоцӏцӏалъа
гьочоб
гьоэр
гьоялъул
гьу
гьуд
гьудл
гьудул
гьудулзабазул
гьудулзаби
гьудуллъи
гьудуллъиялъул
гьужум
гьужумал
гьужумалда
гьужумалъул
гьуинаб
гьуинал
гьуинлъи
гьуинлъула
гьукъана
гьукъараб
гьукъарал
гьукъула
гьукъулев
гьукъун
гьум
гьумбольдтилгун
гьумер
гьумераб
гьумерал
гьумералда
гьумералдаса
гьумералде
гьумералъе
гьумералъул
гьумерги
гьунар
гьунарал
гьунаралда
гьунаралъе
гьунаралъул
гьунарги
гьунарияб
гьунариял
гьунарлъабазул
гьунарлъабазулаб
гьунарлъаби
гьунарлъи
гьунарлъиял
гьунарлъиялъул
гьунарлъиялъулаб
гьунарлъиялъулал
гьунгариялъ
гьунгариялъул
гьундул
гьундустаналде
гьунзисел
гьуникад
гьупа
гьупаяз
гьупаязул
гьурал
гьуремшагьр
гьури
гьурмада
гьурмал
гьухъаливе
гьухъалиса
гьуърул
гэс
гюлистан
гюль
гюмри
гюндюз
гюнеи
гюнеикои
гі
гіаббас
гіаббасияб
гіабд
гіабдул
гіабдулагь
гіабдулаев
гіабдулатіипов
гіабдулгіазиз
гіабдулгіазизица
гіабдуллагь
гіабдулрашид
гіабдульфаттахі
гіабдурахіман
гіабдурахіманил
гіабдурахіманилазул
гіабдурашид
гіабдусамад
гіавхъ
гіага
гіагараб
гіагарав
гіагараи
гіагарал
гіагаралги
гіагарда
гіагардегіан
гіагарлъи
гіагарлъиялъул
гіагарлъухъ
гіагарун
гіадаб
гіадав
гіадада
гіадаи
гіадал
гіадалло
гіадамаз
гіадамазда
гіадамазде
гіадамазе
гіадамазул
гіадамал
гіадамалги
гіадамасул
гіадан
гіадат
гіадатаб
гіадатаблъун
гіадатав
гіадатазда
гіадатазде
гіадатаздеги
гіадатазул
гіадатал
гіадаталда
гіадатияб
гіадатлъун
гіадидаб
гіадин
гіадинаб
гіадинал
гіадинан
гіадинигірабазде
гіадлу
гіажаиблъи
гіажам
гіажамалда
гіазиз
гіазизил
гіазмазул
гіазу
гіаииб
гіаимаки
гіаимакиса
гіаин
гіаиша
гіака
гіакаро
гіаксаб
гіакълу
гіалаигьи
гіалакъ
гіалалъарал
гіаламат
гіаламатаздаса
гіаламатал
гіаламатлъун
гіалаудинил
гіали
гіалиасхіаб
гіалибег
гіалибегилазул
гіалибек
гіалибекица
гіалиев
гіалиевасул
гіалил
гіалилазул
гіалим
гіалимзабаз
гіалимзабазда
гіалимзабаздаги
гіалимзабаздаса
гіалимзабазул
гіалимзаби
гіалимзабиги
гіалимухіамадил
гіалимчи
гіалиханил
гіалиханилав
гіалихіажияв
гіалица
гіалматлъун
гіалхул
гіамир
гіамирхіамзат
гіаммаб
гіаммго
гіан
гіанасеб
гіанди
гіандигіоралъул
гіандиса
гіандисезул
гіандисезулаб
гіандисезулал
гіандуникі
гіандуникіил
гіандуникіхан
гіанх
гіар
гіараб
гіарабаз
гіарабаздаса
гіарабазул
гіарабал
гіарабгин
гіарабистан
гіарабистаналда
гіарабистаналъул
гіарабия
гіарабиялда
гіарабиялъ
гіарабиялъул
гіарадагун
гіарани
гіарасал
гіарафат
гіарац
гіаргіар
гіарифи
гіаркьалабазде
гіаркьалаби
гіаркьел
гіаркьелалда
гіаркьелалъ
гіаркьелалъул
гіарцул
гіаср
гіасрабаз
гіасрабазда
гіасрабазде
гіасрабазул
гіасраби
гіасру
гіасруялда
гіасруялдаго
гіасруялдаса
гіасруялде
гіасруялъ
гіасруялъул
гіатіид
гіатіидаб
гіатіидал
гіатіидб
гіатіидго
гіатіилъи
гіатіилъиялъул
гіахъуша
гіахъушаса
гіахьалаб
гіахьалбутіабилъун
гіахьалбутіабилъунги
гіахьаллъана
гіахьаллъи
гіахьалчагіи
гіахьалчи
гіахьалчилъун
гіахьалчияс
гіахьалчіи
гіахьалчіиса
гіахьвахъ
гіашилтіа
гіашкъабад
гіебеде
гіеблъи
гіедмабазул
гіезабиялъе
гіезарула
гіезегіан
гіезегіанго
гіеи
гіелмабазул
гіелмаби
гіелмияб
гіелмиябгун
гіелмиял
гіелму
гіелмуялда
гіелмуялъул
гіем
гіемарал
гіемер
гіемераб
гіемерав
гіемерал
гіемерго
гіемерисеб
гіемерисез
гіемерисел
гіемериселъ
гіемерлъи
гіемерлъул
гіералда
гіеч
гіечіо
гіжп
гіи
гіибадат
гіид
гіидалъул
гіизраилалъ
гіизраилалъул
гіилла
гіиллаги
гіиллалъун
гіиллаялъе
гіилманияб
гіимра
гіимран
гіин
гіинтіи
гіип
гіиракъ
гіиракъалда
гіиракъалъул
гіиракъалъулгун
гіиса
гіисинал
гіиссинал
гіиціго
гіищ
гіиял
гіобода
гіободаса
гіодегіанаб
гіодобе
гіодоблъи
гіодов
гіодор
гіодоцараб
гіолилазда
гіолилазул
гіолилал
гіоло
гіолохъ
гіолохъан
гіолохъанаб
гіолохъанав
гіолохъанал
гіолохъанго
гіор
гіоразул
гіорал
гіоралда
гіоралде
гіоралъул
гіорлъун
гіоротіа
гіорул
гіорхъабазда
гіорхъабазул
гіорхъаби
гіорхъалаби
гіорхъи
гіорхъилъун
гіорхъода
гіорхъодаса
гіорціулареб
гіочіло
гіуж
гіужалда
гіужалде
гіумар
гіумаргун
гіумарил
гіумарица
гіумахан
гіумаханасул
гіумаханил
гіумаханов
гіумру
гіумрудал
гіумруялде
гіумруялъул
гіун
гіуна
гіунтіизабун
гіунтіун
гіур
гіураб
гіурабго
гіурагіан
гіуркіачіи
гіурул
гіурус
гіурусаз
гіурусазул
гіурусазулгун
гіурусал
гіурусалъ
гіурухъ
гіурхъабазда
гіурхъабазул
гіурхъаби
гіурхъалаби
гіурхъалабилъун
гіурхъи
гіурхъилъун
гіурччинаб
гіусазул
гіусал
гіуси
гіусм
гіусман
гіусманил
гіусманилазул
гіусманияб
гіусманияз
гіусманиязул
гіусманиял
гіусманюрт
гіуціалабазда
гіуціалабазул
гіуціалаби
гіуціана
гіуціараб
гіуціараздеги
гіуціарал
гіуціаралдаса
гіуціи
гіуціизе
гіуціиязул
гіуціиялда
гіуціиялде
гіуціиялъ
гіуціиялъе
гіуціиялъул
гіуціула
гіуціулеб
гіуціун
гіуціціана
гіуціціараб
гіуціціи
гіуціціиялда
гіуціціиялъул
гіуціціула
гіуціціун
гіци
гӏ
гӏабаси
гӏабасиязул
гӏабаш
гӏабашилов
гӏаббас
гӏаббасил
гӏаббасилги
гӏаббасияб
гӏаббасиязул
гӏабд
гӏабдул
гӏабдула
гӏабдулкъагьир
гӏабдулкъадир
гӏабдулла
гӏабдуллагь
гӏабдулмажид
гӏабдулмалик
гӏабдулманап
гӏабдулманапил
гӏабдулмутӏалиб
гӏабдулхабиров
гӏабдульфаттахӏ
гӏабдурах
гӏабдурахӏимица
гӏабдурахӏман
гӏабдусалам
гӏабицар
гӏага
гӏагараб
гӏагарав
гӏагарал
гӏагарда
гӏагарлъи
гӏагарлъигун
гӏагарлъиялъул
гӏагарлъухъ
гӏагарун
гӏадаб
гӏадав
гӏадал
гӏадалав
гӏадало
гӏадалое
гӏадалоца
гӏадалъ
гӏадамаз
гӏадамазда
гӏадамаздаса
гӏадамазде
гӏадамазе
гӏадамазеги
гӏадамазул
гӏадамазулгун
гӏадамазухъе
гӏадамал
гӏадамалги
гӏадамас
гӏадамасе
гӏадамасул
гӏадамаца
гӏадан
гӏаданалъ
гӏадат
гӏадатаб
гӏадатазда
гӏадатал
гӏадаталги
гӏадатги
гӏадатияб
гӏадатиял
гӏадатлъун
гӏадахъ
гӏадин
гӏадинаб
гӏадинав
гӏадинги
гӏадинго
гӏадли
гӏадлу
гӏадлуги
гӏаднан
гӏадул
гӏажаибаб
гӏажал
гӏажам
гӏажамалъ
гӏажамалъе
гӏазаб
гӏази
гӏазиз
гӏазим
гӏазу
гӏазулаб
гӏаииб
гӏаиибал
гӏаимакиса
гӏака
гӏакаги
гӏакдае
гӏаксалда
гӏакълу
гӏакълуялда
гӏакълуялъул
гӏакъуба
гӏакӏа
гӏала
гӏалаги
гӏалаикум
гӏаламалдаго
гӏаламалъул
гӏаламат
гӏаламатал
гӏаламатлъун
гӏалахалда
гӏалгӏаи
гӏали
гӏалибулат
гӏалиев
гӏалиевалъул
гӏалил
гӏалилазул
гӏалим
гӏалимзабаз
гӏалимзабазда
гӏалимзабазул
гӏалимзаби
гӏалимзабиги
гӏалимирза
гӏалимчи
гӏалимчилъун
гӏалимчияс
гӏалисканди
гӏалиханил
гӏалихӏажи
гӏалихӏажияв
гӏалихӏажияс
гӏалица
гӏалолокъе
гӏалхул
гӏамаб
гӏамал
гӏамалги
гӏамир
гӏамм
гӏаммаб
гӏаммал
гӏаммго
гӏаммлъи
гӏанасеб
гӏанасев
гӏандадеридаса
гӏандадерил
гӏандал
гӏандалазул
гӏанди
гӏандигӏоралъул
гӏандиса
гӏандуникӏ
гӏанкӏ
гӏанкӏида
гӏанкӏу
гӏанкӏудал
гӏар
гӏараб
гӏарабаз
гӏарабазде
гӏарабазул
гӏарабал
гӏарабалда
гӏарабаца
гӏарабистан
гӏарабистаналъул
гӏарабия
гӏарабиязда
гӏарабиязул
гӏарабиялъ
гӏарада
гӏарадаби
гӏаракъи
гӏарас
гӏарасазул
гӏарасал
гӏарац
гӏарацги
гӏарацхан
гӏарзагъин
гӏаркьел
гӏаркьелалде
гӏаркьелалъул
гӏаркьеллъун
гӏарцул
гӏарчубе
гӏасаб
гӏасрабаз
гӏасрабазда
гӏасрабазул
гӏасрабаца
гӏасраби
гӏасру
гӏасруялда
гӏасруялдаго
гӏасруялдалъун
гӏасруялдаса
гӏасруялдасан
гӏасруялде
гӏасруялъ
гӏасруялъул
гӏатӏид
гӏатӏидаб
гӏатӏидал
гӏатӏидго
гӏатӏидракьалъулги
гӏатӏилъи
гӏатӏилъигун
гӏахъуша
гӏахъушаялдасан
гӏахъушиб
гӏахьал
гӏахьалаб
гӏахьаллъана
гӏахьаллъи
гӏахьаллъизе
гӏахьалчагӏазул
гӏахьалчагӏи
гӏахьалчи
гӏахьалчияс
гӏахьалчиясул
гӏахьалчӏи
гӏахьвалаз
гӏахьвалазул
гӏахьвалал
гӏахьвахъ
гӏахьвахъе
гӏачи
гӏащикъ
гӏгж
гӏебал
гӏебеде
гӏеблъи
гӏедал
гӏезабуна
гӏезегӏан
гӏезегӏанго
гӏел
гӏелмабазул
гӏелмия
гӏелмияб
гӏелмияв
гӏелмиял
гӏелму
гӏелмуги
гӏелмуялда
гӏелмуялъе
гӏелмуялъул
гӏем
гӏеме
гӏемер
гӏемераб
гӏемерав
гӏемерал
гӏемерисал
гӏемерисеб
гӏемерисез
гӏемерисезда
гӏемерисел
гӏемериселъ
гӏемерлъамелал
гӏемерлъани
гӏемерлъиялъ
гӏемерлъул
гӏемерлъула
гӏемерлъун
гӏенекке
гӏенчӏасул
гӏеч
гӏечӏеб
гӏечӏо
гӏи
гӏибадат
гӏиги
гӏилла
гӏиллаги
гӏиллалъун
гӏин
гӏиналда
гӏинтӏаме
гӏиракъ
гӏиракъалда
гӏиракъалъул
гӏиракъгун
гӏиса
гӏисае
гӏисал
гӏисаца
гӏисинал
гӏицӏго
гӏищкъу
гӏияда
гӏиял
гӏиялъажо
гӏиялъажоги
гӏли
гӏобилунти
гӏободаса
гӏоди
гӏодоб
гӏодобги
гӏодобе
гӏодоблъи
гӏодоблъиялда
гӏодов
гӏодове
гӏодор
гӏодосанго
гӏодула
гӏола
гӏолареб
гӏоларо
гӏолеб
гӏоло
гӏологи
гӏолохъабазул
гӏолохъанаб
гӏолохъанав
гӏолохъанал
гӏолохъанго
гӏолохъанчи
гӏор
гӏоразул
гӏорал
гӏоралъул
гӏоркь
гӏорлӏе
гӏорхъабазда
гӏорхъаби
гӏорхъалаби
гӏорхъи
гӏорхъода
гӏорхъодаса
гӏорхьода
гӏорцӏуларев
гӏуж
гӏузраби
гӏума
гӏуман
гӏумар
гӏумарасхӏабасул
гӏумаржан
гӏумарица
гӏумархӏажица
гӏумахан
гӏуммахан
гӏумру
гӏумрухъваи
гӏумруялда
гӏумруялде
гӏумруялъ
гӏумруялъго
гӏумруялъул
гӏун
гӏуна
гӏунгутӏаби
гӏундул
гӏункӏкӏ
гӏунтӏуледухъ
гӏураб
гӏурада
гӏураи
гӏуриб
гӏурисез
гӏурукьаиила
гӏурул
гӏурус
гӏурусаз
гӏурусазги
гӏурусазул
гӏурусазулгун
гӏурусал
гӏурусалдаса
гӏурусгин
гӏурусгун
гӏурухъ
гӏурхъабазда
гӏурхъаби
гӏурхъи
гӏурхъилъун
гӏурчуб
гӏусман
гӏусманияб
гӏусманияз
гӏусманиязул
гӏухьби
гӏуцӏа
гӏуцӏалабазул
гӏуцӏана
гӏуцӏараб
гӏуцӏарав
гӏуцӏарал
гӏуцӏелазул
гӏуцӏи
гӏуцӏизе
гӏуцӏиял
гӏуцӏиялда
гӏуцӏиялде
гӏуцӏиялъе
гӏуцӏиялъул
гӏуцӏула
гӏуцӏулеб
гӏуцӏун
гӏуцӏцӏана
гӏуцӏцӏараб
гӏуцӏцӏи
гӏуцӏцӏизе
гӏучӏ
д
да
давала
давам
давамлъун
давать
давид
давида
давидица
давла
давлаги
давлагун
давуд
давудил
давудогълу
давудогълуца
давутоглу
даг
дагалда
дагбаш
дагестан
дагестана
дагестаналъул
дагестане
дагестани
дагестанская
дагестанские
дагестанскии
дагестанским
дагестанских
дагестанского
дагестанское
дагестанскои
дагестанском
дагестану
дагкнигоиздат
дагстат
дагучпедгиз
дагъ
дагъбаш
дагъгиз
дагъистан
дагъистаналда
дагъистаналдаги
дагъистаналдаго
дагъистаналдаса
дагъистаналде
дагъистаналдеги
дагъистаналъ
дагъистаналъе
дагъистаналъул
дагъистаналъулаб
дагъистаналъулги
дагъистанги
дагъистани
дагъистанияб
дагъистанияв
дагъистанияз
дагъистаниязе
дагъистаниязул
дагъистаниял
дагъистанли
дагъистанлы
дагъкнигоиздат
дагъустандин
дагъцикалъул
дагь
дагьа
дагьаб
дагьабги
дагьабго
дагьабгӏаги
дагьав
дагьавги
дагьал
дагьалги
дагьалго
дагьалда
дагьалъ
дагьалъги
дагьго
дагьистаналъул
дагьккун
дагьлъана
дагьлъула
дагьлъулеб
дагьлъулел
дагіба
дагӏба
дагӏбадани
дагӏват
дагӏватчи
дада
дадаев
дадал
дадечӏвалеб
даже
даим
даимаб
даимго
даимлъизе
дакота
даку
дакъикъ
далаи
даламан
далараб
далаху
далган
далее
дали
далил
далилал
далиллъун
дам
дама
дамадан
дамалда
дамаск
дамаскалъул
дамаске
даммам
дан
дана
даналда
дангун
дангъва
данд
дандбаи
дандбакӏари
дандбан
дандбит
данде
дандебитіун
дандеги
дандего
дандекквезе
дандекквеялъул
дандекквеялъулаб
дандеккезаби
дандеккезабун
дандеккола
дандекколеб
дандекколел
дандеккун
дандеккунги
дандеккунгутіи
дандеккураб
данделъабазда
данделъаби
данделъана
данделъараб
данделъарав
данделъарал
данделъи
данделъиялда
данделъиялде
данделъиялъ
данделъиялъул
данделъула
данделъулел
данделъун
дандерахъин
дандеч
дандечіеи
дандечіеялъул
дандечӏеялъул
дандраи
дандраязде
дандраязул
дандраял
дандч
дандчіваи
дандчівала
дандчівалеб
дандчівалел
дандчівана
дандчӏваи
дандчӏвала
дандчӏваларо
дандчӏвалеб
дандчӏвалел
дандчӏвана
дандчӏваялдаса
даниил
данилевскии
данилкин
данилов
даних
дания
даниял
даниялил
даниялов
даниялович
даниялъул
даниялъулгун
данлъарал
данни
данное
данноиеслэн
данные
данным
данных
данныял
данте
данухъ
даных
даосизм
даптар
даптаралда
дапур
дар
дарада
даража
даражаби
даражаги
даражаялда
даражаялдаса
даражаялде
даражаялъул
дараи
даран
дарбанди
дарвиш
дарг
даргин
даргиназ
даргиназул
даргинал
даргинскии
даргинских
даргинского
даргинскои
даргиял
дарго
даргъо
дардак
дареджан
дари
дарижа
даринскии
дармил
даррешагьр
дарс
дарсал
дартло
дартукъаз
дару
даруги
даруял
даса
дасср
дассралъул
дат
дата
датировка
датируются
дату
датуна
датунатӏа
даты
даудова
дах
дахадаевас
дахадаевскии
дахмада
дахіададал
дахӏадаев
дахӏадазул
даци
дациев
дацил
дашт
даьрг
дв
два
две
двигатель
движение
движении
движения
двое
двух
дг
дгпуялъул
дгу
дгуялъул
де
дев
деве
дег
дегоев
дегьголан
дегьестан
дегьестаназул
дегӏен
дедоплисцікъаро
деи
деир
деиствии
деиствия
декабр
декабралда
декабралдаса
декабралде
декабралъ
декабралъул
декабрь
декабря
декембер
декембералда
декоративиял
декреталда
декреталдалъун
дел
дела
делабиализация
деление
деления
дели
делижан
дело
деловои
делу
дель
дельта
дельтаги
дельтаялда
дельтаялдаги
дельтаялъул
дельты
демавенд
дементьев
демилитаризация
демирташ
демографическои
демократическои
демократия
демократияб
демократиялъул
демонстрация
демонстрациялъул
демоскоп
демотикияб
ден
денацификация
денгав
денгал
дене
денежного
денеял
деникин
деникиниде
деникинил
денил
день
деньги
департамент
департамента
департаменталъул
депутат
депутатазул
депутатасдасан
депутатлъун
депутатов
дер
дербе
дербенд
дербенда
дербендалда
дербендалде
дербендалъул
дербент
дербента
дербенталда
дербентскии
дербентского
дергах
дергъвани
деревень
деректер
дерил
дерица
десять
деталь
детектив
детская
дефиниции
дешлахіар
деяния
деятелеи
деятель
деятельности
деятельность
дж
джабалииа
джабалул
джаванкент
джаванруд
джавахети
джави
джаз
джакъели
джамал
джами
джансиялде
джануб
джанубиялъул
джарского
джаузиия
джафаров
джеимс
джексон
джемил
джерси
джибал
джибути
джизаялъул
джим
джирофт
джихад
джованни
джозеф
джомолунгма
джомолунгмаялъул
джомолунгму
джон
джонс
джордж
джохар
джош
джуанда
джуаншер
джузеппе
джуибар
джульфа
джума
джумхурият
джунубасе
дзерен
дзержинское
ди
диагноз
диаграммаялда
диакритиказул
диакритикал
диакритикиял
диалект
диалектазда
диалектал
диалекталда
диалектов
диалог
диаметр
диапазон
диапазоналда
диарея
диаспора
диаспораби
диаспораялда
диаспораялъул
дибатаг
дибир
дибирасул
дибирасухъеги
дибирил
дибиркъади
дибиркъадица
дибирлъи
дибирлъун
дибиров
диван
диваналъ
диваналъул
дивандарре
дивани
дивизия
дивизиялъул
дигор
диграф
диграфал
дида
дидаги
дидаго
дидасаги
дидоицам
дие
диеги
диего
дизаин
дизаиналъулги
дизфул
дизфуль
диканьки
дикдик
дикло
диклосмта
диктатор
диктаторлъиялде
диктаторлъун
дилим
диль
димашкъ
димашкъалъул
димишкъ
димишкъалда
димишкъалдаса
димишкъалъул
дин
диназда
диназул
динал
диналда
диналдаги
диналдаса
диналде
диналлъун
диналъ
диналъги
диналъе
диналъул
динамика
динамикияб
динамо
династии
династия
династиялдасан
династиялъе
динги
динго
динияб
динияв
диниял
динлъун
динчиб
динь
диодор
диплом
дипломат
дипломатикиял
дипломатия
дипломатияб
дипломатиял
дипломатиялъул
дипломгун
дир
дира
дираб
диран
дирг
дирго
диргьам
директор
директория
директорлъун
директором
дирекция
дирижер
дис
дисс
диссертация
диссимиляция
диссимиляциялъул
дистрибутивияб
дистрибьюшн
дисциплина
дитранзитивияб
дифтонгал
дифференциация
дихъ
дихъе
дица
дицаги
дицани
дия
длинныи
для
дми
дмитриевич
дмитриевна
дмитрии
дмоалъул
дневник
дневника
днеи
днем
днепр
днепропетровск
днепру
дни
днц
днцӏ
дня
до
доб
доба
добасан
добго
добе
добегіан
добехун
добрушина
дов
дова
доваго
довольно
договор
договора
додаҳои
дое
доздасан
дозул
дои
доклад
доктор
доктора
докторлъун
доктрина
доктринаялда
докузпара
докузпаринскии
документ
документазда
документал
документалда
документалияб
документальныи
документах
документация
документов
документы
докучаев
дол
долда
должен
должна
должность
доллар
доллараздалъун
долларалде
дом
дома
домен
домодедово
дон
доналд
доналда
дональд
донато
донесение
донецк
донецкои
доногъо
донскои
дону
доп
дорел
дорог
дорога
доронуб
доруд
дос
доставить
достаточно
достоинствами
достопримечательности
досул
досье
дохтар
дохъузпара
дохіа
доцент
дочка
дппуялъул
дпу
др
драма
драматикияб
драматическияб
драматург
древнего
древнегрузинская
древнеегипетские
древнеегипетского
древнеегипетскои
древнеи
древнеишии
древнеиших
древнем
древние
древнии
древних
древностеи
древности
древняя
дреиерица
друг
другие
другим
других
другои
дружинин
друзья
дсср
ду
дубаи
дублин
дубровин
дуг
дуглас
дугъалъул
дугърихан
дугъриханасул
дугіа
дугӏа
дуда
дудаго
дуджана
дуе
дуего
дузул
дузулъ
дуи
дукълуо
дул
дулги
думаялъул
думка
дун
дунги
дунго
дуниал
дуниш
дуниял
дуниялалда
дуниялалъул
дунявияб
дунял
дунялалда
дунялалдаго
дунялалде
дунялалъе
дунялалъул
дунялалъулаб
дунялалъулал
дунялалъулго
дунялги
дунялияб
дур
дураб
дурго
дургун
дурун
дурусаб
дурусал
дурусго
дуруслъи
дурц
духовнои
духовному
дуца
дуцаги
дуцаго
дуче
дучел
душанбе
дхр
дъагъистаналъул
дышнинскиясул
дьяконов
дэвид
дюмезил
дюмезилил
дюмезилица
дюссельдорф
дядя
е
еб
ебда
ебеде
ебесеб
еблъи
ебт
ев
евангелие
евангелии
евангелия
евангелиял
евгение
евгении
евгенил
евич
евлах
евна
евразия
евразиялда
евразиялдаса
евразиялъул
евреев
евреиского
евро
европа
европагун
европалда
европалъул
европаялда
европаялдаги
европаялдаго
европаялде
европаялъул
европаялъулаб
европаялъулал
европаялъулги
европе
европеиская
европеиских
европеиского
европеискои
европияб
европиял
европу
европы
евроцолъи
евроцолъиялде
евроцолъиялъул
евроцолъиялъулги
евская
ег
еги
егип
египет
египеталда
египеталдаги
египеталдаса
египеталде
египеталъ
египеталъе
египеталъул
египетская
египетские
египетскии
египетских
египетского
египетскои
египта
египте
египтияб
египтологаз
египтологазул
египтологиялда
египтян
египтяназ
египтяназул
египтянал
египтяне
его
егоров
егь
ед
едал
едерабтала
единая
единиц
единица
единыи
ее
еж
ежалдаса
ежалде
ежги
ежегодник
езаби
езабизе
езабилеб
езабула
езабулеб
езабун
езабураб
езавун
езаг
езари
езаризе
езарулел
езарун
езе
езег
еи
еиги
екатери
екатерина
екатеринал
екатеринбург
екатерине
екатерины
екеризе
екъаб
ел
ела
елал
елалда
елалъ
елалъе
елги
елдаса
елдаш
елегун
елекь
елекьа
елена
еление
елизавета
елизаветинская
елисаветгарадалда
елису
еллъун
елмабазде
елмабазул
елмаби
елмияб
елмиябгун
елмиял
елмо
елму
елмуги
елмудул
елмулъун
елмуялда
елмуялде
елмуялъ
елмуялъул
елъ
елъе
елъул
емелин
емельян
емер
емераб
емерал
емерго
емериса
емерисеб
емерисез
емерисел
емерлъул
емерт
ему
ен
енал
еналда
еналъул
ени
еодор
еп
епархия
епелиб
ер
ераб
ерав
ерал
ералда
ералъул
ерасул
ербахъи
ерг
ергьан
ергьанас
ергьанасе
ергьанлъун
ереван
ереваналда
ереваналъул
ерк
ерлъи
ерлъиялда
ерлъуда
ерлъун
ермак
ермег
ермолов
ермоловас
еррохьоб
ерт
ерхьиналдалъун
ерхьуда
ерхьул
ерхьун
ерчиязухъ
ерыдагъ
ес
если
есть
есфирил
есфирь
ет
етав
ефрон
ефрона
ефронил
ех
ехъе
ехь
ехьалда
ехьалдаса
ехьалъулги
ехьги
ехьлъун
ец
ецб
ецялъул
еч
ечуб
еще
ею
ея
еялда
еялъе
еялъул
ж
жа
жабал
жабраг
жабраил
жабу
жав
жаваб
жавабги
жаваблъун
жаваблъунги
жавабчилъи
жавгьар
жага
жагънаб
жагьид
жагьиллъиялъул
жагіфар
жазаъ
жаиран
жак
жакъа
жакъаги
жакъасеб
жакъасел
жакьа
жал
жалаздаса
жалазде
жалазе
жалазул
жалалудин
жалалудиница
жалги
жалго
жалгоги
жалил
жамаг
жамагіа
жамагіат
жамагіатазда
жамагіатазул
жамагіатал
жамагіаталъ
жамагіаталъул
жамагӏат
жамагӏатал
жамагӏаталда
жамагӏаталде
жамагӏаталъ
жамагӏаталъул
жамагӏаталъулгун
жамал
жамалудин
жамалудинги
жамалудиние
жамалудиница
жамг
жамгіияб
жамгіиябгун
жамгіияв
жамгіиял
жамгіият
жамгіияталъул
жамгӏияб
жамгӏиябгун
жамгӏияв
жамгӏиял
жамгӏият
жамгӏиятазда
жамгӏияталда
жамгӏияталъул
жамиг
жамигі
жамигӏалъул
жамигӏул
жамилат
жан
жанавар
жаназа
жаназадул
жанеиро
жани
жаниб
жанибги
жанибе
жанибехун
жаниблъиязда
жаниблъиялда
жаниблъиялде
жаниблъиялъул
жанив
жанивги
жаниве
жанир
жанирги
жанире
жаниса
жанисан
жанисаниги
жанисеб
жанисел
жанна
жанр
жанразда
жанралда
жанралъул
жанубалда
жанубалде
жанубалдехул
жанубалдехун
жанубгин
жанубгун
жанубияб
жанубиябги
жанубиябгин
жанубиябгун
жанубиял
жанублъиялда
жасус
жаузия
жахіш
жахӏда
жахӏпар
жахӏпарилазул
ждет
же
жеги
жегиги
жедер
жедерго
жедецаго
жеихун
желчь
жемчужина
жена
женева
женевалде
женевская
жены
жертв
жертвами
жертвоприношения
жертвы
жзл
жиб
жибги
жибго
жив
живги
живго
живгоги
живои
живописец
жигар
жигара
жигараб
жигарав
жигаралда
жигаралдалъун
жигарчи
жигьад
жигьадалъул
жидда
жиде
жидеда
жидедаго
жидедалъун
жидеде
жидее
жидеего
жиделъ
жидер
жидерго
жидехъе
жидеца
жидецаго
жидирго
жизат
жизатал
жизнеописания
жизни
жизнь
жии
жииго
жил
жили
жин
жинвали
жинда
жиндаго
жиндалъул
жиндалъун
жиндаса
жиндасаго
жиндасан
жинде
жиндего
жиндехун
жинди
жиндида
жиндие
жиндиеги
жиндиего
жиндииго
жиндилъ
жиндилӏ
жиндир
жиндиралда
жиндирги
жиндирго
жиндиргун
жиндихъ
жиндихъе
жиндихъего
жиндица
жиндицаго
жинс
жинсазде
жинсалда
жинсалде
жинсалдеги
жинсалъул
жинсалъулъ
жинсияб
жинсиял
жинца
жинцаго
жителеи
житие
жо
жоги
жого
жодода
жододаго
жодое
жодоего
жодор
жодорго
жодоца
жодоцаго
жозеф
жоиила
жоиин
жолъун
жорж
жоязул
жоялда
жоялдалъун
жоялдаса
жоялде
жоялъ
жоялъе
жоялъул
жоялъухъ
жп
жуан
жуба
жубае
жубазе
жубаи
жубала
жубалеб
жубан
жубана
жубараб
жубараздеги
жубарал
жубаял
жубаялдалъун
жуваирия
жугь
жугьаялъулаб
жугьут
жугьуті
жугьутіазул
жугьутіал
жугьутӏ
жугьутӏаз
жугьутӏазул
жугьутӏал
жудода
жудодасаги
жудоиго
жудор
жудорго
жудоца
жудоцаго
жужах
жуз
жуков
жул
жумада
жумгьури
жумгьурияб
жумгьурият
жумгьуриятал
жумгьурияталда
жумгьурияталде
жумгьурияталъ
жумгьурияталъе
жумгьурияталъул
жумгьурияталъулаб
жумгьуриятлъун
жумгіа
жумла
жумлаялда
жумлаялъул
жумх
жумхіурияталъул
жумхӏурият
жунуб
жунубалда
жунубалдаса
жунубгун
жунубияб
жура
журавли
журала
журан
журарал
журараллъун
журн
журнал
журнала
журналазда
журналаздаги
журналазул
журналал
журналалда
журналалъ
журналалъе
журналалъул
журналист
журналистазул
журналу
жух
з
за
забаз
забазда
забазул
забаикал
заби
забидат
забол
забур
завалалда
завалалде
заваллъун
заве
заведении
заведующии
заведующиилъун
завет
завета
заветалда
заветалъул
завещание
зависимых
завод
заводазул
заводал
заводалда
заводалъ
заводалъе
заводалъул
завоевании
завоевания
заг
загадки
заглавие
загрос
загъалав
загъалас
загъаласда
загъаласул
загъаца
загьаб
загьакъ
загьедан
загьид
загьидат
загьир
загьираб
загьирлъана
загьирлъани
загьирлъараб
загьирлъарал
загьирлъидал
загьирлъизе
загьирлъула
загьирлъуларо
загьирлъулеб
загьирлъулел
загьру
загьруги
загіиб
загіипаб
загӏипал
загӏипго
загӏиплъидал
задаваться
задается
задать
заде
задержали
задержан
заз
заид
заинаб
заинабидаса
заинулгіабидилазул
заирбег
заитун
заицева
закавказье
закавказья
закаг
закагіат
закагіаталъул
закам
закариия
закария
закат
закатала
закаталаялда
закаталаялъул
закаталъе
закатги
закатул
закен
заки
закон
законазул
законал
законам
законовъ
законодательница
законодательство
законодательством
закят
закята
зал
залив
залим
залъул
зам
зама
заман
замана
заманаби
заманадулаб
заманаз
заманалда
заманалдаги
заманалдаго
заманалдаса
заманалдасаго
заманалдасан
заманалде
заманалдеги
заманалъ
заманалъе
заманалъул
заманалъулаб
заманаялда
заманаялдасан
заманаялде
заманаялъ
заманаялъе
заманаялъул
заманаялъулаб
заманги
заманго
заманлда
заманялъул
замбезия
замгіа
заместителем
заместителлъун
заместитель
заметки
замечательных
замма
заморских
зан
заназда
зандакъ
зандакъи
зани
занки
зао
заочно
зап
запад
запада
западе
западная
западного
западное
западнои
западныи
записка
записки
запись
зар
зарал
заралал
заралги
заранд
зарандиие
зарбоялда
зарбуялда
зарезервирован
зарезервировано
зарема
зарра
зартуштияб
зартуштиял
заслуженныи
зат
затем
затерянныи
зах
захаб
захаров
захімат
захіматаб
захіматаблъун
захіматал
захіматалъул
захіматго
захӏмалъана
захӏмалъула
захӏмалъулеб
захӏмат
захӏматаб
захӏматал
захӏматалъул
защите
заявил
заявили
зв
звания
звезда
здание
здесь
здоровье
здоровья
зе
зеландия
земель
земельныи
земельными
земле
землеи
землетрясение
земли
земля
земо
зенджан
зеркало
зерцало
зивуриб
зигара
зиген
зило
зимбабве
зимнее
зина
зинаида
зинжан
зирани
зирараб
зиуриб
зия
зиявудин
зиявудиница
зиян
зиярат
зияратал
зияраталда
зияраталъе
зияратлъун
зм
знак
знали
знаменитого
знамя
знание
знании
знания
значение
значения
значительное
зоб
зобал
зобалазул
зобалда
зобалъул
зодил
зодисан
зодихъ
зодов
золота
золотая
золотои
золотом
золотые
зона
зонабазда
зонаби
зонаялде
зонаялъул
зоне
зонода
зонодаги
зону
зорлу
зороастризм
зоя
зрения
зу
зуаиб
зубаирул
зубов
зугьра
зудукяраб
зул
зулаи
зулму
зулмучаг
зулмуяб
зулмуялда
зулмуялдалъун
зулпукъар
зулькифли
зульфия
зумруд
зургъалов
зурма
зьвестак
и
иа
иабиле
иабилеб
иабилев
иабилеи
иазарго
иазд
иар
иб
ибадат
ибанал
ибги
ибе
иберияб
ибериялъул
ибил
ибит
ибн
ибну
ибрагима
ибрагьи
ибрагьим
ибрагьимил
ибрагьимов
ибрагьимовас
ибрагьимовги
ибрагьимхан
ибрагьимханас
ибрагьимханасе
ибрагьимханасул
ибрахим
ив
ива
иван
иванил
иванов
иванова
иванович
иваново
иве
иверск
иг
иги
иго
игорь
игра
игун
игьабун
игьали
игьалиса
игір
игіраб
игірабаз
игірабазда
игірабазде
игірабаздеги
игірабазул
игірабал
игірабалда
игірабалдаса
игірабиял
игіраблъун
игӏрабияб
ид
ида
идаб
идабазул
идаби
идал
идалъул
идара
идарабаз
идарабазул
идарабазулги
идараби
идаралъун
идараялда
идараялъ
идараялъул
идасан
идасанги
идаялда
идаялъ
идаялъул
идги
идго
идеалияб
идеалогия
идеалогияб
идеалогиялъул
идеи
идентитлъи
идентификатор
идентификация
идеологии
идеология
идет
идею
идея
идеяби
идеялъун
иджруд
идиб
идида
идил
идилги
идица
идов
идрис
идрисил
ие
иезекииль
иемен
иеменалдаса
иеменалде
иерархиялда
иеремии
иеремиил
иероглиф
иероглифы
иероним
иеронима
иерусалим
иерусалима
ижаза
ижазаги
ижараялъе
из
изаби
изабизе
изабула
изабулаан
изабуларо
изабулеб
изабулев
изабун
изабуна
изабураб
изандерил
изано
изаризе
изарич
изарула
изарун
избербаш
избран
избранные
известен
известия
известно
известныи
известных
извлечение
извлечения
изд
издана
издание
изданию
издания
издательскии
издательского
издательство
изе
изег
изеги
излучение
изм
изменении
изменению
изменения
изменениях
измерение
измерения
измир
изну
изнуги
изнутри
изнуялдалъун
изображена
изображение
изображения
изобразит
изобрел
изобретатель
изолированные
изолят
израил
израилем
израиль
израиля
изучение
изучению
изучения
ии
ииаэ
иигеб
иигев
иигеи
ииго
иигониги
иииде
иик
иикіана
иикіараи
иикіун
иикіуна
иикӏана
иикӏараи
иикӏин
иикӏун
иикӏуна
иилан
иилъана
иин
иисус
иисуса
иит
иихьизаюн
иичун
иишо
ииял
ик
икил
икмат
икматаб
икматал
икматалдаги
икматго
икматилан
икрам
икъаб
икъав
икълим
икълимазда
икълимаздасан
икълимазде
икълимазул
икълимал
икълималда
икълималдаса
икълималъ
икълималъе
икълималъул
икълимгун
икълимияб
икълимиял
икълимлъун
икълимов
икъоялда
икътисадалъул
икь
ил
ила
илаб
илагь
илагьасул
илагьзабазул
илагьияб
илагьлъун
илал
илалда
илалъул
илалъун
илам
илан
иланги
илбан
илги
илгьам
илзабаз
или
иликь
илил
илин
илису
илишуб
илл
илла
иллабазе
иллаги
иллалъун
иллалъунги
иллъиялда
иллъун
иллюстрации
иллюстрация
иллюстрациял
иллюстрированная
илмул
илусуса
илухъги
илхъи
илче
илчи
илчизабазда
илчизаби
илчизабиян
илчилъи
илъа
илъаса
илъи
илъилаи
илъиялъул
илъяс
иль
ильи
ильинична
ильинскии
ильич
ильича
ильичил
илья
ильяс
ильясил
ильясов
иляс
им
има
имагинияб
имам
имама
имамас
имамасул
имамасулгун
имамат
имаматалда
имаматалде
имаматалъул
имамги
имамгун
имамзабазул
имамзаби
имамлъи
имамлъун
имамлъунги
имаммухӏамад
имаммухӏамадица
иман
иманалда
иманалъул
иманги
иманлъунги
имарат
имарата
имаратал
имараталде
имараталъул
имат
иматица
имг
имгіал
имеет
имел
имен
имена
именем
имени
именно
именуемому
имеретиялъул
иметь
имеют
имеющих
имих
импала
импер
императивалъул
император
императора
императорасул
императорасулаб
императорского
императорском
императрица
императрице
императрицы
империи
империя
империяб
империязул
империял
империялда
империялдаги
империялде
империялъ
империялъги
империялъе
империялъул
империялъулаб
империялъун
импичменталъул
импорт
имраналъул
имя
ин
ина
инаан
инаб
инабго
инаби
инабизе
инабула
инабуна
инав
иназул
инал
иналда
иналдаги
иналде
иналдего
иналъ
иналъги
иналъе
иналъул
инаро
инахъего
инг
инги
ингил
ингилис
ингилисазул
ингилисазулгун
ингилисалда
ингилисалъул
ингишоб
ингл
ингланд
ингландалъул
инглвикиялдаса
инго
ингун
ингури
ингуш
ингушазул
ингушал
ингушалги
ингушетия
ингъуш
индал
индекс
индексазул
индексал
индексам
индексов
индексы
индентифицировать
индентифицируют
инджиль
индивидазул
индиискии
индира
индия
индиялъул
индоевропаялъул
индоевропаялъулал
индоевропиял
индонезия
индонезиялъул
индуизм
индустриалияб
индустриалиял
ине
инеб
инег
инеги
иненю
инесев
инженер
инжи
инжил
инжилазда
инжилал
инжилалда
инжилалъул
инзуда
инин
инисеб
инисев
инициал
иниял
инк
инкар
инкарги
инквалита
инклюзивияб
инкубаторалда
инкъи
инкъилаб
инкъилабалда
инкъилабалдаса
инкъилабалъул
инкъун
инківалитіа
ино
иногда
иное
иностр
иностранных
инсан
инсанас
инсанасда
инсанасде
инсанасе
инсанасул
инсанасулъ
инсаниял
инсаният
инсанияталъул
инспекции
институт
института
институтазул
институтал
институталда
институталде
институталъе
институталъул
инструкция
инструментов
инструменты
инсуда
инсудаса
инсудасан
инсуе
инсул
инсулги
инсухъан
инсухъе
инсуца
инсуцаги
инт
интеллект
интенсивияб
интерактивная
интервики
интервокалиял
интервью
интерес
интересаб
интересал
интернат
интернаталъул
интернационалияб
интернет
интернеталда
интернетско
интерпретация
интерфакс
интонация
интранзитивияб
интранзитивиял
инуит
инуитал
инфекхарал
инфекционияб
инфинитив
инфинитивалъул
информалатазда
информации
информационно
информационное
информационные
информационныи
информация
информациялда
информациялде
информациялъул
инфра
инфраструктура
инхал
инхело
инхигьани
инхил
инхилал
инхо
инхокъвари
инхоса
инцидент
инч
инчхон
инчіого
инчӏого
иныхъ
инюпиакал
инюпикал
ио
иоанн
иоанна
иоаннил
иоанэ
иов
иоганн
иогы
иогьанн
иод
иоиль
иокьараи
иокьулеи
иордан
иордания
иори
иорк
иоркалда
иоркалъул
иорхатаи
иосиф
иотахараб
иотахарал
ип
ипав
ипатьевская
ипгӏи
иповасул
ипутіа
ир
ира
ирак
ирака
иракъ
ирал
иралда
ирам
иран
ирана
ираназул
ираналда
ираналдаги
ираналдаса
ираналъ
ираналъул
ираналъулаб
ираналъулал
иране
ираниан
иранияб
ираниязул
ираниял
ирано
иранского
иранскои
ираншагьр
ирас
ирасул
ирга
иргадул
иргадулаб
иргадулал
иргадулалги
ирганаи
иргаялда
ире
ирекъаб
ирекъараб
ириб
ирина
ирит
иркутск
иркъат
ирландия
иррегуляриял
ирс
ирсалда
ирсалде
ирсалъе
ирсалъул
ирсги
ирсилаб
ирсилаблъун
ирсилав
ирсилавлъун
ирсилаз
ирсилал
ирчп
ирыстон
иса
исаб
исабалда
исабалдаги
исабалде
исагаджиев
исаев
исакъилгирма
исалабдуллаев
исан
исана
исаченко
исе
исеб
исел
исинал
иситнофрет
искажении
искандер
иская
искои
ископаемые
искра
искусств
искусства
искусстваби
искусство
искусствоялъул
искусствоялъулги
исл
исла
ислам
ислама
исламабад
исламабаде
исламалда
исламалде
исламалъ
исламалъул
исламалъулгун
исламги
исламе
ислами
исламия
исламияб
исламияв
исламиял
исламская
исламскии
исламскои
исламском
исламшагьр
исланд
исландия
исландиялъул
исмаг
исмагіил
исмагіилил
исмагӏил
исмагӏилица
исмет
исп
испа
испан
испаналъул
испании
испания
испаниял
испаниялда
испаниялдаса
испаниялъул
испанозу
испанскии
испанском
испарта
исполком
исполнении
исполнитель
исполнительная
исполнительнои
исполнительныи
исполняющим
использовался
использование
использовании
использования
используется
используются
испр
испытание
испытатель
исра
исраил
исраилалъул
исраилгун
исрапил
исрапилил
исраъ
иссинал
исслед
исследование
исследовании
исследования
исследователи
исследовательскии
иставрапал
истамбул
истамбулалда
истамбулалде
истамбулалъул
истанбул
истанбулалда
истикълал
истока
истоки
истоков
истории
историк
историки
историко
историков
историографии
историческая
исторические
историческии
исторических
исторического
историческое
историческои
историческом
историчность
история
историялда
историялъул
историях
источник
источникам
источники
источников
источниковедение
истіал
истӏалинил
исупхӏажияв
исупхӏажияс
исфагьан
исфагьангун
исфахан
исх
исход
исхіакъ
исхӏакъ
исчез
исчезнувших
исчислении
ит
итал
италии
италия
италияги
италиязул
италиял
италиялда
италиялъул
италиялъулал
итальянскии
итальянском
итар
итарк
итни
итниялда
итогах
итоги
иу
иудаизм
иудаизма
иудеи
иудеял
иусуф
их
ихал
ихдал
ихдалил
ихер
ихинк
ихсан
ихтилат
ихтияр
ихтияразул
ихтияразулал
ихтиярал
ихтияралги
ихтияралда
ихтияралъулаб
ихтияралъулал
ихтиярги
ихты
ихх
иххдалил
ихъ
ихъе
ихісас
ихӏсан
иц
ица
ицц
иццаз
иццазда
иццазул
иццал
иццалги
иццалда
иццлъун
иццул
иццухъ
ич
ичери
ичич
ичичіали
ичкериялъул
ичіабилеб
ичіго
ичӏго
иш
ишазда
ишазул
ишазулъ
ишазухъ
ишал
ишалги
ишалда
ишалдехун
ишалъ
ишалъе
ишалъул
ишалъулъ
ишан
ишара
ишарабазул
ишараби
ишарабиги
ишаралъун
ишараялдалъун
ишараялъул
ишариял
ишат
ишаталъул
ишатги
ишатгун
ишатияб
ишги
ишимбаи
ишкъу
иштіибури
ищ
иылмаз
иэс
ию
июл
июлалда
июлалде
июлалъ
июлалъул
июль
июля
июн
июналда
июналдаса
июналде
июналъ
июнь
июня
ия
ияб
иябго
иябгун
иябхур
ияв
иявго
ияз
иязул
ияиго
иял
иялги
иялго
иялда
иялдалъун
иялдаса
иялдасан
иялде
ияли
иялъ
иялъе
иялъул
иясул
иях
ияхӏ
к
ка
кааба
каабы
кабард
кабарда
кабардин
кабардиназул
кабардинал
кабардинск
кабардинском
кабардинцы
кабардисел
кабардиял
кабинет
кабинеталда
кабинеталъул
кабир
кабудараханг
кабул
кабша
кабю
каваби
кавка
кавказ
кавказа
кавказалда
кавказалдаги
кавказалдаго
кавказалдаса
кавказалдасан
кавказалде
кавказалдеги
кавказалъул
кавказалъулаб
кавказалъулал
кавказалъулги
кавказги
кавказе
кавказиял
кавказологиялъул
кавказск
кавказская
кавказские
кавказскии
кавказским
кавказских
кавказского
кавказскои
кавказу
кавкамахи
кавкасионияб
кавсарат
кавтар
каву
кагъа
кагъат
кагъатги
кагътаз
кагътазул
кагътал
кагъти
кагътида
кагътил
кагьру
кагьф
кагіба
кагіин
кагіинасул
кагӏба
кагӏбу
кадастра
кадетазда
кадешалъул
кади
кадман
кадрабазул
кадыров
каждого
каждои
казаки
казанская
казанском
казань
казахстан
казахстана
казбек
казбекова
казбековскии
казерун
кази
казиев
казиюрт
казият
казиятазе
казиятал
казияталда
казияталъ
казияталъул
казмааул
казмаляр
казнеи
казни
казнь
каида
каиима
каикос
каиова
каир
каисери
каитаг
каитагскии
как
каказда
какал
какалги
какана
какги
какда
какдаса
каки
какиги
какие
какил
какилги
какилъ
какое
какуге
какулеб
какун
кал
кала
калабрия
калам
каламалда
каламалъул
каламалъулаб
каламги
калашникова
калашниковасул
калеибар
календаразда
календаралда
календаралъул
календарияб
календарь
календаря
каленьдаралда
калесник
калининил
калифорния
калиялъул
каллиграфиялъул
калмалъул
калмыкал
калуг
камалов
камалудин
камбоджа
каменныи
каменскии
камизабичӏого
камил
камилаб
камилаблъун
камилав
камилал
камилго
камилил
камиллъи
камиллъиялда
камиллъиялъе
камиллъула
камиллъун
камилов
камиль
камичӏого
каммингс
камосил
кампания
кампаниязе
кампаниял
кампаниялда
кампора
кампораялъул
камула
камулареб
камуларо
камулеб
камун
камунани
камуни
камураб
камурал
камьяран
кан
канаб
канагіан
канагіаналда
канада
канадаялда
канадаялъул
канадаялъулгун
канал
каналазул
каналалда
каналалъул
канализация
кангавар
канго
канд
кандидат
кандидата
кандидатал
кандидатасулаб
кандидатлъун
кандидатура
кандидатуру
кандидаты
канлъи
канлъизабул
канлъиялъул
канлъулаб
канна
канон
кант
кантемир
кантон
кантоналъул
канцлер
канцлерасул
канчіхъахіилаб
каньон
капек
капиев
капир
капиталист
капитан
капитанская
капитуляция
капкаикент
капурав
капурзабаз
капурзабазда
капурзабаздаги
капурзабазде
капурзабазул
капурзабаца
капурзаби
капурзабиги
капурзабигун
капурчиясул
кар
кара
карабахскои
карабудахкен
карав
караван
карадж
каракас
каракоису
караматаб
караматал
карамилан
каранда
каранде
карапынар
каратӏ
карахи
карачаевал
карачаевгун
карачаял
карелия
карзег
кариб
карикатура
карикатураби
карим
каримулагь
карл
карланюрт
карликовое
карло
карнакалда
карнакалъул
каролина
карс
карт
карта
картабазда
картаби
карталинскихъ
картах
картаялда
картаялъул
картвел
картвельские
картвельских
карте
картина
картли
картлигун
картлиялъул
картографии
картография
карточка
картошка
картуш
картушал
картушалда
карты
карун
карш
каршли
карщ
карышковскии
карьера
касимов
каспи
каспии
каспииск
каспияб
каспиялде
каспиялъухъ
касра
кат
каталог
каталоге
катар
катара
катастрофа
катастрофаялъул
катастрофе
катастрофои
катастрофы
категоризация
категории
категория
категорияесли
категориязда
категориял
категориялда
категориялъе
категориялъул
категориянеобходимо
катие
катица
католик
католиказул
католикияб
католикиял
католицизм
католическои
катрин
каулитц
каутар
каф
кафе
кафедра
кафедралияб
кафедралъул
кафедраялда
кафедраялъе
кафедраялъул
кафурав
кафурал
ках
кахабер
кахабросинскии
кахеталъул
кахети
кахетиялъул
кахи
кахраман
кахф
кахіиб
кац
кацнельсон
кацнельсона
качеств
качества
качестве
качкачишвили
кашан
кашиш
кашишас
кашкаял
каяев
каякент
каякентскии
каялъул
каясула
кв
квадратияб
квал
квалификация
квалквал
квана
кванаге
кваназарулев
кваназе
кванаи
кванала
кваналаро
кваналеб
кванан
кванана
кванани
кваначӏого
кванде
квание
кванил
кванирукъ
кванирукъалъул
кванкъеро
кванхи
кванхидалі
квар
квараб
кварал
кваранаб
кваранал
кваранидаса
квараниде
кваранидехун
квараниса
кварида
кварил
кваркьи
кварт
квартира
квас
квасул
кватичіого
кватіичіого
кватіунги
кватӏани
кватӏи
кватӏичӏого
квачалъул
квачан
квачараб
квачі
квачіалда
квачіалъ
квебек
квег
квегъула
квегіаб
квегіидаса
квегіиса
квегіисехун
квегӏаб
квегӏиде
квемо
квен
квенги
квенишгӏоралъул
квенчӏел
квер
квераз
кверазе
кверазул
кверал
квералда
квералъ
квералъул
квербакъана
квербакъи
квербакъиги
квербакъиялдалъун
квербакъула
квербакъулаан
кверги
кверде
кверзул
кверлъун
квершаликье
квершелги
кверщаликь
кверщаликьа
кверщаликье
кверщалихъ
кверщел
кверщелалъул
кверщелги
кверщеликье
кверщеллъи
кверщеллъиялъул
кветта
квеш
квешаб
квешабги
квешав
квешал
квешалда
квешас
квешасдасан
квешлъаби
квешлъи
квешлъиги
квешлъиялдалъун
квешлъиялъул
квешхъутан
кви
квине
кг
кдж
кеди
кедралъул
кеи
келдихан
келт
кельн
кельналде
кельт
кемал
кемалица
кембриджалъул
кемет
кенаф
кения
кентукки
кеп
кепаб
кепрюлю
керамика
керен
керман
керманшагь
керманшагьалда
кесек
кесекалда
кету
кех
кехнудж
кеч
кечі
кечӏ
киб
кибго
кибе
кибего
кибехун
кибниги
кибрик
киве
киг
кигіан
кигіаналъ
кигӏан
кигӏанал
кида
кидаго
кидагосел
кидалго
кидалъагіан
киданиги
кидаялиго
кидеро
кидероса
киев
киева
киевалда
киевалъул
киеве
кизил
кизилюрт
кизилюртовскии
кизилюртовского
кизилюртовскому
кизляр
кизляра
кизляре
кизлярскии
кизлярскои
кила
килаб
килалъ
килас
килиса
килисабаз
килисабазул
килисаби
килисалъун
килисаялда
килисаялде
килисаялъ
килисаялъе
килисаялъул
килисаян
килищ
килограмм
километр
километралда
километралъ
километраялдаса
километраялъ
километраялъул
килоялде
килсабук
килщаздаса
килщазул
кин
кинаб
кинабалиго
кинабг
кинабго
кинабгоги
кинабгӏаги
кинабниги
кинав
кинавалиго
кинавго
кинавниги
киназго
киназдаго
киназдасаго
киназдего
киназего
киназулго
кинаи
кинал
киналалиго
киналго
киналгоязде
киналдаго
киналниги
киналъулго
кинан
кинанат
кинацаго
кинаялиго
кинго
киндиргъа
киниги
кинигин
киниса
кинк
кинлъи
кинниги
кино
киноактер
кинорежиссер
кинотеатр
киноялъул
кинтар
кинха
кипр
кипра
кипралъул
кипшидзе
кир
киргизия
кирго
кирего
кири
кирилицалде
кирилл
кириллица
кириллицаялда
кириллицаялде
кириллицаялъул
кириллияб
кириллиял
кирка
киркар
кирниги
киров
кироваул
киса
кисан
кит
китаб
китае
китаи
китаялъул
кихарчи
кихот
кицаби
кици
кишинев
кк
ккана
кканани
ккани
кканиги
кканин
ккараб
ккарабила
ккараблъун
ккарав
ккаразул
ккараи
ккарал
ккаралъуре
ккв
ккве
кквезе
кквезеги
кквеи
кквеларо
кквеч
кквечӏеб
кквеялъул
ккедал
ккезабизе
ккезабила
ккезабиялъул
ккезабулеб
ккезабун
ккезавун
ккезариялъул
ккезарун
ккезе
ккезегӏан
ккеи
ккела
ккелалде
ккеларо
ккелилан
ккена
ккеч
ккечіеб
ккечіо
ккечіого
ккечӏо
ккечӏого
ккеялда
ккеялдасаги
ккеялъе
ккеялъул
ккоге
ккола
кколаан
кколареб
кколарел
кколарин
кколаро
кколароан
кколе
кколеб
кколебги
кколебила
кколебилан
кколеблъи
кколеблъун
кколев
кколевали
кколедухъ
кколеи
кколел
кколеллъун
кколелъул
кколилан
кколин
ккуиги
ккун
ккуна
ккуни
ккураб
ккурав
ккураи
ккурал
ккурас
кл
кладбище
кламат
класс
классазул
классазулаб
классал
классалда
классалде
классалъ
классалъул
классалъулаб
классик
классикияб
классификатор
классификации
классификация
классификациялда
классическая
классических
классического
классныи
клеопов
клике
климат
климаталъул
клименко
климов
кличхан
клуб
клуба
клубалъул
клубе
клубника
клутина
ключевскии
км
кн
кндр
книг
книга
книгах
книге
книги
книгу
книжка
книжное
княгиня
князасул
князеи
князь
ко
коалиция
коалициялда
коалициялъул
коб
коби
кобиялъул
кобуладзе
ковалевскии
когалымавиа
когда
когьгилуие
код
кодазул
кодал
кодалъул
кодам
кодекс
кодзасов
кодлъун
кодоб
кодобе
кодов
кодор
кодоре
кодоса
коды
коине
коису
коиукук
кокон
кол
кола
колесницабазда
колибри
количество
коллектив
коллективияб
коллективнои
коллекция
коло
колоб
колода
колодаса
коломна
колониализм
колониализма
колониалияб
колониалиял
колонии
колониял
колумбил
колумбия
колхоз
колхоза
колхозалда
колхозалъе
колхозалъул
колхозалъухъе
кольера
командир
комарицын
комбинация
комедия
комедиялъул
коми
комиджан
комиссаразул
комиссариаталъул
комиссии
комиссия
комиссиялда
комиссиялъ
комиссиялъул
комитет
комитета
комитеталъ
комитеталъул
комков
комм
коммент
комментарии
комментариял
комментариях
коммерсантъ
коммуна
коммуналиял
коммуникационная
коммуникациялъул
коммунист
коммунистазул
коммунистического
коммунмистазул
комп
компани
компании
компания
компаниялъ
компаниялъе
компаниялъул
компаньон
комплекс
комплексал
комплексалъул
комплексияб
комплексных
композитор
компонент
компонентазда
компонентазул
компьютер
компьютерная
компьютерныи
комсомолазул
комсомолец
комсомольская
кому
конарак
конвербал
конго
конгони
конгресса
конд
конец
кония
конкретияб
конкурсал
конкурсалда
коннектикут
коновалова
консервазул
консервативияб
консерватизм
консерватизма
консерватораз
консолидация
константин
конституции
конституционалияб
конституционного
конституционныи
конституция
конституциялда
конституциялде
конституциялъ
конституциялъул
конституциялъулаб
конструктор
конструкция
консул
консуллъиялъул
консуллъун
контакт
контакты
конте
контексталда
контексте
контент
контента
континент
континентазда
континенталда
континенталияб
контрастал
контрол
контроль
контроля
конфедерация
конференции
конференция
конференциябазда
конференциялда
конференциялъул
конфликт
конфуции
конца
конце
концентрациониял
концепция
концерт
кончине
коньяк
коньяка
коньякал
коньякалъул
коньячного
коньячныи
коняк
конякалъул
координатал
координатор
координация
коп
копенгаген
копенгьагеналъул
копилефт
копия
копияги
копт
коптазул
коптскии
кор
коралде
коралъул
коран
корана
кораном
корбин
корве
коргузулердиҥ
корека
корелляталъ
корельская
корея
кореялъул
коридора
кормышева
корнеи
корнилов
королев
королева
королевства
королевство
король
коронация
коростовцев
коростовцева
короткии
корохъ
корпус
корпусом
корр
корреляталлъун
корреспондент
корсакова
корсик
корсика
корсикаялда
кортала
коряков
косидовскии
космическии
космическои
космология
космонавт
космонавта
космонавтика
космонавтики
космонавты
космос
космосалда
космосалде
космосалъул
космосе
косово
коста
костек
костюниница
кот
которая
которого
которое
которои
котором
которую
которые
которыи
которым
которых
котрелл
кохтебе
коч
кочубеи
кочіохъан
кочӏол
кочӏолъ
кочӏохъан
коюконал
кпсс
кпссалде
кпссалъул
кпф
краев
краеведческияб
краи
краиновскии
красная
краснов
красного
краснодар
краснодаралъул
краткая
краткие
краткии
крауссида
крафт
крачковскиясул
края
краялъул
краям
краями
креиг
кремле
кремлиялде
кремль
кремля
кренке
крепость
крескендоялде
крест
креста
крестныи
крещение
крижановскии
кризис
крим
крималъул
крипта
крис
кристина
кристофер
крит
криталда
критериязда
критик
критика
критиказ
критикияб
криштопа
кровавая
кроме
крона
кропоткин
кругосвет
крупаялъул
крупнеишие
крупнеишии
крупные
крупных
крупская
круталевич
крушение
крушением
крушения
крым
крыма
крымалъул
крымскии
крымского
кси
кто
ктувим
ку
куала
куб
куба
кубаналъул
кубань
кубачи
кубачинскии
кубачиял
кубок
кубра
куваит
кувеит
кувеите
кугьбонан
кугьдашт
кугьранг
кудали
кудалиб
кудаливе
кудалиса
кудалисан
кудел
куделдерил
куделдерица
куду
кузнецов
кузнецова
куи
кукам
кукамлъун
кул
кулабазда
кулаби
кулал
кули
кулиб
кулинскии
кулиялъул
куллаби
култура
културияб
кулу
кульзеб
культ
культур
культура
культураби
культураги
культураялъул
культуре
культурияб
культуриябгун
культурная
культуры
кума
кумак
кумакалдалъун
кумек
кумекалдалъул
кумекалдалъун
кумекалде
кумекалъе
кумекалъул
кумекалъулаб
кумекги
кумекчагіи
кумекчи
кумекчилъун
кумратова
кумторхъала
кумух
кумухские
кумыкскии
кумыкском
кун
куна
кунеб
кунчӏи
кур
кура
курагул
курак
кураков
куракул
куралал
курах
курахскии
курган
курд
курдазул
курдал
курдами
курдистан
курдская
курми
курорт
курорталда
курс
курсивлъун
курск
курт
куруш
курчалои
куры
кускул
кусрахъ
кут
кутаис
кутаиси
кутакаб
кутакал
кутакалда
кутаклъизабулеб
кутаном
кутиша
куто
кутул
куфи
куц
куцалда
куцалъ
куцараб
куч
кучун
кучідул
кучӏдуз
кучӏдузул
кучӏдузулъ
кучӏдул
къ
къа
къабарда
къабахчолиб
къабихӏал
къабул
къабулги
къавкъаз
къавм
къавмазда
къавмазул
къавмал
къавмалъул
къавохъ
къавуда
къавулъ
къавус
къаг
къагьир
къагьира
къагьиралда
къагьиралдаса
къагьиралъул
къагьираялъул
къагіда
къагіида
къагіидабаз
къагіидабазул
къагіидаби
къагіидабиги
къагіидаги
къагіидаялда
къагіидаялде
къагіидаялъ
къагіидаялъул
къагіидялъ
къагӏида
къагӏидабазда
къагӏидаби
къагӏидабиги
къагӏидалъун
къагӏидаялда
къагӏидаялъ
къагӏидаялъул
къад
къадада
къадазда
къадал
къадалӏ
къадар
къадараб
къадарав
къадаразда
къадарал
къадаралда
къадаралдаса
къадаралде
къадаралъ
къадаралъе
къадаралъул
къадаралъулаб
къадаралъулги
къадарги
къадарм
къадги
къаде
къаденахъе
къади
къадида
къадие
къадикеи
къадил
къадиласул
къадилъун
къадир
къадирилазул
къадировасул
къадица
къадияс
къадиясул
къадру
къадруяб
къадруяв
къадруялда
къажар
къажараз
къажаразул
къажарал
къажаралда
къазабула
къазан
къазаналъул
къазвин
къазе
къазим
къазмаляр
къазмаяр
къаи
къаигун
къаии
къаииги
къаииим
къал
къала
къалазул
къалам
къаларо
къалг
къалгӏатул
къалеб
къали
къалмиде
къалъул
къамилухъ
къамус
къамусал
къамусалда
къамялъул
къан
къана
къанабакь
къанаг
къанагіат
къанагіатаб
къанагіатал
къанагіатго
къанагӏат
къанагӏатаб
къанагӏатал
къанал
къандагьаралъул
къандахъ
къани
къанун
къануназ
къануназда
къануназдаса
къануназул
къанунал
къануналда
къануналъ
къануналъул
къанунги
къанунияб
къануниял
къанунияллъун
къанункьеялъулаб
къанунлъун
къараб
къарабалда
къарабалиб
къарабтала
къарав
къаракура
къарал
къарахии
къарахъ
къарахъа
къарач
къарачаи
къарби
къарз
къаркъала
къаркъалаялда
къаркъалаялъул
къарнуялъул
къартас
къасд
къасе
къаси
къасида
къасидат
къасим
къасре
къасум
къасумкент
къат
къатіар
къаукъаз
къах
къахіиб
къахӏиб
къахӏиблъаралъул
къач
къачіаи
къачӏаи
къачӏалел
къачӏараб
къачӏеб
къашкъа
къаяз
къаял
къаялда
къаялъ
къаялъул
къв
къва
къвак
къвакіараб
къвакӏараб
къвакӏарав
къвакӏарал
къвакӏи
къвал
къвалги
къваниб
къварараб
къварегіани
къварели
къвариг
къваригіуна
къваригӏараб
къваригӏел
къваригӏине
къваригӏун
къваригӏуна
къваригӏунеб
къварид
къваридаб
къваридав
къварилъаби
къварилъана
къварилъи
къварилъиб
къварилъиги
къварилъиялъ
къват
къватибе
къваті
къватіиб
къватіибги
къватіибе
къватіибехун
къватіиве
къватіир
къватіире
къватіиса
къватіисанхун
къватіисеб
къватіисел
къватӏ
къватӏазе
къватӏал
къватӏалда
къватӏалъе
къватӏахъ
къватӏи
къватӏиб
къватӏибе
къватӏив
къватӏиве
къватӏир
къватӏире
къватӏиса
къватӏисан
къватӏисеб
къватӏисел
къватӏул
къвачӏа
къвекіада
къебед
къебедасул
къебеддибир
къебеддибирас
къебеддибирасда
къебедов
къебекъов
къебелъи
къегьалазул
къед
къеда
къеди
къедиве
къедиса
къедисезул
къезавидал
къезавурав
къезаризе
къеи
къеиги
къелеса
къеркьезе
къеркьеи
къеркьеял
къеркьеялда
къеркьеялдаса
къеркьеялъе
къеркьеялъул
къеркьеялъулъ
къеркьолеб
къеркьолел
къеркьон
къех
къехь
къец
къецазда
къецал
къеч
къечон
къзабиги
къибиц
къибла
къиблаяб
къиблаябгун
къиблаялда
къиблаялдасан
къиблаялде
къиблаялдехун
къиблаялъул
къиблаялъулгун
къибтіиия
къилабалда
къилабалдехун
къилабгун
къилабияб
къилер
къимат
къиматаб
къиматазда
къиматал
къиматалда
къиматги
къинабидал
къинабула
къинал
къинарун
къирал
къиралас
къираласул
къиралат
къиралаталда
къиралаталъ
къиралаталъул
къиралияб
къираллъи
къираллъун
къиса
къисаби
къисаги
къисас
къисаялда
къисаялъул
къисмат
къисматалда
къисматалъ
къисматалъул
къиямасеб
къкъ
към
къо
къоабилел
къоб
къоги
къого
къогогӏан
къоиида
къоиидаса
къоииде
къоиил
къоиилго
къоиищ
къоил
къокъ
къокъа
къокъаб
къокъабазда
къокъабго
къокъаби
къокъабиги
къокъав
къокъаги
къокъагун
къокъадул
къокъал
къокъана
къокъаялда
къокъаялдаса
къокъаялде
къокъаялъ
къокъаялъе
къокъаялъул
къокъго
къола
къолден
къоло
къолол
къолоца
къолъун
къоно
къоноялда
къоноялъул
къоркъмасов
къорода
къородаса
къоролаилъун
къосарав
къосарал
къосуге
къосун
къот
къотіалабазул
къотіараб
къотіарал
къотіел
къотіелалда
къотіелалъул
къотіи
къотіичіого
къотіиялда
къотіиялдалъун
къотіиялдаса
къотіиялъул
къотіула
къотіун
къотӏана
къотӏараб
къотӏи
къотӏиги
къотӏизе
къотӏула
къотӏун
къоціулаб
къоядаса
къояз
къоязда
къоязул
къоял
къоялго
къоялда
къоялдаги
къоялдаса
къоялдасан
къоялде
къоялдеги
къоялъ
къоялъги
къоялъго
къоялъе
къоялъул
къояль
къояца
кътіерхьул
къуба
къубаялъул
къуват
къуватаб
къуватав
къуватаз
къуватазда
къуватазде
къуватазул
къуватал
къуваталда
къуваталдалъун
къуваталдалъунги
къуваталде
къуваталъ
къуваталъул
къуватлъабазда
къуватлъабазул
къуватлъаби
къуватлъун
къудс
къудукь
къудукьа
къудутли
къуисун
къукъаялда
къулараб
къули
къулизе
къулун
къум
къумалъул
къун
къункъра
къункърабазде
къункърабазул
къункъраби
къунр
къунстіантіиния
къурагьан
къураиш
къураишияв
къураишиязда
къураишиязул
къураишиял
къурал
къурамух
къурамухӏама
къурамухӏаммад
къуран
къураналъул
къурасул
къурахі
къурбан
къурбаналъе
къурбаналъул
къурбангъули
къурбангіалида
къурбангӏали
къурбанов
къурели
къуркьичӏо
къуруш
къурш
къуръан
къуръаналги
къуръаналда
къуръаналъ
къуръаналъул
къуръанги
къусаииу
къускъантӏиялде
къуст
къустіантіиниялъул
къут
къуч
кык
кыргызскои
кь
кьабана
кьаби
кьабизаби
кьабизабиялда
кьабизабиялде
кьабизабиялъ
кьабизабиялъукь
кьабизабиялъул
кьабизабуларел
кьабиялдалъун
кьабулеб
кьабулев
кьабун
кьабуниги
кьабураб
кьадар
кьал
кьалде
кьалул
кьарияб
кьв
кьвагьараб
кьвагьдеи
кьвагьдеялъул
кьвагьи
кьвагьизабуна
кьвагьизе
кьвагьиялда
кьвагьиялъул
кьвагьуге
кьвагьулеб
кьвагьун
кьварараб
кье
кьеги
кьегӏер
кьезе
кьезеги
кьеи
кьелалда
кьеларо
кьенсе
кьенсер
кьенсерухъ
кьер
кьеразда
кьерал
кьералда
кьералдалъун
кьералул
кьералъ
кьералъул
кьералъухъ
кьерги
кьерда
кьерзабахъ
кьерлъиялде
кьерлъун
кьеч
кьечӏеб
кьечӏого
кьечӏони
кьеялда
кьеялдалъун
кьеялъе
кьеялъеги
кьеялъул
кьеялъулгин
кьеялъулъ
кьеян
кьеянги
кьибил
кьибилалда
кьибилалдасан
кьибилалъул
кьибилалъулӏ
кьижани
кьижарасе
кьижула
кьижун
кьилер
кьили
кьиндал
кьо
кьов
кьовул
кьог
кьоге
кьогьоб
кьода
кьола
кьолаан
кьолаго
кьоларо
кьолароан
кьолбое
кьолбол
кьолболаб
кьолеб
кьолев
кьолел
кьолин
кьолоца
кьорош
кьохъ
кьохъа
кьоял
кьун
кьуна
кьуни
кьунила
кьунилан
кьунсрул
кьураб
кьурабаз
кьурабазда
кьурабазул
кьурабго
кьураби
кьурав
кьураи
кьурал
кьурда
кьурде
кьурди
кьурдухъан
кьуризе
кьуру
кьурул
кьурулъан
кьурун
кьуч
кьучі
кьучіаб
кьучіаблъун
кьучіал
кьучіалда
кьучіалъе
кьучілъун
кьучічі
кьучӏ
кьучӏаб
кьучӏал
кьучӏалда
кьучӏги
кьучӏлъуравлъун
кюрасао
кі
кіал
кіалалъул
кіалгіа
кіалзул
кіалъа
кіалъазе
кіалъаи
кіалъала
кіалъалеб
кіалъалев
кіалъалезда
кіалъалезул
кіалъалел
кіалъалесда
кіалъалесдаса
кіанціи
кіанціизе
кіанціула
кіанціун
кіахет
кіахеталъул
кіахети
кіахетиялъул
ківана
ківанагіан
ківар
ківаралъул
кіи
кіиабилеб
кіиабилев
кіиабилеи
кіиабилел
кіиазаралда
кіиго
кіижубараб
кіикъоялда
кіикіуни
кіикіуниб
кіинусго
кіирекъараб
кіиябго
кіиявго
кіиялго
кіиялъулго
кікіалахъ
кікіалахъе
кіо
кіодо
кіодолъи
кіодолъиялда
кіодолъиялъул
кіодолъула
кіодоэбел
кіола
кіолеб
кіочон
кірэ
кіудиб
кіудияб
кіудияблъун
кіудияв
кіудияи
кіудиял
кіул
кіулал
кіулзеб
кіун
кіутіби
кіутібузул
кӏ
кӏал
кӏалагъоркье
кӏалалъ
кӏалалъеги
кӏалгӏа
кӏалгӏаби
кӏалгӏадул
кӏалгӏаялда
кӏалдиб
кӏалдибе
кӏалдиса
кӏалдисан
кӏалзуе
кӏалзул
кӏалъа
кӏалъазе
кӏалъаи
кӏалъала
кӏалъалеб
кӏалъалезул
кӏалъалел
кӏалъаялъул
кӏанцӏана
кӏанцӏараб
кӏанцӏизе
кӏанцӏула
кӏанцӏун
кӏахети
кӏахетиялъул
кӏвана
кӏванагӏан
кӏванада
кӏвар
кӏвараб
кӏваралъул
кӏваричӏеб
кӏвахӏ
кӏвечӏо
кӏи
кӏиабизеги
кӏиабилеб
кӏиабилев
кӏиабилеи
кӏиазарго
кӏибичӏараб
кӏиго
кӏигоги
кӏигониги
кӏигояв
кӏигоялъул
кӏигъуждудаса
кӏижурарал
кӏикъоялда
кӏикӏуниб
кӏикӏуниса
кӏилъиласул
кӏинусилъ
кӏирекъарал
кӏицӏул
кӏиябго
кӏиявго
кӏиязулго
кӏияиго
кӏиялго
кӏиясго
кӏиясего
кӏкӏ
кӏкӏал
кӏкӏалал
кӏкӏалахъ
кӏкӏалахъе
кӏкӏаратӏаса
кӏкӏв
кӏкӏваниш
кӏкӏин
кӏкӏуи
кӏодо
кӏодолъана
кӏодолъиялде
кӏодолъиялъул
кӏодолъула
кӏола
кӏолареб
кӏоларев
кӏоларо
кӏолеб
кӏолев
кӏочон
кӏочонареб
кӏудаб
кӏудаламаарда
кӏудибритӏания
кӏудияб
кӏудиябги
кӏудияв
кӏудиязул
кӏудияи
кӏудиял
кӏулал
кӏун
кӏутӏби
кӏутӏбузул
кӏутӏбузулал
кӏухӏал
кӏухӏалал
л
ла
лабазан
лабазанов
лабалго
лабалда
лабаллъуда
лабиализация
лабиаликъаб
лабиалияб
лабиалиял
лабиаллъараб
лабиаллъарал
лабиаллъи
лабиаллъигун
лабиаллъичіеб
лабиаллъичӏеб
лабиб
лабиринт
лаваша
лаваши
лаваялъул
лаврентии
лавров
лаг
лага
лагадул
лагадухъ
лагаялда
лагаялъул
лагерь
лагъ
лагъас
лагъасда
лагъасе
лагъасул
лагъги
лагъзадерида
лагъзадеридаса
лагъзадерие
лагъзадерил
лагъзал
лагълъи
лагълъун
лагьиж
ладерида
ладерил
ладерица
ладомир
ладынин
лаз
лазистан
лаи
лаилатул
лаинер
лаинера
лак
лаказул
лакал
лакку
лакскии
лакско
лакского
лакъаб
лакъав
лакъго
лакълакъ
лал
лалги
лали
лам
ламадур
ламанскии
ламеция
ландшафт
ланка
лань
лаос
ларестан
лат
латвия
латералияб
латин
латиназул
латиналда
латиналдаса
латиналъул
латиница
латинскии
латинскои
лауреат
лах
лахізаталда
лахізаталъ
лахӏзаталъгӏаги
лаче
лачен
лаченилав
лачин
лгу
лда
лдаса
лде
ле
леб
лебалав
лебалаи
лебалал
лебги
лебедев
лев
левит
левшин
легенда
легендах
легионалъул
лезг
лезги
лезгин
лезгиназул
лезгинал
лезгинов
лезгинскии
лезгинскои
лезгиял
лезе
леи
леиден
леик
леипциг
леитенант
леитенанта
лек
лексика
лексикаялъул
лексикияб
лексикография
лекции
лекция
лекциял
лел
лелдаса
лелде
лениздат
ленин
ленина
ленинакан
ленинград
ленинградское
ленине
ленинизма
ленинил
ленинскии
ленис
лента
лентапедиялда
лео
леонид
леонти
лесу
лет
летевшии
летие
летит
летию
летнего
летнии
летопись
летчик
ли
либ
либерализмалде
либералияб
либиягун
либиялъул
либо
либроком
ливан
ливана
ливия
ливиялъул
лившица
лиддел
лидер
лидера
лидерлъун
лидером
лидия
лиза
лик
лил
лимфа
лимфатикиял
лингва
лингвист
лингвистаз
лингвистазул
лингвистика
лингвистикаялъулс
лингвистикияб
лингвистическии
линк
линказул
лион
липанал
липецк
лир
лирика
лирикияб
лиса
лиссабон
лист
лит
литва
литваязул
литература
литератураялъе
литератураялъул
литературе
литературияб
литературиял
литературного
литературнои
литературныи
литературными
литературовед
литературы
литке
литография
лифляндская
лихтенштеин
лиц
лицеи
лицензияби
лицензиялъул
лицеялда
лицо
личи
личному
личности
личность
личных
лишь
лияб
лиял
ло
логика
логинов
локализация
локатив
локативазул
локативалъул
локативгун
лолалъ
лологъонилъ
лологъонилъдерил
лолпажиниб
ломбардия
ломсиа
ломсия
лондон
лондоналда
лопухина
лорд
лордкипанидзе
лори
лос
лоток
лочнол
лошкомоева
лпу
лу
луаииу
лубнан
луганскои
лугби
лугъат
луи
луиза
лука
лукал
лукка
луконин
лукъма
лукъсуралда
лумпур
лунуб
лурал
лурдеган
лурестан
лурье
лутф
лутӏфуялдаса
лучше
лхр
лъ
лъа
лъаб
лъабабаилеб
лъабабго
лъабабизеги
лъабабилеб
лъабабилев
лъабабилеи
лъабго
лъабгоязул
лъабгоял
лъабжубараб
лъабилаб
лъабкъоабилел
лъабкъого
лъабкъоялда
лъабнусго
лъабнусида
лъабнусидаса
лъабокіонаб
лъабц
лъабцӏул
лъаг
лъагалида
лъагіалида
лъагіалидасан
лъагіалил
лъагіан
лъагіел
лъагіелалъ
лъагіелалъул
лъагіелухъ
лъагіелухъа
лъагӏалида
лъагӏалил
лъагӏалица
лъагӏан
лъагӏел
лъагӏелалъ
лъадал
лъадаца
лъади
лъадилъун
лъадиялда
лъадул
лъадулгун
лъазаби
лъазабигун
лъазабизе
лъазабиялда
лъазабула
лъазабулаан
лъазабулеб
лъазабулев
лъазабулел
лъазабун
лъазабуна
лъазабураб
лъазавула
лъазавун
лъазавуна
лъазаризе
лъазарула
лъазарулеб
лъазарун
лъазаруна
лъазарурал
лъазе
лъазеги
лъаи
лъаиги
лъаигун
лъаидал
лъаикьеи
лъаикьеялъул
лъаикьеялъулаб
лъаищвеи
лъаищвеялъул
лъала
лъалаан
лъалаго
лъалареб
лъаларев
лъаларел
лъаларес
лъаларилан
лъаларо
лъалароан
лъалеб
лъалев
лъалевлъун
лъалезул
лъалеи
лъалел
лъалес
лъалк
лъалкӏ
лъалъ
лъалъазе
лъалъалъул
лъамалъи
лъамел
лъамелазул
лъамелал
лъамияб
лъан
лъана
лъануб
лъанублъарал
лъар
лъараб
лъарав
лъараг
лъарагі
лъарагіал
лъарагӏ
лъарагӏазул
лъарагӏал
лъарагӏалда
лъарагӏлъиялда
лъаразул
лъарал
лъаралда
лъаралъ
лъаралъул
лъарасе
лъарат
лъаратіа
лъаратӏа
лъараца
лъарги
лъахъ
лъач
лъачіого
лъачӏого
лъачӏони
лъаязул
лъаял
лъаялда
лъаялдаги
лъаялдалъун
лъаялъе
лъаялъул
лъв
лъе
лъебел
лъебелазул
лъебералда
лъеберго
лъеги
лъеда
лъедагъоркь
лъеде
лъезда
лъезе
лъеи
лъеигун
лъекьаб
лъел
лъелав
лъелго
лъелмес
лъелъ
лъелӏ
лъеца
лъеяв
лъеялда
лъеялде
лъеялъул
лъи
лъиги
лъида
лъидаго
лъиданиги
лъие
лъии
лъик
лъикі
лъикіаб
лъикіаблъун
лъикіав
лъикіал
лъикілъараб
лъикілъи
лъикілъизе
лъикілъун
лъикӏ
лъикӏаб
лъикӏаблъун
лъикӏав
лъикӏаи
лъикӏал
лъикӏаланго
лъикӏалдалъун
лъикӏаллъун
лъикӏго
лъикӏлъи
лъикӏлъизабиялъеги
лъикӏлъизабула
лъикӏлъизариялъе
лъил
лъим
лъимал
лъималада
лъималаз
лъималазги
лъималазда
лъималаздехунги
лъималазе
лъималазул
лъималги
лъималде
лъималлъун
лъималъул
лъимги
лъимер
лъимералъул
лъимерги
лъимерлъи
лъимерлъиялъул
лъимерлъуда
лъимерлъун
лъимхӏалаб
лъин
лъинал
лъинги
лъихъе
лъица
лъицаниги
лъиялда
лъиялдаса
лъиялъул
лъиялъухъ
лълъ
лълъар
лълъаралдаса
лълъел
лълъикӏго
лълъим
лълъурдул
лъов
лъоге
лъола
лъолаан
лъоларо
лъолеб
лъолел
лъондода
лъороб
лъуг
лъугьа
лъугьабахъиназул
лъугьабахъиналъул
лъугьана
лъугьараб
лъугьарав
лъугьаразда
лъугьараи
лъугьарал
лъугьизабуна
лъугьизегіан
лъугьин
лъугьинабизе
лъугьинабула
лъугьинабуна
лъугьиналда
лъугьиналдаги
лъугьиналъе
лъугьиналъул
лъугьинари
лъугьинаро
лъугьинарулел
лъугьинарулин
лъугьиндал
лъугьине
лъугьинег
лъугьинеги
лъугьинчіел
лъугьинчіо
лъугьун
лъугьуна
лъугьунаго
лъугьунарел
лъугьунаро
лъугьунеб
лъугьунел
лъугьунелъул
лъугіана
лъугіараб
лъугіидал
лъугіизабун
лъугіизабуна
лъугіизабураб
лъугіизегіан
лъугіиялда
лъугіиялъул
лъугіула
лъугіулеб
лъугіулел
лъугіун
лъугӏана
лъугӏараб
лъугӏарал
лъугӏи
лъугӏизабун
лъугӏизабуна
лъугӏизе
лъугӏизегӏан
лъугӏине
лъугӏула
лъугӏун
лъудби
лъудбузул
лъукъана
лъукъарав
лъукъун
лъул
лъун
лъуна
лъунги
лъунилан
лъунин
лъураб
лъурав
лъуразул
лъурал
лъуралдаса
лъутана
лъутизе
лъутула
лъутун
лъухъаб
ль
льва
льве
львов
любви
любляна
любовь
людеи
люди
людмила
людовик
люксембург
лютеранство
люцерна
ліугьана
ліугьиндал
ліугьуна
ліугьунеб
ліугіидал
ліутана
лӏ
лӏугьа
лӏугьан
лӏугьана
лӏугьараб
лӏугьарал
лӏугьин
лӏугьинабула
лӏугьинабулеб
лӏугьиналъул
лӏугьине
лӏугьинчӏого
лӏугьун
лӏугьуна
лӏугьунаго
лӏугьунеб
лӏугьунел
лӏугӏараб
лӏугӏи
лӏугӏулел
лӏугӏун
м
ма
маали
маалыматтарды
маатхорнефрура
мавжуд
мавзолеи
мавлет
мавлид
мавлидазул
мавлидал
мавраевасул
мавралазуласул
маврикии
мавритания
маг
магадан
магарамкентскии
магистрасул
магнии
магомед
магомедов
магомедова
магомедович
магомедсалам
магомедсалама
магометов
магъало
магъалоги
магъалоялдаса
магъалоялъул
магъар
магъил
магъилъ
магъриб
магърибалда
магърибалдехун
магърибалъул
магърибияб
магъулазул
магьари
магьариялдасан
магьди
магьдилав
магьдилас
магіарда
магіарул
магіарулав
магіарулаз
магіарулазда
магіарулазул
магіарулал
магіарухъ
магібад
магібадал
магібадалъул
магіданал
магіишат
магіишаталда
магіишаталъ
магіишаталъул
магіишаталъулаб
магілумат
магілуматал
магіна
магінаби
магінаги
магінадулал
магінаялда
магінаялде
магінаялъул
магінаялъухъ
магӏад
магӏарда
магӏардаса
магӏарде
магӏарул
магӏарулав
магӏарулаз
магӏарулазда
магӏарулазе
магӏарулазул
магӏарулал
магӏарулалги
магӏарулас
магӏаруласул
магӏаруллъиялда
магӏаруллъиялъул
магӏарухъ
магӏида
магӏил
магӏихъан
магӏишат
магӏишатазул
магӏишаталъул
магӏлиб
магӏлумбекил
магӏна
магӏнаги
магӏнаялда
магӏнаялъул
магӏу
мад
мадагаскар
мадагаскаром
мадаин
маданияб
маданиябгин
маданиябгун
маданиял
маданият
маданиятазул
маданиятал
маданияталъул
маданияталъулаб
маданияталъулал
маданиятги
маданиятгун
мадат
мади
мадие
мадиева
мадил
мадина
мадинаялда
мадинаялдаги
мадинаялдаса
мадинаялде
мадинаялъул
мадинаялъулаб
мадинаялъулал
мадраса
мадрасабазда
мадрасаби
мадрасаги
мадрасалда
мадрасаялда
мадрасаялде
мадрид
мадугьал
мадугьалал
мадугьаласул
мадугьалзаби
мадугьалзабигун
мадугьалихъ
мадугьалихъаб
мадхан
мадханил
мажагь
мажалис
мажар
мажгит
мажгитазда
мажгитазул
мажгитал
мажгиталда
мажгиталде
мажгиталъе
мажгиталъув
мажгиталъул
мажгитги
мажиду
мажлис
мажлисалда
мажлисалде
мажлисалъ
мажлисалъул
мажлису
мажмуг
мажмугі
мажмугӏ
маз
мазанаев
мазандаран
мазандаранал
мазандараналъул
мазгарул
мазгит
мазгьаб
мазгьабазда
мазгьабалда
мазгьабалъул
мазумжонаббак
мазумкъарануб
мазумтала
мазуров
маи
маида
маидан
маиданалда
маиданалде
маиданалъул
маиданское
маикл
маикоп
маимун
маимуна
маин
маиор
маиотта
маисак
мак
мака
макао
макар
макарии
макед
македо
македон
македонии
македония
македониялъул
македонскии
македонского
макка
маккавеиская
маккагун
маккал
маккаялда
маккаялдаги
маккаялдаса
маккаялде
маккаялъул
маккаялъулаб
макки
макро
макронгун
макрохъизаналъул
макс
максим
максималияб
максимально
максимум
максимумлъулел
максуд
мактаб
мактабазул
мактабалги
маку
макъ
макъаб
макъабго
макъала
макъалабазда
макъалабазул
макъалабазулъ
макъалаби
макъалабиги
макъалаги
макъалаялда
макъалаялъул
макъалоялда
макъамат
макъдис
макъдисалъул
макъсуд
макьасда
макьилъ
макьу
мал
малаи
малаиер
малаизия
малаизиялъул
малаик
малаикас
малаикасдасан
малаикзабада
малаикзабазда
малаикзаби
малалал
малатия
малахия
малахъ
малачилросу
малаялам
мали
малик
маликзабазул
маликил
маликилросу
маликлъи
маликлъиялъул
малла
маллаева
малламух
малламухіамадил
малламухӏамад
маллачиханов
малъ
малъа
малъана
малъараб
малъи
малъизе
малъичіого
малъичӏого
малъиялда
малълъараб
малъула
малъулаан
малъуларо
малъулеб
малъулел
малъун
малыи
малько
мальта
мальтаялъул
малюмат
мамедова
мамкъаб
мамлакатялде
мамуница
ман
манарша
манефонил
манефоница
манзил
манзилалда
манзилалъ
манзилалъул
манзилги
мани
манижал
манил
манифестация
маница
мансииск
мансиискои
мансур
мансурица
мансурович
мант
мантіикъ
мантӏикъ
манчестер
марат
марафоналда
марвалде
марвалъул
марван
марваница
маргарет
маргарита
маргьа
маргьаби
маргьадулал
мардин
мардохеял
марзигат
мари
мариам
марии
марин
марина
маринер
мариние
маринил
мариница
марино
маринович
марио
марица
мария
мариям
марк
марка
марказ
марказазул
марказал
марказалъул
марказги
марказгун
маркази
марказияб
марказиял
марказлъун
марказлъунги
маркаялъул
маркил
марксизма
маркъо
маркӏачӏул
мармар
мармара
мармаралъул
марокко
марр
марс
марсалдехун
марсан
марсель
март
марта
мартабат
марталда
марталдаса
марталдасан
марталде
марталъ
мартин
мартинил
мартынов
мархьо
мархьуялда
марш
маршал
маршалдаса
маршруталда
маршруты
марьям
марям
мас
масала
масд
масдар
масджид
масжеде
масжид
масжиду
масжидул
масихі
масихіиял
масихӏ
маскав
маслах
маслиг
маслихӏат
масперо
маср
масса
массальскии
массаяб
массаял
массаялъул
массив
массовои
мастер
мастерская
масуд
масуди
масумбек
масх
масхадов
масхадова
масхараб
масштаб
масштабазда
масъала
масъалабазул
масъалаби
масъалабиги
масъалалъун
масъалаялъул
мат
матаб
матаздаса
матал
маталъе
маталъул
маталъулаб
матахі
матахӏалги
матвеев
матго
математик
математика
математикаялъул
математическои
матер
матери
материал
материалазул
материалал
материалалъул
материалам
материале
материалияб
материалиял
материалов
материалы
материк
материказда
материкалда
матиница
матлъун
матфеиил
матчи
мать
матье
матіу
мах
махал
махач
махачкала
махачкале
махлукъат
махнешан
махсара
махсараде
махсароде
махсумбек
махул
махх
маххалъул
маххул
маххулнухлул
махшелги
махщалида
махщалилаб
махщалилал
махщел
махщелал
махщелалъе
махі
махіадаги
махіач
махіачхъала
махіачхъалаялда
махіачхъалаялдаса
махіачхъалаялъул
махімуд
махімудги
махімудида
махімудидаги
махімудие
махімудил
махімудица
махірум
махіфуз
махӏ
махӏач
махӏачил
махӏачхъала
махӏачхъалаялда
махӏачхъалаялдаса
махӏачхъалаялдасан
махӏачхъалаялъул
махӏмуд
махӏмудабад
махӏмудги
махӏмудил
махӏмудица
махӏмудицаги
махӏмутӏил
мац
мацеевка
маці
маціаз
маціазда
маціаздаса
маціаздасан
маціазде
маціазе
маціазул
маціазулаб
маціал
маціалги
маціалда
маціалдаги
маціалдаса
маціалдасан
маціалде
маціалдса
маціаллъун
маціалъ
маціалъе
маціалъул
маціалъулаб
маціалъулъ
маціги
мацігун
маціи
мацілъун
маціов
мацӏ
мацӏазда
мацӏаздаса
мацӏаздасан
мацӏазде
мацӏаздеги
мацӏазе
мацӏазул
мацӏал
мацӏалги
мацӏалгун
мацӏалда
мацӏалдаги
мацӏалдаса
мацӏалдасан
мацӏалде
мацӏаллъун
мацӏалъ
мацӏалъги
мацӏалъе
мацӏалъеги
мацӏалъул
мацӏалъулги
мацӏги
мацӏица
мацӏлъун
мацӏц
мач
мачӏада
мачӏадаса
машгъул
машгъуллъун
машгьад
машгьур
машгьураб
машгьураблъун
машгьурав
машгьураи
машгьурал
машгьураллъун
машгьурлъана
машгьурлъарав
машгьурлъарал
машгьурлъи
машгьурлъиялъе
машгьурлъун
машидат
машина
машинабазул
машинадул
машинаялда
машрикъ
машрикъалда
машрикъалъул
машрикъияб
маштоцица
маъарухъ
мая
маялда
маялдаса
маялде
маялъ
маялъул
маян
мвд
мвдялъул
мвф
мгу
мгӏ
мевлют
мег
мегафон
мегебскии
мегеж
мегрел
мегрелазул
мегрелиялъул
мегрельские
мегрельскии
мегрельско
мегрельского
мегъ
мегъалъул
мегьабад
мегьран
мегьрестан
мегіер
мегіералъул
мегӏер
мегӏералда
мегӏералде
мегӏералъул
медалал
медалги
медаль
медве
медведев
медведевас
медведевасул
медзегра
медиа
медиал
медиафаил
медиафаилал
медикалияб
медикиял
медицина
медицинаялъул
медныи
медпункт
медпункталъул
медресе
между
междугороднеи
международная
международнияб
международного
международное
международнои
международные
международныи
международным
международных
меиме
меинандер
мексика
мексикаялда
мексикаялъул
мекъаб
мекъаблъун
мекъе
мекъи
мекъса
мелани
меланхолическиял
мелекан
мелодия
мелъелт
мелъелтіа
мелъелтӏа
мелъелтӏаса
мельтюхов
мем
мемориал
мемуары
мемфис
мемфисалда
мемфисалъул
мендерес
менее
менес
менуджан
мень
меня
мепеи
мера
мераге
мерах
мередианалда
меренд
мери
мериван
меридианалъул
мероэ
мертвые
мертц
мес
месед
меседалъул
меседил
меседилаб
меседу
мескалеро
мескалероял
месопотамиялда
месроп
мессия
мест
места
местиа
местии
местного
местности
место
местоимение
месть
месхетинал
месяц
мета
металлургияб
метатеза
метеорал
метер
метералде
метод
методы
метр
метра
метрада
метразда
метралде
метралъ
метралъул
метраполитанияб
метраялде
метраялъ
метраялъул
метро
метров
метрополии
метрополитен
мех
мехалда
мехалдаги
мехалдаса
мехалдасаго
мехалдасан
мехалде
мехалъ
мехалъги
мехалъго
мехалъул
механика
мехеллат
мехельта
мехико
мехмет
мехтел
мехтулиса
мехтулиялъул
мехъалъ
мецниереба
мечети
мечеть
мешгиншагьр
меяне
ми
миандоаб
миг
миграгь
мигіарсо
мид
мида
мидиял
мидиялъул
мизаж
мизан
микаг
микагӏил
микаилов
микелон
микк
микки
миккил
микро
микронезия
микроорганизмабазул
микрорегиона
микьабилеб
микьго
микьигьориб
микьир
милан
милициялъул
миллат
миллатаз
миллатазда
миллатаздаса
миллатазул
миллатал
миллаталда
миллаталдаса
миллаталдасан
миллаталъе
миллаталъул
миллатлъун
миллатчилъи
миллер
миллиард
миллиардалдаса
миллиардалде
миллион
миллионал
миллионалдаса
миллионалдасаги
миллионалде
миллияб
миллиябгун
миллияв
миллиял
милль
милост
милрад
милютин
мим
мина
минаби
минабиги
минара
минарет
минаялда
минаялъуб
минаялъул
мингечаур
мингечевир
мингрел
мингрельские
мингрельского
минерал
минералаз
минералазул
мини
минималияб
минимум
министер
министерас
министерасдасаги
министерасдасан
министерасул
министерзабаздасаги
министерзабазул
министерзаби
министерлъи
министерлъиялъ
министерлъиялъул
министерлъун
министерства
министерство
министр
министра
министразул
министрасдасан
министрасул
министрлъун
министров
министром
минобороны
минорскии
минорскияс
миноялъул
минск
минска
минскалъул
минувшего
минут
минуталда
минуталдасан
минуталъ
мир
мира
мираж
мире
мирза
мирзалъун
мирзаца
миркалъ
мировая
мирового
мировои
миротворец
мисал
мисалал
мисалале
мисалалъе
мисалияб
мисалиял
мисаллъун
мисир
мискин
мискинаб
мискинав
мискинал
мискинзабазда
мискинлъи
мискинлъиялда
мискинчи
мискискар
миср
мисриялда
мисриялде
мисриялъул
миссионер
мистик
митингал
митрополит
митрополита
митхіат
миф
мифология
мифологиялъул
мифы
михаил
михаилил
михаилович
михаиловна
михахич
михеи
миц
мицӏир
мич
мичӏ
мия
мияб
миякьоб
миякьоса
миякьуб
мкм
млн
млрд
мм
ммад
мн
мнацаканян
мне
мнению
мнения
многие
многим
многих
много
многое
многоязычие
мною
мо
мобильнои
мог
могилевское
могли
могох
могут
могьохъ
могьшагьр
модалияб
модель
модернизация
модификатор
модификациял
модуль
может
можно
можоро
мозамбик
моздок
мои
моисеи
мок
мокъокъал
мокъсохъ
мол
молдавия
молдавскои
молдова
молекулярияб
молодая
молодежь
мольер
монако
монакоялъул
монарх
монархи
монархии
монархия
монархиялъул
монастер
монастералда
монастырь
монблан
монголия
монег
монета
монография
монографиял
монографиялда
моностырь
монреаль
монро
монтана
монтсеррат
монументазда
монументал
моравиялъул
моралияб
мордовия
море
морис
мороженои
морозова
морскои
морфология
морфологияб
морэ
моря
мосавал
моск
москва
москваялда
москваялдаса
москваялде
москваялъул
москве
москвичи
москвы
московская
московскии
московского
московскои
москомархитектура
мосок
мосокӏазул
мосокӏал
мост
мотивал
мох
мохк
мохӏоса
моц
моцалъ
моці
моціазе
моціазул
моціал
моціалда
моціалъ
моціалъул
моціги
моцігун
моціида
моцілъун
моцірол
моцӏ
моцӏазда
моцӏалда
моцӏалъ
моцӏалъул
моцӏидасан
моцӏил
моцӏилан
мочіохъ
мргловани
мровели
мровелица
мск
мтавар
му
мубарак
мубараке
муг
муги
мугурухъ
мугъ
мугъал
мугъалда
мугъверган
мугъги
мугъзада
мугъчіваи
мугъчіваял
мугъчӏваиги
мугь
мугьажирзабаз
мугьажирзабазда
мугьажирзабазул
мугьажирзаби
мугьажирлъиялда
мугьажирлъиялъул
мугьал
мугьгӏан
мугіалим
мугіалимасул
мугіалимзаби
мугіалимлъун
мугірузда
мугіруздасан
мугірузул
мугірузулаб
мугірул
мугірулаб
мугӏалим
мугӏалимзаби
мугӏалимлъун
мугӏжизат
мугӏрузда
мугӏруздасан
мугӏрузде
мугӏрузул
мугӏрузулаб
мугӏрузулги
мугӏрул
мугӏрулаб
муд
мударис
мударислъун
муджагьидзабазул
мудида
мудил
мудица
мудрикат
муж
мужагьид
мужагьидзабаз
мужагьидзабазул
мужадид
мужир
мужтагьид
мужукъаи
муза
музар
музаффарил
музеи
музеилъун
музея
музеялда
музеялъул
музика
музикалияб
музыка
музыкалияб
музыкалиябгун
музыкалиял
музыкальные
музыкальных
музыкант
музыканты
музыкаялъул
муи
муиги
муил
муилги
муица
мук
мукракь
мукъадасаб
мукъадасаблъун
мукъадасав
мукъадасаи
мукъадасал
мукъадасалда
мукъаддасаб
мукъаддасав
мукъаддасаи
мукъсанаб
мукъсанал
мукъсанлъи
мукъулукъалда
мукъулукъалъул
мукіур
мулк
мулла
муллабазул
муллы
мультикультурализм
мультфильм
муминун
мун
мунагь
мунагьаздаса
мунагьал
мунагьлъун
мунги
мунго
муни
муниса
мунициапалиял
муниципалитет
муниципалитета
муниципалитетал
муниципалитеталда
муниципалитеталде
муниципалитеталъул
муниципалитетов
муниципалитеты
муниципалияб
муниципалиял
муниципального
муниципальное
муниципальныи
муниципальным
муниципальных
мунпагӏат
муравьев
мурад
мурада
мурадазда
мурадалги
мурадалда
мурадалде
мурадалъе
мурадалъул
мурадги
мурадгун
мурадие
мурадил
мурадица
мурадияб
мурадлъун
мурат
мурза
мурид
муридзабаз
муридзабазда
муридзабазул
муридзаби
муррат
мурси
муртазаг
муртазагӏалиев
муртазали
муртазг
муртазгіали
муршид
муршидул
муршидун
муса
мусави
мусаев
мусал
мусалав
мусалавги
мусалавил
мусалас
мусаласда
мусаласул
мусалги
мусаххар
мусаясул
мусаясула
мусаясулав
мусаясулас
муслим
муслимат
муслимида
муслимил
муслимица
мусру
муссолини
муссолинида
муссолиние
муссолинил
муссолинихъ
муссолиница
муст
мустапа
мустафа
мустах
мустахіикъав
мустахӏикъаб
мустахӏикъав
мустахӏикъал
мустахӏикълъана
мустіафа
мустӏафа
мустӏафаца
мусульман
мусульмане
мусульманскии
мусульманского
мусульманскои
мусхелишвили
мут
мутаваккиль
мутаг
мутагіилзабиги
мутагӏил
мутагӏилзабаздаса
мутагӏилзабазе
мутагӏилзаби
мутагӏиллъун
муталов
мутітіалиб
мутітіалибил
мутӏигӏаб
мутӏигӏав
мутӏигӏлъана
мутӏигӏлъи
мутӏигӏлъула
муфтии
мух
мухаммад
мухаммада
мухаммадрафи
мухаммед
муханов
мухтар
мухтарасул
мухтасар
муху
мухъ
мухъазги
мухъазда
мухъаздаги
мухъаздаса
мухъазде
мухъазе
мухъазул
мухъазулги
мухъазулгун
мухъал
мухъалгун
мухъалда
мухъалдаги
мухъалдагьоркьосеб
мухъалдаса
мухъалдасан
мухъалде
мухъалъ
мухъалъда
мухъалъул
мухъалъулаб
мухъалъулги
мухъалъулгун
мухъахъ
мухъги
мухъгун
мухъда
мухъил
мухълъун
мухь
мухьдахъ
мухіа
мухіамад
мухіамадгіали
мухіамадил
мухіамадилазул
мухіамадица
мухіамадмирза
мухіамадмирзал
мухіамадов
мухіамадова
мухіамадовас
мухіамадовасул
мухіамадсаигид
мухіамадсалам
мухіамадхан
мухіамадхіажи
мухіамадшафигі
мухіаммад
мухіаммадица
мухіарамур
мухіарамхур
мухіаррам
мухікан
мухіканаб
мухіканаблъун
мухіканал
мухіканго
мухіу
мухӏама
мухӏамад
мухӏамадамин
мухӏамадги
мухӏамадгӏали
мухӏамадида
мухӏамадидаса
мухӏамадие
мухӏамадил
мухӏамадилазул
мухӏамадица
мухӏамадмирза
мухӏамадов
мухӏамадовасул
мухӏамадтӏагьир
мухӏамадхӏажи
мухӏаммад
мухӏаммадгӏалил
мухӏаммадида
мухӏаммадил
мухӏаммадханги
мухӏарамхур
мухӏарамхуралдасан
мухӏкан
мухӏканаб
мухӏканго
муч
мучакиб
мушавара
мущули
муъминат
муъминзабаз
муъминзабазда
муъминзабазул
муъминун
муъминчагіи
муъминчиясе
муърузухъ
мфа
мх
мхаре
мхедрули
мцхета
мчс
мы
мысли
мысль
мьянма
мэдээллиин
мэн
мэр
мэрии
мэрилин
мэрия
мю
мюзикл
мюллер
мюнхен
мюнхеналда
мюнхеналде
мюнхеналъул
мюридас
мюрреи
мяликгулиевич
мӏухӏамад
мәғлүмәт
н
на
набави
набзазул
наби
набирается
наблюдателя
набор
навахоял
навгі
навгіазул
навгӏ
навгӏал
навигация
навин
нагагь
нагагьлъун
нагел
наги
нагорная
нагорно
нагорного
наградами
награжден
награждении
нагью
нагіана
над
надежда
надеждин
наджафабад
наджиб
надир
надирида
надирица
надиршагь
надписи
нажабатги
нажасаб
нажасалдаса
нажд
наждалъул
нажияги
нажмуддин
нажмудин
нажмудинил
нажмудиница
назад
назализация
назвал
назвали
название
названии
названию
названия
назим
назипат
назир
назмаби
назмабиги
назму
назмуялда
назначен
назначении
назначения
называл
наи
наиб
наибасул
наибзабазда
наибзаби
наиблъи
наиблъун
наиболее
наидена
наидено
наидены
наименовании
наин
нак
накаби
накаде
наказания
наказде
накку
наку
накъада
накъишал
накълу
накъшубандияб
накӏкӏикь
накӏкӏил
нал
наличного
наличное
налог
налоговых
налъи
налъул
налъуца
нальчик
нам
намаз
намдар
наме
наместника
намеялда
нами
намибия
намин
намруд
намрур
намус
наоборот
нападение
нападении
напакъа
напечатан
наполеон
наполеонил
наполеоница
напр
например
напс
нарком
нарман
нармер
нармерица
народ
народа
народе
народная
народного
народнои
народностеи
народов
народу
народы
нарт
нартазул
нарталъул
нартгун
нартил
нартул
нас
насаб
насаждают
население
населением
населении
населению
населения
населенные
населенных
насиб
насибалдаса
насилие
насими
насир
насих
наслабазда
наслабазде
наслабазул
наслаби
наследие
наследныи
наслоялъул
наслу
наслуги
наслугун
наслуялда
наслуялдаса
наслуялде
наслуялъ
наслуялъе
наслуялъул
наслуялъухъе
наслѣдная
насрания
насранияб
насранияв
насранияз
насраниязул
насраниял
насрудин
насрудинил
насрудиница
насрудиницаги
нассау
наставление
настоятель
настоящее
насх
насху
наталья
натанз
натижат
нато
натоялъул
натоялъулги
натриялъул
натриялъулги
наук
наука
науканалъул
науках
науке
науки
наум
науч
научно
научного
научное
научнои
научныи
научных
нафакъа
нафс
нах
нахги
нахгин
нахгун
нахичеван
нахль
находились
находился
находится
находки
находятся
находящихся
нахско
нахул
нахулъ
нахъ
нахъа
нахъакавказалда
нахъакавказалъулаб
нахъасан
нахъбакі
нахъбуссинабизе
нахъбуссинабула
нахъбуссинабуна
нахъбуссиналъул
нахъвуссун
нахъвуссуна
нахъг
нахъги
нахъе
нахъеги
нахъего
нахъегіан
нахъехун
нахъецуна
нахъисеб
нахъисел
нахъиял
нахърателал
нахърилълъинилан
нахъруссана
нахъруссиналъул
нахъруссине
нахъруссун
нахъруссуна
нахъсверизабун
нахъч
нахъчівала
нахъчівана
нахъчӏвазе
нахъчӏвала
нахіл
национализм
националистал
националияб
национальная
национально
национального
национальностеи
национальности
национальныи
национальных
нацистаз
нацистазул
нацистияб
нация
начала
началась
начале
начало
начальник
начальника
начальникасул
наш
наша
наших
наялда
наялдаги
наялде
наялъул
наялъулаб
нг
нд
ндан
ндия
ндр
не
неап
небеттави
нева
неверныи
невиим
негативиял
него
недоступная
нее
неждет
нежметтин
независимая
независимое
независимости
независимость
независимых
неи
неизвестные
неитралиял
неитроназул
нек
нека
некоторое
некоторые
некоторых
нексияб
нексиял
некі
некісияб
некісиял
некӏо
некӏсияб
некӏсиял
нелъедаса
нелъер
нем
немец
немецкая
немецкие
немецкии
немецко
немецкого
немецком
немного
немцаз
немцазул
немцев
немцы
ненеитральные
ненец
ненецияб
ненцазул
необходимо
непал
непалалъул
непалалъулги
непатрулированные
непризнанием
непризнанное
непризнаннои
непризнанные
нерабочими
нерваби
несколько
нестан
нет
неф
нефернеферуатен
нефертари
нефертарил
нефти
нефтянои
нехавенд
нечаев
нечаевка
нечарав
нечоге
ни
ниг
нигат
нигер
нигерия
ниги
нигімат
нигӏматал
нид
нидерл
нидерландазул
нидерландал
нидерландов
нидерланды
ние
ниж
ниже
нижегород
нижеда
нижее
нижер
нижеца
нижнее
нижнии
низам
низамал
низамалда
низамалъул
низамги
низами
низар
низовск
низовьях
нии
ник
никарагуа
нико
никобар
николаев
николаевич
николаевича
николаевскии
николаи
николая
николозишвили
никосии
никто
никшагьр
никӏалаи
нил
нилалъул
нилъ
нилъго
нилъеда
нилъедаго
нилъедаса
нилъеде
нилъее
нилъер
нилъерго
нилъехъе
нилъеца
нилъецаго
нилі
ним
нимаз
ними
нина
нино
нины
нир
ниса
ниспосланныи
нису
нифасалда
них
нич
ничіаб
нишапур
ния
ният
ниятазул
нияталдалъун
но
нобелевскои
нобелил
нова
новагорода
новая
новгород
новгородская
новеишая
новеишеи
новембер
новембералда
новицкии
ново
нового
новое
новои
новокаре
новолакскии
новом
новому
новосибирск
новостеи
новости
новостнои
новочеркасск
новшагьр
новые
новыи
новых
ногаискии
нодо
нодоялъул
ножаи
нои
ном
номер
номера
номерал
номерги
номеров
номиналго
номинатив
номинативалда
номинативияб
норатус
норв
норве
норвег
норвегии
норвегия
норвегиялъул
нормализация
норман
нормативныи
носоца
ностратикиял
нотабазул
нохч
нохчиин
нохъо
нохъода
нохъодул
ночи
ночном
ноябир
ноябр
ноябралда
ноябралдаса
ноябралде
ноябралъ
ноябрь
ноября
нп
нравится
нравятся
нститут
нт
нтв
нты
ну
нубиялда
нубиялдаса
нубиялъул
нувас
нуг
нугзар
нугъаи
нугъаязул
нугъаял
нугі
нугілъи
нугӏ
нугӏлъи
нугӏлъун
нуж
нуже
нужеда
нужер
нужерго
нужеца
нужецаги
нужно
нукъуш
нукъущ
нумерациялъул
нунивакалъул
нур
нурабад
нуралде
нурмагомедов
нурмагомедовна
нурмух
нурмухіамад
нурмухӏамадов
нус
нусабилеб
нусазарго
нусал
нусалъе
нусго
нусгоялдаса
нуси
нусидаса
нусил
нусиялда
нусха
нусхури
нух
нуха
нухаз
нухазда
нухаздасан
нухазул
нухал
нухалда
нухалдаса
нухалде
нухалъ
нухалъул
нухбикь
нухги
нухда
нухдаса
нухдасан
нухде
нухи
нухлул
нухмалъи
нухмалъиялда
нухмалъиялде
нухмалъиялъ
нухмалъиялъул
нухмалъулеб
нухмалъулев
нухмалъулевлъун
нухмалъулезул
нухмалъулел
нухрагӏункӏкӏ
нухъа
нухі
нуц
нуцабазул
нуцаби
нуцал
нуцалас
нуцаласул
нуцалзабаздаги
нуцалзабазе
нуцалзабазул
нуцалзаби
нуцалидаса
нуцалие
нуцалил
нуцаллъи
нуцаллъиялда
нуцаллъиялъул
нуцаллъун
нуцалу
нуцалхан
нуцальства
нуцияв
нуцӏа
нуцӏияв
нывуӄаӷмит
ныгмы
ныне
нью
ньяла
нэшнл
нээлттэи
ню
нұрсұлтан
о
оазис
оао
об
обдорская
обе
обег
обеспечение
обеспечения
обзор
обит
обкомалъул
обл
обладает
обладательница
обладающеи
област
областал
областалда
областалдаса
областалде
областалъул
областги
областеи
области
область
областям
областями
облегчения
обломки
облсовет
обода
ободаса
ободияв
ободияс
ободиясда
ободиясе
ободиясул
ободовская
обозначения
обозрение
обокь
оборонаялъул
обороны
обохъ
образ
образа
образал
образование
образовании
образования
образованиям
образованным
образовательные
образом
обращение
обращения
обсерватория
обслуживания
обслуживают
обсуждение
общ
общая
общеи
общероссиискии
обществ
общества
обществе
общественно
общественные
общественныи
общественных
общество
общие
общии
община
общины
общих
объединение
объединения
объект
объектазул
объектал
объекталъул
объективияб
объектлъун
объектов
объекты
объем
объеме
объявили
объявлен
обязанности
ов
ове
овег
овес
овощал
овцеводов
оглы
огни
ого
огоб
огун
огъли
огь
огьориб
огюст
одесса
один
одна
однако
одним
одно
одного
однои
односельчане
одо
одобе
одобег
одове
одое
одолъи
одолъиялъул
одорав
одочиб
ое
ожегов
ожегова
оз
озер
озера
озеро
озимандиас
означает
ои
оик
оил
ок
окато
океа
океан
океана
океаназде
океаналда
океаналдаса
океаналде
океаналъ
океаналъул
океания
океаниялда
океанограф
оккультизм
оккупатинарурал
оккупация
около
окончательных
окрестности
округ
округа
округазда
округал
округалда
округалде
округалъул
округам
округгун
округов
оксид
оксфордалъул
октобер
октобералда
октобералде
октябр
октябралда
октябралдаса
октябралде
октябралъ
октябралъул
октябрь
октябрьское
октябрьскои
октября
окчюн
окьилал
ол
ола
олабго
олалго
олареб
оларел
оларо
олароан
оларого
олбоев
олбокь
олбол
олго
олеб
олев
олевлъун
олел
оливия
олилазул
олилал
олимпиада
олимпиадалъул
олимпиадаялда
олимпиадаялъул
олимпияб
олимпиял
олимпиялъул
олланд
олландица
олма
оло
ололъун
олохъабазда
олохъаби
олохъанаб
олохъанав
олохъантурказул
олохъанчи
олсопица
олъ
олъи
ольга
омавиязул
омало
оман
омар
омара
омеиядов
омидиие
омск
он
она
оналъул
онегин
они
ониги
онлаин
оно
онсоди
онтологияб
оон
ооо
оп
оперативияб
оперативного
оператор
операторы
операции
операцию
операция
операялда
описание
оппозиции
оппозиция
определение
определения
определенныи
определено
оптимизация
опубликовал
опубликовали
опубликована
опустыниванию
опыт
ор
оразаев
оразул
орал
оралда
оралдаса
оралде
оралияб
оралъул
орбиталияб
орган
органазда
органазул
органал
органах
организатор
организации
организация
организациябазги
организациязул
организациялъул
организм
организмазул
организмалъул
органлъун
органов
органы
орден
орденалъул
орденги
орел
оренбург
ориби
оригинала
оригиналияб
оригиналиял
ориент
ориентиралдда
орикс
орит
оркь
орла
орландо
орландоялда
орода
орол
оролиб
оронуб
орораб
оросаролъ
оросоролъ
орот
ортодоксалияб
ортодоксия
ортодоксиял
оружие
орул
орфография
орфографияб
орфографиялда
орфографиялъул
орффил
орффица
орханица
орхъабазда
орхъаби
орхъануб
орхъи
орхъода
орц
орщалил
оса
осан
освобождения
осе
осет
осетии
осетин
осетинал
осетию
осетия
осетиял
осетиялда
осетиялъул
осипов
оскар
оску
осло
осман
османы
основа
основан
основания
основатель
основе
основного
основнои
основном
основные
основных
основы
особенности
особым
оспаривается
оставил
остается
остальные
остан
остана
останазда
останаздаса
останазул
останал
останалда
останалдаса
останалде
останалъул
остангун
остане
осташев
остен
остров
острова
островнои
от
отар
отв
ответ
ответственность
ответственныи
отворени
отворените
отвореног
отд
отдел
отделалъул
отделение
отделения
отель
отечества
отечественная
отечественнои
отечественные
откровение
открыт
открытого
открытых
откуда
откупщиков
отличие
отличник
относится
относят
относятся
отношение
отношении
отношения
отношениях
отображения
отопени
оточ
отправил
отправлении
отраслал
отрасли
отраслял
отроги
отрывок
отряд
отрядалги
отрядалъул
отрядов
отставку
оттава
отто
офира
офис
офисе
офицалияб
офицер
официалго
официалияб
официалиял
официальная
официально
официального
официальнои
официальном
официальныи
официальных
оформления
ох
охолиса
охотники
охцер
охъ
охъа
охъан
оц
оца
оцазул
оцал
оцги
оцебе
оцебесеб
оцебесев
оцеве
оцевесев
оцеесеи
оценка
оценке
оценки
оценочно
оцересел
оцилал
оцода
оцол
оцоса
оч
очерк
очерки
очон
ошибка
ошибки
ошнавиие
ошт
оь
оэс
оян
п
па
паве
павел
павленко
павлил
павлович
павловои
павловскии
пагьд
пагьл
пагьлави
пагьму
пагьмуялъул
падар
падараз
падарал
падеж
падежа
падежазде
падежалги
падежалул
падения
падишагь
падишагьасул
паида
паидаги
паидаяб
паидаял
пакдешт
пакистан
пакистаналда
пакистаналде
пакистаналъул
пакъир
пакъираб
пакъирзаби
палато
палермоялъул
палестина
палестинская
палестинскими
палестинского
палугьан
палх
палыдлы
памяти
памятная
памятник
памятники
памятников
памятные
память
пан
панама
панаяб
панда
пандемия
панз
панкратионаталъул
панорама
панорамы
папа
папал
папирус
пар
парагваи
парадоксы
паракъалъун
паракъат
паралипоменон
параллелияб
параметр
паранг
паранс
парансиялда
парансиялъул
парахалъана
параялда
пардав
пари
париж
парижа
парижалда
парижалдаса
парижалъул
парижалъулаб
париже
паризаяб
паритету
парк
парламент
парламента
парламенталда
парламенталъ
парламенталъул
парламенталъулаб
парламенталъулал
парламентияб
парламентиял
парс
парсабад
парсазда
парсаздаса
парсазул
парсал
парсалда
парсалъул
партиелъул
партизаназ
партизаназул
партии
партииныи
партия
партиябазул
партиязул
партиял
партиялда
партиялдасан
партиялде
партиялъ
партиялъул
партиялъулаб
партиялъулав
партнерство
парту
парфиялъул
парчах
пасалъаби
пасалъиги
пасих
пасихілъиялъул
паспорт
паспорталда
паср
пассажир
пассажиразул
пассажирал
пассажирами
пассажирги
пассажиров
пассат
пастор
пат
патало
патахіилазул
патогениял
патрулированные
патучил
патхӏул
патіимат
патӏима
паулу
пауль
пахрудин
пахьул
пациенс
пач
пача
пачабазул
пачалихъ
пачалихъабазда
пачалихъаз
пачалихъазда
пачалихъаздаса
пачалихъазде
пачалихъазе
пачалихъазул
пачалихъал
пачалихъалгун
пачалихъалда
пачалихъалдаги
пачалихъалдаго
пачалихъалдаса
пачалихъалде
пачалихъаллъун
пачалихъалул
пачалихъалъ
пачалихъалъе
пачалихъалъул
пачалихъалъулаб
пачалихъалъулгун
пачалихъияб
пачалихъияв
пачалихъиял
пачалихълъиялъул
пачалихълъун
пачалъи
пачалъиязда
пачалъиялда
пачалъиялъул
пачахӏалъул
пачаялъ
пачаялъул
пачаяс
пачаясда
пачаясе
пачаясул
паша
пашал
пашан
пашаца
пашаясул
пашманаб
пашманлъи
пашманлъула
пе
певец
певица
педагог
педагогики
педагогикияб
педагогическои
педагогияб
пекин
пекиналда
пектин
пен
пенза
пенсионер
пенсияги
пенсиялда
пенсиялде
пентаграф
пентаграфалъ
пер
первая
первого
первое
первои
первоисточника
первом
первые
первыи
первым
первых
перевалов
переведена
перевел
перевод
перевода
переводе
переводились
переводов
переводом
переводу
переводчик
переводчики
переводы
переворот
переворота
перед
передача
передачаби
передаче
переднеи
переизд
переименовании
перенаправление
перепелкин
переписалда
переписеи
переписи
перепись
перераб
переселены
переход
перехода
перешли
период
периодал
периодалда
периодалъ
периодалъул
перм
пермская
пермь
пером
персазул
персал
персеполис
персия
персиялде
персиялъул
персов
персонажазул
персонажал
персоналияб
персоналиял
персональная
перспективы
персы
перу
песнь
песня
песошин
пет
петербур
петербург
петербурга
петербургалда
петербургалде
петербургалъул
петербурге
петербургскии
петербургского
петербургское
петербургскои
петр
петра
петрарка
петрил
петрович
петровна
петровскии
петроград
петром
печатание
печатать
печати
печенкин
пещера
пигьру
пикрабазда
пикраби
пикрабиги
пикру
пикруги
пикрудал
пикручи
пикруялда
пикруялде
пикруялъул
пикруялъулъ
пил
пилалъул
пилан
пилистіин
пилистіиналъул
пилистӏин
пилот
пилота
пиниин
пинкь
пиотровскии
пир
пирамид
пирамида
пирамидаби
пираншагьр
пиргіавн
пиргіавназул
пиргіавнал
пиргіавнас
пиргіавнасул
пиргіавнил
пиргіавнлъун
пиргіаназул
пиргӏанасул
пири
пиригун
пиринч
пиринчӏалъул
пиринчӏул
пириязухъ
пиружа
пирхарав
писание
писания
писатель
писательница
писателя
писем
письма
письменности
письменность
письменные
письмо
питер
питна
питнаби
пихъ
пихъазул
пихъал
пихъги
пихъил
пихъилгун
пичужонок
пиша
пишабаздаса
пишабаздасан
пишаби
пишаялъе
пишаялъул
пко
плакатал
план
планал
планалда
планалъул
планета
планетабазул
планетаби
планеталъун
планетаялъул
планеты
планирования
плато
платонил
платформ
платформа
платформазы
[...]
