!
"
#
##0
##1
##10
##11
##12
##13
##14
##15
##16
##17
##18
##19
##2
##20
##21
##22
##23
##24
##25
##26
##27
##28
##29
##3
##30
##31
##32
##33
##34
##35
##36
##37
##38
##39
##4
##40
##41
##42
##43
##44
##45
##46
##47
##48
##49
##5
##50
##51
##52
##53
##54
##55
##56
##57
##58
##59
##6
##60
##61
##62
##63
##64
##65
##66
##67
##68
##69
##7
##70
##71
##72
##73
##74
##75
##76
##77
##78
##79
##8
##80
##81
##82
##83
##84
##85
##86
##87
##88
##89
##9
##90
##91
##92
##93
##94
##95
##96
##97
##98
##99
$
%
&
'
(
)
*
+
,
-
.
/
0
00
000
001
0018246
004
01
010
013
015
017532
02
020
025
03
030
04
049
05
055
06
07
073
08
09
1
10
100
1000
1002
1007
1008
101
1016
1017
102
1020
10261
103
1038
104
105
1057
106
107
108
1080
1086
109
1093
1095
11
110
1100
111
1111
112
113
114
115
116
117
1170
1177
118
119
12
120
1200
121
122
123
124
125
126
127
1279
128
129
1292
13
130
1300
131
132
1326
1327
133
134
135
1353
136
137
138
1389
139
14
140
1404
141
1415
142
1423
1425
143
144
145
1453
146
1468
147
148
1485
149
15
150
1500
151
1510
1517
152
1525
153
154
1540
155
1550
156
157
158
1582
159
16
160
1600
1605
1606
161
1613
1616
162
163
164
1646
165
1656
166
1660
1666
1668
167
1674
168
169
17
170
1700
1703
1705
1707
171
1712
1715
172
1723
173
1735
174
1742
1744
175
1750
176
1760
1761
1762
1763
1767
1769
177
1770
1772
1774
178
1780
1784
1785
1787
1788
1789
179
1790
1791
1792
1793
1794
1795
1796
1797
1799
18
180
1800
1801
1802
1804
1805
1806
1807
1809
181
1810
1812
1813
1814
1815
1816
1817
1818
182
1820
1821
1822
1823
1824
1825
1827
1828
1829
183
1830
1831
1832
1833
1834
1835
1836
1837
1839
184
1840
1841
1842
1843
1844
1845
1846
1847
1848
1849
185
1850
1851
1852
1853
1854
1856
1857
1858
1859
186
1860
1861
1862
1863
1864
1865
1866
1867
1868
1869
187
1870
1871
1872
1873
1874
1875
1876
1877
1878
1879
188
1880
1881
1882
1883
1884
1885
1886
1887
1888
1889
189
1890
1891
1892
1893
1894
1895
1896
1897
1898
1899
19
190
1900
1901
1902
1903
1904
1905
1906
1907
1908
1909
191
1910
1911
1912
1913
1914
1915
1916
1917
1918
1919
192
1920
1921
1922
1923
1924
1925
1926
1927
1928
1929
193
1930
1931
1932
1933
1934
1935
1936
1937
1938
1939
194
1940
1941
1942
1943
1944
1945
1946
1947
1948
1949
195
1950
1951
1952
1953
1954
1955
1956
1957
1958
1959
196
1960
1961
1962
1963
1964
1965
1966
1967
1968
1969
197
1970
1971
1972
1973
1974
1975
1976
1977
1978
1979
198
1980
1981
1982
1983
1984
1985
1986
1987
1988
1989
199
1990
1991
1992
1993
1994
1995
1996
1997
1998
1999
2
20
200
2000
2001
2002
2003
2004
2005
2006
20060310231749
2007
2008
2009
201
2010
2011
2012
2013
2014
2015
2016
2017
2018
2019
202
2020
2021
2022
203
2030
204
205
206
207
208
209
21
210
211
212
213
214
215
216
217
218
219
22
220
221
222
223
224
225
226
227
228
229
23
230
2307
231
232
233
234
235
236
237
238
239
24
240
241
242
243
244
244413
245
246
247
248
249
25
250
2500
251
252
253
254
255
256
257
258
259
26
260
261
262
263
264
265
266
267
268
2686
269
27
270
271
272
273
274
275
276
277
278
279
28
280
281
282
283
284
285
286
287
288
289
29
290
2900
291
292
293
294
295
296
297
298
299
3
30
300
3000
301
302
303
304
305
306
307
308
309
31
310
311
312
313
314
315
316
3166
317
318
319
32
320
321
323
324
325
326
327
328
329
33
330
331
332
333
334
335
336
337
338
339
34
340
341
342
343
344
345
346
347
348
349
35
350
351
352
353
354
355
356
357
358
359
36
360
361
362
363
364
365
366
367
368
369
37
370
371
372
373
374
375
376
378
379
38
380
381
382
384
385
386
388
389
39
390
391
393
394
399
4
40
400
4000
401
402
403
4039
404
405
4051
406
407
409
41
411
412
413
415
416
417
42
420
422
423
424
425
43
430
432
434
435
438
44
440
447
448
45
450
451
452
458
46
460
464
465
47
470
471
472
474
478
479
48
480
484
486
488
489
49
491
496
498
5
50
500
5000
502
504
506
507
508
509
51
511
512
513
517
518
52
520
521
525
528
529
53
539
54
540
541
544
55
550
553
554
555
56
560
563
5642
569
57
570
571
576
577
58
580
582
585
59
591
594
59420
595
596
6
60
600
602
603
604
605
607
608
609
61
610
615
618
619
62
622
624
63
630
631
632
634
637
63751
639
64
644
645
65
650
651
65236
653
654
66
661
664
67
670
671
674
678
679
68
680
684
685
688
69
691
696
698
699
7
70
700
7006
702
71
7126
7139
7146
716
7190
72
720
724
728
73
730
733
735
737
74
740
742
7432
745
75
750
751
752
76
765
77
777
78
784
787
79
799
8
80
800
801
8014
8018
8020
8047
805
81
8133
814
815
818
82
8243
825
83
833
84
840
84176
846
85
8501
85120
85270
853
859
86
8601
865
87
878
88
8848
89
890
9
90
900
905
91
912
92
920
926
9268
93
930
94
940
95
9533
96
960
96053
962
964
97
971
977
978
98
98443
985
99
993
998
999
:
;
<
=
>
?
@
[
\
]
^
_
`
a
aa
ab
abacus
abc
abdulaziz
abe
abingdon
about
above
abstract
abu
abubakaraimaki
abydos
ac
academia
academic
academy
acanthus
access
accessdate
accessed
accident
accipiter
according
account
acoustic
act
ad
adam
adams
adaptation
added
additional
administration
administrative
adrian
aesthetics
affairs
afghan
afghanistan
africa
african
after
ag
against
age
agency
ager
ages
ah
ahmad
ahmose
aidan
air
airasia
airbus
aircraft
airlines
airport
airports
airways
ais
aise
al
alan
alastair
albanian
albatros
albert
alcelaphus
alex
alexander
alexis
alfred
ali
alighieri
align
all
allen
alliance
allied
allies
allowed
alpha
alphabet
alpine
alpinus
alps
also
alternative
although
am
amazon
ambassador
america
american
americana
amir
among
amsterdam
an
analysis
anatidae
anatomy
ancient
and
andersen
anderson
andes
andido
andrea
andress
andrew
angeles
angiosperm
angiosperms
anglo
animal
ann
anna
annales
anne
anniversary
annotated
annual
another
anthem
anthony
anthropological
anthropology
anti
antilope
antiquity
antonio
antony
any
apache
apg
apoidea
appoint
approach
approaches
april
ar
arab
arabia
arabic
arbor
archaeology
architecture
archive
archived
archivedate
archives
ardabil
are
area
areas
arefe
arhiv
aristotle
arizona
armed
armenia
armenian
arms
army
arnold
around
arrest
art
arthur
article
articles
arts
as
ashley
asia
asian
aspects
aspx
assalam
associated
association
astronomical
astronomy
at
atlantic
atlas
attack
attempt
au
august
austin
australia
australian
austrian
author
authority
authors
authorship
av
available
avar
avary
aviation
award
axaltsike
ay
az
azarbaijan
azerbaijan
azerbaijani
azerbaijanis
azərbaycan
b
ba
back
bacterial
bad
baker
balkans
ball
baltimore
band
bangla
bangladesh
banks
bar
barbara
barnes
barry
bas
based
basic
basis
bates
battle
battles
bb
bbc
bc
bd
bdeogale
be
became
become
been
before
beginning
behind
being
bel
belgium
bell
ben
bengali
benito
benjamin
benjamins
ber
berg
berghahn
berkeley
berlin
bernard
bernd
best
between
bevo
beyond
bi
bibcode
bible
bibliography
biographical
biographies
biography
biology
birth
bl
black
blackwell
bleu
blica
blog
bloom
bloomsbury
blue
bo
board
body
boeing
bold
bomber
bonaparte
book
books
born
bos
bosnia
boston
bosworth
botanical
both
botulinum
botulism
bovidae
box
br
bradford
brain
brandenburg
brazil
break
brenda
brian
brief
brien
brill
britain
britannica
british
brown
bruce
brunner
brunswick
bu
budapest
bueno
building
bulletin
buntarion
burana
bureau
burridge
business
but
butterworth
by
byzantine
c
ca
cairo
calendar
california
call
called
cambridge
campaign
campaigns
campbell
can
canada
canadensis
canadian
canidae
canis
capital
capo
care
caribbean
carl
carlos
carmina
carolina
cartographic
case
cass
cassell
cat
category
catherine
catholic
caucasian
caucasus
causes
cbo
ccol
cd
cdc
cell
cells
census
center
centers
central
centre
centrul
centuries
century
cephalophus
cervantes
cervicapra
cervidae
ch
challenge
chamber
chambers
change
changed
chapel
chapter
character
characters
charles
charlie
chart
charts
check
chemical
chemistry
chicago
chief
children
china
chinese
chiricahua
chloride
choice
cholera
cholerae
chris
christensen
christian
christianity
christoph
christopher
chronicle
chronology
church
churches
churchill
ci
cia
ciconia
cite
cities
citroe
city
civil
civilization
civilizations
clarendon
clarke
class
classical
classics
classification
clayton
cle
climate
cline
clinical
clio
clive
clostridium
club
cnn
cntd
co
coalition
code
cohen
coins
cold
cole
colin
collection
collections
college
collier
collins
columbia
com
combined
comedy
coming
commerce
commercial
commission
committee
common
commons
commonwealth
communications
communism
communities
community
companion
company
comparative
comparison
compendium
complete
comprehensive
computer
comrie
concepts
conceptual
concise
concolor
conference
conflict
congress
connecticut
connochaetes
connor
conquest
consonants
constable
constitution
constitutional
construction
containing
contains
contemporary
content
context
continent
continents
continuum
contribution
control
convention
cook
cooper
copenhagen
copte
coptic
corbin
core
cornell
coronavirus
corporation
corpus
correspondence
council
countries
country
course
covid
cox
craig
crash
crisis
critical
criticism
critique
cross
crossarchus
crown
crystal
cs
ct
cu
cultural
culture
cuon
cup
curitiba
curlie
current
cygnus
cyprus
cyrillic
czech
d
da
dag
dagestan
daghestan
daily
damaliscus
dangerous
daniel
dans
dante
danube
dar
daryaee
das
data
database
date
datepublished
dates
david
davidson
davies
davis
dawn
day
days
dc
de
dead
deadlink
death
debates
december
deep
defeat
definition
definitions
definitive
del
della
delta
democracy
demographic
demoscope
den
dene
denh
denis
denmark
department
der
des
desan
description
descriptions
design
details
deutsch
deutsche
deutschland
development
di
dialect
dialects
dic
dickinson
dictator
dictatorship
dictionaries
dictionary
did
die
died
dies
different
diger
digital
din
diplomacy
diplomatic
director
directory
discovery
discussion
disease
diseases
displaystyle
distribution
district
diversitate
diversity
division
dmoz
do
doc
docs
doctor
document
documentary
documentation
documents
dodson
does
doi
domestic
don
donald
douglas
doyle
dr
drama
du
dual
dubai
duce
duke
duncan
during
dutch
dwyer
dyan
dynastic
dynasty
e
early
earth
east
eastern
eb
ebook
eco
economic
economics
economist
economy
ed
edgar
edinburgh
edited
edition
editions
editor
editors
edmund
eds
edu
education
educational
edward
edwards
egypt
egyptair
egyptian
ei
eight
eighteenth
ein
einaudi
eira
el
electronic
elements
elizabeth
elizabethan
elsevier
elvis
emerald
emirates
empire
empires
empty
en
enciclopedia
encyclopaedia
encyclopedia
encyclopædia
end
england
english
enigma
entering
entry
environment
environmental
epic
epidemiology
er
era
eric
erik
ernest
error
es
espan
essays
est
estimated
estimates
et
etc
ethics
ethiopia
ethnic
ethnicity
ethno
ethnologue
etj
etnocultural
etymological
eu
eudorcas
eurasia
eurasian
europe
european
evans
even
events
everest
evidence
evolution
excerpt
expansion
experience
external
extra
extracts
f
fa
faber
facebook
factbook
facts
failure
fairleigh
fairy
fall
families
family
famous
fasc
fascism
fascist
fatiha
fe
fear
features
february
federal
felice
felidae
fer
ferguson
few
fi
fiction
field
fifth
fighting
figures
files
film
final
finance
find
first
fisher
five
fletcher
flight
flowering
focus
following
food
football
for
forbes
force
foreign
forgotten
forkel
form
format
formation
former
fortuna
found
foundation
four
fourth
fr
franc
france
francis
francisco
frank
franz
fraser
frederick
free
freedom
fremont
french
frequently
friedrich
friends
from
front
frontier
frye
fu
full
function
fund
furet
further
future
g
ga
gagarin
galerella
galictis
game
gardiner
gary
gay
gazella
gazetteer
gdp
ge
gender
general
genes
genetic
genetics
geneva
genocide
geo
geoffrey
geographic
geographical
geography
geology
george
georges
georgia
georgian
geostat
gerald
gerard
gerhard
german
germans
germanwings
germany
geschichte
gi
gif
gilbert
gill
giovanni
gks
global
globalization
glossary
glottolog
gmbh
go
god
goethe
golden
gomez
good
google
gordon
got
gov
government
governor
graham
grajetzki
grammaire
grammar
grammatical
grammatik
grand
gray
great
greater
greatest
greece
greek
green
greenwood
gregor
gregorian
gregory
grimal
gross
group
groups
grus
gruyter
gu
guardian
guerra
guide
gutenberg
guy
gwich
gypten
gyptischen
h
ha
had
hall
hamada
hamadan
hamedan
hammarstro
han
handbook
hannig
hans
hanson
harald
harcourt
harold
harper
harpercollins
harris
harry
hart
harv
harvard
harvcoltxt
has
haspelmath
have
haven
hayes
haynes
he
head
heads
health
heart
heath
hebdo
hebrew
heidelberg
heinemann
heinrich
hellenistic
henning
henry
her
herbert
here
heritage
hero
herpestes
herzegovina
hi
hieroglyphs
high
hill
hilton
him
himno
hippotragus
his
historia
historian
historians
historic
historical
histories
historiography
history
hitler
hodder
holocaust
holt
home
homer
homeri
hong
hoopa
hopkins
houghton
house
how
howard
however
hrer
htm
html
http
https
hu
hudson
hugh
hughes
hugo
human
hundred
hunt
hutchinson
i
ian
iana
iata
ibn
icao
icon
id
idea
ideas
identity
ideology
if
ig
ignored
ii
iii
ik
il
iliad
iling
illinois
illustrated
illustrations
im
ima
image
images
imberbis
imdb
impact
imperial
important
in
inc
includes
including
incubator
independent
index
india
indian
indiana
indicators
indices
indigenous
indo
ine
infection
infectious
influence
info
infobox
information
inklings
inline
inscriptions
inside
institut
institute
int
intelligence
interactive
interdisciplinary
interest
interfax
internal
international
internet
interpretation
interview
into
introduction
inuit
invalid
inventing
invention
ipa
iprage
ir
iran
iranian
iranica
iranicaonline
iraq
ireland
irish
is
isbn
isis
islam
islamdag
islamic
islamnews
island
iso
israel
issn
issue
ist
istanbul
it
italia
italian
italiana
italic
italy
ithaca
its
itu
iucn
iv
ix
j
ja
jack
jackson
jacques
jae
james
jan
jane
january
japan
japanese
je
jean
jeffrey
jena
jeremy
jersey
jewish
jews
jhu
jo
joan
john
johns
johnson
jonathan
jones
jordan
jose
josef
joseph
joshuaproject
journal
journey
joyce
jpg
jr
jstor
ju
julian
july
june
jupiter
k
ka
kansas
karen
karl
kate
kavkaz
kaye
keith
kelly
kennedy
kenneth
kent
kerman
kershaw
khalid
khorasan
khuzestan
kilimanjaro
killed
king
kingdom
kings
kitchen
klaus
kleiner
km
knopf
know
knowledge
known
knox
ko
kob
kobus
kong
koptische
kortmann
kosack
kremlin
ku
kultur
kurdish
l
la
ladefoged
lak
lake
land
lane
lang
language
languages
langue
langues
large
largest
larry
las
last
late
later
latin
latrans
laura
laurence
law
lawrence
le
league
lear
learner
learning
lebanon
lee
lefebvre
legal
legend
leiden
leipzig
lena
length
lenin
lenta
leo
leopardus
leptailurus
les
leslie
lessons
letter
letters
leuven
lewis
lexical
lexico
lexicon
lexikon
lexington
lez
li
liberal
liberty
librairie
libraries
library
librivox
license
liddell
life
light
limited
limits
line
lingua
linguarium
linguistic
linguistica
linguistics
link
links
list
listen
listing
lists
literary
literature
litte
little
littlefield
live
lives
living
livius
lkerung
ller
lloyd
lo
loan
local
location
london
long
longman
loprieno
lord
lorestan
los
lost
louis
love
lower
ltd
lu
lua
lufthansa
lupus
lv
lynn
lynx
m
ma
macedonia
machine
macmillan
maddieson
made
madoqua
magazine
mahfouz
mail
main
maint
mainz
majesty
major
make
making
malaysia
malcolm
malden
man
management
manchester
manitoba
manual
manuscripts
manutd
many
map
mapping
maps
marc
march
margaret
maria
marie
maritime
mark
markup
marshall
martes
martin
mary
mass
massachusetts
material
materials
mathsf
matters
matthew
max
may
mazama
mazandaran
mcphee
md
me
mean
meaning
measurement
media
medical
medicine
medieval
mediterranean
mees
member
members
memorial
memory
merriam
mescalero
mesquita
mesthrie
metropolitan
meyer
mi
michael
michal
michigan
microbiology
middle
mifflin
miguel
military
millennium
million
mineral
mineralogical
mineralogist
mineralogy
minerals
minister
ministers
ministry
minneapolis
minnesota
minorities
minority
mir
missing
mission
mit
mitchell
mn
mobile
model
modern
modernity
modifier
mohammad
molecular
molie
monarch
monarchy
monde
monetary
money
months
monuments
more
morphology
morris
morrow
moscow
most
mother
mount
mountain
mountains
mouton
movement
mp
mu
multiple
munich
murray
museum
music
muslim
muslims
mussolini
must
mustelidae
my
mycteria
myth
mythology
myths
myx
n
na
nabokov
nach
nacional
nacl
naguib
name
named
names
napoleon
napoleonic
narod
nasa
nation
national
nationalism
nations
native
natural
nature
naval
navbox
navy
nazi
nazis
nb
ncbi
nchen
nd
ne
near
neil
nelson
neotragus
net
netherlands
network
new
news
newsru
newton
ni
niall
nicholas
nicolas
nicolson
nil
nile
nina
nineteenth
nj
no
nog
non
nord
norman
north
northern
norton
not
notes
novel
november
now
ns
nu
number
numbers
ny
o
object
observatory
occupied
oclc
october
odyssey
oed
of
office
official
og
ogden
ogg
oh
ohio
oil
ois
oklahoma
ol
old
omniglot
on
one
online
only
open
or
oral
order
org
organisation
organization
orient
oriental
origin
original
originally
origins
oryx
os
osmrelation
osprey
other
ottoman
ou
oup
our
ourebi
ourebia
out
over
overseas
overview
overy
owen
own
oxford
p
pa
pacific
page
pages
pakistan
palestine
palgrave
palmer
pandemic
paper
paperback
papers
parameter
pardalis
paris
park
parker
parliament
part
parthian
parts
party
passed
past
patricia
patrick
paul
pay
pdf
pe
peace
peeters
pegasus
penguin
pennsylvania
pentru
people
peoples
per
percent
performance
period
permanent
perry
perseus
persia
persian
personal
perspective
perspectives
pestis
peter
pharaoh
pharaohs
pharaonen
philadelphia
philip
philosophy
phoenix
phonetic
phonetics
phonology
photos
php
phylogeny
physical
physics
physiology
pi
pictures
pierre
pimlico
pl
place
plague
plan
planck
planet
plant
plants
play
plays
plus
pm
pmid
png
pocket
poems
poet
poetry
point
poland
police
policy
polish
political
politics
polity
pop
popular
population
populus
portal
portrait
portraits
position
post
postwar
potter
power
powers
pp
pr
practice
praeger
pre
predynastic
premier
present
president
presley
press
prevention
price
primary
prime
prince
princeton
principles
printed
prisoners
problem
problems
proc
procapra
proceedings
processing
profile
programme
project
pronunciation
propaganda
proposal
protection
proto
province
provinces
psychology
pt
pub
public
publication
publications
published
publisher
publishers
publishing
puma
putnam
q
qom
quarterly
que
queen
queens
question
questions
quixote
qur
quranacademy
r
ra
radio
rajend
ralf
ramesses
ran
randolph
random
rank
ranked
raphicerus
rare
rawdata
raymond
rayonu
razavi
rd
re
read
reader
reading
real
realm
reassessment
recent
reconsidered
reconstruction
record
records
red
redford
redirect
redunca
ref
reference
references
reflections
reform
regime
region
regional
regions
regiony
registration
reich
reign
related
relations
religion
religions
religious
renzo
report
reports
reprint
repu
republic
required
research
reserve
resistance
resource
resources
results
resurse
retrieved
rev
review
reviewed
reviews
revised
revolution
revolutionary
revolutions
reynolds
rhine
rhodes
ri
ria
rice
rich
richard
rightarrow
rights
rise
river
rivers
riyadh
rk
rkiye
rm
ro
road
robert
roberts
robin
rock
rocky
roger
rogers
roland
role
rom
roma
roman
romance
romania
rome
ronald
roosevelt
roots
rose
rosen
routledge
row
rowman
roy
royal
rsi
rt
rterbuch
ru
rufus
rule
rulers
russia
russian
ruth
s
sa
safety
sage
sahidic
sahtu
said
salt
sam
sample
samuel
san
santa
sarah
sarir
sasanian
sasanians
sassanian
sassanians
sassanid
satellite
saudi
save
sayisi
says
sayı
schneider
schoenbaum
scholar
scholarly
scholars
school
schools
schuster
science
sciences
scott
screen
scribner
script
scripts
scriptus
se
sea
search
second
secret
section
security
see
selected
selection
selena
semitic
sen
sep
separated
september
series
serval
service
services
seven
seventh
several
sg
shadow
shaffer
shakespeare
shapiro
shared
sharpe
shaw
shia
shinzo
shooting
short
should
shown
shows
si
side
sign
signs
silver
simon
simons
simum
sinai
sinaitic
since
singapore
sir
sistan
sister
site
six
sixth
size
sky
slavery
small
smith
snow
snyder
so
social
socialism
socialist
societies
society
solar
some
son
song
sons
soul
sound
sounds
source
sources
south
southern
soviet
sp
space
spain
spanish
speaking
special
species
speech
spencer
sphere
spiegel
spoken
sport
sports
spp
sprache
springer
ss
sseldorf
st
stage
stalin
stanbul
standard
standardebooks
standards
stanford
stanley
start
stat
state
states
statistical
statistics
statistik
stato
statoids
statue
status
stefan
steiner
stephen
steven
stevens
stevenson
stewart
still
stone
stories
story
stoughton
strategic
strategy
strepsiceros
strong
structure
struggle
stuart
stub
students
studies
study
style
styles
su
subject
subjects
subtitle
succession
such
suggested
suicide
sumerian
summary
summer
sun
sung
sunni
suny
sur
survey
survival
susan
suzanne
swadesh
switzerland
syllable
syllables
symbol
symbols
syntax
syria
system
systems
t
ta
table
tag
tajiks
tales
taliban
tass
tat
taurinus
tauris
taurotragus
taxonbar
taylor
tb
tbilisi
te
technology
tehran
teil
telegraph
template
temple
temples
ten
term
terms
terra
territories
terror
terry
testament
texas
text
texts
th
thames
than
that
the
theatre
their
them
then
theory
there
these
thesis
they
third
this
thomas
thompson
thomson
thornton
thought
three
thrones
through
ti
tiflis
tigrinus
tim
time
timeline
times
timothy
title
titus
tkr
to
today
together
tolkien
tom
top
topic
topics
torino
toronto
total
touraj
tourist
tours
toward
towards
town
tr
trade
tradition
tragedy
tragelaphus
train
trans
transactions
transformation
transition
translated
translation
translations
travel
treatment
treaty
triumph
trust
truth
ts
ttingen
ttt
tu
tucker
tulcea
turkey
turkic
turkish
turned
tv
twentieth
twenty
twitter
two
tyldesley
type
types
u
ua
uae
uaeinteract
ucs
uk
umberto
un
und
under
understanding
unesco
unicode
union
unit
united
univ
universal
universities
university
unknown
unrecognized
unwin
up
upper
upton
ur
urban
url
ursus
us
usa
use
used
user
ushmm
using
utc
utd
uzbekistan
v
va
valley
value
values
van
varieties
various
vatican
vc
ve
verhoeven
verlag
version
very
vi
via
vibrio
victims
victor
victoria
victory
video
vienna
view
views
vii
viii
viking
village
vincent
vintage
violence
virginia
visual
vita
vladimir
vocabulary
vol
volga
vols
volume
volumes
von
vowel
vowels
vs
w
wa
wadsworth
walker
wall
wallace
walter
war
warfare
wars
was
washington
water
waterloo
watson
way
wayback
we
web
webarchive
website
webster
weekly
weidenfeld
well
wells
welt
wente
were
werner
west
western
westport
westview
what
when
where
which
while
white
who
why
wiedii
wiesbaden
wiki
wikidata
wikimedia
wikipedia
wikipedias
wikiquote
wikisource
wikivoyage
wiktionary
wild
wiley
wilkinson
will
william
williams
williamson
wilson
wins
winston
winter
with
within
without
wo
wolf
wolfgang
wolfram
women
won
wood
word
words
work
working
works
workshop
world
worldwide
worst
would
wp
wright
writer
writers
writing
writings
written
www
x
xi
xii
xiii
xiv
xix
xls
xlsx
xv
xvi
xvii
xviii
xx
xxi
xxiv
xxv
xxviii
xxx
y
ya
yah
yale
ye
year
yearbook
years
yersinia
york
you
young
your
youtube
yu
yuri
z
za
zabern
ze
zealand
zone
zones
zu
zum
zur
{
|
}
~
£
¦
§
©
«
­
®
°
²
³
´
·
»
×
æ
ø
ħ
ı
łobez
œ
ɐ
ɑ
ɒ
ɔ
ɘ
ə
ɛ
ɜ
ɞ
ɡ
ɤ
ɨ
ɪ
ɫ
ɬ
ɯ
ɱ
ɵ
ɶ
ɹ
ɾ
ʁ
ʃ
ʉ
ʊ
ʋ
ʌ
ʏ
ʒ
ʔ
ʔa
ʔi
ʕ
ʰ
ʲ
ʷ
ʻ
ʼ
ʾ
ʿ
ˈ
ˌ
ː
ːʼ
ːʼʷ
˛
ˤ
̀
́
̂
̃
̄
̆
̇
̈
̊
̌
̍
̓
̔
̝
̞
̟
̠
̣
̥
̦
̧
̨
̩
̯
̲
̽
͂
͡
α
β
γ
ε
θ
ι
μ
ο
ρ
ς
φ
φυ
χ
ω
ϲ
а
аб
абадияб
абазда
абаздасан
абазде
абазин
абазул
абакаров
абараб
абас
абасул
аббас
абдул
абдулат
абдулатипов
абдурах
абдурахман
абе
аби
абиб
абиг
абиги
абидосалъул
абизе
абилеб
абилев
абилел
аблатив
аблаут
абруптивияб
абсолютияб
абсолютиял
абу
абубакар
абубакарил
абубакр
абуге
абул
абула
абулаан
абулаанила
абулаго
абуларо
абулеб
абулев
абулел
абулмуслим
абумуслим
абун
абуна
абунги
абуни
абураб
абурабила
абурав
абураи
абурал
абухъе
абухъего
абхаз
абхазал
абхазия
ав
ава
авал
авалал
авалалда
авалалъул
авар
авараг
аварагас
аварагасда
аварагасде
аварагасул
аварагасулги
аварагги
аварагзабазул
аварагзаби
авараз
аваразда
аваразул
аварал
аваргіорул
аваргӏоралъул
аварии
аваристан
аваристаналда
аваристаналъул
авария
авариялда
авариялъул
аварскии
аварского
аварское
аварском
аварцев
аварцы
аваф
авах
август
августа
августалда
августалде
августалъ
авиа
авиакомпания
авиакомпаниялъ
авиакомпаниялъул
авиалаи
авиациялъул
авлахъ
авлахъалда
австралия
австралиялда
австрии
австрия
австриягин
австриялъул
авт
автомат
автомобилияб
автономия
автономияб
автономиял
автономнои
автор
авторазул
авторас
авторасул
автореф
авторлъун
аг
ага
агараб
агарал
агвали
агенс
агентство
аги
аго
агъа
агъвали
агъвалиялдасан
агъул
агъулал
агьлуги
агьлулъи
агьлулъиялъул
ад
ада
адаб
адабияб
адабиял
адабият
адабияталда
адабияталъе
адабияталъул
адабияталъулаб
адав
адагьаб
адал
адам
адамаз
адамазда
адамазе
адамазул
адамал
адамасул
адан
адат
адатияб
адатиял
адго
аде
адег
адеги
адехун
адиг
адигъ
адигъистан
адин
адис
адисалда
адм
административияб
административиябгин
административиябгун
административиял
административиялгин
административная
административно
администрации
администрация
администрациялда
администрациялъ
администрациялъул
адрес
адресов
адур
адыгеи
адыгея
ажаибаб
ажаибго
ажалъи
ажам
ажат
ажи
ажиев
ажил
ажица
ажияв
ажияс
ажиясул
аз
аза
азар
азараб
азаралда
азарбижан
азарбижанал
азарбижаналда
азарбижаналъул
азарбижаналъулгун
азарго
азарсон
азарсоналъул
азарсонил
азархана
азбар
азбаралда
азд
азда
аздаги
азде
азе
азербаи
азиз
азии
азим
азия
азиялда
азиялдаги
азиялде
азиялъул
азиялъулги
азрго
азул
аи
ак
акад
академии
академик
академия
академиялъул
акант
акбар
акнада
акт
актал
акте
актив
актриса
акушинскии
акъ
акъаб
акъалъулъ
акъго
акъикъат
акъикъаталда
акъикъияб
акълу
акъсса
ал
ала
алаб
алазан
алазаналъул
алазул
алал
алалда
алалъ
алана
аларал
алат
алатазул
алатал
албан
албания
албаниялъул
алвани
алг
алги
алгонкинал
алгоритм
алда
алдаса
алдасан
алде
александр
александра
александров
александрова
алексеев
алексеи
алетеи
алжан
алжаналъул
алжир
али
алиб
алиги
алиго
алида
алиде
алиев
алиева
ализе
алил
алим
алимзабаз
алимзабазул
алимзаби
алимзабиги
алимчи
алимчияс
алимчиясул
алип
алипалда
алипба
алипбаязда
алипбаял
алипбаялда
алипбаялде
алипбаялъул
алиф
алих
алиханов
алк
алла
аллагь
аллагьас
аллагьасда
аллагьасдаса
аллагьасде
аллагьасе
аллагьасул
аллагьги
аллагьу
аллатив
алмания
алманиялъул
алт
алтаи
алун
алфавит
алфавиталъул
алх
алъ
алъаи
алъе
алъи
алъул
алъула
алъун
аль
альберт
альбом
альвеолярияб
аляскаялда
ам
амад
амадил
амадица
амадов
амадх
амал
амалросу
аман
амг
аменхіотеп
америка
америкалъул
американ
американав
американазул
американияв
американияи
американскии
америкаялда
америкаялъул
амзат
амзатица
амизе
амин
аминат
амир
амирх
амит
амма
аммаб
аммад
аммадг
аммадил
аммал
амрабазул
амру
амруялда
амруялдалъун
амстердам
амун
амуна
ан
ана
анаб
анав
аналда
аналде
анализ
анапилросу
анасеб
анатолии
анатомия
анатомиялъул
анбия
англ
англии
англия
англиялъул
анго
ангола
ангъидаса
андал
анди
андии
андорра
андреевич
андреи
андрея
андуник
ани
аниб
аниги
анила
анилан
анин
анинги
анияб
анк
анкара
анкараялда
анклав
анклавлъун
анкь
анкьабилеб
анкьалъ
анкьго
анкьида
анкьил
анкьнусго
анлъабилеб
анлъго
анлъун
анлӏабилеб
анлӏго
анна
ансалтіа
ансалтӏа
ант
анталия
антилопа
антон
ану
анц
анцухъ
анціабилеб
анціго
анціила
анцісон
анцісоналъул
анцӏ
анцӏго
анцӏила
анцӏсоналъул
анч
ао
ап
апанди
апандил
апачеял
апостол
апрел
апрелалда
апрелалдаса
апрелалъ
апрель
апреля
април
априлалда
априлалдаса
апшерон
ар
араб
арабазул
арабиялъул
арав
аравии
аравия
арагва
арада
аразул
араи
аракат
аракатчи
араки
аракъи
арал
аралги
аралда
аралдаса
аралъул
арат
арац
аргентина
арги
аргъвани
арда
ардабил
ари
арикъаталъул
аристотелица
ариф
арк
армении
армения
армии
армия
армиялда
армиялде
армиялъ
армиялъул
армян
арода
арп
арпал
арт
арте
артикуляция
артикуляциялъул
артист
артистка
артур
арул
арулав
арулаз
арулазда
арулазе
арулазул
арулал
арун
арухъ
археологии
археология
археологияб
археологиял
археологиялъул
архив
архивалъул
архивация
архивированная
архивныи
архитектор
архитектура
архитектураялъул
архитектуриял
арц
арцул
арчи
ас
аса
асаги
асад
асадил
асан
асанил
асар
асаразда
асаразул
асарал
асаралги
асаралда
асаралъул
асарги
асарлъун
асасазда
асил
асилалда
асир
асияб
аск
аскар
аскараз
аскаразда
аскаразул
аскарал
аскаралде
аскаралъ
аскаралъул
аскарги
аскаргун
аскоб
аскіоб
аскіор
аскӏоб
аскӏобе
аскӏов
аскӏор
асл
аслан
аслияб
аслиял
аслу
аслулъун
аслуялда
аслуялдаса
аслуялде
аслуялъул
аслуялъулъ
асомтаврули
аспирант
асрабазда
асруялда
асруялъул
ассимиляция
ассоциация
асср
ассралда
ассралъул
аст
астана
астрахан
астрель
астроном
астрономия
астрофизика
асх
ат
атабаскал
атаев
атазул
атал
атала
аталда
аталде
аталъ
аталъул
ататюрк
атги
атлантикияб
атлас
атомияб
атрибут
атта
аті
аул
афанди
афганистана
афгъанистан
афгъанистаналда
афгъанистаналъул
африка
африкаялда
африкаялъул
аффриката
аффрикаталъул
ах
ахал
ахалсихъ
ахаманишазул
ахвах
ахенатенил
ахир
ахираб
ахирал
ахиралда
ахиралдаса
ахиралде
ахираталда
ахирги
ахирисеб
ахирисев
ахирисел
ахирияб
ахирлъун
ахтиб
ахульго
аххаде
аххакь
аххалъукь
ахьазда
ахьазул
ахьал
ахьаллъи
ахьалчи
ахімад
ахімос
ахімосил
ахімосица
ахіулгохі
ахіулеб
ахіулев
ахіун
ахӏана
ахӏваз
ахӏвал
ахӏи
ахӏизе
ахӏичӏого
ахӏмад
ахӏмадил
ахӏмадкъади
ахӏмаднаби
ахӏмаднабица
ахӏмосил
ахӏула
ахӏулеб
ахӏун
аца
ацш
ацшялъул
ач
ачхъала
аш
ашвадо
ашхабад
ашшур
аэродром
аэропорт
аэропорталда
аэропорталдаса
аэропорталдасан
аэропорталъе
аэропорталъул
аэропортлъун
аюб
аязда
аязул
аял
аялда
аялде
аят
аятал
б
ба
баб
баба
бабаюрт
бабаюрталдасан
бабаюртовскии
баг
баге
багъа
багъарараб
багъари
багъариялъул
багъдад
багьа
багьадур
багіараб
багіарараб
багӏар
багӏараб
багӏарал
бадруялъул
бажари
бажарулеб
база
базар
базаралъул
базе
базеги
баи
бак
бакиханов
баккана
баккараб
бакки
баккун
бакр
бактериял
баку
бакъ
бакъалда
бакъалъул
бакъан
бакъбаккуда
бакъбаккудаса
бакъбаккудасан
бакъбаккудехун
бакъбаккул
бакъваи
бакъвараб
бакъги
бакъда
бакъдал
бакъдасеб
бакъдасебгун
бакълъул
бакълъухъ
бакът
бакътіерхьуда
бакътіерхьудаса
бакътіерхьудасан
бакътіерхьудехун
бакътіерхьул
бакътӏерхьуда
бакътӏерхьудаса
бакътӏерхьудехун
бакътӏерхьул
бакъул
бакъулъ
бакь
бакьаи
бакьулъ
бакьулӏ
бакі
бакіазда
бакіазул
бакіал
бакіалда
бакіалде
бакіалъул
бакіалъулаб
бакілъун
бакӏ
бакӏазда
бакӏазул
бакӏал
бакӏалда
бакӏалде
бакӏалъул
бакӏалъулаб
бакӏарун
бакӏги
бакӏлъун
бал
бала
балагь
балагьал
балагьараб
балагье
балагьи
балагьизе
балагьун
балада
балал
балалъ
балалъул
балахьуни
балеб
балел
балкан
балканалъул
балкарал
балкъар
балучал
балучистан
балъ
балъго
балъгояб
балъгоял
балъхъадерил
бан
бана
бандар
бани
банк
банка
банкалъул
бану
бар
бараб
барав
баракат
барбара
барселона
барти
бартольд
бас
баси
басиял
басм
басма
басмаханаялда
басмаялда
басмаялде
басрияб
басриял
бассеи
бат
батаб
батал
батана
батани
батаниги
батараб
бати
батизе
батила
батилин
батич
батула
батуларо
батулеб
батуми
батун
батіа
батіаго
батіалъи
батіи
батіияб
батіиял
батӏа
батӏаго
батӏалъи
батӏалъиги
батӏи
батӏияб
батӏиял
бах
бахана
бахараб
бахине
бахтиария
бахтика
бахтикал
бахтикаца
баху
бахула
бахулеб
бахун
бахуна
бахунаро
бахунеб
бахчун
бахъана
бахъараб
бахъелел
бахъи
бахъизе
бахъила
бахъин
бахъиназул
бахъинал
бахъиналъул
бахъине
бахъиялъул
бахъула
бахъулеб
бахъулел
бахъун
бахъуна
бахъунареб
бахъунаро
бахіарчи
бахіраи
бахӏарчи
бахӏарчилъи
бахӏарчиял
бахӏарчиясул
бац
бацӏ
бацӏада
бацӏица
бацӏцӏадаб
бач
бачана
бачараб
бачари
бачин
бачине
бачун
бачуна
бачунеб
баччизе
баччун
бачіана
бачіараб
бачіеб
бачіин
бачіине
бачіун
бачіуна
бачіунеб
бачӏана
бачӏараб
бачӏин
бачӏун
бачӏуна
бачӏунаро
бачӏунеб
бащадаб
бащадаблъун
бащалъи
бащалъиялда
бащалъуда
бащалъула
бащдаб
баян
баянаб
баяназда
баяназул
баянал
баяналда
баяналъул
баянлъи
баянлъун
бе
бег
бегавул
бегараб
бегьула
бегьулареб
бегьуларо
бегьулеб
бегьулел
бежтіа
бежтӏа
без
безопасности
беи
бек
бекератида
бекун
бекьараб
бекье
бекьилъ
бекьун
беларуси
беларусь
белград
белорусал
белоруссия
белъелда
бельгии
бельгия
бен
бенгал
бенгали
бендер
бенито
бер
беразда
берал
бералда
бербалагьи
берг
бергьана
бергьараб
бергьарав
бергьенлъаби
бергьенлъи
бергьун
бердымухамедов
берзул
берлин
бернар
бертин
берцин
берцинаб
берцинав
берцинаи
берцинал
берцинго
берцинлъи
берцинлъиялъул
бет
бетіер
бетіераб
бетіерав
бетіерасул
бетіерлъи
бетіерлъиялда
бетіерлъун
бетӏ
бетӏер
бетӏераб
бетӏерав
бетӏералда
бетӏерас
бетӏерасул
бетӏерги
бетӏергьан
бетӏергьанчи
бетӏерлъи
бетӏерлъиялда
бетӏерлъуда
бетӏерлъун
бец
бече
бечедаб
бечедал
бечелъи
би
библеи
библии
библиогр
библиотека
библиотекаялда
библиотеке
библию
библия
библиялда
библиялъул
бигь
бигьа
бигьаго
бигьаяб
бидул
бижана
бижараб
бижула
бижулеб
бижун
бизантиялъул
бика
бикаца
бикерманида
бикъун
бикь
бикьана
бикьараб
бикьи
бикьула
бикьулаан
бикьулеб
бикьун
билкан
билъараб
бин
бинт
биографии
биография
биология
бирджанд
бис
бит
битіараб
битіун
битӏ
битӏараб
битӏахъе
битӏун
биххана
биххараб
биххизабун
биххизабуна
биххизе
биххула
биххун
бихьана
бихьараб
бихьарав
бихьаралдаса
бихьи
бихьидал
бихьизаби
бихьизабизе
бихьизабиялъул
бихьизабула
бихьизабулеб
бихьизабулел
бихьизабун
бихьизабуна
бихьизабураб
бихьизе
бихьиназул
бихьинал
бихьинчи
бихьуге
бихьуда
бихьудаса
бихьуде
бихьул
бихьула
бихьуларо
бихьулеб
бихьун
бицана
бицани
бицанихъе
бицараб
бицатаб
бице
бицен
биценазда
биценал
биценалда
бицине
бицун
бицуна
бицунаан
бицунаго
бицунге
бицунеб
бицунев
бицухъе
бич
бича
бичасул
биче
бичизе
бичун
биччазе
биччаи
биччала
биччан
биччана
биччараб
бичічіи
бичічіизабизе
бичічіизабула
бичічіизабулеб
бичічіизабулел
бичӏчӏизе
бичӏчӏула
бищараб
бищизе
бищун
бищунго
бл
ближнего
блика
блок
бо
богдановскии
боги
боголил
богословскии
боджнурд
бодул
божарав
божи
божуге
божунгутіиялъул
бои
бокьани
бокьараб
бокьарав
бокьарал
бокьи
бокьич
бокьула
бокьулеб
бокьулев
бокьун
бол
болгария
болгариялъул
более
болжал
боливия
болмацӏ
болъихъ
болъихъа
болъон
большаков
большая
большевиказ
большевиказул
большинство
большои
борис
бортана
борту
бортун
борхалъи
борхалъиялда
борхалъиялъул
борхалъуда
борхалъудаса
борхана
борхатаб
борхи
борхизе
борхиялъул
борхун
борциналъул
борцун
борцунеб
борьба
борьбы
босана
босани
босараб
босарав
босе
боси
босизе
босн
босния
босуге
босула
босуларо
босулеб
босун
ботсвана
ботулизм
бох
боц
боціи
боцӏи
боцӏул
боязе
боязул
боял
боялги
боялда
боялде
боялъул
бразилия
браи
браницкии
бреи
британ
британия
британиялъул
брокгаузил
брэ
брюссель
бсэ
бугеб
бугебакіал
бугебали
бугеблъун
бугев
бугеи
бугел
бугелъул
бугила
бугилан
бугин
буго
бугоан
бугони
бугониги
бугоян
бугъа
бугьнада
будапешт
будет
буи
бук
букіана
букіаниги
букіанин
букіараб
букіин
букіиналда
букіиналъ
букіиналъул
букіине
букіинчіо
букіун
букіуна
букіунаро
букіунеб
букӏа
букӏаго
букӏана
букӏаниги
букӏанилан
букӏанин
букӏараб
букӏарав
букӏахъинабуна
букӏин
букӏиналъ
букӏиналъе
букӏинги
букӏине
букӏинчӏо
букӏун
букӏуна
букӏунаан
букӏунареб
букӏунаро
букӏунеб
булач
бунт
буркина
бурса
буртина
буртинаги
буртиял
буртиялъ
буртовои
бусен
буссараб
буссинаби
буссинабизе
буссинабун
буссинабуна
буссун
бусурбабаз
бусурбабаздаги
бусурбабазе
бусурбабазул
бусурбабаца
бусурбаби
бусурбан
бусурман
бусурманав
бусурманал
бусурманчи
бут
бутан
бутіа
бутіабаз
бутіабазда
бутіабазул
бутіаби
бутіалъун
бутіаялда
бутіаялде
бутіаялъул
бутірузул
бутірул
бутӏа
бутӏабазул
бутӏаби
бутӏаккун
бутӏалъун
бутӏаялда
бутӏаялдаса
бутӏаялде
бутӏаялъул
бутӏрузул
бутӏрул
бух
бухари
бухт
бухьараб
бухьен
бухьеназул
бухьенал
бухӏи
бухӏун
буц
буцӏра
бушер
бушнев
буюралдалъун
буюрухъ
бч
был
была
были
было
быть
бюро
в
ва
вабаъ
ваби
ваг
вагӏза
вадуд
вазе
вазир
ваи
вакил
вакиласул
вакилзабаз
вакилзабазул
вакилзаби
вакиллъи
вакиллъун
вал
вала
валагье
валагьун
валерии
вали
валовои
валюта
ван
вана
ваназда
ваназул
ванал
вар
варал
вариант
вариантал
вас
васал
васас
васасда
васасе
васасул
васги
васиг
васигат
василии
васильев
васият
васлъун
ват
ватана
ватани
вати
ватизе
ватикан
ватула
ватӏан
ватӏаналде
ватӏанияб
вах
вахарав
вахчун
вахъана
вахъине
вахъун
вахъуна
вахӏшияб
вахӏью
вац
вацазул
вацал
вацас
вацасул
вацг
вацлъи
вач
вачана
вачун
вачіана
вачіарав
вачіуна
вачӏана
вачӏарав
вачӏун
вачӏуна
вв
введение
ввс
ве
веб
ведено
ведомости
веи
век
века
веках
веке
веков
великая
великии
великих
великого
великои
венгрия
венесуэла
вера
версии
версия
версиялда
вертоле
верхне
верховного
вести
вестник
весь
ветхии
ветхого
вехь
веч
вече
взгляд
взятии
ви
вид
видео
вики
викигъамас
викигъамасалда
викикъамусалда
викимактаб
викимедиа
викимедиалъул
википе
википедии
википедия
википедиязул
википедиялда
википедиялъул
викицитатаялда
виктор
вилаи
вилаят
вилаяталда
вилаяталде
вилаяталъул
вилгьелм
виноградова
високоснияб
високосниял
вит
витӏана
витӏула
вихьизавун
вице
вищана
вищарав
вищула
вищулаан
включая
владению
влади
владикавказ
владимир
владимира
владимирович
власти
власть
влияние
вместе
внесении
внуково
во
вод
водки
водные
воды
воениздат
военная
военно
военное
военнои
военныи
военных
возникновение
вои
волжскии
волк
вообще
вопрос
вопросу
вопросы
воронеж
воронова
воспоминания
восстание
восстания
вост
восток
востока
востоке
востоковедения
восточная
восточного
восточнои
восточныи
восточных
вотум
впервые
впн
време
времена
времени
время
вс
все
всего
всем
всемирная
всеобщая
всероссии
всесоюзная
всесоюзнои
всесоюзных
всех
вступ
вся
вторая
второго
второи
вугеб
вугев
вугел
вугилан
вугин
вуго
вугони
вугониги
вугоян
вук
вукъула
вукъун
вукіана
вукіарав
вукіин
вукіун
вукіуна
вукӏа
вукӏаго
вукӏана
вукӏанин
вукӏарав
вукӏин
вукӏине
вукӏун
вукӏуна
вуссана
вуссун
вуссуна
вып
выпуск
высота
высоты
высшая
вышла
вьетнам
г
га
габур
гагарин
гагарина
гаджиев
гаджиева
гажукь
газ
газал
газалъул
газель
газета
газетаздаги
газеталъул
гаи
гама
гамач
гамачі
гамачӏ
гамзат
гамзатов
гамида
гамущ
ганч
ганчіида
ганчіил
ганчӏида
ганчӏил
гара
гарагал
гвангъараб
гвардия
гватемала
гвенд
гвинея
гг
где
ге
геи
гел
гелбахъ
ген
гендерил
генерал
генетив
генетика
генетикияб
гени
геннадии
генрих
генуб
генуса
географии
географические
географических
географического
географическое
география
географияб
географиял
географиялъул
геокодал
геологиял
георгии
гер
герасимов
герб
герман
германии
германия
германияз
германиязул
германиял
германиялда
германиялъ
германиялъул
герои
гертма
ги
гиб
гибил
гид
гидал
гидалги
гидрологическая
гидрометеоиздат
гикалол
гилан
гилияр
гималаи
гимн
гимна
гимне
гимравии
гимры
гин
гиназ
гиничукь
гиничукьа
гичиногӏоралъул
гия
гл
глава
главная
главного
главным
главы
глагол
глазами
глобалияб
глотталияб
гну
го
год
года
годек
годов
году
годы
гол
голос
гомбори
гондурас
гор
гора
горах
город
города
городам
городе
городов
городским
городских
городского
городскои
горцы
гос
госкомстата
гост
государств
государства
государственная
государственного
государственное
государственнои
государственном
государственные
государственныи
государство
государыня
гох
гочана
гочарал
гочинабун
гочинарун
гочинаруна
гочине
гочун
град
граждан
гражданство
грам
грамм
грамматика
грамматикаялъул
грамматикияб
грамоты
границ
границах
границы
граф
графика
графикияб
грегорианияб
грек
греказ
греказул
грекиялъул
гренландиялъул
греция
грециялда
грециялъул
греческого
григорианияб
григорьев
гризон
грозныи
громыко
грузии
грузинская
грузинскии
грузинскои
групп
группа
группаялъул
группы
губе
губернатор
губерния
гугариялъул
гугарухъан
гудермес
гулестан
гулла
гумберт
гумбет
гуми
гун
гуниб
гунибского
гуреб
гуребги
гурев
гуревги
гурел
гурелги
гурелъул
гурж
гуржи
гуржистан
гуржистаналда
гуржистаналъул
гуржияз
гуржиязул
гуржиял
гуржиялъ
гуржиялъул
гуржиялъулгун
гурин
гуро
гурого
гурони
гурх
гус
гуса
гусеи
густерин
гуц
гучаб
гучалдалъун
гъ
гъадари
гъазават
гъазаваталъул
гъази
гъазимух
гъазимухіамад
гъазимухӏамад
гъазимухӏамадил
гъаи
гъалат
гъалатӏ
гъалбац
гъалбацӏ
гъалгъаи
гъанкъи
гъарабагъ
гъарабагъалъул
гъарабудагъкент
гъаргъадан
гъат
гъаталъул
гъаякент
гъв
гъваридаб
гъваридал
гъваридго
гъведиш
гъвет
гъветі
гъветӏ
гъеду
гъеж
гъерел
гъизилюрт
гъизляр
гъизляралда
гъизляралъул
гъизлярка
гъира
гъираги
гъов
гъодобери
гъодоберисел
гъозултала
гъои
гъолъе
гъоркь
гъоркьа
гъоркьан
гъоркье
гъоркьегіан
гъоркьегӏан
гъоркьехун
гъоркьияб
гъоркьиял
гъоркьо
гъорлъ
гъорлъе
гъорлі
гъорліе
гъорлӏ
гъорлӏе
гъорлӏчилъун
гъугъаб
гъумекдерил
гъумекиб
гъумекиве
гъун
гъуниб
гъуниса
гъунки
гъункун
гъурана
гъурула
гъурущ
гь
гьа
гьаб
гьабе
гьабеян
гьаби
гьабиги
гьабидал
гьабизабизе
гьабизе
гьабизеги
гьабила
гьабич
гьабичіого
гьабичӏеб
гьабичӏо
гьабичӏого
гьабиялда
гьабиялдалъун
гьабиялде
гьабиялъ
гьабиялъе
гьабиялъул
гьабсаг
гьабсагӏат
гьабуге
гьабула
гьабулаан
гьабулаго
гьабуларо
гьабулеб
гьабулев
гьабулевлъун
гьабулезул
гьабулел
гьабун
гьабуна
гьабунги
гьабуни
гьабуниги
гьабунин
гьабураб
гьабурав
гьабураи
гьабурал
гьабуралдаса
гьав
гьава
гьавадул
гьавамухъазул
гьавамухъал
гьаваялда
гьаваялде
гьаваялъул
гьави
гьавидал
гьавизе
гьавиялъул
гьавула
гьавун
гьавуна
гьавураб
гьавураббакі
гьавурав
гьаг
гьадин
гьадинаб
гьадинал
гьадири
гьаи
гьаквари
гьакъоб
гьал
гьале
гьалмагъ
гьамза
гьамищтӏа
гьамущи
гьан
гьанал
гьанже
гьанжеги
гьанжесеб
гьанжесев
гьанжесел
гьанжсеб
гьаниб
гьанибго
гьанир
гьанире
гьарадерихъ
гьарак
гьаракь
гьаракьалде
гьаракьалъе
гьаракьалъул
гьаракіуни
гьаракіуниса
гьаракӏуниса
гьаре
гьари
гьаризе
гьариялда
гьариялъе
гьариялъул
гьаркьазда
гьаркьазе
гьаркьазул
гьаркьал
гьаркьилаб
гьаркьилал
гьарула
гьарулаан
гьаруларо
гьарулеб
гьарулел
гьарун
гьаруна
гьарурал
гьат
гьатіан
гьатӏан
гьатӏаналъул
гьачада
гьаюна
гьаюраи
гьв
гьгь
гьеб
гьебги
гьебго
гьебмехалъ
гьев
гьевги
гьевго
гьедиг
гьедин
гьединаб
гьединабго
гьединал
гьединалго
гьединан
гьединги
гьединго
гьединлъидал
гьез
гьезда
гьездаги
гьездаго
гьездаса
гьездасан
гьезде
гьезие
гьезул
гьезулги
гьезулгун
гьеи
гьекъезе
гьекъолеб
гьекъон
гьел
гьелги
гьелго
гьелгун
гьелда
гьелдаги
гьелдаго
гьелдалъун
гьелдаса
гьелдасаги
гьелдасан
гьелде
гьеле
гьелъ
гьелъие
гьелъул
гьелъухъ
гьен
гьениб
гьенибго
гьенибе
гьенив
гьенивго
гьениве
гьении
гьенир
гьенирго
гьенире
гьениса
гьенисан
гьерек
гьереси
гьерети
гьеретиялъул
гьерои
гьес
гьесги
гьесда
гьесдаго
гьесдаса
гьесде
гьесие
гьесул
гьесулго
гьесулъ
гьесухъе
гьет
гьетіи
гьеч
гьечіеб
гьечіел
гьечіо
гьечіого
гьечіолъи
гьечіолъиялъул
гьечӏеб
гьечӏел
гьечӏин
гьечӏо
гьечӏого
гьечӏолъи
гьечӏони
гьечӏониги
гьи
гьигьалъ
гьигьалъа
гьидалъ
гьидалъа
гьидалӏ
гьидаятил
гьижа
гьижаялде
гьижаялъул
гьижра
гьижраялъул
гьижрияб
гьикъана
гьикъун
гьилиб
гьималаязул
гьималаял
гьинд
гьиндгин
гьиндиб
гьиндустаналъул
гьиристан
гьит
гьитлерил
гьитіинаб
гьитіинго
гьитӏинаб
гьитӏинабго
гьитӏинав
гьитӏинал
гьитӏинго
гьобо
гьобол
гьоболлъи
гьои
гьоко
гьоло
гьолокь
гьонлъоб
гьонода
гьоор
гьоркьо
гьоркьоб
гьоркьобги
гьоркьобе
гьоркьоблъи
гьоркьов
гьоркьолъаби
гьоркьор
гьоркьоре
гьоркьорлъаби
гьоркьоса
гьоркьосеб
гьоркьосел
гьоркьохъеб
гьоркьохъел
гьорчо
гьоц
гьоцӏалӏ
гьоцӏо
гьочоб
гьуд
гьудул
гьудулзаби
гьудуллъи
гьудуллъиялъул
гьужум
гьужумал
гьужумалъул
гьуинлъи
гьукъараб
гьукъун
гьум
гьумбет
гьумер
гьумерал
гьумералда
гьумералдаса
гьумералде
гьумералъул
гьумерги
гьунар
гьунарал
гьунаралъе
гьунаралъул
гьунарги
гьунарияб
гьунарлъаби
гьунарлъи
гьунарлъиялъул
гьунарлъиялъулаб
гьунгариялъул
гьупаязул
гьури
гьурмал
гьухъалиса
гэс
гюнеи
гі
гіабдул
гіабдулагь
гіабдулгіазиз
гіабдуллагь
гіабдурахіман
гіага
гіагараб
гіагарал
гіагарда
гіадаб
гіадал
гіадалло
гіадамаз
гіадамазда
гіадамазе
гіадамазул
гіадамал
гіадамасул
гіадан
гіадатаб
гіадатазул
гіадатал
гіадаталда
гіадатияб
гіадатлъун
гіадин
гіажам
гіазиз
гіазу
гіаи
гіалакъ
гіаламат
гіаламатал
гіаламатлъун
гіали
гіалим
гіалимзабаз
гіалимчи
гіамир
гіаммаб
гіанасеб
гіанди
гіандисезул
гіар
гіараб
гіарабаз
гіарабазул
гіарабал
гіарабия
гіарабиялда
гіарабиялъул
гіарани
гіарац
гіаркьалаби
гіаркьел
гіаркьелалъул
гіарцул
гіасрабазда
гіасрабазул
гіасраби
гіасру
гіасруялда
гіасруялдаса
гіасруялде
гіасруялъ
гіасруялъул
гіатіид
гіатіидаб
гіатіилъи
гіахъуша
гіахьаллъи
гіахьалчи
гіахьалчилъун
гіахьалчияс
гіашилтіа
гіашкъабад
гіебеде
гіеблъи
гіезегіан
гіелмабазул
гіелмияб
гіелму
гіелмуялъул
гіем
гіемер
гіемераб
гіемерал
гіемерго
гіемерисеб
гіемерисел
гіемерлъул
гіид
гіидалъул
гіилла
гіиракъалъул
гіиса
гіисинал
гіиссинал
гіиціго
гіодобе
гіодоцараб
гіоло
гіор
гіоралъул
гіорул
гіорхъаби
гіорхъи
гіорхъода
гіужалда
гіумар
гіумарил
гіумахан
гіумру
гіумруялъул
гіур
гіураб
гіурул
гіурус
гіурусаз
гіурусазул
гіурусал
гіурхъаби
гіурхъи
гіурччинаб
гіусман
гіусманияб
гіусманиязул
гіуціана
гіуціараб
гіуціарал
гіуціи
гіуціизе
гіуціиялда
гіуціиялъул
гіуціула
гіуціулеб
гіуціун
гіуціціана
гіуціціи
гіуціціиялъул
гӏ
гӏабаси
гӏаббас
гӏаббасилги
гӏабдул
гӏабдуллагь
гӏабдурахӏимица
гӏабдурахӏман
гӏага
гӏагараб
гӏагарав
гӏагарал
гӏагарда
гӏагарлъи
гӏагарлъухъ
гӏадаб
гӏадал
гӏадамаз
гӏадамазда
гӏадамазде
гӏадамазе
гӏадамазул
гӏадамал
гӏадамалги
гӏадамасул
гӏадан
гӏадат
гӏадатаб
гӏадатал
гӏадатги
гӏадатияб
гӏадин
гӏадинаб
гӏадинги
гӏадлу
гӏажаибаб
гӏажам
гӏажамалъ
гӏажамалъе
гӏазу
гӏаи
гӏака
гӏакаро
гӏаксалда
гӏакълу
гӏакъуба
гӏала
гӏаламалъул
гӏаламат
гӏаламатал
гӏалгӏаи
гӏали
гӏалиев
гӏалил
гӏалилазул
гӏалим
гӏалимзабаз
гӏалимзабазда
гӏалимзабазул
гӏалимзаби
гӏалимчи
гӏалихӏажияв
гӏалихӏажияс
гӏалхул
гӏамал
гӏамир
гӏаммаб
гӏаммал
гӏаммго
гӏаммлъи
гӏан
гӏанасеб
гӏандал
гӏанди
гӏандиса
гӏанкӏ
гӏанчихъ
гӏар
гӏараб
гӏарабаз
гӏарабазул
гӏарабал
гӏарабистаналъул
гӏарабия
гӏарада
гӏарадаби
гӏарани
гӏарас
гӏарасал
гӏарац
гӏаркьел
гӏаркьухъ
гӏарцул
гӏасрабазда
гӏасрабазул
гӏасраби
гӏасру
гӏасруялда
гӏасруялдаса
гӏасруялде
гӏасруялъ
гӏасруялъул
гӏатӏид
гӏатӏидаб
гӏатӏидал
гӏатӏидго
гӏатӏилъи
гӏатӏилъиялъул
гӏахъуша
гӏахьал
гӏахьалаб
гӏахьаллъи
гӏахьалчи
гӏахьалчияс
гӏахьалчӏи
гӏахьалчӏиса
гӏахьвалазул
гӏахьвалал
гӏахьвахъ
гӏгж
гӏебеде
гӏеблъи
гӏезегӏан
гӏелмабазул
гӏелмияб
гӏелмиял
гӏелму
гӏелмуги
гӏелмуялда
гӏелмуялъе
гӏелмуялъул
гӏем
гӏеме
гӏемер
гӏемераб
гӏемерав
гӏемерал
гӏемерисеб
гӏемерисез
гӏемерисезда
гӏемерисел
гӏемериселъ
гӏемерлъул
гӏеч
гӏи
гӏибадат
гӏиллаги
гӏиллалъун
гӏин
гӏиракъ
гӏириб
гӏиса
гӏисинал
гӏицӏго
гӏиял
гӏиялъажо
гӏобода
гӏободаса
гӏодоб
гӏодобе
гӏодов
гӏодор
гӏодосанго
гӏоло
гӏолохъабазул
гӏолохъанав
гӏор
гӏоразул
гӏорал
гӏоралъул
гӏоротӏа
гӏорхъабазул
гӏорхъаби
гӏорхъи
гӏорхъода
гӏорхъодаса
гӏочӏло
гӏуж
гӏуман
гӏумар
гӏумахан
гӏумру
гӏумруялда
гӏумруялде
гӏумруялъ
гӏумруялъул
гӏун
гӏундул
гӏункӏкӏ
гӏунтӏун
гӏураб
гӏурада
гӏурул
гӏурус
гӏурусаз
гӏурусазул
гӏурусал
гӏурухъ
гӏурхъаби
гӏурхъи
гӏусман
гӏусманияб
гӏусманиязул
гӏуцӏа
гӏуцӏабазул
гӏуцӏалабазул
гӏуцӏана
гӏуцӏараб
гӏуцӏарав
гӏуцӏарал
гӏуцӏи
гӏуцӏизе
гӏуцӏиязда
гӏуцӏиязул
гӏуцӏиял
гӏуцӏиялда
гӏуцӏиялде
гӏуцӏиялъе
гӏуцӏиялъул
гӏуцӏула
гӏуцӏулеб
гӏуцӏун
гӏуцӏцӏи
д
да
давам
давид
давида
давла
давуд
давудил
даг
дагестан
дагестана
дагестане
дагестанская
дагестанские
дагестанскии
дагестанских
дагестанского
дагестанское
дагестанскои
даги
дагстат
дагъбаш
дагъистан
дагъистаналда
дагъистаналдаги
дагъистаналдаго
дагъистаналдаса
дагъистаналде
дагъистаналъул
дагъистаналъулги
дагъистани
дагъистанияб
дагъистанияв
дагъистаниязул
дагъистаниял
дагъустан
дагь
дагьа
дагьаб
дагьабги
дагьабго
дагьав
дагьал
дагьалги
дагьалго
дагьалъ
дагьккун
дагӏба
дагӏватчи
дада
дадаев
даи
даимго
дакъ
дакъалъул
дал
далилал
даммам
дан
даналда
данд
дандбаи
данде
дандеги
дандеккола
дандеккун
данделъи
данделъиялда
данделъиялъул
данделъун
дандеч
дандраязул
дандч
дандчівала
дандчівалеб
дандчӏваи
дандчӏвала
дандчӏвалеб
дандчӏвалел
дания
даниял
даниялил
даниялов
даниялъул
данное
данные
данным
данных
данское
данте
дануб
данухъ
дар
дарада
даража
даражаялда
даражаялде
даражаялъул
дараи
даран
дарг
даргин
даргиназул
даргинал
даргинскии
даргинского
даргиял
дари
дармил
дарс
дарсал
дару
даса
дасср
дассралъул
дат
дата
датировка
дахадаевскии
даци
даял
два
движение
движения
дгу
де
деи
декабр
декабралда
декабралде
декабралъ
декабрь
декабря
декембер
декембералда
дел
дела
деление
деления
дело
деловои
дельта
дементьев
демократия
демократияб
демократиялъул
демоскоп
ден
дена
дене
деникинил
денил
дено
день
департамент
депутат
депутатлъун
депутатов
дербенд
дербендалъул
дербент
деревень
деятель
деятельности
деятельность
дж
джакъели
джана
джанцев
джеи
джексон
джованни
джозеф
джомолунгма
джон
джордж
джузеппе
джума
джумхурият
ди
диалект
диалектал
диалекталда
диаметр
диаспораялъул
дибир
дибирасул
дибирилазул
дибирилросу
дибирлъун
дибиров
дибирхӏажил
диван
диваналъул
диграф
диграфал
диграфалъ
дида
дие
диеги
дизаи
диклосмта
диктатор
диктатура
диктатураби
дилим
дилималдаса
димишкъ
димишкъалда
димишкъалъул
дин
диназул
динал
диналда
диналде
диналъ
диналъул
динамика
династии
динги
динияб
динияв
диниял
динлъун
диплом
дипломат
дипломатия
дипломатиял
дир
дирго
директор
директорлъун
дириже
диссертация
дица
дия
для
дмитриевич
дмитрии
днеи
днц
днцӏ
дня
до
доб
доба
добго
дов
договор
дои
доктор
доктора
документ
документальныи
документах
документы
дол
доллар
долларалде
дом
дома
домен
домодедово
дон
дону
доп
дор
дос
достопримечательности
досье
дохъузпара
доцент
др
драматикияб
драматическияб
драматург
древнего
древнеи
древнем
древние
древнии
древних
древностеи
древняя
другие
другим
других
другои
дружинин
дсср
ду
дубаи
дубаялъул
дуг
дугъри
дугӏа
дуда
дудаго
дуе
дул
дун
дунги
дуниял
дуниялалда
дуниялалъул
дунял
дунялалда
дунялалдаго
дунялалъул
дунялалъулаб
дунялалъулго
дур
дурго
дурусаб
духовнои
дуца
дуцаго
дуче
душанбе
дьяконов
дэвид
дюмезил
дюмезилил
дюмезилица
дюссельдорф
е
еб
еблъи
ев
евангелие
евг
евгении
евич
евразия
евразиялъул
евреи
европа
европалъул
европаялда
европаялдаги
европаялде
европаялъул
европаялъулал
европе
европеи
европияб
европиял
европы
евроцолъиялъул
ег
еги
егип
египет
египеталда
египеталъ
египеталъул
египетскии
египта
египте
египтологаз
египтян
египтяназ
египтяназул
его
ед
единиц
единыи
ее
еж
ежалде
езаби
езабизе
езабилеб
езабула
езабулеб
езабун
езабураб
езе
езег
еи
екатерина
екатеринбург
екатерины
ектазул
ел
елал
елалда
елена
елизавета
елмабазул
елмаби
елмияб
елмиял
елму
елмуги
елмуялда
елмуялъул
емен
емер
емераб
емерал
емерисеб
емерисел
ен
еналда
еналъул
епископов
епископом
ер
ераб
ерав
ерал
ералъул
ерахӏмад
ергьан
ереван
ери
ерлъи
ерлъиялда
ерлъун
ерхьул
ерхьун
ес
если
есть
ефронил
ех
ехь
ехьалда
ехьлъун
еч
еще
еялъул
ж
жаваб
жаваблъун
жаваблъунги
жак
жакъа
жакъаги
жакъасеб
жал
жалазул
жалалудин
жалги
жалго
жалгоги
жамаг
жамагіат
жамагіатал
жамагіаталъул
жамагӏат
жамагӏатал
жамагӏаталде
жамагӏаталъ
жамагӏаталъул
жамалудин
жамг
жамгіияб
жамгіиял
жамгіияталъул
жамгӏияб
жамгӏияв
жамгӏиял
жамгӏият
жамгӏияталъул
жан
жаназа
жани
жаниб
жанибе
жаниблъиялда
жаниблъиялъул
жанив
жаниве
жанир
жанире
жаниса
жанисан
жанисеб
жанисел
жанубалда
жанубалде
жанубалдехул
жанубалдехун
жанубгун
жанубияб
жанубиябгин
жанубиябгун
жахӏпарилазул
же
жеги
жедер
жедерго
жзл
жиб
жибги
жибго
жив
живго
живгоги
живописец
жигар
жигараб
жигарчи
жидда
жиде
жидеда
жидедаго
жидее
жидеего
жидер
жидерго
жидехъе
жидеца
жидецаго
жизат
жизни
жизнь
жии
жинда
жиндаго
жиндалъун
жиндаса
жиндасаго
жиндасан
жинде
жиндего
жиндехун
жиндида
жиндие
жиндиего
жиндилъ
жиндир
жиндирго
жиндихъ
жиндихъе
жиндихъего
жиндица
жинс
жинсалдеги
жинсалъул
жинсияб
жинсиял
жинца
жинцаго
жителеи
жо
жоги
жодоего
жодор
жодорго
жои
жорж
жоялда
жоялдаса
жоялде
жоялъ
жоялъе
жоялъул
жуба
жубазе
жубаи
жубала
жубалеб
жубан
жубана
жубараб
жубаялдалъун
жугь
жугьут
жугьуті
жугьутіал
жугьутӏ
жугьутӏазул
жугьутӏал
жудор
жудорго
жужах
жумада
жумгьурият
жумгьурияталда
жумгьурияталъ
жумгьурияталъул
жумлаялда
жумх
жунубалда
жунубгун
жунубияб
жура
журан
журарал
журнал
журнала
журналазда
журналалда
журналалъул
журналист
з
за
забазда
заби
заведующии
завет
завета
заветалда
заветалъул
завещание
зависимых
завод
заводалъ
заводалъул
заг
загадки
загъалав
загъалас
загъаласул
загьир
загьираб
загьирлъана
загьирлъула
загьруги
заде
заз
заи
заид
закавказье
закаг
закагіат
закам
закат
закатала
закаталаялъул
закаталъе
закатул
закон
закят
зал
заливалъул
зама
заман
замана
заманалда
заманалдаги
заманалдаго
заманалдаса
заманалдасаго
заманалде
заманалъ
заманалъул
заманаялда
заманаялде
заманаялъ
заманаялъул
заманги
замечательных
зани
зао
запада
западного
западнои
западныи
записки
запись
зарал
заралги
зарезервировано
заслуженныи
зах
захіматаб
захӏмат
захӏматаб
захӏматал
захӏматалъул
защита
звезда
зе
зеландия
земель
земле
земли
земля
зигара
зина
зинжан
зирани
зия
зиявудин
зиян
зиярат
зияратал
зм
знак
значения
зоб
зобалазул
золотои
зона
зонаби
зонода
зоя
зул
зулму
зумруд
и
иа
иабилеб
иабилев
иб
ибе
ибил
ибит
ибн
ибну
ибрагьим
ибрагьимил
ибрагьимов
ив
иван
иванил
иванов
иванова
иванович
иве
иг
иги
иго
игорь
игун
игъат
игьали
игіраб
игірабазде
игірабал
игірабалда
ид
ида
идал
идалъул
идара
идарабазул
идараби
идараялъ
идараялъул
идасан
идаялда
идаялъ
идго
иде
идеяби
идил
идица
идрис
идрисил
ие
иерусалим
ижаза
из
изабизе
изабула
изабулеб
изабун
изабуна
изано
изаризе
избербаш
избран
избранные
известия
известныи
изд
издаваемыи
издание
издания
издательство
изе
изменении
изменения
изну
изобретатель
изолят
израиль
израиля
изучения
изученность
ии
иисус
ик
икматаб
икъав
икълим
икълимазда
икълимазул
икълимал
икълималда
икълималъул
икълимлъун
икълимов
икь
икіана
икіун
икӏана
икӏараи
икӏун
ил
ила
илаб
илагьасул
илагьияб
илагьлъун
илал
илалъул
илам
илан
иланги
илго
или
илл
илла
иллаги
иллалъун
иллъиялда
иллюстрация
илчи
илчизабазда
илчизаби
илъа
илъи
ильич
илья
им
има
имам
имама
имамас
имамасул
имамат
имаматалъул
имамзабазул
имамлъун
иман
имарат
имараталъул
имат
имг
имеет
имена
именем
имени
имеют
имп
император
императорского
императрица
императрицы
империи
империя
империял
империялда
империялде
империялъ
империялъе
империялъул
имя
ин
ина
инаб
инабула
инабуна
инав
иназул
иналда
иналде
иналдего
иналъ
иналъе
иналъул
инг
ингердахъ
инги
ингилис
ингилисазул
ингилисалда
ингилисалъул
ингиши
инго
ингун
ингуш
ингушал
ингушетия
индал
индекс
индексов
индексы
индии
индира
индия
индоевропаялъул
индонезия
индустриалияб
ине
инеб
инег
инжил
инжилалда
инжилалъул
инк
инкар
инкубаторалда
инкъи
инкъилаб
инкъилабалдаса
инкъилабалъул
иное
иностранных
инсан
инсанасе
инсанасул
инсанасулъ
инспекции
институт
института
институталъул
инструкция
инсуда
инсудасан
инсуе
инсул
инсуца
интервью
интерес
интересал
интернат
интернет
интернеталда
интерфакс
инуит
инуитал
информации
информационно
информационные
информационныи
информация
информациялъул
инфраструктура
инхело
инхо
инхоса
инч
инчіого
иоанн
иоанна
иоганн
иордан
иосиф
ип
ир
ира
иран
ирана
ираналда
ираналъул
ираналъулаб
ираналъулал
иране
ираниан
иранияб
ираниял
ирас
ирасул
ирга
иргадул
иргадулаб
иргадулал
иргаялда
ире
ирина
иркутск
ирландия
ирс
ирсалъе
ирсалъул
ирсилав
ирсилавлъун
иса
исаб
исабалда
исаев
исел
искусств
искусства
искусство
искусствоялъул
исла
ислам
ислама
исламалда
исламалде
исламалъ
исламалъул
исламги
исламе
исламияб
исламиял
исламская
исламскои
исландия
исмаг
исмагӏил
исп
испан
испания
испаниялъул
испанскии
исполнительныи
использовался
используется
испр
исраил
исследование
исследовании
исследования
истамбул
истамбулалда
истамбулалде
истамбулалъул
истории
историк
историко
историческая
исторические
историческии
исторических
историческое
историческои
история
источник
источники
исфагьан
исх
исчезнувших
ит
итал
италия
италиязул
италиялда
италиялъул
итальянскии
итни
итогах
итоги
иудаизм
иудеи
их
ихас
ихасул
ихг
ихдал
ихер
ихтияр
ихтиярал
ихъ
иц
ица
ицц
иццазда
иццал
иццалда
иццлъун
иццухъ
ич
ичіабилеб
ичіго
ичӏабилеб
ичӏго
ичӏкӏаб
ичӏнусиялда
иш
ишазул
ишал
ишалги
ишалда
ишалъул
ишара
ишараби
ишараялдалъун
ишараялъул
ишат
ишатги
ишо
иштіибури
ищ
июл
июлалда
июлалъ
июль
июля
июн
июналда
июналъ
июнь
июня
ия
ияб
иябго
ияв
иял
иялги
иялда
иялдасан
иялъ
иялъе
иялъул
к
ка
кабард
кабардин
каваби
кавка
кавказ
кавказа
кавказалда
кавказалдаса
кавказалде
кавказалъул
кавказалъулаб
кавказалъулал
кавказе
кавказияб
кавказская
кавказские
кавказскии
кавказским
кавказских
кавказского
кавказскои
кавтар
каву
кагъат
кагътал
кагътида
кагіба
кади
каждому
казахстан
казахстана
казбек
казбековского
казиев
казият
казияталъул
казмаляр
казни
казнь
каи
каир
как
какал
какдаса
каки
какие
какил
кал
калам
каламалъул
каламалъулаб
калгин
календар
календаразда
календаралда
календаралъул
календарь
камил
камилаб
камилал
камилго
камиллъи
кампания
камуларо
камуни
канаб
канада
канадаялда
канадаялъул
канал
каналалда
канго
кандидат
канлъи
кантон
канцеляриялъул
канцлер
каньон
капурзабазул
капурзаби
кара
карадж
каракои
карим
карл
карнакалда
карт
карта
картаялъул
картвел
карте
картли
картлиялъул
картографии
картошка
карты
карщ
каспии
кат
каталог
катастрофа
категория
категориязда
категориял
категориялда
католикияб
католицизм
кафедралияб
кафедраялъул
ках
кахабросо
кахеталъул
кахіиб
кац
кацнельсон
кашан
каяев
каякент
каялъул
кв
квадратияб
квал
квалификация
квалквал
кванаге
кваназе
кванаи
кванала
кванан
кванани
кванил
кванкъеро
кванхи
квараб
кваранаб
кваранидехун
квараниса
квартира
квасул
кватӏичӏого
квачараб
квег
квегіаб
квегіиса
квегӏаб
квемо
квен
квенги
квенишгӏоралъул
квер
кверал
квералда
квералъ
квербакъи
кверде
кверщаликь
кверщаликье
кверщел
квеш
квешаб
квешал
квешлъи
квине
кг
ке
кеи
кения
керен
керман
керманшагь
кету
кех
кеч
кечі
кечӏ
киб
кибе
кибего
кибниги
киг
кигӏан
кида
кидаго
киданиги
киев
киева
кизилюртовскому
кизляр
кизлярскии
килалӏ
килас
килиманджаро
килиса
килисаби
килисаялда
килисаялъ
килисаялъул
килограмм
километр
километралъ
километраялъ
километраялъул
кин
кинаб
кинабг
кинабго
кинабниги
кинавго
киназго
киназдаго
киназдасаго
киназего
кинал
киналго
киналниги
кинго
киниги
кинниги
кино
кинорежиссе
киностудия
киноялъул
кипр
кир
киргизия
кири
кирилл
кириллица
кириллицаялда
кириллицаялде
кириллицаялъул
кириллияб
киров
киса
кисан
кит
китаи
китаялъул
кици
кк
ккана
кканани
ккани
кканиги
ккараб
ккарав
ккаразул
ккараи
ккарал
ккв
ккве
кквезе
кквеи
кквеялъул
ккедал
ккезабизе
ккезе
ккеи
ккела
ккеч
ккечӏого
ккеялъул
ккола
кколаан
кколареб
кколарел
кколаро
кколе
кколеб
кколев
кколедухъ
кколел
кколилан
кколин
ккун
ккуна
ккураб
ккурав
ккурал
кл
класс
классалде
классалъул
классик
классикияб
классификация
классификациялда
клеи
климат
климов
клуб
клубалъул
км
кн
книг
книга
книгах
книги
книжка
книжное
княгиня
князь
ко
коалиция
коби
когалымавиа
когда
когьгилуи
код
кодал
кодекс
кодоб
кодобе
кодов
кодор
коды
козубскии
кои
кола
коллектив
коло
колоб
колода
колониалияб
колумбия
колхоз
колхозалъул
ком
комиссариат
комиссия
комитет
комитеталъул
комм
комментарии
комментариял
коммерсантъ
коммунистазул
компани
компании
компания
компаниялъ
компаниялъул
комплекс
композитор
конго
кония
консерватизм
константин
конституции
конституционного
конституция
конституциялда
конституциялъул
конституциялъулаб
конструктор
конструкция
консул
консулал
контексталда
континент
континентазда
континенталияб
контроль
контроля
конференции
конфликт
конца
конце
коньяк
коньякалъул
коньячныи
конякалъул
координатал
коп
копия
копт
кор
коралъул
коран
корана
корве
корея
кореялъул
кормышева
корнилов
короле
королева
королевство
король
коростовцев
корр
корреспондент
кортала
коряков
космонавт
космос
косово
коста
костек
кость
котором
которую
которые
которыи
которых
коч
кочубеи
кочӏол
кочӏолъ
кочӏохъан
кпссалъул
краи
красная
краснодар
краткая
краткии
крауссида
края
крепость
крижановскии
кризис
крим
критик
критика
криштопа
кроме
кругосвет
крупнеи
крым
крымскии
кто
куала
куба
кубачинскии
кубок
кувеи
кудалиб
кудалиса
куделдерил
куделдерица
куду
куи
кукам
кули
культур
культура
культурияб
культуры
кумек
кумекалдалъун
кумекалъе
кумекалъул
кумекчи
кумыкскии
кун
куна
курак
кураков
куралал
курган
курд
курдал
курдистан
курорт
курс
кутакаб
кутакал
кутакалда
кутиша
куц
куцалда
куч
кучідул
кучӏдузул
кучӏдул
кчен
къ
къабарда
къабул
къавм
къавмазул
къавмал
къавмалъул
къавуда
къаг
къагьир
къагіида
къагіидаби
къагіидабиги
къагіидаялда
къагіидаялъ
къагӏида
къагӏидаби
къагӏидаялда
къагӏидаялъ
къадада
къадал
къадар
къадарал
къадаралда
къадаралдаса
къадаралде
къадаралъул
къадаралъулаб
къадарги
къаде
къади
къадие
къадил
къадиласул
къадилъун
къадица
къадиясул
къадру
къажар
къажаразул
къажарал
къазан
къазвин
къазмаляр
къазмаяр
къаи
къалеб
къали
къалъул
къамилухъ
къамус
къан
къана
къанаг
къанагіат
къанагӏат
къанагӏатал
къанун
къануназда
къануназул
къанунал
къануналда
къанунияб
къараб
къарал
къаралуазулгӏоралъул
къарахъ
къарахъа
къарачаи
къарби
къардиб
къаркъала
къасд
къаси
къат
къатіар
къахӏиб
къач
къаял
къаялда
къаялъул
къв
къвак
къвакіараб
къвакӏараб
къвакӏарал
къваниб
къвариг
къваригӏараб
къваригӏун
къваридаб
къварилъи
къват
къватіибе
къватіиве
къватіире
къватіисеб
къватіисел
къватӏ
къватӏиб
къватӏибе
къватӏиве
къватӏир
къватӏире
къватӏиса
къватӏисеб
къватӏисел
къебед
къебедасул
къед
къеди
къедиса
къеи
къеркьезе
къеркьеи
къеркьеялъул
къех
къешм
къиблаяб
къиблаябгун
къилабгун
къилабияб
къима
къимат
къиматаб
къиматазда
къиматал
къиралаталъул
къиса
къисмат
къиямасеб
къо
къоги
къого
къои
къокъ
къокъа
къокъаб
къокъабазда
къокъаби
къокъагун
къокъал
къокъаялда
къокъаялъ
къокъаялъул
къокъго
къола
къоло
къолъун
къоно
къоноялъул
къорода
къосарал
къот
къотіел
къотіелалъул
къотіи
къотіиялъул
къотӏана
къотӏи
къотӏизе
къотӏула
къотӏун
къояз
къоял
къоялда
къоялдаса
къоялдасан
къоялде
къоялъ
къоялъги
къоялъул
къуват
къуватаб
къуватав
къуватаз
къуватазул
къуватал
къуваталдалъун
къуваталъул
къудукь
къудукьа
къуи
къум
къун
къункъра
къункъраби
къураи
къурамух
къурахі
къурбан
къурбаналъе
къуруш
къуръан
къуръаналда
къуръаналъул
кь
кьаби
кьабизаби
кьабун
кьал
кьарияб
кьв
кьвагьи
кьвагьулеб
кьварараб
кье
кьезе
кьезеги
кьеи
кьенсерухъ
кьер
кьерал
кьералъ
кьералъул
кьеч
кьечӏого
кьеялда
кьеялъе
кьеялъул
кьеялъулал
кьеян
кьибил
кьибилалъул
кьижун
кьили
кьо
кьовул
кьоге
кьогъоб
кьола
кьолаан
кьоларо
кьолеб
кьолев
кьолел
кьохъа
кьун
кьуна
кьураб
кьурабазул
кьурав
кьурал
кьуру
кьурул
кьуч
кьучі
кьучіаб
кьучіалда
кьучӏ
кьучӏаб
кьучӏалда
кіал
кіалалъул
кіалгіа
кіалзул
кіалъа
кіалъаи
кіалъала
кіалъалезул
кіалъалел
кіанціула
кіанціун
кіахеталъул
кіахети
кіахетиялъул
ківар
кіи
кіиабилеб
кіиабилев
кіиазаралда
кіиго
кіижубараб
кіиябго
кіиявго
кіодо
кіодолъиялъул
кіола
кіолеб
кіудияб
кіудияв
кіудияи
кіудиял
кіулзеб
кӏ
кӏал
кӏалалъ
кӏалгӏа
кӏалзул
кӏалъазе
кӏалъаи
кӏалъала
кӏалъалезул
кӏалъалел
кӏанцӏана
кӏанцӏун
кӏахети
кӏвана
кӏвар
кӏвахӏ
кӏи
кӏиабилеб
кӏиабилев
кӏиабилеи
кӏиго
кӏикъоялда
кӏикӏуниса
кӏирекъараб
кӏицӏул
кӏиябго
кӏиявго
кӏиялго
кӏкӏ
кӏкӏал
кӏкӏалахъ
кӏкӏаралал
кӏкӏаратӏа
кӏкӏаратӏаса
кӏогьориб
кӏодо
кӏола
кӏолареб
кӏолеб
кӏособ
кӏочон
кӏудияб
кӏудияв
кӏудиял
кӏуни
л
ла
лабиализация
лабиаликъаб
лабиалияб
лабиаллъараб
лабиаллъарал
лабиаллъичіеб
лабиаллъичӏеб
лаваша
лавров
лага
лагадухъ
лагъ
лагъасе
лагъасул
лагъзадерида
лагъзадерил
лагъзал
лагълъи
лагьиж
ладерил
ладерица
лаз
лаи
лак
лаказул
лакал
лакскии
лакского
лакъав
лакъго
лакълакъ
лал
лам
ланда
лат
латвия
латин
латиназул
лауреат
лах
лахӏзаталъгӏаги
лдаса
ле
леб
лебалав
лебалал
лев
лезг
лезги
лезгин
лезгиял
леи
лек
лексика
лексикияб
лекции
лекция
лел
ленин
ленина
ленинград
ленине
ленинил
лентапедиялда
леонид
лет
летию
летнии
летопись
ли
либ
либо
ливан
ливиялъул
лидер
лидера
лидия
лингва
лингвист
лингвистаз
лингвистика
линказул
лир
лиса
лит
литва
литература
литературияб
литературы
литография
лихтенштеи
лицом
личность
лишь
лкам
лкин
лков
ло
лов
лова
лович
логика
логинов
лок
локатив
лолита
лондон
лондоналда
лос
лу
лугби
луиза
лурал
лурестан
луции
лъ
лъабабго
лъабабилеб
лъабабилев
лъабабилеи
лъабго
лъабжубараб
лъабкъого
лъабкъоялда
лъабнусго
лъаг
лъагіалида
лъагіалидасан
лъагіалил
лъагіел
лъагӏалида
лъагӏалие
лъагӏалил
лъагӏан
лъагӏелухъ
лъадал
лъади
лъадилъун
лъазаби
лъазабизе
лъазабула
лъазабулеб
лъазабун
лъазабуна
лъазабураб
лъазаризе
лъазарула
лъазарун
лъазаруна
лъазе
лъаи
лъала
лъалаан
лъалареб
лъаларев
лъаларел
лъаларо
лъалеб
лъалев
лъалел
лъамалъи
лъамел
лъан
лъана
лъар
лъараб
лъарав
лъараг
лъарагі
лъарагіал
лъарагӏ
лъарагӏазул
лъарагӏал
лъарагӏлъиялда
лъарал
лъаралда
лъаралъ
лъаралъул
лъарат
лъаратіа
лъаратӏа
лъаратӏаса
лъарахъ
лъачӏого
лъаялъул
лъе
лъебералда
лъеберго
лъеда
лъезе
лъеи
лъел
лъелго
лъелъ
лъеца
лъеяв
лъи
лъибишо
лъида
лъие
лъик
лъикі
лъикіаб
лъикіал
лъикілъи
лъикӏ
лъикӏаб
лъикӏав
лъикӏал
лъикӏаланго
лъикӏго
лъикӏлъи
лъил
лъим
лъимал
лъималаз
лъималазда
лъималазе
лъималазул
лъималги
лъималлъун
лъималъул
лъимги
лъимер
лъин
лъица
лълъ
лълъар
лълъел
лъола
лъолеб
лъолел
лъуг
лъугьа
лъугьабахъиназул
лъугьана
лъугьараб
лъугьарав
лъугьарал
лъугьин
лъугьинабизе
лъугьиналъул
лъугьинарулел
лъугьине
лъугьун
лъугьуна
лъугьунаго
лъугьунеб
лъугьунел
лъугіизабуна
лъугіун
лъугӏана
лъугӏараб
лъугӏарал
лъугӏизегӏан
лъугӏун
лъукъана
лъукъун
лъул
лъун
лъуна
лъураб
лъурав
лъуразул
лъурал
лъутана
лъутун
лы
ль
любовь
людеи
люди
людмила
люксембург
лютер
ліугьана
лӏ
лӏугьа
лӏугьана
лӏугьараб
лӏугьарал
лӏугьинабула
лӏугьинабулеб
лӏугьине
лӏугьун
лӏугьуна
лӏугьунеб
лӏугьунел
лӏугӏаралдаса
лӏугӏун
м
ма
мавлет
мавлид
мавлидал
мавраевасул
маг
магарамкентскии
магомед
магомедов
магомедова
магъало
магъар
магърибалда
магърибияб
магьди
магіарул
магіарулав
магіарулазул
магіарулал
магібад
магіишаталъул
магіна
магінаби
магінаги
магінаялда
магінаялъул
магӏарда
магӏарде
магӏарул
магӏарулав
магӏарулазда
магӏарулазе
магӏарулазул
магӏарулал
магӏарухъ
магӏишат
магӏишаталъул
магӏна
магӏнаби
магӏнаги
магӏнаялда
магӏу
мад
маданияб
маданиял
маданият
маданияталъул
мадина
мадинаялда
мадинаялдаги
мадинаялде
мадинаялъулаб
мадраса
мадрасаялда
мадугьалихъ
мажгит
мажгитал
мажгиталда
мажгиталъул
мажгитги
мажиду
мажлис
мажлисалда
мажлисалъул
мажмуг
мажмугӏ
мазада
мазандаран
мазгарул
мазгьаб
мазгьабалда
мазгьабалъул
маи
маида
мак
македония
македонскии
македонского
маки
макиса
макка
маккаялда
маккаялдаги
маккаялдаса
маккаялъулаб
максим
максимально
максимова
максимум
максуд
мактаб
макъаб
макъала
макъалабазда
макъалабазул
макъалаби
макъалабиги
макъалаялда
макъалаялъул
макъдис
макъсуд
макьилъ
макьу
мал
малаи
малаикзабазда
малаикзаби
мали
малик
маликзабазул
маликлъиялъул
малла
малламухӏамад
малъа
малъана
малъараб
малъи
малъизе
малъичӏого
малъула
малъулаан
малъуларо
малъулеб
малъун
мальта
ман
манефоница
манзил
манзилалда
мание
манил
манов
мансии
мансур
мансурица
манчестер
мар
маргьаби
мари
марии
марин
марина
мариница
мария
марк
марка
марказ
марказазул
марказал
марказалъул
маркази
марказияб
марказлъун
марказлъунги
маркъо
мармар
марокко
март
марта
мартабат
марталда
марталъ
мартин
марьям
масала
масд
масжид
масихі
маср
масса
массаяб
массив
мастер
масх
масштаб
масъала
масъалаби
мат
матаб
матал
маталъул
математик
математика
математикаялъул
материал
материалам
материалов
материалы
матье
мах
махачкала
махачкале
махмуд
махсара
махх
маххул
маххулнухлул
махщел
махіачхъала
махіачхъалаялда
махіачхъалаялдаса
махіачхъалаялъул
махӏач
махӏачхъала
махӏачхъалаялдаса
махӏачхъалаялъул
махӏмуд
махӏмудги
махӏмудие
махӏмудил
махӏмудица
мац
маці
маціазда
маціаздаса
маціаздасан
маціазде
маціазул
маціазулаб
маціал
маціалда
маціалдаса
маціалде
маціалъ
маціалъе
маціалъул
мацілъун
маціов
мацӏ
мацӏазда
мацӏаздаса
мацӏаздасан
мацӏазде
мацӏазе
мацӏазул
мацӏал
мацӏалги
мацӏалда
мацӏалдаса
мацӏалде
мацӏалъ
мацӏалъе
мацӏалъул
мацӏги
мацӏлъун
мач
машгьад
машгьур
машгьураб
машгьураблъун
машгьурав
машгьурал
машгьурлъана
машгьурлъи
машенька
машина
машрикъ
машрикъалда
машрикъалъул
машрикъияб
маъарухъ
мая
маялда
маялдаса
маялъ
маялъул
мвф
мгу
мгӏ
ме
мег
мегрел
мегрельскии
мегіер
мегӏер
мегӏералъул
медалал
медаль
медведев
медиа
медиафаи
медицина
медицинаялъул
между
международная
международного
международнои
международныи
международных
меи
мексика
мексикаялъул
мекъаб
мекъи
мекъса
мелъелт
мелъелтӏа
мелъелтӏаса
мельников
мемориал
мемфис
мемфисалда
месед
меседил
меседилаб
мест
места
местного
место
металлургияб
метер
метр
метра
метрада
метралъ
метралъул
метраялде
метраялъ
метраялъул
метро
метров
метрополитен
мех
мехалда
мехалъ
механика
мехтел
мечеть
ми
мид
мидиялъул
микьабилеб
микьго
микьир
микьнусиялда
милициялъул
миллат
миллатазда
миллатазул
миллатал
миллаталда
миллаталъул
миллиард
миллион
миллионалдаса
миллионалде
миллияб
миллиябгун
миллиял
милютин
мим
мин
мина
минаби
минаялда
минерал
минералазул
минералал
минералалъул
минимум
министер
министерас
министерасул
министерзабазул
министерзаби
министерлъиялъ
министерлъиялъул
министерлъун
министерства
министерство
министр
министра
министрасул
министров
министром
минобороны
минорскии
минск
минска
минскалъул
минут
мир
мира
мире
мирза
мирзаца
мировая
мировои
мисал
мисалал
мисалалъе
мисаллъун
мискин
мискинаб
миср
митрополит
мифология
мифы
михаи
михаил
миц
мияб
миякьуб
млн
млрд
мм
мо
мобильнои
могьохъ
модель
модуль
может
можно
мои
мок
мокъсохъ
молдавия
молдова
молодая
монако
монархия
монастырь
монголия
монета
монография
моноэтникияб
монументазда
монументал
море
морскои
морфология
морфологияб
морэ
моря
москва
москваялда
москваялде
москваялъул
москве
москвы
московская
московскии
московского
московскои
моц
моці
моціазул
моціалъ
моціалъул
моціги
моцірол
моцӏ
моцӏалда
моцӏалъ
моцӏалъул
мочӏохъ
мс
мск
муг
мугъ
мугъал
мугь
мугьажирзабазул
мугіалим
мугірузда
мугірузул
мугірул
мугӏалим
мугӏалимзаби
мугӏрузда
мугӏрузде
мугӏрузул
мугӏрузулаб
мугӏрул
муд
мудил
музеи
музея
музеялда
музыка
музыкалияб
музыкалиял
музыкальныи
музыкант
музыкаялъул
муи
муил
мук
мукъадасаб
мукъадасав
мукъадасаи
мукъадасал
мулла
мун
мунагьал
мунго
муниса
муниципалитет
муниципалитета
муниципалитетал
муниципалитеталъул
муниципалитеты
муниципалияб
муниципалиял
муниципального
муниципальное
муниципальным
муниципальных
муницпалияб
мурад
мурада
мурадалда
мурадалде
мурадгун
мурадил
мурси
муртазаг
муртазг
муршид
муса
мусаев
мусал
мусалав
мусалас
мусаласул
мусаясул
мусаясулав
муслим
муссолини
муссолинил
муссолиница
мустафа
мустах
мустахіикъав
мустахӏикъав
мустахӏикълъана
мусульманскии
мусхелишвили
мут
мутаг
мутагӏилзаби
мутӏигӏаб
муфтии
мух
мухаммад
мухаммада
мухтар
мухъ
мухъазда
мухъазде
мухъазул
мухъазулгун
мухъал
мухъалгун
мухъалда
мухъалдаса
мухъалде
мухъалъ
мухъалъуд
мухъалъул
мухъалъулгун
мухь
мухьдахъ
мухіамад
мухіамадов
мухіаммад
мухікан
мухіканаб
мухіканго
мухӏамад
мухӏамадги
мухӏамадил
мухӏамадилазул
мухӏамадица
мухӏамадкъади
мухӏамадов
мухӏамадсаи
мухӏамадтӏагьир
мухӏаммад
мухӏаммадил
мухӏарамхур
мухӏкан
мухӏканаб
мухӏканго
муъминзабазул
мх
мцхета
мы
мысли
мысль
мьянма
мэн
мэр
мю
мюнхен
мюнхеналда
мюнхеналъул
н
на
наб
наби
набоков
набокова
навгӏ
нагагь
наги
над
надар
надир
нажмудин
нажмудинил
назвал
название
названии
названия
назмаби
назначен
назым
наи
наиб
наибзаби
наиблъи
наиблъун
наиболее
нак
накск
наку
накълу
накъшубандияб
налда
налог
налоговых
налъи
налъул
нальчик
нам
намаз
наме
наместника
намус
наполеон
наполеоница
например
народа
народная
народного
народнои
народныи
народов
народы
нарт
нарталъул
нартгун
нартил
нартул
нас
населе
население
населением
населения
населенных
насих
наслабазда
наслабазул
наслаби
наследие
наслу
наслуялде
наслуялъул
насранияб
насранияз
насраниязул
насраниял
насрудин
настоящее
насху
наталья
нато
натоялъул
натриялъул
наук
наука
науки
науч
научно
научного
научныи
нах
нахгин
нахгун
находились
нахско
нахул
нахъ
нахъа
нахъасан
нахъбакі
нахъбакӏ
нахъг
нахъе
нахъеги
нахъего
нахъисеб
нахъисел
нахъруссине
нахъч
национализм
националияб
национальная
национального
национальнои
национальности
национальность
национальныи
национальных
нацистаз
нацистазул
нацистияб
начала
началась
начале
начало
начальник
начӏада
наш
наша
ная
наялда
не
недоступная
независимости
независимость
неи
нек
некоторые
некоторых
некісияб
некісиял
некӏо
некӏсияб
некӏсиял
нелъер
нем
немец
немецкии
немцав
немцазул
ненец
непал
непризнанное
нер
нера
несколько
нет
нефертари
нечаевка
ни
ниг
нигер
нид
нидерл
нидерландазул
нидерландов
ниж
ниже
нижеда
нижер
нижеца
нижнее
нижнии
низам
нии
ник
никита
николаевич
николаи
нил
нилалъул
нилъ
нилъеда
нилъеде
нилъее
нилъер
нилъерго
нилъехъе
нилъеца
нилӏер
ним
нина
них
нишапур
ния
нияв
ният
нное
нному
нныи
нных
но
нобелил
нов
новая
новгород
новеи
новембер
новембералда
нового
новое
новои
новому
новосибирск
новости
новые
новыи
новых
ногаи
ножаи
нои
ном
номер
норвегия
норвегиялъул
нохчии
нохъо
ноябр
ноябралда
ноябралдаса
ноябралъ
ноябрь
ноября
нт
ну
нубиялда
нуг
нугъаи
нугъаязул
нугъаял
нугілъи
нугӏлъи
нуж
нужеда
нужер
нужеца
нур
нурмух
нурмухӏамадов
нус
нусго
нуси
нусиялда
нух
нуха
нухал
нухалда
нухалъ
нухалъул
нухги
нухда
нухдасан
нухде
нухлул
нухмалъи
нухмалъиялда
нухмалъиялъул
нухмалъулев
нухмалъулевлъун
нухмалъулел
нуцабазул
нуцал
нуцаласул
нуцалзабазул
нуцалил
нуцаллъи
нуцаллъиялъул
нуцаллъун
нуцалхан
нуцӏа
ны
ные
ныи
ныне
нью
нэшнл
ню
о
оао
об
обзор
обит
област
областалъул
областги
области
область
обода
ободияв
ободиясул
обозрение
обороны
образование
образовании
образования
образованиям
образовательные
обуви
обувь
общ
общая
общероссии
обществ
общества
общественные
общественныи
общество
общие
общих
объект
объектазул
объектал
объектлъун
объектов
ов
ове
ого
огун
огы
огь
огьанн
одесса
один
однако
одним
одного
односельчане
одо
одолъи
одорав
ое
ожегов
озера
озеро
ои
ок
окато
океан
океаналъ
океаналъул
около
окончательных
округ
округа
округал
округалда
округалъул
округам
округов
октавиан
октобер
октобералда
октобералде
октябр
октябралда
октябралдаса
октябралъ
октябралъул
октябрь
октября
ол
ола
олабго
оларо
олбол
олго
олеб
олег
олел
олимпиял
олимпиялъул
олланд
оло
ололъун
олохъанаб
олъ
олъи
ольга
омар
он
она
оназда
оназул
онал
оналда
оналдаса
оналде
оналъул
оналъулаб
онам
оне
они
ониги
онированию
онированныи
онлаи
онных
онов
ону
оон
ооо
оп
оператор
операция
описание
определе
определение
определено
опыт
ор
оралда
оралдаса
оралъул
орган
органал
организации
организация
орготд
орден
орденалъул
оригинал
оригиналияб
орит
орк
орландо
ортодоксалияб
орфография
орхъи
орхъода
осет
осетии
осетия
осипов
осло
осман
основания
основные
основы
остан
останазул
останал
останалда
останалдаса
останалъул
остров
острова
от
отар
отв
ответ
отд
отделение
отделом
отель
отечественная
отечественнои
отношении
отношения
отраслал
офис
официалго
официалияб
официалиял
официальная
официальныи
официальных
охъан
оц
оцал
оцебе
оцебесеб
оцевесев
оценка
оцересел
оч
очерк
очерки
очон
ошибка
ошибки
ошт
п
па
пабазул
паби
павел
павлович
паг
пагьму
падар
падарал
паи
пакистан
пакистаналъул
палъун
пампа
памяти
памятная
памятник
памятники
панама
панда
панорама
панорамы
папа
папал
папирус
пар
парагваи
паранг
паранс
парансиялъул
пардав
париж
парижа
парижалда
парижалъул
париже
паризаяб
парк
парламент
парламенталда
парламенталъ
парламенталъул
парламенталъулаб
парламентияб
парс
парсал
парсалъул
партизаназул
партии
партия
партиялъ
партиялъул
партне
парфиялъул
парччахӏзаби
пасих
пассажирал
пассажиров
пат
патагӏали
пахьул
пациенс
пача
пачалихъ
пачалихъаз
пачалихъазда
пачалихъаздаса
пачалихъазде
пачалихъазул
пачалихъал
пачалихъалда
пачалихъалдаса
пачалихъалде
пачалихъалъ
пачалихъалъе
пачалихъалъул
пачалихъалъулаб
пачалихъияб
пачалихъияв
пачалихъиял
пачалихълъун
пачалъиялъул
пачаялъул
пачаяс
пачаясе
пачаясул
паша
пашал
паялде
паялъул
пе
певец
певица
педагогики
пеи
пекин
пентаграф
пер
первая
первого
первое
первои
первые
первыи
первых
переве
перевод
переводе
переводом
переводчик
переводы
переворот
перед
передаче
перенаправление
перепе
переписеи
переписи
перепись
перераб
период
периодалда
периодалъул
пермь
персазул
персидскии
персия
персов
персоналияб
перспективы
перу
петербург
петербурга
петербургалда
петербургалъул
петербурге
петербургскии
петербургское
петр
петра
петрил
петрович
петровск
петроград
печати
пикраби
пикру
пикруги
пикруялда
пикруялъул
пил
пилот
пиргіавн
пиргіавназул
пиргіавнал
пиргіавнас
пиргіавнасул
пиргіавнлъун
пиргӏан
писания
писатель
письменности
письменность
письмо
питер
питна
пихъ
пихъил
пиша
план
планалда
планета
планирования
площад
площади
площадь
площадьрегионы
по
поверхностных
повесть
повседневная
погибли
погибших
под
подробная
позже
позиционияб
позиция
позициялда
поиск
поисках
показателеи
пол
поле
политиздат
политик
политика
политики
политикияб
политикияв
политикиял
политическая
политические
политическии
политических
политическои
полк
полкалъул
полковник
полная
полное
полностью
половине
положение
положения
получил
польскии
польша
поляк
помощник
поп
популярияб
порт
портал
порталал
портр
портрет
португал
португалия
посвяще
посе
поселение
поселении
поселения
поселениязул
поселениялъул
поселениям
поселкам
послание
после
последнии
пособие
посольства
посольство
поспелов
пост
постановщик
постоянного
постоянное
потенциал
почалъул
почбина
почему
почта
почти
почтовые
почтовых
поэзия
поэзиялда
поэзиялъул
поэма
поэмаялъул
поэт
прав
права
правда
правительства
правительство
право
православие
православияб
православиял
православная
православнои
прага
праздник
практикаялда
практикияб
предикаталда
предметияб
предс
председателасул
председателлъун
председатель
председателя
предшествующем
президент
президента
президентас
президентасул
президентлъун
президиумалъул
премии
премия
премиялъул
премьер
преобладающая
пресс
при
призе
признае
признанных
приложение
прим
принц
принципах
природа
притворов
про
проблема
проблемы
проверено
провинции
провинция
провинциялда
провинциялдаса
провинциялъул
прогноз
программа
прогресс
продолжительность
продукт
продюсер
проект
проекта
проектазда
проектазул
проектал
прозаик
прозоров
производства
происхождение
прометеи
промышленностал
пророка
просветитель
пространственных
протестантизм
против
проф
профессионалияб
профессор
профиль
прохоров
процент
процесс
птахіил
публии
публицист
пуланаб
пулково
пункт
пунктов
пункту
пурчӏина
путеводитель
путешествие
путин
путинил
путиница
путь
пушкин
пушкина
пушт
пушту
пциг
пче
пьер
пьесаби
р
ра
раб
рабатӏ
работа
работы
раг
рагъ
рагъа
рагъазда
рагъазул
рагъазулъ
рагъал
рагъалдаса
рагъалъ
рагъалъул
рагъана
рагъги
рагъда
рагъдаса
рагъде
рагъизе
рагъул
рагъулаб
рагъулав
рагъулал
рагъулел
рагъулъ
рагъулӏ
рагъун
рагъухъабаз
рагъухъаби
рагъухъан
рагьана
рагьараб
рагьаразда
рагьаразде
рагьаразе
рагьаразул
рагьарал
рагьаралги
рагьаралъул
рагьи
рагьизе
рагьукъаб
рагьукъал
рагьула
рагьун
рагі
рагіабазда
рагіабазул
рагіабазулъ
рагіаби
рагіалда
рагіалде
рагіи
рагіиялдасан
рагіиялъул
рагіудаса
рагіудасан
рагіул
рагӏабазда
рагӏабаздаса
рагӏабазул
рагӏабазулъ
рагӏабазулӏ
рагӏаби
рагӏал
рагӏалда
рагӏалде
рагӏаллъуда
рагӏарав
рагӏи
рагӏиялдаса
рагӏиялъул
рагӏудаса
рагӏул
рагӏула
радал
радио
ражаб
раз
разбившегося
развитие
развития
разд
раздел
разе
рази
разилъи
разилъун
различного
размещение
разных
раи
рак
ракаг
ракетно
раккана
ракъдаллъиялъул
ракълил
ракълилаб
ракь
ракьа
ракьазда
ракьазде
ракьазул
ракьал
ракьалги
ракьалда
ракьалдаги
ракьалдаса
ракьалдасан
ракьалде
ракьалъул
ракьанде
ракьги
ракьдагьоркьосеб
ракьуб
ракьул
ракьулъан
ракі
ракіалда
ракіалде
ракӏ
ракӏал
ракӏалда
ракӏалде
ракӏалъ
рал
рала
ралагье
ралагьун
ралеб
ралел
ралъад
ралъадазда
ралъадазул
ралъадал
ралъадалда
ралъадалъ
ралъадалъул
ралъадгун
ралъдада
ралъдал
ралъдалъе
ралъдаца
рам
рамазан
рамазанов
рамлъун
рамсес
рамсесие
рамсесил
рамсесица
ран
рана
ранее
рарал
рас
расалъи
расалъиялда
расалъиялде
расалъиялъул
расмияб
расмияблъун
расмиял
распределение
распростране
рассказы
рассылается
расул
расулил
рат
ратана
ратарал
ратизе
ратула
ратун
ратіа
ратӏа
рах
рахас
рахине
рахун
рахъ
рахъал
рахъалда
рахъалдаса
рахъалдасан
рахъалде
рахъалдехун
рахъалъ
рахъалъан
рахъалъул
рахъана
рахъарал
рахъги
рахъи
рахъизе
рахъин
рахъиналъе
рахъинаризе
рахъинаруна
рахъине
рахълъун
рахъу
рахъула
рахъулеб
рахъулел
рахъун
рахь
рахьдал
рахӏат
рац
рач
рачана
рачарал
рачел
рачин
рачине
рачун
рачуна
рачунеб
рачунел
раччулеб
рачіана
рачіарал
рачіун
рачіуна
рачӏ
рачӏана
рачӏарал
рачӏун
рачӏуна
рачӏунел
рашид
ращалъи
рбк
ргькъ
рд
революции
революционер
революция
революциялдаса
революциялъул
регион
регионалда
регионалъул
региональныи
региональным
регионы
ред
редактор
редакциеи
редакции
редакция
редакциялда
редакциялде
редакциялъул
редукция
реестр
реж
режим
режиссе
реза
резави
резиденция
результате
результаты
реи
рек
река
реки
реконструкция
рекъав
рекъараб
рекъарал
рекъел
рекъола
рекъон
рекіел
рекӏее
рекӏел
рекӏелъ
рекӏун
рекӏуна
религии
религиозныи
религия
релъараб
релъенлъи
релълъараб
релълъарал
релълъинабун
релълъун
репортаж
рес
ресал
респ
респу
республик
республика
республикаби
республикалъул
республиканское
республикаялда
республикаялъул
республикаялъулаб
республике
республики
ресурс
ресурсы
рет
ретіел
ретӏарав
ретӏел
реформа
реформаби
реформации
реформация
реформациялъул
рех
рехал
рехалъул
рехана
рехараб
рехги
рехел
рехи
рехизе
рехсараб
рехсарал
рехсарасул
рехсезе
рехсеи
рехсолеб
рехсон
рехулеб
рехун
рец
рецц
рецӏел
реч
речи
речічіун
речӏчӏун
решение
решт
рештіун
рещт
рещтіана
рещтӏун
ри
риа
ригь
ригьин
рижарал
ризаб
рии
риидал
риидалил
рик
рика
рикь
рикьарал
рикьи
рикьизе
рикьула
рикьулаан
рикьун
рикікіад
рикікіана
рикікіен
рикікіенал
рикікіеналги
рикікіеналда
рикікіеналъул
рикікіиналда
рикікіине
рикікіинчіеб
рикікіинчіого
рикікіун
рикікіуна
рикікіунаан
рикікіунеб
рикікіунел
рикӏкӏад
рикӏкӏана
рикӏкӏен
рикӏкӏин
рикӏкӏиналъул
рикӏкӏине
рикӏкӏула
рикӏкӏун
рикӏкӏуна
рикӏкӏунаан
рикӏкӏунаро
рикӏкӏунеб
рилъаб
рим
рималъул
риони
рис
рисгӏоралъул
рисиб
риск
рит
ритіухълъиялъул
ритӏун
риххелал
рихьизари
рихьизаризе
рихьизарула
рихьизарулел
рихьизарун
рихьизарурал
рихьизе
рихьулел
рихьуни
ричард
ричун
риччала
риччалел
риччан
риччел
рищарал
рищиязда
рищияздалъун
рищиял
рищула
рищун
рия
рияд
риӏкӏен
ро
роберт
рогьалил
род
рождение
рождения
роза
рок
рокъо
рокъоб
рокъов
рокъове
рокъор
рокъоре
рокьи
рокьул
рокьула
рол
ролалда
роли
ролъ
роль
роман
романалъул
романов
роол
роржен
рорженал
рорженалъул
роржунел
рорхатал
рос
росабазда
росабаздасан
росабазе
росабазул
росабалъ
росабалъа
росабалъе
росаби
росабиги
росарал
росасда
росасе
росги
росда
росдада
росдадаса
росдаде
росдае
росдал
росдалаб
росдалал
росдалгун
росдаца
роскартография
росноб
росо
росси
россиеи
россии
россия
россияалда
россиялда
россиялдаса
россиялъ
россиялъул
россиялъулаб
россиялъулав
россиялъулги
россиялъулгун
росстат
ростов
росу
росуги
росула
росулъ
росулъа
росулъан
росулъе
росулъун
росулӏ
росулӏа
росулӏе
росун
росуялъе
росуялъул
рохел
рохь
рохьал
рохьоб
рохьобе
роцен
роценалъул
рочах
рочиб
рсфср
рсфсралъул
рт
ру
рублеи
ругеб
ругез
ругел
ругелъул
ругилан
ругин
руго
ругони
ругониги
ругъелда
ругъжа
ругъжаб
ругъжаса
ругънал
ругъун
ругьунлъун
руда
рузда
рузман
рузул
рузулаб
рук
рукну
руководители
руководителя
рукописи
рукъ
рукъалда
рукъалдаса
рукъалъул
рукъзал
рукъи
рукъун
рукіа
рукіана
рукіарал
рукіин
рукіиналъ
рукіине
рукіун
рукіуна
рукӏа
рукӏана
рукӏаниги
рукӏанин
рукӏараб
рукӏаразул
рукӏарал
рукӏин
рукӏиналда
рукӏиналъ
рукӏине
рукӏинчӏо
рукӏун
рукӏуна
рукӏунел
рул
рулдаб
рум
румаб
румазул
румалда
румалъул
румыния
руниверс
рус
руси
руслан
руссана
руссине
русская
русские
русскии
русским
русских
русско
русского
русское
русскои
русском
руссун
руставели
руставелил
рустави
русь
рут
рутул
рутулал
рух
рухъа
рухьарал
рухӏ
рухӏияб
руччабазул
руччаби
руччабиги
рф
ры
с
са
сабаб
сабаблъана
сабаблъун
сабзевар
сабир
сабихіа
сабру
савельева
саг
сагіат
сагіид
сагіидов
сагітил
сагіуд
сагіудил
сагіудиязул
сагіудиялъул
сагӏат
сагӏид
сагӏудиязул
сад
сазул
саи
саидов
сал
салам
салат
салах
салда
салих
салихі
салман
салт
салул
самара
самбо
самбоялъул
сами
самилахъ
самоле
самолет
самолета
самолеталъул
самоуправления
самур
самцхе
сан
санагӏалъи
саназ
саназда
санаи
санал
санатчи
сангар
санигӏортӏа
санкт
сапар
сапаралда
сапарчи
сар
сарагӏурухъ
сараева
сараево
саратан
саратов
сардил
сардилъ
сари
сарир
сариралде
сариралъул
сасанидазул
сасанилазул
сасаниязул
сасикь
саудовская
саудовскои
сафар
сафи
сах
сахлъи
сахлъун
сахӏ
сахӏиб
сб
сборник
св
свак
свалат
сванетия
сведении
сведения
сверана
сверел
сверелазда
свери
сверизабун
сверизе
свериялда
свериялъул
сверула
сверун
сверухъ
сверухъе
сверухълъабазул
сверухълъаби
сверухълъеналда
сверухълъи
сверухълъиязул
сверухълъиялда
сверухълъиялде
сверухълъиялъул
света
светлана
свобода
свободен
свободы
сводешил
свое
своего
своеи
свои
своих
связи
святого
святои
священного
сгнзс
се
себ
себя
севан
севастополь
север
севералда
севералдасан
севералдехун
севергун
северияб
севериябгун
северная
северного
северном
северныи
северо
сегодня
сезон
сеи
сек
секрет
секретарлъун
секретарь
сел
села
селе
селена
селения
село
сельские
сельскии
сельским
сельских
сельское
сельскому
сельсовет
семе
семнан
сен
сентябр
сентябралда
сентябралъ
сентябрь
сентября
септембер
септембералда
серандит
серб
сербия
сергеи
сергея
сергъохъала
серебро
сериал
серия
сериялъул
сети
сетил
сеть
сеул
си
сибири
сибирь
сивухъ
сигъабазулӏ
сигънагъи
сигънагъиялъул
силди
силлабияб
симбилалда
символ
син
синаи
синаялда
синаялъул
сингапур
сипат
сипатаб
сипатал
сипаталда
сиражудин
сиреникалъул
сирии
сириус
сирия
сириялда
сириялъул
систан
система
системаби
системаялда
системаялъул
системы
сиухъ
сифат
сифатал
сифаталдаса
сифаталъул
сияб
сиял
сиясат
сиясатаб
сиясаталъул
сиясатияб
сиясатиял
сиясатчи
сиясияб
сиясияв
сиясиял
сиях
сияхі
сияхіазда
сияхіал
сияхіалда
сияхіалде
сияхіалъул
сияхӏ
сияхӏалда
ск
сказка
ская
ские
скии
ских
скияб
ско
ского
ское
скои
ском
славян
слов
слова
словакия
словаре
словари
словарь
словения
слово
служба
службы
см
смертная
смертнои
смерть
сми
смирнов
смоленск
снг
со
собрание
собрания
собраниялъул
событие
события
совет
совета
советалде
советалъул
советияб
советияв
советиял
советская
советскии
советского
советское
советскои
современная
современник
современного
современнои
современном
современности
современность
современныи
современных
согласно
соедине
создание
создатель
соловье
соломон
сомали
сон
соназ
соназда
соназдаса
соназде
соназул
сонал
соналда
соналдаса
соналдасан
соналде
соналъ
соналъги
соналъго
соналъе
соналъул
сонаца
сонги
сонил
сонлъун
сонорияб
соответствии
соответствующего
сордо
сордоялъ
сорокина
сост
состав
составе
состоянию
софия
социалистикияб
социалистияб
социалияб
социалиял
социально
соч
сочи
сочинении
сочинения
сочиялъул
союз
союза
союзалда
союзалъул
спб
специальная
специальному
списку
список
спорт
спорталъул
справка
справочник
справочное
справочные
спустя
среди
среднего
сс
ссалат
сср
ссср
сссралъул
ссылка
ссылки
ссылок
ст
ставропол
стал
стали
сталина
стамбул
стамбула
стамбуле
стандарт
стандартияб
станция
старина
старого
старыи
старых
стат
статеи
статистика
статистики
статистическая
статистические
статистическии
статистических
статус
статусалъул
статусе
статусом
статуя
статьи
статья
ства
ствии
ствия
ство
стелаялда
степени
стилалъул
столица
столицеи
столицы
стр
стран
страна
странах
страница
страны
стратегия
стрельба
строительство
строке
строя
струве
структура
студентов
стучевскии
стіалиб
су
суал
суалазда
суалазе
суалал
суалалъе
суалалъул
суалиял
суби
субтропикияб
субъект
субъектазул
субъектам
субъектов
субэтнос
суверенитет
суверенияб
сугъралъ
сугъралъа
сугъралӏ
судалъул
судан
суи
сулаи
сулахъ
сулахъалъул
сулеи
султ
султан
султіан
султіанахімет
султӏан
суметӏа
сун
сунда
сундул
сунж
суннатаб
суннатал
суннитал
сура
сураби
суракъат
суракъатил
суракъатица
сурат
суратазул
суратал
сураталда
суратчи
суратчиясул
сурсатал
суртал
сурукъаб
сурхаи
суффект
суффикс
суффиксазул
суффиксал
существующих
схема
сценарист
считает
сша
съезд
сына
сэр
ся
т
та
таб
табас
табасаран
табасаранал
табасаранскии
табел
табл
таблица
таблицы
табула
тавбу
таврат
тадбирал
таджикистан
таж
тажудин
таз
таи
так
также
такое
такрар
такрарлъи
тал
тала
талат
талда
талибан
талибы
талих
талихӏ
талъ
талъул
там
тамар
тамара
тамах
тамахаб
тамахлъи
тамахьо
тана
танзания
тани
тараб
тарав
тарал
тарбия
таржама
таржамачи
тарих
тарихалда
тарихалъул
тарихги
тарихи
тарихияб
тарихиял
тарихчаг
тарихчи
тартиб
тартибалда
тартибалъул
тарумасул
тарумовскии
тасдикъ
тасс
тат
татал
татарал
татаристан
тафсир
тафсиралъул
тах
тахида
тахиде
тахо
тахшагьар
тахшагьарал
тахшагьаралъул
тахшагьарги
тахшагьарлъун
ташкент
таяммум
тберилазул
тберов
тбилиси
те
театр
театралъул
тег
тега
тегеран
тегерана
тегов
тегьран
тегьраналда
тегьраналъул
тед
тедалъул
тезе
теи
текст
текста
текстазда
текстал
тексте
текстилияб
текстов
тексты
текущего
тел
телави
телавиялъул
телевидение
телевидениялъул
телевизионныи
тема
темабазда
темабаздалъун
темаби
темаялда
темир
температура
тенант
тенденции
тенденция
теория
теракт
теракта
терек
термин
терминал
территориалияб
территориалиял
территориального
территориальное
территориальных
территории
территория
территориязул
территориял
территориялда
территориялъул
терск
терскои
тетраграф
техника
техникияб
технические
технологиял
теч
ти
тиберии
тибеталъул
тимур
тип
типа
типам
типо
типография
тира
титул
тифлис
тифлисалде
тишков
тлярата
тмаз
то
тобот
тоге
того
токсин
тола
толаан
толаро
толеб
толиб
толковыи
толстого
толстои
только
том
томазда
томас
томах
томск
топографические
топоним
топонимическии
топонимия
тохтур
тр
традиции
трактор
транзитивияб
транзитивиял
транскрипция
транслатив
транслит
транслитерация
транспорт
транспорталъул
тре
тренер
три
триграф
тринити
троназул
труд
труда
труды
тт
ту
туи
тукаби
тул
тула
тулпис
тулписалда
тулуязулросу
тум
тумал
тун
тунис
тунк
тунка
туплис
туплисалда
туплисалъул
тур
тураев
турецкии
туризм
туризмалъул
туризмаялъул
туристал
туристикияб
турк
турказ
турказул
туркал
турки
туркия
туркиялда
туркиялде
туркиялъ
туркиялъул
туркменал
туркменистан
туркменистана
туркменистаналъул
турции
турция
турциялда
турциялде
турциялъ
турциялъул
туснахъ
тутмос
тутмосил
тутмосица
тухум
тухумал
тухумалдаса
тухумалде
тухумалъе
тухумалъул
тушети
тушетиялъул
тушман
тушманасде
тушманлъун
тущманасдаса
ты
тыс
тысячи
тюрк
тюрказул
тян
тіа
тіабигіияб
тіабигіиял
тіагіана
тіагіиналъул
тіагіуна
тіад
тіаде
тіадеги
тіадегіанаб
тіадегіанав
тіадежубаи
тіадехун
тіадецуи
тіадрагіабазул
тіадрагіаби
тіадрагіи
тіаи
тіалаб
тіалибан
тіалъи
тіалъиялда
тіалъиялде
тіалъиялъул
тіамула
тіамун
тіамуна
тіануси
тіарада
тіаралъул
тіаса
тіасан
тіасияб
тіахьал
тіеи
тіелалде
тіехь
тіибитіараб
тіибитіун
тіобитіана
тіобитіараб
тіогь
тіокіціар
тіолабго
тіолго
тіолгодунялалъул
тіолгороссиялъул
тіорала
тіоцебе
тіоцебесеб
тіоцевесев
тіоцересел
тіубан
тіубанго
тіубараб
тіураб
тӏ
тӏа
тӏабгӏ
тӏабигӏат
тӏабигӏаталда
тӏабигӏаталъул
тӏабигӏияб
тӏабигӏиял
тӏагӏам
тӏагӏана
тӏагӏинабуна
тӏагӏинабураб
тӏагӏинаруна
тӏагӏун
тӏагӏуна
тӏад
тӏадаб
тӏадал
тӏаде
тӏадеги
тӏадегӏан
тӏадегӏанаб
тӏадегӏанав
тӏадегӏанал
тӏадехун
тӏадецуи
тӏаджубаял
тӏадинхело
тӏадиял
тӏадкаламалъул
тӏадмагъилӏ
тӏадрагӏабазулӏ
тӏадруссун
тӏаи
тӏалаб
тӏалъи
тӏалъиялда
тӏалъиялъул
тӏамач
тӏамула
тӏамун
тӏамуна
тӏамурал
тӏанкӏ
тӏанса
тӏануси
тӏаса
тӏасан
тӏасияб
тӏахьазда
тӏахьазул
тӏахьал
тӏегь
тӏелалде
тӏелекь
тӏехь
тӏехьалда
тӏехьалъул
тӏибитӏана
тӏибитӏараб
тӏибитӏизе
тӏибитӏун
тӏидиб
тӏил
тӏиндал
тӏинди
тӏинчӏ
тӏиритӏарал
тӏобитӏараб
тӏогь
тӏогьохъ
тӏокӏаб
тӏолабго
тӏолго
тӏолгодунялалъул
тӏом
тӏорщалил
тӏохьотӏа
тӏоцебе
тӏоцебесеб
тӏоцеве
тӏоцевесев
тӏоцересел
тӏубазе
тӏубан
тӏубанго
тӏубараб
тӏукитӏа
тӏун
тӏуразе
у
уасет
убазе
убан
убанго
убараб
убит
убих
увулярияб
ударение
удаса
удинил
удияб
удияв
удиязул
удиял
уе
уезд
уж
ужа
ужу
узб
узбекистан
уздалросу
узел
узун
уи
уильям
указ
указанием
укму
укр
украина
украинал
украиналда
украиналъул
украине
украины
украі
укумат
укуматазда
укуматалда
укуматалде
укуматалъ
укуматалъул
ул
ула
улаан
улал
улго
улеб
улев
улел
улка
улкабазда
улкабазул
улкаялда
улкаялъул
улос
улъ
ульянов
ум
умаи
умар
умарх
умахан
умаханас
умаханасул
умер
умма
умру
умруги
умруялде
умруялъ
умруялъул
умумазул
умумуз
умумузул
умумул
умур
ун
уна
унаан
унаго
унареб
унарел
унаро
унги
унго
унгояб
унгут
унеб
унев
унезул
унел
уни
университет
университета
университеталда
университеталъул
унизе
унисеб
ункъабго
ункъабилеб
ункъабилев
ункъго
ункъо
ункъоялда
ункъракь
ункъракьалъул
унсоколо
унсоколоса
унт
унтаби
унти
унтиги
унтун
унун
унцукульскии
уонна
уорбертонида
упоминается
управление
управления
ур
ураб
урал
ургъараб
ургъел
ургъун
урду
урдун
уриб
урият
урияталъул
урма
урмия
урмут
уровеналдаса
уровень
уровнем
уровня
уроки
уругваи
урул
урус
урусаз
урусазул
урусал
урхеля
урхъи
урчиаб
усеи
усенил
условия
усман
усманиязул
устав
устар
устарас
устарасул
устрои
ут
утверждении
уфа
ух
ухъ
ухъан
уц
уч
участок
уче
учебник
учебное
учреждении
учреждения
ушугъ
ф
фа
фаза
фазу
фаи
факто
факты
факультет
факультеталда
факультеталъул
факъигь
фамилия
фамилиялъул
фараонов
фарз
фаризаяб
фасо
фашизм
фашизмалъул
фашистияб
фе
фебруар
фебруаралда
фебруаралдаса
феврал
февралалда
февралалъ
февраль
февраля
федералияб
федералиял
федеральная
федерального
федеральныи
федеральных
федеративияб
федерации
федерация
федерациялда
федерациялъул
феи
феникс
фз
фигі
фигілабазул
фигілаби
фигілияб
фигілу
фигілуялъул
физик
физикияб
фиксация
фикъгьи
филан
филиал
филол
филолог
филологиялъул
философ
философии
философия
философияб
философиялъул
фильм
фин
финал
финляндии
финляндия
фитіри
флавии
флаге
флагификация
фнс
фон
фонд
фонда
фондалъул
фонетика
фонетикияб
фонетикиял
фонологияб
форма
формабазде
формабазул
формаби
формаги
формалияб
формально
формате
формаялда
формаялдеги
формаялъул
формаялъулъ
фортис
фото
фотогалерея
фотографии
фр
франсия
франсиялда
франсиялъул
франсуа
франц
франции
франция
франциялъул
француз
французазул
французская
французскии
фридрих
фрикативалъул
фронт
функция
функциял
фут
футболалъул
футболалъулаб
футболист
фюрер
х
ха
хабал
хабар
хабарги
хабзал
хадижатил
хадиял
хаду
хадуб
хадубги
хадубккун
хадув
хадуи
хадум
хадур
хадурегіел
хадурегіелазул
хадурегіелал
хадуса
хадусеб
хадусел
хазина
хаи
хал
халабтала
халалъараб
халалъарал
халалъи
халалъиялъул
халат
халатаб
халатал
халатала
халид
халил
халилбег
халилбегил
халип
халипал
халиф
халифат
халифаталъул
халкъ
халкъаз
халкъазда
халкъаздагьоркьоб
халкъаздагьоркьосеб
халкъаздагьоркьосел
халкъазе
халкъазул
халкъал
халкъалда
халкъалдагьоркьосеб
халкъалдаса
халкъалде
халкъалъ
халкъалъе
халкъалъул
халкъалъухъе
халкъги
халкъияб
халкъияв
халкъияи
халкъиял
халкълъун
хамиз
хамил
хан
ханас
ханасда
ханасдаги
ханасе
ханасул
ханги
ханжар
ханзабазул
ханзаби
ханлъи
ханлъиялда
ханлъиялъул
ханлъуде
ханлъун
хань
хапизов
харахьи
харахьиса
харачіи
харбал
харж
харил
хас
хасаб
хасав
хасавхъала
хасавюрт
хасавюрталда
хасал
хасалил
хасало
хасго
хасел
хасият
хасиятаб
хасиятал
хасияталъул
хаслихъе
хаслъаби
хаслъул
хассаб
хассал
хасул
хат
хахизе
хв
хвалил
хвалилаб
хвалчен
хвана
хвани
хвараб
хварав
хваразул
хвараи
хварал
хвасар
хведал
хвезабун
хвезабуна
хвезаричӏого
хвезе
хвезег
хвезегӏан
хвеи
хвел
хвеялъул
хекко
хеко
хельсинки
хер
херав
хералъул
хехаб
хехго
хехлъи
хив
хидиб
хизри
хикмет
химик
химикияб
химия
химиялъул
химиялъулаб
хинаб
хинлъи
хиралъи
хирияб
хирияв
хириял
хис
хиса
хисана
хиси
хисизабизе
хисизе
хисиялъе
хисиялъул
хисула
хисулаго
хисуларо
хисулеб
хисун
хит
хиял
хиянат
хлорид
хоб
хобал
хобги
хоз
хозяи
хола
холаро
холеб
холераялъул
хомеи
хоно
хорв
хорватия
хорнунгида
храм
христиан
христианазул
христианскии
христианства
христос
хроника
хронология
хубар
худож
художественныи
художник
хузестан
хулуси
хумеи
хун
хундерил
хунзах
хунзахъ
хунзахъа
хунзахъги
хунзахъе
хунздерил
хур
хурасан
хурдул
хурзал
хурибе
хурма
хурмузган
хурремабад
хурхараб
хурхарал
хурхен
хурхеназул
хурхенал
хурхинабулеб
хурхун
хут
хутіана
хутіараб
хутіарал
хутіула
хутіун
хутӏана
хутӏараб
хутӏарал
хутӏелал
хутӏизегӏан
хутӏула
хутӏун
хучни
хушати
хфа
хх
ххамил
ххв
ххвел
хъ
хъаз
хъазахъ
хъазахъазул
хъазахъал
хъазахъистан
хъазахъистаналъул
хъаи
хъала
хъалаялда
хъалаялъул
хъалтагъал
хъалхъангӏадаб
хъамун
хъанч
хъанчал
хъаравуллъи
хъах
хъахіаб
хъахіабросо
хъахіилаб
хъахӏаб
хъахӏабросдерил
хъахӏабросдерица
хъахӏабросолъа
хъахӏабросулъ
хъахӏабросулъа
хъахӏабросулӏа
хъахӏал
хъахӏилаб
хъач
хъв
хъва
хъвавул
хъвавулаб
хъваг
хъвагіаи
хъвагіаязда
хъвагіаялда
хъвагіаялъул
хъвагіи
хъвагіиялда
хъвагіиялъул
хъвагӏаби
хъвагӏазда
хъвагӏаи
хъвагӏаязда
хъвагӏаял
хъвагӏи
хъвагӏиялда
хъвагӏиялъул
хъвадаризе
хъвадарухъабазул
хъвадарухъаби
хъвадарухъан
хъвазе
хъваи
хъвала
хъвалаан
хъвалаго
хъвалеб
хъвалел
хъвалсараб
хъван
хъвана
хъвараб
хъварав
хъварал
хъвартихьуни
хъварши
хъваршини
хъваршиса
хъваял
хъваялда
хъваялъе
хъваялъул
хъвеи
хъвеялъул
хъергъу
хъиз
хъизамалда
хъизан
хъизаналда
хъизаналдаса
хъизаналде
хъизаналъул
хъизангун
хъизихъ
хъизихъалъул
хъист
хъуи
хъулби
хъулухъ
хъулухъазул
хъулухъал
хъулухъалда
хъулухъалдаса
хъулухъалде
хъулухъалъул
хъулухъчи
хъумторхъала
хъутан
хь
хьаргаби
хьаргабиса
хьв
хьвадизе
хьвадулеб
хьвадулел
хьвадун
хьиндаллъиялда
хьиндахъ
хьит
хьихьун
хьолбохъ
хьон
хьонохъ
хьул
хьундасеб
хьундасебгун
хі
хіадури
хіаж
хіажи
хіажимурад
хіажиясул
хіаи
хіакимлъи
хіакимлъиялъул
хіакъалъул
хіакъалъулъ
хіакъикъаталда
хіакъикъаталдаги
хіал
хіалалда
хіалалъ
хіалбихьиял
хіалтіаби
хіалтіана
хіалтіи
хіалтіизаби
хіалтіизабизе
хіалтіизабула
хіалтіизабулаан
хіалтіизабулеб
хіалтіизабун
хіалтіизарула
хіалтіизарулел
хіалтіизе
хіалтіул
хіалтіула
хіалтіулев
хіалтіухъан
хіалуцараб
хіалуцинчіеб
хіамадан
хіамзат
хіаракаталъул
хіарамалдаса
хіарамалъул
хіарис
хіарп
хіарпазда
хіарпазул
хіарпал
хіарпалда
хіарпалдалъун
хіарпалъ
хіарпалъул
хіасан
хіасилал
хіасилалда
хіатта
хіижжа
хіинкъи
хіинкъибукіунгутіиялъул
хіисаб
хіисабалда
хімеи
хіор
хіукму
хіукмуялда
хіукумат
хіукуматалда
хіукуматалъ
хіукуматалъе
хіукуматалъул
хіурмат
хіусеи
хӏ
хӏадис
хӏадур
хӏадуре
хӏадурун
хӏаж
хӏажи
хӏажил
хӏажилазул
хӏажимурад
хӏажица
хӏажиясул
хӏаи
хӏакимлъи
хӏакимлъиялъул
хӏакъаб
хӏакъалъулъ
хӏакъалъулӏ
хӏакъикъат
хӏакъикъаталда
хӏакъикъаталдаги
хӏакъикъияб
хӏал
хӏалаб
хӏалалда
хӏалалъ
хӏалел
хӏалеллъун
хӏалтӏабазул
хӏалтӏаби
хӏалтӏана
хӏалтӏарав
хӏалтӏи
хӏалтӏизаби
хӏалтӏизабизе
хӏалтӏизабиялъе
хӏалтӏизабиялъул
хӏалтӏизабула
хӏалтӏизабулаан
хӏалтӏизабулеб
хӏалтӏизабулел
хӏалтӏизабун
хӏалтӏизарула
хӏалтӏизарулел
хӏалтӏизарун
хӏалтӏизе
хӏалтӏул
хӏалтӏула
хӏалтӏулеб
хӏалтӏулев
хӏалтӏулел
хӏалтӏун
хӏалтӏухъаби
хӏалтӏухъан
хӏалуцараб
хӏалхьи
хӏама
хӏамадан
хӏамаданалда
хӏамадани
хӏамзат
хӏамзатил
хӏамзатилги
хӏамзатица
хӏамида
хӏамил
хӏамитӏа
хӏанкъва
хӏаракат
хӏаракаталдалъун
хӏаракатчи
хӏариколо
хӏарп
хӏарпаз
хӏарпазда
хӏарпаздалъун
хӏарпазул
хӏарпал
хӏарпалги
хӏарпалда
хӏарпалдаса
хӏарпалъ
хӏарпалъул
хӏарпгун
хӏасан
хӏасанил
хӏасил
хӏасилал
хӏасилалда
хӏатта
хӏатӏал
хӏаял
хӏебдаса
хӏетӏе
хӏинкъи
хӏинчӏ
хӏисаб
хӏисабалда
хӏисабалдаги
хӏор
хӏоралда
хӏоралъул
хӏорихъ
хӏоцоса
хӏубазул
хӏуби
хӏукму
хӏукмуялда
хӏукмуялдалъун
хӏукумат
хӏукуматалъ
хӏукуматалъул
хӏукуматияб
хӏукъукъал
хӏумс
хӏур
хӏурмат
хӏурматалда
хӏурматияб
хӏурматияв
хӏусеи
хӏутӏ
хӏучч
хӏх
ц
ца
цадаса
цадасы
цадахъ
цадахъго
цадахълъи
цакьу
цар
цараца
царе
царица
цария
цариялда
царства
царь
царя
цахур
цвел
цвелазул
це
цебе
цебебахъи
цебего
цебеккун
цебесеб
цебет
цебетіеи
цебетіеялъе
цебетіеялъул
цебетӏеи
цебетӏеялъе
цебетӏеялъул
цебетӏуна
цебетӏураб
цебехун
цеве
цевехъан
цевехъанлъун
цее
цез
цезарь
целью
центер
центерлъун
центр
центра
центразул
централда
централдаса
централияб
централиял
централъул
центрлъун
центров
центрполиграф
цер
цере
церегосел
цереса
цересел
церетӏурал
церехун
церехъабазул
церехъаби
церкви
церковь
ци
цивилизации
цивилизация
цивилизациялъул
цик
цин
цинги
циндаго
цитатаби
цитатинабиялъул
цитрусал
цк
цмгі
цмгіялъул
цо
цоабилеб
цог
цоги
цогидаб
цогидав
цогидаз
цогидазул
цогидал
цогидалги
цогиязда
цогияздаса
цогиял
цого
цогояб
цодагьаб
цожубараб
цои
цоккураб
цолъана
цолъараб
цолъарал
цолъи
цолъизабун
цолъиялъул
цолъул
цолъун
цониги
цох
цохіо
цохӏо
цохӏого
цоцада
цоцадаса
цоцаде
цоцазда
цоцазде
цоцазе
цоцалъ
цоцаца
цоя
цояб
цояблъун
цояв
цоявлъун
цояз
цоял
цоялда
цояллъун
цоялъул
цру
цудунго
цумадинскии
цумадинского
цун
цураб
цутіараб
цц
ццим
ццин
цы
ціа
ціадал
ціакъ
ціакъго
ціалана
ціали
ціализе
ціам
ціан
ціар
ціаразда
ціараздаса
ціаразул
ціарал
ціаралги
ціаралда
ціаралдаса
ціаралъул
ціарги
ціаргун
ціарубакі
ціарубакіаздаса
ціарубакіазул
ціарубакіал
ціатіанихъ
ціахур
ціва
цівабзазул
цівер
ціех
ціигьабизе
ціидасан
ціикікіараб
ціикікіун
ціикікіунисеб
ціикікіунисел
ціияб
ціияблак
ціиял
ціорол
ціумада
ціуни
ціуниялъул
ціунтіа
ціунун
ціціикікіун
цӏ
цӏа
цӏад
цӏада
цӏадал
цӏадалъул
цӏадаса
цӏакъ
цӏакъго
цӏалана
цӏаларав
цӏали
цӏализе
цӏалул
цӏалула
цӏалулеб
цӏалулев
цӏалулел
цӏалун
цӏам
цӏан
цӏар
цӏаразул
цӏараки
цӏарал
цӏаралда
цӏаралдалъун
цӏаралдаса
цӏаралъул
цӏарги
цӏва
цӏвабзазул
цӏел
цӏер
цӏех
цӏехон
цӏи
цӏибил
цӏидасан
цӏидасанги
цӏикӏкӏанисеб
цӏикӏкӏараб
цӏикӏкӏун
цӏикӏкӏунеб
цӏиликь
цӏиркъ
цӏиркъил
цӏияб
цӏиял
цӏобокь
цӏолода
цӏор
цӏоралда
цӏорои
цӏорол
цӏорораб
цӏумада
цӏун
цӏунди
цӏуне
цӏуни
цӏунизе
цӏуниялъул
цӏунтӏа
цӏунула
цӏунулеб
цӏунулев
цӏунун
цӏуриб
цӏуриса
цӏутӏел
цӏцӏ
цӏцӏе
цӏцӏикӏкӏарасел
ч
чабхъен
чабхъенал
чаг
чагъир
чагіи
чагӏаз
чагӏазда
чагӏазе
чагӏи
чаи
чакаралъул
чакаргун
чамастак
чан
чанги
чанго
чапар
чара
чаран
чарахъ
чарльз
частеи
части
частично
частности
часть
частью
частях
чахчах
чахъу
чач
чачан
чачаназул
чачанал
чачаналда
чачаналде
чачаналъул
чачангун
чачанистаналъул
чвахи
чвахиялъул
чвахула
чвахулеб
чвахун
че
чед
человек
человека
челябинск
чем
чемпион
чемпионат
чемпионаталда
чемпионаталъул
чемпионлъун
чергес
через
черк
черкес
черкесал
черновик
черх
черхалдаса
черхалъе
черхалъул
чех
чехия
чехь
чеченская
чеченскии
чеченскои
чечни
чечня
чи
чиги
чигун
чили
чилъи
чилъун
чин
числе
численности
численность
число
чияда
чиядабачіеб
чияр
чияс
чиясда
чиясдаги
чиясдаса
чиясдасан
чиясде
чиясе
чиясул
чияца
чл
член
членов
чода
чол
чор
чоралъул
чорхолъ
чот
чохьониб
что
чу
чуги
чупан
чупик
чураяв
чури
чуризе
чуриялъул
чурула
чурун
чч
ччугӏа
ччукӏел
чіаго
чіагоял
чіараб
чіарал
чіахіиял
чівазе
чіваи
чівала
чіван
чівана
чіегіер
чіегіераб
чіезабизе
чіезабула
чіезабун
чіезабуна
чіезе
чіеи
чіинкіиллъи
чіинкіиллъиялда
чіинкіиллъиялде
чіинкіиллъиялъул
чіужу
чіужугіадан
чіужуялъул
чіун
чічіеи
чӏ
чӏа
чӏаго
чӏагоял
чӏадаколоб
чӏамалазул
чӏамалал
чӏана
чӏанди
чӏанкӏа
чӏанкӏал
чӏанкӏаца
чӏараб
чӏарада
чӏарал
чӏарахъ
чӏахӏиял
чӏв
чӏваге
чӏвазе
чӏваи
чӏвала
чӏван
чӏвана
чӏвараб
чӏегӏер
чӏегӏераб
чӏегӏерал
чӏезабула
чӏезабун
чӏезарун
чӏезе
чӏеи
чӏел
чӏечӏого
чӏи
чӏикь
чӏикӏаб
чӏикӏаса
чӏиркъатӏа
чӏиса
чӏобого
чӏола
чӏоларо
чӏолеб
чӏор
чӏорода
чӏохъ
чӏохъа
чӏужу
чӏужугӏадан
чӏун
чӏурмутӏалъул
чӏчӏ
чӏчӏв
чӏчӏвад
ш
шабан
шабдухъ
шаблон
шава
шаваялда
шаввал
шаг
шагарго
шагь
шагьадат
шагьар
шагьаразда
шагьараздаса
шагьараздасан
шагьаразул
шагьарал
шагьаралги
шагьаралда
шагьаралдаса
шагьаралде
шагьаралъе
шагьаралъул
шагьаралъулаб
шагьарги
шагьариял
шагьарлъун
шагьасул
шагьидлъана
шагьре
шагьрестан
шагьрестаналда
шагібан
шагіир
шагӏбан
шагӏир
шагӏирас
шагӏирасул
шаи
шаклу
шал
шам
шамалда
шамалде
шамалъул
шамаха
шамгъуда
шамил
шамилги
шамилида
шамилил
шамилица
шамилхъала
шамиль
шамиля
шамхал
шамхалов
шанагу
шанскии
шапакъат
шапакъатал
шапи
шарам
шарапудин
шарг
шаргӏияб
шариг
шаригӏаталъул
шарль
шарт
шартіияб
шартӏ
шартӏал
шахмарданил
шая
швараб
швед
швезегӏан
швеи
швеция
шего
шеи
шеки
шемаха
шиг
шигіру
шигӏраби
шигӏру
шигӏруялъул
шидиб
шие
шии
шималалда
шималалдаса
шималалдехун
шималалиябгин
шималгун
шималияб
шималиябги
шималиябгин
шималиябгун
шираз
ширван
ширвана
ширваналде
ширваналъул
ширвани
ших
шихсаидов
шияб
шиязул
школа
школабазда
школаби
школалда
школалде
школалъул
школы
шос
шота
шотода
шототӏа
шри
штаб
штабалъул
штат
штатазда
штатазул
штаталъул
штаталялда
штаталялъул
штгь
шумбул
шура
шураб
шурагьиб
шураялда
шураялде
шураялъ
шураялъул
щ
щаи
щаклъи
щал
щамат
щваги
щвана
щвараб
щварав
щварал
щведал
щвезабизе
щвезе
щвезег
щвезегіан
щвезегіанги
щвезегӏан
щвезегӏанги
щвеи
щвелалде
щвеч
щвечӏого
щвеялъул
щиб
щибаб
щибав
щибалда
щибго
щибниги
щив
щивав
щии
щинаб
щинал
щобдакули
щокърол
щола
щолареб
щоларо
щолеб
щу
щуабилеб
щуабилев
щуго
щукру
щула
щулалъаби
щулалъи
щулалъиялъул
щулалъутӏа
щуланиб
щулияб
щун
щущахъ
ъ
ы
ь
э
эбел
эбелалда
эбелалъ
эбелалъул
эбелги
эв
эверест
эволюция
эгеи
эзда
эзул
эи
экбатана
эквадор
экз
экземпляр
экзолабиалияб
экономика
экономикаялъул
экономикияб
экономикиял
экономическое
экраназдаса
эксмо
экспансия
экспедиции
экспедиция
экспорт
эл
элам
элги
элдарилав
электронияб
электронная
электронныи
элемент
элементазул
элементал
элизабет
эль
эльбрус
эльбрусалъул
эмен
эменги
энд
энергетика
энергия
энир
энциклопедии
энциклопедическии
энциклопедия
энциклопедияб
энциклопедиялдаса
энциклопедиялъул
эпикияб
эпоха
эпохи
эра
эрак
эраялде
эраялъул
эргатив
эргативияб
эрдогъан
эрдогъаница
эркен
эркенаб
эркенал
эркенго
эркенлъи
эркенлъиб
эркенлъиялде
эркенлъиялъе
эрменистан
эрменистаналъул
эрмениязул
эрмениял
эсадия
эскимос
эстония
эсул
эти
этих
этникияб
этническая
этнограф
этнографии
этнографическое
этнография
этнокавказ
этносостав
это
этого
этом
этот
эфиопия
эхебе
эхеде
эхеди
эхо
эчеда
ю
юбилеи
юг
юга
югалъул
югалъулаб
юги
юго
югославиялъул
югра
южная
южного
южнои
юл
юлалда
юлианияб
юлии
юлия
юн
юнаи
юналда
юнеско
юнескоялъул
юнус
юпик
юпикал
юпитер
юрии
юрист
юрт
юртовскии
юсуп
юсуф
я
яб
является
являются
яги
язык
языка
языках
языке
языки
языков
языком
языку
яи
яковлев
якъ
якъуб
ял
ялда
ялдаса
ялдасан
ялде
ялова
ялъ
ялъул
ялъуни
ян
яна
январ
январалда
январалдаса
январалде
январалъ
январалъул
январь
января
яндекс
япон
япония
япониялъул
яраг
ярагъ
яргъид
яргъидгӏуцӏарал
яс
ясазул
ясал
ясалда
ясалъул
ясги
ят
ях
яхӏ
яц
яцалъул
яцг
яцги
ячана
ячине
ячун
ячуна
яшав
яшар
і
џ
ѵ
ґ
ғ
ҕ
ҡ
ҧ
ҵ
һ
ӄ
ӏ
ӏӏ
ӏӏӏ
ӡ
փ
օ
ֆ
ְ
ִ
ַ
ָ
ּ
י
ם
מ
ס
צ
ר
،
؛
؟
ء
ا
اء
اب
ابن
ات
ار
اس
استان
اسلامی
اسم
اع
اك
ال
الا
البقرة
التي
الدولي
الذي
الذين
الر
الس
السور
العربية
العزيز
العلم
العلماء
القرا
القرن
الكريم
الل
اللغة
الله
المدينة
المصحف
الملك
الن
النبي
ام
ان
اي
ایران
ب
براهيم
بن
بنت
به
بها
بو
ة
ت
ترجمة
تهران
ث
ج
جمهوری
ح
خ
د
ذ
ر
ز
زينب
س
سعود
سلام
سورة
ش
ص
ض
ط
ظ
ع
عبد
عثمان
عجاز
علم
علماء
على
علي
عمران
عن
غ
ف
في
ق
قسم
ك
كل
ل
لا
لغة
لى
م
ما
محمد
مر
مصر
مطار
معاني
من
منها
ن
نسخة
ه
هذا
هل
همدان
هو
هي
و
وا
وابنه
والا
وب
وقيل
ول
ون
وهي
ى
ي
يات
ية
يس
يل
يم
ين
ً
ٌ
ٍ
َ
ُ
ِ
ّ
ْ
ٓ
ٔ
ٕ
ٰ
پ
ڃ
ژ
گ
ڸ
ۖ
ۗ
ۚ
۝
ܼ
त
न
प
र
ल
ा
ि
े
्
ং
ব
ল
া
ে
க
ங
ச
ட
ப
ர
ி
ு
ூ
ே
்
ට
ර
්
ෙ
་
མ
ོ
ა
ე
ვ
თ
ი
ნ
ო
საქართველოს
უ
ქ
ღ
შ
ჩ
წ
ჯ
ᴀ
ᴍ
ᴟ
ᴹ
ᵐ
ᵚ
ᵝ
​
‌
‎
‐
‒
–
—
―
‘
’
‚
“
”
„
†
•
…
′
″
ₘ
€
№
←
↑
→
↓
↔
↗
↷
⇨
−
③
④
⑦
☉
♂
♦
⟨
⟩
ⲁ
ⲉ
ⲏ
ⲓ
ⲕ
ⲙ
ⲛ
ⲟ
ⲣ
ⲧ
ⴀ
ⴂ
ⴃ
ⴄ
ⴅ
ⴇ
ⴈ
ⴉ
ⴊ
ⴋ
ⴌ
ⴍ
ⴎ
ⴐ
ⴑ
ⴒ
ⴓ
ⴔ
ⴕ
ⴖ
ⴗ
ⴡ
ⴢ
ⴣ
ⴥ
⺀
⺄
⺆
⺈
⺊
⺌
⺕
⺝
⺸
⺼
⿰
⿱
⿲
⿳
⿴
⿵
⿶
⿷
⿸
⿹
⿺
⿻
〈
〉
〢
た
て
れ
゙
コ
ユ
ー
㇁
㇂
㇄
㇇
㇈
㇉
㇓
㐁
㐄
㐅
㐌
㐫
㐬
㐭
㐮
㐱
㑒
㒵
㒸
㒼
㓁
㓞
㔾
㕛
㕣
㖾
㘝
㚅
㚇
㚔
㚘
㝉
㝡
㝴
㝵
㞋
㞢
㞷
㠩
㠭
㠯
㡀
㡭
㡿
㢲
㢴
㣇
㣺
㥯
㪅
㫄
㫐
㫒
㫺
㬅
㬎
㬥
㬰
㲋
㳄
㷠
㸒
㸚
㸦
㼌
㼲
㽞
㿟
䀠
䂞
䍃
䏍
䒑
䖍
䖒
䖝
䖵
䙴
䚻
䜌
䝿
䡛
䧹
䪞
一
丁
丂
七
丄
丅
丆
万
丈
三
上
下
丌
不
与
丏
丐
丑
专
且
丕
世
丘
丙
业
东
丞
丢
丣
两
严
並
丨
丩
个
丫
丬
中
丮
丰
丱
串
丵
丶
丷
丸
丹
为
主
丽
丿
乀
乂
乃
久
乆
乇
么
义
之
乌
乍
乎
乏
乐
乑
乔
乖
乗
乘
乙
乚
乛
乜
九
乞
也
习
乡
乳
乾
亀
亅
了
亇
予
争
事
二
亍
于
亏
亐
云
互
亓
五
井
亘
亚
亜
亞
亟
亠
亡
亢
交
亥
亦
产
亨
亩
享
京
亭
亮
亯
亰
亲
亳
亶
亷
人
亻
亼
亾
仁
今
介
仌
从
仐
仑
仒
仓
仕
他
付
仝
代
令
以
任
企
伊
伏
伐
休
会
伯
但
位
何
佘
余
作
佥
使
來
侈
侌
侖
侯
侵
便
保
俞
信
修
倉
倍
候
倠
備
僉
僕
儿
兀
允
兂
元
兄
充
兆
兇
先
光
兊
克
兌
免
兑
兒
兓
兔
党
兜
兟
入
全
兩
兪
八
公
六
兮
兰
共
关
兵
其
具
典
兹
兼
冀
冂
冃
冄
内
冈
冉
冊
冋
册
再
冎
冏
冐
冒
冓
冖
冗
冘
军
农
冝
冡
冥
冫
冬
冷
几
凡
凢
凵
凶
凷
凸
凹
出
函
凾
刀
刁
刂
刃
刄
刅
分
切
刍
刑
刕
刖
列
刘
则
初
別
利
别
到
制
刺
則
削
剌
前
剡
剽
劉
力
功
加
劦
助
劫
劳
劵
勃
勇
勉
勒
動
務
勞
勤
勹
勺
勻
勾
勿
匀
匂
包
匆
匈
匊
匋
匍
匕
化
北
匚
匝
匡
匪
匱
匸
匹
区
医
匽
匿
區
十
卂
千
卄
卅
卆
升
午
卉
半
卌
华
卑
卒
卓
单
卖
南
卜
卝
卞
占
卡
卢
卣
卤
卦
卩
卪
卬
卯
印
危
即
却
卵
卷
卸
卻
厂
厃
厄
历
厈
厉
厌
厓
厘
厚
原
厤
厥
厨
厭
厲
厶
厷
厸
去
厼
厽
叀
参
參
叅
又
叉
及
友
双
反
叐
发
叒
叔
叕
取
受
叚
叜
叟
口
古
句
另
叩
只
召
可
台
叱
史
右
叵
号
司
叹
吂
各
吅
合
吉
吊
吋
同
名
后
吏
向
吕
君
吝
吞
否
含
启
吳
吴
吹
吾
呂
呆
呈
告
员
呙
周
命
咅
和
咎
咠
咢
咨
咸
咼
哀
品
哉
員
哥
哲
唐
商
啇
問
啚
啬
啻
善
喜
喬
單
喿
嗇
噩
嚴
囊
囗
囘
囙
囚
四
回
囟
因
囧
囬
困
囱
囷
固
国
圂
圅
國
圍
圓
土
圡
圣
圥
在
圭
地
圶
圼
坐
坒
坚
坴
垂
垔
垚
埀
埋
埶
執
基
堂
堅
堆
堇
堯
塞
墨
壘
士
壬
壯
声
壳
壴
壹
壺
壽
夂
处
夅
夆
备
夊
夋
夌
复
夏
夒
夕
外
夗
夘
多
夜
夢
大
夨
天
太
夫
夬
夭
央
失
夲
头
夷
夸
夹
夻
夾
奂
奄
奇
奈
奉
奎
奏
奐
契
奓
奔
奚
奞
奠
奢
奥
奭
女
奴
奻
好
如
妄
妙
妟
妥
妻
妾
姑
委
姜
威
娄
婁
婴
嬰
嬴
子
孑
孔
孕
孖
字
存
孚
孛
孝
孟
季
孤
学
孫
孱
學
宀
宁
宂
它
宅
宇
守
安
宋
完
宏
宓
宗
官
定
宛
宜
宝
客
宣
室
宮
宰
害
家
容
宾
宿
寄
寅
密
富
寒
察
寧
審
寫
寬
寮
寸
对
寺
寻
寽
対
寿
封
尃
射
将
將
專
尉
尊
尋
尌
對
小
少
尒
尓
尔
尖
尗
尚
尞
尢
尣
尤
尧
尨
尭
就
尸
尹
尺
尻
尼
尽
尾
尿
局
居
屈
屋
屎
屏
屑
展
屖
屚
属
屠
屡
屬
屮
屯
屰
山
屵
屾
岁
岂
岑
岡
岩
岳
岸
峯
峰
島
崇
崑
崔
崖
崙
崩
嵬
嶲
巂
巛
川
州
巟
巠
巢
巤
工
左
巧
巨
巩
巫
差
己
已
巳
巴
巷
巸
巽
巾
巿
帀
市
布
希
帚
帛
帝
带
師
席
帶
常
干
平
年
幵
并
幷
幸
幺
幻
幼
幽
幾
广
広
庄
床
底
店
庚
府
度
庫
庭
庶
康
庸
廉
廌
廛
廣
廩
廴
延
廷
建
廾
廿
开
弁
弃
弄
弇
弋
式
弓
弔
引
弗
弘
弜
弟
弥
弦
弱
張
強
强
彊
彌
彎
彐
彑
当
彔
录
彖
彗
彡
形
彥
彦
彧
彭
彳
役
彼
往
待
律
徒
得
徙
從
復
微
徵
心
忄
必
忌
忍
志
忝
忠
忩
快
念
忽
忿
思
怠
急
怱
恆
恒
恩
恭
息
悉
患
悤
悲
悶
惠
惡
惢
愁
愈
意
愛
感
慈
慧
慮
憂
憲
應
戀
戈
戉
戊
戋
戌
戍
戎
成
我
戒
戔
或
戚
戠
戢
截
戲
戶
户
戹
戼
戾
房
所
扁
扇
手
扌
才
打
托
执
承
折
拉
拜
拿
掌
推
提
摩
支
攴
攵
收
攸
改
放
政
敄
敏
敕
敖
敗
敝
敞
敢
散
敦
敫
敬
数
敷
數
斂
文
斉
斊
斗
斤
斥
斩
斬
斯
新
方
於
施
斿
旁
旋
族
无
旡
既
旣
日
旦
旧
旨
早
旬
旱
旲
时
旾
昆
昇
昌
昍
明
昏
易
昔
昗
昜
星
春
昬
是
昱
昴
昷
時
晃
晋
晏
普
景
晶
智
暑
暴
曇
曩
曰
曲
曳
更
曷
書
曹
曼
曾
替
最
朁
會
月
有
朋
服
朔
朕
朗
望
朝
木
朩
未
末
本
札
朮
术
朱
朵
朶
朿
杀
杏
杜
束
条
来
東
杲
杳
松
析
林
枚
果
枝
枲
枼
某
柔
查
柬
柰
柴
栗
桀
桑
桼
梁
條
梟
梨
棘
棠
棥
森
楚
業
楽
榮
樂
樊
欠
次
欣
欮
欲
欶
欽
款
歆
歇
歛
止
正
此
步
武
歨
歪
歮
歯
歰
歲
歴
歷
歸
歹
歺
死
殳
段
殷
殸
殹
殺
殻
殿
毋
毌
母
每
毒
比
毕
毚
毛
毳
氏
氐
民
气
氣
水
氵
氶
氷
永
氺
氾
求
汉
汝
汞
江
沃
沓
沙
沝
泉
法
波
泣
泥
泰
洛
洪
活
派
流
浦
浪
浮
淡
淮
清
渚
渠
湯
滿
漢
漸
火
灬
灭
灰
灵
灷
炅
炎
炏
炗
炙
炭
為
烈
烏
烝
焉
無
焦
焱
然
煞
熊
熏
燕
營
燮
爪
爫
爭
爯
爰
爱
爲
爵
父
爻
爽
爾
爿
片
牙
牚
牛
牜
牟
牢
牧
牪
牽
犀
犬
犭
犮
狂
狄
狊
独
狺
猋
猒
猪
献
獻
玄
率
玉
王
玟
玨
珎
珠
班
理
琴
瑟
瑩
瓜
瓦
甘
甚
生
産
用
甫
甬
田
由
甲
申
电
甶
男
甸
甹
画
甾
畀
界
畏
畐
留
畜
畟
畢
畧
畨
番
畫
異
畱
當
畺
畾
疊
疋
疌
疑
疒
疾
癶
癸
癹
登
發
白
百
皀
皃
的
皆
皇
皋
皐
皕
皮
皷
皿
盃
盆
盇
盈
益
盍
盎
监
盒
盖
盛
盡
監
盤
盧
目
直
相
盾
省
眇
眉
看
眔
眞
真
眷
眼
眾
着
睘
睪
睿
瞏
瞢
瞿
矍
矛
矞
矢
矣
知
矦
短
石
破
碎
磊
磨
示
礻
礼
祟
票
祭
禀
禁
禸
禹
禺
离
禽
禾
禿
秀
秃
秉
秋
科
秝
秦
移
稟
穀
穆
穌
穴
究
穹
空
穿
突
窄
窒
立
竒
竜
竝
竟
章
童
竹
笑
笠
筆
等
答
箕
算
箴
節
篤
篭
米
粉
粛
粟
粤
粦
粲
糞
糸
糹
系
約
納
素
索
紫
累
細
絜
絫
絲
維
綿
縣
繇
纍
纟
缶
网
罒
罔
罕
罗
罙
罡
罢
罪
署
罷
羅
羊
羌
羍
美
羔
羕
羗
羞
羡
羣
群
義
羲
羸
羽
翁
翏
習
翕
翟
翠
翼
老
耂
考
者
耆
而
耎
耑
耒
耳
耴
耶
耷
聂
聊
联
聖
聚
聶
聿
肀
肃
肅
肉
肖
肙
肥
肩
肯
育
肴
胃
背
胡
胥
能
脊
脩
膚
臣
臤
臧
自
臬
臭
臯
臱
至
致
臺
臼
臽
臾
臿
舀
舂
舄
與
興
舉
舌
舍
舛
舜
舞
舟
般
艮
良
色
艸
艹
艾
芒
芔
芬
芮
花
芳
芺
芻
苔
苗
苟
若
苦
英
茶
茸
荅
草
荒
荣
荼
莆
莧
莫
莽
菆
菊
菐
華
萬
落
葉
著
葛
董
葵
蒙
蒦
蒼
蓋
蓬
蓺
蔑
蔡
蕉
蕭
薄
薛
薦
薰
藍
藏
藥
蘭
虍
虎
虐
虒
虔
處
虖
虗
虘
虚
虛
虜
虞
虫
虽
蚤
蚩
蜀
蜜
蟲
蠡
血
行
衍
衛
衣
衤
表
衮
衰
袁
袞
褭
褱
襄
襾
西
覀
要
覃
見
規
覓
覧
親
覽
见
角
解
言
訁
訇
計
詹
誩
諸
讠
谷
豆
豈
豊
豐
豕
豖
豙
象
豦
豩
豪
豸
貇
貝
貞
貟
負
貢
貧
貪
貫
責
貳
貴
買
費
賁
資
賈
賏
賓
賔
賛
賞
賢
賣
質
賴
贊
贝
贡
责
贯
贲
贵
赖
赞
赤
赦
走
越
足
路
蹇
身
躬
車
軍
軎
軟
輦
车
辛
辜
辟
辥
辰
辱
農
辵
辶
边
达
过
近
连
迷
追
退
送
逆
逐
通
速
造
逢
連
逮
進
遀
遂
過
道
達
遣
適
遷
遺
邊
邑
邕
那
邦
邪
郎
部
郭
都
鄉
酉
酋
配
酓
釆
采
里
重
野
量
金
釒
錢
钅
長
镸
长
門
閃
閉
開
閏
閑
閒
間
閔
閵
閻
闌
门
间
闷
阑
阜
阝
阿
降
陳
隆
隊
隋
隡
隨
隱
隶
隹
隺
隻
隼
隽
难
雀
雁
集
雈
雋
雍
雐
雔
雙
雚
雜
雝
離
難
雨
雩
雪
雲
零
雷
需
霍
霜
霝
霞
霸
靈
靑
青
非
靡
面
靣
革
韋
韦
韭
韯
韱
音
頁
頃
項
須
頗
頡
頻
顛
页
風
风
飛
飞
食
飠
養
饣
首
香
馬
馮
駦
马
骨
高
髟
鬥
鬯
鬲
鬼
魚
魯
鮮
鱼
鲁
鳥
鳳
鸟
鹵
鹿
麃
麗
麥
麦
麻
黃
黄
黍
黎
黑
黒
黨
黹
黽
黾
鼎
鼓
鼠
鼻
齊
齋
齐
齒
齿
龍
龙
龜
龟
龠
龰
龱
龴
龵
龶
龷
龸
龹
ꙋ
ꚋ
ꚓ
ꜥ
ꟺ
ꬺ

者
艹
ﺍ
ﺎ
ﻫ
﻿
？
𐭠
𐭥
𐭩
🇺
𠀁
𠀃
𠀆
𠀉
𠀎
𠀐
𠁁
𠁣
𠂆
𠂇
𠂈
𠂉
𠂊
𠂋
𠂎
𠂒
𠂔
𠂛
𠂡
𠂢
𠂤
𠂬
𠂭
𠂹
𠃊
𠃋
𠃌
𠃍
𠃎
𠃑
𠃓
𠃔
𠃜
𠄌
𠄎
𠄠
𠄢
𠆢
𠆥
𠇍
𠈌
𠌵
𠓜
𠔉
𠔥
𠔼
𠔽
𠔿
𠕀
𠕁
𠕋
𠘧
𠘨
𠙻
𠙼
𠚏
𠚒
𠚤
𠚪
𠣏
𠤎
𠤕
𠥓
𠦄
𠦑
𠦝
𠧒
𠧗
𠧪
𠩺
𠪚
𠫓
𠫔
𠫤
𠬛
𠬝
𠬞
𠬢
𠬤
𠬶
𠮛
𠮦
𠮷
𠯑
𠱠
𠳮
𠷎
𡈼
𡉀
𡉵
𡌥
𡍮
𡏳
𡕒
𡕩
𡕰
𡖅
𡗗
𡗜
𡘆
𡘤
𡧱
𡨄
𡩧
𡬠
𡭽
𡰣
𡰥
𡰪
𡰯
𡰱
𡷈
𡸁
𡿨
𡿩
𡿪
𡿺
𢀖
𢀛
𢀩
𢁙
𢆉
𢆰
𢆶
𢇁
𢇇
𢉖
𢌬
𢌿
𢏚
𢑑
𢑚
𢖻
𢙣
𢛳
𢦏
𢦒
𢧵
𢼄
𢾕
𣁋
𣄼
𣅀
𣅽
𣍘
𣎳
𣎵
𣏋
𣏼
𣗥
𣥂
𣥖
𣦵
𣦼
𣧄
𣪊
𣪠
𣬉
𣳾
𣶒
𤇾
𤊽
𤐫
𤓰
𤔔
𤕨
𤣩
𤰇
𤰔
𤰞
𤴓
𤴔
𤽄
𥁑
𥁕
𥃦
𥃩
𥃭
𥇡
𥑟
𥘅
𥘈
𥝢
𥫗
𥱡
𦈢
𦉪
𦉬
𦉼
𦍌
𦍒
𦎧
𦐇
𦓔
𦔮
𦘒
𦙃
𦚏
𦣝
𦣞
𦣻
𦥑
𦥔
𦥯
𦨉
𦭝
𦰩
𧆞
𧈧
𧘇
𧰨
𧴪
𧴮
𧵩
𧾷
𨸏
𨾴
𩙿
𩠐
𩫏
𩵋
𪉷
𪜀
𪟽
𪠲
𪩲
𫇦
𫔭
𫜸
𫝀
𫠣
𫠩
𫢉
𫥞
𫩏
𫩠
𫪡
𫲽
𫶧
𬀷
𬐘
𬗌
𬙙
𬛸
𬜯
𬟩
𬯁
𬴘
𬺻
𬼉
𬼖
𭀰
𭁈
𭁨
𭅰
𭑈
𭕄
𭗼
𭤨
𭥫
𭻾
𮅕
𮊿
𮍌
𮍏
𮓗
𮥼
𮧮
廾
𰀁
𰀄
𰀈
𰀉
𰀕
𰀠
𰀡
𰀢
𰀪
𰁜
𰃮
𰆊
𰆘
𰋙
𰕎
𰢴
𰧭
𰯲
00--
0025100--
01--
02--
04--
05--
08--
42--
44--
49--
57--
70--
71--
76--
78--
80--
81--
82--
84--
85--
86--
87--
88--
89--
92--
95--
978--
98--
99--
a--
ab--
abol--
ac--
ad--
addi--
ag--
ah--
ail--
al--
am--
an--
app--
appe--
appli--
ar--
art--
as--
ash--
astro--
at--
au--
av--
ay--
az--
b--
ba--
baluch--
ban--
bapt--
bar--
be--
beat--
bi--
biblio--
bio--
bl--
bo--
bon--
boy--
br--
bro--
bu--
by--
c--
ca--
car--
cau--
cen--
ch--
ci--
cla--
clau--
co--
col--
collabo--
colo--
com--
con--
cons--
conti--
contr--
coor--
cor--
cre--
cri--
cu--
cy--
d--
da--
dal--
dan--
daugh--
de--
deg--
di--
dis--
do--
dor--
draw--
dre--
du--
duden--
dur--
dyna--
e--
eb--
ed--
effe--
ei--
el--
ele--
elep--
em--
emer--
emi--
emp--
en--
ene--
ente--
er--
es--
et--
eu--
ex--
exam--
expedi--
explor--
f--
fa--
far--
fe--
fest--
fi--
fin--
flo--
fol--
for--
fr--
fred--
fried--
fu--
g--
ga--
gar--
ge--
gem--
gene--
geo--
ger--
gi--
go--
gra--
grif--
gro--
gu--
gypt--
h--
ha--
ham--
hard--
haw--
he--
hel--
hi--
hin--
ho--
hol--
hon--
hor--
hos--
hu--
hun--
hunga--
i--
icel--
iden--
im--
in--
influ--
inter--
inu--
invest--
ir--
is--
j--
ja--
je--
jo--
ju--
k--
ka--
ke--
kee--
ko--
ku--
l--
la--
laryn--
le--
lexico--
li--
lin--
lo--
lu--
ly--
m--
ma--
mal--
mar--
mat--
mcd--
me--
meas--
mech--
mela--
memo--
mi--
micro--
mil--
mini--
miss--
mo--
mon--
mor--
mos--
mu--
mul--
multi--
mun--
n--
na--
nan--
ne--
news--
ni--
no--
nor--
north--
nu--
nume--
o--
oce--
ol--
on--
opti--
or--
ori--
os--
ot--
out--
p--
pa--
pan--
par--
pat--
pe--
peni--
ph--
phi--
philan--
photog--
pi--
pl--
po--
pol--
por--
pr--
pre--
pro--
profes--
pron--
q--
qua--
r--
ra--
re--
recog--
rega--
regi--
resp--
rest--
reu--
rhe--
rhinoc--
ri--
ro--
ru--
s--
sa--
sala--
sch--
scien--
se--
sh--
sha--
shi--
sho--
si--
simp--
sk--
sla--
so--
sol--
son--
sp--
spe--
speak--
st--
ste--
stra--
stu--
su--
sud--
supp--
sve--
sviz--
swe--
t--
ta--
tax--
te--
teac--
tele--
ter--
text--
th--
thou--
thutm--
ti--
to--
tr--
traf--
tre--
tri--
tu--
ty--
typol--
u--
ue--
ul--
un--
up--
ur--
v--
va--
ve--
ver--
vi--
vo--
w--
wa--
war--
we--
wi--
wiki--
wil--
win--
wo--
x--
y--
yu--
z--
za--
ze--
ıst--
ə--
ʔ--
ʼ--
ː--
α--
λ--
μ--
а--
аб--
абад--
аби--
абиду--
абстр--
ав--
авар--
авиа--
автобио--
автобу--
автомоби--
аг--
агломе--
аго--
агуль--
агь--
ад--
адат--
аде--
админи--
ады--
ажалъ--
ажи--
аз--
ак--
академиче--
акъ--
ал--
ала--
алек--
алип--
алъ--
алъи--
аляс--
ам--
амад--
амир--
ан--
ана--
анатоли--
андер--
анкь--
ант--
антро--
ап--
ар--
араб--
арам--
археологиче--
архитек--
ас--
асир--
асл--
ат--
атом--
афгани--
афин--
афр--
ах--
ахир--
ахъ--
ахьал--
ахі--
ахӏ--
аш--
б--
ба--
баг--
баж--
бажар--
бакк--
бакте--
баку--
бакъ--
бакі--
бакӏ--
баланов--
бангл--
бар--
бас--
бах--
бахъ--
бахӏ--
бахӏар--
бацӏ--
бач--
баччу--
бачӏ--
баш--
бащ--
бащдарагь--
баян--
бе--
бег--
бегь--
бек--
бекь--
бело--
бер--
беэ--
би--
биж--
бизне--
бикъ--
билълъ--
билӏ--
био--
биті--
бихх--
бихь--
биц--
бицц--
бич--
бичічі--
бищ--
бл--
благо--
ближ--
бо--
богос--
боев--
бож--
бокь--
бокі--
бокӏ--
бол--
бом--
бон--
бор--
борж--
борт--
боси--
босу--
босф--
бу--
буге--
бугь--
букі--
бул--
бур--
бусс--
бухь--
бухӏ--
быв--
бю--
в--
ва--
ваб--
вагъ--
вакъ--
ван--
вар--
вас--
ваті--
вах--
вахъ--
вац--
вач--
вачі--
вачӏ--
ваш--
ве--
векь--
велико--
велья--
вер--
верх--
вз--
взры--
ви--
вики--
вил--
вино--
виртуаль--
виті--
вихьизав--
вищ--
вла--
вну--
внутрен--
во--
воз--
вокь--
вол--
вор--
ворж--
восхож--
вс--
ву--
вукъ--
вукі--
вусс--
вы--
выбо--
выс--
выш--
г--
га--
ган--
гар--
гвангъ--
ге--
ген--
гео--
геоло--
геополитик--
геор--
гер--
герб--
ги--
гид--
гл--
го--
гон--
гор--
гочин--
граду--
гренлан--
гречес--
гри--
гроб--
грузин--
гу--
гуга--
гул--
гур--
гургин--
гуч--
гъ--
гъалгъ--
гъаф--
гъв--
гъене--
гъо--
гъоркь--
гъорлӏ--
гъу--
гь--
гьа--
гьав--
гьар--
гье--
гьед--
гьен--
гьер--
гьи--
гьикъ--
гьо--
гьодорлъи--
гьу--
гьукъ--
гьун--
гьунарлъ--
гьунга--
гі--
гіадат--
гіахьал--
гіизраи--
гіор--
гіу--
гіуці--
гіуціалаб--
гӏ--
гӏанди--
гӏор--
гӏуз--
гӏуцӏ--
д--
да--
даг--
дагь--
дал--
дан--
данде--
дап--
дар--
дат--
дахӏада--
де--
дер--
дет--
дж--
джаб--
джан--
джо--
джу--
ди--
дибир--
дин--
династ--
днев--
до--
дон--
др--
древне--
ду--
е--
еб--
ев--
еван--
ед--
еж--
еза--
екат--
ел--
елму--
ер--
ермо--
есф--
ж--
жаб--
жал--
жам--
жан--
же--
жин--
жинс--
жо--
жу--
жудо--
жум--
з--
за--
завоев--
загь--
загӏип--
зака--
зам--
зан--
зар--
захі--
захӏ--
защ--
зая--
зим--
зна--
зоди--
зона--
зу--
и--
иб--
ибе--
иг--
ид--
иде--
иере--
иеро--
из--
изве--
издатель--
изоб--
ик--
ил--
ильин--
им--
имам--
иман--
ин--
индо--
ини--
ино--
инх--
ип--
ир--
иран--
ирс--
ис--
иск--
исполни--
использов--
испы--
ист--
исуп--
исфа--
их--
ич--
иш--
ия--
ияб--
к--
ка--
кабине--
каде--
каж--
как--
кам--
кан--
кап--
капур--
кар--
касп--
кат--
католик--
кафедр--
каче--
каш--
кв--
квер--
квин--
ке--
кен--
кизил--
кин--
кино--
ких--
киш--
кк--
кке--
кл--
клуб--
кн--
ко--
код--
кол--
ком--
компонент--
кон--
консер--
конст--
конституци--
конт--
конференци--
кор--
космиче--
кре--
крем--
крис--
крит--
кро--
кру--
круп--
круш--
крым--
ку--
кугь--
кузне--
кул--
кум--
кун--
кур--
курд--
кут--
куц--
къ--
къар--
къв--
къе--
къер--
къибла--
къилаб--
къира--
къо--
къоті--
къотӏ--
къу--
къур--
кь--
кьвагь--
кьер--
кьиж--
кі--
кіанці--
кіи--
кіикі--
кӏ--
кӏи--
кӏу--
кӏутӏбу--
л--
ла--
лаби--
лага--
лагъ--
латин--
ле--
лен--
ли--
либ--
лирик--
литератур--
лич--
ло--
лологъ--
лу--
лъ--
лъаб--
лъазаб--
лъазав--
лъазар--
лъам--
лъар--
лъе--
лъи--
лъугі--
лъугӏ--
лъут--
ль--
лю--
люб--
лӏу--
лӏугьи--
лӏугӏ--
м--
ма--
мав--
маг--
магъри--
магі--
магілу--
магӏ--
мад--
маду--
мадугьал--
маж--
мал--
мали--
малъ--
мар--
марга--
марш--
мас--
мат--
мах--
махі--
мачӏ--
маш--
ме--
мегь--
мед--
мех--
ми--
мил--
мингрель--
мир--
миср--
мия--
мне--
мно--
мо--
модер--
мон--
моцӏ--
му--
мугъ--
мугьажир--
мугьажирлъи--
муд--
мужа--
муз--
мукъ--
мукъад--
мунагь--
мур--
мурид--
мусуль--
муті--
мутӏигӏ--
муъ--
муъмин--
н--
на--
нав--
наж--
наз--
наиме--
нак--
накъ--
накӏ--
напа--
нар--
нарт--
нас--
натур--
нахъ--
нахъа--
нахъбусс--
наци--
не--
нега--
неизвест--
нек--
непал--
непризнан--
неф--
ни--
ник--
нно--
но--
нов--
ном--
нор--
ну--
нур--
нус--
нух--
о--
об--
обла--
обо--
обращ--
объед--
объя--
од--
ок--
океан--
окь--
ол--
олимпиа--
олохъ--
он--
оп--
ор--
орк--
орфф--
ос--
основ--
от--
отах--
отк--
отно--
отря--
оф--
офиц--
официа--
официаль--
оц--
оцо--
п--
па--
пав--
пади--
палест--
палестин--
пан--
пар--
парс--
пасс--
пат--
патӏ--
пашман--
пе--
пен--
пер--
пир--
пира--
писа--
пись--
плат--
по--
пове--
повыш--
под--
позитив--
пол--
полиц--
полк--
полу--
популяр--
пре--
пред--
премуд--
префик--
при--
про--
произве--
просв--
професси--
пу--
путеш--
пь--
пят--
р--
ра--
раб--
рагь--
рагьукъ--
рагі--
рагіаллъи--
рагӏ--
радикал--
раз--
рази--
ракк--
ракъ--
ракь--
ракӏ--
рам--
рас--
рат--
раф--
рах--
рахъ--
рацӏ--
рач--
рачӏ--
ращ--
ре--
рег--
реги--
регь--
регӏ--
рекъ--
рекъеза--
рекі--
рекӏ--
релъ--
рех--
речӏ--
ри--
ригь--
рикь--
рикі--
рикікі--
рикӏкӏ--
рим--
рис--
риті--
ритӏ--
риххиз--
ричч--
рияд--
ро--
род--
рос--
ру--
руд--
руз--
руковод--
рукопис--
рукъ--
рум--
рус--
руссин--
рухі--
рухӏ--
ручч--
ры--
рыб--
ря--
с--
са--
саб--
сад--
сак--
саккар--
сал--
сан--
сар--
саситлин--
сах--
сб--
св--
свер--
сверд--
священ--
се--
септу--
сер--
си--
сиби--
сил--
сим--
син--
сир--
ск--
сле--
см--
со--
соб--
собст--
сов--
содер--
соз--
сол--
сон--
сох--
соци--
социологиче--
сочи--
сп--
спек--
специ--
спи--
спо--
спут--
сред--
средне--
сс--
ст--
стан--
стере--
стр--
су--
суал--
суб--
субст--
суж--
сум--
сун--
суп--
сурат--
сух--
сфера--
сша--
т--
та--
тав--
таг--
там--
тамаш--
тар--
тарих--
тах--
творче--
творчество--
те--
текто--
теле--
тем--
тер--
терро--
тех--
течӏ--
ти--
то--
тон--
тор--
тоталит--
тохлъу--
тр--
традици--
тропик--
ту--
тум--
тур--
турист--
турни--
туш--
тю--
ті--
тіа--
тіад--
тіарикъ--
тіегь--
тіибиті--
тіобиті--
тіокі--
тіоц--
тӏ--
тӏа--
тӏагӏин--
тӏад--
тӏаде--
тӏокӏ--
тӏон--
тӏох--
тӏу--
тӏур--
у--
уасет--
ужу--
ук--
укму--
украин--
ул--
ум--
умру--
ун--
уна--
уни--
ункъ--
унт--
ур--
урал--
ургъ--
усла--
уст--
ухъ--
уч--
ушак--
ф--
фа--
фак--
фар--
фари--
фасо--
фаши--
фашист--
фе--
фестив--
физ--
фиксатинаб--
финан--
фир--
фло--
фор--
формиров--
фото--
фр--
фур--
фут--
х--
ха--
хадж--
хал--
хан--
хар--
хас--
хат--
хатӏ--
хач--
хв--
хвалч--
хве--
хер--
хетт--
хинкӏ--
хир--
хис--
хиси--
хо--
хол--
хор--
хрес--
хро--
ху--
хур--
хуті--
хутӏ--
хх--
хъ--
хъва--
хъвагӏ--
хъуз--
хь--
хьв--
хьихь--
хі--
хіаким--
хіал--
хіор--
хіу--
хӏ--
хӏада--
хӏаж--
хӏак--
хӏакъ--
хӏал--
хӏар--
хӏарам--
хӏинкъ--
хӏу--
ц--
ца--
цар--
це--
цебе--
цере--
церковно--
ци--
цик--
цифр--
цо--
цогь--
цоца--
ці--
ціар--
ціикі--
ціикікі--
ціун--
цӏ--
цӏа--
цӏар--
цӏару--
цӏе--
цӏер--
цӏи--
цӏикӏкӏ--
цӏор--
цӏун--
ч--
чагьар--
чад--
чак--
чар--
чвах--
че--
чер--
черно--
чет--
чех--
чехь--
чи--
чин--
чис--
чте--
чу--
чі--
чіед--
чіинкіиллъ--
чӏ--
чӏв--
чӏин--
чӏинкӏиллъи--
чӏухӏ--
чӏчӏ--
ш--
ша--
шак--
шам--
шар--
шах--
ше--
шелко--
шигӏ--
шима--
шир--
штат--
шу--
шуш--
щ--
щал--
щве--
щвезаб--
щекъ--
щиб--
щив--
щоб--
щокъ--
щу--
э--
эгип--
эк--
эко--
экс--
эл--
электрон--
эми--
эмм--
эмоци--
эра--
эс--
эстетик--
эт--
этимоло--
этник--
этниче--
этно--
ю--
юж--
юл--
юридик--
я--
ягьуд--
яз--
ян--
яргъ--
яргъид--
яры--
яс--
ят--
яхъ--
яц--
ا--
ال--
الت--
الث--
الط--
الف--
ب--
بم--
ت--
ج--
ح--
حك--
خ--
د--
ذ--
ر--
ز--
س--
ش--
ص--
صف--
ط--
ع--
غ--
ف--
ق--
ك--
ل--
م--
ن--
نز--
ه--
و--
ي--
--0
--1
--2
--24
--3
--4
--5
--6
--7
--8
--9
--a
--able
--ain
--al
--ala
--ald
--an
--ance
--ant
--ar
--ary
--as
--at
--ate
--ated
--atics
--ation
--au
--ay
--b
--ba
--berg
--c
--ca
--cal
--ce
--ch
--che
--ck
--co
--cribe
--cs
--ct
--cy
--d
--da
--dae
--day
--dd
--de
--ded
--dia
--dite
--ds
--dy
--e
--eal
--ed
--ee
--ek
--el
--ell
--em
--en
--er
--ered
--ers
--ert
--ery
--es
--est
--et
--ever
--ey
--ez
--f
--ff
--fied
--ft
--ful
--g
--ge
--ges
--gh
--ght
--gi
--gies
--ging
--go
--gs
--gus
--h
--ha
--ham
--head
--hip
--hr
--i
--ia
--ial
--ic
--ica
--ical
--ice
--ics
--id
--idae
--ie
--ier
--ies
--ii
--il
--in
--ina
--ing
--ings
--io
--ion
--ions
--is
--ish
--ism
--ist
--it
--itarian
--ith
--ities
--ity
--ium
--ius
--ive
--ix
--j
--ja
--k
--ka
--ke
--ker
--kh
--kin
--kov
--l
--la
--lar
--ld
--le
--led
--ler
--ley
--lf
--ling
--lis
--lism
--lity
--lk
--ll
--lla
--lle
--lly
--lo
--logical
--logy
--lph
--ls
--lt
--lton
--lus
--ly
--lyn
--m
--ma
--man
--me
--ment
--ments
--mond
--n
--na
--nce
--nd
--ne
--ner
--ng
--nger
--ngs
--ni
--nia
--ning
--nk
--nn
--no
--ns
--nt
--nts
--nus
--ny
--nı
--o
--ods
--ogy
--om
--on
--ons
--or
--orm
--ors
--os
--ova
--ow
--owitz
--p
--pa
--phic
--q
--r
--ra
--ram
--rd
--rds
--re
--rg
--ri
--ric
--rie
--ring
--rio
--ris
--rium
--rn
--rns
--ro
--rs
--rt
--rum
--ry
--s
--se
--ses
--sh
--ship
--si
--sia
--sies
--sis
--sm
--son
--ss
--st
--sy
--t
--ta
--te
--ted
--teenth
--ter
--tes
--th
--ti
--tic
--ties
--tion
--tions
--tive
--ton
--tory
--ts
--tt
--ty
--tz
--u
--ud
--ue
--uel
--ul
--ula
--ular
--um
--ur
--ure
--us
--v
--ve
--ved
--ver
--vy
--w
--win
--witz
--x
--y
--yl
--yn
--z
--za
--zation
--zeit
--zi
--ς
--а
--аб
--абад
--аби
--абула
--абуна
--ав
--аг
--аги
--агъ
--ад
--ада
--аев
--ает
--ажа
--аз
--азда
--аздаги
--аздаса
--аздасан
--азде
--азе
--азул
--аи
--аин
--ак
--ал
--алги
--алда
--алдаги
--алдалъун
--алдаса
--алде
--алеб
--али
--алияб
--алиял
--ало
--алъ
--алъе
--алъул
--ам
--ами
--ан
--ана
--анда
--ани
--ании
--анил
--анов
--ао
--ар
--ара
--араб
--ареб
--ари
--аро
--арова
--ас
--асда
--асе
--асул
--асулаб
--асухъе
--ат
--атель
--атия
--атияб
--ать
--аул
--ах
--ахъ
--аца
--ации
--ация
--ач
--аш
--ая
--аялъул
--б
--ба
--баз
--базда
--базде
--базул
--бал
--бе
--бег
--бек
--би
--бии
--блъи
--бок
--в
--ва
--вание
--вая
--вги
--ве
--венд
--ви
--вин
--вияб
--вы
--вые
--вым
--г
--гда
--ги
--гии
--гин
--гия
--го
--гу
--гун
--гь
--гьуге
--гіан
--гӏали
--гӏан
--д
--да
--даб
--дав
--даги
--дак
--дал
--далъун
--дарре
--даса
--дасан
--де
--дер
--дерил
--дерица
--дехун
--дж
--дзе
--ди
--диб
--дибир
--дил
--дин
--дуз
--дул
--дулал
--духъ
--ды
--е
--еа
--еб
--ев
--ева
--ег
--еги
--еев
--ез
--езул
--еи
--ек
--ел
--ели
--ель
--ем
--ема
--ен
--ение
--ения
--енко
--енными
--енных
--ент
--ер
--ере
--еро
--ес
--ескии
--есса
--ет
--ета
--ети
--етии
--еты
--ея
--ж
--жа
--жи
--з
--за
--забаз
--забахъ
--заби
--забул
--забула
--забуна
--забураб
--зан
--заризе
--зариялъе
--зарун
--зации
--зация
--зда
--зде
--зды
--зе
--зи
--зии
--зм
--зма
--зул
--зы
--и
--иа
--иан
--иб
--ив
--ивияб
--иги
--иго
--ид
--ида
--идаса
--иде
--ие
--изация
--изе
--изм
--ии
--ик
--ика
--ики
--икияб
--икиял
--ил
--ила
--илаб
--илазул
--им
--ими
--ин
--ине
--ины
--ион
--ип
--ир
--ис
--иса
--исеб
--ист
--истан
--ит
--ители
--ительные
--ится
--ификация
--их
--ихӏ
--ица
--ицы
--ич
--ическая
--ические
--ическии
--ических
--ическои
--ию
--ия
--ияб
--ияв
--ияз
--иязул
--иял
--иялда
--иях
--к
--ка
--кан
--кар
--кас
--кая
--ке
--ки
--кие
--кии
--кил
--ккун
--ко
--ков
--кого
--кс
--кт
--ку
--къ
--къа
--къе
--кь
--л
--ла
--лав
--лаев
--лазул
--лал
--лан
--ларо
--лас
--лась
--лги
--лго
--лда
--лдаса
--лде
--ле
--леб
--лев
--леи
--ление
--лер
--ли
--лии
--лин
--лияб
--лиял
--лл
--ло
--лу
--лъ
--лъаби
--лъани
--лъе
--лъи
--лъиги
--лъизе
--лъиялда
--лъиялде
--лъиялъ
--лъиялъе
--лъиялъул
--лъуда
--лъуде
--лъул
--лъула
--лъулеб
--лъулел
--лъун
--лъунги
--ль
--льт
--ля
--лӏ
--м
--ма
--мажид
--маз
--ме
--мес
--мет
--ми
--мизе
--мирза
--мия
--н
--на
--нал
--нан
--нат
--ная
--нг
--нгал
--нги
--нго
--нд
--нда
--не
--нз
--ни
--ниб
--ниги
--ние
--нии
--нила
--нилан
--нин
--ница
--нию
--ния
--нное
--но
--нов
--ного
--ное
--нои
--ности
--ность
--нт
--нта
--нуб
--ные
--ныи
--ным
--ных
--нь
--ня
--о
--об
--ов
--ова
--овасул
--оведение
--ович
--овна
--овскии
--ог
--огия
--ого
--од
--ода
--ое
--ои
--оиздат
--ок
--ол
--ом
--он
--ор
--орск
--ос
--оса
--охъ
--оца
--оял
--п
--р
--ра
--раб
--рав
--раи
--рал
--рв
--рд
--ре
--реб
--рев
--рел
--рея
--ри
--риз
--рил
--рин
--рия
--рк
--ро
--ров
--ровасул
--росу
--рск
--ру
--рун
--рх
--рч
--рье
--с
--са
--саб
--салам
--сан
--сда
--се
--сев
--сезул
--сел
--си
--сии
--сил
--сия
--ск
--ская
--ски
--ские
--скии
--ских
--ско
--ского
--скои
--ском
--слав
--сов
--ст
--ства
--ство
--сти
--сул
--сы
--ся
--т
--та
--тавление
--тан
--тги
--тер
--ти
--тивияб
--тии
--тика
--тикияб
--тил
--тияб
--тки
--то
--тов
--тон
--тор
--тся
--ты
--ть
--тӏ
--тӏа
--тӏи
--у
--уб
--уба
--уг
--уге
--уд
--уда
--уе
--уз
--уи
--ул
--ула
--улги
--улла
--ум
--ун
--ур
--ура
--ус
--усго
--ухъ
--ухъа
--ухъе
--уца
--уш
--ф
--фт
--фь
--х
--ха
--халда
--хан
--ханил
--хе
--хи
--ходы
--хун
--хъ
--хъабаз
--хъан
--хъанаб
--хъе
--ц
--ца
--цев
--ции
--ция
--цы
--ч
--чаг
--чагӏи
--чи
--чиб
--чизе
--чилъи
--чун
--чіел
--чіо
--чіого
--чӏеб
--чӏо
--чӏого
--ш
--ша
--шир
--шт
--щ
--щи
--щинаб
--ъ
--ъа
--ъав
--ъан
--ъги
--ъе
--ъи
--ъу
--ъуб
--ъуге
--ъул
--ъулаб
--ъун
--ы
--ые
--ыи
--ых
--ь
--ьд
--ье
--ьел
--ьи
--ьир
--ьм
--ьная
--ьно
--ьские
--ьу
--ьуге
--ьун
--ьф
--ья
--э
--ю
--я
--яб
--яв
--яз
--язда
--язде
--язул
--яи
--ял
--ялда
--ялдаги
--ялдалъун
--ялдаса
--ялде
--ялъ
--ялъе
--ялъул
--ялъухъ
--ям
--ян
--яс
--ясда
--ясул
--ях
--і
--іа
--іаб
--іал
--іан
--іана
--іат
--іги
--іел
--іи
--іиб
--іил
--іин
--іли
--іо
--іун
--ӏ
--ӏа
--ӏаб
--ӏад
--ӏал
--ӏали
--ӏама
--ӏан
--ӏана
--ӏарав
--ӏаса
--ӏат
--ӏби
--ӏе
--ӏеб
--ӏев
--ӏел
--ӏи
--ӏизе
--ӏил
--ӏин
--ӏине
--ӏо
--ӏони
--ӏуда
--ӏул
--ӏула
--ӏун
--ء
--ب
--ة
--ت
--ث
--ح
--حة
--د
--ر
--س
--ش
--ص
--ض
--ع
--ـ
--ف
--ك
--ل
--م
--ن
--ه
--ها
--ى
--ي
--ی
--ა
