!
"
#
##0
##1
##10
##11
##12
##13
##14
##15
##16
##17
##18
##19
##2
##20
##21
##22
##23
##24
##25
##26
##27
##28
##29
##3
##30
##31
##32
##33
##34
##35
##36
##37
##38
##39
##4
##40
##41
##42
##43
##44
##45
##46
##47
##48
##49
##5
##50
##51
##52
##53
##54
##55
##56
##57
##58
##59
##6
##60
##61
##62
##63
##64
##65
##66
##67
##68
##69
##7
##70
##71
##72
##73
##74
##75
##76
##77
##78
##79
##8
##80
##81
##82
##83
##84
##85
##86
##87
##88
##89
##9
##90
##91
##92
##93
##94
##95
##96
##97
##98
##99
$
%
&
'
(
)
*
+
,
-
.
/
0
00
000
0000
000000
001
002
003
004
005
006
007
008
008000
009
01
010
011
012
013
014
015
016
017
018
019
02
020
021
022
023
024
025
026
027
028
029
03
030
031
032
033
034
035
036
037
038
039
04
040
041
042
043
044
045
046
047
049
05
050
051
053
054
055
056
058
06
060
064
069
07
072
074
08
080
088
09
090
1
10
100
1000
10000
1001
1003
1004
1005
1007
1008
1009
101
1010
1012
1013
1016
1017
1018
1019
102
1020
1025
1026
1029
103
1030
1031
1035
1037
1038
104
1040
105
1050
1055
106
1060
1066
1067
107
1070
1071
1072
1075
1077
1078
1079
108
1080
1081
1082
1085
1086
109
1090
1092
1093
1094
1095
1096
1099
11
110
1100
111
1110
1111
1115
112
1120
1122
1124
1126
113
1130
1135
114
1140
1142
1143
1145
1147
1148
115
1150
1151
1152
1154
116
1160
1163
1165
117
1170
1171
1173
1174
1175
118
1180
1181
1185
1186
1187
119
1190
1192
1193
1194
12
120
1200
1201
1202
1203
1204
1205
1206
1207
121
1210
1211
1212
1218
1219
122
1220
1221
1225
1226
1227
1229
123
1230
1231
1233
1234
1235
1236
1237
1238
124
1240
1242
1244
125
1250
1256
1257
1258
1259
126
1260
1261
1262
127
1270
1279
128
1280
1282
1285
1286
1288
129
1290
1291
1292
1293
1294
1295
1296
1298
1299
13
130
1300
1301
1302
1303
1304
1305
1306
1307
1308
131
1310
1311
1312
1313
1314
1315
1316
132
1320
1321
1322
1323
1324
1325
1326
1327
1328
1329
133
1330
1331
1332
1333
1334
1335
1336
1337
1339
134
1340
1341
1342
1343
1344
1345
1346
1347
1348
1349
135
1350
1351
1352
1353
1354
1356
1357
136
1360
1362
1363
1364
1365
1366
1367
1368
1369
137
1370
1371
1372
1373
1374
1375
1376
1377
1378
1379
138
1380
1381
1382
1383
1384
1385
1386
1387
1388
1389
139
1390
1391
1392
1393
1394
1395
1396
1397
1398
1399
14
140
1400
1401
1402
1403
1404
1405
1406
1407
1408
1409
141
1410
1411
1412
1413
1414
1415
1416
1417
1418
1419
142
1420
1421
1422
1423
1424
1425
1428
1429
143
1430
1431
1432
1433
1435
1436
1437
1438
144
1440
145
1450
1451
1453
146
1460
1461
1469
147
1470
1479
148
1480
1485
1489
149
1490
1491
1492
1494
1497
1499
15
150
1500
1501
1502
1503
1504
1505
1506
1507
1508
1509
151
1510
1511
1512
1513
1514
1515
1516
1517
1518
1519
152
1520
1521
1522
1523
1524
1525
1526
1527
1528
1529
153
1530
1531
1532
1533
1534
1535
1536
1537
1538
1539
154
1540
1541
1542
1543
1544
1545
1546
1547
1548
1549
155
1550
1551
1552
1553
1554
1555
1556
1557
1558
1559
156
1560
1561
1562
1563
1564
1565
1566
1567
1568
1569
157
1570
1571
1572
1573
1574
1575
1576
1577
1578
1579
158
1580
1581
1582
1583
1584
1585
1586
1587
1588
1589
159
1590
1591
1592
1593
1594
1595
1596
1597
1598
1599
16
160
1600
1601
1602
1603
1604
1605
1606
1607
1608
1609
161
1610
1611
1612
1613
1614
1615
1616
1617
1618
1619
162
1620
1621
1622
1623
1624
1625
1626
1627
1628
1629
163
1630
1631
1632
1633
1634
1635
1636
1637
1638
1639
164
1640
1641
1642
1643
1644
1645
1646
1647
1648
1649
165
1650
1651
1652
1653
1654
1655
1656
1657
1658
1659
166
1660
1661
1662
1663
1664
1665
1666
1667
1668
1669
167
1670
1671
1672
1673
1674
1675
1676
1677
1678
1679
168
1680
1681
1682
1683
1684
1685
1686
1687
1688
1689
169
1690
1691
1692
1693
1694
1695
1696
1697
1698
1699
17
170
1700
1701
1702
1703
1704
1705
1706
1707
1708
1709
171
1710
1711
1712
1713
1714
1715
1716
1717
1718
1719
172
1720
1721
1722
1723
1724
1725
1726
1727
1728
1729
173
1730
1731
1732
1733
1734
1735
1736
1737
1738
1739
174
1740
1741
1742
1743
1744
1745
1746
1747
1748
1749
175
1750
1751
1752
1753
1754
1755
1756
1757
1758
1759
176
1760
1761
1762
1763
1764
1765
1766
1767
1768
1769
177
1770
1771
1772
1773
1774
1775
1776
1777
1778
1779
178
1780
1781
1782
1783
1784
1785
1786
1787
1788
1789
179
1790
1791
1792
1793
1794
1795
1796
1797
1798
1799
18
180
1800
1801
1802
1803
1804
1805
1806
1807
1808
1809
181
1810
1811
1812
1813
1814
1815
1816
1817
1818
1819
182
1820
1821
1822
1823
1824
1825
1826
1827
1828
1829
183
1830
1831
1832
1833
1834
1835
1836
1837
1838
1839
184
1840
1841
1842
1843
1844
1845
1846
1847
1848
1849
185
1850
1851
1852
1853
1854
1855
1856
1857
1858
1859
186
1860
1861
1862
1863
1864
1865
1866
1867
1868
1869
187
1870
1871
1872
1873
1874
1875
1876
1877
1878
1879
188
1880
1881
1882
1883
1884
1885
1886
1887
1888
1889
189
1890
1891
1892
1893
1894
1895
1896
1897
1898
1899
19
190
1900
1901
1902
1903
1904
1905
1906
1907
1908
1909
191
1910
1911
1912
1913
1914
1915
1916
1917
1918
1919
192
1920
1921
1922
1923
1924
1925
1926
1927
1928
1929
193
1930
1931
1932
1933
1934
1935
1936
1937
1938
1939
194
1940
1941
1942
1943
1944
1945
1946
1947
1948
1949
195
1950
1951
1952
1953
1954
1955
1956
1957
1958
1959
196
1960
1961
1962
1963
1964
1965
1966
1967
1968
1969
197
1970
1971
1972
1973
1974
1975
1976
1977
1978
1979
198
1980
1981
1982
1983
1984
1985
1986
1987
1988
1989
199
1990
1991
1992
1993
1994
1995
1996
1997
1998
1999
2
20
200
2000
2001
2002
2003
2004
2005
2006
2007
2008
2009
201
2010
2011
2012
2013
2014
2015
2016
2017
2018
2019
202
2020
2021
2022
2023
203
2030
204
205
2050
206
207
208
209
21
210
211
212
213
214
215
216
217
218
219
22
220
221
222
223
224
225
226
227
228
229
23
230
231
232
233
234
235
236
237
238
239
24
240
241
242
243
244
245
246
247
248
249
25
250
2500
251
252
253
254
255
256
257
258
259
26
260
261
262
263
264
265
266
267
268
269
27
270
271
272
273
274
275
276
277
278
279
28
280
281
282
283
284
285
286
287
288
289
29
290
291
292
293
294
295
296
297
298
299
3
30
300
3000
301
302
303
304
305
306
307
308
309
31
310
311
312
313
314
315
316
3166
317
318
319
32
320
321
322
323
324
325
326
327
328
329
33
330
331
332
333
334
335
336
337
338
339
34
340
341
342
343
344
345
346
347
348
349
35
350
351
352
353
354
355
356
357
358
359
36
360
361
362
363
364
365
366
367
368
369
37
370
371
372
373
374
375
376
377
378
379
38
380
381
382
383
384
385
386
387
388
389
39
390
391
392
393
394
395
396
397
398
399
4
40
400
4000
401
402
403
404
405
406
407
408
409
41
410
411
412
413
414
415
416
417
418
419
42
420
421
422
423
424
425
426
427
428
429
43
430
431
432
433
434
435
436
437
438
439
44
440
441
442
443
444
445
446
447
448
449
45
450
451
452
453
454
455
456
457
458
459
46
460
461
462
463
464
465
466
467
468
469
47
470
471
472
473
474
475
476
477
478
479
48
480
481
482
483
484
485
486
487
488
489
49
490
491
492
493
494
495
496
497
498
499
5
50
500
5000
501
502
503
504
505
506
507
508
509
51
510
511
512
513
514
515
516
517
518
519
52
520
521
522
523
524
525
526
527
528
529
53
530
531
532
533
534
535
536
537
538
539
54
540
541
542
543
544
545
546
547
548
549
55
550
551
552
553
554
555
556
557
558
559
56
560
561
562
563
564
565
566
567
568
569
57
570
571
572
573
574
575
576
577
578
579
58
580
581
582
583
584
585
586
587
588
589
59
590
591
592
593
594
595
596
597
598
599
6
60
600
6000
601
602
603
604
605
606
607
608
609
61
610
611
612
613
614
615
616
617
618
619
62
620
621
622
623
624
625
626
627
628
629
63
630
631
632
633
634
635
636
637
638
639
64
640
641
642
643
644
645
646
647
648
649
65
650
651
652
653
654
655
656
657
658
659
66
660
661
662
663
664
665
666
667
668
669
67
670
671
672
673
674
675
676
677
678
679
68
680
681
682
683
684
685
686
687
688
689
69
690
691
692
693
694
695
696
697
698
699
7
70
700
7000
701
702
703
704
705
706
707
708
709
71
710
711
712
713
714
715
716
717
718
719
72
720
721
722
723
724
725
726
727
728
729
73
730
731
732
733
734
735
736
737
738
739
74
740
741
742
743
744
745
746
747
748
749
75
750
751
752
753
754
755
756
757
758
759
76
760
761
762
763
764
765
766
767
768
769
77
770
771
772
773
774
775
776
777
778
779
78
780
781
782
783
784
785
786
787
788
789
79
790
791
792
793
794
795
796
797
798
799
8
80
800
8000
801
802
803
804
805
806
807
808
809
81
810
811
812
813
814
815
816
817
818
819
82
820
821
822
823
824
825
826
827
828
829
83
830
831
832
833
834
835
836
837
838
839
84
840
841
842
843
844
845
846
847
848
849
85
850
851
852
853
854
855
856
857
858
859
86
860
861
862
863
864
865
866
867
868
869
87
870
871
872
873
874
875
876
877
878
879
88
880
881
882
883
884
885
886
887
888
889
89
890
891
892
893
894
895
896
897
898
899
9
90
900
901
902
903
904
905
906
907
908
909
91
910
911
912
913
914
915
916
917
918
919
92
920
921
922
923
924
925
926
927
928
929
93
930
931
932
933
934
935
936
937
938
939
94
940
941
942
943
944
945
946
947
948
949
95
950
951
952
953
955
956
957
958
959
96
960
961
962
963
964
965
966
967
968
969
97
970
971
972
973
974
975
976
977
978
979
98
980
981
982
983
984
985
986
987
988
989
99
990
991
992
993
994
995
996
997
998
999
:
;
<
=
>
?
@
\
^
_
`
a
aa
aaa
aad
ab
abbas
abbr
abbrev
abc
abd
abdul
abdullah
able
ablon
ablono
about
above
absolute
abu
ac
academic
academy
accept
access
accessdate
accessed
according
account
accounts
acid
acre
across
act
action
actions
active
actor
actress
actual
actually
ad
adam
adams
add
addclass
added
adding
addition
additional
address
adds
administration
administrative
advanced
advice
ae
af
afc
afchelper
affairs
affect
affiliations
afghan
afghanistan
africa
african
after
ag
again
against
age
agency
ago
agreement
ah
ahmad
ahmed
ai
ain
air
aircraft
airlines
airport
airways
ajax
ak
akbar
al
alabama
alan
alaska
albania
albert
album
alert
alexander
alfred
algeria
ali
alias
aliases
align
all
allah
allen
alliance
allow
allowed
allows
almanack
almost
along
alpha
alphabet
already
als
also
alt
alternate
alternative
although
altnames
alveolar
always
am
amazon
ambassadors
america
american
amersfoort
amir
among
amount
amp
an
analysis
anchor
ancient
and
anderson
andre
andrew
angeles
angle
anglo
animal
animation
ann
anna
anne
annee
announced
annual
another
anthony
anti
antonio
any
anything
ap
api
apiobj
app
appear
appears
append
appendchild
apple
application
applied
apply
appropriate
apr
april
ar
arab
arabia
arabic
arabs
archaeological
archaeology
architecture
archive
archived
archives
are
area
areas
arg
argentina
args
argument
arguments
arkansas
armed
armenia
armenian
arms
army
around
array
arrondissement
arrow
art
arthur
article
articles
artist
artists
arts
arxiv
as
ash
asia
asian
ask
asp
aspx
assembly
assess
assessment
associated
association
astronomy
at
athletics
atlantic
atlas
attack
attacks
attempt
attr
attractions
au
auckland
aucun
audio
aug
august
aur
aus
austin
australia
australian
austria
author
authority
authors
auto
automatic
automatically
autonomous
aux
av
available
average
aviation
avoid
award
awards
away
az
azam
azerbaijan
aziz
b
ba
baba
back
background
bad
bagh
bahawalpur
bahrain
ball
ban
band
bangladesh
bank
banking
banks
banner
bar
barbados
barbara
barcelona
bas
base
based
basic
batting
battle
bay
bb
bbc
bc
bce
bd
be
beach
beaches
became
because
become
been
before
begin
beginning
begins
behind
beijing
being
belarus
belgium
belize
bell
below
ben
bengal
bengali
berkeley
berlin
bernard
best
beta
better
between
beyond
bf
bg
bharatiya
bhutan
bi
bibcode
bible
bibliography
big
bihar
bill
bin
bio
biographical
biography
biology
bird
birth
births
bissau
bit
bl
black
blacklist
blackwell
blainey
blank
bloc
block
blog
blogspot
blood
blp
blue
blurb
bmatrix
bn
bo
board
bodies
body
bois
bolagh
bold
bolivia
bombay
bond
book
books
boolean
border
born
borough
bosnia
boston
bosworth
bot
both
bots
bottom
bowling
box
boxes
bp
br
brackets
branch
brazil
brazilian
break
bridge
brief
brill
britain
britannica
british
broken
brown
browser
bruce
bs
bu
buddha
buddhism
buddhist
bug
bugs
build
building
buildings
built
bulgaria
bulgarian
bulletin
bureau
burkina
burma
bus
business
but
button
buttons
bwww
by
byte
c
ca
cairo
calcutta
calendar
california
call
callback
callbacks
called
calling
calls
cambridge
came
cameroon
camp
campaign
campbell
can
canada
canadian
canal
cancer
candidates
cannot
canonical
canton
cap
cape
capital
captain
caption
capture
car
care
career
caribbean
carl
carolina
cas
case
cases
cast
castillo
castle
cat
catedral
categories
category
cathedral
catherine
catholic
cats
cause
cb
cc
ccc
cd
cdot
cdots
ce
cell
cells
cemetery
census
center
centered
central
centre
centuries
century
certain
cf
cfg
ch
cha
chad
chah
chak
chandra
change
changed
changes
changing
channel
chapelle
chapter
char
character
characters
charge
charles
chart
charts
che
check
checkbox
checked
chemical
chemistry
chicago
chief
child
childhood
children
chile
china
chinese
choice
choose
chris
christ
christian
christianity
christopher
chronicle
chronology
church
churches
ci
cia
cinema
circassian
circle
cis
citation
citations
cite
cited
cities
citizen
citizens
city
civic
civil
civilians
civilization
cl
claim
claims
clark
class
classes
classical
classification
classname
clean
cleanup
clear
click
climate
clinton
close
closed
closexfd
club
cm
cnn
co
coa
coalition
coast
coat
code
codes
coins
col
cold
collapse
collapsed
collapsible
collection
college
colombia
colonial
color
colorado
colors
colour
colspan
columbia
column
columns
com
combat
combination
come
coming
comma
command
comment
commentary
comments
commerce
commercial
commission
committee
common
commons
commonwealth
commune
communist
communities
community
companies
companion
company
comparative
competitions
complete
complex
computer
concat
conf
conference
config
configuration
conflict
congo
congress
conjunction
connecticut
conquest
conservative
considered
consonant
constituency
constitution
constitutional
construction
contact
contain
container
containing
contains
contemporary
content
contentcat
contents
context
continue
contribute
contribution
contributions
contributor
control
convention
conversion
convert
converted
cook
coord
coordinates
copy
copyright
core
corporation
correct
cos
costa
could
council
councils
count
counties
countries
country
county
course
court
cover
covid
cr
create
created
createelement
creating
creation
credit
creek
creole
cricinfo
cricket
cricketarchive
cricketer
cricketers
crime
crimes
crisis
critical
croatia
croatian
cropped
cross
crossing
cs
css
csstext
ct
ctx
cu
cuba
cultural
culture
cup
currency
current
currently
cursor
custom
cy
cyprus
cz
czech
d
da
dab
daily
dakota
dal
dam
damascus
dan
daniel
dans
dar
dark
darreh
das
dash
data
database
datatype
datavalue
date
dated
dates
datestr
david
davis
dawn
dawnnews
day
days
db
dc
dd
de
dead
deal
death
deaths
debug
dec
decade
december
decimal
def
default
defaults
defense
define
defined
definition
degree
deh
del
delete
deleted
deletion
delhi
delivery
delta
democracy
democratic
democrats
den
denis
denmark
density
department
dependencies
deprecated
depression
depth
der
des
desc
described
description
descriptions
design
designation
detail
detailed
details
deutsche
deutschen
developers
development
device
df
di
dia
dialog
diaz
dictionary
dictionnaire
did
die
died
dies
diff
different
digit
digital
digits
dil
din
diplomacy
diplomatic
dir
direct
directed
direction
directly
director
directory
disabled
disambiguation
discovery
discussion
disease
disp
display
displayed
displays
district
districts
div
division
dl
dmy
dna
do
doc
document
documentary
documentation
documents
does
doesn
doi
dollar
domain
domestic
dominican
don
donald
done
doses
dot
double
douglas
down
download
dq
dr
draft
drcenjary
drug
dst
dt
du
dublin
due
dunya
duplicate
dur
during
dutch
dx
dynasty
dz
e
ea
each
earlier
early
earth
earthquake
easier
east
eastern
eb
ebooks
ec
eclipse
economic
economics
economy
ecuador
ed
edit
edited
editing
edition
editor
editors
edits
eds
edu
education
educational
edward
ee
ef
effect
egypt
egyptian
ei
either
ek
el
election
elections
electric
electronics
element
elements
elizabeth
else
elseif
em
embargo
embassy
emijrp
emirate
emirates
emperor
empire
empty
en
enabled
encode
encyclopaedia
encyclopedia
encyclopædia
end
ends
endyear
energy
engine
engineering
england
english
enter
entered
entertainment
entire
entity
entityid
entrance
entries
entry
environment
environmental
eo
episode
equal
equivalent
er
era
eric
err
error
errors
es
escape
especially
espn
espncricinfo
essays
est
established
establishments
estimated
estonia
et
etal
etc
ethiopia
ethnic
eu
euler
europe
european
even
event
events
every
everything
evidence
evolution
evt
ex
example
examples
except
excerpt
exchange
executive
exist
existing
exists
expanded
expandtemplate
experience
expiry
express
expression
ext
extension
external
extra
extract
f
fa
face
facebook
fact
facts
failed
failure
fair
faisal
faith
fall
falls
false
family
famous
far
farms
faso
father
fb
fc
fe
feature
featured
features
feb
february
federal
federation
feedback
feel
female
festival
fetch
few
ff
ffa
ffc
ffd
fff
ffff
ffffff
fi
fiction
field
fields
fifa
fight
fighter
fighting
figure
figures
fiji
file
files
fill
film
films
filter
final
finance
financial
find
finland
finnish
fire
first
fish
five
fix
fixed
fl
flag
flags
flight
float
floor
florida
flow
fm
fmt
focus
folk
follow
followed
following
follows
font
fontsize
food
foot
football
footballers
footer
footnote
footnotes
for
force
forces
foreign
forest
forests
forgotten
form
format
formatdate
formats
formatstatements
formatted
formatting
former
forms
fort
forum
forward
found
foundation
founder
four
fourth
fox
fr
frac
frame
framepx
franc
france
francis
francisco
frank
franklin
frederick
free
freedom
french
fricative
from
front
frontier
ft
fu
full
fully
function
functions
further
future
g
ga
gadget
gal
gallery
gam
gambia
game
games
gandhi
garden
gas
gate
gauge
gay
gazetteer
gb
gdp
ge
gen
gender
gene
general
generally
generate
generated
genocide
genus
geo
geoffrey
geographic
geographical
geography
geonames
george
georges
georgia
ger
germain
german
germany
geschichte
get
getargs
getcurrentframe
getcurrenttitle
getelementbyid
getparent
getpref
gets
getvalue
ghana
gi
gif
girl
give
given
gives
gje
gl
global
globalvar
gmina
go
goal
god
gol
gold
golden
good
google
gordon
gospel
got
gov
government
governor
governorate
govt
gr
gradient
grammar
grand
grande
grant
gray
great
greater
greece
greek
green
greens
greenwood
grey
ground
group
groups
grove
growth
gs
gsub
gu
guardian
guatemala
guide
guidelines
guinea
gulf
guyana
h
ha
had
haftar
hai
hajj
hajji
half
hall
hamilton
hampshire
han
hand
handbook
handle
handler
hans
happen
harper
harris
harry
harv
harvard
has
hasan
hassan
haute
have
having
hawaii
hbox
hd
he
head
header
heading
headings
health
heart
hebrew
height
held
hello
help
henry
her
herald
here
heritage
herzegovina
hezbollah
hi
hidden
hide
high
higher
highest
highly
highway
hill
hills
him
hindi
hindu
hinduism
his
histoire
historic
historical
history
hl
hlist
ho
hockey
hold
holocaust
holy
home
honduras
hong
hope
horizontal
hospital
host
hotel
hotels
hour
hours
house
hover
how
however
hr
href
htm
html
http
https
hu
human
hungarian
hungary
hussain
hy
hyderabad
i
ia
ian
ib
ibn
ibrahim
ic
icc
ice
iceland
icon
icons
id
identifier
identifiers
identity
ids
ie
ietf
if
ignore
ignored
ii
iii
il
illinois
illustrated
im
image
images
imam
imdb
img
imp
impact
imperial
impgal
implements
important
imran
in
inc
incidents
include
included
includes
including
increment
ind
independence
independent
independents
index
indexof
india
indian
indiana
indiatimes
indicate
indies
individual
indo
indonesia
industrial
industries
industry
influence
info
infobox
information
infrastructure
inherit
init
initial
initialcontrib
initials
initiative
inline
inner
innerhtml
innings
input
inputdata
insert
inside
instance
instead
institute
institution
institutions
int
integer
intelligence
intended
interest
interface
interior
internal
international
internet
internetarchivebot
interview
interwiki
into
intro
introduction
introjs
invalid
invoke
iowa
ip
ipa
ipairs
iqbal
ir
iran
iranian
iranica
iraq
iraqi
irc
ireland
irish
iron
is
isbn
isil
islam
islamabad
islamic
island
islands
isn
iso
isoname
isonames
israel
israeli
issn
issue
issues
istanbul
it
italian
italic
italy
item
items
its
itself
iv
ix
j
ja
jack
jackson
jafarabad
jahan
jamaica
james
jan
jane
jang
january
japan
japanese
javascript
je
jean
jersey
jerusalem
jesus
jet
jewish
jews
jhang
ji
jim
jo
john
johnson
join
jonathan
jones
jong
jordan
jose
joseph
journal
journey
jpeg
jpg
jquery
jr
js
json
jstor
juan
judaism
jul
julien
july
jun
june
just
justice
k
ka
kand
kandi
kanji
kansas
karachi
karl
kashmir
kategori
kazakhstan
ke
keep
kennedy
kenneth
kent
kentucky
kenya
kerala
key
keyboard
keys
kg
khalid
khan
khwaja
ki
killed
king
kingdom
kings
kk
km
kn
know
knowledge
known
ko
kohli
kolkata
kombat
kong
korea
korean
kosovo
ku
kumar
kurdish
kuwait
kw
l
la
label
labels
labor
labour
lady
lahore
lake
lambda
land
lane
lang
langcode
language
languages
langue
lanka
large
largest
las
last
lat
late
later
latest
latin
latitude
latn
latvia
laurent
law
lawrence
laws
lay
layout
lb
lccn
le
lead
leader
leaders
leading
league
learn
learning
least
leave
lebanon
lee
left
legacy
legal
legend
legislators
leiden
len
length
leo
les
less
let
letter
letters
level
levels
lewis
lgbt
lgcd
lgpunjab
li
liberal
liberation
libertarian
liberty
library
libya
libyan
license
liechtenstein
life
light
like
lime
limit
limited
lincoln
line
linear
lines
linguistic
linguistics
link
linked
links
list
listed
listing
lists
literary
literature
lithuania
little
live
liverc
lives
living
ll
ln
lo
load
loaddata
loader
loc
local
localdata
localized
located
location
locations
log
logistics
logo
loire
london
long
longer
longitude
look
looking
loop
lord
los
losses
lost
lot
louis
louisiana
love
low
lower
lt
ltd
lu
lua
lucknow
luxembourg
lv
m
ma
mac
macau
macedonia
machine
macmillan
mad
madagascar
made
madison
madrasa
madrid
mae
mag
magazine
magic
magnitude
mahal
main
maine
mainsnak
maint
maintenance
major
majority
make
makes
making
mal
malay
malaysia
male
mali
malik
mall
malta
man
management
manual
many
map
maps
mar
march
margin
mari
maria
marie
marion
mark
marker
market
markets
marks
marksize
markup
marriage
marshall
martin
mary
maryland
masjid
mask
mass
massachusetts
massacre
massacres
master
match
matches
material
math
mathbb
mathbf
mathematics
matrix
matter
matthew
maurice
mauritius
max
may
mazraeh
mbox
mcc
md
mdy
me
meaning
means
media
mediawiki
medical
medicine
medieval
meet
meeting
meetings
mem
member
members
memorial
memory
men
mentioned
menu
mer
merge
message
messages
met
meta
metadata
method
methods
metro
metropolitan
mexico
mg
mi
michael
michel
michigan
microsoft
mid
middle
might
miles
military
millennium
miller
million
min
mind
minerva
minister
ministry
minnesota
minor
minority
minutes
mir
mirza
miscellaneous
missing
mission
mississippi
missouri
mk
ml
mm
mn
mna
mo
mobile
mod
mode
model
modern
module
modules
mohammad
mohammed
moldova
monarchs
monetary
money
mongolia
montana
montenegro
month
months
monument
moon
more
morebits
morgan
morning
morocco
morris
mortal
moscow
mosque
most
mother
motion
mount
mountain
mountains
mouse
move
moved
movement
movements
movie
movies
moz
mp
mpa
mq
mr
ms
msg
mt
mtdna
mtv
mu
much
mughal
muh
muhammad
multan
multi
multilingual
multiple
mumbai
municipal
municipality
muralitharan
murder
murray
museum
music
muslim
muslims
must
muttiah
mw
my
myanmar
myclass
mythology
n
na
nam
name
named
names
namespace
namespaces
nasa
nation
national
nationalism
nationalist
nations
native
natural
nature
naval
navbar
navbox
navigation
navigational
navy
nawaiwaqt
nd
ne
near
nebraska
necessary
need
needed
needs
negative
nepal
net
netherlands
network
nevada
never
new
news
newsletter
newspaper
next
ng
nh
ni
nicholas
nicolas
nicosia
nigeria
night
nil
nj
njc
nl
nn
no
nobel
nocat
node
noeditsection
nom
non
none
nor
nord
normal
normally
norman
north
northern
northwest
norway
not
notable
note
notes
nothing
notice
notification
notify
notoc
nov
nova
november
now
nowiki
nowrap
np
nr
ns
nu
nuclear
null
num
number
numbered
numberol
numbers
numeric
ny
nz
nzy
o
obaid
obituaries
obituary
obj
object
objects
oblast
oc
occupation
ocean
ocinsoutput
oclc
oct
october
odi
of
off
offensive
office
official
offset
often
ogg
ohio
oil
ok
oklahoma
ol
old
oldid
olya
olympic
oman
omega
omitted
on
once
one
onepage
ones
online
only
ontario
op
open
opened
opening
operation
operations
opinion
opposition
opt
option
optional
options
or
oracle
orange
order
ordered
oregon
org
organisation
organisations
organization
oriental
origin
original
origins
orphanages
orthodox
os
other
others
otherwise
ottoman
ou
our
out
outline
output
outside
over
override
overview
own
oxford
oz
p
pa
pacific
padding
page
pagename
pageobj
pages
pagetext
pagetitle
pairs
pak
pakistan
pakistani
palace
palestine
palestinian
pan
panama
paper
papers
papua
par
para
param
parame
parameter
parameters
params
parent
parentnode
pargs
paris
parish
park
parliament
parms
parse
parser
part
partial
particular
parties
parts
party
pas
pasha
pass
passed
passes
past
path
patrick
patriotic
pattern
patterns
paul
pb
pc
pd
pdf
pe
peace
penguin
pennsylvania
people
peoples
per
percent
performance
period
perry
persia
persian
person
personal
perspective
perspectives
peru
peter
pframe
pg
ph
pharmaceutical
phase
phcap
philip
philippines
philosophy
phone
photo
photos
php
physical
physics
pi
picture
pictures
pid
pierre
pk
pl
place
placed
places
plain
plan
planet
planned
planning
plant
plantilla
platform
play
played
player
players
please
plo
plot
plural
plus
pm
pmc
pmid
png
po
poems
poet
poetry
poets
point
points
poland
police
policies
policy
polish
political
politicpk
politics
poly
pomeranian
pop
pope
popular
population
port
portal
portrait
portugal
portuguese
pos
position
positive
possible
post
postcode
posted
pour
power
powers
pp
ppp
pr
practice
pradesh
pre
precision
predefinic
predloga
prefecture
preferences
preferred
prefix
prefixes
preload
premier
prepared
prepend
preprocess
present
presentation
president
presidential
press
pressure
prev
prevent
preview
previous
previously
price
primary
prime
prince
princeton
print
private
prize
pro
probably
problem
problems
proceedings
process
processing
prod
produces
product
production
prof
professional
professor
profile
program
programming
progress
progressive
project
projects
pronunciation
prop
proper
properties
property
propertyid
prophet
proposed
props
protect
protected
protection
protest
protests
protocol
prototype
provide
provided
provides
province
provinces
provincial
ps
psychology
pt
public
publication
publications
published
publisher
publishers
publishing
puerto
punjab
punjabi
purple
purpose
push
put
px
q
qa
qaleh
qarah
qatar
qeshlaq
qid
qu
qual
qualificatif
qualifier
qualifiers
quarter
quarterly
que
quebec
queen
query
question
questions
quickform
quote
quoted
quotes
qur
quran
r
ra
race
radical
radio
radius
rai
rail
railway
railways
raj
ram
random
range
rank
ranking
rape
rappaport
rate
rather
ratio
rationale
raw
ray
raza
rc
rd
re
reaction
read
readers
reading
ready
real
really
reason
reasons
recent
recognized
record
records
rect
recurrent
red
redirect
redirects
ref
reference
references
reform
refugees
regex
regexp
region
regional
regions
register
regular
reign
rekhta
related
relations
relative
release
released
relevant
relief
religion
religions
religious
remove
removed
render
rendered
renommagecategorie
rep
repeat
replace
replaced
replacement
report
reported
reports
republic
republican
request
requested
requests
require
required
requires
res
research
reserve
resolution
resource
resources
response
rest
result
results
ret
retrieved
return
returned
returns
reuters
rev
review
revised
revision
revisions
revolution
revolutionary
rfc
rft
rgb
ri
rica
richard
richmond
rico
right
rights
rio
riots
rise
river
rk
rm
ro
road
roads
robert
rock
roger
role
roller
roma
roman
romania
rome
ron
root
rose
round
route
routledge
row
rows
rowspan
roy
royal
rs
rtl
ru
rule
ruled
rulers
rules
run
runs
rural
russia
russian
ryan
s
sa
sabha
sachin
safe
sahib
said
saint
sainte
salvador
sam
same
samoa
samuel
san
sandbox
santa
sao
sar
sarah
sargodha
saros
saudi
save
say
says
sc
scale
scheme
scholar
school
schools
science
sciences
scientific
scientist
scope
scorecard
scored
scotland
scott
scottish
screen
screenshot
script
scripts
sdf
se
sea
seal
search
season
seats
sec
second
secret
secretary
section
sections
security
see
seen
seine
select
selected
selection
self
semi
sen
sent
sep
separate
separated
separator
sepc
september
sequence
serbia
serbian
series
server
service
services
session
set
setattribute
setmetatable
sets
setting
settings
settlement
settlements
seven
seventh
several
sex
sexual
sfn
sh
shadow
shah
shahid
shane
share
shared
sharif
sharma
she
sheet
sheikh
shi
shia
shield
shift
ship
short
shortname
should
show
showing
shown
shows
si
side
sidi
sierra
sig
sign
signal
signature
signe
signes
significant
silver
similar
simon
simple
simply
sin
since
sindh
sindhi
singapore
singer
singh
single
sir
sister
site
sitelink
sites
six
sixth
size
sk
ski
skin
skip
sky
sl
slc
slovakia
slovenia
small
smith
snak
snaktype
snippets
so
social
socialist
society
sofla
software
solar
soldiers
solid
solidarity
solomon
some
someone
something
sometimes
son
song
songs
sons
soon
sophie
sort
sound
soundfile
source
sources
sous
south
southeast
southern
soviet
sp
space
spaces
spain
span
spanish
speaking
special
species
specific
specified
specify
speech
speed
speedy
spelling
spirit
split
sport
sports
spp
spring
springer
sq
sqrt
squad
square
sr
src
sri
ss
st
stable
stadium
staff
standard
stanford
star
starring
stars
start
started
starting
startyear
stat
state
statement
statements
states
static
station
stations
statistical
statistics
stats
statue
status
step
stephen
steven
still
stock
stone
stop
storage
stories
story
str
strategy
street
string
strings
strip
strong
structure
structures
struggle
stub
student
students
studies
study
style
styles
su
sub
subdivision
subgroup
subject
submission
submit
subpage
subpages
subscribe
substitute
substring
success
such
sudan
suffix
sufi
suggested
suicides
suite
sultan
sultanate
sum
summary
summer
sun
sunday
sunset
super
supplied
support
supported
sur
sure
surname
survey
sv
svg
sw
sweden
swedish
swimming
switch
switzerland
sydney
syed
symbol
symbols
syntax
syria
syrian
sysop
system
systems
t
ta
tab
table
tables
tabs
tag
tags
taha
tahir
tai
tail
taiwan
tajikistan
take
taken
takes
talk
tall
taluk
tamil
tang
tanzania
target
task
tax
taxobox
taxon
taxonomy
taylor
tb
tbl
td
te
team
teams
tech
technical
technology
tehran
tehsil
tel
telecommunications
telegraph
television
tell
telugu
temp
temperature
templat
template
templates
temple
ten
tendulkar
tennessee
term
terminal
terminus
terms
territorial
territories
territory
terror
terrorism
terrorist
test
testcases
testing
tests
texas
text
textarea
texte
textile
texts
th
thai
thailand
than
thank
thanks
that
the
theatre
their
them
then
theory
there
these
thesis
theta
they
things
think
third
this
thomas
those
though
thought
thousands
three
through
thumb
thumbnail
thus
ti
tie
tig
tiger
tilak
till
time
timeline
times
timestamp
timor
tipb
tipe
titb
tite
title
titles
tl
tmp
to
tobago
toc
today
todo
together
token
tolombeh
tom
tomb
tonumber
too
took
tool
toolbar
tools
tooltip
top
topic
topics
toppdoma
toronto
tostring
total
tour
tourism
tourist
tous
towards
tower
town
towns
township
tr
track
tracking
trade
tradition
traditional
trailing
train
training
trans
transformation
transition
translate
translated
translation
translations
translator
transparent
transport
transportation
travel
tre
treaty
tree
tribune
trim
trinidad
troops
true
trust
truth
try
ts
tt
tu
tube
tunisia
turkey
turkish
turkmenistan
turks
turn
tv
tw
twentieth
twenty
twinkle
two
txt
ty
type
typeof
types
u
uae
uc
ucode
uganda
ui
uk
ukraine
ukrainian
ul
un
und
undefined
under
understanding
une
unesco
unicode
unincorporated
union
unique
unit
united
units
unity
universal
university
unknown
unless
unnamed
unsubscribe
until
up
update
updated
updates
upload
upon
upper
upright
ur
urban
urdu
urdutext
uri
url
uruguay
urwiki
us
usa
usage
use
used
useful
user
username
users
usertalkpage
uses
usgal
using
ustring
usually
ut
utah
utc
util
utilities
uttar
utype
uw
uzbekistan
v
va
vaccinated
vaccine
val
valid
valley
value
values
van
vancouver
var
variable
variant
various
vdots
ve
vector
ved
venezuela
verde
vermont
version
versions
vertical
very
vi
via
victoria
victory
video
vienna
vietnam
view
views
vii
viii
village
villages
vincent
violence
virgin
virginia
virtual
visible
vision
visit
visual
visualeditor
voice
voiced
voiceless
voivodeship
vol
volume
volumes
volunteer
von
vorlage
vote
vowel
vs
vuata
vuate
vuati
vv
w
wa
wales
wall
walter
want
war
ward
warfare
warn
warning
warren
wars
was
washington
watch
watchlist
water
way
wayne
wb
wd
we
weather
web
webkit
website
webster
week
weekly
weeks
weight
welcome
well
wellington
were
west
western
wgnamespacenumber
wgpagename
what
when
where
whether
which
while
white
whitelist
whitespace
who
whole
whose
why
wickets
wid
wide
width
wiki
wikibase
wikidata
wikilink
wikilinks
wikimedia
wikinotes
wikipage
wikipedia
wikipedians
wikipedias
wikiproject
wikis
wikisource
wikitext
will
william
williams
wilson
win
window
winner
winter
wisconsin
wisden
with
within
without
wmf
woman
women
won
wood
word
wordpress
words
work
workers
workflow
working
works
workshop
world
would
wp
wrap
wrapper
wright
write
writer
writers
writing
written
wrong
wt
wu
www
wyoming
x
xfd
xi
xii
xiv
xml
xv
xvi
xx
xxx
y
ya
yale
ye
year
yearbc
years
yellow
yemen
yes
yesno
yet
yi
ymd
yo
york
you
young
your
youth
youtube
yu
yyyy
z
za
ze
zealand
zero
zh
zimbabwe
zone
zu
zyyy
{
|
}
~
£
¥
§
©
«
¬
­
°
±
²
³
´
µ
¶
·
»
½
¿
×
æ
ð
ø
ı
ŋ
ƒ
ɑ
ɔ
ə
ɛ
ɪ
ʃ
ʊ
ʰ
ʱ
ʲ
ʷ
ʻ
ʼ
ʾ
ʿ
ˀ
ˈ
ˌ
ː
ˤ
̀
́
̂
̃
̄
̆
̇
̈
̉
̊
̋
̌
̓
̔
̛
̝
̞
̠
̣
̥
̦
̧
̨
̩
̪
̯
̱
̲
̸
͂
ͅ
͜
͡
α
β
δ
ε
η
θ
ι
μ
ν
ο
π
ρ
ς
τ
υ
φ
ω
а
б
в
г
д
е
з
и
к
л
м
н
на
о
п
р
с
т
у
х
шаблон
я
і
ְ
ֲ
ִ
ֵ
ֶ
ַ
ָ
ֹ
ֺ
ּ
ׁ
א
ב
ג
ד
ה
ו
ח
י
כ
ל
ם
מ
ן
נ
ע
פ
ק
ר
ש
ת
؁
؂
،
؍
؎
ؐ
ؑ
ؒ
ؓ
ؔ
ؕ
؛
؟
ء
ءتک
ءسے
ءمیں
ءکو
ءکی
ءکے
ا
اء
اا
اب
ابا
ابان
ابتدا
ابتداء
ابتداي
ابجد
ابخازيا
ابخازیہ
ابدال
ابدالی
ابدی
ابر
ابرار
ابراھیم
ابراہم
ابراہیم
ابراہیمی
ابرہہ
ابصار
ابلاغ
ابلاغیات
ابلیس
ابن
ابو
ابواب
ابوالحسن
ابوالعلاي
ابوالفضل
ابوالقاسم
ابوالکلام
ابوبکر
ابوحنیفہ
ابوداو
ابوذر
ابوسعید
ابوسفیان
ابوطالب
ابوظہبی
ابوعبداللہ
ابومسلم
ابوموسی
ابوہریرہ
ابویوسف
ابھر
ابھرا
ابھرتی
ابھرتے
ابھرنے
ابھری
ابھرے
ابھی
ابہام
ابی
ابیب
اة
ات
اتاترک
اتار
اتارا
اتارنے
اتارے
اتالیق
اتباع
اتحاد
اتحادی
اتحادیوں
اتر
اترا
اتراکھنڈ
اترتا
اترتے
اترنا
اترنے
اترپردیش
اتری
اترے
اتفاق
اتفاقی
اتم
اتنا
اتنی
اتنے
اتوار
اتھارٹی
اتے
اث
اثاثوں
اثاثہ
اثاثے
اثبات
اثباتی
اثر
اثرات
اثرانداز
اثری
اثنا
اثناء
اثناعشری
اثیر
اج
اجارہ
اجازت
اجازہ
اجاگر
اجتماع
اجتماعات
اجتماعی
اجتناب
اجتہاد
اجداد
اجر
اجرا
اجراء
اجرام
اجرت
اجزا
اجزاء
اجزاي
اجسام
اجل
اجلاس
اجلاسات
اجلاسوں
اجماع
اجمالی
اجمعین
اجمل
اجمیر
اجمیری
اجناس
اجنبی
اجیت
اجے
اح
احادیث
احاطہ
احاطے
احباب
احتجاج
احتجاجات
احتجاجی
احترام
احتساب
احتشام
احتمال
احتیاط
احتیاطی
احد
احرار
احرام
احزاب
احساس
احساسات
احسان
احسن
احمد
احمدی
احمدیہ
احمر
احناف
احنف
احوال
احکام
احکامات
احیا
احیاء
اخ
اخبار
اخبارات
اخباروں
اخباری
اختتام
اختتامی
اختر
اختراع
اختراعات
اختصار
اختصاصات
اختلاط
اختلاف
اختلافات
اختلافی
اختیار
اختیارات
اختیاری
اخذ
اخذکردہ
اخراج
اخراجات
اخلاص
اخلاق
اخلاقی
اخلاقیات
اخوان
اخوت
اخوند
اخیر
اد
ادا
ادارت
ادارتی
اداروں
ادارہ
اداری
ادارے
اداس
اداي
اداکار
اداکارا
اداکاراو
اداکاراي
اداکاروں
اداکارہ
اداکاری
ادب
ادبا
ادبی
ادبیات
ادراک
ادرنہ
ادرک
ادریس
ادلیب
ادنی
ادو
ادوار
ادویات
ادویہ
ادھار
ادھر
ادھم
ادیان
ادیب
ادیبوں
ادے
اذ
اذان
اذکار
اذیت
ار
ارادت
ارادوں
ارادہ
ارادی
ارادے
اراضی
اراکین
ارب
ارباب
اربعہ
اربعین
اربن
اربوں
ارتداد
ارتریا
ارتعاش
ارتقا
ارتقاء
ارتقاي
ارتکاب
ارتکاز
ارتھ
ارجمند
ارجن
ارجنا
ارجنٹاي
ارد
اردبیل
اردشیر
اردن
اردنی
اردو
اردوي
اردگرد
ارسال
ارسطو
ارسلان
ارشاد
ارشد
ارض
ارضی
ارضیات
ارضیاتی
ارطغرل
ارغون
ارفع
ارقم
ارل
ارم
ارمان
ارمینی
ارمینیا
ارنسٹ
ارواح
اروبا
ارورا
ارون
اروناچل
اروند
ارکان
اریتریا
اریٹیریا
از
ازابیلا
ازالہ
ازاں
ازبک
ازبکستان
ازبکستانی
ازد
ازدواج
ازدواجی
ازدی
ازسر
ازل
ازلنگٹن
ازم
ازمیر
ازواج
ازہر
ازیں
اس
اساتذہ
اساس
اساسی
اساطیر
اساطیری
اسالیب
اسامہ
اسباب
اسباق
است
استاد
استاذ
استبداد
استثنا
استثناء
استثنی
استحصال
استحقاق
استحکام
استدلال
استرجع
استعارہ
استعداد
استعفا
استعفی
استعمار
استعماری
استعماریت
استعمال
استعمالات
استغاثہ
استفاده
استفادہ
استفسار
استقامت
استقبال
استقبالیہ
استقلال
استنباط
استنبول
استوا
استوار
استواي
استور
استونیا
استونیاي
استیعاب
اسح
اسحاق
اسد
اسدا
اسدالغابہ
اسدی
اسرار
اسراي
اسسٹنٹ
اسعد
اسفار
اسقاط
اسقف
اسلاف
اسلام
اسلامک
اسلامی
اسلامیات
اسلامیت
اسلامیہ
اسلحہ
اسلحے
اسلم
اسلوب
اسم
اسما
اسماء
اسماج
اسمارٹ
اسماعیل
اسماعیلی
اسماعیلیوں
اسماي
اسمبلی
اسمبلیاں
اسمبلیوں
اسمتھ
اسمعیل
اسمگلنگ
اسناد
اسنے
اسود
اسوہ
اسٹار
اسٹارز
اسٹاف
اسٹالن
اسٹالیکر
اسٹاي
اسٹاپ
اسٹاک
اسٹراي
اسٹروک
اسٹریٹ
اسٹریٹجک
اسٹمپ
اسٹمپنگ
اسٹور
اسٹورٹ
اسٹوری
اسٹوریج
اسٹون
اسٹونیا
اسٹونین
اسٹوڈنٹس
اسٹوڈیو
اسٹوڈیوز
اسٹڈی
اسٹڈیز
اسٹیبلشمنٹ
اسٹیج
اسٹیشن
اسٹیشنوں
اسٹیفن
اسٹیل
اسٹین
اسٹینلے
اسٹینڈ
اسٹینڈرڈ
اسٹیو
اسٹیورٹ
اسٹیون
اسٹیٹ
اسٹیٹس
اسٹیڈیم
اسپاي
اسپتال
اسپتالوں
اسپرنگ
اسپن
اسپنر
اسپنرز
اسپورٹ
اسپورٹس
اسپیس
اسپیشل
اسپیل
اسپین
اسپیڈ
اسپیکر
اسکا
اسکالر
اسکالرز
اسکالرشپ
اسکاو
اسکاي
اسکاٹ
اسکاٹش
اسکرپٹ
اسکرین
اسکندر
اسکندریہ
اسکواش
اسکواي
اسکواڈ
اسکواڈرن
اسکور
اسکورر
اسکورنگ
اسکول
اسکولز
اسکولوں
اسکولی
اسکی
اسکیل
اسکیم
اسکینڈل
اسکے
اسی
اسید
اسیر
اسیران
اسیروں
اسیری
اسے
اش
اشارات
اشاروں
اشارہ
اشاریہ
اشاریے
اشارے
اشاعت
اشاعتوں
اشاعتی
اشاعتیں
اشاعرہ
اشبیلیہ
اشتر
اشتراک
اشتراکی
اشتراکیت
اشتعال
اشتغالی
اشتقاقیات
اشتمالی
اشتمالیت
اشتہار
اشتہارات
اشتہاری
اشتیاق
اشخاص
اشد
اشرافیہ
اشرف
اشرفی
اشرفیہ
اشعار
اشعاع
اشعث
اشعری
اشفاق
اشوک
اشوکا
اشک
اشکال
اشکنازی
اشیا
اشیاء
اشیاي
اص
اصابہ
اصحاب
اصرار
اصطباغی
اصطلاح
اصطلاحات
اصطلاحی
اصطلاحیات
اصغر
اصفہان
اصفہانی
اصل
اصلا
اصلاح
اصلاحات
اصلاحی
اصلی
اصلیت
اصناف
اصول
اصولوں
اصولی
اضافت
اضافہ
اضافی
اضافیت
اضافے
اضطراب
اضلاع
اط
اطاعت
اطالوی
اطالیہ
اطبا
اطباء
اطراف
اطفال
اطلاع
اطلاعات
اطلاعاتی
اطلاق
اطلاقی
اطمینان
اطہر
اظہار
اظہر
اع
اعادہ
اعانت
اعتبار
اعتدال
اعتراض
اعتراضات
اعتراف
اعتزال
اعتقاد
اعتقادات
اعتماد
اعتمادی
اعتکاف
اعثم
اعجاز
اعداد
اعدادوشمار
اعراب
اعراف
اعزاز
اعزازات
اعزازی
اعشاریہ
اعصاب
اعصابی
اعضا
اعضاء
اعظم
اعظمی
اعل
اعلام
اعلامیہ
اعلامیے
اعلان
اعلانات
اعلم
اعلی
اعمال
اعمش
اعوان
اعیان
اغراض
اغلاط
اغوا
اف
افادیت
افتاء
افتتاح
افتتاحی
افتخار
افراتفری
افراد
افرادی
افراط
افروز
افریقا
افریقہ
افریقی
افریقیوں
افزا
افزاي
افزودن
افسانوں
افسانوی
افسانہ
افسانے
افسر
افسران
افسردگی
افسردہ
افسروں
افسوس
افسوسناک
افشا
افشار
افضال
افضل
افطار
افعال
افغان
افغانستان
افغانوں
افغانی
افق
افقی
افلاطون
افواج
افواہ
افواہوں
افواہیں
افکار
افیون
افیي
اق
اقارب
اقامت
اقبال
اقبالیات
اقتباس
اقتباسات
اقتدار
اقتصادی
اقتصادیات
اقدار
اقدام
اقدامات
اقدس
اقرار
اقساط
اقسام
اقصی
اقلیت
اقلیتوں
اقلیتی
اقوال
اقوام
اقوامی
اك
ال
الا
الاباما
الاثير
الاحکام
الاخبار
الادب
الاربعین
الارشاد
الارض
الازہر
الاساطیر
الاستیعاب
الاسد
الاسرار
الاسلام
الاسلامی
الاسلامیہ
الاسماء
الاسکا
الاشاعت
الاشراف
الاصابہ
الاصل
الاصول
الاضحی
الاعتدال
الاعتقاد
الاعتقادی
الاعظم
الاعلی
الاقوامی
الامام
الامت
الامم
الامین
الانبیاء
الاندلس
الانساب
الانصاری
الانوار
الاو
الاول
الاولیاء
الاي
الایمان
الباری
البانوی
البانی
البانیا
البانیاي
البانیہ
البتہ
البحر
البخاری
البدایہ
البدایۃ
البر
البرز
البرٹ
البرٹا
البرکات
البشر
البغدادی
البقرہ
البقرۃ
البقیع
البلاغہ
البلد
البلدان
البم
البمز
البیان
البیت
البیرونی
البیضاء
الت
التاريخ
التاریخ
التاي
التجا
التحصیل
التراث
التفسیر
التمش
التواریخ
التوحید
التہذیب
الثانی
الجامع
الجبار
الجبرا
الجزء
الجزاي
الجزیرہ
الجنان
الجھن
الجیریا
الح
الحاج
الحاد
الحارث
الحافظ
الحاق
الحال
الحان
الحج
الحجاج
الحجہ
الحديث
الحدیث
الحدید
الحرام
الحرمین
الحسن
الحسنی
الحسين
الحسین
الحسینی
الحفاظ
الحق
الحقیقت
الحلیم
الحمد
الحمرا
الحمید
الحي
الحکم
الحکومت
الحکیم
الخالق
الخط
الخطاب
الخلافہ
الخلفاء
الخلیل
الخوارزم
الخوارزمی
الخیر
الد
الدارین
الدر
الدمشقی
الدنیا
الدولہ
الدين
الدین
الذکر
الذہب
الذہبی
الر
الرازی
الراي
الرجال
الرحم
الرحمان
الرحمن
الرحمه
الرحمہ
الرحیم
الرزاق
الرسالہ
الرسول
الرشید
الرضا
الرو
الز
الزام
الزامات
الزبتھ
الزبیر
الزمان
الزماں
الزور
الس
الساخت
الستار
السلام
السلطنت
السنن
السنہ
السنۃ
السید
الش
الشافعی
الشام
الشان
الشریعہ
الشریف
الشمس
الشيخ
الشکور
الشہداء
الشیخ
الشیعہ
الص
الصادق
الصباح
الصحابة
الصحابہ
الصدر
الصغیر
الصلاۃ
الصمد
الصوباي
الط
الطارق
الطاف
الطاي
الطبری
الطبعة
الطبقات
الطبیعیات
الظ
الع
العابدین
العارفین
العاص
العالم
العالمین
العباد
العباس
العرب
العربية
العربی
العربیہ
العرفان
العزيز
العزیز
العصر
العظمی
العظیم
العقیدہ
العلم
العلماء
العلمیہ
العلوم
العلی
العمل
العنان
العوام
العین
الغ
الغابہ
الغدیر
الغرض
الغفار
الغفور
الغنی
الغیب
الف
الفا
الفاظ
الفت
الفتح
الفتوح
الفرج
الفرقان
الفریڈ
الفضل
الفطر
الفطرت
الفقار
الفقہ
الفقیہ
الفكر
الفواي
القاب
القابات
القادر
القادری
القاسم
القاعدہ
القاي
القدر
القدس
القدیر
القرا
القران
القرشی
القسام
القضاۃ
القلوب
القمر
القمری
القومی
القیس
القیوم
الكبير
الكتب
الكريم
الل
اللطیف
الله
اللو
اللہ
الم
الما
الماتی
المال
الماي
المبارک
المتوفی
المتوکل
المثل
المجید
المختار
المدارس
المدینہ
المذاہب
المرتضی
المرکبات
المساي
المسلمون
المسلمین
المسیح
المشاي
المصابیح
المصری
المصطف
المصطفی
المطلب
المظفر
المعارف
المعانی
المعتصم
المعجم
المعروف
المغازی
المغرب
المقاصد
المقال
المقدس
الملوک
الملک
المناک
المنتصر
المنتظر
المنذر
المنصور
المهدي
المو
الموت
المومنین
المہدی
المیزان
المیہ
الن
الناس
الناشر
الناصر
النبلا
النبلاء
النبوۃ
النبي
النبی
النجوم
النساء
النسل
النصرہ
النعمان
النور
النہار
النہر
النہرین
الو
الواحد
الوارڈو
الواقدی
الوجود
الوداع
الور
الوری
الوطنی
الوفا
الوقت
الولید
الوہاب
الوہیت
الویکی
الٹ
الٹا
الٹنے
الٹی
الپ
الپس
الکا
الکافی
الکامل
الکاي
الکاہل
الکبری
الکبیر
الکتاب
الکتب
الکحل
الکحلی
الکرام
الکریم
الکلام
الکمال
الکندی
الکوفی
الگ
الگو
الگورتھم
الہ
الہادی
الہاشمی
الہام
الہامی
الہدی
الہند
الہی
الہیات
الہیثم
الی
الیاس
الینواي
الیون
الیکس
الیکشن
الیکٹران
الیکٹرانک
الیکٹرانکس
الیکٹرون
الیکٹرونکس
الیکٹرک
الیکٹریکل
الیگزنڈر
الیگزینڈر
الیگزینڈریا
الیہ
ام
اما
امارات
اماراتی
امارت
اماسیا
امام
امامت
اماموں
امامہ
امامیہ
امان
امانت
اماں
امب
امبر
امبیڈکر
امبیکاپور
امت
امتحان
امتحانات
امتزاج
امتزاجی
امتیاز
امتیازات
امتیازی
امجد
امداد
امدادی
امر
امرا
امراء
امراض
امراو
امرت
امرتا
امرتسر
امرتسری
امرناتھ
امروز
امروہوی
امروہہ
امروہی
امریکا
امریکن
امریکہ
امریکی
امریکین
امریکیوں
امل
املا
املاک
امن
امنی
اموات
امواج
امواد
امور
اموی
امویوں
امویہ
امپاي
امپھو
امپیریل
امکان
امکانات
امکانی
امی
امیت
امیتابھ
امید
امیدوار
امیدواروں
امیدوں
امیر
امیرالمو
امیرالمومنین
امیروں
امین
امینی
امیگریشن
امیہ
ان
انا
اناج
اناجیل
انار
انارکلی
اناسی
اناطولی
اناطولیہ
انانوے
انانکارپوریٹڈ
اناو
انبار
انبالہ
انبوہ
انبیا
انبیاء
انت
انتالیس
انتباہ
انتخاب
انتخابات
انتخابی
انتداب
انتساب
انتشار
انتشارات
انتظار
انتظام
انتظامات
انتظامی
انتظامیہ
انتقال
انتقام
انتقامی
انتونیو
انتھونی
انتھک
انتہا
انتہاي
انتیس
انجام
انجری
انجم
انجمن
انجمنوں
انجمنیں
انجن
انجنوں
انجنیي
انجیر
انجیل
انجیني
انحراف
انحصار
انحصاری
انحطاط
انخلا
انخلاء
اند
انداز
اندازوں
اندازہ
اندازی
اندازے
اندام
اندر
اندرا
اندراج
اندراجات
اندرون
اندرونی
اندلس
اندلسی
اندور
اندوز
اندھا
اندھیرا
اندھیرے
اندھے
اندیشہ
انرجی
انس
انساب
انسان
انسانوں
انسانی
انسانیات
انسانیت
انساي
انسداد
انسولین
انسٹال
انسٹاگرام
انسٹھ
انسٹی
انسٹیٹیوٹ
انسپکٹر
انشا
انشاء
انشاي
انشورنس
انصار
انصاری
انصاف
انضمام
انطالیہ
انطاکیہ
انعام
انعامات
انعقاد
انفارمیشن
انفرادی
انفرادیت
انفراسٹرکچر
انفنٹری
انفو
انفیکشن
انقرہ
انقلاب
انقلابات
انقلابی
انقلابیوں
انمول
انناس
اننت
اننگ
اننگز
انو
انوار
انواع
انور
انوشکا
انوکھا
انوکھی
انوکی
انٹارکٹک
انٹارکٹکا
انٹارکٹیکا
انٹاریو
انٹر
انٹرفیس
انٹرمیڈیٹ
انٹرنیشنل
انٹرنیٹ
انٹرویو
انٹرویوز
انٹرٹینمنٹ
انٹرپراي
انٹرچینج
انٹرکانٹینینٹل
انٹلیجنس
انٹونیو
انٹیلی
انٹیلیجنس
انٹیلیز
انچ
انچارج
انچاس
انچیف
انچیون
انڈر
انڈرگراو
انڈرگریجویٹ
انڈس
انڈسٹری
انڈسٹریز
انڈسٹریل
انڈمان
انڈو
انڈورا
انڈورہ
انڈونیشی
انڈونیشیا
انڈونیشیاي
انڈوں
انڈیا
انڈیانا
انڈیز
انڈین
انڈینز
انڈیکس
انڈے
انکا
انکار
انکشاف
انکشافات
انکل
انکم
انکو
انکواي
انکی
انکے
انگ
انگریز
انگریزوں
انگریزی
انگلستان
انگلستانی
انگلش
انگلی
انگلیاں
انگلینڈ
انگلیوں
انگلیکان
انگور
انگوش
انگولا
انگولہ
انگولی
انگوٹھی
انگوٹھے
انگیز
انگیزی
انھوں
انھی
انھیں
انہتر
انہدام
انہوي
انہوں
انہی
انہیں
انی
انیتا
انیس
انیسویں
انیل
انیمیشن
انیمیٹڈ
اه
او
اواخر
اواي
اوباما
اوبراي
اوبلاست
اوتار
اوج
اودھ
اودے
اور
اورا
اورابن
اوراس
اوراق
اورال
اوران
اوراپنے
اورایک
اورحضرت
اورلینز
اورنج
اورنگ
اورنگزیب
اوروہ
اورکزي
اورینٹل
اوریگون
اوریہ
اوز
اوزار
اوزاروں
اوزاعی
اوزان
اوزون
اوس
اوساکا
اوستا
اوسط
اوسطا
اوسلو
اوسی
اوسیتیا
اوسیولا
اوسیٹیا
اوشا
اوشیانا
اوصاف
اوغلو
اوقات
اوقاف
اوقیانوس
اوقیانوسی
اوقیانوسیہ
اول
اولا
اولاد
اولادیں
اولمپک
اولمپکس
اولڈ
اولی
اولیا
اولیاء
اولیاي
اولین
اولیور
اوم
اوموری
اون
اونس
اونٹ
اونٹاریو
اونٹنی
اونٹوں
اونچا
اونچاي
اونچی
اونچے
اونی
اوهایو
اوو
اوور
اوورز
اوول
اوون
اوي
اوٹاوا
اوٹاگو
اوٹر
اوٹو
اوپر
اوپرا
اوپری
اوپن
اوپنر
اوپننگ
اوپیرا
اوچ
اوڈیشا
اوڈیشہ
اوک
اوکاڑہ
اوکسفرڈ
اوکلاہوما
اوکلینڈ
اوکیناوا
اوہ
اوہاي
اویس
اویسی
اویغور
اویلر
اي
ايس
ايك
ايم
اين
ايک
اٹ
اٹارنی
اٹل
اٹلانٹا
اٹلانٹک
اٹلس
اٹلی
اٹک
اٹھ
اٹھا
اٹھاتا
اٹھاتے
اٹھارویں
اٹھارہ
اٹھارہویں
اٹھاسی
اٹھانا
اٹھانوے
اٹھانے
اٹھاون
اٹھاي
اٹھایا
اٹھتا
اٹھتر
اٹھتے
اٹھنے
اٹھی
اٹھے
اٹیک
اپ
اپارٹمنٹ
اپالو
اپر
اپريل
اپریل
اپلاي
اپلوڈ
اپنا
اپنانا
اپنانے
اپناي
اپنایا
اپنی
اپنے
اپوزیشن
اپون
اپیل
اچ
اچار
اچاریہ
اچانک
اچھا
اچھاي
اچھی
اچھے
اچیومنٹ
اڈا
اڈوں
اڈي
اڈہ
اڈیشا
اڈیہ
اڈے
اڑ
اڑا
اڑان
اڑانے
اڑایا
اڑتالیس
اڑتیس
اڑسٹھ
اڑنے
اڑھاي
اڑیسہ
اژدہا
اک
اکا
اکابر
اکابرین
اکادمی
اکانومی
اکاو
اکاون
اکاي
اکبر
اکبرا
اکبری
اکتالیس
اکتساب
اکتفا
اکتوبر
اکتیس
اکثر
اکثریت
اکثریتی
اکرام
اکرم
اکسایا
اکسٹھ
اکسید
اکشے
اکلوتی
اکلوتے
اکمل
اکنامک
اکنامکس
اکٹھا
اکٹھی
اکٹھے
اکھاڑ
اکہتر
اکیاسی
اکیانوے
اکیتا
اکیتین
اکیس
اکیسویں
اکیلا
اکیلے
اکیڈمک
اکیڈمی
اکیڈیمی
اگاي
اگر
اگروال
اگرچہ
اگست
اگستیہ
اگلا
اگلی
اگلے
اگنی
اھل
اہتمام
اہداف
اہرام
اہل
اہلبیت
اہلسنت
اہلکار
اہلکاروں
اہلیا
اہلیت
اہلیہ
اہم
اہمیت
اہواز
ای
ایاز
ایاس
ایام
ایان
ایبل
ایبٹ
ایبک
ایبی
ایتھلیٹ
ایتھلیٹک
ایتھلیٹکس
ایتھنز
ایتھنول
ایتھنولوگ
ایتھوپیا
ایتھوپیاي
ایثار
ایج
ایجاد
ایجادات
ایجبسٹن
ایجنسی
ایجنسیاں
ایجنسیوں
ایجنٹ
ایجنٹوں
ایجنڈے
ایجوکیشن
ایجوکیشنل
ایجیي
ایدھی
ایذا
ایر
ایران
ایرانی
ایرانیوں
ایردوان
ایرو
ایروکواے
ایرک
ایری
ایریا
ایریزونا
ایس
ایسا
ایسوسی
ایسٹ
ایسٹر
ایسٹرن
ایسٹل
ایسٹونیا
ایسڈ
ایسی
ایسیکس
ایسے
ایش
ایشا
ایشان
ایشز
ایشلنڈ
ایشلے
ایشن
ایشور
ایشوریا
ایشیا
ایشیاء
ایشیاي
ایشیاکی
ایشین
ایضا
ایغور
ایف
ایل
ایلام
ایلزبتھ
ایلس
ایلسورتھ
ایلن
ایلنگ
ایلومینیم
ایلون
ایلچی
ایلک
ایلکس
ایلی
ایلیا
ایلیسن
ایلیٹ
ایم
ایما
ایمان
ایمانی
ایمبولینس
ایمبیڈڈ
ایمرجنسی
ایمرجنگ
ایمسٹرڈیم
ایملی
ایمن
ایمنسٹی
ایمپاي
ایمی
ایمیزون
ایمیٹ
این
اینا
اینجلس
ایندھن
اینفیلڈ
اینٹ
اینٹوں
اینٹی
اینٹینٹ
اینٹیگوا
اینڈ
اینڈراي
اینڈرسن
اینڈروي
اینڈریو
اینڈریوز
اینڈی
اینکر
اینگلز
اینگلو
اینی
اینیلیا
اینیمیشن
اینیمیٹڈ
ایوا
ایوارڈ
ایوارڈز
ایوان
ایوانوں
ایوب
ایوبی
ایودھیا
ایورسٹ
ایون
ایونز
ایونٹ
ایونٹس
ایونیو
ایوی
ایي
ایٹ
ایٹرز
ایٹم
ایٹمی
ایٹن
ایٹیینے
ایپ
ایپل
ایپلاچا
ایپلی
ایپی
ایچ
ایچی
ایچیسن
ایڈ
ایڈا
ایڈاہو
ایڈجسٹ
ایڈرین
ایڈز
ایڈسن
ایڈم
ایڈمرل
ایڈمز
ایڈمنسٹریشن
ایڈمنسٹریٹر
ایڈمنٹن
ایڈمنڈ
ایڈن
ایڈنبرا
ایڈنبرگ
ایڈوانس
ایڈوانسڈ
ایڈواي
ایڈوبی
ایڈورڈ
ایڈورڈز
ایڈولف
ایڈون
ایڈونچر
ایڈووکیٹ
ایڈگر
ایڈی
ایڈیسن
ایڈیشن
ایڈیشنل
ایڈیلیڈ
ایڈیٹر
ایک
ایکس
ایکسپریس
ایکسپلورر
ایکسپورٹ
ایکسچینج
ایکشن
ایکو
ایکواڈور
ایکواڈوری
ایکومینیکل
ایکٹ
ایکٹر
ایکٹن
ایکڑ
ایگزیکٹو
ایگل
ایگلز
اے
ب
با
باء
باا
بااثر
بااختیار
باب
بابا
باباي
بابت
بابر
بابری
بابل
بابلی
بابو
بابک
بابی
بات
باتوں
باتھ
باتیں
باجوڑ
باجوہ
باجی
باخبر
باختر
باد
بادام
بادشاہ
بادشاہت
بادشاہتوں
بادشاہتیں
بادشاہوں
بادشاہی
بادل
بادلوں
بادکاری
بادی
بادیات
بادیاتی
بادیاں
بادیوں
بار
بارات
بارباڈوس
بارباڈوسی
باربر
باربرا
باربوڈا
بارسلونا
بارش
بارشوں
بارشیں
بارنس
بارنیٹ
بارود
بارودی
بارٹن
بارڈر
بارک
بارگاہ
بارہ
بارہا
بارہواں
بارہویں
باری
باریسال
باریک
بارے
باز
بازار
بازاروں
بازاری
بازنطینی
بازنطینیوں
بازو
بازوو
بازوں
بازی
بازیابی
بازیافت
باس
باسفورس
باسل
باسلام
باسو
باسٹھ
باسکٹ
باسکی
باسی
باسیلیکا
باسیوں
باش
باشعور
باشندوں
باشندہ
باشندے
باشی
باصلاحیت
باضابطہ
باطل
باطن
باطنی
باطنیت
باعث
باغ
باغات
باغبانی
باغستان
باغی
باغیوں
بافٹا
باقاعدگی
باقاعدہ
باقر
باقی
باقیات
بال
بالا
بالاتر
بالاجی
بالاخر
بالادستی
بالاي
بالاکوٹ
بالترتیب
بالخصوص
بالر
بالشویک
بالشویکوں
بالعموم
بالغ
بالغوں
باللہ
بالمعروف
بالمقابل
بالواسطہ
بالوں
بالٹک
بالٹیمور
بالڈون
بالکل
بالی
بالینی
بام
بامر
بامیان
بان
باندھ
باندھا
باندھنے
باندھے
بانس
بانو
بانٹ
بانڈ
بانگ
بانی
بانیان
بانیوں
باو
باوجود
باور
باورچی
باوقار
باولنگ
باون
باي
باپ
باڈی
باڑ
باڑہ
باڑی
باک
باکس
باکسر
باکسنگ
باکمال
باکو
باگ
باہر
باہم
باہمی
باہو
باہوبلی
باہیا
بایاں
بایزید
ببر
بت
بتا
بتاتا
بتاتی
بتاتے
بتاریخ
بتانا
بتانے
بتاو
بتاي
بتایا
بتدریج
بتوں
بتیس
بج
بجا
بجاتے
بجار
بجانے
بجاي
بجلی
بجنور
بجٹ
بجھانے
بجے
بحار
بحارالانوار
بحال
بحالی
بحث
بحر
بحرالکاہل
بحران
بحرانوں
بحرانی
بحری
بحرین
بحرینی
بحریہ
بحق
بحوالہ
بحیثیت
بحیرات
بحیرہ
بخار
بخارا
بخارات
بخارسٹ
بخاری
بخت
بختیار
بختیاری
بخش
بخشا
بخشش
بخشنے
بخشی
بخوبی
بخود
بد
بدامنی
بدایونی
بدایوں
بدتر
بدترین
بدخشاں
بدر
بدرالدین
بدرخواست
بدری
بدستور
بدسلوکی
بدعات
بدعت
بدعنوان
بدعنوانی
بدقسمتی
بدل
بدلا
بدلتا
بدلتی
بدلتے
بدلنا
بدلنے
بدلہ
بدلی
بدلیں
بدلے
بدن
بدنام
بدنامی
بدو
بدوز
بدوش
بدوشوں
بدولت
بدون
بدھ
بدھا
بدی
بدیع
بدین
بذات
بذریعہ
بر
برا
براء
برابر
برابری
برادر
برادران
برادرز
برادری
برادریاں
برادریوں
برار
برازیل
برازیلی
براستہ
براعظم
براعظموں
براعظمی
برانچ
برانڈ
برانڈز
براو
براي
براڈ
براڈکاسٹر
براڈکاسٹنگ
براہ
براہمن
براہوي
برای
برباد
بربادی
بربر
بربریت
برتاو
برتر
برتری
برتن
برتنوں
برج
برجیس
برحق
برخاست
برخلاف
برد
بردار
برداری
برداشت
بردہ
بررسی
برس
برسا
برسات
برسبین
برسر
برسلز
برسوں
برسٹل
برسی
برشلونہ
برصغیر
برطانوی
برطانویوں
برطانیہ
برطرف
برطرفی
برعکس
برف
برفانی
برق
برقرار
برقناطیسی
برقی
برقیات
برقیاتی
برقیہ
برلن
برلنگٹن
برما
برمنگھم
برمودا
برموداي
برمی
برن
برنارڈ
برنارڈینو
برنزوک
برنزویک
برنسوک
برنولی
برنی
برو
بروج
بروجردی
بروز
بروس
بروقت
بروملی
بروناي
برونڈی
بروي
بروک
بروکس
بروکلین
بروہی
برٹ
برٹش
برٹن
برپا
برچسب
برڈ
برک
برکات
برکت
برکشاي
برکلے
برکی
برکینا
برگ
برگر
برگزیدہ
برگن
برگنڈی
برہان
برہم
برہما
برہمن
برہمنوں
برہمو
برہنہ
بری
بریانی
بریری
بریریوں
بریسٹ
بریلوی
بریلی
بریمر
برین
برینٹ
برینڈن
بریٹ
بریٹن
بریڈ
بریڈفورڈ
بریڈمین
بریک
بریگیڈ
بریگیڈیي
برے
بز
بزدار
بزرویٹری
بزرگ
بزرگان
بزرگوار
بزرگوں
بزرگی
بزم
بزنس
بس
بسا
بساط
بساو
بسایا
بسبب
بستر
بستری
بستہ
بستی
بستیاں
بستیوں
بسر
بسلسلہ
بسم
بسمارک
بسمل
بسنت
بسنے
بسوں
بسی
بسیں
بسے
بش
بشار
بشارت
بشاریں
بشانہ
بشر
بشرطیکہ
بشری
بشریات
بشمول
بشپ
بشیر
بصارت
بصرہ
بصری
بصریات
بصورت
بصیرت
بطخ
بطریق
بطلیموس
بطن
بطور
بطوطہ
بظاہر
بعث
بعثت
بعد
بعدازاں
بعض
بعل
بعنوان
بعید
بغاوت
بغاوتوں
بغاوتیں
بغداد
بغدادی
بغض
بغور
بغیر
بفر
بفیلو
بقا
بقاء
بقاي
بقرہ
بقول
بقید
بقیہ
بكر
بل
بلا
بلاد
بلاذری
بلاسٹ
بلاشبہ
بلاغت
بلال
بلانے
بلاول
بلاي
بلاک
بلاکس
بلاگ
بلایا
بلبل
بلتستان
بلتی
بلجي
بلحاط
بلحاظ
بلخ
بلخی
بلد
بلدیات
بلدیاتی
بلدیہ
بلز
بلغاری
بلغاریاي
بلغاریہ
بلغراد
بلقان
بلقیس
بلند
بلندی
بلندیوں
بلو
بلوا
بلور
بلوغ
بلوغت
بلوم
بلومنگٹن
بلوچ
بلوچستان
بلوچوں
بلوچی
بلڈ
بلڈنگ
بلکہ
بلگرامی
بلی
بلیغ
بلین
بلیو
بلیوز
بلیوں
بلیي
بلیک
بلے
بم
بمبار
بمباری
بمبي
بمشکل
بمطابق
بمعنی
بمقابلہ
بمقام
بموں
بن
بنا
بناء
بناتا
بناتی
بناتے
بنادیا
بنارس
بنارسی
بنالیا
بنام
بنانا
بنانے
بناو
بناوٹ
بناي
بناکر
بنایا
بنت
بنتا
بنتی
بنتے
بنجر
بند
بندر
بندرگاہ
بندرگاہوں
بندرگاہیں
بندش
بندوبست
بندوق
بندوقوں
بندوقیں
بندوں
بندگی
بندھن
بندہ
بندی
بندیاں
بندیل
بندے
بنرجی
بنسی
بنفشی
بننا
بننے
بنو
بنواي
بنوایا
بنوری
بنوں
بني
بنک
بنکاری
بنکاک
بنکی
بنگ
بنگال
بنگالی
بنگش
بنگلا
بنگلور
بنگلہ
بنی
بنیاد
بنیادوں
بنیادی
بنیادیں
بنیامین
بنیں
بنے
به
بهی
بو
بوا
بواي
بوبی
بوتل
بوتھ
بوتھم
بوجھ
بوجہ
بود
بودھ
بوربن
بورس
بورصہ
بورن
بورنیو
بورو
بورڈ
بورڈز
بورڈنگ
بورک
بوری
بوریل
بورین
بورے
بوس
بوستان
بوسنیا
بوسنیاي
بوسٹن
بوسہ
بوشہر
بوقت
بول
بولا
بولان
بولتا
بولتی
بولتے
بولر
بولنا
بولنگ
بولنے
بولو
بولٹ
بولٹن
بولڈ
بولی
بولیاں
بولیور
بولیوں
بولیویا
بولیویاي
بولیں
بولے
بوم
بون
بونا
بوناپارٹ
بونڈ
بونی
بونیر
بونے
بوي
بوٹ
بوٹسوانا
بوٹی
بوٹیاں
بوٹیوں
بوڑھا
بوڑھی
بوڑھے
بوک
بوہرہ
بوہول
بوہیمیا
بویراحمد
بویہ
بي
بيروت
بين
بٹ
بٹالہ
بٹالین
بٹلر
بٹن
بٹگرام
بٹھا
بٹھایا
بپاشی
بپتسمہ
بچ
بچا
بچاتا
بچانا
بچانے
بچاو
بچاي
بچایا
بچت
بچن
بچنا
بچنے
بچوں
بچپن
بچھا
بچھاي
بچہ
بچی
بچیاں
بچیوں
بچے
بڑ
بڑا
بڑودہ
بڑوں
بڑھ
بڑھا
بڑھاتے
بڑھانا
بڑھانے
بڑھاوا
بڑھاي
بڑھاپے
بڑھایا
بڑھتا
بڑھتی
بڑھتے
بڑھنا
بڑھنے
بڑھی
بڑھیں
بڑھے
بڑی
بڑے
بک
بکا
بکتر
بکثرت
بکر
بکری
بکریاں
بکریوں
بکرے
بکس
بکنگھم
بکھر
بکھری
بکھرے
بگ
بگاڑ
بگٹی
بگڑ
بھ
بھارت
بھارتی
بھارتیہ
بھاری
بھاشا
بھال
بھانجی
بھانجے
بھاو
بھاي
بھاپ
بھاگ
بھاگا
بھاگتے
بھاگنے
بھاگے
بھتیجا
بھتیجے
بھجن
بھجوا
بھر
بھرا
بھرت
بھرتی
بھرنے
بھروسا
بھروسہ
بھرپور
بھری
بھرے
بھلا
بھلاي
بھلے
بھوانی
بھوت
بھوج
بھوجپوری
بھورا
بھوری
بھورے
بھوسلے
بھوشن
بھول
بھولا
بھومی
بھون
بھوٹان
بھوٹانی
بھوپال
بھوک
بھٹ
بھٹاي
بھٹو
بھٹی
بھڑک
بھکتی
بھکر
بھکشو
بھگ
بھگا
بھگت
بھگوان
بھی
بھیج
بھیجا
بھیجتا
بھیجتے
بھیجنا
بھیجنے
بھیجی
بھیجیں
بھیجے
بھیرہ
بھیس
بھیم
بھینس
بھیڑ
بھیڑوں
بھیڑیا
بھیک
بہ
بہا
بہاء
بہادر
بہادری
بہار
بہاری
بہاماس
بہاماسی
بہانہ
بہانے
بہاو
بہاول
بہاولنگر
بہاولپور
بہاي
بہبود
بہت
بہتا
بہتر
بہتری
بہترین
بہتی
بہتے
بہر
بہرام
بہراي
بہرحال
بہرہ
بہشت
بہشتی
بہلول
بہم
بہمنی
بہن
بہنوي
بہنوں
بہنیں
بہنے
بہو
بہہ
بی
بیاس
بیاسی
بیالیس
بیان
بیانات
بیانوے
بیانی
بیانیہ
بیاں
بیاہ
بیبرس
بیبی
بیت
بیتی
بیج
بیجاپور
بیجنگ
بیجوں
بید
بیدار
بیداری
بیدر
بیدل
بیدی
بیر
بیراج
بیرسٹر
بیرل
بیرم
بیرن
بیرنگ
بیروت
بیرون
بیرونی
بیروٹ
بیرکوں
بیری
بیریا
بیریاي
بیرین
بیس
بیسارابیہ
بیسن
بیسویں
بیسٹ
بیش
بیشتر
بیشک
بیشی
بیضوی
بیع
بیعت
بیل
بیلا
بیلاروس
بیلاروسی
بیلجي
بیلجیم
بیلجیي
بیلفاسٹ
بیلمونٹ
بیلنس
بیلٹ
بیلی
بیلیز
بیلیزی
بیلے
بیم
بیمار
بیماری
بیماریاں
بیماریوں
بیمہ
بین
بینا
بیناي
بینجمن
بینر
بینسن
بینظیر
بینن
بیننی
بینٹن
بینچ
بینڈ
بینک
بینکار
بینکاری
بینکاک
بینکر
بینکس
بینکنگ
بینکوں
بینگ
بینگلور
بینی
بینیٹ
بیور
بیورلی
بیورو
بیوروکریسی
بیونا
بیونس
بیوٹی
بیوکینن
بیوہ
بیوی
بیویاں
بیویوں
بیي
بیٹ
بیٹا
بیٹری
بیٹن
بیٹنگ
بیٹوں
بیٹھ
بیٹھا
بیٹھتا
بیٹھتے
بیٹھنا
بیٹھنے
بیٹھی
بیٹھے
بیٹی
بیٹیاں
بیٹیوں
بیٹے
بیچ
بیچا
بیچلر
بیچنے
بیڈ
بیڈفورڈ
بیڈمنٹن
بیڑا
بیڑے
بیک
بیکار
بیکانیر
بیکر
بیکن
بیکٹیریا
بیگ
بیگم
بیگی
بیہقی
بے
ة
ت
تا
تاب
تابع
تابعی
تابعین
تابوت
تابکار
تابکاری
تاتار
تاتارستان
تاتاری
تاتاریوں
تاثر
تاثرات
تاثیر
تاج
تاجدار
تاجر
تاجران
تاجروں
تاجپوشی
تاجک
تاجکستان
تاجکستانی
تاحال
تاحیات
تاخت
تاخیر
تار
تارا
تاراج
تاروں
تاريخ
تارڑ
تارک
تارکین
تاریخ
تاریخوں
تاریخچہ
تاریخی
تاریخیں
تاریک
تاریکی
تارے
تازہ
تاسیس
تاسیسات
تاسیسی
تاشقند
تال
تالاب
تالپور
تالیف
تالیفات
تام
تامبون
تامل
تان
تانبا
تانبے
تانگ
تاو
تاوان
تاویل
تاي
تاکہ
تاکید
تاہم
تاہے
تایا
تب
تبادلہ
تبادلے
تباہ
تباہی
تبت
تبتی
تبدیل
تبدیلی
تبدیلیاں
تبدیلیوں
تبریز
تبریزی
تبسم
تبصروں
تبصرہ
تبصرے
تبع
تبلیسی
تبلیغ
تبلیغی
تبوک
تبھی
تثلیث
تجارت
تجارتی
تجاوز
تجاویز
تجدید
تجربات
تجرباتی
تجربہ
تجربے
تجرید
تجریدی
تجزیاتی
تجزیہ
تجزیے
تجسس
تجوید
تجویز
تجھ
تجھے
تجہیز
تحاریک
تحاي
تحت
تحریر
تحریروں
تحریری
تحریریں
تحریف
تحریم
تحریک
تحریکوں
تحریکیں
تحسین
تحصیل
تحصیلوں
تحصیلیں
تحفظ
تحفظات
تحفہ
تحفۃ
تحفے
تحقیق
تحقیقات
تحقیقاتی
تحقیقی
تحلیل
تحلیلات
تحمل
تحویل
تخت
تختہ
تختی
تختے
تخریب
تخریج
تخصص
تخصیص
تخفیف
تخلص
تخلیق
تخلیقات
تخلیقی
تخمینہ
تخمینے
تخیل
تدابیر
تدبر
تدبیر
تدریس
تدریسی
تدفین
تدوین
تذکروں
تذکرہ
تذکرۃ
تذکرے
تر
ترا
تراب
ترابزون
تراجم
تراش
تراشی
ترامیم
ترانہ
ترانے
تراویح
تراکیب
تربت
تربیت
تربیتی
ترتیب
ترتیبات
ترجمان
ترجمانی
ترجمه
ترجمہ
ترجمے
ترجیح
ترجیحات
ترجیحی
ترخان
تردید
ترسیل
ترغیب
ترقی
ترقیاتی
ترمذی
ترمیز
ترمیم
ترمیمی
ترن
ترنم
ترویج
ترپن
ترک
ترکستان
ترکمان
ترکمانستان
ترکمانستانی
ترکمن
ترکوں
ترکی
ترکیب
ترکیبی
ترکیہ
تری
تریاسی
تریانوے
تریسٹھ
ترین
تریپورہ
ترے
تزویراتی
تزي
تزک
تزکیہ
تسبیح
تست
تسخیر
تسلسل
تسلط
تسلی
تسلیم
تسمانیا
تسمانیہ
تسمیہ
تسکین
تش
تشبیہ
تشخص
تشخیص
تشدد
تشریح
تشریحات
تشریف
تشزدگی
تشزدگیاں
تشویش
تشویشناک
تشکیل
تشکیلات
تشہیر
تشیع
تشیں
تصادفی
تصادم
تصانیف
تصاویر
تصحیح
تصدیق
تصرف
تصریح
تصغیر
تصفیہ
تصنيف
تصنیعی
تصنیف
تصنیفات
تصو
تصور
تصورات
تصوراتی
تصوف
تصویر
تصویروں
تصویری
تصویریں
تضاد
تضادات
تطہیر
تعارف
تعارفی
تعاقب
تعال
تعالى
تعالی
تعامل
تعاون
تعبیر
تعجب
تعداد
تعدد
تعریف
تعریفیں
تعزیت
تعزیرات
تعزیری
تعزیہ
تعصب
تعطل
تعطیل
تعطیلات
تعظیم
تعلق
تعلقات
تعلقہ
تعلم
تعلیق
تعلیم
تعلیمات
تعلیمی
تعمیر
تعمیرات
تعمیراتی
تعمیری
تعمیل
تعین
تعینات
تعیناتی
تعیین
تغلب
تغلق
تغیر
تغیرات
تفاسیر
تفاعل
تفاوت
تفتیش
تفرقہ
تفرقی
تفریح
تفریحی
تفریق
تفسیر
تفسیری
تفصیل
تفصیلات
تفصیلی
تفضیل
تفویض
تفہیم
تقابل
تقابلی
تقاریب
تقاریر
تقاضا
تقاضوں
تقاضے
تقدس
تقدیر
تقرر
تقرری
تقریب
تقریبا
تقریبات
تقریر
تقریروں
تقریریں
تقسیم
تقسیمات
تقلید
تقوی
تقویت
تقویم
تقی
تقیہ
تل
تلاش
تلاشی
تلافی
تلامذہ
تلاوت
تلخ
تلخی
تلخیص
تلسی
تلف
تلفظ
تلقین
تلمذ
تلمود
تلنگانہ
تلوار
تلواروں
تلواریں
تلک
تلگو
تلہ
تلی
تلے
تم
تما
تماشا
تماشاي
تمام
تمباکو
تمثیل
تمدن
تمر
تمغا
تمغاجات
تمغاي
تمغوں
تمغہ
تمغے
تمل
تمنا
تمناي
تمھارے
تمھیں
تمہارا
تمہاری
تمہارے
تمہید
تمہیں
تمیز
تمیم
تمیمی
تن
تنا
تنازع
تنازعات
تنازعہ
تنازعے
تناسب
تناسق
تناظر
تناو
تناول
تنبیہ
تنخواہ
تنخواہوں
تنزانی
تنزانیہ
تنصیب
تنصیبات
تنظیم
تنظیمات
تنظیموں
تنظیمی
تنظیمیں
تنفس
تنقیح
تنقید
تنقیدی
تنوع
تنولی
تنویر
تنگ
تنگی
تنہا
تنہاي
تنے
تها
تهران
تو
توا
تواتر
تواریخ
توازن
تواس
تواضع
توان
تواناي
توبہ
توت
توتسی
توثیق
توجہ
توجیہ
توحید
توحیدی
تودے
تور
تورات
توران
توراۃ
توریت
توزیع
توسط
توسیع
توسیعی
توصیف
توضیح
توفیق
توقع
توقعات
توقیر
تول
تولید
تولیدی
توما
تونس
تونسوی
تونسہ
تونسی
تووالو
تووہ
توپ
توپوں
توپیں
توڑ
توڑا
توڑنا
توڑنے
توکل
توں
توہم
توہین
تي
تپ
تپش
تپہ
تڑپ
تک
تکالیف
تکامل
تکبر
تکبیر
تکذیب
تکرار
تکریم
تکلف
تکلم
تکلیف
تکمیل
تکن
تکنیک
تکنیکوں
تکنیکی
تکون
تکیہ
تھ
تھا
تھام
تھامس
تھامسن
تھانوی
تھانہ
تھانے
تھاي
تھر
تھراپی
تھرلر
تھرمل
تھرو
تھرڈ
تھری
تھریس
تھل
تھلگ
تھنڈر
تھوڑا
تھوڑی
تھوڑے
تھوک
تھک
تھی
تھیسالونیکی
تھیلی
تھیم
تھیوری
تھیوڈور
تھیٹر
تھیٹرز
تھیں
تھے
تہ
تہاي
تہتر
تہجد
تہجی
تہذیب
تہذیبوں
تہذیبی
تہران
تہرانی
تہمت
تہوار
تہواروں
تہہ
تی
تیار
تیاری
تیاریاں
تیاریوں
تیانجن
تیجس
تیر
تیرا
تیرانداز
تیراک
تیراکی
تیروں
تیرہ
تیرہویں
تیری
تیرے
تیز
تیزاب
تیزی
تیس
تیسرا
تیسری
تیسرے
تیغ
تیل
تیلگو
تیمور
تیموری
تیمی
تیمیہ
تین
تینتالیس
تینتیس
تینوں
تیواری
تیونس
تیي
تیں
تے
ث
ثابت
ثار
ثاریات
ثاریاتی
ثاقب
ثالث
ثالثی
ثانوی
ثانی
ثانیہ
ثبت
ثبوت
ثر
ثروت
ثریا
ثعلبہ
ثقافت
ثقافتوں
ثقافتی
ثقاہت
ثقفی
ثقل
ثقلی
ثقلین
ثقہ
ثقۃ
ثقیف
ثلاثہ
ثلث
ثم
ثمر
ثمود
ثمینہ
ثنا
ثناء
ثناي
ثواب
ثور
ثوری
ج
جا
جابجا
جابر
جابرانہ
جات
جاتا
جاتاہے
جاتی
جاتیں
جاتیہ
جاتے
جادو
جادوي
جادوگر
جاذب
جار
جارج
جارجیا
جارجیاي
جارحانہ
جارحیت
جارہا
جارہی
جارہے
جاری
جاز
جاسم
جاسوس
جاسوسی
جاسکتا
جاسکتی
جاسکتے
جاسکیں
جاسکے
جال
جالب
جالندھر
جالندھری
جالوت
جالی
جام
جامد
جامشورو
جامع
جامعات
جامعہ
جامعۃ
جامعیت
جامنی
جامہ
جامی
جان
جانا
جاناں
جانب
جانبدار
جانبداری
جانتا
جانتی
جانتے
جاندار
جانداروں
جانز
جانسن
جانسٹن
جانشین
جانشینوں
جانشینی
جاننا
جاننے
جانور
جانوروں
جانوں
جانچ
جانچنے
جانی
جانیں
جانے
جاو
جاوا
جاوی
جاوید
جاي
جاٹ
جاٹوں
جاپان
جاپانی
جاپانیوں
جاچکے
جاڑا
جاکر
جاگ
جاگیر
جاگیردار
جاگیردارانہ
جاگیرداروں
جاگیرداری
جاں
جاہ
جاہل
جاہلیت
جایا
جاے
جب
جبار
جبر
جبرا
جبرالٹر
جبران
جبراي
جبري
جبری
جبریل
جبل
جبوتی
جبکہ
جبیر
جتنا
جتنی
جتنے
جتوي
جج
ججوں
جحش
جد
جدا
جداي
جداگانہ
جدت
جدو
جدوجہد
جدول
جدہ
جدید
جدیدیت
جدین
جذام
جذب
جذبات
جذباتی
جذبہ
جذبے
جر
جرا
جرات
جراثیم
جراح
جراحی
جراي
جرح
جرزی
جرسی
جرم
جرمانہ
جرمانے
جرمن
جرمنوں
جرمنی
جرمین
جرنل
جرنیل
جرنیلوں
جرگہ
جری
جریاي
جریدہ
جریدے
جریر
جز
جزء
جزا
جزاي
جزر
جزو
جزوی
جزي
جزیروں
جزیرہ
جزیرے
جزیہ
جس
جسامت
جست
جستجو
جسد
جسم
جسمانی
جسونت
جسٹ
جسٹس
جسٹن
جسے
جشن
جعفر
جعفرا
جعفری
جعفریان
جعفریہ
جعل
جعلی
جغرافیاي
جغرافیہ
جل
جلا
جلال
جلالت
جلالی
جلالین
جلانے
جلاوطن
جلاوطنی
جلاي
جلایا
جلتا
جلتی
جلتے
جلد
جلدوں
جلدی
جلدیں
جلسوں
جلسہ
جلسے
جلن
جلنے
جلوس
جلوسوں
جلوہ
جلی
جلیل
جلیں
جلے
جم
جما
جمادی
جماع
جماعت
جماعتوں
جماعتی
جماعتیں
جمال
جمالی
جمالیات
جمالیاتی
جماي
جمشید
جمع
جمعرات
جمعہ
جمعیت
جمعیۃ
جمل
جملوں
جملہ
جملے
جمنا
جمود
جموں
جمہور
جمہوری
جمہوریت
جمہوریتیں
جمہوریہ
جمی
جمیعت
جمیل
جمیلہ
جمیکا
جمیکاي
جن
جناب
جنات
جناح
جنادہ
جنازہ
جنازے
جنت
جنتا
جنتی
جنجوعہ
جند
جندب
جنرل
جنس
جنسی
جنسیت
جنم
جنوب
جنوبی
جنورى
جنوری
جنون
جنونی
جنوو
جنوں
جنٹلمین
جنڈ
جنکشن
جنگ
جنگجو
جنگجوو
جنگل
جنگلات
جنگلوں
جنگلی
جنگوں
جنگی
جنگیاں
جنگیں
جنھوں
جنھیں
جنہوں
جنہیں
جنید
جنین
جنیوا
جو
جوا
جواب
جوابات
جوابی
جواد
جوار
جواز
جوامع
جوان
جوانوں
جوانی
جواي
جواں
جواہر
جواہرات
جوبلی
جوتوں
جوتے
جودھ
جور
جورڈن
جوزف
جوزی
جوس
جوش
جوشی
جوضلع
جوق
جول
جولا
جولاي
جولو
جولی
جولیا
جولیس
جولین
جون
جوناتھن
جوناگڑھ
جونز
جوني
جونپور
جونپوری
جونی
جونیي
جوي
جوڈو
جوڈوکا
جوڈی
جوڈیشل
جوڑ
جوڑا
جوڑتا
جوڑتی
جوڑتے
جوڑنے
جوڑوں
جوڑی
جوڑے
جوکہ
جوگی
جوں
جوہانسبرگ
جوہر
جوہری
جوہن
جوہی
جویریہ
جي
جٹ
جڑ
جڑا
جڑانوالہ
جڑواں
جڑوں
جڑی
جڑیں
جڑے
جکارتہ
جگ
جگت
جگر
جگن
جگہ
جگہوں
جگہیں
جھارکھنڈ
جھانسی
جھاڑکھنڈ
جھرمٹ
جھلک
جھلکیاں
جھلی
جھنڈ
جھنڈا
جھنڈوں
جھنڈے
جھنگ
جھنگوی
جھونپڑی
جھوٹ
جھوٹا
جھوٹی
جھوٹے
جھوک
جھٹکے
جھڑپ
جھڑپوں
جھڑپیں
جھک
جھکاو
جھگڑا
جھگڑوں
جھگڑے
جھیل
جھیلوں
جھیلیں
جہ
جہاد
جہادی
جہاز
جہازرانی
جہازوں
جہالت
جہان
جہانگیر
جہانگیری
جہانیاں
جہاں
جہت
جہتی
جہد
جہل
جہلم
جہنم
جہیز
جی
جیا
جیانگسو
جیانگشی
جیب
جیت
جیتا
جیتنے
جیتی
جیتے
جید
جیروم
جیریا
جیسا
جیساکہ
جیسن
جیسپر
جیسکا
جیسی
جیسے
جیش
جیف
جیفرسن
جیفری
جیل
جیلان
جیلانی
جیلن
جیلوں
جیم
جیمز
جیمس
جیمی
جین
جینا
جینز
جینس
جینوا
جینٹلمین
جینی
جینیات
جینیاتی
جینیفر
جینے
جیو
جیوتی
جیوری
جیول
جیومیٹری
جیون
جیٹ
جیک
جیکب
جیکس
جیکسن
جیکی
جے
ح
حا
حاتم
حاج
حاجت
حاجی
حادثات
حادثاتی
حادثہ
حادثے
حارث
حارثہ
حاشیہ
حاصل
حاضر
حاضرہ
حاضری
حاضرین
حاطب
حافظ
حافظہ
حال
حالات
حالانکہ
حالاں
حالت
حالتوں
حالتیں
حالی
حالیہ
حامد
حامل
حاملہ
حامی
حامیوں
حاوی
حاي
حاکم
حاکمیت
حب
حبالہ
حبان
حبش
حبشہ
حبشی
حبیب
حبیبہ
حت
حتمی
حتی
حثیت
حج
حجاب
حجاج
حجاز
حجازی
حجت
حجر
حجرہ
حجری
حجم
حجۃ
حد
حدود
حديث
حدیبیہ
حدیث
حدیثوں
حدیثیں
حدیقہ
حذف
حذیفہ
حر
حرا
حرارت
حرارتی
حراست
حراستی
حرام
حرب
حربہ
حربی
حربے
حرج
حرف
حرفی
حرم
حرمت
حرمتی
حرمین
حروف
حرکات
حرکت
حرکی
حرکیات
حرہ
حریت
حریف
حریفوں
حزب
حزم
حس
حساب
حساس
حساسیت
حسام
حسان
حسب
حسد
حسرت
حسن
حسنہ
حسنی
حسنین
حسين
حسی
حسیب
حسین
حسینہ
حسینی
حسینیہ
حشر
حشرات
حص
حصار
حصص
حصول
حصوں
حصہ
حصین
حصے
حضر
حضرات
حضرت
حضرموت
حضرمی
حضور
حضوری
حفاظ
حفاظت
حفاظتی
حفص
حفصہ
حفظ
حفظان
حفظہ
حفیظ
حق
حقانی
حقاي
حقدار
حقوق
حقہ
حقیر
حقیقت
حقیقتا
حقیقی
حل
حلال
حلب
حلف
حلق
حلقوں
حلقہ
حلقے
حلوہ
حلی
حلیف
حلیم
حلیمہ
حلیہ
حلیۃ
حماد
حماس
حمام
حمایت
حمایتی
حمد
حمزہ
حمص
حمل
حملوں
حملہ
حملے
حمید
حمیدہ
حمیدی
حمیرا
حنا
حنابلہ
حنبل
حنبلی
حنظلہ
حنفی
حنفیہ
حنیف
حنیفہ
حنین
حوا
حوادث
حواری
حواریوں
حواس
حواشی
حوالوں
حوالہ
حوالے
حوثی
حوثیوں
حوزہ
حوصلہ
حوصلے
حوض
حویلی
حکام
حکایات
حکایت
حکم
حکمت
حکمران
حکمرانان
حکمرانوں
حکمرانی
حکمراں
حکومت
حکومتوں
حکومتی
حکومتیں
حکیم
حہ
حی
حیا
حیات
حیاتی
حیاتیات
حیاتیاتی
حیان
حیثیت
حیدر
حیدرا
حیدری
حیران
حیرت
حیرہ
حیض
حیفا
حیوان
حیوانات
حیوانی
حیوانیات
حیوانیہ
خ
خاتم
خاتمہ
خاتمی
خاتمے
خاتون
خادم
خار
خاران
خارج
خارجہ
خارجی
خارجیوں
خارش
خاص
خاصا
خاصہ
خاصی
خاصیت
خاصے
خاطر
خاقان
خال
خالد
خالدہ
خالص
خالصتا
خالصہ
خالق
خالہ
خالی
خام
خامنہ
خاموش
خاموشی
خامی
خامیوں
خان
خانات
خانان
خاندان
خاندانوں
خاندانہاي
خاندانی
خانزادہ
خانقاہ
خانقاہوں
خانقاہیں
خانم
خانوادي
خانوادہ
خانوں
خانپور
خانگی
خانہ
خانی
خانیت
خانیوال
خانے
خاور
خاوند
خاي
خاک
خاکہ
خاکی
خاکے
خاں
خبار
خبر
خبردار
خبروں
خبری
خبریں
ختم
ختنہ
ختیار
خدا
خداداد
خدام
خداو
خداوند
خداوندی
خداي
خدایا
خدشات
خدشہ
خدمات
خدماتی
خدمت
خدوخال
خدیجہ
خذ
خر
خراب
خرابی
خراج
خراسان
خراسانی
خرافات
خربہ
خرت
خرد
خرطوم
خرقہ
خرم
خروج
خروش
خرچ
خرکار
خرگوش
خری
خرید
خریدا
خریدار
خریداری
خریدنا
خریدنے
خریدی
خریدے
خزاعی
خزانچی
خزانہ
خزانے
خزاي
خزاں
خزر
خزرج
خزرجی
خزندے
خزیمہ
خسارے
خستہ
خسرو
خشک
خشکی
خصاي
خصوص
خصوصا
خصوصی
خصوصیات
خصوصیت
خضدار
خضر
خط
خطا
خطاب
خطابات
خطابت
خطاط
خطاطی
خطبات
خطبہ
خطبے
خطر
خطرات
خطرناک
خطرہ
خطرے
خطوط
خطوں
خطہ
خطی
خطیب
خطے
خفی
خفیہ
خلا
خلاء
خلاصہ
خلاصۃ
خلاف
خلافت
خلاي
خلجی
خلدون
خلعت
خلف
خلفا
خلفاء
خلفاي
خلق
خلل
خلوت
خلوص
خلوی
خلکان
خلیات
خلیج
خلیجی
خلیجیں
خلیفہ
خلیفۃ
خلیق
خلیل
خلیوں
خلیہ
خلیے
خم
خمس
خمسہ
خمیر
خمینی
خنجر
خندق
خو
خوا
خواب
خوابوں
خواتین
خواجگان
خواجہ
خوار
خوارج
خوارزم
خوارزمی
خواص
خوان
خواندگی
خوانی
خواں
خواہ
خواہاں
خواہش
خواہشات
خوب
خوبصورت
خوبصورتی
خوبی
خوبیاں
خوبیوں
خود
خودمختار
خودمختاری
خودنوشت
خودکار
خودکش
خودکشی
خودکشیاں
خودی
خور
خوراک
خورد
خوردنی
خوردہ
خورشید
خوروں
خوری
خوزستان
خوش
خوشاب
خوشامد
خوشبو
خوشحال
خوشحالی
خوشخبری
خوشنودی
خوشگوار
خوشی
خوف
خوفزدہ
خوفناک
خول
خولہ
خون
خوند
خونریز
خونریزی
خونی
خوي
خویلد
خير
خٹک
خیال
خیالات
خیالی
خیام
خیانت
خیبر
خیبرپختونخوا
خیر
خیرا
خیرات
خیراتی
خیرباد
خیرمقدم
خیرپور
خیز
خیل
خیموں
خیمہ
خیمے
خیوا
د
دا
داب
داتا
داخل
داخلہ
داخلی
داخلے
داد
دادا
دادو
دادی
دار
دارا
دارالحکومت
دارالحکومتوں
دارالحکومتی
دارالسلام
دارالعلوم
دارالکتب
داران
دارانہ
دارد
دارفور
دارومدار
داروں
داری
داریاں
داریوں
داس
داستان
داستانوں
داستانیں
داعش
داعظم
داعی
داغ
داغستان
داغے
دال
دالہ
دام
داماد
دامن
دان
دانا
داناپوری
دانت
دانتوں
دانستہ
دانش
دانشور
دانشورانہ
دانشوروں
دانشگاه
دانشگاہ
دانشگاہیں
دانوں
دانہ
دانی
دانیال
دانے
داو
داود
داوری
داوواغ
داي
داڑھی
داں
داہر
دایاں
دب
دبا
دبانے
دباو
دباي
دبایا
دبستان
دبي
دبیر
دبے
دت
دتا
دتہ
دتیہ
دجاجہ
دجال
دجلہ
دختر
دخل
در
درا
دراز
دراصل
درانی
دراوڑ
دراوڑی
دربار
درباری
درباریوں
دربھنگہ
درج
درجات
درجن
درجنوں
درجوں
درجہ
درجے
درحقیقت
درخت
درختوں
درخواست
درخواستوں
درخواستیں
درد
دردی
درس
درست
درستگی
درستی
درسگاہ
درسگاہیں
درسی
درشن
درعیہ
درمیان
درمیانی
درمیانے
درمیاں
دروازوں
دروازہ
دروازے
درود
دروز
دروس
درون
درویش
درویشوں
درپیش
درپے
درک
درکار
درگا
درگاہ
درہ
درہم
دری
دریا
دریافت
دریافتوں
دریافتیں
دریاو
دریاي
دریغ
دریں
درے
دس
دست
دستار
دستانے
دستاویز
دستاویزات
دستاویزی
دستبردار
دستبرداری
دستخط
دسترس
دسترسی
دستور
دستوں
دستک
دستکاری
دستگیر
دستہ
دستی
دستیاب
دستیابی
دستے
دسمبر
دسواں
دسویں
دسیوں
دشت
دشمن
دشمنوں
دشمنی
دشوار
دشواری
دعا
دعاو
دعاي
دعو
دعوت
دعوتی
دعوو
دعووں
دعوی
دعویدار
دعوے
دفاتر
دفاع
دفاعی
دفتر
دفتری
دفع
دفعات
دفعہ
دفن
دق
دقت
دقیق
دقیقہ
دل
دلا
دلاتا
دلاتے
دلالت
دلانے
دلاور
دلاي
دلایا
دلت
دلدار
دلدل
دلدلی
دلوں
دلچسپ
دلچسپی
دلکش
دلہن
دلی
دلیر
دلیری
دلیل
دلیپ
دم
دماغ
دماغی
دمتری
دمشق
دمی
دمیوں
دن
دنا
دندان
دنوں
دنیا
دنیاوی
دنیاي
دنیزلی
دنیوی
دو
دوا
دوام
دواو
دواي
دواں
دوبارہ
دوحہ
دودھ
دور
دوران
دورانیہ
دورانیے
دوربین
دوردرشن
دوروں
دورہ
دوری
دورے
دوزخ
دوست
دوستانہ
دوستوں
دوستی
دوسرا
دوسروں
دوسری
دوسرے
دوشنبہ
دوطرفہ
دولت
دولہا
دوم
دون
دونوں
دوي
دوپہر
دوچار
دوڑ
دوڑیں
دوگنا
دوگنی
دوں
دوہا
دوہرا
دوہری
دوہرے
دي
دڑو
دکان
دکانوں
دکانیں
دکن
دکنی
دکھ
دکھا
دکھاتا
دکھاتے
دکھانا
دکھانے
دکھاي
دکھایا
دگنا
دگنی
دھ
دھا
دھات
دھاتوں
دھاتی
دھاتیں
دھار
دھاری
دھارے
دھام
دھان
دھاندلی
دھاوا
دھاگے
دھبے
دھر
دھرتی
دھرم
دھرن
دھماکا
دھماکوں
دھماکہ
دھماکے
دھمکی
دھمکیاں
دھمکیوں
دھن
دھند
دھنی
دھنیال
دھو
دھواں
دھول
دھوم
دھون
دھونا
دھونی
دھونے
دھوي
دھوپ
دھوکا
دھوکہ
دھوکے
دھچکا
دھڑوں
دھڑکن
دھڑے
دھکیل
دھی
دھیان
دھیرے
دھے
دہ
دہانہ
دہانی
دہانے
دہاي
دہراي
دہرایا
دہستان
دہشت
دہلوی
دہلی
دہلیز
دہم
دہن
دہندگان
دہندہ
دہی
دہے
دی
دیا
دیار
دیال
دیامان
دیانت
دیاگیا
دیاں
دیباچہ
دیتا
دیتی
دیتے
دیجي
دیجیے
دید
دیدار
دیدہ
دیدی
دیر
دیرپا
دیرینہ
دیس
دیساي
دیستریک
دیسی
دیش
دیشی
دیل
دین
دینا
دینار
دینوری
دینہ
دینی
دینیات
دینیہ
دینے
دیو
دیوا
دیوار
دیواروں
دیواری
دیواریں
دیوالی
دیوالیہ
دیوان
دیوانہ
دیوانی
دیوبند
دیوبندی
دیوتا
دیوتاو
دیوداس
دیول
دیومالاي
دیوناگری
دیوی
دیویاں
دیي
دیپ
دیپالپور
دیپک
دیکر
دیکھ
دیکھا
دیکھتا
دیکھتی
دیکھتے
دیکھنا
دیکھنے
دیکھو
دیکھي
دیکھی
دیکھیں
دیکھیے
دیکھے
دیگر
دیگرے
دیں
دیہات
دیہاتوں
دیہاتی
دیہاتیوں
دیہی
دیے
دے
ذ
ذا
ذات
ذاتوں
ذاتی
ذاتیں
ذاي
ذاکر
ذبح
ذبیح
ذخاي
ذخیرہ
ذخیرے
ذر
ذرا
ذرات
ذراتی
ذراي
ذرباي
ذرہ
ذری
ذریعہ
ذریعے
ذرے
ذلت
ذلیل
ذمہ
ذمے
ذو
ذوالحجہ
ذوالفقار
ذوالقرنین
ذوالقعدہ
ذوق
ذکر
ذکی
ذہانت
ذہبی
ذہن
ذہنوں
ذہنی
ذہنیت
ذہین
ذی
ذیابیطس
ذیشان
ذیل
ذیلی
ر
را
راء
رابرٹ
رابرٹس
رابرٹسن
رابطوں
رابطہ
رابطے
رابع
رابعہ
رابن
رابندر
رابنز
رابنسن
رات
راتوں
راتیں
راج
راجا
راجاو
راجدھانی
راجر
راجرز
راجستھان
راجستھانی
راجشاہی
راجن
راجندر
راجو
راجوری
راجپوت
راجپوتانہ
راجپوتوں
راجکمار
راجہ
راجیش
راجیو
راجیہ
راحت
راحیل
رادھا
راز
رازداری
رازی
راس
راست
راستوں
راستہ
راستے
راسخ
راشد
راشدہ
راشدی
راشدین
راشن
راشٹریہ
راضی
راغب
رافع
رافیل
راقم
رالف
رام
راما
راماي
راماین
رامن
رامپور
رامی
ران
رانا
رانجھا
رانجی
رانچی
رانی
رانیہ
راو
راول
راولاکوٹ
راولپنڈی
راوی
راویان
راویوں
راي
راٹھور
راک
راکٹ
راکٹوں
راکھ
راکی
راگ
راں
راہ
راہب
راہبوں
راہداری
راہل
راہنما
راہنماي
راہول
راہی
راہیں
رایڈر
راے
رب
ربا
رباب
رباح
رباط
رباعی
رباعیات
ربانی
ربط
ربع
ربڑ
ربی
ربیع
ربیعہ
رة
رت
رتبہ
رتن
رتھ
رتھر
رتھوڈوکس
رتی
رج
رجال
رجب
رجحان
رجحانات
رجز
رجسٹر
رجسٹرار
رجسٹرڈ
رجسٹریشن
رجعت
رجم
رجمنٹ
رجوع
رح
رحجان
رحلت
رحم
رحمان
رحمانی
رحمانیہ
رحمت
رحمتہ
رحمن
رحمہ
رحمۃ
رحمی
رحیم
رخ
رخصت
رخصتی
رخی
رخین
رد
ردعمل
رده
ردو
ردوبدل
ردیف
رز
رزاق
رزق
رزمیہ
رزو
رس
رسالت
رساله
رسالوں
رسالہ
رسالے
رسانی
رساي
رساں
رستان
رستم
رستہ
رسد
رسل
رسم
رسمی
رسن
رسوا
رسواي
رسوخ
رسول
رسولوں
رسولی
رسوم
رسومات
رسک
رسی
رسید
رسیدہ
رش
رشاد
رشتوں
رشتہ
رشتے
رشد
رشدی
رشوت
رشک
رشی
رشید
رصد
رصدگاہ
رض
رضا
رضاعت
رضاعی
رضامند
رضامندی
رضاکار
رضاکارانہ
رضاکاروں
رضوان
رضوی
رضویہ
رضي
رضی
رضیہ
رطوبت
رعایا
رعایت
رعنا
رغبت
رف
رفارو
رفاعہ
رفاقت
رفاہ
رفاہی
رفت
رفتار
رفتاری
رفتہ
رفسنجانی
رفع
رفعت
رفقا
رفورس
رفیع
رفیق
رفیلڈ
رقاص
رقاصاي
رقاصہ
رقام
رقبہ
رقبے
رقص
رقم
رقمطراز
رقمی
رقوم
رقیہ
رل
رلاي
رلنگٹن
رلیس
رلینڈ
رم
رمز
رمسٹرانگ
رمضان
رملہ
رمنٹ
رموز
رمی
رمیز
رمیش
رمین
رمینی
رمینیا
رمینیاي
رمینیوں
رمیں
رمے
رن
رنج
رنجی
رنجیت
رند
رنر
رنز
رنلڈ
رنگ
رنگا
رنگت
رنگون
رنگوں
رنگی
رنگیلا
رنگین
رو
روا
روابط
رواج
رواداری
روان
روانڈا
روانڈاي
روانگی
روانہ
روانی
رواي
رواٹر
رواں
روایات
روایت
روایتوں
روایتی
روایتیں
روبرو
روبل
روبن
روبوٹ
روبہ
روبی
روبینہ
روتھ
روتے
روح
روحانی
روحانیت
روحوں
رود
روداد
رودبار
رودر
رورساي
رورل
روز
روزا
روزانہ
روزمرہ
روزنامچہ
روزنامہ
روزنامے
روزویلٹ
روزگار
روزگاری
روزہ
روزی
روزے
روس
روسو
روسی
روسیوں
روش
روشن
روشناس
روشنی
روضہ
روضۃ
روغن
رول
رولز
روم
روما
رومال
رومان
رومانوی
رومانٹک
رومانی
رومانیت
رومانیہ
رومن
رومی
رومیوں
رون
رونا
رونالڈ
رونق
رونما
رونڈسمینٹ
رونے
روي
روٹ
روٹی
روٹیاں
روپ
روپوش
روپي
روپڑ
روپیہ
روپیے
روپے
روچیسٹر
روڈ
روڈس
روک
روکا
روکتا
روکتے
روکنا
روکنے
روکے
روں
روہت
روہتاس
روہنگیا
روہڑی
روہی
روہیل
روہیلہ
روی
رویا
رویو
رویوں
رویہ
رویے
ري
رٹ
رٹس
رٹسٹ
رٹلری
رٹیکل
رپارک
رپرسن
رپورٹ
رپورٹر
رپورٹس
رپورٹنگ
رپورٹوں
رچ
رچر
رچرڈ
رچرڈز
رچرڈسن
رچلینڈ
رچمنڈ
رچی
رڈ
رڈر
رڈن
رڈیننس
رک
رکازیات
رکاوٹ
رکاوٹوں
رکاوٹیں
رکاي
رکعت
رکن
رکنساس
رکنی
رکنیت
رکنے
رکوع
رکٹک
رکھ
رکھا
رکھتا
رکھتی
رکھتے
رکھنا
رکھنے
رکھو
رکھی
رکھیں
رکھے
رکی
رکیڈیا
رکے
رگ
رگبی
رگناي
رگوں
رگڑ
رھے
رہ
رہا
رہان
رہاي
رہاہے
رہبر
رہتا
رہتی
رہتے
رہن
رہنا
رہنما
رہنماو
رہنماوں
رہنماي
رہنے
رہو
رہوں
رہی
رہیں
رہے
رۃ
ری
ریا
ریاست
ریاستوں
ریاستہاي
ریاستی
ریاستیں
ریاض
ریاضت
ریاضی
ریاضیات
ریاضیاتی
ریال
ریان
ریاو
ریاي
ریت
ریجن
ریجنل
ریجنٹ
ریحان
ریحانہ
ریخ
ریختہ
ریز
ریزرو
ریزہ
ریزی
ریزیاں
ریس
ریستوران
ریستوراں
ریسرچ
ریسلنگ
ریسنگ
ریسٹ
ریسکیو
ریشم
ریشمی
ریشہ
ریفاي
ریفرنڈم
ریفری
ریل
ریلاي
ریلویز
ریلوے
ریلی
ریلیز
ریلیف
ریلے
ریما
ریمارکس
ریمنڈ
رین
رینا
رینج
رینجرز
رینو
رینچ
رینڈولف
رینک
رینکنگ
رینی
رینیگیڈز
ریو
ریور
ریونیو
ریوڑ
ریوں
ریویو
ریي
ریٹ
ریٹاي
ریٹنگ
ریپ
ریپبلک
ریپبلکن
ریپڈ
ریچھ
ریڈ
ریڈار
ریڈر
ریڈز
ریڈنگ
ریڈووڈ
ریڈی
ریڈیاي
ریڈیو
ریڑھ
ریک
ریکا
ریکارڈ
ریکارڈز
ریکارڈنگ
ریکارڈوں
ریکو
ریکٹ
ریکٹر
ریکٹرز
ریکٹوریٹ
ریکھ
ریکھا
ریکی
ریگا
ریگستان
ریگن
ریہ
رے
ز
زا
زاد
زادانہ
زادہ
زادی
زادیوں
زادے
زار
زارا
زاری
زازیکوف
زانوي
زاویہ
زاویے
زاي
زاہد
زاہدان
زاہدہ
زبان
زبانوں
زبانی
زبانیں
زبر
زبردست
زبردستی
زبور
زبیدہ
زبیر
زحل
زحمت
زخم
زخموں
زخمی
زخمیوں
زد
زدگی
زدہ
زر
زراعت
زرباي
زرتشت
زرتشتی
زرتشتیت
زرخیز
زرخیزی
زرد
زرداری
زرز
زرعی
زرہ
زری
زرین
زریں
زعفران
زفر
زلزلوں
زلزلہ
زلزلے
زلمی
زلیخا
زم
زما
زمان
زمانوں
زمانہ
زمانی
زمانے
زماي
زماں
زمبابوی
زمبابوے
زمر
زمروں
زمرہ
زمرے
زمزم
زمین
زمیندار
زمینداروں
زمینداری
زمینوں
زمینی
زمینیں
زمیں
زن
زنا
زنانہ
زنجان
زنجانی
زنجبار
زنجیر
زند
زندگی
زندگیوں
زندہ
زنک
زنگ
زنگی
زنی
زو
زوال
زوجہ
زور
زوما
زون
زي
زيادہ
زيد
زچگی
زڈ
زک
زکات
زکریا
زکو
زکوۃ
زہ
زہد
زہر
زہرا
زہرہ
زہری
زہریلا
زہریلی
زہریلے
زہیر
زی
زیاد
زیادتی
زیادہ
زیارات
زیارت
زیب
زیبا
زیتون
زید
زیدان
زیدی
زیر
زیرقیادت
زیرو
زیریں
زیست
زیشن
زیل
زیمبیا
زیمبیاي
زین
زینب
زینت
زیور
زیورات
زیوس
زیڈ
زے
س
سا
سابق
سابقہ
سات
ساتواں
ساتویں
ساتھ
ساتھی
ساتھیوں
ساجد
ساحات
ساحر
ساحل
ساحلوں
ساحلی
ساحہ
ساخات
ساخت
ساختہ
ساختی
سادات
سادگی
سادھو
سادہ
سار
سارا
سارجنٹ
سارنگ
ساروس
سارک
سارہ
ساری
سارے
ساز
سازش
سازشوں
سازشی
سازشیں
سازوسامان
سازوں
سازگار
سازی
ساس
ساسانی
ساسانیوں
ساسکچیوان
ساعت
ساعدہ
ساغر
سافٹ
ساقی
سال
سالار
سالانہ
سالم
سالمات
سالماتی
سالمہ
سالمیت
سالمے
سالن
سالوں
سالي
سالٹ
سالک
سالگرہ
سالہ
سالہاي
سالی
سام
سامان
سامانی
سامراج
سامراجی
سامراجیت
سامرسیٹ
سامری
سامسون
سامعین
سامنا
سامنتھا
سامنے
سامووا
ساموواي
سامی
سامیت
سان
سانتا
سانتو
سانحہ
سانحے
سانس
سانٹا
سانپ
سانچوں
سانچہ
سانچے
سانگ
سانگھڑ
سانی
ساو
ساوتری
ساوتھ
ساون
ساي
ساٹھ
ساڑھے
ساکر
ساکن
ساکھ
ساگ
ساگر
ساں
ساہتیہ
ساہیوال
سایہ
سب
سبا
سباق
سبب
سبحان
سبحانی
سبز
سبزواری
سبزہ
سبزی
سبزیاں
سبزیوں
سبسڈی
سبط
سبعہ
سبق
سبقت
سبک
سبکتگین
سبکدوش
سبھا
سبھاش
سبھی
سبی
سبیل
ست
ستاد
ستار
ستارا
ستاروں
ستارہ
ستارے
ستاسی
ستان
ستانوے
ستانہ
ستاون
ستاي
ستتر
ستر
سترہ
سترہویں
ستلج
ستم
ستمبر
ستون
ستونوں
ستگی
ستہ
ستی
ستیہ
سجا
سجاد
سجادہ
سجادیہ
سجاوٹ
سجایا
سجدہ
سحر
سخاوت
سخت
سختی
سخن
سخی
سد
سدا
سدرن
سدرک
سدوزي
سدھارتھ
سدھن
سدھنوتی
سدھو
سدھیر
سر
سرا
سراج
سراسر
سراغ
سراقہ
سرانجام
سراي
سراپا
سراہا
سرایا
سرب
سربراہ
سربراہان
سربراہی
سربوں
سربیا
سربیاي
سرجری
سرجن
سرحد
سرحدوں
سرحدی
سرحدیں
سرخ
سرخی
سرخیل
سرخیوں
سرد
سردار
سرداروں
سرداری
سردی
سردیوں
سرزد
سرزمین
سرزنش
سرسبز
سرسوتی
سرسوں
سرسید
سرشار
سرطان
سرعام
سرعت
سرفراز
سرفہرست
سرما
سرماي
سرمایہ
سرمد
سرمي
سرن
سرنگ
سرنگوں
سرنگیں
سرو
سرور
سرورق
سروس
سروسز
سروں
سروے
سرٹیفکیٹ
سرپرست
سرپرستی
سرپسکا
سرچ
سرچشمہ
سرکار
سرکاری
سرکردگی
سرکردہ
سرکس
سرکش
سرکشی
سرکل
سرکلر
سرکوبی
سرکٹ
سرکہ
سرگرم
سرگرمی
سرگرمیاں
سرگرمیوں
سرگزشت
سرگودھا
سرہ
سرہند
سرہندی
سری
سریانی
سریش
سریع
سرینام
سرینامی
سریندر
سرینگر
سریہ
سرے
سز
سزا
سزاي
سس
سست
سستا
سستی
سستے
سسر
سسرال
سسلی
سسٹم
سسٹمز
سسہ
سسۃ
سسی
سسیکس
سطح
سطحوں
سطحی
سطر
سطور
سعادت
سعد
سعدی
سعدیہ
سعود
سعودی
سعيد
سعی
سعید
سعیدہ
سعیدی
سغد
سفارت
سفارتخانے
سفارتکار
سفارتی
سفاردی
سفارش
سفارشات
سفر
سفرا
سفراء
سفرنامہ
سفرنامے
سفری
سفلی
سفیان
سفید
سفیر
سفیروں
سقراط
سقوط
سل
سلا
سلاد
سلاسل
سلاطین
سلام
سلامت
سلامتی
سلامي
سلامية
سلامہ
سلامی
سلاو
سلاواکی
سلاوی
سلاي
سلجوق
سلجوقوں
سلجوقی
سلجوقیوں
سلسلوں
سلسلہ
سلسلے
سلطان
سلطانوں
سلطانہ
سلطانی
سلطنت
سلطنتوں
سلطنتیں
سلف
سلفر
سلفی
سلفیہ
سلم
سلمان
سلمہ
سلمی
سلنڈر
سلنگور
سلو
سلوا
سلواڈور
سلور
سلوواک
سلوواکیا
سلوواکیہ
سلووینیا
سلووینیاي
سلوک
سلپ
سلک
سلہٹ
سلیس
سلیم
سلیمان
سلیمانی
سلیمانیہ
سلیچ
سلیکشن
سلیکٹر
سلیکٹرز
سم
سما
سماء
سماج
سماجی
سماجیات
سمارٹ
سماع
سماعت
سمان
سمانوں
سمانی
سماوی
سماٹرا
سماں
سمت
سمتار
سمتوں
سمتھ
سمتھفیلڈ
سمتی
سمتیہ
سمجھ
سمجھا
سمجھانے
سمجھایا
سمجھتا
سمجھتی
سمجھتے
سمجھنا
سمجھنے
سمجھوتہ
سمجھی
سمجھیں
سمجھے
سمر
سمرسیٹ
سمرقند
سمرقندی
سمن
سمنان
سمندر
سمندروں
سمندری
سمووا
سموي
سمٹ
سمپسن
سمہ
سمیت
سمیر
سمیرا
سمیع
سن
سنا
سناتے
سنار
سنان
سنانے
سناي
سنایا
سنبل
سنبھال
سنبھالا
سنبھالتے
سنبھالنے
سنبھالی
سنبھالے
سنبھل
سنة
سنت
سنتا
سنتوش
سنتوں
سنتے
سنجر
سنجیدگی
سنجیدہ
سنجے
سند
سندر
سندھ
سندھو
سندھی
سندھیا
سنز
سنس
سنسد
سنسر
سنسرشپ
سنسنی
سنسکرت
سنن
سننا
سننے
سنو
سنٹر
سنٹرل
سنچری
سنچریاں
سنچریوں
سنڈے
سنکیانگ
سنگ
سنگاپور
سنگاپوری
سنگاکارا
سنگت
سنگر
سنگل
سنگلز
سنگم
سنگھ
سنگھا
سنگھار
سنگی
سنگیت
سنگین
سنہ
سنہا
سنہالی
سنہری
سنہرے
سنۃ
سنی
سنیاسی
سنیل
سنیما
سنیوں
سنے
سو
سوا
سوات
سواتی
سواد
سوار
سواروں
سواری
سوازی
سوال
سوالات
سوالوں
سوالیہ
سوامی
سوان
سوانح
سوانحی
سواي
سوبرز
سوتی
سوتیلی
سوتیلے
سوتے
سود
سودا
سوداگر
سودہ
سودے
سور
سوراخ
سورة
سورت
سورتوں
سورتیں
سورج
سورس
سورہ
سورۃ
سوری
سوریا
سوریہ
سوز
سوزا
سوزش
سوس
سوساي
سوسن
سوشل
سوشلزم
سوشلسٹ
سوشلسٹوں
سوفٹ
سوفٹویي
سوفی
سوق
سول
سولر
سولو
سولہ
سولہویں
سولی
سولیوان
سوم
سومرسیٹ
سومرو
سون
سونا
سونامی
سونو
سونپ
سونپا
سونپی
سونگ
سونی
سونیا
سونے
سوویت
سوویتوں
سوویتی
سوي
سوٹ
سوپ
سوپر
سوچ
سوچا
سوچتا
سوچتے
سوچنے
سوچی
سوڈا
سوڈان
سوڈانی
سوگ
سوہدروی
سوہنی
سوی
سویا
سویت
سویر
سویرے
سویلین
سویٹزرلینڈ
سویڈش
سویڈن
سي
سيد
سٹ
سٹار
سٹارز
سٹارک
سٹاف
سٹاي
سٹاک
سٹراي
سٹرلنگ
سٹرو
سٹریا
سٹریاي
سٹریلوی
سٹریلیا
سٹریلیاي
سٹریلین
سٹرین
سٹریٹ
سٹمپ
سٹن
سٹور
سٹوری
سٹون
سٹوڈیو
سٹي
سٹڈیز
سٹی
سٹیج
سٹیشن
سٹیفن
سٹیل
سٹیم
سٹیو
سٹیورٹ
سٹیٹ
سٹیٹس
سٹیڈیم
سپاي
سپاہ
سپاہی
سپاہیوں
سپر
سپرد
سپرنٹنڈنٹ
سپرنگ
سپرنگز
سپرنگفیلڈ
سپریم
سپلاي
سپن
سپنر
سپورٹ
سپورٹس
سپہ
سپین
سپینسر
سپیکر
سچ
سچا
سچاي
سچن
سچی
سچے
سڈنی
سڑسٹھ
سڑک
سڑکوں
سڑکیں
سک
سکا
سکالر
سکاي
سکاٹ
سکاٹش
سکتا
سکتی
سکتیں
سکتے
سکر
سکرامنٹو
سکردو
سکرپٹ
سکرین
سکریٹری
سکس
سکسرز
سکم
سکندر
سکو
سکواڈ
سکوت
سکور
سکوشیا
سکول
سکولز
سکولوں
سکون
سکونت
سکونتی
سکوں
سکي
سکھ
سکھانے
سکھاي
سکھایا
سکھر
سکھوں
سکہ
سکی
سکیم
سکینہ
سکیورٹی
سکیں
سکے
سگالی
سگریٹ
سگنل
سگے
سہ
سہارا
سہارنپور
سہارنپوری
سہارے
سہرا
سہروردی
سہروردیہ
سہل
سہن
سہولت
سہولتوں
سہولتیں
سہولیات
سہگل
سہی
سہیل
سہیلی
سی
سیا
سیاح
سیاحت
سیاحتی
سیاحوں
سیاروں
سیاروی
سیارچہ
سیارہ
سیارے
سیاست
سیاستدان
سیاستدانوں
سیاسی
سیاسیات
سیاق
سیال
سیالوی
سیالکوٹ
سیالکوٹی
سیام
سیان
سیاہ
سیاہی
سیب
سیتا
سیج
سید
سیداں
سیدن
سیدنا
سیدھا
سیدھی
سیدھے
سیدہ
سیدی
سیر
سیرا
سیراب
سیرالیون
سیرالیونی
سیربین
سیرت
سیرو
سیرۃ
سیری
سیریز
سیریل
سیریلز
سیریلک
سیرین
سیزر
سیزن
سیستان
سیستانی
سیسل
سیسہ
سیشن
سیشیلز
سیف
سیفی
سیفیہ
سیل
سیلاب
سیلابی
سیلز
سیلسیان
سیلف
سیلم
سیلواڈور
سیلواڈوری
سیلون
سیلی
سیم
سیما
سیمنز
سیمنٹ
سیموي
سیمی
سیمینار
سین
سینا
سینتالیس
سینتیس
سینسر
سینما
سیني
سینٹ
سینٹر
سینٹرل
سینٹی
سینٹیاگو
سینچری
سینڈ
سینڈوچ
سینکڑوں
سینگ
سینہ
سینی
سینیٹ
سینیٹر
سینیگال
سینیگالی
سینے
سیو
سیوا
سیواس
سیوطی
سیول
سیون
سیوک
سیي
سیٹ
سیٹلاي
سیٹنگ
سیٹھ
سیچوان
سیچیلیس
سیڈجویک
سیڈر
سیڑھی
سیڑھیاں
سیڑھیوں
سیکرٹ
سیکرٹری
سیکرٹریٹ
سیکریٹری
سیکریٹریٹ
سیکس
سیکسن
سیکشن
سیکنڈ
سیکنڈری
سیکورٹی
سیکولر
سیکوي
سیکٹر
سیکڑوں
سیکھ
سیکھا
سیکھنا
سیکھنے
سیکھی
سیکھے
سیکیورٹی
سیہ
سیہون
سے
ش
شا
شاء
شاخ
شاخوں
شاخیں
شاد
شاداب
شادی
شادیاں
شادیوں
شاذ
شارجہ
شارح
شارع
شارعی
شارعیں
شارٹ
شارپ
شارک
شازیہ
شاستری
شاطر
شاعر
شاعرات
شاعرانہ
شاعروں
شاعرہ
شاعری
شافعی
شال
شالیمار
شام
شامل
شاملہ
شامی
شان
شانتی
شاندار
شانسی
شانڈونگ
شانہ
شاه
شاي
شاٹ
شاٹس
شاپ
شاپنگ
شاپور
شاپیل
شاکر
شاگرد
شاگردوں
شاگردی
شاہ
شاہان
شاہانہ
شاہجہان
شاہجہاں
شاہد
شاہدرہ
شاہدہ
شاہدین
شاہراہ
شاہراہوں
شاہراہیں
شاہنامہ
شاہنواز
شاہو
شاہکار
شاہی
شاہین
شاید
شایع
شب
شباب
شبانہ
شبلی
شبنم
شبہ
شبہات
شبیب
شبیر
شبیہ
شبیہہ
شجاع
شجاعت
شجر
شجرہ
شخص
شخصی
شخصیات
شخصیت
شخصیتوں
شد
شداد
شدت
شده
شدگی
شدہ
شدید
شذرات
شر
شراب
شرابی
شراف
شرافت
شراي
شراکت
شراکتیں
شربت
شرجیل
شرح
شرحیں
شرر
شرط
شرع
شرعی
شرعیہ
شرف
شرق
شرقی
شرقیہ
شرم
شرما
شرمناک
شرمندگی
شرمندہ
شرمین
شروحات
شروع
شروعات
شرٹ
شرک
شرکا
شرکاء
شرکت
شری
شریان
شریح
شریعت
شریعہ
شریف
شریفین
شریک
شش
ششم
شطرنج
شعار
شعاع
شعاعوں
شعاعیں
شعاي
شعبان
شعبوں
شعبہ
شعبی
شعبے
شعر
شعرا
شعراء
شعراي
شعری
شعلہ
شعلے
شعور
شعوری
شعیب
شغف
شفا
شفاء
شفاعت
شفاف
شفق
شفقت
شفٹ
شفیع
شفیق
شق
شلوار
شما
شمار
شمارندہ
شمارندی
شماره
شمارہ
شماری
شماریات
شماریاتی
شماریاں
شمارے
شمال
شمالی
شماي
شمر
شمس
شمسی
شمشاد
شمشیر
شمع
شمعون
شملہ
شمن
شمولیت
شمیم
شن
شنا
شناخت
شناختی
شناس
شناسی
شنسی
شنکر
شنگھاي
شنید
شو
شوافع
شوال
شواہد
شوب
شود
شور
شورش
شورو
شوری
شوز
شوق
شوقین
شوقیہ
شوي
شوٹ
شوٹر
شوٹنگ
شوکت
شوگر
شوں
شوہر
شي
شيخ
شپ
شپنگ
شک
شکار
شکارپور
شکاری
شکاگو
شکایات
شکایت
شکتی
شکر
شکریہ
شکست
شکستوں
شکستہ
شکل
شکلا
شکلوں
شکلیں
شکم
شکن
شکنتلا
شکنی
شکوک
شکوہ
شکیب
شکیل
شگاف
شگفتہ
شہ
شہاب
شہابی
شہادت
شہباز
شہد
شہدا
شہداء
شہداي
شہر
شہرت
شہرستان
شہروں
شہرہ
شہری
شہریار
شہریت
شہریوں
شہزاد
شہزادوں
شہزادہ
شہزادی
شہزادیاں
شہزادے
شہناز
شہنشاہ
شہنشاہوں
شہوانی
شہوانیت
شہوت
شہید
شہیدوں
شی
شیا
شیام
شیان
شیبانی
شیبہ
شیخ
شیخوپورہ
شیخہ
شیداي
شیر
شیراز
شیرازی
شیرانی
شیروان
شیروانی
شیرون
شیروں
شیری
شیریں
شیش
شیشہ
شیشے
شیطان
شیطانوں
شیطانی
شیعوں
شیعہ
شیعی
شیعیان
شیعیت
شیف
شیفیلڈ
شیل
شیلا
شیلبی
شیلڈ
شیمپیي
شین
شینا
شینن
شیو
شیوا
شیواجی
شیوخ
شیوں
شیي
شیٹ
شیٹی
شیڈول
شیک
شیکسپیي
شیکھر
شیں
شے
ص
صابر
صابری
صابن
صاحب
صاحبان
صاحبزادہ
صاحبزادی
صاحبزادے
صاحبہ
صادر
صادق
صارف
صارفی
صارفین
صاف
صافی
صالح
صالحہ
صالحین
صاي
صبا
صباح
صبح
صبر
صبیح
صبیحہ
صحابہ
صحابی
صحابیات
صحابیہ
صحاح
صحارا
صحافت
صحافتی
صحافی
صحافیوں
صحبت
صحت
صحرا
صحراو
صحراوی
صحراي
صحن
صحيح
صحیح
صحیفوں
صحیفہ
صحیفے
صد
صدا
صدارت
صدارتی
صداقت
صدام
صداي
صدر
صدرالدین
صدف
صدق
صدقات
صدقہ
صدمہ
صدمے
صدور
صدوق
صدی
صدیء
صدیاں
صدیق
صدیقہ
صدیقی
صدیوں
صر
صراحت
صراط
صرف
صریح
صص
صغری
صغیر
صف
صفا
صفات
صفاتی
صفاي
صفایا
صفت
صفحات
صفحة
صفحه
صفحہ
صفحے
صفد
صفدر
صفر
صفوان
صفوں
صفوی
صفویوں
صفہ
صفی
صفین
صفیہ
صقلیہ
صل
صلاح
صلاحیت
صلاحیتوں
صلاحیتیں
صلح
صلى
صلہ
صلی
صلیب
صلیبی
صلیبیوں
صلے
صندوق
صنعا
صنعاء
صنعت
صنعتوں
صنعتی
صنعتیں
صنف
صنفی
صنم
صوابی
صوباي
صوبوں
صوبہ
صوبیدار
صوبے
صوت
صوتی
صوتیات
صوتیاتی
صور
صورت
صورتحال
صورتوں
صورتیں
صوفی
صوفیا
صوفیاء
صوفیانہ
صوفیاي
صوفیوں
صوفیہ
صول
صومالی
صومالیہ
صہیون
صہیونی
صہیونیت
صیغہ
صیہونی
صیہونیت
ض
ضابطہ
ضابطے
ضامن
ضاي
ضبط
ضحاک
ضخیم
ضد
ضرب
ضرر
ضرور
ضرورت
ضرورتوں
ضروری
ضروریات
ضعف
ضعیف
ضلع
ضلعی
ضلعے
ضم
ضمانت
ضمن
ضمنی
ضمیر
ضمیمہ
ضوابط
ضیا
ضیاء
ضیافت
ضیاي
ط
طا
طارق
طاری
طاس
طاعون
طاق
طاقت
طاقتور
طاقتوں
طاقتیں
طاقم
طالب
طالبات
طالبان
طالبہ
طاو
طاووس
طاي
طاہر
طاہرالقادری
طاہرہ
طب
طباخی
طباطباي
طباعت
طبرانی
طبرستان
طبرسی
طبری
طبریہ
طبع
طبعی
طبعیات
طبقات
طبقاتی
طبقوں
طبقہ
طبقے
طبلہ
طبی
طبیب
طبیعت
طبیعی
طبیعیات
طبیعیاتی
طر
طرابلس
طراز
طرح
طرحبند
طرز
طرزیات
طرف
طرفہ
طریق
طریقت
طریقوں
طریقہ
طریقے
طعام
طعن
طغرل
طفرہ
طفل
طفیل
طلاق
طلال
طلاي
طلب
طلبا
طلباء
طلبہ
طلبی
طلحہ
طلعت
طلوع
طنجہ
طنز
طنزیہ
طواف
طوالت
طواي
طور
طورپر
طوسی
طوطے
طوفان
طوفانوں
طوفانی
طول
طویل
طہ
طہارت
طیار
طیاروں
طیارہ
طیارے
طیب
طیبہ
طیف
طے
ظ
ظالم
ظالمانہ
ظالموں
ظاہر
ظاہری
ظرافت
ظرف
ظروف
ظریف
ظفر
ظل
ظلم
ظن
ظہر
ظہور
ظہیر
ع
عا
عابد
عابدہ
عابدی
عاجز
عاجزی
عاجلانہ
عاد
عادات
عادت
عادل
عادی
عارضہ
عارضی
عارف
عاری
عازم
عاشق
عاشور
عاشورا
عاشورہ
عاص
عاصم
عاصمہ
عاطف
عافی
عاقب
عاقل
عالم
عالمگیر
عالمگیری
عالمگیریت
عالمی
عالی
عالیشان
عالیہ
عام
عامر
عامل
عاملہ
عاملی
عامہ
عاي
عباد
عبادات
عبادت
عبادہ
عبارت
عباس
عباسی
عباسیوں
عباسیہ
عبد
عبدالحق
عبدالحلیم
عبدالحمید
عبدالحکیم
عبدالرحم
عبدالرحمان
عبدالرحمن
عبدالرحیم
عبدالرزاق
عبدالرشید
عبدالسلام
عبدالعزیز
عبدالغفار
عبدالقادر
عبدالقیوم
عبداللطیف
عبدالله
عبداللہ
عبدالمجید
عبدالمطلب
عبدالملک
عبدالوہاب
عبدالکریم
عبدی
عبرانی
عبرت
عبور
عبوری
عبید
عبیداللہ
عبیدہ
عتاب
عتبہ
عتیق
عثمان
عثمانی
عثمانیوں
عثمانیہ
عجاي
عجب
عجلت
عجم
عجمی
عجیب
عد
عدالت
عدالتوں
عدالتی
عدالتیں
عداوت
عدت
عدد
عددی
عدسہ
عدل
عدلیہ
عدم
عدن
عدنان
عدوی
عدی
عذاب
عذر
عذرا
عراق
عراقی
عراقیوں
عرب
عربوں
عربي
عربی
عربیہ
عرس
عرش
عرصہ
عرصے
عرض
عرف
عرفات
عرفان
عرفانی
عرفہ
عرفی
عرفیت
عرق
عروج
عروض
عروہ
عریض
عز
عزاداری
عزاي
عزت
عزرا
عزم
عزوجل
عزیر
عزیز
عساکر
عسقلانی
عسکری
عسکریت
عسکریہ
عشاء
عشر
عشرت
عشروں
عشرہ
عشری
عشریہ
عشرے
عشق
عشقیہ
عصبی
عصر
عصری
عصمت
عضو
عطا
عطاء
عطااللہ
عطار
عطارد
عطر
عطیات
عطیہ
عظام
عظم
عظمت
عظمی
عظیم
عفان
عفت
عقاب
عقاي
عقب
عقبہ
عقبی
عقد
عقل
عقلی
عقلیت
عقیدت
عقیدہ
عقیدے
عقیق
عقیل
عل
علا
علاء
علاج
علاحدہ
علاقاي
علاقوں
علاقہ
علاقے
علالت
علام
علامات
علامت
علامتوں
علامتی
علامتیں
علامہ
علانیہ
علاو
علاوہ
علت
علقمہ
علم
علما
علماء
علماي
علمبردار
علموں
علمی
علمیات
علمیہ
علوم
علوی
علویوں
على
علي
عليه
عليہ
علی
علیا
علیحدگی
علیحدہ
علیم
علیه
علیکم
علیہ
علیہا
علیہم
عم
عماد
عمار
عمارات
عمارت
عمارتوں
عمارتیں
عمارہ
عمال
عمامہ
عمان
عمانی
عماي
عمدہ
عمدۃ
عمر
عمران
عمرانی
عمرانیات
عمرنے
عمرو
عمروبن
عمرہ
عمری
عمل
عملا
عملداری
عملداریاں
عملدرا
عملہ
عملی
عملیات
عملیت
عملے
عمودی
عموم
عموما
عمومی
عمیر
عمیق
عن
عناصر
عنان
عناوین
عنایت
عنبر
عند
عنصر
عنقریب
عنوان
عنوانات
عنہ
عنہا
عنہم
عوام
عوامل
عوامی
عورت
عورتوں
عورتیں
عوض
عوف
عون
عکاس
عکاسی
عکرمہ
عکس
عہد
عہدوں
عہدہ
عہدی
عہدیدار
عہدیداران
عہدیداروں
عہدے
عیادت
عیاش
عیاض
عیال
عیاں
عیب
عید
عیس
عیساي
عیسوی
عیسی
عیش
عیل
عین
عینک
عینی
عیون
عیینہ
غ
غا
غاخان
غار
غارت
غاروں
غاز
غازی
غافل
غالب
غالبا
غامد
غاي
غبار
غت
غدار
غداری
غدر
غدود
غدیر
غذا
غذاي
غرب
غربت
غربی
غرض
غرق
غرناطہ
غروب
غرور
غریب
غریبوں
غزالہ
غزالی
غزل
غزلوں
غزلیات
غزلیں
غزنوی
غزنویہ
غزنی
غزوات
غزوہ
غزہ
غسل
غصہ
غصے
غضب
غضنفر
غفاری
غفلت
غلاف
غلام
غلاموں
غلامی
غلبہ
غلط
غلطی
غلطیاں
غلطیوں
غلہ
غم
غناي
غنم
غنی
غنیمت
غوث
غوثیہ
غور
غوری
غوش
غوطہ
غير
غیاث
غیب
غیبت
غیبی
غیر
غیرت
غیرموجود
ـ
ــ
ف
فا
فات
فاتح
فاتحہ
فاتحین
فادر
فار
فارس
فارسٹ
فارسی
فارسیوں
فارغ
فارم
فارمز
فارمنگٹن
فارمولا
فارمیسی
فارمیٹ
فارمیٹس
فارن
فارورڈ
فاروق
فاروقی
فارچون
فاریسٹ
فاس
فاسد
فاسفورس
فاسو
فاسٹ
فاش
فاشزم
فاشسٹ
فاصلہ
فاصلے
فاضل
فاطمہ
فاطمی
فاطمیہ
فاعل
فاعلی
فاق
فاقہ
فاقی
فال
فالج
فالز
فالو
فام
فاماگوستا
فاموں
فان
فانٹ
فانی
فاو
فاونڈیشن
فاي
فاٹا
فاکس
فت
فتاب
فتاوی
فتح
فتنہ
فتنے
فتوح
فتوحات
فتوی
فتوے
فجر
فجی
فحش
فخر
فخرالدین
فدا
فداي
فر
فرات
فرار
فراز
فراست
فراعنہ
فراغت
فراق
فراموش
فرانز
فرانس
فرانسس
فرانسسکو
فرانسیسی
فرانسیسیوں
فرانک
فرانکو
فراوانی
فراي
فراہم
فراہمی
فرج
فرح
فرحان
فرحت
فرخ
فرد
فردا
فردوس
فردوسی
فرزند
فرسٹ
فرش
فرشتوں
فرشتہ
فرشتے
فرصت
فرض
فرضی
فرعون
فرغانہ
فرق
فرقوں
فرقہ
فرقے
فرم
فرما
فرماتا
فرماتی
فرماتے
فرمان
فرمانروا
فرمانے
فرماي
فرماں
فرمایا
فرنسو
فرنٹ
فرنٹیي
فرنچ
فرنچاي
فرنگی
فرنینڈو
فرنیچر
فرهنگ
فرو
فروخت
فرورى
فروری
فروش
فروشی
فروع
فروغ
فروٹ
فرڈینینڈ
فرہاد
فرہنگ
فری
فریاد
فریب
فرید
فریدہ
فریدی
فریزر
فریضہ
فریق
فریقوں
فریقی
فریقین
فریم
فریمونٹ
فرین
فرینڈ
فرینڈز
فرینک
فرینکفرٹ
فرینکلن
فریڈ
فریڈرک
فریڈم
فریکوي
فریگیٹ
فزکس
فزیکل
فس
فساد
فسادات
فسانہ
فش
فشانی
فشاں
فشر
فصاحت
فصل
فصلوں
فصلیں
فصوص
فصیح
فصیل
فضا
فضاء
فضاي
فضل
فضلا
فضلاء
فضلان
فضلہ
فضلی
فضول
فضیل
فضیلت
فطرت
فطری
فعال
فعالیت
فعل
فعلی
فعلیات
ففٹی
فقاریہ
فقدان
فقر
فقراء
فقرہ
فقرے
فقط
فقہ
فقہا
فقہاء
فقہاي
فقہی
فقہیہ
فقیر
فقیہ
فل
فلاح
فلاحی
فلاسفہ
فلاور
فلاي
فلاپ
فلاڈیلفیا
فلاں
فلز
فلسطین
فلسطینی
فلسطینیوں
فلسفہ
فلسفی
فلسفیانہ
فلسفیوں
فلسفے
فلم
فلمایا
فلمز
فلمساز
فلمو
فلمور
فلموگرافی
فلموں
فلمی
فلمیں
فلو
فلورایڈا
فلورنس
فلوریڈا
فلوي
فلٹن
فلپ
فلپاي
فلپس
فلک
فلکس
فلکی
فلکیات
فلکیاتی
فلہم
فلیش
فلیمنگ
فلیٹ
فلیچر
فن
فنا
فنانس
فنانشل
فندی
فنون
فنڈ
فنڈز
فنڈنگ
فنکار
فنکارانہ
فنکاروں
فنکشن
فنی
فنیاتی
فو
فواد
فوارے
فواي
فوت
فوج
فوجداری
فوجوں
فوجی
فوجیان
فوجیوں
فوجیں
فور
فورا
فوربس
فورس
فورسز
فورم
فورنیا
فورٹ
فورڈ
فوری
فوزیہ
فوسٹر
فوق
فوقتا
فوقیت
فولاد
فون
فونز
فونٹ
فونیقی
فوٹ
فوٹو
فوٹون
فوٹوگرافر
فوٹوگرافی
فوٹیج
فوڈ
فوک
فوکس
في
فٹ
فٹبال
فٹبالر
فٹنس
فکر
فکری
فکسنگ
فکسچر
فکشن
فہ
فہارست
فہد
فہر
فہرست
فہرستوں
فہرستیں
فہم
فہمی
فہمیدہ
فہیم
فی
فیاض
فیاضی
فیروز
فیری
فیز
فیس
فیسر
فیسٹیول
فیشل
فیشن
فیصد
فیصل
فیصلوں
فیصلہ
فیصلے
فیض
فیضان
فیضی
فیفا
فیل
فیلو
فیلوشپ
فیلڈ
فیلڈر
فیلڈز
فیلڈنگ
فیلکس
فیم
فیملی
فین
فینکس
فینگ
فینیش
فیوض
فیول
فیي
فیچر
فیڈ
فیڈرل
فیڈریشن
فیکس
فیکلٹی
فیکٹری
فیکٹریوں
فیہ
فے
ق
قا
قابض
قابل
قابلیت
قابو
قابیل
قاتل
قاتلانہ
قاتلوں
قاجار
قادر
قادری
قادریہ
قادسیہ
قادیانی
قادین
قاري
قاری
قازان
قازق
قازقستان
قازقستانی
قاسم
قاسمی
قاصد
قاصر
قاضی
قاعدہ
قاعدے
قافلوں
قافلہ
قافلے
قافیہ
قال
قالب
قالین
قامت
قاموس
قانع
قانون
قانونی
قاي
قاہرہ
قبا
قباي
قبر
قبرستان
قبرص
قبرصی
قبروں
قبریں
قبض
قبضہ
قبضے
قبطی
قبل
قبلہ
قبور
قبول
قبولیت
قبیلوں
قبیلہ
قبیلے
قتادہ
قتال
قتل
قتیبہ
قحبہ
قحط
قد
قدامت
قدامہ
قدر
قدرت
قدرتی
قدروں
قدرے
قدس
قدسی
قدسیہ
قدم
قدموں
قدمی
قدواي
قدیر
قدیم
قدیمہ
قدیمی
قذافی
قر
قرا
قراء
قرابت
قرات
قرار
قرارداد
قراقرم
قرامطہ
قران
قراي
قرب
قربان
قربانی
قربانیاں
قربانیوں
قربت
قرشی
قرص
قرض
قرضوں
قرضہ
قرضے
قرطاس
قرطبہ
قرطبی
قرن
قرون
قرہ
قریب
قریبا
قریبی
قریش
قریشی
قریظہ
قریہ
قزاق
قزاقوں
قزاقی
قزلباش
قزوین
قزوینی
قسط
قسطنطنیہ
قسطنطین
قسطوں
قسم
قسمت
قسمتی
قسموں
قسمیں
قشتالہ
قصاص
قصاي
قصبات
قصبوں
قصبہ
قصبے
قصد
قصر
قصص
قصور
قصوروار
قصوری
قصوں
قصہ
قصی
قصیدہ
قصیدے
قصے
قضا
قضاء
قضاۃ
قضیہ
قطار
قطب
قطبی
قطبین
قطر
قطرہ
قطری
قطرے
قطع
قطعا
قطعات
قطعہ
قطعی
قطیف
قف
قفقاز
قفقازی
قل
قلات
قلب
قلبی
قلت
قلع
قلعوں
قلعہ
قلعے
قلم
قلمبند
قلمدان
قلمرو
قلمی
قلندر
قلندرز
قلی
قلیل
قم
قمبر
قمر
قمری
قمہ
قمی
قمیض
قناعت
قندھار
قنوج
قو
قواعد
قوافی
قوال
قوالی
قوانین
قوت
قوتوں
قوتیں
قوس
قول
قوم
قوموں
قومی
قومیت
قومیتوں
قومیں
قونصل
قونیہ
قوی
قيس
قہ
قیادت
قیاس
قیاسی
قیام
قیامت
قید
قیدی
قیدیوں
قیس
قیسی
قیصر
قیصرانی
قیصری
قیم
قیمت
قیمتوں
قیمتی
قیمتیں
قین
قیوم
قے
ك
كا
كان
كتاب
كر
كعب
كو
كى
كيا
كہ
كی
كے
ل
لا
لاء
لاادری
لابن
لات
لاتا
لاتعداد
لاتعلقی
لاتی
لاتے
لاج
لاجسٹک
لاجواب
لاحق
لاحقہ
لادن
لارا
لارناکا
لارنس
لارنٹ
لارڈ
لارڈز
لاری
لازم
لازما
لازمی
لازوال
لاس
لاسیل
لاش
لاشاری
لاشوں
لاشیں
لاطینی
لافانی
لافاي
لال
لالچ
لالہ
لالی
لام
لاما
لامتناہی
لامحدود
لامہ
لان
لانا
لاناو
لانس
لانچ
لانگ
لانے
لاو
لاوی
لاي
لاٹھی
لاپتہ
لاڑکانہ
لاک
لاکر
لاکھ
لاکھوں
لاگ
لاگت
لاگرتھم
لاگو
لاگوس
لاہوت
لاہور
لاہوری
لایا
لب
لباب
لباس
لبرل
لبرلز
لبرٹی
لبریز
لبریشن
لبلن
لبنان
لبنانی
لبیون
لبیک
لت
لتا
لتھوانیا
لتھوانیاي
لتھووینیا
لتھووینیاي
لحاظ
لحم
لحمیات
لخت
لداخ
لدھیانوی
لدھیانہ
لدین
لذت
لر
لرز
لرستان
لز
لزبن
لس
لسان
لسانی
لسانیات
لسبیلہ
لسٹ
لشکر
لشکروں
لطاي
لطف
لطیف
لطیفہ
لعل
لعنت
لغات
لغاری
لغت
لغوی
لف
لفظ
لفظوں
لفظی
لفٹ
لفٹر
لفٹرز
لفٹنگ
لفین
لقب
لقمان
لقمہ
لل
للا
للہ
للی
لم
لمبا
لمباي
لمبی
لمبے
لمحات
لمحہ
لمحے
لمپور
لمیٹڈ
لن
لندن
لنچ
لنڈا
لنڈسے
لنڈن
لنک
لنکا
لنکاسٹر
لنکاشاي
لنکس
لنکن
لنکی
لنگ
لنگر
له
لو
لوا
لواحقین
لوازمات
لوتھر
لوتھری
لوح
لود
لودگی
لودھراں
لودھی
لودہ
لودی
لورا
لورالاي
لوری
لورین
لوزان
لوزون
لوزیانا
لوس
لوسی
لوسیا
لوسیاي
لوط
لوقا
لولی
لومباردیہ
لومڑی
لون
لونڈی
لونگ
لونی
لوو
لوویزیانا
لوي
لوٹ
لوٹا
لوٹنے
لوٹے
لوپ
لوڈ
لوک
لوکل
لوگ
لوگن
لوگو
لوگوں
لوں
لوہا
لوہار
لوہے
لوی
لى
لي
ليے
لٹ
لٹریچر
لٹل
لٹوں
لٹویا
لٹویاي
لٹکا
لٹی
لپ
لپیٹ
لچک
لچکدار
لڈ
لڑ
لڑا
لڑاي
لڑاکا
لڑتا
لڑتے
لڑنا
لڑنے
لڑکا
لڑکوں
لڑکپن
لڑکی
لڑکیاں
لڑکیوں
لڑکے
لڑی
لڑیں
لڑے
لک
لکس
لکسمبرگ
لکسمبرگی
لکشادیپ
لکشمن
لکشمی
لکڑی
لکھ
لکھا
لکھاری
لکھاي
لکھتا
لکھتی
لکھتے
لکھنا
لکھنو
لکھنوی
لکھنے
لکھی
لکھیں
لکھے
لکی
لکیر
لکیری
لکیریں
لگ
لگا
لگاتا
لگاتار
لگاتے
لگادی
لگام
لگانا
لگانے
لگاو
لگاي
لگایا
لگتا
لگتی
لگتے
لگر
لگن
لگنے
لگی
لگیں
لگے
لہ
لہب
لہجہ
لہجے
لہذا
لہر
لہروں
لہری
لہریں
لہسن
لہو
لی
لیا
لیاری
لیاقت
لیاو
لیب
لیبارٹری
لیبارٹریز
لیبر
لیبراڈور
لیبل
لیبیا
لیبیاي
لیتا
لیتھوانیا
لیتی
لیتے
لیث
لیجنڈ
لیختینستاي
لیری
لیز
لیزا
لیزر
لیس
لیسلی
لیسوتھو
لیسٹر
لیسٹرشاي
لیف
لیفٹ
لیفٹیننٹ
لیل
لیلا
لیلہ
لیلی
لیما
لیماسول
لیمبیتھ
لیموں
لین
لینا
لینس
لینسٹر
لینن
لینڈ
لینڈر
لینڈز
لینڈنگ
لینڈی
لینکس
لینگ
لینگویج
لینی
لینے
لیو
لیوا
لیور
لیورپول
لیوس
لیوشم
لیول
لیون
لیونارڈ
لیونٹ
لیونگسٹن
لیوں
لیوی
لیي
لیٹ
لیٹر
لیپ
لیڈ
لیڈر
لیڈروں
لیڈز
لیڈی
لیڈیا
لیک
لیکر
لیکس
لیکسنگٹن
لیکن
لیکچر
لیکچرار
لیکچرر
لیکچرز
لیگ
لیگل
لیگیں
لیں
لیہ
لیے
لے
م
ما
مابعد
مابین
مات
ماتا
ماتحت
ماتحتی
ماتریدی
ماتم
ماجد
ماجدہ
ماجوج
ماجہ
ماحول
ماحولیات
ماحولیاتی
ماخذ
ماخوذ
ماد
مادر
مادری
مادورو
مادوں
مادھو
مادہ
مادی
مادیت
مادے
مار
مارا
مارتا
مارتے
مارجن
ماردین
مارس
مارسیل
مارش
مارشل
مارلبورو
مارن
مارنا
مارننگ
مارنے
مارو
مارول
ماروی
مارٹر
مارٹل
مارٹن
مارٹی
مارچ
مارک
مارکر
مارکس
مارکسزم
مارکسی
مارکو
مارکوي
مارکیٹ
مارکیٹنگ
مارگریٹ
مارگلہ
مارہروی
ماری
ماریا
ماریانا
مارینو
ماریو
ماریون
ماریہ
مارے
مازندران
مازندرانی
ماس
ماسواي
ماسٹر
ماسٹرز
ماسک
ماسکو
ماضی
مافوق
مافیا
ماقبل
مال
مالا
مالاطیہ
مالاي
مالاکنڈ
مالدار
مالدووا
مالدوواي
مالدیپ
مالدیپی
مالك
مالوا
مالوہ
مالٹا
مالٹی
مالڈووا
مالک
مالکان
مالکی
مالی
مالیات
مالیاتی
مالیت
مالیگاو
مالیہ
مالے
مام
ماما
مامقانی
مامور
مامون
ماموں
مان
مانا
مانتا
مانتی
مانتے
ماندہ
مانس
مانسہرہ
مانع
ماننا
مانند
ماننے
مانو
مانوس
مانٹریال
مانچسٹر
مانچو
مانک
مانگ
مانگا
مانگتا
مانگتے
مانگنے
مانگی
مانی
مانیسا
مانیٹر
مانیٹوبا
مانے
ماو
ماوراء
ماوراي
ماوری
ماي
ماڈرن
ماڈل
ماڈلز
ماڈلنگ
ماڈیول
ماڑی
ماکولات
ماکون
ماگوي
ماں
ماہ
ماہانہ
ماہر
ماہرین
ماہنامہ
ماہی
مایا
مایوس
مایوسی
مایہ
مباحث
مباحثوں
مباحثہ
مباحثے
مبادلہ
مبارک
مبارکباد
مبارکہ
مبالغہ
مباہلہ
مبتلا
مبذول
مبشر
مبصر
مبصرین
مبعوث
مبلغ
مبلغین
مبنی
مبہم
مبین
مبینہ
مة
مت
متاثر
متاثرہ
متاثرین
متاع
متبادل
متحد
متحدہ
متحرک
متحفظہ
مترادف
مترجم
مترجمین
مترشح
متروک
متزلزل
متشدد
متصادم
متصل
متضاد
متعارف
متعارفات
متعدد
متعدی
متعصب
متعلق
متعلقہ
متعہ
متعین
متغیر
متفرق
متفق
متفقہ
متقی
متلاشی
متمول
متمکن
متن
متنازع
متنازعہ
متناسب
متناسق
متناسقات
متنبہ
متنوع
متواتر
متوازن
متوازی
متوالیہ
متوجہ
متوسط
متوفی
متوقع
متون
متوکل
متکلم
متکلمین
متھرا
متھیا
متی
متین
مثال
مثالوں
مثالی
مثالیں
مثبت
مثل
مثلا
مثلث
مثنوی
مثنی
مجارستان
مجارستانی
مجاز
مجازی
مجالس
مجاہد
مجاہدین
مجبور
مجبورا
مجبوری
مجتبی
مجتہد
مجتہدین
مجد
مجدد
مجددی
مجددین
مجددیہ
مجذوب
مجرم
مجرمانہ
مجرموں
مجرمین
مجروح
مجسم
مجسموں
مجسمہ
مجسمے
مجسٹریٹ
مجلات
مجلس
مجلسوں
مجلسی
مجله
مجلہ
مجمع
مجموعات
مجموعوں
مجموعہ
مجموعی
مجموعے
مجنوں
مجوزہ
مجھ
مجھے
مجہول
مجیب
مجید
محاذ
محاذوں
محاسن
محاصرہ
محاصرے
محافظ
محافظات
محافظوں
محافظہ
محافل
محال
محاورہ
محاورے
محب
محبت
محبوب
محبوبہ
محتاج
محتاط
محترم
محترمہ
محدث
محدثین
محدود
محراب
محرم
محروم
محرومی
محرک
محرکات
محسن
محسود
محسوس
محصور
محصول
محصولات
محض
محفل
محفلوں
محفوظ
محقق
محققین
محل
محلات
محلاتی
محلول
محلوں
محلہ
محلی
محلے
محم
محمد
محمدبن
محمدی
محمدیہ
محمود
محمول
محمڈن
محنت
محنتی
محو
محور
محوری
محکم
محکمات
محکموں
محکمہ
محکمے
محکوم
محی
محیط
مخاطب
مخالف
مخالفت
مخالفین
مختار
مختاری
مختتم
مختص
مختصر
مختصرا
مختلط
مختلف
مخدوم
مخزن
مخصوص
مخطوطات
مخطوطہ
مخفف
مخفی
مخلص
مخلوط
مخلوق
مخلوقات
مخنث
مخنف
مخیر
مد
مدات
مداح
مداحوں
مداخلت
مدار
مدارج
مدارس
مداری
مدافعت
مدافعتی
مداي
مدبر
مدت
مدتی
مدثر
مدح
مدد
مددگار
مدر
مدراس
مدرس
مدرسوں
مدرسہ
مدرسۃ
مدرسین
مدرسے
مدعا
مدعو
مدعی
مدفن
مدفون
مدلل
مدمقابل
مدن
مدنظر
مدنی
مدوراي
مدورفت
مدون
مدونین
مديرية
مدھم
مدھو
مدھیہ
مدہ
مدی
مدیحہ
مدید
مدیر
مدیران
مدین
مدینہ
مدینۃ
مدینے
مذاق
مذاکرات
مذاہب
مذمت
مذموم
مذکر
مذکور
مذکورہ
مذہب
مذہبی
مذید
مر
مرا
مرات
مراتب
مراجع
مراجعت
مراحل
مراد
مرادا
مراسم
مراعات
مرافقات
مراقبہ
مرانہ
مراٹھا
مراٹھواڑہ
مراٹھی
مراکز
مراکش
مراکشی
مربع
مربوط
مربی
مرتب
مرتبہ
مرتد
مرتضی
مرتفع
مرتکب
مرتکز
مرتے
مرثیہ
مرثیے
مرجان
مرجانی
مرجع
مرحلہ
مرحلے
مرحمت
مرحوم
مرد
مردار
مردان
مردانہ
مردم
مردوں
مردہ
مرزا
مرزاي
مرسر
مرسل
مرسی
مرسین
مرشد
مرشدا
مرض
مرضی
مرطوب
مرعشی
مرغ
مرغی
مرقس
مرقع
مرلی
مرمت
مرمر
مرمرہ
مرنے
مرو
مروان
مروت
مروج
مروجہ
مروی
مرویات
مرٹن
مرچ
مرچنٹ
مرکب
مرکبات
مرکز
مرکزہ
مرکزی
مرکزیت
مرکزے
مرکوز
مرگ
مرہ
مرہون
مرہٹوں
مرہٹہ
مری
مریت
مریخ
مریخی
مرید
مریدوں
مریدین
مریض
مریضوں
مریم
مرے
مز
مزاج
مزاجی
مزاح
مزاحم
مزاحمت
مزاحمتی
مزاحیہ
مزار
مزارات
مزاری
مزدور
مزدوروں
مزدوری
مزمل
مزہ
مزید
مزین
مس
مسابق
مسابقت
مسابقتی
مساجد
مسافت
مسافر
مسافروں
مسالک
مساوات
مساوی
مساي
مست
مستثنی
مستحب
مستحق
مستحکم
مستدرک
مسترد
مستشرق
مستشرقین
مستطیل
مستعار
مستعفی
مستعمرات
مستعمل
مستفید
مستقبل
مستقر
مستقل
مستقیم
مستند
مستنصر
مستونگ
مستوی
مستی
مسجد
مسجدوں
مسخ
مسدود
مسرت
مسرور
مسز
مسطح
مسعود
مسعودی
مسقط
مسلح
مسلسل
مسلط
مسلم
مسلمان
مسلمانان
مسلمانوں
مسلموں
مسلمہ
مسلمین
مسلي
مسلک
مسمار
مسند
مسودات
مسودہ
مسودے
مسوری
مسولینی
مسي
مسٹر
مسکن
مسکین
مسیب
مسیح
مسیحی
مسیحیت
مسیحیوں
مسیسپی
مسیسیپی
مشابہ
مشابہت
مشارکت
مشاعروں
مشاعرہ
مشاعرے
مشاغل
مشاورت
مشاورتی
مشاي
مشاہد
مشاہدات
مشاہدہ
مشاہدے
مشاہیر
مشتاق
مشتبہ
مشترک
مشترکہ
مشتری
مشتعل
مشتق
مشتمل
مشخص
مشرا
مشرف
مشرق
مشرقی
مشروب
مشروبات
مشروط
مشرک
مشرکین
مشعر
مشعل
مشغلہ
مشغول
مشفق
مشق
مشقت
مشقوں
مشن
مشنری
مشنریوں
مشنوں
مشورہ
مشورے
مشکل
مشکلات
مشکوک
مشکوۃ
مشہد
مشہدی
مشہور
مشی
مشیر
مشیروں
مشیل
مشین
مشینری
مشینوں
مشینی
مشینیں
مصادر
مصالحت
مصالحہ
مصالحے
مصاي
مصباح
مصباحی
مصحف
مصداق
مصدر
مصدقہ
مصر
مصرع
مصرعے
مصروف
مصروفیات
مصروفیت
مصری
مصریوں
مصطف
مصطفی
مصطفے
مصعب
مصلح
مصلحت
مصلحین
مصنع
مصنف
مصنفات
مصنفہ
مصنفین
مصنوعات
مصنوعی
مصو
مصور
مصوروں
مصوری
مصیبت
مضافات
مضافاتی
مضامین
مضبوط
مضبوطی
مضحکہ
مضر
مضمرات
مضمون
مطابق
مطابقت
مطالب
مطالبات
مطالبہ
مطالبے
مطالعات
مطالعہ
مطالعے
مطبع
مطبوعات
مطبوعہ
مطلب
مطلع
مطلق
مطلوب
مطلوبہ
مطمي
مطہرات
مطیع
مظالم
مظاہر
مظاہروں
مظاہرہ
مظاہرین
مظاہرے
مظفر
مظفرا
مظفرگڑھ
مظلوم
مظہر
مظہری
مع
معاذ
معارف
معاش
معاشرت
معاشرتی
معاشروں
معاشرہ
معاشرے
معاشی
معاشیات
معاصر
معاصرین
معاف
معافی
معالج
معالجہ
معاملات
معاملوں
معاملہ
معاملے
معانی
معاوضہ
معاوضے
معاون
معاونت
معاونین
معاویہ
معاي
معاہدوں
معاہدہ
معاہدے
معبد
معبود
معتبر
معتدل
معترف
معتزلہ
معتقد
معتمد
معجزات
معجزہ
معجم
معد
معدن
معدنی
معدنیات
معدوم
معدومیت
معدہ
معدے
معذرت
معذور
معذوری
معراج
معرض
معرفة
معرفت
معرفۃ
معروف
معرکوں
معرکہ
معرکے
معز
معزز
معززین
معزول
معزولی
معصوم
معصومہ
معصومین
معطل
معطلی
معطیات
معظم
معظمہ
معقل
معقول
معلق
معلم
معلمین
معلوم
معلومات
معلوماتی
معلی
معمار
معماروں
معماری
معمر
معمور
معمول
معمولات
معمولی
معن
معنوں
معنوی
معنویت
معنی
معیار
معیارات
معیاری
معیاریت
معیت
معیشت
معیشتوں
معیشتیں
معین
معینہ
مغازی
مغرب
مغربی
مغز
مغفرت
مغل
مغلوب
مغلوں
مغلیہ
مغول
مغیرہ
مفاد
مفادات
مفاہمت
مفاہیم
مفت
مفتاح
مفتی
مفرد
مفرور
مفروضہ
مفروضے
مفسر
مفسرین
مفصل
مفعول
مفعولی
مفقود
مفلوج
مفوضہ
مفکر
مفکرین
مفہوم
مفید
مقابر
مقابل
مقابلوں
مقابلہ
مقابلے
مقاتل
مقاصد
مقالات
مقاله
مقالہ
مقالے
مقام
مقامات
مقامی
مقبرہ
مقبرے
مقبوضات
مقبوضہ
مقبول
مقبولیت
مقتدر
مقتدرہ
مقتل
مقتول
مقتولین
مقدار
مقداری
مقداریں
مقدر
مقدس
مقدسہ
مقدسین
مقدم
مقدمات
مقدمہ
مقدمے
مقدونیاي
مقدونیہ
مقرب
مقرر
مقررہ
مقرن
مقروض
مقصد
مقصود
مقفل
مقلد
مقناطیس
مقناطیسی
مقناطیسیت
مقننہ
مقیم
مل
ملا
ملاتا
ملاتی
ملاح
ملاحظات
ملاحظہ
ملاحوں
ملازم
ملازمت
ملازمتوں
ملازمتیں
ملازمین
ملاقات
ملاقاتوں
ملاقاتیں
ملالہ
ملامت
ملانے
ملاوی
ملاي
ملاپ
ملاکا
ملاگاسی
ملایا
ملبورن
ملبوس
ملبوسات
ملبہ
ملبے
ملت
ملتا
ملتان
ملتانی
ملتوی
ملتی
ملتے
ملحد
ملحدین
ملحق
ملحقہ
ملحوظ
ملر
ملز
ملزم
ملزمان
ملعون
ملف
ملفوظات
ملن
ملنا
ملنگا
ملنے
ملوث
ملوک
ملوکیت
ملٹری
ملٹن
ملٹی
ملک
ملکاي
ملکر
ملکوں
ملکہ
ملکی
ملکیت
ملکیتی
ملکیوں
ملہ
ملہوترا
ملی
ملیالم
ملیالی
ملیح
ملیر
ملیریا
ملیشیا
ملیشیاو
ملین
ملیں
ملیہ
ملے
مم
مماثل
مماثلت
ممالک
ممالیا
ممالیہ
ممانعت
ممبر
ممبران
ممبروں
ممبي
ممتا
ممتاز
مملوک
مملوکوں
مملکت
مملکتوں
مملکتیں
ممنوع
ممنوعہ
ممنون
ممکن
ممکنہ
من
منا
منابع
مناتے
مناجات
منادی
منازل
مناسب
مناسبت
مناسک
مناصب
مناظر
مناظرہ
مناظرے
مناف
منافع
منافق
منافقین
منافی
مناقب
منانے
مناي
منایا
منبر
منبع
منبہ
منت
منتخب
منتر
منتشر
منتظر
منتظم
منتظمین
منتقل
منتقلی
منتہی
منجمد
منحرف
منحصر
منحنی
مند
مندانہ
مندر
مندرج
مندرجات
مندرجہ
مندروں
مندرہ
مندوب
مندوبین
مندوں
مندی
منذر
منرو
منزل
منزلت
منزلوں
منزلہ
منزلیں
منسلک
منسوب
منسوخ
منسوخی
منسٹر
منسک
منشا
منشور
منشی
منشیات
منصب
منصبوں
منصف
منصفانہ
منصفین
منصوبوں
منصوبہ
منصوبے
منصور
منصورہ
منطق
منطقات
منطقہ
منطقی
منظر
منظم
منظور
منظوری
منظوم
منع
منعقد
منعقدہ
منعکس
منفرد
منفی
منقبت
منقسم
منقش
منقطع
منقوط
منقول
منقولہ
منموہن
منو
منوایا
منوج
منور
منورہ
منٹ
منٹو
منٹگمری
منچوریا
منڈ
منڈا
منڈز
منڈل
منڈی
منڈیاں
منڈیلا
منڈیوں
منڈے
منکر
منگ
منگل
منگلور
منگنی
منگول
منگولوں
منگولی
منگولیا
منگولیاي
منگیشکر
منہ
منہاج
منہاس
منہدم
منی
منیاپولس
منیجر
منیجنگ
منیر
منیسوٹا
منیلا
منین
منے
مو
مواد
موازنہ
مواصلات
مواصلاتی
موافق
موافقت
مواقع
موباي
موت
موتی
موتیوں
موثر
موج
موجب
موجد
موجدین
موجود
موجودگی
موجودہ
موحدین
موخر
مودود
مودودی
مودی
مور
مورتی
مورتیاں
مورث
مورخ
مورخہ
مورخین
مورد
مورس
مورو
موروثی
موروس
مورٹن
مورچہ
مورگن
موری
موریا
موریتانیہ
موریس
موریسن
موریشس
موریشسی
موریہ
موز
موزمبیق
موزمبیقی
موزوں
موس
موساد
موسم
موسموں
موسمی
موسمیات
موسمیاتی
موسوعہ
موسوم
موسوی
موسى
موسی
موسیقار
موسیقاروں
موسیقی
موشن
موصل
موصوف
موصول
موضع
موضوع
موضوعات
موطا
موقع
موقعوں
موقف
موقوف
مول
مولا
مولانا
مولاي
مولف
مولوتوف
مولود
مولوی
مولی
موم
مومل
مومن
مومنین
مون
مونا
موناکو
مونث
مونرو
مونس
مونو
مونٹ
مونٹانا
مونٹگمری
مونٹی
مونٹینیگرو
مونٹینیگروی
مونگ
مونی
مونیکا
موور
موومنٹ
مووی
موي
موٹا
موٹاي
موٹر
موٹراسپورٹ
موٹرساي
موٹروے
موٹی
موٹے
موچی
موڈ
موڑ
موہن
موہڑہ
مویشی
مویشیوں
مي
مير
ميں
مٹ
مٹا
مٹانے
مٹر
مٹھاي
مٹھن
مٹھی
مٹی
مچ
مچا
مچل
مچھلی
مچھلیاں
مچھلیوں
مڈ
مڈغاسکر
مڈل
مڈلسیکس
مڈلینڈ
مڈلینڈز
مڈوے
مڑ
مک
مکاتب
مکاتیب
مکالمہ
مکالمے
مکان
مکانات
مکانوں
مکانی
مکاو
مکاں
مکتب
مکتبہ
مکتبۃ
مکتوب
مکتوبات
مکتوم
مکتی
مکر
مکران
مکرر
مکررات
مکرم
مکرمہ
مکروہ
مکس
مکعب
مکلین
مکمل
مکي
مکٹی
مکڑی
مکھرجی
مکھن
مکھی
مکہ
مکی
مکیش
مکینیکل
مکے
مگ
مگدھ
مگر
مگرمچھ
مگسی
مہ
مہا
مہابھارت
مہاتما
مہاجر
مہاجرین
مہار
مہاراج
مہاراجا
مہاراجہ
مہاراشٹر
مہاراشٹرا
مہارانی
مہارت
مہاکاوی
مہتا
مہتاب
مہتمم
مہتممین
مہدی
مہذب
مہر
مہران
مہربان
مہربانی
مہروں
مہلت
مہلک
مہم
مہمات
مہمان
مہمانوں
مہمند
مہموں
مہندر
مہندسین
مہندی
مہنگا
مہنگاي
مہنگی
مہنگے
مہیا
مہیش
مہیلا
مہینا
مہیندر
مہینوں
مہینہ
مہینے
می
میامی
میان
میانداد
میانمار
میانوالی
میانہ
میانی
میاو
میاں
میت
میتھوڈسٹ
میتھین
میتھیو
میتھیوز
میثاق
میثم
میجر
میخاي
مید
میدان
میدانوں
میدانی
میدرد
میدی
میر
میرا
میراتھن
میراث
میراں
میرزا
میرو
میرٹ
میرٹھ
میرٹھی
میرپور
میری
میریلیبون
میرین
میرینز
میرے
میز
میزان
میزاي
میزبان
میزبانی
میزش
میزورم
میزہ
میسا
میساچوسٹس
میسر
میسن
میسنری
میسور
میسوپوٹیمیا
میسی
میعاد
میل
میلاد
میلادی
میلان
میلبورن
میلفورڈ
میلو
میلوں
میلکم
میلہ
میلے
میم
میمن
میموری
میموریل
میمون
میمونہ
مین
مینا
مینار
میناروں
مینارڈ
مینجمنٹ
مینز
مینسفیلڈ
مینشن
مینن
مینوفیکچرنگ
مینوي
مینڈس
مینڈیٹ
مینگل
مینہٹن
مینی
مینیجر
مینیجمنٹ
مینیسوٹا
مینے
میو
میوزک
میوزیم
میوزیکل
میونخ
میونسپل
میونسپلٹی
میي
میٹ
میٹا
میٹر
میٹرو
میٹروپولیٹن
میٹرک
میٹرکس
میٹریا
میٹم
میٹنگ
میٹھا
میٹھی
میٹھے
میچ
میچز
میچوں
میڈ
میڈرڈ
میڈل
میڈم
میڈن
میڈیا
میڈیاویکی
میڈیسن
میڈیسون
میڈیم
میڈیکا
میڈیکل
میک
میکانیات
میکانیکی
میکر
میکس
میکسویل
میکسیکو
میکسیکی
میکوپن
میکڈونلڈ
میگا
میگزین
میگوي
میگھالیہ
میں
میہ
مے
ن
نا
ناانصافی
نااہل
نااہلی
نابالغ
نابلس
نابود
نابینا
نات
ناتھ
ناتھن
ناتی
ناجاي
ناحیہ
ناخوش
ناد
نادانستہ
نادر
نادرہ
نادیہ
نار
نارا
ناراض
ناراضگی
ناراضی
ناراي
ناراین
نارتھ
نارتھمبرلینڈ
نارتھمپٹن
نارتھیمپٹن
نارتھیمپٹنشاي
ناردرن
نارمل
نارمن
نارووال
نارویجن
ناروے
ناریل
ناز
نازل
نازک
نازی
نازیوں
نازیہ
ناسا
ناسخ
ناسک
ناشر
ناشران
ناشرین
ناصر
ناصرالدین
ناصری
ناطق
ناطے
ناظر
ناظرہ
ناظرین
ناظم
ناف
نافذ
نافرمانی
نافع
ناقابل
ناقد
ناقدین
ناقص
نال
نالہ
نالی
نالیوں
نالے
نام
ناماي
نامزد
نامزدگی
نامزدگیاں
نامعلوم
ناممکن
نامناسب
نامه
نامور
ناموس
ناموں
نامکمل
نامہ
نامی
نامیاتی
نامے
نان
نانا
نانجنگ
نانوتوی
نانپارہ
نانک
نانی
ناو
ناواقف
ناورو
ناول
ناولوں
ناویس
ناي
ناٹ
ناٹنگھم
ناٹنگھمشاي
ناٹک
ناپ
ناپا
ناپاک
ناپسند
ناپسندیدہ
ناپولی
ناپید
ناچ
ناڈو
ناک
ناکارہ
ناکافی
ناکام
ناکامی
ناکامیوں
ناکھون
ناکہ
ناگ
ناگا
ناگاساکی
ناگالینڈ
ناگزیر
ناگوار
ناگورنو
ناگویا
ناگپور
ناں
ناہید
نایاب
نباتات
نباتاتی
نباتاتیہ
نباتیات
نباتیہ
نبرد
نبوت
نبوی
نبویہ
نبھاي
نبھایا
نبی
نبیل
نبیوں
نت
نتاشا
نتاي
نتقال
نتوں
نتیجتا
نتیجہ
نتیجے
نث
نثار
نثر
نثری
نج
نجات
نجار
نجاشی
نجد
نجران
نجف
نجفی
نجم
نجمہ
نجمی
نجوم
نجکاری
نجی
نجیب
نحضرت
نحو
نحوی
نخعی
نخلستان
ند
ندا
نداناو
ندرے
ندوں
ندوۃ
ندوی
ندگان
ندگی
ندھرا
ندھی
ندہ
ندی
ندیاں
ندیم
ندیوں
ندے
نذر
نذرانہ
نذیر
نر
نرز
نرس
نرسمہا
نرسنگ
نرم
نرمی
نروان
نرگس
نری
نریش
نریندر
نز
نزار
نزاعات
نزاکت
نزد
نزدیک
نزدیکی
نزلینڈ
نزول
نس
نساء
نساي
نسب
نسبت
نسبتا
نسبتی
نسبی
نستعلیق
نسخ
نسخوں
نسخہ
نسخے
نسدان
نسدانوں
نسر
نسز
نسق
نسل
نسلا
نسلوں
نسلی
نسلیت
نسلیں
نسو
نسوانی
نسوانیت
نسواں
نسٹاي
نسی
نسیج
نسیم
نشا
نشاط
نشان
نشانات
نشاندہی
نشانہ
نشانی
نشانیاں
نشانیوں
نشاۃ
نشتر
نشر
نشرکاری
نشریات
نشریاتی
نشست
نشستوں
نشستیں
نشو
نشوونما
نشپ
نشہ
نشیب
نشیبی
نشین
نشینی
نشیں
نشے
نص
نصاب
نصابی
نصاری
نصب
نصر
نصراللہ
نصرت
نصف
نصوص
نصیب
نصیحت
نصیر
نصیرالدین
نضر
نظارہ
نظارے
نظام
نظامات
نظامت
نظاموں
نظامی
نظامیہ
نظر
نظرا
نظرانداز
نظربند
نظرثانی
نظروں
نظری
نظریات
نظریاتی
نظریہ
نظریے
نظم
نظموں
نظمی
نظمیں
نظیر
نعت
نعتوں
نعتیں
نعتیہ
نعرہ
نعرے
نعمان
نعمانی
نعمت
نعمتوں
نعیم
نعیمی
نغمات
نغموں
نغمہ
نغمے
نف
نفاذ
نفاست
نفرت
نفری
نفس
نفسی
نفسیات
نفسیاتی
نفع
نفوس
نفی
نفیس
نقاب
نقاد
نقادوں
نقاش
نقاشی
نقاط
نقاي
نقد
نقش
نقشبند
نقشبندی
نقشبندیہ
نقشوں
نقشہ
نقشے
نقص
نقصان
نقصانات
نقطہ
نقطے
نقل
نقلی
نقوش
نقوی
نقی
نقیب
نك
نل
نلز
نم
نما
نماز
نمازوں
نمازی
نمازیں
نماي
نمایاں
نمبر
نمبروں
نمر
نمل
نمو
نمودار
نمونوں
نمونہ
نمونیا
نمونے
نمٹنے
نمک
نمکین
نمی
نمیبیا
نمیبیاي
نن
ننجا
نند
نندا
نندی
ننکانہ
ننگ
ننگرہار
ننگے
ننھا
ننھے
نه
نو
نوا
نواب
نوابزادہ
نوابوں
نوابی
نواح
نواحی
نوادرات
نوار
نواز
نوازا
نوازی
نواس
نواسہ
نواسے
نواي
نواں
نوبت
نوبل
نوبیل
نوجوان
نوجوانان
نوجوانوں
نوجوانی
نوح
نوحہ
نور
نورا
نورالدین
نورانی
نورجہاں
نورزي
نورس
نورمنڈی
نوروز
نوری
نوریہ
نوزاي
نوش
نوشاد
نوشت
نوشتہ
نوشہرو
نوشہرہ
نوشی
نوع
نوعمر
نوعمری
نوعیت
نوفل
نول
نومبر
نون
نووا
نووی
نوي
نوٹ
نوٹری
نوٹس
نوٹنگھم
نوٹوں
نوک
نوکر
نوکری
نوں
نوی
نویاتی
نوید
نویس
نویسوں
نویسہ
نویسی
نوین
نویں
نوے
ني
نٹ
نٹال
نٹر
نٹس
نٹشکے
نٹنگ
نٹی
نٹیاں
نٹیز
نٹین
نٹیوں
نپولین
نچ
نچلا
نچلی
نچلے
نچوڑ
نڈ
نڈر
نڈری
نڈز
نڈیشن
نژاد
نک
نکا
نکات
نکاتی
نکاح
نکاراگوا
نکاراگواي
نکاسی
نکال
نکالا
نکالتے
نکالنا
نکالنے
نکالی
نکالے
نکتہ
نکسن
نکل
نکلا
نکلتا
نکلتی
نکلتے
نکلسن
نکلنا
نکلنے
نکلی
نکلیں
نکلے
نکوبار
نکوسیا
نکولس
نکھ
نکھوں
نکھیں
نکہ
نکی
نگ
نگار
نگارخانہ
نگارشات
نگاروں
نگاری
نگاہ
نگاہوں
نگر
نگران
نگرانی
نگراں
نگری
نگم
نگن
نگہبان
نگہداشت
نگیں
نھوں
نہ
نہاد
نہال
نہایت
نہج
نہر
نہرو
نہروان
نہروں
نہریں
نہم
نہوں
نہيں
نہی
نہیں
نی
نیا
نیابت
نیاز
نیازی
نیاگرا
نیبراسکا
نیت
نیتی
نیدرلینڈ
نیدرلینڈز
نیر
نیرو
نیروبی
نیز
نیزہ
نیزے
نیس
نیست
نیش
نیشا
نیشابور
نیشاپور
نیشاپوری
نیشن
نیشنز
نیشنل
نیشنلسٹ
نیشویل
نیل
نیلا
نیلامی
نیلسن
نیلم
نیلوفر
نیلی
نیلے
نیم
نین
نینا
نیند
نینسی
نینو
نینی
نینیانوے
نیو
نیوا
نیواڈا
نیوز
نیوزی
نیول
نیووے
نیوٹرون
نیوٹرینو
نیوٹن
نیوپورٹ
نیوکلیي
نیوہیم
نیوی
نیویارک
نیویل
نیي
نیٹ
نیٹو
نیپال
نیپالی
نیپولین
نیپي
نیپچون
نیچر
نیچرل
نیچے
نیک
نیکوسیا
نیکولاي
نیکی
نیگرو
نیں
نے
ه
ها
هاشمی
های
هذا
هشدار
هـ
هل
هم
هیں
و
وا
وابستگی
وابستہ
واجب
واجد
واجپاي
واحد
وادي
وادی
وادیاں
وادیوں
وار
وارانسی
وارانہ
وارث
وارثی
وارد
واردات
وارسا
وارم
وارن
وارنر
وارنٹ
واروکشاي
وارڈ
وارک
وارکشاي
وارہ
واری
واریت
واریي
واز
وازوں
وازیں
واس
واسطوں
واسطہ
واسطی
واسطے
واش
واشنگٹن
واصف
واصل
واضح
واضع
واعظ
وافر
واقدی
واقع
واقعات
واقعتا
واقعہ
واقعی
واقعے
واقف
واقفیت
وال
والا
والجماعت
والد
والدہ
والدین
والس
والسلام
والش
واللہ
والنہایہ
والو
والوں
والٹ
والٹر
والٹن
والہ
والہانہ
والی
والیس
والے
وان
وانا
وانواتو
وانگ
وانی
واو
واي
واٹ
واٹر
واٹرلو
واٹس
واٹسن
واپس
واپسی
واپڈا
واچ
واڑہ
واک
واکا
واکر
واں
واہ
وب
وبا
وباي
وبھوشن
وت
وتدریس
وتر
وتربیت
وثوق
وجاہت
وجد
وجود
وجوہ
وجوہات
وجي
وجہ
وجہہ
وجے
وح
وحدت
وحدیث
وحشت
وحشی
وحشیانہ
وحی
وحید
ود
ودھان
ودیا
ور
وراثت
وراثہ
وراثی
وراثیات
ورانہ
وراي
ورتھ
ورثاء
ورثہ
ورثے
ورجن
ورجینیا
ورد
وردی
ورزش
ورزی
ورزیوں
ورساي
ورسٹی
ورسیسٹر
ورق
ورلڈ
ورم
ورما
ورمونٹ
ورنن
ورنہ
وروں
ورٹوف
ورچوي
ورڈ
ورڈی
ورژن
ورک
ورکر
ورکرز
ورکس
ورکشاپ
ورکشاپس
ورکنگ
وری
وزارت
وزارتیں
وزرا
وزراء
وزراي
وزن
وزنی
وزڈن
وزیر
وزیراعظم
وزیراعلی
وزیرستان
وس
وساي
وسط
وسطی
وسعت
وسلم
وسمہ
وسنت
وسٹا
وسکونسن
وسیط
وسیع
وسیلہ
وسیم
وش
وشاعر
وشال
وشنو
وشو
وشوناتھ
وصال
وصف
وصل
وصول
وصولی
وصی
وصیت
وضاحت
وضع
وضو
وطن
وطنوں
وطنی
وظاي
وظیفہ
وع
وعدوں
وعدہ
وعدے
وعظ
وغیرہ
وف
وفا
وفات
وفادار
وفاداری
وفاق
وفاقی
وفاقیہ
وفاي
وفد
وفضل
وفود
وفیات
وق
وقار
وقاص
وقاي
وقت
وقتا
وقتوں
وقتی
وقف
وقفہ
وقفے
وقوع
وقوف
ول
ولا
ولادت
ولادتیں
ولادیمیر
ولایت
ولبھ
ولد
ولسن
ولف
ولن
ولندیزی
ولى
ولی
ولیج
ولید
ولیم
ولیمز
ولیمسن
وم
ومبلڈن
ون
ونسب
ونسنٹ
ونسٹن
ونود
ونچیسٹر
ونڈ
ونڈر
ونڈسر
ونڈو
ونڈوز
ونگ
ونی
وه
وو
وورسٹر
ووسٹر
ووسٹرشاي
وولف
وولٹ
وولٹیج
وولگا
وومن
وون
ووٹ
ووٹر
ووٹرز
ووٹروں
ووٹنگ
ووٹوں
ووڈ
ووڈلینڈ
ووہان
وي
وٹ
وٹامن
وٹو
وپ
وپر
وچ
وڈ
وڈودرا
وڈیو
وڑاي
وژن
وک
وکالت
وکرم
وکلا
وکلاء
وکمال
وکٹ
وکٹر
وکٹوریا
وکٹورین
وکٹوریہ
وکٹوں
وکٹیں
وکی
وکیع
وکیل
وکیپیڈیا
وں
وہ
وہاب
وہابی
وہابیت
وہاڑی
وہاں
وہب
وہم
وہی
وہیل
وہیں
وی
ویاس
ویانا
ویب
ویبسٹر
ویت
ویتنام
ویتنامی
وید
ویدوں
ویدک
ویدی
ویر
ویرا
ویران
ویرایش
ویز
ویزا
ویزاں
ویس
ویسا
ویسٹ
ویسٹرن
ویسٹمنسٹر
ویسے
ویشنو
ویل
ویلتھ
ویلز
ویلس
ویلش
ویلفیي
ویلمینگٹن
ویلن
ویلنٹاي
ویلنگٹن
ویلو
ویلڈ
ویلی
ویلے
ویمن
ویمنز
وین
وینا
وینزویلا
وینزویلاي
وینس
وینسینٹ
وینڈزورتھ
وینکوور
وینیباگو
وینیزویلا
ویو
ویوین
ویي
ویٹ
ویٹرنری
ویٹلینڈ
ویٹو
ویٹیکن
ویڈ
ویڈیو
ویڈیوز
ویژن
ویژیول
ویک
ویکسین
ویکی
ویکیمیڈیا
ویکیپیڈیا
ویکیپیڈیاو
ویکیپیڈین
ویگاس
ویگن
ویگنر
ویں
وے
ى
ي
يا
يب
يت
يد
ير
يز
يع
يك
يل
يم
يمن
ين
يه
يوسف
يں
يہ
ً
ٌ
ٍ
َ
ُ
ِ
ّ
ْ
ٓ
ٔ
ٕ
ٖ
ٗ
٘
ٙ
٠
١
٢
٣
٤
٥
٦
٧
٨
٩
٪
٫
٬
٭
ٰ
ٲ
ٹ
ٹا
ٹارزن
ٹارگٹ
ٹاس
ٹاسک
ٹال
ٹام
ٹانک
ٹانگ
ٹانگوں
ٹانگیں
ٹاو
ٹاور
ٹاورز
ٹاون
ٹاي
ٹاٹا
ٹاپ
ٹاک
ٹر
ٹرافی
ٹرام
ٹرانزٹ
ٹرانس
ٹرانسمیشن
ٹرانسوال
ٹرانسپورٹ
ٹراي
ٹراٹسکی
ٹرز
ٹرسٹ
ٹرسٹی
ٹرمپ
ٹرمینل
ٹرن
ٹرنر
ٹروجن
ٹرومین
ٹرپل
ٹرک
ٹرکوں
ٹری
ٹریبونل
ٹریبیون
ٹریسا
ٹریفورڈ
ٹریفک
ٹریل
ٹرین
ٹریننگ
ٹرینوں
ٹرینٹ
ٹرینیٹی
ٹرینیڈاڈ
ٹرینیں
ٹریور
ٹریول
ٹریڈ
ٹریژری
ٹریک
ٹریکٹر
ٹزرلینڈ
ٹس
ٹل
ٹلی
ٹم
ٹماٹر
ٹن
ٹنز
ٹنل
ٹنڈو
ٹنڈولکر
ٹنگ
ٹو
ٹوانہ
ٹوبا
ٹوباگو
ٹوبہ
ٹور
ٹورانٹو
ٹورنامنٹ
ٹورنامنٹس
ٹورنٹو
ٹورنگ
ٹول
ٹولی
ٹومب
ٹوموباي
ٹومے
ٹونٹی
ٹونگا
ٹونی
ٹوي
ٹوٹ
ٹوٹا
ٹوٹل
ٹوٹنے
ٹوٹی
ٹوٹے
ٹوپی
ٹوڈ
ٹوڈے
ٹوک
ٹوکیو
ٹوگو
ٹوں
ٹویٹ
ٹویٹر
ٹچ
ٹڈ
ٹک
ٹکر
ٹکرا
ٹکراو
ٹکسال
ٹکنالوجی
ٹکٹ
ٹکڑا
ٹکڑوں
ٹکڑے
ٹھ
ٹھا
ٹھاکر
ٹھایا
ٹھنڈا
ٹھنڈی
ٹھنڈے
ٹھواں
ٹھوس
ٹھویں
ٹھٹوی
ٹھٹھہ
ٹھٹہ
ٹھکانوں
ٹھکانے
ٹھکرا
ٹھگ
ٹھہر
ٹھہرا
ٹھہرایا
ٹھہرے
ٹھیک
ٹہ
ٹی
ٹیبل
ٹیری
ٹیسٹ
ٹیسٹوں
ٹیل
ٹیلر
ٹیلنٹ
ٹیلی
ٹیلیفون
ٹیلے
ٹیم
ٹیمز
ٹیموں
ٹیمپل
ٹیمیں
ٹین
ٹینس
ٹینک
ٹینکر
ٹینکوں
ٹینیسی
ٹیوب
ٹیوشن
ٹیوٹ
ٹیٹ
ٹیٹو
ٹیپ
ٹیپو
ٹیچر
ٹیڈ
ٹیک
ٹیکس
ٹیکساس
ٹیکسلا
ٹیکسوں
ٹیکسٹ
ٹیکسٹاي
ٹیکسی
ٹیکنالوجی
ٹیکنالوجیز
ٹیکنیکل
ٹیگ
ٹیگور
ٹیں
ٹے
ٽ
پ
پا
پابند
پابندی
پابندیاں
پابندیوں
پات
پاتا
پاتھ
پاتی
پاتے
پاداش
پادری
پادریوں
پادشاہ
پار
پارا
پارس
پارسی
پارش
پارلیمان
پارلیمانی
پارلیمنٹ
پاروتی
پاروں
پارٹ
پارٹنر
پارٹنرشپ
پارٹی
پارٹیاں
پارٹیوں
پارک
پارکر
پارکس
پارکوں
پارہ
پارے
پاز
پاس
پاسبان
پاسداران
پاسداری
پاسپورٹ
پاش
پاشا
پاشی
پافوس
پال
پالا
پالتو
پالن
پالنے
پالو
پالک
پالی
پالیا
پالیسی
پالیسیاں
پالیسیوں
پالے
پام
پامال
پامالی
پامیر
پان
پانا
پاناما
پاناماي
پانچ
پانچواں
پانچوں
پانچویں
پانڈو
پانڈیا
پانڈے
پانی
پانیوں
پانے
پاو
پاور
پاول
پاونڈ
پاي
پاٹ
پاٹل
پاٹھک
پاپ
پاپاي
پاپوا
پاپولر
پاک
پاکر
پاکستان
پاکستانی
پاکستانیوں
پاکپتن
پاکیزگی
پاکیزہ
پاگل
پاگي
پایا
پایہ
پبلشر
پبلشرز
پبلشنگ
پبلک
پبلی
پبلیکیشنز
پت
پتا
پتر
پتلا
پتلی
پتن
پتنگ
پتوں
پتھر
پتھروں
پتہ
پتی
پتے
پجاری
پختون
پختونخوا
پختونخواہ
پختگی
پختہ
پدر
پدم
پدما
پدیا
پذیر
پذیراي
پذیری
پر
پرا
پراجیکٹ
پراسرار
پراسیکیوٹر
پرامن
پران
پرانا
پرانی
پرانے
پراي
پراپرٹی
پراکرت
پراکسی
پراگ
پرایک
پربت
پرت
پرتاب
پرتاپ
پرتشدد
پرتوں
پرتگال
پرتگالی
پرتگالیوں
پرتگیزی
پرتھ
پرتھوی
پرجاتیوں
پرجوش
پردادا
پردہ
پردیش
پردے
پرزور
پرس
پرساد
پرست
پرستار
پرستانہ
پرستش
پرستوں
پرستی
پرسن
پرسنل
پرسکون
پرسی
پرشاد
پرشیا
پرعزم
پرفارم
پرفارمنس
پرل
پرمشتمل
پرندوں
پرندہ
پرندے
پرنس
پرنسٹن
پرنسپل
پرنسپے
پرنٹ
پرنٹنگ
پرو
پروا
پرواز
پروازوں
پروازیں
پروان
پروانہ
پرواہ
پروجیکٹ
پرور
پروردگار
پرورش
پروری
پروسیسنگ
پروشیا
پروفاي
پروفیسر
پروفیشنل
پرونده
پروویڈنس
پروٹسٹنٹ
پروٹو
پروٹوکول
پروٹین
پروپیگنڈا
پروپیگنڈہ
پروپیگنڈے
پروڈکشن
پروڈکشنز
پروڈیوس
پروڈیوسر
پروڈیوسرز
پروگرام
پروگرامز
پروگرامنگ
پروگراموں
پروں
پرویز
پروین
پرچار
پرچم
پرچون
پرچہ
پرچے
پرکاش
پرکشش
پرگنہ
پرہیز
پری
پریا
پریاگ
پریت
پریتم
پریتی
پریری
پریزیڈنسی
پریس
پریسٹن
پریش
پریشان
پریشانی
پریشانیوں
پریشد
پریشر
پریشن
پریشنز
پریشنل
پریفیکچر
پریفیکچور
پریم
پریمیي
پریوں
پریٹر
پریٹنگ
پریڈ
پریکٹس
پرے
پزیر
پزیراي
پس
پست
پستان
پستول
پسر
پسرور
پسماندگان
پسماندہ
پسند
پسندانہ
پسندوں
پسندی
پسندیدہ
پسپا
پسپاي
پسی
پسینہ
پشاور
پشاوری
پشت
پشتو
پشتون
پشتونوں
پشتوں
پشن
پشین
پطرس
پل
پلا
پلازہ
پلاسٹک
پلان
پلاننگ
پلانٹ
پلانے
پلاو
پلاي
پلاٹ
پلایماو
پلس
پلندری
پلنکٹ
پلوٹو
پلوں
پلي
پلٹ
پلک
پلگ
پلہ
پلی
پلیزینٹ
پلیس
پلین
پلیي
پلیٹ
پلے
پمپ
پن
پناہ
پناہی
پنت
پنج
پنجاب
پنجابی
پنجم
پنجے
پندرہ
پندرہویں
پنسلوانیا
پنشن
پنوں
پنچ
پنچایت
پنڈ
پنڈت
پنڈی
پنک
پنکج
پنکھ
پنگ
پنی
پنیر
پنے
په
پو
پوار
پواي
پوتا
پوتن
پوتی
پوتے
پوجا
پودا
پودوں
پودے
پور
پورا
پورس
پورم
پورن
پورٹ
پورٹر
پورٹریٹ
پورٹل
پورٹلینڈ
پورٹو
پورٹیج
پورہ
پوری
پورے
پوزیشن
پوزیشنوں
پوست
پوسٹ
پوسٹر
پوسٹل
پوش
پوشاک
پوشی
پوشیدہ
پول
پولاسکی
پولاک
پولس
پولش
پولنگ
پولو
پولٹن
پولی
پولیس
پولینڈ
پولینڈی
پولینیشیا
پولیو
پولیٹیکل
پومیرانیان
پون
پونا
پونزی
پونٹنگ
پونچھ
پونڈ
پونہ
پونے
پوي
پوٹر
پوٹھوہار
پوپ
پوچھ
پوچھا
پوچھتے
پوچھنے
پوچھے
پوک
پوکیمون
پویلین
پي
پٹ
پٹرول
پٹرولیم
پٹری
پٹسبرگ
پٹن
پٹنم
پٹنہ
پٹودی
پٹڑی
پٹھان
پٹھانوں
پٹھوں
پٹی
پٹیالہ
پٹیاں
پٹیل
پٹے
پچ
پچاس
پچاسی
پچانوے
پچوں
پچپن
پچھلی
پچھلے
پچہتر
پچیس
پڑ
پڑا
پڑاو
پڑتا
پڑتال
پڑتی
پڑتے
پڑنے
پڑوس
پڑوسی
پڑوسیوں
پڑھ
پڑھا
پڑھاتے
پڑھانا
پڑھانے
پڑھاي
پڑھایا
پڑھتا
پڑھتے
پڑھنا
پڑھنے
پڑھی
پڑھیں
پڑھیے
پڑھے
پڑی
پڑیں
پڑے
پک
پکا
پکار
پکارا
پکارتے
پکانے
پکایا
پکسل
پکو
پکوان
پکچر
پکچرز
پکڑ
پکڑا
پکڑنے
پکڑے
پکی
پکے
پگ
پگڑی
پگھل
پھالکے
پھالیہ
پھانسی
پھاڑ
پھر
پھرا
پھرتے
پھرنے
پھل
پھلوں
پھلی
پھلیاں
پھنس
پھنسے
پھول
پھولوں
پھونک
پھوٹ
پھوپھی
پھوڑ
پھٹ
پھٹا
پھٹنے
پھیر
پھیری
پھیل
پھیلا
پھیلانا
پھیلانے
پھیلاو
پھیلاي
پھیلایا
پھیلتا
پھیلتی
پھیلنے
پھیلی
پھیلے
پھینک
پھینکا
پھینکنے
پھینکیں
پھینکے
پھیپھڑوں
پہ
پہاڑ
پہاڑوں
پہاڑی
پہاڑیاں
پہاڑیوں
پہر
پہل
پہلا
پہلو
پہلوان
پہلوو
پہلوی
پہلی
پہلے
پہن
پہنا
پہنانے
پہنایا
پہنتی
پہنتے
پہننا
پہننے
پہنچ
پہنچا
پہنچاتا
پہنچاتے
پہنچانا
پہنچانے
پہنچاي
پہنچایا
پہنچتا
پہنچتی
پہنچتے
پہنچنا
پہنچنے
پہنچی
پہنچیں
پہنچے
پہنی
پہنے
پہونچ
پہچان
پہچانا
پہچانی
پہچانے
پہیے
پی
پیا
پیادہ
پیار
پیارا
پیاری
پیارے
پیاز
پیاس
پیالہ
پیام
پیامبر
پیانو
پیتل
پیتے
پیج
پیدا
پیداوار
پیداواری
پیداي
پیداہوي
پیدل
پیر
پیرا
پیرالمپک
پیرامیٹر
پیرامیٹرز
پیراگوي
پیرزادہ
پیرس
پیرش
پیرو
پیروکار
پیروکاروں
پیروں
پیروی
پیری
پیرینے
پیس
پیسوں
پیسہ
پیسیفک
پیسے
پیش
پیشاب
پیشانی
پیشتر
پیشرفت
پیشرو
پیشن
پیشوا
پیشوں
پیشکش
پیشگوي
پیشگی
پیشہ
پیشی
پیشین
پیشے
پیغام
پیغامات
پیغمبر
پیل
پیلا
پیلس
پیلی
پیلے
پیما
پیمانہ
پیمانے
پیماي
پیمبرٹن
پین
پینا
پینانگ
پینتالیس
پینتیس
پینزر
پینسٹھ
پینل
پینٹ
پینٹاگون
پینٹر
پینٹنگ
پینٹنگز
پینگوي
پینے
پیو
پیوست
پیوند
پیي
پیٹ
پیٹا
پیٹر
پیٹرز
پیٹرزبرگ
پیٹرسن
پیٹرو
پیٹرولیم
پیٹرک
پیٹریاارک
پیٹریاچریٹ
پیٹنٹ
پیٹھ
پیٹی
پیپر
پیپرز
پیپل
پیپلز
پیپلزپارٹی
پیچ
پیچھا
پیچھے
پیچیدگی
پیچیدہ
پیڈ
پیڈرو
پیڈیا
پیک
پیکار
پیکارڈی
پیکج
پیکر
پیکنگ
پیکٹ
پے
چ
چا
چابی
چادر
چار
چارج
چارجرز
چارسدہ
چارلس
چارلسٹن
چارلی
چاروں
چارٹ
چارٹر
چارہ
چاریہ
چارے
چاغی
چاقو
چال
چالیس
چاند
چاندنی
چاندی
چانسلر
چانڈیو
چانگ
چاو
چاول
چاي
چاپ
چاڈ
چاک
چاکر
چاکلیٹ
چاہ
چاہا
چاہتا
چاہتی
چاہتے
چاہنے
چاہو
چاہي
چاہی
چاہیں
چاہیے
چاہے
چترال
چترالی
چتور
چر
چرا
چراغ
چراگاہ
چربی
چرن
چروکی
چرچ
چرچا
چرچل
چری
چستی
چسپاں
چشت
چشتی
چشتیہ
چشم
چشموں
چشمہ
چشمے
چغتاي
چل
چلا
چلاتا
چلاتی
چلاتے
چلانا
چلانے
چلاي
چلایا
چلبی
چلتا
چلتی
چلتے
چلن
چلنا
چلنے
چلو
چلڈرن
چلہ
چلی
چلیں
چلے
چمن
چمپا
چمڑے
چمک
چمکدار
چن
چنا
چناب
چنار
چناق
چنانچہ
چناو
چناي
چناں
چند
چندا
چندر
چندرا
چندہ
چندی
چني
چنڈی
چنگ
چنگھاي
چنگیز
چنی
چنیوٹ
چنے
چو
چوا
چوالیس
چوبیس
چوتھا
چوتھاي
چوتھی
چوتھے
چودھری
چودھویں
چودہ
چودہویں
چور
چوراسی
چورانوے
چورنگی
چوروں
چوری
چولا
چولستان
چون
چونا
چونتیس
چونسٹھ
چونکہ
چونگ
چونے
چوٹ
چوٹی
چوٹیاں
چوٹیوں
چوپڑا
چوڑا
چوڑاي
چوڑی
چوڑیاں
چوڑے
چوک
چوکور
چوکوں
چوکھٹا
چوکی
چوکیوں
چوکے
چوں
چوہان
چوہتر
چوہدری
چوہے
چي
چٹان
چٹانوں
چٹانیں
چٹاگانگ
چٹنی
چپ
چپکے
چپیوا
چچا
چڑھ
چڑھا
چڑھانے
چڑھاو
چڑھاي
چڑھایا
چڑھنے
چڑھی
چڑھے
چڑیا
چک
چکا
چکر
چکرورتی
چکن
چکوال
چکی
چکیاں
چکے
چھ
چھا
چھاتی
چھان
چھاو
چھاونی
چھاي
چھاپ
چھاپا
چھاپنے
چھاپوں
چھاپہ
چھاپے
چھاڑ
چھایا
چھبیس
چھت
چھترپتی
چھتری
چھتوں
چھتیس
چھلانگ
چھن
چھو
چھولس
چھولسی
چھونے
چھوٹ
چھوٹا
چھوٹی
چھوٹے
چھوڑ
چھوڑا
چھوڑتے
چھوڑنا
چھوڑنے
چھوڑی
چھوڑیں
چھوڑے
چھٹا
چھٹکارا
چھٹی
چھٹیوں
چھٹے
چھپ
چھپا
چھپانے
چھپاي
چھپتے
چھپن
چھپنے
چھپی
چھپے
چھڑ
چھڑی
چھکا
چھکوں
چھکے
چھہتر
چھیاسٹھ
چھیاسی
چھیالیس
چھیانوے
چھین
چھیڑ
چہ
چہار
چہارم
چہروں
چہرہ
چہرے
چہل
چی
چیانگ
چیبا
چیت
چیتا
چیخ
چیدہ
چیر
چیرمین
چیرکسیوں
چیری
چیریٹی
چیز
چیزوں
چیزیں
چیس
چیسٹر
چیسٹرفیلڈ
چیشاي
چیف
چیفس
چیلسی
چیلنج
چیلنجرز
چیلنجوں
چیمبر
چیمبرز
چیمپي
چیمپین
چیمپیي
چیمہ
چین
چیناي
چینج
چینل
چینلز
چینی
چینیوں
چیي
چیٹ
چیپل
چیچن
چیچنیا
چیچک
چیچہ
چیک
چیکو
چیکوسلواکی
چیکوسلواکیہ
چیکوسلوواکیا
چیکوسلوواکیہ
چیکہ
چے
ڈ
ڈا
ڈاج
ڈار
ڈارون
ڈارک
ڈال
ڈالا
ڈالتا
ڈالتی
ڈالتے
ڈالر
ڈالنا
ڈالنے
ڈالٹن
ڈالی
ڈالیں
ڈالے
ڈان
ڈانس
ڈانسر
ڈاو
ڈاون
ڈاي
ڈاٹ
ڈاک
ڈاکخانہ
ڈاکو
ڈاکوو
ڈاکٹر
ڈاکٹروں
ڈاکٹریٹ
ڈاگ
ڈب
ڈبل
ڈبلز
ڈبلن
ڈبلیو
ڈبنگ
ڈبے
ڈر
ڈرا
ڈرافٹ
ڈراما
ڈراماي
ڈراموں
ڈرامہ
ڈرامے
ڈراونی
ڈراي
ڈراپ
ڈربن
ڈربی
ڈرتے
ڈرم
ڈرون
ڈرہم
ڈری
ڈریم
ڈریوڈ
ڈریک
ڈریگن
ڈز
ڈزنی
ڈس
ڈسٹرکٹ
ڈسٹرکٹس
ڈسپلے
ڈسک
ڈش
ڈلیوری
ڈن
ڈنمارک
ڈنمارکی
ڈنڈی
ڈنکن
ڈنگ
ڈو
ڈوب
ڈوبا
ڈوبنے
ڈور
ڈول
ڈولی
ڈوم
ڈوما
ڈومیسٹک
ڈومین
ڈومینیکا
ڈومینیکن
ڈون
ڈونلڈ
ڈونگ
ڈوور
ڈوي
ڈوپنگ
ڈوگرہ
ڈویلپمنٹ
ڈویژن
ڈویژنل
ڈویژنوں
ڈٹ
ڈپارٹمنٹ
ڈپریشن
ڈپلوما
ڈپلومہ
ڈپو
ڈپٹی
ڈچ
ڈچوں
ڈچی
ڈک
ڈکسن
ڈکشنری
ڈکنسن
ڈکوٹا
ڈکیتی
ڈگری
ڈگریاں
ڈگلس
ڈھال
ڈھالا
ڈھانپ
ڈھانچا
ڈھانچہ
ڈھانچے
ڈھاي
ڈھاکہ
ڈھل
ڈھلوان
ڈھول
ڈھونڈ
ڈھونڈنے
ڈھوک
ڈھکا
ڈھیر
ڈھیلے
ڈی
ڈیانا
ڈیاگو
ڈیبیو
ڈیتھ
ڈیجیٹل
ڈیر
ڈیرن
ڈیرک
ڈیرہ
ڈیری
ڈیرے
ڈیزاي
ڈیزل
ڈیس
ڈیسک
ڈیشن
ڈیفنس
ڈیل
ڈیلاس
ڈیلاویي
ڈیلٹا
ڈیلی
ڈیلیوری
ڈیم
ڈیموکریٹس
ڈیموکریٹک
ڈین
ڈینس
ڈینش
ڈینور
ڈینٹل
ڈینی
ڈینیل
ڈینیوب
ڈینیي
ڈیو
ڈیواي
ڈیورنڈ
ڈیوس
ڈیولز
ڈیولپمنٹ
ڈیون
ڈیوٹی
ڈیوڈ
ڈیوڈسن
ڈیوک
ڈیوی
ڈیویس
ڈیي
ڈیٹ
ڈیٹا
ڈیٹابیس
ڈیٹراي
ڈیٹن
ڈیٹنگ
ڈیپارٹمنٹ
ڈیڈ
ڈیڑھ
ڈیک
ڈیکسٹر
ڈیکلب
ڈیکیٹر
ڈیگو
ڈے
ڊ
ڏ
ڑ
ڑے
ژ
ژاں
ژجیانگ
ژو
ژوب
ژینگ
ڙ
ک
کا
کاا
کاایک
کابل
کابلی
کابینہ
کاتالونیا
کاتب
کاتھولک
کاج
کاجل
کاذب
کار
کارا
کاراباخ
کاران
کاربر
کاربری
کاربن
کارتک
کارخانہ
کارخانے
کاردار
کاررواي
کارل
کارلاي
کارلو
کارلوس
کارلٹن
کارمل
کارن
کارناموں
کارنامہ
کارنامے
کارنر
کارنیگی
کاروان
کارواي
کارواں
کاروبار
کاروباری
کاروں
کارٹر
کارٹون
کارپس
کارپوریشن
کارپوریٹ
کارڈ
کارڈف
کارکردگی
کارکن
کارکنان
کارکنوں
کارگر
کارگل
کارگو
کارہ
کاری
کاریوں
کاریگر
کاریگروں
کاریں
کاز
کازان
کاس
کاسا
کاستامونو
کاسترو
کاسٹ
کاسٹنگ
کاش
کاشان
کاشانی
کاشت
کاشتکار
کاشتکاروں
کاشتکاری
کاشغر
کاشف
کاشمیری
کاشی
کاظم
کاظمی
کاغذ
کاغذات
کاغذی
کافر
کافروں
کافور
کافی
کال
کالا
کالاباغ
کالاش
کالج
کالجز
کالجوں
کالر
کالعدم
کالم
کالموں
کالنگ
کالو
کالونی
کالونیاں
کالونیوں
کالوں
کالڈویل
کالہون
کالی
کالیکٹ
کالے
کام
کامبریا
کامبیٹ
کامران
کامرس
کامل
کامن
کامنز
کاموں
کامپٹن
کامک
کامکس
کامیاب
کامیابی
کامیابیاں
کامیابیوں
کامیڈی
کان
کانام
کاناگاوا
کانت
کانتی
کاندھلوی
کانسی
کانفرنس
کانفرنسوں
کانونٹ
کانوں
کانٹے
کانپور
کانگ
کانگرس
کانگریس
کانگریسی
کانگو
کانیں
کاو
کاوش
کاوشوں
کاوشیں
کاولی
کاي
کاٹ
کاٹا
کاٹن
کاٹنا
کاٹنے
کاٹے
کاپٹر
کاپٹروں
کاپی
کاپیاں
کاک
کاکا
کاکس
کاکڑ
کاکیشین
کاہن
کب
کباب
کبار
کبری
کبوتر
کبڈی
کبھار
کبھی
کبیر
کبیرہ
کتا
کتاب
کتابت
کتابوں
کتابچہ
کتابچے
کتابی
کتابیات
کتابیں
کتب
کتبہ
کتبے
کتنا
کتنی
کتنے
کتوں
کتھا
کتے
کثافت
کثرت
کثیر
کثیف
کدہ
کذاب
کر
کرا
کراتے
کرادیا
کراس
کراسنگ
کرافورڈ
کرافٹ
کرام
کرامات
کرامت
کران
کرانا
کرانی
کرانے
کراو
کراي
کراٹیکا
کراٹے
کراچی
کرایا
کرایہ
کرب
کربلا
کربلاي
کرتا
کرتار
کرتاہے
کرتی
کرتیں
کرتے
کرد
کردار
کرداروں
کردستان
کردو
کردوں
کردي
کردہ
کردی
کردیا
کردیتا
کردیتی
کردیتے
کردینا
کردینے
کردیي
کردیں
کردیے
کردے
کررہا
کررہی
کررہے
کرزي
کرس
کرسمس
کرسٹل
کرسٹن
کرسٹوفر
کرسٹی
کرسٹینا
کرسچن
کرسچین
کرسکا
کرسکتا
کرسکتی
کرسکتے
کرسکیں
کرسکے
کرسی
کرشمہ
کرشن
کرشنا
کرشنن
کرغزستان
کرغزستانی
کرغیز
کرغیزستان
کرفیو
کرلي
کرلی
کرلیا
کرلیتا
کرلیتے
کرلیں
کرلیے
کرلے
کرم
کرمان
کرمانشاہ
کرمانی
کرن
کرنا
کرنال
کرناٹک
کرنسی
کرنسیاں
کرنسیوں
کرنل
کرنول
کرنٹ
کرنی
کرنے
کرو
کروا
کرواتے
کروانا
کروانے
کرواي
کروایا
کروز
کروزر
کروشیا
کروشیاي
کروشین
کروفٹ
کرونا
کرونیشیا
کرونیکل
کروي
کروٹ
کروڑ
کروڑوں
کروں
کرویي
کرپشن
کرپٹو
کرچکا
کرچکی
کرچکے
کرک
کرکٹ
کرکٹر
کرکٹرز
کرکے
کرگ
کرگي
کرگیا
کرہ
کری
کریز
کریسنٹ
کریم
کریملن
کریمہ
کریمیا
کریمیاي
کریمین
کرین
کریي
کریٹ
کریڈٹ
کریک
کریگ
کریں
کرے
کزن
کس
کساد
کسان
کسانوں
کساي
کسب
کسر
کسری
کسفرڈ
کسفورڈ
کسوٹی
کسٹم
کسی
کسیجن
کسے
کش
کشادہ
کشان
کشاي
کشتہ
کشتی
کشتیاں
کشتیوں
کشش
کشف
کشمکش
کشمیر
کشمیری
کشمیریوں
کشن
کشور
کشوں
کشی
کشیدگی
کشیدہ
کعب
کعبہ
کف
کفار
کفارہ
کفالت
کفایت
کفر
کفن
کفیل
کل
کلا
کلاب
کلارا
کلارک
کلاس
کلاسز
کلاسوں
کلاسک
کلاسیکل
کلاسیکی
کلام
کلامی
کلانگ
کلاو
کلاي
کلاں
کلب
کلبوں
کلبی
کلثوم
کلر
کلرک
کلف
کلفٹن
کلمات
کلمہ
کلنٹن
کلنگ
کلو
کلومیٹر
کلوگرام
کلي
کلپس
کلچر
کلچرل
کلک
کلکتہ
کلکرنی
کلکٹر
کلہوڑا
کلہوڑو
کلی
کلیات
کلیان
کلید
کلیدی
کلیر
کلیسا
کلیسیا
کلیسیاي
کلیم
کلیمنٹ
کلین
کلینڈ
کلینک
کلینی
کلیولینڈ
کلیي
کلیٹن
کلیہ
کلے
کم
کما
کمار
کماری
کمال
کمالات
کمان
کمانڈ
کمانڈر
کمانڈروں
کمانڈو
کمانے
کماي
کمایا
کمباي
کمبرلینڈ
کمبل
کمبلے
کمبوڈیا
کمبوڈیاي
کمبوہ
کمتر
کمر
کمرشل
کمروں
کمرہ
کمرے
کمزور
کمزوری
کمسن
کمشنر
کمل
کملا
کمنٹری
کمنٹیٹر
کمونے
کمپلیکس
کمپنی
کمپنیاں
کمپنیوں
کمپوز
کمپوزر
کمپیوٹر
کمپیوٹرز
کمپیوٹنگ
کمک
کمی
کمیت
کمیشن
کمیون
کمیونزم
کمیونسٹ
کمیونسٹوں
کمیونل
کمیونٹی
کمیونٹیز
کمیونیکیشن
کمیٹی
کمیٹیاں
کمیٹیوں
کن
کنار
کناروں
کنارہ
کناری
کنارے
کنال
کنانہ
کناڈا
کنبہ
کنبے
کند
کندھوں
کندھے
کندہ
کندی
کنز
کنزرویٹو
کنساس
کنسرٹ
کنسلٹنٹ
کنعان
کنفیوشس
کنفیڈریشن
کنندگان
کنندہ
کنو
کنواری
کنواں
کنور
کنول
کنونشن
کنوي
کنویں
کنٹرول
کنٹرولر
کنٹری
کنٹریکٹ
کنڈ
کنڈی
کنڑ
کنڑا
کنکریٹ
کنکشن
کنگ
کنگز
کنگسٹن
کنگمین
کنگڈم
کنہیا
کنی
کنیت
کنید
کنیز
کنیست
کنیسہ
کنیکٹیکٹ
که
کو
کوا
کوارٹر
کواس
کوالا
کوالالمپور
کوالیفاي
کوان
کوانٹم
کواي
کوبھی
کوت
کوتاہی
کوثر
کود
کور
کورس
کورسز
کورش
کورل
کورنگی
کورونا
کورٹ
کورٹس
کورک
کوری
کوریا
کوریاي
کوریج
کورین
کوس
کوسوو
کوسووہ
کوسٹ
کوسٹا
کوسٹاریکا
کوش
کوشاں
کوشش
کوششوں
کوششیں
کوفہ
کوفی
کوفیوں
کول
کولا
کولم
کولمبس
کولمبو
کولمبیا
کولمبیاي
کولن
کولنز
کولوراڈو
کولون
کولٹس
کولکاتا
کولکاتہ
کولکتہ
کولی
کوم
کومیلا
کون
کونسل
کونسلر
کونسلز
کونسلوں
کونسلیں
کونسی
کونوں
کونکورڈ
کونے
کوو
کووڈ
کوي
کوٹ
کوٹا
کوٹری
کوٹلہ
کوٹلی
کوٹھی
کوٹہ
کوٹی
کوپر
کوپن
کوچ
کوچنگ
کوچک
کوچہ
کوچی
کوڈ
کوڑا
کوڑے
کوک
کوکا
کوکب
کوکو
کوہ
کوہاٹ
کوہستان
کوہستانی
کوہلی
کوہن
کوہیما
کویت
کویتا
کویتی
کى
کي
کيا
کٹ
کٹا
کٹاو
کٹاي
کٹر
کٹک
کٹھ
کٹی
کٹے
کپ
کپاس
کپتان
کپتانوں
کپتانی
کپل
کپور
کپڑا
کپڑوں
کپڑے
کچا
کچرے
کچل
کچلنے
کچھ
کچھی
کچی
کچے
کڈپہ
کڑھاي
کڑی
کک
کھ
کھا
کھاتا
کھاتوں
کھاتہ
کھاتی
کھاتے
کھاد
کھال
کھانا
کھانسی
کھانوں
کھانے
کھاو
کھاي
کھایا
کھتری
کھجور
کھداي
کھر
کھرل
کھل
کھلا
کھلاڑی
کھلاڑیوں
کھلایا
کھلتا
کھلم
کھلنا
کھلنے
کھلونا
کھلونے
کھلی
کھلے
کھنڈ
کھنڈر
کھنڈرات
کھنہ
کھو
کھوار
کھوج
کھود
کھودنے
کھوسہ
کھول
کھولا
کھولنے
کھولی
کھولے
کھونے
کھوي
کھوپڑی
کھوکھر
کھویا
کھٹمنڈو
کھپت
کھڑا
کھڑکی
کھڑکیاں
کھڑکیوں
کھڑی
کھڑے
کھیت
کھیتوں
کھیتی
کھیر
کھیل
کھیلا
کھیلتا
کھیلتی
کھیلتے
کھیلنا
کھیلنے
کھیلوں
کھیلی
کھیلیں
کھیلے
کھینچ
کھینچا
کھینچنے
کھینچی
کھیپ
کہ
کہا
کہاجاتا
کہانی
کہانیاں
کہانیوں
کہاں
کہتا
کہتی
کہتے
کہف
کہلا
کہلاتا
کہلاتی
کہلاتے
کہلانے
کہلاي
کہلایا
کہنا
کہنہ
کہنے
کہو
کہوٹہ
کہوں
کہکشاں
کہگیلویہ
کہہ
کہی
کہیں
کہے
کی
کیا
کیااور
کیانی
کیاہے
کیبل
کیتھ
کیتھرین
کیتھولک
کیتھولکیت
کیتھیڈرل
کیجي
کیجیے
کیخلاف
کیر
کیرالا
کیرالہ
کیرانوی
کیرل
کیرلا
کیرن
کیرول
کیرولاي
کیرولینا
کیري
کیری
کیریباتی
کیریبین
کیرینیہ
کیریي
کیس
کیسا
کیساتھ
کیسل
کیسٹر
کیسپین
کیسی
کیسے
کیش
کیشن
کیشنز
کیف
کیفر
کیفی
کیفیات
کیفیت
کیفے
کیل
کیلا
کیلاش
کیلس
کیلشیم
کیلنڈر
کیلومیٹر
کیلون
کیلي
کیلگری
کیلی
کیلیفورنیا
کیلیڈونیا
کیلیے
کیلے
کیمبرج
کیمبل
کیمرا
کیمرون
کیمرونی
کیمرے
کیمسٹری
کیمپ
کیمپس
کیمپوں
کیمڈن
کیمیا
کیمیاء
کیمیاي
کیمین
کیمیکل
کین
کینال
کینبرا
کینتھ
کینز
کینزنگٹن
کینسر
کینن
کینٹ
کینٹربری
کینٹن
کینٹکی
کینڈا
کینڈل
کینڈی
کینیا
کینیاي
کینیڈا
کینیڈی
کینیڈین
کیو
کیوبا
کیوبک
کیوبیک
کیوجہ
کیوراساو
کیوری
کیولری
کیولیي
کیون
کیونکر
کیونکہ
کیوں
کیوی
کیي
کیٹ
کیٹز
کیٹی
کیپ
کیپر
کیپس
کیپشن
کیپلر
کیپنگ
کیپٹل
کیپٹن
کیپیٹل
کیچ
کیچز
کیچڑ
کیڈٹ
کیڑوں
کیڑے
کیک
کیں
کییف
کیے
کے
کےلي
کےلیے
ڪ
گ
گا
گاتی
گاتے
گاجر
گار
گارفیلڈ
گارڈ
گارڈز
گارڈن
گارڈنر
گارڈنز
گارڈین
گال
گالفر
گالی
گاما
گامزن
گان
گانا
گاندھی
گانسو
گانوں
گانے
گاه
گاو
گاوں
گاي
گاڈ
گاڑی
گاڑیاں
گاڑیوں
گاہ
گاہوں
گاہک
گاہکوں
گاہی
گاہیں
گاہے
گایا
گبز
گبسن
گبول
گجر
گجرات
گجراتی
گدھا
گدھے
گدی
گذر
گذرا
گذرتا
گذرنے
گذری
گذرے
گذشتہ
گر
گرا
گراس
گراف
گرافٹن
گرافک
گرافکس
گرافی
گرام
گرامر
گرامی
گرانٹ
گرانڈ
گرانڈے
گرانے
گراو
گراي
گراڈ
گراں
گراہم
گرایا
گرتا
گرتی
گرتے
گرج
گرجا
گرجاگھر
گرد
گردان
گردانا
گردانتے
گردانہ
گردش
گردن
گردوارہ
گردونواح
گردوں
گردی
گردیزی
گردے
گرفت
گرفتار
گرفتاری
گرفتاریاں
گرفتاریوں
گرل
گرلز
گرم
گرما
گرماي
گرمی
گرمین
گرمیوں
گرنتھ
گرنزی
گرنے
گرو
گروزنی
گرونڈی
گروو
گروپ
گروپس
گروپوں
گروہ
گروہوں
گروہی
گرچہ
گرڈ
گرہ
گرہن
گری
گریجویشن
گریجویٹ
گریز
گریزاں
گریس
گریم
گریمی
گرین
گریناڈا
گریناڈاي
گرینویل
گرینچ
گرینڈ
گریٹ
گریٹر
گریڈ
گریکولینڈ
گریگ
گریگوری
گریہ
گرے
گز
گزار
گزارا
گزارتے
گزارش
گزارنے
گزاری
گزارے
گزر
گزرا
گزرتا
گزرتی
گزرتے
گزرنا
گزرنے
گزرگاہ
گزری
گزرے
گزشتہ
گزٹ
گزین
گزینوں
گستاخ
گستاخی
گسٹا
گشت
گفت
گفتار
گفتگو
گل
گلا
گلاب
گلابی
گلاس
گلاسگو
گلبرٹ
گلبرگ
گلبرگہ
گلدستہ
گلزار
گلستان
گلشن
گلف
گلو
گلوب
گلوبل
گلوریا
گلوسٹر
گلوسٹرشاي
گلوکار
گلوکاراي
گلوکاروں
گلوکارہ
گلوکاری
گلڈ
گلکرسٹ
گلگت
گلہ
گلی
گلیشیر
گلیل
گلیمورگن
گلین
گلیوں
گلیڈی
گلے
گم
گمان
گمراہ
گمراہی
گمشدہ
گمنا
گمنام
گن
گنا
گناہ
گناہوں
گنبد
گنبدوں
گنت
گنتی
گنج
گنجان
گنجاي
گندم
گندگی
گندھارا
گندھک
گنوا
گنڈا
گنگ
گنگا
گنگولی
گنگوہی
گنی
گنیز
گنیش
گنے
گو
گوا
گواتیمالا
گواتیمالاي
گوادر
گوارا
گواسکر
گوالیار
گوام
گوانگشی
گوانگڈونگ
گوانگژو
گواڈیلوپ
گواہ
گواہوں
گواہی
گوبند
گوت
گوتم
گوتھک
گوجر
گوجرانوالہ
گوجرخان
گوجرہ
گوجری
گود
گودام
گوداوری
گور
گورا
گورباچوف
گورنر
گورنرز
گورنروں
گورنری
گورنریٹ
گورنمنٹ
گورننگ
گورو
گوروں
گورڈن
گورکھپور
گورکھپوری
گوری
گوریلا
گورے
گوسوامی
گوش
گوشت
گوشہ
گوشے
گول
گولف
گولڈ
گولڈن
گولڑہ
گولکنڈہ
گولہ
گولی
گولیاں
گولیوں
گولے
گومل
گونج
گوندل
گونگ
گووند
گوي
گوٹھ
گوپال
گوپی
گوڈارڈ
گوکہ
گوگل
گوہاٹی
گوہر
گویا
گي
گيا
گٹار
گپت
گپتا
گچھ
گڈ
گڑ
گڑھ
گڑھا
گڑھوال
گڑھی
گڑھے
گڑیا
گکھڑ
گھات
گھاس
گھانا
گھاناي
گھاٹ
گھاٹی
گھبرا
گھبراہٹ
گھر
گھرا
گھرانوں
گھرانہ
گھرانے
گھروں
گھریلو
گھس
گھل
گھنٹوں
گھنٹہ
گھنٹی
گھنٹے
گھنے
گھوش
گھوم
گھومتا
گھومتی
گھومتے
گھومنے
گھوٹکی
گھوڑا
گھوڑوں
گھوڑے
گھٹ
گھٹنوں
گھٹنے
گھٹیا
گھڑ
گھڑت
گھڑسوار
گھڑی
گھی
گھیر
گھیراو
گھیرے
گہرا
گہراي
گہری
گہرے
گہوارہ
گہی
گی
گیا
گیارہ
گیارہویں
گیان
گیانا
گیاناي
گیانی
گیاہے
گیبون
گیبونی
گیت
گیتا
گیتوں
گیج
گیر
گیروں
گیری
گیریژن
گیس
گیسوں
گیسٹ
گیل
گیلان
گیلانی
گیلری
گیلریاں
گیلن
گیلی
گیم
گیمبیا
گیمز
گیمنگ
گیند
گیندوں
گیندیں
گینگ
گیورگس
گیي
گیٹ
گیٹس
گے
ں
ھ
ھا
ھجری
ھر
ھو
ھوا
ھوي
ھے
ہ
ہا
ہاتھ
ہاتھوں
ہاتھی
ہاتھیوں
ہاتے
ہاجرہ
ہادی
ہار
ہارا
ہاربر
ہارس
ہارن
ہارنے
ہارورڈ
ہارون
ہاروی
ہاروے
ہارٹ
ہارٹفورڈ
ہارپر
ہارڈ
ہارڈن
ہارڈنگ
ہارڈی
ہاری
ہارے
ہاسن
ہاسٹل
ہاسپٹل
ہاشم
ہاشمی
ہاف
ہال
ہالٹ
ہالہ
ہالی
ہالینڈ
ہان
ہانگ
ہانی
ہاو
ہاور
ہاورڈ
ہاوس
ہاي
ہاٹ
ہاپ
ہاک
ہاکس
ہاکی
ہاں
ہبل
ہبوط
ہتھیار
ہتھیاروں
ہجر
ہجرت
ہجری
ہجو
ہجوم
ہجومی
ہجے
ہخامنشی
ہدایات
ہدایت
ہدایتکار
ہدایتکاری
ہدایہ
ہدف
ہدیہ
ہذا
ہر
ہرا
ہرات
ہرارے
ہراس
ہراسانی
ہراساں
ہربرٹ
ہرزیگووینا
ہرزیگوینا
ہرزیگویناي
ہرسٹ
ہرش
ہرقل
ہرمز
ہرمزگان
ہرمن
ہرمندر
ہرن
ہرٹز
ہرگز
ہری
ہریانوی
ہریانہ
ہریرہ
ہریش
ہریکینز
ہرے
ہزار
ہزاروں
ہزاروی
ہزارہ
ہزاری
ہزارے
ہستہ
ہستی
ہستیوں
ہسٹری
ہسپانوی
ہسپانویوں
ہسپانیہ
ہسپتال
ہسپتالوں
ہسی
ہشام
ہشت
ہشتم
ہضم
ہفت
ہفتم
ہفتوں
ہفتہ
ہفتے
ہل
ہلا
ہلال
ہلاک
ہلاکت
ہلاکتوں
ہلاکتیں
ہلاکو
ہلز
ہلزڈیل
ہلمند
ہلچل
ہلکا
ہلکی
ہلکے
ہلیری
ہم
ہما
ہمارا
ہماری
ہمارے
ہمالیہ
ہمام
ہماچل
ہمایوں
ہمبولٹ
ہمت
ہمدان
ہمدانی
ہمدرد
ہمدردی
ہمراہ
ہمرکاب
ہمزہ
ہمسایہ
ہمسر
ہمشیرہ
ہموار
ہمکنار
ہمہ
ہمیشہ
ہمیں
ہن
ہند
ہندستان
ہندسہ
ہندسی
ہندسیات
ہندسیاتی
ہندسے
ہندو
ہندوستان
ہندوستانی
ہندوستانیوں
ہندومت
ہندوو
ہندوکش
ہندکو
ہندی
ہنر
ہنری
ہنزہ
ہنس
ہنسی
ہنور
ہنوز
ہنومان
ہنوں
ہنٹ
ہنٹر
ہنٹنگٹن
ہنڈریڈ
ہنگ
ہنگاموں
ہنگامہ
ہنگامی
ہنگامے
ہنگری
ہنگو
ہنگی
ہنی
ہو
ہوا
ہواباز
ہوابازی
ہوانا
ہواو
ہواي
ہوبارٹ
ہوبي
ہوتا
ہوتاہے
ہوتو
ہوتی
ہوتیں
ہوتے
ہوجاتا
ہوجاتی
ہوجاتے
ہوجانا
ہوجانے
ہوجاو
ہوجاي
ہور
ہورہا
ہورہی
ہوزے
ہوس
ہوسٹنگ
ہوسکا
ہوسکتا
ہوسکتی
ہوسکتے
ہوسکیں
ہوسکے
ہوش
ہوشنگ
ہوشیار
ہول
ہولمز
ہولناک
ہولوکاسٹ
ہولڈر
ہولڈنگ
ہولکر
ہولی
ہوم
ہومز
ہومیوپیتھی
ہون
ہونا
ہونان
ہونولولو
ہونٹوں
ہونڈوراس
ہونڈوراسی
ہونگے
ہونہار
ہونی
ہونے
ہوو
ہووارڈ
ہوي
ہوٹل
ہوٹلوں
ہوپ
ہوچکا
ہوچکی
ہوچکے
ہوکر
ہوگا
ہوگي
ہوگی
ہوگیا
ہوں
ہوے
ہي
ہيں
ہٹ
ہٹا
ہٹانے
ہٹاي
ہٹایا
ہٹلر
ہٹن
ہٹنا
ہٹنے
ہپ
ہچکچاہٹ
ہچکی
ہڈ
ہڈسن
ہڈی
ہڈیاں
ہڈیوں
ہڑتال
ہڑتالوں
ہڑپہ
ہک
ہی
ہیات
ہیبت
ہیبس
ہیبسبرگ
ہیبي
ہیتھ
ہیجان
ہیر
ہیرا
ہیرالڈ
ہیرس
ہیرو
ہیروز
ہیروشیما
ہیروي
ہیری
ہیریسن
ہیرے
ہیز
ہیسٹنگز
ہیل
ہیلتھ
ہیلسنکی
ہیلمٹ
ہیلن
ہیلونگجیانگ
ہیلپ
ہیلی
ہیم
ہیمبرگ
ہیمرسمتھ
ہیملٹس
ہیملٹن
ہیمپشاي
ہیمپٹن
ہین
ہینان
ہینری
ہینڈ
ہینڈرسن
ہینکوک
ہیو
ہیوران
ہیوز
ہیوسٹن
ہیومن
ہیون
ہیوگو
ہیوی
ہیي
ہیٹ
ہیٹی
ہیپاٹاي
ہیپلو
ہیپی
ہیڈ
ہیڈلبرگ
ہیڈلی
ہیڈن
ہیڈنگلے
ہیڈکوارٹر
ہیکل
ہیکنی
ہیکٹر
ہیگ
ہیگن
ہیں
ہے
ہےاور
ہےـ
ہےکہ
ۃ
ی
یا
یاب
یابی
یات
یاترا
یاجوج
یاد
یاداشت
یادداشت
یادداشتوں
یادو
یادوں
یادگار
یادگاروں
یادگاری
یادگاریں
یادیں
یار
یارا
یارڈ
یارک
یارکشاي
یاس
یاسر
یاسمین
یاسین
یافا
یافتگان
یافتہ
یاقوت
یان
یانگ
یاو
یاي
یاں
یاہو
یت
یتاما
یتوں
یتی
یتیم
یتیموں
یتیں
یثرب
یجان
یجانی
یجر
یجیریا
یحی
یحیی
ید
یداد
یدار
یدہ
یدین
یر
یرز
یرغمال
یرلاي
یرموک
یرمیاہ
یرمین
یروشلم
یرویز
یرپورٹ
یری
یریوان
یز
یزد
یزدانی
یزدی
یزو
یزید
یزیدی
یس
یسار
یسعیاہ
یسوع
یسوں
یسویں
یش
یشیا
یشیاي
یعقوب
یعقوبی
یعلی
یعنی
یف
یفا
یقین
یقینا
یقینی
یل
یلاگ
یلغار
یلو
یلی
یلیوں
یم
یمامہ
یمان
یمانی
یمن
یمنی
یمی
ین
ینا
ینز
ینس
ینگ
ینہ
ینی
ینے
یه
یو
یوا
یوان
یوانی
یوتھ
یوجین
یوحنا
یور
یورال
یوراگوي
یورو
یوروپ
یوروپی
یورپ
یورپی
یورپین
یورپیوں
یوری
یوریشیا
یورینس
یورینیم
یورینیي
یوز
یوزر
یوس
یوسف
یوسفزي
یوسفی
یول
یوم
یومنگ
یومیہ
یون
یونان
یونانی
یونانیوں
یوناي
یونس
یوننان
یونٹ
یونٹس
یونٹوں
یونگ
یونہی
یونی
یونیسکو
یونیفارم
یونین
یونینوں
یونیورس
یونیورسل
یونیورسٹی
یونیورسٹیاں
یونیورسٹیز
یونیورسٹیوں
یونیکوڈ
یوو
یووا
یوي
یوٹ
یوٹاہ
یوٹیوب
یوپی
یوکراي
یوکرین
یوکرینی
یوکون
یوکوہاما
یوکے
یوگ
یوگا
یوگنڈا
یوگنڈاي
یوگوسلاو
یوگوسلاوی
یوگوسلاویہ
یوگی
یوں
یویٹ
یي
یٹ
یٹس
یٹڈ
یڈ
یڈا
یڈر
یڈرز
یڈرو
یڈروجن
یڈز
یڈن
یڈو
یڈیل
یژو
یک
یکا
یکاٹ
یکای
یکتا
یکجا
یکجہتی
یکر
یکرز
یکرو
یکروسافٹ
یکسانی
یکساں
یکسر
یکطرفہ
یکل
یکلسٹ
یکلنگ
یکلو
یکلوپیڈیا
یکم
یکو
یکہ
یکی
یکے
یگ
یگا
یگانہ
یگر
یگرز
یگی
یگیوں
یں
یہ
یہاں
یہود
یہودا
یہوداہ
یہودی
یہودیت
یہودیوں
یہودیہ
یہی
یہیں
یۃ
یی
ییل
یے
ې
ے
۔
ۖ
ۗ
ۙ
ۚ
۞
ۡ
ۢ
ۤ
۰
۱
۱۰
۱۱
۱۲
۱۳
۲
۲۰
۳
۴
۵
۶
۷
۸
۹
۽
۾
܂
ݨ
ނ
އ
ވ
ތ
ަ
ި
ު
ެ
ް
ँ
ं
ः
अ
आ
आण
इ
इट
इन
ई
ए
एक
ऐ
ऑफ
ऑस
ओ
और
क
ख
ग
घ
च
छ
ज
झ
ञ
ट
ठ
ड
डस
ढ
ण
त
थ
द
ध
न
प
पर
फ
ब
बर
भ
म
य
र
ल
व
श
शन
ष
स
ह
़
ा
ि
ी
ु
ू
ृ
े
ै
ॉ
ो
ौ
्
।
१
२
॰
ঁ
ং
ক
খ
গ
চ
জ
ট
ড
ত
দ
ধ
ন
প
ফ
ব
ভ
ম
য
র
ল
শ
ষ
স
হ
়
া
ি
ী
ু
ূ
ে
্
ਂ
ਆ
ਕ
ਗ
ਜ
ਤ
ਦ
ਨ
ਪ
ਬ
ਮ
ਰ
ਲ
ਵ
ਸ
ਹ
਼
ਾ
ਿ
ੀ
ੁ
ੂ
ੇ
ੈ
ੋ
੍
ੰ
ੱ
ં
એ
ક
ખ
ગ
ચ
છ
જ
ટ
ડ
ઢ
ત
થ
દ
ધ
ન
પ
બ
મ
ય
ર
લ
વ
શ
સ
હ
ા
િ
ી
ુ
ે
ો
્
କ
ଗ
ଚ
ଛ
ଞ
ତ
ଦ
ପ
ବ
ମ
ର
ଶ
ସ
ା
ି
ୀ
ୁ
େ
୍
க
ச
ட
த
ந
ன
ப
ம
ய
ர
வ
ா
ி
ு
ெ
ே
ை
்
ం
అహ
క
ఖ
త
ద
న
మ
మద
ర
ల
స
ా
ి
ు
ూ
ె
్
ಂ
ಟ
ತ
ನ
ಪ
ಲ
ಾ
ಿ
ು
ೆ
್
ೕ
ം
ക
ച
ട
ത
ന
പ
മ
യ
ര
റ
ല
വ
സ
ാ
ി
ു
െ
േ
്
ක
ල
ස
්
ා
ැ
ි
ෙ
ั
ิ
ี
ุ
ู
่
้
་
ང
ར
ོ
틀
ទ
ព
រ
ូ
ំ
័
្
ᵑ
​
‌
‍
‎
‏
‐
‑
‒
–
—
‘
’
“
”
„
†
•
․
…
‬
′
″
›
⁄
€
₹
№
←
↑
→
↔
↷
⇦
⇽
−
∗
√
≈
≤
≥
③
④
⑦
─
│
■
◄
◌
●
☀
☃
☆
☪
☺
♥
♦
⺀
⺄
⺆
⺈
⺊
⺌
⺕
⺝
⺸
⺼
⿰
⿱
⿲
⿳
⿴
⿵
⿶
⿷
⿸
⿹
⿺
⿻
《
》
〢
と
の
゙
゚
ア
ィ
イ
ウ
ェ
エ
カ
キ
ク
コ
サ
シ
ス
タ
チ
ッ
テ
ト
ニ
ハ
ヒ
フ
ヘ
ホ
マ
モ
ュ
ユ
ラ
リ
ル
ロ
ン
・
ー
㇁
㇂
㇄
㇇
㇈
㇉
㇓
㐁
㐄
㐅
㐌
㐫
㐬
㐭
㐮
㐱
㑒
㒵
㒸
㒼
㓁
㓞
㔾
㕛
㕣
㖾
㘝
㚅
㚇
㚔
㚘
㝉
㝡
㝴
㝵
㞋
㞢
㞷
㠩
㠭
㠯
㡀
㡭
㡿
㢲
㢴
㣇
㣺
㥯
㪅
㫄
㫐
㫒
㫺
㬅
㬎
㬥
㬰
㲋
㳄
㷠
㸒
㸚
㸦
㼌
㼲
㽞
㿟
䀠
䂞
䍃
䏍
䒑
䖍
䖒
䖝
䖵
䙴
䚻
䜌
䝿
䡛
䧹
䪞
一
丁
丂
七
丄
丅
丆
万
丈
三
上
下
丌
不
与
丏
丐
丑
专
且
丕
世
丘
丙
业
东
丞
丢
丣
两
严
並
丨
丩
个
丫
丬
中
丮
丰
丱
串
丵
丶
丷
丸
丹
为
主
丽
丿
乀
乂
乃
久
乆
乇
么
义
之
乌
乍
乎
乏
乐
乑
乔
乖
乗
乘
乙
乚
乛
乜
九
乞
也
习
乡
乳
乾
亀
亅
了
亇
予
争
事
二
亍
于
亏
亐
云
互
亓
五
井
亘
亚
亜
亞
亟
亠
亡
亢
交
亥
亦
产
亨
亩
享
京
亭
亮
亯
亰
亲
亳
亶
亷
人
亻
亼
亾
仁
今
介
仌
从
仐
仑
仒
仓
仕
他
付
仝
代
令
以
任
企
伊
伏
伐
休
会
伯
但
位
何
佘
余
作
佥
使
來
侈
侌
侖
侯
侵
便
保
俞
信
修
倉
倍
候
倠
備
僉
僕
儿
兀
允
兂
元
兄
充
兆
兇
先
光
兊
克
兌
免
兑
兒
兓
兔
党
兜
兟
入
全
兩
兪
八
公
六
兮
兰
共
关
兵
其
具
典
兹
兼
冀
冂
冃
冄
内
冈
冉
冊
冋
册
再
冎
冏
冐
冒
冓
冖
冗
冘
军
农
冝
冡
冥
冫
冬
冷
几
凡
凢
凵
凶
凷
凸
凹
出
函
凾
刀
刁
刂
刃
刄
刅
分
切
刍
刑
刕
刖
列
刘
则
初
別
利
别
到
制
刺
則
削
剌
前
剡
剽
劉
力
功
加
劦
助
劫
劳
劵
勃
勇
勉
勒
動
務
勞
勤
勹
勺
勻
勾
勿
匀
匂
包
匆
匈
匊
匋
匍
匕
化
北
匚
匝
匡
匪
匱
匸
匹
区
医
匽
匿
區
十
卂
千
卄
卅
卆
升
午
卉
半
卌
华
卑
卒
卓
单
卖
南
卜
卝
卞
占
卡
卢
卣
卤
卦
卩
卪
卬
卯
印
危
即
却
卵
卷
卸
卻
厂
厃
厄
历
厈
厉
厌
厓
厘
厚
原
厤
厥
厨
厭
厲
厶
厷
厸
去
厼
厽
叀
参
參
叅
又
叉
及
友
双
反
叐
发
叒
叔
叕
取
受
叚
叜
叟
口
古
句
另
叩
只
召
可
台
叱
史
右
叵
号
司
叹
吂
各
吅
合
吉
吊
吋
同
名
后
吏
向
吕
君
吝
吞
否
含
启
吳
吴
吹
吾
呂
呆
呈
告
员
呙
周
命
咅
和
咎
咠
咢
咨
咸
咼
哀
品
哉
員
哥
哲
唐
商
啇
問
啚
啬
啻
善
喜
喬
單
喿
嗇
噩
嚴
囊
囗
囘
囙
囚
四
回
囟
因
囧
囬
困
囱
囷
固
国
圂
圅
國
圍
圓
土
圡
圣
圥
在
圭
地
圶
圼
坐
坒
坚
坴
垂
垔
垚
埀
埋
埶
執
基
堂
堅
堆
堇
堯
塞
墨
壘
士
壬
壯
声
壳
壴
壹
壺
壽
夂
处
夅
夆
备
夊
夋
夌
复
夏
夒
夕
外
夗
夘
多
夜
夢
大
夨
天
太
夫
夬
夭
央
失
夲
头
夷
夸
夹
夻
夾
奂
奄
奇
奈
奉
奎
奏
奐
契
奓
奔
奚
奞
奠
奢
奥
奭
女
奴
奻
好
如
妄
妙
妟
妥
妻
妾
姑
委
姜
威
娄
婁
婴
嬰
嬴
子
孑
孔
孕
孖
字
存
孚
孛
孝
孟
季
孤
学
孫
孱
學
宀
宁
宂
它
宅
宇
守
安
宋
完
宏
宓
宗
官
定
宛
宜
宝
客
宣
室
宮
宰
害
家
容
宾
宿
寄
寅
密
富
寒
察
寧
審
寫
寬
寮
寸
对
寺
寻
寽
対
寿
封
尃
射
将
將
專
尉
尊
尋
尌
對
小
少
尒
尓
尔
尖
尗
尚
尞
尢
尣
尤
尧
尨
尭
就
尸
尹
尺
尻
尼
尽
尾
尿
局
居
屈
屋
屎
屏
屑
展
屖
屚
属
屠
屡
屬
屮
屯
屰
山
屵
屾
岁
岂
岑
岡
岩
岳
岸
峯
島
崇
崑
崔
崖
崙
崩
嵬
嶲
巂
巛
川
州
巟
巠
巢
巤
工
左
巧
巨
巩
巫
差
己
已
巳
巴
巷
巸
巽
巾
巿
帀
市
布
希
帚
帛
帝
带
師
席
帶
常
干
平
年
幵
并
幷
幸
幺
幻
幼
幽
幾
广
広
庄
床
底
店
庚
府
度
庫
庭
庶
康
庸
廉
廌
廛
廣
廩
廴
延
廷
建
廾
廿
开
弁
弃
弄
弇
弋
式
弓
弔
引
弗
弘
弜
弟
弥
弦
弱
張
強
强
彊
彌
彎
彐
彑
当
彔
录
彖
彗
彡
形
彥
彦
彧
彭
彳
役
彼
往
待
律
徒
得
徙
從
復
微
徵
心
忄
必
忌
忍
志
忝
忠
忩
快
念
忽
忿
思
怠
急
怱
恆
恒
恩
恭
息
悉
患
悤
悲
悶
惠
惡
惢
愁
愈
意
愛
感
慈
慧
慮
憂
憲
應
戀
戈
戉
戊
戋
戌
戍
戎
成
我
戒
戔
或
戚
戠
戢
截
戲
戶
户
戹
戼
戾
房
所
扁
扇
手
扌
才
打
托
执
承
折
拉
拜
拿
掌
推
提
摩
支
攴
攵
收
攸
改
放
政
敄
敏
敕
敖
敗
敝
敞
敢
散
敦
敫
敬
数
敷
數
斂
文
斉
斊
斗
斤
斥
斩
斬
斯
新
方
於
施
斿
旁
旋
族
无
旡
既
旣
日
旦
旧
旨
早
旬
旱
旲
时
旾
昆
昇
昌
昍
明
昏
易
昔
昗
昜
星
春
昬
是
昱
昴
昷
時
晃
晋
晏
普
景
晶
智
暑
暴
曇
曩
曰
曲
曳
更
曷
書
曹
曼
曾
替
最
朁
會
月
有
朋
服
朔
朕
朗
望
朝
木
朩
未
末
本
札
朮
术
朱
朵
朶
朿
杀
杏
杜
束
条
来
東
杲
杳
松
析
林
枚
果
枝
枲
枼
某
柔
查
柬
柰
柴
栗
桀
桑
桼
梁
條
梟
梨
棘
棠
棥
森
楚
業
楽
榮
樂
樊
欠
次
欣
欮
欲
欶
欽
款
歆
歇
歛
止
正
此
步
武
歨
歪
歮
歯
歰
歲
歴
歷
歸
歹
歺
死
殳
段
殷
殸
殹
殺
殻
殿
毋
毌
母
每
毒
比
毕
毚
毛
毳
氏
氐
民
气
氣
水
氵
氶
氷
永
氺
氾
求
汝
汞
江
沃
沓
沙
沝
治
泉
法
波
泣
泥
泰
洛
洪
活
派
流
浦
浪
浮
海
淡
淮
清
渚
渠
湯
滿
漸
火
灬
灭
灰
灵
灷
炅
炎
炏
炗
炙
炭
為
烈
烏
烝
焉
無
焦
焱
然
煞
熊
熏
燕
營
燮
爪
爫
爭
爯
爰
爱
爲
爵
父
爻
爽
爾
爿
片
版
牙
牚
牛
牜
牟
牢
牧
牪
牽
犀
犬
犭
犮
狂
狄
狊
独
狺
猋
猒
猪
献
獻
玄
率
玉
王
玟
玨
珎
班
琴
瑟
瑩
瓜
瓦
甘
甚
生
産
用
甫
甬
田
由
甲
申
电
甶
男
甸
甹
画
甾
畀
界
畏
畐
留
畜
畟
畢
畧
畨
番
畫
異
畱
當
畺
畾
疊
疋
疌
疑
疒
疾
癶
癸
癹
登
發
白
百
皀
皃
的
皆
皇
皋
皐
皕
皮
皷
皿
盃
盆
盇
盈
益
盍
盎
监
盒
盖
盛
盡
監
盤
盧
目
直
相
盾
省
眇
眉
看
県
眔
眞
真
眷
眼
眾
着
睘
睪
睿
瞏
瞢
瞿
矍
矛
矞
矢
矣
知
矦
短
石
破
碎
磊
磨
示
礻
礼
祟
票
祭
禀
禁
禸
禹
禺
离
禽
禾
禿
秀
秃
秉
秋
科
秝
秦
移
稟
穀
穌
穴
究
穹
空
穿
突
窄
窒
立
竒
竜
竝
竟
章
童
竹
笑
笠
第
筆
等
答
箕
算
箴
節
篤
篭
米
粉
粛
粟
粤
粦
粲
糞
糸
糹
系
約
納
素
索
紫
累
細
絜
絫
絲
維
綿
縣
繇
纍
纟
缶
网
罒
罔
罕
罗
罙
罡
罢
罪
署
罷
羅
羊
羌
羍
美
羔
羕
羗
羞
羡
羣
群
義
羲
羸
羽
翁
翏
習
翕
翟
翠
翼
老
耂
考
者
耆
而
耎
耑
耒
耳
耴
耶
耷
聂
聊
聖
聚
聶
聿
肀
肃
肅
肉
肖
肙
肥
肩
肯
育
肴
胃
背
胡
胥
能
脊
脩
膚
臣
臤
臧
自
臬
臭
臯
臱
至
致
臺
臼
臽
臾
臿
舀
舂
舄
與
興
舉
舌
舍
舛
舜
舞
舟
般
艮
良
色
艸
艹
艾
芒
芔
芬
芮
花
芳
芺
芻
苔
苗
苟
若
苦
英
茶
茸
荅
草
荒
荣
荼
莆
莧
莫
莽
菆
菊
菐
華
萬
落
葉
著
葛
董
葵
蒙
蒦
蒼
蓋
蓬
蓺
蔑
蔡
蕉
蕭
薄
薛
薦
薰
藍
藏
藥
蘭
虍
虎
虐
虒
虔
處
虖
虗
虘
虚
虛
虜
虞
虫
虽
蚤
蚩
蜀
蜜
蟲
蠡
血
行
衍
衛
衣
衤
表
衮
衰
袁
袞
褭
褱
襄
襾
西
覀
要
覃
見
規
覓
覧
親
覽
见
角
解
言
訁
訇
計
詹
語
誩
諸
讠
谷
豆
豈
豊
豐
豕
豖
豙
象
豦
豩
豪
豸
貇
貝
貞
貟
負
貢
貧
貪
貫
責
貳
貴
買
費
賁
資
賈
賏
賓
賔
賛
賞
賢
賣
質
賴
贊
贝
贡
责
贯
贲
贵
赖
赞
赤
赦
走
越
足
路
蹇
身
躬
車
軍
軎
軟
輦
车
辛
辜
辟
辥
辰
辱
農
辵
辶
边
达
过
近
连
迷
追
退
送
逆
逐
通
速
造
逢
連
逮
進
遀
遂
過
道
達
遣
適
遷
遺
邊
邑
邕
那
邦
邪
郎
部
郭
都
鄉
酉
酋
配
酓
釆
采
里
重
野
量
金
釒
錢
钅
長
镸
长
門
閃
閉
開
閏
閑
閒
間
閔
閵
閻
闌
门
间
闷
阑
阜
阝
阿
降
陳
隆
隊
隋
隡
隨
隱
隶
隹
隺
隻
隼
隽
难
雀
雁
集
雈
雋
雍
雐
雔
雙
雚
雜
雝
離
難
雨
雩
雪
雲
零
雷
需
霍
霜
霝
霞
霸
靈
靑
青
非
靡
面
靣
革
韋
韦
韭
韯
韱
音
頁
頃
項
須
頗
頡
頻
顛
页
風
风
飛
飞
食
飠
養
饣
首
香
馬
馮
駦
马
骨
高
髟
鬥
鬯
鬲
鬼
魚
魯
鮮
鱼
鲁
鳥
鳳
鸟
鹵
鹿
麃
麗
麥
麦
麻
黃
黄
黍
黎
黑
黒
黨
黹
黽
黾
鼎
鼓
鼠
鼻
齊
齋
齐
齒
齿
龍
龙
龜
龟
龠
龰
龱
龴
龵
龶
龷
龸
龹





者
艹
ﭔ
ﭖ
ﭘ
ﭙ
ﭜ
ﭤ
ﭦ
ﭧ
ﭨ
ﭩ
ﭺ
ﭼ
ﭽ
ﮂ
ﮅ
ﮈ
ﮉ
ﮌ
ﮍ
ﮎ
ﮏ
ﮐ
ﮑ
ﮒ
ﮓ
ﮔ
ﮕ
ﮞ
ﮟ
ﮠ
ﮢ
ﮦ
ﮧ
ﮨ
ﮩ
ﮪ
ﮫ
ﮬ
ﮭ
ﮮ
ﮯ
ﯼ
ﯽ
ﯾ
ﯿ
﴾
﴿
﷤
﷫
ﷲ
ﷺ
️
︗
︘
ﹰ
ﺀ
ﺁ
ﺅ
ﺋ
ﺌ
ﺍ
ﺎ
ﺏ
ﺐ
ﺑ
ﺒ
ﺕ
ﺖ
ﺗ
ﺘ
ﺚ
ﺛ
ﺜ
ﺝ
ﺟ
ﺠ
ﺡ
ﺢ
ﺣ
ﺤ
ﺦ
ﺧ
ﺨ
ﺩ
ﺪ
ﺫ
ﺬ
ﺭ
ﺮ
ﺯ
ﺰ
ﺱ
ﺲ
ﺳ
ﺴ
ﺵ
ﺶ
ﺷ
ﺸ
ﺹ
ﺻ
ﺼ
ﺿ
ﻀ
ﻃ
ﻄ
ﻇ
ﻈ
ﻉ
ﻊ
ﻋ
ﻌ
ﻏ
ﻐ
ﻑ
ﻒ
ﻓ
ﻔ
ﻕ
ﻖ
ﻗ
ﻘ
ﻛ
ﻝ
ﻞ
ﻟ
ﻠ
ﻡ
ﻢ
ﻣ
ﻤ
ﻥ
ﻦ
ﻧ
ﻨ
ﻩ
ﻪ
ﻫ
ﻬ
ﻭ
ﻮ
ﻱ
ﻲ
ﻳ
ﻴ
ﻻ
ﻼ
﻿
，
：
？
￼
�
🐢
𠀁
𠀃
𠀆
𠀉
𠀎
𠀐
𠁁
𠁣
𠂆
𠂇
𠂈
𠂉
𠂊
𠂋
𠂎
𠂒
𠂔
𠂛
𠂡
𠂢
𠂤
𠂬
𠂭
𠂹
𠃊
𠃋
𠃌
𠃍
𠃎
𠃑
𠃓
𠃔
𠃜
𠄌
𠄎
𠄠
𠄢
𠆢
𠆥
𠇍
𠈌
𠌵
𠓜
𠔉
𠔥
𠔼
𠔽
𠔿
𠕀
𠕁
𠕋
𠘧
𠘨
𠙻
𠙼
𠚏
𠚒
𠚤
𠚪
𠣏
𠤎
𠤕
𠥓
𠦄
𠦑
𠦝
𠧒
𠧗
𠧪
𠩺
𠪚
𠫓
𠫔
𠫤
𠬛
𠬝
𠬞
𠬢
𠬤
𠬶
𠮛
𠮦
𠮷
𠯑
𠱠
𠳮
𠷎
𡈼
𡉀
𡉵
𡌥
𡍮
𡏳
𡕒
𡕩
𡕰
𡖅
𡗗
𡗜
𡘆
𡘤
𡧱
𡨄
𡩧
𡬠
𡭽
𡰣
𡰥
𡰪
𡰯
𡰱
𡷈
𡸁
𡿨
𡿩
𡿪
𡿺
𢀖
𢀛
𢀩
𢁙
𢆉
𢆰
𢆶
𢇁
𢇇
𢉖
𢌬
𢌿
𢏚
𢑑
𢑚
𢖻
𢙣
𢛳
𢦏
𢦒
𢧵
𢼄
𢾕
𣁋
𣄼
𣅀
𣅽
𣍘
𣎳
𣎵
𣏋
𣏼
𣗥
𣥂
𣥖
𣦵
𣦼
𣧄
𣪊
𣪠
𣬉
𣳾
𣶒
𤇾
𤊽
𤐫
𤓰
𤔔
𤕨
𤣩
𤰇
𤰔
𤰞
𤴓
𤴔
𤽄
𥁑
𥁕
𥃦
𥃩
𥃭
𥇡
𥑟
𥘅
𥘈
𥝢
𥫗
𥱡
𦈢
𦉪
𦉬
𦉼
𦍌
𦍒
𦎧
𦐇
𦓔
𦔮
𦘒
𦙃
𦚏
𦣝
𦣞
𦣻
𦥑
𦥔
𦥯
𦨉
𦭝
𦰩
𧆞
𧈧
𧘇
𧰨
𧴪
𧴮
𧵩
𧾷
𨸏
𨾴
𩙿
𩠐
𩫏
𩵋
𪉷
𪜀
𪟽
𪠲
𪩲
𫇦
𫔭
𫜸
𫝀
𫠣
𫠩
𫢉
𫥞
𫩏
𫩠
𫪡
𫲽
𫶧
𬀷
𬐘
𬗌
𬙙
𬛸
𬜯
𬟩
𬯁
𬴘
𬺻
𬼉
𬼖
𭀰
𭁈
𭁨
𭅰
𭑈
𭕄
𭗼
𭤨
𭥫
𭻾
𮅕
𮊿
𮍌
𮍏
𮓗
𮥼
𮧮
廾
𰀁
𰀄
𰀈
𰀉
𰀕
𰀠
𰀡
𰀢
𰀪
𰁜
𰃮
𰆊
𰆘
𰋙
𰕎
𰢴
𰧭
𰯲
006--
05--
06--
07--
08--
09--
999--
a--
aa--
aaa--
ab--
ac--
accu--
ad--
add--
ae--
aero--
af--
affi--
ag--
agri--
ah--
ai--
air--
ak--
akh--
al--
alex--
all--
alt--
am--
an--
anniver--
anta--
any--
ap--
appo--
aq--
aqu--
ar--
arch--
args--
article--
as--
asad--
ash--
astu--
at--
ato--
au--
auto--
av--
awa--
ay--
az--
b--
ba--
back--
bad--
bal--
ban--
bar--
bas--
base--
batch--
batt--
bb--
bc--
bd--
be--
beau--
beha--
bel--
ben--
ber--
bf--
bg--
bha--
bhu--
bi--
bin--
bio--
bl--
blan--
bmkw--
bmkx--
bmky--
bo--
body--
bol--
bolly--
bom--
book--
bor--
bow--
box--
bp--
br--
bri--
bro--
broad--
bs--
bu--
buk--
bur--
by--
byzan--
c--
ca--
cal--
calcu--
can--
car--
casu--
cat--
cauc--
cc--
cd--
ce--
cele--
cell--
cen--
ch--
cha--
champion--
che--
check--
chip--
cho--
ci--
circ--
cite--
citeref--
cl--
clo--
cm--
co--
col--
com--
communi--
con--
cond--
conn--
cons--
conse--
conti--
contr--
conve--
cor--
cr--
crim--
crit--
cro--
crusa--
cs--
cu--
cur--
current--
cy--
d--
da--
daily--
dal--
dam--
dan--
dar--
data--
date--
daugh--
dd--
de--
dec--
decla--
def--
dela--
demo--
depe--
dete--
deve--
dha--
di--
dis--
disa--
disam--
disc--
dist--
do--
dou--
down--
dr--
drop--
du--
dy--
dyna--
dz--
e--
ea--
eb--
ec--
ed--
edit--
edu--
edło--
ee--
ef--
effi--
ei--
ek--
el--
elec--
em--
emer--
en--
end--
equ--
er--
es--
et--
ethno--
eu--
ex--
exam--
excl--
exec--
exo--
expe--
ext--
f--
fa--
fair--
fami--
far--
fb--
fe--
fer--
ff--
fi--
file--
first--
fl--
fo--
for--
format--
fos--
fr--
frag--
fre--
fu--
full--
g--
ga--
gar--
ge--
gene--
geo--
get--
gha--
gho--
ghu--
gi--
gil--
gl--
glo--
go--
god--
gor--
gr--
gre--
gren--
gro--
gu--
h--
ha--
ham--
har--
hard--
has--
hat--
hay--
haz--
he--
head--
hel--
heli--
her--
hi--
high--
histo--
ho--
hol--
holi--
home--
homo--
hor--
html--
hu--
hug--
hund--
hy--
i--
ia--
ib--
ic--
icon--
id--
iden--
ideo--
if--
il--
illu--
im--
image--
imp--
imple--
in--
infi--
inj--
insp--
inst--
instru--
int--
inter--
inva--
inve--
investi--
invoc--
io--
ip--
ir--
is--
iso--
it--
iv--
j--
ja--
jar--
je--
ji--
jo--
js--
ju--
jud--
judi--
k--
ka--
kal--
kan--
kar--
kara--
ke--
key--
kh--
kha--
khe--
kho--
khu--
ki--
kilo--
kn--
ko--
kra--
kri--
ku--
kw--
l--
la--
lake--
lam--
lan--
land--
lang--
lar--
last--
le--
legi--
ley--
li--
life--
link--
list--
ll--
lo--
log--
lu--
ly--
lyri--
m--
ma--
mac--
mag--
mah--
maha--
main--
mak--
make--
mal--
man--
manu--
map--
mar--
marga--
mari--
max--
me--
meas--
meh--
men--
mer--
meta--
mexi--
mi--
micr--
mid--
migr--
mili--
min--
mit--
mix--
mo--
mon--
mona--
mono--
montgo--
mor--
move--
mp--
mu--
multi--
mur--
mw--
my--
n--
na--
nan--
nar--
nav--
naz--
nd--
ne--
neigh--
neu--
neut--
new--
news--
next--
ng--
ni--
no--
non--
nor--
ns--
nu--
num--
ny--
o--
ob--
obs--
obser--
oc--
ok--
ol--
old--
on--
op--
open--
or--
ori--
orien--
os--
ou--
out--
over--
p--
pa--
pac--
page--
pal--
pan--
par--
parse--
patr--
pay--
pc--
pe--
pen--
peni--
per--
ph--
phil--
pho--
physi--
pi--
pix--
pl--
pm--
po--
pol--
poli--
politi--
pon--
popup--
post--
pr--
pra--
prak--
pre--
pri--
prim--
princ--
pro--
ps--
psych--
pu--
pul--
pun--
pur--
py--
q--
qa--
qu--
r--
ra--
rah--
rai--
raj--
ran--
raw--
rc--
re--
rece--
recent--
recog--
recom--
red--
ref--
rega--
regi--
regu--
reli--
remo--
rep--
ret--
rho--
ri--
riz--
rm--
ro--
rou--
row--
rs--
ru--
rwa--
s--
sa--
sal--
sam--
san--
sar--
sau--
sax--
sc--
sch--
sche--
sco--
se--
sea--
ser--
set--
sey--
sh--
sha--
sham--
shang--
sho--
show--
shu--
si--
simp--
situ--
sk--
sky--
sl--
slo--
so--
soci--
sol--
solu--
sort--
sove--
sp--
spec--
sq--
sr--
ss--
st--
start--
ste--
str--
stu--
sty--
su--
sub--
suff--
sug--
sugge--
sun--
supp--
sur--
sv--
sw--
sy--
t--
ta--
tag--
talk--
tan--
tar--
tb--
te--
teac--
ter--
text--
th--
the--
thou--
ti--
time--
timesof--
title--
to--
tog--
top--
tor--
tour--
tr--
trans--
tro--
tru--
ts--
tu--
tur--
tw--
txt--
ty--
u--
uc--
ucdc--
uk--
ul--
un--
unit--
univ--
up--
ur--
urdu--
us--
use--
user--
ut--
v--
va--
val--
van--
var--
ve--
ver--
vi--
vill--
vo--
voc--
vol--
w--
wa--
wag--
wal--
war--
wd--
we--
web--
wel--
west--
wg--
wguser--
whe--
wic--
wiki--
wil--
wis--
wo--
wol--
wor--
wp--
wro--
wu--
wy--
x--
xfd--
xi--
xml--
xx--
y--
ya--
ye--
yi--
yo--
yu--
z--
za--
zam--
ze--
zh--
zion--
zo--
zu--
đ--
ł--
в--
г--
д--
з--
и--
ист--
н--
о--
п--
р--
рос--
с--
ск--
т--
ء--
ا--
اا--
اب--
ابا--
ابخ--
ابر--
ابو--
ابی--
ات--
اتھ--
اث--
اج--
اح--
احص--
احمد--
اخ--
اختص--
اد--
ادا--
ادھ--
اذ--
ار--
ارت--
ارد--
اردو--
ارغ--
اری--
اریٹ--
از--
اس--
است--
استرا--
استعا--
استغ--
اسم--
اسٹ--
اسٹر--
اش--
اشت--
اشک--
اص--
اط--
اع--
اغ--
اف--
اق--
اك--
ال--
الا--
الاش--
الاع--
الان--
الب--
الت--
الث--
الج--
الح--
الخ--
الد--
الر--
الز--
الس--
الش--
الشع--
الص--
الض--
الط--
الظ--
الع--
الغ--
الف--
الق--
الك--
الل--
الم--
المست--
الن--
اله--
الو--
الھ--
الہ--
الی--
ام--
اما--
امب--
امر--
امی--
امیر--
ان--
انا--
انت--
انج--
اند--
انس--
انو--
انٹر--
انڈی--
انڈیپین--
انگ--
انی--
او--
اور--
اورین--
اوز--
اوس--
اول--
اولم--
اوم--
اون--
اوڑ--
اوک--
اي--
اٹ--
اپ--
اپر--
اچ--
اڈو--
اڈی--
اڑ--
اک--
اکا--
اکھ--
اگ--
اگا--
اگر--
اگو--
اہل--
ای--
ایج--
ایر--
ایز--
ایس--
ایش--
ایص--
ایل--
ایم--
این--
ایٹ--
ایپ--
ایڈ--
ایک--
ایکس--
ایکو--
ایگری--
ایگز--
ب--
با--
بابا--
بات--
باد--
بار--
باز--
باس--
باش--
باغ--
بال--
بالا--
بام--
بان--
باو--
باگ--
بت--
بتا--
بج--
بحر--
بد--
بدخ--
بدر--
بر--
برا--
برج--
برد--
برز--
برطا--
برف--
برن--
برو--
برٹ--
برگ--
بری--
بز--
بس--
بش--
بص--
بط--
بعد--
بعید--
بغ--
بق--
بل--
بلا--
بلی--
بم--
بن--
بنا--
بند--
بنو--
به--
بو--
بوا--
بور--
بوس--
بول--
بون--
بوڑ--
بوک--
بي--
بٹ--
بچ--
بچھ--
بڈ--
بڑ--
بک--
بکھ--
بگ--
بھ--
بھر--
بھم--
بھٹ--
بھی--
بہ--
بی--
بیر--
بیس--
بیسار--
بیض--
بیل--
بین--
بیڈ--
بیک--
بیگ--
بے--
ت--
تا--
تاب--
تار--
تال--
تان--
تاو--
تب--
تجر--
تجز--
تح--
تحا--
تخ--
تخم--
تذ--
تر--
ترا--
تری--
تش--
تص--
تض--
تط--
تع--
تغ--
تفس--
تق--
تل--
تم--
تن--
تنگ--
تو--
توا--
توت--
تور--
توپ--
تي--
تپ--
تک--
تھ--
تھا--
تھر--
تھم--
تھی--
تھے--
تہ--
تی--
تیر--
تین--
ث--
ثم--
ج--
جا--
جار--
جال--
جام--
جان--
جاو--
جب--
جد--
جر--
جرم--
جز--
جس--
جع--
جغرا--
جل--
جلی--
جم--
جمه--
جن--
جنگ--
جو--
جوا--
جور--
جوز--
جي--
جٹ--
جڑ--
جک--
جگ--
جھ--
جھا--
جھاڑ--
جھر--
جھو--
جہ--
جی--
جیا--
جین--
جیو--
ح--
حا--
حب--
حج--
حد--
حر--
حس--
حش--
حص--
حق--
حل--
حو--
حوا--
حی--
خ--
خار--
خان--
خاک--
خبر--
خث--
خدا--
خر--
خرد--
خزا--
خص--
خض--
خط--
خل--
خلا--
خم--
خو--
خود--
خوش--
خیر--
د--
دا--
دار--
دارا--
دارال--
دارل--
دال--
دام--
دانش--
دب--
در--
درا--
درخ--
درد--
دس--
دست--
دق--
دل--
دم--
دن--
دو--
دوا--
دور--
دوم--
دي--
دھ--
دھن--
دہ--
دی--
دیا--
دین--
دیو--
دیپ--
دیگر--
ذ--
ذا--
ذر--
ذربا--
ذو--
ذوال--
ذکر--
ذی--
ر--
را--
راتچا--
راج--
راس--
راش--
رام--
راو--
راک--
راہ--
رب--
رت--
رج--
رح--
رخ--
رد--
رز--
رس--
رش--
رع--
رف--
رق--
رقا--
رل--
رم--
رن--
رنگ--
رو--
روا--
روز--
روس--
روپ--
روڈ--
روک--
ري--
رٹ--
رچ--
رڈ--
رک--
رکی--
رگ--
رگھو--
رہ--
رہا--
ری--
ریا--
ریس--
رین--
ریو--
ریٹ--
ریپ--
ریڈ--
ز--
زا--
زاد--
زام--
زد--
زر--
زم--
زن--
زند--
زو--
زور--
زي--
زک--
زہ--
زی--
زیر--
س--
سا--
سات--
سار--
ساز--
ساس--
سال--
سام--
سان--
ساو--
ساگ--
سب--
سبا--
سبز--
ست--
ستر--
ستی--
سد--
سر--
سرا--
سرو--
سری--
سس--
سفا--
سفر--
سل--
سلا--
سلج--
سلو--
سلی--
سم--
سما--
سن--
سند--
سنس--
سنگ--
سو--
سوا--
سور--
سول--
سوم--
سون--
سوگ--
سوہ--
سوی--
سي--
سٹ--
سٹی--
سپر--
سچ--
سڑ--
سک--
سکا--
سکڑ--
سکھ--
سکی--
سہ--
سی--
سیب--
سید--
سیر--
سیل--
سیم--
سین--
سیو--
سے--
ش--
شا--
شاد--
شارل--
شال--
شان--
شاہ--
شب--
شد--
شر--
شرق--
شرم--
شری--
شش--
شع--
شعر--
شفا--
شق--
شم--
شمار--
شن--
شه--
شو--
شور--
شوش--
شپ--
شک--
شکر--
شکل--
شہ--
شہر--
شی--
شیر--
شین--
شیو--
ص--
صب--
صحت--
صد--
صدر--
صر--
صع--
صعوب--
صف--
صل--
صوا--
صی--
صید--
ض--
ضابط--
ضم--
ضیاء--
ط--
طا--
طب--
طر--
طغ--
طو--
طول--
طيا--
طہ--
ظ--
ظفر--
ع--
عا--
عبد--
عبدال--
عد--
عرب--
عز--
عص--
عض--
عقل--
عل--
علم--
علی--
عم--
عمر--
عمل--
عن--
عي--
عہد--
عید--
غ--
غا--
غم--
غیر--
ـ--
ف--
فا--
فار--
فال--
فت--
فر--
فرا--
فری--
فس--
فش--
فق--
فل--
فلو--
فن--
فه--
فو--
فون--
فوٹ--
في--
فٹ--
فی--
فیس--
فیم--
فیو--
فیڈ--
ق--
قا--
قد--
قدر--
قر--
قرا--
قص--
قل--
قلم--
قم--
قن--
قو--
قہ--
قیر--
ك--
كا--
كث--
كر--
كو--
ل--
لا--
لاس--
لاش--
لال--
لام--
لان--
لاو--
لاڈ--
لاک--
لاگ--
لاہور--
لب--
لت--
لر--
لز--
لس--
لطا--
لغ--
لغم--
لف--
لل--
لم--
لمح--
لن--
لو--
لوم--
لوک--
لي--
لٹ--
لپ--
لڈ--
لڑ--
لک--
لکھ--
لگ--
لہ--
لی--
لیا--
لیس--
لیم--
لین--
لیو--
لیون--
لیک--
لیگ--
لیے--
م--
ما--
مات--
ماج--
مار--
ماس--
مال--
مان--
مانٹس--
ماہ--
مت--
مث--
مج--
مجم--
مح--
محا--
محت--
محمد--
مخ--
مد--
مذ--
مر--
مرا--
مری--
مز--
مس--
مست--
مش--
مشا--
مشک--
مص--
مصل--
مض--
مط--
مطہ--
مظ--
مع--
مغ--
مغال--
مق--
مقا--
مقت--
مقد--
مك--
مل--
ملا--
ملن--
ملک--
ملی--
مم--
من--
منظر--
منو--
منگ--
منی--
مه--
مو--
مور--
موس--
موغ--
مول--
مون--
مونٹ--
مي--
مٹ--
مچ--
مڈ--
مڑ--
مک--
مکی--
مگ--
مگر--
مھ--
مہ--
مہا--
مہر--
می--
مید--
میر--
میل--
مین--
میٹ--
میڈ--
میک--
میگ--
میں--
ن--
نا--
نات--
ناد--
نار--
ناش--
نال--
نام--
نان--
ناگ--
نبھ--
نت--
نج--
نح--
نخ--
ند--
نر--
نز--
نس--
نص--
نصر--
نض--
نط--
نظر--
نع--
نف--
نق--
نل--
نم--
نن--
نه--
نو--
نور--
نوشی--
نون--
ني--
نٹ--
نچ--
نڈ--
نک--
نگ--
نہ--
نی--
نیا--
نیر--
نیس--
نیو--
نیک--
نے--
ه--
ها--
هم--
و--
وا--
وار--
واس--
واش--
وال--
والا--
وان--
واو--
واٹ--
وب--
وت--
وث--
وح--
ود--
ور--
وس--
وش--
وشاکھا--
وشو--
وع--
وف--
وق--
وكا--
ول--
ولا--
ولف--
وم--
ون--
وو--
ووڈ--
وي--
وٹ--
وپ--
وچ--
وڈ--
وک--
وہ--
وی--
ویب--
وید--
ویر--
ویرا--
ویز--
ویس--
ویل--
ویم--
وین--
ویو--
ویٹ--
ویک--
ي--
يا--
يع--
١--
١٣--
١٩--
٢--
٢٠--
٣--
٤--
٥--
٦--
ٹ--
ٹا--
ٹار--
ٹال--
ٹخ--
ٹر--
ٹرانس--
ٹرم--
ٹری--
ٹس--
ٹل--
ٹم--
ٹن--
ٹو--
ٹور--
ٹوک--
ٹڈ--
ٹک--
ٹھ--
ٹھیک--
ٹہ--
ٹی--
ٹیل--
ٹیلی--
ٹیم--
ٹین--
ٹیک--
پ--
پا--
پار--
پاس--
پال--
پان--
پاپ--
پاک--
پت--
پر--
پرا--
پرت--
پرس--
پرو--
پری--
پریس--
پس--
پل--
پلا--
پم--
پن--
پنج--
پنچ--
پنگ--
په--
پو--
پور--
پول--
پوم--
پون--
پي--
پٹ--
پچ--
پچھ--
پڑ--
پښ--
پک--
پگ--
پھ--
پھا--
پھر--
پھل--
پھو--
پھی--
پہ--
پی--
پیدا--
پیر--
پیرا--
پیس--
پیش--
پیم--
پین--
پیو--
پیڈ--
چ--
چا--
چار--
چال--
چاپ--
چبو--
چتر--
چر--
چس--
چل--
چلا--
چم--
چمگ--
چن--
چو--
چون--
چٹر--
چپ--
چچا--
چڑ--
چک--
چھ--
چھپ--
چہ--
چی--
چیت--
چیر--
چین--
چیکو--
ڈ--
ڈا--
ڈار--
ڈاک--
ڈب--
ڈر--
ڈری--
ڈس--
ڈم--
ڈن--
ڈو--
ڈور--
ڈون--
ڈپل--
ڈک--
ڈھ--
ڈھا--
ڈھو--
ڈی--
ڈیس--
ڈیل--
ڈیموک--
ڈین--
ڈیٹ--
ڑ--
ژ--
ژو--
ک--
کا--
کاا--
کار--
کاز--
کاس--
کال--
کام--
کان--
کاو--
کاٹھ--
کاک--
کب--
کتاب--
کر--
کرا--
کرن--
کرو--
کرک--
کری--
کس--
کش--
کف--
کل--
کلا--
کلر--
کلو--
کلی--
کم--
کمی--
کن--
کنز--
کنڈ--
کنگ--
کنی--
کو--
کوا--
کوت--
کور--
کوریو--
کوس--
کوش--
کول--
کوم--
کون--
کوو--
کوڑ--
کوک--
کوہ--
کي--
کٹ--
کٹی--
کپ--
کڑ--
کک--
کھ--
کھا--
کھر--
کھم--
کھو--
کہ--
کہا--
کی--
کیا--
کیر--
کیس--
کیل--
کیم--
کین--
کیو--
کیٹ--
کیپ--
کے--
ڪ--
گ--
گا--
گار--
گان--
گاڑ--
گذا--
گذر--
گر--
گرا--
گرد--
گرداس--
گرو--
گری--
گز--
گست--
گل--
گلو--
گلی--
گم--
گن--
گو--
گوا--
گور--
گول--
گڈ--
گڑ--
گھ--
گھا--
گھر--
گھو--
گی--
گیا--
گیر--
گیل--
ں--
ھ--
ھا--
ھر--
ھو--
ہ--
ہا--
ہار--
ہال--
ہان--
ہجو--
ہر--
ہری--
ہس--
ہل--
ہم--
ہما--
ہن--
ہند--
ہنر--
ہو--
ہوا--
ہور--
ہول--
ہوم--
ہون--
ہٹ--
ہچک--
ہڈ--
ہک--
ہی--
ہیر--
ہیع--
ہیل--
ہیم--
ہین--
ہیو--
ہیڈ--
ہیں--
ہے--
ی--
یا--
یات--
یاد--
یار--
یاما--
یان--
یت--
ید--
یر--
یز--
یس--
یش--
یف--
یق--
یل--
یم--
ین--
ینگ--
یو--
یور--
یون--
یٹ--
یڈ--
یک--
یکا--
یگ--
یہ--
یی--
ے--
۰--
۱--
۱۴--
۱۵--
۱۷--
۱۸--
۱۹--
۲--
۳--
۴--
۵--
۶--
۷--
۸--
۹--
अ--
आ--
इ--
उ--
ए--
क--
ग--
ज--
ट--
ड--
त--
न--
प--
ब--
म--
य--
र--
ल--
व--
स--
ह--
ম--
--0
--00
--01
--1
--10
--11
--14
--2
--20
--21
--22
--3
--30
--4
--40
--5
--50
--6
--60
--7
--70
--8
--80
--85
--9
--a
--aa
--ab
--abad
--ability
--able
--ac
--aceae
--acy
--ad
--ada
--ade
--ado
--ae
--af
--afa
--ag
--age
--ah
--ai
--ail
--ais
--aj
--ak
--aki
--al
--ala
--ald
--ale
--all
--ally
--alog
--am
--ama
--ame
--an
--ana
--ance
--ane
--ang
--ani
--ano
--ans
--ant
--ants
--ao
--ap
--aphy
--api
--aq
--ar
--ara
--ard
--arg
--args
--ari
--aries
--arm
--ars
--ary
--as
--ast
--at
--ata
--ate
--ated
--ates
--ati
--ating
--ation
--ations
--ative
--ator
--ats
--au
--av
--ave
--avia
--aw
--awi
--ax
--ay
--aya
--az
--b
--ba
--bar
--bd
--be
--ber
--berg
--berry
--bert
--bes
--bi
--ble
--bo
--bon
--box
--bs
--bt
--burg
--burgh
--bury
--by
--c
--ca
--cal
--case
--cat
--ce
--ceae
--cel
--cell
--cent
--cer
--ces
--ch
--chi
--cio
--ck
--cks
--class
--cle
--co
--code
--con
--config
--cript
--cs
--ct
--ction
--cy
--d
--da
--dad
--data
--date
--day
--de
--ded
--dh
--di
--div
--do
--ds
--du
--dw
--dy
--e
--ea
--eae
--eau
--ec
--ect
--ed
--ee
--een
--ees
--ef
--eg
--eh
--ei
--ein
--ek
--el
--ell
--em
--ement
--en
--ence
--end
--ens
--ent
--entine
--ents
--ep
--er
--ere
--ered
--ern
--error
--ers
--erse
--ersity
--ert
--ery
--es
--ese
--esh
--ess
--est
--et
--ete
--ets
--eum
--eur
--ev
--ever
--ew
--ews
--ex
--ey
--ez
--f
--fa
--fer
--ff
--fic
--fied
--field
--form
--format
--fs
--ful
--func
--g
--ga
--gan
--gar
--gc
--ge
--ged
--gh
--ght
--gi
--ging
--gir
--go
--graph
--graphs
--graphy
--gs
--gton
--gu
--gua
--gue
--gular
--h
--ha
--ham
--har
--hdw
--he
--hed
--hes
--hi
--hic
--hip
--hn
--ho
--holder
--hood
--hra
--ht
--hu
--hy
--i
--ia
--ial
--ian
--iation
--iations
--ibute
--ibution
--ic
--ica
--ical
--ich
--ick
--ics
--id
--ida
--ide
--ided
--ident
--ie
--ied
--iel
--ien
--ier
--ies
--if
--iff
--ified
--ify
--ig
--ight
--ii
--ij
--ik
--ika
--ike
--il
--ila
--ile
--illa
--im
--ims
--imum
--in
--ina
--inate
--ination
--ine
--ines
--info
--ing
--ings
--ini
--ino
--ins
--io
--ion
--ional
--ions
--ior
--ip
--ir
--ira
--ire
--ired
--irmed
--is
--isation
--ise
--ised
--ish
--ism
--ist
--istic
--ists
--it
--ita
--ite
--ith
--ities
--ition
--ito
--ity
--ium
--ius
--iv
--ive
--ivity
--ix
--iya
--iz
--ization
--ize
--ized
--j
--ja
--je
--ji
--jo
--js
--ju
--k
--ka
--kan
--kar
--kaya
--ke
--ker
--ket
--key
--kh
--ki
--ko
--kr
--ks
--ku
--ky
--l
--la
--lah
--lal
--lan
--land
--lar
--ld
--le
--lect
--led
--lem
--ler
--less
--level
--ley
--li
--lia
--lie
--lies
--lin
--line
--ling
--link
--lis
--list
--lity
--lk
--ll
--lla
--lle
--lles
--lly
--lm
--lo
--lon
--ls
--lt
--lty
--lu
--ly
--m
--ma
--man
--map
--mas
--mb
--me
--med
--ment
--mi
--mit
--mo
--mond
--mont
--ms
--my
--n
--na
--nah
--nal
--name
--nan
--nary
--nc
--nce
--nces
--ncy
--nd
--nda
--nds
--ne
--ned
--nent
--ner
--ners
--nes
--ness
--news
--ney
--nfo
--ng
--nga
--ngs
--ni
--nia
--nic
--ning
--nis
--nk
--nn
--nne
--no
--ns
--nt
--ntly
--nto
--nts
--num
--ny
--o
--oa
--obj
--ock
--od
--ody
--oe
--of
--og
--ogical
--ogy
--oi
--ois
--ok
--oke
--ol
--ola
--ole
--oli
--ological
--ology
--om
--ome
--on
--ona
--one
--ong
--onic
--ons
--ony
--oo
--ood
--oom
--oon
--op
--or
--ora
--oration
--ore
--ors
--ort
--ory
--os
--ose
--ot
--ou
--ous
--out
--ov
--ow
--owo
--ox
--oy
--p
--pa
--pace
--page
--pe
--ped
--ping
--ple
--ponding
--ps
--pt
--pur
--q
--qi
--r
--ra
--raf
--rah
--rak
--ral
--ran
--ras
--rat
--rch
--rd
--re
--ref
--rer
--rey
--rg
--rgarh
--rgs
--ri
--ria
--ric
--rie
--rier
--ries
--ring
--ris
--rl
--rm
--rn
--ro
--row
--rr
--rry
--rs
--rt
--ru
--ry
--s
--sa
--sburg
--se
--sed
--ser
--ses
--sh
--sha
--shan
--shire
--si
--sia
--side
--sie
--sion
--sions
--sis
--sk
--sm
--so
--son
--ss
--st
--stan
--ster
--ston
--sts
--sy
--t
--ta
--table
--tag
--tags
--tal
--tan
--tant
--tar
--tation
--te
--tec
--ted
--tein
--ter
--tes
--text
--th
--tha
--ti
--tia
--tial
--tic
--tics
--tide
--time
--ting
--tion
--tions
--title
--tive
--tle
--to
--ton
--tor
--toria
--tors
--town
--tr
--tra
--ts
--tt
--tta
--tte
--tu
--tum
--ty
--tyle
--type
--tz
--u
--ua
--ual
--uan
--uate
--ub
--uc
--uce
--uced
--uck
--ud
--ue
--uel
--uf
--ugh
--ught
--ui
--uk
--ul
--ula
--ular
--ult
--um
--ummary
--un
--ung
--up
--ur
--ura
--ure
--url
--us
--ut
--ute
--ux
--uz
--v
--va
--val
--value
--ve
--ver
--ves
--vi
--ville
--vo
--w
--wa
--wal
--way
--web
--wf
--wi
--wide
--wo
--ws
--x
--xist
--y
--ya
--yah
--yan
--ye
--yn
--ys
--z
--za
--ze
--zer
--zi
--zo
--ı
--ο
--ς
--а
--д
--е
--и
--ии
--ия
--м
--о
--ов
--р
--рия
--т
--та
--я
--ות
--ים
--ית
--ء
--ا
--اء
--اب
--ات
--اتا
--اتھ
--اتی
--اج
--اجی
--اح
--اخ
--اد
--ادھا
--ادی
--ار
--ارا
--ارث
--ارس
--ارو
--ارٹ
--ارڈ
--ارکا
--ارہ
--اری
--اریا
--اریو
--ارے
--از
--ازم
--ازی
--اس
--اش
--اشی
--اض
--اط
--اغ
--اف
--افی
--اق
--ال
--الا
--الب
--الڈ
--الہ
--الی
--الے
--ام
--امون
--امہ
--ان
--انا
--انو
--انک
--انگ
--انہ
--انی
--انیکا
--انے
--او
--اوا
--اوت
--اور
--اوی
--اي
--اٹ
--اپ
--اپور
--اڈ
--اڈو
--اڑ
--اڑی
--اک
--اکر
--اکس
--اکو
--اکی
--اگ
--اگو
--اں
--اہ
--اہا
--اہب
--اہر
--اہو
--اہی
--اہے
--اۃ
--ای
--ایا
--ایت
--ایک
--ایہ
--ایی
--ب
--با
--باد
--بار
--بال
--باي
--بة
--بت
--بر
--برگ
--بس
--بط
--بع
--بل
--بن
--بو
--بور
--بي
--بٹ
--بک
--بھی
--بہ
--بی
--بیا
--بیب
--بے
--ة
--ت
--تا
--تاش
--تان
--تانی
--تر
--تز
--تس
--تسا
--تسی
--تم
--تن
--ته
--تو
--توس
--توف
--تون
--تک
--تھ
--تھا
--تھم
--تھے
--تہ
--تی
--تیا
--تے
--ث
--ثر
--ثی
--ج
--جا
--جب
--جد
--جر
--جرز
--جز
--جس
--جل
--جم
--جن
--جو
--جک
--جھ
--جھی
--جہ
--جی
--جیہ
--جے
--ح
--حت
--حد
--حل
--حم
--حو
--حہ
--حی
--حید
--خ
--خا
--خان
--خت
--خص
--خل
--خن
--خہ
--خی
--د
--دا
--داء
--داد
--دار
--داری
--داس
--دان
--دة
--دت
--دد
--در
--دز
--دس
--دل
--دن
--دنی
--ده
--دو
--دڑ
--دک
--دگی
--دہ
--دی
--دیا
--دین
--دیہ
--دے
--ذ
--ذب
--ذن
--ذي
--ذہ
--ذہب
--ر
--را
--رام
--ران
--راي
--راڈ
--رب
--رة
--رت
--رج
--رد
--رر
--رز
--رس
--رع
--رف
--رق
--رلی
--رم
--رن
--رنے
--ره
--رو
--روف
--روں
--ري
--رٹ
--رڈ
--رک
--رکا
--رکس
--رگ
--رہ
--ری
--ریا
--ریج
--ریس
--رین
--رے
--ز
--زا
--زان
--زانی
--زت
--زخ
--زر
--زل
--زلی
--زم
--زمرہ
--زن
--زو
--زویل
--زي
--زگ
--زہ
--زی
--زیم
--زے
--س
--سا
--ساي
--سب
--سبرگ
--سبری
--ست
--ستان
--سخ
--سر
--سز
--سس
--سف
--سل
--سلے
--سم
--سمین
--سن
--سو
--سوں
--سویل
--سٹ
--سٹر
--سٹس
--سٹن
--سٹک
--سپ
--سپی
--سک
--سکی
--سہ
--سی
--سیا
--سیز
--سیس
--سے
--ش
--شا
--شاي
--شاہ
--شت
--شر
--شس
--شل
--شم
--شن
--شنز
--شنگ
--شو
--شور
--شي
--شپ
--شک
--شہ
--شہر
--شی
--شیا
--شیم
--شین
--شے
--ص
--صب
--صر
--صہ
--صی
--ض
--ضا
--ضر
--ضہ
--ضی
--ضے
--ط
--طاعت
--طر
--طع
--طی
--ظ
--ظر
--ظم
--ع
--عام
--عة
--عت
--عد
--عر
--عراف
--علی
--عنی
--عي
--عہ
--عۃ
--عی
--غ
--غان
--غر
--غوز
--غہ
--غۃ
--غی
--ـ
--ف
--فا
--فاضہ
--فة
--فتہ
--فر
--فرڈ
--فس
--فع
--فق
--فل
--فن
--فو
--فٹ
--فک
--فہ
--فی
--فیظ
--ق
--قات
--قاد
--قب
--قت
--قل
--قم
--قن
--قه
--قہ
--قی
--ك
--كم
--كن
--ل
--لا
--لاح
--لة
--لت
--لد
--لر
--لز
--لس
--لش
--لف
--لق
--لك
--للہ
--لم
--لن
--له
--لو
--لوجی
--لي
--لٹ
--لٹن
--لپور
--لڈ
--لک
--لکر
--لہ
--لی
--لیا
--لیر
--لیم
--لین
--لے
--م
--ما
--مال
--مام
--مان
--ماچ
--مب
--مت
--مر
--مس
--مش
--مق
--مل
--من
--مند
--منٹ
--منٹری
--مو
--مور
--مون
--موی
--مپ
--مک
--مہ
--مۃ
--می
--مین
--میں
--مے
--ن
--نا
--ناس
--نام
--نان
--ناي
--نب
--نة
--نت
--نتی
--نج
--نجر
--ند
--ندر
--نر
--نری
--نز
--نزی
--نس
--نسن
--نسکی
--نش
--نل
--نم
--نن
--نند
--ننس
--نه
--نو
--نوس
--نوں
--نى
--ني
--نٹ
--نٹن
--نڈ
--نڈا
--نڈوں
--نڈے
--نک
--نکر
--نکس
--نکو
--نگ
--نگا
--نگر
--نگز
--نگو
--نگٹن
--نگی
--نہ
--نی
--نیا
--نیس
--نیو
--نیک
--نیہ
--نیے
--نے
--ه
--ها
--های
--هر
--هم
--هی
--و
--وا
--وادے
--وار
--وال
--وان
--واں
--وایا
--وب
--وت
--وتھ
--وتی
--وج
--وجی
--وح
--وحہ
--وخ
--ود
--وذ
--ور
--ورا
--ورس
--ورن
--ورو
--ورٹ
--ورڈ
--وری
--وز
--وزا
--وس
--وسا
--وسٹی
--وسکی
--وسی
--وش
--وشا
--وط
--وظ
--وع
--وف
--وفی
--وق
--ول
--ولا
--ولر
--ولس
--ولم
--ولو
--ولہ
--ولی
--ولے
--وم
--وما
--ومی
--ون
--ونا
--ونس
--ونلو
--ونو
--ونٹ
--ونگ
--ونی
--وو
--ووا
--وور
--ووو
--ووچ
--ووڈ
--ووی
--وویچ
--وي
--وٹ
--وٹا
--وٹی
--وپ
--وچ
--وچی
--وڈ
--وڑ
--وڑا
--وڑہ
--وڑی
--وک
--وکا
--وکو
--وگ
--وگا
--وں
--وہ
--وۃ
--وی
--ویا
--ویل
--ویي
--ویچ
--ویں
--ویہ
--وے
--ى
--ي
--يا
--يات
--ية
--يت
--يد
--ير
--يس
--يف
--يق
--يل
--ين
--يو
--يں
--يہ
--٠
--١
--٢
--٣
--٥
--٦
--٧
--٨
--٩
--ٴ
--ٹ
--ٹا
--ٹان
--ٹاو
--ٹاي
--ٹر
--ٹرا
--ٹری
--ٹز
--ٹس
--ٹل
--ٹم
--ٹمنٹ
--ٹن
--ٹنگ
--ٹو
--ٹون
--ٹوگرافر
--ٹڈ
--ٹک
--ٹکس
--ٹھ
--ٹی
--ٹیا
--ٹیج
--ٹیز
--ٹیشن
--ٹیو
--ٹے
--پ
--پا
--پت
--پر
--پس
--پل
--پن
--پو
--پور
--پوری
--پولس
--پٹ
--پی
--پے
--چ
--چا
--چاي
--چر
--چس
--چل
--چن
--چو
--چک
--چہ
--چی
--چیا
--چے
--ڈ
--ڈا
--ڈاي
--ڈر
--ڈرز
--ڈرل
--ڈز
--ڈس
--ڈل
--ڈم
--ڈن
--ڈنٹ
--ڈو
--ڈور
--ڈک
--ڈکٹ
--ڈھی
--ڈہ
--ڈی
--ڈیا
--ڈیل
--ڈے
--ڑ
--ڑا
--ڑو
--ڑوں
--ڑک
--ڑھ
--ڑھی
--ڑہ
--ڑی
--ڑے
--ژ
--ژن
--ژو
--ک
--کا
--کار
--کان
--کب
--کبر
--کت
--کر
--کس
--کشی
--کل
--کم
--کن
--کنے
--کو
--کوز
--کوف
--کوٹ
--کوں
--کوی
--کي
--کٹ
--کھ
--کھی
--کہ
--کی
--کیا
--کیہ
--کے
--گ
--گا
--گار
--گام
--گان
--گذشت
--گر
--گری
--گز
--گس
--گل
--گن
--گو
--گون
--گوي
--گوں
--گي
--گٹ
--گٹن
--گھ
--گہ
--گی
--گیا
--گین
--گے
--ں
--ھ
--ھا
--ھارٹ
--ھان
--ھانی
--ھاي
--ھر
--ھرا
--ھری
--ھل
--ھلی
--ھم
--ھن
--ھنے
--ھو
--ھوں
--ھویں
--ھڑ
--ھڑا
--ھڑی
--ھک
--ھہ
--ھی
--ھیا
--ھے
--ہ
--ہا
--ہار
--ہاي
--ہت
--ہد
--ہر
--ہل
--ہم
--ہن
--ہو
--ہوي
--ہوں
--ہٹ
--ہہ
--ہی
--ہیں
--ہے
--ۃ
--ی
--یا
--یات
--یاتی
--یال
--یان
--یاي
--یاں
--یاہ
--یب
--یة
--یت
--یتا
--یث
--یج
--یح
--یخ
--ید
--یدگی
--یر
--یرا
--یرو
--یرہ
--یری
--یرے
--یز
--یس
--یسا
--یسٹر
--یسی
--یسیا
--یش
--یشن
--یشور
--یشی
--یشین
--یض
--یع
--یف
--یق
--یل
--یلا
--یلس
--یلی
--یلے
--یم
--یما
--ین
--ینا
--یندر
--ینو
--ینٹ
--ینڈ
--ینی
--یه
--یو
--یوس
--یون
--یوک
--یوں
--یي
--یٹ
--یٹا
--یٹر
--یٹک
--یٹی
--یٹیا
--یپ
--یچ
--یڈ
--یک
--یکا
--یکس
--یکل
--یکن
--یکھ
--یگو
--یں
--یہ
--یۃ
--یی
--یے
--ې
--ے
--۰
--۱
--۲
--۳
--۴
--۵
--۶
--۷
--۸
--۹
--न
--र
--ल
