!
"
#
##a
##aa
##ab
##ac
##ad
##ae
##af
##ag
##ah
##ai
##aj
##ak
##al
##am
##an
##ao
##ap
##aq
##ar
##as
##at
##au
##av
##aw
##ax
##ay
##az
##b
##ba
##bb
##bc
##bd
##be
##bf
##bg
##bh
##bi
##bj
##bk
##bl
##bm
##bn
##bo
##bp
##bq
##br
##bs
##bt
##bu
##bv
##bw
##bx
##by
##bz
##c
##ca
##cb
##cc
##cd
##ce
##cf
##cg
##ch
##ci
##cj
##ck
##cl
##cm
##cn
##co
##cp
##cq
##cr
##cs
##ct
##cu
##cv
##cw
##cx
##cy
##cz
##d
##da
##db
##dc
##dd
##de
##df
##dg
##dh
##di
##dj
##dk
##dl
##dm
##dn
##do
##dp
##dq
##dr
##ds
##dt
##du
##dv
##dw
##dx
##dy
##dz
##e
##ea
##eb
##ec
##ed
##ee
##ef
##eg
##eh
##ei
##ej
##ek
##el
##em
##en
##eo
##ep
##eq
##er
##es
##et
##eu
##ev
##ew
##ex
##ey
##ez
##f
##fa
##fb
##fc
##fd
##fe
##ff
##fg
##fh
##fi
##fj
##fk
##fl
##fm
##fn
##fo
##fp
##fq
##fr
##fs
##ft
##fu
##fv
##fw
##fx
##fy
##fz
##g
##ga
##gb
##gc
##gd
##ge
##gf
##gg
##gh
##gi
##gj
##gk
##gl
##gm
##gn
##go
##gp
##gq
##gr
##gs
##gt
##gu
##gv
##gw
##gx
##gy
##gz
##h
##ha
##hb
##hc
##hd
##he
##hf
##hg
##hh
##hi
##hj
##hk
##hl
##hm
##hn
##ho
##hp
##hq
##hr
##hs
##ht
##hu
##hv
##hw
##hx
##hy
##hz
##i
##ia
##ib
##ic
##id
##ie
##if
##ig
##ih
##ii
##ij
##ik
##il
##im
##in
##io
##ip
##iq
##ir
##is
##it
##iu
##iv
##iw
##ix
##iy
##iz
##j
##ja
##jb
##jc
##jd
##je
##jf
##jg
##jh
##ji
##jj
##jk
##jl
##jm
##jn
##jo
##jp
##jq
##jr
##js
##jt
##ju
##jv
##jw
##jx
##jy
##jz
##k
##ka
##kb
##kc
##kd
##ke
##kf
##kg
##kh
##ki
##kj
##kk
##kl
##km
##kn
##ko
##kp
##kq
##kr
##ks
##kt
##ku
##kv
##kw
##kx
##ky
##kz
##l
##la
##lb
##lc
##ld
##le
##lf
##lg
##lh
##li
##lj
##lk
##ll
##lm
##ln
##lo
##lp
##lq
##lr
##ls
##lt
##lu
##lv
##lw
##lx
##ly
##lz
##m
##ma
##mb
##mc
##md
##me
##mf
##mg
##mh
##mi
##mj
##mk
##ml
##mm
##mn
##mo
##mp
##mq
##mr
##ms
##mt
##mu
##mv
##mw
##mx
##my
##mz
##n
##na
##nb
##nc
##nd
##ne
##nf
##ng
##nh
##ni
##nj
##nk
##nl
##nm
##nn
##no
##np
##nq
##nr
##ns
##nt
##nu
##nv
##nw
##nx
##ny
##nz
##o
##oa
##ob
##oc
##od
##oe
##of
##og
##oh
##oi
##oj
##ok
##ol
##om
##on
##oo
##op
##oq
##or
##os
##ot
##ou
##ov
##ow
##ox
##oy
##oz
##p
##pa
##pb
##pc
##pd
##pe
##pf
##pg
##ph
##pi
##pj
##pk
##pl
##pm
##pn
##po
##pp
##pq
##pr
##ps
##pt
##pu
##pv
##pw
##px
##py
##pz
##q
##qa
##qb
##qc
##qd
##qe
##qf
##qg
##qh
##qi
##qj
##qk
##ql
##qm
##qn
##qo
##qp
##qq
##qr
##qs
##qt
##qu
##qv
##qw
##qx
##qy
##qz
##r
##ra
##rb
##rc
##rd
##re
##rf
##rg
##rh
##ri
##rj
##rk
##rl
##rm
##rn
##ro
##rp
##rq
##rr
##rs
##rt
##ru
##rv
##rw
##rx
##ry
##rz
##s
##sa
##sb
##sc
##sd
##se
##sf
##sg
##sh
##si
##sj
##sk
##sl
##sm
##sn
##so
##sp
##sq
##sr
##ss
##st
##su
##sv
##sw
##sx
##sy
##sz
##t
##ta
##tb
##tc
##td
##te
##tf
##tg
##th
##ti
##tj
##tk
##tl
##tm
##tn
##to
##tp
##tq
##tr
##ts
##tt
##tu
##tv
##tw
##tx
##ty
##tz
##u
##ua
##ub
##uc
##ud
##ue
##uf
##ug
##uh
##ui
##uj
##uk
##ul
##um
##un
##uo
##up
##uq
##ur
##us
##ut
##uu
##uv
##uw
##ux
##uy
##uz
##v
##va
##vb
##vc
##vd
##ve
##vf
##vg
##vh
##vi
##vj
##vk
##vl
##vm
##vn
##vo
##vp
##vq
##vr
##vs
##vt
##vu
##vv
##vw
##vx
##vy
##vz
##w
##wa
##wb
##wc
##wd
##we
##wf
##wg
##wh
##wi
##wj
##wk
##wl
##wm
##wn
##wo
##wp
##wq
##wr
##ws
##wt
##wu
##wv
##ww
##wx
##wy
##wz
##x
##xa
##xb
##xc
##xd
##xe
##xf
##xg
##xh
##xi
##xj
##xk
##xl
##xm
##xn
##xo
##xp
##xq
##xr
##xs
##xt
##xu
##xv
##xw
##xx
##xy
##xz
##y
##ya
##yb
##yc
##yd
##ye
##yf
##yg
##yh
##yi
##yj
##yk
##yl
##ym
##yn
##yo
##yp
##yq
##yr
##ys
##yt
##yu
##yv
##yw
##yx
##yy
##yz
##z
##za
##zb
##zc
##zd
##ze
##zf
##zg
##zh
##zi
##zj
##zk
##zl
##zm
##zn
##zo
##zp
##zq
##zr
##zs
##zt
##zu
##zv
##zw
##zx
##zy
##zz
$
%
&
'
(
)
*
+
,
-
.
/
0
00
000
001
002
003
004
005
007
01
010
015
017
02
020
023
024
025
03
030
04
040
05
050
051
06
060
07
08
080
09
0971
0a
0b
0c
0d
0e
0f
0g
0h
0i
0j
0k
0l
0m
0n
0o
0p
0q
0r
0s
0t
0u
0v
0w
0x
0y
0z
1
10
100
1000
1002
1007
101
1016
1017
102
103
1038
104
105
106
107
108
1080
1086
109
1093
1098
11
110
1100
111
1111
112
1126
113
114
115
116
1163
117
1177
118
1186
119
12
120
1200
1204
1206
121
12148
122
123
124
125
1250
1258
126
1260
127
128
129
1290
13
130
1300
131
132
1320
1325
1326
133
1336
134
1340
1348
1349
135
1350
1352
1353
136
1365
1368
137
1370
1371
1377
1378
1379
138
1380
1381
1382
1384
1385
1386
1387
1388
1389
139
1390
1391
1394
1395
1397
1398
14
140
1400
1401
1402
1403
1404
1405
1406
1407
1408
1409
141
1410
1411
1412
1413
1414
1415
1416
1417
1419
142
1420
1421
1422
1423
1424
143
14344
144
145
1450
1453
146
1469
147
148
149
1492
15
150
1500
151
1515
1517
1519
152
1520
1524
1525
1526
153
154
1540
1542
155
1550
1556
156
1569
157
158
1580
159
1595
16
160
1600
1603
1605
1606
161
1610
1611
1618
162
1620
1627
1628
163
1635
164
1642
1644
1648
165
1650
1658
1659
166
1660
167
168
1683
1686
1687
169
1699
17
170
1700
1703
1707
171
1713
1718
1719
172
1720
1722
173
1730
1739
174
1740
1747
1748
175
1750
1754
1756
1757
1758
1759
176
1760
1761
1762
1763
1765
1768
1769
177
1770
1772
1773
1774
1775
1776
1778
178
1780
1781
1783
1784
1785
1786
1787
1788
1789
179
1790
1791
1792
1793
1794
1795
1796
1797
1798
1799
18
180
1800
1801
1802
1803
1804
1805
1806
1807
1808
1809
181
1810
1811
1812
1813
1814
1815
1816
1817
1818
1819
182
1820
1821
1822
1823
1824
1825
1826
1827
1828
1829
183
1830
1831
1832
1833
1834
1835
1836
1837
1838
1839
184
1840
1841
1842
1843
1844
1845
1846
1847
1848
1849
185
1850
1851
1852
1853
1854
1855
1856
1857
1858
1859
186
1860
1861
1862
1863
1864
1865
1866
1867
1868
1869
187
1870
1871
1872
1873
1874
1875
1876
1877
1878
1879
188
1880
1881
1882
1883
1884
1885
1886
1887
1888
1889
189
1890
1891
1892
1893
1894
1895
1896
1897
1898
1899
19
190
1900
1901
1902
1903
1904
1905
1906
1907
1908
1909
191
1910
1911
1912
1913
1914
1915
1916
1917
1918
1919
192
1920
1921
1922
1923
1924
1925
1926
1927
1928
1929
193
1930
1931
1932
1933
1934
1935
1936
1937
1938
1939
194
1940
1941
1942
1943
1944
1945
1946
1947
1948
1949
195
1950
1951
1952
1953
1954
1955
1956
1957
1958
1959
196
1960
1961
1962
1963
1964
1965
1966
1967
1968
1969
197
1970
1971
1972
1973
1974
1975
1976
1977
1978
1979
198
1980
1981
1982
1983
1984
1985
1986
1987
1988
1989
199
1990
1991
1992
1993
1994
1995
1996
1997
1998
1999
1a
1b
1c
1d
1e
1f
1g
1h
1i
1j
1k
1l
1m
1n
1o
1p
1q
1r
1s
1t
1u
1v
1w
1x
1y
1z
2
20
200
2000
2001
2002
2003
2004
2005
2006
2007
2008
2009
201
2010
2011
2012
2013
2014
2015
2016
2017
2018
2019
202
2020
2021
2022
203
204
205
206
207
208
209
21
210
211
212
213
214
215
216
217
218
219
22
220
221
222
223
224
225
226
227
228
229
23
230
2307
231
232
233
234
235
236
237
238
239
24
240
241
242
243
244
245
246
247
248
249
25
250
2500
251
252
253
254
255
256
257
258
259
26
260
261
262
263
264
265
266
267
268
269
27
270
271
272
273
274
275
276
277
278
279
28
280
281
282
283
284
285
286
287
288
289
29
290
291
292
293
294
295
296
297
298
299
2a
2b
2c
2d
2e
2f
2g
2h
2i
2j
2k
2l
2m
2n
2o
2p
2q
2r
2s
2t
2u
2v
2w
2x
2y
2z
3
30
300
3000
301
302
303
304
305
306
307
308
309
31
310
311
312
313
314
315
316
3166
317
318
319
32
320
321
322
323
324
325
326
327
328
329
33
330
331
332
333
334
335
336
337
338
339
34
340
341
342
343
344
345
346
347
348
349
35
350
351
352
353
354
355
356
357
358
359
36
360
361
362
363
364
365
366
367
368
369
37
370
371
372
373
374
375
376
377
378
379
38
380
381
382
383
384
385
386
387
388
389
39
390
391
392
393
394
395
396
397
398
399
3a
3b
3c
3d
3e
3f
3g
3h
3i
3j
3k
3l
3m
3n
3o
3p
3q
3r
3s
3t
3u
3v
3w
3x
3y
3z
4
40
400
4000
401
402
403
404
405
406
407
408
409
41
410
411
412
413
414
415
416
417
418
419
42
420
421
422
423
424
42455746
425
426
427
428
429
43
430
431
432
433
4331
434
435
436
437
438
439
44
440
441
442
443
444
445
446
447
448
449
45
450
451
452
453
454
455
456
457
458
459
46
460
461
462
463
4638
464
465
466
467
468
469
47
470
471
472
473
474
475
476
477
478
479
48
480
481
482
483
484
485
486
487
488
489
49
490
491
492
493
494
495
496
497
498
499
4a
4b
4c
4d
4e
4f
4g
4h
4i
4j
4k
4l
4m
4n
4o
4p
4q
4r
4s
4t
4u
4v
4w
4x
4y
4z
5
50
500
5000
501
502
503
504
505
506
507
508
509
51
510
511
512
513
514
515
516
517
518
519
52
520
521
522
523
524
525
526
527
528
529
53
530
531
532
533
534
535
536
537
538
539
54
540
541
542
543
544
545
546
547
548
549
55
550
551
552
553
554
555
556
557
558
559
56
560
561
562
563
564
565
566
567
568
569
57
570
571
572
573
574
575
576
577
578
579
58
580
581
582
583
584
585
586
587
588
589
59
590
591
592
593
594
595
596
597
598
599
5a
5b
5c
5d
5e
5f
5g
5h
5i
5j
5k
5l
5m
5n
5o
5p
5q
5r
5s
5t
5u
5v
5w
5x
5y
5z
6
60
600
6000
601
602
603
6036
604
605
606
607
608
609
61
610
611
612
613
614
615
616
617
618
619
62
620
621
622
623
624
625
626
627
628
629
63
630
631
632
633
634
635
636
637
638
639
64
640
641
642
643
644
645
646
647
648
649
65
650
651
652
653
654
655
656
657
658
659
66
660
661
662
663
664
665
666
667
668
669
67
670
671
672
673
674
675
676
677
678
679
68
680
681
682
683
684
685
686
687
688
689
69
690
691
692
693
694
695
696
697
698
699
6a
6b
6c
6d
6e
6f
6g
6h
6i
6j
6k
6l
6m
6n
6o
6p
6q
6r
6s
6t
6u
6v
6w
6x
6y
6z
7
70
700
7000
701
702
704
705
706
707
708
709
71
710
711
712
713
714
715
716
717
718
719
72
720
721
722
723
724
725
726
727
728
729
73
730
731
732
733
734
735
736
737
738
739
74
740
741
742
743
744
745
746
747
748
749
75
750
751
752
753
754
755
756
757
758
759
76
760
761
762
763
764
765
767
768
769
77
770
771
773
774
775
776
777
78
780
781
782
783
784
785
786
787
788
789
79
790
792
7929
793
794
795
796
797
798
799
7a
7b
7c
7d
7e
7f
7g
7h
7i
7j
7k
7l
7m
7n
7o
7p
7q
7r
7s
7t
7u
7v
7w
7x
7y
7z
8
80
800
8000
801
8018
802
803
804
805
806
807
808
809
81
810
812
813
814
815
816
817
818
819
82
820
821
822
823
824
825
826
827
828
829
83
830
831
832
833
835
836
837
838
84
840
841
842
843
844
845
846
847
849
85
850
852
853
854
855
856
857
858
859
86
860
861
862
863
864
865
867
868
869
87
870
871
872
873
874
875
876
878
88
880
882
883
884
885
886
887
888
89
890
891
892
893
895
896
898
8a
8b
8c
8d
8e
8f
8g
8h
8i
8j
8k
8l
8m
8n
8o
8p
8q
8r
8s
8t
8u
8v
8w
8x
8y
8z
9
90
900
901
902
903
904
906
907
908
909
91
910
911
912
914
915
917
919
92
920
922
923
924
925
929
93
930
931
932
933
934
935
936
939
94
940
941
942
943
944
945
947
95
950
951
952
953
956
96
960
961
962
963
964
965
967
968
969
97
970
971
972
973
974
975
976
977
978
979
98
980
981
983
984
985
986
987
99
990
991
99166
993
994
995
996
997
998
999
9a
9b
9c
9d
9e
9f
9g
9h
9i
9j
9k
9l
9m
9n
9o
9p
9q
9r
9s
9t
9u
9v
9w
9x
9y
9z
:
;
<
=
>
?
@
[
[CLS]
[MASK]
[PAD]
[SEP]
[UNK]
\
]
^
_
`
a
a0
a1
a2
a3
a4
a5
a6
a7
a8
a9
aa
aaj
aamir
aaron
ab
abad
abbas
abbasi
abc
abd
abdul
abdullah
abi
about
above
abprs
abraham
abu
abuse
ac
academic
academy
accademia
access
accessed
accident
according
account
accounts
accurate
accused
acid
across
act
acting
action
active
activist
activists
activities
activity
actor
actors
actress
acts
actual
ad
ada
adam
adams
additional
address
adelaide
administration
administrative
adobe
adopted
adrian
adult
advanced
adventure
ae
af
affairs
afghan
afghanistan
afp
africa
african
after
ag
again
against
age
aged
agency
agent
ages
agha
agios
agreement
agricultural
agriculture
ah
ahead
ahmad
ahmadabad
ahmed
ahmedabad
ai
aichi
aid
ain
air
aircraft
airfield
airlines
airpark
airport
airports
airways
aj
ak
akademi
akbar
akhtar
al
alabama
alam
alan
alaska
albania
albanian
albany
albert
alberta
album
aleph
alex
alexander
alexandria
alfred
algeria
ali
alia
alice
aligarh
align
aljazeera
all
allah
allan
allen
alliance
allied
allies
almost
along
alpha
alphabet
alphabetical
already
also
alternative
although
alumni
always
am
amar
amazon
ambassador
amended
amendment
america
american
americans
amersfoort
amid
amir
amitabh
amman
amnesty
among
amounts
amp
amsterdam
amy
an
ana
analysis
anand
ancient
and
anderson
andhra
andre
andrew
angel
angeles
anglo
animal
animals
animated
animation
anita
ankara
ann
anna
anne
anniversary
announce
announced
announces
annual
another
ansari
anthem
anthony
anti
antonio
anwar
any
ao
ap
apex
app
appendix
apple
application
applied
appointed
appoints
approach
apr
april
aq
ar
ara
arab
arabia
arabian
arabic
arabs
archaeological
archaeology
archinform
architecture
archive
archived
archivedate
archives
archiveurl
are
area
areas
arena
argentina
arif
arizona
arjun
ark
arkansas
armed
armenia
armenian
arms
armstrong
army
arnold
around
arrest
arrested
arrondissement
art
arthur
article
articles
articleshow
artist
artists
arts
ary
as
asad
asadabad
ash
ashland
ashraf
asia
asian
asiatic
asin
asked
asma
asp
aspects
aspx
assam
assault
assembly
assessment
associated
association
astronomical
astronomy
at
ataturk
athens
athletes
atlantic
atlas
atomic
attack
attacks
attempt
au
aubin
auckland
audio
aug
august
aur
aurora
aus
austin
australia
australian
austria
aut
auteur
auth
author
authorities
authority
authors
autobiography
autonomous
aux
av
available
average
averages
aviation
aw
award
awarded
awards
away
ax
axis
ay
ayesha
ayodhya
az
azad
azam
azerbaijan
aziz
b
b0
b1
b2
b3
b4
b5
b6
b7
b8
b9
ba
baba
babelio
baby
bachchan
back
backed
background
bad
bagh
baghdad
bags
baha
bahadur
bahawalpur
bahrain
baker
baku
bala
balance
balkan
balkans
ball
baloch
balochistan
baltimore
ban
banarsidass
band
bang
bangalore
bangkok
bangla
bangladesh
banglapedia
bank
banking
banks
banner
bar
barbara
barcelona
baron
barry
bartleby
barton
base
based
basic
basis
batting
battle
battles
bay
bazmeurdu
bb
bbc
bc
bce
bd
be
beach
bear
beat
beautiful
beauty
beaver
became
because
becker
become
becomes
becoming
bedford
been
before
began
begin
beginning
begins
begum
behind
beijing
being
bel
belarus
belgium
believe
bell
ben
bengal
bengali
benjamin
bennett
benton
berkeley
berlin
bernard
best
beta
better
between
bevolkerung
beweb
beyond
bf
bg
bh
bharat
bhatt
bhl
bhopal
bhutan
bhutto
bi
bibcode
bible
biblical
bibliography
bid
big
biggest
bihar
bilal
bill
billion
bin
bio
biographical
biographie
biographies
biography
biological
biology
bios
bir
bird
birmingham
birth
birthday
bishop
bj
bjp
bk
bl
black
blackwell
blair
blast
block
blog
blogs
blogspot
blood
bloomberg
bloomsbury
blue
bm
bmatrix
bn
bnf
bo
board
bob
body
boeing
bohol
bois
bolagh
bollywood
bomb
bombay
bombing
bond
book
books
boone
border
borders
born
borough
bose
bosnia
boss
boston
bosworth
bot
both
boundaries
boundary
bowling
box
boy
bp
bq
br
bradford
branch
brand
brasil
brazil
break
breaking
brian
bridge
brief
brill
bring
bristol
britain
britannica
british
broadcasting
broadway
brockhaus
brooklyn
brother
brothers
brought
brown
browse
bruce
brunswick
bryan
bs
bt
bu
buchanan
bucknell
buddha
buddhism
buddhist
budget
buena
buffalo
build
building
buildings
built
bulgaria
bulletin
bureau
burkina
burlington
burma
bus
bush
business
but
butler
butt
bv
bw
bx
by
bz
c
c0
c1
c2
c3
c4
c5
c6
c7
c8
c9
ca
cabinet
cairo
calculated
calcutta
calendar
calhoun
california
call
called
calls
cambridge
came
cameron
camp
campaign
campbell
campus
can
canada
canadian
canal
cancer
candidate
candidates
cannabis
cannot
canton
cap
cape
capita
capital
captain
captured
car
carbon
card
care
career
caribbean
carl
carlos
carnegie
carniola
carol
carolina
carroll
carter
cartoon
case
cases
cash
cass
cast
caste
castle
casualties
cat
catalana
catalog
catalogue
catedral
category
cathedral
catherine
catholic
caucasus
cause
causes
cb
cbc
cbs
cc
ccl
cd
cdots
ce
cedar
celebrate
celebrates
celebrities
celebrity
cell
cells
cemetery
census
center
centered
centers
central
centre
centuries
century
ceo
ceremony
certain
cf
cg
cgi
ch
chad
chah
chain
chairman
chak
chakwal
challenge
challenges
chamber
champaign
champion
champions
championship
chan
chandigarh
chandra
change
changed
changes
changing
channel
channels
chapelle
chapter
character
characteristics
characters
charente
charge
charles
charlotte
chart
charter
charts
chartsbin
chase
chatterjee
chaudhry
chechen
chechnya
check
chemical
chemistry
chennai
cherokee
chester
chicago
chief
child
children
chile
china
chinese
choice
chopra
chris
christ
christian
christianity
christians
christmas
christophe
christopher
chronicle
chronology
church
churches
ci
cia
cid
cinema
cinemagia
circassian
circle
citation
cite
cited
citeref
cities
citizen
citizens
citizenship
citwf
city
ciudad
civil
civilian
civilians
civilization
cj
ck
cl
claim
claimed
claims
clair
clarendon
clark
clash
clashes
class
classic
classical
classification
claude
clay
clayton
clear
cleric
cleveland
climate
clinical
clinton
clio
close
cloud
club
cm
cms
cn
cnn
co
coalition
coast
cobiss
code
codes
cohen
coke
cold
colin
collapse
collected
collection
collections
college
colleges
collins
colombia
colombo
colonial
colony
color
colorado
columbia
columbus
com
combat
combined
come
comedy
comes
coming
command
commander
commentary
commerce
commercial
commission
commissioner
commissions
committee
common
commons
commonwealth
commune
communication
communications
communist
communities
community
companies
companion
company
comparative
comparison
competition
complete
complex
composition
compound
comprehensive
computer
con
concept
concise
concord
conditions
conference
confirmed
confirms
conflict
conflicts
congo
congress
connecticut
connection
conor
conquest
consequences
conservation
considered
consolidated
constantinople
constituency
constitution
constitutional
construction
contact
contemporary
content
contest
context
continue
continues
contribution
control
controlled
convention
conversation
conversion
cook
cooper
cooperation
copy
copyright
cordoba
cornell
coronavirus
corporate
corporation
corps
correspondent
cos
cost
costa
cote
could
council
councils
count
counter
counties
countries
country
county
coup
course
court
courts
cover
covid
cp
cq
cr
craig
crash
crawford
create
created
creation
creative
credit
creek
crescent
cricinfo
cricket
cricketarchive
cricketer
cricketers
crime
crimes
criminal
crisis
critical
critics
croatia
croix
crooke
crore
cross
crown
cruz
crystal
cs
csfd
ct
cu
cuba
cultural
culture
cultures
cumberland
cup
currency
current
currentmonthname
customs
cut
cv
cw
cx
cy
cyprus
cz
czech
d
d0
d1
d2
d3
d4
d5
d6
d7
d8
d9
da
daily
dakota
dallas
dam
damascus
dan
dance
daniel
danish
dans
dar
dark
darreh
darwin
das
dasht
data
database
databases
date
dated
dates
daughter
david
davies
davis
dawn
dawnnews
day
days
db
dbpedia
dc
dd
de
dead
deadline
deadly
deal
dean
death
deaths
debate
debt
debut
dec
decatur
deccan
december
decision
declaration
declared
decline
decree
deep
default
defeat
defence
defense
defined
definition
degree
deh
dekalb
del
delaware
delhi
delle
delta
demand
democracy
democratic
demographic
den
denis
denmark
dennis
density
deoband
department
departments
depression
deputy
der
derek
des
description
desert
design
desk
despite
destruction
det
detail
detailed
details
deutsche
deutschen
deutschland
dev
developed
development
devi
df
dg
dh
dhaka
di
dialect
dialogue
diamond
diaspora
dickinson
dictionaries
dictionary
dictionnaire
did
die
died
diego
dies
difference
different
digital
dil
din
dinar
diplomacy
diplomat
diplomatic
direct
directed
director
directorate
directory
disaster
discogs
discovery
discussion
disease
diseases
disney
display
displaystyle
dispute
distribution
district
districts
diversity
divided
dividing
divine
division
divisional
divisions
dj
dk
dl
dlr
dm
dn
dna
do
doc
docs
doctor
document
documentary
documents
does
dog
doi
doing
dokumentum
dollar
domain
dome
domestic
dominican
don
donald
done
dong
dos
dot
double
douglas
down
download
dp
dq
dr
draft
drama
dramas
dream
dreyer
drive
drone
drug
drugs
ds
dt
du
dubai
dublin
due
duke
dunya
durham
during
dutch
dutt
dv
dw
dx
dy
dynamics
dynasties
dynasty
dz
e
e0
e1
e2
e3
e4
e5
e6
e7
e8
e9
ea
each
eagle
earl
earlier
earliest
early
earth
earthquake
east
eastern
eb
ebooks
ec
eci
economic
economics
economist
economy
ecp
ecs
ed
eden
edgar
edge
edinburgh
edited
edition
editions
editor
editorial
editors
edmund
edr
eds
edu
education
educational
edward
edwards
edwin
ee
ef
effect
effective
effects
eg
egypt
egyptian
eh
ei
eid
eight
einstein
eireann
either
ej
ek
el
elected
election
elections
electoral
electric
electricity
electronic
elements
elite
elizabeth
elk
ellen
ellis
em
embassy
emergency
emerging
emily
emirate
emirates
emma
emperor
empire
empires
employment
empty
en
enciclopedia
enciklopedija
encyclopaedia
encyclopedia
encyclopædia
end
ends
enemy
energy
eng
engine
engineering
england
english
enter
entertainment
entire
entity
entry
environment
environmental
enzy
enzyklopadie
eo
eol
ep
epic
episode
epsncricinfo
eq
equal
equality
er
era
erdogan
eric
erickson
eritrea
ernest
ernst
error
es
espana
espn
espncricinfo
essays
essential
est
established
establishment
estado
estate
estimate
estimated
estimates
estonia
et
etc
ethics
ethiopia
ethnic
ethnicity
ethnologue
etienne
etymology
eu
eugene
euler
euro
europa
europe
european
ev
evans
even
event
events
ever
every
everything
evidence
evolution
ew
ex
example
excel
exchange
excludes
exclusive
execution
executive
exit
exodus
exp
expansion
expected
experience
experts
explore
express
external
externalid
ey
eye
eyes
ez
f
f0
f1
f2
f3
f4
f5
f6
f7
f8
f9
fa
face
facebook
faces
fact
factbook
factfinder
facts
faculty
failure
fair
fairfield
fairview
faisal
faisalabad
faith
fall
falls
false
fame
families
family
famine
famous
fan
fans
far
farm
farzaneh
fashion
faso
fast
father
fatima
fayette
fb
fc
fd
fe
fear
feature
features
feb
february
federal
federation
feed
felix
fellows
fem
female
fembio
feminism
feminist
fernsehserien
festival
festivals
few
ff
fg
fh
fi
fiction
fid
field
fields
fifa
fifth
fight
fighter
fighters
fighting
figure
figures
file
files
fillmore
film
filmfare
filmportal
films
final
finally
finance
financial
find
findagrave
fine
finland
finnish
fire
first
firstpost
fischer
fish
fisher
five
fj
fk
fl
flag
fleet
flight
flood
florence
florida
floyd
flying
fm
fn
fo
focus
folk
folklore
following
food
football
for
forbes
force
forced
forces
ford
foreign
foreigners
forest
forests
forgotten
form
format
formation
former
formerly
forms
fort
forum
forward
foster
found
foundation
founder
four
fourth
fox
fp
fq
fr
frac
france
francis
francisco
francois
frank
franklin
frau
frauendatenbank
fred
frederic
frederick
free
freedom
fremont
french
friday
friedrich
friend
friends
friendship
from
front
frontier
frontline
fs
ft
fu
fuel
full
fulton
func
function
fund
fur
further
future
fv
fw
fx
fy
fz
g
g0
g1
g2
g3
g4
g5
g6
g7
g8
g9
ga
gabriel
galaxy
gallery
game
games
gandhi
garden
gardens
garfield
garonne
gary
gas
gate
gates
gateway
gay
gaza
gazette
gazetteer
gb
gc
gd
gdp
ge
gec
gemeinden
gen
gender
gene
genealogie
genealogy
geneastar
general
generation
genesis
genetic
geneva
genocide
geo
geoffrey
geographic
geographical
geography
geological
geonames
georg
george
georges
georgetown
georgia
georgian
gerhard
germain
german
germany
geschichte
get
gets
getting
getty
gf
gg
gh
ghana
ghosh
ghost
ghulam
gi
giant
gibson
gilbert
gill
girl
girls
give
given
gives
gj
gk
gl
glacier
glasgow
glass
global
globe
glossary
gm
gmina
gn
gnd
gnispq
gns
go
goa
god
goes
going
gol
gold
golden
good
google
gordon
gospel
got
gov
governance
government
governor
governorate
governors
govt
gp
gq
gr
grace
graduate
graham
grammar
gran
grand
grande
grant
gray
great
greater
greatest
greece
greek
green
greene
greenwood
gregory
grid
gross
ground
group
groups
grove
growing
growth
gs
gt
gu
guard
guardian
guatemala
guggenheim
guide
guinea
gujarat
gul
gulf
gun
gupta
guru
guy
gv
gw
gx
gy
gz
h
h0
h1
h2
h3
h4
h5
h6
h7
h8
h9
ha
haaretz
habib
had
hadith
hai
haider
hajj
hajji
half
hall
halt
hamburg
hamid
hamilton
hampshire
hampton
han
hancock
hand
handbook
hands
hanover
hans
hansard
haplogroup
happy
haq
har
harbor
hard
harmony
harold
harper
harpercollins
harris
harrison
harry
hartford
harvard
harvey
harvnb
has
hasan
hassan
hastings
haute
have
haven
having
hawaii
hayat
hayes
hazrat
hb
hbox
hc
hd
he
head
health
heart
heat
heavy
hebrew
heidelberg
heights
heinrich
held
helen
heliport
help
helsinki
henderson
henri
henry
her
herald
herbert
here
heritage
hermann
hero
heroes
herzegovina
hezbollah
hf
hg
hh
hi
hidden
hierarchy
high
higher
highest
highlights
highly
highway
hijab
hilaire
hill
hills
him
himself
hind
hindi
hindu
hinduism
hindus
hindustan
hindustantimes
hip
his
histoire
historia
historian
historians
historic
historical
historiography
history
hit
hitler
hits
hj
hk
hl
hm
hn
ho
hockey
hold
holland
hollywood
holocaust
holt
holy
home
homepage
hong
honor
honour
honours
hope
hopkins
horse
hosayn
hospital
host
hot
hotel
houghton
hours
house
household
houses
housing
houston
how
howard
however
hp
hq
hr
hrvatska
hs
ht
htm
html
http
https
hu
hudson
hugh
hum
human
humanitarian
hundred
hundreds
hungama
hungarian
hungary
hunt
hunter
hurriyet
husain
husayn
husband
hussain
hv
hw
hx
hy
hyderabad
hz
i
i0
i1
i2
i3
i4
i5
i6
i7
i8
i9
ia
ian
ib
ibdb
ibid
ibn
ibrahim
ic
ica
icc
ice
id
idaho
idea
ideas
identifiants
identity
ideology
ie
if
ig
ignored
ih
ii
iii
iiss
ij
ik
il
illegal
illinois
illustrated
ils
im
image
images
imam
imdb
imf
immigration
impact
imperial
imperialism
implications
important
imran
imslp
in
inc
incidents
include
included
includes
including
income
incorporated
incorporation
increase
independence
independent
index
india
indiaglitz
indian
indiana
indianexpress
indians
indiatimes
indies
indigenous
individual
indo
indonesia
indonesian
indus
industrial
industries
industry
influence
influential
info
infobox
information
inhabited
initiative
injured
inner
innings
inside
insider
instagram
institut
institute
institution
institutions
instituto
int
integrated
intellectual
intelligence
inter
interactive
interest
interior
internal
international
internationale
internationals
internet
internetarchivebot
interpretation
intervention
interview
into
introduction
invalid
invasion
investigation
investment
io
ioc
iowa
ip
iq
iqbal
ir
iran
iranian
iranica
iraq
iraqi
ireland
irfan
irish
iron
is
isabart
isbn
isfdb
isis
islam
islamabad
islamic
islamist
island
islands
isle
ismail
iso
israel
israeli
issn
issue
issues
ist
istanbul
it
italian
italy
item
itemid
itis
its
itself
iu
iucn
iv
ivan
iw
ix
iy
iz
j
j0
j1
j2
j3
j4
j5
j6
j7
j8
j9
ja
jack
jackson
jacob
jacques
jafarabad
jahan
jahangir
jain
jakarta
jalal
jalalabad
jam
jamal
james
jamestown
jamia
jamil
jammu
jan
jane
jang
janow
january
japan
japanese
jason
jasper
java
javed
jay
jazeera
jb
jc
jd
je
jean
jeddah
jeff
jefferson
jeffrey
jennifer
jeremy
jersey
jerusalem
jessica
jesus
jet
jewish
jews
jf
jg
jh
jhang
jharkhand
ji
jihad
jim
jinnah
jj
jk
jl
jm
jn
jo
joan
job
jobs
joe
johann
johannes
johannesburg
john
johnson
join
joins
joint
jon
jonathan
jones
jong
jordan
jose
joseph
joshi
joshua
journal
journalism
journalist
journey
jp
jpg
jq
jr
js
jsp
jstor
jt
ju
juan
judaism
jul
julia
julie
julien
july
jun
junction
june
junior
just
justice
justin
jv
jw
jx
jy
jz
k
k0
k1
k2
k3
k4
k5
k6
k7
k8
k9
ka
kabaddi
kabir
kabul
kalam
kalan
kamal
kand
kandi
kannada
kansas
kapil
kapoor
karachi
karan
karen
karim
karl
karnataka
kashmir
kashmiri
katalogisering
kate
kaur
kazakhstan
kb
kc
kd
ke
keep
keith
kelly
ken
kennedy
kenneth
kent
kentucky
kenya
kepler
kerala
kevin
key
keynes
kf
kg
kh
khalid
khan
khel
khorasan
khyber
ki
kids
kiev
kill
killed
killing
kills
kim
kind
kindred
king
kingdom
kings
kingston
kitab
kj
kk
kl
km
kn
knaw
know
knowledge
known
knox
ko
koch
kolkata
kong
korea
korean
kosovo
kot
kp
kq
kr
krishna
ks
kt
ku
kuala
kultur
kumar
kurdish
kurdistan
kurds
kuwait
kuyavian
kv
kw
kx
ky
kz
l
l0
l1
l2
l3
l4
l5
l6
l7
l8
l9
la
labor
labour
lac
ladies
lady
lafayette
lahore
lake
lakes
lakh
lal
lambda
lancaster
land
lands
landscape
lane
lang
language
languages
lanka
large
largest
las
last
late
later
latest
latin
latvia
launch
launched
launches
laura
laureate
laureates
laurent
law
lawrence
laws
lb
lc
lccn
ld
le
lead
leader
leaders
leadership
leading
league
learn
learning
least
leave
leaves
leaving
lebanon
lecture
led
lee
leeds
left
legacy
legal
legend
legendary
leger
legislation
legislative
leiden
leksikon
length
leo
leon
leonard
leq
les
lesbian
leslie
less
lesser
lessons
let
letter
letters
level
lewis
lexington
lf
lg
lgcd
lgpunjab
lh
li
lib
liberal
liberation
liberty
libraries
library
libris
libya
libyan
life
lifestyle
light
like
likely
lim
limited
lincoln
linda
line
lines
linguistic
linguistics
link
links
lion
lisa
list
listed
listing
lists
literary
literature
lithuania
little
littlefield
live
livemint
lives
living
livingston
lj
lk
ll
llc
lm
ln
lo
loc
local
localities
located
location
log
logan
loire
lok
london
lone
lonely
long
longer
longman
look
looking
lord
lore
los
loss
losses
lost
lot
louis
louisiana
love
low
lower
lp
lq
lr
ls
lt
ltd
ltr
lu
lublin
lucknow
luis
lumpur
lux
lv
lw
lx
ly
lynching
lynn
lyon
lyrics
lz
lzmk
m
m0
m1
m2
m3
m4
m5
m6
m7
m8
m9
ma
macau
macedonia
machine
macmillan
madagascar
madan
made
madelung
madison
madras
madrasa
madrid
mae
magazine
magic
mahal
maharashtra
mahatma
mahmood
mahmud
mai
mail
main
maine
major
majority
majumdar
make
makes
making
malala
malaysia
malcolm
male
mali
malik
malta
mammal
man
management
manager
manchester
manila
manual
many
map
maps
mar
marathi
marc
march
margaret
maria
marie
marine
marion
maritime
mark
market
marketing
markets
marks
marriage
married
mars
marshall
martial
martin
marx
mary
maryland
masjid
mason
masovian
mass
massachusetts
massacre
master
masters
match
matches
material
materials
mathbb
mathbf
mathematics
matrix
matter
matters
matthew
maulana
maurice
max
may
maya
mayor
mazraeh
mb
mc
mcc
mcfarland
mcgraw
mclean
md
me
meaning
means
mecca
medal
media
medical
medicine
medieval
medina
mediterranean
medium
meet
meeting
mehmed
mehmet
mein
melbourne
member
members
membership
memoirs
memorial
memories
memory
men
mental
mer
mera
mercer
mere
meri
merriam
message
met
metacritic
meteorological
method
metro
metropolitan
mexico
mf
mg
mh
mi
miami
mian
michael
michel
michelle
michigan
microsoft
mid
middle
midway
mifflin
migration
mike
mil
miles
militant
militants
military
mill
miller
million
mills
milton
mind
minimum
minister
ministers
ministry
minnesota
minor
minorities
minority
mint
minute
minutes
mir
mirror
mirza
miss
missile
missing
mission
mississippi
missouri
mit
mitchell
mj
mk
ml
mm
mn
mna
mo
mob
mobile
mod
model
models
modern
modi
mohamed
mohammad
mohammed
mohan
mojo
moldova
monarchy
monde
monetary
money
mongol
mongolia
monitor
monroe
montana
montgomery
month
monthly
months
monuments
moon
moore
moral
more
morgan
morning
morocco
morris
morrison
moscow
mosque
most
mosul
mother
motilal
motion
mount
mountain
mountains
move
movement
movements
moves
movie
movies
mozambique
mp
mpa
mq
mr
mrs
ms
msw
mt
mtdna
mtv
mu
much
mufti
mughal
muhammad
mukherjee
muller
multan
multi
multiple
mumbai
municipal
municipalities
municipality
municipios
munzinger
murad
murder
murray
musa
museum
music
musical
musicbrainz
muslim
muslims
must
mustafa
mutation
mv
mw
mx
my
myanmar
mystery
myth
mz
n
n0
n1
n2
n3
n4
n5
n6
n7
n8
n9
na
nach
nacional
nadia
nadu
nagar
nam
name
named
names
nancy
napoleon
narayan
narendra
narowal
narrative
nasa
nasir
nath
nation
national
nationalism
nationalist
nations
native
nato
natuknica
natural
nature
naval
navy
nawab
nawaiwaqt
nawaz
nazi
nb
nbc
nc
ncbi
nd
ndtv
ne
near
nebraska
necessarily
need
needs
negative
nehru
nelson
neo
nepal
net
netflix
netherlands
network
networks
nevada
never
new
news
newspaper
newspapers
newton
next
nf
ng
nh
ni
nic
nicholas
nick
nicolas
nicosia
nigeria
night
nights
nih
nin
nine
nineteenth
nj
nk
nkp
nl
nlm
nm
nmhh
nn
nndb
no
nobel
nobelprize
noble
node
nomination
nominations
nominees
non
noor
nor
nord
norman
norske
norte
north
northeast
northern
northwest
norton
norway
not
note
noted
notes
nothing
notification
nottingham
nov
nova
novel
november
now
np
npr
nq
nr
ns
nt
nu
nuclear
number
numbers
nv
nw
nx
ny
nytimes
nz
o
o0
o1
o2
o3
o4
o5
o6
o7
o8
o9
oa
oak
oakland
ob
obama
obituaries
obituary
object
objects
oblast
observatory
observer
oc
occupation
occupied
ocean
och
oclc
oct
october
od
odi
odisha
odnb
oe
oecd
of
off
office
officer
officers
official
officially
officials
often
og
oh
ohio
oi
oil
oj
ok
oklahoma
ol
old
oldest
oliver
olya
olympic
olympics
om
oman
omar
omega
on
once
one
oneindia
onepage
online
only
ontario
oo
op
opac
open
opening
opens
openstreetmap
operation
operations
opinion
opposition
oq
or
orange
order
orders
oregon
org
organisation
organization
orient
oriental
origin
original
originally
origins
orissa
orr
ort
orthodox
os
oscar
osman
osmanlı
osprey
ost
ot
other
others
ottawa
otter
otto
ottoman
ou
our
out
outlook
outside
ov
oval
over
overseas
overview
ow
owen
own
ox
oxford
oy
oz
p
p0
p1
p2
p3
p4
p5
p6
p7
p8
p9
pa
pacific
padma
page
pages
paid
pain
pak
pakhtunkhwa
pakistan
pakistani
pakistanrail
pakistantoday
pal
palace
palestine
palestinian
palestinians
palgrave
palm
pan
panama
panel
pantheon
pap
paper
papers
papua
par
para
paradise
parameter
parents
paris
parish
park
parker
parliament
parliamentary
part
participle
parties
partition
parts
party
pas
pasha
pass
passed
passenger
passes
past
patel
path
patriarch
patriarchate
patrick
paul
paulo
pay
pays
pb
pbs
pc
pcb
pd
pdf
pe
peace
peak
peakbagger
pearson
pedro
penalty
penguin
peninsula
pennsylvania
people
peoples
per
percent
performance
period
permanent
perry
persia
persian
person
personal
persons
perspective
perspectives
perth
peru
peshawar
peter
petersburg
pew
pf
pg
ph
phase
phd
philadelphia
philip
philippine
philippines
phillips
philosophical
philosophy
phoenix
phone
photo
photos
php
physical
physics
physiology
pi
picture
pictures
pierce
pierre
pike
pilot
pine
pioneer
pir
pittsburgh
pj
pk
pkk
pl
place
places
plan
plane
planet
planning
plans
plant
plants
platform
play
played
player
players
playing
plays
pleasant
please
plot
plus
plymouth
pm
pmc
pmid
pml
pn
png
po
poblacion
poems
poet
poetry
poets
point
points
poland
police
policies
policy
polish
political
politician
politicpk
politics
polk
poll
polls
pomeranian
poor
pop
pope
popular
population
populations
por
port
portal
porter
portland
portrait
portugal
portuguese
position
positive
possible
post
postal
posts
postsecondary
potential
pound
pour
poverty
powell
power
powerful
powers
pp
ppp
pq
pr
practice
practices
pradesh
prairie
prakash
prakashan
prasad
prayer
pre
prefecture
prefix
premier
presence
present
presented
presidency
president
presidential
presidents
press
presse
pressure
prevention
previous
price
prices
pride
primary
prime
prince
princess
princeton
principles
print
printing
prison
private
prize
prizes
pro
probably
problem
problems
proceedings
process
producer
product
production
products
prof
professional
professor
profile
profiles
program
programme
programming
progress
project
projects
proleksis
prominent
pronunciation
property
prophet
prospects
protection
protest
protesters
protests
province
provinces
provincial
provisional
ps
psl
psychological
psychology
pt
pti
ptv
pu
pub
pubchem
public
publication
publications
published
publisher
publishers
publishing
puerto
pune
punishment
punjab
punjabi
pur
put
putin
putnam
pv
pvt
pw
px
py
pz
q
q0
q1
q2
q3
q4
q5
q6
q7
q8
q9
qa
qaeda
qaleh
qamar
qarah
qasim
qatar
qb
qc
qd
qe
qeshlaq
qf
qg
qh
qi
qj
qk
ql
qm
qn
qo
qp
qq
qr
qs
qt
qu
quaid
qualifier
quality
quarter
quarterly
quarters
que
quebec
queen
queensland
quest
question
questions
quetta
quot
quote
quoted
qur
quran
qureshi
qv
qw
qx
qy
qz
r
r0
r1
r2
r3
r4
r5
r6
r7
r8
r9
ra
race
rachel
radical
radio
rahman
rahul
rai
rail
railway
railways
rain
raj
raja
rajasthan
rajya
rally
ralph
ram
rana
ranch
randolph
random
range
rani
rank
ranking
rankings
rao
rape
rashid
rate
rates
rather
ratings
ravi
rawalpindi
ray
raymond
raza
rb
rc
rd
re
reach
reaction
read
reader
reading
ready
real
reality
really
reason
reasons
rebel
rebels
received
recent
recipients
recognition
recognized
record
recorded
records
red
reddy
rediff
ref
refcelebrite
reference
referentiels
reform
refugee
refugees
regime
region
regional
regions
register
registrar
registration
rehman
reich
reign
rekhta
rekisteritilanne
related
relations
relationship
release
released
releaseinfo
releases
relief
religion
religions
religious
remains
remembering
remy
renaissance
renowned
report
reported
reporter
reports
representation
representative
reprint
republic
required
research
reserve
reserved
resident
residents
resistance
resolution
resource
resources
response
rest
result
results
retrieved
return
returns
reuters
rev
revealed
reveals
review
reviews
revised
revival
revolt
revolution
revolutionary
reza
rf
rg
rh
rhode
ri
rice
rich
richard
richards
richest
richland
richmond
rico
ridge
right
rights
rio
riots
rise
rises
rising
risk
river
rivers
rizvi
rj
rk
rl
rm
rn
ro
road
robert
roberts
robin
robinson
roche
rock
roger
roglo
role
roll
roman
romance
romania
rome
ron
ronald
room
roosevelt
roots
rose
ross
rotten
round
route
routledge
row
rowman
roy
royal
rp
rq
rr
rs
rt
ru
ruby
rukh
rule
ruled
rulers
rules
ruling
run
runs
rural
russell
russia
russian
rutgers
ruth
rv
rw
rwanda
rx
ry
ryan
rz
s
s0
s1
s2
s3
s4
s5
s6
s7
s8
s9
sa
saba
sabah
sabha
sacred
sadar
sadat
saeed
safe
safety
sage
sahib
sahitya
sai
said
saidabad
saint
sainte
saints
sakaoglu
salam
sale
salem
sales
salman
salt
salvador
sam
samaa
same
samuel
san
sana
sanam
sang
sanjay
sanskrit
santa
santiago
santo
sao
saone
sar
sara
sarah
sardar
sargodha
sarkar
saskatchewan
satellite
saud
saudi
sauveur
save
say
says
sb
sc
scale
scarecrow
schedule
scheme
scholar
scholars
school
schools
schuster
sci
science
sciences
scientific
scientist
scientists
score
scorecard
scotland
scott
screen
script
scripts
scroll
sd
se
sea
seal
seaplane
search
season
seat
seats
second
secret
secretariat
secretary
section
sector
secular
security
see
seeks
seen
seine
selected
selection
self
semi
seminary
sen
senate
sengupta
senior
sense
sent
sep
separate
separator
seperator
september
serbia
serbian
serial
series
service
services
session
set
sets
settlement
settlements
seven
several
sex
sexual
sf
sfn
sfnp
sg
sh
shadow
shah
shahid
shahrak
shaikh
shanghai
shankar
share
shared
shares
sharif
sharma
sharon
sharqi
shaw
she
sheet
sheikh
shelby
sher
sherman
shi
shia
shoot
shooting
short
shot
should
show
showing
shown
shows
shri
shtml
si
siddiqui
side
sidi
siege
sierra
sify
sigma
sign
signs
sikh
sikhs
silesian
silk
silver
simon
simple
sin
since
sindh
sindhi
singapore
singer
singh
single
singular
sinha
sir
sirajul
sister
sisters
site
sites
situation
six
sixth
size
sj
sk
sky
sl
slavery
slaves
sm
small
smith
sn
snaccooperative
snl
so
social
socialist
societies
society
socio
sofla
software
solar
soldier
soldiers
solomon
solution
some
something
son
song
songs
sonia
sons
soon
sophie
soul
sound
source
sources
sous
south
southeast
southern
southwest
sovereign
sovereignty
soviet
sp
space
spain
span
spanish
speak
speaker
speakers
speaking
speaks
special
species
specified
speculative
speech
spencer
spirit
spiritual
split
spoken
sport
sports
spread
spring
springer
springfield
springs
sq
sqrt
squad
square
sr
sri
ss
st
stable
stadium
staff
stage
stalin
stanbul
stand
standard
stanford
stanley
star
starrer
starring
stars
start
started
stat
state
statement
states
station
stations
statistical
statistics
statistik
statistisches
stats
status
ste
steel
step
stephen
steps
steve
steven
stevens
stewart
still
stm
stock
stockholm
stone
stop
store
stories
storm
story
strategic
strategy
street
strength
strike
strikes
strong
structure
struggle
stuart
student
students
studies
studio
study
style
su
sub
subdistrict
subdivision
subject
subjects
subregion
subst
success
succession
such
sud
sudan
sufi
sufism
sugar
suggested
suicide
sullivan
sultan
sultanate
sum
summary
summer
summit
sun
sunday
sunni
suny
super
supply
support
supreme
sur
survey
susan
sv
sveriges
sw
swami
sweden
swedish
swietokrzyskie
swiss
switzerland
sword
sworn
sx
sy
sydney
syed
symbols
synchronkartei
syracuse
syria
syrian
system
systems
sz
t
t0
t1
t2
t3
t4
t5
t6
t7
t8
t9
ta
tab
tabari
table
tables
tag
tahaffuz
tahir
tail
taiwan
tajikistan
take
taken
takes
taking
tale
tales
talib
taliban
talk
talks
tall
tallest
tamil
tan
tang
tanzania
tappeh
target
targets
tarihi
tariq
tauris
tax
taxonomic
taylor
tb
tc
tcm
td
te
teacher
teachers
teaching
team
teams
tech
technical
technologies
technology
tehran
tehsil
tek
telegraph
television
tell
telugu
temple
ten
tennessee
term
terms
territorial
territories
territory
terror
terrorism
terrorist
terrorists
test
testament
tests
texas
text
texts
tf
tg
th
thai
thailand
than
that
the
theatre
theguardian
thehindu
their
them
themselves
then
thenews
theodore
theological
theology
theory
thepeerage
there
these
thesis
theta
they
things
think
third
this
thomas
thompson
thomson
those
though
thought
thousand
thousands
threat
threatened
three
through
thus
ti
ties
tiger
till
tim
timatic
time
timeline
times
timesofindia
timothy
tinh
title
tj
tk
tl
tm
tma
tn
tnn
to
toba
today
todd
together
tokyo
told
toll
tolombeh
tom
tomatoes
tomb
tony
too
took
toolforge
top
topic
topics
torino
toronto
toss
total
totals
tour
tourism
tournament
tours
toward
towards
tower
town
towns
township
tp
tq
tr
trade
tradition
traditional
traditions
traffic
tragedy
trailer
train
training
trains
trans
transaction
transfer
transformation
transgender
transition
translated
translation
translator
transport
travel
treatment
treaty
tree
trends
trial
tribal
tribe
tribes
tribune
tribute
trinidad
triple
troops
trophy
tropical
troy
true
trump
trust
truth
ts
tsn
tt
tu
tube
tucker
tum
tunisia
turk
turkey
turkish
turkiye
turkmenistan
turks
turn
turner
turns
tv
tvurce
tw
twelve
twentieth
twenty
twin
twitter
two
tx
ty
tyler
type
tz
u
u0
u1
u2
u3
u4
u5
u6
u7
u8
u9
ua
uae
ub
uc
ucdcmultan
ucdcmuzaffargarh
ud
ue
uf
ug
uganda
uh
ui
uj
uk
ukraine
ukrainian
ul
ulucay
um
umar
un
una
und
under
underground
understanding
unesco
unincorporated
union
unique
unit
united
units
unity
univ
universal
universe
universities
university
unknown
until
uo
up
upazila
upcoming
update
updated
updates
upon
upper
uq
ur
urban
urdu
urdupoint
url
uruguay
us
usa
usage
use
used
user
uses
usgs
using
ussr
usually
ut
utah
utc
uttar
uu
uv
uw
ux
uy
uz
uzbekistan
v
v0
v1
v2
v3
v4
v5
v6
v7
v8
v9
va
vaestotietojarjestelma
vaglieri
valley
value
values
van
var
varanasi
variety
various
vat
vatican
vb
vc
vd
vdots
ve
veccia
ved
vehicle
venezuela
verde
verdict
verlag
vermont
vernon
version
very
veteran
vf
vg
vh
vi
via
viaf
vice
victims
victor
victoria
victory
video
videos
vidya
vienna
vietnam
view
views
vii
viii
vijay
village
villages
vincent
violence
violent
virgin
virginia
virtual
virus
vision
visit
vista
visual
vj
vk
vl
vladimir
vm
vn
vo
voice
voices
voivodeship
vol
volume
volumes
von
vote
votes
vow
vp
vq
vr
vs
vt
vu
vv
vw
vx
vy
vz
w
w0
w1
w2
w3
w4
w5
w6
w7
w8
w9
wa
wage
wala
wales
wali
walker
wall
walter
walton
wang
want
wanted
wants
war
ward
warfare
warner
warren
wars
warsaw
was
washington
watch
water
waterfall
waterfalls
watson
wave
way
wayne
wb
wc
wd
we
wealth
weapons
weather
web
weber
website
webster
wedding
week
weekly
welcome
welfare
well
wellington
wells
went
were
werner
west
western
westminster
wf
wg
wh
what
when
where
which
while
white
whitehouse
who
whole
whose
why
wi
wickets
wide
wife
wiki
wikidata
wikimedia
wikipedia
wild
wildlife
wiley
wilhelm
will
william
williams
wilson
win
wind
windows
windsor
wing
winner
winners
winning
wins
winter
wire
wisconsin
wisden
wise
with
within
without
wj
wk
wl
wm
wn
wo
woman
women
won
wood
word
wordpress
words
work
workers
working
works
world
worldcat
worlds
worldwide
worth
would
wounded
wp
wq
wr
wrestling
wright
writer
writers
writing
writings
written
wrong
wrote
ws
wt
wu
wv
ww
wwe
www
wx
wy
wyoming
wz
x
x0
x1
x2
x3
x4
x5
x6
x7
x8
x9
xa
xb
xc
xd
xe
xf
xg
xh
xi
xii
xiii
xinjiang
xiv
xj
xk
xl
xls
xlsx
xm
xml
xn
xo
xp
xq
xr
xs
xt
xu
xv
xvi
xviii
xw
xx
xy
xz
y
y0
y1
y2
y3
y4
y5
y6
y7
y8
y9
ya
yadav
yahoo
yale
yang
yasmin
yb
yc
yd
ye
year
yearbook
years
yellow
yemen
yen
yes
yet
yf
yg
yh
yi
yj
yk
yl
ym
yn
yo
york
you
young
your
youth
youtube
yp
yq
yr
ys
yt
yu
yugoslavia
yusefabad
yusuf
yv
yw
yx
yy
yz
z
z0
z1
z2
z3
z4
z5
z6
z7
z8
z9
za
zafar
zaman
zb
zc
zd
ze
zealand
zee
zero
zf
zg
zh
zi
zimbabwe
zionism
zip
zj
zk
zl
zm
zn
zo
zone
zp
zq
zr
zs
zt
zu
zur
zv
zw
zx
zy
zz
{
|
}
~
£
§
©
ª
«
¬
®
¯
°
±
²
´
·
º
»
½
¿
×
ß
æ
ð
÷
ø
þ
đ
ħ
ı
ł
łodz
ŋ
œ
ƒ
ɐ
ɑ
ɒ
ɔ
ɕ
ə
ɛ
ɡ
ɣ
ɦ
ɨ
ɪ
ɫ
ɯ
ɲ
ɾ
ʁ
ʂ
ʃ
ʊ
ʋ
ʌ
ʒ
ʔ
ʕ
ʰ
ʲ
ʹ
ʻ
ʼ
ʾ
ʿ
ˈ
ˌ
ː
ˠ
ˤ
α
β
γ
δ
δημων
ε
ενοριων
ζ
η
θ
ι
κ
και
κοινοτητων
κυπρου
κωδικοι
λ
μ
ν
ξ
ο
π
ρ
ς
σ
στατιστικοι
τ
της
υ
φ
χ
ω
ϕ
а
б
банк
большая
в
видатних
времени
всероссииская
вычислительныи
г
года
государственнои
д
е
ж
жінок
з
за
и
интернет
информации
информационно
исчислении
к
л
м
мая
н
на
населения
населенных
о
оасу
об
объектов
от
официальныи
п
перепись
по
поиск
портал
почта
почтовои
правовои
президент
президента
про
пунктов
р
раионов
ред
россии
россиискои
рпо
рф
с
связи
сельских
служба
собрание
советская
статистики
т
том
у
указ
ф
федеральная
федерации
х
ц
центр
ч
число
ш
щ
ъ
ы
ь
э
энциклопедия
ю
я
є
і
інформаціі
ј
љ
њ
ћ
ѣ
ғ
қ
ң
ү
ұ
ҳ
ҷ
ӏ
ә
ө
ա
բ
գ
ե
թ
ի
լ
կ
հ
ղ
մ
յ
ն
ո
ռ
ս
վ
տ
ր
ց
ւ
ք
א
ב
ג
ד
ה
ו
ז
ח
ט
י
ך
כ
ל
ם
מ
ן
נ
ס
ע
פ
צ
ק
ר
ש
ת
،
؍
؎
؛
؟
ء
ءتک
ءسے
ءمیں
ءکو
ءکے
ا
اء
اءه
اا
اب
ابا
اباء
اباد
ابادکاری
ابادی
ابادیاتی
ابادیاں
ابادیوں
ابان
اباو
ابايی
ابتدا
ابتداء
ابتدايی
ابتدايے
ابجد
ابدال
ابدالی
ابدوز
ابدی
ابر
ابرا
ابرار
ابراهيم
ابراھیم
ابراہم
ابراہیم
ابراہیمی
ابرن
ابرو
ابشار
ابصار
ابلاغ
ابلیس
ابن
ابنايے
ابو
ابواب
ابوالحسن
ابوالفضل
ابوالقاسم
ابوالکلام
ابوبکر
ابوحنیفہ
ابوداود
ابوذر
ابوسعید
ابوسفیان
ابوطالب
ابوعبداللہ
ابوعبیدہ
ابومسلم
ابوموسی
ابوہریرہ
ابویوسف
ابي
ابپاشی
ابھر
ابھرا
ابھرتی
ابھرتے
ابھرنے
ابھری
ابھرے
ابھی
ابہام
ابی
ابیب
اة
ات
اتا
اتاترک
اتار
اتارا
اتارنا
اتارنے
اتالیق
اتباع
اتحاد
اتحادی
اتحادیوں
اتر
اترا
اتراکھنڈ
اترتے
اترنا
اترنے
اترپردیش
اتری
اترے
اتش
اتشیں
اتفاق
اتفاقا
اتفاقی
اتم
اتما
اتنا
اتنی
اتنے
اتوار
اتھارٹی
اتی
اتے
اث
اثاثوں
اثاثہ
اثاثے
اثار
اثبات
اثر
اثرات
اثرانداز
اثنا
اثناء
اثیر
اج
اجا
اجاتا
اجاتی
اجاتے
اجارہ
اجازت
اجازہ
اجايیں
اجايے
اجاگر
اجتماع
اجتماعات
اجتماعی
اجتناب
اجتہاد
اجداد
اجر
اجرا
اجرام
اجرت
اجزا
اجزاء
اجسام
اجل
اجلاس
اجلاسوں
اجماع
اجمعین
اجمل
اجمیر
اجمیری
اجناس
اجنبی
اجیت
اجے
اح
احادیث
احاطہ
احاطے
احباب
احتجاج
احتجاجی
احترام
احتساب
احتشام
احتمال
احتیاط
احد
احرار
احرام
احزاب
احساس
احساسات
احسان
احسن
احمد
احمدی
احمدیہ
احمر
احمق
احناف
احنف
احوال
احکام
احکامات
احیاء
اخ
اخبار
اخبارات
اخباروں
اخباری
اختتام
اختتامی
اختر
اختراع
اختصار
اختلاط
اختلاف
اختلافات
اختلافی
اختیار
اختیارات
اختیاری
اخذ
اخذکردہ
اخر
اخراج
اخراجات
اخرت
اخرکار
اخری
اخلاص
اخلاق
اخلاقی
اخلاقیات
اخوان
اخوت
اخوند
اخیر
اد
ادا
اداب
ادارت
ادارتی
اداروں
ادارہ
ادارے
اداس
اداسی
ادايیگی
اداکار
اداکارا
اداکاراوں
اداکارايیں
اداکاروں
اداکارہ
اداکاری
ادب
ادبا
ادبی
ادبیات
ادتیہ
ادراک
ادرنہ
ادروی
ادرک
ادریس
ادم
ادمی
ادمیوں
ادنی
ادوار
ادویات
ادویہ
ادھ
ادھا
ادھار
ادھر
ادھم
ادھی
ادھے
ادی
ادیان
ادیب
ادیبوں
ادیبہ
ادے
اذ
اذا
اذان
اذر
اذربايیجان
اذربايیجانی
اذربایجان
اذری
اذکار
اذیت
ار
ارا
اراء
ارادت
ارادوں
ارادہ
ارادی
ارادے
اراستہ
اراضی
ارام
ارامی
اراونڈڈسمنٹ
ارايش
ارايشی
ارايی
ارايیں
اراکین
ارب
ارباب
اربعہ
اربعین
اربن
اربوں
ارتداد
ارتریا
ارتعاش
ارتقا
ارتقاء
ارتقايی
ارتکاب
ارتکاز
ارتھ
ارتھر
ارتھوڈوکس
ارتی
ارجمند
ارجن
ارجنٹاين
ارد
اردبیل
اردشیر
اردن
اردنی
اردو
اردويے
اردگرد
ارزو
ارسال
ارسطو
ارسلان
ارشاد
ارشد
ارشيف
ارض
ارضی
ارضیات
ارضیاتی
ارطغرل
ارغون
ارفع
ارقم
ارل
ارلنگٹن
ارم
ارمان
ارمسٹرانگ
ارمغان
ارمنی
ارمی
ارمینی
ارمینیا
ارمینیايی
ارمینیايیوں
ارمینیوں
ارنسٹ
ارنلڈ
ارورا
ارون
اروناچل
اروند
ارٹ
ارٹس
ارٹسٹ
ارٹلری
ارٹیکل
ارچ
ارڈر
ارڈیننس
ارک
ارکان
ارکايیو
ارکايیوز
ارکنساس
ارکٹک
ارکیو
ارگ
ارگنايزیشن
ارہا
ارہی
اری
اریا
اریان
اریايی
اریٹیریا
اریہ
ارے
از
ازاد
ازادانہ
ازادی
ازادیوں
ازار
ازالہ
ازاں
ازبک
ازبکستان
ازدواج
ازدواجی
ازدی
ازر
ازسر
ازل
ازم
ازما
ازمايش
ازمايی
ازمیر
ازواج
ازہر
ازیں
اس
اسا
اساتذہ
اساس
اساسی
اساطیر
اساطیری
اسام
اسامہ
اسامی
اسان
اسانی
اسباب
اسباق
است
استاد
استاذ
استان
استانہ
استثنا
استثناء
استحالہ
استحصال
استحقاق
استحکام
استدلال
استر
استشهاد
استعارہ
استعداد
استعفا
استعفی
استعمار
استعماری
استعمال
استعمالات
استفادہ
استفسار
استقامت
استقبال
استقلال
استنباط
استنبول
استوا
استوار
استوايی
استور
استونیا
استیعاب
اسح
اسحاق
اسد
اسداباد
اسدالغابہ
اسدی
اسرا
اسرار
اسرايیل
اسرايیلی
اسرايیلیوں
اسسٹنٹ
اسعد
اسفار
اسقاط
اسقف
اسلا
اسلاف
اسلام
اسلامک
اسلامی
اسلامیات
اسلامیہ
اسلحہ
اسلحے
اسلم
اسلوب
اسم
اسما
اسماء
اسمارٹ
اسماعيل
اسماعیل
اسماعیلی
اسماعیلیوں
اسمان
اسمانوں
اسمانی
اسمايے
اسماں
اسمبلی
اسمبلیوں
اسمتھ
اسمعیل
اسمگلنگ
اسناد
اسنے
اسود
اسودہ
اسٹار
اسٹاف
اسٹالن
اسٹايل
اسٹاپ
اسٹاک
اسٹرو
اسٹروک
اسٹریا
اسٹریلوی
اسٹریلیا
اسٹریلیايی
اسٹریلین
اسٹرین
اسٹریٹ
اسٹریٹجک
اسٹمپ
اسٹن
اسٹور
اسٹورم
اسٹوری
اسٹون
اسٹونیا
اسٹونین
اسٹوڈنٹس
اسٹوڈیو
اسٹوڈیوز
اسٹڈی
اسٹڈیز
اسٹیبلشمنٹ
اسٹیج
اسٹیشن
اسٹیشنوں
اسٹیفن
اسٹیل
اسٹین
اسٹینلے
اسٹینڈ
اسٹینڈرڈ
اسٹیو
اسٹیورٹ
اسٹیون
اسٹیٹ
اسٹیٹس
اسٹیڈیم
اسپتال
اسپتالوں
اسپن
اسپنر
اسپورٹس
اسپیس
اسپیشل
اسپین
اسپیکر
اسکا
اسکالر
اسکالرز
اسکالرشپ
اسکايی
اسکاٹ
اسکر
اسکرپٹ
اسکرین
اسکندر
اسکندریہ
اسکواش
اسکواير
اسکواڈ
اسکواڈرن
اسکور
اسکول
اسکولوں
اسکولی
اسکی
اسکیل
اسکیم
اسکینڈل
اسکے
اسی
اسیب
اسید
اسیر
اسیری
اسیہ
اسے
اش
اشا
اشارات
اشاروں
اشارہ
اشاریہ
اشارے
اشاعت
اشاعتوں
اشاعتی
اشبیلیہ
اشتر
اشتراک
اشتراکی
اشتراکیت
اشتعال
اشتہار
اشتہارات
اشتہاری
اشتیاق
اشخاص
اشد
اشرافیہ
اشراق
اشرف
اشرفی
اشرفیہ
اشرم
اشعار
اشعاع
اشعث
اشعری
اشفاق
اشنا
اشوب
اشور
اشوری
اشوک
اشوکا
اشک
اشکار
اشکال
اشکنازی
اشیا
اشیاء
اص
اصابہ
اصحاب
اصرار
اصطلاح
اصطلاحات
اصطلاحی
اصغر
اصف
اصفہان
اصفہانی
اصفیہ
اصل
اصلا
اصلاح
اصلاحات
اصلاحی
اصلی
اصلیت
اصناف
اصول
اصولوں
اصولی
اض
اضافت
اضافہ
اضافی
اضافیت
اضافے
اضطراب
اضلاع
اط
اطاعت
اطالوی
اطالیہ
اطراف
اطفال
اطلاع
اطلاعات
اطلاق
اطمینان
اطہر
اظہار
اظہر
اع
اعادہ
اعانت
اعتبار
اعتدال
اعتراض
اعتراضات
اعتراف
اعتقاد
اعتماد
اعتمادی
اعتکاف
اعثم
اعجاز
اعداد
اعدادوشمار
اعراب
اعزاز
اعزازات
اعزازی
اعشاریہ
اعصاب
اعصابی
اعضا
اعضاء
اعظم
اعظمی
اعل
اعلام
اعلامیہ
اعلامیے
اعلان
اعلم
اعلی
اعمال
اعمش
اعوان
اعیان
اغ
اغا
اغاخان
اغاز
اغراض
اغوا
اغوش
اف
افات
افادیت
افاق
افاقی
افت
افتاء
افتاب
افتتاح
افتتاحی
افتخار
افراتفری
افراد
افرادی
افراط
افروز
افریدی
افریقا
افریقہ
افریقی
افرین
افزا
افزايش
افزايی
افس
افسانوں
افسانوی
افسانہ
افسانے
افسر
افسران
افسردگی
افسردہ
افسروں
افسوس
افسوسناک
افشا
افشار
افضال
افضل
افطار
افعال
افغان
افغانستان
افغانوں
افغانی
افق
افقی
افلاطون
افندی
افواج
افواہ
افواہیں
افکار
افیسر
افیشل
افیون
اق
اقا
اقارب
اقامت
اقبال
اقبالیات
اقتباس
اقتباسات
اقتدار
اقتصادی
اقتصادیات
اقدار
اقدام
اقدامات
اقدس
اقرار
اقساط
اقسام
اقصی
اقلیت
اقلیتوں
اقلیتی
اقلیم
اقوال
اقوام
اك
اكثر
ال
الا
الاباما
الات
الاثار
الاثير
الاحکام
الاخبار
الاخلاق
الادب
الارشاد
الارض
الازہر
الاسبانية
الاستیعاب
الاسد
الاسرار
الاسلام
الاسلامي
الاسلامية
الاسلامی
الاسلامیہ
الاسماء
الاسکا
الاشاعت
الاشراف
الاصابة
الاصابہ
الاصل
الاصول
الاضحی
الاعتدال
الاعتقاد
الاعراف
الاعظم
الاعلام
الاعلی
الاقوامی
الالمانية
الامام
الامت
الامثال
الامم
الامین
الانبیاء
الاندلس
الانساب
الانصاری
الانوار
الاول
الاولى
الاولی
الاولیاء
الايمہ
الاينس
الايیڈ
الایمان
الباری
البانوی
البانی
البانیا
البانیہ
البتہ
البحر
البخاری
البدایہ
البر
البرتغالية
البرٹ
البرٹا
البرکات
البشر
البغدادی
البقرہ
البقرۃ
البقیع
البلاغہ
البلد
البلدان
البم
البیان
البیت
البیرونی
البیون
الت
التاريخ
التاریخ
التايی
التجا
التحصیل
التراث
التركية
التفسیر
التمش
التواریخ
التوحید
التہذیب
الثاني
الثانی
الجامع
الجبار
الجبرا
الجزء
الجزاير
الجزیرہ
الجنان
الجھن
الجیریا
الح
الحاج
الحاد
الحارث
الحافظ
الحاق
الحال
الحان
الحج
الحجاج
الحجہ
الحديث
الحدیث
الحدید
الحرام
الحرمین
الحسن
الحسنی
الحسين
الحسین
الحسینی
الحفاظ
الحفیظ
الحق
الحقیقت
الحلیم
الحمد
الحمرا
الحمید
الحنفیہ
الحيی
الحکم
الحکومت
الحکیم
الحی
الخازن
الخالق
الخراج
الخط
الخطاب
الخلافہ
الخلفاء
الخلیل
الخوارزمی
الخیر
الد
الدر
الدمشقی
الدنیا
الدولہ
الدين
الدین
الذ
الذکر
الذہب
الذہبی
الر
الرازی
الرجال
الرحم
الرحمان
الرحمن
الرحمه
الرحمہ
الرحیم
الرزاق
الرسالہ
الرسول
الرشید
الرضا
الرقم
الروسية
الروف
الز
الزام
الزامات
الزبتھ
الزبیر
الزمان
الزماں
الس
الستار
السلام
السلطنت
السنة
السنن
السنہ
السنۃ
السید
الش
الشارع
الشافعی
الشام
الشاملة
الشان
الشریعہ
الشریف
الشعراء
الشمس
الشيخ
الشہداء
الشیخ
الشیعہ
الص
الصادق
الصباح
الصحابة
الصحابہ
الصدر
الصغیر
الصفحة
الصلاۃ
الصمد
الط
الطارق
الطاف
الطبری
الطبعة
الطبقات
الظ
الظنون
الع
العابدین
العارفین
العاص
العالم
العالمین
العام
العباد
العباس
العبر
العرب
العربي
العربية
العربی
العربیہ
العرفان
العزيز
العزیز
العصر
العظمی
العظیم
العقیدہ
العلم
العلماء
العلمية
العلمیہ
العلوم
العلی
العمل
العنان
العنوان
العین
الغ
الغابہ
الغدیر
الغرض
الغفار
الغفور
الغنی
الغیب
الف
الفا
الفاظ
الفت
الفتح
الفتوح
الفرج
الفرقان
الفرنسية
الفریڈ
الفضل
الفطر
الفطرت
الفقار
الفقہ
الفقیہ
الفكر
الفوايد
القاب
القابات
القادر
القادری
القاسم
القاعدہ
القدر
القدس
القدیر
القران
القرشی
القرن
القضاۃ
القلوب
القمری
القیس
القیوم
الكبرى
الكبير
الكتاب
الكتب
الكريم
الل
اللطیف
اللغات
الله
اللو
اللہ
الم
الما
المال
المبارک
المتوفى
المتوفی
المتوکل
المثل
المجید
المختار
المدارس
المدینہ
المذاہب
المرتضی
المرکبات
المسايل
المسلمون
المسلمین
المسیح
المشايخ
المصابیح
المصری
المصطف
المصطفی
المصنفین
المطلب
المظفر
المعارف
المعانی
المعتصم
المعجم
المعروف
المغازی
المغرب
المفتوحة
المقال
المقدس
المكتبة
الملك
الملوک
الملک
المناک
المنتصر
المنتظر
المنذر
المنصور
المهدي
الموت
المولف
المولفون
المومنین
المہدی
المیزان
المیہ
الن
الناس
الناشر
الناصر
النبلا
النبلاء
النبوۃ
النبي
النبی
النجوم
النساء
النسل
النعمان
النور
النہار
النہر
النہرین
الهولندية
الو
الواحد
الواقدی
الوجود
الوحید
الود
الوداع
الودگی
الودہ
الوری
الوسيط
الوصول
الوطنی
الوقت
الولید
الوہاب
الى
الٹ
الٹا
الٹنے
الٹی
الپ
الکافی
الکامل
الکاہل
الکبری
الکبیر
الکتاب
الکتب
الکرام
الکریم
الکلام
الکمال
الکندی
الکوفی
الگ
الہ
الہادی
الہام
الہامی
الہدی
الہند
الہی
الہیات
الی
الیاس
الینوايے
الیون
الیکزینڈر
الیکس
الیکشن
الیکٹران
الیکٹرانک
الیکٹرانکس
الیکٹرون
الیکٹرک
الیکٹریکل
الیگزنڈر
الیگزینڈر
الیہ
الے
ام
اما
امادہ
امارات
امارت
امام
امامت
اماموں
امامہ
امامیہ
امان
امانت
اماں
امب
امبر
امبیڈکر
امبیکاپور
امت
امتحان
امتحانات
امتزاج
امتیاز
امتیازات
امتیازی
امجد
امد
امداد
امدادی
امدن
امدنی
امدورفت
امدید
امر
امرا
امراء
امراض
امرانہ
امراو
امرت
امرتا
امرتسر
امرتسری
امرناتھ
امروہوی
امروہہ
امروہی
امری
امریت
امریکا
امریکن
امریکہ
امریکی
امریکیوں
امل
املا
املاک
املہ
املی
امن
امنہ
امنی
امنے
امو
اموات
امواج
امور
اموز
اموی
امویوں
امویہ
امپاير
امپايرنگ
امپھو
امپیریل
امکان
امکانات
امکانی
امہات
امی
امیتابھ
امید
امیدوار
امیدواروں
امیدوں
امیر
امیرالمومنین
امیروں
امیز
امیزش
امیزہ
امین
امینی
امیگریشن
امیہ
ان
انا
اناج
اناجیل
انار
انارکلی
اناسی
اناطولیہ
انانوے
انانکارپوریٹڈ
انبار
انبالہ
انبوہ
انبیا
انبیاء
انت
انتالیس
انتباہ
انتخاب
انتخابات
انتخابی
انتداب
انتساب
انتشار
انتشارات
انتظار
انتظام
انتظامات
انتظامی
انتظامیہ
انتقال
انتقام
انتقامی
انتونیو
انتوں
انتھونی
انتھک
انتہا
انتہايی
انتیس
انجام
انجری
انجم
انجمن
انجمنوں
انجن
انجنوں
انجیر
انجیل
انجینير
انجینيرز
انجینيرنگ
انجینيری
انحراف
انحصار
انحضرت
انحطاط
انخلا
انخلاء
اند
انداز
اندازوں
اندازہ
اندازی
اندازے
اندام
اندر
اندرا
اندراج
اندرون
اندرونی
اندرے
اندلس
اندلسی
اندور
اندوز
اندھا
اندھرا
اندھی
اندھیرا
اندھیرے
اندھے
اندیشہ
انر
انرجی
انرز
انس
انسا
انساب
انسان
انسانوں
انسانی
انسانیت
انسايکلوپیڈیا
انسايیکلو
انسايیکلوپیڈیا
انسداد
انسو
انسووں
انسٹا
انسٹھ
انسٹی
انسٹیٹیوٹ
انسپکٹر
انشا
انشاء
انشورنس
انصار
انصاری
انصاف
انضمام
انطاکیہ
انعام
انعامات
انعقاد
انفارمیشن
انفرادی
انفرادیت
انفراسٹرکچر
انفنٹری
انفو
انفیکشن
انقرہ
انقلاب
انقلابات
انقلابی
انقلابیوں
انمول
انناس
اننت
انند
اننگ
اننگز
انو
انوار
انواع
انور
انوشکا
انوکھا
انوکھی
انوکی
انٹارکٹیکا
انٹاریو
انٹر
انٹرمیڈیٹ
انٹرنیشنل
انٹرنیٹ
انٹرویو
انٹرویوز
انٹرٹینمنٹ
انٹرپرايز
انٹریکٹیو
انٹلیجنس
انٹیلی
انٹیلیجنس
انچ
انچارج
انچاس
انچل
انچیف
انچیون
انڈر
انڈرگراونڈ
انڈرگریجویٹ
انڈس
انڈسٹری
انڈسٹریز
انڈسٹریل
انڈمان
انڈو
انڈورا
انڈونیشی
انڈونیشیا
انڈونیشیايی
انڈوں
انڈیا
انڈیانا
انڈیز
انڈین
انڈیکس
انڈے
انک
انکا
انکار
انکشاف
انکشافات
انکل
انکم
انکو
انکوايری
انکھ
انکھوں
انکھیں
انکی
انکے
انگ
انگریز
انگریزوں
انگریزی
انگلستان
انگلش
انگلی
انگلیاں
انگلینڈ
انگلیوں
انگن
انگور
انگوش
انگولا
انگولہ
انگوٹھی
انگیز
انگیزی
انھوں
انھیں
انہ
انہتر
انہدام
انہو
انہوں
انہی
انہیں
انی
انیتا
انیس
انیسویں
انیل
انیمیشن
انے
اه
اهل
او
اواخر
اوار
اوارہ
اواز
اوازوں
اوازیں
اوايل
اوباما
اوبلاست
اوتار
اوج
اوجھل
اودھ
اودے
اور
اورا
اورابن
اوراس
اوراق
اورال
اوران
اوراپ
اوراپنے
اورایک
اورحضرت
اورن
اورنج
اورنگ
اورنگزیب
اورنہ
اوروں
اوروہ
اورکزيی
اورکہا
اوری
اورینٹل
اوریگون
اوریہ
اوز
اوزار
اوزاروں
اوزاعی
اوزان
اوس
اوساکا
اوستا
اوسط
اوسطا
اوسلو
اوشا
اوصاف
اوقات
اوقاف
اوقیانوس
اوقیانوسیہ
اول
اولا
اولاد
اولادیں
اولمپک
اولمپکس
اولڈ
اولی
اولیا
اولیاء
اولیايے
اولین
اولیور
اوم
اون
اونس
اونٹ
اونٹاریو
اونٹنی
اونٹوں
اونچا
اونچايی
اونچی
اونچے
اوهایو
اوور
اوورز
اوول
اوون
اوٹ
اوٹاوا
اوٹاگو
اوٹر
اوٹو
اوپر
اوپری
اوپن
اوپنر
اوپننگ
اوپیرا
اوچ
اوڈیشا
اوک
اوکاڑہ
اوکسفرڈ
اوکلاہوما
اوکلینڈ
اوہايیو
اویزاں
اویس
اویسی
اویغور
اویلر
اي
ايبیریا
اير
ايرس
ايرستان
ايرستانی
ايرش
ايرلینڈ
ايرن
ايس
ايك
ايل
ايلینڈ
ايم
ايمہ
اين
ايندہ
اينسٹاين
ايوٹ
ايٹم
ايک
ايی
ايیر
ايیرلاينز
ايیرویز
ايیرپورٹ
ايیرپورٹس
ايین
ايینہ
ايینی
ايینے
ايیوری
ايیوس
ايیووا
ايیں
ايیے
ايے
اٹ
اٹا
اٹارنی
اٹل
اٹلانٹا
اٹلانٹک
اٹلس
اٹلی
اٹو
اٹک
اٹھ
اٹھا
اٹھاتا
اٹھاتے
اٹھارویں
اٹھارہ
اٹھارہویں
اٹھاسی
اٹھانا
اٹھانوے
اٹھانے
اٹھاون
اٹھايی
اٹھايیس
اٹھايیں
اٹھايے
اٹھایا
اٹھتا
اٹھتر
اٹھتے
اٹھنا
اٹھنے
اٹھواں
اٹھویں
اٹھی
اٹھے
اٹیک
اٹے
اپ
اپا
اپارٹمنٹ
اپر
اپریشن
اپریشنز
اپریشنل
اپریل
اپریٹر
اپریٹنگ
اپس
اپسی
اپلوڈ
اپنا
اپنانے
اپنايی
اپنایا
اپنی
اپنے
اپوزیشن
اپون
اپکا
اپکو
اپکی
اپکے
اپیل
اچ
اچاریہ
اچانک
اچکا
اچکی
اچکے
اچھا
اچھايی
اچھوت
اچھی
اچھے
اچیومنٹ
اچے
اڈا
اڈوں
اڈہ
اڈیشن
اڈیو
اڈیہ
اڈے
اڑ
اڑا
اڑان
اڑانے
اڑایا
اڑتالیس
اڑتیس
اڑسٹھ
اڑنے
اڑھايی
اڑیسہ
اڑے
اژدہا
اک
اکا
اکابر
اکابرین
اکادمی
اکاش
اکاون
اکاونٹ
اکاونٹس
اکايی
اکايیاں
اکايیوں
اکبر
اکبرابادی
اکبری
اکتالیس
اکتساب
اکتفا
اکتوبر
اکتیس
اکثر
اکثریت
اکثریتی
اکر
اکرام
اکرم
اکسايڈ
اکسايیڈ
اکسایا
اکسفورڈ
اکسٹھ
اکسیجن
اکشے
اکلوتی
اکلوتے
اکلینڈ
اکمل
اکنامک
اکنامکس
اکٹھا
اکٹھی
اکٹھے
اکھاڑ
اکہتر
اکیاسی
اکیانوے
اکیتین
اکیس
اکیسویں
اکیلا
اکیلی
اکیلے
اکیڈمی
اکیڈیمی
اگ
اگاہ
اگاہی
اگر
اگروال
اگرچہ
اگرہ
اگست
اگستیہ
اگسٹا
اگسٹس
اگلا
اگلی
اگلے
اگنی
اگيی
اگيیں
اگيے
اگہی
اگیا
اگے
اں
اھل
اہ
اہتمام
اہداف
اہرام
اہستہ
اہل
اہلبیت
اہلسنت
اہلکار
اہلکاروں
اہلیا
اہلیت
اہلیہ
اہم
اہمیت
اہمیتارکايیو
اہنگ
اہنگی
اہنی
اہواز
ای
ایا
ایات
ایاز
ایاس
ایام
ایان
ایبل
ایبٹ
ایبک
ایت
ایتوں
ایتھنز
ایتھنول
ایتھنولوگ
ایتھوپیا
ایتیں
ایثار
ایج
ایجاد
ایجادات
ایجنسی
ایجنسیوں
ایجنٹ
ایجنٹوں
ایجنڈے
ایجوکیشن
ایجوکیشنل
ایجیين
ایدھی
ایذا
ایر
ایران
ایرانی
ایرانیوں
ایرانیکا
ایرو
ایرک
ایری
ایریا
ایریزونا
ایزو
ایس
ایسا
ایسوسی
ایسٹ
ایسٹر
ایسٹرن
ایسٹونیا
ایسڈ
ایسی
ایسیکس
ایسے
ایش
ایشا
ایشان
ایشز
ایشلنڈ
ایشن
ایشور
ایشوریا
ایشیا
ایشیاء
ایشیايی
ایشیايے
ایشیاکی
ایشین
ایضا
ایغور
ایف
ایل
ایلس
ایلسورتھ
ایلن
ایلچی
ایلک
ایلی
ایلیا
ایلیٹ
ایم
ایما
ایمان
ایمانی
ایمرجنسی
ایمسٹرڈیم
ایملی
ایمن
ایمنسٹی
ایمپاير
ایمی
ایمیزون
ایمیٹ
این
اینا
اینجلس
ایندھن
اینٹ
اینٹوں
اینٹی
اینٹیگوا
اینٹیں
اینڈ
اینڈرسن
اینڈرويیڈ
اینڈریو
اینڈی
اینکر
اینگلز
اینگلو
اینی
اینیمیٹڈ
ایو
ایوا
ایوارڈ
ایوارڈز
ایوان
ایوانوں
ایوب
ایوبی
ایودھیا
ایورسٹ
ایون
ایونز
ایونٹ
ایونیو
ایوی
ایير
ایيرفورس
ایيرپورٹ
ایٹ
ایٹم
ایٹموں
ایٹمی
ایٹن
ایٹیینے
ایپ
ایپل
ایپلی
ایپی
ایچ
ایچی
ایچیسن
ایڈ
ایڈا
ایڈاہو
ایڈز
ایڈم
ایڈمرل
ایڈمز
ایڈمنسٹریشن
ایڈمنسٹریٹر
ایڈمنڈ
ایڈن
ایڈنبرا
ایڈوانس
ایڈوبی
ایڈورڈ
ایڈورڈز
ایڈولف
ایڈون
ایڈونچر
ایڈووکیٹ
ایڈگر
ایڈی
ایڈیشن
ایڈیشنل
ایڈیلیڈ
ایڈیٹر
ایک
ایکس
ایکسپریس
ایکسچینج
ایکشن
ایکواڈور
ایکٹ
ایکٹر
ایکٹن
ایکڑ
ایگزیکٹو
ایگل
ایں
ایہ
اے
ب
با
بااثر
بااختیار
بااسانی
باب
بابا
بابايے
بابت
بابر
بابری
بابل
بابلی
بابو
بابی
بات
باتوں
باتھ
باتیں
باجوہ
باجی
باخبر
باد
بادام
بادشاہ
بادشاہت
بادشاہوں
بادشاہی
بادل
بادلوں
بار
بارات
بارانی
بارباڈوس
باربرا
باربوڈا
بارسلونا
بارش
بارشوں
بارشیں
بارنس
بارنیٹ
بارود
بارودی
بارٹن
بارڈر
بارک
بارگاہ
بارہ
بارہا
بارہویں
باری
باریک
بارے
باز
بازار
بازاروں
بازاری
بازبینی
بازدید
بازنطینی
بازنطینیوں
بازو
بازووں
بازوں
بازگشت
بازی
بازیابی
بازیافت
باس
باسانی
باسفورس
باسلام
باسو
باسٹھ
باسکٹ
باسکی
باسی
باسیوں
باش
باشعور
باشندوں
باشندہ
باشندے
باشکیر
باصلاحیت
باضابطہ
باطل
باطن
باطنی
باعث
باعزت
باغ
باغات
باغستان
باغی
باغیوں
باقاعدگی
باقاعدہ
باقر
باقی
باقیات
بال
بالا
بالاتر
بالاجی
بالاخر
بالادستی
بالايی
بالاکوٹ
بالترتیب
بالخصوص
بالر
بالشویک
بالشویکوں
بالعموم
بالغ
بالغوں
باللہ
بالمعروف
بالمقابل
بالواسطہ
بالوں
بالٹک
بالٹیمور
بالڈون
بالکل
بالی
بام
بامر
بامیان
بان
باندھ
باندھا
باندھنا
باندھنے
باندھے
بانس
بانو
بانٹ
بانڈ
بانگ
بانی
بانیوں
باوجود
باور
باورچی
باوقار
باولر
باولرز
باولنگ
باولی
باون
باونڈری
بايبل
بايی
بايیس
بايیو
بايیوگرافی
بايیکاٹ
بايیں
باپ
باڈی
باڑ
باڑہ
باڑی
باک
باکس
باکسر
باکسنگ
باکمال
باکو
باگ
باہر
باہم
باہمی
باہو
باہوبلی
بایاں
بایزید
ببر
بت
بتا
بتاتا
بتاتی
بتاتے
بتاریخ
بتانا
بتانے
بتاو
بتايی
بتايیں
بتايے
بتایا
بتدریج
بتوں
بتیس
بج
بجا
بجار
بجانے
بجايے
بجلی
بجنور
بجنوری
بجٹ
بجھانے
بجے
بحاجة
بحار
بحارالانوار
بحال
بحالی
بحث
بحر
بحرالکاہل
بحران
بحرانی
بحری
بحرین
بحرینی
بحریہ
بحق
بحوالہ
بحیثیت
بحیرہ
بخار
بخارا
بخارات
بخارسٹ
بخاری
بخت
بختیار
بختیاری
بخش
بخشا
بخشش
بخشنے
بخشی
بخوبی
بخود
بد
بدامنی
بدایونی
بدایوں
بدتر
بدترین
بدخشاں
بدر
بدرالدین
بدرجہ
بدری
بدستور
بدسلوکی
بدعات
بدعت
بدعنوانی
بدقسمتی
بدل
بدلا
بدلتا
بدلتی
بدلتے
بدلنا
بدلنے
بدلہ
بدلی
بدلیں
بدلے
بدمعاش
بدن
بدنام
بدنامی
بدو
بدوش
بدولت
بدھ
بدھا
بدی
بدیع
بدین
بذات
بذریعہ
بر
برا
براء
برابر
برابری
برات
برادر
برادران
برادرز
برادری
برادریوں
برازیل
برازیلی
براستہ
براعظم
براعظموں
برامد
برامدات
برانچ
برانڈ
براوزر
براون
براين
براينز
برايٹن
برايی
برايیوں
برايے
براڈ
براڈکاسٹر
براڈکاسٹنگ
براں
براہ
براہمن
براہويی
برای
برباد
بربادی
بربر
بربریت
برتاو
برتر
برتری
برتن
برتنوں
برج
برحق
برخاست
برخلاف
برد
بردار
برداری
برداشت
بردہ
بررسی
برس
برسات
برسبین
برسر
برسلز
برسوں
برسٹل
برسی
برصغیر
برطانوی
برطانویوں
برطانیہ
برطرف
برطرفی
برعکس
برف
برفانی
برق
برقرار
برقع
برقناطیسی
برقی
برلن
برلنگٹن
برما
برمنگھم
برمودا
برمی
برن
برنارڈ
برنزوک
برنسوک
برنولی
برنی
برو
بروجردی
بروز
بروس
بروقت
برونايی
برونڈی
برويے
بروڈوے
بروک
بروکلین
برينز
برٹ
برٹانیکا
برٹش
برپا
برڈ
برک
برکات
برکت
برکلے
برکی
برکینا
برگ
برگزیدہ
برگنڈی
برہان
برہم
برہما
برہمن
برہمنوں
برہمو
برہنہ
بری
بریانی
بریسٹ
بریطانیکا
بریلوی
بریلی
برینز
برینٹ
برینڈن
بریٹانیکا
بریٹن
بریڈ
بریڈفورڈ
بریڈمین
بریک
بریگیڈ
بریگیڈیير
برے
بز
بزبان
بزدار
بزرگ
بزرگان
بزرگوار
بزرگوں
بزرگی
بزم
بزنس
بس
بسا
بساط
بساو
بسایا
بستر
بستری
بستہ
بستی
بستیاں
بستیوں
بستے
بسر
بسم
بسمارک
بسمل
بسنت
بسنے
بسوں
بسی
بسیں
بسے
بش
بشار
بشارت
بشانہ
بشر
بشرطیکہ
بشری
بشریات
بشمول
بشپ
بشیر
بصارت
بصرہ
بصری
بصورت
بصیرت
بطریق
بطلیموس
بطن
بطور
بظاہر
بعث
بعثت
بعد
بعدازاں
بعض
بعمر
بعنوان
بعید
بغاوت
بغاوتوں
بغاوتیں
بغداد
بغدادی
بغض
بغل
بغور
بغیر
بفیلو
بقا
بقاء
بقايے
بقرہ
بقلم
بقول
بقیہ
بكر
بل
بلا
بلاد
بلاذری
بلاشبہ
بلاغت
بلال
بلانے
بلاول
بلايے
بلاک
بلاکس
بلاگ
بلایا
بلبل
بلتستان
بلتی
بلجيیم
بلحاظ
بلخ
بلخی
بلد
بلدیات
بلدیاتی
بلدیہ
بلغاریايی
بلغاریہ
بلغراد
بلقان
بلقیس
بلند
بلندی
بلندیوں
بلو
بلوا
بلور
بلوغ
بلوغت
بلوم
بلوچ
بلوچستان
بلوچوں
بلوچی
بلچ
بلڈ
بلڈنگ
بلکہ
بلگرامی
بلی
بلیغ
بلین
بلیو
بلیوں
بلیير
بلیک
بلے
بم
بمبار
بمباری
بمبيی
بمشکل
بمطابق
بمعنی
بمقابلہ
بمقام
بموں
بن
بنا
بناء
بنات
بناتا
بناتی
بناتے
بنادیا
بنارس
بنالیا
بنام
بنانا
بنانے
بناو
بناوٹ
بنايی
بنايیں
بنايے
بناکر
بنایا
بنت
بنتا
بنتی
بنتے
بنجر
بند
بندر
بندرگاہ
بندرگاہوں
بندش
بندو
بندوبست
بندوق
بندوقیں
بندوں
بندگی
بندھا
بندھن
بندہ
بندی
بندے
بنسی
بننا
بننے
بنو
بنوايی
بنوایا
بنوری
بنوں
بنک
بنکاک
بنگ
بنگال
بنگالی
بنگش
بنگلا
بنگلور
بنگلہ
بنی
بنیا
بنیاد
بنیادوں
بنیادی
بنیادیں
بنیامین
بنیں
بنے
به
بهی
بو
بوايز
بوايے
بوبی
بوتل
بوجھ
بود
بودھ
بور
بورس
بورصہ
بورن
بورنیو
بورو
بورڈ
بورڈز
بورڈنگ
بورک
بوری
بورین
بوس
بوستان
بوسنیا
بوسنیايی
بوسٹن
بوسہ
بوشہر
بوقت
بول
بولا
بولان
بولتا
بولتی
بولتے
بولر
بولنا
بولنگ
بولنے
بولو
بولٹ
بولڈ
بولی
بولیاں
بولیوں
بولیویا
بولیں
بولے
بون
بونا
بونڈ
بونی
بونیر
بونے
بوينگ
بوٹ
بوٹسوانا
بوٹی
بوٹیوں
بوڑھا
بوڑھی
بوڑھے
بوک
بوہرہ
بوہول
بویہ
بير
بيروت
بين
بيیر
بٹ
بٹالہ
بٹالین
بٹلر
بٹن
بٹگرام
بٹھا
بٹھایا
بپتسمہ
بچ
بچا
بچاتا
بچانا
بچانے
بچاو
بچايے
بچایا
بچت
بچن
بچنا
بچنے
بچو
بچوں
بچپن
بچھا
بچھڑے
بچہ
بچی
بچیوں
بچے
بڑ
بڑا
بڑوں
بڑھ
بڑھا
بڑھاتے
بڑھانا
بڑھانے
بڑھاوا
بڑھاپے
بڑھایا
بڑھتا
بڑھتی
بڑھتے
بڑھنا
بڑھنے
بڑھی
بڑھیں
بڑھے
بڑی
بڑے
بک
بکتر
بکثرت
بکر
بکری
بکریاں
بکریوں
بکرے
بکس
بکھر
بکھری
بکھرے
بگ
بگاڑ
بگٹی
بگڑ
بھ
بھا
بھارت
بھارتی
بھارتیہ
بھاری
بھاشا
بھال
بھانجی
بھانجے
بھايی
بھايیوں
بھاپ
بھاگ
بھاگا
بھاگتے
بھاگنے
بھاگے
بھتیجا
بھتیجے
بھجن
بھجوا
بھر
بھرا
بھرت
بھرتی
بھرنا
بھرنے
بھروسا
بھروسہ
بھرپور
بھری
بھرے
بھلا
بھلايی
بھلے
بھوت
بھوج
بھوجپوری
بھورا
بھوری
بھورے
بھوسلے
بھوشن
بھول
بھولا
بھومی
بھون
بھوٹان
بھوپال
بھوپالی
بھوک
بھٹ
بھٹايی
بھٹو
بھٹی
بھڑک
بھکتی
بھکر
بھگ
بھگا
بھگت
بھگوان
بھی
بھیانک
بھیج
بھیجا
بھیجتا
بھیجتے
بھیجنا
بھیجنے
بھیجی
بھیجیں
بھیجے
بھیرہ
بھیس
بھیم
بھینس
بھیڑ
بھیڑیا
بھیک
بہ
بہا
بہاء
بہادر
بہادری
بہار
بہاری
بہاماس
بہانہ
بہانے
بہاو
بہاوالدین
بہاول
بہاولنگر
بہاولپور
بہايی
بہبود
بہت
بہتا
بہتر
بہتری
بہترین
بہتی
بہتے
بہر
بہرام
بہرايچ
بہرايچی
بہرحال
بہرہ
بہشت
بہشتی
بہلول
بہم
بہمنی
بہن
بہنويی
بہنوں
بہنیں
بہنے
بہو
بہہ
بی
بیا
بیاس
بیاسی
بیاض
بیالیس
بیان
بیانات
بیانوے
بیانی
بیانیہ
بیاں
بیاہ
بیبرس
بیبی
بیت
بیتی
بیج
بیجاپور
بیجنگ
بیجوں
بید
بیدار
بیداری
بیدل
بیدی
بیر
بیراج
بیرسٹر
بیرل
بیرن
بیروت
بیرون
بیرونی
بیروٹ
بیری
بیزار
بیس
بیسارابیہ
بیسن
بیسویں
بیسٹ
بیش
بیشتر
بیشک
بیضوی
بیع
بیعت
بیل
بیلا
بیلاروس
بیلجیم
بیلجیيم
بیلٹ
بیلی
بیلیز
بیلے
بیم
بیمار
بیماری
بیماریاں
بیماریوں
بیمہ
بین
بینا
بینايی
بینر
بینسن
بینظیر
بینن
بینٹن
بینڈ
بینک
بینکاری
بینکاک
بینکر
بینکنگ
بینکوں
بینگ
بینی
بیور
بیورو
بیوروکریسی
بیونا
بیونس
بیوکینن
بیوہ
بیوی
بیویاں
بیویوں
بیير
بیٹ
بیٹا
بیٹری
بیٹسمین
بیٹن
بیٹنگ
بیٹوں
بیٹھ
بیٹھا
بیٹھتا
بیٹھتے
بیٹھنا
بیٹھنے
بیٹھی
بیٹھے
بیٹی
بیٹیاں
بیٹیوں
بیٹے
بیچ
بیچا
بیچلر
بیچنے
بیڈ
بیڈفورڈ
بیڈمنٹن
بیڑا
بیڑے
بیک
بیکار
بیکانیر
بیکر
بیکن
بیکٹیریا
بیگ
بیگم
بیہقی
بے
ة
ت
تا
تاب
تابع
تابعی
تابعین
تابوت
تابکار
تابکاری
تاتار
تاتارستان
تاتاری
تاتاریوں
تاثر
تاثرات
تاثیر
تاج
تاجدار
تاجر
تاجران
تاجروں
تاجپوشی
تاجک
تاجکستان
تاحال
تاحیات
تاخیر
تار
تارا
تاراج
تاروں
تاريخ
تارڑ
تارک
تارکین
تاریخ
تاریخوں
تاریخی
تاریخیں
تاریک
تاریکی
تارے
تازہ
تاسیس
تاش
تاشقند
تاكد
تال
تالاب
تالپور
تالیف
تالیفات
تامل
تان
تانبے
تانگ
تاو
تاوان
تاویل
تايب
تايی
تايید
تايیوان
تاکہ
تاکید
تاہم
تایا
تب
تبادلہ
تبادلے
تباہ
تباہی
تبت
تبتی
تبدیل
تبدیلی
تبدیلیاں
تبدیلیوں
تبریز
تبریزی
تبسم
تبصروں
تبصرہ
تبصرے
تبع
تبلیسی
تبلیغ
تبلیغی
تبوک
تبھی
تثلیث
تجارت
تجارتی
تجاهله
تجاوز
تجاویز
تجدید
تجربات
تجرباتی
تجربہ
تجربے
تجریدی
تجزیاتی
تجزیہ
تجزیے
تجسس
تجوید
تجویز
تجھ
تجھے
تجہیز
تحايف
تحت
تحر
تحریر
تحریروں
تحریری
تحریریں
تحریف
تحریم
تحریک
تحریکوں
تحریکیں
تحسین
تحصیل
تحصیلوں
تحصیلیں
تحفظ
تحفظات
تحفہ
تحفۃ
تحفے
تحقق
تحقيق
تحقیق
تحقیقات
تحقیقاتی
تحقیقی
تحلیل
تحلیلی
تحمل
تحویل
تخت
تختہ
تختی
تخریب
تخریج
تخصیص
تخفیف
تخلص
تخلیق
تخلیقات
تخلیقی
تخمینہ
تخمینے
تخیل
تدابیر
تدبر
تدبیر
تدریس
تدریسی
تدفین
تدوین
تذکروں
تذکرہ
تذکرۃ
تذکرے
تر
ترا
تراب
تراجم
تراش
تراشی
ترامیم
ترانہ
ترانے
تراویح
تراکیب
تربت
تربیت
تربیتی
ترتیب
ترجمان
ترجمانی
ترجمه
ترجمہ
ترجمے
ترجیح
ترجیحات
ترخان
تردید
ترس
ترسیل
ترغیب
ترقی
ترقیاتی
ترمذی
ترمیم
ترن
ترنم
ترویج
ترپن
ترک
ترکستان
ترکمان
ترکمانستان
ترکوں
ترکی
ترکیب
ترکیبی
تری
تریاسی
تریانوے
تریسٹھ
ترین
تریپورہ
ترے
تزيین
تزک
تزکیہ
تسبیح
تسخیر
تسلسل
تسلط
تسلی
تسلیم
تسمانیہ
تسمیہ
تسنیم
تسکین
تشبیہ
تشخص
تشخیص
تشدد
تشریح
تشریحات
تشریف
تشنگی
تشویش
تشکیل
تشہیر
تشیع
تصادفی
تصادم
تصانیف
تصاویر
تصحیح
تصدیق
تصرف
تصریح
تصفیہ
تصنیف
تصنیفات
تصو
تصور
تصورات
تصوراتی
تصوف
تصویر
تصویروں
تصویری
تصویریں
تضاد
تطہیر
تعارف
تعارفی
تعاقب
تعال
تعالى
تعالی
تعامل
تعاون
تعبیر
تعجب
تعداد
تعدد
تعریف
تعریفیں
تعزیت
تعزیرات
تعزیہ
تعصب
تعطل
تعطیل
تعطیلات
تعظیم
تعل
تعلق
تعلقات
تعلقہ
تعلیق
تعلیم
تعلیمات
تعلیمی
تعمیر
تعمیرات
تعمیراتی
تعمیری
تعمیل
تعین
تعینات
تعیناتی
تعیین
تغلق
تغیر
تغیرات
تفاسیر
تفاعل
تفاوت
تفتیش
تفریح
تفریحی
تفریق
تفسير
تفسیر
تفسیری
تفصیل
تفصیلات
تفصیلی
تفضیلی
تفقہ
تفویض
تفہیم
تقابل
تقابلی
تقاریب
تقاریر
تقاضا
تقاضوں
تقاضے
تقدس
تقدیر
تقر
تقرر
تقرری
تقریب
تقریبا
تقریبات
تقریر
تقریروں
تقریریں
تقسیم
تقلید
تقوی
تقویت
تقویم
تقی
تقیہ
تكرر
تل
تلا
تلاش
تلاشی
تلافی
تلامذہ
تلاوت
تلخ
تلخی
تلخیص
تلسی
تلفظ
تلقین
تلمذ
تلمود
تلنگانہ
تلوار
تلواروں
تلواریں
تلک
تلگو
تلہ
تلی
تلے
تم
تما
تماشا
تماشايیوں
تمام
تمباکو
تمثیل
تمدن
تمغا
تمغايے
تمغوں
تمغہ
تمغے
تمل
تمنا
تمھارے
تمھیں
تمہارا
تمہاری
تمہارے
تمہیں
تمیز
تمیم
تمیمی
تن
تنا
تنازع
تنازعات
تنازعہ
تنازعے
تناسب
تناسق
تناظر
تناو
تناول
تنبیہ
تنخواہ
تنخواہوں
تند
تنزانیہ
تنصیب
تنصیبات
تنظیم
تنظیموں
تنظیمی
تنظیمیں
تنفس
تنقیح
تنقید
تنقیدی
تنوع
تنویر
تنگ
تنگی
تنہا
تنہايی
تنے
تها
تهران
تو
تواتر
تواریخ
توازن
تواس
تواضع
توان
توانايی
توبہ
توثیق
توجہ
توجیہ
توحید
تودے
تور
تورات
توران
توراۃ
توریت
توزیع
توسط
توسیع
توصیف
توضیح
توفیق
توقع
توقعات
توقیر
تول
تولید
تولیدی
توما
تونس
تونسوی
تونسہ
تووہ
توپ
توپوں
توپیں
توڑ
توڑا
توڑنا
توڑنے
توکل
توں
توہین
تيیس
تيیں
تپ
تپش
تپہ
تڑپ
تک
تکالیف
تکامل
تکبر
تکبیر
تکرار
تکریم
تکلف
تکلم
تکلیف
تکمیل
تکنیک
تکنیکی
تکیہ
تھ
تھا
تھام
تھامس
تھامسن
تھانوی
تھانہ
تھانے
تھايی
تھر
تھراپی
تھرو
تھرڈ
تھری
تھریس
تھل
تھلگ
تھو
تھوڑا
تھوڑی
تھوڑے
تھوک
تھک
تھی
تھیلی
تھیم
تھیوری
تھیوڈور
تھیٹر
تھیں
تھے
تہ
تہايی
تہتر
تہجد
تہجی
تہذیب
تہذیبوں
تہذیبی
تہران
تہرانی
تہمت
تہوار
تہواروں
تہہ
تی
تیار
تیاری
تیاریاں
تیاریوں
تیر
تیرا
تیراکی
تیروں
تیرہ
تیرہویں
تیری
تیرے
تیز
تیزاب
تیزی
تیس
تیسرا
تیسری
تیسرے
تیغ
تیل
تیلگو
تیمور
تیموری
تیمی
تیمیہ
تین
تینتالیس
تینتیس
تیندوا
تیندوے
تینوں
تیواری
تیونس
تیيیس
تیں
تے
ث
ثابت
ثاقب
ثالث
ثالثی
ثانوی
ثانی
ثانیہ
ثبت
ثبوت
ثر
ثروت
ثریا
ثعلبہ
ثقافت
ثقافتوں
ثقافتی
ثقاہت
ثقفی
ثقل
ثقہ
ثقۃ
ثقیف
ثلاثہ
ثلاثی
ثلث
ثم
ثمر
ثمینہ
ثنا
ثناء
ثنايی
ثواب
ثور
ثوری
ج
جا
جاء
جابجا
جابر
جات
جاتا
جاتاہے
جاتی
جاتیں
جاتیہ
جاتے
جادو
جادويی
جادوگر
جاذب
جار
جارج
جارجیا
جارجیايی
جارحانہ
جارحیت
جارہا
جارہی
جارہے
جاری
جاز
جاسم
جاسوس
جاسوسی
جاسکتا
جاسکتی
جاسکتے
جاسکے
جال
جالب
جالندھر
جالندھری
جالی
جام
جامد
جامشورو
جامع
جامعات
جامعہ
جامعۃ
جامہ
جامی
جان
جانا
جاناں
جانب
جانباز
جانبدار
جانبداری
جانتا
جانتی
جانتے
جاندار
جانداروں
جانسن
جانشین
جانشینوں
جانشینی
جاننا
جاننے
جانور
جانوروں
جانوں
جانچ
جانی
جانیں
جانے
جاو
جاوا
جاوں
جاوی
جاوید
جايداد
جايز
جايزہ
جايزے
جايیداد
جايیگا
جايیں
جايے
جاٹ
جاٹوں
جاپان
جاپانی
جاپانیوں
جاچکے
جاکر
جاگ
جاگیر
جاگیردار
جاگیردارانہ
جاگیرداروں
جاگیرداری
جاں
جاہ
جاہل
جاہلیت
جایا
جب
جبار
جبر
جبرا
جبرالٹر
جبران
جبرايیل
جبريیل
جبری
جبریل
جبل
جبوتی
جبکہ
جبہ
جبیر
جتنا
جتنی
جتنے
جتويی
جج
ججوں
جحش
جد
جدا
جدايی
جداگانہ
جدت
جدوجہد
جدول
جدہ
جدید
جدیدیت
جذب
جذبات
جذباتی
جذبہ
جذبے
جر
جرات
جراثیم
جراح
جراحی
جرايد
جرايم
جرح
جرسی
جرم
جرمانہ
جرمانے
جرمن
جرمنوں
جرمنی
جرنل
جرنیل
جرنیلوں
جرگہ
جریدہ
جریدے
جریر
جز
جزء
جزا
جزاير
جزو
جزوی
جزيیات
جزیروں
جزیرہ
جزیرے
جزیہ
جس
جسارت
جسامت
جست
جستجو
جسد
جسم
جسمانی
جسموں
جسونت
جسٹس
جسٹن
جسے
جشن
جعفر
جعفراباد
جعفری
جعفریان
جعفریہ
جعل
جعلی
جغرافیايی
جغرافیای
جغرافیہ
جـ
جل
جلا
جلال
جلالت
جلالی
جلالین
جلانے
جلاوطن
جلاوطنی
جلایا
جلتا
جلتی
جلتے
جلد
جلدوں
جلدی
جلدیں
جلسوں
جلسہ
جلسے
جلن
جلنے
جلوس
جلوہ
جلی
جلیل
جلیں
جلے
جم
جما
جمادی
جماع
جماعت
جماعتوں
جماعتی
جماعتیں
جمال
جمالی
جمشید
جمع
جمعرات
جمعہ
جمعیت
جمعیۃ
جمل
جملوں
جملہ
جملے
جمنا
جمهوری
جمود
جموں
جمہ
جمہور
جمہوری
جمہوریت
جمہوریہ
جمی
جمیعت
جمیل
جمیلہ
جمیکا
جن
جنا
جناب
جنات
جناح
جنازہ
جنازے
جنت
جنتا
جنتی
جنجوعہ
جند
جندب
جنرل
جنس
جنسی
جنسیت
جنم
جنوب
جنوبی
جنوری
جنون
جنونی
جنوں
جنڈ
جنکشن
جنکی
جنگ
جنگجو
جنگجووں
جنگل
جنگلات
جنگلوں
جنگلی
جنگوں
جنگی
جنگیں
جنھوں
جنھیں
جنہوں
جنہیں
جنید
جنین
جنیوا
جهان
جو
جوا
جواب
جوابات
جوابی
جواد
جوار
جواز
جوان
جوانوں
جوانی
جواينٹ
جواں
جواہر
جواہرات
جوبلی
جوتا
جوتوں
جوتے
جودھ
جور
جوزف
جوزی
جوس
جوش
جوشی
جوضلع
جوق
جول
جولا
جولايی
جولو
جولی
جولیا
جولیس
جولین
جولیين
جون
جوناتھن
جوناگڑھ
جونز
جونپور
جونپوری
جونہی
جونیجو
جونیير
جويی
جويے
جوڈیشل
جوڑ
جوڑا
جوڑتا
جوڑتے
جوڑنے
جوڑوں
جوڑی
جوڑے
جوکہ
جوگی
جوں
جوہانسبرگ
جوہر
جوہری
جوہن
جوہی
جویریہ
جي
جيے
جٹ
جڑ
جڑا
جڑانوالہ
جڑواں
جڑوں
جڑی
جڑیں
جڑے
جکارتہ
جگ
جگت
جگر
جگن
جگہ
جگہوں
جگہیں
جھ
جھارکھنڈ
جھانسی
جھاڑی
جھاڑیوں
جھرمٹ
جھلک
جھلی
جھنڈ
جھنڈا
جھنڈے
جھنگ
جھوٹ
جھوٹا
جھوٹی
جھوٹے
جھوک
جھٹکے
جھڑپ
جھڑپوں
جھڑپیں
جھک
جھکا
جھکاو
جھگڑا
جھگڑوں
جھگڑے
جھیل
جھیلوں
جھیلیں
جہ
جہا
جہاد
جہادی
جہاز
جہازوں
جہالت
جہان
جہانگیر
جہانگیری
جہانیاں
جہاں
جہت
جہتی
جہد
جہل
جہلم
جہنم
جہیز
جی
جیا
جیب
جیت
جیتا
جیتنے
جیتی
جیتے
جید
جیسا
جیساکہ
جیسپر
جیسکا
جیسی
جیسے
جیش
جیف
جیفرسن
جیفری
جیل
جیلان
جیلانی
جیلوں
جیمز
جیمس
جین
جینا
جینز
جینس
جینوا
جینی
جینیاتی
جینیفر
جینے
جیو
جیوتی
جیوری
جیول
جیولوجیکل
جیون
جیونیمز
جیٹ
جیک
جیکب
جیکسن
جیکی
جے
ح
حا
حاتم
حاج
حاجت
حاجی
حادثات
حادثاتی
حادثہ
حادثے
حارث
حارثہ
حاشیہ
حاصل
حاضر
حاضرہ
حاضری
حاضرین
حاطب
حافظ
حافظہ
حال
حالات
حالانکہ
حالاں
حالت
حالتوں
حالی
حالیہ
حامد
حامل
حاملہ
حامی
حامیوں
حاوی
حايری
حايل
حاکم
حاکمیت
حب
حبان
حبش
حبشہ
حبشی
حبیب
حبیبہ
حت
حتمی
حتی
حثیت
حج
حجاب
حجاج
حجاز
حجازی
حجت
حجر
حجرہ
حجری
حجم
حجۃ
حد
حدايق
حدود
حديث
حدیبیہ
حدیث
حدیثوں
حدیثیں
حذف
حذیفہ
حر
حرا
حرارت
حرارتی
حراست
حراستی
حرام
حرب
حرج
حرف
حرفی
حرم
حرمت
حرمتی
حرمین
حروف
حرکات
حرکت
حرکتوں
حرکی
حرکیات
حریت
حریف
حریفوں
حزب
حزم
حس
حساب
حساس
حساسیت
حسام
حسان
حسب
حسد
حسرت
حسن
حسنہ
حسنی
حسنین
حسين
حسی
حسیب
حسین
حسینہ
حسینی
حسینیہ
حشر
حشرات
حشمت
حص
حصار
حصص
حصول
حصوں
حصہ
حصین
حصے
حضر
حضرات
حضرت
حضرموت
حضور
حضوری
حفاظ
حفاظت
حفاظتی
حفص
حفصہ
حفظ
حفظہ
حفیظ
حق
حقانی
حقايق
حقدار
حقوق
حقہ
حقیر
حقیقت
حقیقتا
حقیقی
حل
حلال
حلب
حلف
حلق
حلقوں
حلقہ
حلقے
حلی
حلیف
حلیم
حلیمہ
حلیہ
حلیۃ
حم
حماد
حماس
حمام
حمایت
حمایتی
حمد
حمزہ
حمص
حمل
حملوں
حملہ
حملے
حمید
حمیدہ
حمیدی
حمیرا
حنا
حنبل
حنبلی
حنظلہ
حنفی
حنفیہ
حنیف
حنیفہ
حنین
حو
حوا
حوادث
حواری
حواس
حواشی
حوالوں
حوالہ
حوالے
حوثی
حوثیوں
حوزہ
حوصلہ
حوصلے
حوض
حویلی
حکام
حکایات
حکایت
حکم
حکمت
حکمران
حکمرانوں
حکمرانی
حکمراں
حکومت
حکومتوں
حکومتی
حکومتیں
حکیم
حی
حیا
حیات
حیاتی
حیاتیات
حیاتیاتی
حیان
حیثیت
حیدر
حیدراباد
حیدرابادی
حیدری
حیران
حیرت
حیض
حیفا
حیلہ
حیوان
حیوانات
حیوانی
خ
خا
خاتم
خاتمہ
خاتمی
خاتمے
خاتون
خادم
خار
خاران
خارج
خارجية
خارجہ
خارجی
خارجیوں
خارش
خاص
خاصا
خاصہ
خاصی
خاصیت
خاصے
خاطر
خاقان
خال
خالد
خالدہ
خالص
خالصتا
خالصہ
خالق
خالہ
خالی
خام
خامنہ
خاموش
خاموشی
خامی
خامیوں
خان
خانات
خانان
خاندان
خاندانوں
خاندانی
خانزادہ
خانقاہ
خانقاہوں
خانم
خانوادگی
خانوادہ
خانوادے
خانوں
خانپور
خانگی
خانہ
خانی
خانیت
خانیوال
خانے
خاور
خاوند
خاک
خاکہ
خاکی
خاکے
خاں
خبر
خبردار
خبروں
خبرگزاری
خبری
خبریں
ختم
ختنہ
ختیار
خد
خدا
خداداد
خدام
خداوند
خداوندی
خدايی
خدايے
خدایا
خدشات
خدشہ
خدمات
خدمت
خدوخال
خدیجہ
خر
خراب
خرابی
خراج
خراسان
خراسانی
خراش
خرافات
خرد
خرطوم
خرقہ
خرم
خروج
خروش
خريطة
خرچ
خرگوش
خرید
خریدا
خریدار
خریداری
خریدنا
خریدنے
خریدی
خریدے
خزانہ
خزانے
خزاں
خزر
خزرج
خزرجی
خزیمہ
خسارے
خستہ
خسرو
خشک
خشکی
خصايص
خصوص
خصوصا
خصوصی
خصوصیات
خصوصیت
خضدار
خضر
خط
خطا
خطاب
خطابات
خطابت
خطاط
خطاطی
خطبات
خطبہ
خطبے
خطر
خطرات
خطرناک
خطرہ
خطرے
خطوط
خطوں
خطہ
خطی
خطیب
خطے
خفا
خفیہ
خلا
خلاء
خلاصہ
خلاف
خلافت
خلايق
خلايی
خلجی
خلدون
خلعت
خلف
خلفا
خلفاء
خلفايے
خلق
خلل
خلوت
خلوص
خلوی
خلکان
خلیات
خلیج
خلیجی
خلیفہ
خلیفۃ
خلیق
خلیل
خلیوں
خلیہ
خلیے
خم
خمس
خمسہ
خمیر
خمینی
خنجر
خندق
خو
خوا
خواب
خوابوں
خواتین
خواجگان
خواجہ
خوار
خوارج
خوارزم
خوارزمی
خواص
خوان
خواندگی
خوانی
خواں
خواہ
خواہاں
خواہش
خواہشات
خوب
خوبصورت
خوبصورتی
خوبی
خوبیاں
خوبیوں
خود
خودبخود
خودمختار
خودمختاری
خودنوشت
خودکار
خودکش
خودکشی
خودی
خور
خوراک
خورد
خوردہ
خورشید
خوروں
خوری
خوزستان
خوش
خوشاب
خوشبو
خوشحال
خوشحالی
خوشخبری
خوشنودی
خوشگوار
خوشہ
خوشی
خوف
خوفزدہ
خوفناک
خول
خون
خونریز
خونریزی
خونی
خويی
خوں
خویلد
خير
خٹک
خیا
خیال
خیالات
خیالی
خیام
خیانت
خیبر
خیبرپختونخوا
خیر
خیرابادی
خیرات
خیراتی
خیرباد
خیرمقدم
خیرپور
خیز
خیل
خیموں
خیمہ
خیمے
د
دا
داتا
داخل
داخلہ
داخلی
داخلے
داد
دادا
دادو
دادی
دار
دارا
دارالحکومت
دارالسلام
دارالعلوم
دارالکتب
دارانہ
دارفور
دارومدار
داروں
داری
داریاں
داریوں
دازور
داس
داستان
داستانوں
داستانیں
داشت
داعش
داعی
داغ
داغستان
دال
دالہ
دام
داماد
دامن
دان
دانا
داناپوری
دانت
دانتوں
دانستہ
دانش
دانشنامه
دانشور
دانشورانہ
دانشوروں
دانشگاه
دانشگاہ
دانوں
دانہ
دانی
دانیال
دانے
داو
داود
داودی
داوواغ
داير
دايراۃ
دايرة
دايرةالمعارف
دايرہ
دايرۃ
دايرے
دايم
دايمی
دايی
دايیں
داڑھی
داں
داہر
دایاں
دب
دبا
دبانے
دباو
دبایا
دبستان
دبيی
دبیر
دت
دتا
دتہ
دجال
دجلہ
دختر
دخل
در
درا
دراز
دراصل
درامد
درامدات
درانی
دراوڑ
دراوڑی
دربار
درباری
درباریوں
دربھنگہ
درج
درجات
درجن
درجنوں
درجہ
درجے
درحقیقت
درخت
درختوں
درخشاں
درخواست
درخواستوں
درد
دردی
درس
درست
درستگی
درستی
درسگاہ
درسی
درشن
درعیہ
درمیان
درمیانی
درمیانے
درمیاں
دروازوں
دروازہ
دروازے
درود
دروز
دروس
درویش
درویشوں
درپیش
درپے
درک
درکار
درگا
درگاہ
درہ
درہم
دری
دریا
دریافت
دریافتوں
دریاوں
دریايی
دریايے
دریغ
دریں
دس
دست
دستار
دستانے
دستاویز
دستاویزات
دستاویزی
دستبردار
دستبرداری
دستخط
دسترس
دستور
دستوری
دستوں
دستک
دستکاری
دستگیر
دستہ
دستی
دستیاب
دستیابی
دستے
دسمبر
دسواں
دسویں
دسیوں
دشت
دشمن
دشمنوں
دشمنی
دشوار
دشواری
دعا
دعاوں
دعايیں
دعايے
دعو
دعوت
دعووں
دعوی
دعویدار
دعوے
دفاتر
دفاع
دفاعی
دفتر
دفتری
دفع
دفعات
دفعہ
دفن
دق
دقت
دقیق
دقیقہ
دل
دلا
دلاتا
دلاتے
دلال
دلالت
دلانا
دلانے
دلاور
دلايل
دلايی
دلایا
دلت
دلدادہ
دلدار
دلدل
دلوں
دلچسپ
دلچسپی
دلکش
دلہن
دلی
دلیر
دلیری
دلیل
دلیپ
دم
دماغ
دماغی
دمشق
دمشقی
دن
دندان
دنوں
دنیا
دنیاوی
دنیايے
دنیوی
دو
دوا
دواب
دوام
دواوں
دواں
دوبارہ
دوحہ
دودھ
دور
دوران
دورانیہ
دورانیے
دوربین
دوروں
دورہ
دوری
دورے
دوزخ
دوست
دوستانہ
دوستوں
دوستی
دوسرا
دوسروں
دوسری
دوسرے
دوش
دوشنبہ
دولت
دولہا
دوم
دون
دونوں
دوپٹہ
دوپہر
دوپیازہ
دوچار
دوڑ
دوڑیں
دوں
دوہا
دوہرا
دوہری
ديیے
ديے
دڑو
دکان
دکانوں
دکانیں
دکن
دکنی
دکھ
دکھا
دکھاتا
دکھاتے
دکھانا
دکھانے
دکھايی
دکھايے
دکھایا
دگنا
دھ
دھا
دھات
دھاتوں
دھاتی
دھاتیں
دھار
دھاری
دھارے
دھام
دھان
دھاندلی
دھاوا
دھاگے
دھبے
دھر
دھرتی
دھرم
دھرن
دھماکا
دھماکوں
دھماکہ
دھماکے
دھمکی
دھمکیاں
دھمکیوں
دھن
دھند
دھنی
دھنیال
دھو
دھواں
دھوبی
دھول
دھوم
دھونا
دھونے
دھويیں
دھوپ
دھوکا
دھوکہ
دھوکے
دھچکا
دھڑ
دھڑوں
دھڑکن
دھڑے
دھکیل
دھیان
دھیرے
دہ
دہانہ
دہانی
دہانے
دہايی
دہايیوں
دہرایا
دہستان
دہشت
دہلوی
دہلی
دہلیز
دہم
دہن
دہندگان
دہندہ
دہی
دہے
دی
دیا
دیار
دیال
دیانت
دیاگیا
دیاں
دیباچہ
دیتا
دیتی
دیتے
دیجيے
دیجیے
دید
دیدار
دیدہ
دیدی
دیر
دیرپا
دیرینہ
دیس
دیسايی
دیستریک
دیسی
دیش
دیشی
دیل
دین
دینا
دینار
دینوری
دینی
دینیات
دینیہ
دینے
دیو
دیوا
دیوار
دیواروں
دیواری
دیواریں
دیوالی
دیوالیہ
دیوان
دیوانہ
دیوانی
دیوبند
دیوبندی
دیوتا
دیوتاوں
دیوداس
دیول
دیومالايی
دیوناگری
دیوی
دیيے
دیپ
دیپالپور
دیپک
دیکر
دیکھ
دیکھا
دیکھتا
دیکھتی
دیکھتے
دیکھنا
دیکھنے
دیکھو
دیکھی
دیکھیں
دیکھیے
دیکھے
دیگر
دیگرے
دیں
دیہات
دیہاتوں
دیہاتی
دیہاتیوں
دیہی
دیے
دے
ذ
ذا
ذات
ذاتوں
ذاتی
ذاتیں
ذايقہ
ذاکر
ذبح
ذبیح
ذخاير
ذخیرہ
ذخیرے
ذر
ذرا
ذرات
ذرايع
ذرہ
ذریعہ
ذریعے
ذرے
ذلت
ذلیل
ذمہ
ذمے
ذو
ذوالحجہ
ذوالفقار
ذوق
ذکر
ذکی
ذہانت
ذہبی
ذہن
ذہنوں
ذہنی
ذہنیت
ذہین
ذی
ذیابیطس
ذیشان
ذیل
ذیلی
ر
را
رابرٹ
رابرٹس
رابطوں
رابطہ
رابطے
رابع
رابعہ
رابن
رابندر
رابنسن
رات
راتوں
راتیں
راج
راجا
راجاوں
راجدھانی
راجر
راجستھان
راجن
راجندر
راجو
راجوری
راجپوت
راجپوتانہ
راجپوتوں
راجکمار
راجہ
راجیش
راجیو
راجیہ
راحت
راحیل
رادھا
راز
رازی
راس
راست
راستوں
راستہ
راستے
راسخ
راشد
راشدہ
راشدی
راشدین
راشن
راشٹریہ
راضی
راغب
رافع
رافیل
راقم
رالف
رام
راما
راماين
راماین
رامن
رامپور
ران
رانا
رانجھا
رانی
راو
راول
راولاکوٹ
راولپنڈی
راون
راونڈ
راونڈر
راوی
راویوں
رايج
رايز
رايس
رايفل
رايل
راين
رايٹ
رايٹر
رايٹرز
رايٹس
رايی
رايے
راٹھور
راک
راکٹ
راکھ
راکی
راگ
راہ
راہب
راہبوں
راہداری
راہل
راہنما
راہنمايی
راہول
راہویہ
راہی
راہیں
رایڈر
رب
ربا
رباب
رباح
رباط
رباعی
رباعیات
ربانی
ربط
ربڑ
ربی
ربیع
ربیعہ
رت
رتبہ
رتن
رتھ
رتی
رج
رجال
رجب
رجحان
رجحانات
رجز
رجسٹر
رجسٹرار
رجسٹرڈ
رجسٹریشن
رجعت
رجمنٹ
رجوع
رح
رحجان
رحلت
رحم
رحمان
رحمانی
رحمانیہ
رحمة
رحمت
رحمتہ
رحمن
رحمہ
رحمۃ
رحمی
رحیم
رخ
رخصت
رخی
رد
ردعمل
ردو
ردیف
رزاق
رزق
رزمیہ
رس
رسا
رسالت
رسالوں
رسالہ
رسالے
رسانی
رسايل
رسايی
رساں
رستم
رستہ
رستے
رسد
رسل
رسم
رسمی
رسو
رسوا
رسوخ
رسول
رسولوں
رسوم
رسومات
رسی
رسید
رسیدہ
رش
رشتوں
رشتہ
رشتے
رشد
رشدی
رشوت
رشک
رشی
رشید
رصد
رصدگاہ
رض
رضا
رضاعت
رضاعی
رضامند
رضامندی
رضاکار
رضاکارانہ
رضاکاروں
رضوان
رضوی
رضویہ
رضي
رضی
رضیہ
رطوبت
رعایا
رعایت
رعب
رعنا
رغبت
رف
رفاعہ
رفاقت
رفاہ
رفاہی
رفت
رفتار
رفتاری
رفتہ
رفع
رفعت
رفقا
رفیع
رفیق
رقاصہ
رقام
رقبہ
رقبے
رقص
رقم
رقمطراز
رقمی
رقوم
رقیہ
رم
رمز
رمضان
رملہ
رموز
رمیز
رمیش
رن
رنج
رنجی
رنجیت
رند
رنر
رنز
رنزوں
رنگ
رنگا
رنگت
رنگون
رنگوں
رنگیلا
رنگین
رو
روا
روابط
رواج
رواداری
روانڈا
روانگی
روانہ
روانی
روايی
رواں
روایات
روایت
روایتوں
روایتی
روایتیں
روبرو
روبن
روبوٹ
روبی
روبینہ
روتھ
روتے
روح
روحانی
روحانیت
روحوں
رود
روداد
رودبار
رودر
رورسايیڈ
رورل
روز
روزانہ
روزمرہ
روزنامہ
روزویلٹ
روزگار
روزگاری
روزہ
روزی
روزے
روس
روسو
روسی
روسیوں
روش
روشن
روشناس
روشنی
روضہ
روضۃ
روغن
روف
رول
رولز
روم
روما
رومال
رومان
رومانوی
رومانٹک
رومانی
رومانیت
رومانیہ
رومن
رومی
رومیوں
رون
رونا
رونالڈ
رونق
رونما
رونے
رويٹرز
رويی
رويے
روٹ
روٹلیج
روٹن
روٹی
روپ
روپوش
روپيے
روپڑ
روپیہ
روپیے
روپے
روچیسٹر
روڈ
روڈس
روک
روکا
روکتا
روکتے
روکنا
روکنے
روکے
روگ
روں
روہنگیا
روہڑی
روہیلہ
روی
رویا
رویت
رویوں
رویہ
رویے
ريیس
رپورٹ
رپورٹر
رپورٹس
رپورٹنگ
رپورٹوں
رچ
رچرڈ
رچرڈز
رچرڈسن
رچلینڈ
رچمنڈ
رچی
رک
رکاوٹ
رکاوٹوں
رکاوٹیں
رکعت
رکن
رکنی
رکنیت
رکنے
رکوع
رکھ
رکھا
رکھتا
رکھتی
رکھتے
رکھنا
رکھنے
رکھو
رکھی
رکھیں
رکھے
رکی
رکے
رگ
رگبی
رگوں
رگڑ
رگھوناتھ
رھے
رہ
رہا
رہان
رہايش
رہايشی
رہايشیوں
رہايی
رہاہے
رہبر
رہتا
رہتی
رہتے
رہن
رہنا
رہنما
رہنماوں
رہنمايی
رہنے
رہو
رہوں
رہی
رہیں
رہے
ری
ریا
ریاست
ریاستوں
ریاستہايے
ریاستی
ریاستیں
ریاض
ریاضت
ریاضی
ریاضیات
ریاضیاتی
ریال
ریان
ریت
ریجن
ریجنل
ریجنٹ
ریحان
ریحانہ
ریخ
ریختہ
ریز
ریزرو
ریزہ
ریزی
ریس
ریستوران
ریستوراں
ریسرچ
ریسلنگ
ریسکیو
ریشم
ریشمی
ریشہ
ریفرنڈم
ریفری
ریل
ریلویز
ریلوے
ریلی
ریلیز
ریلیف
ریلے
ریما
ریمارکس
ریمنڈ
رین
رینج
رینجرز
رینڈولف
رینکنگ
رینی
ریو
ریور
ریوڑ
ریویو
ریٹ
ریٹاير
ریٹايرمنٹ
ریٹايرڈ
ریپ
ریپبلک
ریپبلکن
ریچھ
ریڈ
ریڈار
ریڈر
ریڈف
ریڈنگ
ریڈی
ریڈیو
ریڑھ
ریک
ریکارڈ
ریکارڈز
ریکارڈنگ
ریکو
ریکٹر
ریکھ
ریکھا
ریگستان
ریگن
رے
ز
زا
زاد
زادہ
زادے
زار
زارا
زاری
زانويے
زاویہ
زاویے
زايد
زايرین
زايل
زاہد
زاہدہ
زبا
زبان
زبانوں
زبانی
زبانیں
زباں
زبر
زبردست
زبردستی
زبور
زبیدہ
زبیر
زحل
زخم
زخموں
زخمی
زخمیوں
زد
زدگی
زدہ
زر
زراعت
زرتشت
زرتشتی
زرخیز
زرخیزی
زرد
زرداری
زرعی
زرہ
زرین
زریں
زعفران
زلزلہ
زلزلے
زلیخا
زم
زمان
زمانوں
زمانہ
زمانی
زمانے
زماں
زمبابوے
زمرد
زمروں
زمرہ
زمرے
زمزم
زمین
زمیندار
زمینداروں
زمینداری
زمینوں
زمینی
زمینیں
زمیں
زن
زنا
زنانہ
زنجان
زنجانی
زنجبار
زنجیر
زند
زندگی
زندگیوں
زندہ
زنک
زنگ
زنگی
زنی
زو
زوار
زوال
زوجہ
زور
زون
زيادہ
زيد
زيی
زچگی
زکات
زکریا
زکو
زکوۃ
زہد
زہر
زہرا
زہرہ
زہری
زہریلا
زہریلی
زہریلے
زہیر
زی
زیا
زیاد
زیادتی
زیادہ
زیارت
زیب
زیبا
زیتون
زید
زیدان
زیدی
زیر
زیرقیادت
زیرو
زیریں
زیل
زیمبیا
زین
زینب
زینت
زیور
زیورات
زیوس
زیڈ
س
سا
سابق
سابقہ
سات
ساتواں
ساتویں
ساتھ
ساتھی
ساتھیوں
ساجد
ساحر
ساحل
ساحلوں
ساحلی
ساحہ
ساخت
ساختہ
ساختی
سادات
سادگی
سادھو
سادہ
سار
سارا
سارجنٹ
سارنگ
ساروس
سارہ
ساری
سارے
ساز
سازش
سازشوں
سازشی
سازوسامان
سازوں
سازگار
سازی
ساس
ساسانی
ساسانیوں
ساسکچیوان
ساغر
سافٹ
ساقی
سال
سالار
سالانہ
سالم
سالمات
سالماتی
سالمہ
سالمیت
سالمے
سالن
سالوں
ساليین
سالٹ
سالک
سالگرہ
سالہ
سالی
سام
سامان
سامانی
سامراج
سامراجی
سامری
سامعین
سامنا
سامنے
سامووا
سامی
سان
سانتا
سانتو
سانحہ
سانس
سانپ
سانچہ
سانچے
سانگ
ساو
ساوتھ
ساول
ساون
ساونڈ
سايبر
سايبیریا
سايرس
سايرہ
سايز
سايل
سايمن
ساين
ساينس
ساينسدان
ساينسدانوں
ساينسز
ساينسی
سايٹ
سايٹارکايیو
سايٹس
سايٹوں
سايڈ
سايی
سايیٹ
سايیڈ
سايیکل
سايیں
سايے
ساٹھ
ساڑھے
ساکن
ساکھ
ساگ
ساگر
ساہتیہ
ساہیوال
سایہ
سب
سبا
سباق
سبب
سبحان
سبحانی
سبز
سبزواری
سبزہ
سبزی
سبزیاں
سبزیوں
سبط
سبعہ
سبق
سبقت
سبک
سبکدوش
سبھا
سبھاش
سبھی
سبی
سبیل
ست
ستا
ستاد
ستار
ستارا
ستاروں
ستارہ
ستارے
ستاسی
ستان
ستانوے
ستاون
ستايش
ستايیس
ستتر
ستر
سترہ
سترہویں
ستلج
ستم
ستمبر
ستون
ستونوں
ستہ
ستی
ستیہ
سج
سجا
سجاد
سجادہ
سجادیہ
سجاوٹ
سجایا
سجدہ
سجدے
سحر
سخاوت
سخت
سختی
سخن
سخی
سد
سدا
سدرن
سدوزي
سدوزيی
سدھارتھ
سدھن
سدھنوتی
سدھو
سدھیر
سر
سرا
سراج
سراسر
سراغ
سرانجام
سرايی
سرايیوو
سرايیکی
سرايے
سراپا
سراہا
سرایت
سرب
سربراہ
سربراہان
سربراہی
سربوں
سربیا
سربیايی
سرجری
سرجن
سرحد
سرحدوں
سرحدی
سرحدیں
سرخ
سرخی
سرخیل
سرخیوں
سرد
سردار
سرداروں
سرداری
سردی
سردیوں
سرزد
سرزمین
سرزنش
سرسبز
سرسوتی
سرسوں
سرسید
سرشار
سرطان
سرعت
سرفراز
سرفہرست
سرما
سرمايی
سرمايے
سرمایہ
سرمد
سرن
سرنگ
سرنگوں
سرو
سرور
سرورق
سروس
سروسز
سروں
سروے
سرٹیفکیٹ
سرپرست
سرپرستی
سرپسکا
سرچ
سرچشمہ
سرکار
سرکاری
سرکردگی
سرکردہ
سرکس
سرکش
سرکشی
سرکل
سرکلر
سرکوبی
سرکٹ
سرگرم
سرگرمی
سرگرمیاں
سرگرمیوں
سرگزشت
سرگودھا
سرہ
سرہند
سرہندی
سری
سریانی
سریش
سرینام
سریندر
سرینگر
سریہ
سرے
سزا
سزايیں
سزايے
سست
سستا
سستی
سستے
سسر
سسرال
سسلی
سسٹم
سسی
سسیکس
سطح
سطحوں
سطحی
سطر
سعادت
سعد
سعدی
سعدیہ
سعود
سعودی
سعيد
سعی
سعید
سعیدہ
سعیدی
سغد
سفارت
سفارتخانے
سفارتی
سفارش
سفارشات
سفر
سفرنامہ
سفرنامے
سفری
سفلی
سفوف
سفیان
سفید
سفیر
سفیروں
سفینہ
سقراط
سقوط
سل
سلا
سلاد
سلاسل
سلاطین
سلام
سلامت
سلامتی
سلامی
سلاو
سلاوی
سلايی
سلجوق
سلجوقی
سلجوقیان
سلسلوں
سلسلہ
سلسلے
سلطان
سلطانوں
سلطانہ
سلطانی
سلطنت
سلطنتوں
سلطنتیں
سلف
سلفی
سلفیہ
سلم
سلمان
سلمہ
سلمی
سلنڈر
سلنگور
سلو
سلوا
سلواڈور
سلور
سلوواک
سلوواکیا
سلوواکیہ
سلووینیا
سلوک
سليمان
سلک
سلہٹ
سلیس
سلیقہ
سلیم
سلیمان
سلیمانی
سلیچ
سلیکشن
سلیکٹر
سلیکٹرز
سم
سما
سماج
سماجی
سماجیات
سماع
سماعت
سماوی
سماٹرا
سمت
سمتار
سمتوں
سمتھ
سمتیہ
سمجھ
سمجھا
سمجھانے
سمجھایا
سمجھتا
سمجھتی
سمجھتے
سمجھنا
سمجھنے
سمجھو
سمجھوتہ
سمجھی
سمجھیں
سمجھے
سمر
سمرسیٹ
سمرقند
سمرہ
سمن
سمندر
سمندروں
سمندری
سمويیل
سمٹ
سمپسن
سمیت
سمیر
سمیع
سمیٹ
سن
سنا
سناتے
سنان
سنانے
سنايی
سنایا
سنبل
سنبھال
سنبھالا
سنبھالنے
سنبھالی
سنبھالے
سنبھل
سنة
سنت
سنتا
سنتوش
سنتوں
سنتے
سنجر
سنجیدگی
سنجیدہ
سنجے
سند
سندر
سندھ
سندھو
سندھی
سندھیا
سنز
سنسد
سنسنی
سنسکرت
سنن
سننا
سننے
سنو
سنٹر
سنٹرل
سنٹی
سنچری
سنچریاں
سنچریوں
سنڈے
سنکیانگ
سنگ
سنگاپور
سنگت
سنگر
سنگل
سنگلز
سنگم
سنگھ
سنگھا
سنگھار
سنگی
سنگیت
سنگین
سنہ
سنہا
سنہری
سنہرے
سنۃ
سنی
سنیل
سنیما
سنیوں
سنیں
سنیے
سنے
سو
سوا
سوات
سواتی
سواد
سوار
سواروں
سواری
سوال
سوالات
سوامی
سوانح
سوانحی
سوايے
سوتی
سوتیلی
سوتیلے
سوتے
سود
سودا
سوداگر
سودے
سور
سوراخ
سورة
سورت
سورتوں
سورج
سورس
سورہ
سورۃ
سوری
سوریا
سوریہ
سوز
سوزش
سوس
سوسايٹی
سوسن
سوشل
سوشلزم
سوشلسٹ
سوفٹ
سوفی
سوق
سول
سولو
سولہ
سولہویں
سولی
سوم
سومرسیٹ
سومرو
سون
سونا
سونامی
سونو
سونپ
سونپا
سونپی
سونگ
سونی
سونیا
سونے
سوویت
سوویتوں
سويز
سويس
سوينگ
سويٹزرلینڈ
سويی
سويے
سوٹ
سوپ
سوپر
سوچ
سوچا
سوچتا
سوچتے
سوچنے
سوڈا
سوڈان
سوڈانی
سوگ
سوہدروی
سوہنی
سویا
سویت
سویر
سویرے
سویلین
سویٹزرلینڈ
سویڈش
سویڈن
سيد
سير
سٹار
سٹارک
سٹاف
سٹايل
سٹاين
سٹاک
سٹریٹ
سٹمپ
سٹور
سٹوری
سٹون
سٹوڈیو
سٹڈیز
سٹی
سٹیج
سٹیشن
سٹیفن
سٹیل
سٹیم
سٹیٹ
سٹیڈیم
سپاہ
سپاہی
سپاہیوں
سپر
سپرد
سپرنگ
سپرنگز
سپرنگفیلڈ
سپریم
سپلايی
سپورٹ
سپورٹس
سپہ
سپین
سپیکر
سچ
سچا
سچايی
سچن
سچی
سچے
سڈنی
سڑسٹھ
سڑک
سڑکوں
سڑکیں
سک
سکا
سکالر
سکايی
سکاٹ
سکاٹش
سکتا
سکتی
سکتیں
سکتے
سکردو
سکرپٹ
سکرین
سکریٹری
سکم
سکندر
سکو
سکوت
سکور
سکوشیا
سکول
سکولوں
سکون
سکونت
سکوں
سکھ
سکھا
سکھانے
سکھایا
سکھر
سکھوں
سکہ
سکی
سکیم
سکینہ
سکیورٹی
سکیں
سکے
سگریٹ
سگنل
سگے
سہ
سہارا
سہارنپور
سہارنپوری
سہارے
سہرا
سہراب
سہروردی
سہروردیہ
سہل
سہن
سہولت
سہولتوں
سہولتیں
سہولیات
سہگل
سہی
سہیل
سہیلی
سی
سیا
سیاح
سیاحت
سیاحتی
سیاحوں
سیاروں
سیاروی
سیارچہ
سیارہ
سیارے
سیاست
سیاستدان
سیاستدانوں
سیاسی
سیاسیات
سیاق
سیال
سیالوی
سیالکوٹ
سیاہ
سیاہی
سیب
سیت
سیتا
سید
سیداں
سیدنا
سیدھا
سیدھی
سیدھے
سیدہ
سیدی
سیر
سیراب
سیرالیون
سیرت
سیرو
سیرۃ
سیریز
سیریل
سیریلز
سیرین
سیزر
سیزن
سیستان
سیشن
سیف
سیفی
سیفیہ
سیل
سیلاب
سیلز
سیلسیان
سیلف
سیلم
سیلواڈور
سیلون
سیم
سیما
سیمنٹ
سیمی
سیمینار
سین
سینا
سینتالیس
سینتیس
سینما
سینير
سینٹ
سینٹر
سینٹرل
سینٹی
سینچری
سینڈ
سینڈوچ
سینکڑوں
سینگ
سینہ
سینیٹ
سینیٹر
سینیگال
سینے
سیو
سیوا
سیوطی
سیول
سیون
سیٹ
سیٹلايٹ
سیٹھ
سیچیلیس
سیڈجویک
سیڈر
سیڑھی
سیڑھیاں
سیڑھیوں
سیکرٹ
سیکرٹری
سیکرٹریٹ
سیکریٹری
سیکریٹریٹ
سیکس
سیکسن
سیکشن
سیکنڈ
سیکنڈری
سیکورٹی
سیکولر
سیکويل
سیکٹر
سیکڑوں
سیکھ
سیکھا
سیکھنا
سیکھنے
سیکھی
سیکھے
سیکیورٹی
سیہون
سے
ش
شا
شاء
شابک
شاخ
شاخوں
شاخیں
شاد
شاداب
شادی
شادیاں
شادیوں
شاذ
شارجہ
شارح
شارع
شارٹ
شارپ
شارک
شازیہ
شاستر
شاستری
شاعر
شاعرانہ
شاعروں
شاعرہ
شاعری
شافعی
شال
شالیمار
شام
شامل
شاملہ
شامی
شان
شانتی
شاندار
شانہ
شاه
شايد
شاير
شايستہ
شايع
شايقین
شاٹ
شاپ
شاپنگ
شاپور
شاپیل
شاکر
شاگرد
شاگردوں
شاگردی
شاہ
شاہان
شاہانہ
شاہجہان
شاہجہاں
شاہد
شاہدہ
شاہراہ
شاہراہوں
شاہنامہ
شاہنواز
شاہو
شاہکار
شاہی
شاہین
شاید
شایع
شب
شباب
شبانہ
شبلی
شبنم
شبہ
شبہات
شبیب
شبیر
شبیہ
شبیہہ
شت
شجاع
شجاعت
شجر
شجرہ
شخص
شخصی
شخصیات
شخصیت
شد
شداد
شدت
شده
شدہ
شدید
شذرات
شر
شراب
شرابی
شرارت
شرافت
شرايط
شراکت
شربت
شرجیل
شرح
شرر
شرط
شرع
شرعی
شرعیہ
شرف
شرق
شرقی
شرقیہ
شرم
شرما
شرمناک
شرمندگی
شرمندہ
شرمیلا
شرمین
شروع
شروعات
شرٹ
شرک
شرکاء
شرکت
شری
شریان
شریح
شریر
شریعت
شریف
شریفین
شریک
شش
ششم
شطرنج
شعار
شعاع
شعاعوں
شعاعیں
شعبان
شعبوں
شعبہ
شعبی
شعبے
شعر
شعرا
شعراء
شعرايے
شعری
شعلہ
شعلے
شعور
شعوری
شعیب
شغف
شغل
شفا
شفاء
شفاعت
شفاف
شفق
شفقت
شفٹ
شفیع
شفیق
شق
شلوار
شمار
شمارندی
شماره
شمارہ
شماری
شماریات
شماریاتی
شمارے
شمال
شمالی
شمايل
شمر
شمس
شمسی
شمشاد
شمشیر
شمع
شمعون
شملہ
شمولیت
شمیل
شمیم
شن
شناخت
شناختی
شناس
شناسی
شنکر
شنگھايی
شنید
شهید
شو
شوال
شواہد
شوخ
شود
شور
شورش
شوری
شوز
شوق
شوقی
شوقین
شوقیہ
شوٹ
شوٹنگ
شوکت
شوگر
شوہر
شوہروں
شيخ
شپ
شک
شکار
شکارپور
شکاری
شکاگو
شکایات
شکایت
شکتی
شکر
شکریہ
شکست
شکستہ
شکل
شکلا
شکلوں
شکلیں
شکم
شکن
شکنتلا
شکنی
شکوک
شکوہ
شکیل
شگاف
شگفتہ
شہ
شہاب
شہابی
شہادت
شہباز
شہد
شہدا
شہداء
شہدايے
شہر
شہرت
شہرستان
شہروں
شہرہ
شہری
شہریار
شہریت
شہریوں
شہزاد
شہزادوں
شہزادہ
شہزادی
شہزادے
شہناز
شہنشاہ
شہنشاہوں
شہوت
شہید
شہیدوں
شی
شیام
شیبانی
شیبہ
شیخ
شیخوپورہ
شیخہ
شیدايی
شیر
شیراز
شیرازی
شیرانی
شیرنی
شیروانی
شیرون
شیروں
شیری
شیریں
شیش
شیشہ
شیشے
شیطان
شیطانوں
شیطانی
شیعوں
شیعہ
شیعی
شیعیان
شیعیت
شیف
شیفیلڈ
شیل
شیلا
شیلبی
شیلڈ
شیمپیين
شین
شینا
شیو
شیوا
شیواجی
شیوخ
شیير
شیيرڈن
شیٹ
شیٹی
شیڈول
شیکسپیير
شیکھر
شے
ص
صا
صابر
صابری
صابن
صاحب
صاحبان
صاحبزادہ
صاحبزادی
صاحبزادے
صاحبہ
صادر
صادق
صارف
صارفین
صاف
صافی
صالح
صالحہ
صالحین
صايم
صايمہ
صبا
صباح
صبح
صبر
صبیح
صبیحہ
صحابہ
صحابی
صحابیہ
صحاح
صحارا
صحافت
صحافتی
صحافی
صحافیوں
صحبت
صحة
صحت
صحرا
صحراوں
صحرايی
صحرايے
صحن
صحيح
صحیح
صحیفوں
صحیفہ
صحیفے
صد
صدا
صدارت
صدارتی
صداقت
صدام
صدايے
صدر
صدرالدین
صدف
صدق
صدقات
صدقہ
صدمہ
صدمے
صدور
صدوق
صدی
صدیاں
صدیق
صدیقہ
صدیقی
صدیوں
صر
صراحت
صراط
صرف
صریح
صص
صغری
صغیر
صـ
صف
صفا
صفات
صفاتی
صفايی
صفت
صفحات
صفحة
صفحه
صفحہ
صفحے
صفد
صفدر
صفر
صفوان
صفوں
صفوی
صفویوں
صفہ
صفی
صفین
صفیہ
صقلیہ
صل
صلاح
صلاحیت
صلاحیتوں
صلاحیتیں
صلح
صلو
صلى
صلہ
صلی
صلیب
صلیبی
صلیبیوں
صلے
صندوق
صنعاء
صنعت
صنعتوں
صنعتی
صنعتیں
صنف
صنفی
صنم
صو
صوابی
صوبايی
صوبوں
صوبہ
صوبیدار
صوبے
صوت
صوتی
صور
صورت
صورتحال
صورتوں
صورتیں
صوفی
صوفیا
صوفیانہ
صوفیايے
صوفیوں
صوفیہ
صول
صومالی
صومالیہ
صيانة
صہیونی
صہیونیت
صیغہ
صیہونی
صیہونیت
ض
ضابطہ
ضابطے
ضامن
ضايع
ضبط
ضحاک
ضخیم
ضد
ضدی
ضر
ضرب
ضرر
ضرور
ضرورت
ضرورتوں
ضروری
ضروریات
ضعف
ضعیف
ضلع
ضلعی
ضلعے
ضم
ضمانت
ضمن
ضمنی
ضمیر
ضمیمہ
ضو
ضوابط
ضی
ضیا
ضیاء
ضیافت
ط
طا
طارق
طاری
طاس
طاعون
طاق
طاقت
طاقتور
طاقتوں
طاقتیں
طاقم
طالب
طالبات
طالبان
طالبہ
طاوس
طاووس
طايف
طايی
طاہر
طاہرالقادری
طاہرہ
طب
طباطبايی
طباعت
طبرانی
طبرسی
طبری
طبع
طبعة
طبعی
طبعیات
طبقات
طبقاتی
طبقوں
طبقہ
طبقے
طبلہ
طبی
طبیب
طبیعت
طبیعی
طبیعیات
طبیعیاتی
طحاوی
طر
طرابلس
طراز
طرح
طرز
طرف
طرفہ
طریق
طریقت
طریقوں
طریقہ
طریقے
طعام
طعن
طغرل
طفرہ
طفیل
طلاق
طلال
طلايی
طلب
طلبا
طلباء
طلبہ
طلبی
طلحہ
طلسم
طلعت
طلوع
طنجہ
طنز
طنزیہ
طو
طواف
طوالت
طوايف
طور
طورپر
طوسی
طوفان
طوفانی
طول
طومار
طویل
طہ
طہارت
طیار
طیاره
طیاروں
طیارہ
طیارے
طیب
طیبہ
طیف
طے
ظ
ظالم
ظالمانہ
ظالموں
ظاہر
ظاہری
ظرافت
ظرف
ظروف
ظریف
ظفر
ظل
ظلم
ظہر
ظہور
ظہیر
ع
عا
عابد
عابدہ
عابدی
عاجز
عاجزی
عاد
عادات
عادت
عادل
عادی
عارضہ
عارضی
عارف
عارفہ
عازم
عاشق
عاشور
عاشورا
عاشورہ
عاص
عاصم
عاصمہ
عاطف
عاقل
عال
عالم
عالمگیر
عالمگیری
عالمی
عالی
عالیشان
عالیہ
عام
عامر
عامل
عاملہ
عاملی
عامہ
عايد
عايشہ
عبا
عباد
عبادات
عبادت
عبادہ
عبارت
عباس
عباسی
عباسیوں
عباسیہ
عبد
عبدالحق
عبدالحمید
عبدالحکیم
عبدالرحم
عبدالرحمان
عبدالرحمن
عبدالرحیم
عبدالرزاق
عبدالرشید
عبدالسلام
عبدالعزیز
عبدالغفار
عبدالقادر
عبدالقیوم
عبداللطیف
عبدالله
عبداللہ
عبدالمجید
عبدالمطلب
عبدالملک
عبدالوہاب
عبدالکریم
عبدی
عبرانی
عبرت
عبور
عبوری
عبید
عبیداللہ
عبیدہ
عت
عتاب
عتبہ
عتیق
عثمان
عثمانی
عثمانیوں
عثمانیہ
عجايب
عجايبات
عجب
عجلت
عجم
عجمی
عجیب
عد
عدالت
عدالتوں
عدالتی
عدالتیں
عداوت
عدت
عدد
عددی
عدسہ
عدل
عدلیہ
عدم
عدن
عدنان
عدی
عذاب
عذر
عذرا
عر
عراق
عراقی
عراقیوں
عرب
عربوں
عربي
عربی
عربیہ
عرس
عرش
عرصہ
عرصے
عرض
عرف
عرفات
عرفان
عرفانی
عرفہ
عرفی
عرفیت
عرق
عروج
عروض
عروہ
عریض
عز
عزاداری
عزايم
عزت
عزرا
عزم
عزوجل
عزیر
عزیز
عساکر
عسقلانی
عسکری
عسکریت
عشاء
عشر
عشرت
عشروں
عشرہ
عشری
عشریہ
عشرے
عشق
عشقیہ
عصا
عصبی
عصر
عصری
عصمت
عضو
عطا
عطاء
عطار
عطارد
عطر
عطیات
عطیہ
عظام
عظم
عظمت
عظمی
عظیم
عظیمی
عفان
عفت
عقاب
عقايد
عقب
عقبہ
عقبی
عقد
عقل
عقلمند
عقلی
عقیدت
عقیدہ
عقیدے
عقیق
عقیل
عل
علا
علاء
علاج
علاحدہ
علاقايی
علاقوں
علاقہ
علاقے
علالت
علامات
علامت
علامتوں
علامتی
علامتیں
علامہ
علانیہ
علاو
علاوالدین
علاوہ
علت
علقمہ
علم
علما
علماء
علمايے
علمبردار
علموں
علمی
علمیہ
علوم
علوی
على
علي
عليه
عليہ
علی
علیا
علیحدگی
علیحدہ
علیل
علیم
علیه
علیہ
علیہا
علیہم
عم
عماد
عمار
عمارات
عمارت
عمارتوں
عمارتیں
عمارہ
عمال
عمامہ
عمان
عمايدین
عمدہ
عمدۃ
عمر
عمران
عمرانی
عمرانیات
عمرنے
عمرو
عمروبن
عمرہ
عمری
عمل
عملا
عملداری
عملدرامد
عملہ
عملی
عملیات
عملے
عمودی
عموم
عموما
عمومی
عمیر
عمیق
عن
عناصر
عنان
عنایت
عنبر
عند
عنصر
عنقریب
عنه
عنوان
عنوانات
عنہ
عنہا
عنہم
عوام
عوامل
عوامی
عورت
عورتوں
عورتیں
عوض
عوف
عون
عکاس
عکاسی
عکرمہ
عکس
عہد
عہدوں
عہدہ
عہدیدار
عہدیداروں
عہدے
عی
عیادت
عیاش
عیاض
عیال
عیاں
عیب
عید
عیسايی
عیسايیت
عیسايیوں
عیسوی
عیسی
عیش
عیل
عین
عینی
عیون
عیینہ
غ
غا
غار
غارت
غاروں
غازی
غافل
غالب
غالبا
غامد
غايب
غبار
غت
غدار
غداری
غدر
غدود
غدیر
غذا
غذايی
غذايیت
غر
غرب
غربت
غربی
غرض
غرق
غرناطہ
غروب
غرور
غریب
غریبوں
غز
غزالہ
غزالی
غزل
غزلوں
غزلیات
غزلیں
غزنوی
غزنی
غزوات
غزوہ
غزہ
غسل
غصہ
غصے
غضب
غضنفر
غفاری
غفلت
غلاف
غلام
غلاموں
غلامی
غلبہ
غلط
غلطی
غلطیاں
غلطیوں
غلہ
غم
غمگین
غنم
غنی
غنیمت
غوث
غوثیہ
غور
غوری
غوطہ
غير
غیاث
غیب
غیبت
غیبی
غیر
غیرت
غیرمعمولی
ـ
ـذ
ــ
ـي
ف
فا
فاتح
فاتحہ
فاتحین
فادر
فار
فارس
فارسٹ
فارسی
فارسیوں
فارغ
فارم
فارمز
فارمنگٹن
فارمولا
فارمیسی
فارمیٹ
فارمیٹس
فارن
فاروق
فاروقی
فارچون
فاس
فاسد
فاسق
فاسو
فاسٹ
فاش
فاشسٹ
فاصلہ
فاصلے
فاضل
فاطمہ
فاطمی
فاطمیہ
فاعل
فاقہ
فال
فالج
فالز
فالو
فام
فان
فانوس
فانی
فاونٹین
فاونڈ
فاونڈیشن
فايدہ
فايدے
فاير
فايرنگ
فايز
فايق
فايل
فاين
فاينل
فاينڈ
فايٹر
فايی
فايیو
فايیٹ
فاکس
فتاوی
فتح
فتنہ
فتنے
فتوح
فتوحات
فتوی
فتوے
فجر
فجی
فحش
فخر
فخرالدین
فدا
فدیہ
فر
فرات
فرار
فراز
فراست
فراغت
فراق
فراموش
فرانز
فرانس
فرانسس
فرانسسکو
فرانسیسی
فرانسیسیوں
فرانش
فرانک
فرانکو
فراوانی
فرايض
فرايی
فراہم
فراہمی
فرج
فرح
فرحان
فرحت
فرخ
فرد
فردا
فردوس
فردوسی
فرزند
فرسودہ
فرسٹ
فرش
فرشتوں
فرشتہ
فرشتے
فرصت
فرض
فرضی
فرعون
فرغانہ
فرق
فرقوں
فرقہ
فرقے
فرم
فرما
فرماتا
فرماتی
فرماتے
فرمان
فرمانروا
فرمانے
فرمايش
فرمايی
فرمايیں
فرمايیے
فرمايے
فرماں
فرمایا
فرنٹ
فرنٹیير
فرنچ
فرنچايز
فرنگی
فرنیچر
فرهنگ
فرهنگی
فرو
فروخت
فروری
فروش
فروشی
فروع
فروغ
فرڈینینڈ
فرہاد
فرہنگ
فری
فریاد
فریب
فرید
فریدہ
فریدی
فریزر
فریضہ
فریق
فریقوں
فریقین
فریم
فریمونٹ
فرینڈ
فرینک
فرینکفرٹ
فرینکلن
فریڈ
فریڈرک
فریڈم
فزکس
فساد
فسادات
فسانہ
فش
فشانی
فشاں
فشر
فصاحت
فصل
فصلوں
فصلیں
فصیح
فصیل
فضا
فضاء
فضايل
فضايی
فضايیہ
فضل
فضلا
فضلاء
فضلہ
فضلی
فضول
فضیل
فضیلت
فطرت
فطری
فعال
فعالیت
فعل
فعلیات
ففٹی
فقدان
فقر
فقراء
فقرہ
فقرے
فقط
فقہ
فقہا
فقہاء
فقہايے
فقہی
فقہیہ
فقیر
فقیہ
فل
فلاح
فلاحی
فلاور
فلايٹ
فلايی
فلاڈیلفیا
فلاں
فلسطین
فلسطینی
فلسطینیوں
فلسفہ
فلسفی
فلسفیانہ
فلسفیوں
فلسفے
فلم
فلمایا
فلمز
فلمساز
فلمور
فلموں
فلمی
فلمیں
فلو
فلورنس
فلوریڈا
فلويڈ
فلٹن
فلپ
فلپاين
فلپاينی
فلپس
فلک
فلکس
فلکی
فلکیات
فلکیاتی
فلیٹ
فلیچر
فن
فنا
فنانس
فنون
فنڈ
فنڈز
فنکار
فنکارانہ
فنکاروں
فنکشن
فنی
فو
فواد
فوايد
فوت
فوج
فوجداری
فوجوں
فوجی
فوجیوں
فوجیں
فور
فورا
فوربس
فورس
فورسز
فورم
فورنیا
فورٹ
فورڈ
فورکل
فوری
فوزیہ
فوسٹر
فوق
فوقتا
فوقیت
فولاد
فون
فونٹ
فوٹو
فوٹون
فوڈ
فوک
فوکس
فى
في
فٹ
فکر
فکری
فکشن
فہد
فہر
فہرست
فہرستیں
فہم
فہمی
فہمیدہ
فہیم
فی
فیاض
فیاضی
فیروز
فیری
فیز
فیس
فیسٹیول
فیشن
فیصد
فیصل
فیصلوں
فیصلہ
فیصلے
فیض
فیضان
فیضی
فیفا
فیل
فیلو
فیلوشپ
فیلڈ
فیلڈر
فیلڈز
فیلڈنگ
فیلکس
فیم
فیملی
فین
فینڈر
فینکس
فینیش
فیوض
فیير
فیيرفیلڈ
فیيرویو
فیچر
فیڈ
فیڈرل
فیڈریشن
فیکس
فیکلٹی
فیکٹری
فیکٹریوں
فیہ
فے
ق
قا
قاب
قابض
قابل
قابلیت
قابو
قابیل
قاتل
قاتلانہ
قاتلوں
قاجار
قادر
قادری
قادریہ
قادسیہ
قادیانی
قادین
قاريین
قاری
قازان
قازق
قازقستان
قاسم
قاسمی
قاصد
قاصر
قاضی
قاعدہ
قاعدے
قافلوں
قافلہ
قافلے
قافیہ
قال
قالب
قالین
قامت
قاموس
قانع
قانون
قانونی
قايد
قايداعظم
قايدانہ
قايدین
قايل
قايم
قايمة
قايمہ
قاہرہ
قبا
قبايل
قبايلی
قبايلیوں
قبر
قبرستان
قبرص
قبرصی
قبروں
قبریں
قبض
قبضہ
قبضے
قبطی
قبل
قبلہ
قبول
قبولیت
قبیلوں
قبیلہ
قبیلے
قتادہ
قتال
قتل
قتیبہ
قحط
قد
قدامت
قدامہ
قدر
قدرت
قدرتی
قدروں
قدرے
قدس
قدسی
قدسیہ
قدم
قدموں
قدمی
قدوايی
قدیر
قدیم
قدیمہ
قدیمی
قذافی
قر
قرا
قراء
قرابت
قرات
قرار
قرارداد
قراقرم
قرامطہ
قران
قرانی
قرب
قربان
قربانی
قربانیاں
قربانیوں
قربت
قرشی
قرص
قرض
قرضوں
قرضہ
قرضے
قرطاس
قرطبہ
قرطبی
قرن
قرون
قرہ
قریب
قریبا
قریبی
قریش
قریشی
قریظہ
قریہ
قزاقوں
قزاقی
قزلباش
قزوین
قزوینی
قسط
قسطنطنیہ
قسطنطین
قسطوں
قسم
قسمت
قسمتی
قسموں
قسمیں
قصاص
قصايد
قصبات
قصبوں
قصبہ
قصبے
قصد
قصر
قصص
قصور
قصوری
قصوں
قصہ
قصی
قصیدہ
قصیدے
قصے
قضا
قضاء
قضاۃ
قضیہ
قطار
قطاروں
قطب
قطبی
قطبین
قطر
قطرہ
قطرے
قطع
قطعا
قطعات
قطعہ
قطعی
قطعے
قطیف
قفقاز
قل
قلات
قلب
قلبی
قلت
قلع
قلعوں
قلعہ
قلعے
قلم
قلمبند
قلمرو
قلمی
قلندر
قلی
قلیل
قم
قمر
قمری
قمہ
قمی
قمیض
قناعت
قندھار
قندیل
قنوج
قو
قواعد
قوال
قوالی
قوانین
قوت
قوتوں
قوتیں
قوس
قول
قوم
قوموں
قومی
قومیت
قومیں
قونصل
قونیہ
قوی
قيس
قيمة
قی
قیا
قیادت
قیاس
قیام
قیامت
قید
قیدی
قیدیوں
قیراط
قیس
قیصر
قیم
قیمت
قیمتوں
قیمتی
قیمتیں
قیوم
قے
ك
كا
كان
كتاب
كر
كعب
كو
كى
كيا
كہ
كی
كے
ل
لا
لاء
لابن
لات
لاتا
لاتعداد
لاتی
لاتے
لاج
لاجواب
لاحق
لاحقہ
لادن
لارا
لارناکا
لارنس
لارنٹ
لارڈ
لارڈز
لاری
لازم
لازما
لازمی
لازوال
لاس
لاش
لاشاری
لاشوں
لاشیں
لاطینی
لافانی
لال
لالچ
لالہ
لالی
لام
لامتناہی
لامحدود
لامہ
لان
لانا
لاناو
لانس
لانچ
لانگ
لانے
لاو
لاوس
لاوڈ
لاوی
لايبریری
لايبریریبزم
لايبریریوں
لايبیریا
لايحہ
لايسنس
لايف
لايق
لايل
لاين
لاينز
لاينوں
لاينیں
لايٹ
لايی
لايیو
لايیڈ
لايیں
لايے
لاٹھی
لاپتہ
لاڑکانہ
لاک
لاکر
لاکھ
لاکھوں
لاگ
لاگت
لاگرتھم
لاگو
لاہوت
لاہور
لاہوری
لایا
لب
لباس
لبرل
لبرٹی
لبریز
لبریشن
لبنان
لبنانی
لبیک
لت
لتا
لتھوانیا
لتھوانیايی
لتھووینیا
لحاظ
لخت
لد
لداخ
لدھا
لدھیانوی
لدھیانہ
لدین
لذت
لر
لرستان
لزبن
لس
لسان
لسانی
لسانیات
لسبیلہ
لسٹ
لسی
لشکر
لشکروں
لطافت
لطايف
لطف
لطیف
لطیفہ
لعل
لعنت
لغات
لغاری
لغة
لغت
لغوی
لـ
لفظ
لفظوں
لفظی
لفٹ
لقب
لقمان
لقمہ
لل
للہ
للی
لم
لمبا
لمبايی
لمبی
لمبے
لمحات
لمحوں
لمحہ
لمحے
لمپور
لمیٹڈ
لن
لندن
لنچ
لنڈا
لنڈسے
لنڈی
لنک
لنکا
لنکاسٹر
لنکاشاير
لنکن
لنگ
لنگر
له
لو
لوا
لواحقین
لوار
لوازمات
لوتھر
لوث
لوح
لودھراں
لودھی
لودی
لورا
لوری
لورین
لوزیانا
لوس
لوسی
لوسیا
لوط
لوقا
لولی
لومڑی
لون
لونڈی
لونگ
لونی
لوویزیانا
لوير
لويس
لويی
لويیس
لوٹ
لوٹا
لوٹنا
لوٹنے
لوٹے
لوپ
لوڈ
لوک
لوکل
لوگ
لوگن
لوگو
لوگوں
لوں
لوہا
لوہار
لوہے
لوی
ليے
لٹ
لٹریچر
لٹل
لٹویا
لٹکا
لپیٹ
لچک
لچکدار
لڑ
لڑا
لڑايی
لڑايیاں
لڑايیوں
لڑاکا
لڑتا
لڑتے
لڑنا
لڑنے
لڑکا
لڑکوں
لڑکپن
لڑکی
لڑکیاں
لڑکیوں
لڑکے
لڑی
لڑیں
لڑے
لک
لکس
لکسمبرگ
لکشمن
لکشمی
لکڑی
لکھ
لکھا
لکھاری
لکھتا
لکھتی
لکھتے
لکھنا
لکھنو
لکھنوی
لکھنے
لکھی
لکھیں
لکھے
لکی
لکیر
لکیری
لکیریں
لگ
لگا
لگاتا
لگاتار
لگاتے
لگادی
لگام
لگان
لگانا
لگانے
لگاو
لگايی
لگايیں
لگايے
لگایا
لگتا
لگتی
لگتے
لگر
لگن
لگنا
لگنے
لگی
لگیں
لگے
لہ
لہب
لہجہ
لہجے
لہذا
لہر
لہروں
لہری
لہریں
لہسن
لہو
لی
لیا
لیاری
لیاقت
لیب
لیبارٹری
لیبر
لیبل
لیبیا
لیتا
لیتھوانیا
لیتی
لیتے
لیث
لیجنڈ
لیجيے
لیختینستاين
لیز
لیزا
لیزر
لیس
لیسلی
لیسوتھو
لیسٹر
لیفٹیننٹ
لیل
لیلا
لیلہ
لیلی
لیما
لیموں
لین
لینا
لینس
لینن
لینڈ
لینڈز
لینڈنگ
لینکس
لینگویج
لینی
لینے
لیو
لیوا
لیور
لیورپول
لیوس
لیول
لیون
لیونارڈ
لیونگسٹن
لیوی
لیيے
لیٹ
لیٹر
لیپ
لیڈ
لیڈر
لیڈرشپ
لیڈروں
لیڈز
لیڈی
لیڈیا
لیک
لیکر
لیکس
لیکسنگٹن
لیکن
لیکچر
لیکچرار
لیکچرر
لیکچرز
لیگ
لیں
لیہ
لیے
لے
م
ما
ماب
مابعد
مابین
مات
ماتا
ماتحت
ماتحتی
ماتم
ماتھے
ماجد
ماجدہ
ماجوج
ماجہ
ماحول
ماحولیات
ماحولیاتی
ماخذ
ماخوذ
ماد
مادر
مادری
مادوں
مادھو
مادہ
مادی
مادیت
مادے
مار
مارا
مارتا
مارتے
مارس
مارسیل
مارش
مارشل
مارن
مارنا
مارننگ
مارنے
مارو
مارول
ماروی
مارٹر
مارٹل
مارٹن
مارٹی
مارچ
مارک
مارکر
مارکس
مارکسزم
مارکسی
مارکو
مارکیٹ
مارکیٹنگ
مارگریٹ
مارہروی
ماری
ماریا
ماریانا
مارینو
ماریو
ماریون
ماریہ
مارے
مازندران
مازندرانی
ماس
ماسوايے
ماسٹر
ماسٹرز
ماسک
ماسکو
ماضی
مافوق
مافیا
ماقبل
مال
مالا
مالايی
مالاکنڈ
مالدار
مالدووا
مالدیپ
مالك
مالوا
مالوہ
مالٹا
مالک
مالکان
مالکی
مالی
مالیات
مالیاتی
مالیت
مالیگاوں
مالیہ
مالے
مام
ماما
مامقانی
مامور
مامون
ماموں
مان
مانا
مانتا
مانتی
مانتے
ماند
ماندہ
مانس
مانسہرہ
مانع
ماننا
مانند
ماننے
مانو
مانوس
مانٹریال
مانچسٹر
مانچو
مانک
مانگ
مانگا
مانگتا
مانگتے
مانگنے
مانگی
مانی
مانے
ماو
ماوراء
ماورايے
ماوری
ماوس
ماونٹ
ماونٹین
ماوں
مايع
مايل
ماين
ماينر
مايی
مايیک
مايیکرو
مايیکروسافٹ
مايیکل
مايیں
مايے
ماڈرن
ماڈل
ماڈلنگ
ماڈیول
ماڑی
ماگوينداناو
ماں
ماہ
ماہانہ
ماہر
ماہرین
ماہنامہ
ماہواری
ماہی
مایا
مایوس
مایوسی
مایہ
مباحث
مباحثوں
مباحثہ
مباحثے
مبادلہ
مبارک
مبارکباد
مبارکہ
مبالغہ
مباہلہ
مبتلا
مبذول
مبشر
مبصر
مبصرین
مبعوث
مبلغ
مبلغین
مبنی
مبہم
مبین
مبینہ
مت
متاثر
متاثرہ
متاثرین
متاع
متبادل
متبرک
متحد
متحدہ
متحرک
مترادف
مترادفات
مترجم
متروک
متزلزل
متشدد
متصادم
متصل
متضاد
متعارف
متعدد
متعددة
متعدی
متعصب
متعلق
متعلقہ
متعہ
متعین
متغیر
متفرق
متفق
متفقہ
متقی
متمول
متمکن
متن
متنازع
متنازعہ
متناسب
متناسق
متناسقات
متنبہ
متنوع
متواتر
متوازن
متوازی
متوالیہ
متوجہ
متوسط
متوفی
متوقع
متون
متوکل
متکلم
متھرا
متی
متین
مثال
مثالوں
مثالی
مثالیں
مثبت
مثل
مثلا
مثلث
مثنوی
مثنی
مجارستان
مجاری
مجاز
مجازا
مجازی
مجالس
مجاہد
مجاہدہ
مجاہدین
مجبور
مجبورا
مجبوری
مجتبی
مجتمع
مجتہد
مجتہدین
مجد
مجدد
مجددی
مجددیہ
مجذوب
مجرد
مجرم
مجرمانہ
مجرموں
مجروح
مجسم
مجسموں
مجسمہ
مجسمے
مجسٹریٹ
مجلس
مجلسوں
مجلسی
مجلہ
مجمع
مجموعوں
مجموعہ
مجموعی
مجموعے
مجنوں
مجوزہ
مجھ
مجھے
مجہول
مجیب
مجید
محاذ
محاذوں
محاسن
محاصرہ
محاصرے
محافظ
محافظات
محافظوں
محافظہ
محافل
محال
محاورہ
محاورے
محب
محبت
محبوب
محبوبہ
محتاج
محتاط
محترم
محترمہ
محدث
محدثین
محدود
محراب
محرم
محروم
محرومی
محرک
محرکات
محسن
محسود
محسوس
محشر
محصور
محصول
محصولات
محض
محفل
محفلوں
محفوظ
محقق
محققین
محل
محلات
محلاتی
محلول
محلوں
محلہ
محلی
محلے
محم
محمد
محمدبن
محمدی
محمدیہ
محمود
محمول
محنت
محنتی
محو
محور
محوری
محکم
محکموں
محکمہ
محکمے
محکوم
محی
محیط
مخاطب
مخالف
مخالفت
مخالفین
مختار
مختاری
مختص
مختصر
مختصرا
مختلط
مختلف
مخدوم
مخزن
مخصوص
مخطوطات
مخطوطہ
مخفف
مخفی
مخلص
مخلوط
مخلوق
مخلوقات
مخنف
مخیر
مد
مداح
مداحوں
مداخلت
مدار
مدارج
مدارس
مدافعت
مدافعتی
مداين
مدبر
مدت
مدتی
مدثر
مدح
مدد
مددگار
مدر
مدراس
مدرس
مدرسہ
مدرسۃ
مدرسین
مدرسے
مدعا
مدعو
مدعومة
مدعی
مدفن
مدفون
مدلل
مدمقابل
مدن
مدنظر
مدنی
مدون
مديرية
مدھم
مدھو
مدھیہ
مدیحہ
مدیر
مدین
مدینہ
مدینۃ
مدینے
مذاق
مذاکرات
مذاہب
مذمت
مذکر
مذکور
مذکورہ
مذہب
مذہبی
مر
مرا
مرات
مراتب
مراجع
مراحل
مراد
مراداباد
مراسم
مراعات
مراقبہ
مراٹھا
مراٹھی
مراکز
مراکش
مراکشی
مراۃ
مربع
مربوط
مرة
مرتب
مرتبہ
مرتبے
مرتد
مرتضی
مرتفع
مرتکب
مرتکز
مرتے
مرثیہ
مرثیے
مرجان
مرجانی
مرجع
مرحلہ
مرحلے
مرحمت
مرحوم
مرد
مردار
مردان
مردانہ
مردم
مردوں
مردہ
مرزا
مرسر
مرسل
مرسین
مرشد
مرشداباد
مرصع
مرض
مرضی
مرعشی
مرغ
مرغوب
مرغی
مرقس
مرقع
مرلی
مرمت
مرمر
مرنے
مرو
مروان
مروت
مروج
مروجہ
مروہ
مروی
مرویات
مرچ
مرچنٹ
مرکب
مرکبات
مرکز
مرکزہ
مرکزی
مرکزیت
مرکزے
مرکوز
مرگ
مرگیا
مرہ
مرہون
مرہٹوں
مرہٹہ
مری
مریخ
مریخی
مرید
مریدوں
مریدین
مریض
مریضوں
مریم
مرے
مز
مزا
مزاج
مزاجی
مزاح
مزاحم
مزاحمت
مزاحمتی
مزاحیہ
مزار
مزارات
مزاری
مزدور
مزدوروں
مزدوری
مزمل
مزہ
مزید
مزین
مزے
مس
مسا
مسابقت
مسابقتی
مساجد
مسار
مسافت
مسافر
مسافروں
مسالک
مساوات
مساوی
مسايل
مست
مستثنی
مستحب
مستحق
مستحکم
مستدرک
مسترد
مستشرق
مستشرقین
مستطیل
مستعار
مستعفی
مستعمل
مستفید
مستقبل
مستقر
مستقل
مستقیم
مستند
مستنصر
مستونگ
مستوی
مستی
مسجد
مسجدوں
مسخ
مسرت
مسرور
مسز
مسطح
مسعود
مسعودی
مسقط
مسلح
مسلسل
مسلط
مسلم
مسلما
مسلمان
مسلمانان
مسلمانوں
مسلموں
مسلمہ
مسلک
مسمار
مسند
مسوداتی
مسودہ
مسودے
مسوری
مسولینی
مسيلہ
مسيلے
مسٹر
مسکن
مسکین
مسیب
مسیح
مسیحا
مسیحی
مسیحیت
مسیحیوں
مسیسپی
مسیسیپی
مسیلمہ
مشابہ
مشابہت
مشارکین
مشاعروں
مشاعرہ
مشاعرے
مشاورت
مشاورتی
مشايخ
مشاہد
مشاہدات
مشاہدہ
مشاہدے
مشاہیر
مشتاق
مشتبہ
مشترک
مشترکہ
مشتری
مشتعل
مشتق
مشتمل
مشر
مشرا
مشرف
مشرق
مشرقی
مشروب
مشروبات
مشروط
مشروطه
مشرک
مشرکین
مشعر
مشعل
مشغلہ
مشغول
مشق
مشقت
مشمولہ
مشن
مشنری
مشنریوں
مشنوں
مشورہ
مشورے
مشکل
مشکلات
مشکوک
مشکوۃ
مشہد
مشہدی
مشہو
مشہور
مشی
مشیر
مشیروں
مشیل
مشین
مشینری
مشینوں
مشینی
مشینیں
مصادر
مصالحت
مصالحہ
مصالحے
مصايب
مصباح
مصباحی
مصحف
مصحفی
مصداق
مصدر
مصدقہ
مصر
مصرع
مصرعے
مصروف
مصروفیات
مصری
مصریوں
مصطف
مصطفی
مصطفے
مصعب
مصفوفہ
مصلح
مصلحت
مصنف
مصنفہ
مصنفین
مصنوعات
مصنوعی
مصور
مصوروں
مصوری
مصیبت
مضافات
مضافاتی
مضامین
مضبوط
مضبوطی
مضحکہ
مضر
مضمون
مطا
مطابق
مطابقت
مطالب
مطالبات
مطالبہ
مطالبے
مطالعات
مطالعہ
مطالعے
مطبع
مطبوعات
مطبوعہ
مطلب
مطلع
مطلق
مطلوب
مطلوبہ
مطمين
مطہرات
مطیع
مظالم
مظاہر
مظاہروں
مظاہرہ
مظاہرین
مظاہرے
مظفر
مظفراباد
مظفرگڑھ
مظلوم
مظہر
مظہری
مع
معا
معاذ
معارف
معاش
معاشرت
معاشرتی
معاشروں
معاشرہ
معاشرے
معاشی
معاشیات
معاصر
معاصرین
معاف
معافی
معالج
معالجہ
معاملات
معاملوں
معاملہ
معاملے
معانی
معاوضہ
معاوضے
معاون
معاونت
معاویہ
معاينہ
معاہدوں
معاہدہ
معاہدے
معبد
معبود
معتبر
معتدل
معترف
معتزلہ
معتقد
معتقدین
معتمد
معجزات
معجزہ
معجم
معد
معدن
معدنی
معدنیات
معدوم
معدہ
معدے
معذرت
معذور
معذوری
معر
معراج
معرض
معرف
معرفة
معرفت
معرفہ
معرفۃ
معروف
معرکوں
معرکہ
معرکے
معز
معزز
معززین
معزول
معزولی
معشوق
معصوم
معصومہ
معصومین
معطل
معطلی
معطیات
معظم
معظمہ
معقول
معلق
معلم
معلوم
معلومات
معلوماتی
معلی
معمار
معماری
معمر
معمور
معمول
معمولات
معمولی
معنوں
معنوی
معنی
معیار
معیارات
معیاری
معیاریت
معیت
معیشت
معین
مغازی
مغرب
مغربی
مغرور
مغز
مغفرت
مغل
مغلوب
مغلوں
مغلیہ
مغیرہ
مفاد
مفادات
مفاہمت
مفاہیم
مفت
مفتاح
مفتوحہ
مفتی
مفرد
مفروضہ
مفروضے
مفسر
مفسرین
مفصل
مفعول
مفقود
مفلوج
مفکر
مفکرین
مفہوم
مفید
مقا
مقابل
مقابلوں
مقابلہ
مقابلے
مقاتل
مقاصد
مقالات
مقالہ
مقالے
مقام
مقامات
مقامی
مقبرہ
مقبرے
مقبوضات
مقبوضہ
مقبول
مقبولیت
مقتدر
مقتدرہ
مقتل
مقتول
مقدار
مقداری
مقدر
مقدس
مقدسہ
مقدم
مقدمات
مقدمہ
مقدمے
مقدونیايی
مقدونیہ
مقرب
مقرر
مقررہ
مقرن
مقروض
مقصد
مقصود
مقلد
مقناطیس
مقناطیسی
مقننہ
مقیاس
مقیم
مل
ملا
ملاتا
ملاتی
ملاح
ملاحظہ
ملاحوں
ملازم
ملازمت
ملازمتوں
ملازمتیں
ملازمین
ملاقات
ملاقاتوں
ملاقاتیں
ملال
ملالہ
ملامت
ملانا
ملانے
ملاوی
ملايشیا
ملايی
ملايیشیا
ملاپ
ملاکا
ملایا
ملبورن
ملبوس
ملبوسات
ملبہ
ملبے
ملت
ملتا
ملتان
ملتانی
ملتوی
ملتی
ملتے
ملحد
ملحق
ملحقہ
ملحوظ
ملر
ملز
ملزم
ملزمان
ملفوظات
ملنا
ملنے
ملوث
ملوک
ملٹری
ملٹن
ملٹی
ملک
ملکر
ملکوں
ملکہ
ملکی
ملکیت
ملکیوں
ملہوترا
ملی
ملیالم
ملیح
ملیر
ملیریا
ملیشیا
ملین
ملیں
ملیہ
ملے
مماثل
مماثلت
ممالک
ممالیہ
ممانعت
ممبر
ممبران
ممبروں
ممبيی
ممتا
ممتاز
مملوک
مملوکوں
مملکت
ممنوع
ممنوعہ
ممکن
ممکنہ
من
منا
منابع
مناتے
مناجات
منادی
منازل
مناسب
مناسبت
مناصب
مناظر
مناظرہ
مناظرے
مناف
منافع
منافق
منافقین
منافی
مناقب
منانے
منايی
منایا
منبر
منبع
منبہ
منت
منتخب
منتر
منتشر
منتظر
منتظم
منتظمین
منتقل
منتقلی
منتہی
منجانب
منجمد
منحرف
منحصر
منحنی
مند
مندانہ
مندر
مندرج
مندرجہ
مندروں
مندوب
مندوں
مندہ
مندی
منذر
منرو
منزل
منزلت
منزلوں
منزلہ
منزلیں
منسلک
منسوب
منسوخ
منسوخی
منسٹر
منسک
منشا
منشور
منشی
منشیات
منصب
منصف
منصفانہ
منصفین
منصوبوں
منصوبہ
منصوبے
منصور
منصورہ
منطق
منطقہ
منطقی
منظر
منظم
منظور
منظوری
منظوم
منع
منعقد
منعقدہ
منعکس
منفرد
منفی
منقبت
منقسم
منقطع
منقوط
منقول
منقولہ
منموہن
منو
منوایا
منوج
منور
منورہ
منٹ
منٹو
منٹگمری
منچوریا
منڈا
منڈل
منڈی
منڈیلا
منڈیوں
منڈے
منکر
منگ
منگل
منگلا
منگنی
منگول
منگولوں
منگولیا
منگیشکر
منہ
منہاج
منہاس
منہدم
منی
منیجر
منیر
منیسوٹا
منیلا
منے
مو
مواد
موازنہ
مواصلات
مواصلاتی
موافق
موافقت
مواقع
موبايل
موت
موتی
موتیوں
موثر
موج
موجب
موجد
موجو
موجود
موجودگی
موجودہ
موجوں
موخر
مودود
مودودی
مودی
مور
مورتی
مورتیاں
مورث
مورخ
مورخہ
مورخین
مورد
مورس
مورو
موروثی
موروس
مورچہ
مورگن
موری
موریا
موریتانیہ
موریس
موریسن
موریشس
موریہ
موز
موزمبیق
موزوں
موس
موسسة
موسسہ
موسسۃ
موسم
موسموں
موسمی
موسمیاتی
موسوعة
موسوعہ
موسوم
موسوی
موسی
موسیقار
موسیقاروں
موسیقی
موشن
موصل
موصوف
موصول
موضع
موضوع
موضوعات
موطا
موقع
موقعوں
موقف
موقوف
مول
مولا
مولانا
مولف
مولوتوف
مولود
مولوی
مولی
موم
مومل
مومن
مومنین
مون
مونا
موناکو
مونث
مونرو
مونس
مونٹ
مونٹانا
مونٹگمری
مونٹی
مونٹینیگرو
مونگ
مونی
مونیکا
موومنٹ
مووی
موویز
موٹا
موٹايی
موٹر
موٹروے
موٹی
موٹے
موچی
موڈ
موڑ
موہانی
موہن
موہڑہ
مویشی
مویشیوں
ميو
ميوزك
ميں
ميی
مٹ
مٹا
مٹانے
مٹر
مٹھايی
مٹھن
مٹھی
مٹی
مچ
مچا
مچل
مچھلی
مچھلیاں
مچھلیوں
مڈ
مڈغاسکر
مڈل
مڈلینڈ
مڈوے
مڑ
مک
مکاتب
مکاتیب
مکالمہ
مکالمے
مکان
مکانات
مکانوں
مکانی
مکاو
مکاں
مکتب
مکتبہ
مکتبۃ
مکتوب
مکتوبات
مکتوم
مکتی
مکر
مکران
مکرر
مکرم
مکرمہ
مکروہ
مکعب
مکلین
مکمل
مکيی
مکڑی
مکھرجی
مکھن
مکھی
مکہ
مکی
مکیش
مکینیکل
مکے
مگ
مگدھ
مگر
مگرمچھ
مگسی
مہ
مہا
مہابھارت
مہاتما
مہاجر
مہاجرین
مہار
مہاراج
مہاراجا
مہاراجہ
مہاراشٹر
مہاراشٹرا
مہارانی
مہارت
مہاویر
مہاکاوی
مہتا
مہتاب
مہتمم
مہدی
مہذب
مہر
مہران
مہربان
مہربانی
مہروں
مہلت
مہلک
مہم
مہمات
مہمان
مہمانوں
مہمند
مہموں
مہندر
مہندی
مہنگا
مہنگی
مہنگے
مہک
مہیا
مہیش
مہینا
مہیندر
مہینوں
مہینہ
مہینے
می
میا
میامی
میان
میانداد
میانمار
میانوالی
میانہ
میانی
میاں
میت
میتھین
میتھیو
میثاق
میجر
میخايل
مید
میدان
میدانوں
میدانی
میدی
میر
میرا
میراتھن
میراث
میراں
میرزا
میرٹ
میرٹھ
میرٹھی
میرپور
میری
میریلیبون
میرین
میرے
میز
میزان
میزايل
میزايلوں
میزبان
میزبانی
میسا
میساچوسٹس
میسر
میسن
میسور
میسوپوٹیمیا
میعاد
میل
میلا
میلاد
میلان
میلبورن
میلسی
میلفورڈ
میلوں
میلکم
میلہ
میلے
میم
میمن
میموری
میموریل
میمون
میمونہ
مین
مینا
مینار
میناروں
مینجمنٹ
مینز
مینن
مینوفیکچرنگ
مینڈیٹ
مینگل
مینی
مینیجر
مینیسوٹا
مینے
میو
میوزک
میوزیم
میوزیکل
میونخ
میونسپل
میونسپلٹی
میير
میين
میٹ
میٹاکریٹک
میٹر
میٹرو
میٹروپولیٹن
میٹرک
میٹرکس
میٹم
میٹنگ
میٹھا
میٹھی
میٹھے
میپ
میچ
میچز
میچوں
میڈ
میڈرڈ
میڈل
میڈم
میڈیا
میڈیسن
میڈیسون
میڈیم
میڈیکل
میک
میکانیات
میکر
میکس
میکسیکو
میکڈونلڈ
میگا
میگزین
میگھالیہ
میں
مے
ن
نا
ناانصافی
نااہل
نابالغ
نابغہ
نابود
نابینا
ناتھ
ناتھن
ناجايز
ناحیہ
ناخن
ناخوش
ناد
نادر
نادرہ
نادیہ
نار
نارا
ناراض
ناراضگی
ناراضی
ناراين
ناراین
نارتھ
نارتھمپٹن
ناردرن
نارمن
نارووال
نارویجن
ناروے
ناریل
ناز
نازل
نازک
نازی
نازیوں
نازیہ
ناسا
ناسخ
ناشر
ناشران
ناصر
ناصرالدین
ناصری
ناطق
ناطے
ناظر
ناظرہ
ناظرین
ناظم
نافذ
نافرمانی
نافع
ناقابل
ناقد
ناقدین
ناقص
نال
نالہ
نالی
نالیوں
نالے
نام
نامزد
نامزدگی
نامعلوم
ناممکن
نامناسب
نامه
نامور
ناموس
ناموں
نامکمل
نامہ
نامی
نامیاتی
نامے
نان
نانا
نانجنگ
نانوتوی
نانپاروی
نانپارہ
نانک
نانی
ناو
ناواقف
ناول
ناولوں
ناویس
نايب
نايجر
نايجیریا
نايف
ناين
نايٹ
نايٹروجن
نايٹس
نايک
نايیجیریا
نايیڈو
نايیک
ناٹ
ناٹنگھم
ناٹک
ناپ
ناپا
ناپاک
ناپسند
ناپسندیدہ
ناپید
ناچ
ناڈو
ناک
ناکارہ
ناکافی
ناکام
ناکامی
ناکامیوں
ناکھون
ناکہ
ناگ
ناگا
ناگاساکی
ناگالینڈ
ناگزیر
ناگوار
ناگپور
ناگہانی
ناں
ناہید
نایاب
نب
نباتات
نباتاتی
نباتیات
نبو
نبوت
نبوی
نبویہ
نبھا
نبھایا
نبی
نبیل
نبیوں
نت
نتاشا
نتايج
نتقال
نتیجتا
نتیجہ
نتیجے
نثار
نثر
نثری
نج
نجات
نجار
نجاشی
نجد
نجران
نجف
نجفی
نجم
نجمی
نجوم
نجکاری
نجی
نجیب
نحو
نحوی
نخعی
نخلستان
ند
ندا
ندايی
ندوۃ
ندوی
ندی
ندیاں
ندیم
ندیوں
نذر
نذرانہ
نذیر
نر
نرس
نرسنگ
نرم
نرمی
نرگس
نریندر
نز
نزار
نزاکت
نزد
نزدیک
نزدیکی
نزول
نس
نسايی
نسايیت
نسب
نسبت
نسبتا
نسبتی
نسبی
نستعلیق
نسخ
نسخوں
نسخہ
نسخے
نسق
نسل
نسلا
نسلوں
نسلی
نسلیں
نسوانی
نسواں
نسیج
نسیم
نشا
نشاط
نشان
نشانات
نشاندہی
نشانہ
نشانی
نشانیاں
نشانیوں
نشانے
نشاۃ
نشتر
نشر
نشریات
نشریاتی
نشست
نشستوں
نشستیں
نشو
نشوونما
نشہ
نشیب
نشیبی
نشین
نشینی
نشیں
نشے
نص
نصاب
نصابی
نصاری
نصب
نصر
نصراللہ
نصرت
نصف
نصوص
نصیب
نصیحت
نصیر
نصیرالدین
نضر
نظارہ
نظارے
نظام
نظامات
نظامت
نظاموں
نظامی
نظامیہ
نظر
نظرانداز
نظربند
نظرثانی
نظروں
نظری
نظریات
نظریاتی
نظریں
نظریہ
نظریے
نظم
نظموں
نظمی
نظمیں
نظیر
نعت
نعتوں
نعتیں
نعتیہ
نعرہ
نعرے
نعمان
نعمانی
نعمت
نعمتوں
نعیم
نعیمی
نعیمیہ
نغمات
نغموں
نغمہ
نغمے
نف
نفاذ
نفاست
نفر
نفرت
نفس
نفسی
نفسیات
نفسیاتی
نفع
نفل
نفوذ
نفوس
نفی
نفیس
نقاب
نقاد
نقادوں
نقاش
نقاشی
نقاط
نقد
نقش
نقشبند
نقشبندی
نقشبندیہ
نقشوں
نقشہ
نقشے
نقص
نقصان
نقصانات
نقطہ
نقطے
نقل
نقلی
نقوش
نقوی
نقی
نقیب
نك
نل
نم
نما
نماز
نمازوں
نمازی
نمازیں
نماياں
نمايش
نمايندوں
نمايندگان
نمايندگی
نمايندہ
نمايندے
نمایاں
نمبر
نمبروں
نمر
نمو
نمودار
نمونوں
نمونہ
نمونے
نمٹنے
نمک
نمکین
نمی
نمیبیا
ننجا
نند
نندا
ننکانہ
ننگرہار
ننگے
ننھا
ننھی
ننھے
نو
نوا
نواب
نوابادی
نوابادیات
نوابادیاتی
نوابوں
نوابی
نواح
نواحی
نوادرات
نوار
نواز
نوازا
نوازی
نواسہ
نواسے
نوافل
نوايے
نواں
نوبت
نوبل
نوبیل
نوجوان
نوجوانان
نوجوانوں
نوجوانی
نوح
نوحہ
نور
نورا
نورالدین
نورانی
نورجہاں
نورزيی
نورمنڈی
نوروز
نوری
نوریہ
نوزايیدہ
نوش
نوشاد
نوشت
نوشتہ
نوشہرہ
نوشی
نوع
نوعمر
نوعمری
نوعیت
نوفل
نول
نومبر
نون
نونہال
نووا
نووی
نويیڈا
نوٹ
نوٹس
نوٹوں
نوک
نوکر
نوکری
نوں
نوی
نوید
نویس
نویسنده
نویسندہ
نویسی
نوین
نویں
نوے
نيی
نيے
نٹ
نپولین
نچلا
نچلی
نچلے
نچوڑ
نڈر
نژاد
نک
نکا
نکات
نکاح
نکاراگوا
نکاسی
نکال
نکالا
نکالتے
نکالنا
نکالنے
نکالی
نکالے
نکتہ
نکرہ
نکسن
نکل
نکلا
نکلتا
نکلتی
نکلتے
نکلسن
نکلنا
نکلنے
نکلی
نکلیں
نکلے
نکولس
نکہ
نکی
نگ
نگا
نگار
نگارشات
نگاروں
نگاری
نگاہ
نگاہوں
نگر
نگران
نگرانی
نگراں
نگری
نگورنو
نگہبان
نگہداشت
نگیں
نھوں
نہ
نہاد
نہال
نہایت
نہج
نہر
نہرو
نہروں
نہریں
نہم
نہوں
نہيں
نہی
نہیں
نی
نیا
نیابت
نیاز
نیازی
نیبراسکا
نیت
نیدرلینڈ
نیدرلینڈز
نیر
نیروبی
نیز
نیزہ
نیزے
نیس
نیست
نیشا
نیشابور
نیشاپور
نیشاپوری
نیشن
نیشنز
نیشنل
نیشنلسٹ
نیل
نیلا
نیلامی
نیلسن
نیلم
نیلوفر
نیلی
نیلے
نیم
نین
نینا
نیند
نینی
نینیانوے
نیو
نیوارک
نیواڈا
نیوز
نیوزی
نیول
نیوٹرون
نیوٹرینو
نیوٹن
نیوپورٹ
نیوکلیير
نیوی
نیویارک
نیير
نیٹ
نیٹو
نیپال
نیپالی
نیپولین
نیپچون
نیچر
نیچرل
نیچے
نیک
نیکوسیا
نیکی
نیگرو
نیں
نیہ
نے
ه
ها
های
هـ
هم
هیں
و
وا
وابستگی
وابستہ
واجب
واجد
واجپايی
واحد
وادي
وادی
وادیاں
وادیوں
وار
وارانسی
وارانہ
وارث
وارثی
وارد
واردات
وارسا
وارن
وارنر
وارنٹ
واروکشاير
وارڈ
واری
واریت
واس
واسطوں
واسطہ
واسطی
واسطے
واشنگٹن
واصف
واصل
واضح
واضع
واعظ
وافر
واقدی
واقع
واقعات
واقعتا
واقعہ
واقعی
واقعے
واقف
واقفیت
وال
والا
والجماعت
والد
والدہ
والدین
والس
والسلام
والش
واللہ
والنہایہ
والو
والوں
والٹ
والٹر
والٹن
والہ
والہانہ
والی
والیس
والے
وان
وانا
وانگ
وانی
واو
وايرس
وايرل
وايس
وايسرايے
وايل
وايلڈ
وايٹ
وايی
وايیومنگ
وايے
واٹ
واٹر
واٹرلو
واٹس
واٹسن
واپس
واپسی
واپڈا
واچ
واک
واکر
واں
واہ
وب
وبا
وبايی
وبگاه
وت
وتدریس
وتر
وتربیت
وتقوی
وثوق
وج
وجاہت
وجد
وجود
وجوہ
وجوہات
وجيے
وجہ
وجہہ
وجے
وح
وحدت
وحدیث
وحشت
وحشی
وحشیانہ
وحی
وحید
ود
ودیا
ور
وراثت
وراثہ
وراثی
ورانہ
ورتھ
ورثہ
ورثے
ورجن
ورجینیا
ورد
وردی
ورزش
ورزی
ورزیوں
ورسٹی
ورق
ورلڈ
ورم
ورما
ورمونٹ
ورنن
ورنہ
ورچويل
ورڈ
ورڈی
ورژن
ورک
ورکرز
ورکس
ورکشاپ
ورکنگ
وزارت
وزرا
وزراء
وزرايے
وزن
وزنی
وزڈن
وزیر
وزیراعظم
وزیراعلی
وزیرستان
وس
وساطت
وسايل
وسط
وسطی
وسعت
وسلم
وسنت
وسيط
وسٹا
وسکونسن
وسیط
وسیع
وسیلہ
وسیم
وش
وشاعر
وشال
وشنو
وصال
وصف
وصفی
وصل
وصلة
وصول
وصولی
وصی
وصیت
وضاحت
وضع
وضو
وطن
وطنی
وظايف
وظیفہ
وع
وعدوں
وعدہ
وعدے
وعظ
وغیر
وغیرہ
وف
وفا
وفات
وفادار
وفاداری
وفاق
وفاقی
وفايی
وفد
وفضل
وفود
وفیات
وق
وقار
وقاص
وقايع
وقت
وقتا
وقتوں
وقتی
وقعت
وقف
وقفہ
وقفے
وقوع
وقوف
وك
ول
ولا
ولادت
ولادیمیر
ولایت
ولد
ولسن
ولف
ولن
ولندیزی
ولولہ
ولی
ولیج
ولید
ولیم
ولیمز
وم
ومن
ون
ونسنٹ
ونسٹن
ونود
ونڈ
ونڈسر
ونڈوز
ونگ
ونی
وه
وو
ووسٹر
وولف
وولٹ
وولٹیج
وولگا
وومن
وون
ووٹ
ووٹر
ووٹروں
ووٹنگ
ووٹوں
ووڈ
ووڈلینڈ
ووڈی
ويیر
وٹ
وٹامن
وٹو
وپر
وچ
وڈ
وڈیو
وژن
وک
وکالت
وکرم
وکلا
وکمال
وکٹ
وکٹر
وکٹوریا
وکٹورین
وکٹوریہ
وکٹوں
وکٹیں
وکی
وکیع
وکیل
وں
وہ
وہا
وہاب
وہابی
وہاڑی
وہاں
وہب
وہم
وہی
وہیل
وہیں
وی
ویاس
ویانا
ویب
ویبسٹر
ویت
ویتنام
ویتنامی
وید
ویدوں
ویدک
ویر
ویرا
ویراستار
ویران
ویز
ویزا
ویس
ویسا
ویسٹ
ویسٹرن
ویسے
ویل
ویلتھ
ویلز
ویلفیير
ویلنٹاين
ویلنگٹن
ویلو
ویلی
ویلے
ویمن
ویمنز
وین
وینزویلا
وینس
وینسینٹ
وینکوور
وینیزویلا
ویو
ویير
ویٹ
ویٹرنری
ویٹلینڈ
ویٹیکن
ویڈیو
ویڈیوز
ویژن
ویژہ
ویژیول
ویک
ویکسین
ویکی
ویکیمیڈیا
ویکیپیڈیا
ویگاس
ویں
وے
ى
ي
يا
يب
يت
يث
يد
ير
يز
يستخدم
يع
يف
يق
يك
يل
يم
ين
يه
يو
يورپ
يوسف
يہ
يی
يیں
يے
٠
١
٢
٣
٤
٥
٦
٧
٨
٩
٪
٫
٬
٭
ٱ
ٲ
ٴ
ٶ
ٸ
ٹ
ٹا
ٹارزن
ٹاس
ٹاسک
ٹال
ٹام
ٹانک
ٹانگ
ٹانگوں
ٹانگیں
ٹاور
ٹاورز
ٹاون
ٹاونشپ
ٹايم
ٹايمز
ٹايٹل
ٹايپ
ٹايی
ٹايیگر
ٹايیگرز
ٹاٹا
ٹاپ
ٹاک
ٹرافی
ٹرام
ٹرانزٹ
ٹرانس
ٹرانسوال
ٹرانسپورٹ
ٹرايل
ٹرايے
ٹراٹسکی
ٹرسٹ
ٹرسٹی
ٹرمپ
ٹرمینل
ٹرنر
ٹرومین
ٹرپل
ٹرک
ٹری
ٹریبون
ٹریبونل
ٹریبیون
ٹریفورڈ
ٹریفک
ٹرین
ٹریننگ
ٹرینوں
ٹرینٹ
ٹرینیڈاڈ
ٹرینیں
ٹریڈ
ٹریک
ٹل
ٹم
ٹماٹر
ٹماٹوز
ٹن
ٹنل
ٹنڈو
ٹو
ٹوبا
ٹوباگو
ٹوبہ
ٹور
ٹورانٹو
ٹورنامنٹ
ٹورنٹو
ٹول
ٹولی
ٹومب
ٹونٹی
ٹونگا
ٹونی
ٹوينٹی
ٹوٹ
ٹوٹا
ٹوٹنے
ٹوٹی
ٹوٹے
ٹوپی
ٹوڈ
ٹوڈے
ٹوک
ٹوکری
ٹوکیو
ٹوگو
ٹویٹ
ٹویٹر
ٹک
ٹکر
ٹکرا
ٹکراو
ٹکسال
ٹکنالوجی
ٹکٹ
ٹکڑا
ٹکڑوں
ٹکڑے
ٹھ
ٹھا
ٹھاکر
ٹھایا
ٹھنڈا
ٹھنڈک
ٹھنڈی
ٹھنڈے
ٹھوس
ٹھٹوی
ٹھٹھہ
ٹھٹہ
ٹھکانوں
ٹھکانے
ٹھکرا
ٹھگ
ٹھہر
ٹھہرا
ٹھہرایا
ٹھہرے
ٹھیک
ٹھے
ٹی
ٹیبل
ٹیری
ٹیسٹ
ٹیسٹوں
ٹیل
ٹیلر
ٹیلنٹ
ٹیلہ
ٹیلی
ٹیلیفون
ٹیلے
ٹیم
ٹیمز
ٹیموں
ٹیمپل
ٹیمیں
ٹین
ٹینس
ٹینک
ٹینکوں
ٹینیسی
ٹیوب
ٹیوشن
ٹیوٹ
ٹیٹ
ٹیٹو
ٹیپ
ٹیپو
ٹیچر
ٹیڈ
ٹیک
ٹیکس
ٹیکساس
ٹیکسلا
ٹیکسوں
ٹیکسٹ
ٹیکسٹايل
ٹیکسی
ٹیکنالوجی
ٹیکنالوجیز
ٹیکنیکل
ٹیگ
ٹیگور
ٺ
ٻ
ټ
ٽ
پ
پا
پابند
پابندی
پابندیاں
پابندیوں
پات
پاتا
پاتی
پاتے
پاداش
پادری
پادریوں
پادشاہ
پار
پارس
پارسا
پارسی
پارلیمان
پارلیمانی
پارلیمنٹ
پاروتی
پاروں
پارٹ
پارٹنر
پارٹی
پارٹیوں
پارک
پارکر
پارکس
پارہ
پارے
پاز
پاس
پاسبان
پاسداران
پاسداری
پاسپورٹ
پاش
پاشا
پاشی
پافوس
پال
پالا
پالتو
پالن
پالنے
پالو
پالک
پالی
پالیا
پالیسی
پالیسیاں
پالیسیوں
پام
پامال
پامیر
پان
پانا
پاناما
پانچ
پانچواں
پانچوں
پانچویں
پانڈیا
پانڈے
پانی
پانیوں
پانے
پاو
پاور
پاول
پاولو
پاونڈ
پاوڈر
پاوں
پايلٹ
پاين
پايپ
پايی
پايیدار
پايیک
پايیں
پايے
پاٹ
پاٹل
پاٹھک
پاپ
پاپوا
پاپولر
پاک
پاکر
پاکستان
پاکستانارکايیو
پاکستانی
پاکستانیوں
پاکپتن
پاکیزگی
پاکیزہ
پاگل
پاگيے
پایا
پایہ
پبلشر
پبلشرز
پبلشنگ
پبلک
پبلی
پبلیکیشنز
پت
پتا
پتر
پتلا
پتلی
پتن
پتنگ
پتوں
پتھر
پتھروں
پتہ
پتی
پتے
پجاری
پختون
پختونخوا
پختونخواہ
پختگی
پختہ
پدر
پدم
پدما
پذیر
پذیرايی
پذیری
پر
پراجیکٹ
پراسرار
پراسیکیوٹر
پرامن
پران
پرانا
پرانی
پرانے
پرايز
پرايم
پرايمری
پرايیوٹ
پرايیویٹ
پراپرٹی
پراکرت
پراگ
پرایک
پربت
پرت
پرتاپ
پرتشدد
پرتوں
پرتگال
پرتگالی
پرتگالیوں
پرتگیزی
پرتھ
پرتھوی
پرجاتیوں
پرجوش
پردادا
پردہ
پردیش
پردے
پرزور
پرس
پرساد
پرست
پرستار
پرستانہ
پرستش
پرستوں
پرستی
پرسن
پرسنل
پرسکون
پرسی
پرشاد
پرشیا
پرعزم
پرفارم
پرفارمنس
پرل
پرمشتمل
پرندوں
پرندہ
پرندے
پرنس
پرنسٹن
پرنسپل
پرنٹ
پرنٹنگ
پرو
پروا
پرواز
پروازوں
پروازیں
پروان
پروانس
پروانہ
پروجیکٹ
پرور
پروردگار
پرورش
پروری
پروسیسنگ
پروشیا
پروفايل
پروفیسر
پروفیشنل
پروویڈنس
پروٹسٹنٹ
پروٹو
پروٹون
پروٹوکول
پروٹین
پروپیگنڈا
پروپیگنڈہ
پروپیگنڈے
پروڈکشن
پروڈیوس
پروڈیوسر
پروکورو
پروگرام
پروگرامز
پروگرامنگ
پروگراموں
پروں
پرویز
پروین
پرچار
پرچم
پرچہ
پرکاش
پرکشش
پرگنہ
پرہیز
پری
پریا
پریت
پریتم
پریتی
پریری
پریزیڈنسی
پریس
پریش
پریشان
پریشانی
پریشانیوں
پریشد
پریشر
پریفیکچر
پریفیکچور
پریم
پریمیير
پریوں
پریڈ
پریکٹس
پرے
پزیر
پزیرايی
پس
پست
پستول
پستی
پسر
پسرور
پسماندگان
پسماندہ
پسند
پسندانہ
پسندوں
پسندی
پسندیدہ
پسپا
پسپايی
پسینہ
پشاور
پشاوری
پشت
پشتو
پشتون
پشتونوں
پشتوں
پشین
پطرس
پل
پلا
پلازہ
پلاسٹک
پلان
پلاننگ
پلانٹ
پلانک
پلانے
پلاو
پلاٹ
پلایماوت
پلس
پلندری
پلوٹو
پلوں
پلٹ
پلہ
پلی
پلیزینٹ
پلیس
پلین
پلیير
پلیيرز
پلیٹ
پلے
پمپ
پن
پنا
پناہ
پناہی
پنت
پنج
پنجاب
پنجابی
پنجم
پنجہ
پند
پندرہ
پندرہویں
پنسلوانیا
پنشن
پنوں
پنچ
پنچایت
پنڈ
پنڈت
پنڈی
پنک
پنیر
په
پو
پوار
پواينٹ
پواينٹس
پوتا
پوتن
پوتی
پوتے
پوجا
پودا
پودوں
پودے
پور
پورا
پورس
پورم
پورن
پورٹ
پورٹر
پورٹل
پورٹلینڈ
پورٹو
پورٹیج
پورہ
پوری
پورے
پوزیشن
پوزیشنوں
پوسٹ
پوسٹر
پوسٹل
پوش
پوشاک
پوشی
پوشیدہ
پول
پولاسکی
پولس
پولش
پولو
پولی
پولیس
پولینڈ
پولینیشیا
پولیو
پولیٹیکل
پومیرانیان
پون
پونا
پونچھ
پونڈ
پونہ
پونے
پوٹر
پوٹھوہار
پوپ
پوچھ
پوچھا
پوچھتا
پوچھتے
پوچھنے
پوچھے
پوک
پوکیمون
پویلین
پيی
پٹ
پٹرول
پٹرولیم
پٹسبرگ
پٹن
پٹنم
پٹنہ
پٹودی
پٹھان
پٹھانوں
پٹھوں
پٹی
پٹیالہ
پٹیل
پچ
پچاس
پچاسی
پچانوے
پچوں
پچپن
پچھلی
پچھلے
پچہتر
پچیس
پڑ
پڑا
پڑاو
پڑتا
پڑتال
پڑتی
پڑتے
پڑنا
پڑنے
پڑوس
پڑوسی
پڑوسیوں
پڑھ
پڑھا
پڑھاتے
پڑھانا
پڑھانے
پڑھايی
پڑھایا
پڑھتا
پڑھتے
پڑھنا
پڑھنے
پڑھی
پڑھیں
پڑھے
پڑی
پڑیں
پڑے
پک
پکا
پکار
پکارا
پکارتے
پکانے
پکایا
پکوان
پکچر
پکچرز
پکڑ
پکڑا
پکڑنا
پکڑنے
پکڑے
پکی
پکے
پگ
پگڑی
پگھل
پھانسی
پھاڑ
پھر
پھرا
پھرتا
پھرتے
پھرنے
پھل
پھلوں
پھلی
پھنس
پھنسے
پھول
پھولوں
پھونک
پھوٹ
پھوپھی
پھوڑ
پھٹ
پھٹا
پھٹنے
پھیر
پھیل
پھیلا
پھیلانا
پھیلانے
پھیلاو
پھیلایا
پھیلتا
پھیلتی
پھیلنے
پھیلی
پھیلے
پھینک
پھینکا
پھینکنے
پھینکیں
پھینکے
پھیپھڑوں
پہ
پہاڑ
پہاڑوں
پہاڑی
پہاڑیاں
پہاڑیوں
پہر
پہل
پہلا
پہلو
پہلوان
پہلووں
پہلوی
پہلی
پہلے
پہن
پہنا
پہنانے
پہنایا
پہنتی
پہنتے
پہننا
پہننے
پہنچ
پہنچا
پہنچاتا
پہنچاتے
پہنچانا
پہنچانے
پہنچايی
پہنچايے
پہنچایا
پہنچتا
پہنچتی
پہنچتے
پہنچنا
پہنچنے
پہنچی
پہنچیں
پہنچے
پہنی
پہنے
پہچان
پہچانا
پہچانی
پہچانے
پہیے
پی
پیا
پیادہ
پیار
پیارا
پیاری
پیارے
پیاز
پیاس
پیالہ
پیام
پیامبر
پیانو
پیتل
پیتے
پیج
پید
پیدا
پیداوار
پیداواری
پیدايش
پیدايشی
پیدل
پیر
پیرا
پیرامیٹر
پیراگويے
پیرایج
پیرزادہ
پیرس
پیرش
پیرو
پیروکار
پیروکاروں
پیروں
پیروی
پیری
پیرینے
پیس
پیسوں
پیسہ
پیسیفک
پیسے
پیش
پیشاب
پیشانی
پیشتر
پیشرفت
پیشرو
پیشن
پیشوا
پیشوں
پیشکش
پیشگی
پیشہ
پیشی
پیشین
پیشے
پیغام
پیغامات
پیغمبر
پیل
پیلا
پیلس
پیلی
پیلے
پیما
پیمان
پیمانہ
پیمانے
پیمايش
پیمايی
پین
پینا
پینانگ
پینتالیس
پینتیس
پینسٹھ
پینل
پینٹ
پینٹر
پینٹنگ
پینٹنگز
پینگوين
پینین
پینے
پیو
پیوست
پیوند
پیير
پیيرس
پیٹ
پیٹا
پیٹر
پیٹرز
پیٹرزبرگ
پیٹرسن
پیٹرو
پیٹرک
پیٹریاارک
پیٹنٹ
پیٹھ
پیٹی
پیپر
پیپرز
پیپل
پیپلز
پیچ
پیچھا
پیچھے
پیچیدگی
پیچیدہ
پیڈ
پیڈرو
پیڈیا
پیڑ
پیک
پیکار
پیکارڈی
پیکج
پیکر
پیکٹ
پے
ٿ
ڀ
ځ
ڃ
ڄ
څ
چ
چا
چادر
چار
چارج
چارسدہ
چارلس
چارلسٹن
چارلی
چاروں
چارٹ
چارٹر
چارہ
چارے
چاقو
چال
چالاک
چالیس
چاند
چاندنی
چاندی
چانسلر
چانڈیو
چاو
چاول
چايلڈ
چاينا
چايے
چاپ
چاڈ
چاک
چاکر
چاکلیٹ
چاہ
چاہا
چاہتا
چاہتی
چاہتے
چاہنے
چاہو
چاہيیں
چاہيیے
چاہيے
چاہی
چاہیں
چاہیے
چاہے
چترال
چترالی
چتور
چر
چرا
چراغ
چراگاہ
چربی
چرن
چروکی
چرچ
چرچا
چرچل
چری
چستی
چسپی
چشت
چشتی
چشتیہ
چشم
چشموں
چشمہ
چشمے
چغتايی
چل
چلا
چلاتا
چلاتی
چلاتے
چلانا
چلانے
چلايی
چلايیں
چلايے
چلایا
چلتا
چلتی
چلتے
چلن
چلنا
چلنے
چلو
چلڈرن
چلہ
چلی
چلیں
چلے
چمن
چمڑے
چمک
چمکتا
چمکدار
چن
چنا
چناب
چنار
چنانچہ
چناو
چنايی
چناں
چند
چندا
چندر
چندرا
چندہ
چندی
چنوں
چنيی
چنڈی
چنگ
چنگیز
چنی
چنیوٹ
چنے
چو
چوالیس
چوبیس
چوتھا
چوتھايی
چوتھی
چوتھے
چودھری
چودھویں
چودہ
چودہویں
چور
چوراسی
چورانوے
چورنگی
چوروں
چوری
چولا
چولستان
چون
چونا
چونتیس
چونسٹھ
چونکہ
چونگ
چونے
چوٹ
چوٹی
چوٹیوں
چوپڑا
چوڑا
چوڑايی
چوڑی
چوڑیاں
چوڑے
چوک
چوکور
چوکوں
چوکی
چوکیوں
چوکے
چوں
چوہان
چوہتر
چوہدری
چوہے
چيیرمین
چٹان
چٹانوں
چٹانیں
چٹاگانگ
چٹنی
چپ
چپکے
چچا
چڑھ
چڑھا
چڑھاو
چڑھايی
چڑھایا
چڑھنے
چڑھی
چڑھے
چڑیا
چک
چکا
چکر
چکرورتی
چکن
چکوال
چکی
چکے
چھ
چھا
چھاتی
چھان
چھاونی
چھاپ
چھاپا
چھاپنے
چھاپوں
چھاپہ
چھاپے
چھاڑ
چھایا
چھبیس
چھت
چھترپتی
چھتری
چھتوں
چھتیس
چھری
چھلانگ
چھن
چھو
چھولس
چھونے
چھوٹ
چھوٹا
چھوٹی
چھوٹے
چھوڑ
چھوڑا
چھوڑتے
چھوڑنا
چھوڑنے
چھوڑی
چھوڑیں
چھوڑے
چھٹا
چھٹکارا
چھٹی
چھٹے
چھپ
چھپا
چھپانے
چھپايی
چھپن
چھپنے
چھپی
چھپے
چھڑ
چھڑی
چھکے
چھہتر
چھیاسٹھ
چھیاسی
چھیالیس
چھیانوے
چھین
چھیڑ
چہ
چہار
چہارم
چہروں
چہرہ
چہرے
چہل
چی
چیانگ
چیبا
چیت
چیخ
چیدہ
چیر
چیرمین
چیری
چیز
چیزوں
چیزیں
چیس
چیسٹر
چیف
چیلنج
چیلنجوں
چیمبر
چیمپين
چیمپينز
چیمپین
چیمپیين
چیمہ
چین
چینايی
چینل
چینلز
چینی
چینیوں
چیير
چیيرمین
چیيرپرسن
چیٹ
چیپل
چیچن
چیچنیا
چیچک
چیچہ
چیک
چیکو
چیکوسلوواکیا
چیکہ
ڇ
ڈ
ڈا
ڈاج
ڈار
ڈارون
ڈارک
ڈال
ڈالا
ڈالتا
ڈالتی
ڈالتے
ڈالر
ڈالنا
ڈالنے
ڈالی
ڈالیں
ڈالے
ڈان
ڈانس
ڈانسر
ڈاو
ڈاون
ڈايجسٹ
ڈاير
ڈايری
ڈايریکٹ
ڈايریکٹر
ڈايریکٹرز
ڈايریکٹوریٹ
ڈايمنڈ
ڈايی
ڈاٹ
ڈاک
ڈاکو
ڈاکووں
ڈاکٹر
ڈاکٹروں
ڈاکٹریٹ
ڈاگ
ڈب
ڈبل
ڈبلن
ڈبلیو
ڈبنگ
ڈبے
ڈر
ڈرا
ڈرافٹ
ڈراما
ڈرامايی
ڈراموں
ڈرامہ
ڈرامے
ڈراينگ
ڈرايیو
ڈرايیور
ڈرايیونگ
ڈراپ
ڈربن
ڈربی
ڈرتا
ڈرتے
ڈرون
ڈرہم
ڈریم
ڈریک
ڈریگن
ڈزنی
ڈس
ڈسٹرکٹ
ڈسپلے
ڈسک
ڈسکوجس
ڈش
ڈنمارک
ڈنڈی
ڈو
ڈوب
ڈوبا
ڈوبنے
ڈور
ڈول
ڈولی
ڈومیسٹک
ڈومین
ڈومینیکا
ڈومینیکن
ڈونلڈ
ڈونگ
ڈوور
ڈويچے
ڈوگر
ڈوگرہ
ڈویلپمنٹ
ڈویژن
ڈویژنل
ڈویژنوں
ڈيریل
ڈٹ
ڈپارٹمنٹ
ڈپریشن
ڈپلوما
ڈپلومہ
ڈپو
ڈپٹی
ڈچ
ڈچوں
ڈچی
ڈک
ڈکسن
ڈکشنری
ڈکنسن
ڈکوٹا
ڈکیتی
ڈگری
ڈگریاں
ڈگلس
ڈھال
ڈھالا
ڈھانپ
ڈھانچہ
ڈھانچے
ڈھايی
ڈھاکہ
ڈھل
ڈھلوان
ڈھنگ
ڈھول
ڈھونڈ
ڈھونڈنے
ڈھوک
ڈھیر
ڈھیلا
ڈی
ڈیاگو
ڈیبیو
ڈیتھ
ڈیجیٹل
ڈیر
ڈیرہ
ڈیری
ڈیرے
ڈیزاين
ڈیزاينر
ڈیزل
ڈیس
ڈیسک
ڈیفنس
ڈیل
ڈیلاس
ڈیلاویير
ڈیلٹا
ڈیلی
ڈیم
ڈیموکریٹس
ڈیموکریٹک
ڈین
ڈینس
ڈینش
ڈینٹل
ڈینی
ڈینیل
ڈینیوب
ڈینیيل
ڈیو
ڈیوايس
ڈیوس
ڈیولپمنٹ
ڈیون
ڈیوٹی
ڈیوڈ
ڈیوک
ڈیویس
ڈیٹ
ڈیٹا
ڈیٹابیس
ڈیٹنگ
ڈیپارٹمنٹ
ڈیڈ
ڈیڑھ
ڈیکسٹر
ڈیکلب
ڈیکیٹر
ڈے
ډ
ڊ
ڌ
ڍ
ڏ
ڑ
ړ
ږ
ژ
ژاں
ژو
ژوب
ڙ
ښ
ڠ
ڤ
ڦ
ک
کا
کاایک
کابل
کابلی
کابینہ
کاتالونیا
کاتب
کاتھولک
کاج
کاجل
کار
کارا
کاراباخ
کارامد
کاربن
کارتک
کارخانوں
کارخانہ
کارخانے
کاردار
کارروايی
کارروايیاں
کارروايیوں
کارل
کارلوس
کارلٹن
کارناموں
کارنامہ
کارنامے
کارنر
کارنیگی
کاروان
کارواں
کاروبار
کاروباری
کاروں
کارٹر
کارٹون
کارپس
کارپوریشن
کارپوریٹ
کارڈ
کارکردگی
کارکن
کارکنان
کارکنوں
کارگل
کارگو
کارہ
کاری
کاریوں
کاریگر
کاریگروں
کاریں
کاز
کازان
کاس
کاسٹ
کاسٹنگ
کاش
کاشان
کاشانی
کاشت
کاشتکار
کاشتکاروں
کاشتکاری
کاشغر
کاشف
کاشمیری
کاشی
کاظم
کاظمی
کاغذ
کاغذات
کاغذی
کافر
کافروں
کافور
کافی
کال
کالا
کالاش
کالج
کالجز
کالجوں
کالعدم
کالم
کالموں
کالنگ
کالو
کالونی
کالونیوں
کالہون
کالی
کالے
کام
کامبیٹ
کامران
کامرس
کامل
کامن
کاموں
کامپٹن
کامک
کامکس
کامیاب
کامیابی
کامیابیاں
کامیابیوں
کامیڈی
کان
کانام
کانت
کانتی
کاندھلوی
کانسی
کانفرنس
کانفرنسوں
کانوں
کانٹے
کانپور
کانگ
کانگرس
کانگریس
کانگریسی
کانگو
کاو
کاوش
کاوشوں
کاوشیں
کاولی
کاونٹ
کاونٹی
کاونٹیاں
کاينات
کايناتی
کايی
کاٹ
کاٹا
کاٹن
کاٹنا
کاٹنے
کاٹے
کاپٹر
کاپٹروں
کاپی
کاپیاں
کاک
کاکا
کاکڑ
کاکیشین
کاہل
کاہن
کایا
کب
کباب
کبار
کبری
کبوتر
کبڈی
کبھار
کبھی
کبیر
کبیرہ
کت
کتا
کتاب
کتابت
کتابخانہ
کتابوں
کتابچہ
کتابچے
کتابی
کتابیات
کتابیں
کتب
کتبہ
کتبے
کتنا
کتنی
کتنے
کتوں
کتھا
کتے
کثافت
کثرت
کثیر
کثیف
کد
کدہ
کذاب
کر
کرا
کراتے
کرادیا
کراس
کرافورڈ
کرافٹ
کرام
کرامات
کرامت
کرانا
کرانی
کرانیکل
کرانے
کراون
کرايسٹ
کرايم
کرايی
کرايیں
کرايے
کراچی
کرایا
کرایہ
کرب
کربلا
کرتا
کرتار
کرتاہے
کرتی
کرتیں
کرتے
کرد
کردار
کرداروں
کردری
کردستان
کردو
کردوں
کردہ
کردی
کردیا
کردیتا
کردیتی
کردیتے
کردینا
کردینے
کردیيے
کردیں
کردیے
کردے
کررہا
کررہی
کررہے
کرزيی
کرس
کرسمس
کرسٹل
کرسٹن
کرسٹوفر
کرسچن
کرسچین
کرسکا
کرسکتا
کرسکتی
کرسکتے
کرسکیں
کرسکے
کرسی
کرش
کرشمہ
کرشن
کرشنا
کرشنن
کرغزستان
کرغیز
کرغیزستان
کرفیو
کرلو
کرلی
کرلیا
کرلیتا
کرلیتے
کرلیں
کرلیے
کرلے
کرم
کرمان
کرمانشاہ
کرمانی
کرن
کرنا
کرنال
کرناٹک
کرنسی
کرنسیوں
کرنل
کرنٹ
کرنی
کرنے
کرو
کروا
کرواتے
کروانا
کروانے
کروايی
کروايیں
کروايے
کروایا
کروز
کروزر
کروشیا
کروشین
کروفٹ
کرونا
کرونیکل
کروڑ
کروڑوں
کروں
کرویيشا
کرپشن
کرپٹو
کرچکا
کرچکی
کرچکے
کرک
کرکٹ
کرکٹر
کرکٹرز
کرکے
کرگيیں
کرگيے
کرگیا
کرہ
کری
کریز
کریسنٹ
کریم
کریمہ
کریمیا
کریمیايی
کریمین
کرین
کریير
کریٹ
کریڈٹ
کریک
کریگ
کریں
کرے
کزن
کس
کساد
کسان
کسانوں
کسب
کسر
کسری
کسوٹی
کسٹم
کسی
کسے
کش
کشا
کشادہ
کشاف
کشايی
کشتہ
کشتی
کشتیاں
کشتیوں
کشش
کشف
کشمکش
کشمیر
کشمیری
کشمیریوں
کشن
کشور
کشوں
کشی
کشید
کشیدگی
کشیدہ
کعب
کعبہ
کفار
کفارہ
کفالت
کفایت
کفر
کفن
کفیل
کل
کلا
کلاب
کلارک
کلاس
کلاسوں
کلاسک
کلاسیکل
کلاسیکی
کلام
کلامی
کلانگ
کلاوڈ
کلايی
کلايیو
کلاں
کلب
کلبوں
کلبی
کلثوم
کلر
کلرک
کلرکہار
کلفٹن
کلمات
کلمہ
کلنٹن
کلنگ
کلو
کلومیٹر
کلوگرام
کلچر
کلچرل
کلک
کلکتہ
کلکرنی
کلہاڑی
کلہوڑو
کلی
کلیات
کلیان
کلید
کلیدی
کلیر
کلیسا
کلیسیا
کلیسیايی
کلیم
کلیمنٹ
کلین
کلینک
کلینی
کلیولینڈ
کلیير
کلیيرواٹر
کلیٹن
کلیہ
کلے
کم
کما
کمار
کماری
کمال
کمالات
کمالیہ
کمان
کمانڈ
کمانڈر
کمانڈروں
کمانڈو
کمانے
کمايی
کمایا
کمبرلینڈ
کمبل
کمبوڈیا
کمبوہ
کمتر
کمر
کمرشل
کمروں
کمرہ
کمرے
کمزور
کمزوری
کمسن
کمشن
کمشنر
کمل
کملا
کمونے
کمپلیکس
کمپنی
کمپنیاں
کمپنیوں
کمپوز
کمپوزر
کمپیوٹر
کمپیوٹنگ
کمک
کمی
کمیت
کمیشن
کمیون
کمیونزم
کمیونسٹ
کمیونسٹوں
کمیونل
کمیونٹی
کمیونٹیز
کمیونیکیشن
کمیٹی
کمیٹیوں
کن
کنار
کناروں
کنارہ
کنارے
کنال
کنانہ
کناڈا
کنبہ
کنبے
کند
کندھوں
کندھے
کندہ
کندی
کنز
کنزرویٹو
کنساس
کنسرٹ
کنعان
کنفیوشس
کنفیڈریشن
کنندگان
کنندہ
کنو
کنواری
کنواں
کنور
کنول
کنونشن
کنویں
کنٹرول
کنٹری
کنٹریکٹ
کنڈ
کنڈی
کنڑ
کنڑا
کنگ
کنگز
کنگسٹن
کنگمین
کنگڈم
کنہیا
کنی
کنیت
کنیز
کنیست
کنیسہ
کنیکٹیکٹ
که
کو
کوا
کوارٹر
کواس
کوالا
کوالالمپور
کوالیفاير
کوالیفايی
کوان
کوانٹم
کوايف
کواين
کوبھی
کوت
کوتاہی
کوثر
کود
کور
کورا
کورس
کورسز
کورل
کورنگی
کورونا
کورٹ
کورٹس
کوری
کوریا
کوریايی
کوریج
کورین
کوس
کوسوو
کوسووہ
کوسٹ
کوسٹا
کوسٹاریکا
کوش
کوشاں
کوشش
کوششوں
کوششیں
کوفہ
کوفی
کوفیوں
کول
کولا
کولمبس
کولمبو
کولمبیا
کولن
کولوراڈو
کولون
کولکاتا
کولکتہ
کولی
کوم
کومتے
کومل
کون
کونسل
کونسلر
کونسلز
کونسلوں
کونسلیں
کونسی
کونوں
کونکورڈ
کونے
کووڈ
کويلہ
کويلے
کوينز
کوينزلینڈ
کويٹہ
کويی
کويین
کويینز
کويے
کوٹ
کوٹا
کوٹری
کوٹلہ
کوٹلی
کوٹھی
کوٹہ
کوپر
کوپن
کوچ
کوچنگ
کوچک
کوچہ
کوچی
کوڈ
کوڑا
کوڑے
کوک
کوکا
کوکو
کوہ
کوہاٹ
کوہستان
کوہستانی
کوہلی
کوہن
کویت
کویتا
کویتی
کویزون
کى
کي
کيا
کيی
کيے
کٹ
کٹا
کٹايی
کٹر
کٹک
کٹھ
کٹی
کٹیہار
کٹے
کپ
کپاس
کپتان
کپتانی
کپل
کپور
کپڑا
کپڑوں
کپڑے
کچا
کچل
کچلنے
کچھ
کچھی
کچی
کچے
کڈپہ
کڑا
کڑپہ
کڑھايی
کڑی
کک
کھ
کھا
کھاتا
کھاتہ
کھاتی
کھاتے
کھاد
کھاریاں
کھال
کھانا
کھانسی
کھانوں
کھانے
کھاو
کھايی
کھايیں
کھايے
کھایا
کھتری
کھجور
کھدايی
کھر
کھرل
کھل
کھلا
کھلاڑی
کھلاڑیوں
کھلایا
کھلتا
کھلم
کھلنا
کھلنے
کھلونا
کھلونے
کھلی
کھلے
کھنڈ
کھنڈر
کھنڈرات
کھنہ
کھو
کھوار
کھوج
کھود
کھودنے
کھوسہ
کھول
کھولا
کھولنا
کھولنے
کھولی
کھولے
کھونے
کھويی
کھويے
کھوپڑی
کھوکھر
کھویا
کھٹمنڈو
کھپت
کھچی
کھڑا
کھڑکی
کھڑکیاں
کھڑکیوں
کھڑی
کھڑے
کھیت
کھیتوں
کھیتی
کھیر
کھیل
کھیلا
کھیلتا
کھیلتی
کھیلتے
کھیلنا
کھیلنے
کھیلوں
کھیلی
کھیلیں
کھیلے
کھینچ
کھینچا
کھینچنے
کھینچی
کہ
کہا
کہاجاتا
کہانی
کہانیاں
کہانیوں
کہاں
کہتا
کہتی
کہتے
کہف
کہلا
کہلاتا
کہلاتی
کہلاتے
کہلانے
کہلايی
کہلايے
کہلایا
کہنا
کہنہ
کہنے
کہو
کہوٹہ
کہوں
کہکشاں
کہہ
کہی
کہیں
کہے
کی
کیا
کیااور
کیانی
کیاہے
کیبل
کیتھ
کیتھرین
کیتھولک
کیتھیڈرل
کیجيے
کیجیے
کیخلاف
کیر
کیرالا
کیرالہ
کیرانوی
کیرل
کیرلا
کیرن
کیرول
کیرولاينا
کیرولینا
کیرير
کیريیر
کیری
کیریبین
کیریير
کیس
کیسا
کیساتھ
کیسل
کیسٹر
کیسپین
کیسی
کیسے
کیش
کیشن
کیشنز
کیف
کیفی
کیفیات
کیفیت
کیفے
کیل
کیلاش
کیلنڈر
کیلومیٹر
کیليے
کیلگری
کیلی
کیلیفورنیا
کیلیڈونیا
کیلے
کیمبرج
کیمبل
کیمرا
کیمرون
کیمرے
کیمسٹری
کیمپ
کیمپس
کیمپوں
کیمڈن
کیمیا
کیمیاء
کیمیايی
کیمیکل
کین
کینال
کینتھ
کینز
کینسر
کینن
کینٹ
کینٹربری
کینٹن
کینٹکی
کینڈا
کینڈل
کینڈی
کینہ
کینیا
کینیڈا
کینیڈی
کینیڈین
کیو
کیوبا
کیوبک
کیوبیک
کیوجہ
کیوری
کیولری
کیون
کیونکر
کیونکہ
کیوں
کیير
کیٹ
کیٹز
کیٹلینا
کیٹی
کیپ
کیپر
کیپلر
کیپنگ
کیپٹن
کیپیٹل
کیچ
کیچز
کیچڑ
کیڈٹ
کیڑوں
کیڑے
کیک
کیں
کیے
کے
کےليے
کےلیے
ڪ
ګ
گ
گا
گاتی
گاتے
گاجر
گار
گارجین
گارفیلڈ
گارڈ
گارڈز
گارڈن
گارڈنر
گارڈنز
گارڈین
گاری
گال
گالی
گاما
گامزن
گانا
گاندھی
گانوں
گانے
گاو
گاوں
گايوں
گايی
گايیڈ
گايیکی
گايے
گاڈ
گاڑی
گاڑیاں
گاڑیوں
گاہ
گاہوں
گاہک
گاہکوں
گاہیں
گاہے
گایا
گبسن
گبول
گجر
گجرات
گجراتی
گداز
گدھ
گدھا
گدھے
گدی
گذر
گذرا
گذرتا
گذرتی
گذرتے
گذرنے
گذری
گذرے
گذشتہ
گر
گرا
گراس
گراف
گرافر
گرافک
گرافی
گرام
گرامر
گرامی
گرانٹ
گرانڈ
گرانڈے
گرانے
گراونڈ
گرايمر
گراڈ
گراں
گراہم
گرایا
گرتا
گرتی
گرتے
گرج
گرجا
گرجاگھر
گرد
گردانا
گردانتے
گردانہ
گردش
گردن
گردوارہ
گردوں
گردی
گردیزی
گردے
گرفت
گرفتار
گرفتاری
گرل
گرلز
گرم
گرما
گرمايی
گرمی
گرمین
گرمیوں
گرنا
گرنتھ
گرنزی
گرنے
گرو
گروزنی
گروو
گروپ
گروپس
گروپوں
گروں
گروہ
گروہوں
گروہی
گرچہ
گرہ
گرہن
گری
گریجویشن
گریجویٹ
گریز
گریزاں
گریس
گرین
گریناڈا
گریناڈاينز
گرینویل
گرینڈ
گریو
گریٹ
گریٹر
گریڈ
گریگ
گریگوری
گریہ
گرے
گز
گزار
گزارا
گزارتے
گزارش
گزارنے
گزاری
گزارے
گزر
گزرا
گزرتا
گزرتی
گزرتے
گزرنا
گزرنے
گزرگاہ
گزری
گزرے
گزشتہ
گزٹ
گزین
گزینوں
گستاخ
گستاخی
گشت
گفت
گفتار
گفتگو
گل
گلا
گلاب
گلابی
گلاس
گلاسگو
گلبرٹ
گلبرگ
گلدستہ
گلزار
گلستان
گلشن
گلف
گلو
گلوب
گلوبل
گلوسٹر
گلوٹولاگ
گلوکار
گلوکاروں
گلوکارہ
گلوکاری
گلڈ
گلگت
گلہ
گلی
گلیشیر
گلیمورگن
گلین
گلیوں
گلے
گم
گمان
گمراہ
گمراہی
گمشدہ
گمنا
گمنام
گن
گنا
گناہ
گناہوں
گنبد
گنت
گنتی
گنج
گنجان
گنجايش
گندم
گندگی
گندھارا
گندھک
گنو
گنوا
گنگ
گنگا
گنگوہی
گنی
گنیز
گنیش
گنے
گو
گوا
گواتیمالا
گوادر
گوارا
گوالیار
گوام
گواہ
گواہوں
گواہی
گوبند
گوت
گوتم
گوجر
گوجرانوالہ
گوجرہ
گوجری
گود
گودام
گوداوری
گور
گورا
گورباچوف
گورنر
گورنرز
گورنروں
گورنری
گورنمنٹ
گورو
گوروں
گورڈن
گورکھا
گورکھپور
گورکھپوری
گوری
گوریلا
گورے
گوش
گوشت
گوشہ
گوشے
گول
گولڈ
گولڈن
گولڑہ
گولکنڈہ
گولہ
گولی
گولیاں
گولیوں
گولے
گومل
گونج
گوندل
گووند
گويٹے
گويی
گوٹھ
گوپال
گوپی
گوکہ
گوگل
گوں
گوہاٹی
گوہر
گویا
گيا
گيى
گيی
گيیں
گيے
گٹار
گپت
گپتا
گچھ
گڈ
گڑ
گڑھ
گڑھا
گڑھی
گڑھے
گکھڑ
گھات
گھاس
گھانا
گھاٹ
گھاٹی
گھبرا
گھبراہٹ
گھر
گھرا
گھرانوں
گھرانہ
گھرانے
گھروں
گھریلو
گھس
گھل
گھنٹوں
گھنٹہ
گھنٹی
گھنٹے
گھنے
گھوش
گھوم
گھومتا
گھومتی
گھومتے
گھومنے
گھوٹکی
گھوڑا
گھوڑوں
گھوڑی
گھوڑے
گھٹ
گھٹا
گھٹنوں
گھٹنے
گھٹیا
گھڑ
گھڑت
گھڑسوار
گھڑی
گھی
گھیر
گھیرے
گہرا
گہرايی
گہرايیوں
گہری
گہرے
گہوارہ
گی
گیا
گیارہ
گیارہویں
گیان
گیانا
گیاہے
گیبون
گیت
گیتا
گیتوں
گیج
گیر
گیری
گیریژن
گیس
گیسوں
گیل
گیلان
گیلانی
گیلری
گیلی
گیم
گیمبیا
گیمز
گیند
گیندوں
گیندیں
گینگ
گیورگس
گیٹ
گیٹس
گے
ڱ
ڳ
ں
ڻ
ڼ
ھ
ھا
ھر
ھو
ھوا
ھويے
ھی
ھیں
ھے
ہ
ہا
ہاتھ
ہاتھوں
ہاتھی
ہاتھیوں
ہاجرہ
ہادی
ہار
ہارا
ہاربر
ہارس
ہارن
ہارنے
ہارورڈ
ہارون
ہاروے
ہارٹ
ہارٹفورڈ
ہارپر
ہارڈ
ہارڈنگ
ہاری
ہارے
ہاسن
ہاسٹل
ہاسپلمتھ
ہاسپٹل
ہاشم
ہاشمی
ہاف
ہال
ہالٹ
ہالہ
ہالی
ہالینڈ
ہان
ہانگ
ہانی
ہاورڈ
ہاوس
ہاوسنگ
ہاير
ہايٹس
ہايی
ہايیر
ہايیڈرو
ہايیڈروجن
ہايے
ہاٹ
ہاک
ہاکی
ہاں
ہبل
ہتھیار
ہتھیاروں
ہجر
ہجرت
ہجری
ہجو
ہجوم
ہجومی
ہجے
ہخامنشی
ہد
ہدایات
ہدایت
ہدایتکار
ہدایتکاری
ہدایہ
ہدف
ہدیہ
ہذا
ہر
ہرا
ہرات
ہرارے
ہراس
ہراسانی
ہراساں
ہرالڈ
ہربرٹ
ہرزیگووینا
ہرزیگوینا
ہرش
ہرمز
ہرمن
ہرن
ہرٹز
ہرگز
ہری
ہریانہ
ہریرہ
ہریش
ہرے
ہز
ہزار
ہزاروں
ہزاروی
ہزارہ
ہزاری
ہستی
ہستیوں
ہسٹری
ہسپانوی
ہسپانویوں
ہسپانیہ
ہسپتال
ہسپتالوں
ہشام
ہشت
ہشتم
ہضم
ہفت
ہفتم
ہفتوں
ہفتہ
ہفتے
ہل
ہلا
ہلال
ہلاک
ہلاکت
ہلاکتوں
ہلاکتیں
ہلاکو
ہلز
ہلمند
ہلچل
ہلکا
ہلکی
ہلکے
ہلیری
ہم
ہما
ہمارا
ہماری
ہمارے
ہمالیہ
ہمام
ہماچل
ہمایوں
ہمبولٹ
ہمت
ہمدان
ہمدانی
ہمدرد
ہمدردی
ہمراہ
ہمرکاب
ہمزہ
ہمسایہ
ہمشیرہ
ہمعصر
ہموار
ہمکنار
ہمہ
ہمیشہ
ہمیں
ہن
ہند
ہندستان
ہندسہ
ہندسی
ہندسیات
ہندو
ہندوستان
ہندوستانی
ہندوستانیوں
ہندومت
ہندووں
ہندوکش
ہندکو
ہندی
ہنر
ہنری
ہنزہ
ہنس
ہنسی
ہنور
ہنوز
ہنومان
ہنوں
ہنٹ
ہنٹر
ہنگامہ
ہنگامی
ہنگامے
ہنگری
ہنگو
ہنی
ہو
ہوا
ہواوں
ہوايی
ہوايیں
ہوبارٹ
ہوتا
ہوتاہے
ہوتو
ہوتی
ہوتیں
ہوتے
ہوجاتا
ہوجاتی
ہوجاتے
ہوجانا
ہوجانے
ہوجايیں
ہوجايے
ہور
ہورہا
ہورہی
ہوس
ہوسٹنگ
ہوسکا
ہوسکتا
ہوسکتی
ہوسکتے
ہوسکیں
ہوسکے
ہوش
ہوشنگ
ہوشیار
ہول
ہولمز
ہولناک
ہولوکاسٹ
ہولڈر
ہولی
ہوم
ہومز
ہون
ہونا
ہونٹ
ہونٹوں
ہونڈوراس
ہونہار
ہونی
ہونے
ہووارڈ
ہوي
ہويى
ہويی
ہويیں
ہويے
ہوٹل
ہوٹلوں
ہوپ
ہوچکا
ہوچکی
ہوچکے
ہوکر
ہوگا
ہوگيی
ہوگيیں
ہوگيے
ہوگی
ہوگیا
ہوں
ہوے
ہيں
ہٹ
ہٹا
ہٹانے
ہٹلر
ہٹن
ہٹنا
ہٹنے
ہچکچاہٹ
ہچکی
ہڈ
ہڈسن
ہڈی
ہڈیاں
ہڈیوں
ہڑتال
ہڑپہ
ہک
ہی
ہیات
ہیبت
ہیبس
ہیبسبرگ
ہیتھ
ہیجان
ہیر
ہیرا
ہیرالڈ
ہیرس
ہیرو
ہیروز
ہیروشیما
ہیروين
ہیری
ہیریسن
ہیرے
ہیز
ہیسٹنگز
ہیل
ہیلتھ
ہیلن
ہیلپ
ہیلی
ہیم
ہیمبرگ
ہیمر
ہیملٹن
ہیمپشاير
ہیمپٹن
ہین
ہینری
ہینڈ
ہینڈرسن
ہینکوک
ہیو
ہیوران
ہیوز
ہیوسٹن
ہیومن
ہیومین
ہیون
ہیوگو
ہیوی
ہیيت
ہیٹ
ہیٹی
ہیپلو
ہیپی
ہیڈ
ہیڈلی
ہیڈن
ہیڈنگلے
ہیڈکوارٹر
ہیکل
ہیکٹر
ہیگ
ہیگن
ہیں
ہے
ہےاور
ہےـ
ۃ
ۆ
ی
یا
یاب
یابی
یات
یاترا
یاجوج
یاد
یادداشت
یادداشتوں
یادو
یادوں
یادگار
یادگاروں
یادگاری
یادگاریں
یادیں
یار
یارڈ
یارک
یارکشاير
یاس
یاسر
یاسمین
یاسین
یافتگان
یافتہ
یاقوت
یان
یانگ
یاں
یاہو
یب
یت
یتیم
یتیموں
یث
یثرب
یحی
یحیی
یخ
ید
یر
یرغمال
یرموک
یرمیاہ
یروشلم
یریوان
یز
یزد
یزدانی
یزدی
یزید
یزیدی
یس
یسار
یسعیاہ
یسوع
یش
یعقوب
یعقوبی
یعلی
یعنی
یف
یق
یقین
یقینا
یقینی
یل
یلغار
یلو
یم
یمامہ
یمان
یمن
یمنی
یمین
ین
ینگ
ینی
یه
یو
یوان
یوتھ
یوجین
یوحنا
یوراگويے
یورو
یوروپ
یوروپی
یورپ
یورپی
یورپین
یورپیوں
یوری
یورینس
یورینیم
یورینیيم
یوسف
یوسفزيی
یوسفی
یوم
یومیہ
یونان
یونانی
یونانیوں
یونايیٹڈ
یونس
یونٹ
یونٹس
یونٹوں
یونہی
یونی
یونیسکو
یونیفارم
یونین
یونینوں
یونیورس
یونیورسل
یونیورسٹی
یونیورسٹیاں
یونیورسٹیوں
یوٹاہ
یوٹیوب
یوپی
یوکراين
یوکراينی
یوکرین
یوکرینی
یوکوہاما
یوکے
یوگ
یوگا
یوگنڈا
یوگوسلاو
یوگوسلاویہ
یوں
یينا
یک
یکتا
یکجا
یکجہتی
یکساں
یکسر
یکطرفہ
یکم
یکہ
یکے
یگانہ
یں
یہ
یہا
یہاں
یہود
یہودا
یہوداہ
یہودی
یہودیت
یہودیوں
یہودیہ
یہی
یہیں
یی
یے
ۍ
ې
ے
۔
ە
۞
۰
۱
۱۰
۱۱
۱۲
۱۳
۱۴
۱۵
۲
۳
۴
۵
۶
۷
۸
۹
۽
۾
܂
ܐ
ܘ
ܝ
ܢ
ܪ
ݙ
ݨ
ނ
އ
މ
अ
अप
आ
आण
इ
इन
ई
उ
ऊ
ए
ऐ
ऑ
ऑफ
ओ
औ
और
क
कर
ख
ग
घ
ङ
च
छ
ज
जनवर
झ
ञ
ट
ठ
ड
डस
ढ
ण
त
थ
द
ध
न
प
पर
फ
ब
बर
भ
म
य
र
रक
रत
रह
ल
ळ
व
वर
श
शन
ष
स
सम
ह
।
०
१
२
३
४
५
६
७
८
९
॰
অ
আ
ই
উ
এ
ও
ক
খ
গ
ঘ
ঙ
চ
ছ
জ
ঞ
ট
ড
ণ
ত
থ
দ
ধ
ন
প
ফ
ব
ভ
ম
য
র
ল
শ
ষ
স
হ
০
১
২
৩
৪
৫
৬
৭
৮
৯
ਅ
ਆ
ਕ
ਖ
ਗ
ਘ
ਚ
ਜ
ਟ
ਡ
ਣ
ਤ
ਦ
ਧ
ਨ
ਪ
ਫ
ਬ
ਭ
ਮ
ਰ
ਲ
ਵ
ਸ
ਹ
ੜ
અ
આ
ઇ
ઉ
એ
ઓ
ક
ખ
ગ
ચ
છ
જ
ટ
ડ
ણ
ત
થ
દ
ધ
ન
પ
ફ
બ
ભ
મ
ય
ર
લ
વ
શ
ષ
સ
હ
କ
ଗ
ଜ
ତ
ଦ
ନ
ପ
ବ
ମ
ର
ଳ
ଶ
ସ
ହ
அ
ஆ
இ
எ
க
ங
ச
ட
ண
த
ந
ன
ப
ம
ய
ர
ற
ல
ள
ழ
வ
క
గ
జ
ట
త
ద
న
ప
బ
మ
య
ర
ల
వ
స
ಕ
ಗ
ಟ
ಡ
ತ
ದ
ನ
ಪ
ಬ
ಮ
ಯ
ರ
ಲ
ವ
ಶ
ಸ
അ
ആ
ഇ
എ
ക
ഗ
ങ
ച
ജ
ട
ണ
ത
ദ
ന
പ
ഫ
ബ
മ
യ
ര
റ
ല
ള
വ
ശ
ഷ
സ
ഹ
ൻ
ർ
ක
ග
ත
ද
න
ම
ය
ර
ල
ව
ස
ก
ค
ง
จ
ช
ด
ต
ท
น
บ
ป
พ
ม
ย
ร
ล
ว
ส
ห
อ
ะ
า
ำ
เ
แ
โ
་
ཁ
ག
ང
ད
བ
མ
ར
ལ
ས
င
န
မ
ა
ბ
გ
დ
ე
ვ
თ
ი
კ
ლ
მ
ნ
ო
რ
ს
ტ
უ
ქ
შ
ხ
ᄀ
ᄂ
ᄃ
ᄅ
ᄆ
ᄇ
ᄉ
ᄋ
ᄌ
ᄎ
ᄐ
ᄑ
ᄒ
ᅡ
ᅢ
ᅥ
ᅦ
ᅧ
ᅨ
ᅩ
ᅪ
ᅭ
ᅮ
ᅯ
ᅳ
ᅴ
ᅵ
ᆨ
ᆫ
ᆯ
ᆷ
ᆸ
ᆼ
រ
ᠠ
‐
‑
‒
–
—
―
‖
‘
’
“
”
„
†
•
․
…
′
″
‹
›
⁄
€
₹
№
™
←
↑
→
↔
↷
⇒
⇽
∈
∑
−
∗
∘
√
∞
∩
∪
∫
≈
≡
≤
≥
⋅
⋮
⋯
⋱
③
④
⑦
│
▄
►
◄
●
☃
☆
♦
⟨
⟩
⺀
⺄
⺆
⺈
⺊
⺌
⺕
⺝
⺸
⺼
⿰
⿱
⿲
⿳
⿴
⿵
⿶
⿷
⿸
⿹
⿺
⿻
、
。
《
》
「
」
〢
い
か
こ
し
て
と
に
の
は
る
を
ア
ィ
イ
ウ
エ
ク
ケ
コ
サ
シ
ス
タ
ッ
テ
ト
ニ
ハ
ヒ
フ
ヘ
ホ
マ
ム
モ
ユ
ラ
リ
ル
レ
ロ
ン
・
ー
㇁
㇂
㇄
㇇
㇈
㇉
㇓
㐁
㐄
㐅
㐌
㐫
㐬
㐭
㐮
㐱
㑒
㒵
㒸
㒼
㓁
㓞
㔾
㕛
㕣
㖾
㘝
㚅
㚇
㚔
㚘
㝉
㝡
㝴
㝵
㞋
㞢
㞷
㠩
㠭
㠯
㡀
㡭
㡿
㢲
㢴
㣇
㣺
㥯
㪅
㫄
㫐
㫒
㫺
㬅
㬎
㬥
㬰
㲋
㳄
㷠
㸒
㸚
㸦
㼌
㼲
㽞
㿟
䀠
䂞
䍃
䏍
䒑
䖍
䖒
䖝
䖵
䙴
䚻
䜌
䝿
䡛
䧹
䪞
一
丁
丂
七
丄
丅
丆
万
丈
三
上
下
丌
不
与
丏
丐
丑
专
且
丕
世
丘
丙
业
东
丞
丢
丣
两
严
並
丨
丩
个
丫
丬
中
丮
丰
丱
串
丵
丶
丷
丸
丹
为
主
丽
丿
乀
乂
乃
久
乆
乇
么
义
之
乌
乍
乎
乏
乐
乑
乔
乖
乗
乘
乙
乚
乛
乜
九
乞
也
习
乡
乳
乾
亀
亅
了
亇
予
争
事
二
亍
于
亏
亐
云
互
亓
五
井
亘
亚
亜
亞
亟
亠
亡
亢
交
亥
亦
产
亨
亩
享
京
亭
亮
亯
亰
亲
亳
亶
亷
人
亻
亼
亾
仁
今
介
仌
从
仐
仑
仒
仓
仕
他
付
仝
代
令
以
任
企
伊
伏
伐
休
会
伯
但
位
何
佘
余
作
佥
使
來
侈
侌
侖
侯
侵
便
保
俞
信
修
倉
倍
候
倠
値
備
僉
僕
儿
兀
允
兂
元
兄
充
兆
兇
先
光
兊
克
兌
免
兑
兒
兓
兔
党
兜
兟
入
全
兩
兪
八
公
六
兮
兰
共
关
兵
其
具
典
兹
兼
冀
冂
冃
冄
内
冈
冉
冊
冋
册
再
冎
冏
冐
冒
冓
冖
冗
冘
军
农
冝
冡
冥
冫
冬
冷
几
凡
凢
凵
凶
凷
凸
凹
出
函
凾
刀
刁
刂
刃
刄
刅
分
切
刍
刑
刕
刖
列
刘
则
初
別
利
别
到
制
刺
則
削
剌
前
剡
剽
劉
力
功
加
劦
助
劫
劳
劵
勃
勇
勉
勒
動
務
勞
勤
勹
勺
勻
勾
勿
匀
匂
包
匆
匈
匊
匋
匍
匕
化
北
匚
匝
匡
匪
匱
匸
匹
区
医
匽
匿
區
十
卂
千
卄
卅
卆
升
午
卉
半
卌
华
卑
卒
卓
单
卖
南
卜
卝
卞
占
卡
卢
卣
卤
卦
卩
卪
卬
卯
印
危
即
却
卵
卷
卸
卻
厂
厃
厄
历
厈
厉
厌
厓
厘
厚
原
厤
厥
厨
厭
厲
厶
厷
厸
去
厼
厽
县
叀
参
參
叅
又
叉
及
友
双
反
叐
发
叒
叔
叕
取
受
叚
叜
叟
口
古
句
另
叩
只
召
可
台
叱
史
右
叵
号
司
叹
吂
各
吅
合
吉
吊
吋
同
名
后
吏
吐
向
吕
君
吝
吞
否
含
启
吳
吴
吹
吾
呂
呆
呈
告
员
呙
周
命
咅
和
咎
咠
咢
咨
咸
咼
哀
品
哉
員
哥
哲
唐
商
啇
問
啚
啬
啻
善
喜
喬
單
喿
嗇
噩
嚴
囊
囗
囘
囙
囚
四
回
囟
因
囧
囬
困
囱
囷
固
国
圂
圅
國
圍
圓
土
圡
圣
圥
在
圭
地
圶
场
圼
坐
坒
坚
坴
垂
垔
垚
埀
埋
城
埶
執
基
堂
堅
堆
堇
堯
塞
墨
壘
士
壬
壯
声
壳
壴
壹
壺
壽
夂
处
夅
夆
备
夊
夋
夌
复
夏
夒
夕
外
夗
夘
多
夜
夢
大
夨
天
太
夫
夬
夭
央
失
夲
头
夷
夸
夹
夻
夾
奂
奄
奇
奈
奉
奎
奏
奐
契
奓
奔
奚
奞
奠
奢
奥
奭
女
奴
奻
好
如
妄
妙
妟
妥
妻
妾
姑
委
姜
威
娄
婁
婴
嬰
嬴
子
孑
孔
孕
孖
字
存
孚
孛
孝
孟
季
孤
学
孫
孱
學
宀
宁
宂
它
宅
宇
守
安
宋
完
宏
宓
宗
官
定
宛
宜
宝
客
宣
室
宮
宰
害
家
容
宾
宿
寄
寅
密
富
寒
察
寧
審
寫
寬
寮
寸
对
寺
寻
寽
対
寿
封
尃
射
将
將
專
尉
尊
尋
尌
對
小
少
尒
尓
尔
尖
尗
尚
尞
尢
尣
尤
尧
尨
尭
就
尸
尹
尺
尻
尼
尽
尾
尿
局
居
屈
屋
屎
屏
屑
展
屖
屚
属
屠
屡
屬
屮
屯
屰
山
屵
屾
岁
岂
岑
岡
岩
岳
岸
峯
島
崇
崑
崔
崖
崙
崩
嵬
嶲
巂
巛
川
州
巟
巠
巢
巤
工
左
巧
巨
巩
巫
差
己
已
巳
巴
巷
巸
巽
巾
巿
帀
市
布
希
帚
帛
帝
带
師
席
帶
常
干
平
年
幵
并
幷
幸
幺
幻
幼
幽
幾
广
広
庄
床
底
店
庚
府
度
庫
庭
庶
康
庸
廉
廌
廛
廣
廩
廴
延
廷
建
廾
廿
开
弁
弃
弄
弇
弋
式
弓
弔
引
弗
弘
弜
弟
弥
弦
弱
張
強
强
彊
彌
彎
彐
彑
当
彔
录
彖
彗
彡
形
彥
彦
彧
彭
彳
役
彼
往
待
律
徒
得
徙
從
復
微
徵
心
忄
必
忌
忍
志
忝
忠
忩
快
念
忽
忿
思
怠
急
怱
总
恆
恒
恩
恭
息
悉
患
悤
悲
悶
情
惠
惡
惢
愁
愈
意
愛
感
慈
慧
慮
憂
憲
應
戀
戈
戉
戊
戋
戌
戍
戎
成
我
戒
戔
或
战
戚
戠
戢
截
戲
戶
户
戹
戼
戾
房
所
扁
扇
手
扌
才
打
托
执
承
折
报
拉
拜
拿
据
掌
排
推
提
摩
支
攴
攵
收
攸
改
放
政
敄
敏
敕
敖
敗
教
敝
敞
敢
散
敦
敫
敬
数
敷
數
斂
文
斉
斊
斗
斤
斥
斩
斬
斯
新
方
於
施
斿
旁
旋
族
无
旡
既
旣
日
旦
旧
旨
早
旬
旱
旲
时
旾
昆
昇
昌
昍
明
昏
易
昔
昗
昜
星
春
昬
是
昱
昴
昷
時
晃
晋
晏
普
景
晶
智
暑
暴
曇
曩
曰
曲
曳
更
曷
書
曹
曼
曾
替
最
朁
會
月
有
朋
服
朔
朕
朗
望
朝
木
朩
未
末
本
札
朮
术
朱
朵
朶
机
朿
杀
李
杏
杜
束
条
来
東
杲
杳
松
析
林
枚
果
枝
枲
枼
某
柔
查
柬
柰
柴
栗
桀
桑
桼
梁
條
梟
梨
棘
棠
棥
森
楚
業
楽
榮
樂
樊
欠
次
欣
欮
欲
欶
欽
款
歆
歇
歛
止
正
此
步
武
歨
歪
歮
歯
歰
歲
歴
歷
歸
歹
歺
死
殳
段
殷
殸
殹
殺
殻
殿
毋
毌
母
每
毒
比
毕
毚
毛
毳
氏
氐
民
气
氣
水
氵
氶
氷
永
氺
氾
求
汝
汞
江
沃
沓
沙
沝
河
治
泉
法
波
泣
泥
泰
洛
洪
活
派
流
浦
浪
浮
海
淡
淮
清
渚
渠
港
湯
湾
滿
漸
灣
火
灬
灭
灰
灵
灷
炅
炎
炏
炗
炙
炭
為
烈
烏
烝
焉
無
焦
焱
然
煞
熊
熏
燕
營
燮
爪
爫
爭
爯
爰
爱
爲
爵
父
爻
爽
爾
爿
片
版
牙
牚
牛
牜
牟
牢
牧
牪
牽
犀
犬
犭
犮
狂
狄
狊
独
狺
猋
猒
猪
献
獻
玄
率
玉
王
玟
玨
珎
班
理
琴
瑟
瑩
瓜
瓦
甘
甚
生
産
用
甫
甬
田
由
甲
申
电
甶
男
甸
甹
画
甾
畀
界
畏
畐
留
畜
畟
畢
畧
畨
番
畫
異
畱
當
畺
畾
疊
疋
疌
疑
疒
疾
癶
癸
癹
登
發
白
百
皀
皃
的
皆
皇
皋
皐
皕
皮
皷
皿
盃
盆
盇
盈
益
盍
盎
监
盒
盖
盛
盡
監
盤
盧
目
直
相
盾
省
眇
眉
看
県
眔
眞
真
眷
眼
眾
着
睘
睪
睿
瞏
瞢
瞿
矍
矛
矞
矢
矣
知
矦
短
石
破
碎
磊
磨
示
礻
礼
社
神
祟
票
祭
禀
禁
福
禸
禹
禺
离
禽
禾
禿
秀
秃
秉
秋
科
秝
秦
移
稟
穀
穌
穴
究
穹
空
穿
突
窄
窒
立
竒
竜
竝
竟
章
童
竹
笑
笠
第
筆
等
答
箕
算
箴
節
篤
篭
米
粉
粛
粟
粤
粦
粲
糞
糸
糹
系
約
納
素
索
紫
累
細
絜
絫
統
絲
維
綿
縣
繇
纍
纟
线
经
统
缶
网
罒
罔
罕
罗
罙
罡
罢
罪
署
罷
羅
羊
羌
羍
美
羔
羕
羗
羞
羡
羣
群
義
羲
羸
羽
翁
翏
習
翕
翟
翠
翼
老
耂
考
者
耆
而
耎
耑
耒
耳
耴
耶
耷
聂
聊
聖
聚
聶
聿
肀
肃
肅
肉
肖
肙
肥
肩
肯
育
肴
胃
背
胡
胥
能
脊
脩
膚
臣
臤
臧
自
臬
臭
臯
臱
至
致
臺
臼
臽
臾
臿
舀
舂
舄
與
興
舉
舌
舍
舛
舜
舞
舟
航
般
艮
良
色
艸
艹
艾
芒
芔
芬
芮
花
芳
芺
芻
苔
苗
苟
若
苦
英
茶
茸
荅
草
荒
荣
荼
莆
莧
莫
莽
菆
菊
菐
華
萬
落
葉
著
葛
董
葵
蒙
蒦
蒼
蓋
蓬
蓺
蔑
蔡
蕉
蕭
薄
薛
薦
薰
藍
藏
藥
蘭
虍
虎
虐
虒
虔
處
虖
虗
虘
虚
虛
虜
虞
虫
虽
蚤
蚩
蜀
蜜
蟲
蠡
血
行
衍
衛
衣
衤
表
衮
衰
袁
袞
褭
褱
襄
襾
西
覀
要
覃
見
規
覓
覧
親
覽
见
角
解
言
訁
訇
計
詹
語
誩
諸
讠
计
谷
豆
豈
豊
豐
豕
豖
豙
象
豦
豩
豪
豸
貇
貝
貞
貟
負
貢
貧
貪
貫
責
貳
貴
買
費
賁
資
賈
賏
賓
賔
賛
賞
賢
賣
質
賴
贊
贝
贡
责
贯
贲
贵
赖
赞
赤
赦
走
越
足
路
蹇
身
躬
車
軍
軎
軟
輦
车
辛
辜
辟
辥
辰
辱
農
辵
辶
边
达
过
近
连
迷
追
退
送
逆
逐
通
速
造
逢
連
逮
進
遀
遂
過
道
達
遣
適
遷
遺
邊
邑
邕
那
邦
邪
郎
部
郭
都
鄉
酉
酋
配
酓
釆
采
里
重
野
量
金
釒
錢
钅
铁
镇
長
镸
长
門
閃
閉
開
閏
閑
閒
間
閔
閵
閻
闌
门
间
闷
阑
阜
阝
阿
际
降
陳
隆
隊
隋
隡
隨
隱
隶
隹
隺
隻
隼
隽
难
雀
雁
集
雈
雋
雍
雐
雔
雙
雚
雜
雝
離
難
雨
雩
雪
雲
零
雷
需
霍
霜
霝
霞
霸
靈
靑
青
非
靡
面
靣
革
韋
韦
韭
韯
韱
音
頁
頃
項
須
頗
頡
頻
顛
页
風
风
飛
飞
食
飠
養
饣
首
香
馬
馮
駦
马
骨
高
髟
鬥
鬯
鬲
鬼
魚
魯
鮮
鱼
鲁
鳥
鳳
鸟
鹵
鹿
麃
麗
麥
麦
麻
黃
黄
黍
黎
黑
黒
黨
黹
黽
黾
鼎
鼓
鼠
鼻
齊
齋
齐
齒
齿
龍
龙
龜
龟
龠
龰
龱
龴
龵
龶
龷
龸
龹
者
艹
ﭔ
ﭖ
ﭘ
ﭙ
ﭜ
ﭤ
ﭦ
ﭧ
ﭨ
ﭩ
ﭺ
ﭻ
ﭼ
ﭽ
ﮂ
ﮄ
ﮅ
ﮈ
ﮉ
ﮌ
ﮍ
ﮎ
ﮏ
ﮐ
ﮑ
ﮒ
ﮓ
ﮔ
ﮕ
ﮞ
ﮟ
ﮠ
ﮢ
ﮦ
ﮧ
ﮨ
ﮩ
ﮪ
ﮫ
ﮬ
ﮭ
ﮮ
ﮯ
ﯼ
ﯽ
ﯾ
ﯿ
﴾
﴿
ﷲ
ﷺ
︗
︘
ﹰ
ﺀ
ﺁ
ﺅ
ﺋ
ﺌ
ﺍ
ﺍﺱ
ﺍﻭﺭ
ﺎ
ﺎﺭ
ﺏ
ﺐ
ﺑ
ﺒ
ﺕ
ﺖ
ﺗ
ﺗﻮ
ﺘ
ﺚ
ﺛ
ﺜ
ﺝ
ﺟ
ﺟﻮ
ﺠ
ﺡ
ﺢ
ﺣ
ﺤ
ﺦ
ﺧ
ﺨ
ﺩ
ﺪ
ﺫ
ﺬ
ﺭ
ﺮ
ﺯ
ﺰ
ﺱ
ﺲ
ﺳ
ﺴ
ﺵ
ﺶ
ﺷ
ﺸ
ﺹ
ﺻ
ﺼ
ﺾ
ﺿ
ﻀ
ﻃ
ﻄ
ﻆ
ﻇ
ﻈ
ﻉ
ﻊ
ﻋ
ﻌ
ﻏ
ﻐ
ﻑ
ﻒ
ﻓ
ﻔ
ﻕ
ﻖ
ﻗ
ﻘ
ﻛ
ﻝ
ﻞ
ﻟ
ﻠ
ﻡ
ﻢ
ﻣ
ﻤ
ﻥ
ﻦ
ﻧ
ﻨ
ﻩ
ﻪ
ﻫ
ﻬ
ﻭ
ﻮ
ﻮﺋ
ﻱ
ﻲ
ﻳ
ﻴ
ﻻ
ﻼ
？
￼
�
🎥
🐢
👈
🔹
𠀁
𠀃
𠀆
𠀉
𠀎
𠀐
𠁁
𠁣
𠂆
𠂇
𠂈
𠂉
𠂊
𠂋
𠂎
𠂒
𠂔
𠂛
𠂡
𠂢
𠂤
𠂬
𠂭
𠂹
𠃊
𠃋
𠃌
𠃍
𠃎
𠃑
𠃓
𠃔
𠃜
𠄌
𠄎
𠄠
𠄢
𠆢
𠆥
𠇍
𠈌
𠌵
𠓜
𠔉
𠔥
𠔼
𠔽
𠔿
𠕀
𠕁
𠕋
𠘧
𠘨
𠙻
𠙼
𠚏
𠚒
𠚤
𠚪
𠣏
𠤎
𠤕
𠥓
𠦄
𠦑
𠦝
𠧒
𠧗
𠧪
𠩺
𠪚
𠫓
𠫔
𠫤
𠬛
𠬝
𠬞
𠬢
𠬤
𠬶
𠮛
𠮦
𠮷
𠯑
𠱠
𠳮
𠷎
𡈼
𡉀
𡉵
𡌥
𡍮
𡏳
𡕒
𡕩
𡕰
𡖅
𡗗
𡗜
𡘆
𡘤
𡧱
𡨄
𡩧
𡬠
𡭽
𡰣
𡰥
𡰪
𡰯
𡰱
𡷈
𡸁
𡿨
𡿩
𡿪
𡿺
𢀖
𢀛
𢀩
𢁙
𢆉
𢆰
𢆶
𢇁
𢇇
𢉖
𢌬
𢌿
𢏚
𢑑
𢑚
𢖻
𢙣
𢛳
𢦏
𢦒
𢧵
𢼄
𢾕
𣁋
𣄼
𣅀
𣅽
𣍘
𣎳
𣎵
𣏋
𣏼
𣗥
𣥂
𣥖
𣦵
𣦼
𣧄
𣪊
𣪠
𣬉
𣳾
𣶒
𤇾
𤊽
𤐫
𤓰
𤔔
𤕨
𤣩
𤰇
𤰔
𤰞
𤴓
𤴔
𤽄
𥁑
𥁕
𥃦
𥃩
𥃭
𥇡
𥑟
𥘅
𥘈
𥝢
𥫗
𥱡
𦈢
𦉪
𦉬
𦉼
𦍌
𦍒
𦎧
𦐇
𦓔
𦔮
𦘒
𦙃
𦚏
𦣝
𦣞
𦣻
𦥑
𦥔
𦥯
𦨉
𦭝
𦰩
𧆞
𧈧
𧘇
𧰨
𧴪
𧴮
𧵩
𧾷
𨸏
𨾴
𩙿
𩠐
𩫏
𩵋
𪉷
𪜀
𪟽
𪠲
𪩲
𫇦
𫔭
𫜸
𫝀
𫠣
𫠩
𫢉
𫥞
𫩏
𫩠
𫪡
𫲽
𫶧
𬀷
𬐘
𬗌
𬙙
𬛸
𬜯
𬟩
𬯁
𬴘
𬺻
𬼉
𬼖
𭀰
𭁈
𭁨
𭅰
𭑈
𭕄
𭗼
𭤨
𭥫
𭻾
𮅕
𮊿
𮍌
𮍏
𮓗
𮥼
𮧮
廾
𰀁
𰀄
𰀈
𰀉
𰀕
𰀠
𰀡
𰀢
𰀪
𰁜
𰃮
𰆊
𰆘
𰋙
𰕎
𰢴
𰧭
𰯲
0--
00--
000--
001--
002--
003--
004--
01--
02--
03--
04--
05--
06--
07--
08--
09--
1--
100--
102--
103--
104--
110--
113--
115--
116--
117--
118--
119--
120--
121--
122--
123--
124--
125--
129--
130--
131--
133--
135--
144--
146--
150--
2--
239--
3--
323--
4--
5--
6--
7--
77--
79--
8--
83--
85--
87--
88--
89--
9--
900--
91--
92--
94--
95--
978--
97801--
97805--
97807--
97808--
978113--
978817--
98--
aa--
ab--
abd--
aber--
abso--
abst--
ac--
acad--
acce--
achi--
acqu--
ad--
addi--
adve--
advi--
advo--
ae--
aero--
af--
affe--
affi--
ag--
aggr--
ah--
ai--
air--
aj--
ak--
al--
ali--
all--
alte--
am--
ambe--
ambi--
an--
ana--
ance--
and--
anta--
anth--
anthropo--
anthropolog--
anti--
any--
ao--
ap--
app--
aq--
ar--
arch--
argu--
arri--
art--
ary--
as--
ash--
assass--
asse--
assi--
asso--
astr--
at--
athe--
atmosp--
attr--
au--
av--
aw--
ax--
ay--
az--
ba--
bad--
bakh--
ban--
bar--
batt--
bay--
bb--
bc--
bd--
be--
beau--
beha--
bel--
ben--
berg--
bern--
bert--
bh--
bi--
biblio--
bin--
bio--
bl--
bloo--
bo--
boli--
boul--
bour--
box--
br--
brah--
brig--
bris--
broa--
broo--
brze--
bu--
bund--
by--
byza--
ca--
cala--
calc--
cald--
cali--
can--
car--
care--
cat--
cc--
cd--
ce--
cele--
cent--
certif--
cf--
ch--
cham--
char--
chat--
chau--
chel--
cher--
ches--
chic--
chip--
chit--
chou--
chow--
ci--
cine--
circ--
citeref--
cl--
clea--
clear--
cn--
co--
cole--
coll--
collab--
colo--
com--
compl--
con--
conse--
const--
contr--
coor--
corn--
corr--
cour--
cr--
crea--
cric--
crit--
crusa--
cs--
ct--
cu--
curr--
cust--
cy--
cycl--
da--
daily--
dam--
dar--
das--
dd--
de--
defe--
defi--
demo--
depe--
des--
det--
dev--
dh--
di--
diag--
diff--
disa--
disc--
diso--
disp--
diss--
dist--
distri--
dj--
do--
domi--
down--
dr--
du--
dw--
dy--
ea--
eb--
ec--
econ--
ed--
edu--
ee--
ef--
effi--
eg--
eh--
ei--
ek--
el--
elec--
elev--
elim--
em--
emer--
emot--
empl--
en--
encycl--
eng--
ep--
eq--
equa--
equi--
er--
es--
espe--
est--
estat--
et--
eu--
euro--
ev--
evac--
ex--
exam--
exce--
excl--
exec--
exhi--
exp--
extr--
ey--
ez--
fa--
fair--
far--
favo--
fe--
fern--
fi--
fili--
film--
fire--
fl--
fo--
foll--
foot--
for--
fr--
frag--
fran--
free--
freq--
frie--
fu--
ga--
gali--
gall--
gang--
gaze--
ge--
geo--
gh--
ghaz--
gi--
gl--
glad--
global--
gm--
gn--
go--
god--
gol--
good--
gr--
green--
gren--
gu--
guan--
guer--
guil--
gul--
gulf--
gun--
gw--
gy--
ha--
happ--
har--
hard--
has--
he--
head--
heli--
her--
hi--
high--
his--
ho--
holi--
home--
homo--
hr--
hs--
hu--
huff--
hum--
hy--
hydr--
ia--
ib--
ic--
ice--
id--
iden--
ie--
if--
ig--
ii--
ij--
ik--
il--
illu--
illust--
im--
immi--
impl--
in--
inc--
indi--
india--
indu--
infe--
infl--
info--
inhabi--
inqu--
insp--
inst--
instru--
insur--
int--
inter--
inve--
invest--
invi--
io--
ip--
ir--
is--
iso--
it--
iv--
iw--
iz--
ja--
jabł--
jam--
jan--
jasi--
jast--
je--
jenn--
jh--
ji--
jo--
jp--
ju--
judi--
ka--
kara--
kath--
ke--
ken--
key--
kh--
khom--
khur--
ki--
kl--
kn--
ko--
kr--
ks--
ku--
kw--
ky--
la--
lac--
lake--
lal--
land--
las--
law--
le--
legi--
lexi--
lg--
li--
lib--
life--
lim--
lind--
ling--
lite--
litt--
ll--
lo--
log--
lu--
ly--
ma--
mack--
madh--
magn--
maha--
mai--
mala--
man--
manif--
manuf--
mar--
mash--
maur--
mb--
mc--
mcc--
me--
meas--
medi--
mehr--
memo--
men--
mer--
mess--
mexi--
mi--
micr--
mid--
mil--
mini--
mir--
mo--
mod--
moha--
mona--
mono--
mont--
monu--
mort--
mr--
ms--
mu--
multi--
mush--
mw--
my--
na--
nc--
ne--
neder--
negl--
neighb--
net--
neut--
new--
news--
ng--
ni--
nk--
no--
nomi--
non--
nor--
not--
ns--
nu--
nuss--
ny--
oa--
ob--
obli--
obse--
oc--
occu--
od--
oe--
of--
off--
og--
oh--
oi--
ok--
ol--
olym--
om--
on--
one--
op--
open--
oppo--
or--
os--
ot--
ou--
out--
ov--
over--
ow--
ox--
oy--
oz--
pa--
pack--
page--
pak--
pal--
pan--
par--
patr--
patt--
pay--
pe--
pent--
per--
petr--
ph--
phen--
phil--
philosop--
physic--
pi--
pilg--
pl--
play--
pm--
po--
podl--
poli--
poly--
poss--
post--
pr--
pract--
pre--
prim--
priv--
priy--
pro--
provi--
ps--
psyc--
pt--
pu--
pur--
py--
qa--
qe--
qi--
qo--
qu--
ra--
radio--
rai--
raj--
ram--
re--
rece--
reco--
red--
ref--
refer--
rega--
rein--
rela--
reli--
resp--
respon--
retr--
rev--
rh--
ri--
ro--
rock--
rs--
ru--
run--
ry--
sa--
sacr--
sala--
sam--
san--
sar--
sc--
sche--
schl--
scho--
schw--
se--
see--
sep--
serv--
sh--
shab--
shah--
shak--
sham--
shar--
she--
shi--
si--
sidd--
simp--
sir--
sk--
sky--
sl--
slov--
sm--
smith--
sn--
so--
soli--
some--
sp--
spec--
spel--
spot--
sq--
sr--
sri--
ss--
st--
ste--
stra--
stre--
stri--
stru--
su--
sub--
sud--
suff--
sugg--
sule--
sun--
super--
supp--
supple--
sur--
susp--
sust--
sv--
sw--
sy--
symp--
synd--
sz--
t--
ta--
tact--
tan--
te--
tele--
temp--
ten--
terr--
text--
th--
the--
thor--
thri--
thur--
ti--
tma--
to--
tole--
tom--
tr--
trans--
trea--
trian--
trib--
trip--
trou--
trzc--
ts--
tu--
tv--
tw--
ty--
ub--
uc--
ud--
ue--
ug--
ui--
uk--
ul--
um--
un--
una--
under--
univer--
unve--
up--
ur--
urdu--
us--
ut--
uy--
uz--
va--
vale--
van--
var--
ve--
vent--
verm--
vert--
vi--
vill--
viol--
vo--
voca--
vol--
vu--
vy--
wa--
wahh--
war--
way--
we--
web--
west--
wh--
whet--
whit--
wi--
wiki--
win--
wo--
wolf--
won--
wood--
wr--
ws--
wu--
wy--
xa--
xi--
xu--
xx--
ya--
yayı--
ye--
yi--
yo--
yu--
yv--
za--
zach--
ze--
zh--
zi--
zo--
zu--
đ--
τ--
а--
б--
в--
во--
вст--
г--
д--
и--
ист--
к--
ка--
м--
ма--
н--
о--
ок--
окр--
п--
р--
респу--
рус--
с--
са--
си--
субъ--
т--
терри--
федер--
эконом--
י--
ء--
ا--
اا--
اب--
ابا--
اباد--
اباو--
ابر--
ابزر--
ابو--
ابوالع--
ابی--
ات--
اتا--
اتش--
اث--
اج--
اح--
احمد--
اخ--
اخت--
اخر--
اد--
ادا--
ادی--
اذ--
ار--
ارا--
ارت--
ارد--
اردو--
ارغ--
ارک--
ارکی--
اری--
از--
ازاد--
اس--
اسا--
است--
استغ--
اسٹ--
اسٹر--
اسٹی--
اش--
اشت--
اشک--
اص--
اض--
اط--
اع--
اعت--
اغ--
اف--
افی--
اق--
اقت--
اك--
ال--
الا--
الارب--
الب--
الت--
الث--
الج--
الح--
الخ--
الد--
الر--
الز--
الس--
الش--
الص--
الض--
الط--
الع--
الغ--
الف--
الق--
الك--
الل--
الم--
المست--
الن--
اله--
الو--
الک--
الگ--
الھ--
الہ--
الی--
ام--
اما--
امب--
امر--
امو--
امی--
امیر--
ان--
انا--
انت--
انج--
اند--
انس--
انف--
انو--
انور--
انٹا--
انٹر--
انڈ--
انڈی--
انڈیپین--
انک--
انگ--
انی--
او--
اور--
اوس--
اوغ--
اول--
اون--
اوڑ--
اوڑھ--
اوک--
اي--
اير--
ايی--
اٹ--
اٹا--
اٹو--
اپ--
اپا--
اپر--
اچ--
اڈ--
اڈو--
اڈی--
اڑ--
اک--
اکا--
اکھ--
اگ--
اگر--
اہ--
ای--
ایتھ--
ایج--
ایر--
ایس--
ایش--
ایل--
ایلوم--
ایم--
این--
ایو--
ایير--
ایپ--
ایڈ--
ایک--
ایکس--
ایگری--
ایگز--
ب--
با--
بابا--
بات--
باخ--
باد--
بار--
باز--
باس--
باغ--
بال--
بالا--
بام--
بان--
باي--
باگ--
بت--
بتا--
بج--
بحر--
بد--
بدخ--
بدر--
بر--
برا--
برج--
برد--
برز--
برس--
برطا--
برن--
برو--
برگ--
بری--
بز--
بس--
بش--
بص--
بط--
بعد--
بغ--
بل--
بلا--
بلی--
بم--
بن--
بنا--
بند--
بنو--
به--
بو--
بور--
بوس--
بول--
بون--
بوڑ--
بوک--
بٹ--
بچ--
بچا--
بڈ--
بڑ--
بک--
بگ--
بھ--
بھا--
بھر--
بھم--
بھن--
بھو--
بھٹ--
بھی--
بہ--
بہار--
بی--
بیا--
بیر--
بیس--
بیض--
بیل--
بین--
بیو--
بیک--
بیگ--
بے--
ت--
تا--
تاب--
تار--
تاز--
تان--
تاي--
تب--
تجر--
تجز--
تح--
تحا--
تخ--
تخم--
تذ--
تر--
ترا--
تری--
تش--
تص--
تض--
تع--
تغ--
تف--
تل--
تم--
تن--
تنگ--
تو--
توت--
تور--
توپ--
تپ--
تک--
تھ--
تھا--
تھر--
تھو--
تھی--
تھے--
تہ--
تی--
تیر--
ث--
ثم--
ج--
جا--
جار--
جال--
جام--
جان--
جاو--
جب--
جد--
جر--
جز--
جس--
جغر--
جل--
جم--
جن--
جنٹل--
جو--
جوا--
جور--
جوز--
جي--
جٹ--
جڑ--
جگ--
جھ--
جھون--
جہ--
جی--
جیا--
جین--
جیو--
ح--
حا--
حب--
حج--
حد--
حر--
حز--
حص--
حق--
حل--
حم--
حو--
حوا--
حی--
خ--
خا--
خار--
خان--
خاک--
خبر--
خد--
خدا--
خر--
خزا--
خص--
خط--
خل--
خلا--
خم--
خو--
خود--
خوش--
خیا--
خیر--
د--
دا--
دار--
دارال--
دارل--
دال--
دام--
دانش--
دب--
در--
درا--
درد--
دس--
دست--
دفن--
دق--
دل--
دم--
دن--
دو--
دوا--
دور--
دوم--
دوڑ--
دھ--
دھن--
دہ--
دی--
دیا--
دین--
دیو--
دیگر--
ذ--
ذا--
ذر--
ذو--
ذکر--
ذی--
ر--
را--
راج--
راز--
رام--
راي--
راک--
راہ--
رب--
رت--
رج--
رح--
رخ--
رد--
ردو--
رس--
رش--
رف--
رفسن--
رق--
رم--
رن--
رنگ--
رو--
روا--
روز--
روس--
روپ--
روڈ--
روہ--
رچ--
رک--
رگ--
رہ--
رہا--
ری--
ریس--
ریل--
رین--
ریو--
ریپ--
ریڈ--
ز--
زا--
زد--
زر--
زل--
زلز--
زم--
زن--
زو--
زور--
زی--
زیر--
س--
سا--
سار--
ساز--
ساس--
سال--
سام--
سان--
ساو--
ساي--
سب--
سبز--
سبس--
ست--
ستر--
ستی--
سج--
سد--
سر--
سرا--
سرب--
سرو--
سری--
سس--
سش--
سفا--
سفر--
سل--
سلا--
سلو--
سم--
سما--
سمتھ--
سمن--
سن--
سنا--
سند--
سنو--
سنگ--
سنی--
سو--
سوا--
سور--
سوز--
سوس--
سول--
سوم--
سون--
سوگ--
سوی--
سٹ--
سٹر--
سٹو--
سٹی--
سپر--
سچ--
سک--
سکڑ--
سکھ--
سکی--
سہ--
سی--
سیب--
سید--
سیر--
سیل--
سیم--
سین--
سیو--
سے--
ش--
شا--
شاد--
شار--
شال--
شام--
شان--
شاي--
شاہ--
شب--
شت--
شد--
شر--
شرق--
شش--
شع--
شعا--
شفا--
شق--
شل--
شم--
شن--
شه--
شو--
شور--
شپ--
شک--
شکر--
شہ--
شہر--
شی--
شیر--
شین--
شیو--
ص--
صا--
صب--
صحا--
صحت--
صد--
صدا--
صدر--
صر--
صع--
صعوب--
صف--
صل--
صو--
ض--
ضر--
ضم--
ضیاء--
ط--
طا--
طب--
طبرس--
طر--
طرز--
طو--
طہ--
ظ--
ظفر--
ع--
عا--
عب--
عبد--
عت--
عد--
عر--
عرب--
عز--
عص--
عض--
عطا--
عل--
علی--
عم--
عمر--
عن--
عي--
عہد--
عی--
عید--
غ--
غا--
غر--
غز--
غل--
غم--
غن--
غیر--
ـ--
ف--
فا--
فار--
فاس--
فال--
فتو--
فر--
فری--
فزی--
فس--
فش--
فق--
فل--
فلم--
فلو--
فن--
فه--
فو--
فوٹو--
في--
فٹ--
فکس--
فی--
فین--
فیير--
ق--
قا--
قد--
قدر--
قر--
قرا--
قل--
قلم--
قم--
قند--
قو--
قی--
ك--
كا--
كث--
كر--
كو--
ل--
لا--
لاس--
لال--
لام--
لان--
لاو--
لاي--
لاڈ--
لاک--
لاگ--
لب--
لت--
لحم--
لد--
لر--
لس--
لل--
لم--
لن--
لو--
لوم--
لوک--
لي--
لٹ--
لڑ--
لک--
لکھ--
لگ--
لہ--
لہر--
لی--
لیا--
لیم--
لین--
لیو--
لیون--
لیے--
م--
ما--
مار--
ماس--
مال--
مان--
ماو--
ماي--
مايکرو--
ماہ--
مت--
مث--
مج--
مجم--
مح--
محا--
محمد--
مخ--
مد--
مدور--
مذ--
مر--
مرا--
مز--
مس--
مسا--
مست--
مش--
مشا--
مشک--
مص--
مض--
مضم--
مط--
مطہ--
مظ--
مع--
معا--
مغ--
مفا--
مق--
مقت--
مقد--
مك--
مل--
ملا--
ملک--
ملی--
مم--
ممد--
من--
منظر--
منف--
منو--
منگ--
منی--
مه--
مو--
مور--
موز--
موس--
مول--
مون--
مونٹ--
موٹر--
مٹ--
مٹی--
مچ--
مڈ--
مڈل--
مڑ--
مژ--
مک--
مگ--
مگر--
مھ--
مہ--
مہا--
مہر--
می--
میر--
میز--
میل--
مین--
میو--
میٹ--
میڈ--
میک--
میں--
ن--
نا--
ناد--
نار--
نام--
نان--
ناي--
نب--
نت--
نج--
نخ--
ند--
نذر--
نر--
نرس--
نز--
نس--
نص--
نصر--
نط--
نظر--
نع--
نف--
نفس--
نق--
نل--
نم--
نمو--
نو--
نور--
نٹ--
نک--
نگ--
نہ--
نی--
نیا--
نیر--
نیو--
نیک--
نے--
ه--
ها--
هم--
و--
وا--
واث--
وار--
واس--
وال--
والا--
وان--
واو--
واي--
واک--
وب--
وت--
وث--
وج--
وح--
ود--
ور--
وز--
وزیر--
وس--
وش--
وع--
وف--
وق--
وك--
ول--
ولا--
وم--
ون--
وو--
ووڈ--
وٹ--
وچ--
وڈ--
وڑ--
وک--
وہ--
وی--
وید--
ویر--
ویس--
ویسٹ--
ویل--
ویم--
وین--
ویٹ--
ویک--
ي--
يا--
يع--
ين--
يو--
يی--
١--
١٣--
١٩--
٢--
٢٠--
٣--
٤--
ٱ--
ٹ--
ٹا--
ٹاي--
ٹرا--
ٹرم--
ٹرن--
ٹری--
ٹل--
ٹم--
ٹن--
ٹو--
ٹور--
ٹک--
ٹھ--
ٹی--
ٹیل--
ٹیلی--
ٹیڑ--
ٹیک--
ټ--
پ--
پا--
پار--
پاس--
پال--
پان--
پاپ--
پاک--
پت--
پدر--
پر--
پرت--
پرس--
پرو--
پری--
پس--
پست--
پشی--
پل--
پلا--
پم--
پن--
پنج--
پنچ--
پنڈ--
پو--
پور--
پول--
پوم--
پير--
پٹ--
پچ--
پچھ--
پڑ--
پک--
پگ--
پھ--
پھا--
پھر--
پھل--
پھو--
پھی--
پہ--
پی--
پیا--
پیدا--
پیر--
پیرا--
پیش--
پیم--
پین--
پیو--
پیڈ--
چ--
چا--
چار--
چال--
چان--
چاپ--
چبو--
چتر--
چر--
چس--
چل--
چلا--
چم--
چن--
چنگ--
چو--
چون--
چٹ--
چپ--
چچا--
چڑ--
چک--
چکر--
چھ--
چھا--
چھو--
چھپ--
چھڑ--
چہ--
چی--
چیت--
چیر--
چیم--
چین--
چیکو--
ڈ--
ڈا--
ڈار--
ڈاين--
ڈاک--
ڈب--
ڈر--
ڈرا--
ڈس--
ڈم--
ڈن--
ڈو--
ڈور--
ڈپل--
ڈک--
ڈھ--
ڈھا--
ڈھان--
ڈھو--
ڈھی--
ڈی--
ڈیس--
ڈیل--
ڈیموک--
ڈین--
ڈیو--
ڈیير--
ڈیٹ--
ڑ--
ژ--
ژو--
ک--
کا--
کار--
کاس--
کال--
کام--
کان--
کاو--
کب--
کت--
کد--
کر--
کرا--
کرس--
کرم--
کرن--
کرو--
کری--
کس--
کش--
کل--
کلا--
کلو--
کلی--
کم--
کمی--
کن--
کنز--
کنو--
کنڈ--
کنگ--
کنی--
کو--
کوا--
کوار--
کوت--
کور--
کوریو--
کوس--
کوش--
کول--
کوم--
کون--
کوي--
کوڑ--
کوک--
کوہ--
کي--
کٹ--
کپ--
کڑ--
کک--
کھ--
کھا--
کھر--
کھم--
کھو--
کہ--
کہا--
کی--
کیا--
کیر--
کیل--
کین--
کیو--
کیٹ--
کیپ--
کے--
ڪ--
گ--
گا--
گار--
گانگ--
گاڑ--
گذا--
گذر--
گر--
گرا--
گرد--
گرو--
گری--
گز--
گل--
گلو--
گلی--
گم--
گن--
گنگ--
گو--
گوا--
گور--
گول--
گٹھ--
گڈ--
گڑ--
گڑھ--
گھ--
گھا--
گھر--
گھو--
گی--
گیا--
گیر--
گیل--
گین--
ں--
ھ--
ھا--
ھر--
ھو--
ھی--
ہ--
ہا--
ہار--
ہال--
ہاي--
ہايی--
ہد--
ہر--
ہری--
ہز--
ہس--
ہل--
ہلز--
ہم--
ہما--
ہن--
ہند--
ہنر--
ہو--
ہوا--
ہول--
ہوم--
ہٹ--
ہچک--
ہک--
ہی--
ہیل--
ہیم--
ہین--
ہیو--
ہیڈ--
ہے--
ی--
یا--
یاد--
یار--
یب--
یت--
ید--
یر--
یز--
یس--
یش--
یق--
یل--
یم--
ین--
یو--
یون--
یک--
یہ--
یی--
۱--
۱۸--
۱۹--
۲--
۲۰--
۳--
۴--
۵--
۶--
۷--
۸--
۹--
अ--
आ--
इ--
उ--
ए--
ऑ--
क--
ख--
ग--
च--
ज--
ट--
ड--
त--
द--
ध--
न--
प--
ब--
म--
य--
र--
ल--
व--
श--
स--
ह--
१--
আ--
ব--
ম--
র--
ᄀ--
ᄃ--
ᄉ--
ᄋ--
ᄌ--
ᄒ--
ﺁ--
ﺍ--
ﺎ--
ﺑ--
ﺗ--
ﺘ--
ﺟ--
ﺣ--
ﺧ--
ﺩ--
ﺭ--
ﺮ--
ﺳ--
ﺷ--
ﻃ--
ﻋ--
ﻓ--
ﻗ--
ﻟ--
ﻣ--
ﻣﺤ--
ﻤ--
ﻧ--
ﻨ--
ﻭ--
ﻮ--
--0
--0
--00
--01
--02
--03
--04
--05
--06
--07
--08
--09
--1
--1
--10
--11
--12
--13
--14
--15
--16
--17
--18
--19
--2
--2
--20
--21
--22
--23
--24
--25
--26
--27
--28
--29
--3
--3
--30
--31
--32
--33
--34
--35
--36
--37
--38
--39
--4
--4
--40
--41
--42
--43
--44
--45
--46
--47
--48
--49
--5
--5
--50
--51
--52
--53
--54
--55
--56
--57
--58
--59
--6
--6
--60
--61
--62
--63
--64
--65
--66
--67
--68
--69
--7
--7
--70
--71
--72
--73
--74
--75
--76
--77
--78
--79
--8
--8
--80
--81
--82
--83
--84
--85
--86
--87
--88
--89
--9
--9
--90
--91
--92
--93
--94
--95
--96
--97
--98
--99
--a
--aa
--aan
--aat
--ab
--abad
--able
--ac
--ace
--ach
--acion
--ack
--acy
--ad
--ade
--ades
--adi
--ado
--ads
--ae
--ael
--af
--ag
--age
--agh
--agi
--ah
--ai
--ail
--aire
--ais
--aj
--aja
--ak
--aka
--aki
--al
--ala
--ald
--ale
--all
--ally
--als
--am
--ama
--ami
--an
--ana
--ance
--ances
--and
--ane
--ang
--ani
--ano
--ans
--ant
--anta
--ants
--ao
--ap
--aphy
--aq
--ar
--ard
--ari
--aries
--ars
--ary
--arı
--as
--ast
--at
--ata
--ate
--ated
--ater
--ates
--ath
--atha
--ati
--atic
--ating
--ation
--ations
--ative
--ato
--ator
--ators
--atory
--ats
--au
--av
--ava
--ave
--avi
--aw
--awa
--awi
--ax
--ay
--aya
--az
--azi
--b
--ba
--back
--bad
--bal
--bas
--base
--bat
--be
--bed
--ber
--berg
--berry
--bi
--bility
--ble
--bo
--bon
--box
--bs
--burg
--bury
--by
--c
--ca
--cal
--ce
--ced
--cent
--ces
--ch
--cha
--che
--cher
--ches
--chi
--cht
--ci
--cies
--cing
--ck
--co
--craft
--cs
--ct
--ction
--cts
--cy
--d
--da
--dad
--dal
--dale
--date
--day
--ddin
--de
--ded
--dey
--dh
--di
--dia
--dian
--dir
--do
--dom
--dor
--dra
--ds
--du
--duced
--dy
--dın
--e
--ea
--eal
--ean
--eau
--eb
--ec
--eca
--ect
--ed
--eda
--edia
--edie
--ee
--eed
--eel
--eem
--een
--eep
--eer
--ees
--eh
--ei
--ein
--ek
--ekh
--el
--ela
--eli
--ell
--els
--ely
--em
--eme
--ement
--en
--ena
--ence
--ences
--end
--ene
--ened
--ening
--ens
--ensive
--ent
--ento
--ents
--enue
--eo
--eous
--er
--ere
--ered
--erg
--eri
--ering
--ern
--ero
--erry
--ers
--ert
--ery
--es
--ese
--esh
--esi
--ess
--esses
--est
--et
--eta
--ete
--eth
--ets
--ett
--ette
--eum
--eur
--eus
--ev
--ew
--ews
--ex
--ey
--ez
--f
--fa
--fax
--fect
--fer
--ff
--ffe
--fi
--fied
--field
--fs
--ft
--ful
--fy
--g
--ga
--gal
--gan
--ganj
--gar
--garh
--gate
--ge
--ged
--ger
--ges
--gh
--gham
--ght
--gi
--ging
--gle
--go
--gon
--grafia
--graph
--gs
--gton
--gu
--gua
--gue
--h
--ha
--hak
--hal
--ham
--hat
--he
--hed
--heh
--hen
--hes
--hi
--hia
--hic
--hin
--hip
--hir
--hmi
--ho
--hon
--hood
--hop
--hou
--hs
--ht
--hu
--hy
--i
--ia
--iac
--iah
--ial
--ian
--ias
--ib
--ible
--ic
--ica
--ical
--ich
--ick
--ico
--ics
--id
--ida
--idan
--ide
--ides
--ids
--ie
--iec
--ied
--ield
--ien
--ier
--iere
--ies
--if
--ified
--ify
--ig
--ige
--ii
--ik
--ika
--iki
--il
--ila
--ile
--ility
--ill
--illa
--ille
--illo
--ily
--im
--ima
--in
--ina
--ind
--india
--ine
--ines
--ing
--ings
--ington
--ini
--ino
--ins
--io
--ion
--ional
--ions
--ios
--iot
--ious
--ip
--ipal
--ipur
--iq
--ique
--iques
--ir
--ira
--ire
--iri
--iro
--iry
--is
--isation
--ise
--ised
--ises
--ish
--ished
--isi
--ising
--ision
--ism
--ist
--istic
--ists
--it
--ita
--ite
--ities
--ition
--ito
--itt
--ity
--itz
--iu
--ium
--ius
--iv
--ive
--iya
--iye
--iz
--ization
--ize
--ized
--izes
--izing
--j
--ja
--jah
--je
--ji
--jo
--ju
--k
--ka
--kan
--kar
--kat
--ke
--ked
--ker
--kes
--kh
--ki
--kie
--kin
--ko
--ks
--ku
--ky
--l
--la
--lah
--lam
--lan
--land
--lar
--ları
--ld
--le
--leh
--lence
--lent
--ler
--les
--less
--ley
--li
--lia
--lie
--lik
--lin
--line
--ling
--lis
--list
--lity
--ll
--lla
--lle
--lles
--lli
--llo
--lly
--lo
--logy
--lon
--ls
--lu
--ly
--lı
--m
--ma
--mal
--man
--mas
--me
--med
--mel
--men
--ment
--ments
--mi
--mn
--mo
--mon
--mont
--ms
--mu
--my
--n
--na
--nah
--nal
--nan
--nar
--nary
--nas
--nat
--nce
--nces
--ncy
--nd
--nda
--nds
--ne
--ned
--nee
--nel
--nell
--nen
--ner
--ners
--nes
--ness
--nesses
--news
--ney
--ng
--nga
--ngo
--ngs
--ni
--nia
--nie
--nik
--ning
--nis
--nn
--nne
--no
--ns
--nse
--nt
--nta
--nte
--nth
--ntly
--nts
--nu
--ny
--o
--oa
--ock
--od
--ode
--ody
--oe
--of
--ography
--ogy
--oi
--ois
--oj
--ok
--ol
--ola
--ole
--oli
--ology
--om
--oma
--ome
--on
--ona
--onal
--ond
--one
--ong
--onia
--online
--onomy
--ons
--oo
--ood
--ook
--oon
--ooq
--oor
--op
--or
--ora
--ord
--ore
--ori
--oro
--ors
--ory
--os
--osa
--ose
--ot
--ott
--ou
--ous
--out
--ov
--ova
--ovic
--ovo
--ow
--owed
--owo
--ows
--ox
--oy
--p
--pa
--pattan
--pe
--ped
--pes
--ping
--pk
--ple
--po
--pol
--polis
--port
--pose
--posed
--poses
--post
--prise
--ps
--pse
--pt
--pur
--q
--r
--ra
--rah
--ral
--ran
--ras
--rat
--ration
--rce
--rd
--re
--ren
--res
--ress
--ret
--rey
--rg
--ri
--ria
--ric
--rie
--rier
--ries
--rin
--ring
--rington
--ris
--rm
--rn
--rne
--rno
--ro
--rom
--ros
--rry
--rs
--rse
--rt
--ru
--rum
--rus
--ry
--rı
--s
--sa
--sal
--sat
--sburg
--sch
--se
--sed
--ser
--ses
--sey
--sfield
--sh
--sha
--shan
--shire
--si
--sia
--side
--sion
--sions
--sis
--sive
--sk
--ska
--ski
--sm
--so
--son
--sor
--ss
--ssa
--st
--sta
--stan
--ster
--ston
--stown
--sts
--sty
--su
--sville
--sy
--t
--ta
--taining
--tains
--tak
--tal
--tar
--tary
--tas
--tat
--tation
--te
--ted
--teenth
--tein
--tel
--tely
--ter
--tes
--th
--tha
--thi
--ti
--tia
--tic
--times
--tin
--tine
--tinent
--ting
--tion
--tions
--tism
--tive
--tle
--tly
--to
--ton
--tor
--tors
--tory
--tos
--town
--tra
--tri
--try
--ts
--tt
--tta
--tte
--tty
--tu
--ture
--tv
--ty
--tz
--u
--ua
--ual
--uan
--ub
--ubi
--uch
--ud
--uddin
--ude
--ue
--uel
--ues
--ui
--uit
--uk
--ul
--ula
--ular
--ule
--ullah
--ult
--um
--un
--une
--ung
--up
--ur
--ura
--ural
--ure
--ures
--urg
--uri
--uring
--urs
--ury
--us
--uss
--ut
--ution
--ux
--uz
--v
--va
--val
--ve
--vel
--ver
--ves
--vi
--vic
--vid
--ville
--vo
--w
--wa
--wal
--wan
--way
--web
--wi
--wice
--wise
--wo
--x
--y
--ya
--yah
--yan
--yana
--yat
--ye
--yeh
--yer
--yi
--ying
--yn
--yon
--ys
--z
--za
--zai
--zar
--ze
--zer
--zi
--zie
--zno
--zon
--ı
--ə
--α
--а
--ан
--бря
--д
--е
--ения
--и
--ии
--ин
--ия
--к
--ка
--л
--м
--н
--ни
--нов
--ны
--о
--ов
--р
--рия
--с
--ская
--скии
--т
--та
--у
--я
--ء
--ا
--اء
--اب
--اباد
--ات
--اتھ
--اتی
--اج
--اجی
--اح
--اخان
--اد
--ادہ
--ار
--ارث
--ارو
--اروں
--ارڈ
--ارہ
--اری
--از
--ازم
--ازی
--اس
--اش
--اشت
--اشمی
--اشی
--اط
--اف
--افی
--اق
--ال
--الب
--الہ
--الی
--ام
--امہ
--ان
--انا
--انو
--انگ
--انہ
--انی
--انے
--او
--اوا
--اور
--اوں
--اوی
--اي
--ايز
--ايزڈ
--ايزیشن
--ايق
--ايل
--اين
--ايٹ
--ايٹس
--ايی
--ايے
--اٹ
--اپ
--اپور
--اڈ
--اڑ
--اڑی
--اک
--اکی
--اگ
--اگو
--اں
--اہ
--اہا
--اہر
--اہی
--اۃ
--ای
--ایا
--ایک
--ایۃ
--ب
--با
--بادی
--بار
--باغ
--بايٹ
--باں
--بة
--بت
--بد
--بر
--برگ
--بس
--بط
--بع
--بل
--بن
--بو
--بي
--بٹ
--بک
--بھی
--بہ
--بی
--بیب
--بے
--ة
--ت
--تا
--تان
--تر
--ترو
--تز
--تس
--تسا
--تم
--تن
--ته
--تو
--توس
--توف
--تون
--تک
--تگین
--تھ
--تھا
--تھم
--تھی
--تھے
--تہ
--تی
--تیا
--تیک
--تے
--ث
--ثر
--ثم
--ثنی
--ثی
--ج
--جا
--جات
--جان
--جب
--جد
--جر
--جرز
--جس
--جسٹ
--جل
--جم
--جمنٹ
--جن
--جو
--جک
--جھ
--جہ
--جی
--جیہ
--جے
--ح
--حت
--حد
--حضرت
--حل
--حہ
--حی
--حے
--خ
--خا
--خان
--خت
--خر
--خص
--خل
--خہ
--خی
--د
--دا
--داء
--داد
--دار
--داری
--دان
--دة
--دت
--دد
--در
--دز
--دس
--دل
--دن
--دنی
--ده
--دو
--دڑ
--دک
--دگی
--دھی
--دہ
--دی
--دیا
--دیش
--دین
--دیہ
--دے
--ذ
--ذب
--ذن
--ذہ
--ذہب
--ر
--را
--راء
--راق
--رام
--ران
--راڈ
--رب
--رة
--رت
--رج
--رد
--ردی
--رر
--رز
--رس
--رسن
--رضا
--رع
--رف
--رق
--رقاوی
--رل
--رلی
--رم
--رن
--رنا
--رنے
--ره
--رو
--روں
--ري
--رٹ
--رڈ
--رک
--رکا
--رکايیو
--رگ
--رھویں
--رہ
--رۃ
--ری
--ریا
--ریج
--ریدی
--رین
--ریہ
--رے
--ز
--زا
--زبتھ
--زت
--زر
--زل
--زم
--زن
--زه
--زو
--زویل
--زيی
--زک
--زگ
--زہ
--زی
--زیہ
--زے
--س
--سا
--سال
--سب
--سبرگ
--سبری
--ست
--ستان
--سخ
--سر
--سز
--سس
--سف
--سل
--سم
--سن
--سنکی
--سه
--سو
--سول
--سوں
--سویل
--سٹ
--سٹر
--سٹس
--سٹن
--سٹک
--سک
--سکر
--سکی
--سہ
--سی
--سیس
--سے
--ش
--شا
--شاير
--شاہ
--شت
--شر
--شس
--شل
--شم
--شن
--شنز
--شنگ
--شو
--شپ
--شک
--شہ
--شہر
--شی
--شیا
--شیم
--شین
--شیں
--شے
--ص
--صب
--صحاب
--صر
--صلی
--صہ
--صۃ
--صی
--ض
--ضا
--ضت
--ضہ
--ضی
--ضے
--ط
--طر
--طع
--طن
--طی
--ظ
--ظر
--ظم
--ع
--عات
--عام
--عة
--عت
--عد
--علی
--عہ
--عۃ
--عی
--غ
--غان
--غل
--غہ
--غۃ
--غی
--ـ
--ف
--فا
--فاء
--فات
--فت
--فتہ
--فر
--فس
--فع
--فق
--فن
--فو
--فک
--فہ
--فی
--فیس
--فیلڈ
--ق
--قا
--قان
--قب
--قت
--قط
--قف
--قن
--قہ
--قی
--قین
--ك
--كة
--كم
--ل
--لا
--لاح
--لاگ
--لة
--لت
--لد
--لر
--لز
--لس
--لع
--لف
--لق
--لم
--لن
--له
--لو
--لوجی
--لي
--لٹ
--لٹن
--لٹی
--لڈ
--لک
--لکر
--لہ
--لۃ
--لی
--لیا
--لیم
--لین
--لے
--م
--ما
--مال
--مام
--مان
--مب
--مبر
--مة
--مت
--مر
--مز
--مس
--مش
--مع
--مل
--مم
--من
--مند
--منٹ
--مو
--مون
--موں
--موی
--مٹ
--مپ
--مک
--مہ
--مۃ
--می
--میشن
--مین
--میں
--مے
--ن
--نا
--نات
--ناس
--ناقب
--نام
--نان
--ناک
--نبرگ
--نة
--نت
--نتھا
--نتی
--نج
--ند
--ندر
--ندوں
--ندہ
--ندے
--نر
--نری
--نز
--نزی
--نس
--نسن
--نسو
--نسی
--نش
--نل
--نن
--ننگ
--نه
--نو
--نوس
--نوف
--نومی
--نوں
--نى
--ني
--نٹ
--نٹس
--نٹن
--نٹی
--نچ
--نڈ
--نڈا
--نڈوں
--نڈہ
--نڈی
--نڈے
--نک
--نکر
--نکو
--نگ
--نگر
--نگز
--نگو
--نگٹن
--نگی
--نہ
--نی
--نیا
--نیس
--نیشیا
--نیو
--نیہ
--نیے
--نے
--ه
--ها
--هر
--هرة
--هم
--هی
--و
--وا
--واتو
--وار
--وال
--وان
--واں
--وایا
--وب
--وة
--وت
--وتھ
--وتی
--وج
--وجی
--وح
--ود
--ودہ
--ور
--ورا
--ورس
--ورن
--ورو
--ورٹ
--ورڈ
--ورہ
--وری
--وریا
--ورے
--وز
--وس
--وسا
--وسکی
--وسی
--وش
--وط
--وع
--وف
--وق
--ول
--ولا
--ولر
--ولس
--ولو
--ولہ
--ولے
--وم
--وما
--ومی
--ون
--ونا
--ونس
--ونو
--ونٹ
--ونگ
--ونی
--وو
--ووا
--ووو
--ووچ
--ووڈ
--ووں
--ووی
--وي
--ويل
--ويی
--ويیل
--ويے
--وٹ
--وٹا
--وٹی
--وپ
--وچ
--وڈ
--وڑ
--وڑا
--وڑہ
--وڑی
--وڑے
--وک
--وکا
--وکو
--وکے
--وگ
--وں
--وہ
--وۃ
--وی
--ویا
--ویل
--ویچ
--ویں
--ویہ
--وے
--ى
--ي
--يا
--يات
--يب
--ية
--يت
--يد
--يدہ
--ير
--يرة
--يرز
--يز
--يس
--يش
--يص
--يف
--يل
--يم
--ين
--ينٹ
--ينڈ
--يه
--يو
--يوں
--يى
--يي
--يٹ
--يٹر
--يٹس
--يچ
--يڈ
--يڈن
--يک
--يکہ
--يں
--يہ
--يی
--يیر
--يیس
--يیف
--يیل
--يین
--يیوں
--يیں
--يیہ
--يیے
--يے
--٠
--١
--٢
--٣
--٤
--٥
--٦
--٧
--٨
--٩
--ٴ
--ٸی
--ٹ
--ٹا
--ٹان
--ٹر
--ٹرا
--ٹرز
--ٹری
--ٹز
--ٹس
--ٹل
--ٹلی
--ٹم
--ٹن
--ٹنٹ
--ٹنگ
--ٹو
--ٹون
--ٹوں
--ٹڈ
--ٹک
--ٹکس
--ٹھ
--ٹہ
--ٹی
--ٹیا
--ٹیز
--ٹیو
--ٹے
--پ
--پا
--پت
--پر
--پرٹ
--پس
--پل
--پن
--پنجاب
--پنے
--پو
--پور
--پوری
--پٹ
--پی
--پے
--چ
--چا
--چر
--چس
--چل
--چن
--چو
--چک
--چہ
--چی
--چے
--ڈ
--ڈا
--ڈر
--ڈرز
--ڈری
--ڈز
--ڈس
--ڈل
--ڈم
--ڈن
--ڈنٹ
--ڈنگ
--ڈو
--ڈون
--ڈک
--ڈکٹ
--ڈہ
--ڈی
--ڈیا
--ڈیز
--ڈیل
--ڈے
--ڑ
--ڑا
--ڑو
--ڑوں
--ڑک
--ڑھ
--ڑہ
--ڑی
--ڑے
--ژ
--ژو
--ک
--کا
--کار
--کاری
--کان
--کب
--کبر
--کت
--کر
--کس
--کش
--کشی
--کل
--کلف
--کم
--کن
--کنا
--کنے
--کو
--کوز
--کوف
--کوٹ
--کوں
--کٹ
--کھ
--کھی
--کہ
--کی
--کیا
--کیہ
--کے
--گ
--گا
--گار
--گان
--گانی
--گاں
--گاہ
--گر
--گرام
--گری
--گس
--گل
--گن
--گو
--گون
--گي
--گٹن
--گڈن
--گھ
--گہ
--گی
--گیا
--گین
--گینی
--گے
--ں
--ھ
--ھا
--ھان
--ھانی
--ھايی
--ھب
--ھر
--ھرا
--ھری
--ھل
--ھلی
--ھم
--ھن
--ھنے
--ھو
--ھوں
--ھویں
--ھڑ
--ھڑا
--ھڑی
--ھک
--ھہ
--ھی
--ھیا
--ھے
--ہ
--ہا
--ہام
--ہت
--ہر
--ہروی
--ہل
--ہم
--ہن
--ہو
--ہوا
--ہوں
--ہٹ
--ہڑ
--ہہ
--ہی
--ہیت
--ہیں
--ہے
--ۃ
--ی
--یا
--یات
--یاتی
--یاس
--یال
--یان
--یايی
--یاں
--یب
--یبل
--یة
--یت
--یتا
--یتی
--یتیا
--یث
--یج
--یح
--ید
--یدگی
--یدہ
--یر
--یرا
--یرو
--یرہ
--یری
--یرے
--یز
--یزہ
--یس
--یسا
--یسٹ
--یسٹر
--یسی
--یسیا
--یش
--یشن
--یشور
--یشی
--یشیا
--یض
--یع
--یف
--یق
--یل
--یلا
--یلی
--یلے
--یم
--یما
--ین
--ینا
--یندر
--ینز
--ینس
--ینو
--ینٹ
--ینڈ
--ینہ
--ینی
--یه
--یو
--یوس
--یولا
--یون
--یوں
--یير
--یين
--یيے
--یٹ
--یٹا
--یٹر
--یٹس
--یٹی
--یٹیا
--یپ
--یچ
--یڈ
--یڈا
--یڈیا
--یک
--یکا
--یکر
--یکس
--یکل
--یکن
--یکو
--یکھ
--یکی
--یگ
--یگا
--یں
--یہ
--یۃ
--یی
--یے
--ې
--ے
--ےس
--۰
--۱
--۲
--۳
--۴
--۵
--۶
--۷
--۸
--۹
--त
--न
--र
--ल
--स
--ᆨ
--ᆫ
--ᆯ
--ᆼ
--ﺅ
--ﺅں
--ﺋ
--ﺍ
--ﺎ
--ﺏ
--ﺕ
--ﺖ
--ﺗ
--ﺩ
--ﺪ
--ﺭ
--ﺮ
--ﻑ
--ﻝ
--ﻞ
--ﻟ
--ﻠ
--ﻡ
--ﻢ
--ﻥ
--ﻧ
--ﻭ
--ﻮ
