!
"
#
##0
##1
##10
##11
##12
##13
##14
##15
##16
##17
##18
##19
##2
##20
##21
##22
##23
##24
##25
##26
##27
##28
##29
##3
##30
##31
##32
##33
##34
##35
##36
##37
##38
##39
##4
##40
##41
##42
##43
##44
##45
##46
##47
##48
##49
##5
##50
##51
##52
##53
##54
##55
##56
##57
##58
##59
##6
##60
##61
##62
##63
##64
##65
##66
##67
##68
##69
##7
##70
##71
##72
##73
##74
##75
##76
##77
##78
##79
##8
##80
##81
##82
##83
##84
##85
##86
##87
##88
##89
##9
##90
##91
##92
##93
##94
##95
##96
##97
##98
##99
$
%
&
'
(
)
*
+
,
-
.
/
0
00
000
0000
001
002
003
004
005
006
007
008
01
010
011
012
013
014
015
017
02
020
021
023
024
025
03
030
0362
04
040
05
050
051
055
06
060
066
067
07
074
08
080
082
09
0971
1
10
100
1000
1001
1002
1007
101
1010
1016
1017
102
1029
103
1038
104
105
1050
106
107
108
1080
1086
109
1093
1098
11
110
1100
111
1111
112
1126
113
114
115
116
1163
117
1177
118
1186
119
1193
12
120
1200
1204
1206
1207
121
1213
12148
122
1220
123
124
125
1250
1258
126
1260
127
128
129
1290
1296
1299
13
130
1300
1301
1304
1305
1307
131
1310
132
1320
1323
1324
1325
1326
1328
133
1335
134
1340
1341
1348
1349
135
1350
1351
1352
1353
1357
136
1360
1363
1365
1366
1367
1368
1369
137
1370
1371
1374
1375
1376
1377
1378
1379
138
1380
1381
1382
1384
1385
1386
1387
1388
1389
139
1390
1391
1393
1394
1395
1397
1398
1399
14
140
1400
1401
1402
1403
1404
1405
1406
1407
1408
1409
141
1410
1411
1412
1413
1414
1415
1416
1417
1418
1419
142
1420
1421
1422
1423
1424
1428
1429
143
1430
14344
144
145
1450
1453
146
147
148
149
1492
15
150
1500
151
1515
1516
1517
1519
152
1520
1521
1524
1525
1526
153
1530
154
1540
1542
155
1550
1555
1556
156
1564
1565
1569
157
1571
1572
158
1580
159
1595
1598
16
160
1600
1603
1605
1606
161
1610
1611
1618
162
1620
1627
1628
163
1632
1635
164
1640
1642
1644
1648
1649
165
1650
1657
1658
1659
166
1660
1666
167
1672
168
1680
1683
1686
1687
1689
169
1697
1699
17
170
1700
1703
1707
171
1713
1715
1717
1718
1719
172
1720
1721
1722
1723
1724
173
1730
1735
1737
1739
174
1740
1745
1746
1747
1748
1749
175
1750
1751
1754
1755
1756
1757
1758
1759
176
1760
1761
1762
1763
1764
1765
1768
1769
177
1770
1772
1773
1774
1775
1776
1777
1778
178
1780
1781
1782
1783
1784
1785
1786
1787
1788
1789
179
1790
1791
1792
1793
1794
1795
1796
1797
1798
1799
18
180
1800
1801
1802
1803
1804
1805
1806
1807
1808
1809
181
1810
1811
1812
1813
1814
1815
1816
1817
1818
1819
182
1820
1821
1822
1823
1824
1825
1826
1827
1828
1829
183
1830
1831
1832
1833
1834
1835
1836
1837
1838
1839
184
1840
1841
1842
1843
1844
1845
1846
1847
1848
1849
185
1850
1851
1852
1853
1854
1855
1856
1857
1858
1859
186
1860
1861
1862
1863
1864
1865
1866
1867
1868
1869
187
1870
1871
1872
1873
1874
1875
1876
1877
1878
1879
188
1880
1881
1882
1883
1884
1885
1886
1887
1888
1889
189
1890
1891
1892
1893
1894
1895
1896
1897
1898
1899
19
190
1900
1901
1902
1903
1904
1905
1906
1907
1908
1909
191
1910
1911
1912
1913
1914
1915
1916
1917
1918
1919
192
1920
1921
1922
1923
1924
1925
1926
1927
1928
1929
193
1930
1931
1932
1933
1934
1935
1936
1937
1938
1939
194
1940
1941
1942
1943
1944
1945
1946
1947
1948
1949
195
1950
1951
1952
1953
1954
1955
1956
1957
1958
1959
196
1960
1961
1962
1963
1964
1965
1966
1967
1968
1969
197
1970
1971
1972
1973
1974
1975
1976
1977
1978
1979
198
1980
1981
198182
1982
1983
1984
1985
1986
1987
1988
1989
199
1990
1991
1992
1993
1994
1995
1996
1997
1998
1999
2
20
200
2000
2001
2002
2003
2004
2005
2006
2007
2008
2009
201
2010
2011
2012
2013
2014
2015
2016
2017
2018
2019
202
2020
2021
2022
2023
203
2030
204
205
206
207
208
209
21
210
211
2112
212
213
214
215
216
217
218
219
22
220
221
222
223
224
225
226
227
228
229
23
230
2307
231
232
233
234
235
236
237
238
239
24
240
241
242
243
244
245
246
247
248
249
25
250
2500
251
252
253
254
255
256
257
258
259
26
260
261
262
263
264
265
266
267
268
269
27
270
271
272
273
274
275
276
277
278
279
28
280
281
282
283
284
285
286
287
288
289
29
290
291
292
293
294
295
296
297
298
299
3
30
300
3000
301
302
303
304
305
306
307
308
309
31
310
311
312
313
314
315
316
3166
317
318
319
32
320
321
322
323
324
325
326
327
328
329
33
330
331
332
333
334
335
336
337
338
339
34
340
341
342
343
344
345
346
347
348
349
35
350
351
352
353
354
355
356
357
358
359
36
360
361
362
363
364
365
366
367
368
369
37
370
371
372
373
374
375
376
377
378
379
38
380
381
382
383
384
385
386
387
388
389
39
390
391
392
393
394
395
396
397
398
399
4
40
400
4000
401
402
403
404
405
406
407
408
409
41
410
411
412
413
414
415
416
417
418
419
42
420
421
422
423
424
42455746
425
426
427
428
429
43
430
431
432
433
4331
434
4342
435
436
437
438
439
44
440
441
442
443
444
445
446
447
448
449
45
450
451
452
453
454
455
456
457
458
459
46
460
461
462
463
4638
464
465
466
467
468
469
47
470
471
472
473
474
475
476
477
478
479
48
480
481
482
483
484
485
486
487
488
489
49
490
491
492
493
494
495
496
497
498
499
5
50
500
5000
501
502
503
504
505
506
507
508
509
51
510
511
512
513
514
515
516
517
518
519
52
520
521
522
523
524
525
526
527
528
529
53
530
531
532
533
534
535
536
537
538
539
54
540
541
542
543
544
545
546
547
548
549
55
550
551
552
553
554
555
556
557
558
559
56
560
561
562
563
564
565
566
567
568
569
57
570
571
572
573
574
575
576
577
578
579
58
580
581
582
583
584
585
586
587
588
589
59
590
591
592
593
594
595
596
597
598
599
6
60
600
6000
601
602
603
6036
604
605
606
607
608
609
61
610
611
612
613
614
615
616
617
618
619
62
620
621
622
623
624
625
626
627
628
629
63
630
631
632
633
634
635
636
637
638
639
64
640
641
642
643
644
645
646
647
648
649
65
650
651
652
653
654
655
656
657
658
659
66
660
661
662
663
664
665
666
667
668
669
67
670
671
672
673
674
675
676
677
678
679
68
680
681
682
683
684
685
686
687
688
689
69
690
691
692
693
694
695
696
697
698
699
7
70
700
7000
701
702
703
704
705
706
707
708
709
71
710
711
712
713
714
715
716
717
718
719
72
720
721
722
723
724
725
726
727
728
729
73
730
731
732
733
734
735
736
737
738
739
74
740
741
742
743
744
745
746
747
748
749
75
750
751
752
753
754
755
756
757
758
759
76
760
761
762
763
764
765
766
767
768
769
77
770
771
772
773
774
775
776
777
778
779
78
780
781
782
783
784
785
786
787
788
789
79
790
7914
792
7929
793
794
795
796
797
798
799
8
80
800
8000
801
8018
802
803
804
805
806
807
808
809
81
810
811
812
813
814
815
816
817
818
819
82
820
821
822
8221
823
824
825
826
827
828
829
83
830
831
832
833
834
835
836
837
838
839
84
840
841
842
843
844
845
846
847
848
849
85
850
851
852
853
854
855
856
857
858
859
86
860
861
862
863
864
865
867
868
869
869833
87
870
871
872
873
874
875
876
878
879
88
880
882
883
884
885
886
887
888
889
89
890
891
892
893
894
895
896
897
898
899
9
90
900
901
902
903
904
905
906
907
908
909
91
910
911
912
913
914
915
916
917
918
919
92
920
921
922
923
924
925
927
928
929
93
930
931
932
933
934
935
936
937
939
94
940
941
942
943
944
945
946
947
948
949
95
950
951
952
953
954
955
956
957
958
96
960
961
962
963
964
965
966
967
968
969
97
970
971
972
973
974
975
976
977
978
979
98
980
981
982
983
984
985
986
987
988
99
990
991
99166
992
993
994
995
996
997
998
999
:
;
<
=
>
?
@
[
\
]
^
_
`
a
aa
aaj
aamir
aaron
ab
abad
abbas
abbasi
abc
abd
abdul
abdullah
abi
abid
abkhazia
about
above
abprs
abraham
abstract
abu
abuse
ac
academia
academic
academy
acc
accademia
accepted
access
accessed
accident
according
account
accounts
accused
achievement
acid
acre
across
act
acting
action
active
activist
activists
activities
activity
acton
actor
actors
actress
acts
actual
actually
ad
ada
adam
adams
added
additional
address
adds
adelaide
aden
administration
administrative
adobe
adolf
adopted
adrian
adult
advance
advanced
adventure
ae
aero
af
affairs
afghan
afghanistan
afp
africa
african
africans
afridi
after
ag
aga
again
against
age
aged
agence
agency
agent
ages
agha
agios
ago
agreement
agricultural
agriculture
ags
ah
ahead
ahmad
ahmadabad
ahmed
ahmedabad
ahsan
ai
aichi
aid
aids
aim
aims
ain
air
aircraft
airfield
airlines
airpark
airport
airports
airways
ais
ak
akademi
akbar
akhtar
al
ala
alabama
alam
alan
alaska
albania
albanian
albany
albert
alberta
album
aleph
aleppo
alex
alexander
alexandria
alfred
algeria
ali
alia
aliabad
alice
aligarh
align
alive
aljazeera
all
alla
allah
allahabad
allama
allan
alleged
allen
alliance
allied
allies
allowed
almanack
almost
along
alpha
alphabet
alphabetical
already
also
alternative
although
alumni
always
am
amar
amazon
ambassador
ambedkar
amended
amendment
america
american
americans
americas
amersfoort
amid
amin
amir
amitabh
amjad
ammad
amman
amnesty
among
amounts
amp
amsterdam
amy
an
ana
analysis
anand
ancient
and
anderson
andhra
andre
andrea
andrew
andrews
android
andy
angeles
anglo
ani
animal
animals
animated
animation
anita
ankara
ann
anna
anne
annie
anniversary
announce
announced
announcement
announces
annual
another
ans
ansari
anthem
anthology
anthony
anthropology
anti
antigua
antiquities
antiquity
antonio
anwar
any
ap
apex
api
app
appendix
apple
application
applied
appointed
appointments
appoints
approach
approves
apr
april
ar
ara
arab
arabia
arabian
arabic
arabs
archaeological
archaeology
archinform
architecture
archive
archived
archives
are
area
areas
arena
argentina
arif
arizona
arjun
ark
arkansas
armed
armenia
armenian
arms
armstrong
army
arnold
around
arrest
arrested
arrondissement
ars
art
arthur
article
articles
articleshow
artist
artists
arts
arun
ary
as
asad
asadabad
ash
ashes
ashland
ashley
ashok
ashraf
asia
asian
asiatic
asif
asin
ask
asked
aslam
asma
asp
aspects
aspx
assad
assam
assault
assembly
assessment
associated
association
astronomical
astronomy
at
athens
athletes
atlanta
atlantic
atlas
atomic
attack
attacked
attacks
attempt
attock
au
aubin
auburn
auckland
auction
audio
auf
aug
august
augusta
aur
aurora
aus
austin
australia
australian
austria
aut
auteur
auth
author
authorities
authority
authors
auto
autobiography
autonomous
aux
available
average
averages
aviation
award
awarded
awards
away
axis
ay
ayesha
ayodhya
az
azad
azam
azerbaijan
azhar
aziz
b
ba
baba
babar
babelio
babesdirectory
baby
bachchan
back
backed
background
bad
bag
bagh
baghdad
bags
baha
bahadur
bahawalpur
bahrain
baker
baku
bal
bala
balance
baldwin
bali
balkan
balkans
ball
balls
baloch
balochistan
baltimore
ban
banarsidass
band
bang
bangalore
bangkok
bangla
bangladesh
banglapedia
bank
banking
banks
banned
banner
bar
barbados
barbara
barcelona
baron
barry
bartleby
barton
bas
base
based
bash
bashir
basic
basin
basis
basu
bat
batangas
bateman
bath
batsman
batting
battle
battles
bay
bazar
bazmeurdu
bb
bbc
bc
bcci
bce
bd
be
beach
bear
beat
beautiful
beauty
beaver
became
because
becker
become
becomes
becoming
bedford
been
before
began
begin
beginning
begins
begum
behavior
behind
beijing
being
beirut
bel
belarus
belfast
belgium
believe
bell
ben
bengal
bengali
benjamin
bennett
benton
berkeley
berlin
bermuda
bernard
best
beta
better
betty
between
bevo
beweb
bey
beyond
bf
bg
bharat
bhatia
bhatt
bhl
bhopal
bhutan
bhutto
bi
bibcode
bible
biblical
bibliography
bid
big
biggest
bihar
bilal
bill
billion
billy
bin
bio
biographical
biographie
biographies
biography
biological
biology
bios
bir
bird
birds
birmingham
birth
birthday
bishop
bit
bjp
bl
black
blackwell
blair
blank
blast
block
blog
blogs
blogspot
blood
bloomberg
bloomfield
bloomsbury
blue
bmatrix
bn
bnf
bo
board
bob
bodies
body
boeing
bohol
bois
bolagh
bollywood
bomb
bombay
bombing
bond
bonnet
book
books
boone
boost
border
borders
born
borough
bose
bosnia
boss
boston
bosworth
bot
both
botswana
boundaries
boundary
bowler
bowling
box
boxofficemojo
boy
boyer
boys
bpl
br
bradford
brain
branch
brand
brandon
brasil
brazil
brazilian
break
breaking
breaks
brian
bridge
bridgetown
brief
brighton
brill
bring
brings
brisbane
bristol
britain
britannica
british
broadcasting
broadway
brockhaus
broken
bronze
brookes
brooklyn
brother
brothers
brought
brown
browse
bruce
brunswick
brussels
bryan
brzez
brzeziny
bu
buchanan
bucknell
buddha
buddhism
buddhist
budget
buena
buffalo
build
building
buildings
built
bukhari
bulawayo
bulgaria
bull
bulletin
bureau
burke
burkina
burlington
burma
burns
burton
bus
bush
business
but
butler
butt
by
byzantine
c
ca
cabinet
cairo
calcutta
caldwell
calendar
calhoun
california
caliphate
call
called
calls
cambridge
camden
came
cameron
camp
campaign
campbell
campus
can
canada
canadian
canal
canberra
cancer
candidate
candidates
cannabis
cannot
canterbury
canton
cap
cape
capita
capital
capitalism
caps
captain
captains
captured
car
carbon
card
care
career
carey
caribbean
carl
carlos
carlton
carnegie
carniola
carol
carolina
caroline
carroll
carter
cartoon
casa
case
cases
cash
cass
cast
caste
castillo
castle
castro
casualties
casualty
cat
catalana
catalog
catalogue
catedral
category
cathedral
catherine
catholic
caucasus
cause
causes
cb
cbc
cbs
cc
ccl
cd
cdot
cdots
ce
cedar
celebrate
celebrated
celebrates
celebration
celebrities
celebrity
cell
cells
celtic
cemetery
census
center
centered
centers
central
centre
centuries
century
ceo
ceremony
certain
cf
cgi
ch
cha
chad
chah
chain
chairman
chak
chakwal
challenge
challenges
chamber
champaign
champion
champions
championship
championships
chan
chance
chand
chandigarh
chandra
change
changed
changes
changing
channel
channels
chapelle
chapter
character
characteristics
characters
charente
charge
charges
charles
charlie
charlotte
chart
charter
charts
chartsbin
chase
chatterjee
chaudhry
che
chechen
chechnya
check
chemical
chemistry
chennai
cherokee
cheshmeh
chester
chi
chiba
chicago
chief
chiesacattolica
child
children
chile
china
chinese
chittagong
choice
chopra
chowdhury
chris
christ
christchurch
christian
christianity
christians
christine
christmas
christophe
christopher
chronicle
chronicles
chronology
chu
church
churches
ci
cia
cid
cinema
cinemagia
circassian
circle
citation
cite
cited
citeref
cities
citizen
citizens
citizenship
citta
citwf
city
citypopulation
ciudad
civil
civilian
civilians
civilization
claim
claimed
claims
clair
claire
clarendon
clark
clarke
clash
clashes
class
classes
classic
classical
classification
claude
clay
clayton
cle
clean
clear
cleric
cleveland
climate
clinical
clinton
clio
close
closed
cloud
club
cm
cms
cn
cnn
co
coach
coalition
coast
cobiss
code
codes
cohen
coke
col
cold
cole
colin
collapse
collected
collection
collections
college
colleges
collins
colombia
colombo
colonial
colony
color
colorado
columbia
columbus
column
com
combat
combined
come
comedy
comes
coming
command
commander
commentary
commerce
commercial
commission
commissioner
commissions
committee
common
commons
commonwealth
commune
communication
communications
communique
communist
communities
community
companies
companion
company
comparative
comparison
competition
complete
completed
complex
composition
compound
comprehensive
computer
computing
con
concept
concerning
concise
concord
conditions
conference
confidence
confirmed
confirms
conflict
conflicts
congo
congress
connecticut
connection
conor
conquest
consequences
conservation
considered
consolidated
constant
constantinople
constituency
constitution
constitutional
construction
contact
contemporary
content
contest
context
continue
continued
continues
continuum
contract
contracts
contribution
contributions
control
controlled
controversy
convention
conversation
conversion
cook
cooper
cooperation
copy
copyright
cornell
coronavirus
corporate
corporation
corps
correspondent
corruption
cos
cost
costa
could
council
councils
count
counter
counties
countries
country
county
coup
course
court
courts
cover
covid
cpl
cr
craig
crash
crawford
create
created
creation
creative
credit
creek
crescent
crew
cricbuzz
cricinfo
cricket
cricketarchive
cricketer
cricketers
crictracker
criczone
crime
crimean
crimes
criminal
crisis
critical
criticism
critics
croatia
croix
crooke
crore
cross
crown
crusade
cruz
crystal
cs
csa
csfd
ct
cu
cuba
cultural
culture
cultures
cumberland
cup
currency
current
curtis
customs
cut
cycle
cyprus
cyril
cz
czech
d
da
daily
dailypakistan
dakota
dale
dallas
dam
damascus
dan
dance
danger
daniel
danish
dans
dar
dark
darreh
darul
darwin
das
dasht
data
database
databases
date
dated
dates
datta
daughter
david
davidson
davies
daviess
davis
dawn
dawnnews
day
days
db
dbpedia
dc
de
dead
deadline
deadly
deal
dean
death
deaths
debate
debt
debut
dec
decade
decades
decatur
deccan
december
decision
declaration
declared
decline
decree
deep
default
defeat
defence
defense
defined
definition
degree
deh
dekalb
del
delaware
delhi
della
delle
delta
demand
democracy
democratic
demographic
demographics
den
denis
denmark
dennis
density
deoband
department
departments
depression
dept
depth
deputy
der
derek
des
desai
description
desert
design
designated
desk
despite
destroyed
destruction
det
detail
detailed
details
deutsche
deutschen
deutschland
dev
developed
developing
development
devi
dhabi
dhaka
dhawan
dhoni
di
dia
dialect
dialects
dialogue
diamond
diana
diary
diaspora
dickinson
dictionaries
dictionary
dictionnaire
did
didn
die
died
diego
dies
difference
different
digital
digitalarchivioricordi
dil
din
dinar
diplomacy
diplomat
diplomatic
direct
directed
director
directorate
directory
disaster
discogs
discovery
discussion
disease
diseases
disney
display
displaystyle
dispute
distribution
district
districts
diversity
divided
divine
division
divisional
divisions
divorce
dixon
dk
dlr
dna
do
doc
docs
doctor
document
documentary
documents
dodge
does
doew
dog
doi
doing
dokumentum
dollar
domain
dome
domestic
dominican
don
donald
done
dong
door
dos
dot
double
douglas
dover
down
download
dozens
dq
dr
draft
drama
dramas
draw
dream
dreams
dreyer
drive
driver
drone
drop
drug
drugs
du
dubai
dublin
due
duke
dunya
durban
durham
during
dutch
dutt
dw
dx
dynamics
dynasties
dynasty
dz
e
ea
each
eagle
earl
earlier
earliest
early
earn
earns
earth
earthquake
east
eastern
easy
eaton
eb
ebchecked
ebooks
ec
ecb
eci
economic
economics
economist
economy
ecp
ecs
ed
eden
edgar
edge
edinburgh
edited
edition
editions
editor
editorial
editors
edmund
edr
eds
edu
education
educational
edward
edwards
edwin
ee
eerdmans
effect
effective
effects
effort
efforts
eg
egypt
egyptian
ei
eid
eight
einstein
either
ek
el
elected
election
elections
electoral
electric
electricity
electronic
elements
elevation
elite
elizabeth
elk
ellen
elliott
ellis
em
embassy
emergence
emergency
emerging
emily
emirate
emirates
emma
emperor
empire
empires
employment
empty
en
enciclope
enciclopedia
enciklopedija
encyclopaedia
encyclopedia
encyclopædia
end
ended
endowment
ends
enemy
energy
eng
engine
engineering
england
english
enough
enter
enterprise
enters
entertainment
entire
entity
entry
environment
environmental
enzy
enzyklopa
eoi
eol
epic
episode
epsncricinfo
equal
equality
er
era
eric
erickson
eritrea
ernest
ernst
error
es
espan
especially
espn
espncricinfo
espncricnfo
essay
essays
essential
essex
est
established
establishment
estado
estate
estati
estimate
estimated
estimates
esto
estonia
et
etc
ethics
ethiopia
ethnic
ethnicity
ethnologue
etymology
eu
eugene
euler
euro
europa
europe
european
ev
evans
eve
even
evening
event
events
ever
every
everything
evidence
evolution
ex
example
excel
excellence
except
excerpt
exchange
excludes
exclusive
execution
executive
exhibition
exit
exodus
exp
expansion
expected
experience
expert
experts
explore
express
external
externalid
eye
eyes
f
fa
face
facebook
faces
fact
factbook
factfinder
facts
faculty
failed
failure
fair
fairfield
fairview
faisal
faisalabad
faith
fall
falls
false
fame
families
family
famine
famous
fan
fans
far
farah
farm
farooq
farzaneh
fashion
faso
fast
fastest
father
fatima
fayette
fc
fe
fear
feature
features
feb
february
fed
federal
federation
feed
feel
fellow
fellows
fem
female
fembio
feminism
feminist
ferdinand
fernando
fernsehserien
festival
festivals
few
ff
fi
fiction
fid
field
fielding
fields
fifa
fifth
fifty
fight
fighter
fighters
fighting
figure
figures
file
files
fillmore
film
filmaffinity
filmalkotasok
filmek
filmfare
filmportal
films
final
finally
finals
finance
financial
find
findagrave
finds
fine
finland
finnish
fire
first
firstpost
fischer
fish
fisher
fits
five
fixtures
flag
flags
fleet
flight
flood
florence
florida
floyd
fly
flying
fm
fo
focus
folk
folklore
follow
following
food
foot
football
for
forbes
force
forced
forces
ford
foreign
foreigners
forest
forests
forgotten
form
format
formation
formed
former
formerly
forms
formula
fort
forum
forward
foster
found
foundation
foundations
founded
founder
founding
four
fourth
fox
fr
frac
franc
france
frances
franchise
francis
francisco
frank
franklin
fraser
frau
frauendatenbank
fre
fred
frederick
free
freedom
freeman
fremont
french
fresh
friday
friedrich
friend
friendly
friends
friendship
from
front
frontier
frontline
fruit
ft
fu
fuel
full
fulton
func
function
fund
further
future
g
ga
gabriel
galaxy
gallery
game
games
gandhi
ganguly
gao
gap
garden
gardens
gardner
garfield
garonne
gary
gas
gate
gates
gateway
gavaskar
gave
gay
gayle
gaza
gazette
gazetteer
gb
gc
gdp
ge
gec
gemeinden
gemellaggi
gen
gender
gene
genealogie
genealogy
geneastar
general
generation
genesis
genetic
geneva
genocide
geo
geoffrey
geographic
geographical
geography
geological
geonames
georg
george
georges
georgetown
georgia
georgian
ger
gerald
gerhard
germain
german
germany
geschichte
get
gets
getting
getty
gf
ghana
ghazi
ghosh
ghulam
giant
gibson
gilbert
gill
gilles
girl
girls
gis
giuseppe
give
given
gives
glacier
glance
glasgow
glass
glenn
global
globalization
globe
glory
glossary
gloucestershire
gmina
gn
gnd
gnispq
gns
go
goa
goal
god
gods
goes
going
gol
gold
golden
good
google
gordon
gospel
got
gouv
gov
governance
government
governments
governor
governorate
governors
govt
gr
grace
graduate
graham
grammar
grammy
gran
granada
grand
grande
grant
grave
graves
gray
great
greater
greatest
greece
greek
green
greene
greenwood
greg
gregory
grid
gross
ground
grounds
group
groups
grove
growing
growth
gs
gu
guard
guardian
guatemala
guerra
guggenheim
guide
guides
guinea
gujarat
gul
gulf
gun
gupta
guru
guy
guyana
h
ha
haapala
haaretz
habib
had
hadith
haftar
hai
haider
haji
hajj
hajji
half
hall
halt
hamburg
hamid
hamilton
hampshire
hampton
hamza
han
hancock
hand
handbook
handed
hands
hanover
hans
hansard
haplogroup
happened
happy
haq
har
harare
harassment
harbor
hard
hardy
harmony
harold
harper
harpercollins
harris
harrison
harry
hart
hartford
harvard
harvey
harvnb
haryana
has
hasan
hassan
hastings
hat
hate
haute
have
haven
having
hawaii
hayat
hayes
hazrat
hbox
hd
he
head
heads
health
heart
heat
heavy
hebrew
heidelberg
heights
heinrich
held
helen
heliport
hell
help
helsinki
henderson
henri
henry
her
herald
herbert
here
heritage
hermann
hero
heroes
herzegovina
het
hezbollah
hi
hidden
hierarchy
high
higher
highest
highland
highlights
highly
highway
hijab
hilaire
hill
hills
him
himself
hind
hindi
hindu
hinduism
hindus
hindustan
hindustantimes
hip
his
histo
histoire
historia
historian
historians
historic
historical
histories
historiography
history
hit
hitler
hits
hk
hl
ho
hobart
hockey
hold
holds
holland
hollywood
holmes
holocaust
holt
holy
home
homepage
hong
honolulu
honor
honour
honours
hope
hopkins
horse
hospital
hossain
host
hosts
hot
hotel
houghton
hour
hours
house
household
houses
housing
houston
how
howard
however
hr
hrvatska
htm
html
http
https
hu
hudson
huge
hugh
hughes
hum
human
humanitarian
humanity
humsub
hundred
hundreds
hungama
hungarian
hungary
hunt
hunter
hurst
husain
husband
hussain
hussein
hyderabad
i
ian
ians
ibdb
ibge
ibid
ibn
ibrahim
ic
ica
icc
ice
icon
id
idaho
idea
ideas
identifiants
identifier
identity
ideology
ie
if
ignored
ii
iii
iiss
il
ill
illegal
illinois
illustrated
ils
im
image
images
imam
imdb
imf
img
immigration
impact
imperial
imperialism
implications
important
imran
imslp
in
ina
inaugural
inc
incident
incidents
include
included
includes
including
income
incorporated
incorporation
increase
increased
independence
independent
index
india
indiaglitz
indian
indiana
indianexpress
indians
indiatimes
indiatoday
indicators
indies
indigenous
individual
indo
indonesia
indonesian
indus
industrial
industries
industry
inflation
influence
influential
info
infobox
information
infty
inhabitants
inhabited
initiative
injured
injury
inner
innings
innovation
inquiry
ins
inside
insider
instagram
instead
institut
institute
institution
institutions
instituto
int
integrated
intellectual
intelligence
inter
interactive
interest
interfax
interior
internal
international
internationale
internationals
internet
internetarchivebot
interpretation
intervention
interview
interviews
into
introduction
invalid
invasion
investigation
investment
ioc
iowa
ipa
ipl
iqbal
ir
iran
iranian
iranica
iranicaonline
iraq
iraqi
iraquenewst
ireann
ireland
irfan
irish
iron
is
isabart
isbn
isfdb
isis
isla
islam
islamabad
islamic
islamist
island
islands
isle
isles
ismail
iso
israel
israeli
issn
issue
issued
issues
ist
istanbul
it
italia
italian
italy
item
itemid
itis
its
itself
iucn
iv
ivan
ix
j
ja
jack
jackson
jacob
jacques
jafarabad
jahan
jahanabad
jahangir
jail
jain
jakarta
jalal
jalalabad
jam
jamaica
jamal
james
jamestown
jamia
jamie
jamil
jammu
jan
jane
janet
jang
jano
january
japan
japanese
jason
jasper
java
javed
jay
jazeera
jb
je
jean
jeddah
jeff
jefferson
jeffrey
jenkins
jennifer
jennings
jeremy
jersey
jerusalem
jessica
jesus
jet
jewish
jews
jex
jha
jhang
jharkhand
ji
jihad
jim
jinnah
jn
jo
joan
job
jobs
joe
joel
johann
johannes
johannesburg
john
johns
johnson
join
joined
joins
joint
jon
jonathan
jones
jong
jonubi
jordan
jose
joseph
josh
joshi
joshua
journal
journalism
journalist
journey
joyce
jp
jpg
jr
js
jsp
jstor
ju
juan
judaism
judge
judith
jul
julia
julie
julien
julius
july
jumelage
jumelages
jun
junction
june
junior
just
justice
justin
k
ka
kabaddi
kabir
kabul
kadın
kala
kalam
kalan
kamal
kand
kandi
kane
kannada
kanpur
kansas
kapil
kapoor
karachi
karan
kardes
karen
karim
karl
karnataka
kashmir
kashmiri
katalogisering
kate
katherine
kaur
kazakhstan
kb
ke
keep
keith
kelly
ken
kennedy
kenneth
kent
kentucky
kenya
kepler
kerala
kerman
kevin
key
keynes
kha
khalid
khan
khawaja
khel
khomeini
khorasan
khyber
ki
kids
kiev
kill
killed
killing
kills
kim
kind
kindred
king
kingdom
kings
kingston
kiran
kitab
kle
km
knaw
knight
know
knowledge
known
knox
ko
koch
kohli
koi
kolkata
kong
korea
korean
kosovo
kot
kp
kr
krishna
ku
kuala
kumar
kurdish
kurdistan
kurds
kuwait
kuyavian
kyle
l
la
lab
label
labor
labour
lac
ladies
lady
lafayette
lahore
lak
lake
lakes
lakh
lal
lamb
lambda
lanao
lancashire
lancaster
land
lands
landscape
lane
lang
langle
language
languages
lanka
lankan
lara
large
largest
las
last
late
later
latest
latin
latvia
launch
launched
launches
laura
laureate
laureates
lauren
laurent
law
lawrence
laws
lccn
le
lead
leader
leaders
leadership
leading
leads
league
learn
learning
least
leave
leaves
leaving
lebanon
lecture
led
lee
leeds
left
legacy
legal
legend
legendary
legends
legislation
legislative
leicestershire
leiden
leksikon
length
lenin
leo
leon
leonard
leq
les
lesbian
leslie
less
lesser
lessons
let
letter
letters
level
lewis
lexington
lg
lgcd
lgpunjab
li
lib
liberal
liberation
liberty
libraries
library
libris
libya
libyan
license
lie
lies
life
lifestyle
lifetime
light
like
likely
lim
limited
lincoln
linda
lindsay
line
lines
linguistic
linguistics
link
links
lion
lions
lisa
list
listed
listing
lists
literacy
literary
literature
lithuania
little
littlefield
liu
live
livemint
liverpool
lives
living
livingston
lk
lkerung
ll
llc
ller
lloyd
ln
lo
loc
local
localities
located
location
log
logan
loire
lok
london
lone
lonely
long
longer
longman
look
looking
looks
lord
lore
los
lose
loss
losses
lost
lot
louis
louise
louisiana
love
low
lower
lowest
lpl
lt
ltd
ltr
lu
lublin
lucknow
lucy
luis
luke
lumpur
lux
lynch
lynching
lynn
lyon
lyrics
lzmk
m
ma
mac
macau
macedonia
machine
macmillan
mad
madagascar
madan
made
madelung
madhya
madison
madras
madrasa
madrid
mae
mag
magazine
magic
maha
mahal
maharashtra
mahatma
mahmood
mahmud
mai
maiden
mail
main
maine
major
majority
majumdar
make
makes
making
malala
malayalam
malaysia
malaysian
malcolm
male
mali
malik
malinga
malta
mammal
man
management
manager
manchester
mandal
manila
manual
manuel
manuscripts
many
manzoor
map
mapping
maps
mapserver
mar
marathi
marc
march
marcus
margaret
mari
maria
marie
marine
marion
maritime
mark
market
marketing
markets
marks
marne
marriage
married
mars
marsh
marshall
martha
marti
martial
martin
martyrs
marvel
marx
mary
maryland
marylebone
masjid
mason
masovian
mass
massachusetts
massacre
massive
master
masters
masurian
match
matches
material
materials
math
mathbb
mathbf
mathematics
matrix
matt
matter
matters
matthew
maulana
maurice
max
maxwell
may
maya
mayor
mazraeh
mb
mc
mcc
mcdonald
mcfarland
mcgraw
mclean
md
me
mean
meaning
means
mecca
medal
medals
media
medical
medicine
medieval
medina
mediterranean
medium
meet
meeting
mehmed
mehmet
mehta
mein
melbourne
member
members
membership
memoirs
memorial
memories
memory
men
menon
mental
mentioned
mer
mera
mercer
mere
meri
merriam
message
met
metacritic
meteorological
method
metro
metropolitan
mexico
mi
miami
mian
michael
michel
michelle
michigan
microsoft
mid
middle
middlesex
midway
mifflin
might
migration
miguel
mike
mil
milan
milano
miles
militant
militants
military
mill
millennium
miller
million
mills
milton
min
mind
minimum
mining
minister
ministers
ministry
minnesota
minor
minorities
minority
mint
minute
minutes
mir
mirror
mirza
miscellaneous
mishra
miss
missile
missing
mission
mississippi
missouri
mit
mitchell
ml
mm
mna
mo
mob
mobile
mod
mode
model
models
modern
modi
mohamed
mohammad
mohammed
mohan
mohsin
mojo
moldova
moment
monarchy
monde
monetary
money
mongol
mongolia
monitor
monroe
mont
montana
monte
montgomery
month
monthly
months
monuments
moon
moore
moral
more
morgan
morning
morocco
morris
morrison
moscow
moses
moshe
mosque
mosques
most
mosul
mother
motilal
motion
mount
mountain
mountains
move
movement
movements
moves
movie
movies
mozambique
mp
mpa
mps
mqm
mr
mrs
ms
msn
msw
mt
mtdna
mtv
mu
mubarak
much
mueang
mufti
mughal
muh
muhammad
mukherjee
multan
multi
multiple
mumbai
mumtaz
municipal
municipalities
municipality
munzinger
murad
muralitharan
murder
murphy
murray
musa
muse
museum
music
musical
musicbrainz
muslim
muslims
must
mustafa
mutation
muttiah
mw
mx
my
myanmar
mystery
myth
mzansi
n
na
nabi
nach
nacional
nadeem
nadia
nadu
nagar
nagpur
nam
name
named
names
namibia
nancy
napoleon
narayan
narendra
narowal
narrative
nasa
nasir
nasr
natal
nath
nathan
nation
national
nationale
nationalencyklopedin
nationalism
nationalist
nations
native
nato
natuknica
natural
nature
naval
navy
nawab
nawaiwaqt
nawaz
nazi
nb
nbc
ncbi
nd
ndtv
ne
near
nearly
nebraska
need
needs
negative
nehru
neighbourhood
neil
nelson
neo
nepal
nepali
net
netflix
netherlands
network
networks
nevada
never
new
newly
news
newspaper
newspapers
newton
next
ng
nga
nh
ni
nic
nica
nicholas
nick
nicolas
nicosia
nigel
nigeria
night
nights
nih
nikki
nin
nine
nineteenth
nj
nkp
nl
nlm
nm
nmhh
nndb
no
nobel
nobelprize
noble
node
nomination
nominations
nominees
non
noor
nor
nord
norman
norske
norte
north
northeast
northern
northwest
norton
norway
norwegian
nos
not
note
noted
notes
nothing
notice
notification
nottingham
nov
nova
novel
november
now
npr
ns
nsw
nu
nuclear
number
numbers
nur
nussbaum
ny
nyilvantartasa
nytimes
nz
o
oak
oakland
oath
obama
obituaries
obituary
object
objects
oblast
observatory
observer
occupation
occupied
ocean
och
oclc
oct
october
odi
odis
odisha
odnb
oecd
of
off
offensive
offers
office
officer
officers
offices
official
officially
officials
offshore
often
og
oh
ohio
oil
ois
ok
oklahoma
ol
ola
old
oldest
oliver
olya
olympic
olympics
om
oman
omar
omega
on
once
one
oneindia
onepage
online
only
ontario
op
opac
open
opening
opens
openstreetmap
operation
operations
opinion
opposition
or
oral
orange
order
ordered
orders
oregon
org
organisation
organization
organizations
orient
oriental
origin
original
originally
origins
orissa
ort
orthodox
os
osayn
oscar
osman
osmanlı
osprey
ost
otago
other
others
ottawa
otter
otto
ottoman
ouest
our
out
outbreak
outfields
outlook
output
outside
ov
oval
over
overall
overs
overseas
overview
owen
own
oxford
p
pa
pacific
padma
page
pages
pai
paid
pain
pair
pak
pakhtunkhwa
pakistan
pakistani
pakistanis
pakistanrail
pakistantoday
pal
palace
palestine
palestinian
palestinians
palgrave
palm
palmer
pamela
pan
panama
pandey
panel
pantheon
pap
papare
paper
paperback
papers
papua
par
para
paradise
parameter
parents
paris
parish
park
parker
parks
parliament
parliamentary
part
participle
parties
partition
partners
partnership
parts
party
pas
pasha
pass
passed
passenger
passes
past
pat
patel
path
patna
patriarch
patriarchate
patricia
patrick
patterns
paul
paulo
pay
payne
pays
paz
pbs
pc
pcb
pdf
pe
peace
peak
peakbagger
pearl
pearson
pedro
pen
penalty
penguin
peninsula
penn
pennsylvania
people
peoples
per
percent
perfect
performance
period
permanent
perry
persia
persian
person
persona
personal
persone
personnel
persons
perspective
perspectives
perth
peru
peshawar
peter
peters
petersburg
pew
pg
ph
phase
phd
phil
philadelphia
philip
philippine
philippines
phillips
philosophical
philosophy
phoenix
phone
photo
photos
php
phu
physical
physics
physiology
pi
pick
picked
pics
picture
pictures
pierce
pierre
pike
pilot
pin
pine
pioneer
pir
pittsburgh
pk
pkk
pl
place
places
plan
plane
planet
planning
plans
plant
plants
platform
play
played
player
players
playing
plays
plc
pleasant
plot
plus
plymouth
pm
pmc
pmid
pml
png
po
poblacio
poems
poet
poetry
poets
point
points
poland
police
policies
policy
polish
political
politician
politicpk
politics
polk
poll
polls
pomeranian
pont
pool
poor
pop
pope
popular
population
populations
por
port
portal
porter
portland
portrait
portugal
portuguese
pos
position
positive
possession
possible
post
postal
poster
posts
postsecondary
potential
potter
pound
pour
poverty
powell
power
powerful
powers
pp
ppp
pr
practical
practice
practices
pradesh
prairie
prakash
prakashan
prasad
prayer
pre
prefecture
prefix
preliminary
premier
presence
present
presentation
presented
presidency
president
presidential
presidents
press
presse
pressure
preston
prevention
preview
previous
price
prices
pride
priest
primary
prime
prince
princely
princess
princeton
principal
principles
print
printing
prison
prisoners
private
prize
prizes
pro
probably
probe
problem
problems
proceedings
process
produced
producer
product
production
products
prof
professional
professor
profile
profiles
program
programme
programming
programs
progress
progressive
project
projects
proleksis
prominent
pronunciation
proper
property
prophet
prospects
protect
protected
protection
protest
protesters
protests
protocol
proud
provided
providence
province
provinces
provincial
provisional
ps
psl
psychological
psychology
pt
pti
ptv
pu
pub
pubchem
publ
public
publication
publications
published
publisher
publishers
publishing
pubmed
puerto
pune
punishment
punjab
punjabi
pur
pura
puri
purposes
push
put
putin
putnam
puts
pvt
px
q
qa
qaeda
qaleh
qamar
qarah
qasim
qatar
qeshlaq
quaid
qualifier
qualifiers
quality
quantum
quarter
quarterly
quarters
que
quebec
queen
queens
queensland
query
quest
question
questions
quetta
quick
quits
quot
quote
quoted
qur
quran
qureshi
r
ra
race
rachel
radical
radio
rah
rahim
rahman
rahul
rai
rail
railway
railways
rain
raj
raja
rajasthan
rajya
ral
rally
ralph
ram
rama
rana
ranch
randolph
random
range
rangle
rani
ranji
rank
ranking
rankings
rao
rape
rare
ras
rashid
rate
rates
rather
rating
ratings
ration
ravi
raw
rawalpindi
ray
raymond
raza
rb
rd
re
reach
reaches
reaction
read
reader
reading
ready
real
reality
really
reason
reasons
rebecca
rebel
rebels
receive
received
receives
recent
recipients
recognition
recognized
reconstruction
record
recorded
recorder
records
red
reddy
rediff
reed
ref
refcelebrite
reference
references
refers
reform
refugee
refugees
regarding
regime
region
regional
regions
register
registrar
registration
regular
rehman
reich
reid
reign
rekhta
rekisteritilanne
related
relations
relationship
relationships
release
released
releaseinfo
releases
relief
religion
religions
religious
remain
remains
remembering
ren
renaissance
rene
renowned
rentiels
replaces
report
reported
reporter
reports
represent
representation
representative
reprint
reprinted
republic
republican
required
res
rescue
research
reserve
reserved
resident
residents
resigns
resistance
resolution
resource
resources
response
responsibility
rest
result
results
retirement
retires
retrieved
return
returned
returns
reuters
rev
reveal
revealed
reveals
revenue
review
reviews
revised
revision
revival
revolt
revolution
revolutionary
rez
reza
rhode
ri
ria
ric
rica
rice
rich
richard
richards
richardson
richest
richland
richmond
rick
rico
ridge
right
rights
ring
rio
riots
rise
rises
rising
risk
river
rivers
riverside
rivie
rizvi
rjestelma
rk
rkd
rkiye
ro
road
robert
roberts
robertson
robin
robinson
roche
rochester
rock
rocket
roger
rogers
roglo
rohit
role
roll
roma
roman
romance
romania
rome
ron
ronald
room
roosevelt
root
roots
rose
ross
rotten
rough
round
route
routledge
row
rowman
roy
royal
rs
rt
ru
ruby
rud
rugby
rukh
rule
ruled
rulers
rules
ruling
run
runs
rural
russell
russia
russian
russo
rutgers
ruth
rutherford
rwanda
ryan
s
sa
saba
sabah
sabha
sachin
sacred
sadar
sadat
sadia
saeed
safavid
safe
safety
saga
sage
sahib
sahitya
sai
said
saidabad
saint
sainte
saints
sakaog
salam
sale
saleem
salem
sales
salman
salt
salvador
sam
samaa
same
sami
samman
samson
samuel
san
sana
sanam
sang
sanjay
sanju
sanskrit
santa
santiago
santo
santosh
sao
sar
sara
sarah
sardar
sargodha
sarkar
saskatchewan
satellite
saturday
saud
saudi
sauveur
save
saw
say
says
sc
scale
scarecrow
schedule
scheme
scholar
scholars
school
schools
schuster
sci
science
sciences
scientific
scientist
scientists
score
scorecard
scored
scores
scotland
scott
scottish
screen
script
scripts
scroll
se
sea
seal
sean
seaplane
search
season
seat
seats
seattle
sec
second
secondary
secret
secretariat
secretary
secrets
section
sector
secular
secure
security
see
seek
seeks
seen
seine
select
selected
selection
self
semi
seminary
sen
senate
send
sengupta
senior
sense
sent
sep
separate
separator
seperator
sept
september
serbia
serbian
serial
series
service
services
session
set
seth
sets
settlement
settlements
seven
seventeenth
seventh
several
sex
sexual
sexuality
seyyed
sfn
sfnp
sha
shadow
shah
shaheed
shahid
shahr
shahrak
shaikh
shall
shane
shanghai
shankar
share
shared
shares
sharif
sharjah
sharma
sharon
sharqi
shaw
shaykh
she
sheet
sheffield
sheikh
shelby
shell
sher
sheridan
sherman
shetty
shi
shia
shield
ship
shirley
shoot
shooting
short
shot
should
show
showing
shows
shri
shtml
si
sialkot
siddiqui
side
sides
sidi
siege
sierra
sify
sig
sigma
sign
signal
signed
signs
sikh
sikhs
silence
silesian
silk
silva
silver
simon
simple
simpson
sin
since
sindh
sindhi
singapore
singer
singh
single
singular
sinha
sino
sir
sirajul
sister
sisters
site
sites
situation
six
sixteenth
sixth
size
sk
ski
sky
sl
slam
slams
slavery
slaves
slc
small
smallest
smith
snaccooperative
snl
so
soccer
social
socialist
societies
society
socio
sofla
software
solar
sold
soldier
soldiers
solomon
solution
somalia
some
somerset
something
son
song
songs
sonia
sons
soon
sophia
sophie
soul
sound
source
sources
sous
south
southeast
southern
southwest
sovereign
sovereignty
soviet
sp
space
spain
span
spanish
speak
speaker
speakers
speaking
speaks
special
species
speculative
speech
speed
spencer
spin
spirit
spiritual
split
spoken
sport
sports
sportskeeda
sportstar
spot
spotlight
spread
spring
springer
springfield
springs
sq
sqrt
squad
squads
square
sr
sri
ss
ssc
st
sta
stable
stadium
staff
stage
stalin
stanbul
stand
standard
standards
standing
stanford
stanley
star
starrer
starring
stars
start
started
starts
stat
state
stated
statement
states
station
stations
statistical
statistics
statistik
statistisches
stats
statsguru
status
stay
steel
stefan
step
stephen
steps
sterling
steve
steven
stevens
stewart
stica
still
stm
stock
stockholm
stone
stop
store
stories
storm
story
straits
strange
strategic
strategy
street
strength
strike
strikes
strong
structure
struggle
stuart
student
students
studies
studio
study
stuff
style
su
sub
subdistrict
subdivision
subject
subjectid
subjects
subregion
subst
success
successful
succession
such
sud
sudan
suffrage
sufi
sufism
sugar
suggested
suicide
sullivan
sultan
sultanate
sum
summary
summer
summit
sun
sunday
sunil
sunni
suny
super
supplement
supply
support
supreme
sur
suresh
surface
surprise
surrey
survey
survival
sus
susan
suspended
sussex
sustainable
sv
svensk
sveriges
swami
sweden
swedish
swift
swiss
switzerland
sword
sworn
sydney
syed
symbol
symbols
synchronkartei
syracuse
syria
syrian
system
systems
t
ta
tab
tabari
table
tables
tactical
tag
tahaffuz
tahir
tai
tail
taiwan
tajikistan
take
taken
takes
taking
tale
tales
taliban
talk
talks
tall
tallest
tamil
tan
tang
tank
tanzania
tappeh
target
targets
tarihi
tariq
tasmania
tauris
tax
taxonomic
taylor
tazeh
tcm
te
tea
teacher
teachers
teaching
team
teams
tech
technical
technologies
technology
ted
teen
tehran
tehsil
tek
tel
telangana
telegraph
television
tell
tells
telugu
temple
ten
tendulkar
tennessee
terjesztett
term
terms
territorial
territories
territory
terror
terrorism
terrorist
terrorists
terry
test
testament
tests
texas
text
texts
th
tha
thai
thailand
than
that
the
theater
theatre
theguardian
thehindu
their
them
themselves
then
thenews
theodore
theological
theology
theory
thepeerage
there
therefore
thesaurus
these
thesis
theta
they
thing
things
think
third
this
thomas
thompson
thomson
those
though
thought
thousand
thousands
threat
threatened
threats
three
throne
through
throughout
thus
ti
tibet
tibetan
tie
tienne
tier
ties
tietoja
tiger
till
tim
timatic
time
timeline
times
timesofindia
timothy
title
titles
tma
tnn
to
toba
tobago
today
todd
together
tokrzyskie
tokyo
told
toll
tolombeh
tom
tomatoes
tomb
tomorrow
ton
tony
too
took
toolforge
top
topic
topics
torino
toronto
toss
total
totals
tour
tourism
tourist
tournament
tours
toward
towards
tower
town
towns
township
tr
tra
track
trade
tradition
traditional
traditions
traffic
tragedy
trail
trailer
train
training
trains
trans
transaction
transfer
transformation
transgender
transition
translated
translation
translations
translator
transport
transportation
travel
travels
tre
treatment
treaty
tree
trends
trevor
tri
trial
triangular
tribal
tribe
tribes
tribune
tribute
trick
trinidad
triple
triumph
troops
trophy
tropical
troy
true
trump
trust
truth
tsn
tt
tu
tube
tucker
tum
tunisia
turkey
turkish
turkmenistan
turks
turn
turned
turner
turning
turns
tv
tvurce
twelve
twentieth
twenty
twin
twitter
two
tyler
type
u
ua
uae
uc
ucdcmultan
ucdcmuzaffargarh
ud
uefa
ufi
uganda
uk
ukraine
ukrainian
ul
ulama
ulanfulldisplay
ultimate
uluc
umar
umpire
umpires
un
una
uncapped
und
under
underground
understanding
une
unesco
unicef
unincorporated
union
unique
unit
united
units
unity
univ
universal
universe
universita
universities
university
unknown
unofficial
unsold
until
unveils
up
upazila
upcoming
update
updated
updates
uploads
upon
upper
ups
ur
urban
urdu
urdupoint
urges
url
uruguay
us
usa
usage
usayn
use
used
user
users
uses
usgs
using
usman
ussr
usually
ut
utah
utc
uttar
uz
uzbekistan
v
va
vaccine
vaglieri
val
valley
value
values
van
var
varanasi
variety
various
vat
vatican
vdots
ve
veccia
ved
vehicle
vehicles
venezuela
verde
verdict
verlag
verma
vermont
vernon
version
very
veteran
vi
via
viaf
vice
victim
victims
victor
victoria
victory
video
videos
vidya
vie
vienna
vietnam
view
views
vii
viii
vijay
villa
village
villages
ville
villes
vincent
violence
violent
viral
virat
virgin
virginia
virtual
virus
vision
visit
visits
vista
visual
vladimir
vogue
voice
voices
voivodeship
vol
volume
volumes
von
vote
votes
voting
vow
vs
w
wa
wade
wage
wala
wales
wali
walk
walker
wall
walsh
walt
walter
walton
wang
want
wanted
wants
war
ward
warfare
warmian
warne
warner
warren
warriors
wars
warsaw
was
washington
watch
water
waterfall
waterfalls
watson
waugh
wave
waves
way
wayne
ways
wbbl
wd
we
wealth
weapons
weather
web
weber
website
webster
wedding
week
weekend
weekly
weeks
welcome
welfare
well
wellington
wells
went
were
werner
west
western
westminster
westport
what
wheeler
when
where
whether
which
while
white
whitehouse
who
whole
whom
whose
why
wi
wicket
wickets
wide
wie
wife
wiki
wikidata
wikimedia
wikipedia
wild
wildlife
wiley
wilhelm
will
william
williams
williamson
wilson
win
wind
windows
windsor
wing
winner
winners
winning
wins
winter
wire
wisconsin
wisden
wise
with
within
without
wka
wodi
woman
women
won
wood
woodland
woods
word
wordpress
words
work
workers
working
works
world
worldcat
worldpopulationreview
worlds
worldwide
worst
worth
would
wounded
wp
wrestling
wright
writer
writers
writing
writings
written
wrong
wrote
wt
wtc
wu
wwe
www
wyoming
x
xa
xi
xii
xiii
xinhua
xinjiang
xiv
xix
xls
xlsx
xml
xv
xvi
xviii
xx
y
ya
yadav
yahoo
yale
yang
yasir
yasmin
ye
year
yearbook
years
yek
yellow
yemen
yeni
yes
yet
yi
york
yorkshire
you
young
youngest
your
yousuf
youth
youtube
yu
yugoslavia
yusefabad
yusuf
z
za
zafar
zago
zahra
zaman
ze
zealand
zee
zero
zia
zimbabwe
zindagi
zionism
zip
zone
zones
zu
zur
{
|
}
~
£
¥
§
©
ª
«
¬
­
®
¯
°
±
²
´
·
º
»
½
¿
×
÷
đ
đo
ı
ło
ŋ
ƒ
ɑ
ɔ
ə
ɛ
ɨ
ɪ
ɾ
ʃ
ʊ
ʰ
ʲ
ʹ
ʻ
ʼ
ʾ
ʿ
ˈ
ˌ
ː
ˠ
ˤ
̀
́
̂
̃
̄
̆
̇
̈
̉
̊
̋
̌
̓
̔
̛
̞
̣
̤
̥
̦
̧
̨
̩
̪
̮
̯
̱
̲
̸
͂
͡
α
β
γ
δ
δημων
ε
ενοριων
η
θ
ι
και
κοινοτητων
κυπρου
κωδικοι
λ
μ
ν
ο
π
ρ
ς
σ
στατιστικοι
της
φ
ω
ϕ
а
администрации
б
банк
большая
в
видатних
вои
времени
всероссии
вычислительныи
г
года
города
государственнои
д
декабря
е
жінок
з
за
и
интернет
информации
информационно
история
исчислении
к
л
м
мая
н
на
населе
населения
не
нных
о
оасу
об
объектов
онов
от
официальныи
п
перепись
по
побратимы
поиск
портал
почта
почтовои
правовои
президент
президента
про
пунктов
р
раи
ред
россии
рпо
рф
с
связи
сельских
ская
скии
скои
служба
собрание
советская
статистики
субъектам
т
территория
том
у
указ
украі
ф
федеральная
федерации
х
центр
число
энциклопедия
ю
я
і
інформаціі
ְ
ֱ
ֲ
ִ
ֵ
ֶ
ַ
ָ
ֹ
ֺ
ּ
ׁ
א
ב
ג
ד
ה
ו
ז
ח
י
ך
כ
ל
ם
מ
ן
נ
ס
ע
פ
צ
ק
ר
ש
ת
؀
؁
؂
،
؍
؎
ؐ
ؑ
ؒ
ؓ
ؔ
ؕ
؛
؟
ء
ءتک
ءسے
ءمیں
ءکو
ءکی
ءکے
ا
اء
اءه
اا
اب
ابا
ابان
ابتدا
ابتداء
ابتداي
ابجد
ابدال
ابدالی
ابدی
ابر
ابرا
ابرار
ابراھیم
ابراہم
ابراہیم
ابراہیمی
ابصار
ابلاغ
ابلیس
ابن
ابو
ابواب
ابوالحسن
ابوالعلاي
ابوالفضل
ابوالقاسم
ابوالکلام
ابوبکر
ابوجعفر
ابوحامد
ابوحنیفہ
ابوداو
ابوذر
ابوسعید
ابوسفیان
ابوطالب
ابوظہبی
ابوعبداللہ
ابوعبیدہ
ابومسلم
ابوموسی
ابوہریرہ
ابویوسف
ابڑو
ابھار
ابھر
ابھرا
ابھرتا
ابھرتی
ابھرتے
ابھرنے
ابھری
ابھرے
ابھی
ابہام
ابی
ابیب
اة
ات
اتاترک
اتار
اتارا
اتارنا
اتارنے
اتالیق
اتباع
اتحاد
اتحادی
اتحادیوں
اتر
اترا
اتراکھنڈ
اترتا
اترتے
اترنا
اترنے
اترپردیش
اتری
اترے
اتفاق
اتفاقا
اتفاقی
اتم
اتنا
اتنی
اتنے
اتوار
اتھارٹی
اتے
اث
اثاثوں
اثاثہ
اثاثے
اثبات
اثر
اثرات
اثرانداز
اثنا
اثناء
اثیر
اج
اجارہ
اجازت
اجازہ
اجالا
اجاگر
اجتماع
اجتماعات
اجتماعی
اجتناب
اجتہاد
اجداد
اجر
اجرا
اجراء
اجرام
اجرت
اجزا
اجزاء
اجزاي
اجسام
اجل
اجلاس
اجلاسوں
اجماع
اجمالی
اجمعین
اجمل
اجمیر
اجمیری
اجناس
اجنبی
اجیت
اجے
اح
احادیث
احاطہ
احاطے
احباب
احبار
احتجاج
احتجاجی
احترام
احتساب
احتشام
احتمال
احتیاط
احد
احرار
احرام
احزاب
احساس
احساسات
احسان
احسن
احمد
احمدی
احمدیہ
احمر
احمق
احناف
احنف
احوال
احکام
احکامات
احیا
احیاء
اخ
اخبار
اخبارات
اخباروں
اخباری
اختبار
اختتام
اختتامی
اختر
اختراع
اختراعات
اختصار
اختلاط
اختلاف
اختلافات
اختلافی
اختیار
اختیارات
اختیاری
اخذ
اخذکردہ
اخراج
اخراجات
اخلاص
اخلاق
اخلاقی
اخلاقیات
اخوان
اخوت
اخوند
اخیر
اد
ادا
اداء
ادارت
ادارتی
اداروں
ادارہ
ادارے
اداس
اداسی
اداي
اداکار
اداکارا
اداکاراو
اداکاراي
اداکاروں
اداکارہ
اداکاری
ادب
ادبا
ادبی
ادبیات
ادراک
ادرنہ
ادروی
ادرک
ادریس
ادنی
ادو
ادوار
ادویات
ادویہ
ادھار
ادھر
ادھم
ادھوری
ادیان
ادیب
ادیبوں
ادیبہ
ادے
اذ
اذا
اذان
اذکار
اذیت
ار
ارادت
ارادوں
ارادہ
ارادی
ارادے
اراضی
اراو
اراکین
ارب
ارباب
اربعہ
اربعین
اربن
اربوں
ارتداد
ارتریا
ارتعاش
ارتقا
ارتقاء
ارتقاي
ارتکاب
ارتکاز
ارتھ
ارجمند
ارجن
ارجنٹاي
ارد
اردبیل
اردشیر
اردن
اردنی
اردو
اردوي
اردگرد
ارسال
ارسطو
ارسلان
ارشاد
ارشادات
ارشد
ارض
ارضی
ارضیات
ارضیاتی
ارطغرل
ارغون
ارفع
ارقم
ارل
ارم
ارمان
ارمغان
ارمنی
ارمینی
ارنسٹ
ارواح
ارورا
ارون
اروناچل
اروند
ارکان
ارینا
اریٹیریا
ارے
از
ازالہ
ازاں
ازبک
ازبکستان
ازد
ازدواج
ازدواجی
ازدی
ازسر
ازسرنو
ازل
ازلی
ازم
ازمیر
ازواج
ازہر
ازہری
ازیں
اس
اساتذہ
اساس
اساسی
اساطیر
اساطیری
اسامہ
اسباب
اسباق
است
استاد
استاذ
استثنا
استثناء
استثناي
استثنی
استحالہ
استحصال
استحقاق
استحکام
استدلال
استراخان
استشهاد
استعارہ
استعداد
استعفا
استعفی
استعفے
استعمار
استعماری
استعمال
استعمالات
استغاثہ
استغفار
استفادہ
استفسار
استقامت
استقبال
استقبالیہ
استقلال
استنباط
استنبول
استوا
استوار
استواي
استور
استونیا
استیعاب
اسح
اسحاق
اسحق
اسد
اسدا
اسدالغابہ
اسدی
اسرار
اسراي
اسسٹنٹ
اسعد
اسفار
اسقاط
اسقف
اسلا
اسلاف
اسلام
اسلامک
اسلامی
اسلامیات
اسلامیہ
اسلحہ
اسلحے
اسلم
اسلوب
اسلوبی
اسم
اسما
اسماء
اسمارٹ
اسماعیل
اسماعیلی
اسماعیلیوں
اسماي
اسمبلی
اسمبلیوں
اسمتھ
اسمعیل
اسمگلنگ
اسناد
اسنے
اسود
اسوہ
اسٹار
اسٹارز
اسٹارک
اسٹاف
اسٹالن
اسٹالیکر
اسٹاي
اسٹاپ
اسٹاک
اسٹراي
اسٹروک
اسٹریٹ
اسٹریٹجک
اسٹمپ
اسٹمپنگ
اسٹور
اسٹورم
اسٹورٹ
اسٹوری
اسٹون
اسٹونیا
اسٹونین
اسٹوڈنٹ
اسٹوڈنٹس
اسٹوڈیو
اسٹوڈیوز
اسٹڈی
اسٹڈیز
اسٹیبلشمنٹ
اسٹیج
اسٹیشن
اسٹیشنوں
اسٹیفن
اسٹیل
اسٹین
اسٹینلے
اسٹینڈ
اسٹینڈرڈ
اسٹیو
اسٹیورٹ
اسٹیون
اسٹیٹ
اسٹیٹس
اسٹیڈیم
اسپانسر
اسپاي
اسپتال
اسپتالوں
اسپرنگ
اسپن
اسپنر
اسپنرز
اسپورٹ
اسپورٹس
اسپیس
اسپیشل
اسپیل
اسپین
اسپیڈ
اسپیکر
اسکا
اسکالر
اسکالرز
اسکالرشپ
اسکاو
اسکاي
اسکاٹ
اسکرپٹ
اسکرین
اسکندر
اسکندریہ
اسکواش
اسکواي
اسکواڈ
اسکواڈرن
اسکور
اسکورر
اسکورنگ
اسکول
اسکولز
اسکولوں
اسکولی
اسکی
اسکیل
اسکیم
اسکینڈل
اسکے
اسی
اسید
اسیر
اسیران
اسیری
اسے
اش
اشارات
اشاروں
اشارہ
اشاریہ
اشارے
اشاعت
اشاعتوں
اشاعتی
اشبیلیہ
اشتر
اشتراک
اشتراکی
اشتراکیت
اشتعال
اشتہار
اشتہارات
اشتہاری
اشتیاق
اشخاص
اشد
اشرافیہ
اشراق
اشرف
اشرفی
اشرفیہ
اشعار
اشعاع
اشعث
اشعری
اشفاق
اشون
اشوک
اشوکا
اشک
اشکال
اشکنازی
اشیا
اشیاء
اشیاي
اص
اصابہ
اصحاب
اصرار
اصطلاح
اصطلاحات
اصطلاحی
اصغر
اصفہان
اصفہانی
اصل
اصلا
اصلاح
اصلاحات
اصلاحی
اصلی
اصلیت
اصناف
اصول
اصولوں
اصولی
اض
اضافت
اضافہ
اضافی
اضافیت
اضافے
اضطراب
اضلاع
اط
اطاعت
اطالوی
اطالیہ
اطراف
اطفال
اطلاع
اطلاعات
اطلاق
اطلاقی
اطمینان
اطوار
اطہر
اظ
اظہار
اظہر
اع
اعادہ
اعانت
اعتبار
اعتدال
اعتراض
اعتراضات
اعتراف
اعتقاد
اعتقادات
اعتماد
اعتمادی
اعتکاف
اعثم
اعجاز
اعداد
اعدادوشمار
اعراب
اعزاز
اعزازات
اعزازی
اعشاریہ
اعصاب
اعصابی
اعضا
اعضاء
اعظم
اعظمی
اعل
اعلام
اعلامیہ
اعلامیے
اعلان
اعلانات
اعلم
اعلی
اعمال
اعمش
اعوان
اعیان
اغ
اغراض
اغوا
اف
افادیت
افتاء
افتتاح
افتتاحی
افتخار
افراتفری
افراد
افرادی
افراط
افروز
افریقا
افریقہ
افریقی
افریقیوں
افزا
افزاي
افسانوں
افسانوی
افسانہ
افسانے
افسر
افسران
افسردگی
افسردہ
افسروں
افسوس
افسوسناک
افشا
افشار
افضال
افضل
افطار
افعال
افغان
افغانستان
افغانوں
افغانی
افق
افقی
افلاس
افلاطون
افندی
افواج
افواہ
افواہوں
افواہیں
افکار
افیون
افیي
اق
اقارب
اقامت
اقبال
اقبالیات
اقتباس
اقتباسات
اقتدار
اقتصادی
اقتصادیات
اقدار
اقدام
اقدامات
اقدس
اقرار
اقساط
اقسام
اقصی
اقلیت
اقلیتوں
اقلیتی
اقلیم
اقوال
اقوام
اك
ال
الا
الاباما
الاثير
الاحکام
الاخبار
الاخلاق
الادب
الاربعین
الارشاد
الارض
الازہر
الاستیعاب
الاسد
الاسرار
الاسلام
الاسلامی
الاسلامیہ
الاسماء
الاسکا
الاشاعت
الاشراف
الاصابہ
الاصل
الاصول
الاضحی
الاعتدال
الاعتقاد
الاعراف
الاعظم
الاعلام
الاعلی
الاقوامی
الامام
الامت
الامثال
الامم
الامین
الانبیاء
الاندلس
الانساب
الانصاری
الانعام
الانوار
الاو
الاول
الاولی
الاولیاء
الاي
الایمان
الب
الباری
البانوی
البانی
البانیا
البانیہ
البتہ
البحر
البخاری
البدایہ
البر
البرتغالية
البرٹ
البرٹا
البرکات
البشر
البغدادی
البقرہ
البقرۃ
البقیع
البلاغہ
البلد
البلدان
البم
البیان
البیت
البیرونی
البیضاء
الت
التاريخ
التاریخ
التاي
التجا
التحصیل
التراث
التركية
الترمذی
التفسیر
التمش
التواریخ
التوحید
التہذیب
الثالث
الثاني
الثانی
الجامع
الجبار
الجبرا
الجزء
الجزاي
الجزیرہ
الجنان
الجھن
الجیریا
الح
الحاج
الحاد
الحارث
الحافظ
الحاق
الحال
الحان
الحج
الحجاج
الحجہ
الحديث
الحدیث
الحدید
الحرام
الحرمین
الحسن
الحسنی
الحسين
الحسین
الحسینی
الحفاظ
الحفیظ
الحق
الحقیقت
الحلیم
الحمد
الحمرا
الحمید
الحنبلی
الحنفیہ
الحي
الحکم
الحکومت
الحکیم
الحی
الخ
الخازن
الخالق
الخراج
الخط
الخطاب
الخلافہ
الخلفاء
الخلیل
الخوارزم
الخوارزمی
الخیر
الد
الدارین
الدر
الدمشقی
الدنیا
الدولہ
الدين
الدین
الذ
الذکر
الذہب
الذہبی
الر
الرازی
الراي
الرجال
الرحم
الرحمان
الرحمن
الرحمه
الرحمہ
الرحیم
الرد
الرزاق
الرسالہ
الرسول
الرشید
الرضا
الرقم
الرو
الروسية
الز
الزام
الزامات
الزاویہ
الزبتھ
الزبیر
الزمان
الزماں
الس
الستار
السلام
السلطنت
السنة
السنن
السنہ
السنۃ
السید
الش
الشارع
الشافعی
الشام
الشاملة
الشان
الشرق
الشریعہ
الشریف
الشعراء
الشمس
الشيخ
الشيعة
الشکور
الشہداء
الشیخ
الشیعہ
الص
الصادق
الصباح
الصحابة
الصحابہ
الصدر
الصغیر
الصفحة
الصلاۃ
الصلو
الصمد
الصوباي
الط
الطارق
الطاف
الطالب
الطاي
الطبري
الطبری
الطبعة
الطبقات
الظ
الظنون
الع
العابدین
العارفین
العاص
العالم
العالمین
العالی
العام
العباد
العباس
العبر
العرب
العربي
العربية
العربی
العربیہ
العرفان
العزت
العزيز
العزیز
العصر
العظمی
العظیم
العقیدہ
العلم
العلماء
العلمية
العلمیہ
العلوم
العلی
العمل
العنان
العنوان
العین
الغ
الغابہ
الغدیر
الغرض
الغفار
الغفور
الغنی
الغیب
الف
الفا
الفاظ
الفت
الفتاوی
الفتح
الفتوح
الفرج
الفردوس
الفرقان
الفرنسية
الفریڈ
الفضل
الفطر
الفطرت
الفقار
الفقہ
الفقیہ
الفكر
الفواي
الفہرست
القاب
القابات
القادر
القادری
القاسم
القاعدہ
القاي
القدر
القدس
القدیر
القرا
القران
القرشی
القرن
القصص
القضاۃ
القطان
القلوب
القمر
القمری
القول
القیس
القیوم
الكبرى
الكبير
الكتاب
الكتب
الكريم
الل
اللطیف
اللغات
الله
اللو
اللہ
الم
الما
المال
الماي
المبارک
المتوفى
المتوفی
المتوکل
المثل
المجید
المختار
المدارس
المدنی
المدینہ
المدینی
المذاہب
المرتضی
المرکبات
المساي
المسلمون
المسلمین
المسیح
المشاي
المصابیح
المصری
المصطف
المصطفی
المصنفین
المطلب
المظفر
المعارف
المعانی
المعتصم
المعجم
المعروف
المعظم
المغازی
المغرب
المفتوحة
المقاصد
المقال
المقدس
المكتبة
الملك
الملوک
الملک
المناقب
المناک
المنتصر
المنتظر
المنذر
المنصور
المهدي
المو
الموت
المومنین
المہدی
المیزان
المیہ
الن
الناس
الناشر
الناصر
النبلا
النبلاء
النبوۃ
النبي
النبی
النجوم
النسا
النساء
النسل
النعمان
النفس
النور
النہار
النہر
النہرین
الهولندية
الو
الواحد
الواقدی
الواقع
الوجود
الوحید
الوداع
الور
الوری
الوسيط
الوصول
الوطنی
الوفا
الوقت
الولید
الوہاب
الوہیت
الٹ
الٹا
الٹنے
الٹی
الپ
الکا
الکافی
الکامل
الکاہل
الکبری
الکبیر
الکتاب
الکتب
الکرام
الکریم
الکلام
الکمال
الکندی
الکوفی
الگ
الہ
الہادی
الہاشمی
الہام
الہامی
الہدی
الہند
الہی
الہیات
الی
الیاس
الیدین
الینواي
الیون
الیکزینڈر
الیکس
الیکشن
الیکٹران
الیکٹرانک
الیکٹرانکس
الیکٹرون
الیکٹرک
الیکٹریکل
الیگزنڈر
الیگزینڈر
الیگزینڈریا
الیہ
الے
ام
اما
امارات
امارت
امام
امامت
اماموں
امامہ
امامیہ
امان
امانت
اماں
امب
امبر
امبیڈکر
امبیکاپور
امت
امتحان
امتحانات
امتزاج
امتیاز
امتیازات
امتیازی
امجد
امداد
امدادی
امر
امرا
امراء
امراض
امراو
امرت
امرتا
امرتسر
امرتسری
امرناتھ
امروز
امروہوی
امروہہ
امروہی
امریکا
امریکن
امریکہ
امریکی
امریکیوں
امل
املا
املاک
امن
امنی
اموات
امواج
امور
اموی
امویوں
امویہ
امپاي
امپھو
امپیریل
امکان
امکانات
امکانی
امہات
امی
امیت
امیتابھ
امید
امیدوار
امیدواروں
امیدوں
امیر
امیرالمو
امیرالمومنین
امیروں
امین
امینی
امیگریشن
امیہ
ان
انا
اناج
اناجیل
انار
انارکلی
اناسی
اناطولیہ
انانوے
انانکارپوریٹڈ
اناو
انبار
انبالہ
انبوہ
انبیا
انبیاء
انت
انتالیس
انتباہ
انتخاب
انتخابات
انتخابی
انتداب
انتساب
انتشار
انتشارات
انتظار
انتظام
انتظامات
انتظامی
انتظامیہ
انتقال
انتقام
انتقامی
انتونیو
انتھونی
انتھک
انتہا
انتہاي
انتیس
انجام
انجری
انجم
انجمن
انجمنوں
انجن
انجنوں
انجنیي
انجیر
انجیل
انجیني
انحراف
انحصار
انحطاط
انخلا
انخلاء
اند
انداز
اندازوں
اندازہ
اندازی
اندازے
اندام
اندر
اندرا
اندراج
اندراجات
اندرون
اندرونی
اندلس
اندلسی
اندور
اندوز
اندھا
اندھی
اندھیرا
اندھیرے
اندھے
اندیشہ
انرجی
انس
انسا
انساب
انسان
انسانوں
انسانی
انسانیت
انساي
انسداد
انسولین
انسٹا
انسٹاگرام
انسٹرکٹر
انسٹھ
انسٹی
انسٹیٹیوٹ
انسپکٹر
انشا
انشاء
انشاي
انشورنس
انصار
انصاری
انصاف
انضمام
انطاکیہ
انعام
انعامات
انعقاد
انفارمیشن
انفرادی
انفرادیت
انفراسٹرکچر
انفنٹری
انفو
انفیکشن
انقرہ
انقلاب
انقلابات
انقلابی
انقلابیوں
انمول
انناس
اننت
اننگ
اننگز
انو
انوار
انواع
انور
انوشکا
انوکھا
انوکھی
انوکی
انٹارکٹیکا
انٹاریو
انٹر
انٹرفیس
انٹرمیڈیٹ
انٹرنیشنل
انٹرنیٹ
انٹرویو
انٹرویوز
انٹرٹینمنٹ
انٹرپراي
انٹرکانٹینینٹل
انٹریکٹیو
انٹلیجنس
انٹیلی
انٹیلیجنس
انچ
انچارج
انچاس
انچیف
انچیون
انڈا
انڈر
انڈرگراو
انڈرگریجویٹ
انڈس
انڈسٹری
انڈسٹریز
انڈسٹریل
انڈمان
انڈو
انڈور
انڈورا
انڈونیشی
انڈونیشیا
انڈونیشیاي
انڈوں
انڈیا
انڈیانا
انڈیز
انڈین
انڈینز
انڈیپینڈینس
انڈیکس
انڈے
انک
انکا
انکار
انکارپوریشن
انکشاف
انکشافات
انکل
انکم
انکو
انکواي
انکی
انکے
انگ
انگریز
انگریزوں
انگریزی
انگلستان
انگلش
انگلی
انگلیاں
انگلیسی
انگلینڈ
انگلیوں
انگور
انگوش
انگولا
انگولہ
انگوٹھی
انگوٹھے
انگیز
انگیزی
انھوں
انھی
انھیں
انہ
انہتر
انہدام
انہو
انہوں
انہی
انہیں
انی
انیتا
انیس
انیسویں
انیل
انیمیشن
انے
اه
اهل
او
اواخر
اواي
اوباما
اوبراي
اوبلاست
اوت
اوتار
اوج
اوجھل
اودھ
اودے
اور
اورا
اورابن
اوراس
اوراسی
اوراق
اورال
اوران
اوراپنے
اورایک
اورحضرت
اورفرمایا
اورلینز
اورن
اورنج
اورنگ
اورنگزیب
اورنہ
اوروہ
اورپھر
اورکزي
اورکہا
اورینٹل
اوریگون
اوریہ
اوز
اوزار
اوزاروں
اوزاعی
اوزان
اوزون
اوس
اوساکا
اوستا
اوسط
اوسطا
اوسلو
اوسیتیا
اوشا
اوصاف
اوغلو
اوقات
اوقاف
اوقیانوس
اوقیانوسیہ
اول
اولا
اولاد
اولادوں
اولادیں
اولمپک
اولمپکس
اولڈ
اولی
اولیا
اولیاء
اولیاي
اولین
اولیور
اوم
اوموری
اون
اونس
اونٹ
اونٹاریو
اونٹنی
اونٹوں
اونچا
اونچاي
اونچی
اونچے
اونی
اوهایو
اوو
اوور
اوورز
اوورسیز
اوول
اوون
اوي
اوٹ
اوٹاوا
اوٹاگو
اوٹر
اوٹو
اوپر
اوپری
اوپن
اوپنر
اوپننگ
اوپیرا
اوچ
اوڈیشا
اوک
اوکاڑوی
اوکاڑہ
اوکسفرڈ
اوکلاہوما
اوکلینڈ
اوہ
اوہاي
اویس
اویسی
اویغور
اویلر
اي
ايس
ايك
ايم
ايک
اٹ
اٹارنی
اٹل
اٹلانٹا
اٹلانٹک
اٹلس
اٹلی
اٹک
اٹھ
اٹھا
اٹھاتا
اٹھاتے
اٹھارویں
اٹھارہ
اٹھارہویں
اٹھاسی
اٹھانا
اٹھانوے
اٹھانے
اٹھاون
اٹھاي
اٹھایا
اٹھتا
اٹھتر
اٹھتے
اٹھنا
اٹھنے
اٹھی
اٹھے
اٹیک
اپ
اپارٹمنٹ
اپالو
اپر
اپریل
اپلاي
اپلوڈ
اپنا
اپناتے
اپنانا
اپنانے
اپناي
اپنایا
اپنی
اپنے
اپوزیشن
اپون
اپیل
اچ
اچار
اچاریہ
اچانک
اچکزي
اچھا
اچھاي
اچھوت
اچھی
اچھے
اچیومنٹ
اڈا
اڈوں
اڈي
اڈہ
اڈیشا
اڈیہ
اڈے
اڑ
اڑا
اڑان
اڑانے
اڑایا
اڑتالیس
اڑتیس
اڑسٹھ
اڑنے
اڑھاي
اڑیسہ
اژدہا
اک
اکا
اکابر
اکابرین
اکادمی
اکانومی
اکاو
اکاون
اکاي
اکبر
اکبرا
اکبری
اکتالیس
اکتساب
اکتفا
اکتوبر
اکتیس
اکثر
اکثریت
اکثریتی
اکرام
اکرم
اکسایا
اکسٹھ
اکسید
اکشے
اکلوتی
اکلوتے
اکمل
اکنامک
اکنامکس
اکٹھا
اکٹھی
اکٹھے
اکھاڑ
اکھڑ
اکہتر
اکیاسی
اکیانوے
اکیتین
اکیس
اکیسویں
اکیلا
اکیلی
اکیلے
اکیڈمک
اکیڈمی
اکیڈیمی
اگاي
اگر
اگروال
اگرچہ
اگست
اگستیہ
اگلا
اگلی
اگلے
اگنی
اگے
اں
اھل
اہ
اہتمام
اہداف
اہرام
اہل
اہلبیت
اہلسنت
اہلکار
اہلکاروں
اہلیا
اہلیت
اہلیہ
اہم
اہمیت
اہمیتا
اہواز
ای
ایا
ایاز
ایاس
ایالت
ایام
ایان
ایبل
ایبٹ
ایبک
ایبی
ایتھلیٹ
ایتھلیٹک
ایتھلیٹکس
ایتھنز
ایتھنول
ایتھنولوگ
ایتھوپیا
ایثار
ایج
ایجاد
ایجادات
ایجبسٹن
ایجنسی
ایجنسیوں
ایجنٹ
ایجنٹوں
ایجنڈے
ایجوکیشن
ایجوکیشنل
ایجیي
ایدھی
ایذا
ایر
ایران
ایرانی
ایرانیوں
ایرانیکا
ایرج
ایرو
ایروکواے
ایرک
ایری
ایریا
ایریزونا
ایس
ایسا
ایسوسی
ایسٹ
ایسٹر
ایسٹرن
ایسٹل
ایسٹونیا
ایسڈ
ایسی
ایسیکس
ایسے
ایش
ایشا
ایشان
ایشز
ایشلنڈ
ایشلے
ایشن
ایشور
ایشوریا
ایشیا
ایشیاء
ایشیاي
ایشیاکی
ایشین
ایضا
ایغور
ایف
ایل
ایلزبتھ
ایلس
ایلسورتھ
ایلن
ایلنگ
ایلومینیم
ایلون
ایلچی
ایلک
ایلکس
ایلی
ایلیا
ایلیسن
ایلیٹ
ایم
ایما
ایمان
ایمانداری
ایمانی
ایمبولینس
ایمرجنسی
ایمرجنگ
ایمسٹرڈیم
ایملی
ایمن
ایمنسٹی
ایمپاي
ایمی
ایمیزون
ایمیٹ
این
اینا
اینجلس
ایندھن
اینٹ
اینٹوں
اینٹی
اینٹینٹ
اینٹیگوا
اینٹیں
اینڈ
اینڈراي
اینڈرسن
اینڈروي
اینڈریو
اینڈریوز
اینڈی
اینکر
اینگلز
اینگلو
اینی
اینیمیٹڈ
ایو
ایوا
ایوارڈ
ایوارڈز
ایوان
ایوانوں
ایوب
ایوبی
ایودھیا
ایورسٹ
ایون
ایونز
ایونٹ
ایونٹس
ایونیو
ایوی
ایي
ایٹ
ایٹرز
ایٹم
ایٹموں
ایٹمی
ایٹن
ایٹیینے
ایپ
ایپل
ایپلی
ایپی
ایچ
ایچی
ایچیسن
ایڈ
ایڈا
ایڈاہو
ایڈجسٹ
ایڈرین
ایڈز
ایڈسن
ایڈم
ایڈمرل
ایڈمز
ایڈمنسٹریشن
ایڈمنسٹریٹر
ایڈمنٹن
ایڈمنڈ
ایڈن
ایڈنبرا
ایڈوانس
ایڈوانسڈ
ایڈواي
ایڈوبی
ایڈورڈ
ایڈورڈز
ایڈولف
ایڈون
ایڈونچر
ایڈووکیٹ
ایڈگر
ایڈی
ایڈیشن
ایڈیشنل
ایڈیلیڈ
ایڈیٹر
ایک
ایکس
ایکسپریس
ایکسپلورر
ایکسپورٹ
ایکسچینج
ایکشن
ایکواڈور
ایکٹ
ایکٹر
ایکٹن
ایکڑ
ایگزیکٹو
ایگل
ایگلز
ایں
ایہہ
اے
ب
با
باء
باا
بااثر
بااختیار
باب
بابا
باباي
بابت
بابر
بابری
بابل
بابلی
بابو
بابک
بابی
بات
باتوں
باتھ
باتیں
باجوڑ
باجوہ
باجی
باخبر
باختر
باد
بادام
بادشاہ
بادشاہت
بادشاہوں
بادشاہی
بادل
بادلوں
بادکاری
بادی
بادیات
بادیاتی
بادیاں
بادیوں
بار
بارات
بارانی
بارباڈوس
باربر
باربرا
باربوڈا
بارسلونا
بارش
بارشوں
بارشیں
بارنس
بارنیٹ
بارود
بارودی
بارٹن
بارڈر
بارک
بارگاہ
بارہ
بارہا
بارہواں
بارہویں
باری
باریسال
باریک
بارے
باز
بازار
بازاروں
بازاری
بازبینی
بازدید
بازنطینی
بازنطینیوں
بازو
بازوو
بازوں
بازگشت
بازی
بازیابی
بازیافت
باس
باسفورس
باسل
باسلام
باسو
باسٹھ
باسکٹ
باسکی
باسی
باسیوں
باش
باشعور
باشندوں
باشندہ
باشندے
باشکیر
باشی
باصلاحیت
باضابطہ
باطل
باطن
باطنی
باعث
باعزت
باغ
باغات
باغستان
باغی
باغیوں
باقاعدگی
باقاعدہ
باقر
باقی
باقیات
بال
بالا
بالاتر
بالاجی
بالاخر
بالادستی
بالاي
بالاکوٹ
بالترتیب
بالخصوص
بالر
بالشویک
بالشویکوں
بالعموم
بالغ
بالغوں
باللہ
بالمعروف
بالمقابل
بالواسطہ
بالوں
بالٹک
بالٹیمور
بالڈون
بالکل
بالی
بام
بامر
بامیان
بان
باندھ
باندھا
باندھنا
باندھنے
باندھے
باندی
بانس
بانو
بانٹ
بانڈ
بانگ
بانی
بانیوں
باو
باوا
باوجود
باور
باورچی
باوقار
باولنگ
باون
باي
باپ
باڈی
باڑ
باڑہ
باڑی
باک
باکس
باکسر
باکسنگ
باکمال
باکو
باگ
باہر
باہم
باہمی
باہو
باہوبلی
بایاں
بایزید
بایگانی
ببر
بت
بتا
بتاتا
بتاتی
بتاتے
بتاریخ
بتانا
بتانے
بتاو
بتاي
بتایا
بتدریج
بتوں
بتیس
بج
بجا
بجاتے
بجار
بجانا
بجانے
بجاي
بجز
بجلی
بجنور
بجنوری
بجٹ
بجھانے
بجے
بحاجة
بحار
بحارالانوار
بحال
بحالی
بحث
بحر
بحرالکاہل
بحران
بحرانی
بحری
بحرین
بحرینی
بحریہ
بحق
بحوالہ
بحیثیت
بحیرہ
بخار
بخارا
بخارات
بخارسٹ
بخاری
بخت
بختیار
بختیاری
بخش
بخشا
بخشش
بخشنے
بخشی
بخوبی
بخود
بد
بدامنی
بداي
بدایونی
بدایوں
بدتر
بدترین
بدخشاں
بدر
بدرالدین
بدرجہ
بدری
بدستور
بدسلوکی
بدعات
بدعت
بدعنوان
بدعنوانی
بدقسمت
بدقسمتی
بدل
بدلا
بدلتا
بدلتی
بدلتے
بدلنا
بدلنے
بدلہ
بدلی
بدلیں
بدلے
بدمعاش
بدن
بدنام
بدنامی
بدو
بدوز
بدوش
بدوشوں
بدولت
بدوی
بدھ
بدھا
بدی
بدیع
بدین
بذات
بذریعہ
بر
برا
براء
برابر
برابری
برادر
برادران
برادرز
برادری
برادریوں
برار
برازیل
برازیلی
براستہ
براعظم
براعظموں
برانچ
برانڈ
برانڈز
براهيم
براو
براوو
براي
براڈ
براڈکاسٹر
براڈکاسٹنگ
براہ
براہمن
براہوي
برای
برباد
بربادی
بربر
بربریت
برتاو
برتر
برتری
برتن
برتنوں
برج
برجستہ
برجیس
برحق
برخاست
برخلاف
برد
بردار
برداری
برداشت
بردہ
بررسی
برزے
برس
برسا
برسات
برسبین
برسر
برسلز
برسوں
برسٹل
برسی
برش
برصغیر
برطانوی
برطانویوں
برطانیہ
برطرف
برطرفی
برعکس
برف
برفانی
برق
برقرار
برقع
برقناطیسی
برقی
برقیہ
برلاس
برلن
برلنگٹن
برما
برمن
برمنگھم
برمودا
برمی
برن
برنارڈ
برنزوک
برنسوک
برنولی
برنی
برو
بروجردی
بروز
بروس
بروقت
بروناي
برونڈی
بروي
بروڈوے
بروک
بروکس
بروکلین
بروہی
برينز
برٹ
برٹانیکا
برٹش
برٹن
برپا
برڈ
برک
برکات
برکاتی
برکت
برکشاي
برکلے
برکی
برکینا
برگ
برگر
برگزیدہ
برگنڈی
برہان
برہم
برہما
برہمن
برہمنوں
برہمو
برہنہ
بری
بریانی
بریدہ
بریری
بریریبزم
بریریوں
بریسٹ
بریطانیکا
بریلوی
بریلی
برین
برینز
برینٹ
برینڈن
بریٹ
بریٹانیکا
بریٹن
بریڈ
بریڈفورڈ
بریڈمین
بریک
بریگیڈ
بریگیڈیي
برے
بز
بزبان
بزدار
بزرویٹری
بزرگ
بزرگان
بزرگوار
بزرگوں
بزرگی
بزم
بزنس
بس
بسا
بساط
بساو
بسایا
بست
بستر
بستری
بستہ
بستی
بستیاں
بستیوں
بستے
بسر
بسم
بسمارک
بسمل
بسنت
بسنے
بسوں
بسٹر
بسی
بسیں
بسے
بش
بشار
بشارت
بشانہ
بشر
بشرطیکہ
بشری
بشریات
بشمول
بشپ
بشیر
بصارت
بصرہ
بصری
بصورت
بصیر
بصیرت
بطخ
بطریق
بطلیموس
بطن
بطور
بطوطہ
بظاہر
بعث
بعثت
بعد
بعدازاں
بعض
بعل
بعمر
بعنوان
بعید
بعینہ
بغاوت
بغاوتوں
بغاوتیں
بغداد
بغدادی
بغض
بغل
بغور
بغیر
بفیلو
بقا
بقاء
بقاي
بقایا
بقدر
بقرہ
بقلم
بقول
بقید
بقیہ
بكر
بل
بلا
بلاد
بلاذری
بلاسٹ
بلاشبہ
بلاغت
بلال
بلانے
بلاول
بلاي
بلاک
بلاکس
بلاگ
بلایا
بلبل
بلتستان
بلتی
بلجي
بلحاظ
بلخ
بلخی
بلد
بلدیات
بلدیاتی
بلدیہ
بلغاری
بلغاریاي
بلغاریہ
بلغراد
بلقان
بلقیس
بلند
بلندی
بلندیوں
بلو
بلوا
بلوایا
بلور
بلوغ
بلوغت
بلوم
بلوچ
بلوچستان
بلوچوں
بلوچی
بلچ
بلڈ
بلڈنگ
بلکہ
بلگرامی
بلی
بلیغ
بلین
بلیو
بلیوز
بلیوں
بلیي
بلیک
بلے
بم
بمبار
بمباری
بمبي
بمشکل
بمطابق
بمعنی
بمقابلہ
بمقام
بموں
بن
بنا
بناء
بنات
بناتا
بناتی
بناتے
بنادیا
بنارس
بنارسی
بنالیا
بنام
بنانا
بنانے
بناو
بناوٹ
بناي
بناکر
بنایا
بنت
بنتا
بنتی
بنتے
بنجر
بند
بندر
بندرگاہ
بندرگاہوں
بندش
بندوبست
بندوق
بندوقوں
بندوقیں
بندوں
بندگی
بندھ
بندھا
بندھن
بندھے
بندہ
بندی
بندیوں
بندے
بنرجی
بنسی
بنفشی
بننا
بننے
بنو
بنواي
بنوایا
بنوری
بنوں
بني
بنک
بنکاک
بنگ
بنگال
بنگالی
بنگش
بنگلا
بنگلادیش
بنگلور
بنگلہ
بنگلے
بنی
بنیا
بنیاد
بنیادوں
بنیادی
بنیادیں
بنیامین
بنیں
بنے
به
بهرامیان
بهی
بو
بوا
بواي
بوبی
بوتل
بوتھ
بوتھم
بوجھ
بوجہ
بود
بودھ
بور
بورس
بورصہ
بورن
بورنیو
بورو
بورڈ
بورڈز
بورڈنگ
بورک
بوری
بورین
بورے
بوس
بوستان
بوسنیا
بوسنیاي
بوسٹن
بوسہ
بوسیدہ
بوشہر
بوقت
بول
بولا
بولان
بولتا
بولتی
بولتے
بولر
بولرز
بولنا
بولنگ
بولنے
بولو
بولٹ
بولٹن
بولڈ
بولی
بولیاں
بولیور
بولیوں
بولیویا
بولیں
بولے
بوم
بون
بونا
بوناپارٹ
بونڈ
بونی
بونیر
بونے
بوي
بوٹ
بوٹسوانا
بوٹی
بوٹیوں
بوڑھا
بوڑھوں
بوڑھی
بوڑھے
بوک
بوہرہ
بوہول
بوہیمیا
بویراحمد
بویہ
بي
بيروت
بين
بٹ
بٹالہ
بٹالین
بٹر
بٹلر
بٹن
بٹگرام
بٹھا
بٹھایا
بٹی
بپاشی
بپتسمہ
بچ
بچا
بچاتا
بچانا
بچانے
بچاو
بچاي
بچایا
بچت
بچن
بچنا
بچنے
بچو
بچوں
بچپن
بچھا
بچھاي
بچھڑے
بچہ
بچی
بچیوں
بچے
بڑ
بڑا
بڑاي
بڑودہ
بڑوں
بڑھ
بڑھا
بڑھاتے
بڑھانا
بڑھانے
بڑھاوا
بڑھاي
بڑھاپے
بڑھایا
بڑھتا
بڑھتی
بڑھتے
بڑھنا
بڑھنے
بڑھی
بڑھیں
بڑھے
بڑی
بڑے
بک
بکا
بکتر
بکثرت
بکر
بکری
بکریاں
بکریوں
بکرے
بکس
بکنگھم
بکھر
بکھری
بکھرے
بگ
بگاڑ
بگلا
بگٹی
بگڑ
بھ
بھا
بھارت
بھارتی
بھارتیہ
بھاری
بھاسکر
بھاشا
بھال
بھانجی
بھانجے
بھاو
بھاي
بھاپ
بھاگ
بھاگا
بھاگتے
بھاگنا
بھاگنے
بھاگے
بھتیجا
بھتیجے
بھجن
بھجوا
بھجوایا
بھر
بھرا
بھرت
بھرتی
بھرنا
بھرنے
بھروسا
بھروسہ
بھرپور
بھری
بھرے
بھلا
بھلاي
بھلے
بھوت
بھوج
بھوجپوری
بھورا
بھوری
بھورے
بھوسلے
بھوشن
بھول
بھولا
بھولے
بھومی
بھون
بھوٹان
بھوپال
بھوپالی
بھوک
بھوکے
بھٹ
بھٹاي
بھٹو
بھٹہ
بھٹی
بھٹیاں
بھڑک
بھکتی
بھکر
بھگ
بھگا
بھگت
بھگوان
بھی
بھیانک
بھیج
بھیجا
بھیجتا
بھیجتے
بھیجنا
بھیجنے
بھیجی
بھیجیں
بھیجے
بھیرہ
بھیس
بھیم
بھینس
بھیڑ
بھیڑوں
بھیڑیا
بھیک
بہ
بہا
بہاء
بہادر
بہادری
بہار
بہاری
بہاماس
بہانہ
بہانے
بہاو
بہاول
بہاولنگر
بہاولپور
بہاي
بہبود
بہت
بہتا
بہتات
بہتر
بہتری
بہترین
بہتی
بہتے
بہر
بہرام
بہراي
بہرحال
بہرہ
بہشت
بہشتی
بہلول
بہم
بہمنی
بہن
بہنوي
بہنوں
بہنیں
بہنے
بہو
بہہ
بی
بیا
بیابان
بیاس
بیاسی
بیاض
بیالیس
بیان
بیانات
بیانوے
بیانی
بیانیہ
بیاں
بیاہ
بیبرس
بیبی
بیت
بیتی
بیج
بیجاپور
بیجنگ
بیجوں
بید
بیدار
بیداری
بیدل
بیدی
بیر
بیراج
بیرسٹر
بیرل
بیرن
بیرنگٹن
بیروت
بیرون
بیرونی
بیروٹ
بیری
بیریا
بیرین
بیزار
بیس
بیسارابیہ
بیسن
بیسویں
بیسٹ
بیسیوں
بیش
بیشتر
بیشک
بیشی
بیضوی
بیع
بیعت
بیل
بیلا
بیلاروس
بیلاروسی
بیلجي
بیلجیم
بیلجیي
بیلفاسٹ
بیلمونٹ
بیلنس
بیلٹ
بیلہ
بیلی
بیلیز
بیلے
بیم
بیمار
بیماری
بیماریاں
بیماریوں
بیمہ
بین
بینا
بیناي
بینجمن
بینر
بینسن
بینظیر
بینن
بینٹن
بینچ
بینڈ
بینک
بینکاری
بینکاک
بینکر
بینکس
بینکنگ
بینکوں
بینگ
بینی
بینیٹ
بیواو
بیور
بیورو
بیوروکریسی
بیونا
بیونس
بیوٹی
بیوکینن
بیوہ
بیوی
بیویاں
بیویوں
بیي
بیٹ
بیٹا
بیٹری
بیٹس
بیٹسمین
بیٹل
بیٹن
بیٹنگ
بیٹوں
بیٹھ
بیٹھا
بیٹھتا
بیٹھتے
بیٹھنا
بیٹھنے
بیٹھی
بیٹھیں
بیٹھے
بیٹی
بیٹیاں
بیٹیوں
بیٹے
بیچ
بیچا
بیچلر
بیچنے
بیڈ
بیڈفورڈ
بیڈمنٹن
بیڑا
بیڑے
بیک
بیکار
بیکانیر
بیکر
بیکس
بیکن
بیکٹیریا
بیگ
بیگم
بیگی
بیں
بیہقی
بے
ة
ت
تا
تاب
تابش
تابع
تابعی
تابعین
تابوت
تابکار
تابکاری
تاتار
تاتارستان
تاتاری
تاتاریوں
تاثر
تاثرات
تاثیر
تاج
تاجدار
تاجر
تاجران
تاجروں
تاجپوشی
تاجک
تاجکستان
تاحال
تاحیات
تاخیر
تار
تارا
تاراج
تاروں
تاريخ
تارڑ
تارک
تارکین
تاریخ
تاریخوں
تاریخی
تاریخیں
تاریک
تاریکی
تارے
تازگی
تازہ
تاسیس
تاش
تاشقند
تال
تالاب
تالپور
تالیف
تالیفات
تامل
تان
تانبا
تانبے
تانگ
تانے
تاو
تاوان
تاویل
تاي
تاک
تاکہ
تاکید
تاہم
تاہے
تایا
تب
تبادلہ
تبادلے
تبارک
تباہ
تباہی
تبت
تبتی
تبدیل
تبدیلی
تبدیلیاں
تبدیلیوں
تبریز
تبریزی
تبسم
تبصروں
تبصرہ
تبصرے
تبع
تبلیسی
تبلیغ
تبلیغی
تبوک
تبھی
تثلیث
تجارت
تجارتی
تجاهله
تجاوز
تجاویز
تجدید
تجربات
تجرباتی
تجربہ
تجربے
تجریدی
تجزیاتی
تجزیہ
تجزیے
تجسس
تجلی
تجوید
تجویز
تجھ
تجھے
تجہیز
تحاریر
تحاي
تحت
تحر
تحریر
تحریروں
تحریری
تحریریں
تحریف
تحریم
تحریک
تحریکوں
تحریکیں
تحسین
تحصیل
تحصیلوں
تحصیلیں
تحفظ
تحفظات
تحفہ
تحفۃ
تحفے
تحقق
تحقيق
تحقیق
تحقیقات
تحقیقاتی
تحقیقی
تحلیل
تحلیلی
تحمل
تحویل
تخت
تختہ
تختی
تختے
تخریب
تخریج
تخصص
تخصیص
تخفیف
تخلص
تخلیق
تخلیقات
تخلیقی
تخمینہ
تخمینے
تخیل
تدابیر
تدبر
تدبیر
تدریس
تدریسی
تدفین
تدوین
تذلیل
تذکروں
تذکرہ
تذکرۃ
تذکرے
تر
ترا
تراب
تراجم
ترازو
تراش
تراشی
ترامیم
ترانہ
ترانے
تراویح
تراي
تراکیب
تربت
تربیت
تربیتی
ترتیب
ترجمان
ترجمانی
ترجمه
ترجمہ
ترجمے
ترجیح
ترجیحات
ترجیحی
ترخان
تردید
ترس
ترسیل
ترغیب
ترقی
ترقیاتی
ترمذی
ترمیم
ترن
ترنم
ترویج
ترپن
ترک
ترکستان
ترکمان
ترکمانستان
ترکمن
ترکوں
ترکی
ترکیب
ترکیبی
ترکیہ
تری
تریاسی
تریانوے
تریسٹھ
ترین
تریپورہ
ترے
تزي
تزک
تزکیہ
تسبیح
تسخیر
تسلسل
تسلط
تسلی
تسلیم
تسمانیہ
تسمیہ
تسنیم
تسکین
تش
تشبیہ
تشخص
تشخیص
تشدد
تشریح
تشریحات
تشریف
تشزدگی
تشنگی
تشویش
تشکیل
تشہیر
تشیع
تشیں
تصادفی
تصادم
تصانیف
تصاویر
تصحیح
تصدیق
تصرف
تصریح
تصغیر
تصفیہ
تصنيف
تصنیف
تصنیفات
تصنیفی
تصو
تصور
تصورات
تصوراتی
تصوف
تصویر
تصویروں
تصویری
تصویریں
تضاد
تضادات
تطہیر
تعارف
تعارفی
تعاقب
تعال
تعالى
تعالی
تعامل
تعاون
تعبیر
تعجب
تعداد
تعدد
تعریف
تعریفیں
تعزیت
تعزیرات
تعزیہ
تعصب
تعطل
تعطیل
تعطیلات
تعظیم
تعل
تعلق
تعلقات
تعلقہ
تعلیق
تعلیم
تعلیمات
تعلیمی
تعمیر
تعمیرات
تعمیراتی
تعمیری
تعمیل
تعین
تعینات
تعیناتی
تعیین
تغلب
تغلق
تغیر
تغیرات
تفاسیر
تفاعل
تفاوت
تفتیش
تفریح
تفریحی
تفریق
تفسير
تفسیر
تفسیری
تفصیل
تفصیلات
تفصیلی
تفضیلی
تفقہ
تفویض
تفہیم
تقابل
تقابلی
تقاریب
تقاریر
تقاضا
تقاضوں
تقاضے
تقدس
تقدیر
تقر
تقرب
تقرر
تقرری
تقریب
تقریبا
تقریبات
تقریر
تقریروں
تقریریں
تقسیم
تقلید
تقوی
تقویت
تقویم
تقی
تقیہ
تكرر
تل
تلا
تلاش
تلاشی
تلافی
تلامذہ
تلاوت
تلخ
تلخی
تلخیص
تلسی
تلف
تلفظ
تلقین
تلمذ
تلمود
تلنگانہ
تلوار
تلواروں
تلواریں
تلک
تلگو
تلہ
تلی
تلے
تم
تما
تماشا
تماشاي
تمام
تمباکو
تمثیل
تمدن
تمدنی
تمر
تمغا
تمغاي
تمغوں
تمغہ
تمغے
تمل
تمنا
تمييز
تمھارے
تمھیں
تمہارا
تمہاری
تمہارے
تمہید
تمہیں
تمیز
تمیم
تمیمی
تن
تنا
تنازع
تنازعات
تنازعہ
تنازعے
تناسب
تناسق
تناظر
تناو
تناول
تنبیہ
تنخواہ
تنخواہوں
تنخواہیں
تند
تنزانیہ
تنصیب
تنصیبات
تنظیم
تنظیموں
تنظیمی
تنظیمیں
تنفس
تنقیح
تنقید
تنقیدی
تنوع
تنولی
تنویر
تنگ
تنگی
تنہا
تنہاي
تنے
تها
تهران
تو
توا
تواتر
تواریخ
توازن
تواس
تواضع
توان
تواناي
توبہ
توت
توثیق
توجہ
توجیہ
توحید
تودے
تور
تورات
توران
توراۃ
توریت
توزیع
توسط
توسیع
توسیعی
توصیف
توضیح
توفیق
توقع
توقعات
توقف
توقیر
تول
تولید
تولیدی
توما
تونس
تونسوی
تونسہ
تووہ
توپ
توپوں
توپیں
توڑ
توڑا
توڑنا
توڑنے
توڑے
توکل
توں
توہم
توہین
تویہ
تي
تپ
تپش
تپہ
تڑپ
تک
تکالیف
تکامل
تکبر
تکبیر
تکرار
تکریم
تکلف
تکلم
تکلیف
تکمیل
تکن
تکنیک
تکنیکوں
تکنیکی
تکون
تکیہ
تھ
تھا
تھام
تھامس
تھامسن
تھانوی
تھانہ
تھانے
تھاي
تھر
تھراپی
تھرلر
تھرمل
تھرو
تھرڈ
تھری
تھریس
تھل
تھلگ
تھنڈر
تھو
تھوڑا
تھوڑی
تھوڑے
تھوک
تھک
تھکن
تھی
تھیلی
تھیم
تھیوری
تھیوڈور
تھیٹر
تھیں
تھے
تہ
تہاي
تہتر
تہجد
تہجی
تہذیب
تہذیبوں
تہذیبی
تہران
تہرانی
تہمت
تہوار
تہواروں
تہہ
تی
تیار
تیاری
تیاریاں
تیاریوں
تیر
تیرا
تیراکی
تیرتھ
تیروں
تیرہ
تیرہویں
تیری
تیرے
تیز
تیزاب
تیزی
تیس
تیسرا
تیسری
تیسرے
تیغ
تیل
تیلگو
تیمور
تیموری
تیمی
تیمیہ
تین
تینتالیس
تینتیس
تیندوا
تیندوے
تینوں
تیواری
تیونس
تیي
تیں
تے
ث
ثابت
ثار
ثاریاتی
ثاقب
ثالث
ثالثی
ثانوی
ثانی
ثانیہ
ثبات
ثبت
ثبوت
ثر
ثروت
ثریا
ثعلبہ
ثقافت
ثقافتوں
ثقافتی
ثقاہت
ثقفی
ثقل
ثقلین
ثقہ
ثقۃ
ثقیف
ثلاثہ
ثلاثی
ثلث
ثم
ثمر
ثمود
ثمینہ
ثنا
ثناء
ثناي
ثواب
ثور
ثوری
ج
جا
جاء
جابجا
جابر
جات
جاتا
جاتاہے
جاتی
جاتیں
جاتیہ
جاتے
جادو
جادوي
جادوگر
جاذب
جار
جارج
جارجیا
جارجیاي
جارحانہ
جارحیت
جارہا
جارہی
جارہے
جاری
جاز
جاسم
جاسوس
جاسوسی
جاسکتا
جاسکتی
جاسکتے
جاسکیں
جاسکے
جال
جالا
جالب
جالندھر
جالندھری
جالوت
جالی
جام
جامد
جامشورو
جامع
جامعات
جامعة
جامعہ
جامعۃ
جامعی
جامعیت
جامہ
جامی
جان
جانا
جاناں
جانب
جانباز
جانبدار
جانبداری
جانتا
جانتی
جانتے
جاندار
جانداروں
جانسن
جانسٹن
جانشین
جانشینوں
جانشینی
جاننا
جاننے
جانور
جانوروں
جانوں
جانچ
جانچنے
جانی
جانیں
جانے
جاو
جاوا
جاوی
جاوید
جاي
جاٹ
جاٹوں
جاپان
جاپانی
جاپانیوں
جاچکی
جاچکے
جاڑا
جاکر
جاگ
جاگیر
جاگیردار
جاگیردارانہ
جاگیرداروں
جاگیرداری
جاں
جاہ
جاہل
جاہلیت
جایا
جاے
جب
جبار
جبر
جبرا
جبرالٹر
جبران
جبراي
جبري
جبری
جبریل
جبل
جبوتی
جبڑے
جبکہ
جبہ
جبیر
جتنا
جتنی
جتنے
جتوي
جج
ججوں
جحش
جد
جدا
جداي
جداگانہ
جدت
جدو
جدوجہد
جدول
جدہ
جدی
جدید
جدیدیت
جذب
جذبات
جذباتی
جذبہ
جذبے
جر
جرا
جرات
جراثیم
جراح
جراحی
جراي
جرح
جرسی
جرم
جرمانہ
جرمانے
جرمن
جرمنوں
جرمنی
جرمین
جرنل
جرنیل
جرنیلوں
جرگہ
جری
جریدہ
جریدے
جریر
جز
جزء
جزا
جزاي
جزو
جزوی
جزي
جزیروں
جزیرہ
جزیرے
جزیہ
جس
جسارت
جسامت
جست
جستجو
جسد
جسم
جسمانی
جسموں
جسونت
جسٹ
جسٹس
جسٹن
جسے
جشن
جعفر
جعفرا
جعفری
جعفریان
جعفریہ
جعل
جعلی
جغرافیاي
جغرافیای
جغرافیہ
جـ
جفت
جل
جلا
جلال
جلالت
جلالی
جلالین
جلانے
جلاوطن
جلاوطنی
جلاي
جلایا
جلتا
جلتی
جلتے
جلد
جلدوں
جلدی
جلدیں
جلسوں
جلسہ
جلسے
جلن
جلنے
جلو
جلوس
جلوسوں
جلوہ
جلی
جلیل
جلیں
جلے
جم
جما
جمادی
جماع
جماعت
جماعتوں
جماعتی
جماعتیں
جمال
جمالی
جمالیاتی
جماي
جمشید
جمع
جمعرات
جمعہ
جمعیت
جمعیۃ
جمل
جملوں
جملہ
جملے
جمنا
جمهوری
جمود
جموں
جمہ
جمہور
جمہوری
جمہوریت
جمہوریہ
جمی
جمیعت
جمیل
جمیلہ
جمیکا
جن
جنا
جناب
جنات
جناح
جنازہ
جنازے
جنبش
جنت
جنتا
جنتی
جنجوعہ
جند
جندب
جنرل
جنس
جنسی
جنسیت
جنم
جنوب
جنوبی
جنوری
جنون
جنونی
جنوں
جنٹلمین
جنڈ
جنکشن
جنکی
جنگ
جنگجو
جنگجوو
جنگل
جنگلات
جنگلوں
جنگلی
جنگوں
جنگی
جنگیں
جنھوں
جنھیں
جنہوں
جنہیں
جنید
جنین
جنیوا
جهان
جو
جوا
جواب
جوابات
جوابدہ
جوابی
جواد
جوار
جواز
جوان
جوانوں
جوانی
جواي
جواں
جواہر
جواہرات
جوبلی
جوتا
جوتوں
جوتے
جودھ
جور
جورڈن
جوزف
جوزی
جوس
جوش
جوشی
جوضلع
جوق
جول
جولا
جولاي
جولو
جولی
جولیا
جولیس
جولین
جولیي
جولیٹ
جون
جوناتھن
جوناگڑھ
جونز
جوني
جونپور
جونپوری
جونہی
جونی
جونیجو
جونیي
جوي
جوڈی
جوڈیشل
جوڑ
جوڑا
جوڑتا
جوڑتی
جوڑتے
جوڑنے
جوڑوں
جوڑی
جوڑے
جوکہ
جوگی
جوں
جوہانسبرگ
جوہر
جوہری
جوہن
جوہی
جویریہ
جي
جٹ
جڑ
جڑا
جڑانوالہ
جڑواں
جڑوں
جڑی
جڑیں
جڑے
جکارتہ
جگ
جگا
جگت
جگدیش
جگر
جگن
جگہ
جگہوں
جگہیں
جھ
جھارکھنڈ
جھانسی
جھاڑی
جھاڑیوں
جھرمٹ
جھلک
جھلکیاں
جھلی
جھنڈ
جھنڈا
جھنڈے
جھنگ
جھنگوی
جھوٹ
جھوٹا
جھوٹی
جھوٹے
جھوک
جھٹکا
جھٹکے
جھڑپ
جھڑپوں
جھڑپیں
جھک
جھکا
جھکاو
جھگڑا
جھگڑوں
جھگڑے
جھیل
جھیلوں
جھیلیں
جہ
جہا
جہاد
جہادی
جہاز
جہازوں
جہالت
جہان
جہانگیر
جہانگیری
جہانیاں
جہاں
جہت
جہتی
جہد
جہل
جہلم
جہنم
جہیز
جی
جیا
جیب
جیت
جیتا
جیتتے
جیتنا
جیتنے
جیتی
جیتے
جید
جیروم
جیریا
جیسا
جیساکہ
جیسن
جیسپر
جیسکا
جیسی
جیسے
جیش
جیف
جیفرسن
جیفری
جیل
جیلان
جیلانی
جیلوں
جیم
جیمز
جیمس
جیمی
جین
جینا
جینز
جینس
جینوا
جینی
جینیاتی
جینیفر
جینے
جیو
جیوتی
جیوری
جیول
جیولوجیکل
جیون
جیونیمز
جیٹ
جیپ
جیک
جیکب
جیکس
جیکسن
جیکی
جے
ح
حا
حاتم
حاج
حاجت
حاجی
حادثات
حادثاتی
حادثہ
حادثے
حاديث
حارث
حارثہ
حاشیہ
حاشیے
حاص
حاصل
حاضر
حاضرہ
حاضری
حاضرین
حاطب
حافظ
حافظہ
حال
حالات
حالانکہ
حالاں
حالت
حالتوں
حالی
حالیہ
حامد
حامل
حاملہ
حامی
حامیوں
حاوی
حاي
حاکم
حاکمیت
حب
حبالہ
حبان
حبش
حبشہ
حبشی
حبیب
حبیبہ
حبیبی
حت
حتمی
حتی
حثیت
حج
حجاب
حجاج
حجاز
حجازی
حجت
حجر
حجرہ
حجری
حجم
حجۃ
حد
حداي
حدود
حديث
حدیبیہ
حدیث
حدیثوں
حدیثیں
حدیقہ
حذف
حذیفہ
حر
حرا
حرارت
حرارتی
حراست
حراستی
حرام
حرب
حربہ
حربے
حرج
حرف
حرفی
حرم
حرمت
حرمتی
حرمین
حروف
حرکات
حرکت
حرکتوں
حرکی
حرکیات
حرہ
حریت
حریف
حریفوں
حزب
حزم
حس
حساب
حساس
حساسیت
حسام
حسان
حسب
حسد
حسرت
حسن
حسنہ
حسنی
حسنین
حسين
حسی
حسیب
حسین
حسینہ
حسینی
حسینیہ
حشر
حشرات
حشمت
حص
حصار
حصص
حصول
حصوں
حصہ
حصین
حصے
حضر
حضرات
حضرت
حضرموت
حضرمی
حضور
حضوری
حفاظ
حفاظت
حفاظتی
حفص
حفصہ
حفظ
حفظہ
حفیظ
حق
حقارت
حقانی
حقاي
حقدار
حقوق
حقہ
حقیر
حقیقت
حقیقتا
حقیقی
حل
حلال
حلب
حلبی
حلف
حلق
حلقوں
حلقہ
حلقے
حلوہ
حلی
حلیف
حلیم
حلیمہ
حلیہ
حلیۃ
حم
حماد
حماس
حمام
حمایت
حمایتی
حمد
حمدان
حمزہ
حمص
حمل
حملوں
حملہ
حملے
حمید
حمیدہ
حمیدی
حمیرا
حنا
حنبل
حنبلی
حنظلہ
حنفی
حنفیہ
حنیف
حنیفہ
حنین
حو
حوا
حوادث
حواری
حواریوں
حواس
حواشی
حوالوں
حوالہ
حوالے
حوثی
حوثیوں
حوزه
حوزہ
حوصلہ
حوصلے
حوض
حویلی
حویلیاں
حکام
حکایات
حکایت
حکم
حکمت
حکمران
حکمرانوں
حکمرانی
حکمراں
حکومت
حکومتوں
حکومتی
حکومتیں
حکیم
حہ
حی
حیا
حیات
حیاتی
حیاتیات
حیاتیاتی
حیان
حیثیت
حیدر
حیدرا
حیدری
حیران
حیرت
حیرہ
حیض
حیفا
حیلہ
حیوان
حیوانات
حیوانی
حیوانیات
خ
خا
خاتم
خاتمہ
خاتمی
خاتمے
خاتون
خادم
خار
خاران
خارج
خارجية
خارجہ
خارجی
خارجیوں
خارش
خاص
خاصا
خاصہ
خاصی
خاصیت
خاصے
خاطر
خاقان
خال
خالد
خالدہ
خالص
خالصتا
خالصہ
خالق
خالہ
خالی
خام
خامنہ
خاموش
خاموشی
خامی
خامیوں
خان
خانات
خانان
خاندان
خاندانوں
خاندانی
خانزادہ
خانقاہ
خانقاہوں
خانم
خانوادگی
خانوادہ
خانوادے
خانوں
خانپور
خانگی
خانہ
خانی
خانیت
خانیوال
خانے
خاور
خاوند
خاي
خاک
خاکہ
خاکی
خاکے
خاں
خبار
خبر
خبردار
خبروں
خبرگزاری
خبری
خبریں
ختم
ختنہ
ختیار
خد
خدا
خداداد
خدام
خدانے
خداو
خداوند
خداوندی
خداي
خدایا
خدری
خدشات
خدشہ
خدمات
خدمت
خدوخال
خدیجہ
خذ
خر
خراب
خرابی
خراج
خراسان
خراسانی
خراش
خرافات
خرت
خرد
خرطوم
خرقہ
خرم
خروج
خروش
خريطة
خرچ
خرکار
خرگوش
خری
خرید
خریدا
خریدار
خریداری
خریدنا
خریدنے
خریدی
خریدے
خزانوں
خزانچی
خزانہ
خزانے
خزاي
خزاں
خزر
خزرج
خزرجی
خزیمہ
خسارہ
خسارے
خستہ
خسرو
خشک
خشکی
خصاي
خصوص
خصوصا
خصوصی
خصوصیات
خصوصیت
خضدار
خضر
خط
خطا
خطاب
خطابات
خطابت
خطاط
خطاطی
خطبات
خطبہ
خطبے
خطر
خطرات
خطرناک
خطرہ
خطرے
خطوط
خطوں
خطہ
خطی
خطیب
خطے
خفا
خفی
خفیف
خفیہ
خل
خلا
خلاء
خلاصہ
خلاصۃ
خلاف
خلافت
خلاي
خلجی
خلدون
خلعت
خلف
خلفا
خلفاء
خلفاي
خلق
خلل
خلوت
خلوص
خلوی
خلکان
خلیات
خلیاتی
خلیج
خلیجی
خلیفہ
خلیفۃ
خلیق
خلیل
خلیلی
خلیوں
خلیہ
خلیے
خم
خمس
خمسہ
خمیر
خمینی
خنجر
خندق
خو
خوا
خواب
خوابوں
خواتین
خواجگان
خواجہ
خوار
خوارج
خوارزم
خوارزمی
خواص
خوان
خواندگی
خوانی
خواں
خواہ
خواہاں
خواہش
خواہشات
خواہشمند
خوب
خوبصورت
خوبصورتی
خوبی
خوبیاں
خوبیوں
خود
خودبخود
خودمختار
خودمختاری
خودنوشت
خودکار
خودکش
خودکشی
خودی
خور
خوراک
خورد
خوردہ
خورشید
خوروں
خوری
خوزستان
خوش
خوشاب
خوشبو
خوشحال
خوشحالی
خوشخبری
خوشنودی
خوشگوار
خوشہ
خوشی
خوشیاں
خوف
خوفزدہ
خوفناک
خول
خولہ
خون
خوند
خونریز
خونریزی
خونی
خوي
خوں
خویلد
خير
خٹک
خیا
خیابان
خیال
خیالات
خیالی
خیام
خیانت
خیبر
خیبرپختونخوا
خیر
خیرا
خیرات
خیراتی
خیرباد
خیرمقدم
خیرپور
خیز
خیل
خیموں
خیمہ
خیمے
خیوا
د
دا
داب
داتا
داخل
داخلہ
داخلی
داخلے
داد
دادا
دادو
دادی
دار
دارا
دارالحکومت
دارالسلام
دارالعلوم
دارالکتب
دارانہ
دارد
دارفور
دارلحکومت
دارومدار
داروں
داری
داریاں
داریوں
دازور
داس
داستان
داستانوں
داستانیں
داشت
داعش
داعظم
داعی
داغ
داغستان
دال
دالان
دالہ
دام
داماد
دامن
دان
دانا
داناي
داناپوری
دانت
دانتوں
دانستہ
دانش
دانشمند
دانشنامه
دانشور
دانشورانہ
دانشوروں
دانشگاه
دانشگاہ
دانوں
دانہ
دانی
دانیال
دانے
داو
داود
داوری
داوواغ
داي
داڑھی
داں
داہر
دایاں
دب
دبا
دبانے
دباو
دباي
دبایا
دبستان
دبي
دبیر
دبے
دت
دتا
دتہ
دتیہ
دجال
دجلہ
دختر
دخل
دخول
در
درا
دراز
دراصل
درانی
دراوڑ
دراوڑی
دربار
درباری
درباریوں
دربند
دربھنگہ
درج
درجات
درجن
درجنوں
درجوں
درجہ
درجے
درحقیقت
درخت
درختوں
درخشاں
درخواست
درخواستوں
درخواستیں
درد
دردی
درس
درست
درستگی
درستی
درسگاہ
درسی
درشن
درعیہ
درمیان
درمیانی
درمیانے
درمیاں
دروازوں
دروازہ
دروازے
درود
دروز
دروس
درویش
درویشوں
درپیش
درپے
درک
درکار
درگا
درگاہ
درگذشت
درہ
درہم
دری
دریا
دریابادی
دریافت
دریافتوں
دریاو
دریاي
دریغ
دریں
درے
دس
دست
دستار
دستانے
دستاویز
دستاویزات
دستاویزی
دستبردار
دستبرداری
دستخط
دسترس
دستور
دستوری
دستوں
دستک
دستکاری
دستگیر
دستہ
دستی
دستیاب
دستیابی
دستے
دسمبر
دسواں
دسویں
دسیوں
دشت
دشمن
دشمنوں
دشمنی
دشوار
دشواری
دعا
دعاو
دعاي
دعو
دعوت
دعوتی
دعوو
دعووں
دعوی
دعویدار
دعوے
دفاتر
دفاع
دفاعی
دفتر
دفتری
دفع
دفعات
دفعہ
دفن
دق
دقت
دقیق
دقیقہ
دل
دلا
دلاتا
دلاتے
دلال
دلالت
دلانا
دلانے
دلاور
دلاي
دلایا
دلت
دلتوں
دلدادہ
دلدار
دلدل
دلشاد
دلوں
دلچسپ
دلچسپی
دلکش
دلہن
دلی
دلیر
دلیری
دلیل
دلیپ
دم
دماغ
دماغی
دمتری
دمشق
دمشقی
دمی
دمیوں
دن
دنا
دندان
دنوں
دنیا
دنیاوی
دنیاي
دنیش
دنیوی
ده
دو
دوا
دوام
دواو
دواي
دواں
دوبارہ
دوحہ
دودھ
دور
دوران
دورانیہ
دورانیے
دوربین
دوردرشن
دوروں
دورہ
دوری
دورے
دوزخ
دوست
دوستانہ
دوستوں
دوستی
دوسرا
دوسروں
دوسری
دوسرے
دوش
دوشنبہ
دولت
دولتی
دولہا
دوم
دون
دونوں
دوي
دوپٹہ
دوپہر
دوپیازہ
دوچار
دوڑ
دوڑنے
دوڑیں
دوگنا
دوگنی
دوں
دوہا
دوہرا
دوہری
دوہرے
دي
دڑو
دکان
دکانوں
دکانیں
دکن
دکنی
دکھ
دکھا
دکھاتا
دکھاتی
دکھاتے
دکھانا
دکھانے
دکھاي
دکھایا
دکھی
دگنا
دگنی
دھ
دھا
دھات
دھاتوں
دھاتی
دھاتیں
دھار
دھاری
دھارے
دھام
دھان
دھاندلی
دھاوا
دھاگے
دھبے
دھر
دھرتی
دھرم
دھرن
دھماکا
دھماکوں
دھماکہ
دھماکے
دھمکی
دھمکیاں
دھمکیوں
دھن
دھند
دھنی
دھنیال
دھو
دھواں
دھوبی
دھول
دھوم
دھون
دھونا
دھونی
دھونے
دھوي
دھوپ
دھوکا
دھوکہ
دھوکے
دھچکا
دھڑ
دھڑوں
دھڑکن
دھڑے
دھکیل
دھی
دھیان
دھیرے
دھے
دہ
دہانہ
دہانی
دہانے
دہاي
دہراي
دہرایا
دہستان
دہشت
دہلوی
دہلی
دہلیز
دہم
دہن
دہندگان
دہندہ
دہی
دہے
دی
دیا
دیار
دیال
دیانت
دیاگیا
دیاں
دیباچہ
دیت
دیتا
دیتی
دیتے
دیجي
دیجیے
دید
دیدار
دیدہ
دیدی
دیدیا
دیر
دیرپا
دیرینہ
دیس
دیساي
دیستریک
دیسی
دیش
دیشی
دیل
دین
دینا
دینار
دینوری
دینہ
دینی
دینیات
دینیہ
دینے
دیو
دیوا
دیوار
دیواروں
دیواری
دیواریں
دیوالی
دیوالیہ
دیوان
دیوانہ
دیوانی
دیوانے
دیوبند
دیوبندی
دیوتا
دیوتاو
دیوداس
دیول
دیومالاي
دیوناگری
دیوگن
دیوی
دیي
دیپ
دیپالپور
دیپک
دیکر
دیکھ
دیکھا
دیکھتا
دیکھتی
دیکھتے
دیکھنا
دیکھنے
دیکھو
دیکھي
دیکھی
دیکھیں
دیکھیے
دیکھے
دیگر
دیگرے
دیں
دیہات
دیہاتوں
دیہاتی
دیہاتیوں
دیہی
دیے
دے
ذ
ذا
ذات
ذاتوں
ذاتی
ذاتیں
ذاي
ذاکر
ذبح
ذبیح
ذخاي
ذخیرہ
ذخیرے
ذر
ذرا
ذرات
ذراي
ذرباي
ذربایجان
ذرہ
ذری
ذریعہ
ذریعے
ذرے
ذلت
ذلیل
ذمہ
ذمے
ذو
ذوالحجہ
ذوالفقار
ذوالقرنین
ذوالقعدہ
ذوق
ذي
ذکر
ذکی
ذہانت
ذہبی
ذہن
ذہنوں
ذہنی
ذہنیت
ذہین
ذی
ذیابیطس
ذیشان
ذیل
ذیلی
ر
را
راء
رابرٹ
رابرٹس
رابطوں
رابطہ
رابطے
رابع
رابعہ
رابن
رابندر
رابنسن
رات
راتوں
راتیں
راج
راجا
راجاو
راجدھانی
راجر
راجرز
راجستان
راجستھان
راجشاہی
راجن
راجندر
راجو
راجوری
راجپوت
راجپوتانہ
راجپوتوں
راجکمار
راجہ
راجیش
راجیو
راجیہ
راحت
راحیل
راد
رادھا
رادھیکا
راز
رازداری
رازی
راس
راست
راستوں
راستہ
راستے
راسخ
راشد
راشدہ
راشدی
راشدین
راشن
راشٹریہ
راضی
راغب
رافع
رافیل
راقم
رالف
رام
راما
راماي
راماین
رامن
رامپور
رامی
ران
رانا
رانجھا
رانجی
رانوں
رانچی
رانی
راو
راول
راولاکوٹ
راولپنڈی
راون
راوی
راویوں
راي
راٹھور
راڈ
راک
راکٹ
راکھ
راکی
راکیش
راگ
راں
راہ
راہب
راہبوں
راہداری
راہل
راہنما
راہنماي
راہول
راہویہ
راہی
راہیں
راۃ
رایڈر
راے
رب
ربا
رباب
رباح
رباط
رباعی
رباعیات
ربانی
ربط
ربع
ربڑ
ربی
ربیع
ربیعہ
رة
رةالمعارف
رت
رتبہ
رتن
رتھ
رتھر
رتھوڈوکس
رتی
رج
رجال
رجب
رجحان
رجحانات
رجز
رجسٹر
رجسٹرار
رجسٹرڈ
رجسٹریشن
رجعت
رجمنٹ
رجوع
رح
رحجان
رحلت
رحم
رحمان
رحمانی
رحمانیہ
رحمة
رحمت
رحمتہ
رحمن
رحمہ
رحمۃ
رحمی
رحیم
رخ
رخسانہ
رخصت
رخصتی
رخی
رخین
رد
ردا
ردعمل
ردو
ردیف
رز
رزاق
رزق
رزمیہ
رزو
رس
رسا
رسالت
رساله
رسالوں
رسالہ
رسالے
رسانی
رساي
رساں
رستان
رستانی
رستم
رستہ
رستے
رسد
رسل
رسم
رسمی
رسن
رسو
رسوا
رسواي
رسوخ
رسول
رسولوں
رسولی
رسوم
رسومات
رسی
رسید
رسیدہ
رش
رشاد
رشتوں
رشتہ
رشتے
رشد
رشدی
رشوت
رشيف
رشک
رشی
رشید
رصد
رصدگاہ
رض
رضا
رضاعت
رضاعی
رضامند
رضامندی
رضاي
رضاکار
رضاکارانہ
رضاکاروں
رضوان
رضوی
رضویہ
رضي
رضی
رضیہ
رطوبت
رعایا
رعایت
رعب
رعنا
رغبت
رف
رفاعہ
رفاقت
رفاہ
رفاہی
رفت
رفتار
رفتاری
رفتہ
رفسنجانی
رفع
رفعت
رفقا
رفورس
رفیع
رفیق
رفیلڈ
رقاصہ
رقام
رقبہ
رقبے
رقص
رقم
رقمطراز
رقمی
رقوم
رقیہ
رل
رلاي
رلنگٹن
رلیس
رلینڈ
رم
رمز
رمسٹرانگ
رمضان
رملہ
رمن
رمنٹ
رموز
رمی
رمیز
رمیش
رمین
رمینی
رمینیا
رمینیاي
رمینیوں
رن
رنبیر
رنج
رنجی
رنجیت
رند
رنر
رنز
رنزوں
رنلڈ
رنگ
رنگا
رنگت
رنگون
رنگوں
رنگی
رنگیلا
رنگین
رو
روا
روابط
رواج
رواداری
روانڈا
روانگی
روانہ
روانی
رواي
رواٹر
رواں
روایات
روایت
روایتوں
روایتی
روایتیں
روبرو
روبل
روبن
روبوٹ
روبی
روبینہ
روتھ
روتے
روح
روحانی
روحانیت
روحوں
روحی
رود
روداد
رودبار
رودر
رورساي
رورل
روز
روزا
روزانہ
روزمرہ
روزنامہ
روزویلٹ
روزگار
روزگاری
روزہ
روزی
روزے
روس
روسو
روسی
روسیوں
روش
روشن
روشناس
روشناي
روشنی
روضہ
روضۃ
روغن
رول
رولز
رولنگ
روم
روما
رومال
رومان
رومانوی
رومانٹک
رومانی
رومانیا
رومانیت
رومانیہ
رومن
رومی
رومیوں
رون
رونا
رونالڈ
رونق
رونما
رونڈسمینٹ
رونے
روي
روٹ
روٹلیج
روٹن
روٹی
روپ
روپوش
روپي
روپڑ
روپیہ
روپیے
روپے
روچ
روچیسٹر
روڈ
روڈس
روڈولف
روڈیشیا
روک
روکا
روکتا
روکتی
روکتے
روکنا
روکنے
روکے
روگ
روں
روہت
روہتاس
روہنگیا
روہڑی
روہی
روہیل
روہیلہ
روی
رویا
رویو
رویوں
رویہ
رویے
ري
رٹ
رٹس
رٹسٹ
رٹلری
رٹیکل
رپارک
رپرسن
رپورٹ
رپورٹر
رپورٹس
رپورٹنگ
رپورٹوں
رچ
رچر
رچرڈ
رچرڈز
رچرڈسن
رچلینڈ
رچمنڈ
رچی
رڈ
رڈر
رڈن
رڈیننس
رک
رکا
رکاوٹ
رکاوٹوں
رکاوٹیں
رکاي
رکعت
رکن
رکنساس
رکنی
رکنیت
رکنے
رکوع
رکٹک
رکھ
رکھا
رکھتا
رکھتی
رکھتے
رکھنا
رکھنی
رکھنے
رکھو
رکھی
رکھیں
رکھے
رکی
رکیو
رکیڈیا
رکے
رگ
رگبی
رگناي
رگوں
رگڑ
رگھو
رگھوناتھ
رھے
رہ
رہا
رہان
رہاي
رہاہے
رہبر
رہتا
رہتی
رہتے
رہن
رہنا
رہنما
رہنماو
رہنماي
رہنے
رہو
رہوں
رہی
رہیں
رہے
رۃ
ری
ریا
ریاست
ریاستوں
ریاستہاي
ریاستی
ریاستیں
ریاض
ریاضت
ریاضی
ریاضیات
ریاضیاتی
ریال
ریان
ریاو
ریاي
ریت
ریجن
ریجنل
ریجنٹ
ریحان
ریحانہ
ریخ
ریختہ
ریز
ریزرو
ریزہ
ریزی
ریس
ریستوران
ریستوراں
ریسرچ
ریسلنگ
ریسٹ
ریسکیو
ریشم
ریشمی
ریشہ
ریفاي
ریفرنس
ریفرنڈم
ریفری
ریل
ریلاي
ریلویز
ریلوے
ریلی
ریلیز
ریلیف
ریلے
ریما
ریمارکس
ریمنڈ
رین
رینا
رینج
رینجرز
رینو
رینڈولف
رینک
رینکنگ
رینی
ریو
ریور
ریونیو
ریوڑ
ریوں
ریویو
ریي
ریٹ
ریٹاي
ریٹنگ
ریپ
ریپبلک
ریپبلکن
ریپڈ
ریچھ
ریڈ
ریڈار
ریڈر
ریڈف
ریڈنگ
ریڈی
ریڈیاي
ریڈیو
ریڑھ
ریک
ریکا
ریکارڈ
ریکارڈز
ریکارڈنگ
ریکارڈوں
ریکو
ریکٹ
ریکٹر
ریکٹرز
ریکٹوریٹ
ریکھ
ریکھا
ریکی
ریگستان
ریگن
ریہ
رے
ز
زا
زاد
زادانہ
زاده
زادہ
زادی
زادیوں
زادے
زار
زارا
زاری
زانوي
زاویوں
زاویہ
زاویے
زاي
زاہد
زاہدہ
زبا
زبان
زبانوں
زبانی
زبانیں
زباں
زبر
زبردست
زبردستی
زبور
زبیدہ
زبیر
زحل
زحمت
زخم
زخموں
زخمی
زخمیوں
زد
زدگی
زدہ
زر
زراعت
زرباي
زرتشت
زرتشتی
زرخیز
زرخیزی
زرد
زرداری
زرز
زرعی
زرہ
زری
زرین
زریں
زعفران
زفر
زلزلوں
زلزلہ
زلزلے
زلف
زلمی
زلیخا
زم
زما
زمان
زمانوں
زمانہ
زمانی
زمانے
زماي
زماں
زمبابوے
زمرد
زمروں
زمرہ
زمرے
زمزم
زمین
زمیندار
زمینداروں
زمینداری
زمینوں
زمینی
زمینیں
زمیں
زن
زنا
زنانہ
زنجان
زنجانی
زنجبار
زنجیر
زند
زندگی
زندگیوں
زندہ
زنک
زنگ
زنگی
زنی
زو
زوار
زوال
زوجہ
زور
زون
زوں
زویا
زي
زيادہ
زيد
زچگی
زڈ
زک
زکات
زکریا
زکو
زکوۃ
زہ
زہد
زہر
زہرا
زہرہ
زہری
زہریلا
زہریلی
زہریلے
زہیر
زی
زیا
زیاد
زیادتی
زیادہ
زیارت
زیب
زیبا
زیتون
زید
زیدان
زیدی
زیر
زیراہتمام
زیرقیادت
زیرو
زیریں
زیشن
زیل
زیمبیا
زین
زینب
زینت
زیور
زیورات
زیوس
زیڈ
زے
س
سا
سابق
سابقہ
سات
ساتواں
ساتویں
ساتھ
ساتھی
ساتھیوں
ساجد
ساجن
ساحر
ساحل
ساحلوں
ساحلی
ساحہ
ساخت
ساختہ
ساختی
سادات
سادگی
سادھو
سادہ
سار
سارا
سارجنٹ
سارنگ
ساروس
سارہ
ساری
سارے
ساز
سازش
سازشوں
سازشی
سازشیں
سازمان
سازوسامان
سازوں
سازگار
سازی
ساس
ساسانی
ساسانیوں
ساسکچیوان
ساعدہ
ساغر
سافٹ
ساقی
سال
سالار
سالانہ
سالم
سالمات
سالماتی
سالمہ
سالمیت
سالمے
سالن
سالوں
سالي
سالٹ
سالک
سالگرہ
سالہ
سالی
سام
سامان
سامانی
سامرا
سامراج
سامراجی
سامری
سامعین
سامنا
سامنے
سامووا
سامی
سان
سانتا
سانتو
سانحہ
سانحے
سانس
سانپ
سانچہ
سانچے
سانگ
سانگھڑ
سانی
ساو
ساوتری
ساوتھ
ساون
ساي
ساٹھ
ساڑھے
ساکن
ساکھ
ساگ
ساگر
ساں
ساہتیہ
ساہیوال
سایہ
سب
سبا
سباق
سبانية
سبب
سبت
سبحان
سبحانی
سبز
سبزواری
سبزہ
سبزی
سبزیاں
سبزیوں
سبسڈی
سبط
سبعہ
سبق
سبقت
سبک
سبکتگین
سبکدوش
سبکدوشی
سبھا
سبھاش
سبھی
سبی
سبیل
ست
ستا
ستاد
ستار
ستارا
ستاروں
ستارہ
ستارے
ستاسی
ستان
ستانوے
ستانہ
ستاون
ستاي
ستتر
ستر
سترہ
سترہویں
ستلج
ستم
ستمبر
ستون
ستونوں
ستگی
ستھرا
ستہ
ستی
ستیہ
سج
سجا
سجاد
سجادہ
سجادیہ
سجاوٹ
سجایا
سجدہ
سجدے
سحر
سخاوت
سخت
سختی
سخن
سخی
سد
سدا
سدرن
سدوزي
سدھارتھ
سدھن
سدھنوتی
سدھو
سدھیر
سر
سرا
سراب
سراج
سراسر
سراغ
سرانجام
سراي
سراپا
سراہا
سرایت
سرب
سربراہ
سربراہان
سربراہی
سربوں
سربیا
سربیاي
سرجری
سرجن
سرحد
سرحدوں
سرحدی
سرحدیں
سرخ
سرخی
سرخیل
سرخیوں
سرد
سردار
سرداران
سرداروں
سرداری
سردی
سردیوں
سرزد
سرزمین
سرزنش
سرسبز
سرسری
سرسوتی
سرسوں
سرسید
سرشار
سرطان
سرعت
سرفراز
سرفہرست
سرما
سرماي
سرمایا
سرمایہ
سرمد
سرمي
سرن
سرنگ
سرنگوں
سرو
سرور
سرورق
سروس
سروسز
سروں
سروے
سرٹیفکیٹ
سرپرست
سرپرستی
سرپسکا
سرچ
سرچشمہ
سرکار
سرکاری
سرکردگی
سرکردہ
سرکس
سرکش
سرکشی
سرکل
سرکلر
سرکوبی
سرکٹ
سرکہ
سرگرم
سرگرمی
سرگرمیاں
سرگرمیوں
سرگزشت
سرگودھا
سرہ
سرہند
سرہندی
سری
سریانی
سریش
سرینام
سریندر
سرینگر
سریہ
سرے
سز
سزا
سزاي
سس
سسة
سست
سستا
سستی
سستے
سسر
سسرال
سسلی
سسٹم
سسٹمز
سسہ
سسۃ
سسی
سسیکس
سطح
سطحوں
سطحی
سطر
سطور
سعادت
سعد
سعدی
سعدیہ
سعود
سعودی
سعيد
سعی
سعید
سعیدہ
سعیدی
سغد
سفارت
سفارتخانے
سفارتکار
سفارتی
سفاردی
سفارش
سفارشات
سفر
سفرنامہ
سفرنامے
سفری
سفلی
سفوف
سفیان
سفید
سفیر
سفیروں
سفینہ
سقراط
سقوط
سل
سلا
سلاد
سلاسل
سلاطین
سلام
سلامت
سلامتی
سلامي
سلامية
سلامی
سلاو
سلاوی
سلاي
سلجوق
سلجوقی
سلجوقیان
سلجوقیوں
سلسلوں
سلسلہ
سلسلے
سلطان
سلطانوں
سلطانہ
سلطانی
سلطنت
سلطنتوں
سلطنتیں
سلف
سلفر
سلفی
سلفیہ
سلم
سلمان
سلمہ
سلمی
سلنڈر
سلنگور
سلو
سلوا
سلواڈور
سلور
سلوواک
سلوواکیا
سلوواکیہ
سلووینیا
سلوک
سليمان
سلپ
سلک
سلہٹ
سلی
سلیس
سلیقہ
سلیم
سلیمان
سلیمانی
سلیمانیہ
سلیچ
سلیکشن
سلیکٹر
سلیکٹرز
سم
سما
سماء
سماج
سماجی
سماجیات
سمارٹ
سماع
سماعت
سمال
سمان
سمانوں
سمانی
سماوی
سماٹرا
سماں
سمت
سمتار
سمتوں
سمتھ
سمتھفیلڈ
سمتی
سمتیہ
سمجھ
سمجھا
سمجھانے
سمجھایا
سمجھتا
سمجھتی
سمجھتے
سمجھنا
سمجھنے
سمجھو
سمجھوتہ
سمجھی
سمجھیں
سمجھے
سمر
سمرسیٹ
سمرقند
سمرقندی
سمرہ
سمن
سمنان
سمنانی
سمندر
سمندروں
سمندری
سموي
سمٹ
سمپسن
سمہ
سمیت
سمیر
سمیرا
سمیع
سمیٹ
سن
سنا
سناتا
سناتے
سنار
سنان
سنانے
سناي
سنایا
سنبل
سنبھال
سنبھالا
سنبھالتے
سنبھالنے
سنبھالی
سنبھالے
سنبھل
سنة
سنت
سنتا
سنتوش
سنتوں
سنتے
سنجر
سنجیدگی
سنجیدہ
سنجے
سند
سندر
سندھ
سندھو
سندھی
سندھیا
سنز
سنس
سنسد
سنسر
سنسنی
سنسکرت
سنن
سننا
سننے
سنو
سنٹر
سنٹرل
سنٹی
سنچری
سنچریاں
سنچریوں
سنڈے
سنکیانگ
سنگ
سنگاپور
سنگاکارا
سنگت
سنگر
سنگل
سنگلز
سنگم
سنگھ
سنگھا
سنگھار
سنگی
سنگیت
سنگین
سنہ
سنہا
سنہالی
سنہری
سنہرے
سنۃ
سنی
سنیل
سنیما
سنیوں
سنیں
سنیے
سنے
سو
سوا
سوات
سواتی
سواد
سوار
سواروں
سواری
سوازی
سوال
سوالات
سوالوں
سوالیہ
سوامی
سوان
سوانح
سوانحی
سواي
سوبرز
سوتی
سوتیلی
سوتیلے
سوتے
سوجن
سود
سودا
سوداگر
سودہ
سودی
سودے
سور
سوراخ
سورة
سورت
سورتوں
سورتیں
سورج
سورس
سورہ
سورۃ
سوری
سوریا
سوریہ
سوز
سوزا
سوزش
سوس
سوساي
سوسن
سوشل
سوشلزم
سوشلسٹ
سوفٹ
سوفی
سوق
سول
سولر
سولو
سولہ
سولہویں
سولی
سولیوان
سوم
سومرسیٹ
سومرو
سون
سونا
سونامی
سونم
سونو
سونپ
سونپا
سونپی
سونگ
سونی
سونیا
سونے
سوویت
سوویتوں
سوي
سوٹ
سوپ
سوپر
سوچ
سوچا
سوچتا
سوچتے
سوچنا
سوچنے
سوچی
سوڈا
سوڈان
سوڈانی
سوگ
سوں
سوہدروی
سوہدرہ
سوہن
سوہنی
سوی
سویا
سویت
سویر
سویرا
سویرے
سویلین
سویٹزرلینڈ
سویڈش
سویڈن
سي
سيد
سير
سٹ
سٹار
سٹارز
سٹارک
سٹاف
سٹاي
سٹاک
سٹراي
سٹرلنگ
سٹرو
سٹریا
سٹریلوی
سٹریلیا
سٹریلیاي
سٹریلین
سٹرین
سٹریٹ
سٹمپ
سٹن
سٹور
سٹوری
سٹون
سٹوڈیو
سٹڈیز
سٹکلف
سٹی
سٹیج
سٹیشن
سٹیفن
سٹیل
سٹیم
سٹین
سٹیو
سٹیورٹ
سٹیٹ
سٹیٹس
سٹیڈیم
سپارٹا
سپاي
سپاہ
سپاہی
سپاہیوں
سپر
سپرد
سپرنٹنڈنٹ
سپرنگ
سپرنگز
سپرنگفیلڈ
سپریم
سپلاي
سپن
سپنا
سپنر
سپورٹ
سپورٹس
سپہ
سپین
سپینسر
سپیکر
سچ
سچا
سچاي
سچل
سچن
سچی
سچے
سڈنی
سڑسٹھ
سڑک
سڑکوں
سڑکیں
سک
سکا
سکالر
سکاي
سکاٹ
سکاٹش
سکتا
سکتی
سکتیں
سکتے
سکر
سکردو
سکرپٹ
سکرین
سکریٹری
سکس
سکسرز
سکم
سکندر
سکو
سکواڈ
سکوت
سکور
سکورر
سکوشیا
سکول
سکولز
سکولوں
سکون
سکونت
سکوں
سکھ
سکھا
سکھانے
سکھاي
سکھایا
سکھر
سکھوں
سکہ
سکی
سکیم
سکینہ
سکیورٹی
سکیں
سکے
سگریٹ
سگنل
سگے
سہ
سہارا
سہارنپور
سہارنپوری
سہارے
سہرا
سہراب
سہروردی
سہروردیہ
سہل
سہن
سہولت
سہولتوں
سہولتیں
سہولیات
سہگل
سہی
سہیل
سہیلی
سی
سیا
سیاح
سیاحت
سیاحتی
سیاحوں
سیادت
سیاروں
سیاروی
سیارچہ
سیارہ
سیارے
سیاست
سیاستدان
سیاستدانوں
سیاسی
سیاسیات
سیاق
سیال
سیالوی
سیالکوٹ
سیام
سیاہ
سیاہی
سیب
سیت
سیتا
سیج
سید
سیداں
سیدن
سیدنا
سیدو
سیدھا
سیدھی
سیدھے
سیدہ
سیدی
سیر
سیرا
سیراب
سیرالیون
سیرت
سیرو
سیرۃ
سیری
سیریز
سیریل
سیریلز
سیرین
سیزر
سیزن
سیستان
سیستانی
سیسل
سیسہ
سیشن
سیف
سیفٹی
سیفی
سیفیہ
سیل
سیلاب
سیلابی
سیلز
سیلسیان
سیلف
سیلم
سیلواڈور
سیلون
سیلی
سیم
سیما
سیماب
سیمنز
سیمنٹ
سیموي
سیمی
سیمینار
سیمینری
سین
سینا
سینتالیس
سینتیس
سینسر
سینما
سیني
سینٹ
سینٹر
سینٹرل
سینٹی
سینٹیاگو
سینچری
سینڈ
سینڈوچ
سینڈی
سینکڑوں
سینگ
سینہ
سینی
سینیي
سینیٹ
سینیٹر
سینیگال
سینے
سیو
سیوا
سیوطی
سیول
سیون
سیوک
سیي
سیٹ
سیٹلاي
سیٹھ
سیچیلیس
سیڈجویک
سیڈر
سیڈل
سیڑھی
سیڑھیاں
سیڑھیوں
سیکرٹ
سیکرٹری
سیکرٹریٹ
سیکریٹری
سیکریٹریٹ
سیکس
سیکسن
سیکشن
سیکنڈ
سیکنڈری
سیکورٹی
سیکولر
سیکوي
سیکٹر
سیکڑوں
سیکھ
سیکھا
سیکھتے
سیکھنا
سیکھنے
سیکھی
سیکھے
سیکیورٹی
سیہ
سیہون
سے
ش
شا
شاء
شابک
شاخ
شاخوں
شاخیں
شاد
شاداب
شادی
شادیاں
شادیوں
شاذ
شارجہ
شارح
شارع
شارلٹ
شارٹ
شارپ
شارک
شازیہ
شاستر
شاستری
شاعر
شاعرانہ
شاعروں
شاعرہ
شاعری
شافعی
شال
شالیمار
شام
شامل
شاملہ
شامی
شان
شانتی
شاندار
شانہ
شاه
شاي
شاٹ
شاٹس
شاپ
شاپنگ
شاپور
شاپیل
شاکر
شاگرد
شاگردوں
شاگردی
شاہ
شاہان
شاہانہ
شاہجہان
شاہجہاں
شاہد
شاہدرہ
شاہدہ
شاہراہ
شاہراہوں
شاہرہ
شاہنامہ
شاہنواز
شاہو
شاہکار
شاہی
شاہین
شاید
شایع
شب
شباب
شبانہ
شبلی
شبنم
شبہ
شبہات
شبیب
شبیر
شبیہ
شبیہہ
شت
شجاع
شجاعت
شجر
شجرہ
شخص
شخصی
شخصیات
شخصیت
شخصیتوں
شد
شداد
شدت
شده
شدہ
شدید
شذرات
شر
شراب
شرابی
شرارت
شراف
شرافت
شراي
شراکت
شربت
شرجیل
شرح
شرر
شرط
شرع
شرعی
شرعیہ
شرف
شرق
شرقی
شرقیہ
شرم
شرما
شرمناک
شرمندگی
شرمندہ
شرمیلا
شرمین
شروع
شروعات
شرٹ
شرک
شرکاء
شرکت
شری
شریان
شریح
شریر
شریعت
شریعہ
شریف
شریفین
شریک
شش
ششم
شطرنج
شعار
شعاع
شعاعوں
شعاعیں
شعاي
شعب
شعبان
شعبوں
شعبہ
شعبی
شعبے
شعر
شعرا
شعراء
شعراي
شعری
شعلہ
شعلے
شعور
شعوری
شعیب
شغف
شغل
شفا
شفاء
شفاعت
شفاف
شفق
شفقت
شفٹ
شفیع
شفیق
شق
شلوار
شما
شمار
شمارندی
شماره
شمارہ
شماری
شماریات
شماریاتی
شمارے
شمال
شمالی
شماي
شمر
شمس
شمسی
شمشاد
شمشیر
شمع
شمعون
شمل
شملہ
شمولیت
شمیل
شمیم
شن
شنا
شناخت
شناختی
شناس
شناسی
شناي
شندے
شنکر
شنگھاي
شنید
شهر
شهید
شو
شوال
شواہد
شوب
شوخ
شوخی
شود
شور
شورش
شوری
شوز
شوق
شوقی
شوقین
شوقیہ
شوي
شوٹ
شوٹنگ
شوکت
شوگر
شوں
شوہر
شوہروں
شي
شيخ
شپ
شپنگ
شک
شکار
شکارپور
شکاری
شکاگو
شکایات
شکایت
شکتی
شکر
شکریہ
شکست
شکستوں
شکستہ
شکل
شکلا
شکلوں
شکلیں
شکم
شکن
شکنتلا
شکنی
شکوک
شکوہ
شکیب
شکیل
شگاف
شگفتہ
شہ
شہاب
شہابی
شہادت
شہباز
شہد
شہدا
شہداء
شہداي
شہر
شہرت
شہرستان
شہروں
شہرہ
شہری
شہریار
شہریت
شہریوں
شہزاد
شہزادوں
شہزادہ
شہزادی
شہزادے
شہناز
شہنشاہ
شہنشاہوں
شہوانی
شہوت
شہید
شہیدوں
شی
شیا
شیام
شیبانی
شیبہ
شیخ
شیخوپورہ
شیخہ
شیداي
شیر
شیراز
شیرازی
شیرانی
شیرمین
شیرنی
شیروان
شیروانی
شیرون
شیروں
شیری
شیریں
شیش
شیشہ
شیشے
شیطان
شیطانوں
شیطانی
شیعوں
شیعہ
شیعی
شیعیان
شیعیت
شیف
شیفیلڈ
شیل
شیلا
شیلبی
شیلڈ
شیمپیي
شین
شینا
شینن
شیو
شیوا
شیواجی
شیوخ
شیوں
شیي
شیٹ
شیٹی
شیڈول
شیک
شیکسپیي
شیکھر
شیں
شے
ص
صا
صابة
صابر
صابری
صابن
صاحب
صاحبان
صاحباں
صاحبزادہ
صاحبزادی
صاحبزادے
صاحبہ
صادر
صادق
صارف
صارفین
صاع
صاف
صافی
صالح
صالحہ
صالحین
صاي
صبا
صباح
صبح
صبر
صبیح
صبیحہ
صحاب
صحابہ
صحابی
صحابیہ
صحاح
صحارا
صحافت
صحافتی
صحافی
صحافیوں
صحبت
صحة
صحت
صحرا
صحراو
صحراي
صحن
صحيح
صحیح
صحیفوں
صحیفہ
صحیفے
صد
صدا
صدارت
صدارتی
صداقت
صدام
صداي
صدر
صدرالدین
صدف
صدق
صدقات
صدقہ
صدمہ
صدمے
صدور
صدوق
صدی
صدیاں
صدیق
صدیقہ
صدیقی
صدیوں
صر
صراحت
صراط
صرف
صریح
صص
صغری
صغیر
صـ
صف
صفا
صفات
صفاتی
صفاي
صفایا
صفت
صفحات
صفحة
صفحه
صفحہ
صفحے
صفد
صفدر
صفر
صفوان
صفوں
صفوی
صفویوں
صفہ
صفی
صفین
صفیہ
صقلیہ
صل
صلابت
صلاح
صلاحیت
صلاحیتوں
صلاحیتیں
صلاۃ
صلح
صلو
صلى
صلہ
صلی
صلیب
صلیبی
صلیبیوں
صلے
صندوق
صنعاء
صنعت
صنعتوں
صنعتی
صنعتیں
صنف
صنفی
صنم
صو
صوابی
صوباي
صوبوں
صوبہ
صوبیدار
صوبے
صوت
صوتی
صور
صورت
صورتحال
صورتوں
صورتیں
صوفی
صوفیا
صوفیاء
صوفیانہ
صوفیاي
صوفیوں
صوفیہ
صول
صومالی
صومالیہ
صيانة
صہیونی
صہیونیت
صیغہ
صیہونی
صیہونیت
ض
ضابطہ
ضابطے
ضامن
ضاي
ضبط
ضحاک
ضخیم
ضد
ضدی
ضر
ضرب
ضرر
ضرور
ضرورت
ضرورتوں
ضروری
ضروریات
ضعف
ضعیف
ضلع
ضلعوں
ضلعی
ضلعے
ضم
ضمانت
ضمن
ضمنی
ضمیر
ضمیمہ
ضو
ضوابط
ضی
ضیا
ضیاء
ضیافت
ضیاي
ط
طا
طارق
طاری
طاس
طاعون
طاق
طاقت
طاقتور
طاقتوں
طاقتیں
طاقم
طالب
طالبات
طالبان
طالبہ
طاو
طاووس
طاي
طاہر
طاہرالقادری
طاہرہ
طب
طباطباي
طباطبایی
طباعت
طبرانی
طبرستان
طبرسی
طبری
طبع
طبعة
طبعی
طبعیات
طبقات
طبقاتی
طبقوں
طبقہ
طبقے
طبلہ
طبی
طبیب
طبیعت
طبیعی
طبیعیات
طبیعیاتی
طحاوی
طر
طرابلس
طراز
طرح
طرز
طرزیات
طرف
طرفہ
طریق
طریقت
طریقوں
طریقہ
طریقے
طعام
طعن
طغرل
طفرہ
طفیل
طلاق
طلال
طلاي
طلب
طلبا
طلباء
طلبہ
طلبی
طلحہ
طلسم
طلعت
طلوع
طنجہ
طنز
طنزیہ
طو
طواف
طوالت
طواي
طور
طورپر
طوسی
طوطا
طوطے
طوفان
طوفانوں
طوفانی
طول
طومار
طویل
طہ
طہارت
طیار
طیاره
طیاروں
طیارہ
طیارے
طیب
طیبہ
طیف
طے
ظ
ظالم
ظالمانہ
ظالموں
ظاہر
ظاہری
ظرافت
ظرف
ظروف
ظریف
ظفر
ظل
ظلم
ظن
ظہر
ظہور
ظہیر
ع
عا
عابد
عابدہ
عابدی
عاجز
عاجزی
عاد
عادات
عادت
عادل
عادی
عارضہ
عارضی
عارف
عارفہ
عاری
عازم
عاشق
عاشور
عاشورا
عاشورہ
عاص
عاصم
عاصمہ
عاطف
عافیت
عاقل
عال
عالم
عالموں
عالمگیر
عالمگیری
عالمگیریت
عالمہ
عالمی
عالی
عالیشان
عالیہ
عام
عامر
عامل
عاملہ
عاملی
عامہ
عاي
عبا
عباد
عبادات
عبادت
عبادہ
عبارت
عباس
عباسی
عباسیوں
عباسیہ
عبد
عبدالبر
عبدالحق
عبدالحلیم
عبدالحمید
عبدالحکیم
عبدالرحم
عبدالرحمان
عبدالرحمن
عبدالرحیم
عبدالرزاق
عبدالرشید
عبدالستار
عبدالسلام
عبدالعزیز
عبدالغفار
عبدالقادر
عبدالقیوم
عبداللطیف
عبدالله
عبداللہ
عبدالمجید
عبدالمطلب
عبدالملک
عبدالوہاب
عبدالکریم
عبدی
عبرانی
عبرت
عبور
عبوری
عبید
عبیداللہ
عبیدہ
عت
عتاب
عتبہ
عتیق
عثمان
عثمانی
عثمانیوں
عثمانیہ
عج
عجاي
عجب
عجلت
عجم
عجمی
عجیب
عد
عدالت
عدالتوں
عدالتی
عدالتیں
عداوت
عدت
عدد
عددی
عدسہ
عدل
عدلیہ
عدم
عدن
عدنان
عدی
عدیل
عذاب
عذر
عذرا
عر
عراق
عراقی
عراقیوں
عرب
عربوں
عربي
عربی
عربیہ
عرس
عرش
عرصہ
عرصے
عرض
عرف
عرفات
عرفان
عرفانی
عرفہ
عرفی
عرفیت
عرق
عروج
عروض
عروہ
عریض
عز
عزاداری
عزاي
عزت
عزتی
عزرا
عزم
عزوجل
عزیر
عزیز
عساکر
عسقلانی
عسکری
عسکریت
عشاء
عشر
عشرت
عشروں
عشرہ
عشری
عشریہ
عشرے
عشق
عشقیہ
عصا
عصبی
عصر
عصروں
عصری
عصمت
عضلات
عضو
عطا
عطاء
عطار
عطارد
عطر
عطرے
عطیات
عطیہ
عظام
عظم
عظمت
عظمی
عظیم
عظیمی
عفان
عفت
عقاب
عقاي
عقب
عقبہ
عقبی
عقد
عقل
عقلمند
عقلی
عقلیت
عقلیہ
عقیدت
عقیدہ
عقیدے
عقیق
عقیل
عل
علا
علاء
علاج
علاحدہ
علاقاي
علاقوں
علاقہ
علاقے
علالت
علام
علامات
علامت
علامتوں
علامتی
علامتیں
علامہ
علانیہ
علاو
علاوہ
علاي
علت
علقمہ
علم
علما
علماء
علماي
علمبردار
علموں
علمی
علمیہ
علوم
علوی
علویوں
على
علي
عليه
عليہ
علی
علیا
علیحدگی
علیحدہ
علیل
علیم
علیه
علیہ
علیہا
علیہم
علیہما
عم
عما
عماد
عمار
عمارات
عمارت
عمارتوں
عمارتیں
عمارہ
عمال
عمامہ
عمان
عماي
عمدہ
عمدۃ
عمر
عمران
عمرانی
عمرانیات
عمرنے
عمرو
عمروبن
عمرہ
عمری
عمل
عملا
عملداری
عملدرا
عملہ
عملی
عملیات
عملے
عمودی
عموم
عموما
عمومی
عمیر
عمیق
عن
عناصر
عنان
عنایت
عنبر
عند
عنصر
عنقریب
عنه
عنوان
عنوانات
عنہ
عنہا
عنہم
عو
عوام
عوامل
عوامی
عود
عورت
عورتوں
عورتیں
عوض
عوف
عون
عکاس
عکاسی
عکرمہ
عکس
عہد
عہدوں
عہدہ
عہدی
عہدیدار
عہدیداروں
عہدے
عی
عیادت
عیاش
عیاض
عیال
عیاں
عیب
عید
عیس
عیساي
عیسوی
عیسی
عیش
عیل
عین
عینک
عینی
عیون
عیینہ
غ
غا
غاخان
غار
غارت
غاروں
غاز
غازی
غافل
غالب
غالبا
غامد
غاي
غایت
غبار
غت
غدار
غداری
غدر
غدود
غدیر
غذا
غذاي
غر
غرب
غربت
غربی
غرض
غرق
غرناطہ
غروب
غرور
غریب
غریبوں
غز
غزالہ
غزالی
غزل
غزلوں
غزلیات
غزلیں
غزنوی
غزنہ
غزنی
غزوات
غزوہ
غزہ
غسل
غصہ
غصے
غضب
غضنفر
غفاری
غفلت
غلاف
غلام
غلاموں
غلامی
غلبہ
غلط
غلطی
غلطیاں
غلطیوں
غلہ
غم
غمگین
غنم
غنی
غنیمت
غو
غوث
غوثیہ
غور
غوری
غوش
غوطہ
غير
غیاث
غیب
غیبت
غیبی
غیر
غیرت
غیرمعمولی
غیظ
ـ
ـذ
ــ
ـي
ف
فا
فات
فاتح
فاتحہ
فاتحین
فادر
فار
فارس
فارسٹ
فارسی
فارسیوں
فارغ
فارم
فارمز
فارمنگٹن
فارمولا
فارمیسی
فارمیٹ
فارمیٹس
فارن
فارورڈ
فاروق
فاروقی
فارچون
فاریسٹ
فاس
فاسد
فاسفورس
فاسق
فاسو
فاسٹ
فاش
فاشسٹ
فاصلہ
فاصلے
فاضل
فاطمہ
فاطمی
فاطمیہ
فاعل
فاق
فاقہ
فاقی
فال
فالج
فالز
فالو
فام
فاموں
فان
فانوس
فانٹ
فانی
فاو
فاونڈیشن
فاي
فاٹا
فاکس
فت
فتاب
فتاوی
فتح
فتنہ
فتنے
فتوح
فتوحات
فتوی
فتوے
فجر
فجی
فحاشی
فحش
فخر
فخرالدین
فدا
فداي
فدیہ
فر
فرات
فرار
فراز
فراست
فراغت
فراق
فراموش
فرانز
فرانس
فرانسس
فرانسسکو
فرانسیسی
فرانسیسیوں
فرانش
فرانک
فرانکو
فراوانی
فراي
فراہم
فراہمی
فرج
فرح
فرحان
فرحت
فرخ
فرد
فردا
فردوس
فردوسی
فرزانہ
فرزند
فرزندان
فرسودہ
فرسٹ
فرش
فرشتوں
فرشتہ
فرشتے
فرصت
فرض
فرضی
فرعون
فرغانہ
فرق
فرقوں
فرقہ
فرقے
فرم
فرما
فرماتا
فرماتی
فرماتے
فرمان
فرمانروا
فرمانے
فرماي
فرماں
فرمایا
فرنٹ
فرنٹیي
فرنچ
فرنچاي
فرنگی
فرنینڈو
فرنیچر
فرهنگ
فرهنگی
فرو
فروخت
فروری
فروش
فروشی
فروع
فروغ
فروٹ
فرڈینینڈ
فرگوسن
فرہاد
فرہنگ
فری
فریاد
فریب
فرید
فریدہ
فریدی
فریزر
فریضہ
فریق
فریقوں
فریقی
فریقین
فریم
فریمونٹ
فرین
فرینڈ
فرینڈز
فرینک
فرینکفرٹ
فرینکلن
فریڈ
فریڈرک
فریڈم
فریکوي
فزکس
فزیکل
فس
فساد
فسادات
فسانہ
فش
فشانی
فشاں
فشر
فصاحت
فصل
فصلوں
فصلیں
فصیح
فصیل
فضا
فضاء
فضاي
فضل
فضلا
فضلاء
فضلان
فضلہ
فضلی
فضول
فضیل
فضیلت
فطرت
فطری
فعال
فعالیت
فعل
فعلیات
ففٹی
فقدان
فقر
فقراء
فقرہ
فقرے
فقط
فقہ
فقہا
فقہاء
فقہاي
فقہی
فقہیہ
فقیر
فقیہ
فل
فلاح
فلاحی
فلاسفہ
فلاور
فلاي
فلاپ
فلاڈیلفیا
فلاں
فلز
فلسطین
فلسطینی
فلسطینیوں
فلسفہ
فلسفی
فلسفیانہ
فلسفیوں
فلسفے
فلم
فلماي
فلمایا
فلمز
فلمساز
فلمور
فلموں
فلمی
فلمیں
فلو
فلور
فلورنس
فلوریڈا
فلوي
فلٹن
فلپ
فلپاي
فلپس
فلک
فلکس
فلکی
فلکیات
فلکیاتی
فلیش
فلیمنگ
فلیٹ
فلیچر
فن
فنا
فنانس
فنانشل
فندی
فنون
فنڈ
فنڈز
فنڈنگ
فنکار
فنکارانہ
فنکاروں
فنکشن
فنی
فو
فواد
فواي
فوت
فوج
فوجداری
فوجوں
فوجی
فوجیوں
فوجیں
فور
فورا
فوربس
فورس
فورسز
فورم
فورنیا
فورٹ
فورڈ
فورک
فورکل
فوری
فوزیہ
فوسٹر
فوق
فوقتا
فوقیت
فولاد
فون
فونٹ
فوٹو
فوٹون
فوٹوگرافر
فوٹوگرافی
فوٹیج
فوڈ
فوک
فوکس
فى
في
فٹ
فٹبالر
فٹنس
فکر
فکری
فکسنگ
فکسچر
فکشن
فہ
فہد
فہر
فہرست
فہرستیں
فہم
فہمی
فہمیدہ
فہیم
فی
فیاض
فیاضی
فیرل
فیروز
فیری
فیز
فیس
فیسر
فیسٹیول
فیشل
فیشن
فیصد
فیصل
فیصلوں
فیصلہ
فیصلے
فیض
فیضان
فیضی
فیفا
فیل
فیلو
فیلوشپ
فیلڈ
فیلڈر
فیلڈز
فیلڈنگ
فیلکس
فیم
فیملی
فین
فینڈر
فینکس
فینگ
فینیش
فیوض
فیونا
فیوچر
فیي
فیٹ
فیچر
فیڈ
فیڈرل
فیڈریشن
فیکس
فیکلٹی
فیکٹری
فیکٹریاں
فیکٹریوں
فیہ
فے
ق
قا
قاب
قابض
قابل
قابلیت
قابو
قابیل
قاتل
قاتلانہ
قاتلوں
قاجار
قادر
قادری
قادریہ
قادسیہ
قادیانی
قادین
قاري
قاری
قازان
قازق
قازقستان
قاسم
قاسمی
قاصد
قاصر
قاضی
قاعدہ
قاعدے
قافلوں
قافلہ
قافلے
قافیہ
قال
قالب
قالین
قامت
قاموس
قانع
قانون
قانونی
قاي
قاہرہ
قبا
قباي
قبر
قبرستان
قبرص
قبرصی
قبروں
قبریں
قبض
قبضہ
قبضے
قبطی
قبل
قبلہ
قبور
قبول
قبولیت
قبیلوں
قبیلہ
قبیلے
قت
قتادہ
قتال
قتل
قتیبہ
قحبہ
قحط
قد
قدامت
قدامہ
قدر
قدرت
قدرتی
قدروں
قدرے
قدس
قدسی
قدسیہ
قدم
قدموں
قدمی
قدواي
قدوسی
قدیر
قدیم
قدیمہ
قدیمی
قذافی
قر
قرا
قراء
قرابت
قرات
قرار
قرارداد
قراقرم
قرامطہ
قران
قراي
قرب
قربان
قربانی
قربانیاں
قربانیوں
قربت
قرشی
قرص
قرض
قرضوں
قرضہ
قرضے
قرطاس
قرطبہ
قرطبی
قرن
قرون
قرہ
قرۃ
قریب
قریبا
قریبی
قریش
قریشی
قریظہ
قرین
قریہ
قزاق
قزاقوں
قزاقی
قزلباش
قزوین
قزوینی
قسط
قسطنطنیہ
قسطنطین
قسطوں
قسم
قسمت
قسمتی
قسموں
قسمیں
قصاص
قصاي
قصبات
قصبوں
قصبہ
قصبے
قصد
قصر
قصص
قصور
قصوروار
قصوری
قصوں
قصہ
قصی
قصیدہ
قصیدے
قصے
قضا
قضاء
قضاۃ
قضیہ
قطار
قطاروں
قطاریں
قطب
قطبی
قطبین
قطر
قطرہ
قطرے
قطع
قطعا
قطعات
قطعہ
قطعی
قطعے
قطیف
قف
قفقاز
قفقازی
قل
قلات
قلب
قلبی
قلت
قلع
قلعوں
قلعہ
قلعی
قلعے
قلم
قلمبند
قلمدان
قلمرو
قلمی
قلندر
قلندرز
قلی
قلیل
قم
قمبر
قمر
قمری
قمہ
قمی
قمیض
قناعت
قندھار
قندھاری
قندیل
قنوج
قو
قواعد
قوال
قوالی
قوانین
قوت
قوتوں
قوتیں
قوس
قول
قوم
قوموں
قومی
قومیت
قومیتوں
قومیں
قونصل
قونیہ
قوی
قيس
قيمة
قہ
قہر
قی
قیا
قیادت
قیاس
قیام
قیامت
قید
قیدی
قیدیوں
قیراط
قیس
قیصر
قیم
قیمت
قیمتوں
قیمتی
قیمتیں
قین
قیوم
قے
ك
كا
كان
كتاب
كتوبر
كثر
كد
كر
كعب
كو
كى
كيا
كہ
كی
كے
ل
لا
لاء
لابن
لات
لاتا
لاتعداد
لاتعلقی
لاتی
لاتے
لاج
لاجواب
لاحق
لاحقہ
لادن
لارا
لارناکا
لارنس
لارنٹ
لارڈ
لارڈز
لاری
لازم
لازما
لازمی
لازوال
لاس
لاش
لاشاری
لاشوں
لاشیں
لاطینی
لافانی
لافاي
لال
لالٹین
لالچ
لالہ
لالی
لام
لامتناہی
لامحدود
لامہ
لان
لانا
لاناو
لانس
لانچ
لانگ
لانے
لاو
لاوا
لاوی
لاي
لاٹھی
لاپتہ
لاڑکانہ
لاک
لاکر
لاکھ
لاکھوں
لاگ
لاگت
لاگرتھم
لاگو
لاہوت
لاہور
لاہوری
لایا
لب
لباب
لباس
لبرل
لبرٹی
لبریز
لبریشن
لبنان
لبنانی
لبیون
لبیک
لت
لتا
لتھوانیا
لتھوانیاي
لتھووینیا
لحاظ
لحم
لحمیات
لخت
لد
لداخ
لدھیانوی
لدھیانہ
لدین
لذت
لر
لرز
لرستان
لز
لزبن
لس
لسان
لسانی
لسانیات
لسبیلہ
لسٹ
لسی
لشکر
لشکروں
لطافت
لطاي
لطف
لطیف
لطیفہ
لعل
لعنت
لغات
لغاری
لغة
لغت
لغزش
لغوی
لـ
لف
لفظ
لفظوں
لفظی
لفون
لفٹ
لفین
لقب
لقمان
لقمہ
لل
للا
للہ
للی
لم
لمانية
لمبا
لمباي
لمبی
لمبے
لمحات
لمحوں
لمحہ
لمحے
لمپور
لمیٹڈ
لن
لندن
لنچ
لنڈا
لنڈسے
لنڈن
لنڈی
لنک
لنکا
لنکاسٹر
لنکاشاي
لنکن
لنگ
لنگر
لنی
له
لو
لوا
لواحقین
لوار
لوازمات
لوتھر
لوث
لوح
لود
لودگی
لودھراں
لودھی
لودہ
لودی
لورا
لورالاي
لوری
لورین
لوزان
لوزیانا
لوس
لوسی
لوسیا
لوط
لوقا
لولی
لومڑی
لون
لونڈی
لونگ
لونی
لوویزیانا
لوي
لوٹ
لوٹا
لوٹنا
لوٹنے
لوٹے
لوپ
لوڈ
لوک
لوکل
لوگ
لوگن
لوگو
لوگوں
لوں
لوہا
لوہار
لوہے
لوی
لى
لي
ليے
لٹ
لٹا
لٹریری
لٹریچر
لٹل
لٹوں
لٹویا
لٹکا
لٹی
لپ
لپیٹ
لچک
لچکدار
لڈ
لڑ
لڑا
لڑاي
لڑاکا
لڑتا
لڑتے
لڑنا
لڑنے
لڑکا
لڑکوں
لڑکپن
لڑکی
لڑکیاں
لڑکیوں
لڑکے
لڑی
لڑیں
لڑے
لک
لکس
لکسمبرگ
لکشمن
لکشمی
لکڑی
لکڑیوں
لکھ
لکھا
لکھاری
لکھتا
لکھتی
لکھتے
لکھنا
لکھنو
لکھنوی
لکھنے
لکھی
لکھیں
لکھے
لکی
لکیر
لکیروں
لکیری
لکیریں
لگ
لگا
لگاتا
لگاتار
لگاتی
لگاتے
لگادی
لگام
لگان
لگانا
لگانے
لگاو
لگاي
لگایا
لگتا
لگتی
لگتے
لگر
لگن
لگنا
لگنے
لگی
لگیں
لگے
لہ
لہب
لہجوں
لہجہ
لہجے
لہذا
لہر
لہرایا
لہروں
لہری
لہریں
لہسن
لہو
لی
لیا
لیاری
لیاقت
لیاو
لیب
لیبارٹری
لیبارٹریز
لیبر
لیبل
لیبیا
لیت
لیتا
لیتھوانیا
لیتی
لیتے
لیث
لیجنڈ
لیجي
لیختینستاي
لیری
لیز
لیزا
لیزر
لیس
لیسلی
لیسوتھو
لیسٹر
لیف
لیفٹ
لیفٹیننٹ
لیل
لیلا
لیلہ
لیلی
لیما
لیموں
لین
لینا
لینس
لینسٹر
لینن
لینڈ
لینڈر
لینڈز
لینڈنگ
لینکس
لینگ
لینگر
لینگویج
لینی
لینے
لیو
لیوا
لیور
لیورپول
لیورڈ
لیوس
لیول
لیون
لیونارڈ
لیونٹ
لیونگسٹن
لیوک
لیوں
لیوی
لیي
لیٹ
لیٹر
لیپ
لیڈ
لیڈر
لیڈرشپ
لیڈروں
لیڈز
لیڈی
لیڈیا
لیک
لیکر
لیکس
لیکسنگٹن
لیکن
لیکچر
لیکچرار
لیکچرر
لیکچرز
لیگ
لیں
لیہ
لیہمن
لیے
لے
م
ما
مابعد
مابین
مات
ماتا
ماتحت
ماتحتی
ماتریدی
ماتم
ماتھے
ماجد
ماجدہ
ماجوج
ماجہ
ماحول
ماحولیات
ماحولیاتی
ماخذ
ماخوذ
ماد
مادر
مادری
مادوں
مادگی
مادھو
مادھوری
مادہ
مادی
مادیت
مادے
مار
مارا
ماربل
مارتا
مارتھا
مارتے
مارجن
مارس
مارسیل
مارش
مارشل
مارلبورو
مارن
مارنا
مارننگ
مارنے
مارو
مارول
ماروی
مارٹر
مارٹل
مارٹن
مارٹی
مارچ
مارک
مارکر
مارکس
مارکسزم
مارکسی
مارکو
مارکوي
مارکیٹ
مارکیٹنگ
مارگریٹ
مارگلہ
مارہروی
ماری
ماریا
ماریانا
ماریس
مارینو
ماریو
ماریون
ماریہ
مارے
مازندران
مازندرانی
ماس
ماسواي
ماسٹر
ماسٹرز
ماسک
ماسکو
ماضی
مافوق
مافیا
ماقبل
مال
مالا
مالاي
مالاکنڈ
مالدار
مالدووا
مالدیپ
مالك
مالوا
مالوہ
مالٹا
مالک
مالکان
مالکی
مالی
مالیات
مالیاتی
مالیت
مالیگاو
مالیہ
مالے
مام
ماما
مامقانی
مامور
مامون
ماموں
مان
مانا
مانتا
مانتی
مانتے
ماند
ماندہ
مانس
مانسہرہ
مانع
ماننا
مانند
ماننے
مانو
مانوس
مانٹریال
مانچسٹر
مانچو
مانک
مانگ
مانگا
مانگتا
مانگتے
مانگنے
مانگی
مانی
مانیٹر
مانے
ماو
ماورا
ماوراء
ماوراي
ماوری
ماي
ماڈرن
ماڈل
ماڈلز
ماڈلنگ
ماڈیول
ماڑی
ماکون
ماگوي
ماں
ماہ
ماہانہ
ماہر
ماہرین
ماہنامہ
ماہواری
ماہی
ماہیت
مایا
مایوس
مایوسی
مایہ
مباحث
مباحثوں
مباحثہ
مباحثے
مبادلہ
مبارک
مبارکباد
مبارکپوری
مبارکہ
مباشرت
مبالغہ
مباہلہ
مبتلا
مبذول
مبشر
مبصر
مبصرین
مبعوث
مبلغ
مبلغین
مبنی
مبہم
مبین
مبینہ
مة
مت
متاثر
متاثرہ
متاثرین
متاع
متبادل
متبادلات
متبرک
متجاوز
متحد
متحدہ
متحرک
متحمل
مترا
مترادف
مترادفات
مترجم
مترجمین
متروک
متزلزل
متشدد
متصادم
متصل
متضاد
متعارف
متعدد
متعددة
متعدی
متعصب
متعلق
متعلقہ
متعہ
متعین
متغیر
متفرق
متفق
متفقہ
متقی
متلاشی
متمول
متمکن
متن
متنازع
متنازعہ
متناسب
متناسق
متناسقات
متنبہ
متنوع
متواتر
متوازن
متوازی
متوالیہ
متوجہ
متوسط
متوفی
متوقع
متون
متوکل
متکلم
متکلمین
متھرا
متھیا
متی
متین
مثال
مثالوں
مثالی
مثالیں
مثبت
مثل
مثلا
مثلث
مثنوی
مثنی
مجارستان
مجاری
مجاز
مجازا
مجازی
مجالس
مجاہد
مجاہدہ
مجاہدین
مجبور
مجبورا
مجبوری
مجتبی
مجتمع
مجتہد
مجتہدین
مجد
مجدد
مجددی
مجددیہ
مجذوب
مجرد
مجرم
مجرمانہ
مجرموں
مجروح
مجسم
مجسموں
مجسمہ
مجسمے
مجسٹریٹ
مجلس
مجلسوں
مجلسی
مجله
مجلہ
مجمع
مجموعوں
مجموعہ
مجموعی
مجموعے
مجنوں
مجوزہ
مجھ
مجھے
مجہول
مجیب
مجید
محاذ
محاذوں
محاسن
محاصرہ
محاصرے
محافظ
محافظات
محافظوں
محافظہ
محافل
محال
محاورہ
محاورے
محب
محبت
محبوب
محبوبہ
محتاج
محتاط
محترم
محترمہ
محدب
محدث
محدثین
محدود
محراب
محرم
محروم
محرومی
محرک
محرکات
محسن
محسود
محسوس
محشر
محصور
محصول
محصولات
محض
محفل
محفلوں
محفوظ
محقق
محققین
محل
محلات
محلاتی
محلول
محلوں
محلہ
محلی
محلے
محم
محمد
محمدبن
محمدی
محمدیہ
محمود
محمول
محمڈن
محنت
محنتی
محو
محور
محوری
محکم
محکموں
محکمہ
محکمے
محکوم
محی
محیط
مخ
مخاطب
مخالف
مخالفت
مخالفین
مختار
مختاری
مختص
مختصر
مختصرا
مختلط
مختلف
مخدوم
مخزن
مخصوص
مخطوطات
مخطوطہ
مخفف
مخفی
مخلص
مخلوط
مخلوق
مخلوقات
مخنث
مخنف
مخیر
مد
مدات
مداح
مداحوں
مداخلت
مدار
مدارج
مدارس
مداری
مدافعت
مدافعتی
مداي
مدبر
مدت
مدتوں
مدتی
مدثر
مدح
مدد
مددگار
مدر
مدراس
مدرس
مدرسوں
مدرسہ
مدرسۃ
مدرسین
مدرسے
مدظلہ
مدعا
مدعو
مدعومة
مدعی
مدفن
مدفون
مدلل
مدمقابل
مدن
مدنظر
مدنی
مدوراي
مدورفت
مدون
مديرية
مدھم
مدھو
مدھیہ
مدہ
مدی
مدیحہ
مدید
مدیر
مدیران
مدین
مدینہ
مدینۃ
مدینی
مدینے
مذاق
مذاکرات
مذاہب
مذمت
مذموم
مذکر
مذکور
مذکورہ
مذہب
مذہبی
مر
مرا
مرات
مراتب
مراجع
مراحل
مراد
مرادا
مراسم
مراعات
مراقبہ
مرانہ
مراٹھا
مراٹھواڑہ
مراٹھی
مراکز
مراکش
مراکشی
مربع
مربوط
مربی
مرة
مرتب
مرتبہ
مرتبے
مرتد
مرتضی
مرتفع
مرتکب
مرتکز
مرتے
مرثیہ
مرثیے
مرجان
مرجانی
مرجع
مرحلہ
مرحلے
مرحمت
مرحوم
مرحومہ
مرد
مردار
مردان
مردانہ
مردم
مردوں
مردہ
مردے
مرزا
مرزاي
مرسر
مرسل
مرسی
مرسین
مرشد
مرشدا
مرصع
مرض
مرضی
مرطوب
مرعشی
مرغ
مرغوب
مرغی
مرفوع
مرفی
مرقس
مرقع
مرلی
مرمت
مرمر
مرنا
مرنے
مرو
مروان
مروت
مروج
مروجہ
مروہ
مروی
مرویات
مرچ
مرچنٹ
مرکب
مرکبات
مرکز
مرکزہ
مرکزی
مرکزیت
مرکزے
مرکوز
مرگ
مرگیا
مرہ
مرہم
مرہون
مرہٹوں
مرہٹہ
مری
مریت
مریخ
مریخی
مرید
مریدوں
مریدین
مریض
مریضوں
مریم
مرے
مز
مزا
مزاج
مزاجی
مزاح
مزاحم
مزاحمت
مزاحمتی
مزاحیہ
مزار
مزارات
مزاری
مزدور
مزدوروں
مزدوری
مزمل
مزہ
مزید
مزین
مزے
مس
مسا
مسابقت
مسابقتی
مساجد
مسار
مسافت
مسافر
مسافروں
مسالک
مساوات
مساوی
مساي
مساکین
مست
مستثنی
مستحب
مستحق
مستحکم
مستدرک
مسترد
مستشرق
مستشرقین
مستطیل
مستعار
مستعد
مستعفی
مستعمل
مستفید
مستفیض
مستقبل
مستقر
مستقل
مستقیم
مستند
مستنصر
مستونگ
مستوی
مستی
مسجد
مسجدوں
مسخ
مسدس
مسدود
مسرت
مسرور
مسز
مسطح
مسعود
مسعودی
مسقط
مسلح
مسلسل
مسلط
مسلم
مسلما
مسلمان
مسلمانان
مسلمانوں
مسلموں
مسلمہ
مسلک
مسمار
مسند
مسوداتی
مسودہ
مسودے
مسوری
مسولینی
مسي
مسٹر
مسکراہٹ
مسکن
مسکین
مسیب
مسیح
مسیحا
مسیحی
مسیحیت
مسیحیوں
مسیسپی
مسیسیپی
مسیلمہ
مشابہ
مشابہت
مشارکین
مشاعروں
مشاعرہ
مشاعرے
مشاغل
مشاورت
مشاورتی
مشاي
مشاہد
مشاہدات
مشاہدہ
مشاہدے
مشاہیر
مشتاق
مشتبہ
مشترک
مشترکہ
مشتری
مشتعل
مشتق
مشتمل
مشر
مشرا
مشرف
مشرق
مشرقی
مشروب
مشروبات
مشروط
مشروطه
مشرک
مشرکین
مشعر
مشعل
مشغلہ
مشغول
مشفق
مشق
مشقت
مشقوں
مشمولہ
مشن
مشنری
مشنریوں
مشنوں
مشورہ
مشورے
مشک
مشکل
مشکلات
مشکوک
مشکوۃ
مشہد
مشہدی
مشہو
مشہور
مشی
مشیر
مشیروں
مشیل
مشین
مشینری
مشینوں
مشینی
مشینیں
مصادر
مصارف
مصالحت
مصالحہ
مصالحے
مصاي
مصباح
مصباحی
مصحف
مصحفی
مصداق
مصدر
مصدقہ
مصر
مصرع
مصرعے
مصروف
مصروفیات
مصروفیت
مصری
مصریوں
مصطف
مصطفى
مصطفی
مصطفے
مصعب
مصفوفہ
مصلح
مصلحت
مصلی
مصن
مصنف
مصنفہ
مصنفین
مصنوعات
مصنوعی
مصور
مصوروں
مصوری
مصیبت
مضافات
مضافاتی
مضامین
مضبوط
مضبوطی
مضحکہ
مضر
مضمون
مطا
مطابق
مطابقت
مطالب
مطالبات
مطالبہ
مطالبے
مطالعات
مطالعہ
مطالعے
مطب
مطبع
مطبوعات
مطبوعہ
مطلب
مطلع
مطلق
مطلقہ
مطلوب
مطلوبہ
مطمي
مطہرات
مطیع
مظالم
مظاہر
مظاہروں
مظاہرہ
مظاہرین
مظاہرے
مظفر
مظفرا
مظفرگڑھ
مظلوم
مظہر
مظہری
مع
معا
معاذ
معارف
معاش
معاشرت
معاشرتی
معاشروں
معاشرہ
معاشرے
معاشی
معاشیات
معاصر
معاصرین
معاف
معافی
معالج
معالجہ
معالجے
معاملات
معاملوں
معاملہ
معاملے
معانی
معاوضہ
معاوضے
معاون
معاونت
معاونین
معاویہ
معاي
معاہدوں
معاہدہ
معاہدے
معبد
معبود
معتبر
معتدل
معترف
معتزلہ
معتقد
معتقدین
معتمد
معجزات
معجزہ
معجزے
معجم
معد
معدن
معدنی
معدنیات
معدوم
معدہ
معدے
معذرت
معذور
معذوری
معر
معراج
معرض
معرف
معرفة
معرفت
معرفہ
معرفۃ
معروف
معرکوں
معرکہ
معرکے
معز
معزز
معززین
معزول
معزولی
معشوق
معصوم
معصومہ
معصومین
معطل
معطلی
معطیات
معظم
معظمہ
معقل
معقول
معلق
معلم
معلوم
معلومات
معلوماتی
معلی
معمار
معماروں
معماری
معمر
معمور
معمول
معمولات
معمولی
معن
معنوں
معنوی
معنویت
معنی
معنے
معہ
معیار
معیارات
معیاری
معیاریت
معیت
معیشت
معیشتوں
معین
معینہ
مغازی
مغر
مغرب
مغربی
مغرور
مغز
مغفرت
مغل
مغلوب
مغلوں
مغلیہ
مغیرہ
مفاتیح
مفاد
مفادات
مفاہمت
مفاہیم
مفت
مفتاح
مفتوح
مفتوحہ
مفتی
مفرد
مفرور
مفروضہ
مفروضے
مفسر
مفسرین
مفصل
مفعول
مفقود
مفلوج
مفکر
مفکرین
مفہوم
مفید
مقا
مقابل
مقابلوں
مقابلہ
مقابلے
مقاتل
مقاصد
مقالات
مقالہ
مقالے
مقام
مقامات
مقامی
مقبرہ
مقبرے
مقبوضات
مقبوضہ
مقبول
مقبولیت
مقتدر
مقتدرہ
مقتدی
مقتل
مقتول
مقد
مقدار
مقداری
مقدر
مقدس
مقدسہ
مقدم
مقدمات
مقدمہ
مقدمے
مقدونیاي
مقدونیہ
مقرب
مقرر
مقررہ
مقرن
مقروض
مقصد
مقصود
مقلد
مقناطیس
مقناطیسی
مقننہ
مقیاس
مقیم
مكتبة
مل
ملا
ملاتا
ملاتی
ملاح
ملاحظہ
ملاحوں
ملازم
ملازمت
ملازمتوں
ملازمتیں
ملازمین
ملاقات
ملاقاتوں
ملاقاتیں
ملال
ملالہ
ملامت
ملانا
ملانے
ملاوی
ملاي
ملاپ
ملاکا
ملایا
ملبورن
ملبوس
ملبوسات
ملبہ
ملبے
ملت
ملتا
ملتان
ملتانی
ملتوی
ملتی
ملتے
ملحد
ملحق
ملحقہ
ملحوظ
ملر
ملز
ملزم
ملزمان
ملعون
ملفوظات
ملقب
ملن
ملنا
ملنگا
ملنے
ملو
ملوث
ملوک
ملٹری
ملٹن
ملٹی
ملک
ملکر
ملکوال
ملکوں
ملکہ
ملکی
ملکیت
ملکیتی
ملکیوں
ملہ
ملہوترا
ملی
ملیالم
ملیح
ملیر
ملیریا
ملیشیا
ملین
ملیں
ملیہ
ملے
مم
مماثل
مماثلت
ممالک
ممالیہ
ممانعت
ممبر
ممبران
ممبروں
ممبي
ممتا
ممتاز
مملوک
مملوکوں
مملکت
ممنوع
ممنوعہ
ممنون
ممکن
ممکنہ
من
منا
منابع
مناتے
مناجات
منادی
منازل
مناسب
مناسبت
مناسک
مناصب
مناظر
مناظرہ
مناظرے
مناف
منافع
منافق
منافقت
منافقین
منافی
مناقب
منانے
مناي
منایا
منبر
منبع
منبہ
منت
منتج
منتخب
منتر
منتشر
منتظر
منتظم
منتظمین
منتقل
منتقلی
منتہی
منجانب
منجمد
منحرف
منحصر
منحنی
مند
مندانہ
مندر
مندرج
مندرجہ
مندروں
مندرہ
مندوب
مندوبین
مندوں
مندہ
مندی
منذر
منرو
منزل
منزلت
منزلوں
منزلہ
منزلیں
منسلک
منسوب
منسوخ
منسوخی
منسٹر
منسک
منشا
منشور
منشی
منشیات
منصب
منصبوں
منصف
منصفانہ
منصفین
منصوبوں
منصوبہ
منصوبے
منصور
منصورہ
منطق
منطقہ
منطقی
منظر
منظم
منظور
منظوری
منظوم
منع
منعقد
منعقدہ
منعکس
منفرد
منفی
منقبت
منقسم
منقطع
منقوط
منقول
منقولہ
منموہن
منو
منوایا
منوج
منور
منورہ
منوہر
منٹ
منٹو
منٹوں
منٹگمری
منچوریا
منڈ
منڈا
منڈز
منڈل
منڈی
منڈیلا
منڈیوں
منڈے
منکر
منگ
منگل
منگلا
منگنی
منگول
منگولوں
منگولی
منگولیا
منگیتر
منگیشکر
منھ
منہ
منہاج
منہاس
منہدم
منی
منیجر
منیجنگ
منیر
منیسوٹا
منیلا
منین
منے
مو
موا
مواد
موازنہ
مواصلات
مواصلاتی
موافق
موافقت
مواقع
موباي
موت
موتی
موتیوں
موثر
موج
موجب
موجد
موجو
موجود
موجودگی
موجودہ
موجوں
موخر
مودود
مودودی
مودی
مور
مورتی
مورتیاں
مورث
مورخ
مورخہ
مورخین
مورد
مورس
مورو
موروثی
موروس
مورٹن
مورچہ
مورگن
موری
موریا
موریتانیہ
موریس
موریسن
موریشس
موریہ
موز
موزمبیق
موزوں
موس
موساد
موسم
موسموں
موسمی
موسمیات
موسمیاتی
موسوعة
موسوعہ
موسوم
موسوی
موسى
موسی
موسیقار
موسیقاروں
موسیقی
موشن
موصل
موصوف
موصول
موضع
موضوع
موضوعات
موطا
موقع
موقعوں
موقعے
موقف
موقوف
مول
مولا
مولانا
مولاي
مولد
مولف
مولوتوف
مولود
مولوی
مولی
موم
مومل
مومن
مومنین
مون
مونا
موناکو
مونث
مونرو
مونس
مونو
مونٹ
مونٹانا
مونٹریال
مونٹگمری
مونٹی
مونٹینیگرو
مونگ
مونی
مونیکا
موور
موومنٹ
مووی
موویز
موي
موٹا
موٹاي
موٹر
موٹرساي
موٹروے
موٹی
موٹے
موچی
موڈ
موڈی
موڑ
موں
موہانی
موہن
موہنجودڑو
موہڑہ
مویشی
مویشیوں
مي
مير
مين
ميوزك
ميں
مٹ
مٹا
مٹانے
مٹر
مٹھاي
مٹھن
مٹھی
مٹی
مچ
مچا
مچل
مچھر
مچھلی
مچھلیاں
مچھلیوں
مڈ
مڈغاسکر
مڈل
مڈلینڈ
مڈلینڈز
مڈوے
مڑ
مک
مکاتب
مکاتیب
مکارم
مکالمہ
مکالمے
مکان
مکانات
مکانوں
مکانی
مکاو
مکاں
مکتب
مکتبہ
مکتبۃ
مکتوب
مکتوبات
مکتوم
مکتی
مکر
مکران
مکرر
مکرم
مکرمہ
مکروہ
مکس
مکعب
مکلین
مکمل
مکي
مکڑی
مکھرجی
مکھن
مکھی
مکھیوں
مکہ
مکی
مکیش
مکینیکل
مکے
مگ
مگدھ
مگر
مگراس
مگرمچھ
مگسی
مہ
مہا
مہابھارت
مہاتما
مہاتیر
مہاجر
مہاجرین
مہار
مہاراج
مہاراجا
مہاراجہ
مہاراشٹر
مہاراشٹرا
مہارانی
مہارت
مہاویر
مہاکاوی
مہتا
مہتاب
مہتمم
مہدی
مہذب
مہر
مہران
مہربان
مہربانی
مہروں
مہرہ
مہلت
مہلک
مہم
مہمات
مہمان
مہمانوں
مہمند
مہموں
مہندر
مہندی
مہنگا
مہنگاي
مہنگی
مہنگے
مہک
مہیا
مہیش
مہیلا
مہینا
مہیندر
مہینوں
مہینہ
مہینے
مۃ
می
میا
میامی
میان
میانداد
میانمار
میانوالی
میانہ
میانی
میاو
میاں
میت
میتھین
میتھیو
میتھیوز
میثاق
میثم
میجر
میخاي
مید
میدان
میدانوں
میدانی
میدی
میر
میرا
میراتھن
میراث
میران
میراں
میرزا
میرو
میرٹ
میرٹھ
میرٹھی
میرپور
میری
میریلیبون
میرین
میرینز
میرے
میز
میزان
میزاي
میزبان
میزبانی
میزش
میزہ
میسا
میساچوسٹس
میسر
میسن
میسور
میسوپوٹیمیا
میسی
میعاد
میل
میلا
میلاد
میلادی
میلان
میلبورن
میلسی
میلفورڈ
میلو
میلوں
میلکم
میلہ
میلے
میم
میمن
میموری
میموریل
میمون
میمونہ
مین
مینا
مینار
میناروں
مینارڈ
مینجمنٹ
مینز
مینسفیلڈ
مینشن
مینن
مینوفیکچرنگ
مینوي
مینڈس
مینڈیٹ
مینگل
مینی
مینیجر
مینیسوٹا
مینے
میو
میوزک
میوزیم
میوزیکل
میونخ
میونسپل
میونسپلٹی
میوہ
میي
میٹ
میٹاکریٹک
میٹر
میٹرو
میٹروپولیٹن
میٹرک
میٹرکس
میٹریا
میٹم
میٹنگ
میٹھا
میٹھی
میٹھے
میپ
میپل
میچ
میچز
میچوں
میڈ
میڈرڈ
میڈل
میڈم
میڈن
میڈیا
میڈیسن
میڈیسون
میڈیم
میڈیکا
میڈیکل
میک
میکال
میکانیات
میکر
میکس
میکسویل
میکسیکو
میکنزی
میکڈونلڈ
میکے
میگا
میگزین
میگوي
میگھالیہ
میں
میںا
میہ
مے
ن
نا
ناانصافی
نااہل
نااہلی
نابالغ
نابغہ
نابلس
نابود
نابینا
نات
ناتجربہ
ناتھ
ناتھن
ناتی
ناجاي
ناحق
ناحیہ
ناخن
ناخوش
ناد
نادانستہ
نادر
نادرہ
نادیہ
نار
نارا
ناراض
ناراضگی
ناراضی
ناراي
ناراین
نارتھ
نارتھمبرلینڈ
نارتھمپٹن
ناردرن
نارمل
نارمن
نارو
نارووال
نارویجن
ناروے
ناری
ناریل
ناز
نازل
نازک
نازی
نازیوں
نازیہ
ناسا
ناسخ
ناسک
ناشتے
ناشر
ناشران
ناصر
ناصرالدین
ناصرف
ناصری
ناطق
ناطے
ناظر
ناظرہ
ناظرین
ناظم
ناف
نافذ
نافرمانی
نافع
ناقابل
ناقد
ناقدین
ناقص
نال
نالوں
نالہ
نالی
نالیوں
نالے
نام
نامزد
نامزدگی
نامزدگیاں
نامعلوم
ناممکن
نامناسب
نامه
نامور
ناموس
ناموں
نامکمل
نامہ
نامی
نامیاتی
نامے
نان
نانا
نانجنگ
نانوتوی
نانپاروی
نانپارہ
نانک
نانی
ناو
ناواقف
ناول
ناولوں
ناویس
ناي
ناٹ
ناٹنگھم
ناٹک
ناپ
ناپا
ناپاک
ناپسند
ناپسندیدہ
ناپید
ناچ
ناڈو
ناک
ناکارہ
ناکافی
ناکام
ناکامی
ناکامیوں
ناکھون
ناکہ
ناگ
ناگا
ناگاساکی
ناگالینڈ
ناگزیر
ناگوار
ناگورنو
ناگپور
ناگہانی
ناں
ناہید
نایاب
نب
نباتات
نباتاتی
نباتیات
نبرد
نبو
نبوت
نبوی
نبویہ
نبھا
نبھانے
نبھاي
نبھایا
نبی
نبیل
نبیوں
نت
نتاشا
نتاي
نتقال
نتوں
نتیجتا
نتیجہ
نتیجے
نث
نثار
نثر
نثری
نج
نجات
نجار
نجاشی
نجد
نجران
نجف
نجفی
نجم
نجمہ
نجمی
نجوم
نجکاری
نجی
نجیب
نحضرت
نحو
نحوی
نخعی
نخلستان
ند
ندا
ندامت
نداناو
نداي
ندرے
ندوں
ندوۃ
ندوی
ندگان
ندگی
ندھرا
ندھی
ندہ
ندی
ندیاں
ندیم
ندیوں
ندے
نذر
نذرانہ
نذیر
نر
نراي
نرز
نرس
نرسمہا
نرسنگ
نرم
نرمی
نروان
نرگس
نری
نریندر
نز
نزار
نزاکت
نزد
نزدیک
نزدیکی
نزلینڈ
نزول
نس
نساء
نساب
نسان
نساي
نسب
نسبت
نسبتا
نسبتی
نسبی
نستعلیق
نسخ
نسخوں
نسخہ
نسخے
نسدان
نسدانوں
نسر
نسرین
نسز
نسق
نسل
نسلا
نسلوں
نسلی
نسلیں
نسو
نسوانی
نسوانیت
نسواں
نسوو
نسٹاي
نسی
نسیج
نسیم
نشا
نشاط
نشان
نشانات
نشاندہی
نشانہ
نشانی
نشانیاں
نشانیوں
نشانے
نشاۃ
نشتر
نشر
نشریات
نشریاتی
نشست
نشستوں
نشستیں
نشو
نشوونما
نشپ
نشہ
نشیب
نشیبی
نشین
نشینی
نشیں
نشے
نص
نصاب
نصابی
نصاری
نصب
نصر
نصراللہ
نصرت
نصف
نصوص
نصیب
نصیحت
نصیر
نصیرالدین
نضر
نضیر
نظارہ
نظارے
نظام
نظامات
نظامت
نظاموں
نظامی
نظامیہ
نظر
نظرا
نظرانداز
نظربند
نظرثانی
نظروں
نظری
نظریات
نظریاتی
نظریں
نظریہ
نظریے
نظم
نظموں
نظمی
نظمیں
نظیر
نعت
نعتوں
نعتیں
نعتیہ
نعرہ
نعرے
نعم
نعمان
نعمانی
نعمت
نعمتوں
نعیم
نعیمی
نعیمیہ
نغمات
نغموں
نغمہ
نغمے
نف
نفاذ
نفاست
نفر
نفرت
نفس
نفسانی
نفسی
نفسیات
نفسیاتی
نفع
نفل
نفوذ
نفوس
نفی
نفیس
نقاب
نقاد
نقادوں
نقاش
نقاشی
نقاط
نقحر
نقد
نقش
نقشبند
نقشبندی
نقشبندیہ
نقشوں
نقشہ
نقشے
نقص
نقصان
نقصانات
نقطہ
نقطے
نقل
نقلی
نقوش
نقوی
نقی
نقیب
نك
نل
نلز
نلی
نم
نما
نماز
نمازوں
نمازی
نمازیوں
نمازیں
نماي
نماياں
نمایاں
نمبر
نمبروں
نمر
نمل
نمو
نمود
نمودار
نمونوں
نمونہ
نمونے
نمٹنے
نمک
نمکین
نمی
نمیبیا
نن
ننجا
نند
نندا
نندی
ننکانہ
ننگ
ننگرہار
ننگے
ننھا
ننھی
ننھے
نه
نو
نوا
نواب
نوابزادہ
نوابوں
نوابی
نواح
نواحی
نوادرات
نوار
نواز
نوازا
نوازی
نوازے
نواس
نواسہ
نواسی
نواسے
نوافل
نواي
نواں
نوبت
نوبل
نوبیل
نوجوان
نوجوانان
نوجوانوں
نوجوانی
نوح
نوحہ
نور
نورا
نورالدین
نورانی
نورجہاں
نورزي
نورس
نورمنڈی
نوروز
نوری
نوریہ
نوزاي
نوش
نوشاد
نوشت
نوشتہ
نوشکی
نوشہرہ
نوشی
نوع
نوعمر
نوعمری
نوعیت
نوفل
نول
نومبر
نومولود
نون
نونہال
نووا
نووی
نوي
نوٹ
نوٹری
نوٹس
نوٹنگھم
نوٹوں
نوک
نوکر
نوکری
نوں
نوی
نویاتی
نوید
نویس
نویسنده
نویسندہ
نویسی
نوین
نویں
نوے
ني
نٹ
نٹال
نٹر
نٹس
نٹشکے
نٹنگ
نٹی
نٹیاں
نٹیز
نٹین
نٹیوں
نپولین
نچ
نچل
نچلا
نچلی
نچلے
نچوڑ
نڈ
نڈر
نڈری
نڈز
نڈڈسمنٹ
نڈیشن
نژاد
نک
نکا
نکات
نکاتی
نکاح
نکاراگوا
نکاسی
نکال
نکالا
نکالتے
نکالنا
نکالنے
نکالی
نکالے
نکتہ
نکرہ
نکسن
نکل
نکلا
نکلتا
نکلتی
نکلتے
نکلسن
نکلنا
نکلنے
نکلی
نکلیں
نکلے
نکولس
نکھ
نکھوں
نکھیں
نکہ
نکی
نگ
نگا
نگار
نگارشات
نگاروں
نگاری
نگاہ
نگاہوں
نگر
نگران
نگرانی
نگراں
نگری
نگل
نگن
نگورنو
نگہبان
نگہداشت
نگینہ
نگیں
نھوں
نہ
نہاد
نہال
نہایت
نہج
نہر
نہرو
نہروان
نہروں
نہریں
نہم
نہوں
نہيں
نہی
نہیں
نی
نیا
نیابت
نیاز
نیازی
نیبراسکا
نیت
نیتا
نیتی
نیدرلینڈ
نیدرلینڈز
نیر
نیرنگ
نیرو
نیروبی
نیز
نیزہ
نیزے
نیس
نیست
نیش
نیشا
نیشابور
نیشاپور
نیشاپوری
نیشن
نیشنز
نیشنل
نیشنلسٹ
نیل
نیلا
نیلامی
نیلسن
نیلم
نیلوفر
نیلی
نیلے
نیم
نین
نینا
نیند
نینسی
نینو
نینی
نینیانوے
نیو
نیوا
نیواڈا
نیوز
نیوزی
نیول
نیوٹرون
نیوٹرینو
نیوٹن
نیوپورٹ
نیوکلیي
نیوی
نیویارک
نیویل
نیي
نیٹ
نیٹو
نیپال
نیپالی
نیپولین
نیپچون
نیچا
نیچر
نیچرل
نیچے
نیک
نیکوسیا
نیکی
نیگرو
نیں
نیہ
نیہا
نے
ه
ها
هاشمی
های
هجری
هذا
هـ
هل
هم
هند
هیں
و
وا
وابستگی
وابستہ
وات
واجب
واجبات
واجد
واجپاي
واحد
وادب
وادي
وادی
وادیاں
وادیوں
وار
وارانسی
وارانہ
وارث
وارثی
وارد
واردات
وارسا
وارم
وارن
وارنر
وارنٹ
واروکشاي
وارڈ
وارک
وارکشاي
وارہ
واری
واریت
واریي
واز
وازوں
وازیں
واس
واسطوں
واسطہ
واسطی
واسطے
واش
واشنگٹن
واصف
واصل
واضح
واضع
واعظ
وافر
واقدی
واقع
واقعات
واقعتا
واقعہ
واقعی
واقعے
واقف
واقفیت
وال
والا
والجماعت
والد
والدہ
والدین
والس
والسلام
والش
واللہ
والنہایہ
والو
والوں
والي
والٹ
والٹر
والٹن
والپرٹ
والہ
والہانہ
والی
والیس
والے
وان
وانا
وانواتو
وانگ
وانی
واو
واي
واٹ
واٹر
واٹرلو
واٹس
واٹسن
واپس
واپسی
واپڈا
واچ
واک
واکا
واکر
واں
واہ
وب
وبا
وباي
وبگاه
وت
وتدریس
وتر
وتربیت
وتقوی
وثوق
وج
وجاہت
وجد
وجود
وجوہ
وجوہات
وجي
وجہ
وجہہ
وجیہ
وجے
وح
وحدت
وحدیث
وحشت
وحشی
وحشیانہ
وحی
وحید
ود
ودربھ
ودھان
ودیا
ور
وراثت
وراثہ
وراثی
وراثے
ورانہ
ورتھ
ورثہ
ورثے
ورجن
ورجینیا
ورد
وردھنے
وردی
ورزش
ورزی
ورزیوں
ورساي
ورسٹی
ورسیسٹر
ورق
ورلڈ
ورم
ورما
ورمونٹ
ورن
ورنن
ورنہ
وروں
ورچوي
ورڈ
ورڈی
ورژن
ورک
ورکر
ورکرز
ورکس
ورکشاپ
ورکشاپس
ورکنگ
وری
وز
وزارت
وزرا
وزراء
وزراي
وزن
وزنی
وزڈن
وزیر
وزیرا
وزیراعظم
وزیراعلی
وزیرستان
وس
وساطت
وساي
وسط
وسطی
وسعت
وسلم
وسنت
وسيط
وسٹا
وسکونسن
وسیب
وسیط
وسیع
وسیلہ
وسیم
وش
وشاعر
وشال
وشنو
وشو
وشوناتھ
وصال
وصف
وصفی
وصل
وصلة
وصول
وصولی
وصی
وصیت
وضاحت
وضع
وضو
وط
وطن
وطنوں
وطنی
وظاي
وظیفہ
وع
وعدوں
وعدہ
وعدے
وعظ
وغیر
وغیرہ
وف
وفا
وفات
وفادار
وفاداری
وفاق
وفاقی
وفاي
وفد
وفضل
وفود
وفیات
وق
وقار
وقاص
وقاي
وقت
وقتا
وقتوں
وقتی
وقعت
وقف
وقفہ
وقفے
وقوع
وقوف
وك
ول
ولا
ولادت
ولادیمیر
ولایت
ولد
ولسن
ولف
ولفریڈ
ولن
ولندیزی
ولولہ
ولى
ولی
ولیج
ولید
ولیم
ولیمز
ولیمسن
ولے
وم
وما
ومن
ون
وند
ونسنٹ
ونسٹن
ونود
ونڈ
ونڈسر
ونڈورڈ
ونڈوز
ونگ
ونی
وه
وو
وورسٹر
ووسٹر
وولف
وولوز
وولٹ
وولٹیج
وولگا
وومن
وون
ووٹ
ووٹر
ووٹرز
ووٹروں
ووٹنگ
ووٹوں
ووڈ
ووڈلینڈ
ووڈی
ووہان
وي
وٹ
وٹامن
وٹو
وپر
وچ
وڈ
وڈیو
وڑاي
وژن
وک
وکالت
وکان
وکرم
وکلا
وکمال
وکٹ
وکٹر
وکٹوریا
وکٹورین
وکٹوریہ
وکٹوں
وکٹیں
وکی
وکیع
وکیل
وں
وہ
وہا
وہاب
وہابی
وہاڑی
وہاں
وہب
وہم
وہی
وہیل
وہیں
وۃ
وی
ویاس
ویانا
ویب
ویبسٹر
ویت
ویتنام
ویتنامی
وید
ویدوں
ویدک
ویر
ویرا
ویرات
ویراستار
ویران
ویرو
ویرونا
ویز
ویزا
ویزاں
ویس
ویسا
ویسٹ
ویسٹرن
ویسی
ویسے
ویل
ویلتھ
ویلز
ویلش
ویلفیي
ویلنٹاي
ویلنگٹن
ویلو
ویلڈ
ویلی
ویلے
ویمن
ویمنز
وین
وینا
وینزویلا
وینس
وینسینٹ
وینکوور
وینیزویلا
ویو
ویوین
ویي
ویٹ
ویٹرنری
ویٹلینڈ
ویٹو
ویٹیکن
ویڈ
ویڈیو
ویڈیوز
ویژن
ویژہ
ویژیول
ویک
ویکسین
ویکٹر
ویکی
ویکیمیڈیا
ویکیپیڈیا
ویگاس
ویگن
ویں
وے
ى
ي
يا
يب
ية
يت
يث
يحيى
يد
ير
يز
يس
يستخدم
يع
يق
يك
يل
يم
ين
يه
يورپ
يوسف
يں
يہ
ً
ٌ
ٍ
َ
ُ
ِ
ّ
ْ
ٓ
ٔ
ٕ
ٖ
ٗ
٘
ٙ
٠
١
٢
٢٤
٣
٤
٥
٦
٧
٨
٩
٪
٫
٬
٭
ٰ
ٲ
ٹ
ٹا
ٹارزن
ٹارگٹ
ٹاس
ٹاسک
ٹال
ٹام
ٹانک
ٹانگ
ٹانگوں
ٹانگیں
ٹاو
ٹاور
ٹاورز
ٹاون
ٹاي
ٹاٹا
ٹاپ
ٹاک
ٹر
ٹرافی
ٹرام
ٹرانزٹ
ٹرانس
ٹرانسمیشن
ٹرانسوال
ٹرانسپورٹ
ٹراي
ٹراٹسکی
ٹرز
ٹرسٹ
ٹرسٹی
ٹرمپ
ٹرمینل
ٹرن
ٹرنر
ٹرنک
ٹروجن
ٹرومین
ٹرپل
ٹرک
ٹرکوں
ٹری
ٹریبون
ٹریبونل
ٹریبیون
ٹریسا
ٹریفورڈ
ٹریفک
ٹرین
ٹریننگ
ٹرینوں
ٹرینٹ
ٹرینیڈاڈ
ٹرینیں
ٹریور
ٹریول
ٹریڈ
ٹریک
ٹریکٹر
ٹزرلینڈ
ٹس
ٹل
ٹلی
ٹم
ٹماٹر
ٹماٹوز
ٹن
ٹنز
ٹنل
ٹنڈو
ٹنڈولکر
ٹنگ
ٹو
ٹوانہ
ٹوبا
ٹوباگو
ٹوبہ
ٹور
ٹورانٹو
ٹورنامنٹ
ٹورنامنٹس
ٹورنٹو
ٹورنگ
ٹوری
ٹول
ٹولی
ٹومب
ٹوموباي
ٹونٹی
ٹونک
ٹونگا
ٹونی
ٹوي
ٹوٹ
ٹوٹا
ٹوٹل
ٹوٹنے
ٹوٹی
ٹوٹے
ٹوپی
ٹوڈ
ٹوڈے
ٹوک
ٹوکری
ٹوکیو
ٹوگو
ٹوں
ٹویٹ
ٹویٹر
ٹچ
ٹڈ
ٹک
ٹکر
ٹکرا
ٹکرانے
ٹکراو
ٹکسال
ٹکنالوجی
ٹکٹ
ٹکڑا
ٹکڑوں
ٹکڑے
ٹھ
ٹھا
ٹھاکر
ٹھایا
ٹھنڈا
ٹھنڈک
ٹھنڈی
ٹھنڈے
ٹھواں
ٹھوس
ٹھوکر
ٹھویں
ٹھٹوی
ٹھٹھہ
ٹھٹہ
ٹھکانوں
ٹھکانہ
ٹھکانے
ٹھکرا
ٹھگ
ٹھہر
ٹھہرا
ٹھہرایا
ٹھہرنے
ٹھہرے
ٹھیک
ٹھے
ٹہ
ٹی
ٹیبل
ٹیری
ٹیسٹ
ٹیسٹوں
ٹیل
ٹیلر
ٹیلنٹ
ٹیلہ
ٹیلی
ٹیلیفون
ٹیلے
ٹیم
ٹیمز
ٹیموں
ٹیمپل
ٹیمیں
ٹین
ٹینا
ٹینس
ٹینک
ٹینکوں
ٹینیسی
ٹیوب
ٹیوشن
ٹیوٹ
ٹیٹ
ٹیٹو
ٹیپ
ٹیپو
ٹیچر
ٹیڈ
ٹیک
ٹیکس
ٹیکساس
ٹیکسلا
ٹیکسوں
ٹیکسٹ
ٹیکسٹاي
ٹیکسی
ٹیکنالوجی
ٹیکنالوجیز
ٹیکنیکل
ٹیگ
ٹیگور
ٹے
ٺ
ٻ
ٽ
پ
پا
پابند
پابندی
پابندیاں
پابندیوں
پات
پاتا
پاتھ
پاتی
پاتے
پاداش
پادری
پادریوں
پادشاہ
پار
پارا
پارس
پارسا
پارسی
پارش
پارلیمان
پارلیمانی
پارلیمنٹ
پاروتی
پاروں
پارٹ
پارٹنر
پارٹنرشپ
پارٹی
پارٹیوں
پارک
پارکر
پارکس
پارکنگ
پارکوں
پارہ
پارے
پاز
پاس
پاسبان
پاسداران
پاسداری
پاسپورٹ
پاش
پاشا
پاشی
پافوس
پال
پالا
پالتو
پالن
پالنے
پالو
پالک
پالی
پالیا
پالیسی
پالیسیاں
پالیسیوں
پالے
پام
پامال
پامیر
پان
پانا
پاناما
پانچ
پانچواں
پانچوں
پانچویں
پانڈا
پانڈو
پانڈیا
پانڈے
پانی
پانیوں
پانے
پاو
پاور
پاول
پاونڈ
پاي
پاٹ
پاٹل
پاٹھک
پاپ
پاپاي
پاپوا
پاپولر
پاک
پاکر
پاکستان
پاکستانا
پاکستانی
پاکستانیوں
پاکپتن
پاکیزگی
پاکیزہ
پاگل
پاگي
پایا
پایہ
پب
پبلشر
پبلشرز
پبلشنگ
پبلک
پبلی
پبلیکیشنز
پت
پتا
پتر
پترا
پتلا
پتلی
پتلے
پتن
پتنگ
پتوں
پتھر
پتھروں
پتہ
پتی
پتے
پجاری
پختون
پختونخوا
پختونخواہ
پختگی
پختہ
پدر
پدم
پدما
پذیر
پذیراي
پذیری
پر
پرا
پراجیکٹ
پراسرار
پراسیکیوٹر
پرامن
پران
پرانا
پرانی
پرانے
پراونشل
پراي
پراپرٹی
پراکرت
پراگ
پرایک
پربت
پرت
پرتاب
پرتاپ
پرتشدد
پرتوں
پرتگال
پرتگالی
پرتگالیوں
پرتگیزی
پرتھ
پرتھوی
پرجاتیوں
پرجوش
پردادا
پردہ
پردیس
پردیش
پردیپ
پردے
پرزور
پرس
پرساد
پرست
پرستار
پرستانہ
پرستش
پرستوں
پرستی
پرسن
پرسنل
پرسکون
پرسی
پرشاد
پرشیا
پرعزم
پرفارم
پرفارمنس
پرل
پرمشتمل
پرندوں
پرندہ
پرندے
پرنس
پرنسٹن
پرنسپل
پرنٹ
پرنٹنگ
پرو
پروا
پرواز
پروازوں
پروازیں
پروان
پروانس
پروانہ
پرواہ
پروجیکٹ
پرور
پروردگار
پرورش
پروری
پروسیسنگ
پروشیا
پروفاي
پروفیسر
پروفیشنل
پروویڈنس
پروٹسٹنٹ
پروٹو
پروٹون
پروٹوکول
پروٹین
پروپیگنڈا
پروپیگنڈہ
پروپیگنڈے
پروڈکشن
پروڈکشنز
پروڈیوس
پروڈیوسر
پروکورو
پروگرام
پروگرامز
پروگرامنگ
پروگراموں
پروگریسو
پروں
پرویز
پروین
پرچار
پرچم
پرچھاي
پرچہ
پرچے
پرکاش
پرکشش
پرگنہ
پرہیز
پری
پریا
پریاگ
پریت
پریتم
پریتی
پریذیڈنٹ
پریری
پریزیڈنسی
پریس
پریسٹن
پریش
پریشان
پریشانی
پریشانیوں
پریشد
پریشر
پریشن
پریشنز
پریشنل
پریفیکچر
پریفیکچور
پریم
پریمي
پریمیي
پریوں
پریٹر
پریٹنگ
پریٹو
پریٹوریا
پریڈ
پریکٹس
پرے
پزیر
پزیراي
پس
پست
پستان
پستول
پستی
پسر
پسرور
پسماندگان
پسماندہ
پسند
پسندانہ
پسندوں
پسندی
پسندیدگی
پسندیدہ
پسپا
پسپاي
پسی
پسینہ
پشاور
پشاوری
پشت
پشتو
پشتون
پشتونوں
پشتوں
پشن
پشین
پطرس
پل
پلا
پلازہ
پلاسٹک
پلان
پلاننگ
پلانٹ
پلانک
پلانے
پلاو
پلاي
پلاٹ
پلایماو
پلس
پلندری
پلنکٹ
پلوٹو
پلوں
پلٹ
پلہ
پلی
پلیزینٹ
پلیس
پلین
پلیي
پلیٹ
پلے
پمپ
پن
پنا
پناہ
پناہی
پنت
پنج
پنجاب
پنجابی
پنجم
پنجہ
پنجے
پند
پندرہ
پندرہویں
پنسلوانیا
پنشن
پنوں
پنچ
پنچایت
پنڈ
پنڈت
پنڈی
پنک
پنکج
پنکھ
پنگ
پنی
پنیر
پنے
په
پو
پوار
پواي
پوتا
پوتن
پوتی
پوتے
پوجا
پودا
پودوں
پودے
پور
پورا
پورس
پورم
پورن
پورٹ
پورٹر
پورٹریٹ
پورٹل
پورٹلینڈ
پورٹو
پورٹیج
پورہ
پوری
پورے
پوزیشن
پوزیشنوں
پوست
پوسٹ
پوسٹر
پوسٹل
پوش
پوشاک
پوشی
پوشیدہ
پول
پولاسکی
پولاک
پولس
پولش
پولنگ
پولو
پولٹن
پولی
پولیس
پولینڈ
پولینیشیا
پولیو
پولیٹیکل
پومیرانیان
پون
پونا
پونزی
پونٹنگ
پونچھ
پونڈ
پونہ
پونے
پوي
پوٹر
پوٹھوہار
پوپ
پوچھ
پوچھا
پوچھتا
پوچھتے
پوچھنے
پوچھے
پوک
پوکیمون
پویلین
پي
پيراڈاي
پٹ
پٹرول
پٹرولیم
پٹری
پٹسبرگ
پٹن
پٹنم
پٹنہ
پٹودی
پٹھان
پٹھانوں
پٹھوں
پٹی
پٹیالہ
پٹیل
پٹے
پچ
پچاس
پچاسی
پچانوے
پچوں
پچپن
پچھلا
پچھلی
پچھلے
پچہتر
پچیس
پڑ
پڑا
پڑاو
پڑتا
پڑتال
پڑتی
پڑتے
پڑنا
پڑنے
پڑوس
پڑوسی
پڑوسیوں
پڑھ
پڑھا
پڑھاتے
پڑھانا
پڑھانے
پڑھاي
پڑھایا
پڑھتا
پڑھتی
پڑھتے
پڑھنا
پڑھنے
پڑھو
پڑھی
پڑھیں
پڑھے
پڑی
پڑیں
پڑے
پک
پکا
پکار
پکارا
پکارتے
پکانے
پکاي
پکایا
پکو
پکوان
پکچر
پکچرز
پکڑ
پکڑا
پکڑنا
پکڑنے
پکڑی
پکڑے
پکی
پکے
پگ
پگڑی
پگھل
پھالکے
پھالیہ
پھانسی
پھاٹک
پھاڑ
پھر
پھرا
پھرتا
پھرتی
پھرتے
پھرنے
پھل
پھلوں
پھلی
پھلیاں
پھنس
پھنسے
پھول
پھولوں
پھونک
پھوٹ
پھوپھی
پھوڑ
پھٹ
پھٹا
پھٹنے
پھیر
پھیری
پھیل
پھیلا
پھیلانا
پھیلانے
پھیلاو
پھیلاي
پھیلایا
پھیلتا
پھیلتی
پھیلنا
پھیلنے
پھیلی
پھیلے
پھینک
پھینکا
پھینکنا
پھینکنے
پھینکیں
پھینکے
پھیپھڑوں
پہ
پہاڑ
پہاڑوں
پہاڑی
پہاڑیاں
پہاڑیوں
پہر
پہل
پہلا
پہلو
پہلوان
پہلوانی
پہلوو
پہلوی
پہلی
پہلے
پہن
پہنا
پہنانے
پہنایا
پہنتی
پہنتے
پہننا
پہننے
پہنچ
پہنچا
پہنچاتا
پہنچاتی
پہنچاتے
پہنچانا
پہنچانے
پہنچاي
پہنچایا
پہنچتا
پہنچتی
پہنچتے
پہنچنا
پہنچنے
پہنچی
پہنچیں
پہنچے
پہنی
پہنے
پہونچ
پہچان
پہچانا
پہچاننے
پہچانی
پہچانے
پہیے
پی
پیا
پیادہ
پیار
پیارا
پیاری
پیارے
پیاز
پیاس
پیاسا
پیالہ
پیالے
پیام
پیامبر
پیانو
پیتا
پیتل
پیتے
پیج
پید
پیدا
پیداوار
پیداواری
پیداي
پیداہوي
پیدل
پیر
پیرا
پیرامیٹر
پیراي
پیراگوي
پیرایج
پیرزادہ
پیرس
پیرش
پیرو
پیروکار
پیروکاروں
پیروں
پیروی
پیری
پیرینے
پیس
پیسوں
پیسہ
پیسیفک
پیسے
پیش
پیشاب
پیشانی
پیشتر
پیشرفت
پیشرو
پیشن
پیشوا
پیشوں
پیشکش
پیشگوي
پیشگی
پیشہ
پیشی
پیشین
پیشے
پیغام
پیغامات
پیغمبر
پیغمبروں
پیل
پیلا
پیلس
پیلو
پیلی
پیلے
پیما
پیمان
پیمانہ
پیمانے
پیماي
پین
پینا
پینانگ
پینتالیس
پینتیس
پینسٹھ
پینل
پینٹ
پینٹر
پینٹنگ
پینٹنگز
پینگوي
پینی
پینین
پینے
پیو
پیوست
پیوند
پیي
پیٹ
پیٹا
پیٹر
پیٹرز
پیٹرزبرگ
پیٹرسن
پیٹرو
پیٹرولیم
پیٹرک
پیٹریاارک
پیٹنٹ
پیٹھ
پیٹی
پیپر
پیپرز
پیپل
پیپلز
پیچ
پیچھا
پیچھے
پیچیدگی
پیچیدگیوں
پیچیدہ
پیڈ
پیڈرو
پیڈیا
پیڑ
پیک
پیکار
پیکارڈی
پیکج
پیکر
پیکنگ
پیکٹ
پے
ٿ
ڀ
ڃ
ڄ
چ
چا
چادر
چار
چارج
چارسدہ
چارلس
چارلسٹن
چارلی
چاروں
چارٹ
چارٹر
چارہ
چاریہ
چارے
چاغی
چاقو
چال
چالاک
چالاکی
چالیس
چاند
چاندنی
چاندی
چانسلر
چانڈیو
چانگ
چاو
چاول
چاي
چاٹ
چاپ
چاڈ
چاک
چاکر
چاکلیٹ
چاہ
چاہا
چاہتا
چاہتی
چاہتے
چاہنے
چاہو
چاہي
چاہی
چاہیں
چاہیے
چاہے
چترال
چترالی
چتور
چر
چرا
چراغ
چرانے
چراگاہ
چربی
چرن
چرواہے
چروکی
چرچ
چرچا
چرچل
چری
چستی
چسپاں
چسپی
چشت
چشتی
چشتیہ
چشم
چشموں
چشمہ
چشمے
چغتاي
چل
چلا
چلاتا
چلاتی
چلاتے
چلانا
چلانے
چلاي
چلایا
چلبی
چلتا
چلتی
چلتے
چلن
چلنا
چلنے
چلو
چلڈرن
چلہ
چلی
چلیں
چلے
چمن
چمڑے
چمک
چمکتا
چمکدار
چن
چنا
چناب
چنار
چنانچہ
چناو
چناي
چناں
چند
چندا
چندر
چندرا
چندہ
چندی
چنوں
چني
چنڈی
چنگ
چنگیز
چنی
چنیوٹ
چنے
چو
چوا
چوالیس
چواي
چوبارہ
چوبیس
چوتھا
چوتھاي
چوتھی
چوتھے
چودھری
چودھویں
چودہ
چودہویں
چور
چوراسی
چورانوے
چورنگی
چوروں
چوری
چولا
چولستان
چون
چونا
چونتیس
چونسٹھ
چونچ
چونکہ
چونگ
چونیاں
چونے
چوٹ
چوٹوں
چوٹی
چوٹیوں
چوپڑا
چوڑا
چوڑاي
چوڑی
چوڑیاں
چوڑے
چوک
چوکور
چوکوں
چوکی
چوکیوں
چوکے
چوں
چوہا
چوہان
چوہتر
چوہدری
چوہے
چي
چٹان
چٹانوں
چٹانی
چٹانیں
چٹاگانگ
چٹرجی
چٹنی
چٹھہ
چپ
چپکے
چچا
چڑھ
چڑھا
چڑھانے
چڑھاو
چڑھاي
چڑھایا
چڑھنا
چڑھنے
چڑھی
چڑھے
چڑیا
چک
چکا
چکر
چکرورتی
چکن
چکوال
چکی
چکے
چھ
چھا
چھاتی
چھان
چھاو
چھاونی
چھاي
چھاپ
چھاپا
چھاپنے
چھاپوں
چھاپہ
چھاپے
چھاڑ
چھایا
چھبیس
چھت
چھترپتی
چھتری
چھتوں
چھتیس
چھری
چھلانگ
چھن
چھو
چھولس
چھونے
چھوٹ
چھوٹا
چھوٹی
چھوٹے
چھوڑ
چھوڑا
چھوڑتے
چھوڑنا
چھوڑنے
چھوڑی
چھوڑیں
چھوڑے
چھٹا
چھٹکارا
چھٹی
چھٹیوں
چھٹے
چھپ
چھپا
چھپانا
چھپانے
چھپاي
چھپایا
چھپتے
چھپن
چھپنے
چھپی
چھپے
چھڑ
چھڑی
چھکا
چھکوں
چھکے
چھہتر
چھیاسٹھ
چھیاسی
چھیالیس
چھیانوے
چھین
چھیڑ
چہ
چہار
چہارم
چہروں
چہرہ
چہرے
چہل
چی
چیانگ
چیبا
چیت
چیتا
چیخ
چیدہ
چیر
چیرمین
چیری
چیریٹی
چیز
چیزوں
چیزیں
چیس
چیسٹر
چیسٹرفیلڈ
چیشاي
چیف
چیفس
چیلسی
چیلنج
چیلنجرز
چیلنجوں
چیمبر
چیمپي
چیمپین
چیمپیي
چیمہ
چین
چیناي
چینج
چینل
چینلز
چینلوں
چینی
چینیوں
چیي
چیٹ
چیپل
چیچن
چیچنیا
چیچک
چیچہ
چیک
چیکو
چیکوسلواکیہ
چیکوسلوواکیا
چیکہ
چے
ڇ
ڈ
ڈا
ڈاج
ڈار
ڈارون
ڈارک
ڈال
ڈالا
ڈالتا
ڈالتی
ڈالتے
ڈالر
ڈالنا
ڈالنے
ڈالٹن
ڈالی
ڈالیں
ڈالے
ڈان
ڈانس
ڈانسر
ڈاو
ڈاون
ڈاي
ڈاٹ
ڈاک
ڈاکو
ڈاکوو
ڈاکٹر
ڈاکٹروں
ڈاکٹریٹ
ڈاگ
ڈب
ڈبل
ڈبلز
ڈبلن
ڈبلیو
ڈبنگ
ڈبو
ڈبے
ڈر
ڈرا
ڈرافٹ
ڈراما
ڈراماي
ڈراموں
ڈرامہ
ڈرامے
ڈراو
ڈراي
ڈراپ
ڈربن
ڈربی
ڈرتا
ڈرتے
ڈرم
ڈرو
ڈرون
ڈرہم
ڈری
ڈریم
ڈریوڈ
ڈریک
ڈریگن
ڈزنی
ڈس
ڈسٹرکٹ
ڈسٹرکٹس
ڈسپلے
ڈسک
ڈسکوجس
ڈسکہ
ڈش
ڈل
ڈلیوری
ڈن
ڈنمارک
ڈنڈی
ڈنکن
ڈنگ
ڈو
ڈوب
ڈوبا
ڈوبنے
ڈور
ڈول
ڈولفنز
ڈولی
ڈوم
ڈومیسٹک
ڈومین
ڈومینیکا
ڈومینیکن
ڈون
ڈونلڈ
ڈونگ
ڈوور
ڈوي
ڈوگر
ڈوگرہ
ڈویلپمنٹ
ڈویژن
ڈویژنل
ڈویژنوں
ڈي
ڈٹ
ڈپارٹمنٹ
ڈپریشن
ڈپلوما
ڈپلومہ
ڈپو
ڈپٹی
ڈچ
ڈچوں
ڈچی
ڈک
ڈکسن
ڈکشنری
ڈکنسن
ڈکوٹا
ڈکیتی
ڈگری
ڈگریاں
ڈگلس
ڈھال
ڈھالا
ڈھالنے
ڈھانپ
ڈھانچہ
ڈھانچے
ڈھاي
ڈھاکہ
ڈھل
ڈھلوان
ڈھنگ
ڈھول
ڈھونڈ
ڈھونڈنے
ڈھوک
ڈھکا
ڈھکی
ڈھیر
ڈھیلا
ڈھیلے
ڈی
ڈیانا
ڈیاگو
ڈیبیو
ڈیتھ
ڈیجیٹل
ڈیر
ڈیرن
ڈیرک
ڈیرہ
ڈیری
ڈیرے
ڈیزاي
ڈیزل
ڈیس
ڈیسک
ڈیشن
ڈیفنس
ڈیل
ڈیلاس
ڈیلاویي
ڈیلٹا
ڈیلی
ڈیلیوری
ڈیم
ڈیموکریٹس
ڈیموکریٹک
ڈین
ڈینس
ڈینش
ڈینور
ڈینٹل
ڈینی
ڈینیل
ڈینیوب
ڈینیي
ڈیو
ڈیواي
ڈیوس
ڈیولز
ڈیولپمنٹ
ڈیون
ڈیوٹی
ڈیوڈ
ڈیوڈسن
ڈیوک
ڈیوی
ڈیویس
ڈیي
ڈیٹ
ڈیٹا
ڈیٹابیس
ڈیٹن
ڈیٹنگ
ڈیپ
ڈیپارٹمنٹ
ڈیڈ
ڈیڑھ
ڈیک
ڈیکسٹر
ڈیکلب
ڈیکیٹر
ڈے
ڊ
ڌ
ڍ
ڏ
ڑ
ڑا
ڑی
ڑے
ژ
ژاں
ژو
ژوب
ژوي
ڙ
ڤ
ڦ
ک
کا
کاا
کاایک
کابل
کابلی
کابینہ
کاتالونیا
کاتب
کاتھولک
کاج
کاجل
کار
کارا
کاراباخ
کاربن
کارتک
کارخانوں
کارخانہ
کارخانے
کاردار
کاررواي
کارفرما
کارل
کارلاي
کارلو
کارلوس
کارلٹن
کارمل
کارن
کارناموں
کارنامہ
کارنامے
کارنر
کارنیگی
کاروان
کارواي
کارواں
کاروبار
کاروباری
کاروں
کارٹ
کارٹر
کارٹون
کارپس
کارپوریشن
کارپوریٹ
کارڈ
کارڈف
کارکردگی
کارکن
کارکنان
کارکنوں
کارگر
کارگل
کارگو
کارہ
کاری
کاریوں
کاریگر
کاریگروں
کاریں
کاز
کازان
کاس
کاسا
کاسترو
کاسٹ
کاسٹنگ
کاش
کاشان
کاشانی
کاشت
کاشتکار
کاشتکاروں
کاشتکاری
کاشغر
کاشف
کاشمیری
کاشی
کاظم
کاظمی
کاغذ
کاغذات
کاغذی
کافر
کافروں
کافور
کافی
کال
کالا
کالاباغ
کالاش
کالج
کالجز
کالجوں
کالعدم
کالم
کالموں
کالنگ
کالو
کالونی
کالونیوں
کالوں
کالہون
کالی
کالے
کام
کاما
کامبریا
کامبیٹ
کامران
کامرس
کامل
کامن
کامنز
کاموں
کامپٹن
کامک
کامکس
کامیاب
کامیابی
کامیابیاں
کامیابیوں
کامیڈی
کان
کانام
کانت
کانتی
کاندھلوی
کانسی
کانفرنس
کانفرنسوں
کانونٹ
کانوں
کانٹا
کانٹے
کانپور
کانگ
کانگرس
کانگریس
کانگریسی
کانگو
کاو
کاوش
کاوشوں
کاوشیں
کاولی
کاي
کاٹ
کاٹا
کاٹن
کاٹنا
کاٹنے
کاٹی
کاٹے
کاپٹر
کاپٹروں
کاپی
کاپیاں
کاک
کاکا
کاکس
کاکڑ
کاکیشین
کاہل
کاہن
کاہنوں
کایا
کب
کباب
کبار
کبری
کبوتر
کبڈی
کبھار
کبھی
کبیر
کبیرہ
کت
کتا
کتاب
کتابت
کتابخانہ
کتابوں
کتابچہ
کتابچے
کتابی
کتابیات
کتابیں
کتب
کتبوں
کتبہ
کتبے
کتنا
کتنی
کتنے
کتوں
کتھا
کتھک
کتے
کثافت
کثرت
کثیر
کثیف
کج
کد
کدہ
کذاب
کر
کرا
کراتے
کرادیا
کراس
کراسنگ
کرافورڈ
کرافٹ
کرام
کرامات
کرامت
کران
کرانا
کرانی
کرانیکل
کرانے
کراو
کراي
کراٹے
کراچی
کرایا
کرایہ
کرب
کربلا
کربلاي
کرتا
کرتار
کرتاہے
کرتب
کرتی
کرتیں
کرتے
کرد
کردار
کرداروں
کردری
کردستان
کردو
کردوں
کردي
کردہ
کردی
کردیا
کردیتا
کردیتی
کردیتے
کردینا
کردینے
کردیي
کردیں
کردیے
کردے
کررہا
کررہی
کررہے
کرزي
کرس
کرسمس
کرسٹل
کرسٹن
کرسٹوفر
کرسٹین
کرسٹینا
کرسچن
کرسچین
کرسکا
کرسکتا
کرسکتی
کرسکتے
کرسکیں
کرسکے
کرسی
کرش
کرشمہ
کرشن
کرشنا
کرشنن
کرغزستان
کرغیز
کرغیزستان
کرفیو
کرلو
کرلي
کرلی
کرلیا
کرلیتا
کرلیتے
کرلیں
کرلیے
کرلے
کرم
کرمان
کرمانشاہ
کرمانی
کرن
کرنا
کرنال
کرناٹک
کرنسی
کرنسیوں
کرنل
کرنٹ
کرنی
کرنے
کرو
کروا
کرواتے
کروانا
کروانے
کرواي
کروایا
کروز
کروزر
کروشیا
کروشیاي
کروشین
کروفٹ
کرون
کرونا
کرونیکل
کروي
کروٹ
کروڑ
کروڑوں
کروں
کرویي
کري
کرپشن
کرپٹو
کرچکا
کرچکی
کرچکے
کرک
کرکٹ
کرکٹر
کرکٹرز
کرکے
کرگي
کرگیا
کرہ
کری
کریز
کریسنٹ
کریم
کریمہ
کریمیا
کریمیاي
کریمین
کرین
کریي
کریٹ
کریڈٹ
کریک
کریگ
کریں
کرے
کزن
کس
کساد
کسان
کسانوں
کساي
کسب
کسر
کسری
کسفورڈ
کسوٹی
کسٹم
کسی
کسیجن
کسے
کش
کشا
کشادہ
کشاف
کشاي
کشت
کشتہ
کشتی
کشتیاں
کشتیوں
کشش
کشف
کشمکش
کشمیر
کشمیری
کشمیریوں
کشن
کشور
کشوں
کشی
کشید
کشیدگی
کشیدہ
کعب
کعبہ
کف
کفار
کفارہ
کفالت
کفایت
کفر
کفن
کفیل
کل
کلا
کلاب
کلارا
کلارک
کلاس
کلاسز
کلاسوں
کلاسک
کلاسیکل
کلاسیکی
کلام
کلامی
کلانگ
کلاو
کلاي
کلاچی
کلاں
کلب
کلبوں
کلبی
کلثوم
کلر
کلرک
کلرکہار
کلف
کلفٹن
کلمات
کلمہ
کلنٹن
کلنگ
کلو
کلومیٹر
کلوپیڈیا
کلوگرام
کلي
کلچر
کلچرل
کلک
کلکتہ
کلکرنی
کلکٹر
کلہاڑی
کلہوڑا
کلہوڑو
کلی
کلیات
کلیان
کلید
کلیدی
کلیر
کلیرنس
کلیسا
کلیسیا
کلیسیاي
کلیم
کلیمنٹ
کلین
کلینڈ
کلینک
کلینی
کلیولینڈ
کلیي
کلیٹن
کلیہ
کلے
کم
کما
کمار
کماری
کمال
کمالات
کمالیہ
کمان
کمانڈ
کمانڈر
کمانڈروں
کمانڈو
کمانے
کماي
کمایا
کمباي
کمبرلینڈ
کمبل
کمبلے
کمبوڈیا
کمبوہ
کمتر
کمر
کمرشل
کمروں
کمرہ
کمرے
کمزور
کمزوری
کمسن
کمشن
کمشنر
کمل
کملا
کمنز
کمنٹری
کمنٹیٹر
کمونے
کمپلیکس
کمپنی
کمپنیاں
کمپنیوں
کمپوز
کمپوزر
کمپیوٹر
کمپیوٹرز
کمپیوٹنگ
کمک
کمی
کمیت
کمیشن
کمیون
کمیونزم
کمیونسٹ
کمیونسٹوں
کمیونل
کمیونٹی
کمیونٹیز
کمیونیکیشن
کمیٹی
کمیٹیوں
کن
کنار
کناروں
کنارہ
کنارے
کنال
کنانہ
کناڈا
کنبہ
کنبے
کنجی
کند
کندھوں
کندھے
کندہ
کندی
کندیاں
کنز
کنزرویٹو
کنساس
کنسرٹ
کنسلٹنٹ
کنشک
کنعان
کنفیوشس
کنفیڈریشن
کنندگان
کنندہ
کنو
کنواری
کنواں
کنور
کنول
کنونشن
کنوي
کنویں
کنٹرول
کنٹرولر
کنٹری
کنٹریکٹ
کنڈ
کنڈی
کنڑ
کنڑا
کنکر
کنکریٹ
کنگ
کنگز
کنگسٹن
کنگمین
کنگڈم
کنہیا
کنی
کنیت
کنیز
کنیست
کنیسہ
کنیکٹیکٹ
که
کو
کوا
کوارٹر
کوازولو
کواس
کوالا
کوالالمپور
کوالٹی
کوالیفاي
کوان
کوانٹم
کواي
کواپنے
کوبھی
کوت
کوتاہی
کوثر
کود
کور
کورا
کورس
کورسز
کورش
کورل
کورنگی
کورونا
کورٹ
کورٹس
کوری
کوریا
کوریاي
کوریج
کورین
کوس
کوسوو
کوسووہ
کوسٹ
کوسٹا
کوسٹاریکا
کوش
کوشاں
کوشش
کوششوں
کوششیں
کوشل
کوفہ
کوفی
کوفیوں
کول
کولا
کولم
کولمبس
کولمبو
کولمبیا
کولن
کولنز
کولوراڈو
کولون
کولٹس
کولکاتا
کولکتہ
کولی
کوم
کومتے
کومل
کون
کونسل
کونسلر
کونسلز
کونسلوں
کونسلیں
کونسی
کونوں
کونکورڈ
کونے
کوو
کووڈ
کوي
کوٹ
کوٹا
کوٹری
کوٹلہ
کوٹلی
کوٹھی
کوٹھے
کوٹہ
کوٹی
کوپر
کوپن
کوچ
کوچنگ
کوچک
کوچہ
کوچی
کوڈ
کوڑا
کوڑے
کوک
کوکا
کوکب
کوکو
کوہ
کوہاٹ
کوہستان
کوہستانی
کوہلی
کوہن
کوی
کویت
کویتا
کویتی
کویزون
کى
کي
کيا
کٹ
کٹا
کٹاو
کٹاي
کٹر
کٹک
کٹھ
کٹی
کٹے
کپ
کپاس
کپتان
کپتانوں
کپتانی
کپل
کپور
کپڑا
کپڑوں
کپڑے
کچا
کچل
کچلنے
کچھ
کچھی
کچی
کچے
کڈپہ
کڑا
کڑپہ
کڑھاي
کڑی
کک
کھ
کھا
کھاتا
کھاتہ
کھاتی
کھاتے
کھاد
کھاریاں
کھال
کھانا
کھانسی
کھانوں
کھانے
کھاو
کھاي
کھایا
کھتری
کھجور
کھداي
کھر
کھرل
کھل
کھلا
کھلانے
کھلاڑی
کھلاڑیوں
کھلایا
کھلتا
کھلم
کھلنا
کھلنے
کھلونا
کھلونے
کھلی
کھلے
کھنڈ
کھنڈر
کھنڈرات
کھنہ
کھو
کھوار
کھوج
کھود
کھودنے
کھوسہ
کھول
کھولا
کھولنا
کھولنے
کھولی
کھولے
کھونے
کھوي
کھوپڑی
کھوکھر
کھویا
کھٹمنڈو
کھپت
کھچی
کھڑا
کھڑکی
کھڑکیاں
کھڑکیوں
کھڑی
کھڑے
کھیت
کھیتوں
کھیتی
کھیر
کھیل
کھیلا
کھیلتا
کھیلتی
کھیلتے
کھیلنا
کھیلنے
کھیلوں
کھیلی
کھیلیں
کھیلے
کھینچ
کھینچا
کھینچنے
کھینچی
کہ
کہا
کہاجاتا
کہار
کہانی
کہانیاں
کہانیوں
کہاوت
کہاکہ
کہاں
کہتا
کہتی
کہتے
کہف
کہلا
کہلاتا
کہلاتی
کہلاتے
کہلانے
کہلاي
کہلایا
کہنا
کہنہ
کہنے
کہو
کہوٹہ
کہوں
کہکشاں
کہگیلویہ
کہہ
کہی
کہیں
کہے
کی
کیا
کیااور
کیاتھا
کیانی
کیاہے
کیبل
کیتھ
کیتھرین
کیتھولک
کیتھیڈرل
کیجي
کیجیے
کیخلاف
کیر
کیرالا
کیرالہ
کیرانوی
کیرل
کیرلا
کیرن
کیرول
کیرولاي
کیرولین
کیرولینا
کیري
کیری
کیریبین
کیریي
کیس
کیسا
کیساتھ
کیسل
کیسٹر
کیسپین
کیسی
کیسے
کیش
کیشن
کیشنز
کیف
کیفی
کیفیات
کیفیت
کیفے
کیل
کیلا
کیلاش
کیلس
کیلشیم
کیلنڈر
کیلومیٹر
کیلون
کیلي
کیلگری
کیلی
کیلیفورنیا
کیلیڈونیا
کیلے
کیمبرج
کیمبل
کیمرا
کیمرون
کیمرے
کیمسٹری
کیمپ
کیمپس
کیمپوں
کیمڈن
کیمیا
کیمیاء
کیمیاي
کیمیکل
کین
کینال
کینبرا
کینتھ
کینز
کینسر
کینن
کینٹ
کینٹربری
کینٹن
کینٹکی
کینڈا
کینڈل
کینڈی
کینہ
کینی
کینیا
کینیڈا
کینیڈی
کینیڈین
کیو
کیوبا
کیوبک
کیوبیک
کیوجہ
کیوری
کیولری
کیون
کیونکر
کیونکہ
کیوں
کیوی
کیي
کیٹ
کیٹز
کیٹس
کیٹلاگ
کیٹلینا
کیٹی
کیپ
کیپر
کیپس
کیپلر
کیپنگ
کیپٹل
کیپٹن
کیپیٹل
کیچ
کیچز
کیچڑ
کیڈٹ
کیڑا
کیڑوں
کیڑے
کیک
کیں
کیے
کے
کےساتھ
کےلي
کےلیے
ڪ
گ
گا
گابا
گاتی
گاتے
گاجر
گار
گارجین
گارفیلڈ
گارنر
گارڈ
گارڈز
گارڈن
گارڈنر
گارڈنز
گارڈین
گاری
گال
گالف
گالی
گاما
گامزن
گان
گانا
گاندھی
گانوں
گانے
گاو
گاوں
گاي
گاڈ
گاڑی
گاڑیاں
گاڑیوں
گاہ
گاہوں
گاہک
گاہکوں
گاہی
گاہیں
گاہے
گایا
گبز
گبسن
گبول
گجر
گجرات
گجراتی
گداز
گدھ
گدھا
گدھے
گدی
گذر
گذرا
گذرتا
گذرتی
گذرتے
گذرنے
گذری
گذرے
گذشتہ
گر
گرا
گراس
گراف
گرافر
گرافٹن
گرافک
گرافکس
گرافی
گرام
گرامر
گرامی
گرانٹ
گرانڈ
گرانڈے
گرانے
گراو
گراي
گراڈ
گراں
گراہم
گرایا
گرتا
گرتی
گرتے
گرج
گرجا
گرجاگھر
گرد
گردان
گردانا
گردانتے
گردانہ
گردش
گردن
گردوارہ
گردونواح
گردوں
گردی
گردیزی
گردے
گرفت
گرفتار
گرفتاری
گرل
گرلز
گرم
گرما
گرماي
گرمی
گرمیاں
گرمین
گرمیوں
گرنا
گرنتھ
گرنزی
گرنے
گرو
گروزنی
گرونڈی
گروو
گروپ
گروپس
گروپوں
گروں
گروہ
گروہوں
گروہی
گرچہ
گرڈ
گرہ
گرہن
گری
گریجویشن
گریجویٹ
گریز
گریزاں
گریس
گریفتھ
گریم
گرین
گریناي
گریناڈا
گریناڈاي
گرینویل
گرینچ
گرینڈ
گریو
گریٹ
گریٹر
گریڈ
گریکولینڈ
گریگ
گریگوری
گریہ
گرے
گز
گزار
گزارا
گزارتے
گزارش
گزارنا
گزارنے
گزاری
گزارے
گزر
گزرا
گزرتا
گزرتی
گزرتے
گزرنا
گزرنے
گزرگاہ
گزری
گزرے
گزشتہ
گزٹ
گزین
گزینوں
گستاخ
گستاخی
گسٹا
گشت
گفت
گفتار
گفتگو
گل
گلا
گلاب
گلابی
گلاس
گلاسگو
گلبرٹ
گلبرگ
گلبرگہ
گلدستہ
گلزار
گلستان
گلشن
گلف
گلو
گلوب
گلوبل
گلوریا
گلوسٹر
گلوٹولاگ
گلوکار
گلوکاروں
گلوکارہ
گلوکاری
گلوکوز
گلڈ
گلکرسٹ
گلگت
گلہ
گلی
گلیاں
گلیشیر
گلیل
گلیمورگن
گلین
گلیوں
گلیڈی
گلے
گم
گمان
گمراہ
گمراہی
گمشدہ
گمنا
گمنام
گن
گنا
گناہ
گناہوں
گنبد
گنبدوں
گنت
گنتی
گنج
گنجان
گنجاي
گندم
گندگی
گندھارا
گندھک
گنو
گنوا
گنڈا
گنگ
گنگا
گنگولی
گنگوہی
گنی
گنیز
گنیش
گنے
گو
گوا
گواتیمالا
گوادر
گوارا
گواسکر
گوالیار
گوام
گوانگژو
گواہ
گواہوں
گواہی
گوبند
گوت
گوتم
گوتھک
گوجر
گوجرانوالہ
گوجرخان
گوجرہ
گوجری
گود
گودام
گوداوری
گور
گورا
گورباچوف
گورنر
گورنرز
گورنروں
گورنری
گورنمنٹ
گورننگ
گورو
گوروں
گورڈن
گورکھا
گورکھپور
گورکھپوری
گوری
گوریلا
گورے
گوسوامی
گوش
گوشت
گوشوں
گوشہ
گوشے
گول
گولف
گولن
گولڈ
گولڈن
گولڑہ
گولکنڈہ
گولہ
گولی
گولیاں
گولیوں
گولے
گومل
گونج
گوندل
گونگ
گووند
گوي
گوٹھ
گوپال
گوپی
گوچ
گوڈارڈ
گوکہ
گوگل
گوگلی
گوں
گوہاٹی
گوہر
گویا
گي
گيا
گٹار
گپ
گپت
گپتا
گچھ
گڈ
گڑ
گڑھ
گڑھا
گڑھوال
گڑھی
گڑھے
گڑیا
گکھڑ
گھات
گھاس
گھانا
گھاٹ
گھاٹی
گھبرا
گھبراہٹ
گھر
گھرا
گھرانوں
گھرانہ
گھرانے
گھروں
گھری
گھریلو
گھس
گھل
گھنٹوں
گھنٹہ
گھنٹی
گھنٹے
گھنے
گھوش
گھوم
گھومتا
گھومتی
گھومتے
گھومنے
گھونٹ
گھوٹکی
گھوڑا
گھوڑوں
گھوڑی
گھوڑے
گھٹ
گھٹا
گھٹنوں
گھٹنے
گھٹیا
گھڑ
گھڑت
گھڑسوار
گھڑی
گھی
گھیب
گھیر
گھیرا
گھیرے
گہرا
گہراي
گہری
گہرے
گہوارہ
گہی
گی
گیا
گیارہ
گیارہویں
گیان
گیانا
گیانی
گیاوی
گیاہے
گیبون
گیت
گیتا
گیتوں
گیج
گیر
گیری
گیریژن
گیس
گیسو
گیسوں
گیسٹ
گیل
گیلان
گیلانی
گیلری
گیلن
گیلی
گیلے
گیم
گیمبیا
گیمز
گیند
گیندوں
گیندیں
گینگ
گیورگس
گیي
گیٹ
گیٹس
گیٹی
گے
ڱ
ڳ
ں
ڻ
ھ
ھا
ھجری
ھر
ھل
ھو
ھوا
ھوي
ھی
ھیں
ھے
ہ
ہا
ہاتھ
ہاتھوں
ہاتھی
ہاتھیوں
ہاجرہ
ہادی
ہار
ہارا
ہاربر
ہارس
ہارن
ہارنے
ہارورڈ
ہارون
ہاروی
ہاروے
ہارٹ
ہارٹفورڈ
ہارپر
ہارڈ
ہارڈن
ہارڈنگ
ہارڈی
ہاری
ہارے
ہاس
ہاسن
ہاسٹل
ہاسپلمتھ
ہاسپٹل
ہاشم
ہاشمی
ہاف
ہال
ہالٹ
ہالہ
ہالی
ہالینڈ
ہان
ہانگ
ہانی
ہاو
ہاور
ہاورڈ
ہاوس
ہاي
ہاٹ
ہاک
ہاکس
ہاکی
ہاں
ہبل
ہبیرہ
ہتھیار
ہتھیاروں
ہجر
ہجرت
ہجری
ہجو
ہجوم
ہجومی
ہجویری
ہجے
ہخامنشی
ہد
ہدایات
ہدایت
ہدایتکار
ہدایتکاری
ہدایہ
ہدف
ہدیہ
ہذا
ہر
ہرا
ہرات
ہرارے
ہراس
ہراسانی
ہراساں
ہرالڈ
ہربرٹ
ہرزیگووینا
ہرزیگوینا
ہرسٹ
ہرش
ہرقل
ہرمز
ہرمن
ہرمندر
ہرن
ہروی
ہرٹ
ہرٹز
ہرگز
ہری
ہریانہ
ہریرہ
ہریش
ہرے
ہز
ہزار
ہزاروں
ہزاروی
ہزارہ
ہزاری
ہزارے
ہستہ
ہستی
ہستیاں
ہستیوں
ہسٹری
ہسپانوی
ہسپانویوں
ہسپانیہ
ہسپتال
ہسپتالوں
ہسی
ہشام
ہشت
ہشتم
ہضم
ہفت
ہفتم
ہفتوں
ہفتہ
ہفتے
ہل
ہلا
ہلال
ہلاک
ہلاکت
ہلاکتوں
ہلاکتیں
ہلاکو
ہلز
ہلزڈیل
ہلمند
ہلچل
ہلکا
ہلکی
ہلکے
ہلیری
ہم
ہما
ہمارا
ہماری
ہمارے
ہمالیہ
ہمام
ہماچل
ہمایوں
ہمبولٹ
ہمت
ہمدان
ہمدانی
ہمدرد
ہمدردی
ہمراہ
ہمرکاب
ہمزہ
ہمساي
ہمسایہ
ہمشیرہ
ہمعصر
ہموار
ہمکنار
ہمہ
ہمیشہ
ہمیں
ہن
ہند
ہندستان
ہندسہ
ہندسی
ہندسیات
ہندسے
ہندو
ہندوستان
ہندوستانی
ہندوستانیوں
ہندومت
ہندوو
ہندووں
ہندوکش
ہندکو
ہندی
ہنر
ہنری
ہنزہ
ہنس
ہنسی
ہنور
ہنوز
ہنومان
ہنوں
ہنٹ
ہنٹر
ہنٹنگٹن
ہنڈریڈ
ہنگ
ہنگاموں
ہنگامہ
ہنگامی
ہنگامے
ہنگری
ہنگو
ہنگی
ہنی
ہو
ہوا
ہوابازی
ہوازن
ہوانا
ہواو
ہواي
ہوبارٹ
ہوتا
ہوتاہے
ہوتو
ہوتی
ہوتیں
ہوتے
ہوجا
ہوجاتا
ہوجاتی
ہوجاتے
ہوجانا
ہوجانے
ہوجاو
ہوجاي
ہود
ہور
ہورہا
ہورہی
ہوس
ہوسٹنگ
ہوسکا
ہوسکتا
ہوسکتی
ہوسکتے
ہوسکیں
ہوسکے
ہوش
ہوشنگ
ہوشیار
ہول
ہولمز
ہولناک
ہولوکاسٹ
ہولڈر
ہولڈنگ
ہولکر
ہولی
ہوم
ہومز
ہون
ہونا
ہونٹ
ہونٹوں
ہونڈوراس
ہونگے
ہونہار
ہونی
ہونے
ہوو
ہووارڈ
ہوي
ہوٹل
ہوٹلوں
ہوپ
ہوچکا
ہوچکی
ہوچکے
ہوکر
ہوگا
ہوگي
ہوگی
ہوگیا
ہوں
ہوے
ہي
ہيں
ہٹ
ہٹا
ہٹانے
ہٹاي
ہٹایا
ہٹلر
ہٹن
ہٹنا
ہٹنے
ہچکچاہٹ
ہچکی
ہڈ
ہڈسن
ہڈی
ہڈیاں
ہڈیوں
ہڑتال
ہڑپہ
ہک
ہی
ہیات
ہیبت
ہیبس
ہیبسبرگ
ہیت
ہیتھ
ہیجان
ہیجز
ہیر
ہیرا
ہیرالڈ
ہیرس
ہیرو
ہیروز
ہیروشیما
ہیروي
ہیری
ہیریسن
ہیریٹیج
ہیرے
ہیز
ہیزل
ہیسٹنگز
ہیل
ہیلتھ
ہیلسنکی
ہیلمٹ
ہیلن
ہیلٹن
ہیلپ
ہیلی
ہیلیي
ہیم
ہیمبرگ
ہیمر
ہیملٹن
ہیمنڈ
ہیمپشاي
ہیمپٹن
ہین
ہینری
ہینڈ
ہینڈرسن
ہینڈل
ہینکوک
ہیو
ہیوران
ہیوز
ہیوسٹن
ہیومن
ہیومین
ہیون
ہیوگو
ہیوی
ہیي
ہیٹ
ہیٹی
ہیپلو
ہیپی
ہیچ
ہیڈ
ہیڈلی
ہیڈن
ہیڈنگلے
ہیڈکوارٹر
ہیک
ہیکل
ہیکٹر
ہیگ
ہیگن
ہیں
ہیہ
ہے
ہےاور
ہےـ
ہےکہ
ۃ
ی
یا
یاب
یابی
یات
یاترا
یاجوج
یاد
یاداشت
یادداشت
یادداشتوں
یادو
یادوں
یادگار
یادگاروں
یادگاری
یادگاریں
یادیں
یار
یارا
یارڈ
یارک
یارکشاي
یاس
یاسر
یاسمین
یاسین
یافا
یافتگان
یافتہ
یاقوت
یان
یانگ
یاو
یاي
یاں
یاہو
یب
یبا
یت
یتوں
یتی
یتیم
یتیموں
یتیں
یث
یثرب
یجان
یجانی
یجیریا
یحی
یحیی
یخ
ید
یداد
یدار
یدہ
یدین
یر
یرغمال
یرلاي
یرموک
یرمیاہ
یرمین
یرنگ
یروشلم
یرویز
یرپورٹ
یرپورٹس
یری
یریوان
یز
یزد
یزدانی
یزدی
یزو
یزید
یزیدی
یس
یسار
یسعیاہ
یسوع
یسوں
یسویں
یش
یشن
یشیا
یعقوب
یعقوبی
یعلی
یعنی
یف
یفا
یق
یقین
یقینا
یقینی
یل
یلاگ
یلغار
یلو
یلی
یلیوں
یم
یمامہ
یمان
یمانی
یمن
یمنی
یمین
ین
ینا
ینز
ینس
ینگ
ینگی
ینہ
ینی
ینے
یه
یو
یوا
یوان
یوتھ
یوجین
یوحنا
یور
یورال
یوراگوي
یورو
یوروپ
یوروپی
یورپ
یورپی
یورپین
یورپیوں
یوری
یوریشیا
یورینس
یورینیم
یورینیي
یوز
یوس
یوسف
یوسفزي
یوسفی
یول
یوم
یومنگ
یومیہ
یون
یونان
یونانی
یونانیوں
یوناي
یوناہ
یونس
یونٹ
یونٹس
یونٹوں
یونگ
یونہی
یونی
یونیسکو
یونیفارم
یونین
یونینوں
یونیورس
یونیورسل
یونیورسٹی
یونیورسٹیاں
یونیورسٹیز
یونیورسٹیوں
یوو
یووا
یوي
یوٹ
یوٹاہ
یوٹیوب
یوپی
یوڈ
یوکراي
یوکرین
یوکرینی
یوکون
یوکوہاما
یوکے
یوگ
یوگا
یوگرافی
یوگنڈا
یوگوسلاو
یوگوسلاویہ
یوگی
یوں
یویٹ
یي
یٹ
یٹس
یٹڈ
یڈ
یڈا
یڈر
یڈرز
یڈرو
یڈروجن
یڈز
یڈن
یڈو
یڈیا
یڈیل
یک
یکا
یکاٹ
یکایک
یکتا
یکجا
یکجہتی
یکر
یکرو
یکروسافٹ
یکسانی
یکساں
یکسر
یکسوي
یکطرفہ
یکل
یکلنگ
یکلو
یکلوپیڈیا
یکم
یکن
یکو
یکون
یکہ
یکی
یکے
یگ
یگا
یگانہ
یگر
یگرز
یگی
یگیوں
یں
یہ
یہا
یہاں
یہود
یہودا
یہوداہ
یہودی
یہودیت
یہودیوں
یہودیہ
یہی
یہیں
یۃ
یی
ییل
یین
یے
ې
ے
۔
ۖ
ۗ
ۙ
ۚ
۞
ۡ
ۢ
ۤ
۰
۱
۱۰
۱۱
۱۲
۱۳
۱۴
۱۵
۱۶
۱۷
۱۸
۲
۲۰
۳
۴
۵
۶
۷
۸
۹
۽
۾
܂
ݨ
ނ
ރ
އ
ވ
މ
ދ
ަ
ާ
ި
ު
ެ
ް
ँ
ं
ः
अ
अक
अगस
अप
आ
आण
इ
इन
ई
ऊ
ए
एक
ऑफ
ओ
और
क
कर
ख
ग
घ
च
छ
ज
जनवर
झ
ञ
ट
ठ
ड
डस
ण
त
थ
द
ध
न
नव
प
पर
फ
ब
बर
भ
म
मई
य
र
रक
रत
रह
ल
ळ
व
वर
श
शन
ष
स
सम
ह
़
ा
ि
ी
ु
ू
ृ
ॅ
े
ै
ॉ
ो
ौ
्
।
१
२
५
॰
ঁ
ং
ই
ও
ক
খ
গ
ঙ
চ
ছ
জ
ট
ড
ণ
ত
থ
দ
ধ
ন
প
ফ
ব
ভ
ম
য
র
ল
শ
ষ
স
হ
়
া
ি
ী
ু
ূ
ৃ
ে
ৈ
্
ৗ
ਂ
ਆ
ਕ
ਖ
ਗ
ਘ
ਚ
ਜ
ਟ
ਡ
ਤ
ਦ
ਧ
ਨ
ਪ
ਫ
ਬ
ਭ
ਮ
ਰ
ਲ
ਵ
ਸ
ਹ
਼
ਾ
ਿ
ੀ
ੁ
ੂ
ੇ
ੈ
ੋ
ੌ
੍
ੰ
ੱ
ં
એ
ક
ગ
ચ
છ
જ
ટ
ડ
ત
થ
દ
ધ
ન
પ
બ
મ
ય
ર
લ
વ
શ
ષ
સ
હ
ા
િ
ી
ુ
ે
ો
્
କ
ଗ
ତ
ଦ
ନ
ପ
ବ
ମ
ର
ଶ
ସ
ା
ି
ୀ
ୁ
େ
୍
க
ச
ட
த
ந
ன
ப
ம
ய
ர
ற
ல
ள
ழ
வ
ா
ி
ீ
ு
ூ
ெ
ே
ை
்
ం
క
ఖ
గ
జ
ట
త
ద
న
ప
మ
య
ర
ల
వ
స
ా
ి
ీ
ు
ె
ే
ో
్
ಂ
ಕ
ಗ
ತ
ದ
ನ
ಪ
ಮ
ರ
ಲ
ವ
ಶ
ಸ
ಾ
ಿ
ು
ೂ
ೆ
್
ೕ
ം
ക
ച
ട
ണ
ത
ദ
ന
പ
ഫ
ബ
മ
യ
ര
റ
ല
ള
വ
ശ
ഷ
സ
ാ
ി
ീ
ു
ൂ
െ
േ
്
ං
ක
ත
ර
ල
ස
්
ා
ි
ී
ු
ෙ
ต
น
ป
พ
ร
ั
ิ
ี
ื
ุ
ู
็
่
้
์
་
ང
ར
ལ
ས
ི
ུ
ོ
င
မ
ာ
ိ
ု
ေ
း
်
ြ
ា
្
​
‌
‍
‎
‏
‐
‑
‒
–
—
―
‖
‘
’
“
”
„
†
•
․
…
‬
‭
′
″
‹
›
⁄
⁡
€
₹
№
™
←
↑
→
↔
↷
⇒
⇦
⇽
∈
∑
−
∗
∘
√
∞
∩
∪
∫
≈
≡
≤
≥
⋅
⋮
⋯
⋱
③
④
⑦
│
▄
►
◄
●
◾
☃
☆
♦
⟨
⟩
⺀
⺄
⺆
⺈
⺊
⺌
⺕
⺝
⺸
⺼
⿰
⿱
⿲
⿳
⿴
⿵
⿶
⿷
⿸
⿹
⿺
⿻
、
。
《
》
「
」
〢
い
か
こ
さ
し
す
た
つ
て
と
に
の
は
る
を
ん
゙
゚
ア
ィ
イ
ウ
エ
オ
カ
ク
ケ
コ
サ
シ
ス
タ
ッ
テ
ト
ニ
ハ
ヒ
フ
ヘ
ホ
マ
ム
メ
モ
ュ
ユ
ラ
リ
ル
レ
ロ
ン
・
ー
㇁
㇂
㇄
㇇
㇈
㇉
㇓
㐁
㐄
㐅
㐌
㐫
㐬
㐭
㐮
㐱
㑒
㒵
㒸
㒼
㓁
㓞
㔾
㕛
㕣
㖾
㘝
㚅
㚇
㚔
㚘
㝉
㝡
㝴
㝵
㞋
㞢
㞷
㠩
㠭
㠯
㡀
㡭
㡿
㢲
㢴
㣇
㣺
㥯
㪅
㫄
㫐
㫒
㫺
㬅
㬎
㬥
㬰
㲋
㳄
㷠
㸒
㸚
㸦
㼌
㼲
㽞
㿟
䀠
䂞
䍃
䏍
䒑
䖍
䖒
䖝
䖵
䙴
䚻
䜌
䝿
䡛
䧹
䪞
一
丁
丂
七
丄
丅
丆
万
丈
三
上
下
丌
不
与
丏
丐
丑
专
且
丕
世
丘
丙
业
东
丞
丢
丣
两
严
並
丨
丩
个
丫
丬
中
丮
丰
丱
串
丵
丶
丷
丸
丹
为
主
丽
丿
乀
乂
乃
久
乆
乇
么
义
之
乌
乍
乎
乏
乐
乑
乔
乖
乗
乘
乙
乚
乛
乜
九
乞
也
习
乡
乳
乾
亀
亅
了
亇
予
争
事
二
亍
于
亏
亐
云
互
亓
五
井
亘
亚
亜
亞
亟
亠
亡
亢
交
亥
亦
产
亨
亩
享
京
亭
亮
亯
亰
亲
亳
亶
亷
人
亻
亼
亾
仁
今
介
仌
从
仐
仑
仒
仓
仕
他
付
仝
代
令
以
任
企
伊
伏
伐
休
会
伯
但
位
何
佘
余
佛
作
佥
使
來
侈
侌
侖
侯
侵
便
保
俞
信
修
倉
倍
候
倠
値
備
傳
僉
僕
儿
兀
允
兂
元
兄
充
兆
兇
先
光
兊
克
兌
免
兑
兒
兓
兔
党
兜
兟
入
全
兩
兪
八
公
六
兮
兰
共
关
兵
其
具
典
兹
兼
冀
冂
冃
冄
内
冈
冉
冊
冋
册
再
冎
冏
冐
冒
冓
冖
冗
冘
军
农
冝
冡
冥
冫
冬
冰
况
冷
几
凡
凢
凵
凶
凷
凸
凹
出
函
凾
刀
刁
刂
刃
刄
刅
分
切
刍
刑
划
刕
刖
列
刘
则
初
別
利
别
到
制
刺
則
削
剌
前
剡
剽
劇
劉
力
功
加
务
劦
动
助
劫
劳
劵
勃
勇
勉
勒
動
務
勞
勤
勹
勺
勻
勾
勿
匀
匂
包
匆
匈
匊
匋
匍
匕
化
北
匚
匝
匡
匪
匱
匸
匹
区
医
匽
匿
區
十
卂
千
卄
卅
卆
升
午
卉
半
卌
华
卑
卒
卓
单
卖
南
卜
卝
卞
占
卡
卢
卣
卤
卦
卩
卪
卬
卯
印
危
即
却
卵
卷
卸
卻
厂
厃
厄
历
厈
厉
厌
厓
厘
厚
原
厤
厥
厨
厭
厲
厶
厷
厸
去
厼
厽
县
叀
参
參
叅
又
叉
及
友
双
反
叐
发
叒
叔
叕
取
受
叚
叜
叟
口
古
句
另
叩
只
召
可
台
叱
史
右
叵
号
司
叹
吂
各
吅
合
吉
吊
吋
同
名
后
吏
吐
向
吕
君
吝
吞
否
含
启
吳
吴
吹
吾
呂
呆
呈
告
员
呙
周
命
咅
和
咎
咠
咢
咨
咸
咼
哀
品
哈
哉
員
哥
哲
唐
商
啇
問
啚
啬
啻
善
喜
喬
單
喿
嗇
噩
嚴
囊
囗
囘
囙
囚
四
回
囟
因
囧
囬
困
囱
囷
固
国
圂
圅
國
圍
圓
土
圡
圣
圥
在
圭
地
圶
场
圼
坐
坒
坚
坴
垂
垔
垚
埀
埋
城
埶
執
基
堂
堅
堆
堇
堯
報
塞
墨
壘
士
壬
壯
声
壳
壴
壹
壺
壽
夂
处
夅
夆
备
夊
夋
夌
复
夏
夒
夕
外
夗
夘
多
夜
夢
大
夨
天
太
夫
夬
夭
央
失
夲
头
夷
夸
夹
夻
夾
奂
奄
奇
奈
奉
奎
奏
奐
契
奓
奔
奚
奞
奠
奢
奥
奭
女
奴
奻
好
如
妄
妙
妟
妥
妹
妻
妾
姉
姑
委
姜
威
娄
婁
婴
嬰
嬴
子
孑
孔
孕
孖
字
存
孚
孛
孝
孟
季
孤
学
孫
孱
學
宀
宁
宂
它
宅
宇
守
安
宋
完
宏
宓
宗
官
定
宛
宜
宝
客
宣
室
宮
宰
害
家
容
宾
宿
寄
寅
密
富
寒
察
寧
審
寫
寬
寮
寸
对
寺
寻
寽
対
寿
封
尃
射
将
將
專
尉
尊
尋
尌
對
小
少
尒
尓
尔
尖
尗
尚
尞
尢
尣
尤
尧
尨
尭
就
尸
尹
尺
尻
尼
尽
尾
尿
局
居
屈
屋
屎
屏
屑
展
屖
屚
属
屠
屡
屬
屮
屯
屰
山
屵
屾
岁
岂
岑
岡
岩
岳
岸
峯
島
崇
崑
崔
崖
崙
崩
嵬
嶲
巂
巛
川
州
巟
巠
巢
巤
工
左
巧
巨
巩
巫
差
己
已
巳
巴
巷
巸
巽
巾
巿
帀
市
布
希
帚
帛
帝
带
師
席
帶
常
干
平
年
幵
并
幷
幸
幺
幻
幼
幽
幾
广
広
庄
床
底
店
庚
府
度
庫
庭
庶
康
庸
廉
廌
廛
廣
廩
廴
延
廷
建
廾
廿
开
弁
弃
弄
弇
弋
式
弓
弔
引
弗
弘
弜
弟
弥
弦
弱
張
強
强
彊
彌
彎
彐
彑
当
彔
录
彖
彗
彡
形
彥
彦
彧
彭
彳
役
彼
往
待
律
徒
得
徙
從
復
微
徵
心
忄
必
忌
忍
志
忝
忠
忩
快
念
忽
忿
思
怠
急
怱
总
恆
恒
恩
恭
息
悉
患
悤
悲
悶
情
惠
惡
惢
愁
愈
意
愛
感
慈
慧
慮
憂
憲
應
戀
戈
戉
戊
戋
戌
戍
戎
成
我
戒
戔
或
战
戚
戠
戢
截
戲
戶
户
戹
戼
戾
房
所
扁
扇
手
扌
才
打
托
执
批
承
折
护
报
拉
拜
拿
据
掌
排
推
提
摩
支
攴
攵
收
攸
改
放
政
敄
敏
敕
敖
敗
教
敝
敞
敢
散
敦
敫
敬
数
敷
數
斂
文
斉
斊
斗
料
斤
斥
斩
斬
斯
新
方
於
施
斿
旁
旋
族
无
旡
既
旣
日
旦
旧
旨
早
旬
旱
旲
时
旾
昆
昇
昌
昍
明
昏
易
昔
昗
昜
星
春
昬
是
昱
昴
昷
時
晃
晋
晏
普
景
晶
智
暑
暴
曇
曩
曰
曲
曳
更
曷
書
曹
曼
曾
替
最
朁
會
月
有
朋
服
朔
朕
朗
望
朝
期
木
朩
未
末
本
札
朮
术
朱
朵
朶
机
朿
杀
李
杏
村
杜
束
条
来
東
杲
杳
松
析
林
枚
果
枝
枲
枼
某
柔
查
柬
柰
柴
标
栗
桀
桑
桼
梁
條
梟
梨
棘
棠
棥
森
楚
業
楽
概
榮
樂
樊
欠
次
欣
欮
欲
欶
欽
款
歆
歇
歛
止
正
此
步
武
歨
歪
歮
歯
歰
歲
歴
歷
歸
歹
歺
死
殳
段
殷
殸
殹
殺
殻
殿
毋
毌
母
每
毒
比
毕
毚
毛
毳
氏
氐
民
气
氣
水
氵
氶
氷
永
氺
氾
求
汉
汝
汞
江
沃
沓
沙
沝
河
治
泉
法
波
泣
泥
泰
洛
洪
活
派
流
济
浦
浪
浮
海
淡
淮
清
渚
渠
港
湯
湾
滿
漸
灣
火
灬
灭
灰
灵
灷
炅
炎
炏
炗
炙
炭
点
為
烈
烏
烝
焉
無
焦
焱
然
煞
熊
熏
燕
營
燮
爪
爫
爭
爯
爰
爱
爲
爵
父
爻
爽
爾
爿
片
版
牙
牚
牛
牜
牟
牢
牧
物
牪
特
牽
犀
犬
犭
犮
狂
狄
狊
独
狺
猋
猒
猪
献
獻
玄
率
玉
王
玟
玨
珎
班
球
理
琴
瑟
瑩
瓜
瓦
甘
甚
生
産
用
甫
甬
田
由
甲
申
电
甶
男
甸
甹
画
甾
畀
界
畏
畐
留
畜
畟
畢
畧
畨
番
畫
異
畱
當
畺
畾
疊
疋
疌
疑
疒
疾
病
癶
癸
癹
登
發
白
百
皀
皃
的
皆
皇
皋
皐
皕
皮
皷
皿
盃
盆
盇
盈
益
盍
盎
监
盒
盖
盛
盡
監
盤
盧
目
直
相
盾
省
眇
眉
看
県
眔
眞
真
眷
眼
眾
着
睘
睪
睿
瞏
瞢
瞿
矍
矛
矞
矢
矣
知
矦
短
石
研
破
碎
磊
磨
示
礻
礼
社
神
祟
票
祭
禀
禁
福
禸
禹
禺
离
禽
禾
禿
秀
秃
秉
秋
科
秝
秦
移
程
稟
穀
穌
穴
究
穹
空
穿
突
窄
窒
立
竒
站
竜
竝
竟
章
童
竹
笑
笠
第
筆
等
答
箕
算
箴
節
篤
篭
米
粉
粛
粟
粤
粦
粲
糞
糸
糹
系
約
納
素
索
紫
累
細
紹
絜
絫
統
絲
維
網
綿
縣
繇
纍
纟
红
级
线
经
结
统
缶
网
罒
罔
罕
罗
罙
罡
罢
罪
署
罷
羅
羊
羌
羍
美
羔
羕
羗
羞
羡
羣
群
義
羲
羸
羽
翁
翏
習
翕
翟
翠
翼
老
耂
考
者
耆
而
耎
耑
耒
耳
耴
耶
耷
聂
聊
聖
聚
聶
聿
肀
肃
肅
肉
肖
肙
肥
肩
肯
育
肴
胃
背
胡
胥
能
脊
脩
膚
臣
臤
臧
自
臬
臭
臯
臱
至
致
臺
臼
臽
臾
臿
舀
舂
舄
與
興
舉
舌
舍
舛
舜
舞
舟
航
般
艮
良
色
艸
艹
艾
芒
芔
芬
芮
花
芳
芺
芻
苔
苗
苟
若
苦
英
茶
茸
荅
草
荒
荣
荼
莆
莧
莫
莽
菆
菊
菐
華
营
萬
落
葉
著
葛
董
葵
蒙
蒦
蒼
蓋
蓬
蓺
蔑
蔡
蕉
蕭
薄
薛
薦
薰
藍
藏
藥
蘭
虍
虎
虐
虒
虔
處
虖
虗
虘
虚
虛
虜
虞
虫
虽
蚤
蚩
蜀
蜜
蟲
蠡
血
行
衍
衛
衣
衤
表
衮
衰
袁
袞
褭
褱
襄
襾
西
覀
要
覃
見
規
覓
覧
親
覽
见
角
解
言
訁
訇
計
詹
語
誩
諸
讠
计
设
语
调
谷
豆
豈
豊
豐
豕
豖
豙
象
豦
豩
豪
豸
貇
貝
貞
貟
負
貢
貧
貪
貫
責
貳
貴
買
費
賁
資
賈
賏
賓
賔
賛
賞
賢
賣
質
賴
贊
贝
贡
责
贯
贲
贵
资
赖
赞
赤
赦
走
越
足
路
蹇
身
躬
車
軍
軎
軟
輦
车
轨
辛
辜
辟
辥
辰
辱
農
辵
辶
边
达
过
运
近
连
迷
追
退
送
逆
逐
通
速
造
逢
連
逮
進
遀
遂
過
道
達
遣
適
遷
遺
邊
邑
邕
那
邦
邪
郎
部
郭
都
鄉
酉
酋
配
酓
釆
采
里
重
野
量
金
釒
錢
钅
铁
镇
長
镸
长
門
閃
閉
開
閏
閑
閒
間
閔
閵
閻
闌
门
间
闷
阑
阜
阝
阳
阿
际
降
院
陳
隆
隊
隋
際
隡
隨
隱
隶
隹
隺
隻
隼
隽
难
雀
雁
集
雈
雋
雍
雐
雔
雙
雚
雜
雝
離
難
雨
雩
雪
雲
零
雷
需
霍
霜
霝
霞
霸
靈
靑
青
非
靡
面
靣
革
韋
韦
韭
韯
韱
音
頁
頃
項
須
頗
頡
頻
顛
页
風
风
飛
飞
食
飠
養
饣
首
香
馬
馮
駦
马
骨
高
髟
鬥
鬯
鬲
鬼
魔
魚
魯
鮮
鱼
鲁
鳥
鳳
鸟
鹵
鹿
麃
麗
麥
麦
麻
黃
黄
黍
黎
黑
黒
黨
黹
黽
黾
鼎
鼓
鼠
鼻
齊
齋
齐
齒
齿
龍
龙
龜
龟
龠
龰
龱
龴
龵
龶
龷
龸
龹





者
艹
ﭔ
ﭖ
ﭘ
ﭙ
ﭜ
ﭤ
ﭦ
ﭧ
ﭨ
ﭩ
ﭺ
ﭻ
ﭼ
ﭽ
ﮂ
ﮄ
ﮅ
ﮈ
ﮉ
ﮌ
ﮍ
ﮎ
ﮏ
ﮐ
ﮑ
ﮒ
ﮓ
ﮔ
ﮕ
ﮞ
ﮟ
ﮠ
ﮢ
ﮦ
ﮧ
ﮨ
ﮩ
ﮪ
ﮫ
ﮬ
ﮭ
ﮮ
ﮯ
ﯼ
ﯽ
ﯾ
ﯿ
﴾
﴿
﷤
﷫
ﷲ
ﷺ
️
︗
︘
ﹰ
ﺀ
ﺁ
ﺅ
ﺋ
ﺌ
ﺍ
ﺎ
ﺏ
ﺐ
ﺑ
ﺒ
ﺔ
ﺕ
ﺖ
ﺗ
ﺘ
ﺚ
ﺛ
ﺜ
ﺝ
ﺟ
ﺠ
ﺡ
ﺢ
ﺣ
ﺤ
ﺦ
ﺧ
ﺨ
ﺩ
ﺪ
ﺫ
ﺬ
ﺭ
ﺮ
ﺯ
ﺰ
ﺱ
ﺲ
ﺳ
ﺴ
ﺵ
ﺶ
ﺷ
ﺸ
ﺹ
ﺻ
ﺼ
ﺽ
ﺾ
ﺿ
ﻀ
ﻃ
ﻄ
ﻆ
ﻇ
ﻈ
ﻉ
ﻊ
ﻋ
ﻌ
ﻏ
ﻐ
ﻑ
ﻒ
ﻓ
ﻔ
ﻕ
ﻖ
ﻗ
ﻘ
ﻛ
ﻝ
ﻞ
ﻟ
ﻠ
ﻡ
ﻢ
ﻣ
ﻤ
ﻥ
ﻦ
ﻧ
ﻨ
ﻩ
ﻪ
ﻫ
ﻬ
ﻭ
ﻮ
ﻱ
ﻲ
ﻳ
ﻴ
ﻻ
ﻼ
﻿
！
（
）
，
：
？
￼
�
🎥
🐢
𠀁
𠀃
𠀆
𠀉
𠀎
𠀐
𠁁
𠁣
𠂆
𠂇
𠂈
𠂉
𠂊
𠂋
𠂎
𠂒
𠂔
𠂛
𠂡
𠂢
𠂤
𠂬
𠂭
𠂹
𠃊
𠃋
𠃌
𠃍
𠃎
𠃑
𠃓
𠃔
𠃜
𠄌
𠄎
𠄠
𠄢
𠆢
𠆥
𠇍
𠈌
𠌵
𠓜
𠔉
𠔥
𠔼
𠔽
𠔿
𠕀
𠕁
𠕋
𠘧
𠘨
𠙻
𠙼
𠚏
𠚒
𠚤
𠚪
𠣏
𠤎
𠤕
𠥓
𠦄
𠦑
𠦝
𠧒
𠧗
𠧪
𠩺
𠪚
𠫓
𠫔
𠫤
𠬛
𠬝
𠬞
𠬢
𠬤
𠬶
𠮛
𠮦
𠮷
𠯑
𠱠
𠳮
𠷎
𡈼
𡉀
𡉵
𡌥
𡍮
𡏳
𡕒
𡕩
𡕰
𡖅
𡗗
𡗜
𡘆
𡘤
𡧱
𡨄
𡩧
𡬠
𡭽
𡰣
𡰥
𡰪
𡰯
𡰱
𡷈
𡸁
𡿨
𡿩
𡿪
𡿺
𢀖
𢀛
𢀩
𢁙
𢆉
𢆰
𢆶
𢇁
𢇇
𢉖
𢌬
𢌿
𢏚
𢑑
𢑚
𢖻
𢙣
𢛳
𢦏
𢦒
𢧵
𢼄
𢾕
𣁋
𣄼
𣅀
𣅽
𣍘
𣎳
𣎵
𣏋
𣏼
𣗥
𣥂
𣥖
𣦵
𣦼
𣧄
𣪊
𣪠
𣬉
𣳾
𣶒
𤇾
𤊽
𤐫
𤓰
𤔔
𤕨
𤣩
𤰇
𤰔
𤰞
𤴓
𤴔
𤽄
𥁑
𥁕
𥃦
𥃩
𥃭
𥇡
𥑟
𥘅
𥘈
𥝢
𥫗
𥱡
𦈢
𦉪
𦉬
𦉼
𦍌
𦍒
𦎧
𦐇
𦓔
𦔮
𦘒
𦙃
𦚏
𦣝
𦣞
𦣻
𦥑
𦥔
𦥯
𦨉
𦭝
𦰩
𧆞
𧈧
𧘇
𧰨
𧴪
𧴮
𧵩
𧾷
𨸏
𨾴
𩙿
𩠐
𩫏
𩵋
𪉷
𪜀
𪟽
𪠲
𪩲
𫇦
𫔭
𫜸
𫝀
𫠣
𫠩
𫢉
𫥞
𫩏
𫩠
𫪡
𫲽
𫶧
𬀷
𬐘
𬗌
𬙙
𬛸
𬜯
𬟩
𬯁
𬴘
𬺻
𬼉
𬼖
𭀰
𭁈
𭁨
𭅰
𭑈
𭕄
𭗼
𭤨
𭥫
𭻾
𮅕
𮊿
𮍌
𮍏
𮓗
𮥼
𮧮
廾
𰀁
𰀄
𰀈
𰀉
𰀕
𰀠
𰀡
𰀢
𰀪
𰁜
𰃮
𰆊
𰆘
𰋙
𰕎
𰢴
𰧭
𰯲
00--
000--
01--
02--
03--
04--
05--
06--
07--
08--
09--
118--
119--
120--
121--
122--
123--
124--
978--
97801--
a--
aa--
ab--
abd--
aber--
abol--
abso--
ac--
acc--
accom--
achi--
acqu--
ad--
addi--
admin--
adve--
advo--
ae--
aero--
af--
affe--
affi--
ag--
agglo--
ah--
ai--
air--
ak--
akh--
al--
ala--
ali--
all--
am--
an--
ana--
and--
ang--
anthropolog--
anti--
any--
ap--
app--
appro--
aq--
ar--
arch--
argu--
arri--
ars--
art--
ary--
as--
ash--
assass--
asse--
assi--
asso--
astr--
at--
athe--
athl--
atmosp--
au--
aus--
auto--
av--
ave--
avi--
awa--
ax--
ay--
ayat--
az--
b--
ba--
bad--
bakh--
bal--
ban--
baq--
bar--
bas--
bat--
bau--
bay--
bb--
bc--
bd--
be--
beau--
bec--
bel--
ben--
ber--
berg--
bert--
bha--
bho--
bhu--
bi--
biblio--
bin--
bio--
bis--
bl--
blo--
blooming--
bo--
boli--
bon--
boo--
bor--
bot--
boul--
bour--
bow--
boz--
br--
bra--
brah--
bret--
bri--
brig--
brit--
bro--
broad--
brook--
bry--
bu--
buc--
bun--
bund--
bur--
by--
c--
ca--
cal--
calcu--
camb--
can--
cap--
car--
care--
cat--
ce--
cele--
cen--
centu--
cer--
certif--
cf--
ch--
cha--
che--
chel--
chi--
cho--
chu--
ci--
cine--
cir--
circu--
citeref--
cla--
cle--
clear--
cli--
clo--
clu--
cn--
co--
col--
com--
come--
commemo--
compl--
con--
conser--
contr--
coor--
cor--
corn--
cour--
cow--
cr--
crea--
cro--
cru--
cs--
ct--
cu--
cur--
cust--
cy--
d--
da--
daily--
dam--
dan--
dar--
das--
daw--
day--
de--
decla--
defe--
defi--
del--
demo--
depen--
der--
des--
desti--
det--
deter--
dev--
dha--
dho--
di--
dia--
diff--
dig--
dil--
dis--
disa--
disc--
discri--
diso--
disp--
diss--
dist--
distri--
div--
divi--
do--
doc--
dor--
dow--
down--
dr--
dra--
du--
dul--
dun--
dur--
dw--
dy--
dz--
e--
ea--
eb--
ec--
ed--
edu--
eff--
eg--
ei--
ek--
el--
ele--
elec--
eli--
else--
em--
emo--
en--
eng--
entre--
epi--
equa--
er--
es--
est--
et--
ethno--
eu--
euro--
ev--
eval--
ex--
exc--
exclu--
exec--
exp--
expla--
explo--
extraor--
f--
fa--
fair--
fak--
fal--
far--
fav--
fe--
fer--
fi--
fili--
film--
fin--
fir--
fire--
fit--
fla--
fle--
flo--
flu--
fo--
fon--
foot--
for--
fr--
frag--
fre--
free--
fried--
fu--
ful--
g--
ga--
gad--
gal--
gali--
gall--
gar--
gas--
gaze--
ge--
geme--
geo--
ger--
get--
gha--
gho--
gi--
gil--
gir--
gla--
gle--
glen--
glo--
global--
go--
god--
gol--
good--
gor--
gr--
grand--
green--
gren--
gro--
gu--
gul--
gulf--
gun--
gur--
gy--
h--
ha--
hac--
had--
hai--
hal--
han--
happ--
har--
hard--
harv--
has--
hat--
haw--
hay--
he--
hea--
head--
hel--
heli--
hen--
her--
hey--
hi--
high--
hil--
him--
his--
ho--
hod--
hol--
holi--
home--
homo--
hor--
how--
hr--
hu--
hum--
hur--
hy--
hydr--
i--
ibn--
ic--
ice--
id--
iden--
identi--
ie--
if--
ign--
ii--
il--
illus--
im--
imag--
immi--
implem--
in--
inaugu--
inc--
indi--
indu--
infe--
info--
inqu--
ins--
inscri--
instru--
insur--
int--
integ--
inter--
inve--
inven--
investi--
invi--
io--
ir--
is--
isfa--
iso--
it--
iv--
iz--
j--
ja--
jab--
jag--
jai--
jam--
jan--
jar--
jas--
jay--
je--
ji--
jo--
jor--
jp--
ju--
judi--
k--
ka--
kal--
kan--
kar--
kara--
kath--
kav--
kay--
kaz--
ke--
ken--
ker--
key--
kh--
kha--
khi--
kho--
khu--
khwa--
ki--
kin--
kir--
kis--
kit--
kla--
kne--
kni--
ko--
kon--
kr--
ku--
kul--
ky--
kı--
l--
la--
lac--
lake--
lal--
lan--
land--
lar--
las--
law--
le--
legit--
lexi--
ley--
li--
lib--
lim--
lin--
lis--
lite--
liv--
live--
ll--
lo--
lod--
log--
lok--
long--
lor--
lu--
ly--
m--
ma--
mac--
mad--
mag--
mah--
maha--
mai--
main--
mak--
mal--
mala--
man--
mani--
manif--
manu--
maq--
mar--
mas--
mat--
maur--
maw--
may--
maz--
mb--
mc--
mcc--
me--
meas--
med--
medi--
meh--
mel--
memo--
men--
mer--
mess--
met--
mexi--
mi--
micr--
mid--
mil--
min--
mir--
mis--
mit--
mix--
mo--
moha--
mole--
mon--
mono--
mont--
monu--
mor--
mort--
mr--
mu--
multi--
mun--
mur--
muza--
mw--
my--
myst--
n--
na--
nak--
nan--
nar--
nat--
nata--
nav--
naz--
nd--
ne--
neder--
neg--
neigh--
ner--
net--
neu--
neut--
new--
news--
ng--
ni--
nic--
no--
non--
nor--
nou--
now--
ns--
nu--
nur--
ny--
o--
oak--
ob--
obser--
occ--
occur--
of--
off--
og--
oh--
ok--
ol--
oly--
om--
on--
one--
op--
open--
opport--
or--
org--
ori--
os--
ou--
oul--
out--
ov--
over--
p--
pa--
pac--
page--
pak--
pal--
pan--
par--
para--
pat--
pay--
pe--
pen--
per--
perce--
petr--
ph--
phar--
phen--
phy--
physi--
pi--
pit--
pl--
play--
pm--
po--
pod--
pol--
poli--
poly--
poo--
post--
pr--
pre--
pri--
prim--
priv--
pro--
provi--
provin--
ps--
psy--
pu--
pul--
pun--
pur--
py--
q--
qa--
qu--
qua--
quali--
quick--
r--
ra--
rad--
radio--
rai--
raj--
ram--
rama--
rat--
raz--
re--
rece--
reco--
red--
ref--
refer--
reg--
rela--
rele--
reli--
ren--
res--
rev--
rey--
ri--
rig--
rk--
ro--
rock--
rod--
rose--
rou--
rs--
ru--
run--
ry--
s--
sa--
sacr--
sad--
sag--
sai--
saj--
sak--
sal--
sam--
san--
sar--
sat--
sax--
sc--
sch--
sche--
sco--
se--
sea--
sei--
sel--
sep--
ser--
sey--
sh--
sha--
shan--
she--
shi--
sho--
show--
shr--
shu--
si--
sid--
sidd--
sin--
sir--
sk--
sky--
sl--
sla--
smith--
sna--
sne--
so--
sol--
soli--
some--
sp--
spec--
spel--
sq--
squ--
sr--
sri--
st--
sta--
sto--
stra--
stre--
stru--
sty--
su--
sub--
sud--
suff--
sug--
sule--
sun--
super--
supp--
sur--
sus--
sv--
swa--
swe--
swit--
sy--
syl--
symp--
syn--
syna--
synd--
t--
ta--
tal--
tan--
tar--
tas--
tay--
te--
tele--
telecommu--
temp--
ten--
ter--
text--
th--
the--
thri--
thu--
ti--
tic--
tik--
tma--
to--
tole--
tor--
tr--
tra--
trans--
tri--
tro--
trou--
tru--
trz--
tu--
tun--
tur--
turk--
twi--
ty--
u--
uc--
ud--
uk--
ul--
un--
una--
under--
unh--
univer--
unve--
up--
ur--
urdu--
us--
ut--
uz--
v--
va--
val--
van--
var--
ve--
ven--
ver--
vers--
vert--
vi--
vid--
vin--
vo--
voca--
vol--
voya--
vul--
w--
wa--
wah--
wal--
war--
way--
we--
web--
west--
whe--
whit--
wi--
wid--
wiki--
wil--
wilk--
win--
wis--
wit--
with--
wo--
wol--
wolf--
won--
wood--
wor--
wri--
wu--
wy--
x--
xa--
xi--
xx--
y--
ya--
yah--
yar--
yayı--
yaz--
ye--
yi--
yo--
yon--
yu--
z--
za--
zag--
zar--
ze--
zee--
zi--
zo--
zu--
zul--
đ--
ı--
ł--
α--
δ--
μ--
ν--
π--
τ--
а--
б--
в--
вст--
г--
д--
и--
изме--
к--
ка--
л--
м--
н--
о--
окр--
п--
р--
респу--
рус--
с--
си--
со--
ст--
т--
федер--
эконом--
י--
ء--
ا--
اا--
اب--
ابا--
ابر--
ابو--
ابی--
ات--
اث--
اج--
اح--
اخ--
اخت--
اد--
ادا--
اذ--
ار--
ارت--
ارد--
اردو--
ارو--
اریٹ--
از--
اس--
است--
استعا--
اسم--
اسٹر--
اش--
اشت--
اشک--
اص--
اصف--
اض--
اط--
اظ--
اع--
اعت--
اغ--
اف--
اق--
اقت--
ال--
الا--
الب--
الت--
الث--
الج--
الح--
الخ--
الد--
الر--
الز--
الس--
الش--
الص--
الض--
الط--
الع--
الغ--
الف--
الق--
الك--
الل--
الم--
المست--
الن--
اله--
الو--
الک--
الگ--
الھ--
الہ--
الی--
ام--
اما--
امب--
امث--
امر--
امی--
امیر--
ان--
انا--
انت--
انج--
اند--
انس--
انو--
انٹا--
انٹر--
انک--
انگ--
انی--
او--
اوت--
اور--
اوس--
اول--
اولم--
اوم--
اون--
اوڑھ--
اوک--
اي--
اٹ--
اپ--
اپر--
اچ--
اڈو--
اڈی--
اڑ--
اک--
اکا--
اکھ--
اگ--
اگا--
اگر--
اگو--
اہ--
اہل--
ای--
ایج--
ایر--
ایس--
ایش--
ایل--
ایم--
این--
ایو--
ایپ--
ایڈ--
ایک--
ایگری--
ایگز--
ب--
با--
بابا--
بات--
باد--
بار--
باز--
باس--
باغ--
بال--
بالا--
بام--
بان--
باو--
باگ--
بت--
بتا--
بج--
بحر--
بد--
بدخ--
بدر--
بر--
برا--
برج--
برد--
برز--
برطا--
برف--
برن--
برو--
برگ--
بری--
بز--
بس--
بش--
بعد--
بغ--
بل--
بلا--
بلی--
بم--
بن--
بنا--
بند--
بنو--
به--
بو--
بوا--
بور--
بوس--
بول--
بون--
بي--
بٹ--
بچ--
بڈ--
بڑ--
بک--
بگ--
بھ--
بھا--
بھر--
بھم--
بھو--
بھٹ--
بھی--
بہ--
بہار--
بی--
بیر--
بیس--
بیض--
بیل--
بین--
بیو--
بیڈ--
بیک--
بیگ--
بے--
ت--
تا--
تاب--
تار--
تال--
تان--
تاو--
تب--
تجر--
تجز--
تح--
تحا--
تخم--
تذ--
تر--
ترا--
تری--
تزو--
تش--
تص--
تض--
تغ--
تق--
تقد--
تل--
تم--
تن--
تنگ--
تو--
توا--
تور--
توپ--
تي--
تپ--
تک--
تھ--
تھا--
تھر--
تھم--
تھو--
تھک--
تھی--
تھے--
تہ--
تی--
تیر--
ث--
ثم--
ج--
جا--
جار--
جال--
جام--
جان--
جاو--
جب--
جد--
جر--
جز--
جس--
جغر--
جل--
جم--
جن--
جو--
جوا--
جور--
جوز--
جي--
جٹ--
جڑ--
جگ--
جھ--
جھون--
جہ--
جی--
جیا--
جین--
جیو--
ح--
حا--
حب--
حج--
حد--
حر--
حز--
حص--
حق--
حل--
حم--
حو--
حوا--
حی--
خ--
خا--
خار--
خان--
خاک--
خبر--
خث--
خد--
خدا--
خر--
خزا--
خص--
خط--
خل--
خلا--
خم--
خو--
خود--
خوش--
د--
دا--
دار--
دارال--
دال--
دام--
دب--
دت--
در--
درا--
درخ--
درد--
دس--
دست--
دفن--
دق--
دل--
دم--
دن--
دو--
دوا--
دور--
دي--
دھ--
دھن--
دہ--
دی--
دیا--
دین--
دیو--
دیپ--
ذ--
ذا--
ذر--
ذو--
ذوال--
ذی--
ر--
را--
راج--
راش--
رام--
راک--
راہ--
رب--
رت--
رج--
رح--
رخ--
رد--
ردو--
رز--
رس--
رش--
رف--
رق--
رل--
رم--
رن--
رنگ--
رو--
روا--
روز--
روپ--
ري--
رٹ--
رچ--
رڈ--
رک--
رکی--
رگ--
رہ--
رہا--
ری--
رین--
ریو--
ریٹ--
ریڈ--
ز--
زا--
زاد--
زد--
زر--
زم--
زن--
زند--
زو--
زور--
زي--
زک--
زہ--
زی--
زیا--
زیر--
س--
سا--
سار--
ساز--
ساس--
سال--
سام--
سان--
ساو--
ساگ--
سب--
سبز--
ست--
ستی--
سج--
سد--
سر--
سرا--
سرو--
سری--
سس--
سفا--
سفر--
سل--
سلا--
سلو--
سلی--
سم--
سما--
سن--
سنس--
سنگ--
سنی--
سو--
سوا--
سور--
سول--
سوم--
سون--
سوگ--
سي--
سٹ--
سٹوڈ--
سٹی--
سپر--
سچ--
سک--
سکا--
سکر--
سکڑ--
سکھ--
سکی--
سہ--
سی--
سیب--
سید--
سیر--
سیل--
سیم--
سین--
سیو--
سے--
ش--
شا--
شاد--
شارل--
شال--
شان--
شاہ--
شب--
شت--
شد--
شر--
شرق--
شرم--
شش--
شفا--
شق--
شم--
شمار--
شن--
شهر--
شو--
شور--
شپ--
شک--
شکر--
شہ--
شہر--
شی--
شیر--
شین--
شیو--
ص--
صا--
صب--
صحت--
صد--
صدر--
صر--
صعو--
صف--
صل--
صن--
صنو--
صو--
صہ--
ض--
ضر--
ضم--
ضیاء--
ط--
طا--
طب--
طر--
طو--
طيا--
طہ--
ظ--
ظفر--
ع--
عا--
عبد--
عت--
عج--
عد--
عر--
عرب--
عز--
عص--
عطا--
عل--
علم--
علی--
عم--
عمر--
عن--
عو--
عی--
عید--
غ--
غا--
غر--
غز--
غم--
غو--
غیر--
ـ--
ف--
فا--
فاخ--
فار--
فاط--
فال--
فت--
فر--
فری--
فس--
فش--
فضا--
فق--
فل--
فن--
فو--
في--
فٹ--
فہ--
فی--
فیم--
ق--
قا--
قت--
قد--
قدر--
قر--
قرا--
قشت--
قل--
قلم--
قم--
قند--
قو--
قہ--
قی--
ك--
كا--
كث--
كر--
كو--
ل--
لا--
لاس--
لال--
لام--
لان--
لاک--
لاگ--
لب--
لت--
لد--
لر--
لز--
لس--
لف--
لل--
لم--
لن--
لو--
لوم--
لوک--
لي--
لٹ--
لپ--
لڈ--
لڑ--
لک--
لکھ--
لگ--
لہ--
لہر--
لی--
لیا--
لیس--
لیم--
لین--
لیو--
لیون--
لیک--
لیگ--
م--
ما--
مار--
ماس--
مال--
مان--
ماہ--
مت--
مث--
مج--
مجم--
مح--
محا--
محت--
محمد--
مخ--
مد--
مذ--
مر--
مرا--
مرت--
مری--
مز--
مزا--
مس--
مسا--
مست--
مش--
مشا--
مص--
مض--
مضم--
مط--
مطہ--
مظ--
مع--
معا--
مغ--
مغال--
مفا--
مق--
مقا--
مقت--
مك--
مل--
ملا--
ملن--
ملی--
مم--
من--
منا--
منظر--
منو--
منگ--
مه--
مو--
مور--
موس--
مول--
مون--
مونٹ--
مي--
مٹ--
مچ--
مڈ--
مڈل--
مڑ--
مژ--
مک--
مکی--
مگ--
مگر--
مہ--
مہا--
مہر--
می--
میر--
میز--
میل--
مین--
میٹ--
میڈ--
میک--
میں--
ن--
نا--
نات--
ناد--
نار--
نال--
نام--
نان--
ناپ--
ناگ--
نب--
نت--
نج--
نخ--
ند--
نر--
نز--
نس--
نص--
نصر--
نط--
نف--
نق--
نل--
نم--
نمو--
نمک--
نن--
نه--
نو--
نور--
نوو--
ني--
نٹ--
نچ--
نڈ--
نک--
نگ--
نہ--
نی--
نیا--
نیر--
نیش--
نیو--
نیک--
نے--
ه--
ها--
هم--
و--
وا--
وار--
واس--
واش--
وال--
والا--
وان--
واو--
واٹ--
وب--
وت--
وث--
وج--
وح--
ود--
ور--
ورث--
وز--
وس--
وش--
وشو--
وط--
وع--
وف--
وق--
وك--
ول--
ولا--
وم--
ون--
ونگ--
وو--
ووڈ--
وٹ--
وچ--
وڈ--
وک--
وہ--
وی--
وید--
ویر--
ویز--
ویس--
ویسٹ--
ویل--
ویم--
وین--
ویو--
ویٹ--
ویک--
ي--
يز--
يع--
١--
١٣--
١٩--
٢--
٢٠--
٣--
٤--
٥--
٦--
ٹ--
ٹا--
ٹال--
ٹخ--
ٹر--
ٹرم--
ٹری--
ٹس--
ٹل--
ٹم--
ٹن--
ٹو--
ٹور--
ٹپک--
ٹڈ--
ٹک--
ٹھ--
ٹھیک--
ٹہ--
ٹی--
ٹیل--
ٹیلی--
ٹیم--
ٹین--
ٹیڑ--
ٹیک--
ټ--
پ--
پا--
پار--
پاس--
پال--
پان--
پاپ--
پاک--
پت--
پدر--
پر--
پرا--
پرت--
پرس--
پرو--
پری--
پریس--
پس--
پشی--
پل--
پلا--
پم--
پن--
پنج--
پنچ--
په--
پو--
پور--
پول--
پوم--
پون--
پي--
پٹ--
پچ--
پچھ--
پڑ--
پژوهش--
پښ--
پک--
پگ--
پھ--
پھا--
پھر--
پھل--
پھو--
پھی--
پہ--
پی--
پیا--
پیر--
پیرا--
پیش--
پیم--
پین--
پیو--
پیٹر--
پیڈ--
چ--
چا--
چار--
چال--
چاپ--
چبو--
چتر--
چر--
چل--
چم--
چمگ--
چن--
چها--
چو--
چپ--
چچا--
چک--
چھ--
چھو--
چھپ--
چھڑ--
چہ--
چی--
چیت--
چیر--
چین--
چیکو--
ڈ--
ڈا--
ڈار--
ڈاک--
ڈب--
ڈر--
ڈری--
ڈس--
ڈل--
ڈم--
ڈن--
ڈو--
ڈور--
ڈون--
ڈپل--
ڈک--
ڈھ--
ڈھا--
ڈھو--
ڈھی--
ڈی--
ڈیس--
ڈیل--
ڈیموک--
ڈین--
ڈیٹ--
ڑ--
ژ--
ژو--
ک--
کا--
کاا--
کار--
کاس--
کال--
کام--
کان--
کاو--
کاک--
کب--
کت--
کج--
کد--
کر--
کرا--
کرن--
کرو--
کری--
کس--
کش--
کف--
کل--
کلا--
کلر--
کلو--
کلی--
کم--
کمی--
کن--
کنز--
کنڈ--
کنگ--
کنی--
کو--
کوا--
کوت--
کور--
کوریو--
کوس--
کوش--
کول--
کوم--
کون--
کوو--
کوڑ--
کوک--
کوہ--
کوی--
کي--
کٹ--
کٹی--
کپ--
کڑ--
کک--
کھ--
کھا--
کھر--
کھل--
کھم--
کھو--
کہ--
کہا--
کی--
کیا--
کیر--
کیس--
کیل--
کیم--
کین--
کیو--
کیٹ--
کے--
ڪ--
گ--
گا--
گار--
گان--
گاڑ--
گذا--
گذر--
گر--
گرا--
گرد--
گرم--
گرو--
گری--
گز--
گل--
گلو--
گلی--
گم--
گن--
گنہ--
گو--
گوا--
گوانگ--
گور--
گول--
گٹھ--
گپ--
گڈ--
گڑ--
گھ--
گھا--
گھر--
گھو--
گی--
گیا--
گیر--
گیل--
ں--
ھ--
ھا--
ھل--
ھو--
ہ--
ہا--
ہار--
ہال--
ہان--
ہد--
ہر--
ہری--
ہز--
ہل--
ہم--
ہما--
ہن--
ہند--
ہنر--
ہو--
ہوا--
ہور--
ہول--
ہوم--
ہٹ--
ہچک--
ہڈ--
ہک--
ہی--
ہیل--
ہیم--
ہین--
ہیو--
ہیڈ--
ہے--
ی--
یا--
یاد--
یار--
یان--
یب--
یت--
ید--
یر--
یز--
یس--
یش--
یف--
یق--
یل--
یم--
ین--
یو--
یور--
یون--
یٹ--
یڈ--
یک--
یگ--
یہ--
یی--
ے--
۱--
۱۹--
۲--
۲۰--
۳--
۴--
۵--
۶--
۷--
۸--
۹--
अ--
आ--
इ--
उ--
ए--
ऑ--
क--
ग--
च--
ज--
ट--
ड--
त--
द--
ध--
न--
प--
ब--
म--
य--
र--
ल--
व--
श--
स--
ह--
আ--
ই--
ব--
ম--
র--
--0
--00
--01
--02
--03
--04
--05
--06
--07
--09
--1
--10
--11
--12
--13
--14
--15
--16
--17
--18
--19
--2
--20
--21
--22
--23
--24
--25
--26
--27
--28
--29
--3
--30
--31
--32
--33
--34
--35
--36
--39
--4
--40
--41
--42
--43
--44
--47
--49
--5
--50
--52
--53
--56
--58
--59
--6
--60
--61
--62
--63
--64
--65
--66
--67
--68
--69
--7
--70
--71
--72
--74
--76
--77
--78
--79
--8
--80
--81
--83
--84
--85
--86
--89
--9
--90
--92
--94
--95
--96
--97
--98
--99
--a
--aa
--aan
--aat
--ab
--abad
--able
--ac
--ace
--ach
--achal
--acio
--ack
--acy
--ad
--ade
--adi
--ado
--ae
--ag
--age
--aging
--ah
--ai
--aire
--aj
--ak
--aki
--al
--ally
--als
--am
--ama
--ami
--ampton
--an
--ana
--ance
--and
--andra
--ane
--ang
--ani
--ano
--ant
--anta
--ants
--ao
--ap
--aphy
--aq
--ar
--ara
--ard
--ari
--aries
--ario
--arum
--ary
--arı
--as
--at
--ata
--ate
--ated
--ates
--ath
--ati
--atic
--ating
--ation
--ations
--ative
--ato
--ator
--ators
--atory
--ats
--au
--aume
--av
--avi
--aw
--ay
--aya
--az
--azi
--b
--ba
--base
--bd
--be
--ber
--berg
--berry
--bi
--bil
--bility
--ble
--bo
--bon
--box
--bs
--burg
--burn
--bury
--by
--c
--ca
--cal
--ce
--ced
--cent
--ces
--ch
--cht
--ci
--cies
--cing
--cio
--ck
--cks
--cky
--cl
--co
--craft
--cribed
--cs
--ct
--ction
--ctions
--cts
--cy
--d
--da
--dad
--dale
--dan
--day
--dd
--ddy
--de
--ded
--der
--dh
--dha
--di
--dian
--dir
--dis
--do
--dor
--dra
--ds
--dt
--du
--dy
--e
--ea
--eal
--eau
--eb
--ec
--eca
--ed
--edia
--ee
--eel
--eem
--een
--eep
--ees
--ef
--efendiler
--eges
--eh
--ei
--ein
--ek
--ekh
--el
--ela
--ele
--eli
--ell
--els
--ely
--em
--ema
--ement
--en
--ena
--enburg
--ence
--ene
--ens
--ent
--ento
--ents
--eo
--eous
--ep
--er
--ere
--ered
--erg
--eri
--eria
--ern
--ers
--ert
--ery
--es
--ese
--esh
--ess
--est
--et
--ete
--eth
--ets
--ett
--ette
--eum
--eur
--ev
--ew
--ews
--ex
--ey
--ez
--f
--fa
--fat
--fax
--fe
--fer
--ff
--ffe
--fi
--fic
--fied
--field
--fs
--ft
--ful
--fur
--fy
--g
--ga
--gal
--gan
--ganj
--gar
--garh
--gate
--ge
--ged
--gel
--ges
--gg
--gh
--gham
--ght
--gi
--gin
--ging
--gio
--gle
--gne
--go
--gra
--grad
--grafia
--graph
--gs
--gton
--gu
--gue
--gzhou
--h
--ha
--hal
--ham
--han
--har
--he
--hed
--heon
--her
--hes
--hi
--hic
--hik
--hing
--hip
--hir
--hmi
--hn
--ho
--hood
--hq
--hs
--ht
--hu
--hy
--i
--ia
--iah
--ial
--ian
--iations
--ib
--ible
--ic
--ical
--ich
--ick
--ics
--id
--ida
--ide
--idence
--ie
--ied
--ief
--ien
--ient
--ier
--ies
--if
--ified
--ig
--igh
--ight
--ik
--ika
--il
--ila
--ile
--ility
--im
--ima
--in
--ina
--inal
--india
--ine
--ing
--ings
--ington
--ini
--ino
--io
--ion
--ional
--ions
--iot
--ious
--ip
--ipios
--ique
--ir
--ira
--ire
--iro
--is
--isation
--ise
--ised
--ish
--ished
--ism
--ist
--istic
--ists
--it
--ita
--ite
--ith
--itia
--ities
--ito
--ity
--ium
--ius
--iv
--ive
--iya
--iye
--iz
--ization
--ize
--ized
--izes
--izing
--j
--ja
--je
--jevo
--ji
--jit
--jo
--ju
--k
--ka
--kan
--kar
--ke
--kee
--ker
--ket
--kh
--ki
--kie
--kin
--ko
--ks
--ku
--kur
--ky
--l
--la
--lah
--lain
--lan
--land
--lar
--ları
--lay
--ld
--lds
--le
--lections
--led
--leh
--ler
--les
--less
--ley
--lf
--li
--lia
--library
--lil
--lin
--line
--ling
--lip
--lis
--list
--lity
--ll
--lla
--lle
--lles
--llo
--lls
--lly
--lm
--lo
--logy
--lon
--lor
--ls
--lu
--ly
--lyn
--lı
--m
--ma
--mal
--man
--mas
--me
--med
--mel
--men
--ment
--mes
--mi
--mic
--mise
--mist
--mo
--mon
--mp
--ms
--mu
--my
--n
--na
--nah
--nal
--nan
--nar
--nary
--nas
--nat
--nc
--nce
--ncy
--nd
--nda
--ne
--ned
--nell
--ner
--ners
--nes
--ness
--net
--news
--ney
--ng
--ngs
--ni
--nia
--nie
--nik
--ning
--nis
--nity
--nj
--nk
--nka
--nn
--nna
--nne
--no
--ns
--nsey
--nt
--nte
--nth
--ntly
--nts
--nu
--ny
--o
--oa
--ob
--oc
--ock
--od
--ode
--ody
--oe
--of
--og
--ography
--ogy
--ohar
--oi
--ois
--oj
--ol
--ole
--ology
--om
--oma
--ome
--on
--ona
--onal
--ond
--one
--ong
--oni
--onia
--ons
--oo
--ood
--ook
--oon
--op
--or
--ora
--orama
--ord
--ore
--ori
--ors
--ory
--os
--ose
--ot
--ots
--ou
--ough
--ous
--out
--oux
--ov
--ova
--ow
--owo
--ows
--ox
--oy
--oyed
--p
--pa
--pe
--pect
--pected
--ped
--pes
--pet
--pf
--pie
--ping
--pk
--ple
--pman
--pol
--polis
--port
--post
--ps
--pse
--pter
--pur
--q
--qi
--que
--r
--ra
--rad
--ran
--rat
--rc
--rd
--re
--rf
--rg
--rh
--ri
--rie
--rier
--ries
--rin
--ris
--rity
--rk
--rl
--rly
--rm
--rmal
--rn
--rne
--rno
--ro
--ros
--rov
--rp
--rpe
--rr
--rraf
--rry
--rs
--rt
--ru
--rus
--rwal
--ry
--rze
--rı
--s
--sa
--sal
--sation
--sburg
--se
--sed
--sel
--ser
--ses
--sey
--sh
--shire
--si
--sia
--side
--sie
--sing
--sion
--sions
--sis
--sive
--sk
--ska
--slav
--sm
--so
--son
--sor
--ss
--ssa
--st
--star
--ste
--stein
--ster
--ston
--sts
--sty
--su
--sville
--sy
--t
--ta
--tal
--tan
--tar
--tas
--tat
--tation
--te
--ted
--tein
--ter
--tes
--th
--ti
--tia
--tic
--ties
--times
--tin
--tine
--tinent
--ting
--tion
--tions
--tism
--tive
--tle
--tly
--tm
--to
--ton
--tone
--tor
--tors
--tory
--tos
--town
--tro
--trum
--try
--ts
--tt
--tta
--tte
--tti
--tu
--ture
--tv
--ty
--tz
--u
--ua
--ual
--ub
--uch
--ud
--uddin
--ue
--uf
--ug
--ugh
--ught
--ui
--uk
--ul
--ula
--ular
--ulated
--ule
--ullah
--ult
--um
--un
--ung
--up
--ur
--ura
--ure
--ures
--uri
--uring
--url
--uro
--urs
--us
--uss
--ut
--ute
--ution
--ux
--v
--va
--ve
--veen
--ver
--ves
--vez
--vi
--vic
--ville
--vo
--voy
--vy
--w
--wa
--wal
--wan
--war
--way
--web
--wi
--wice
--wich
--wick
--wise
--wl
--wo
--ws
--x
--y
--ya
--yal
--yan
--yana
--yar
--yat
--ye
--yeh
--yer
--yid
--ying
--yl
--yn
--yo
--yon
--ys
--yya
--z
--za
--zai
--zan
--zar
--ze
--zed
--zel
--zer
--zi
--zie
--zo
--zon
--ı
--ıs
--α
--ι
--ς
--υ
--а
--д
--е
--еи
--и
--ии
--ия
--к
--л
--м
--н
--ния
--о
--ов
--р
--с
--т
--та
--у
--ы
--я
--ء
--ا
--اء
--اب
--ات
--اتا
--اتھ
--اتی
--اج
--اجی
--اح
--اخ
--اد
--ادی
--ار
--ارا
--ارو
--اروں
--ارٹ
--ارڈ
--ارہ
--اری
--از
--ازم
--ازی
--اس
--اش
--اط
--اف
--افی
--اق
--اقی
--ال
--الا
--الڈ
--الہ
--الی
--ام
--امد
--امدی
--امہ
--ان
--انا
--انو
--انگ
--انہ
--انی
--انے
--او
--اوا
--اور
--اوی
--اي
--اٹ
--اپور
--اڈ
--اڑ
--اڑی
--اک
--اکی
--اگ
--اں
--اہ
--اہا
--اہر
--اہی
--اۃ
--ای
--ایا
--ایت
--ایہ
--ب
--با
--باد
--بار
--باي
--باں
--بة
--بت
--بد
--بر
--برگ
--بس
--بط
--بع
--بل
--بن
--بو
--بي
--بٹ
--بک
--بہ
--بی
--بیب
--بے
--ة
--ت
--تا
--تان
--تاں
--تر
--تز
--تس
--تسا
--تم
--تن
--ته
--تو
--توس
--توف
--تھ
--تھا
--تھم
--تھی
--تھے
--تہ
--تی
--تیا
--تیک
--تے
--ث
--ثر
--ثم
--ثی
--ج
--جا
--جات
--جب
--جد
--جر
--جرز
--جس
--جل
--جم
--جمنٹ
--جن
--جنگ
--جو
--جک
--جھ
--جہ
--جی
--جیکل
--جیہ
--جے
--ح
--حت
--حد
--حل
--حو
--حہ
--حی
--خ
--خان
--خانه
--خت
--خر
--خص
--خی
--د
--دا
--داء
--داد
--دار
--داری
--دان
--دایۃ
--دة
--دد
--در
--دز
--دس
--دل
--دن
--ده
--دو
--دڑ
--دک
--دگی
--دہ
--دی
--دیا
--دیہ
--دے
--ذ
--ذب
--ذن
--ذہ
--ذہب
--ر
--را
--رام
--ران
--رب
--رة
--رت
--رث
--رج
--رد
--ردی
--رر
--رز
--رس
--رضا
--رع
--رف
--رق
--رلی
--رم
--رن
--ره
--رو
--روف
--روں
--ري
--رٹ
--رٹن
--رپ
--رڈ
--رک
--رکس
--رگ
--رھویں
--رہ
--ری
--ریا
--ریج
--رین
--رے
--ز
--زا
--زان
--زانی
--زبرگ
--زر
--زل
--زم
--زن
--زو
--زویل
--زي
--زگ
--زہ
--زی
--زیہ
--زے
--س
--سا
--سب
--سبرگ
--سبری
--سة
--ست
--ستان
--سخ
--سر
--سس
--سط
--سف
--سل
--سلے
--سم
--سن
--سو
--سول
--سویل
--سٹ
--سٹر
--سٹس
--سٹن
--سٹک
--سپی
--سک
--سکی
--سہ
--سی
--سیا
--سیس
--سے
--ش
--شا
--شاي
--شاہ
--شت
--شر
--شس
--شل
--شم
--شن
--شنز
--شنگ
--شو
--شور
--شي
--شپ
--شک
--شہ
--شی
--شیم
--شین
--شے
--ص
--صب
--صر
--صل
--صلی
--صہ
--صی
--ض
--ضا
--ضہ
--ضی
--ضے
--ط
--طاعت
--طع
--طم
--طن
--طی
--ظ
--ظر
--ظم
--ع
--عات
--عام
--عة
--عت
--عد
--عظ
--علی
--عنی
--عي
--عہ
--عۃ
--عی
--غ
--غان
--غہ
--غی
--ـ
--ف
--فا
--فة
--فتہ
--فر
--فرڈ
--فس
--فع
--فق
--فن
--فو
--فورڈ
--في
--فٹ
--فک
--فہ
--فی
--ق
--قا
--قاع
--قان
--قب
--قت
--قط
--قل
--قن
--قه
--قہ
--قی
--قے
--ك
--كة
--كم
--كن
--كي
--ل
--لا
--لاح
--لة
--لت
--لح
--لد
--لر
--لز
--لس
--لش
--لع
--لف
--لق
--للہ
--لم
--لن
--له
--لو
--لوجی
--لي
--لٹ
--لٹن
--لپور
--لڈ
--لک
--لہ
--لۃ
--لی
--لیا
--لیم
--لین
--لے
--م
--ما
--مال
--مام
--مان
--ماچ
--ماک
--مب
--مبر
--مت
--مر
--مس
--مش
--مع
--مل
--من
--مند
--منٹ
--منٹری
--مو
--مون
--موی
--مپ
--مک
--مہ
--می
--مین
--میں
--مے
--ن
--نا
--ناس
--نان
--ناي
--ناک
--نبرگ
--نة
--نت
--نتھا
--نتی
--نج
--نجر
--ند
--ندر
--ندہ
--نر
--نز
--نس
--نسن
--نش
--نل
--نن
--نند
--نو
--نوس
--نوے
--نى
--ني
--نٹ
--نپ
--نڈ
--نڈا
--نک
--نکر
--نکس
--نگ
--نگر
--نگز
--نگشی
--نگو
--نگٹن
--نگی
--نہ
--نی
--نیا
--نیس
--نیو
--نیہ
--نیے
--نے
--ه
--ها
--های
--هر
--هرة
--هم
--هی
--و
--وا
--وال
--وان
--واٹ
--واں
--وایا
--وب
--وبل
--وة
--وت
--وتھ
--وتی
--وج
--وجی
--ود
--ور
--ورا
--ورس
--ورو
--ورٹ
--ورڈ
--وری
--وز
--وس
--وسا
--وسکی
--وسی
--وش
--وظ
--وع
--وغ
--وف
--وفی
--وق
--ول
--ولا
--ولر
--ولس
--ولو
--ولہ
--ولے
--وم
--ون
--ونا
--ونس
--ونو
--ونٹ
--ونی
--وو
--ووا
--وور
--ووڈ
--وویچ
--وي
--وٹ
--وٹی
--وپ
--وچ
--وڈ
--وڑ
--وڑہ
--وک
--وکا
--وکو
--وگ
--وگا
--وں
--وہ
--وی
--ویا
--ویل
--ویي
--ویچ
--ویں
--ویہ
--وے
--ى
--ي
--يا
--ياض
--يان
--يب
--ية
--يت
--يد
--ير
--يف
--يل
--يم
--ين
--يو
--يں
--يہ
--٠
--١
--٢
--٣
--٥
--٦
--٧
--٨
--٩
--ٴ
--ٹ
--ٹا
--ٹان
--ٹاو
--ٹاي
--ٹر
--ٹرا
--ٹری
--ٹز
--ٹس
--ٹل
--ٹم
--ٹمنٹ
--ٹن
--ٹنگ
--ٹو
--ٹون
--ٹڈ
--ٹک
--ٹکس
--ٹھ
--ٹہ
--ٹی
--ٹیا
--ٹیز
--ٹیشن
--ٹیو
--ٹیہ
--ٹے
--پ
--پا
--پت
--پر
--پس
--پسن
--پل
--پن
--پنجاب
--پو
--پور
--پوری
--پٹ
--پی
--پے
--چ
--چا
--چر
--چل
--چن
--چو
--چک
--چہ
--چی
--چے
--ڈ
--ڈا
--ڈر
--ڈرز
--ڈز
--ڈس
--ڈل
--ڈم
--ڈن
--ڈنٹ
--ڈو
--ڈووا
--ڈوں
--ڈک
--ڈکٹ
--ڈہ
--ڈی
--ڈیا
--ڈیل
--ڈے
--ڑ
--ڑا
--ڑو
--ڑوں
--ڑک
--ڑھ
--ڑہ
--ڑی
--ڑے
--ژ
--ژن
--ژو
--ک
--کا
--کار
--کاری
--کان
--کب
--کبر
--کت
--کر
--کس
--کشی
--کل
--کم
--کن
--کنا
--کنے
--کو
--کوف
--کوٹ
--کوں
--کي
--کٹ
--کچر
--کھ
--کھی
--کھے
--کہ
--کی
--کیا
--کیہ
--کے
--گ
--گا
--گار
--گام
--گان
--گاه
--گر
--گری
--گز
--گس
--گل
--گن
--گو
--گوي
--گي
--گٹ
--گٹن
--گھ
--گہ
--گی
--گیا
--گین
--گینی
--گے
--ں
--ھ
--ھا
--ھان
--ھانی
--ھاوا
--ھاي
--ھب
--ھر
--ھرا
--ھری
--ھل
--ھلی
--ھم
--ھن
--ھنا
--ھو
--ھوں
--ھویں
--ھڑ
--ھڑی
--ھک
--ھہ
--ھی
--ھیا
--ھے
--ہ
--ہا
--ہام
--ہاي
--ہت
--ہر
--ہل
--ہم
--ہن
--ہو
--ہوں
--ہٹ
--ہڑ
--ہہ
--ہی
--ہیں
--ہے
--ۃ
--ی
--یا
--یات
--یاتی
--یال
--یان
--یاي
--یاں
--یاہ
--یب
--یبل
--یت
--یتا
--یث
--یج
--یح
--ید
--یدگی
--یر
--یرا
--یرو
--یری
--یرے
--یز
--یزہ
--یس
--یسا
--یسٹر
--یسی
--یش
--یشن
--یشور
--یشی
--یشین
--یص
--یض
--یع
--یف
--یق
--یل
--یلا
--یلی
--یلے
--یم
--یما
--یمہ
--ین
--ینا
--یندر
--ینو
--ینٹ
--ینڈ
--ینی
--یه
--یو
--یوں
--یي
--یٹ
--یٹا
--یٹر
--یٹک
--یٹی
--یٹیا
--یپ
--یچ
--یڈ
--یک
--یکا
--یکس
--یکل
--یکن
--یکھ
--یں
--یہ
--یۃ
--یی
--یے
--ې
--ے
--ےس
--۰
--۱
--۲
--۳
--۴
--۵
--۶
--۷
--۸
--۹
--त
--न
--र
--ल
