!
"
#
##0
##1
##10
##11
##12
##13
##14
##15
##16
##17
##18
##19
##2
##20
##21
##22
##23
##24
##25
##26
##27
##28
##29
##3
##30
##31
##32
##33
##34
##35
##36
##37
##38
##39
##4
##40
##41
##42
##43
##44
##45
##46
##47
##48
##49
##5
##50
##51
##52
##53
##54
##55
##56
##57
##58
##59
##6
##60
##61
##62
##63
##64
##65
##66
##67
##68
##69
##7
##70
##71
##72
##73
##74
##75
##76
##77
##78
##79
##8
##80
##81
##82
##83
##84
##85
##86
##87
##88
##89
##9
##90
##91
##92
##93
##94
##95
##96
##97
##98
##99
$
%
&
'
(
)
*
+
,
-
.
/
0
00
000
0000
001
0014
0018577
002
0025
0027
003
0032
005
006
0068
007
008
009
01
010
011
012
013
014
015
018
01870
019
02
020
020507
02173
022
023
024
0247
027
03
030
0338
03481
036
03640
038
04
0400
047
05
058
06
060
065
066
069
07
071
075
076
08
080
08508
087
09
098
1
10
100
1000
10000
1001
1002
1003
1004
1005
1009
101
1010
1011
1014
1015
1016
1017
1019
102
1020
102044
1022
1024
1026
1029
103
1030
1031
1032
1033
1034
1035
1039
104
1040
1041
1042
1043
1046
1047
1048
105
1050
1052
1053
1054
1057
1059
106
1060
1061
1063
1065
1066
1067
1068
107
1071
1072
1073
1074
1075
10750
1076
1077
1078
1079
108
1080
1083
1084
1085
1087
109
1090
1091
1094
1095
1096
1097
1098
1099
11
110
1100
11000
1101
1102
1104
1105
1106
1109
111
1110
1111
111158
1113
1114
1115
1116
112
1120
1126
113
1130
1131
1133
1134
1135
1136
1137
114
1140
1141
1143
1145
1146
1147
1148
1148832262
115
1150
1151
1153
1154
1155
1158
1159
116
1160
1162
1164
1165
1168
117
1170
1171
1175
1176
1177
1178
118
1180
1182
1183
1184
1185
1186
1189
119
1190
1191
1192
119245
1193
1195
1196
1197
119880
1199
12
120
1200
1201
1202
1203
1204
1205
1206
1207
1208
1209
121
1210
1212
1213
1214
12148
1215
1216
1217
1218
1219
122
1220
1221
1224
1225
1226
1227
1228
1229
123
1230
1231
1233
1235
1236
1237
1238
1239
124
1240
1241
124135
1243
1244
1248
125
1250
1252
1253
1254
1255
1256
1259
126
1260
1261
1262
1265
1266
1268
1269
127
1270
1272
1273
1275
1276
1278
128
1280
1282
1283
1284
1285
1287
1288
1289
129
1290
1291
1292
129488
1296
1297
13
130
1300
1301
1302
13020
1304
1306
1307
1308
131
1310
1311
1312
1313
1314
1315
1319
132
1320
1322
1324
1325
1326
1327
1328
1329
133
1330
1332
1334
1335
1336
1337
1339
134
1340
1342
1346
1347
1348
1349
135
1350
1351
1353
1354
1356
1358
1359
136
1360
1361
1362
1363
1364
1366
1368
1369
137
1372
1374
1375
1376
1377
1379
138
1380
1381
1384
1385
1387
1388
13897
139
1390
1393
1394
1395
1397
139812
1399
14
140
1400
1401
1404
1405
1407
141
1410
1411
1412
1415
1416
1417
1418
1419
142
1420
1422
1423
1424
1425
1426
1427
1428
1429
143
1430
1431
1432
1433
1435
1436
1437
1439
144
1440
1441
1442
1443
1444
1445
1446
1448
1449
145
1450
1451
1452
1453
1454
1455
1456
1458
1459
146
1460
1461
1462
1463
1464
1465
1467
1468
147
1470
1472
1473
1474
1475
1477
1478
1479
148
1480
1482
1483
1485
1487
149
1490
1492
1494
1495
1498
15
150
1500
1501
1503
1504
1505
1506
1507
1508
1509
151
1510
1512
15123
1513
1514
1515
1516
1517
1519
152
1520
1521
1523
1524
1525
1526
1528
153
1530
1532
1533
1534
1535
1536
1537
1538
1539
154
1540
1541
1543
1547
1548
1549
155
1550
1552
1553
1555
1556
1557
1558
156
1560
1560840
1562
1563
1564
1565
1567
1568
1569
157
1570
1571
1572
1573
1574
1575
1576
1577
1578
1579
158
1580
1581
1583
1584
1585
1586
1587
1588
1589
159
1590
1591
1592
1593
1594
1595
1596
1597
1598
1599
16
160
1600
1601
1602
1603
1604
1605
1606
1607
1608
1609
161
1610
1611
1612
1613
1614
1615
1617
1618
1619
162
1620
1621
1622
1623
1624
1625
1627
1628
1629
163
1630
1631
1632
1633
1634
1635
1636
1637
1638
164
1640
1641
1642
1643
1644
1645
1647
1648
1649
165
1650
1651
1652
1653
1654
1655
1656
1657
1658
1659
166
1660
1661
1662
1663
1664
1665
1666
1667
1668
1669
167
1670
1671
1672
1673
1674
1675
1676
1677
1678
1679
168
1680
1681
1682
1683
1684
1685
1686
1687
1688
1689
169
1690
1691
1692
1693
1694
1695
1696
1697
1698
1699
17
170
1700
1701
1702
1703
1704
1705
1706
1707
1708
1709
171
1710
1711
1712
1713
1714
1715
1716
1717
1718
1719
172
1720
1721
1722
1723
1724
1725
1726
1727
1728
1729
173
1730
1731
1732
1733
1734
1735
1736
1737
1738
1739
174
1740
1741
1742
1743
1744
1745
1746
1747
1748
1749
175
1750
1751
1752
1753
1754
1755
1756
1757
1758
1759
176
1760
1761
1762
1763
1764
1765
1766
1767
1768
1769
177
1770
1771
1772
1773
1774
1775
1776
1777
1778
1779
1780
1781
1782
1783
1784
1785
1786
1787
1788
1789
179
1790
1791
1792
1793
1794
1795
1796
1797
1798
1799
18
180
1800
1801
1802
1803
1804
1805
1806
1807
1808
1809
181
1810
1811
1812
1813
1814
1815
1816
1817
1818
1819
182
1820
1821
1822
1823
1824
1825
1826
1827
1828
1829
183
1830
1831
1832
1833
1834
1835
1836
1837
1838
1839
184
1840
1841
1842
1843
1844
1845
1846
1847
1848
1849
185
1850
1851
1852
1853
1854
1855
1856
18568
1857
1858
1859
186
1860
1861
1862
1863
1864
1865
1866
1867
1868
1869
187
1870
1871
1872
1873
1874
1875
1876
1877
1878
1879
188
1880
1881
1882
1883
1884
1885
1886
1887
1888
1889
189
1890
1891
1892
1893
1894
1895
1896
1897
1898
1899
19
190
1900
1901
1902
1903
1904
1905
1906
1907
1908
1909
191
1910
1911
1912
1913
1914
1915
1916
1917
1918
1919
192
1920
1921
1922
1923
1924
1925
1926
1927
1928
1929
193
1930
1931
1932
1933
1934
1935
1936
1937
1938
1939
194
1940
1941
1942
1943
1944
1945
1946
1947
1948
1949
195
1950
1951
1952
1953
1954
1955
1956
1957
1958
1959
196
1960
1961
1962
1963
1964
1965
1966
1967
1968
1969
197
1970
1971
1972
1973
1974
1975
1976
1977
1978
1979
198
1980
1981
1982
1983
1984
1985
1986
1987
1988
1989
199
1990
1991
1992
1993
1994
1995
1996
1997
1998
1999
2
20
200
2000
200006809
200015712
2001
2002
2003
2004
2005
2006
2007
2008
200810
2009
201
2010
2011
2012
2013
2014
2015
2016
2017
2018
2019
202
2020
2021
2022
203
204
205
206
207
208
209
21
210
2104
211
212
213
215
216
217
218
219
22
220
221
222
223
224
225
226
227
228
229
23
230
231
232
233
234
235
236
237
238
239
24
240
241
242
243
2430
244
2444
245
246
247
248
2483
249
2495
25
250
2500
2503
251
2515
252
253
2534
2539
254
255
256
2567
257
258
259
26
260
261
2611
262
263
264
2642
2643
2644
2645
2646
265
266
267
268
2687
269
27
270
2700
27018
271
272
273
2734
274
275
276
277
278
279
28
280
281
282
283
284
285
286
287
288
289
29
290
2903539693
291
2913934056
2915800057
292
293
294
295
296
297
29794
29795
298
299
3
30
300
3000
30000
301
302
303
3030
304
305
306
307
308
309
31
310
311
312
313
314
3142
315
316
3166
317
319
32
320
321
322
324
326
327
328
329
33
330
33069533
331
332
333
334
335
336
337
338
339
34
340
34024
341
342
343
344
345
346
347
348
349
35
350
352
353
354
355
3561
357
358
359
36
360
361
362
363
364
3641250
365
366
367
368
369
37
370
371
372
373
37345
374
375
376
377
378
379
38
380
381
382
383
384
385
386
387
388
389
39
390
3908
3914
392
394
3945
395
396
397
398
399
4
40
400
4000
40000
401
402
403
404
4040
4041
405
406
407
408
409
41
410
4107
411
412
414
415
416
417
418
419
42
420
421
422
423
424
425
426
427
4277
428
429
43
430
4306010
431
432
433
434
435
436
438
4388
439
44
440
443
444
445
446
448
449
45
450
451
452
453
454
455
456
457
458
459
46
460
461
462
464
465
466
467
468
469
47
470
472
474
475
476
477
478
479
48
480
4800
48097
481
48101
482
483
484
485
48556
486
487
488
489
49
490
491
493
494
49448
495
496
497
498
499
5
50
500
5000
501
502
50278
503
504
505
506
508
509
51
510
511
513
514
515
517
518
52
520
5203
521
523
5235
524
525
527
5271
528
5286
529
53
530
5301
532
5332
535
537
5378
53866
539
54
540
5408
542
543
544
545
546
547
55
550
551
553
554
555
55571
556
559
55971
56
560
561
567
568
569
57
570
571
5738
574
575
576
577
578
58
580
581
582
588
589
59
590
59066
591
592
594
595
598
599
6
60
600
603
605
6060
60644
607
608
609
61
610
61071
611
6117
613
614
615
616
617
618
619
62
620
621
62112
622
624
625
626
62630
628
63
630
6318
632
633
634
63567
636
638
639
64
640
641
64196
642
643
644
6460
6464
6468
648
65
650
652
653
654
655
657
659
66
660
6611
664
6643
666
667
669
6698
67
670
672
67243
6726
673
6731
674
6760
6778
678
6782
68
680
6828
683
6831
6846
6854
6859
686
6868
6871
688
69
690
691
694
695
696
6964
698
7
70
700
701
702
704
705
706
7087
7089
71
712
714
716
72
720
721
725
726
73
730
731
733
7373
739
74
740
745
746
75
750
751
752
753
76
760
7640
768
77
770
774
777
778
78
780
781
782
786
787
788
79
790
794
798
8
80
800
8000
803
804
8046
805
81
812
814
816
817
82
8230
828
83
8303
831
833
837
84
840
842
84253
84265
843
84337
84435
845
849
84910
85
850
851
852
855
85706
858
859
86
860
86253
865
866
868
87
870
871
87144
87292
873
877
87760
879
88
880
881
884
885
89
890
892
8937
896
9
90
900
904
905
907
909030
90983
91
910
911
913132
913924
91432
914528
915732
915800
917453
917621
917778
92
921
923
924
925
926
93
930
930364
931
932
934
935
936
939
94
940
942
944
945
946
948
95
950
951
952
955
956
957
958
96
960
961
962
964
965
967
969
97
970
9738193
974
975
976
977
9772
978
9781148832265
98
980
987
988
99
990
991
992
994
995
996
997
998
999
:
;
<
=
>
?
@
\
^
_
`
a
aa
aarde
ab
abacial
abaciale
abai
abandon
abandonne
abandonner
abare
abattu
abaye
abbatial
abbatiale
abbaye
abbayedebelval
abbayes
abbe
abbesse
abbevilla
abbeville
abbevillois
abbevilloise
abbey
abbie
abcnatation
abdellatif
abdelmajid
abe
abeille
abel
abes
abeville
abi
abile
abillemints
abindonne
abitants
abite
abiter
abitue
abjad
abjon
ablain
ablaincourt
able
ablette
ablo
ablon
ablona
ablono
ablotche
abo
aboli
abolic
abolir
abolite
abondance
abord
aboue
about
abraham
abrahamikes
abramis
abrams
abrandoulle
abre
abreuvoir
abrite
abriter
abscon
absence
abside
absinche
absolu
absolute
absolutime
absorbe
absorption
abstre
abstroaite
absurde
abus
abyme
ac
acade
academy
acadie
acadien
acanthias
acanthisittidae
acary
acate
acater
acateu
acateus
acatoe
acatoue
accart
acce
accent
accepte
accepter
access
accessdate
accessibilite
accesso
acchepte
acchint
accidentel
accidints
accint
accion
accions
accipiter
accoeuille
accole
accompagne
accord
accorde
accords
accoste
account
accroupi
accueil
accueillie
accueilly
accuse
ace
acerbes
aceuc
ach
achchel
ache
aches
acheteure
acheu
acheul
acheule
acheux
achiet
achille
achoche
achochenison
achochonnache
achochonne
achon
achons
acht
achteu
achteur
achteure
achuchon
achuchone
achuchonne
achuchons
achy
acid
acide
acier
acion
acompangne
acord
acorde
acore
acoustique
acoutant
acoute
acouter
acoutez
acq
acque
acques
acquis
acre
acrinkillache
acrocephalidae
acrocephalus
acroe
acrylique
act
acta
acte
actes
acteu
acteur
acteurs
acteus
acteuse
actif
actifs
action
actis
actitis
active
activemint
activite
actrice
actriche
actrisse
actualite
actualites
actue
actuel
actuelle
actuellement
actuels
acuin
acus
acuta
acware
acy
ad
adagio
adalbaud
adalbert
adam
adams
adan
adaptacion
adaptation
adapte
adapter
additionnelles
addosso
ade
adelai
adeline
adeptes
ades
adhe
adieu
adieux
adinville
adiu
adj
adjectif
adjoint
adjointe
adme
administrachion
administrateur
administratif
administration
administrative
adminship
adn
adolescence
adolescint
adolf
adolph
adolphe
adon
adonai
adoniran
adonis
adopte
adoracion
adoration
adoube
adresse
adriaen
adrian
adriatike
adrien
adrienne
adsl
adsoe
adulphe
adulte
adultes
advanced
adve
advenir
adventure
adventures
adverse
advile
adville
adviloe
adw
ae
aegithalidae
aegithalos
aeglefinus
aerde
aert
aeruginosus
aes
aestivalis
af
afant
afants
affaire
affaires
affecte
affichage
affiche
afficher
affiches
affike
affilie
affirme
affitche
afflige
affluent
affluint
affluints
affoaire
affoaires
affoe
affreux
affrontent
affute
affutiaus
afghanistan
afin
aflate
aflater
afluint
afoaire
afoaires
africa
africaine
africains
african
africana
afrika
afrikaans
afrike
afrikin
afrique
afro
afrontmints
after
afute
ag
agac
agache
agaches
again
agate
age
agence
agency
agenda
ages
agets
agg
agglome
aggripe
agile
agince
agint
agir
agisse
agit
aglome
agne
agneau
agnes
agnez
agni
agnie
agno
ago
agogue
agombart
agonie
agora
agrandi
agravin
agre
agricole
agricoles
agriculture
agritchulture
agronome
aguessac
aguila
aguyenne
ah
ahead
ahi
ai
aicort
aide
aidie
aidier
aidoe
aidtte
aie
aigle
aiglefin
aigles
aignan
aigneu
aigny
aigrette
aigu
aiguillat
aiguille
aihara
ail
aile
ailes
ailette
ailier
aille
ailleurs
ailly
aim
aimable
aimargues
aime
aimer
aimez
ain
aine
ainge
ainges
aingville
ainme
ainmeur
ainmour
ainne
ainnieu
ains
ainsi
ainsin
ainsworth
ainsy
aint
ainval
air
airaines
aire
aires
airoe
airon
airouot
airs
ais
aise
aises
aisie
aisne
aisthesis
ait
aix
aizcourt
ajacis
ajalbert
ajoinde
ajoure
ajout
ajoute
ajouter
ajoutmints
ajpg
ak
aka
akage
akahige
ake
akemi
akes
akeule
akira
akiyama
akron
akunin
akutagawa
al
alacant
aladdin
aladon
alain
alaine
alamans
alan
alard
alaska
alauda
alaudidae
alba
alban
albanie
albe
albellus
albert
alberta
albertine
alberto
albertrene
albi
albifrons
albin
album
albums
alburnus
alca
alcedo
alchimiques
alcius
aldegonde
aldo
aldrin
ale
alechinsky
alectoris
alemand
alemande
alemands
alemane
alemania
alemanne
alemant
alemante
alemants
alembert
alenc
aler
ales
alessandro
aleude
aleuhe
aleus
alex
alexander
alexandre
alexandrie
alexandrine
alexandrines
alexandrinus
alexis
alf
alfa
alfabe
alfabet
alfons
alfred
alfredo
alge
alger
algues
alhoehe
ali
alia
aliamet
alianche
alias
alicante
alice
alie
alien
aliette
alighieri
align
alignbars
aligne
alignement
alignemint
alimentaires
alimint
aliminte
aline
alintour
alintours
alisacion
alisacions
alisateu
alisateur
alisation
alisatrice
alise
aliser
alisme
alisse
alisses
aliste
alite
alive
alix
all
alla
allaines
allais
allaitant
allan
allant
allart
alle
allein
alleluia
allem
allemagne
allemand
allemande
allemands
allemanne
allen
aller
allery
alles
alleu
alleumoe
alleut
alleux
allez
alliance
alliaria
allie
allier
allium
alloai
alloait
alloaitte
alloeu
allonge
allons
allot
allouagne
allouanne
allume
allumeux
allumoirs
allure
alma
almanach
almanaques
almand
almande
almandes
almangne
almanne
alnay
alo
aloait
alodjie
aloe
aloehe
alogie
alogique
alogiques
alogisse
alogisses
alone
alons
alonville
alopochen
alors
alorse
alosa
alose
aloue
alouette
alpes
alpha
alphabet
alphonse
alpin
alpina
alprech
alques
alquine
als
alsace
alsache
alsachien
alsacien
also
alt
alta
alte
alternatif
alternatife
alternative
alternette
altitude
alto
alu
aluco
alve
alvise
always
alwe
am
ama
amable
amadeus
amalric
amamiya
aman
amand
amanda
amandine
amant
amanti
amantini
amants
amarante
amaranthaceae
amarilli
amas
amassoe
amateu
amateur
amateus
amaury
amazon
amazonienne
ambassade
ambassadeurs
ambicions
ambigu
ambigui
ambiorix
ambleteuse
ambra
ambricourt
ambroise
ambulant
ame
amedeo
ameilleure
ameilleurer
amelia
amelie
amelonde
amemiya
amen
amenant
america
american
amerval
ames
amet
amette
amettes
amfibiens
ami
amicale
amici
amico
amie
amiel
amienois
amiens
amigos
aminte
amiral
amis
amisses
amitie
amne
amner
amo
amon
amont
amor
amore
amores
amors
amoudry
amougies
amouji
amour
amoureuse
amoureux
amours
amoutre
ampe
ampezzo
amstelveen
amsterdam
amui
amulette
amusant
amuse
an
ana
analise
analogique
analyse
anas
anastacia
anatidae
anatide
anatole
anatomiques
anbie
ance
ances
anche
anches
anchie
anchien
anchienne
anchiennemint
anchiennes
anchiens
anchin
ancien
ancienne
anciennes
anciens
ancient
ancq
ancre
and
andante
ande
andechy
andely
andenne
andere
anderlues
andernach
andersen
andertal
andes
andinfer
ando
andore
andouille
andouillette
andoullette
andre
andrea
andres
andrew
andrieu
andy
ane
anecdotes
anechy
anemins
anemone
anfitrion
angadresme
ange
angel
angela
angele
angeles
angeli
angelica
angelico
angelillo
angelini
angelo
angels
angers
anges
angilbert
angiolini
anglais
anglaise
angle
angles
anglet
angleterre
anglo
anglois
angoisse
angoule
angoysses
anguilla
anguille
angusticruris
anhalt
ani
aniche
anie
anima
animacion
animal
animale
animalier
animals
animateu
animateur
animateus
animation
animatrice
animaus
animaux
anime
animette
anis
anite
anjou
anjvin
ankara
ankokugai
ankou
anme
anmes
anmeur
anmie
anmien
anmiennoe
anmiens
anmioler
anmis
anmour
anmyen
anmyin
anmyinnoue
ann
anna
annabelle
annache
annales
anne
anneau
annee
annequin
annette
annexe
annexes
annezin
anni
anniau
annick
annie
anniversaire
anniversary
anno
annoe
annonce
annonchacion
annoncher
annonciacion
annonciation
annotation
annote
annua
annuaire
annuel
annuelle
annunciation
annunciazione
annœullin
anobli
anoblissement
anon
anonchacion
anonyme
anonymes
anor
anos
another
anoures
anr
ans
ansart
anse
anselme
anser
anseriformes
anserina
anserinae
ansovile
anspinture
ant
antan
antarctike
ante
antenne
antes
anthelme
anthieu
anthieuse
anthieuses
anthieusse
anthieusses
anthisnes
anthiu
anthius
anthiusses
anthoe
anthoine
anthologie
anthony
anthriscus
anthropologie
anthus
anti
antichi
antike
antikes
antilles
antin
antioke
antiqua
antiquaires
antique
antiquite
antise
antitchite
antiusse
anto
antoe
antoine
antoinette
antoing
antolodgie
antolodjeye
antologia
anton
antonella
antonello
antoni
antoninus
antonio
antonius
ants
antwe
anve
anvers
anvin
anving
any
anything
anzac
anzi
anzin
ao
aoc
aoste
aou
aouiez
aout
ap
apanage
aparicion
aparint
aparoait
aparoaite
aparte
apartient
aparu
aparute
ape
apel
apele
aperc
aperchie
aphrodite
api
apicultchure
aple
aploe
aploute
apo
apocalisse
apodes
apoge
apollinaire
apolline
apollo
apollon
aporter
apostoe
apostolike
apostrofe
apostrofes
apote
apotes
apothicaire
app
apparai
appareil
apparence
apparent
apparicion
apparinte
apparitions
appartenant
appartient
appay
appe
appel
appele
appellation
appelle
appelot
appi
apple
applique
applitche
appollon
apporte
appose
apposicion
appre
apprederis
apprenti
apprind
appris
approchant
approche
appropriations
appuye
aprandre
apre
apreu
apreuve
apreuver
april
aprinde
apsinte
apus
aqua
aquadec
aquare
aquarelle
aquarelles
aquarellisse
aquatic
aquatike
aquatique
aquatiques
aque
aqueduc
aques
aquin
aquitaine
aquitainne
aquitangne
ar
ara
arabe
arabes
arabian
arabie
arabo
aractingi
aragon
araigne
araine
araki
arakida
arame
arane
aras
arashi
arbale
arbe
arbites
arbitraire
arborea
arbou
arbre
arbres
arbret
arbreuve
arc
arca
arcache
arcaches
arcade
arce
arch
arche
archer
archerche
archers
archeve
archibugi
archifes
archime
archipel
architecte
architectes
architecture
archive
archives
arcol
arconnue
arconnus
arconstruit
arconstruite
arconstrukcion
arcosse
arcouvert
arcs
arctica
arctike
arctique
arctiques
arctium
arctos
ard
ardants
arde
ardea
ardenne
ardennes
ardent
ardinnoe
ardjeuve
ardjue
ardoe
ardre
ardres
are
area
arena
arenaria
ares
arezzo
arfuyen
argent
argente
argentina
argento
argint
arginte
argintine
argoeuvres
argot
argoule
argoules
argroupe
argument
argumint
ariel
ariga
arigne
aringemint
aristide
aristocrate
aristocratique
aristote
aristotelis
arithmonymes
arive
ariver
arivtte
ark
arkai
arke
arkipel
arkite
arkitecte
arkitectes
arkitecture
arkitekte
arkive
arkives
arkivisse
arlequin
arles
arlette
arleux
arligieu
arligion
arlima
arly
arm
armagnac
armancourt
armand
armandine
armas
armature
arme
armel
armelle
armentie
armes
armide
armilly
arminti
armistice
armoe
armoire
armoiries
armonaque
armonique
armonte
armor
armorial
armoricains
arms
armstrong
armure
army
arn
arnaud
arni
arnie
arnitoe
arno
arnold
arnoul
arnould
arny
aro
aroma
aronde
arondichemint
arondissemints
aros
arot
aroute
arp
arpenteuse
arpitan
arpre
arquata
arque
arques
arrache
arrangements
arras
arrasseigneur
arre
arrest
arret
arrie
arringe
arriv
arrive
arriver
arro
arrondichemint
arrondichemints
arrondissement
arrose
arrouaise
arroue
arroute
arry
ars
arschot
arse
arsenal
arsenic
arseniew
arsoule
art
artche
artchiers
artchive
artchives
artcyclopedia
arte
artemisia
arter
arthropoda
arthur
artic
artichtique
article
articleid
articles
articlles
artics
artike
artikes
artillerie
artillrie
artique
artiques
artisanale
artisanat
artisans
artisse
artisses
artist
artiste
artistes
artistike
artistikes
artistique
artistiques
artists
artnet
artoe
artois
artorius
artourne
artreuve
artreuver
artropodes
arts
artur
artus
aru
aruba
arundinaceus
arvensis
arvers
arviens
arvili
arvo
arvue
arwi
arwitlo
ary
as
asa
asbl
aschinsion
ascinsion
ascq
asger
asi
asiatike
asie
asin
asio
asir
asit
asite
ask
asp
aspe
aspects
asper
aspets
asphodelus
aspire
aspx
assaigs
assassine
assaut
asse
assegond
asselin
assemble
assemblee
assembleenationale
asseure
assevillers
assez
assi
assie
assiettes
assignies
assim
assimble
assimil
assimilacion
assimile
assir
assis
assise
assissinne
assistant
assiste
asso
assochie
association
associations
associazione
associe
assompcion
assomption
assunta
assur
assurer
ast
aste
asterix
astes
asteuqheute
astier
astragon
astral
astrolodjie
astrolodjique
astrononmie
asvile
at
atake
atakes
atatche
atatcher
atcheuille
atchure
atchuse
atchuztte
ate
atelie
atelier
ateliers
aterbue
ates
ateste
ateu
ateur
ateus
ath
athanase
athe
athene
athie
athies
athle
athois
atife
atilf
atincion
atind
atinde
ation
atl
atlache
atlan
atlanta
atlantic
atlantike
atlantique
atlantiques
atlantis
atlas
atmosfe
atoe
atomes
atomic
atra
atrape
atratus
atre
atricapilla
atrice
attache
attaquants
attaque
attaques
attatche
attchy
atte
attendu
attenelle
attente
attention
atteste
atthis
attin
attind
attinde
attinds
attintion
attire
attirer
attrakcions
attrape
attribucion
attribue
attribut
atures
au
aube
auberchicourt
aubercourt
aubers
aubert
aubignin
aubigny
aubin
auboin
aubrac
aubvile
auby
auch
auchel
auchez
auchi
auchy
aucourt
aucun
aucune
aud
audace
aude
audel
auderghem
auderselle
audin
audincthun
audinfort
audinghen
audinghin
audio
audiothe
audisque
audomaroe
audre
audresselles
audrey
audricourt
audruicq
auf
auffrique
aufrike
auger
augmente
augmenter
augmintacion
augminte
augusse
august
augusta
auguste
augustin
augustine
augustins
augusto
augustus
aujau
aujord
aujourd
aulnes
aulnoit
aulnoye
ault
aumale
aumate
aume
aumes
aumont
aunelle
aunia
auno
auparavant
aupaysdeschtis
aupe
auple
aupre
auquel
aura
auratus
aure
aurea
aurelianus
aurelius
auric
aurin
auriol
auront
aurora
aurore
aus
aussi
aussito
aussy
austen
austin
australe
australian
australie
australien
australiens
australis
austrasie
austreberthe
aut
autaint
autant
autche
autcheune
autchun
autchune
autchunne
autchuns
aute
autel
autels
autem
autes
auteu
auteue
auteur
auteurs
auteus
auteux
authie
author
authority
autingues
auto
autocar
automates
automatic
automatique
automatiquement
automne
automobile
autonome
autoportrait
autore
autorise
autorite
autoroute
autos
autour
autovalue
autre
autrefois
autres
autriche
autrier
autrike
autsu
autt
autun
auve
auvergne
aux
auxi
auze
av
avaint
avait
aval
avallon
avance
avanche
avant
avantache
avantageuse
avati
avau
ave
avec
aveinde
aveindoaison
aveinne
aveint
avena
avenir
aventure
aventures
avenue
avers
averti
aves
avesne
avesnelle
avesnes
avesnois
aveu
aveuc
aveugle
aveugles
aveut
avez
avezzano
aviacion
aviateu
aviateus
aviation
avifaune
avignon
avin
avinne
avint
avinture
avintures
avion
avions
avis
avium
avle
avo
avoai
avoais
avoait
avocat
avocet
avocette
avoe
avoet
avogadro
avoid
avoine
avoir
avois
avoit
avons
avos
avosetta
avot
avou
avoue
avoye
avr
avre
avri
avril
avron
avroult
avroy
avu
avuc
avwat
awa
award
awards
awe
awen
awi
awiki
axe
axel
ay
ayaint
ayant
aybert
ayet
ayette
ayincourt
aymara
aymeries
ayo
ayos
aythya
ayude
ayuntamiento
ayure
az
azay
aze
azerbai
azi
azie
aziman
azincourt
aznavour
azur
azərbaycan
b
ba
babale
babar
babe
babel
babeuf
babila
babilonne
baby
babylone
bac
bach
bachelet
bachelier
bachin
bachine
bacio
back
backgroundcolors
bacon
bacoue
bacoulette
bacquet
bacte
bad
badaroux
bade
badel
baden
badge
badie
badile
badminton
baerman
bag
bagacum
bagarre
bagatelle
bagdad
baglioni
bague
bahamas
bahamensis
bahia
bai
baie
baiedesomme
baies
bail
bailey
baille
bailler
baillet
bailleu
bailleul
bailleulmont
bailleux
bailli
bailliage
bailliages
baillie
baillod
baillon
baillons
bailltte
bailly
baily
bain
bainghen
bains
baiser
baisieux
baizieux
baka
baker
bakken
bal
bala
balade
balades
balaguer
balakirev
balance
balancourt
balate
balbuzard
balcon
balde
balderic
baldini
bale
balin
balise
balkans
ball
ballade
balladen
ballades
ballard
balle
ballet
ballets
ballett
balling
ballon
ballons
ballots
balne
balodrome
balon
balons
bals
baltazar
balte
baltes
balthus
baltike
baltimore
baltique
balto
balzac
bambino
ban
banade
banal
bananas
banc
bancourt
band
bande
bandeau
bandes
bandjo
banfi
bang
bangsi
bank
banlieue
banne
bannie
banque
banquet
bantchet
bapaume
bapte
baptise
baptismaux
baptisse
baptiste
baque
baquet
bar
baralle
baraque
baratay
barba
barbara
barbare
barbares
barbarie
barbe
barbeau
barbedor
barbekiou
barberousse
barbez
barbier
barbinc
barbizon
barbot
barbotte
barbu
barbus
barcelona
barcelone
barcino
barcolor
bardata
barde
bardes
bardoux
bare
bareul
barhenri
bari
baril
barillet
bariton
barker
barley
barlin
barline
barly
barma
barnate
barney
barnum
barnumber
barockschloss
baroeul
baroke
barometre
baron
baronne
baronnie
barons
baroque
baroufe
barous
barque
barra
barras
barre
barres
barricades
barrie
barrobert
barrois
barry
barset
bart
bartas
bartcher
barthe
barœul
bas
bascule
base
baseball
based
basel
baseline
basements
bases
basho
basile
basilike
basilique
basket
basketteu
basly
basque
bass
bassac
bassan
bassanus
basse
basses
basset
basseux
bassin
bassins
basson
bassons
bassure
bassureries
bassures
basta
bastards
bastchule
bastien
bastienne
bastion
bat
bata
bataille
batailles
bataillon
batale
batales
batalha
batalhon
batalle
batar
batarde
bataye
batchet
bate
bateau
bateaux
batellerie
baterie
bates
bateu
bati
batiau
batiaus
batie
batieu
batieus
batimint
batimints
batinme
batir
batis
batisio
batisse
batite
batites
baton
batrachiens
batrie
bats
batt
batterie
battiato
battista
battu
battus
batu
bauche
baucher
baucheron
baude
baudelaire
baudelicque
baudet
baudets
baudoin
baudou
baudouin
baudour
baudoux
baudrelicque
baudroie
bauduin
bausch
baut
bavaisiennes
bavaroe
bavay
bavelincourt
bavette
bavie
bavincourt
bavon
bay
bayard
bayenghem
bayeux
bayincourt
bayinghin
bayly
bayonvili
bazar
baze
bazin
bazintin
bazio
bb
bbc
bc
bd
be
beach
bear
bearcroft
beat
beatles
beatrice
beau
beaucamp
beaucamps
beaucarne
beauchamps
beaucoup
beaucourt
beaufils
beaujolais
beaulieu
beaumanoir
beaumetz
beaumont
beaune
beauquesne
beaurain
beaurains
beaussart
beaute
beautiful
beauvais
beauvaisien
beauvaisis
beauval
beauvarlet
beauvoir
beauvois
beauvy
beaux
bebop
bec
beccaria
bechet
beck
becker
becque
becquet
becs
bede
bedetheque
bedford
bedroom
beethoven
beffro
beffroe
beffroi
beffrois
beffros
before
befroe
begin
behind
beijing
beineix
beirnaert
bel
belcan
belche
beldame
bele
belette
belfast
belfond
belfontinne
belfort
belge
belges
belgian
belgica
belgie
belgike
belgique
belgium
belgrade
belin
belkacem
bell
bella
belladame
bellanger
belle
bellefontaine
belleroche
belles
bellet
belleuse
belleval
belleville
belli
bellie
bellignies
bellinghin
bellion
bello
bellon
bellonne
bellot
bellovaques
belloy
belluno
belon
belone
belvau
belve
belœil
ben
bene
benedek
benedicta
benedictus
benedikt
bengali
bengt
benito
benizio
benjamin
benjamins
benko
benn
benoi
benoit
benth
benutzer
beos
ber
beraud
berault
berberian
berbi
berbis
berceau
berceuse
berche
berches
berck
berdincourt
berdle
berg
berge
bergen
berger
bergeronnette
berges
bergike
bergique
bergues
berguette
berio
berkeley
berkes
berkois
berlaude
berles
berlette
berlicoque
berlie
berlin
berlioz
berloqu
berlurache
berluse
bern
bernac
bernadette
bernanos
bernard
bernardo
bernay
berne
bernes
berneuil
bernhardt
bernicla
bernicourt
bernier
bernieulles
bernissart
berny
berquigneul
berquin
berri
berry
berse
berseau
bersillache
bersille
bersillies
bersou
bert
bertal
bertangles
bertangne
bertanne
bertaux
bertche
berte
berteaucourt
bertha
berthe
berthecourt
berthoult
bertile
bertin
berton
bertonne
bertons
bertout
bertoux
bertrand
bertulphe
berzille
berzillie
berzilloe
bes
besant
besnard
besoin
bessin
best
bestiaire
beta
beth
betheune
bethune
bett
bette
bettembos
bettencourt
betterave
betteraves
bettina
betula
beu
beubite
beuche
beuchin
beudet
beudets
beuleul
beune
beunes
beunoe
beure
beurre
beursault
beus
beussent
beut
beuve
beuverguin
beuvraignes
beuvry
bewick
bewickii
beylemans
bg
bhoutan
bi
biache
biacourt
bianchi
biau
biaucamp
biauliu
biaumetz
biaumont
biaurins
biaurinville
biaus
biauvo
biaux
biała
bib
bibe
bibeu
bibeuhttp
bibeus
bibi
bible
biblike
biblikes
biblio
bibliobazaar
bibliografie
bibliographie
bibliographique
bibliographiques
bibliolife
bibliote
biblioteca
bibliothe
bibliotheca
bibliothek
bibliotheken
bibu
biche
bide
bidet
bidon
bidons
bie
bieau
bieaux
bieber
biel
bielefeld
bielle
bielles
bielsko
bien
biencourt
bienfaisance
bienheureux
biennal
biennale
biens
bientques
bienvenue
bienvillers
bienvnue
biere
biermann
biette
bieu
bieucamp
bieucourt
bieufort
bieujolais
bieumanoe
bieume
bieumont
bieus
bieutche
bieute
bieuvais
bieuvaisis
bieuve
bieuvo
bieux
biez
biface
big
bigard
bigelovii
bigre
bihe
bihet
bijou
bijous
bijoux
bilan
bilancourt
bild
bile
bilhaud
bili
bilingue
bill
billard
bille
billes
billet
billie
billiet
billon
billoter
billy
biloute
bilques
bimberlot
bimoteur
bin
binaire
binaires
binche
binchou
binde
bindes
bindieu
bine
binh
binhureus
binoe
binomio
binto
binv
binvile
bio
biografe
biografia
biografie
biografies
biografike
biographie
biographies
biographique
biographiques
biography
biolodjie
biologie
biomy
bion
biotech
biplache
biplan
biques
bird
birds
bire
birle
birmanie
birmingham
bis
bisannuelle
biscella
biscuits
biset
bismillah
bison
bistchuit
biste
bistraque
bistreot
bistro
bit
bitchig
bitoreau
bits
bitsch
bive
bizantin
bizantins
bizarre
bize
bizerte
biœ
bl
bla
black
blaireau
blairieu
blaise
blaisot
blake
blan
blanc
blanchard
blanche
blanchegorge
blanches
blancs
blandain
blange
blangin
blangy
blank
blanke
blankes
blanks
blanque
blanques
blanquetaque
blari
blaringhem
blason
blasons
blasset
blaton
blavincourt
ble
blendecques
blette
bleu
bleue
bleuettes
bleuhe
bleus
bleuse
bleuses
bleusses
bleute
bley
bli
blica
blie
blimond
blimont
blind
blindecques
blizon
blo
bloc
bloch
block
blocs
bloe
blog
blogs
blogspot
blond
blonde
blondel
blondes
blondin
blood
bloquet
blosseville
blot
blue
blues
bluettes
bmg
bn
bnf
bo
boa
boaissier
boaiziu
board
boat
bob
bobby
boboche
bobotte
boca
bocache
bocage
boccachio
boccoli
boch
boches
bochese
bochu
bochum
bochus
bockairy
bocquet
bodart
bodel
body
boe
boeck
boen
boeuf
boez
bofe
boffles
bogota
bohain
bohdanec
bohe
bohin
bohm
bohner
bohourde
boi
boieldieu
boillot
boin
boinne
boinnes
boins
boir
boire
boiron
boiry
bois
boisjean
boismont
boismortier
boiss
boissin
boisson
boissonnas
boissons
boissoudy
boitar
boite
boitel
bojour
boke
bol
boland
bole
bolivie
bollaert
bollezeele
bolo
bologomime
bolomes
bombarde
bombardemint
bombardemints
bombardier
bombes
bombyx
bommelaers
bompard
bompiani
bomy
bon
bonaparte
bonapartisse
bonasa
bonasia
bonaventure
bonbons
boncho
boncourt
bond
bondelli
bondu
bonduelle
bondues
bone
bonelli
bones
bonheur
bonhomme
bonhonme
bonjour
bonn
bonnaffe
bonnaire
bonnard
bonnay
bonne
bonnefoy
bonneleau
bonnelieu
bonnes
bonnet
bonneterie
bonneton
bonnettes
bonneville
bonnie
bonningues
bonnink
bono
bons
bonte
bontzolakis
book
books
boom
boon
bop
boquet
boquetia
boquillon
borain
boraine
borains
bord
bordant
bordas
borde
bordeaux
border
borderel
bordez
bordiaus
bordieus
bordon
bords
bordure
bordures
bore
borel
borgoboca
borin
borinage
boris
borjoe
borne
bornemisza
bornes
borodine
boron
borrel
borse
borville
bos
boscawen
bosch
boschas
bosnie
bosphore
bosque
bosquel
bossa
bosse
boston
bot
botanica
botanike
botanique
botanisse
botcher
bote
bots
botte
bottom
bou
boubers
boubert
bouc
boucard
bouchain
bouchard
bouchart
bouchave
bouche
boucher
boucheron
bouches
bouchicourt
bouchier
bouchin
bouchoe
bouchon
bouchot
boucle
boucly
boucourt
boucq
boucres
boudaines
boudart
boudin
boudine
boudjinville
boue
boufe
boufeume
bouffe
bouffes
boufflers
bouffon
bouffonnerie
boufle
boufones
bougre
bougron
bouguereau
bouillancourt
bouille
bouillet
bouillincourt
bouillon
bouin
boukay
bouke
boukes
boul
boulainvilliers
boulanger
boulans
boule
bouleau
boules
boulet
boulette
boulevard
boulfroy
boulha
boulhe
boulindge
boulindger
boulindjrie
boullet
boulnois
boulogne
boulon
boulongne
boulonnais
boulonnaises
boulonne
boulonnoe
boulot
boulter
bouly
boum
boune
bouorte
bouque
bouquehault
bouquet
bouquins
bour
bourbon
bourbons
bourbote
bourbotte
bourbourg
bourcq
bourdet
bourdgingnon
bourdgingnons
bourdichon
bourdieu
bourdjignon
bourdjignons
bourdon
bouret
bouretz
bourg
bourgache
bourgades
bourgeois
bourgeos
bourges
bourget
bourgmestre
bourgogne
bourgoin
bourgone
bourgongne
bourgonne
bourgue
bourguignon
bourguignonne
bourguignons
bourjoe
bourjonval
bourjos
bourjouos
bourlard
bourle
bourles
bourloe
bourloire
bourlon
bourniquel
bournonville
bourq
bourrut
bours
bourse
boury
bous
bousies
bousillage
boussois
boussu
bout
boutants
boutchi
boute
bouteille
bouteilles
bouter
boutiche
boutigny
boutincourt
boutine
boutinette
boutinot
boutique
boutiquier
boutirille
boutogne
bouton
bouts
bouvaincourt
bouvelinghem
bouverie
bouvet
bouvia
bouvignies
bouvigny
bouvincourt
bouvines
bouvre
bouvreuil
bouvreul
bouye
bouzincourt
bove
bovelle
bovelles
boves
bovide
bovine
bovines
bovins
bow
box
boxe
boxers
boxeu
boy
boyaux
boyaval
boyeffle
boyeffles
boyelles
boyenval
boyle
boys
bpp
bpt
br
bra
brabanc
brabant
bracciale
brache
bracherie
bracheries
brachydactyla
brachypodium
braderie
brady
braffe
brahms
brai
braillon
brailly
brain
braine
brais
brama
bramieri
bramint
bran
branche
branchu
brancourt
brandebourjoe
brandons
branke
brankes
branly
branques
branta
brante
braque
bras
brasero
brasil
brasme
brass
brassard
brassart
brasse
brassens
brasserie
brasseu
brasseur
brassica
brassy
braun
brav
brave
braves
bray
brayette
brayonne
brayons
brayou
brazil
brazilian
brdy
bre
bread
break
breaking
brebie
brebieres
brebion
brebis
brecque
bref
brehm
breilly
bren
brennus
brepols
bres
brescia
bresle
brest
bretagne
breton
bretonne
bretonneux
bretons
brette
breu
breuil
breules
breume
breune
breus
breuvie
breux
breve
brevet
brevie
brian
briault
brice
briciole
bride
bridge
bridgend
bridoux
brie
brief
briend
briet
briez
brigade
brigades
brigands
brigate
brigide
brigitte
brikes
brimeu
brin
brinme
brinne
brioche
briois
briou
brique
briquemannier
briques
briquet
briqueterie
briquette
bris
brise
brissez
bristol
britain
britanique
britannike
britannique
britanniques
britche
brite
british
britten
brne
brno
bro
broadway
brocante
brochant
brochard
broche
brochet
brochure
brocourt
broe
broeche
brohard
broke
brokes
bromus
bronce
brongne
bronne
bronze
brooklyn
brooks
bros
brosne
brosset
brother
brothers
brou
brouay
brouche
brouchy
brouckbourq
brouette
broussures
brouteu
brouyon
brouze
brown
browne
bru
bruant
bruay
brubeck
brucamp
bruce
bruchardin
bruchet
brudje
bruges
brugge
bruit
brujlete
brulants
brule
brumaire
brumes
brun
bruna
brunaux
brune
brunehault
brunehaut
brunei
brunel
brunet
bruni
brunnain
brunne
bruno
brunswick
brussel
brusselle
brussels
brut
brutelle
brutto
bruvie
bruxelles
bruxellois
bruy
bruyard
bruye
bryas
bryonia
bs
bsoin
bu
bucaille
buce
bucephala
bucerotiformes
buch
buchard
buchet
buchin
buchon
buchu
buchuel
buchy
bucquoe
bucquoy
bud
budapest
budd
buddy
budget
bue
buenos
bueur
buffard
buffet
bugeicho
bugny
buhaut
bui
buigny
building
buio
buire
buis
buissie
buisson
buissy
buke
buker
bukette
buleux
bulgare
bulgaria
bulgarie
bull
bulle
bullecourt
bulles
bulletin
bulletins
bully
bundesarchiv
bunge
bunker
bunkers
bunny
bunta
buona
buonanotte
buque
buquer
burbure
bure
bureau
bureaux
burgos
burgund
burhinus
buridan
burkina
burlesque
burlington
burns
buron
burre
burundi
bury
bus
busard
busch
buse
bush
busiache
business
businkillaches
busme
busnes
busnettes
busnois
buson
busse
busses
bussie
bussu
bussuel
bussus
bussy
buste
buster
but
buta
bute
buteo
buterne
butes
butler
buto
butor
butorioe
buts
butte
buvache
buvant
buve
buveus
buveux
buvrainne
buyse
buza
buze
buzie
buzinne
buzz
bvo
bvre
bw
bwo
bxl
by
bydgoszcz
bye
byin
byron
byte
byzantin
bzanchon
bzoin
bœuf
c
ca
cabal
cabane
cabanel
cabanilles
cabanne
cabaret
cabarets
cabaretwallon
cabe
cabernet
cabillaud
cabinet
cabio
cabo
caboche
cabontans
cabot
cabotan
cabotans
cabotins
cabre
cabu
cacao
cachant
cache
cacher
caches
cacheu
cacheus
cachin
cachiveu
cachoe
cachy
caco
cacoules
cacqueray
cactus
cad
cadavre
cadd
cade
cadet
cadets
cadette
cadien
cadince
cadoreu
cadoreus
cadot
cadre
caen
caerulea
caeruleus
caesar
caesaromagus
caf
cafe
caffiers
cafougnette
cage
cagliostro
cagnicourt
cagnin
cagny
caha
cahie
cahier
cahiers
cahin
cahon
cahouin
cahute
cai
caillau
caille
cailleu
cailleus
caillou
caillouettes
cailloux
caimps
cainton
caintons
cair
caire
cairina
cairns
caisne
caisse
cajun
cal
calabre
calabria
calais
calaisis
calcaire
calche
calcicoles
calcio
calcoaire
calcule
calder
cale
calendes
calendrier
caleu
caleur
caleus
calgary
calhdoreuze
calhe
calibe
calibre
caliche
calicot
calidris
california
californie
calimichon
calimuchon
calin
calinde
calindrier
call
callas
called
calligrafie
calling
calmann
calme
calo
caloguernant
calonne
calotterie
calouste
calvados
calvaire
calvaires
calvin
calvinnisse
calvoaire
calvoe
calypso
cam
cama
camara
camarade
camarades
cambe
cambes
cambier
cambiers
camblain
camblignu
camblin
cambodge
cambrai
cambre
cambridge
cambrin
cambron
cambronsaintvincent
came
camelo
camelot
camembert
camera
camerini
camie
camiers
camii
camille
camon
camp
campagne
campagnes
campaingne
campangne
campangnes
campania
campanie
campanile
campanne
campannes
campbell
campdavaine
campe
campea
campello
campenard
campenoe
campestris
campigneulles
campignole
campignolles
campin
camping
campion
campionat
campionats
campionnat
campionnats
campionne
campions
camps
campsart
campus
camus
can
cana
canaan
canada
canadas
canadensis
canadian
canadie
canadien
canadienne
canal
canale
canalise
canals
canape
canard
canards
canaria
canaries
canaus
canaux
canbornhe
canc
cancan
cancer
canche
cancheons
canchon
canchonie
canchonnie
canchonnier
canchons
canchy
candas
candelle
candidat
candidats
cando
candor
cane
canettemont
cange
cangemint
canger
caniformia
canike
canique
caniques
canis
canje
canjemint
canjmint
canjmints
canler
canlers
canmon
cannabina
cannabis
cannadien
cannar
canne
cannes
cannoinne
canon
canonikes
canoniques
canonise
canonniers
canorus
canpe
canpousse
cans
canson
cansons
cant
canta
cantamoaison
cantando
cantant
cantants
cantate
cante
cantegny
cantemerle
canter
canteu
canteur
canteus
canteuse
canteuses
canteusse
cantharus
cantica
cantile
cantily
cantin
cantiques
canto
cantoait
canton
cantone
cantonoe
cantons
cantor
cantorbe
cantorum
cants
canutus
canvas
canve
canzone
canzoni
caouin
caouite
caoutchouc
caouts
cap
capabilite
capacite
cape
capel
capelin
capelle
capelles
capenoule
capenoules
capet
capiau
capieu
capillon
capin
capitaine
capitainnes
capital
capitale
capitales
capitals
capite
capitol
capitole
capitule
capitules
caplan
caply
capons
caporal
cappe
cappel
cappella
cappelle
capriccio
caprimulgiformes
caprimulgus
capron
caps
captivite
capture
capuchin
capuchon
capucins
caque
car
carabistoulle
caracas
caracole
caracte
caradoc
carai
caramels
carassius
carax
carbo
carbon
carbonade
carbonnache
carbonnage
carbonnel
carbonniers
carcaillo
carcaillot
carcaillou
carcaillous
carcassonne
carcul
carcule
carculs
carcy
cardevacque
cardiff
cardinal
cardinale
cardon
cardonette
cardonnret
cardonois
cardoso
carduelis
care
carette
carez
carge
caricature
caricatures
caricaturisse
carie
carillon
carimaros
carimbault
carinchy
carion
carite
carl
carla
carle
carleroe
carles
carlfriedrich
carlier
carlo
carloman
carlos
carme
carmel
carmen
carnaval
carnavaleus
carne
carnegie
carnet
carnets
carneu
carniole
carnival
carnivora
carnivore
carnoy
carnoye
carol
carolin
caroline
carolines
carolingie
carolingien
carolingienne
carolingiens
carolus
caron
carota
carotte
carottes
carpe
carpenter
carpenters
carpentier
carpes
carpinte
carpio
carplute
carplutes
carpocapse
carpologique
carque
carre
carreau
carreaux
carrefour
carrelet
carrie
carrier
carroche
cart
cartage
cartche
carte
cartele
carter
cartes
cartier
cartiladjineus
cartografie
carton
cartons
cartouche
cartre
cartres
cartronie
carts
cartulaire
carvalho
carvin
cas
casa
cascade
cascay
cascune
case
caselle
caserta
caserte
cases
cash
casimir
casino
caso
casque
casquette
cassandre
cassat
cassatt
casse
casseau
cassel
casser
casses
cassette
cassettes
casseu
casseux
cassi
cassine
cassini
cassis
cassius
cast
castafiore
castagneux
castel
castelain
castelin
castello
casterman
castiafiore
castille
castillo
castle
castoldi
castonade
castor
castral
castrale
castrales
castus
cat
catacombes
catainne
catalan
catalana
catalans
catalog
catalogne
catalogue
catalogueoflife
catalogues
catalongne
catalonne
cataloque
catalunya
catanzaro
catares
catarime
catastrofe
catastrophe
cate
cateau
catedral
categori
categoria
categorie
category
catel
catelain
catelaine
catelains
catelas
cateleine
catelet
catelin
catellenie
caterpillar
cateux
cathe
cathedrale
catherine
catheux
catholic
catholique
cathy
catiau
catiaus
catiche
catieau
catieu
catieus
catieux
catin
catolicime
catolike
catolikes
catolique
catrin
catrine
cats
catteau
catus
cau
caucase
cauchie
cauchy
caucion
caucourt
caud
caude
caudron
caudry
cauet
cauffe
cauffer
caufriez
caullet
cault
caumont
caup
caups
cauroy
causa
cause
causes
caussinnes
cauve
cauvin
caux
cav
cavalcade
cavalhie
cavalhrie
cavalier
cavassilas
cave
cavell
cavergne
caverne
cavernes
caves
cavieus
cavin
cavion
cavrois
cawin
cay
cayaux
caye
cayelle
cayelles
cayet
cayeu
cayeus
cayeux
cayin
cazabou
cazale
cazier
cazin
cb
cc
ccp
cd
ce
ceci
cef
cefet
ceiling
cel
cela
celebrity
celine
cell
celle
celles
cello
cells
cellules
celso
celtes
celtique
celtiques
celui
cembre
cemeteries
cemetery
cemetry
cendre
cendres
cendrillon
cense
cent
centenaire
center
centime
central
centrale
centre
centrepompidou
centro
cents
centule
century
cep
cepcion
cependant
cephalus
cepindant
cepremap
cercamp
cercieu
cercle
cercll
cerf
cerfs
cerisier
cerisy
cerne
certain
certaine
certaines
certains
certhia
certhiidae
certhioidea
certitude
cervantes
cervier
ces
cesar
cesena
cessaire
cessaires
cesse
cest
cet
cette
cetti
ceu
ceull
ceusses
ceux
cf
cgny
ch
cha
chabaud
chable
chabot
chabrier
chaco
chacun
chad
chaerophyllum
chagall
chage
chagor
chagrin
chai
chaille
chain
chaine
chains
chaint
chair
chaire
chaise
chaize
chake
chal
chalinge
challenge
chalon
chalote
cham
chambon
chambord
chambre
chamonix
champ
champagne
champaigne
champaingne
champainne
champangne
champanne
champe
champeaux
champfleury
champignons
champion
championnat
championnats
championne
champions
championship
championships
champlain
champs
chamuel
chan
chance
chancelier
chanches
chandeleur
changarais
change
changement
changements
changes
changing
channel
chanoe
chanoine
chanoines
chanoue
chanpa
chanson
chansonnier
chansonniers
chansons
chant
chantal
chantant
chante
chantent
chanter
chanteur
chantier
chantilly
chantre
chants
chap
chapeau
chapelet
chapelle
chapelles
chapite
chapitre
chapitres
chapman
chaq
chaqu
chaque
char
charadriidae
charadriiformes
charadrius
charah
charbon
charbonnie
chardon
chardonnay
chardonneret
charente
charenton
charge
chargement
charite
charlemagne
charleroi
charles
charlet
charlie
charlier
charlot
charlotte
charnay
charpe
charpentier
charrie
charruey
chart
charte
chartes
chartieu
chartres
chartreus
chartreuse
chartreuseneuville
chartreux
chascun
chasse
chasselas
chasseur
chassis
chastel
chastrez
chat
chatchun
chatchune
chateau
chatfield
chats
chau
chauchoy
chauffe
chauffeurs
chaulnes
chaume
chaumont
chaunoe
chauny
chauqueuse
chaurand
chausse
chaussoy
chauvaux
chauvet
chaux
chavate
chblog
chcourt
che
chec
checs
cheeked
chef
chefs
cheigneur
cheigneurs
chel
chele
chelle
chelles
chellule
chelon
chelte
cheltes
cheltikes
cheltique
cheltiques
chelui
cheme
chemin
chemine
chemins
chemint
chemisier
chenal
chencourt
chenille
chennevie
chenopodiaceae
chenopodium
chent
chentrale
cher
cherche
chercher
cherfu
chergent
cherie
cherke
cheron
cherons
cherq
chers
chertains
chertins
chertitude
cherubini
ches
chest
chet
cheu
cheuchoe
cheuchoi
cheul
cheule
cheull
cheur
cheurs
cheus
cheux
cheval
chevalerie
chevalet
chevalier
chevaliers
chevallier
cheve
chevelu
chevesne
chevet
cheveux
chevin
chevinage
chevins
chevri
chevron
chez
chfailler
chhp
chi
chia
chial
chialemint
chialise
chialisse
chialite
chialmint
chianti
chiaus
chibe
chic
chicago
chico
chicoere
chicon
chicore
chidonie
chie
chief
chien
chiens
chiesa
chieur
chieuve
chifes
chiffes
chiffres
chifleu
chignataire
chigot
chihiro
chikado
chil
child
childe
children
chile
chilienne
chiliennes
chilly
chimai
chimales
chimay
chimbe
chime
chimenti
chimetie
chimie
chimintie
chimique
chimistes
chimon
chimpien
chin
china
chinc
chincante
chince
chinchard
chinde
chindes
chindlie
chindre
chine
chinelle
chinensis
chinese
chinghin
chingles
chinglie
chinmetie
chinmtie
chinne
chinnes
chino
chinoe
chinois
chinople
chinq
chinquante
chint
chintache
chintaine
chintainne
chinte
chintes
chintimes
chintral
chintrale
chints
chinture
chinturie
chio
chion
chipeau
chipillin
chipoe
chique
chiquete
chire
chires
chirmont
chirop
chirque
chirurgien
chirurgiens
chiruzien
chis
chise
chisif
chision
chisions
chistera
chit
chitadelle
chite
chites
chitron
chiu
chivil
chivile
chivilisacion
chivot
chiyo
chizhik
chizme
chl
chlidonias
chloe
chloris
chlorope
chloropus
chnile
cho
chobe
choc
chochol
chochon
chochons
chochoy
chocques
chode
choderlos
choe
choeur
choice
choin
choir
choisies
choisis
choix
choke
chol
cholange
chole
choles
cholet
chom
chome
chompe
chon
chonc
choncq
chondrichthyes
chondrichtyens
chongqing
chonne
chonq
chonquie
chons
chonvile
chonwe
chopa
chope
chophia
chophie
chopin
choquet
choral
chorale
chorche
chorchelles
chorchire
chordmode
chordnames
chore
choristoneura
chorus
chos
chose
choses
chosse
chou
choucabu
choucas
chouchan
chouche
choue
chouette
choufloer
choukar
choule
choulet
chouo
chous
chout
choux
chove
chpy
chre
chris
chrisse
christ
christian
christiane
christine
christmas
christofle
christophe
christopher
christus
chrizhie
chroicocephalus
chronicles
chronique
chroniques
chroniqueur
chroniqueurs
chronologique
chrysalide
chrysoprase
chsisch
chstalemannisch
cht
chte
chti
chtichi
chtimi
chtis
chton
chtte
chu
chubstitution
chuc
chucate
chuchon
chuchons
chuck
chucolat
chucq
chucre
chucrerie
chucrie
chugnole
chuingne
chuivant
chuji
chuke
chulivan
chullivan
chupe
chuque
chur
church
churchill
churchyard
chus
chushingura
chute
chutes
chuzanne
chy
chœur
ci
cia
cial
ciale
cialise
cialisse
cialiste
cialite
cials
cianco
ciao
cibe
cible
cice
cichorium
cicla
ciconia
ciconiiformes
cid
cide
cidrerie
cie
ciel
ciens
cier
cies
cieu
cieux
cifique
cifiques
cigarette
cijb
cile
cilie
cim
cimal
cimals
cimbasso
cimbe
cimetie
cin
cinclidae
cinclus
cine
cinema
cinerea
cinq
cinquante
cinque
cinquie
cinse
cinses
cinsie
cinsier
cint
cinte
cio
cion
ciran
circle
circonflexe
circuit
circuits
circulacion
circus
cirilike
cirillo
cirque
cis
cise
ciseaux
ciser
cision
cisions
ciste
cisterciennes
cisticolidae
cit
citadelle
citant
citation
citations
cite
citerne
citoyen
citoyens
citrinella
citroe
citrus
cits
citta
city
ciu
ciudad
ciuns
cius
ciutat
civil
civile
civiles
civilisacion
civilisation
civilisations
civitas
cizancourt
ck
cken
cker
cl
cla
clabecq
clabek
clache
clachemint
clachificacion
clachification
clachike
clachique
clachiques
clack
claeys
claeyssens
claggart
clainvile
clair
claire
claires
clairie
clairme
clairon
clairy
clan
clangula
clapa
clara
claracion
claration
clare
clarence
clari
clarine
clarinette
clarisse
clarke
clarque
clarques
clarus
class
classe
classemint
classes
classical
classico
classics
classificachon
classificacion
classification
classike
classique
classiques
clatche
claude
claudel
claudia
claudiana
claudine
claudio
claudius
claus
claval
clavecin
clavie
clavier
claviers
cle
clef
cleftieu
cleopatra
clerc
clercq
clercs
clerge
clerk
clermont
cles
cleu
cleup
cleus
clichures
cliente
climat
clin
clint
clio
clip
clipperton
cliquennois
clisson
clite
clivet
clo
cloche
clocher
clochers
cloches
clodomir
cloe
cloi
cloke
clokes
clokie
clokier
clokiers
clonvile
clopa
cloqhe
cloque
cloques
cloquie
cloreu
clos
close
clotaire
clotche
clotcher
clotchers
clotchie
clotchiers
clotiers
cloture
clouque
clous
clovis
clown
club
clubs
clup
clupea
clups
cluse
clusier
clypeata
cm
cmande
cmander
cmandmint
cmin
cminche
cminchemint
cmincher
cminchmint
cminchmints
cminchoe
cminchtte
cmine
cmins
cmint
cmole
cmont
cn
cnam
cndp
cnike
cnrs
co
coach
coaille
coalicion
coast
cobain
cobar
cobien
cobieule
cobra
coca
coccinelle
coccothraustes
cocher
cocherel
cochevis
cochin
cochon
cochons
cocktail
coco
cococolo
cocorico
cocou
cocove
cocre
cocteau
cocu
cod
codage
codata
code
codes
codin
codric
coe
coechie
coelebs
coen
coeup
coeups
coeur
coffret
cofidis
coget
cogghe
cognu
cohe
coi
coiffe
coimperator
coin
coincy
coine
coins
cojeul
col
cola
colaborachion
colas
colate
colbert
colchicus
cole
colectivite
coleoptera
coles
colette
colfontaine
colfontinne
colheux
colier
coliers
colimbert
colin
colincamp
colincamps
colines
colinus
coll
collaboracion
collaboracions
collaboratif
collaboration
collabore
collapse
collaris
colle
colleccion
colleccions
collecte
collectif
collection
collectionneurs
collections
collective
collectivite
college
collegium
collekcion
collekcions
coller
collet
collets
colli
collier
colliette
colliez
collin
colline
collines
collinet
collins
collinwood
collision
colloque
collurio
collybita
colmaire
colmant
colmar
colo
coloeus
cologie
cologique
cologne
colomb
colombages
colombe
colombia
colombie
colombier
colombo
colombofilie
colombophile
colombophilie
colonel
colongne
colonie
colonies
colonisateu
colonne
colonnes
colons
color
colore
colors
colos
colte
coltes
coltrane
columba
columbarius
columbia
columbidae
columbiformes
column
colvert
com
combat
combats
combattant
combattants
combe
combien
combin
combine
combustible
come
comedy
comencini
comestibles
comeune
comike
cominch
comincia
comines
coming
comint
comique
comiques
comisaire
comite
comitum
comm
commandant
commande
commandes
comme
commedia
commencement
comment
commentaire
commentaires
commente
commerce
commercial
commerciale
commerciales
comminche
commint
commintateu
commissaire
commission
common
commons
commonsroot
commonwealth
commun
communal
communale
communales
communaute
commune
communes
communicacion
communication
communications
communique
communis
community
como
comp
compagnie
compagnies
compagnon
compagnons
compangnie
company
comparatif
comparative
compare
comparer
comparoaison
compe
compie
compiegne
compienne
compilation
compilations
compinse
compinses
complainte
comple
complet
complete
completes
complexe
complices
complitche
comportant
comporte
comportemint
composant
composants
compose
composer
composers
composeu
composeus
composicion
composicions
compositeu
compositeur
compositeurs
compositeus
composition
compositions
compositrice
compostelle
compoztte
comprenant
comprend
comprendre
comprendront
comprind
comprinde
comprindoe
comprinds
comprins
compris
comprise
compte
compter
comptes
comptines
comptoir
computer
comtal
comte
comteche
comtes
comtesse
comtoe
comune
comuse
con
conan
conbatant
conbau
conc
conce
concepcio
concepcion
concept
conception
concepts
concernant
concerne
concert
concertante
concertino
concerto
concertos
concerts
conche
conchept
conchert
conchil
conchile
conchuvoe
concierto
concord
concorde
concordia
concour
concours
concq
concre
concrets
conda
condamne
condanne
conde
condette
condicions
condition
conditions
condorcet
conducteur
conductrice
conduire
conduit
conduite
conduites
conduttrice
confe
confesseur
confession
confessione
confessions
confidences
confie
confins
confirme
confisque
confiture
conflict
conflit
conflits
conflue
confluince
confluinche
confluint
confonde
confondre
confondu
conforme
confort
confourme
confre
confreume
conge
conger
congie
congo
congre
congress
conium
conjonccion
conjugaison
conjugoaison
conm
conme
conmerc
conmerche
conmeunal
conmeunale
conmeunales
conmeunaupole
conmeunaute
conmeune
conmeunes
conmeunite
conmin
conmince
conmindant
conminde
conmindrie
conmint
conmintoe
conmission
conmun
conmunal
conmunale
conmunaute
conmune
conmunes
conmunicacion
conmunisse
conmunite
conmunnaute
conmunne
conmunnime
conmunnion
conmunnite
conmunnte
conmunote
connai
connaissance
connaissez
conne
connection
connexes
connexion
connoait
connoe
connomie
connot
connu
connue
connues
connus
connute
connutes
conomie
conomike
conomique
conomiques
conon
cononmie
cononmike
cononmiques
conpingnie
conpingnies
conpte
conptes
conque
conqueste
conquisent
conrad
consacre
conscrit
conse
conseil
conseiller
conseils
consel
conservacion
conservateur
conservateurs
conservation
conservatoe
conservatoire
conserve
conserver
conside
consie
consil
consilie
consilier
consiliers
consiste
consists
consolacion
console
consolide
consonmacion
consonne
consonnes
constance
constans
constant
constante
constantes
constantin
constantinnope
constantinople
constantius
conste
constitucion
constitucionne
constitucionnel
constitue
constitution
constitutionnel
construccion
constructeu
constructeur
constructeurs
construction
constructions
construire
construit
construite
construites
construits
construkcion
consul
consulat
consulte
cont
conta
contact
contacts
contay
contche
conte
contemporain
contemporaine
contemporaines
contemporains
contemporary
contemporarymusiconline
contenant
contenir
content
contenu
contenus
conter
conterdit
contes
conteske
conteu
conteur
conteville
conti
contient
contimporaine
contimporains
contimpore
contimporin
continent
continenta
continental
continint
continintal
continintale
continintales
continintaus
continints
continporaine
contint
continu
continuant
continue
continuer
continuoe
contoe
contoured
contra
contrabbasso
contraire
contrario
contrat
contre
contrebasse
contrepartie
contribue
contribute
contribution
contro
controle
conty
contyint
convar
conve
convention
conventionnel
conversation
conversion
converti
convertie
convertir
convertit
convincion
convinke
cook
cool
coolidge
cooney
coope
coord
coordonne
cop
copains
copanie
cope
copenhague
coper
copie
copier
copies
coppa
coppin
cops
copte
coq
coqs
coque
coquelet
coquelicot
coquelles
coques
coquette
coquille
coquilles
cor
corac
corache
coraciiformes
coracion
coracions
corail
corale
coran
corateu
coratifs
corations
corax
corbeau
corbeaux
corbehem
corbehin
corbeu
corbie
corbieu
corbin
corbine
corbioe
corblet
corbusier
corcheu
corchlette
corda
corde
cordel
cordes
cordialite
cordier
cordiers
cordon
cordonnier
core
coreca
corinne
corino
corlucq
cormont
cormoran
cormorant
cornaille
cornailles
cornalhe
cornalle
cornaze
corne
corneille
cornelis
cornell
cornemuse
corner
cornet
cornike
cornillot
cornix
cornote
cornouaille
cornu
cornus
coron
corone
coronne
coronnemint
corons
corot
corporacions
corporation
corps
corpus
corpuscherchepub
corrado
corre
correcte
correctemint
correspond
correspondance
correspondances
correspondant
correspondants
corridor
corrige
corriger
cors
corsaire
corse
cort
corte
cortebarbe
corteiche
corteminche
corti
cortille
cortina
cortoe
corts
corvidae
corvide
corvoidea
corvus
cos
cosa
cose
cosenza
coses
cosi
cosiste
coslovakie
coslovaque
cosmorte
cossa
cossais
cosse
cosserat
cossoe
costa
costalago
costallet
costanzo
costello
costeumes
costume
costumes
cot
cote
cotentin
cotentinais
cotes
cotiau
cotie
cotier
cotinchy
cotre
cotro
cotron
cotrons
cots
cottage
cottenest
cottere
cottereau
cotteret
cottes
cottignies
cotton
cottus
cotugno
coture
coturnix
cou
coualle
couargnon
coubertin
couchant
coucher
couches
couchi
couchy
couci
coucou
coucy
coucydjiyo
coucyenguerrand
coude
coudekerque
couderc
coudert
coudriers
coue
couet
couette
cougnou
couillet
couin
couldru
coule
couleu
couleur
couleurs
couleuvre
coulhe
coulhru
coulin
coulmelle
coulombe
coulombel
coulombelle
coulombie
coulon
coulonbie
coulonne
coulonneus
coulonneux
coulonnie
coulons
coulotache
coulvrinne
council
count
counterpoint
country
couo
coup
coupable
coupe
coupelle
coupes
coupez
coupigny
couple
couplet
couplets
coupole
couppes
coups
coupure
couque
cour
courage
courant
courante
courantes
courants
courbe
courbes
courbet
courcelles
courchel
courchelle
courcol
coureu
coureur
courir
couriu
courlis
courloru
courlourou
courlu
courluru
cournichon
couronne
couronnement
couronnemint
couronner
couronnmint
courrie
courrier
cours
course
courseau
courses
courset
court
courte
courteaud
courtelapette
courtes
courtin
courtois
courtrai
courts
couse
cousin
cousine
cousinne
cousins
cousse
coussemaker
cousses
coust
coustantinnope
coustantinoble
cousteaux
coustume
coustures
cout
coutchant
coutcher
coute
couteau
coutiaus
coutiches
coutieu
coutteure
coutumes
couturat
couture
couve
couvent
couvents
couvert
couverte
couvertes
couverture
couveuse
couvin
couvint
couvoire
couvrance
couvre
couvreur
couvrir
couyu
coventry
cover
covioe
cow
coward
cox
coyaud
coye
coyecques
coyette
cpdl
cpe
cq
cque
cques
cr
cra
crabe
cracher
cracovie
cracq
cracticidae
crai
craie
cramont
crampel
crampon
cran
cranach
crangon
crape
crapeu
crapeud
crapoe
cras
crase
crash
crasse
crate
crater
cravant
cravenne
crazy
crdp
cre
creates
creation
creative
crecca
crecques
credo
creil
crema
cremaschi
crembreux
creminil
crenne
crepin
cret
creu
creuchet
creuchets
creuhe
creuqueuson
creuse
creuvetchœur
creux
crever
cri
criaint
crianc
criant
criard
crichton
cricket
cricri
crie
crier
cries
crieur
crillon
crimbillie
crime
crimes
crimini
crimon
crinchon
crinon
cripte
criqhe
criquegnote
criquet
crire
crise
crises
crisis
crisse
crist
cristallerie
cristata
cristatus
cristianime
cristiannime
cristina
cristo
cristofe
crit
crite
crites
critike
critique
critiques
crititche
crits
criture
critures
crivain
crivains
crive
crivette
criveu
criveus
crivin
crivins
crivoait
crivoe
crivure
crivures
cro
croachie
croate
croche
crochets
croci
crocq
croe
croecmalho
croenen
croha
croi
croir
croire
crois
croisade
croisades
croisant
croise
croisilles
croissant
croissy
croix
croize
crole
crologique
crombez
cromlech
cron
cronike
cronikes
cronikeu
cronique
croniques
croniqueu
cronnike
cronnikes
cropole
cropped
croquis
cros
crosette
cross
crossage
crosse
crotchants
crotoe
crotone
crotoy
crotte
crou
croue
crouttes
crouy
crox
croy
croyances
croze
cru
cruchifie
crucifie
crucifixion
cruels
crupelandt
crustace
crustacea
crypsirina
crypte
cs
cse
css
ct
ctake
ctakes
ctaque
ctchure
cte
ctes
cteu
ctifs
ctimbe
ction
ctive
ctor
ctrique
cture
cu
cuba
cubes
cubisse
cucherat
cucry
cucu
cuculiformes
cuculus
cucumis
cue
cuer
cuesmes
cueur
cueurt
cugny
cuhin
cui
cuigne
cuinchy
cuincy
cuires
cuise
cuisine
cuisinier
cuissances
cuit
cuite
cuites
cuivre
cul
cule
cules
culminant
culot
culotte
culs
cultchure
cultchures
culte
cultes
cultura
culture
culturebox
culturel
culturelle
culturelles
cultures
cum
cume
cun
cuniculus
cunningham
cuore
cupe
curchy
cure
cures
cureuil
curial
curie
curieux
curite
curitiba
curlu
curly
current
curruca
curseu
curseus
curtis
curtiz
cus
cusano
cuscuta
cusson
cut
cute
cutif
cution
cutsen
cuve
cuvelier
cuvelles
cuvillier
cuyer
cuymer
cv
cvalier
cvaliers
cwacq
cwards
cwe
cwgc
cxg
cy
cyaneus
cyanistes
cyanopica
cyanurus
cyanus
cycle
cyclisme
cyclisse
cygne
cygnus
cynes
cyngnes
cypre
cyprinidae
cyprinide
cyprinus
cyr
cyril
cyrille
cyrillique
cyrl
cysoing
cythe
cz
cze
czech
cœli
cœu
cœubert
cœuchie
cœur
cœurs
cœuvres
d
da
dachy
dacteu
dacteur
daction
dada
dadai
dag
dagincourt
dagnac
dagobert
dagogique
dagogue
dague
daguerre
dahlia
dai
daiboken
daikaisen
daille
dailles
daillon
dailymotion
dainche
dainger
dains
dainville
dainvilloise
daire
daisai
daisuke
daiveu
dake
dakota
dal
dalbiac
dale
daler
dales
daleus
dali
dall
dalla
dallaches
dalle
dallery
dalles
dalmau
dalton
damasch
dambry
dame
dameclokie
dames
damien
damiens
dammartin
dampremy
dan
dana
dance
dances
dancing
dancourt
dancreucourt
danda
dandin
danel
danemark
danforth
danger
dangerous
danicourt
danie
daniel
daniela
daniele
danmark
danme
danmes
dannes
danniel
dannoe
danny
danoe
dans
danse
danser
danses
danseu
danseuse
dant
dante
danube
danvin
dany
dao
daphne
daphnis
dar
darain
dard
dare
dargent
dargies
dargnies
darie
dariel
darin
darinne
darinnes
darins
dario
darius
darji
dark
darkest
darkgrey
darmstadt
darnal
darras
darsy
darwin
das
dat
data
database
datant
date
dateformat
dates
datette
daubigny
dauby
daucus
daufresne
daulle
dauphin
dauphine
dauques
dausias
daussy
dauzat
davaine
dave
david
davide
davis
davne
davy
dawe
dawson
day
dayan
dayre
days
db
dbairisch
dc
dche
dd
ddin
ddins
ddlx
ddr
de
dea
dead
deal
dean
dear
death
deauville
debacker
debats
deblonde
deboe
debout
debrabant
debras
debrie
debussy
dec
decagny
decaocto
decarrie
decca
dech
dechl
dechriste
dechy
decin
decine
decins
decius
decle
declercq
decottignies
decouverte
decques
decroix
dedans
dee
deeds
deep
deese
deesse
default
defaut
defebvre
defer
deffe
defontaine
defuncte
deg
degas
degli
degrave
degre
degroisilles
dehaisnes
dehaussy
dehors
dei
deins
deixa
del
dela
delabre
delachaux
delacour
delacroix
delafond
delafons
delahaye
delahousse
delancre
delannoy
delaporte
delassus
delattre
delavaux
delaware
delbarre
delbouille
delcourt
dele
delegorgue
delegorguei
delerive
delesques
delestraint
delevoye
delguste
delhaye
delhi
delichon
delignie
delille
delis
dell
della
delle
dello
delloye
delmaire
delmas
delme
delmotte
delos
delphine
delplanque
delporte
delta
delteil
deluxe
delvaux
delzenne
dem
demailly
demain
demand
demande
demander
demeure
demeures
demi
demilly
deminder
demodex
demographie
demont
demontbreton
demuin
den
denacre
denain
dendre
dendrocitta
dendrocopos
deneubourg
deneulin
denier
deniers
denin
denis
denise
dennlys
denoe
dens
densite
dent
dente
dentelle
dentu
denys
denœux
deo
dep
depardieu
deparis
depoilly
depre
deprez
depuis
dequesne
dequevauvillers
der
derache
derain
deransart
deray
derelitta
dereume
dergny
derie
deries
derni
dernie
dernier
derniers
derny
derrie
derycke
des
desandrouin
desbordes
descamps
descartes
descendant
descendants
descente
deschindant
descloquemant
descripcion
descriptif
description
descriptive
deseille
design
desk
desmaris
despinoy
desprez
desrousseaux
desruelles
desrues
dessain
dessaint
dessar
dessart
desse
dessert
desservie
dessin
dessinant
dessinateu
dessinateurs
dessine
dessins
dessous
dessus
destin
destine
destino
destins
desvres
det
detail
details
detection
deu
deufin
deuil
deul
deule
deulin
deum
deus
deusie
deusse
deute
deutsche
deutschen
deutscher
deutschland
deuville
deux
deuxie
deuze
dev
devait
devant
devauchelle
devaux
devenir
devient
devil
devillepoix
devillers
devin
devint
devise
devisme
devismes
devnu
devos
devraine
dewailly
dex
dezert
dfors
dge
dgermains
dgermannike
dgermannikes
dgerre
dgeule
dgi
dgidant
dgillaume
dgise
dgiseus
dgnincourt
dh
dhouailly
di
dia
diab
diabe
diable
diacritike
diacritikes
diagramme
diaire
diaires
diale
dialectal
dialectale
dialectales
dialecte
dialectes
dialectologie
dialectologique
dialektologie
dialet
dialogue
dialogues
dialoques
diamant
diame
diana
diane
diap
diape
diaporama
dias
diat
diate
diathe
diaule
diaye
dic
dicace
dicateu
diccion
diccionairaedje
dicentra
dich
diche
dichon
dichons
dichten
dicimbe
dicion
dicionnoe
dicions
dicis
dick
dicke
dickinson
dico
dicte
dictin
dictine
dictinne
dictins
diction
dictionary
dictionnaire
dictionnaires
dicton
dictons
didier
didot
die
diego
dien
dienne
diens
dient
dieppe
dies
diesbach
dieses
dieterle
dietrich
dieu
dieux
diex
dife
diffe
different
difficile
difficiles
difficulte
diffuse
diffusion
difice
difices
difiches
difie
difieur
difitchulte
difrinche
difrint
difrinte
difrintes
difrints
difros
difusion
dige
digest
digital
digitale
digitalisation
digne
dignu
digue
dijon
dikcion
dikkebusch
dile
dili
dille
dimainch
dimanche
dimension
dimensions
diminche
diminches
diminsions
diminue
dimpre
din
dina
dinant
dinastie
dinbourq
dinbreu
dinch
dinchite
dinde
dindger
dindo
dindon
ding
dingne
dinkerk
dinne
dino
dins
dinse
dinsite
dint
dinte
dintoe
dints
dio
dioce
dioche
dioica
dion
diorama
diplo
diplomate
diplomatike
diplomatique
diprion
diptyque
dique
dir
dira
dirai
dire
direccion
direct
directe
directement
directemint
directeu
directeur
directeurs
directeus
direction
directory
directrice
diren
dires
diries
dirige
dirigeabe
dirigeabes
dirigeable
dirigeant
dirigeants
dirigeu
dirigeus
dirigints
diro
dirot
dirt
dis
disant
disc
dischipe
dischipes
discipes
disciple
disciples
discipline
disciplines
discografie
discographie
discography
discours
discursif
discussion
discussions
dise
diseu
diseux
disjonctif
diske
diskes
disney
disoait
disoe
disparai
disparicion
disparition
disparu
disparues
disparus
dispe
disperse
display
disponible
disponibles
dispose
disposicions
dispositif
dispute
disputes
disque
disques
dist
distance
distanche
distillerie
distinccion
distinccions
distingue
distribucion
distribue
distribution
district
districts
dit
ditaire
ditaires
ditandre
dite
diter
diterrane
dites
diteu
diteur
diteurs
dith
dition
ditions
dits
ditte
diu
diure
dius
div
diva
dive
diverginte
divergintes
divers
diverse
diverses
diversifie
diversite
divertimento
divided
divine
divinite
divinne
divion
divise
diviser
division
divisions
divorce
divox
dix
dixie
dixieland
dizincourt
dizionario
diztte
dizzy
dj
dja
djale
djaloux
djan
django
djapone
djazz
djazzing
dje
djermanike
djerre
djerres
djeules
djeume
dji
djie
djigne
djilmont
djimicourt
djincourt
djipe
djipyin
djise
djitare
djitarisse
djiyincourt
djiyo
djlise
djo
djote
djou
djoucourt
dju
djuiyinne
djumappes
djumint
djunme
djurbize
dl
dlettes
dlo
dmain
dmande
dmandes
dmandoe
dmeure
dmeurer
dmeurouot
dmeurtte
dmi
dmin
dminde
dmis
dmoe
dmoue
dnain
dnis
do
dobre
doc
docteur
docteus
doctor
doctoral
doctorat
doctrine
doctrinne
document
documentaire
documentation
documents
documint
documintacion
documintoe
documints
dodds
dodlinville
dodo
doe
doet
dog
dogme
dogts
dohem
dohin
doi
doigt
doigts
doingt
doint
doisy
doit
dol
dole
dollar
dollars
dolmabahc
dolmabahce
dolme
dolmen
dolor
doloy
dom
domaine
domaines
domainne
domani
domaniale
domart
domartin
dome
domenica
domenico
domestica
domesticus
domestique
domestiques
domice
dominacion
domine
domingue
domini
dominica
dominicain
dominique
domino
dominois
dominus
domitien
dommag
dommart
dommartin
domon
dompierre
domre
domvast
don
dona
donald
donat
donatello
donation
donc
donchel
done
donen
dong
donie
donien
donjon
donmaine
donmaines
donmainne
donmainnes
donmart
donme
donminnacion
donn
donna
donnant
donne
donnege
donner
donnera
donnez
donon
dons
dont
dontcheur
donvo
donzoko
door
doors
dop
dor
dorade
dorado
doraemon
dorate
dordrecht
dore
doremus
dorf
dorgele
doris
dorival
dormant
dorment
dormoire
dorothe
dors
dorsenne
dos
doshin
dosse
dossier
dossiers
dote
doto
dotremont
dots
dottignies
dou
douai
douaird
douaisien
douaisienne
douaisiennes
douard
douassans
doube
doubes
double
doubles
doublons
doubs
douc
douce
doucet
douch
douche
douchy
doudiauville
doudou
doue
douglas
douilly
doul
douleurs
doullens
douloureuses
doume
doupe
doupes
douqu
dour
dourches
dourges
dourier
dourlens
dourlin
dourlinnoe
dourlinoe
dous
douse
dousk
dousqu
dousque
doute
douves
douvre
douvrin
doux
douze
douzie
dover
down
downtown
doyen
dp
dpis
dpt
dpu
dpui
dpuis
dq
dr
drache
dracunculus
dragon
dragons
drainage
draine
dral
drale
drales
drama
dramatike
dramatique
dramatiques
dramaturge
drame
drames
drap
drapeau
drapeaux
drapiau
drapieu
drapieus
draps
drawings
dre
dream
dreams
dredon
dreit
dresden
dresse
dresser
dreu
dreuil
dreux
drew
dreyfus
dric
drie
driencourt
dries
drionville
driscoll
drive
driyes
drizard
dro
drocourt
droe
droit
droite
droits
droixhe
drole
dromeni
drop
drot
drots
drouan
drouot
droz
drucat
drucken
drucot
druides
drummond
drums
dryade
dryincourt
ds
dsc
dseur
dsou
dsous
dssur
dsu
dsur
dsus
dtte
du
dualisse
dubart
dubius
dubois
dubuffet
dubuisson
dubz
duc
ducache
ducacion
ducal
ducale
ducass
ducasse
ducasses
ducastelle
ducateu
ducation
duccio
duchamp
duche
duchesne
duchesse
duck
duclercq
ducrocq
ducros
ducrotoy
ducs
duculot
ducum
dudon
dudul
dudule
due
duel
dues
duet
duets
dufay
duflos
dufour
dufournet
dufrane
dufre
dufrien
dufy
dugowson
duhamel
duhayon
duhem
duire
duisans
duit
duite
dujardin
duke
dulac
dulait
dulphy
dumanoir
dumarquez
dumas
duminy
dumon
dumont
dumoulin
dune
dunes
dunke
dunkerque
duo
duomo
dupe
dupleix
duplessis
dupond
dupont
dupre
dupuis
duquef
duquesne
duquesnoy
duquet
dur
durable
duran
durand
durant
dure
durepaire
durer
dures
durey
durieux
during
durint
durmint
durocher
durs
durso
durte
dury
duse
dusqu
dusque
dussaussois
dut
dutche
duteil
dutertre
duthillœul
duthoit
dutilleux
duval
duvosquel
dux
duyck
dv
dvant
dvd
dve
dvenir
dvenu
dvenus
dvenute
dvers
dveye
dvienntte
dvient
dvint
dvise
dvisoe
dvnir
dvnu
dvoe
dvor
dvyint
dwane
dward
dworze
dx
dxf
dy
dyck
dyincourt
dylan
dynastie
dz
dzeur
dzoin
dzou
długi
e
ea
eadweard
ean
earl
early
earth
east
eau
eaucourt
eauette
eaufrance
eaux
eberhard
ec
ecault
eccle
ecclesiae
ecco
ecg
ech
echantillon
eche
echl
echo
echti
eclair
ecm
ecole
ecomard
ecossais
ecosse
ecquedecques
ecquemicourt
ecques
ecrevisses
ecsil
ecsimpe
ecsimpes
ectares
ecuador
ed
eddie
eddin
eddins
eddy
eden
edgar
edhec
edi
ediciones
edicions
edilivre
edit
edited
editeu
editeur
edith
edition
editions
editora
editore
editoriale
edizioni
edmond
edmont
edmund
edo
edoardo
edoc
edouard
edpis
edpui
edpuis
eds
edseur
edsous
edsu
edsus
edu
eduard
eduardo
educac
education
edvant
edvers
edvise
edward
edwin
edz
edzeur
edzire
ee
ef
effarvatte
effectivement
effet
effigie
effraie
efloras
eg
eglise
eglises
egmont
egnies
ego
egretta
egze
egzelinche
egzimpe
egzimpes
egzisse
egziste
egzistinche
egzode
eh
ehess
ei
eiffel
eiga
eight
eiko
eileen
ein
eine
einem
eines
einfant
einfu
einguezingue
einn
einne
eins
einstein
eintailleu
einwohnerzahl
ej
ek
ekche
eklitra
el
ela
elder
ele
electric
electronique
electroniques
element
elements
elena
eleonor
elia
eliane
elie
elisa
elisabeth
elisabetta
elise
elisha
elissende
eliza
elizabeth
ell
ella
elle
elles
ellezelles
ellington
elliot
elliott
ellipse
ellis
elodie
eloi
eloy
els
elsa
else
elton
eluard
elver
elvire
elzi
elziele
em
emancipateur
embar
embarquement
emberiza
embouchure
embry
eme
emerald
emi
emile
emilie
emilio
emily
emission
emissions
emma
emmanuel
emmanuelle
emn
empereur
empire
emploi
employe
emprise
ems
emulation
emzure
en
ence
enceinte
ences
enchante
enclo
enclos
enclus
encore
encrage
encre
encreve
encyclope
encyclopedia
encyclopedie
end
ende
ending
endivia
endormis
endroit
ene
enfance
enfant
enfantines
enfants
enfer
enfin
enfuient
eng
engage
engagement
engelaere
enghien
england
english
engloys
engrand
engraver
engraving
enguerrand
enguinegatte
enieu
enjolras
enle
enlumineurs
enluminure
enluminures
enn
enne
ennemi
ennemis
ennes
enoch
enque
enquin
enrage
enregistre
enrico
ens
ensae
ensaladas
enseignant
enseignement
ensemble
ensimbe
ensta
ensuite
ente
entente
enterre
entie
entier
entomoce
entotsu
entour
entourage
entr
entrai
entrammes
entre
entreprise
entretien
entretiens
envers
environ
environnement
environnemintal
environs
envol
envoye
envoyer
enzo
eo
eon
ep
epehy
epervier
epi
epic
epinoy
episode
episodi
epistola
epitech
epling
epn
epops
epoque
eppeville
eps
eq
equ
equus
er
era
erbaut
erbe
erbes
erbutche
ercette
erche
erchette
erchine
erchu
ercole
erconnoe
erconstitucion
erconstruite
ercontche
ercueils
erde
erdre
ere
erflus
erfoaichon
erfoaire
ergint
ergnies
ergny
ergo
ergroupe
eric
erica
erich
erik
erika
erithacus
erlandais
erlativite
erlie
erligieus
erligieuse
erligieuses
erligion
erligions
erlike
erme
ermele
ermentrude
ermitache
ermitage
ermite
ermontant
ermonte
ermouvoe
ernaic
ernard
erne
ernest
ernestine
ernouf
ernouvieu
ernst
eronne
eros
erpe
erpre
erprind
errance
errante
erreur
erreurs
ersintimint
ertabe
ertaud
ertcheuiller
erterduccion
erterduction
erterduit
ertirer
ertombe
ertour
ertraduccion
ertraduit
ertruve
ertruvoe
erv
ervient
ervoe
ervue
erythronotus
es
esa
esad
esaint
escal
escala
escalade
escalier
escalles
escampes
escape
escarpelle
escatologie
escaudain
escaudrie
escaut
eschmeyer
esclavage
esclave
escofier
escolas
escouchy
escre
escrebieux
escrit
esculptchure
esculpteu
escurial
escus
esgonde
esistenziali
eska
eske
esky
esla
eslon
esmangart
esme
esn
esnault
esnes
esox
espace
espacement
espaces
espache
espaches
espagne
espagnol
espaingne
espaingneul
espaingneule
espan
espangne
espanne
espe
espectac
espectacloaire
esperance
esperanto
esperts
esplechin
esploreu
esplosion
espoe
espoir
esposito
espression
esprit
esprits
espritue
esquelbecq
esquerchin
esquerdes
esquisse
esquisses
esr
esront
ess
essai
essais
essars
esse
essential
essentiellement
essincie
essonne
est
estabiliser
estabilite
estacion
estado
estaimbourg
estaimpuis
estaires
estaminet
estampe
estandard
estandarte
estans
estate
estatue
estatues
estchulptures
este
esteile
estelle
esternes
estevelles
esthe
esther
estienne
estile
estimation
estinsion
estoires
estoit
estrabourc
estrait
estraits
estrasbourc
estrate
estre
estroaire
estroait
estructure
estruvo
estuaire
estyle
et
etaples
etc
etchettes
etchipe
ete
etelfay
etes
ethnographique
ethnologie
ethnologiques
etienne
etn
etnir
eton
etornieu
etots
etourgneau
etous
ets
etsuko
etterbeek
etude
etudes
etymologie
etymologisches
eu
euch
euche
euchtte
eud
eudes
eudjusse
eudpis
eufe
eufes
euge
eugene
eugies
eugnon
eugnons
euil
eul
eulalia
eulalie
eule
eulogius
eun
eune
eunne
euphe
euphrasie
eur
eure
eureille
eures
euro
europaea
europaeus
europe
european
europeana
eurs
eurtie
eurtile
eurylaimidae
eurylaimides
eus
euse
euskadi
euskal
eustache
eustachie
eut
eute
eutel
eutes
eutie
eutieule
eutre
eutriche
eutuile
euve
euves
euvrie
eux
ev
eva
evange
evanjil
evans
evasion
eve
evelyn
evelyne
evening
ever
everest
every
everything
evidence
ew
ex
examen
exampe
exampes
example
exception
exceptionnelle
exceptions
exclusifs
excubitor
excursion
exe
exemplaires
exemple
exemples
exercice
exhibition
exhumation
exile
eximpe
eximpes
exingue
existe
exode
exp
expansion
expe
experience
experimental
expire
explication
explicit
explique
exploits
explore
explosion
expo
expose
exposition
expositions
express
expression
expressions
exprime
exte
extended
extension
extent
externe
externes
extraction
extrait
extraits
extraordinaire
extre
exupe
eyck
eye
eyes
ez
eznice
ezz
f
fa
fabart
fabe
faber
fabes
fabien
fabienne
fable
fables
fabliau
fabliaux
fabre
fabricacion
fabricants
fabrication
fabrice
fabrike
fabrique
fabriques
fabrizio
fabuleux
fac
facade
facciamo
facciata
faccions
face
facebook
fachade
fache
faches
fachime
fachon
fachons
facile
faciles
facilite
facius
facolta
facon
facons
facques
facquier
facsimile
fact
facta
facteur
facteurs
facto
factory
factum
facultatif
faculte
fado
faes
fagne
fagnes
fagots
fagus
fai
faidherbe
failevic
faille
faine
fair
fairbanks
faire
fairfax
fais
faisait
faisan
faisanne
faisant
faisoait
faisoaitte
faisoit
faisons
faisot
fait
faite
faites
faith
faits
faiz
fakir
falaise
falaises
falco
falconiformes
falcucci
fale
falize
fallax
falling
faloe
falqui
false
falvy
fame
famechon
fameux
famie
famiglia
famile
familiaris
familier
famille
familles
family
famous
fampoux
fan
fanchon
fanet
fanfare
fanfares
fanme
fanmes
fanmile
fanmille
fanny
fant
fantaisie
fantaisies
fantasque
fantastique
fantastiques
fantasy
fanto
fants
fao
faquier
far
farbus
farce
farces
farceur
farciennes
fard
fare
fares
farewell
farinaux
farine
farlouse
farmer
farsin
fasce
fascicule
fascicules
faso
fast
fastoul
fatal
fatals
father
fatima
fatrasie
fats
fatto
fatua
faubourg
faubourgs
faucon
faudra
faunaeur
faune
faunistique
fauqu
fauque
fauquembergue
fauquembergues
fauquimbergue
fauquissart
faurce
faus
fausse
fausses
faust
faut
faute
fauvaux
fauvette
fauvisme
faux
favart
favie
favino
favorite
favrole
fay
fayard
fayin
fci
fe
feat
feature
featuring
feb
febvin
fecques
fecture
federacio
federal
federation
federico
fei
feignies
feimm
feimme
feimmes
feinal
feine
feira
fel
felice
felipe
felis
felix
feliz
feller
felleries
fellini
female
feme
femelle
femme
femmes
fene
fenme
fense
fensterbilder
fenzi
fer
fera
ferai
ferand
ferb
ferdi
ferdinand
ferdinando
ferfay
ferilli
ferina
ferme
fermes
fermette
fermeture
fermier
fermintacion
fermont
fernald
fernand
fernando
ferne
feront
ferques
ferrain
ferrand
ferrari
ferre
ferri
ferrie
ferroviaire
ferruzzi
ferry
ferte
fes
fest
festa
festival
festivals
festivite
fet
fets
feu
feubourq
feuchy
feuillache
feuille
feuilles
feuilleton
feuillets
feuillien
feules
feume
feumes
feuminin
feuminine
feurre
feurville
feus
feusille
feut
feutche
feute
feuvette
feuvettes
feuvin
feux
fevin
feydeau
ff
ffm
ffroe
ffsa
ffwl
fi
fiable
fiables
fiacre
fiate
fibel
fibules
fica
ficache
ficcion
fice
fichau
fiche
fichelle
fiches
ficheu
ficheux
fichie
fichier
fichiers
fictifs
fiction
fide
fidel
fides
fidit
fidjure
fie
fief
fieffes
fiefs
field
fien
fiennes
fienvileu
fier
fiers
fiesta
fiette
fieu
fieusses
fieux
fifine
fig
figaro
fighting
figlie
fignie
figuie
figure
figures
figurez
fil
fila
filarmonique
filature
file
files
filet
filetype
filho
filiacion
filintropique
filipe
filippo
filistins
fill
fille
filles
fillie
film
filme
filmografie
films
filolodjie
filoloque
filome
filose
filosofe
filosofes
filosofie
filosofike
fils
fin
final
finale
finalemint
finales
finalisse
finalmint
finance
finanches
finche
find
finde
findeu
findu
fine
fineuzon
fingers
fini
finicion
finie
finir
finis
finit
finite
finitif
finitivemint
finlande
finlinde
finme
finmes
finne
finno
finnoe
fins
finse
finses
finseu
fiodale
fiodalite
fiorella
fipq
fire
firefox
firenze
firma
firmin
firminie
firminus
firminwary
first
fis
fiscale
fiscalite
fiscellaria
fischbacher
fish
fishbase
fisher
fisherfolk
fisherwomen
fishes
fisichien
fisichiens
fisicien
fisike
fisikes
fisique
fissiau
fist
fit
fitche
fitzgerald
fiu
fius
five
fives
fixe
fixes
fiye
fl
fla
flag
flagelle
flamand
flamande
flamands
flamant
flamboe
flamboyant
flame
flamenca
flamenco
flament
flamiche
flaminc
flamind
flamingos
flamink
flaminke
flaminkes
flamint
flammarion
flamme
flammeus
flan
flanchet
flancs
flande
flandes
flandre
flandres
flandriae
flandrin
flane
flanmes
flanmike
flanmind
flanminke
flaque
flat
flate
flaubert
flava
flavius
fle
flecha
fleischmann
flemish
flencamp
flers
fles
flet
fletcher
fleu
fleufe
fleufes
fleur
fleurba
fleurie
fleurimond
fleurons
fleurs
fleuru
fleurus
fleury
fleuve
flexion
flexions
flibieucourt
flibustier
flic
flichcourt
flickr
fliers
flight
flinde
flindes
flines
flint
flip
flipe
flipeville
flipo
flippe
float
flochel
flora
florabase
flore
florence
florent
florentin
florian
floride
florimond
florin
florinche
florine
florintin
floris
floristique
florit
floruit
flote
flots
floucourt
flouriville
floury
flower
flu
fluide
flute
flutisse
fluviatilis
fluy
fly
flying
fm
fn
fo
foai
foaiche
foaichon
foaire
foaisant
foaisoait
foaisoe
foait
foaite
foaites
foaitette
foaits
foaitte
foc
foch
foe
foi
foie
foins
foire
foireuse
fois
foit
foix
fol
fole
folie
folies
folio
folios
foliosum
folk
folkestone
folklore
folklorique
folkloristes
folle
folles
folleville
follu
foloe
folquin
folu
fonc
fonccion
fonccionner
fonce
fonche
fonchette
foncier
fonction
fonctionnement
fonctionner
fond
fondacion
fondamental
fondamintale
fondamintals
fondateu
fondateur
fondateus
fondation
fonde
fonder
fonderie
fonds
fondu
fone
fonique
fonkcion
fonkcions
fonologike
fons
fonseca
font
fontain
fontaine
fontainebleau
fontainne
fontainnes
fontan
fontana
fontanne
fonte
fontenay
fontenelle
fontes
fontin
fonts
fontsize
foo
football
foqu
foque
for
foraine
forbidden
force
forceville
forch
forche
forches
forcifier
ford
fordinoe
fordouf
fore
forest
foreste
forestel
forestier
foret
forets
forever
forge
forges
formacion
forman
formant
format
formation
formations
formats
forme
former
formerie
formes
formicariidae
formigny
formint
formule
formules
fornari
forni
forrage
fors
fort
forte
fortel
forteresse
fortes
fortificacions
fortification
fortifications
fortifie
fortre
forts
fortune
forum
forums
forville
fos
fosme
fosse
fosses
fosseux
fossiles
fosso
foster
fot
fotbale
fotbaleu
fotebale
fotebaleu
foteballeu
foto
fotografe
fotografes
fotografie
fotografies
fotografique
fotos
fotote
fou
fouaire
fouait
fouan
fouant
foucart
foucaucourt
foude
foue
fouesnant
fouet
foufie
fouge
fougnie
fouille
fouilles
fouilloe
fouilloy
fouine
fouis
fouke
foule
foulies
foulon
foulques
foundation
fouos
fouque
fouquereul
fouquet
fouquie
fouquier
four
fourcigny
fourdrinier
foure
fourmacion
fourme
fourmer
fourmes
fourmi
fourmies
fourmis
fourmtte
fournaise
fourne
fourneau
fournes
fournier
fouroule
fourre
fourrure
fours
fourville
fous
foutin
fox
foyer
fp
fr
fra
frac
fragiles
fragments
fragonard
fraikin
frain
fraine
frainne
frainneville
frais
fram
framecourt
frameless
frameries
framicourt
frampas
framri
framrie
fran
franc
franca
francais
france
francesca
francesco
francey
francfort
franchais
franche
franchie
franchike
franchises
franchoais
franchoaise
franchoe
franchoise
franchos
franchoue
francia
francie
francine
francique
franciques
francis
francisco
franck
franco
francoe
francois
francoisbeauvy
francophone
francoprovenc
francorum
francqueville
francs
franeker
frank
franke
frankes
frankfort
frankfurt
franklin
frankreich
franleu
franme
franque
franqville
frans
fransart
franseu
fransu
franvili
franvillers
franz
franzo
frase
frases
frasnes
fratercula
fraternite
fraudeur
fre
fred
freddy
frederick
free
freelang
freeman
freesans
freibord
freight
freme
french
frencq
fresne
fresnes
fresnicourt
fresnot
fresnoy
fresque
fresques
fressenneville
fressin
fretin
frette
frettecuisse
freuche
freume
freuvile
freuvint
freux
freuyelle
frevillers
frevin
fri
friart
friaucourt
fricadelle
fricamp
fricande
fricasse
frichon
fricourt
friedrich
friedrichsdorf
friends
frieseke
frikou
frileuse
frilleuse
frimousset
frincate
frince
frinchais
frinche
frinches
frincho
frinchoe
frinco
frincofone
frincofones
fringilla
fringillidae
frinse
frion
friperie
friquet
frireulles
frisco
frise
frisell
frison
frisona
frisse
fritche
frites
frits
fritz
fro
froe
froid
froidmont
froimont
froissart
froissy
from
fromache
fromage
fromagerie
froment
fromulus
front
frontalie
frontcover
frontenis
frontie
fronton
frost
frouhin
froumache
froumaches
froumage
froumages
froumion
frouo
fruche
frucourt
fruges
frugilegus
fruit
fruitiers
fruits
frunme
frut
fruticosa
fruts
frydland
fs
ft
ftp
ftpf
fu
fuch
fuche
fudo
fue
fuego
fugie
fugue
fui
fuille
fuir
fuit
fuitte
fuji
fujie
fukasaku
fukuhara
fukushima
fulica
fuligula
fuligule
full
fulvia
fumant
fume
fumi
fumie
fumiko
fun
functe
fundamental
fune
fungi
funme
funt
fuori
fur
furent
furet
fureur
furin
furnariidae
fursy
furuhata
furzi
fus
fusain
fusako
fusca
fuschien
fuscianus
fuscien
fuscus
fuse
fuseau
fusil
fusille
fusion
fusione
fusionne
fust
fustinntte
fut
futari
futher
futur
future
fville
fy
fyin
fyloge
fzant
fzoe
g
ga
gabarit
gabriel
gabriele
gabrielle
gabriels
gache
gachet
gacion
gade
gadin
gadins
gadus
gae
gaetano
gage
gagnard
gagne
gagner
gai
gaigne
gaigner
gaignonnnie
gaillard
gaillette
gaillettes
gaillin
gailly
gaine
gaingne
gaingner
gainsbourg
gaius
gal
gala
galaad
galacsie
galaffe
galais
galante
galata
galaxy
galbraith
gale
galement
galemint
galereau
galericulata
galerida
galerie
galeries
galerius
galeriye
gales
galets
galibiers
galibot
galican
galiche
galichien
galile
galite
galithe
galithes
galithike
galithikes
galithiques
galland
galle
gallerie
gallery
galles
gallia
gallica
gallicante
galliformes
gallimard
gallina
gallinace
gallinago
gallinula
gallo
galloe
gallois
gallus
galmint
galo
galoe
galop
galopin
galrie
gama
gamache
gamaches
gamay
gambade
gambes
gambette
gambier
gambra
game
gamin
gamme
gammes
gan
gand
gandhi
gandspette
gang
gangsterboys
ganne
gannes
gannet
ganryu
gant
gantillon
gants
gapeinne
gapennes
garanderie
garbarek
garbi
garc
garchon
garchons
garci
gard
gardant
garde
garden
gardes
gardez
gardien
gardin
gardins
gardner
gardoe
gardon
gare
garenne
garennes
gargantua
gargantuo
garibaldi
garinei
garland
garnier
garnison
garnoule
garonne
garou
garreta
garrot
garrulus
gars
garte
gary
garzanti
garzetta
garzette
gascogne
gascon
gaspard
gasque
gaste
gaston
gastronomie
gat
gatche
gate
gates
gatif
gatineau
gation
gatte
gatto
gauche
gaucher
gauchin
gaud
gaude
gaudechart
gaudefroy
gaudiempre
gauheria
gaule
gaules
gaulle
gauloe
gaulois
gauthier
gautier
gavia
gaviiformes
gavin
gaviot
gavre
gay
gayant
gayante
gayantin
gayantine
gayants
gayole
gaz
gaze
gazette
gazettesports
gazeuses
gazleu
gazon
gbs
gce
gd
gdan
gdansk
ge
geai
geant
geantheque
geants
gebruiker
gebruker
geciteerde
gedichte
geert
geins
gekijo
gele
gelez
geluck
gema
gembloux
gemma
gen
gende
gendes
gendre
gene
genealogie
genealogy
geneanet
geneawiki
general
generale
generalitat
generated
generation
genevie
genevoix
gengembre
genie
gennes
genovese
genre
gens
gent
gente
gentien
gentile
gentilhomme
gentilhommie
geo
geoffrey
geoffroy
geografici
geois
geoise
geoleplubo
georg
george
georges
georgette
georgio
ger
geraincourt
gerais
geraldine
gerard
gerberoy
gerhard
germain
germaine
german
germanische
germannikes
germany
germinal
gerry
gers
gershwin
gertrude
gervais
ges
geschichte
gesellschaft
gession
gest
gesta
geste
gestion
get
gette
getty
gettysburg
getz
geujon
geuljans
geus
gh
ghedini
ghent
gheux
ghibli
ghienne
ghilain
ghin
ghislain
ghislaine
ghlin
ghost
ghyvelde
gi
giale
giancarlo
gianluca
gianni
giant
giants
giard
giature
gibert
gibi
gibier
gibraltar
gica
gie
gien
gienne
gies
gieu
gieus
gif
giga
gigi
gigottos
gil
gilbert
gilberte
gilberto
gildas
gildo
gilet
gille
gilles
gillespie
gillets
gilliam
gime
giment
gimint
gimond
gin
gina
ginche
ginchy
gindaire
gindarmrie
ginde
gindes
gindoaire
gindoe
gine
ginme
gino
ginre
ginres
gins
ginsberg
gint
gintelle
ginvile
ginville
ginza
giochi
gioco
giocoso
gioia
gioielli
gion
gional
gionale
gionales
gionaliste
gionaux
gionnaire
gionnaires
gionnales
gions
giordano
giorgio
giovanni
giovannini
gipte
gir
girard
giraud
girl
girls
gironde
girouette
giry
gis
gisd
gise
gisseur
giste
gistre
gistremints
gitarre
gite
gitime
gitimisse
gitimite
gitinme
giuda
giudici
giuffre
giugno
giulio
giuseppe
give
givenchy
givinchy
givre
giya
gje
gl
glace
glachant
glache
glagolitike
glaine
glaines
glaire
gland
glandarius
glaneuses
glasgow
glass
gle
glemint
glenn
gler
gles
gleude
gli
gligeront
glimont
glin
glincheus
gline
glinne
glinnes
glise
glises
glisse
glisu
global
glocester
gloe
gloire
gloria
glorieus
glorieux
gloses
glossa
glossaire
glou
glouot
gmina
gn
gne
gner
gnes
gneu
gneus
gni
gniafs
gnie
gnier
gno
gnois
gnostikes
gnu
gny
go
gobain
gobelin
gobelins
gobemouche
gobert
gobeux
gobio
goblet
goblin
goc
gocher
gochier
gochliye
gociants
god
godaer
godal
godard
godault
godeberte
godefroy
godewaersvelde
godewarsvelde
godfray
godfroe
godfrouo
godinieu
godiva
gododdin
goe
goemon
goes
goetals
goethe
goff
goffaert
gofroe
gog
gogh
gohelle
goire
gojuman
gold
golden
goldoni
goldsmid
golf
golfe
goliath
gomart
gombo
gomer
gomes
gomicourt
gomie
gomm
gomme
gommecourt
gommegnies
gomont
gonaye
goncourt
gone
gonhin
gonie
gonin
good
goodbye
google
goose
gorce
gorcum
gordianus
gordon
gore
gorge
gorges
gorgue
gorguette
gorie
gorien
gories
gorise
goriser
gorisera
goron
gorre
goscini
goscinny
gosciny
gosha
gosho
gosnay
gospel
gossaert
gosscinny
gosse
gosselin
gossen
gosseu
got
gote
gothique
gothiques
gotike
gotique
gots
gottfried
gou
gouache
gouaches
goudallier
goudezki
gouget
goujon
gould
goulding
goule
goulue
gounod
goupil
gourmain
gourmande
gourmelin
gournay
gout
goute
goutt
goutte
gouv
gouve
gouvernance
gouverne
gouvernement
gouvernemint
gouverneur
gouvernmint
gouvion
gouy
gouyasse
gov
gove
governemint
govine
goya
gr
gra
gracchus
grace
graces
grache
graciane
gracieuse
gracion
grade
grafe
grafie
grafies
grafike
grafikes
grafique
grain
graincourt
graind
graines
grainn
grainne
grainnes
grains
gral
grale
gram
gramin
gramint
grammaire
gramme
grammes
grammy
gran
grand
grandcourt
grande
grandes
grandfre
grandi
grandiers
grandjean
grandmint
grands
grandvilliers
grandviye
granflo
grange
grangricardon
granier
granme
granmin
granmint
granmints
granmoaire
granmoe
granne
grannes
grant
grante
granted
granth
granviye
grap
graph
graphics
graphie
graphike
graphique
graphiques
gras
grass
grasse
grasset
grassouillet
gratibu
gratien
gration
gratte
grattepanche
gratuites
grau
grauet
grauette
grauhe
gravado
grave
gravelines
gravelot
gravelote
gravensteen
graves
gravet
graveu
graveur
graveurs
gravinchons
gravis
gravite
gravle
gravure
gravures
gray
gre
great
greater
greatest
greber
grec
grecb
greco
grecque
grecs
green
greenfield
greenwood
grek
grenas
grenier
grenoble
grenouille
grenouilles
grer
gresset
gressive
greue
greugelles
greuni
greve
grevin
grey
gri
gribeauval
gricourt
gridcolor
grie
grigny
grille
grilles
grillon
grimanthioe
grimmond
grimo
grimpaire
grimpart
grimpe
grimpereau
grimpette
grin
grinche
grind
grinde
grindel
grindes
grindmint
grinds
gringalou
gripp
gris
grisard
grise
grisette
griseus
grisou
grisse
grive
griza
grm
gro
groe
groenerei
groening
groenland
groll
groove
grope
gropes
gros
grosbois
groseillier
grosellier
grosjean
gross
grosse
grosses
grossier
grosz
grotesque
grotte
grou
grouche
groue
groufiye
ground
group
groupe
groupemint
groupes
groups
grous
grousse
grove
gru
gruiec
gruiformes
grunge
gruson
gruss
gruuthuse
gry
gryson
gsell
gsus
gsw
gu
gua
guadeloupe
guarbecque
guarda
gudecourt
gudule
gue
guemps
guenie
guerard
guermond
guernay
guerne
guernesey
guernierd
guernouillard
guernouilles
guerre
guerres
guerville
guerze
gues
guesclin
guesnain
guest
guet
guetteur
gueuche
gueufe
gueugues
gueul
gueulard
gueulards
gueule
gueules
gueuloute
gueuvain
gueuvile
gueuville
gueux
gui
guibert
guide
guides
guido
guie
guife
guifes
guifette
guiffes
guignabodet
guignet
guignol
guigny
guilagne
guilbert
guilde
guile
guilinguin
guillaume
guillaumes
guillemin
guillemot
guillet
guillevic
guillo
guillot
guillotine
guimpse
guin
guinage
guine
guines
guinesenguerrand
guinne
guinse
guise
guislain
guitar
guitare
guitares
guitarisse
guitars
guive
gulbenkian
gulie
gulier
guliers
gumes
gun
guo
guru
guss
gustave
gutenberg
guy
guyane
guyencourt
guyonvarc
gval
gvalemint
gvalerie
gvalet
gvalhie
gvalie
gvalier
gvaliers
gvau
gvaus
gvd
gvo
gvoe
gvos
gwlad
gy
gynt
gypsy
gypte
gyptien
gze
gzimpe
gzimpes
gziste
gœulzin
h
ha
habarcq
habe
habile
habille
habit
habitants
habitat
habitats
habite
habitints
habituel
habituelle
habituellemint
haboury
habsbourg
hacbute
hache
hachette
hachicourt
hadites
haematopus
haendel
hafringue
hagiographie
hagle
hagnies
hai
haichtis
haie
haies
haig
haignere
haiku
haillicourt
hainaut
haine
hainin
hainneville
hair
hairyo
haisnes
hajj
hakim
hakuchi
hal
halatte
hale
haleine
half
halford
haliaeetus
haliaetus
halinghen
halinghin
hall
halle
hallelujah
hallencourt
halles
halloe
hallon
halloween
halloy
hallstatt
hallu
hallue
halluin
halot
hals
halte
haltern
ham
hambourg
hambourq
hame
hameau
hameaux
hamel
hames
hami
hamiau
hamiaus
hamieaus
hamieaux
hamieu
hamieus
hamieux
hamilton
hammamet
hamy
hamzic
han
hanart
hancourt
hand
handbale
handball
handbook
hangard
hange
hangest
hanja
hankey
hanmelet
hannah
hannescamps
hanneton
hannetons
hanno
hannovre
hanoi
hans
hanse
hanson
hant
hanyu
haplincourt
happened
happens
happy
hara
haram
haras
harbounie
harbour
harcourt
hard
hardelot
hardenthun
hardi
hardines
hardinghem
hardinghen
hardinghin
hardinveu
hardy
harelde
hareng
harengs
harengus
hargicourt
haricot
haries
hariulphe
harle
harlem
harm
harmattan
harmonia
harmonica
harmonie
harmonium
harnes
harnicourt
harnu
harold
harpe
harpignies
harpo
harponville
harriet
harris
harry
hart
haru
harue
haruko
harvard
harvey
harville
has
hasard
hasparren
hassel
hastings
hat
hatier
hatsue
hatsuko
hattencourt
hau
haubourdin
haucourt
haut
hautbois
haute
hauteclocque
hautecloque
hautefeuille
hauterive
hautes
hauteur
hautrage
hauts
hautvile
have
haverskerque
havre
havrincourt
hawai
hawk
hawthorn
hay
hayakawa
hayao
haycous
haydn
haye
haynin
hayon
hayot
hayure
hayures
hazan
hazebrouck
hdr
he
header
heart
heath
heaume
heaven
heavy
hebdomadaire
hebreo
hec
hecht
hecq
hecquet
hectares
hector
heerup
heesters
heidi
height
heihachiro
heille
heillin
heilly
heineken
heinosuke
heinrich
heinz
hekigoto
helarctos
helas
helfaut
helgoland
helisenne
hell
hella
hellabrunn
helle
helpe
hem
hen
henau
hendecourt
henderson
hendrix
henique
henley
henne
hennebo
hennegau
hennequin
henneveux
hennin
henning
hennion
hennuin
hennuyer
henri
henriette
henrion
henrist
henry
hensies
henson
hepburn
her
herb
herbace
herbages
herbe
herbelles
herbert
herbinghen
herboval
herchies
herculanum
hercule
here
herge
hergnies
herluin
herluison
herman
hermann
hermanos
hermans
hermant
hermarin
hermaville
herme
hermelinghen
herment
hermetz
hermitage
herna
herne
hernu
hernus
herondart
herpe
herseaux
herstal
herve
hervey
hesdigneul
hesdin
hesmond
hespel
hesse
hessen
hestrud
het
heu
heuchin
heule
heur
heure
heures
heureux
heuringhem
heuringhin
heurt
heut
heutboe
heutbwe
heute
heutecourt
heutel
heutels
heutes
heuteur
heuts
hewlett
hexade
heynen
hi
hiaticula
hibou
hic
hidden
hideo
hideyo
hie
hiemstra
hier
hierbe
hierpe
hierzu
high
highland
hilaire
hildiarde
hilgaud
hill
himalaya
himantopus
himbe
himitsu
hin
hinart
hincourt
hindenburg
hindko
hinincourt
hinnin
hinnot
hinoto
hinri
hinzi
hippodrome
hippolais
hippolyte
hiragana
hirayama
hiroko
hiromasa
hiromichi
hirondelle
hirondelles
hirondhie
hiroshi
hiroshima
hirson
hirundinidae
hirundo
his
hisa
hisamatsu
hist
histo
histoe
histogramme
histoire
histoireaisne
histoirecivilep
histoires
historia
historial
historien
historiens
historike
historikes
historique
historiquement
historiques
history
hit
hitler
hive
hiver
hl
hms
hne
ho
hobereau
hobrieu
hoc
hochart
hoche
hochpreußisch
hockey
hocque
hocquet
hodenc
hodie
hodin
hodo
hoechqhu
hoffmann
hoi
hoint
hoku
hokusai
holder
holding
hole
holiday
holinde
hollain
hollande
hollinde
hollindoe
hollywood
holmes
holstein
holt
holy
hombleux
homburg
home
homer
homm
hommage
homme
hommes
homo
homont
homonyme
homonymes
homonymie
hon
hondschoote
honegger
honeymoon
honfleur
hong
hongrie
hongroe
hongyan
honmage
honme
honmes
honne
honneur
honolulu
honoraire
honore
honorer
honorifique
honorine
honte
hook
hope
hopkins
horace
horikawa
horizon
horizons
horizontal
horizontale
horloge
hormis
hornoe
hornoy
hornu
horrible
hors
horse
horst
hortillon
hortillonages
hortillonnache
hortillonnaches
hortillonnages
hortillonne
hortillons
hortoe
hortus
horusu
horvath
hoscourt
hosokawa
hospice
hospices
hospitalier
hot
hotel
hotoe
hotoie
hotons
hottin
hou
houbigant
houchin
houdain
houdenc
houette
houffe
houille
houleotte
houlle
houllefort
houpeu
houplines
houppes
hour
hourdel
houret
hourlon
hourlons
house
houssoe
houston
houtaing
houtland
houvigneul
houvin
houx
houze
hovah
how
howard
however
hoyo
hoyois
hozier
hr
hrady
hrkal
hrsg
hrung
htm
htmandre
html
http
https
hu
huant
hub
hubert
huche
hucheinneville
hucourt
hucqueliers
hudson
hue
huelsenbeck
hugenottenkolonie
hugh
hugo
hugot
huguenote
huguenots
hugues
huguet
hui
huile
huillot
huissignies
huit
huitrepin
hulard
hulluch
hulotte
humain
humaine
humaines
humains
human
humanisse
humaniste
humanite
humanos
humbercamps
humbercourt
humbert
humboldt
hume
humerœuille
humeur
humide
humides
humie
humilis
humorisse
humour
hung
hunter
huon
hupe
huppe
huppy
hur
hurepoix
hureux
hurionville
hurl
hurlard
hurlote
hurt
hus
husova
husson
hutchincourt
huvelle
huy
hy
hyacinthe
hyancourt
hybriden
hydro
hydrobates
hydrolodjie
hydrologie
hyemalis
hyme
hymne
hymnes
hypnos
hypolai
hypoleucos
hypothe
hyre
i
ia
iade
iago
ian
iau
iaucourt
iaus
ibe
iberque
ibis
ibn
ibrahim
ice
ich
ichi
ichiban
ichidai
ichikawa
ichiman
ichthus
ichthys
ichtyens
ici
ico
iconografie
icons
id
ida
ide
identification
identifier
identite
ides
idintifie
idintifier
idintite
idiologie
idiome
idiot
idn
ido
idomeneo
idrolodjique
iduna
ie
ieau
ieki
ier
ies
iesu
ietf
ieu
ieus
if
ifba
ifp
ign
ignace
ignacio
ignaucourt
igor
igoux
ii
iii
iizuka
ij
ik
ikeda
ikimono
ikiru
il
ile
ileauxsaules
iles
iliade
ilion
ill
illa
ille
illes
illies
illinois
illot
illustracions
illustrant
illustrateu
illustratieons
illustration
illustrations
illustre
illustrent
illustribus
ilo
ils
ilse
im
ima
imache
imaches
image
imagerie
images
imagesize
imagiers
imagina
imaginaire
imagine
imaginoe
imalai
imav
imbar
imbauche
imbe
imbelteuse
imbezingue
imble
imblinme
imbouchure
imbranchemint
imbreuville
imbroglio
imbry
imdb
ime
img
imgd
imite
immacule
immate
imme
immer
immeubes
immeuble
imp
impact
impare
impasse
impe
impereu
impereur
imperia
imperial
impire
implacemint
impli
imploe
imploi
imploue
impo
importance
importanche
important
importante
importantes
importants
importe
importer
importints
importt
impose
impotenti
impots
impoye
impr
impre
impression
impressionist
impressionner
impressionnisme
impressionnisse
impressions
impreux
imprime
imprimerie
imprimeu
imprimeur
imprisonne
impromptu
improvisations
impulsion
imslp
in
ina
inagaki
inauguracion
inauguration
inaugure
inc
inca
incarne
inceinte
incendie
inch
inchercle
inchercler
inchertitude
inchienne
inchinte
inchtitut
inchy
inciclope
incien
incipit
inclave
inclos
incluant
inclus
inclusions
inclut
incminche
incodage
incomparable
inconnu
inconnue
inconnues
inconnus
inconte
incore
incorpore
incourage
incourt
incre
increment
incubator
ind
indagacions
inde
indent
indes
index
indexation
indge
indiaca
indiana
indianapolis
indicatif
indices
indien
indienne
indiens
indiquant
indique
indiquer
indiquette
indispensables
individu
individuel
individus
indo
indoge
indomptable
indone
indort
indouille
indre
indroe
indrouot
induit
indulginces
industrie
industriel
industrielle
industriels
industries
ine
inermis
infaints
infance
infant
infante
infanterie
infants
infe
infer
inferme
inferno
infin
infini
infirmie
infitche
influence
influince
influinche
influints
info
infoboe
infobox
informacion
informacions
informatike
informatikes
information
informations
informatique
informatise
inforner
infos
infra
infrastructures
infty
ingage
ingbe
inge
inghem
inghin
inghuiles
inglaise
ingle
ingleby
inglete
inglo
ingloe
ingloterre
ingre
ingue
inguelte
ingueltie
ingueultie
inguin
inhnui
inhui
inhume
initial
initiale
initiative
initie
inke
inl
inle
inleve
inline
inlumine
inluminure
inmemories
inmi
inmue
inn
inne
innhui
innocente
innochints
innui
inondabes
inondables
inonde
inpie
inque
inquihin
inquin
inrap
inre
inregistre
inri
ins
insable
insanne
inscripcion
inscription
inscriptions
inscrit
inscrite
inscrits
inse
insecques
insecte
insectes
insee
inseigne
inseignemint
insembe
insi
insignes
insimbe
insin
insingnmints
insole
insolite
insolites
inspecteur
inspire
installe
installer
instantane
instaure
instead
instit
institucion
institucions
institue
institut
institute
institution
institutions
instituto
instruction
instrumental
instruments
instrumint
instrumintale
instrumintisses
instrumints
insubres
insubrie
insuire
insuite
insulaire
intaille
intailles
intailleus
intamure
intarctike
intarktike
intarle
intarnacional
intarnacionale
intarnacionales
intarnacionals
intarnacionnal
intarnacionnale
intarnational
intarne
intarnet
intarpre
inte
integrated
intellectuel
intelligence
inter
intercange
interdit
interdite
interior
interkeupe
interlingua
interme
intermediate
intermezzo
intermi
internacional
internacionale
internacionales
international
internationale
internationalement
internationaux
internazionale
interne
internement
internes
internet
interpre
interpres
interprinde
interre
interrogative
interrogatives
interrompu
intertien
intervention
interview
intervista
intervue
interwiki
inteur
intie
intier
intimacy
intind
intindaint
intinde
intindette
intindu
intique
intite
intitule
into
intole
intotche
intour
intoure
intra
intraineu
intrainne
intrainner
intrainntte
intre
intrer
intrez
introduction
introduit
introduite
intybus
inu
inubue
inuits
inutile
inutiles
inuzuka
inv
invahir
invai
inval
invasion
invasions
inve
invencion
inventaire
inventaires
invente
inventeu
invention
invers
invie
invincion
invincionne
invinte
invinteu
invintionneu
inviron
invironnemint
invirons
invisible
invite
invo
invoe
invoue
invoye
inwile
inxent
iny
io
ioc
ioe
ionis
ioulia
ipa
ipe
iperteskes
iphige
ipod
ipote
ipothe
iprage
ipsum
ir
ira
irai
irak
iran
iranien
iras
ircam
irchonwelz
ire
ireland
iris
irlande
irlinde
irlindoe
irmine
iron
ironie
irons
irving
iræ
is
isaac
isabeau
isabella
isabelle
isabellinus
isai
isan
isao
isara
isbergues
isbn
ise
iseult
iseute
ishii
isidore
isie
islam
islamike
islamique
island
islinde
islindoe
isme
iso
isola
isole
isoler
isoradio
isoroku
israe
israel
iss
issa
issart
isse
issn
issu
issue
issus
ist
istamboul
istanbul
istoce
istoe
istorien
istorike
istorikes
istorikmint
istwa
isu
it
ita
italia
italiana
italiani
italiano
italie
italien
italienne
italiens
italique
italiques
italo
italy
itami
itcf
ite
item
itemid
itf
itine
itis
ito
itou
itout
itsuko
iudex
iulius
ius
iut
iv
ivain
ivan
ivar
ivariantes
ivart
ive
iver
ivoire
ivre
ivresse
ivry
ix
ixe
ixelles
ixobrychus
iz
ize
izel
j
ja
jaboune
jack
jackson
jacky
jacob
jacobin
jacobs
jacobsen
jacomet
jacopo
jacq
jacque
jacqueline
jacquemart
jacques
jacquet
jacquot
jacteusse
jade
jadis
jaffre
jagger
jaguar
jai
jake
jakob
jallieu
jalousie
jam
jama
jamais
jambalaya
jambes
jame
jamela
james
jamiroquai
jamoais
jamoe
jamouais
jan
jana
jane
janeiro
janmais
janmoais
janmoe
jans
january
janvie
janvier
japan
japanese
japon
japonais
japonaise
japone
japonica
japonne
japonnoe
japonoe
jaqrie
jaqu
jaque
jaques
jardez
jardimformoso
jardin
jardinier
jardins
jarrett
jaud
jaune
jaure
jav
java
javascript
javelot
javier
jay
jazz
jc
je
jean
jeanine
jeanne
jeannette
jeannin
jeannine
jeanprouve
jeanson
jeff
jeffrey
jehan
jehanne
jehay
jelly
jemappes
jenkins
jenkinson
jenlain
jenny
jerry
jersey
jes
jesse
jesu
jesus
jet
jete
jeter
jette
jeu
jeudi
jeune
jeunes
jeunesse
jeunet
jeux
jeuxpicards
jhe
jhevariantes
ji
jia
jianzi
jiboula
jibouli
jidai
jielbeaumadier
jigoku
jim
jimi
jimmy
jin
jinsei
jinvie
jinvier
jitsuroku
jl
jmint
jne
jnie
jo
joa
joachim
joan
joann
joannes
joassin
job
joconde
joe
joey
joffroy
jografes
jografie
johan
johann
johannes
john
johnny
johnson
johnston
joie
joies
join
joinne
joinnes
joinville
jok
joke
joker
joko
joli
jolies
jolimetz
jolis
jolly
jolodjie
joly
jome
jon
jonas
jonathan
joncs
jone
jones
jongleurs
jonn
jonne
jonnes
jonnesse
jonquilla
jor
jordan
jordanie
jordi
jorge
jorgrafie
joris
jorn
jornal
jornalisse
jornalisses
jornaliste
jornals
jorne
jorre
jors
jos
jose
josef
joseph
josephe
josiane
josse
josue
jotte
jou
jouait
jouancoux
joubert
joue
jouer
jouet
joueur
jouglet
jougleus
jouin
jouke
joulia
jouque
jour
jourdain
jourdie
jourgrafie
jourgraphie
journal
journalisse
journaliste
journals
journaux
journe
journey
journy
jours
joute
joy
joyce
joyel
joyeuse
joyeusete
joyeux
joyngville
joyu
jp
jpeg
jpg
jpm
jr
js
json
jstor
jte
ju
juait
juan
juban
jube
jubilate
judai
judas
jude
judelle
judi
judiciaire
judith
judo
judy
jue
juer
juet
juette
jueu
jueus
jueuse
juge
jugement
juger
juges
jui
juie
juif
juigne
juilet
juille
juillet
juin
juis
juive
jujmint
jul
jules
julia
julian
julie
julien
juliette
julitte
julius
julon
julos
july
jume
jumelache
jumelaches
jumelage
jumelages
jumele
jumelle
jumelles
jumet
jumeu
jumie
jumint
jun
june
jungle
juniet
junior
juniors
juniperus
juntos
junzo
jupiter
jura
jurassic
jurbise
jure
jureu
jurion
jurisconsulte
juron
jury
jus
jusqu
jusque
jusques
jusse
just
juste
justice
justiche
justicier
justifie
justifitte
justify
justin
justine
jux
juzo
jynx
k
ka
kaaba
kaamelott
kaats
kaatsen
kad
kagawa
kageyama
kahane
kahn
kai
kaimberlottes
kain
kairi
kajdanski
kakushi
kameya
kamini
kamosawa
kamps
kan
kancheli
kanchon
kandulski
kane
kaneto
kanji
kanketsuhen
kansas
kant
kanzashi
kaoru
kape
kapp
kar
karate
karel
karl
karlovy
karmesse
karthli
kassovitz
kastler
katakana
kate
katego
kategori
kategoria
kategorie
kategorija
kategorio
kathmandu
katia
kato
katowice
katsu
katsue
katsushika
kavi
kawahigashi
kawashima
kay
kayess
kayukawa
kazakhstan
kazan
kaze
kazunobu
kazuo
kcion
kcions
ke
keeper
kees
kef
kei
keighley
keiichi
keisuke
keith
keller
keltique
ken
kenji
kenny
kent
kenya
keoma
ker
keramis
kerksken
kermesse
kerpezdron
kerque
kertin
kervern
kervyn
kery
kes
kesho
kessel
kessinger
ketto
keu
keuche
keuchie
keud
keup
keupache
keupe
keups
keur
keurs
keurt
keus
keuse
keute
keutieus
keuve
kevin
keyboard
kg
khaldoun
khaya
ki
kiang
kibi
kichi
kid
kido
kids
kie
kief
kiel
kien
kiens
kier
kiganjo
kigo
kikaku
kiki
kiku
kikuko
kili
kilien
kilienne
kills
kilo
kilome
kim
kimberlot
kimbre
kimino
kimono
kin
kind
kindaichi
kine
king
kings
kinji
kinne
kinoe
kinoshita
kintin
kinugasa
kinuko
kinuyo
kiosque
kipling
kipre
kipriote
kirkorov
kiroku
kiseki
kishi
kiss
kistan
kit
kita
kitano
kiyohiko
kiyoko
kiyoshi
klad
klaus
klee
klein
kleine
klincksieck
klitra
km
kmande
kmandmint
kmin
kmince
kminche
kmincher
kminchmint
kmins
kmint
kn
knight
knike
know
known
ko
kobayashi
kocorico
koharu
koi
kolona
kolonne
kolte
kon
kondo
kong
koninklijke
koninkrijk
konitz
konrad
kopanda
kopierre
kore
korngold
korsakov
kos
kose
koslovakie
kosovo
kostel
kosugi
kotani
koutron
kovski
kowalski
koya
kr
krafft
kraj
krako
krasnodar
kre
krier
krimi
kro
kromatike
kronborg
krown
ktakes
kte
ktronique
kture
ku
kubismus
kubo
kuiper
kuki
kulpine
kumai
kumonosu
kuniko
kunisada
kunst
kunth
kuriyama
kuro
kuroda
kurosawa
kurpfalz
kurt
kus
kv
kvalier
kvaliers
kvalrie
kvau
kvaus
kvautche
kveau
kvo
kw
kwon
ky
kye
kyin
kyo
kyoshi
kyrle
københavn
l
la
laac
labbe
labeilledelaternoise
label
labellise
labey
labirinte
laboissie
labor
laboration
laboratoe
laboratoire
laborde
labore
labourabes
labouraches
laboureu
laboureur
laboureus
labourse
labre
labroye
labyrinthe
lac
lacape
lacion
lacions
laclos
lacoste
lacouture
lacroche
lacroix
lacrosse
lacs
lacte
ladan
lade
ladislas
ladoe
ladre
ladrerie
lady
ladybird
ladykillers
lae
laeken
laetitia
lafayette
laffitte
laffont
lafleur
lafont
lafoscade
lafosse
lafre
lagache
lagique
lagnicourt
lagopus
lahamaide
lai
laiche
laicher
laid
laigne
laik
lain
laine
laineuse
laingne
lainne
laires
lais
laisne
laissant
laisse
laisser
laissez
lait
laitie
lake
lakhal
lale
laleu
lalie
lalique
lallaing
lalloeu
lam
lamarck
lambdina
lambel
lambert
lambes
lambin
lambinet
lambre
lambres
lamendin
lamentation
lamiaceae
lamium
lamoricie
lamotte
lamourette
lamoureux
lamoury
lampasse
lampe
lampes
lamy
lan
lanc
lancashire
lance
lancelot
lanceolata
lancer
lanceu
lanche
lancheron
lanches
lanchron
land
landais
landas
lande
landen
landes
landi
landowski
landrecies
landres
landrethun
lands
landscape
landschaft
landschaften
lane
lang
langache
langage
langages
lange
langes
langfr
langlet
langlois
langne
language
languages
langue
languedoc
languepicarde
languereau
langues
languevoe
lanie
laniidae
lanius
lanjarde
lanka
lannoy
lanque
lanques
lant
lante
lanterne
lanternes
lantier
lantois
lao
laon
laonnoe
laonnois
laos
lapan
lapin
lapins
laplace
lapoule
lappa
lapre
laputa
laquelle
laquette
lard
lardgeur
large
largeur
largillie
largue
laride
lariguette
larme
larmes
laroche
larousse
larris
larry
lartigue
larus
larve
larvent
las
laschon
lasne
lassus
last
lat
late
lateur
latex
latin
latine
latines
latinne
latins
latitude
latium
latn
latour
latran
lattre
laucourt
laura
laure
laurence
laurens
laurent
laurentine
laurette
laurie
laurier
laurint
lausanne
lausitzisch
lautner
lautrec
lauvau
laval
lavaux
lave
lavenir
laventie
laves
laveur
lavezzari
lavie
lavier
laviers
lavile
lavis
lavoe
lavoir
lavoixdunord
lavoue
lawe
lawrence
laxoa
lay
laye
layer
laysan
laysanensis
lazards
lazare
lazariste
lb
lc
lche
lchin
ldegalerie
lderlin
le
lea
leader
lear
lebailly
lebas
lebe
leben
lebesgue
lebeuf
lebeurre
lebiez
leblanc
leblond
lebrasseur
lebrun
lec
lecat
leccion
leccions
lecco
lech
lechevalier
leclabart
leclerc
leclercq
lecocq
lecomte
leconte
lecteur
lection
lectionner
lections
lectricite
lectrique
lectro
lectronike
lectronique
lectroscope
lectrote
lectue
lecture
lectures
led
ledieu
ledinghin
ledjeumes
ledoux
lee
leers
lefe
lefebvre
lefevre
lefigoog
lefils
leforest
lefort
left
leftech
leftel
legay
legend
legende
legendre
legiobanka
legrain
legrand
legrelle
legs
lehttp
leibniz
leine
leipzig
leleu
leleux
lem
lemai
lemaire
lemaitre
leme
lemer
lemint
lemire
lemmes
lemoine
lemonnier
lemur
lemy
lencquesaing
lendemin
lengelle
lenglet
lengrand
lenie
lennie
lenny
lenoe
lenotre
lens
leo
leon
leonard
leonardo
leopold
leos
lepac
leperlier
lepre
leprince
lequel
ler
lerin
lerinage
lerins
leroux
leroy
lerwe
les
lesage
lescaut
lesclap
lescot
lesia
lesieux
lespagnol
lespesses
lesquels
lesse
lessines
lestienne
lestin
lestine
lesueur
let
letaille
letellier
letizia
letras
lets
lette
lettenhove
letter
letteratura
lettes
letto
letton
lettre
lettres
leu
leubringhen
leuciscus
leucopsis
leucorodia
leugniye
leuilly
leulinghem
leulinghen
leulinghin
leumie
leune
leup
leups
leur
leurint
leurmie
leurs
leus
leute
leuthe
leuve
leuven
leuwarou
leuz
leuze
levage
levant
levaque
levariantes
levasseur
leve
leveau
level
leverd
levrault
levy
lewarde
lewin
lewis
lewskim
lexicografikes
lexicologique
lexique
lexiques
leyde
leymaniye
leys
lez
lfin
lfn
lge
lh
lhe
lhermitte
lho
lhoist
lhomond
li
lia
liabi
liaison
liancourt
liane
lianes
liard
liau
liauwette
lib
liban
libataire
libaude
libbrecht
libe
libelle
libellule
liber
libera
libercourt
libertador
liberte
liberty
libes
libraire
libraires
librairie
libraries
library
libre
libres
libye
lice
licence
lichelle
lichinces
lichtenthal
licie
licien
licince
licinces
licinius
licocq
licorne
licourt
licques
lidje
lido
lie
liechtenstein
lied
lieder
liege
lien
liencourt
liens
lier
liesse
liettres
lieu
lieus
lieuse
lieutenant
lieuve
lieux
lifamote
lifamotes
life
lifes
liger
light
lightgrey
lighthouse
ligicourt
ligne
lignes
ligneu
lignie
ligny
ligou
ligue
ligure
ligurie
like
likes
lilas
lile
lili
lilia
lilian
lille
lillers
lillois
lilloises
lillos
lilos
lily
lima
limace
lime
limeu
limicoles
liminaire
limine
limit
limite
limited
limitrofes
limoges
limon
limosa
limousin
limpe
limpes
lin
linand
linche
lincheu
lincheux
lincourt
linda
linde
lindeboom
linden
lindi
lindjuisse
lindjuistike
lindjuistique
lindl
line
lineatus
linedarius
linegrey
lines
linette
linfle
lingache
linge
linghem
linghin
lingne
lingua
lingue
linguedoc
lingues
linguisse
linguistics
linguistike
linguistikes
linguistique
linguistiques
lingva
lingwisse
lingwistike
lingwistique
link
linke
links
linme
linnaeus
linot
linotte
linque
linques
lins
linse
linselles
linux
linwistique
linz
lio
liodagan
lion
lionel
lionne
lions
lionse
liore
liot
lipnitskai
lipnitskaya
lippa
lippi
lippino
lique
lir
lire
lirique
lis
lisa
lisabeth
lisacion
lisandro
lisant
lisateu
lisboa
lisbon
lisbonne
lise
lisenne
liser
lisette
lisieux
lison
lisse
lissene
lisses
lissol
list
liste
lit
litanie
litanies
litchide
lite
literatura
lites
lithographie
litografie
lits
litta
litte
litteraire
litterature
little
littoral
lituanie
lituanien
liturgie
liturgike
liturgique
litv
liu
liudmila
lium
lius
liux
liv
live
liverpool
lives
livossart
livourne
livre
livrer
livres
livret
livreu
livrez
lix
lixite
ll
lla
llargues
llc
lle
llegenda
lleida
ller
lles
llibres
llimont
lloyd
lme
lmint
lmo
ln
lner
lni
lo
loach
loaissier
lobbes
lobez
loca
local
locale
localemint
locales
localisachon
localisacion
localisation
localite
locals
location
locaux
lochnagar
lochqhu
lockwood
locmaria
locomotives
locon
locri
locuche
locucion
locustella
locustelle
locuteu
locuteus
locutions
lodelinsart
lodi
lodie
lodies
lodieuse
lodigiano
loe
loeuilly
loge
logemints
logeon
loges
logichiel
logiciel
logiciels
logie
logique
logis
logo
logos
loh
lohim
loi
loiens
loin
loir
loire
loiret
lois
loisirs
loisne
loison
lola
lolainville
lolita
lolo
lombard
lombarda
lombarde
lombardie
lombards
lombart
lombarte
lombise
lome
lomme
lompret
lon
londe
londes
londgeur
londjet
londjeu
londjeur
londjeurs
london
londonderry
londres
long
longave
longfosse
longitude
longoni
longpre
longroy
longs
longtans
longtemps
longue
longuement
longuenesse
longues
longueval
longueville
longuevillette
longuevo
longvillers
longvilliers
lonicera
lonjqheue
lonme
lonmer
lonmette
lonmoait
lonmoaitte
lonmoe
lonno
lonqhu
lonque
lons
loo
looking
loon
loops
loos
lophius
loqhe
loques
loquette
loquin
lorainne
lorca
lord
lorde
lordi
loredana
lorelei
lorem
lorenzetti
lorenzo
loret
lorette
loriaux
loriot
loriou
lorisse
lorme
lorrain
lorraine
lors
lorse
lorsqu
lorsque
lorusse
lorussie
los
losc
lost
lot
lota
lote
lothrop
lotin
lotoaire
lots
lotte
lottin
lou
louandre
loucha
louchart
louche
louches
louchet
loucheux
loue
louf
loufette
louges
louis
louisa
louise
louisiana
louisianais
louisiane
loulou
louo
loup
loupe
loups
lour
lourd
lourdes
lourdeur
loursais
loutre
louvain
louve
louvel
louvet
louvie
louviers
louvignies
louvincourt
louvre
love
lovin
lovire
loy
loye
loyen
loyens
loyins
loys
loysel
loyset
loze
lozinghin
lp
lpou
lrinnache
lrinnage
lrinnages
lrins
ls
lt
ltd
lte
ltr
ltry
lty
lu
lublin
luc
luca
lucas
luce
lucheux
luchue
lucia
luciano
lucie
lucien
lucienne
lucifer
lucio
lucius
lucky
lucyin
lude
ludo
ludovic
ludwig
lueur
lug
lugle
luglien
lugy
lui
luigi
luise
luitgarde
luke
lulliot
lullula
lully
lulu
lumbres
lumie
lumine
lundi
lune
luneray
lung
lunne
luokka
lupin
lupus
lur
lus
luscinia
lush
lusignan
lusine
lussimbourjoe
lussimbourk
lussimbourq
lussimbourqlouis
lussimbourqpierre
lustheim
lustucru
lute
luther
lutin
lutosa
lutrogne
lutrongne
lutte
luttes
luv
luxembourg
luye
luynes
luz
luzie
lv
lva
lvant
lvaro
lve
lver
lviv
lvrier
lvriers
lwarte
lwo
lxiii
ly
lyapkalo
lycalopex
lyce
lyche
lyderic
lydia
lye
lyle
lyon
lyre
lyrique
lyriques
lys
lyse
lysohorsky
lyssois
lz
lzes
m
ma
maalouf
mabe
mabes
mabille
mabuchi
mac
macabe
macaigne
macao
macario
macau
macbeth
mace
machado
machaon
machart
mache
machibuse
machiel
machiko
machine
machines
machins
machonneries
macht
machy
maciejowski
maclou
macquart
macqueron
macquinghin
macret
macreuse
macrieu
macron
maculatum
mad
madagascar
madame
maddie
made
madelaine
madeleine
madelon
mademoiselle
madge
madia
madiot
madjet
madlaingne
madlangne
madone
madonna
madonnina
madrid
madrigal
mae
mafe
maffle
magalha
magasin
magasins
magazine
magdalena
mage
mages
maggie
maghe
magic
magie
magine
magique
magiste
magister
magistrat
magne
magnete
magneu
magni
magnicourt
magnien
magnificat
magnificats
magnifique
magnon
magnum
magnus
magog
magrite
magritte
mague
maguettes
maharncuria
mahatma
mahaut
maheu
mahiette
mahieu
mahon
mahonnache
mahonne
mahons
mahulo
mahurlote
mai
maia
maignan
maigret
maigrin
maijon
mail
mailhol
maillard
maille
mailler
mailles
maillet
maillets
mailleu
maillot
mailly
main
mainard
maine
mainichi
mainn
mainne
mainnie
mains
mainstream
maint
mainte
maintenance
maintenant
maintenay
maintenir
maintes
maira
maire
maires
mairie
mairrie
mais
maisnie
maisnil
maison
maisonneuve
maisons
maisse
maistre
maitre
maizicourt
maj
majeste
majeur
majeure
majeures
majeurs
maji
majon
major
majorite
majuscules
makaritoru
make
makeba
maki
makino
mal
malade
malades
maladie
maladies
maladrerie
maladrie
malais
malaisie
malajie
malakoff
malbrancq
malburny
malcolm
maldives
maldoror
male
malgre
malhe
malheur
malheurs
mali
malibu
malin
malinots
malins
malivoire
mall
mallard
mallarme
malle
mallet
mallorca
mallu
malmaison
malmoe
malo
malot
malpart
malraux
malta
malte
malterie
malus
malva
mama
maman
mambo
mame
mamelles
mametz
mamma
mammal
mammife
mamouille
man
mana
management
manager
manancourt
manatre
manche
manches
manchester
manchin
mancipateur
mancipatieon
mand
mandarin
mandarino
mandarins
mandat
mandats
mandchourie
mande
mander
mandes
mands
mane
manekine
manes
manessier
manet
manetti
manfred
manga
mangeurs
mangle
mangne
mangnro
manhattan
manicourt
manicrake
manie
manier
manifeste
manihen
manille
manillon
manin
maninghem
maninghin
manipulation
manique
manke
manman
manmife
manne
manneken
manneville
mannoia
mano
manoe
manoir
manon
manouche
manouches
manque
mans
mant
mante
manteau
mantele
mantes
manteuffel
mantieu
mantique
mantle
mantnir
mantnu
mantoue
mants
manu
manually
manuel
manufacture
manuscript
manuscrit
manuscrits
maori
map
maphoto
mappe
mapquest
maps
maque
maquereau
maquet
maquettes
maqueus
maqueux
maquis
mar
mara
marabou
maracaibo
maraghini
marai
marais
marant
marathon
marbe
marbre
marbrier
marc
marcands
marcasse
marcel
marceline
marcelle
marcellin
marcello
marcelo
march
marchand
marchands
marche
marcher
marches
marchetti
marchiennes
marcinelle
marck
marclet
marco
marcoing
marconne
marconnelle
marcotonne
marcotte
marcoux
marcq
marcus
marcy
mard
mardaga
mardi
mardick
mare
mareca
marega
marek
mares
maresquel
marest
mareu
mareuil
mareul
margaret
margat
marge
margherita
margin
margot
margre
margrite
marguerite
marguerites
mari
maria
mariache
mariacka
mariage
mariani
marianna
marianne
mariannes
mariatche
marichau
maricourt
marie
marier
mariette
marieu
marila
marilier
marilyn
marin
marina
marine
marinleu
marino
marins
mario
marion
marione
marionne
marionnette
marionnettes
maris
marissel
marissiaux
mariste
marister
marit
maritima
maritime
maritimes
mariu
marius
marivaux
marivin
mark
marke
marker
market
markup
marle
marles
marlier
marly
marmite
marmottan
marnat
marne
marnie
maroc
maroilles
marolles
maronde
marone
maroniez
marotte
marouette
maroume
maroumet
marquay
marque
marquenneville
marquenterre
marquette
marquillies
marquinte
marquintie
marquion
marquis
marquisat
marquise
marquisse
marquivile
marraine
marron
marronnier
mars
marseille
marshal
marshall
marsoulas
mart
martchainneville
martche
martchise
marteau
martel
martelie
martelle
marten
marthe
marthes
marti
martial
martieu
martin
martinchart
martinclokie
martine
martinet
martini
martinie
martinique
martino
martinsart
martiny
martire
marty
martyr
martyre
martyrs
maru
marx
mary
maryam
maryland
maryline
maryvonne
marœuil
mas
masa
masada
masahiro
masaki
masako
masaoka
masculin
masculine
masjid
maslanka
masnuy
mason
masons
masque
masquillier
mass
massachusetts
massacre
massake
massalia
massamagrell
massardie
masse
massenet
masses
massey
massif
massimiliano
massimo
masson
massoues
mastche
mastchulin
master
masumura
mat
mataemon
matan
matante
match
matche
matcheus
mate
matelote
matelots
mateo
mater
maternelle
maternite
mateu
mathe
mathieu
mathilde
matichien
maticien
matie
matike
matikes
matin
matique
matiques
matisse
matiu
matny
matobo
matografe
matografike
matographe
matringhin
matsui
matsukawa
matsumoto
matsuo
matsuri
matt
matta
matteo
matthew
matthias
matthieu
mattina
mattioli
mattolini
mau
maubeuche
maubeuge
mauclair
maucontintmint
maudite
mauger
maugre
maulet
maume
maunier
maupassant
maupin
maur
mauradje
mauresmo
maurice
mauricette
maurizio
maurpo
maus
mausole
mauvais
mauvaise
mauve
mauviar
mauvis
maux
mavka
mawais
mawaise
max
maxence
maxim
maximale
maxime
maximes
maximianus
maximien
maximilien
maximum
maximus
maxvalue
may
maye
mayenne
mayer
mayeu
mayeule
mayeur
mayeus
mayfair
mayor
mayotte
mays
maysel
mazancourt
mazingarbe
mazingarpe
mazinghem
mazinghin
mazon
mazoyers
mazza
mba
mbe
mccartney
mcrae
me
mea
meantoe
meara
meaudre
meaux
mecarles
mecklembourgeois
med
mede
media
mediawiki
medici
medicine
medieval
medina
medium
meersch
meeting
meets
mefranchoe
meg
megarhynchos
meguru
mei
meiji
meille
meilleu
meilleur
meilleure
meilleures
meilleurs
meillie
mein
meine
meint
meinteu
mek
mel
melanitta
melanocoryphus
melanogrammus
melbourne
melchionna
meldola
meldyck
melegnano
melhores
melillo
melin
melinda
meliphagoidea
melle
melliard
mellifera
melling
mello
melo
melodie
melolonthinae
melon
melun
melville
melvin
membre
membres
meme
memento
memling
memoire
memoires
memoiresdepierre
memorial
memorialgenweb
memory
men
menace
menant
mence
menchecourt
mende
menden
mendes
mene
mener
menhir
menhirs
menken
menne
menneville
mensuel
mensuelle
ment
mentaire
mentaires
mentale
mente
menteur
mentine
mention
mentionne
menton
ments
menuge
menuroidea
meon
meots
mer
merad
merce
merchant
merchi
merchnoaires
merci
mercier
merck
mercure
mercy
merde
meredith
merganser
mergellus
mergus
meriah
meridionalis
merimee
merimeeia
merin
merlan
merlangius
merlangus
merle
merlimont
merlin
merrie
mers
merula
merveillement
merveilles
merveilleux
mervile
merville
mery
mes
mesdisans
mesman
mesnil
message
messager
messages
messe
messens
messes
messico
messie
messieurs
messike
messin
messines
messiot
messire
messius
mesure
mesures
met
meta
metal
metheny
method
metro
metropolitan
mets
mett
mette
mettent
metteu
metteur
mettez
mettot
mettre
metz
meu
meubes
meudit
meudon
meule
meulen
meules
meulin
meume
meumes
meung
meunier
meunumint
meunumints
meurant
meurchin
meurdesoif
meure
meurot
meurs
meurt
meurtre
meurtte
meuse
meuvi
meux
mexike
mexique
meyrat
mez
mezzanotte
mg
mgr
mh
mhnt
mhz
mi
mia
miannay
miasta
miaule
micaela
micberth
michae
michael
michaud
miche
michel
michelangelo
michele
micheli
michelin
micheline
michi
michigan
michiko
michlade
michon
michou
michx
mick
mickae
mickey
miclette
micourt
micro
microcarpa
microformats
microlodjichie
micromania
microsoft
middle
midi
midnight
midway
midy
mie
miel
mien
miencourt
mienne
mier
mieru
mies
miette
mieu
mieute
mieux
mifune
migliori
migne
mignon
migrateu
migratrice
migratrisse
migre
miguel
mihajlo
mihi
miike
mike
mikel
mikes
mikhai
mikio
mil
milan
milanais
milane
milanese
milani
milano
milary
mile
miles
milhaud
mili
milice
milie
milienne
miliers
milieu
milieux
milincourt
milions
militaire
militaires
militant
military
milite
militoaire
militoaires
militoe
mill
millars
mille
miller
million
millions
milliquant
millon
millons
mills
milly
milo
milon
milos
milt
milveu
milvus
mimbe
mimbes
mime
mimi
mimoyecques
min
minaire
minard
minas
mince
minche
mincion
mincionne
minde
mine
mines
mineu
mineur
mineure
mineurs
minge
minger
mingeus
mingnu
mingoval
mingus
minh
mini
miniature
minie
minier
miniers
minil
minimale
minimalisme
minimalisse
minime
minimes
minimum
minimus
minin
miniserie
minisse
minisses
ministe
ministre
minme
minmes
minnesota
minor
minorite
minoru
minque
mins
minse
mint
mintaire
mintal
mintale
mintales
minte
mintele
minteu
minteux
mintine
minton
mints
minuit
minuscule
minuscules
minutes
minutus
mio
mioches
mioeneu
mique
miquelon
miques
mirabella
miracle
miracles
miraculeuse
mirador
mirake
mirakes
miranda
miraque
miraques
mirbeau
miriam
mirlitoe
miro
miroir
mirouet
miroulet
mis
misbehavin
mise
miserere
misermont
mises
misesere
misfe
miss
missa
misse
mission
missionnaire
missionnoe
missions
mississippi
missouri
missæ
miste
mister
mistery
mistral
misumi
mit
mitan
mitant
mitchel
mitchell
mite
mites
mitolodjie
mitolodjique
mitologie
mitt
mittelalemannisch
mittelbairisch
mittelhessisch
mittelpommersch
miu
mius
miux
mix
mixte
miya
miyagi
miyamoto
miyazaki
miye
miyoji
miyons
mize
mizoguchi
mizry
mizukawa
mk
mkhedruli
mku
mldelille
mlle
mly
mm
mmanuel
mme
mn
mne
mner
mneus
mni
mnia
mo
moai
moaire
moais
moaison
moaisons
moaite
moaites
moaitresse
moaitrie
moaitrise
mobile
mobilier
moc
mocellin
mocrate
mocratique
mod
modal
modalite
modave
mode
modern
moderne
modernes
modernisse
modes
modeste
modificacion
modificacions
modifie
modifier
modigliani
modisti
modularis
module
moe
moer
moeurs
mografie
mografike
mografique
mographie
mographique
moha
mohamed
moi
moignage
moignages
moin
moine
moineau
moins
moire
moires
mois
moislains
moissons
moitie
mokrani
mol
moldave
moldova
mole
moles
molet
moli
molie
molien
moligneu
molin
molinari
molinaro
molinet
molinghem
molinghin
molins
moll
molle
mollette
molliens
mollissima
mollusca
mologie
molt
molumints
molusques
mom
momal
momelin
moment
momenti
moments
momint
momints
momo
momoi
mon
mona
monaco
monacu
monancourt
monarchie
monaste
monastique
monastoe
monboube
monceau
moncheaux
monchecourt
monchel
monchelet
monchlet
monchy
monclerc
mond
mondadori
monde
mondial
mondiale
mondiales
mondicourt
mondo
mone
monedula
monelle
money
monflie
monfort
mong
mongivo
mongol
mongolie
mongrenier
moni
moniales
monica
monie
monies
monique
monjauze
monk
monmint
monnaie
monnaies
monnarchie
monnarkie
monnaste
monne
monnier
monnieu
monnoe
monnouaie
monnoue
monnumints
mono
monogatari
monographie
monographies
monolo
monologue
monologues
monologuues
monoloques
monomoteur
mononkes
mononoke
mononque
monoplache
monote
monroe
mons
monseigneur
monsieu
monsieur
monsite
monstracion
monstrelet
monsure
monsures
mont
montagne
montagnes
montaigne
montaingne
montaingnes
montana
montane
montant
montante
montanus
montataire
montauban
montaubin
montcavrel
montdidier
montdidji
monte
montenescourt
montenoe
monter
monteverdi
montevideo
montfort
montgolfie
montgomery
montgommery
montgon
months
montiale
montie
montier
montiers
montignies
montignin
montigny
montini
montjoie
montmartre
montmirail
montmirailjean
montmirailmathieu
montmirel
montmonrency
montmorency
montoe
montois
montoise
montoises
montozon
montparnasse
montpellier
montrant
montre
montrer
montreu
montreufoundation
montreui
montreuil
montreuillois
montreul
montreus
monts
montserrat
montsoreau
montsoriau
montwe
montyi
monumen
monument
monumental
monuments
monumint
monumintale
monumints
monve
monza
moody
moon
moonlight
moore
mora
morale
morales
moralmint
moran
morande
morant
moratif
moration
morative
moravie
morbecque
morbleute
morceau
morceaux
morchies
morciau
morcieu
morcou
morcourt
mord
morddeich
more
moreau
morel
moreno
mores
moreuil
moreul
morgan
morhua
mori
morial
moribus
moriconi
moriendi
morighem
morillon
morimont
morin
moringhin
morinie
morins
morir
morisi
moritake
moritz
morlancourt
mormal
mormon
morning
morphologie
mort
morta
mortagne
morte
mortes
mortier
morto
morton
morts
morue
morus
morvan
morveux
morvile
mory
mos
mosaique
mosan
moschata
moscou
mosellan
moselle
moser
mosque
mossieu
mossman
most
mostche
mostert
mostra
mot
motacilla
motacillidae
mote
motets
moteur
moteurs
mother
motherfuck
motian
motico
motif
motifs
motiv
motley
moto
motors
mots
motte
mottes
mou
mouche
moucheon
mouchin
mouchon
mouchons
moucourt
moucron
moucronnoe
moue
mouette
mouffetard
moufle
mouille
mouke
moulbe
moulie
moulin
moulinel
moulinier
moulins
moulle
moult
moune
mouni
mounieu
mountain
mouny
mouos
mouqhe
mouque
mouques
mourchain
moureau
mouriez
mourir
mourle
mourleu
mourmoule
mourning
mouscron
mouse
mousquetaire
mousse
mousseron
mousses
mousset
moussorgski
moustaches
moustaile
moustasi
mouste
moustique
mout
moutarde
moute
moutier
moutis
mouto
mouton
moutons
moutonvile
moutrer
moutrieux
moutroue
mouvement
mouvements
mouvemint
mouvemints
mouviar
mouvmint
mouvmints
mouvye
mouy
movie
movies
moy
moyecques
moyen
moyencourt
moyenne
moyennes
moyenneville
moyens
moyin
moyincourt
moyles
moyne
moyroud
moyuza
mozart
mozilla
mp
mpb
mpeg
mr
mreucourt
mrs
ms
msure
mt
mtie
mtv
mu
muccino
mucha
muche
mucher
muches
muchi
muchosac
mucri
mue
muet
muets
muile
muin
muisis
mulation
muller
mulligan
mulot
mulpas
multime
multipes
mun
muncq
mundial
mundo
munekata
muni
munich
munichipal
munichipale
municipal
municipale
municipales
munier
mur
muraille
murailles
murakami
murales
murat
mure
murer
muros
murray
murs
mus
musaraigne
musashi
muscicapidae
muscicapoidea
muse
musee
musenor
musette
museum
musgrave
music
musica
musical
musicale
musicales
musicaux
musichien
musichiens
musicians
musicien
musicienne
musiciens
musik
musikampus
musike
musikes
musique
musiques
musnier
musque
musset
mussolini
mustafova
mustang
mutation
mute
mutile
mutopia
mutualite
muybridge
mw
mwi
mwins
my
myce
mye
myen
myo
myokan
myriam
myrtide
myrtille
myste
mystique
mythe
mythes
mythologie
mzure
mœurs
n
na
nabringhen
nabu
nach
nache
naches
nacho
nacion
nacional
nacionale
nacionnal
nacionnale
nacions
nad
nadal
nadar
nade
nadine
naeumann
nagano
nagata
nage
nagement
nageoe
nages
nageu
nageuse
nague
nahum
nai
naic
naichaince
naichance
nain
naire
naissainche
naissance
nait
naite
najat
nakahira
nakajima
nakamura
naked
nale
nam
namara
name
named
names
nameur
namibie
namida
namiki
nampont
namur
nan
nana
nanals
nanar
nancy
nanie
naniwaya
nant
nanterre
nantes
nanty
naoto
nape
napiens
napole
napoleon
napoleone
napoli
napoule
napus
narcisse
narcissus
nard
nario
naris
narisse
nariste
naruhito
naruse
nasales
nasalisacion
nastro
nat
natacha
natale
natalis
natation
nateu
nateur
nathale
nathalie
nathan
nathaniel
natif
nation
national
nationale
nationales
nationaux
nations
native
nativite
natsuki
natsume
natura
naturale
naturalise
naturalisse
naturaliste
naturalistes
nature
naturel
naturelle
naturelles
naturels
natures
naturime
nau
naufrage
naushika
nausicaa
nautique
navare
navarre
navarrehenri
navarro
navbox
nave
navet
navette
navidjacion
navigabe
navigacion
navigateur
navigateurs
navigation
navire
navy
nawe
naxos
nazaire
nazare
nazart
nazelles
nazie
nazime
nazionale
nazis
nb
nc
ncbi
nche
nchen
ncia
nd
ndel
nder
ndez
ndin
nds
ne
near
nebraska
nec
neckarsteinach
necropolis
ned
nederlands
nederlandse
need
nef
nehttp
neiches
neige
neiges
neil
neko
nel
nelahozeves
nelle
nelly
nellyhalle
nelon
nels
nelson
nem
nement
nemint
nemints
nemorosum
nempont
nemuru
nen
neodiprion
neoklassizismus
neom
neon
neotraditionalismus
neptune
ner
nere
nergie
neri
nero
nerra
nery
nes
nesillas
nesle
nessie
net
nete
netflix
netherlands
neti
netrebko
netta
nette
network
neu
neuca
neucatel
neucha
neuches
neue
neues
neuf
neufcha
neufe
neufes
neuilly
neuly
neuma
neumolin
neur
neurmind
neurminde
neurmindes
neurmindie
neurminds
neustrie
neusumont
neusuvo
neute
neutre
neuve
neuvie
neuvien
neuvile
neuville
neuvillette
neuvireu
nevada
nevariantes
neve
never
nevers
neveu
neveux
neville
new
news
newton
next
nez
ng
nge
nghua
nguo
ngya
nhadau
nhat
nhe
nhehttp
nhevariantes
nhiassie
nhie
nhioe
nhk
nhui
ni
nia
niau
nibas
nibeu
nibo
nibu
nic
nicaise
nicaragua
niccolo
nice
nich
niche
niches
nichet
nichetti
nicheu
nicheusse
nichien
nichiens
nicht
nichts
nicien
nick
nicode
nicola
nicolai
nicolas
nicole
nicolette
nicolle
nicourt
nid
nids
nie
niehaus
nielles
nien
nienne
niente
nieppe
nies
niestle
nietzsche
nieu
nieuport
nieur
nieurlet
nieurs
nieus
nieuwenhuis
nifontaine
nifontinne
nig
nigaud
nigella
niger
night
nightingale
nights
nigmatique
nigme
nigra
nigripenne
nihon
nihonkai
niikuni
nike
nikolai
nil
niles
nim
nimas
nin
nina
nine
ning
ninghin
nini
ninkyo
ninnin
ninoche
ninsule
nio
niobe
niole
nippon
nique
niquet
nir
nirlinde
nirlindoe
nirlindofone
nirs
nirvana
nis
nishimura
nison
nisse
niste
nistrachon
nistracion
nistrateu
nistratif
nistrative
nisus
nite
nith
nithard
nitinche
nive
niveau
nivelles
niviau
nivie
nivieu
nivieus
nixon
nje
nky
nl
nm
nmain
nme
nmes
nmi
nmint
nmints
nmoe
nmoue
nn
nne
nnes
nneville
nnieu
no
noah
noait
nobe
nobel
nobes
nobiliaire
nobiliaires
nobily
nobis
noblat
noble
noblement
nobles
noblesse
noboru
nobuchi
nobuko
nocat
noce
noces
noche
nocion
nocq
noctua
nocturne
nocturnes
noe
noeditsection
noel
noemi
noeux
nogint
nohain
noi
noinclude
nointel
noir
noire
noires
noiret
noirrieu
noirs
nois
noise
noite
nollet
noly
nom
nombe
nombes
nombeus
nombre
nombreuse
nombreuses
nombreux
nome
nomi
nomination
nomine
nomme
nomoto
noms
nomura
non
nonche
none
nonesuch
nonette
nonne
nonnette
nonomiya
nons
noodle
noordpeene
nope
nopode
nopte
nor
nora
norbert
nord
nordbairisch
nordeclair
nordhessisch
nordobersa
nords
noreuil
noriko
noriture
norlu
norm
norma
normal
normale
normalement
normalisacion
normalise
normalize
normalmint
norman
normand
normande
normandes
normandie
normands
normandy
normanniae
normannorum
normaund
norme
normes
normind
norminde
normindie
norouet
norrent
norrint
norriture
nortboucourt
norte
north
northern
nortkerque
norve
nos
noster
nostra
nostre
nosuke
not
nota
notabilite
notables
notacion
notaire
notamment
notammint
notanmint
notation
note
notele
noter
notes
notice
notices
notier
notiques
notoc
notre
nots
notte
nou
noue
nouet
noules
noulette
noume
nounou
nounous
nouot
nour
nourrit
nourse
nourtier
nous
noutre
nouv
nouve
nouveau
nouveauville
nouveaux
nouvel
nouvelle
nouvelles
nouviau
nouviaus
nouvie
nouvieu
nouvieule
nouvieus
nouvion
nov
nova
novara
nove
novelle
november
novembre
noverre
novie
noviewer
novimbe
novimpe
novus
now
nowcommons
nowe
nowym
noy
noyaux
noye
noyelle
noyelles
noyer
noyon
noyonnais
noyots
nozawa
nozze
nr
nre
ns
nsk
nska
nske
nt
ntara
nu
nuages
nubicus
nucle
nud
nudo
nue
nueva
nufacture
nuit
nuits
nul
nule
nulle
nuls
num
number
nume
numenius
numerique
numerises
numismatique
nunc
nuncq
nuovi
nuovo
nurme
nus
nut
nv
nveu
nwartes
nwe
nwit
ny
nycticorax
nye
nymph
nymphe
nyroca
nys
nzi
nœux
o
oaire
oaki
ob
obake
obald
obe
obechi
oberlin
obi
obin
obje
objectif
objet
objets
oblad
oblicamp
oblie
oblier
obligacion
obligacions
obligatoire
obligatoires
oblige
obliques
obres
obriyeu
obry
obscura
obse
observateur
observations
observatoires
observe
observer
obtenir
obtenu
obtenue
obtenues
obtenus
obtient
obtint
obus
oc
oca
ocasion
occasion
occasionne
occhidint
occhidintal
occhidintale
occhitan
occident
occidental
occidentale
occidentalis
occidint
occitan
occitanie
occupachon
occupacion
occupation
occupations
occupe
oce
och
ochancourt
oche
oches
ochi
ochika
ochincourt
ochl
ochruros
oclachike
oclc
ocoche
oct
octave
octavi
octavie
octet
octets
octo
octobe
octobre
octope
octuor
od
odal
odale
odalite
ode
odeon
oder
odet
odette
odia
odile
odon
odontophoridae
odore
odoric
odrome
odysse
oe
oedicnemus
oei
oeil
oenanthe
oenas
oeuve
oeuves
oeuvre
oeuvres
of
ofe
off
offekerque
offenbach
offert
offerts
office
offices
offiche
offichie
offichiel
offichiellemint
official
officie
officiel
officielle
officiellement
officielles
officier
officinale
officinalis
offignie
offin
offre
ofiche
ofichie
ofichiel
ofichielle
oficia
oficial
oficie
ofinsive
og
ogata
ogg
ogive
ogiwara
ogni
ogothique
ogotike
ografe
ografie
ografies
ographes
ographie
ographique
ogresses
ogv
ogy
oh
oharu
ohio
oi
oie
oies
oignies
oil
oingne
ois
oise
oiseau
oiseaux
oisemont
oisi
oisquercq
oisy
oisycharles
oisyeustache
oisyjean
oisyjulien
oisyleur
oit
oizo
oizos
oji
ojon
ojons
ojos
okano
okayo
okeghem
okeh
okinu
okita
oklahoma
okoto
oksana
ol
ola
olav
old
ole
olena
oleracea
oles
olhain
olie
olien
oliennes
olier
olieux
olimpiade
olimpiades
olimpike
olimpikes
olimpique
olimpiques
olithique
olitike
olive
oliver
olivier
ollendorff
ollignies
ollivier
olocalisation
olodjie
olodjien
olodjikes
olodjique
olodjiques
olodjyin
ologia
ologie
ologien
ologike
ologikes
ologique
ologiques
ologue
oloque
olor
olympe
olympic
olympike
olympique
olympiques
om
omar
ombe
ombre
ombrelle
ombres
ome
omer
omie
omincourt
omitsu
omnivox
ompo
on
onard
onardo
onautike
once
onciale
oncle
onde
ondes
ondra
one
onepage
ones
oneux
ong
ongnies
oni
onions
onisse
onitsura
onival
onke
onkes
online
only
onmache
onme
onmes
onmle
onna
onne
onomastique
onor
onore
onq
onques
ons
ont
ontario
ontine
onu
onville
onyx
onze
onzie
ooh
oooooooo
oooooooooo
oooooooooooooooooooooooooooooooooooooooooooooooo
ooooooooooooooooooooooooooooooooooooooooooooooooo
op
opa
opale
opalopolis
opard
ope
open
openlibrary
oper
opera
opernhaus
ophile
opie
opinion
opinions
ople
oploo
opold
opolitique
oport
oportail
opose
oposicion
opperman
oppidum
oppio
opportune
oppose
oppy
opte
optimise
option
optionnel
optionnelle
optionnels
opus
opuscules
or
ora
orage
oral
orale
oran
orange
oranges
oratoe
oratoire
orcheste
orchester
orchestra
orchestre
orchide
orchies
orchis
orcq
orde
order
ordinaire
ordinateur
ordinateurs
ordine
ordo
ordonnance
ordonne
ordre
ore
oreille
oreiller
orelles
ores
orfe
orfeo
orfie
org
organe
organique
organisachon
organisacion
organisation
organisations
organise
organiser
organismes
organisse
organiste
orge
orgie
orgien
orgue
orgues
orgyia
ori
oricourt
orie
orient
oriental
orientale
orientales
orientalis
orientation
oriente
ories
origan
origanum
originaire
original
originale
originalite
originaux
origine
originelles
origines
originnal
originne
origny
oriintales
orin
oriol
oriolidae
oriolus
orique
orke
orkeste
orkestre
orland
orle
orleans
orme
ormeaux
ormy
orne
ornemint
ornithologike
ornithologique
ornithologue
ornithology
oro
orphe
orphelinat
ors
orsay
orse
orses
orsigno
orta
ortcheste
ortega
orthodoxcross
orthodoxe
orthographe
orthographique
orthopte
ortie
ortillon
ortillons
ortodoxe
ortodoxes
ortograf
ortografe
ortografie
ortougrafe
orville
orvue
ory
oryctolagus
oryint
oryintal
oryintale
os
osaka
osaki
osayo
osc
oscar
oscines
ose
oseille
oser
oshige
osieau
osier
osieu
osieus
oslo
osode
oson
osons
ospice
osse
osseus
osta
oste
osteichthyes
ostende
oster
osthessisch
ostiches
ostphalien
ostpommersch
ostralegus
ostrevant
ostrevent
ostricourt
ostro
osvaldo
oswald
ot
otan
otchupacion
otchupe
otchuper
otchuptte
ote
otes
other
othon
oti
otides
otils
otis
otiu
oto
otoko
otoku
otomobile
otriche
otrichien
otrike
otsuta
ottawa
otte
ottignies
otto
ottoman
otton
otus
otzenberger
ou
oubin
oubli
oubliant
oublie
oubrieu
oucrin
oucrinie
oucrinne
oud
oudart
oudry
oue
ouen
ouest
ouet
ouf
ouffo
ouffoe
ouganda
ougnie
oui
ouin
ouitchipe
ouk
oul
oulchy
oule
oupe
oupeu
our
ourdou
oure
ourme
ours
ourthe
ourton
ourviers
oust
oustrac
out
outaouais
oute
outer
outils
outis
outre
outreau
outriauwe
outside
ouve
ouvergne
ouvert
ouverte
ouvertes
ouverture
ouville
ouvr
ouvrache
ouvraches
ouvrage
ouvrages
ouvre
ouvrer
ouvreu
ouvrie
ouvrier
ouvriers
ouvrir
ouvroe
ouzbe
ovale
ove
ovec
over
overgne
overlap
override
overt
overture
overtures
ovide
ovile
ovillers
owada
owari
ox
oxford
oy
oyae
oye
oyu
oyuki
oz
ozaki
ozawa
ozieux
ozu
p
pa
pablo
pacard
pace
pacem
pache
paches
pachet
pachifike
pachqu
pacific
pacifike
pacifique
pacileo
packard
pad
padding
pade
padoa
padoue
padova
padre
padri
padua
pag
page
pagelibre
pages
pagesperso
pagne
pagnette
pagnol
pagnols
pagny
pagodinho
pagus
pahon
pai
paich
paigneu
paillard
paillart
paille
pain
painleve
painter
painting
pair
paire
paires
pairs
paisseur
paix
pake
pakistan
pal
pala
palace
palaestina
palais
palaiseau
palatine
palazzo
pale
palencia
palestine
palestinne
palestrina
paleta
palette
palettes
palfart
palio
palissy
pall
pallapugno
pallone
pallue
palluel
palma
palmare
palme
palmer
palmier
palotier
palottier
palumbus
palustris
pam
pamoins
pampelune
pamphle
pamphlet
pan
panama
panasse
pancartes
panche
panchus
panda
pandion
pandour
pandu
pane
panettone
pangloss
panneau
panneaux
panneresse
pannieu
pannieus
pano
panorama
panoramio
panoramique
pans
panse
pant
panthe
panthera
panurus
paola
paolo
paon
paons
pap
papa
papaute
papaver
pape
paper
papers
papes
papie
papier
papiers
papillon
papillons
papin
papy
paque
paquebot
paques
paquin
par
para
paracion
paracions
paraclet
parade
paradis
paradiso
paradoske
paragraphe
paragraphes
paraguay
parai
parale
paralle
parame
parameters
paramorder
paramore
params
parana
parant
parasuram
parateur
paration
parc
parce
parcelle
parchemin
parcielles
parcours
parcq
parcs
parde
pardieu
pardjure
pardon
pardri
pardrix
pardu
pare
pareil
parel
parent
parente
parents
parenty
parer
paresseux
parfaite
parfin
parfoe
parfois
parfos
parge
parges
pargne
pargny
pari
paridae
parigi
parinte
parints
paris
parisien
parisienne
parisiens
parisis
paristech
parjure
park
parker
parl
parla
parlache
parlant
parle
parlecques
parleke
parlementaires
parlemint
parleminte
parlemintoe
parlent
parler
parlers
parlette
parleur
parlmint
parloe
parltte
parmentier
parmentiers
parmi
parmint
parnou
parodie
paroe
paroisse
paroissiale
parole
paroles
parque
parquets
parra
parrot
pars
parserfunctions
parson
parsonalite
parsonnache
parsonnaches
parsonnage
parsonnages
parsonnalite
parsonne
parsonnes
part
partache
partage
partageus
partant
parte
partement
partemental
partementale
partementales
partemint
partemintal
partemints
partenariat
parti
partichions
partichipation
particion
particions
participacion
participacions
participation
participe
participer
participeront
particule
particules
particulie
particulier
particuliers
partie
partielle
parties
partir
partis
partisans
partita
partitchule
partition
partitions
partiye
partmint
partmints
partout
partrie
partrix
partte
party
paru
parue
parues
parus
parvenir
parvenus
parvile
parvis
pas
pasaka
pascal
pascale
pasqua
pasqual
pasque
pasquier
pasquille
pasquilles
pass
passa
passacalles
passache
passage
passagers
passages
passant
passe
passer
passereau
passereaus
passereaux
passerelle
passeri
passerida
passeridae
passeriformes
passeroidea
passette
passeu
passion
passionne
passions
passoait
passoe
passures
past
paste
pastel
pastellistes
pastels
pasternache
pasteu
pasteur
pasteurise
pastinaca
pastorale
pastura
pasture
pat
patachon
patalon
patarafe
patate
patay
patch
pate
patellie
pater
pateus
patin
patinache
patinage
patineu
patineus
patismit
patoe
patois
patoisant
patoisante
patoisantes
patoisants
patoises
patos
patre
patrem
patria
patric
patrice
patrick
patrie
patrimoe
patrimoine
patrimoinne
patrimone
patrimoue
patriotike
patriotique
patriotiques
patro
patron
patronage
patt
patte
pattern
patterns
pattes
pature
patures
patwas
patwe
pau
pauchet
paufes
pauffe
paul
paule
pauline
paulinho
paulo
paume
paure
paures
paus
pause
pauv
pauve
pauvert
pauves
pauvre
pauvrement
pauvres
pav
pave
pavel
paveudante
pavia
pavie
pavillon
pavillonnaire
pavilly
paviole
pavioles
pavo
pavot
pay
paye
payelle
payen
payin
payins
payis
payot
pays
paysage
paysages
paysan
paysanne
paysans
paz
pc
pcd
pcdcate
pce
pcf
pci
pcion
pdc
pdf
pdg
pe
peabody
peace
peacock
pearl
peau
pechie
pecoul
pecq
pecquencourt
pedersen
pedro
pee
peer
peeters
peiche
peignage
peigne
peilly
peinde
peindro
peine
peines
peint
peinte
peintes
peintre
peintres
peinture
peintures
peket
pelagicus
pelcerf
pelecaniformes
pelle
pelota
pelote
pelouse
pelouses
pen
pend
pendant
pende
pendeloque
pendjabi
pendragon
pendue
penelope
penguin
penin
pennsilfaanisch
pennsylvania
pennsylvanie
pennsylvanien
pense
penser
pentel
peont
people
pepper
per
perc
perca
perce
perceval
perche
percher
percot
percussion
percussionnisses
percussions
percy
perd
perde
perdere
perdix
perdoaison
perdoaisons
perdonne
perdre
perdrix
perdrou
perdtte
perdu
perdue
perdus
peregrinus
perenni
perez
perfect
perfin
perfoait
perfoaits
perfoe
performance
performances
performers
perie
perinne
period
perkins
perle
perler
perles
permanent
permaninte
perme
permet
permettant
permins
permis
permission
permissions
pernaut
pernes
pernois
perons
perpare
perpe
perpetuel
perpignan
perrault
perret
perrin
perrochaud
perroquet
perrotchet
pers
persan
perse
persee
perso
person
personal
personnache
personnaches
personnage
personnages
personnalisation
personnalite
personne
personnel
personnelle
personnelles
personnes
perspective
perspectives
persyn
pert
perthes
pertie
pertoire
pertout
pertri
peruwelz
pervis
pervnu
pervyinntte
pes
peste
pestel
petcheus
pete
peter
petersburg
peterson
peterswar
petit
petite
petites
petits
petrus
peu
peuchin
peugeot
peule
peules
peume
peumes
peumie
peupe
peupes
peuple
peuplements
peuples
peuplier
peur
peursidint
peut
peuve
peuvent
peuves
peuvette
peynaud
peyronnet
pezzi
pfaff
pfaffenhoffen
pfender
pg
ph
phalacrocorax
phane
phanie
phant
phare
pharmacie
phase
phasianidae
phasianus
phe
phil
philadelphia
philadelphie
phile
philharmonic
philibert
philip
philipp
philippa
philippe
philippines
phillipe
philo
philologie
philologique
philologiques
philomachus
philome
philomelos
philosophes
philosophie
philosophique
phinaert
phine
phoenicurus
phoenix
phone
phonetic
phore
photo
photographie
photographies
photographique
photos
php
phragmite
phrase
phrygien
phylloscopus
phyloge
physique
phytosociologie
pi
pia
piaf
pianisse
piano
pianos
piat
piau
piazza
pib
pic
pica
picabia
picard
picarde
picardes
picardia
picardie
picardieleft
picardisant
picardisants
picardismes
picardiye
picards
picardus
picardy
picarte
picartes
picartext
picarvie
picasso
picau
piccardo
piccola
pice
pices
piche
piches
picholit
pichon
pichons
pichoulit
picier
piciformes
picking
pico
picoche
picon
picot
picquet
picquigny
picsels
picture
picus
pide
pie
pieces
pied
pieds
pieinne
piemontesi
pier
pierfrancesco
piero
pierre
pierrefonds
pierres
pierrette
pierrot
piet
pieta
pieter
pietro
piette
pieu
pieuqhe
pieus
pieute
pieux
pigalle
pigaut
pigeon
pigeonnier
pigeons
pignon
pihe
pihem
pihen
pihin
pik
pikar
pikardie
pike
piketty
pila
pilate
pilchardus
pile
piles
pilet
pilhiu
pilier
piliers
pilipines
pillaguet
pille
pillole
pilot
pilota
pilote
pilsner
pimperbole
pin
pina
pinakothek
pinceau
pinchaire
pinchard
pinche
pinchefalise
pinches
pinchon
pind
pinda
pindaint
pindance
pindances
pindanche
pindant
pindante
pinde
pinderie
pinderleots
pindinches
pindint
pindoait
pindolo
pindouot
pindu
pindure
pindus
pine
pines
pinette
pineuse
pineuzon
pingitore
pinguet
pinie
pinien
pinjon
pink
pinkigni
pinnatum
pinne
pinoche
pinoke
pinon
pinot
pinoy
pins
pinse
pinser
pinses
pinseus
pinsoe
pinson
pinstte
pint
pintardes
pintateuke
pintatonike
pintatonikes
pinte
pintecoute
pintes
pinthe
pinto
pintu
pinture
pintures
pinyin
pio
pion
pioneer
pionne
pionnier
pionniers
piot
piotr
piots
pipaix
pipasso
pipe
pipette
pipi
pipit
piposa
pique
piquet
piqueur
pir
pirate
pirates
pire
pires
piret
piruw
pis
pisano
piscatorius
piscine
pisode
pisodes
pisqu
pisque
piss
pisseleu
pissenlit
pisson
pissy
piste
pistes
pistoles
pistolet
pistons
pit
pital
pitchet
pitchigny
pite
pites
pitie
pitit
pittefaux
pittellioen
pittoresque
piu
pius
pivert
pivezo
pivoine
pivot
pixar
pixels
pl
pla
place
placer
places
plach
plache
plachemint
plaches
plachy
placid
plade
plafond
plage
plai
plaiji
plain
plaine
plaines
plaingne
plainne
plainte
plainville
plaire
plaise
plaisi
plaisir
plait
plake
plan
plancartes
planche
planches
planchon
planck
plancton
plane
plangne
plangnes
plankes
planque
planques
planquette
plans
plant
plantagene
plantago
plantation
plante
plantes
plantilla
plantin
plants
plaque
plaques
plaquette
plasma
plasse
plasticien
plastiques
plat
plata
platalea
plate
plateau
platel
platelette
platessa
plath
plathioe
platiau
platier
platieu
platine
platon
plats
platyrhynchos
plautus
play
playboys
player
playlist
plays
playsant
plaza
plcalv
ple
please
plein
pleine
pleins
plessier
plessii
plessis
pletinckx
pleu
pleume
pleumecoq
pleumes
pleumoe
pleupleu
pleure
pleurie
pleuriel
pleuronectes
pleurs
pleut
pleuve
pleuves
plie
plinte
plintes
plique
plis
plisnier
ploegsteert
plomb
plon
plongeon
plot
plotarea
plotdata
plote
plots
plouvain
plouy
plovre
plu
pluie
plume
plumes
plupart
pluridisciplinaire
pluriel
plus
plusieurs
plusieus
plut
pluto
pluvialis
pluvier
plzen
pm
pmu
pna
pnancourt
png
po
poaire
poais
poaix
poaiyis
poaiyisan
poaiyisans
poaiyisdechmahon
poaiyoe
pocageus
poche
poco
pod
podevin
podiceps
podicipedidae
podium
poe
poem
poemes
poems
poen
poesia
poesie
poeta
poete
poetry
poeuilly
poi
poids
poilly
poils
poilu
poin
poing
poinme
poinmes
point
pointe
pointille
points
pointu
poire
poires
poiret
poirier
pois
poisson
poiteau
poiteux
poitiers
poitrine
poix
poke
poker
pol
pola
polaire
poland
polar
pole
poli
police
policiers
polies
polinaire
polincove
poline
polissoe
polite
politica
politichien
politike
politikes
politique
politiques
pollet
polo
pologne
polone
polonia
polonne
polska
polvere
polychrome
polyglotta
polyglotte
polygram
polyne
polyorama
polyte
polytech
polytechnique
pome
pommeau
pommera
pommes
pommiers
pompadour
pompe
pompidou
pompiers
pompieux
pon
ponce
ponche
ponches
ponchon
ponctue
pond
ponde
pondra
poney
ponme
ponnou
ponse
ponses
pont
pontes
pontfort
ponthieu
pontieu
pontique
pontiu
pontoe
pontoise
ponts
ponyo
pop
popaul
pope
popincourt
poppies
poptastic
populachon
populacion
populacions
populaire
populaires
population
popule
populoaire
populoaires
populoe
populus
poque
por
porc
porcelaine
porche
porches
porcheu
porco
porduire
porduiztte
pore
poreau
porfond
porfonde
porfondeur
porgne
porion
porjet
poroait
porquoe
porquoi
porsuire
port
porta
portabe
portail
portal
portals
portant
portation
porte
portel
portelois
portent
porter
portes
portette
porteur
portlesguez
porto
portoe
portons
portraicts
portrait
portraits
portroait
ports
portuaire
portudjais
portue
portugais
portugaise
portugal
portugoe
portugue
portus
porzana
pos
pose
posent
posicion
positif
position
positive
posse
possessif
possession
possessions
possibe
possibilite
possible
possibles
possipe
post
postal
postale
postales
poste
postel
poster
postes
postface
posthume
posthumes
posto
postume
pot
potache
potager
pote
poteau
potelle
potence
potentilla
poterie
poteries
potez
potieaux
potier
potjevleesch
pots
potte
potter
pottier
pou
pouache
pouacre
poubel
pouce
pouchin
pouchkine
poude
poue
pouille
pouillette
pouilleu
pouillot
pouillu
pouilly
pouis
poulain
poulainville
pouldinde
poule
poulenc
poulet
poulette
poulhe
poulhes
pouliquen
poulot
poulouches
poulpaphone
poultier
poum
pounks
poupe
pouquo
pour
pourchau
pourcheau
pourcheaus
pourchentache
pourchintage
pourdinne
pouris
pourle
pourme
pourpe
pourpre
pourquoe
pourquoi
pourra
pourre
pourri
pourris
pourront
poursuit
pourtant
pourvinche
pourvinches
pousant
pouse
pouser
pousse
pousser
poussie
poussin
poussins
pousstte
poute
poutre
poutrincourt
pouvoe
pouvoir
pouvons
poux
poves
poviez
povoe
povons
povre
powe
power
poye
poyis
pozie
poznan
pp
ppa
ppeville
pr
prado
prag
prague
praha
prairial
prairie
prance
prarond
prat
pratensis
pratike
pratikes
pratique
pratiques
prato
prayer
prayez
prazdroj
pre
predefinic
pref
preind
preiss
premie
premier
premiers
premio
premiumwanadoo
prend
prendre
prenez
prenne
pres
presbyte
prescript
present
presentation
presque
press
presse
presses
pression
pressor
prestige
prettyphoto
preu
preume
preumes
preumie
preures
preus
preusidint
preusinte
preuve
preuves
preux
prevost
prey
pri
prie
prier
priest
prieur
prieure
prigne
prima
prime
primitif
primitifs
primitive
primorum
prin
princ
prince
princes
princess
princesse
princeton
prinche
princhesse
princhipal
princhipale
princhipalemint
princhipales
princhipalmint
princhipals
princhipaute
princhipaux
princhipe
princhipes
principal
principale
principalemint
principals
principaute
principaux
principe
principes
prind
prindant
prinde
prindoe
prinds
prindtte
pringuet
prinmie
prins
prinse
print
printans
printe
printed
printemps
printsec
prioral
priorite
pris
prise
prises
priseur
prison
prisongnie
prisonnie
prisonnier
prisse
prit
privacionnime
privaret
privat
private
prive
privile
prix
prize
pro
probabe
probabilite
probable
probablement
probablemint
proble
problem
probus
proce
procellariiformes
procession
processionnaire
processionnels
prochaine
proche
proches
procure
prodje
prodjet
producchon
produccion
produccions
product
producteu
producteur
production
productions
produire
produisant
produit
produits
produtor
proe
prof
profane
profanne
profe
professeu
professeue
professeur
professionne
professionnel
professionnelle
professionnels
profile
profit
profite
profiter
profonde
profondeur
progne
progneu
programador
programmation
programme
programmes
progre
progression
progressive
project
projectexample
projection
projects
projet
projete
prole
prologue
prolongemint
prom
promenade
promenades
prominse
promis
promocion
promoteu
promotion
promu
pron
pronne
pronnieu
pronnieux
pronom
pronoms
prononce
prononcer
prononchacion
prononche
prononcher
prononciachon
prononciacion
prononciation
pronts
pronunciation
pronville
prope
propes
propice
proportions
propos
propose
proposicion
propositions
propre
proprie
proprio
prosa
prose
proses
prosodie
prospe
prosper
prostitue
prot
protais
prote
protection
protestant
protestante
protestantes
protestantime
protestants
protestintisme
proto
protocole
prou
proumenade
proupous
proussel
proust
prouve
prouver
prouvin
prouvinche
prouvinches
prouzi
prova
prove
provenc
provence
proverbes
provient
proville
provin
province
provinces
provinch
provinche
provinches
provinchial
provincia
provincial
provinciale
provisoe
provoque
proyart
proyer
pruche
prudefin
prumie
prumier
prumiers
prune
pruneau
prunella
prunellidae
prunes
prunier
prunme
prunmie
prunmier
prunmiers
prunus
pruse
prussien
prussienne
prussiens
pruvost
pruvtte
ps
psalm
psaumes
pseudo
pseudonyme
pseumes
psicologike
psimg
pswissant
psych
psyche
psychiatrique
psychologique
psychostar
psykolodjie
pt
pte
ptiot
ptiote
ptiotes
ptiots
ptit
ptite
ptites
ptits
ptole
pts
ptt
pu
pub
publi
public
publicachon
publicachons
publicacion
publicacions
publicain
publication
publications
publicite
publics
publie
publike
publikes
publique
publiques
publisher
publishers
publishing
publius
publiye
puc
puccini
puce
pucelette
puchante
puche
puches
pucheu
puchvile
pudie
puerto
puf
puffin
puffinus
pugnax
puhin
pui
puin
puis
puise
puisieux
puisque
puissance
puissances
puissanche
puissant
puissante
puissants
puits
pulcella
pulcre
pulitzer
pulture
pultures
pumila
punch
punk
puno
punta
punto
puntos
pupart
pupi
pur
purcell
pure
puremint
pures
purple
purpurea
pus
puscule
pusieurs
pusieus
pusiurs
puss
pusse
put
putacion
pute
puto
putois
putot
putouos
putre
puts
puvant
puveret
puvoe
puvtte
puy
puydt
puys
puzeu
puzzle
pv
pw
pwe
px
py
pyeongchang
pygargue
pygargus
pygme
pyidaloehe
pyr
pyramide
pyre
pyrenaica
pyromusical
pyrrhocorax
pyrrhula
python
q
qalam
qant
qh
qhe
qheue
qhie
qhin
qhiote
qhuraze
qhyin
qi
qu
qua
quador
quadrata
quadrille
quae
quai
quaintite
quais
qualifie
qualite
quan
quancourt
quand
quando
quang
quanqu
quanque
quant
quante
quantite
quants
quarantaine
quarante
quaregnon
quarre
quart
quartet
quartie
quartier
quarts
quasi
quasimint
quasimodo
quat
quate
quater
quaternaire
quates
quateur
quatie
quatore
quatorze
quatrain
quatrains
quatre
quatrie
quatt
quatuor
quatuors
quays
que
queant
queen
quehir
quei
quel
quelconque
quelle
quelles
quelqu
quelque
quelques
quem
quement
quemment
quence
quences
quend
quene
quenne
quenouille
quent
quentin
quentovic
quequ
queques
quequet
quer
quercamps
querchin
quercus
quercy
querdes
querelles
querelleur
quernes
querquedula
querre
querrieu
querve
query
ques
quesne
quesnel
quesnes
quesnoy
queste
question
questione
questionnaire
questions
questres
quette
queu
queuchoy
queue
queues
queufour
queuille
queuq
queuqu
queuques
queus
queux
quevau
queysanne
qui
quibus
quichotte
quick
quiconque
quid
quie
quien
quiens
quier
quiers
quieste
quignon
quille
quilles
quillon
quimper
quin
quince
quinche
quincourt
quincy
quind
quinet
quinoxe
quinquet
quinquets
quinquin
quint
quintana
quinte
quintet
quintette
quintin
quintini
quintus
quinze
quio
quipe
quiq
quique
quiques
quitte
quitter
quivalintes
quo
quoe
quoi
quotidien
quotidienne
quy
quœux
r
ra
rabe
rabelais
rabischon
rabistotche
rable
rables
rabutin
rac
racate
race
races
rache
rachel
rachin
rachine
rachinne
rachinnes
rachon
racinet
racing
racion
racions
rackham
racont
racontas
raconte
raconter
racontette
racquinghem
racquinghin
rade
radegonde
radical
radinghem
radio
radiodiffuse
radiodiffusion
radiofonike
radiophonique
radiophoniques
radios
rae
rafael
rafale
raff
raffale
rafoe
rafore
raforer
rafre
raga
rage
ragtime
raguidel
raheussie
rai
raia
raids
raidue
raie
rail
rain
rainbow
rainchveu
raine
rainecourt
rainevo
raining
rainne
rainy
raire
raires
rais
raisin
raismes
raismesfest
raison
raisonne
raisons
raitre
raiuno
raja
rajoute
ral
rald
raldike
raldine
raldique
rale
ralement
ralemint
rales
ralite
ralli
rallonger
rallye
ralmint
rals
ram
rama
ramazzotti
rambouillet
rambour
rambure
ramburelle
rambures
rame
rameau
ramecourt
ramier
ramindos
ramint
ramintuvances
ramintuve
ramintuvoe
ramintuvouer
ramintuvries
ramique
ramiques
ramisse
ramisses
rammenau
ramne
ramo
ramoe
ramon
ramond
ramone
ramont
rampal
ramparts
rampe
ramsar
ran
rance
ranch
ranchecourt
ranchicourt
rancourt
rancy
rand
randonne
rang
range
ranger
rangs
ranie
ranien
rankings
ranmintuvoe
ransart
ransom
rant
rante
ranto
raoul
rap
rape
raphae
raphael
raphin
rapide
rapidemint
rapides
rapilly
rapinsemint
rapleu
raport
raporte
rappel
rappeu
rapport
rapporte
rapprocher
raqhet
raques
rard
rare
rares
rarmint
rarringe
rarringer
ras
rase
rasho
rashomon
raspall
rassann
rassanne
rasse
rasseneur
rassimble
rat
ratache
ratai
ratche
ratchet
ratchette
rate
rateurs
rathaus
ratif
ration
rations
ratites
rative
raton
ratre
ratrice
ratro
ratruchries
rattache
rature
ratures
rau
raules
rault
raus
raux
ravage
rave
ravel
raveline
raveni
ravez
ravisant
ravise
raviser
ravitaillmint
ravoe
ravu
ray
raye
raymond
raymonde
rayon
rayons
razade
razie
rb
rba
rbace
rbache
rbatie
rbatir
rbe
rberie
rberoe
rbes
rbeu
rbiale
rbigny
rbioe
rbis
rbond
rbotin
rbou
rboue
rbroe
rbuchon
rc
rca
rcane
rce
rcette
rchand
rche
rchelainne
rcher
rchette
rchiales
rchie
rchienne
rchincourt
rchite
rcho
rchoe
rchon
rchu
rchus
rchuvoe
rchuvoue
rchy
rci
rciche
rcine
rcinsemint
rcke
rclo
rcolize
rcone
rconnoe
rconnu
rconstruccion
rconstruit
rconstruite
rcontche
rcourt
rcout
rcueul
rcure
rd
rda
rdainne
rde
rdes
rdhie
rdi
rdin
rdinal
rdio
rdit
rdon
rdore
rdoreu
rdre
rdrecque
rdron
rds
rdu
rducchon
rduchon
rduire
rduit
rduites
rduits
rdukcions
rdure
rdus
re
reagan
real
realisateu
reau
rebekka
rebelles
rebergues
rebond
rebot
rebours
rebreuve
rec
recensement
recette
receveur
recherche
rechercher
recherches
reclus
recommandation
recommande
reconstitution
reconstruction
record
recorded
recorder
recording
recordings
records
recq
recques
rect
rectangue
recueil
recueillies
recueillis
recueils
recule
recurvirostra
red
redalie
rederie
redirection
rediriger
redoubt
redoute
redresse
reel
ref
reference
refle
reflets
reflexa
reflist
refrain
refuge
refus
regard
regarde
regards
regel
reggae
reggio
regia
regina
region
regional
regione
regions
regis
registre
regnart
regnum
regrets
regrette
regulidae
regulus
rehttp
rei
reich
reiffenberg
reille
reilles
reillot
reims
reinches
reindre
reine
reines
reinhardt
reinhoud
reinne
reiwa
relais
relate
related
relatif
relatifs
relations
relative
relativement
relatives
rele
releve
reliant
relidjieuses
relidjion
relie
relief
reliefs
religieuse
religieuses
religieux
religion
religions
relingue
reliquaire
reliques
reliure
relles
relou
rely
remarquable
remarquables
remarque
rembrandt
reme
remembrance
rement
remi
remilly
remint
remix
remo
remonte
rempart
remparts
remplace
remplacer
remy
ren
renaissance
renard
renart
renaud
renaudot
renault
rence
rences
rencontre
rencontrer
rencontres
rend
rende
rendent
rendez
rendu
rendus
rene
rennes
renoir
renomme
renouard
renseigner
rent
rente
rentes
rentre
rents
renty
renvoie
reos
repe
reportage
reports
repos
repre
reprenant
reprend
reprint
repris
reprise
reprises
reproduction
reproductions
reptiles
repu
repubblica
republic
republika
req
requests
requiem
requin
required
rer
rerum
res
rescape
rescue
research
resende
resnum
respect
responsabe
resse
resses
ressource
ressources
rest
restauracion
restaurant
restauration
restaure
reste
restent
rester
restes
restitue
result
ret
retabe
retable
retables
retaux
retire
retour
retourne
retraite
retrato
retrieved
retrouve
retrouver
rette
rettes
return
returning
reu
reue
reulou
reural
reus
reuse
reut
reuze
rev
revanche
revariantes
revenant
revenir
revenu
revenus
revers
reverse
reviennent
review
revista
revival
revoir
revue
revues
rex
rey
reynaud
reynolds
rez
rezensionen
rfauw
rfay
rfayin
rfc
rfe
rfichie
rfoait
rfoaite
rfoaits
rfrain
rfuse
rg
rgb
rgba
rge
rgicourt
rgie
rgne
rgny
rgou
rgrite
rgroupant
rgroupe
rgure
rhabillures
rhapsodie
rhapsody
rhe
rhead
rhin
rho
rhodes
rhoeas
rhum
rhythm
ri
ria
riache
riage
rial
riale
rian
riancourt
rianne
rias
riau
riaux
ribaucourt
ribaudkins
ribe
ribeaucourt
ribemont
ribes
ribieucourt
ric
rica
ricain
ricaine
ricaines
ricainne
ricard
ricault
riccardo
ricerca
rich
richard
richardot
richards
richardwww
richau
riche
richebourg
richelieu
richepin
riches
richesse
richesses
richie
richon
richter
richthofen
rico
ricordati
ricorde
ricouart
ricour
ricourt
ricq
ricquebourq
rictiovarus
rictrude
ride
rideau
ridenne
ridens
ridge
ridibundus
ridin
ridional
ridionale
ridionnale
rie
riel
rien
rience
riencourt
rienne
riennes
riens
rier
riers
ries
rietstap
rietz
rieu
rieue
rieulay
rieun
rieur
rieure
rieures
rieurs
rieus
rieuse
rieuses
rieux
riez
rif
rife
riff
rifier
riformes
riftoutdju
riga
rigaud
rige
right
rigmont
rignie
rigobert
rigole
rigord
rigueux
riguingo
riguinguette
rika
rike
rikes
rikin
rikins
rikyu
riley
rimbaud
rimbert
rimboval
rimbovau
rime
rimes
rimfred
rimini
riminte
rimpart
rimparts
rimplace
rimplache
rimplacher
rimpli
rimplis
rimporte
rimski
rin
rinaire
rinces
rinche
rinches
rinchette
rinchon
rincont
rinconte
rincontes
rincontre
rincontrer
rincquessent
rind
rinde
rindez
rindiens
rindonne
rindu
rindue
rine
rinette
rinforche
rinforcher
rinforts
ring
ringand
ringant
ringe
ringne
rings
ringue
rinkinkin
rinliye
rinmecourt
rinne
rinnes
rinneville
rins
rint
rintasse
rintdinldainne
rinte
rintes
rintre
rintrer
rints
rintt
rinvile
rinxent
rio
riode
riodes
riodique
rioe
riomplanque
rion
rions
rios
riot
riots
riparia
ripuaire
rique
riques
riquier
rir
rire
rirons
ris
risation
risban
rise
risi
risien
risin
rism
risme
riso
rison
risque
rissart
risse
risset
rissoles
risson
ristike
ristikes
ristuccia
rit
rita
ritabe
ritable
ritache
ritage
ritance
ritchain
ritchaine
ritche
ritcher
ritchier
ritchin
ritchins
rite
rites
ritie
ritier
ritiers
ritme
ritoe
ritorno
riu
rius
rivage
rival
rivalite
rive
river
rives
rivet
riveux
rivie
rivroe
rix
rixens
rixensart
riz
rizzoli
rj
rje
rjie
rjoint
rjoints
rk
rke
rkischludwig
rl
rlache
rlacions
rlage
rle
rler
rlers
rles
rlet
rlette
rleu
rlie
rligieus
rligieuse
rligieuses
rligion
rligions
rlijieuze
rlikes
rlin
rlincourt
rliques
rlo
rlon
rlu
rlure
rluve
rly
rm
rmain
rmaine
rmains
rmanie
rmanike
rmanique
rmaniques
rmano
rmanofone
rmans
rmarie
rmaville
rme
rmelinghin
rmes
rmeu
rmeugie
rmf
rmignie
rmin
rmindoe
rmindos
rminduvile
rmine
rmini
rmint
rmintachon
rmir
rmis
rmise
rmite
rml
rmont
rmonte
rmontoe
rmouchon
rmov
rmr
rmtx
rn
rna
rnache
rnacional
rnaculoe
rnal
rnant
rnante
rnard
rnative
rne
rnel
rnemint
rnemintales
rnes
rneu
rnevile
rnhe
rnie
rnile
rnincourt
rno
rnoe
rnouille
rnouilles
rnoule
rnoules
rnoulhe
rnouvieu
rnr
rny
ro
road
roaire
roaisin
roaison
roaisons
roait
roaiyonnant
roaiyonne
rob
robaut
robe
robecq
robecques
robert
roberta
roberto
roberts
robertson
robespierre
robic
robin
robinet
robinets
robinson
roblot
robot
roc
rocade
rocamadour
rocca
rocco
roch
roche
rochefort
rochefoucauld
rocher
rocheux
rochon
rock
rocker
roclincourt
rocourt
rode
rodelinghem
rodia
rodie
rodin
rodolphe
rodovid
rodrigo
rodrigues
roduit
roe
roepstem
roeulx
rogation
roger
rogerol
rogers
rogier
rogins
rogne
rohan
rohard
rohault
roi
roir
rois
roise
roisin
roit
roitelet
rojin
rojins
roke
rokuro
roland
rolande
role
roles
rolin
roll
rolland
rollez
rolling
rollon
rollot
rom
roma
romagne
romagnol
romain
romaine
romaines
romainne
romainnes
romainnise
romains
roman
romana
romance
romances
romanche
romanchier
romancier
romane
romanes
romanesques
romanne
romannes
romano
romanov
romans
romantike
romantime
romantique
romanzo
rombly
rome
romelae
romier
rompe
rompus
ron
ronald
ronautique
ronche
roncheu
ronchin
ronciglione
roncq
rond
rondart
ronde
rondeau
rondes
rondo
ronds
rone
ronger
ronin
ronique
ronmain
ronmainne
ronmainnes
ronmains
ronman
ronmanne
ronme
ronne
ronnes
ronny
rononme
rons
ront
room
roost
ropi
roplane
roport
roquetoire
roquette
rorganisacion
rorganiser
rorisses
ros
rosa
rosace
rosaceae
rosaire
rosalie
rosamel
rosati
rose
roseaux
roselie
rosenberg
rosendae
roses
rosie
rosier
rosieus
rosine
rosion
rosner
ross
rossel
rossetti
rossi
rossigno
rossignol
rosso
rossonoemi
rosy
rot
rotation
rote
rotelot
rothschild
rotique
rotonde
rou
rouanne
rouart
roubais
roubaix
roube
rouche
rouches
rouchi
roucouler
roucourt
roucy
roue
rouen
rouergue
rouf
rouge
rougefay
rougemont
rougequeue
rouges
rougy
rouie
rouille
roujhe
roujin
roul
roulant
roule
rouler
rouleusses
roulland
roulotte
roumain
roumanie
roundhay
rouo
rouos
roupeau
rousie
rousle
rousse
rousseau
rousseaux
roussel
rousseline
roussent
rousserolle
roussillon
rousti
route
routeler
routemap
routes
routie
routonnates
rouvert
rouvin
rouvre
rouvres
rouvro
rouvroe
rouvroy
roux
rouy
rove
rovingien
rovingienne
rovingiens
row
roy
royal
royale
royaume
royaute
royaux
roye
royon
royons
rozala
roze
rozier
rozinvile
rpchon
rpe
rpes
rpigny
rpille
rpintoe
rploe
rpont
rpos
rpose
rpre
rprind
rprinde
rprins
rpris
rprise
rprises
rqhe
rque
rquignu
rquy
rr
rrain
rre
rrega
rrerie
rres
rri
rrie
rriers
rris
rritoe
rriu
rronnier
rroviaire
rrurerie
rrurier
rs
rsanne
rsanntte
rse
rsin
rsinte
rsion
rsoe
rsonache
rsonne
rsources
rt
rtain
rtaines
rtainne
rtangue
rtanne
rtbf
rtche
rtcher
rtcheuil
rtcheuille
rtchuiche
rte
rterbuch
rterduit
rterduite
rterduites
rtes
rteskes
rteucourt
rteuil
rtgny
rthie
rticale
rtiens
rtir
rtire
rtirer
rtires
rtirie
rtl
rto
rton
rtons
rtonvile
rtos
rtour
rtradui
rtraduit
rtraite
rtreuve
rtruve
rts
rture
rtyr
ru
ruban
rubecula
rubens
rubimpre
rubra
rubrouck
rude
rudit
rudmint
rudy
rudyard
rue
rueil
ruelle
rues
rufa
ruffiano
ruficollis
rufina
rufus
rugbi
rugby
ruin
ruine
ruines
ruinne
ruinnes
ruisseau
ruisseauville
ruisseaux
ruitz
ruiz
rullecourt
rum
rumilly
ruminghem
ruminghin
rumsey
run
rungen
rupcion
rupert
rupr
rupture
ruque
rural
rurale
rus
rusalem
ruse
rush
rusi
rusien
russ
russe
russell
russes
russia
russian
russie
russo
rustica
rusticola
rustiques
rusyin
rute
ruwelz
ruyaulcourt
rva
rvariantes
rvateu
rvatoe
rve
rvelle
rvenir
rves
rveu
rvice
rvie
rviendras
rviens
rvient
rville
rvin
rvinge
rvir
rvnant
rvnir
rvnu
rvoe
rvoue
rvue
rvues
rvyint
rwanda
rwane
rwe
ry
ryan
ryerson
ryokan
rythme
rythmique
ryu
rze
rziau
rzille
rœux
s
sa
sabbat
sabbath
sabe
sabes
sabine
sable
sablier
sablon
sabotiers
sabots
sabras
sabre
sabrina
saburo
sac
sacajtte
sache
sacherdoce
saches
sachin
saclet
sacramento
sacre
sacrement
sacrements
sacristie
sacsons
sad
sadao
sade
sades
safants
saffecte
saga
sage
sagebien
sages
sagesse
saget
sagez
saglio
sahara
sai
saillin
saillisel
sailly
sain
saine
saing
sainghin
saingneu
sainneville
sains
saint
sainte
saintes
saints
saintte
sainvile
sais
saiseon
saisevo
saisie
saisissemints
saison
saisons
saisseval
sait
saitige
saito
sajons
sakai
sakata
sake
sakeu
sakke
sakurai
sal
salade
salaire
salamandra
salamandre
salau
salauds
sale
salembier
salengro
salerno
sales
saletkzi
salette
saletzki
saleux
salicornia
saliens
salix
sallaumine
sallaumines
salle
salles
salmon
salome
salomon
salon
salonmon
salons
salope
saloue
salt
salut
salvador
salvatore
salve
salvia
sam
sama
samara
samarobriua
samarobriva
samba
sambas
sambe
sambre
same
samedi
samer
sammy
samoa
samoreau
samourai
sampson
samson
samuel
samurai
san
sanae
sanbu
sanchis
sancho
sancourt
sancti
sanctorum
sanctuaire
sanctuary
sandelin
sandemont
sandoval
sandra
sandre
sandrine
sandvicensis
sang
sanga
sangatte
sange
sanghen
sangiovese
sangla
sanglier
sangneu
sangneur
sangneurie
sanguinea
sanier
sanju
sanjuro
sankt
sanli
sanmuel
sanne
sannier
sanremo
sans
sansen
sanshiro
sanskrit
sansonnet
sant
santa
santana
sante
santerre
santes
santi
santiago
santo
sants
sao
saou
saoudite
saous
sapiens
sapignies
sapin
sapins
sapporo
sapre
saquants
saque
saqueus
saquoi
sar
sara
saragosse
sarah
sarari
sarasol
sarcelle
sarcus
sardaigne
sarde
sardina
sardine
sarg
sargent
sarny
sarrasins
sarre
sars
sart
sarthe
sarton
sartre
sas
sasa
sasaki
sassanelli
sassanides
satan
satanite
satellite
satellites
satie
satires
satirike
satirique
sativa
sativus
satt
saturday
saturne
saturnin
saturno
sau
saubruit
sauchy
saucisse
saudade
saudarts
saudemont
sauf
sauflieu
saulchoy
saule
saulges
saulty
saulve
saumur
sausen
saut
saute
sauvache
sauvaches
sauvage
sauvages
sauve
sauvegarde
sauver
sauvetage
sauveu
sauveur
sav
savall
savant
savantes
savants
savary
save
saved
saventures
saveurs
saveuse
savey
savez
saving
savoe
savoie
savoir
savon
savot
savoy
savy
saxe
saxicola
saxofone
saxofones
saxofonisse
saxon
saxons
saxophone
sayne
sayoko
sc
scaglia
scaille
scailler
scalemajor
scaleminor
scalles
scandale
scandinave
scandinaves
scandinavie
scaphandre
scapin
scarabaeidae
scarpe
scarpelle
scassenes
scaubecq
scaup
sce
sceau
sceaux
scenarisse
scene
scenes
scepcionne
schach
schad
sche
schengen
scheut
schierano
schilling
schizophre
schlanmeu
schleißheim
schlesisch
schleswig
schloss
schmalenbach
schmitt
schnabel
schneider
scho
schoeniclus
schoenobaenus
schoenoprasum
schola
school
schreber
schriewer
schubert
schulich
schurr
schwandt
schwarze
schwerte
science
sciences
scienche
scienches
scientifike
scientifique
scientifiques
scirpaceus
sclusivemint
sco
scoeuilles
scofield
scofieu
scolaire
scolopacidae
scolopax
scope
scops
score
scorpion
scots
scott
scourmont
scours
scre
scribande
scripcion
scripta
scrire
scriveuse
sculptcheu
sculptchure
sculptchures
sculpte
sculpteu
sculpteur
sculpteurs
sculpteus
sculpture
sculptures
scultcheu
scyenche
scyintifike
scyintifique
scyrendale
sd
se
sea
search
season
seattle
seau
sebastian
sebastiano
sec
seccion
seclin
second
secondaire
seconde
secondes
secondo
secours
secre
secret
secrets
secreut
secte
secteu
secteur
sectimbe
section
sections
secundi
sed
sedan
see
seeger
seghers
segment
segoe
segond
seguin
seigneu
seigneur
seigneuriale
seigneurie
seigneurs
seigneus
seignolle
seiichi
seiji
seijun
sein
seine
seingneu
seinne
seisensui
seishun
seizie
sekchion
sekchions
sekchon
sekcion
seki
seldjoukides
selecc
seleccio
selecta
selected
self
selim
selle
selles
selon
semailles
semaine
semblabe
semblat
semble
seme
semeur
semi
semint
semont
sempe
sempre
sempy
sen
senator
sence
sengoku
seninghem
senion
seniors
senlecq
senlecques
senlis
senne
sens
sense
sent
sentant
sentation
sente
sentelie
sentences
sentes
senti
sentiers
sentimental
sentinelle
senza
seont
seot
sep
sept
septante
september
septembre
septentrion
septentrional
septentrionale
septie
septimbe
septimi
septintrional
septintrionale
septoutre
sequenza
ser
sera
serai
serait
serbe
serbie
serbo
serce
sercelle
serdu
serenade
serge
sergeant
sergent
serges
sergio
serial
serie
series
serif
serin
serinus
serment
sermint
sermints
sermon
sermons
seront
serpint
serrator
serre
serreau
serrurier
sert
sertchu
sertchussiens
serteur
servais
servant
servante
serve
servi
service
services
serviche
servins
servir
servit
servoe
ses
sesame
sessions
sessue
set
setigny
setimbe
sets
setsuko
sette
seu
seuce
seuch
seucisses
seucourt
seudards
seuf
seuil
seuist
seul
seule
seulement
seulemint
seules
seulmint
seuls
seumint
seur
seurat
seure
seuris
seurlonme
seurmint
seurnaturel
seurnom
seurnoms
seurs
seurte
seurtout
seurtoute
seurvat
seus
seut
seutre
seuvache
seuvages
seuve
seuver
seuveu
seuvile
seuvmint
seux
seven
severus
sex
sexe
sextet
sexti
sextuor
sexy
seydoux
sfar
sfe
sfio
sfondo
sforza
sg
sga
sgard
sgond
sgonde
sgre
sh
shadow
shahmukhi
shaker
shakes
shakespeare
shanghai
shank
share
sharp
sharunas
she
sheldon
shelly
shepard
sheptytsky
sheriff
sherlock
shibuya
shichinin
shift
shige
shigeko
shigemune
shigeyuki
shiki
shima
shimatsu
shimazu
shimizu
shin
shindo
shingo
shinkichi
shinobu
shinoda
shinsengumi
shintaro
shirley
shiro
shizukanaru
shizuko
sho
shobu
shogun
shop
shorty
should
show
showbizz
shrieve
shrike
shrimpers
shtml
shu
shubun
shuna
shunkin
si
sia
siais
sias
siasse
siastike
siastique
siau
sibe
sibilla
sibra
sibylle
sic
sica
sich
sichuan
sichure
sicile
sicilia
siciliane
sicut
sid
sidaner
side
sidence
sident
sider
sides
sidi
sidince
sidinche
sidint
sidinte
sidints
sidney
sidonie
sie
siecle
siege
siegfried
siempre
sien
sienne
siens
siert
sies
sieu
sieur
sieus
sieux
sifflasson
sifflet
siffleur
sifleu
sifleur
siflo
sign
signa
signal
signale
signaler
signature
signe
signer
signes
significato
signifie
sikh
sikhs
sikime
sil
sile
silence
silencieux
silent
silex
silicose
silie
silien
siliennes
sille
silles
sillon
sillons
siloe
silva
silvaire
silvana
silver
silvestris
silvio
sim
simblabes
simbole
simboles
simbolike
sime
simfonique
similar
simile
simmel
simmons
simon
simone
simonetta
simons
simoun
simpe
simpes
simple
simplement
simplemint
simples
simplifie
simply
simpson
simulateur
simultane
sin
sinai
sinatra
sinbad
sinbole
sinbolique
sinboliques
since
sinche
sinches
sincre
sind
sindicat
sine
sinet
sinfonia
sinfonie
sinfonietta
sing
singapour
singe
singer
singh
single
singles
singlie
singne
singner
singnes
singneur
singneurs
singntte
sings
singspiel
singulier
sinie
sinmdi
sinne
sinnifie
sinogramme
sinogrammes
sinon
sinople
sins
sinse
sint
sintachon
sintacion
sintacions
sintant
sintants
sintation
sinte
sinter
sintes
sintette
sintimint
sints
sintu
sion
siphonops
sir
sire
sires
sirie
sirs
sis
sisch
sischen
sisie
sistance
sistanche
sistant
sistante
sistants
siste
sister
sisterlinks
sistint
sit
sitant
site
sites
sitges
sito
sitta
sittelle
sittidae
situacion
situation
situations
situe
sivry
six
sixie
siye
size
sjabloon
sk
ska
skar
skate
skating
ske
skender
skerl
skes
sketch
sketches
ski
skind
skira
sky
skynet
sl
slack
slam
slatkine
slave
slaves
sleeps
slinky
sllw
slogan
slon
slovake
slovakie
slovaque
slove
sluys
sm
smaingne
smainne
small
smangne
sme
smet
smile
smiley
smirnova
smith
smooth
smyrne
sn
sncf
sne
snoe
snoeck
snot
snow
so
sobre
sobriquets
soc
soca
sochi
sochial
sochiale
sochiales
sochialisse
sochie
sochiologue
social
sociale
sociales
socialisse
socialiste
sociaux
socie
societe
society
sociolinguistique
sociologie
sodar
soe
soerie
soeur
soeva
sof
sofia
soft
sohier
soi
soie
soient
soigne
soigner
soignies
soin
soir
soire
soirs
soissonnais
soissonnoe
soissons
soit
soixante
sokrys
sol
sola
solaire
solar
solca
soldat
soldatenfriedhof
soldats
sole
soleil
solel
solenghi
solfe
solide
solisse
soliste
solitaire
sollers
solo
sols
soltau
solutions
som
somain
somateria
sombe
sombre
some
someka
something
sommaire
somme
sommes
sommet
sommets
somogy
sompo
son
sonata
sonatas
sonate
sonates
sonchus
sondrio
song
songbook
songe
songeons
songes
songs
sonjon
sonme
sonmes
sonmie
sonne
sonner
sonnet
sonnets
sonny
sono
sonobe
sonore
sons
sont
sony
soon
sopaic
sophie
soprano
soprattutto
sor
sorbonne
sorchie
sorcie
sorciers
sordi
sordon
sore
sorerie
soret
sori
sormais
sormie
sorrus
sors
sorse
sort
sorte
sortes
sorti
sortie
sorties
sortile
sortir
sortis
sos
sosa
sosamo
sosthe
sot
sotchi
sote
sots
sou
souabe
souche
souchez
soucourt
soudard
soue
soues
souet
souffle
souffre
soufranches
sougniye
souhait
souhaite
souich
souillu
soul
soulas
souldat
souldats
soule
soulier
souloe
sound
soundgarden
sounds
soune
souor
soupault
soupe
souper
soupie
souplet
souplicourt
sourate
source
sources
sourd
sourds
souriant
sourire
souris
sous
sousa
souscription
soute
soutenue
souterrain
souterraine
souterraines
souterrains
south
soutien
soutnoe
soutnu
souty
soutyin
souv
souvenance
souvenances
souvenir
souvenirs
souvent
souverain
souvere
souviens
souvint
souvintefoe
souvnis
souvrain
sovie
sovint
soyez
sp
spa
space
spaces
spache
spacheu
spacial
spacing
spagnol
spagnols
spaiati
spain
spaingne
spaingnol
spaingnole
spaingnols
span
spanne
spansion
sparks
spatial
spatiale
spatialisme
spatialistes
spatiaux
spatule
spe
speaks
special
species
specified
specimen
spectabilis
spectacle
spectake
spectakes
spectaque
speed
spencer
spettacolo
sphinx
spielberg
spike
spinosa
spinus
spirale
spirit
spiritue
spirituel
spirituels
spirou
sploe
sploitacion
sploite
splorateu
splore
splosion
spodoptera
spoerli
spolec
spondyliosoma
sponsa
sponsabe
sport
sportcate
sporteu
sportif
sportifs
sporting
sportive
sportives
sports
spose
sposicion
sposicions
sposition
spositions
spot
spots
spp
sprague
spre
spression
spressions
spring
springfield
sprit
spro
sqrt
squ
squad
squalus
square
squash
sque
sques
sr
sra
sri
srin
sro
sroait
sroe
sront
srot
sry
ss
ssanche
ssant
ssaquaches
sse
sselle
ssemint
sses
sseus
ssico
ssie
ssieu
ssinche
ssineu
ssins
sson
ssons
ssus
ssy
st
sta
stabat
stacion
stacions
stade
stadt
staff
stage
stagione
staines
staires
staminet
stamint
stamp
stampa
stan
stances
standard
standards
stanislas
stanley
stant
staquet
star
stardust
stars
start
state
states
station
stations
statistikes
statistique
statistiques
stats
statuaire
statue
statues
statuette
statuine
statut
statuts
staure
stavelot
stchulpte
stchulpteu
stchulpteur
stchulpteus
stchulpture
stchulptures
ste
steamer
steampunk
steene
steenmeulen
steenvoorde
steenwerck
steeve
stefan
stefania
stefano
steiner
steinlen
stella
stellata
stelle
stencil
step
stephen
stephenson
steppe
steps
sterna
sterne
sternes
stes
steve
steven
stevens
steward
stewart
steyert
sti
stic
stico
stie
stievenard
stige
stiges
stile
stiles
still
stilo
stilwell
stimpe
stimpes
stion
stique
stival
stivant
stivante
stivite
sto
stoait
stock
stockage
stockelsdorf
stockholm
stone
stones
stonie
stop
storck
storia
storico
storie
stories
story
str
stra
strabon
straight
strait
straits
strakcion
strange
strasbourg
strasbourq
strate
stratimirovitch
strauss
stravius
straye
stre
street
streichquartett
strepera
strepere
streptopelia
stride
strie
striggio
strigidae
strigiformes
strin
string
strings
strix
stroh
structchure
structure
structures
struthioniformes
struwwelpeter
stuaire
stuaires
stuart
stubert
studies
studio
studios
stundenbuch
sturnidae
sturnus
stuttgart
style
styles
stylo
styrcea
su
sub
subbuteo
subdivise
subes
subfamily
subginres
subi
subirent
suboscines
subroutines
subsp
succe
successeur
succession
sucche
succhession
such
suchier
suckow
suckshershor
sucre
sucrerie
sud
sudje
sudoc
sudria
sue
suel
sueur
suffit
suffixe
suffrache
suflera
sugar
sugata
sugawara
suger
sui
suicide
suire
suis
suisse
suisses
suit
suite
suites
suivant
suivante
suivantes
suivants
suive
suivent
suivi
suivie
suivies
suivtte
sujet
sujets
sukaczev
sul
sula
sull
sulla
sullivan
sully
sulonme
sulpice
sultan
sultat
sultats
sum
sumako
sume
summer
sun
suna
sunche
sunday
sunset
sunshine
sunt
suoaire
sup
supe
super
superfichie
superior
superstitions
supiche
suple
supli
suplitchet
supple
support
supportent
supporters
supports
suppression
supprime
supprimer
supra
sur
surcamp
sure
sureau
sureccion
surfache
surgeon
surin
suriname
surlonme
surnom
surnoms
suronin
surpiquet
surpitchet
surpitchetandre
surpitchets
surpitchetsandre
surprise
surques
surre
surrection
sursis
surtout
sury
sus
susanne
sussex
sutton
suve
suzanne
suze
suzel
suzerain
suzuki
sv
svate
svetle
svg
svo
sw
swaim
swat
sweet
swi
swietenia
swimrankings
swing
swinhoe
switch
sword
sy
sybil
sychrov
sydney
syince
syinces
syinches
syins
syintifike
sylabes
syllabe
sylvain
sylvatica
sylve
sylvestre
sylvestris
sylvette
sylvia
sylvie
sylviidae
sylvilagus
sylvioidea
sylvius
symbol
symbole
symboles
symbolise
symfoniques
symphonic
symphonie
symphonique
symphony
symphorien
syn
syndicale
syndicalisme
syndicalisse
syndicat
syngnathus
synonymes
synopsis
syntakse
syntaxe
synte
synthe
syracuse
syrisiens
syste
system
sz
szabo
szczecin
szczepanek
sze
szes
szlo
sœur
sœurs
t
ta
taal
tabac
tabe
tabes
tablature
table
tableau
tableaux
tables
tabli
tablie
tablier
tablies
tablieu
tablir
tablissement
tablissements
tablissemint
tablissemints
tablit
tache
tachete
tachybaptus
tacion
tacite
tadamoto
tadonne
tadorna
tae
taekwondo
tag
tage
tahoma
tahon
tai
taient
taihei
taiheiyo
tail
taile
tailed
taille
tailleferre
tailleu
tailleur
tailliar
tailly
tails
tain
taine
taintignies
taipei
taire
tairin
tais
tait
taiwan
taiyo
tajiri
taka
takada
takahama
takahata
takaishi
takarai
takashi
takasugi
take
takehara
takeichi
taken
takeo
takes
takeshi
taketori
takezo
taki
tal
talaupe
talbot
tale
talents
tales
talk
tallandier
talle
talmar
talmas
talon
talpaert
tals
talvas
tamaki
tambour
tambourin
tambuke
tambutche
tame
tamis
tampes
tampi
tamps
tampz
tan
tanaka
tanche
tanches
tandem
tandir
tandis
taneda
tang
tango
tangry
tangs
tani
tanie
tank
tanks
tanne
tanque
tans
tant
tantale
tante
tanzanie
tanztheater
taoi
taoufik
tape
tapes
tapette
tapis
tapisserie
tapisseries
tapisseriye
tapisseriyes
taples
taque
taquet
taqueti
tarascon
taraxacum
tard
tardenoe
tardieu
tardieus
tardinghin
tardona
tardone
tardorna
tarente
targ
targette
targniole
tarier
tarin
tarnovo
taro
tarou
tarse
tarsiger
tart
tarte
tartes
tas
tasaburo
tasaka
tasse
tasses
tasson
tat
tateu
tatinghem
tatinghin
tation
tats
tatsu
tatsuo
tattegrain
tau
taunus
taupe
taupinie
taureau
taux
tavau
tavernier
tavernot
taxinomie
taxinomiques
taxoboe
taxon
taxonomique
taxons
taxus
taylor
tayons
tbody
tch
tchai
tchaingne
tchainnmint
tchand
tchanson
tche
tcheinne
tchekhov
tcher
tcherci
tchestion
tchetchu
tchette
tcheu
tcheue
tcheur
tcheure
tcheus
tcheuse
tchi
tchie
tchien
tchiens
tchilibe
tchille
tchilles
tchilome
tchin
tchine
tchini
tchinoe
tchinte
tchinze
tchiot
tchipe
tchipes
tchir
tchite
tchitte
tcho
tchoeur
tchoin
tchot
tchotchotte
tchote
tchots
tchottain
tchotte
tchou
tchout
tchoz
tchu
tchucq
tchue
tchui
tchuignies
tchuille
tchuin
tchuins
tchuir
tchuire
tchuisine
tchuit
tchuite
tchuites
tchuives
tchuivres
tchul
tchule
tchulte
tchultive
tchultiver
tchulture
tchulturel
tchure
tchureuil
tchurieu
tchutchu
tchute
tchœur
tchœurs
td
tde
te
team
teatro
teau
teaux
tecate
technique
techniques
technologie
technologies
technology
tecnolo
tecnologie
tecte
teen
tehttp
tei
teigne
teil
teinne
teinosuke
teint
teit
teknike
teknikes
teknique
tekniques
teknolodjie
teknolodjies
tel
tela
telain
telains
telectroscope
telet
tell
telle
tellement
tellemint
tellenie
telles
tellier
tellurikes
tels
temint
temminckii
temnurus
tempah
tempe
tempi
template
templatedata
templates
temple
templeuve
tempo
temporaire
temps
ten
tenant
tencourt
tend
tendresse
tenerezza
tengoku
tenho
tenir
tenka
tennessee
tennis
tenor
tenp
tens
tenshi
tent
tentacion
tentation
tenu
tenues
teo
teologia
teot
ter
tera
terascia
terbourg
terd
terdeghem
terence
teresa
terheut
terme
termes
termination
termine
terminer
terminne
terminoaison
ternas
terne
terneiro
ternisien
ternite
ternoe
ternois
ternoise
terpigny
terra
terrain
terrains
terran
terre
terres
terreur
terrible
terribles
terril
terrils
terris
territoe
territoire
territoires
territorial
territoriale
terroir
terry
tersbourg
tertos
tertous
tertout
tertoute
tertoutes
tertry
terzoli
tes
teske
teskes
tesse
tessin
test
testa
testament
testamint
testart
teste
tete
tetsu
tette
teu
teufe
teune
teupe
teupie
teur
teurbe
teurber
teurde
teurtous
teurtrelle
teus
teut
teute
tevariantes
texas
text
textcolor
textdata
texte
textes
textile
texts
textuelle
teya
tez
tg
tgpadova
tgv
th
thai
than
that
thaulow
thaumetopoea
the
theater
theatre
theillier
their
thelle
thelonious
thema
theme
themes
then
thencourt
thennes
theo
theobald
theodor
theodosius
theophilus
therdonne
there
therese
therwane
these
theune
thibaudet
thibeau
thie
thiembronne
thierry
thieulain
thieuloye
thil
think
thiollet
thiopie
thiot
thiou
third
this
thnografikes
thobois
thode
thodes
thoe
thomas
thon
thonet
thonon
thorel
thoughtful
thousand
thrace
three
threskiornithidae
thrusting
thulin
thumb
thumbnail
thumesnil
thun
thune
thure
thuringeois
thy
thym
thymus
thyssen
ti
tia
tiau
tibe
tiberius
tibet
tibi
tica
tichon
ticino
ticion
ticions
tico
tie
tien
tienne
tiennent
tiennes
tiennime
tiens
tient
tiente
tientos
tier
tierce
tierpark
tierre
tiers
tiette
tieu
tieufe
tieulin
tieuloy
tif
tige
tiger
tiges
tigny
tigre
tigres
tigresse
tigrine
tijdschrift
tike
tikes
tilde
tilia
till
tille
tilleu
tilleul
tilleus
tilliu
tilloloe
tilloloy
tillon
tilloy
tilly
tiloe
tilques
tilson
tilvo
tim
timbales
timbe
timbergue
timbo
timbre
time
timeaxis
timent
timents
times
timesignature
timi
timint
timints
timolodjie
timologie
timpe
timple
timplie
timpliers
timplu
timps
timpu
tin
tincion
tincourt
tincques
tind
tindant
tinde
tindi
tindinces
tindu
tindue
tingry
tini
tinie
tinin
tinincourt
tinke
tinnunculus
tins
tinsions
tint
tinte
tintenfa
tintenfass
tintin
tinto
tintrionnale
tiologales
tiologie
tiologien
tiologiens
tiologike
tiologikes
tiorie
tiorologike
tiot
tiote
tiotes
tiots
tiott
tip
tipe
tipes
tiphaine
tipike
tipolodjie
tique
tiques
tiquette
tir
tirache
tirancourt
tire
tiremande
tirent
tirer
tiret
tireus
tirlwite
tis
tise
tiseurs
tisje
tisme
tison
tissage
tisse
tisser
tisserand
tisseurs
tissier
tissus
tit
titanic
tite
titelouze
tites
tition
titisse
title
titre
titres
tits
titulaire
tituloe
titus
tizon
tl
tle
tmint
tmints
tn
tnamien
tnt
tnu
tnues
tnus
to
toai
toaiette
toait
toaite
toaitte
tobago
toc
tocati
tocheport
toddler
tode
todes
toe
toei
toet
toette
toffe
togo
toi
toil
toile
toiles
toilette
toilettes
tois
toison
toit
tojors
tojours
tokar
tokharien
tokiko
tokio
tokyo
tole
tolstoi
tom
tomas
tomate
tombales
tombe
tombeau
tomber
tombes
tombieu
tombieus
tome
tomentosum
tomes
tommaso
tommy
tomotaka
tomu
ton
tonal
tonale
tonalite
tondeur
tonemapped
tonetti
tongre
tongres
tongue
toni
tonie
tonique
tonne
tonneau
tonneaux
tonnerre
tonnes
tono
tonos
tons
tony
tools
top
topgame
topkapi
topkapı
topografike
topografique
topographie
topographique
toponimie
toponomastica
toponomie
toponymie
toques
toquinho
tor
tora
torahiko
torajiro
toranaga
torchepot
torchis
torchy
torcy
tord
torda
tordeuse
toria
toride
torino
torix
tornacum
tornai
tornants
torne
tornelle
torner
tornoe
tornois
tornures
toronto
torquilla
torr
torre
tors
torsten
tort
tortefontaine
tortelli
tortequenne
tortequesne
tortre
tortrelle
torts
tortue
torture
toru
torun
tos
toscane
toscanne
toscope
toshiko
toshiro
tost
tot
total
totale
totanus
tote
totentanz
totes
toto
totor
totoro
tots
totte
tou
toubaque
touche
toucher
toudi
toudis
toue
touille
touiller
toujours
toul
toulousain
toulouse
touot
touotte
touquet
tour
touraine
tourbe
tourbillon
tourco
tourcoing
tourelles
touret
tourie
tourime
tourisme
touristike
touristique
tourmente
tourminte
tourmont
tournage
tournai
tournaisien
tournaisienne
tournaisis
tournan
tournant
tournay
tourne
tourneau
tournelle
tournesols
tournoe
tournoi
tourquennoises
tours
tourterelle
tourtois
tous
toussaint
toussint
tout
toutchet
toute
toutencourt
toutes
toutincourt
toutinlon
toutl
toutt
touvim
touyache
tower
town
townsend
toy
tr
tra
trace
traces
trachant
trache
tracher
traches
tracheus
trachurus
tracy
trad
trade
tradichione
tradicion
tradicionne
tradicionnel
tradicionnels
tradicions
tradition
traditione
traditionnel
traditionnelle
traditionnelles
traditionnels
traditionniste
traditions
traduccion
traducteur
traductieon
traduction
traductions
traduit
tradwit
trafe
trage
trai
traianus
traicte
trailer
train
trainne
trainquille
trains
trait
traite
traitemint
traits
trajan
trakes
trale
trame
tramecourt
tramway
tranche
trancourt
tranfourmtte
trange
tranger
trangers
tranlay
trannerie
trannmint
trans
transcripcion
transcription
transcriptions
transept
transepts
transfe
transfert
transformacion
transformation
transforme
transfrontalie
transhuminche
transicion
transition
translated
translators
translitte
transloy
transmigration
transmission
transparente
transport
transports
trap
trape
trapodes
trappisse
trarca
trastamara
trau
traumfabrik
trautv
travail
travaille
travailler
travailleur
travails
traval
travale
travals
travaus
travaux
trave
traveil
travers
traverse
traxenne
trayeux
trazegnies
tre
treble
tredecim
tree
treille
treize
treizie
trek
trel
tremble
trench
trente
trer
tres
trescault
tresse
treu
treue
treus
treuvaux
treuve
treuver
treuvette
trh
tri
triangle
triangue
tribu
tribunal
tribunnes
tribus
tribute
tricolor
tricot
tricourt
triduum
trie
trier
triers
trim
trime
trimestre
trimestriel
trin
tringa
tringe
tringue
trinite
trinne
trinnite
trinquet
trintaine
trinte
trio
triolet
triomphe
trip
tripe
tripes
triple
triptike
triptyque
trique
triques
trise
triskell
trisse
trist
tristan
triste
triticum
triton
tritout
tro
troaite
troe
trofe
troglodytes
troglodytidae
troi
troie
trois
troisie
trole
trolle
trombone
trompe
trompette
trompettisse
tronc
trone
tronhie
tronille
tronne
tront
tronville
trop
tropes
trophe
tropicale
tropicales
tropole
tropolitain
tropolitaine
troppo
tros
trosly
trospective
trot
trotteur
trou
troubadour
troubadours
troube
troublier
troue
trouillardie
trouille
trouos
trouot
troupe
troupeau
troupes
trous
trouve
trouver
trouveur
trouville
trouvoe
trove
trover
troviseur
troy
troyes
truanderie
truc
trudon
true
trufleur
truie
truire
truit
truite
truites
truits
truiztte
trujano
trung
trusque
trusques
trust
truve
truveu
truvoe
truvtte
trwe
ts
tsar
tsiganes
tsu
tsubaki
tsubasa
tsuji
tsuma
tsuna
tsuruyo
tsutami
tsutomu
tt
tte
ttes
tu
tuba
tube
tubercule
tubersent
tubize
tude
tudes
tudiant
tudiants
tudie
tudier
tue
tuels
tuer
tuf
tufted
tule
tullio
tulloy
tully
tumblr
tumulus
tunis
tunisie
tunne
tunnel
tunnelier
tuo
tur
turages
turago
turbulents
turc
turcs
turdoi
turdus
ture
tures
turin
turke
turkestan
turkewich
turkie
turlui
turlut
turlute
turner
turnhout
turpin
turque
turquie
turtur
tus
tutta
tutte
tutti
tutto
tutur
tuum
tuyeux
tv
tvin
twat
twenty
twin
two
twois
txt
ty
tye
tyin
tyinne
tymologies
tymologique
tymologiques
tyniec
typ
type
types
typhonium
typike
typikes
typique
typographie
typologie
tyranni
tyrannides
tyrel
tyto
tytonidae
tzara
u
ubac
ubt
ubuweb
uc
ucciso
uchi
uchida
uci
ude
uderzo
udia
ue
uefs
uehara
uemg
uetersen
ufba
ufficiale
ufmg
ufr
ufrb
uga
uge
ugue
ui
uicn
uile
uis
uit
uitie
uk
ukba
ukraine
ukrainian
ukrainien
ukrainka
ukronie
ulb
ulfi
ulm
ulmus
ulphe
ulster
ultimate
ultime
ultimo
ultra
ultrape
ulysse
um
uma
umain
umainne
umainnes
umains
umanime
umberto
ume
ump
un
una
uncle
und
undata
under
underground
une
unesco
ung
unhn
unhne
uni
unicode
unies
uniformisante
unimuse
union
unions
unique
uniquement
uniquemint
unis
unit
unitaire
unite
united
univ
univarse
univarsitaire
univarsite
univarsitoe
univers
universal
universalis
universe
universel
universelle
universidade
universis
universita
universitaire
universitaires
universite
university
unix
unn
unne
unnes
unnike
unnion
unnis
unnite
uno
uns
unspeakable
untel
unum
unzen
uomini
uomo
up
upjv
upload
uploads
upon
upright
upupa
ur
uranus
urasie
urbain
urbaine
urbaines
urbains
urbanisme
urbanisse
urbe
urbica
urchon
ure
url
urme
uro
urocissa
urocyon
urode
urope
uros
urovision
urquell
urso
urss
ursule
ursus
uruguay
us
usa
usache
usage
usages
usant
usb
use
used
uselang
user
users
uses
ushihara
usine
usines
uss
ussi
ussir
ussit
ustache
ustinov
usuario
ut
utah
utamaro
utc
utf
uther
utile
utilisacion
utilisait
utilisant
utilisateur
utilisateurs
utilisation
utilise
utiliser
utilisez
utility
utilizaire
utrecht
utrogne
utruju
uvcw
uz
uze
uzer
uzeu
uzeus
v
va
vaast
vacances
vacanches
vacantime
vacation
vacavent
vache
vacher
vacherand
vaches
vachette
vadrouille
vaeremans
vagabond
vagabunda
vagances
vague
vai
vail
vaillant
vaime
vain
vainqueur
vainqueurs
vaint
vaire
vaisseau
vake
vakes
val
valainne
valart
valdese
vale
valencia
valencian
valenciana
valencians
valenciennes
valentia
valentin
valentine
valentinianus
valerius
valery
vales
valet
valeur
valeurs
valhuon
valide
valign
valince
valinchie
valinchien
valinchienne
valinchinne
valinciennes
valincyinne
valinsien
valintinime
vall
vallaud
valle
vallejo
vallenato
valley
valloe
valloires
vallon
valls
valmore
valoe
valois
vals
valse
valses
valuation
value
valzer
vamberchi
vampire
vampires
van
vancoppenolle
vancouver
vandales
vandamme
vandenbroucke
vandercam
vandewattyne
vandone
vanellus
vange
vangile
vangiles
vangogh
vaniot
vanneau
vanneaux
vannier
vannuffel
vanolande
vant
vanzina
vapeur
vaque
vaques
vaquesvariantes
vaquevariantes
vaquier
var
vare
vareinne
varennes
varese
variabe
variabes
variacion
variacions
variant
variante
variantes
variation
variations
varie
varlet
varloe
varneton
varo
varsovie
vary
vas
vasca
vasco
vase
vases
vasincourt
vasion
vassal
vassaus
vasseur
vasst
vast
vaste
vastes
vatche
vates
vatican
vau
vauban
vauchelles
vaudan
vaudeville
vaudricourt
vaughan
vault
vaulx
vaurai
vaus
vaut
vaux
vavar
vave
vcte
vda
ve
veau
veaux
vec
vecœur
ved
vedette
vegas
vei
veil
veillard
veille
veilleur
veillon
veillonne
veine
veint
vel
velennes
velet
veliko
veloppe
veloppement
veloppemint
velopper
velours
velyne
venant
venart
vence
vende
vendeuil
vendeur
vendin
vendo
vendroux
vendus
venezia
venezuela
vengeance
vengeurs
venice
venimeux
venir
venise
vent
ventail
vente
vento
ventre
vents
ventu
ventura
venu
venue
venus
ver
vera
veracx
verbales
verband
verbe
verberie
verbes
verbinski
verbo
verbuisson
verchion
verde
verdeau
verderolle
verdi
verdie
verdier
verdun
verdure
vere
vereuil
verger
verhaeren
verhille
verin
verine
verlag
verlaine
vermand
vermandois
vermelles
vermiformes
vermindoe
vermy
vernaculaire
vernalis
verne
vernes
vernet
verneuil
vernier
vernisse
vernon
vero
verona
verr
verra
verre
verres
verrier
verriers
verro
vers
versailles
versant
verse
version
versions
vert
verte
vertes
vertical
verticale
vertigo
verton
vertou
verts
vertu
vertus
verum
verve
verviers
vervins
ves
vesle
vesperae
vestige
vestiges
vette
veu
veuchelle
veudan
veuillez
veupe
veurdre
veus
veut
veuve
veuvile
veux
vexilologicke
vexilologie
vexin
veyren
vhs
vi
via
viaduc
viaf
viaggio
viamichelin
vian
viande
vianne
viart
viatour
viau
viaus
viaux
vibo
vibracion
vic
vice
vicente
vices
vichy
vicissitudes
vicomte
vicongne
victimes
victoe
victoire
victoires
victor
victoria
victoric
victorin
victorine
victoue
victrice
vida
vidal
vidame
vide
video
videos
vider
vides
vidicourt
vidince
vidocq
vie
vieau
vieil
vieille
vieilles
vieillit
vielle
vielles
vien
viencourt
viendra
viendrez
vienna
vienne
viennette
vienntte
viens
vient
vierche
vierches
vierge
viergue
vierke
vies
vietnam
vietnamien
vieu
vieux
view
vife
vifs
vigne
vignes
vignette
vigneux
vii
viie
viii
viiie
viking
vikings
viktor
vila
vilache
vilaches
vilage
vilain
vilains
vilcourt
vile
vileneuve
viles
vill
villa
villach
villache
villaches
village
villages
villancicos
villard
villars
villas
ville
villechaize
villehardouin
villeneuve
villers
villes
villette
villien
villiers
villon
vilnius
vimeo
vimereu
vimeu
vimeuse
vin
vinacourt
vincendon
vincennes
vincent
vincente
vincenzo
vinci
vincianne
vinck
vind
vindal
vinde
vindicien
vindin
vindoe
vindu
vindue
vinge
vingne
vingnes
vingt
vini
vinicius
vinke
vinktte
vinme
vino
vins
vint
vintail
vintchu
vintchus
vinte
vintes
vintille
vints
vinyle
viola
violence
violentes
violents
violeta
violette
violin
violinte
viollet
violon
violoncelle
violonisse
violons
vion
viorne
vipe
vir
vire
virelai
vireux
virgile
virgin
virginianus
virginie
virginis
virgo
viridis
viris
viromanduorum
vironcheu
virtuel
virus
virvourandes
virzi
vis
visa
visache
visage
visages
viscivorus
vise
viseu
viseur
visibe
visibility
visible
vision
visions
visitacion
visitation
visite
visites
visme
vismes
visse
visses
vista
vistique
visto
visuelle
vit
vita
vital
vitasse
vite
viter
vitesse
vitike
vitis
vitmint
vito
vitrail
vitrails
vitral
vitrals
vitraus
vitraux
vitry
viu
viul
viulainne
viule
viules
vius
viux
viv
viva
vivace
vivaldi
vivant
vivante
vivantes
vivants
vivarais
vive
vivemint
vivere
vivette
viviani
vivien
viviparus
vivo
vivoait
vivoe
vivons
vivre
vivtte
vix
viyaedjes
viye
vla
vlaanderen
vladimir
vlc
vle
vliet
vlo
vlope
vloper
vlopmint
vls
vnais
vnant
vnez
vnir
vnise
vnoait
vnoe
vnu
vnue
vnus
vnutes
vo
vocabulaire
vocabuloe
vocacion
vocal
vocale
vocation
vocaux
voce
vodie
vodies
voe
voeu
voeyage
vogabuloaire
voglio
vogue
voi
voice
voices
voie
voies
voila
voile
voir
vois
voisin
voisines
voisins
voisselle
voit
voiture
voix
vol
volalles
volant
volante
volants
volcan
volcans
vole
voler
volet
volets
voleu
voleur
voleurs
voleus
voleux
volez
volga
volintoaires
voloait
voloir
volontaire
volontaires
volonte
volontoe
vols
volta
voltaire
volte
voltes
voltigeurs
voluchon
volucion
volucionnoe
volucions
volue
volume
volumes
volution
volutionnaire
volutionnoe
volutions
vom
von
vont
voodoo
voor
voque
vor
vore
vorlage
vortigern
vos
vosges
vost
vostre
vot
vote
voter
votes
votion
votre
vou
voudrais
voue
vouet
voulant
voulente
voulez
vouloe
vouloir
voulot
voulu
vouos
vouro
vous
vout
voute
voutre
vox
voyache
voyage
voyages
voyageur
voyageurs
voyant
voye
voyelles
voyennes
voyette
voyettes
voyeur
voynet
voz
vr
vrahovice
vrai
vraie
vraigne
vraignes
vraimint
vrain
vraingne
vrainne
vrais
vraisemblablement
vrard
vre
vrerie
vres
vreux
vrie
vrier
vriers
vrin
vron
vs
vtt
vtte
vu
vue
vues
vuide
vuidie
vulcanicus
vulfran
vulgare
vulgaris
vulgoaire
vulpes
vuoto
vus
vut
vute
vux
vv
vve
vwas
vy
vyinntte
vyint
vynil
w
wa
waast
wace
wacrenier
wade
wagenbach
wagne
wagner
wagon
wagons
wagrez
waguet
waide
waidiers
wailly
wal
walcir
wald
wales
walincourt
walk
wall
wallan
waller
wallis
wallo
wallon
wallones
wallonia
wallonie
wallonne
wallonnes
wallons
wally
walon
walone
walonne
walonnes
walonnie
walonreye
walons
walt
walter
walther
waluzet
wambrechies
wame
wames
wamin
wan
wanamaker
wandignies
wandjniye
wandrile
wandrille
wane
wang
want
wanted
war
warcoing
ward
wardage
warde
warder
wardrecques
waremme
warendin
warfuse
wargemont
wargnie
warlencourt
warloy
warlu
warlus
warluzel
warneton
warneuton
warquignies
warre
wars
warsy
wartburg
warte
wartie
wartier
wartiers
warui
warvile
wary
was
washington
wasmes
wasmue
wasquehal
wassy
wast
watch
water
waterboy
watergang
watergangs
waterloo
watiau
watie
watieu
watkyne
watteau
watteeuw
wattignies
wattrelos
watts
waudru
wauquelin
wav
wavans
wave
wavignie
wavrans
wavre
wavrechain
wavrin
way
wayne
wazie
waziers
we
weather
web
webb
weber
website
webtv
wedding
wee
week
weekend
weir
welcome
welf
wellington
welsh
welt
welter
wenger
weppe
weppes
were
werf
werner
west
western
westfalie
westhoek
westminster
westmolen
westphalie
westphalien
weu
weyden
wez
wga
what
when
where
which
whisky
white
whitley
who
wht
why
wi
wicar
wichin
wicquiller
widcocq
width
wie
wien
wiers
wiesbaden
wife
wifeo
wignet
wiho
wikamote
wiki
wikibooks
wikidata
wikime
wikimedia
wikipasdecalais
wikipe
wikipedia
wikiquote
wikisource
wikispecies
wikiversity
wiktionary
wild
wile
wilhe
wilhelm
will
willaufosse
willem
william
williams
willy
wilson
wimereux
wimil
wimille
wimraw
win
winberg
wincourt
wind
winden
windows
wingles
wingne
winhe
winhon
winme
wino
winston
wintenberger
winter
winterspelt
wintrebert
wios
wire
wired
wirquin
wirwignes
wisconsin
wisigots
wismes
wissant
wissocq
with
withaer
withof
without
witte
wive
wixsite
wizernes
wka
wlad
wo
woburn
woe
woignarue
wojewo
wolf
wolfgang
wolphus
wolstenholme
woman
women
wonderland
wood
woodlock
woodstock
woody
word
wordpress
words
work
works
workshop
world
worldcat
worlds
wormhout
wp
writing
wrocław
wt
wu
wuhioe
wuidiau
wuime
wuiot
wulmer
wulphy
ww
www
wycliffe
wyincourt
wyn
x
xare
xatonike
xavier
xe
xent
xi
xic
xie
xii
xiie
xiii
xiiie
xiv
xive
xix
xixe
xl
xls
xv
xve
xvi
xvie
xvii
xviie
xviii
xviiie
xx
xxe
xxi
xxie
xxii
xxiii
xxiv
xxvi
xxviii
xxx
xxxvi
xxxxxxxxxxxxxxxxxxxxxxxxxxxxxxx
y
ya
yache
yage
yageus
yagyu
yah
yahoo
yaint
yakuza
yal
yale
yalime
yalisses
yamada
yamaji
yamakawa
yamamoto
yamamura
yamanaka
yamane
yamaoka
yamato
yanagibori
yanche
yang
yann
yant
yardbird
yarra
yart
yasujiro
yasumoto
yasuo
yasushi
yasuzo
yate
yates
yatsu
yaume
yaus
yaut
yaux
yawm
yaxismin
yayu
yazaki
ye
year
years
yel
yelle
yellow
yen
yenne
yer
yers
yes
yette
yeu
yeule
yeus
yeuse
yeuve
yeux
yeuz
yhwh
yi
yiddisch
yiddish
yin
yincourt
yine
yinne
yinnes
yins
yis
yisan
yisans
yisse
yiux
yn
yo
yoidore
yojimbo
yoko
yokoi
yoku
yolaine
yolande
yome
yon
yona
yoneya
yonne
yonvo
york
yorkshire
yosa
yoshi
yoshiko
yoshimura
yoshinobu
yot
you
yougoslavie
young
your
yourcenar
youssoupha
youtube
yovanka
ys
ysache
ysaches
ysages
ysagisse
ysan
ysans
yser
yseut
yu
yucourt
yude
yue
yukiko
yulia
yun
yure
yutaka
yvan
yvelines
yvert
yves
yvette
yvillers
yvon
yvonne
yvrin
yvrincheux
yyyy
yzieux
z
za
zabelle
zaburo
zac
zacharie
zano
zante
zarzuela
zbiroh
ze
zealand
zeca
zecques
zeff
zeit
zeitschrift
zelig
zelny
zen
zeppelin
zero
zersto
zeur
zh
zhang
zhe
zho
zhu
zi
zidore
zie
zigzag
zilinde
zimbabwe
zin
zincourt
zingue
zinhier
zis
zit
ziudmor
zius
zizique
zmint
zne
znieff
zo
zoarces
zodiake
zodiaque
zoe
zoku
zola
zon
zone
zones
zoo
zoom
zoon
zoopracsiscope
zorn
zos
zot
zouafques
zouave
zous
zrole
zrs
zu
zuave
zulma
zum
zur
zurich
zus
zweig
zz
zzes
zzs
{
|
}
~
§
«
­
°
±
²
³
´
¶
·
¹
º
»
¿
×
æ
ð
ø
đa
đo
ħ
ĳ
ł
ło
łobez
ŋ
œ
œil
œtes
œu
œuf
œufe
œufes
œufs
œuvre
œuvres
ǀ
ǁ
ǂ
ǃ
ɐ
ɑ
ɒ
ɓ
ɔ
ɕ
ɖ
ɗ
ɘ
ə
ɛ
ɜ
ɞ
ɟ
ɠ
ɡ
ɢ
ɣ
ɤ
ɥ
ɦ
ɧ
ɨ
ɪ
ɫ
ɬ
ɭ
ɮ
ɯ
ɰ
ɱ
ɲ
ɳ
ɴ
ɵ
ɶ
ɸ
ɹ
ɺ
ɻ
ɼ
ɽ
ɾ
ʀ
ʁ
ʂ
ʃ
ʄ
ʈ
ʉ
ʊ
ʋ
ʌ
ʍ
ʎ
ʏ
ʐ
ʑ
ʒ
ʔ
ʕ
ʘ
ʙ
ʛ
ʜ
ʝ
ʟ
ʡ
ʢ
ʥ
ʰ
ʲ
ʷ
ʹ
ʼ
ʾ
ʿ
ˁ
ˈ
ˉ
ˌ
ː
ˑ
˞
ˠ
˥
˦
˧
˨
˩
̀
́
̂
̃
̄
̆
̇
̈
̉
̊
̋
̌
̏
̓
̔
̕
̛
̜
̟
̠
̣
̥
̦
̧
̨
̩
̪
̬
̯
̰
̹
̽
͂
͈
͡
α
β
δ
δρα
ε
η
θ
ι
καθε
λ
ν
ο
ος
π
περι
ς
υ
χ
ω
а
в
е
и
категория
косово
м
н
република
у
чижик
шаблон
ѵ
ѽ
ѿ
ҳ
ְ
ֱ
ֲ
ִ
ַ
ָ
ֹ
ּ
א
ג
ד
ה
י
ל
נ
ת
תבנית
ؕ
ء
ا
اسلامی
اللہ
ايران
ب
بسمہ
ت
تصنيف
ث
ج
جمهوری
ح
خ
د
ذ
ر
ز
س
ش
ص
ض
ط
ظ
ع
عالم
غ
ف
ق
قالب
قلم
ل
م
مستخدم
ن
ه
و
ً
َ
ِ
ّ
ٓ
ٔ
ٹ
پ
چ
ڈ
ڑ
ژ
ک
گ
ں
ھ
ی
ے
ݨ
ߣ
ँ
ं
क
ग
च
ज
ढ
न
प
ब
भ
य
ल
व
श
ष
ा
ि
े
्
ক
ট
থ
র
ল
া
ু
ে
্
ਾ
ੴ
ப
ர
வ
ா
ு
்
ం
గ
్
ಗ
ು
್
ം
ප
්
ต
น
บ
ร
ั
ิ
ี
ุ
ู
เราท
็
่
้
ນ
ສ
ັ
ິ
ີ
ຸ
ົ
່
მ
틀
ក
ច
ត
ថ
ន
ម
រ
ា
ុ
ំ
់
្
‍
‎
‏
–
—
‖
‘
’
“
”
†
•
…
‰
′
″
⁰
⁴
€
ℊ
ℋ
ℐ
ℒ
№
ℛ
ℤ
ℨ
ℬ
ℯ
ℰ
ℱ
ℳ
ℴ
ⅅ
ⅆ
ⅇ
ⅈ
ⅉ
←
→
↔
↗
↘
↷
⇒
−
≈
⋯
③
④
⑦
─
│
└
├
█
▲
◆
●
☉
♠
♣
♥
♦
♭
⺀
⺄
⺆
⺈
⺊
⺌
⺕
⺝
⺸
⺼
⿰
⿱
⿲
⿳
⿴
⿵
⿶
⿷
⿸
⿹
⿺
⿻
、
。
々
〢
あ
い
う
え
お
か
き
く
け
さ
し
す
せ
た
ち
っ
つ
て
と
な
に
の
は
ひ
ふ
へ
ほ
ま
む
も
や
ゆ
ょ
よ
ら
り
る
れ
わ
を
ん
゙
゚
ア
ィ
イ
ウ
オ
カ
ク
コ
サ
シ
ス
タ
チ
テ
ト
ナ
ニ
ノ
ハ
ヒ
フ
ヘ
ホ
マ
ム
モ
ヤ
ュ
ユ
ョ
ラ
リ
ル
ロ
ン
・
ー
㇁
㇂
㇄
㇇
㇈
㇉
㇓
㐁
㐄
㐅
㐌
㐫
㐬
㐭
㐮
㐱
㑒
㒵
㒸
㒼
㓁
㓞
㔾
㕛
㕣
㖾
㘝
㚅
㚇
㚔
㚘
㝉
㝡
㝴
㝵
㞋
㞢
㞷
㠩
㠭
㠯
㡀
㡭
㡿
㢲
㢴
㣇
㣺
㥯
㪅
㫄
㫐
㫒
㫺
㬅
㬎
㬥
㬰
㲋
㳄
㷠
㸒
㸚
㸦
㼌
㼲
㽞
㿟
䀠
䂞
䍃
䏍
䒑
䖍
䖒
䖝
䖵
䙴
䚻
䜌
䝿
䡛
䧹
䪞
一
丁
丂
七
丄
丅
丆
万
丈
三
上
下
丌
不
与
丏
丐
丑
专
且
丕
世
丘
丙
业
东
丞
丢
丣
两
严
並
丨
丩
个
丫
丬
中
丮
丰
丱
串
丵
丶
丷
丸
丹
为
主
丽
丿
乀
乂
乃
久
乆
乇
么
义
之
乌
乍
乎
乏
乐
乑
乔
乖
乗
乘
乙
乚
乛
乜
九
乞
也
习
乡
书
乱
乳
乾
亀
亅
了
亇
予
争
事
二
亍
于
亏
亐
云
互
亓
五
井
亘
亚
亜
亞
亟
亠
亡
亢
交
亥
亦
产
亨
亩
享
京
亭
亮
亯
亰
亲
亳
亶
亷
人
亻
亼
亾
仁
今
介
仌
从
仐
仑
仒
仓
仕
他
付
仝
代
令
以
任
企
伊
伏
伐
休
会
伯
但
位
何
佘
余
作
佥
使
來
侈
侌
侍
侖
侯
侵
便
保
俞
信
修
俳
倉
個
倍
候
倠
健
備
僉
僕
優
儿
兀
允
兂
元
兄
充
兆
兇
先
光
兊
克
兌
免
兑
兒
兓
兔
党
兜
兟
入
全
兩
兪
八
公
六
兮
兰
共
关
兵
其
具
典
兹
兼
冀
冂
冃
冄
内
冈
冉
冊
冋
册
再
冎
冏
冐
冒
冓
冖
冗
冘
军
农
冝
冡
冥
冫
冬
冷
几
凡
凢
凵
凶
凷
凸
凹
出
函
凾
刀
刁
刂
刃
刄
刅
分
切
刍
刑
刕
刖
列
刘
则
初
別
利
别
到
制
刺
則
削
剌
前
剡
創
剽
劉
力
功
加
劦
助
劫
劳
劵
勃
勇
勉
勒
動
務
勞
勤
勹
勺
勻
勾
勿
匀
匂
包
匆
匈
匊
匋
匍
匕
化
北
匚
匝
匡
匪
匱
匸
匹
区
医
匽
匿
區
十
卂
千
卄
卅
卆
升
午
卉
半
卌
华
卑
卒
卓
单
卖
南
卜
卝
卞
占
卡
卢
卣
卤
卦
卩
卪
卬
卯
印
危
即
却
卵
卷
卸
卻
厂
厃
厄
历
厈
厉
厌
厓
厘
厚
原
厤
厥
厨
厭
厲
厳
厶
厷
厸
去
厼
厽
叀
参
參
叅
又
叉
及
友
双
反
叐
发
叒
叔
叕
取
受
叚
叜
叟
口
古
句
另
叩
只
召
可
台
叱
史
右
叵
号
司
叹
吂
各
吅
合
吉
吊
吋
同
名
后
吏
向
吕
吗
君
吝
吞
否
含
启
吳
吴
吹
吾
呂
呆
呈
告
员
呙
周
命
咅
和
咎
咠
咢
咨
咸
咼
哀
品
哉
員
哥
哲
唐
商
啇
問
啚
啬
啻
善
喜
喬
單
喿
嗇
噩
嚴
囊
囗
囘
囙
囚
四
回
囟
因
囧
囬
困
囱
囷
固
国
圂
圅
國
圍
圓
土
圡
圣
圥
在
圭
地
圶
圼
坐
坒
坚
坴
垂
垔
垚
埀
埋
城
埶
執
基
堂
堅
堆
堇
堯
塞
墨
壘
士
壬
壯
声
壳
壴
壹
壺
壽
夂
处
夅
夆
备
夊
夋
夌
复
夏
夒
夕
外
夗
夘
多
夜
夢
大
夨
天
太
夫
夬
夭
央
失
夲
头
夷
夸
夹
夻
夾
奂
奄
奇
奈
奉
奎
奏
奐
契
奓
奔
奚
奞
奠
奢
奥
奭
女
奴
奻
好
如
妄
妈
妙
妟
妥
妻
妾
姑
委
姜
姫
姿
威
娄
娼
婁
婴
嬰
嬴
子
孑
孔
孕
孖
字
存
孚
孛
孝
孟
季
孤
学
孫
孱
學
宀
宁
宂
它
宅
宇
守
安
宋
完
宏
宓
宗
官
宙
定
宛
宜
宝
客
宣
室
宮
宰
害
家
容
宾
宿
寄
寅
密
富
寒
察
寧
審
寫
寬
寮
寸
对
寺
寻
寽
対
寿
封
尃
射
将
將
專
尉
尊
尋
尌
對
小
少
尒
尓
尔
尖
尗
尚
尞
尢
尣
尤
尧
尨
尭
就
尸
尹
尺
尻
尼
尽
尾
尿
局
居
屈
屋
屎
屏
屑
展
屖
屚
属
屠
屡
屬
屮
屯
屰
山
屵
屾
岁
岂
岑
岡
岩
岳
岸
峯
島
崇
崎
崑
崔
崖
崙
崩
嵬
嶲
嶺
巂
巛
川
州
巟
巠
巢
巣
巤
工
左
[...]
