!
"
#
##0
##1
##10
##11
##12
##13
##14
##15
##16
##17
##18
##19
##2
##20
##21
##22
##23
##24
##25
##26
##27
##28
##29
##3
##30
##31
##32
##33
##34
##35
##36
##37
##38
##39
##4
##40
##41
##42
##43
##44
##45
##46
##47
##48
##49
##5
##50
##51
##52
##53
##54
##55
##56
##57
##58
##59
##6
##60
##61
##62
##63
##64
##65
##66
##67
##68
##69
##7
##70
##71
##72
##73
##74
##75
##76
##77
##78
##79
##8
##80
##81
##82
##83
##84
##85
##86
##87
##88
##89
##9
##90
##91
##92
##93
##94
##95
##96
##97
##98
##99
$
%
&
'
(
)
*
+
,
-
.
/
0
00
000
001
002
003
005
007
01
02
03
031
036
04
040
05
050
06
062
07
075
08
09
094
1
10
100
1000
1001
101
1012
1014
1015
1016
1018
102
1020
1021
1024
1025
1028
103
1031
1035
104
1040
1042
1046
1047
1050
1054
106
1060
1066
107
1070
1071
1076
1077
108
1080
1085
1086
1087
109
1095
1096
1098
1099
11
110
1100
1101
111
1110
1115
112
1122
1127
1128
113
1130
1139
114
1140
1147
115
1150
1155
116
1160
1169
117
1170
1171
11717
1174
118
1180
1185
1187
119
1190
1192
1198
12
120
1200
1201
1204
1205
1206
1207
121
1212
1213
1215
122
1220
1225
1229
123
1230
1232
1233
124
1240
1245
125
1250
1254
126
1260
1261
1265
1266
127
1270
1271
1274
1275
128
1282
129
1297
13
130
1300
1304
131
1312
1313
1315
132
1320
1321
1323
1325
133
1336
1337
134
1340
1346
1347
1348
135
1350
1351
1356
1360
1368
137
1370
1374
1375
1377
1378
138
1387
1388
139
1391
1397
14
140
1400
1401
1402
1405
141
1410
1411
1415
1417
142
1425
143
1431
1433
1434
1435
144
1440
1443
1448
145
1450
1451
1452
1453
1454
1455
1456
1457
1459
146
1460
1462
1463
1466
1468
1469
147
1470
1473
1474
1475
1476
1478
1479
148
1480
1481
1482
1483
1485
1487
1488
149
1490
1492
1493
1494
1495
1496
1497
1498
1499
15
150
1500
1501
1502
1503
1504
1505
1506
1508
1509
151
1511
1512
1513
1515
1516
1517
1519
152
1520
1521
1522
1523
1524
1525
1526
1528
153
1530
1532
1533
1534
1535
1536
1539
154
1540
1542
1543
1546
1547
155
1550
1552
1553
1554
1555
1556
1557
1558
1559
1560
1562
1563
1564
1565
1566
1568
1569
1570
1571
1572
1573
1574
1576
1577
1578
158
1580
1581
1583
1584
1585
1586
1587
1588
159
1590
1591
1592
1593
1594
1595
1596
1597
1598
1599
16
160
1600
1601
1602
1603
1604
1605
1606
1607
1608
1609
161
1610
1611
1612
1613
1614
1615
1616
1618
162
1620
1621
1622
1623
1624
1625
1626
1627
1628
163
1630
1632
1634
1635
1636
1637
1638
164
1640
1641
1642
1643
1644
1647
1648
165
1650
1651
1652
1653
1656
1658
1659
166
1660
1661
1662
1663
1665
1666
1667
1668
1669
167
1670
1672
1673
1675
1677
1678
1679
168
1680
1682
1683
1685
1687
1688
1689
169
1690
1693
1694
1696
1697
17
170
1700
1701
1703
1704
1705
1707
1708
1709
1710
1711
1712
1713
1715
1717
172
1720
1721
1723
1724
1725
1727
173
1732
1734
1738
174
1741
1748
1749
175
1750
1751
1752
1753
1754
1756
1759
176
1760
1762
1763
1764
1765
1766
1768
1769
177
1770
1772
1773
1774
1775
1776
1777
1778
1779
178
1780
1781
1782
1783
1784
1785
1786
1787
1788
1789
179
1790
1791
1792
1793
1794
1795
1796
1797
1798
1799
18
180
1800
1801
1802
1803
1804
1805
1806
1807
1808
1809
181
1810
1811
1812
1813
1814
1815
1816
1817
1818
1819
182
1820
1821
1822
1823
1824
1825
1826
1827
1828
1829
183
1830
1831
1832
1833
1834
1835
1836
1837
1838
1839
184
1840
1841
1842
1843
1844
1845
1846
1847
1848
1849
185
1850
1851
1852
1853
1854
1855
1856
1857
1858
1859
186
1860
1861
1862
1863
1864
1865
1866
1867
1868
1869
187
1870
1871
1872
1873
1874
1875
1876
1877
1878
1879
188
1880
1881
1882
1883
1884
1885
1886
1887
1888
1889
189
1890
1891
1892
1893
1894
1895
1896
1897
1898
1899
19
190
1900
1901
1902
1903
1904
1905
1906
1907
1908
1909
1910
1911
1912
1913
1914
1915
1916
1917
1918
1919
192
1920
1921
1922
1923
1924
1925
1926
1927
1928
1929
193
1930
1931
1932
1933
1934
1935
1936
1937
1938
1939
194
1940
1941
1942
1943
1944
1945
1946
1947
1948
1949
195
1950
1951
1952
1953
1954
1955
1956
1957
1958
1959
196
1960
1961
1962
1963
1964
1965
1966
1967
1968
1969
197
1970
1971
1972
1973
1974
1975
1976
1977
1978
1979
198
1980
1981
1982
1983
1984
1985
1986
1987
1988
1989
199
1990
1991
1992
1993
1994
1995
1996
1997
1998
1999
2
20
200
2000
2001
2002
2003
2004
2005
2006
2007
2008
2009
201
2010
2011
2012
2013
2014
2015
2016
2017
2018
2019
202
2020
2021
2022
203
2030
204
205
2055
206
207
208
209
21
210
2100
211
212
213
214
215
216
217
218
2181
219
22
220
2200
221
222
223
224
225
226
227
228
229
23
230
2300
231
232
234
235
2350
236
238
239
24
240
2400
241
242
243
244
245
246
247
25
250
2500
251
252
253
254
256
257
258
26
260
2600
261
262
263
264
265
266
267
268
2686
269
27
270
2700
271
272
273
274
275
276
279
28
280
2800
281
282
283
284
285
286
287
289
29
290
2900
291
293
294
295
296
297
298
299
3
30
300
3000
301
302
303
305
306
308
31
310
3100
312
313
314
315
3150
316
317
318
32
320
3200
321
322
323
324
325
327
33
330
3300
331
332
333
334
335
336
337
338
339
34
341
343
344
346
347
349
35
350
3500
353
354
355
356
358
359
36
360
3600
361
362
363
365
366
367
369
37
370
3700
371
374
375
377
379
38
380
3800
382
383
384
385
386
387
388
39
390
391
393
394
395
396
397
399
4
40
400
4000
401
403
404
405
406
408
409
41
410
411
412
414
415
417
419
42
420
4200
421
425
426
43
430
4300
431
432
433
435
4350
436
437
438
44
440
4400
442
445
446
448
45
450
4500
452
454
455
456
458
46
460
4600
466
469
47
470
475
476
479
48
480
4800
481
483
484
485
486
487
49
490
4900
491
493
495
496
497
5
50
500
5000
501
507
508
509
51
510
512
52
520
5200
521
525
527
529
53
530
5300
534
535
537
538
539
54
540
541
546
549
55
550
5500
551
552
553
56
560
564
565
57
570
5700
572
575
577
578
58
580
5800
581
582
584
585
589
59
590
594
596
599
6
60
600
6000
601
605
608
609
61
610
612
615
618
62
620
6200
621
622
624
625
628
63
630
632
634
635
639
64
640
641
642
647
65
650
6500
651
654
658
66
660
661
664
67
670
673
675
678
68
680
681
683
688
69
691
7
70
700
7000
703
704
705
706
71
710
711
712
714
716
718
72
720
722
725
728
73
731
732
734
735
74
740
75
750
751
753
756
757
76
768
769
77
770
771
773
774
776
78
780
784
79
790
793
8
80
800
8000
801
804
806
808
81
813
814
82
825
827
83
830
84
840
841
842
843
85
850
8500
857
86
860
868
87
870
874
88
880
881
882
885
89
897
899
9
90
900
9000
907
908
909
91
910
911
917
919
92
920
921
925
929
93
94
940
946
95
950
958
96
960
963
965
966
969
97
970
971
976
978
98
980
981
983
987
988
99
990
996
997
:
;
<
=
>
?
@
\
^
_
`
a
aa
aaa
aachen
aan
aarde
aau
ab
ababa
abaco
abade
abaderia
abaderias
abadesa
abaia
abajo
abanda
abandona
abandonada
abasan
abaxevo
abaza
abazgi
abba
abbey
abc
abcaz
abcazia
abd
abdera
abdi
abdul
abe
abea
abeas
abejar
abel
abelard
abenaci
abeon
aberdeen
abesiva
abeto
abi
abic
abigudas
abisinia
abita
abitable
abitada
abitadas
abital
abitante
abitantes
abitas
abiteria
abiterias
abitor
abitores
abitua
abituada
abitual
abituante
abituas
abjad
abjades
abkhaz
ablativa
ablaut
able
aboli
abolida
aboliste
about
abraham
abrasa
abrasada
abre
abri
abricoco
abrida
abridas
abrigo
abrinte
abris
abrivia
abrivias
absoluta
abu
abugida
abugidas
abunda
abundante
ac
acaba
acad
acade
academia
academial
academias
academic
academica
academistes
academy
acadian
acaia
acaro
acaros
acasia
acasida
acaso
acasos
acc
accra
ace
acea
acean
aceanes
acel
aceles
acelo
acemenan
acenaten
acer
ache
achin
achternbusch
aci
acid
acile
aciles
ackermann
acompania
acompaniada
acompaniante
acompanior
acompaniores
aconcagua
acorda
acordable
acordada
acordante
acordas
acre
acres
acrete
acronim
acsum
act
acte
actio
action
actions
actor
actriz
actuacio
acu
acua
acuaduto
acuadutos
acual
acuas
acuin
acumula
acuosa
acusa
acusada
acusas
acusativa
acustica
acuta
ad
ada
adam
adams
adan
adansonia
adas
adata
adatada
addams
added
addis
adducer
ade
adele
aden
adenet
adenina
adenosin
adenosina
adere
aderente
aderentes
aderores
adesiva
adesso
adi
adigabze
adige
adio
adirije
adirijes
adjuta
adjuvilo
adlam
adler
admixture
adn
adobe
adolese
adolesente
adolesentes
adolf
adolfo
adolph
adolphe
adomen
adomenal
adominal
ador
adora
adorada
adormi
adorores
adota
adotada
adotante
adrian
adriano
adriatica
adriatico
aducer
adula
adulta
adultas
adulte
adultera
adultes
adultia
adv
advaita
advanced
advb
adventiste
adventistes
adventures
adverbes
adverbos
adverbs
ady
adzoa
ae
aec
aeguc
aehse
aeneid
aerial
aes
aesir
af
afaca
afanasevo
afar
afasia
afelio
afeta
afetable
afetada
afetante
afetas
affairs
afganistan
afi
afin
afirma
afirmante
afisa
afisada
afisas
afluente
afluentes
afoca
afonda
afonso
aforismes
africa
african
africanes
africans
africanses
africante
africantes
afrihili
afrikaanse
afrikaners
afro
afroamerican
afroasiatica
afrodita
afrodite
after
afternoon
ag
again
against
agamemnon
agan
agatho
agave
agbale
agble
age
agent
ages
agia
agila
agilas
agincourt
aglutina
aglutinante
agnes
agni
agnostica
agnosticas
agnosticisme
ago
agorafobia
agos
agosto
agra
agreda
agrega
agresiva
agresivia
agricola
agrigento
agripa
agripina
agrippa
agu
agua
aguila
aguilar
agus
ah
aha
ahaye
ahimsa
ahl
ahmad
ahmed
ahmet
ahpo
ahse
ahura
ai
aias
aiax
aida
aidada
aidante
aidantes
aidas
aidor
aidores
ailill
ailnge
aimara
ain
aingelja
aino
ainsi
ainu
aiquin
air
aira
airal
aire
aires
airocompania
aironautica
airoporto
airoportos
airport
ais
aise
aiti
aitian
aitianes
aix
aj
ajax
aje
ajectivos
ajenante
ajenda
ajendas
ajenta
ajente
ajenteria
ajenterias
ajentes
ajentia
ajento
ajetival
ajetivas
ajetivin
ajetivo
ajetivos
ajil
ajilia
ajiografia
ajita
ajitada
ajunta
ajuntable
ajuntada
ajuntadas
ajuntal
ajuntante
ajuntas
ajusta
ajustada
ajustante
ajustas
ak
aka
akademi
akbar
akesi
akhilleus
aki
akorda
aks
akti
aktionsart
akɔsua
al
ala
alabama
alafa
alah
alain
alan
alanes
alas
alaska
alativa
alauistes
alava
alba
alban
albania
albanian
albany
albatros
albatroses
albert
alberta
alberti
alberto
albigensianes
albino
alboran
album
albumes
alca
alcalde
alcalin
alcalines
alcaloide
alcazar
alce
alces
alcimica
alcimical
alcimicistes
alcol
alcolosa
alcovas
alcubilla
ale
alef
alega
alegada
alegas
alegoria
alegorial
alegrett
aleksander
aleksandr
alelo
alerjia
alerjial
alert
alessandro
aletas
aleterosa
aleut
alex
alexander
alexandra
alexandre
alexandria
alexandro
alexandru
alfa
alfabeta
alfabetal
alfabetas
alfabetisme
alfabetiste
alfandari
alfil
alfonso
alfred
alfredo
alga
algas
alge
alges
algic
algoncian
algoncianes
algoritmo
alguer
algun
alhama
alhambra
ali
alia
aliada
aliadas
aliante
alianza
alias
alice
aliena
alienable
alighieri
align
alinei
alinia
aliniada
alio
alisia
alison
aliud
aliya
aljebra
aljebral
alkmaar
all
alla
allah
allan
allen
aller
alma
almagest
almarza
almaza
almazan
almirall
almohade
almohades
almoravide
almoravides
almost
almuerzo
alno
alo
aloe
alofi
alofon
alofones
alois
along
alor
alora
aloys
alp
alpes
alphabet
alphonse
already
als
alsace
also
alt
alta
altai
altaica
altair
altamira
altar
altares
altas
alte
altera
alterada
alterante
alterantes
alteras
alterna
alternante
alternativa
alternativas
altertumswissenschaftliche
alti
altia
altias
altinte
altiplano
alto
altra
altruisme
altruiste
aluminio
alusina
alusinas
alvastra
alveolal
alvi
alzheimer
am
ama
amable
amada
amadeus
amalfi
amandas
amando
amant
amante
amar
amare
amarga
amargia
amarillo
amarina
amat
amator
amatores
amaza
amazon
amazona
amazonas
amazonia
amba
ambar
ambasada
ambasador
ambasadores
ambie
ambiental
ambiente
ambientes
ambientisme
ambientiste
ambigua
ambiguia
ambivalente
amboise
ambos
ambros
ambrose
ambrosio
amburger
ame
amea
ameawo
ameba
amed
amekisoma
amelanxir
amen
america
american
americana
americanes
americas
amerindian
amfetaminas
amfibio
amfibios
amfiteatro
amforas
ami
amia
amico
amicos
amidon
amiko
amin
amini
aminoasida
aminoasidas
amir
amira
amirable
amirada
amiral
amires
amiria
amirias
amiror
amis
amistad
amix
amixes
amniotos
amo
amon
among
amonia
amonio
amor
amores
amos
amosa
amosia
amour
amstel
amsterdam
amtrak
amu
amun
amundsen
amur
amy
an
ana
anabatisme
anabatiste
anaforia
anakin
anal
anales
analisa
analisador
analisal
analise
analiseda
analises
analoja
analojia
analysis
ananas
anarcia
anarcisme
anarciste
anas
anata
anatolia
anatolian
anatomia
anatomial
anatomica
anatomistes
anaxagoras
anaximandro
anca
ancas
ance
anchor
ancien
ancient
ancilosante
ancise
ancona
ancor
ancora
ancori
ancorida
and
anda
andalus
andalusia
andaluz
andaman
andar
ande
andersen
anderson
andersson
andes
ando
andoce
andora
andorra
andre
andrea
andreas
andreo
andrew
android
androjine
andromaca
andromeda
andronico
andronovo
androzani
ane
anela
anelas
anelido
anelidos
anelo
anelos
anemia
anestese
aneu
aneurisme
ang
angaur
angel
angela
angeles
angels
anghiari
angila
angilas
angkor
anglais
angle
angles
anglia
anglican
anglicanisme
anglo
anglonormande
anglorum
anglosason
anglosasones
angola
angolan
angra
anguila
angulal
angulo
angulos
angus
angusa
anial
anima
animada
animal
animales
animals
animas
animat
animate
animisme
animiste
animistes
anio
anios
aniversario
anjel
anjeles
anjioedema
anjiospermas
anjou
ankara
ankau
anke
ann
anna
annales
anne
anni
anniversary
anno
annunzio
annus
ano
anomales
anonim
anos
ans
ansan
anse
ansei
ansel
anselm
anseong
anser
ansia
ansiosa
ant
anta
antara
antartica
ante
anteeksi
antemurale
antenas
anterior
antero
antesedente
antesedentes
anthony
anti
antibateriales
antica
anticas
anticia
anticin
anticines
anticorpos
antidepresantes
antigonan
antigone
antigua
antiguidade
antiinflamante
antiiudisme
antiiudiste
antike
antiles
antilies
antilopes
antimicrobial
antimicrobiales
antioc
antioche
antiocia
antioco
antique
antiquity
antistene
antitese
antiviral
anto
antofagasta
antoine
antoinette
anton
antoni
antonim
antonino
antonio
antony
antoon
antropolojia
antropolojial
antropolojiste
antropolojistes
antropomorfe
antwerp
anu
anual
anubis
anunsia
anunsiada
anunsias
anunsiasiones
anxas
anyang
ao
aora
aoriste
aorta
aortal
aos
ap
apa
apalatxi
apalatxia
apalatxian
apara
aparata
aparatas
aparato
aparatos
apare
apareda
aparente
apares
apartait
aparte
aparteni
apartes
apatia
apatxe
apela
apena
apendis
apeninos
apetito
aphrodite
api
apia
apico
apicos
aplica
aplicable
aplicada
aplicas
aplogrupo
aplogrupos
aploide
apm
apo
apocalisal
apocalise
apocrifa
apofonia
apoia
apoiada
apoiante
apollinaire
apollo
apollonio
apolo
apolodoro
apolojia
apolon
apolonio
apoptose
aposa
aposada
aposadal
aposadas
aposta
aposteriori
apostol
apostolal
apostoles
apparently
appeal
appeler
appelez
appelons
apple
apprendre
approach
apre
aprende
aprendeda
aprendente
aprendor
aprendores
april
apriori
aproba
aprobada
aprosima
aprosimi
aps
apulia
apun
aqui
aquinas
aquino
aquitaine
aquitania
ar
ara
arab
arabi
arabia
arabis
aracide
aracnido
aracnidos
aradi
aradida
arado
arados
arafat
arago
aragon
aragones
aragonesa
aragoneses
aral
arami
aran
arane
aranes
arania
aranias
aranin
aranja
arapaho
ararat
arauac
arauacan
arauaces
araviana
araxes
arbe
arbitor
arbitra
arbitrada
arbor
arboral
arboran
arboreria
arbores
arboreta
arboretas
arborin
arbre
arbuto
arc
arca
arcadia
arcaica
arcana
arcanjel
arcea
arceas
arcenemi
arceolojia
arceolojial
arceolojiste
arceolojistes
arcetipal
arcetipo
arcetipos
archa
archaeological
archaeology
archaic
architectura
architecture
archive
arcibispia
arcibispo
arcida
arciduxe
arciel
arcimede
arcipelago
arcipelagos
arciteta
arcitetal
arcitetas
arcitetor
arcitetores
arciveria
arcivi
arcivida
arcivo
arcivos
arco
arconte
arcor
arcores
arcos
arcosauros
arde
ardeda
ardente
ardosia
are
area
areal
areas
areca
arena
arenge
arenges
arenito
arenosa
areolas
ares
aresta
arestada
arete
argentina
argo
argonautas
argonautes
argonautica
argos
arguments
argumentum
ari
aria
arian
arianes
arianisme
arias
aricara
ariel
ario
ariosto
aristocrata
aristocratas
aristocratia
aristofane
aristotele
aristotelisme
aritmetica
aritmetical
ariva
arivante
arivores
arizona
arjentin
arjentina
arjento
arjila
ark
arkansas
arma
armada
armadas
armadilo
armadilos
armageddon
armagh
armario
armas
armenia
armenian
armenianes
armida
arminio
armoni
armonia
armoniosa
armstrong
armur
army
arn
arnhem
arno
arnold
arnoldus
aromanian
around
arpa
arpanet
arpia
arpias
arras
arriba
arriver
ars
arsenico
arsinoe
art
artal
arte
artemis
artemisa
artenac
arteria
arterias
artes
arthur
arti
artica
article
articles
artifis
artifisal
artifisia
artifisial
artileria
artisan
artisanes
artisania
artist
artista
artiste
artistes
artrite
artropodos
arts
artur
aru
aruba
as
asa
asaf
asal
asam
asante
asasina
asasinada
asasinor
ascanio
asclepio
asconde
ascondeda
ase
asecura
asedable
asede
asedente
aseja
asejada
aselera
aselerada
asembla
asemblada
asemblante
asemblas
asende
asendente
asendentes
asenta
asente
asentia
asentua
asentuada
asentuante
asentuas
aser
asero
aseros
aserta
asertas
ases
aseta
asetable
asetada
asetante
asetica
ash
ashby
ashkii
ashoka
asi
asia
asian
asianes
asiatica
asida
asidas
asidente
asidua
asimilada
asimina
asimov
asinia
asiniada
asiniboin
asino
asinos
asinye
asioneria
asiones
asiria
asirian
asirianes
asiwo
ask
asmara
asociacio
asocio
asoluta
asolutisme
asolutiste
asolutiva
ason
asones
asorbada
asorbe
asorbeda
asorbente
asores
asosia
asosiada
asosiante
asosias
asosior
asosiores
asosisme
aspects
aspeta
aspetas
aspetisme
aspira
aspirada
aspirante
aspirantes
aspiras
aspiror
aspirores
assembly
asseoir
association
ast
asta
astana
asteca
astecas
asteni
asteninte
asteroide
asteroides
astrata
astratas
astrato
astrea
astrobiolojia
astrofisica
astrolojia
astrolojial
astronauta
astronomia
astronomial
astronomiste
astronomistes
astruzo
astures
asturian
asturiana
asturianes
asturiano
asturias
asturies
asturleones
astuta
astutia
asuntas
asur
asuras
asurda
asurdia
asusta
asustada
asustante
at
ata
atabascan
ataca
atacada
atacante
atacas
atacor
atacores
atante
ataraxia
atari
atas
atat
ate
ateisme
ateiste
ateistes
aten
atena
atenda
atende
atendeda
atendente
atendores
atendosa
atenea
ateni
atenida
ateninte
atenis
atenisme
atenta
atentada
atentante
atentas
atera
atesta
atestada
atestante
atestas
atestor
atestores
ath
athena
athens
ati
atia
atica
atiglinyi
atila
atimwa
atina
atinan
atinanes
ativa
ativas
ativi
ativia
ativias
ativida
ativisme
ativiste
ativistes
atkinson
atla
atlanta
atlantica
atlantida
atlantide
atlas
atleta
atletas
atletisme
atli
atman
atmosfera
atmosferal
atol
atoles
atom
atomal
atomes
atomos
ator
atores
atp
atrae
atraeda
atraente
atraes
atraosa
atre
atribui
atribuida
atribuidas
atribuinte
atribuis
atrio
atrios
atrium
atrofia
attenborough
attendre
atual
au
aube
audiencia
audio
audubon
aue
aufkla
augsburg
augsburgo
august
augusta
augustan
auguste
augustin
augustino
augusto
augustulo
aui
aul
aulis
aumenta
aumentada
aumentante
aung
aunt
aurelian
aureliano
aurelio
aurelius
aurignacian
auriniasian
aus
auschwitz
ausia
ausias
aussprache
austen
austin
australasia
australia
australian
australianes
australis
austrasia
austri
austria
austro
austroasiatica
austronesian
aute
autentica
autenticia
authority
autisme
auto
autoaliena
autoanticorpos
autobiografia
autobiografial
autoconsensa
autocrata
autocratia
autocura
autodefende
autodepinta
autodetermina
autoevidente
autofida
autogoverna
autoimune
autoimunia
automata
automatida
automobiles
autono
autonom
autonomi
autonomia
autonomial
autonomida
autor
autoreali
autores
autorespeta
autori
autoria
autorias
autorida
autoriosa
autoriosas
autoritar
autoritariste
autos
autosufisinte
autovia
autovias
autres
auttaa
auvergne
aux
auxiliary
av
ava
avait
avansa
avansada
avansante
avansas
avar
avares
avaria
avatares
ave
avec
avena
aveni
aveninte
avenis
avente
aventura
aventuras
aventures
aventuror
averbal
averbales
averbial
averbin
averbo
averbos
averio
averroes
averti
avertis
aves
avesta
avestan
avi
avia
avialos
avias
avignon
avila
avion
aviones
avioni
avionor
avis
avisa
aviv
avo
avocado
avocato
avoir
avons
aw
awa
awaan
away
awi
ax
axa
axas
axcenazi
axcenazis
axe
axes
axi
axia
axias
axiom
axiomal
axiomes
axis
axoca
axos
axu
axur
axɫk
ay
aycha
aye
ayes
ayi
ayllo
aymeri
aymon
ayn
ayolas
az
azerbaidjan
azerbaidjani
azerbaidjanis
azerbaijan
azerbaijani
azeri
azia
azor
azov
azu
azul
azərbaycan
aƒe
aɖu
aʔ
b
ba
baa
baba
babbage
babel
babeldaob
babies
babilon
babilonia
babilonian
babilonianes
bable
babur
baca
bacas
bach
back
baco
bacon
bactria
bactrian
bacu
bad
baden
badhoevedorp
bae
baffin
bag
bagdad
bagete
baghdad
bahai
bahais
bahaisme
bahamas
bahasa
bahi
bahia
bai
baia
baical
baieres
baiern
baieta
baile
bain
baining
baiores
bait
baja
baka
baker
bal
balada
baladas
balaenidae
balaenoptera
balanovo
balansa
balcan
balcanes
balcano
balcaria
balcax
balcon
balcones
baldacin
balde
balder
baldrick
balear
baleare
baleares
balena
balenas
bales
balesta
baleta
baleto
baletos
balgares
balgaria
balgarsce
balgarsces
bali
ball
balones
balotxistan
bals
balsa
balsas
baltasar
baltica
balticas
baltimore
balto
bamako
bambara
bambu
ban
banana
bananas
banato
banca
bancal
bancarota
bancaroti
bancas
banceta
bancetas
banco
bancor
bancos
banda
bandas
bande
bandera
banderas
bandes
bandetosa
bandicute
bandura
bang
bangcoc
bangla
bangladex
bangui
bani
banieria
banierias
banio
banios
banjo
bank
bantu
bantus
baobab
baobabes
baptiste
bar
bara
barack
barain
baras
barat
barata
barati
barba
barbacoan
barbados
barbar
barbara
barbares
barbaria
barbas
barbastre
barbida
barbotin
barbuda
barbur
barca
barcelona
barceta
barcino
barco
barcon
barcones
barcos
bare
barents
bares
bargoens
bari
barilin
barnes
baroca
baron
baroncelli
barones
baronesa
barracks
barranco
barre
barrett
barrow
barselona
bartolomeo
bartolomeu
baruch
bas
basa
basada
basal
basas
bascetbal
base
basebal
baseda
basel
bases
basi
basic
basida
basil
basileus
basilica
basin
basines
basis
baso
basofilica
basque
bass
bastante
basteta
bastetas
bastilia
bastille
basto
baston
bastones
bat
bata
bataille
batalia
batalias
batalion
bataliones
batalla
batavianes
bate
bateda
bateria
baterial
baterias
bates
bath
batisme
batiste
batistes
batiza
batizada
bator
batter
battista
battle
baudelaire
baudelio
bauhaus
bautista
baxcort
baxni
bay
bayard
bayern
bayle
bayubas
bbc
bc
be
beagle
bealtaine
bears
beast
beatles
beatrice
beatrix
beau
beaufront
beaulande
beaumont
beauvoir
beaverton
bebe
bebes
bec
because
beck
becket
beckett
beco
become
becos
beda
bee
been
beet
beethoven
before
begin
begun
behind
beijing
beillac
being
beitra
bek
bel
bela
belarus
belarusian
belau
belaus
belfast
belgian
belgium
beli
belia
beliz
belizan
belizanes
belize
beljes
beljia
belkhadem
bell
bellay
belle
belles
belli
bellingham
bellini
bello
bells
bellum
bellwood
belmopan
belo
belong
below
beltra
beluga
belugas
belvedere
ben
bend
bene
benedictin
benedito
benefia
benefica
beneficada
beneficante
beneficas
benefit
benelux
beneria
benes
benevento
bengal
bengala
benid
benin
benito
benjamin
benjamins
benois
bent
bentham
benz
beograd
beotuc
beotuces
beowulf
ber
berber
berberes
berenguer
berestove
bergen
bering
beringia
berkeley
berlanga
berlin
bermuda
bernard
bernardo
bernat
berners
bernhard
berry
berta
bertalanffy
bertha
berthold
berting
bertinuskerk
bertolt
bertrand
berut
bes
besa
besarabia
best
bestas
bestia
bestias
bet
beta
betas
bethlehem
betlehem
beton
better
betul
between
beuve
bevable
bevi
bevida
bevidas
bevis
bey
bh
bi
bia
bianco
bible
bibli
biblia
biblial
biblio
bibliografia
bibliography
biblioteca
bibliotecas
biblo
bicarbonato
bid
bidec
biden
bielarus
bielarusce
bien
big
bight
biip
bijou
bijoux
bika
bil
bilabial
biladal
bilal
bile
bileta
biletas
biliardo
bilingual
bilingualisme
bilion
biliones
bill
bilong
bin
bina
binaria
binet
bingen
bini
binid
biocimica
biodiversia
biografia
biografial
biografias
biografie
biografiste
biography
biological
biolojia
biolojial
biolojiste
biolojistes
biomasa
biometria
biomoleculas
biopsia
biosfera
biotecnolojia
bipolal
bir
bird
birds
birmingham
birth
bis
bisau
biscaia
biscoto
bisicle
bisicles
bislama
bismarck
bison
bisones
bispal
bispia
bispias
bispo
bispos
bissau
bit
bitios
bivalvo
bivalvos
bixcec
bizantia
bizantian
bizantianes
bizantio
bizantion
bizar
bizara
bizarre
biłgoraj
bjo
bl
bla
black
blackwell
blaeve
blair
blaise
blake
blanc
blanca
blancaneva
blancas
blanci
blanco
blanda
blasfema
blench
bleni
bleu
bleue
bleuler
bli
blica
blickfeld
blindada
bloci
blocida
blocinte
bloco
blocos
blog
blonde
blondel
blong
blood
blu
blue
blum
blus
blusa
blust
bo
boa
board
bob
bobby
bobo
boca
bocal
bocas
boccaccio
bod
bodel
boden
bodin
bodmer
bodo
body
boekhuis
boemia
boemian
boer
boeree
boeres
boers
bogomiles
bogota
bohr
boian
boiling
boit
bol
bolak
bolas
boles
bolevar
boli
bolida
boling
bolinte
bolintineanu
bolivar
bolivia
bollack
bologna
bolonia
bolsa
bolsas
boltraffio
bolxevic
bolxevices
bom
bomba
bombarda
bombas
bombax
bombi
bon
bona
bonaire
bonaparte
bondinte
bondise
bondiseda
bondises
bone
bones
bonfortuna
bong
boni
bonia
bonida
bonis
bonito
bonneville
bono
bonobo
bonparlante
bonstate
bonvendeda
bonveni
bonvenida
bonveninte
bonvole
bonvolente
bonvolor
bonvolores
book
books
boole
boom
boot
bopomofo
bora
borda
bordada
bordante
bordas
bordeaux
bordel
bordeles
bordida
borges
borgia
boris
born
borneo
borok
borry
borx
borxt
bos
bosca
boscas
bosce
bosces
bosch
bosnia
bosnian
bosnianes
bosporo
boston
botai
botania
botanica
botanical
botaniciste
botaniste
botas
boteca
botecas
botela
botelas
botelin
boten
both
boton
botones
botoni
botonida
botsuana
botticelli
bottom
botvinia
bouche
bougainville
bouger
bouillon
bourbon
bourges
bourre
bove
boves
boveta
box
boxe
boxores
boy
boyle
boyne
boys
br
bra
braakman
brabant
braccae
braciopodo
braciopodos
bradipo
bradipode
bradipos
brae
bragi
brahma
brahmaputra
brahmi
braies
brain
bram
brama
braman
brami
brancias
brandenburg
brandi
brandinte
brasaleta
brasaletas
brasetas
brasi
brasil
brasileiro
brasilera
braso
brasos
braunschweig
brazil
bread
break
brecht
brecs
breizh
bremen
breno
brentano
bres
bresonica
bretagne
breton
breuer
brian
brice
brices
bricetas
bridal
bride
bridge
brie
briggs
brigham
brigid
brilia
briliada
briliante
brill
brinca
bring
briofita
briozones
briseida
briseis
bristol
britain
britan
britania
britannia
britannica
brites
briteses
brithenig
british
britones
britonica
brixton
bro
broadway
broca
brode
broma
bromas
brome
bromelia
bromki
bronze
bronzes
brood
brooklyn
brosa
brother
brothers
brown
broxes
bru
bruce
bruck
bruegel
bruje
brun
brune
bruno
brunswick
brusca
brut
bruta
bruto
bruxelles
brynhild
bu
bubonal
bucheon
buck
buco
bucos
bucuresti
buda
budapest
budisme
budiste
budistes
budva
buenos
bufalo
bufalos
buffalo
bufon
bug
building
buitrago
bujeta
buk
bula
bulaka
bulas
bulbo
bulgaria
bulion
buliones
bull
bulto
bultos
buma
bumerang
buni
bunin
bunita
buo
buonarroti
buos
bur
burcina
bureau
burgess
burgo
burgonia
burgos
burgunda
burgundas
burgundia
buri
buriat
buriatia
burjes
burjesia
burla
burlante
burma
burman
burmeso
burn
buro
burocrata
burocratia
bursa
burst
burundi
bus
busan
busca
buses
bush
business
busola
but
butan
butler
buttons
bw
by
byrd
byron
byzantine
bz
bɛ
bɛna
c
ca
caa
caba
cabadrin
caballero
caballeros
caballo
caballu
cabana
cabanas
cabardino
cabe
cabinda
cabo
caboet
cabral
cabrejas
cac
cacatu
cacau
caci
cacto
cada
cadai
cade
cadeda
cadena
cadenal
cadenas
cadeno
cadente
cadi
cadiz
cadle
cadoan
cadu
caduca
cadun
caelo
caere
caesar
caesaraugusta
cafe
cai
caicos
caillou
cailloux
caiman
caio
caioua
cairo
cajal
caje
cajon
cakes
cal
cala
calabria
calahari
calalitnunat
calamar
calamares
calatan
calca
calcario
calcas
calce
calcis
calcolitica
calcula
calculada
calculador
calculadores
calculante
calculas
calculo
calculos
calda
calderas
caldero
calderon
caldesa
caldi
caldia
caldida
cale
caledonia
caledonianes
calendar
calendario
calendarios
calendrio
calgary
calia
califa
califia
califias
california
californian
caligrafia
caligula
calinga
caliningrad
caliope
calipso
calix
calixin
called
calling
calliope
calma
calmi
calmia
calmicia
calo
calor
calpe
calsa
calsas
calseta
calsinose
calsio
calsones
calva
calvin
calvinisme
calviniste
calvinistes
cam
cama
camaleon
camaleones
cambia
cambiada
cambiante
cambias
cambion
cambrai
cambras
cambre
cambrian
cambridge
came
camel
cameles
cameos
camera
camerada
cameradas
cameras
cameros
cameroun
camerun
cami
camilo
camion
camisa
camisas
camiseta
camisetas
camison
camisones
camo
camofla
camp
campa
campana
campanas
campaneria
campania
campanial
campaniales
campanian
campanianes
campanias
campanin
campaniores
campas
campbell
campeche
campion
campiones
campionida
campo
campos
campus
camputxa
camtxatca
camtxatcan
camus
can
cana
canaba
canada
canadian
canadianes
canadienne
canal
canales
canamon
canan
canaria
canario
canas
canberra
cancer
cancun
candela
candelas
candida
candide
candido
candie
cane
canela
canes
cangarin
cangaru
cangarus
canibalisme
canido
canidos
canin
canion
caniones
canis
canji
cano
canoa
canoas
canon
canonal
canones
cansada
cansela
canselada
canselor
canseloreria
canser
canseres
canserosa
canta
cantabria
cantabrian
cantada
cantante
cantar
cantare
cantas
canterbury
canti
canto
canton
cantones
cantor
cantores
cantos
cao
caos
caososa
cap
capa
capac
capadocia
capas
capasi
capasia
capasias
cape
capel
capela
capelas
capeles
capelin
capelosa
capet
capeta
capibara
capilares
capita
capital
capitales
capitalisme
capitaliste
capitalistes
capitan
capitol
capitoles
capitolio
capo
capoverdean
capra
capras
capri
caprisal
capsula
capua
caput
car
cara
caracala
caracalla
caracas
caracena
caracol
caracoles
caraoce
carate
carater
carateres
caratxai
caravan
carbala
carboidratos
carbon
carbonato
carboniferosa
carbono
carboxamide
cardial
cardian
cardiff
cardinal
cardinales
cardiolojia
cardiovascular
carducci
carelia
carera
careras
caresa
careta
caretas
carga
cargada
cargas
cari
carib
caribe
caribes
caricom
caris
carita
carital
caritas
carl
carles
carlo
carlos
carluc
carma
carmen
carmesi
carnataca
carnaval
carnavales
carne
carnegie
carnero
carnes
carnival
carnivor
carnivores
caro
carol
carolan
carolina
carolinas
carolingian
caron
carones
caros
carota
carotas
carpas
carpatian
carpenta
carpentor
carqueiranne
carrascosa
carre
carrera
carroll
carrying
carta
cartagena
cartago
cartas
carte
carter
cartes
cartesian
carthage
cartier
cartilaje
cartilajosa
carton
cartuli
cartulis
cartun
cartunes
cartux
cartwright
cas
casa
casandra
casas
casca
cascade
cascades
cascadia
cascas
casco
cascos
case
caseta
casi
casino
casinos
casio
caso
cason
casos
caspar
caspian
caspio
cassio
cast
castalia
caste
castel
castelao
casteles
castelia
castellana
castellanos
castello
castes
castilia
castilian
castiliani
castilla
castillo
castle
castor
castores
castra
castro
castrovalva
castroviejo
casual
cat
catacana
catacomb
catacombas
catala
catalan
catalana
catalanes
catalanisme
catalano
catalans
catalogi
catalogo
catalogos
catalpa
catalun
catalunia
catalunya
catar
catares
cateau
catechism
catecisme
catedra
catedral
catedrales
categori
categoria
categorias
categorida
category
caterina
cathalac
cathe
cathedral
catholic
catlin
cato
catolica
catolicas
catolicisme
catran
catulo
catun
catura
caturada
caturante
caturas
caucasian
caucaso
caucasos
caudata
causa
causada
causal
causante
causas
causativa
cauta
cautia
cauxo
cava
cavaleria
cavalero
cavaleros
cavaleta
cavalli
cavallo
cavalo
cavaloral
cavalores
cavalos
cavas
cave
caves
caveta
cavetas
cavia
cavias
cavitas
cavity
cavones
caxa
caxalote
caxalotes
caxas
caxi
caxida
caxin
caxmiri
caxon
cay
cayo
cazac
cazaces
cazacstan
cazan
cc
ccppx
cd
cdot
ce
cebollera
cecil
cecile
cectxi
cehe
cel
celestina
celiserato
cell
celle
celles
celo
celsius
celta
celtas
celteminar
celtiberia
celtiberian
celtiberianes
celtic
celtica
celtis
celto
celui
cemetery
cen
cenia
cennini
cennino
census
cent
centauri
center
cento
central
centre
centro
centrobasquet
centum
centuriae
centuriata
century
ceratin
ceres
cern
cernoica
ceronea
cerro
cervantes
cervus
ces
cesar
cesare
ceso
cesos
cessaire
cet
cetinje
cette
cetxua
ceuta
ceux
cexa
cf
cfc
ch
cha
chabacano
chabi
chaco
chagas
challenger
chambre
champlain
chan
chance
chandragupta
change
changer
chanson
chansons
chanter
chapeau
chapel
chapman
chapter
character
charcot
charlemagne
charles
charlie
charlotte
charpentier
chartres
chase
chaturaji
chaturanga
chaucer
chausses
chavez
che
chef
chen
cher
chesapeake
chess
chesterton
cheval
chevalerie
chevaux
chez
chi
chiang
chica
chicago
chico
chidi
chief
chien
chiesa
child
childe
children
chile
china
cho
choice
chomsky
chopin
chorizo
chou
chre
christ
christi
christian
christianitatis
christiansborg
christina
christine
christmas
christo
christoph
christopher
chronicle
chronique
chroniques
chrysler
chu
chubut
chulainn
chupeen
church
churchill
ci
cia
ciasa
cibele
cicero
ciclades
cid
ciduen
ciel
cielo
cifoletti
cihua
ciions
ciiv
cil
cilia
cilo
cilogrames
cilometre
cilometres
cilt
cimerianes
cimica
cimical
cimicales
cimicas
cimiciste
cimri
cimrica
cimricas
cinabrese
cinestesia
cinquecento
cio
ciompi
cios
ciosco
cioua
ciprian
cipros
ciptxac
circa
circle
circos
cirgistan
cirgiz
cirgizes
ciria
ciribas
ciril
cirilica
ciro
ciron
cirotero
ciroteros
cirpan
cirth
cis
cisa
cita
citanes
cite
cities
city
ciudad
ciui
civas
civilis
civilisar
civilise
civilizar
civilization
cixi
cl
cla
clac
clackamas
claes
claire
clama
clamada
clamante
clan
clanes
clar
clara
clare
clari
claria
clarida
clark
clase
clases
clasi
clasica
clasical
clasicas
clasicisme
clasida
clasinte
clasintes
clasis
class
classical
classics
classification
claude
claudia
claudio
claus
clave
claves
clavesimbal
clavin
claw
cle
cleisthenes
clemente
cleomenes
cleopatra
clercq
clereci
cles
cleveland
clica
clicas
click
cliente
clientes
clifford
clima
climas
climatolojia
clinica
clinical
clinicas
clinton
clio
clitic
clitica
clitical
cliticas
clitico
cliticos
clo
cloaca
clockwork
clodio
cloi
clorido
clos
clovis
club
clubes
clui
cluida
cluinte
cluniensis
cm
cmer
cmeres
cmyk
cnidario
cnoso
co
coabita
coagula
coala
coarde
coardia
coasati
coast
coaveni
coaveninte
cobalto
coburg
coc
coca
cocaba
cocaina
cocboroc
coce
coceda
cochleata
coclea
coco
cocon
cocor
cocteau
cocusai
cod
coda
codal
codas
code
codesiniada
codex
codigi
codigida
codigo
codigos
codo
coe
coecoe
coere
coerente
coesiste
coffea
cofundor
cognisial
cognisio
cognosce
coicoi
coicois
coimbra
coiote
coiotes
coisan
col
cola
colabora
colaboror
colaborores
coladal
colajen
colar
colareta
colaretas
colas
colasa
colcis
cold
cole
colejio
coler
colera
coleri
coleria
colerida
colesterol
coletiva
coli
colide
colides
colie
colieda
coliente
colies
colin
colina
colinas
colinetas
colior
coliores
colite
collection
college
colleoni
collier
collins
coln
colo
cologne
colombia
colombo
colon
colona
colonas
colones
coloni
colonia
colonial
colonialisme
colonias
colonida
coloninte
coloniste
colonistes
colony
color
colorado
colores
colori
colorida
colorosa
colos
coloseo
colpa
colpada
colpas
colpe
columba
columbia
columbus
com
coma
comable
comables
comadre
comanda
comandada
comandante
comandas
comandor
comandores
comandos
comantxi
comarca
comarcas
combata
combate
combatente
combates
combatosa
combina
combinada
combinante
combinas
combinatoria
combusta
combustable
combustables
come
comeda
comedas
comedia
comedias
comediiste
comediste
comensa
comensada
comensante
comensas
comense
comensor
comensores
comenta
comentas
comente
comentor
comentores
comersa
comersal
comersia
comersial
comersias
comersiones
comersior
comersiores
comes
cometa
cometas
comforta
comfortable
comfortosa
comi
comica
comices
coming
comision
comisionor
comisionores
comitativa
comite
comites
comitia
comme
commentary
commission
commodo
common
commons
commonwealth
community
como
comodo
comon
comores
comori
compact
compan
compania
companias
companies
companion
company
compara
comparable
comparada
comparante
comparas
comparativa
comparative
compare
comparte
compartes
comparti
compartida
compartinte
compas
compata
compati
compatia
compatiosa
compendio
compensa
compensada
competa
compete
competente
competes
competition
competor
competores
competosa
compila
compilada
compilador
compiladores
complesal
compleso
complesos
completa
completada
completante
completas
complete
completi
completida
completinte
completintes
complica
complicada
complicadia
complicas
composa
composada
composadas
composante
composantes
composas
compose
composed
composor
composores
compostela
compra
comprada
comprendable
comprende
comprendeda
comprendente
comprendes
comprendre
compresa
compresada
compromete
compror
compulsa
compulsada
computa
computador
computadores
computal
computer
computing
comte
comun
comunes
comunia
comunial
comunias
comunica
comunicable
comunicada
comunicas
comunisme
comuniste
comunistes
comuta
con
conan
conaseda
conasedas
conca
concas
concepcio
concept
concerns
concert
conceyu
concista
concistada
concistante
concistas
concistor
concistores
conclui
concluinte
concluis
concombres
concordia
concreta
concubina
concurso
conde
condena
condenada
condenadas
condensa
condisiona
condisionada
condita
conditionnel
condui
conduida
conduinte
conduis
conduisme
conduiste
conduistes
coneo
coneos
confedera
confederada
confere
conferes
confesa
confesas
confeto
confetos
confida
config
confirma
confirmada
confirmas
confiscada
conflict
conflue
conforma
conformante
confusa
confusada
confusante
confuzi
confuzisme
confuziste
confuzistes
conger
congo
congrega
congregas
congresa
congro
congros
coniac
conifer
coniferes
conio
conj
conjesta
conjuga
conjugada
conjugas
conjunta
conjuntas
conjunto
connai
connecticut
cono
conos
conosal
conose
conoseda
conosedas
conosente
conoses
conotas
conrad
consejo
consela
conselante
conselor
conselores
consensa
consensia
consensosa
consenta
consentra
consentrada
consentras
consepi
consepida
conserna
consernada
consernante
consernas
conserta
consertas
conserva
conservada
conservalisme
conservaliste
conservalistes
conservante
conserveria
conserverias
conserviste
conservor
conseta
consetal
consetas
conseti
consetida
considera
considerada
considerante
consideras
considered
consiensa
consilia
consilio
consilios
consiste
consola
consonantal
consonante
consonantes
consonants
conspira
constante
constantes
constantine
constantino
constantinople
constantinopoli
constantinopolis
constela
constelas
constitual
constitui
constituida
constituinte
constituis
constrinje
constrinjeda
constrinjes
construi
construida
construidas
construinte
construis
construores
consul
consules
consulia
consulta
consultada
consuma
consumada
conta
contabile
contable
contablia
contada
contamina
contaminada
contar
contas
contata
contatada
contatante
contatas
conte
contempla
contempora
contemporas
contenador
contenadores
conteni
contenida
contenidas
conteninte
contenis
contente
contes
contesa
contesto
contestos
contia
contias
continental
continente
continentes
continua
continuada
continual
continuante
continui
conto
contor
contorni
contorse
contorseda
contra
contrabandores
contrademostra
contradise
contradisente
contradises
contrae
contrafortes
contrasta
contrastada
contrastante
contraste
contrata
contrataca
contratas
contribui
contribuinte
contribuis
contribuor
contribuores
control
controla
controlada
controlas
controversa
controversal
controversas
controversia
controversial
conveni
conveninte
conventus
converje
converjente
conversa
conversas
converti
convertida
convertidas
convertinte
convesa
convinse
convinseda
convinsente
coofisial
cook
cooke
cooksonia
coopera
cooperante
cooperativas
coordina
coordinada
coordinadas
coordinante
coordinas
cop
copa
copas
copenhagen
copepodos
copernico
copernicus
copia
copiada
copias
copta
coptica
copula
copulas
cor
cora
coraix
coraje
coraji
corajida
corajosa
coral
corales
corax
corazo
corcu
corda
cordas
cordato
cordetas
cordida
cordoba
cordon
core
corea
corean
coreanes
coredor
coredores
corelata
corelatada
corelatantes
corelatas
corelativas
corella
corente
corentes
cores
coresponde
corespondente
corespondentes
corespondes
coreta
coretador
coreti
corfu
coriac
corintianes
corinto
corneille
cornelio
cornelis
cornelius
cornell
cornida
corno
cornos
coro
corode
coromines
corona
coronas
coronavirus
coronel
coroni
coronida
corozal
corpal
corpi
corpida
corpo
corpora
corporada
corporas
corporation
corporations
corpos
corpus
corpuscula
corre
correspondance
corsa
corse
corseta
corsetas
corseto
corsica
corsu
corsus
corta
cortas
corte
cortea
cortes
cortesia
cortex
corti
cortia
corticosteroides
cortida
cortigiani
cortinas
cortis
coruscant
corvatsca
corvatsce
corvatsces
corvinus
corvo
corvon
corvones
corvos
corvus
cos
cosa
cosador
cosadores
cosas
cose
coseda
cosimo
cosina
cosinas
cosini
cosinis
cosinor
cosmolojia
cosmopolitan
cosmopolitanisme
cosovo
cost
costa
costal
costalago
costas
costelas
costelin
costruja
costum
costumal
costumes
cot
cotan
cotel
cotela
cotelas
coteles
coteli
cotelida
coton
coturnixes
coucy
could
couleur
council
country
county
court
cousin
couturat
covatillas
coverbo
coverbos
covid
covre
covreda
covregamas
covrente
covres
covreseso
covresesos
cow
cowdery
coxa
coxeante
cozaces
cp
cpa
cr
crabe
crabes
craci
crai
craies
craig
craindre
cranial
cranio
cranios
craps
crase
craseda
crash
crasnodar
crasnoiarsc
craso
crasso
crater
crateres
cratones
cray
cre
crea
creada
creadas
creante
creas
creature
creda
credable
crede
crededa
credente
credes
credi
credit
credito
creditos
credor
credores
creek
creisme
creistes
crema
cremona
creol
creoles
creor
creores
creosa
creosia
crepe
crepes
crese
creseda
cresente
creses
crest
cresta
crestas
crestida
creta
cretasica
creusa
cri
cria
criante
crias
cric
criceta
criceto
cril
crim
crime
crimea
crimin
criminal
criminales
crimines
criminor
criminores
crimson
crio
cris
crise
criseida
criseis
crises
crisis
cristal
cristales
cristian
cristianes
cristiani
cristiania
cristianida
cristianisme
cristianiste
cristianistes
crististe
cristo
cristoforo
criterio
criterion
criterios
criti
critica
criticada
critical
criticante
criticas
criticiste
criticistes
criticor
criticores
crixna
crna
crnojevic
cro
croazia
croco
crocodil
crocodiles
crocodilias
crocuta
crohn
croizat
cromo
cromosoma
cromosomal
cromosomas
cromosomes
crone
cronica
cronicas
crono
cronolojia
cronolojial
cronometri
cronos
cropped
cross
crosta
crotales
cru
cruel
cruelia
crufio
crus
crusa
crusada
crusadas
crusade
crusadores
crusante
crusas
cruses
crusi
crusida
crusinte
crusis
crustaseo
crustaseos
cruz
cs
css
ct
ctenoforo
ctesifon
ctli
cu
cua
cuadral
cuadrida
cuadrilion
cuadro
cuadros
cuailnge
cuait
cual
cualce
cualcun
cuali
cualia
cualial
cualias
cualinte
cualis
cualnia
cuan
cuand
cuande
cuando
cuanta
cuantal
cuanti
cuantia
cuantial
cuantias
cuanto
cuantos
cuarces
cuaresma
cuarti
cuasa
cuasi
cuatri
cuatris
cuatro
cuatrodes
cuatronaria
cuatropede
cuatropedes
cuatruple
cuba
cuban
cube
cubida
cubo
cubos
cucuteni
cuecer
cueceres
cuenca
cuerca
cuercas
cuerco
cuercos
cuerda
cueva
cuevas
cuieta
cuieti
cuisine
cuius
cuje
cuko
culier
culieres
culmina
culminante
culminas
culmine
culo
culos
culpa
culpable
culpablia
culs
culta
cultiva
cultivable
cultivada
cultivadas
cultival
cultivante
cultivas
cultiveria
cultiverias
cultivor
cultivores
culto
cultos
cultur
cultura
cultural
culturas
culture
cultures
cum
cumas
cumula
cuna
cuneforma
cuneo
cuneos
cuno
cuoca
cuocas
cuol
cuorin
cuoro
cupido
cupola
cupre
cura
curac
curada
curan
curante
curasau
curcuma
curdi
curdis
curdistan
cure
curgan
curganes
curia
curial
curias
curiata
curieux
curiosa
curiosia
curor
current
curse
curso
cursos
curtis
curva
curvada
curvas
curvi
curvida
cusin
cusina
cusines
cusino
custa
custas
custer
custosa
cut
cutanea
cutenai
cux
cuxan
cuxanes
cuxin
cuxinida
cuxitica
cuzco
cv
cvas
cvc
cvcv
cy
cybermen
cycle
cymru
cœur
d
da
dabi
dacia
dacian
dacota
dad
dada
dado
dados
daejeon
dafne
dag
daga
dagas
dagesh
dagestan
dagh
dah
dai
daigaku
daily
daj
dakar
dakhlia
dakota
dal
dale
dalec
daleces
dalek
daleks
dalida
dall
dalmatia
dalmatico
dalton
dam
dama
damadian
damas
dame
dameo
damn
dan
dana
danada
danann
danante
danas
dance
dances
dane
dangriga
dangringa
daniel
danilo
danmarc
danois
dans
dansa
dansas
dansce
dansces
dansor
dansores
dante
danu
danubia
danubian
danubianes
danubio
danzig
dao
dappa
dar
dardanelia
dardano
dare
dari
dario
dark
darma
daro
darwin
darwinisme
das
dat
data
database
datas
date
dati
datida
datilal
datinte
dativa
dato
datos
daughter
dauisme
dauiste
dave
david
davidia
davies
davis
dawa
day
days
dayton
db
dc
dd
de
dea
dead
deal
dean
dearborn
death
debata
debatada
debate
debateda
debates
debe
debes
debi
debil
debili
debilia
debilias
debilida
debitores
debua
dec
deca
decade
decca
december
deci
decl
declara
declarada
declarante
declaras
declina
declinante
declinas
deco
decora
decorada
decoras
decrese
ded
dedica
dedicada
dedicaited
dedui
deduida
deduinte
deep
defende
defendeda
defendente
defendes
defendor
defendores
defensa
defeta
defetada
defetas
defeto
defetos
defia
defiada
defias
defina
definada
define
defini
definida
defininte
definis
definitiva
degrada
degradada
degradante
dei
deifobo
deisme
deja
dejela
dejenera
dejenerada
dejenerante
dejenerisme
dejeta
dejetada
dejetadas
dejetas
dejuni
dek
dekker
del
delaware
delega
delegada
delegadas
deleta
delfi
delfin
delfines
delft
delgado
delhi
delicata
delisle
dell
della
delle
dels
delta
delude
deluvia
deluvias
dem
demanda
demandada
demandante
demandas
demente
dementeria
dementia
demeter
demetre
democrata
democratal
democratas
democratia
democratial
democrito
demodoco
demografia
demografial
demon
demones
demons
demonstrante
demostra
demostrada
demostras
demotica
den
denali
dendrites
dene
denis
denisova
denisovan
denisovanes
denmark
dennis
denova
denove
densa
densia
dent
dental
dente
dentela
dentes
denton
dentones
dentro
denu
denunsia
denyigba
deo
deos
departamento
departe
departes
departi
depende
dependent
dependente
dependentes
dependes
depinta
depintada
depintas
depinti
depintor
depintores
depone
deponeda
deponedas
depones
deporta
deportada
depresa
depresada
der
deretos
deriva
derivada
derivadas
derivante
derivas
derive
derma
dermatite
dermatolojia
derrida
des
desacorda
desacordante
desacordas
desanti
desapare
desapareda
desaparente
desaproba
desasosia
desastre
desastres
desastrosa
descapasi
descapasia
descapasida
descarga
descartes
descendre
descoloni
descomforta
descomposa
desconstrui
descontinuada
descoraji
descorajida
descovre
descovreda
descovres
descovror
descrese
descresente
descrive
descriveda
descrivente
descrives
descura
descurada
desde
desdu
desduple
desembarca
desembla
desemblada
desemblante
desembre
desemplea
desende
desendeda
desendente
desendentes
desenio
desenios
desentrali
desentrida
deser
deseres
deseret
deserti
deserto
desertos
deses
desfa
desfida
desfisa
desforesti
desformi
desgusta
desi
deside
desideda
desidente
desides
desidrata
desifri
desifrida
design
desilude
desimal
desinia
desiniada
desinias
desinior
desiniores
desintegra
desira
desirable
desirada
desirante
desiras
desjardins
deslegali
deslegalida
deslia
desloca
deslocada
desmaia
desonora
desordina
desordinada
despera
desperante
despersonali
despeta
despetada
despetante
despetosa
desplasente
desponable
despone
desponeda
despopla
despotia
desprende
desprendeda
dessalines
destensa
destensada
destesti
destestida
destina
destinada
destinas
destiny
destra
destriste
destrosa
destrui
destruida
destruinte
destruor
desu
desunida
desusada
desvalidida
desvalua
desveli
desverbida
desvesti
det
deta
detales
detalia
detaliada
detalias
detaliosa
detas
deteni
detenida
determina
determinada
determinante
determinantes
determinisme
deterministe
deteta
detetada
detetor
detrito
detroit
deur
deus
deuteronomio
deutsch
deutsche
deutsches
deutx
deutxes
deutxland
deux
devanagari
devas
deve
developa
developada
developante
developas
development
developores
deveni
deveninte
devi
devia
devias
devils
devoir
devolui
devonian
dewey
deyermond
deza
dh
dhe
di
dia
diabete
diablo
diablos
diacritos
diafana
diaframa
diagnose
diagnoseda
diagnostic
diagonal
dial
dialetal
dialetica
dialetical
dialeto
dialetos
dialogo
dialogos
diamante
diamantes
diametre
dian
diana
diarea
dias
diaspora
dic
diccionari
diccionario
diccionariu
dice
dick
dickens
dicoco
dicotomia
dicte
dictionary
dictionnaire
did
diderot
didi
didier
didio
didn
dido
die
died
diego
dien
dies
dieta
dietas
dietrich
dieux
dievs
difere
difereda
diferensial
diferente
diferes
different
difisil
difisiles
difisilia
difisilias
diftongo
diftongos
difusa
difusada
difusas
digaro
diger
digital
digram
digrames
dii
diin
dijesta
dijital
dijito
dijitos
dik
dilema
dilemma
diligente
dimashq
dimension
dimensional
dimensiones
dimini
diminui
diminuida
diminuinte
dimorfe
dimorfia
din
dinamica
dinamical
dinamicas
dinamite
dinamo
dinastia
dinastial
dinastias
dinastio
dine
dinia
diniosa
dinosauro
dinosauros
dinosaurs
dins
dio
diocletiano
diodati
diogene
diogo
diomede
diomedes
dionisian
dionisio
dioniso
dionysus
dior
dios
diosido
diosijen
diploide
diploma
diplomas
diplomata
diplomatia
dire
directoire
direta
direto
diretoi
diretor
diretos
dirijal
dirije
dirijeda
dirijente
dirijes
dirijor
dirijores
dirk
dis
disa
discador
disciplina
disco
discografia
discoperi
discos
discourse
discourses
discreta
discrimina
discute
discuteda
discutes
dise
diseda
disente
dises
disesioni
disi
disionario
disionarios
disiplina
disiplinas
disiplo
disiplos
disney
disolve
disolveda
disparai
dispereixe
disponable
disponablia
dispone
disposa
disposada
disposas
disputa
disputada
disputas
distante
distantes
distantia
distantias
distantinte
distilada
distinguable
distingue
distingui
distinguida
distinguinte
distinguis
distrae
distribui
distribuida
distribuor
district
distrito
distritos
disturba
disturbada
disturbas
dit
dita
dital
diterrane
dition
ditions
dito
diton
ditones
ditos
dits
ditt
diu
div
diva
divas
divehi
diverje
diverjente
diversa
diversi
diversia
diversida
diverti
divertinte
divertis
dividable
divide
divided
divideda
dividendo
dividente
divides
divin
divina
divinas
divines
divinia
divinida
divinor
divorsa
divorsada
dj
djacarta
djava
djibuti
djini
djinis
dju
dm
dn
dnepr
dni
dniester
dnistr
do
doalie
doctor
doctors
documenti
documentida
documento
documentos
dodekatheon
dodgson
doe
does
dog
dogma
dogmas
dogmosa
dogs
doi
doj
dokuchaev
dokuritsu
dolar
dolares
dolavon
dole
dolente
doles
dolmen
dolmenes
dolon
dolonia
dolor
dolosa
dom
doma
domada
doman
domani
dome
domenico
domina
dominada
dominante
dominas
domingo
dominica
dominican
dominio
dominique
dominos
domitiano
domo
domus
don
dona
donada
donadas
donald
donante
donar
donas
donatello
donato
donc
donce
donets
dongducheon
doni
donin
donker
donn
donor
donu
doo
doomsday
doon
dopamina
dore
dorian
doris
dormi
dorminte
dormir
dorothea
dorsa
dorsal
dorso
dorsos
dos
dostoevsky
dote
dothraki
dotor
dotoral
dotores
dotrina
dotrinas
dou
douai
douard
double
dougherty
douglas
dove
down
doyle
dr
draco
dragon
dragones
drake
drale
drama
dramal
dramas
dramatosa
dramiste
dramosa
drang
drank
drapeda
dravidian
dravidianes
drawn
dre
dream
drebber
drena
dreni
drenida
dresden
dress
drink
droga
drogas
druid
druidas
drunk
du
dua
dual
dualisme
duana
duant
duava
duavo
dublin
dubois
duc
duchess
duchesse
dudes
due
duecento
duel
dueno
duero
dui
duida
duifrate
duilus
duis
duisore
duke
duklja
dulescu
dulse
dulsia
dulsimer
dum
dumas
dume
dumil
dun
duna
dunas
dunbar
duneta
duneto
duo
duodeno
duomo
duple
duples
dupli
duplida
dupunto
dur
dura
duran
durante
durham
duri
duria
durida
during
durio
durmitor
duruelo
dusento
duta
dutable
dutada
dutas
duto
dutos
dux
duxal
duxanbe
duxe
duxesa
duxia
dvd
dwight
dx
dy
dyck
dylan
dz
dzap
dzi
dzo
dzodzo
dzodzom
dzongca
dɔ
də
dʒ
e
ea
eaa
each
eagle
earliest
early
earth
east
eastern
eat
eaten
eau
eb
ebano
ebbinghaus
eber
ebo
ebola
ebriellos
ebro
ec
ecclesia
ecclesiastica
ecidna
ecidnas
ecinodermato
ecinodermatos
ecipo
ecipos
eckert
eclesia
eclesiaste
eclis
eclises
eclisida
eco
ecoloca
ecolojia
ecolojial
economi
economia
economial
economias
economic
economica
economical
economiste
economistes
ecosistem
ecosistemes
ecowas
ectares
ecuador
ecuator
ecuatoral
ecuilibra
ecuilibrada
ecuilibria
ecuinote
ecuinotes
ecuisitos
ecuo
ecuos
ed
eda
edad
edas
edda
eddas
eddy
ede
edeen
edema
edeme
eden
edera
edevol
edgar
edicio
edinburgh
edipal
edipo
edison
edita
editada
editador
editas
edited
edition
editions
editor
editores
editorial
edmonton
edmund
edo
edonisme
edoniste
eds
edu
eduard
eduardo
educa
educada
educal
education
educational
eduki
edward
edwardian
edwin
ee
eeg
een
eesti
ef
efate
efatese
efemera
efemeras
efeso
efeta
efeto
efetos
efetosa
efetosia
effet
eforta
efortas
efv
egal
egales
egali
egalia
egalis
egalisme
egaliste
egipsianes
egipte
egiptian
egiptianes
egiptolojistes
eglesa
eglesal
eglesas
egleseta
eglesetas
eglesia
eglesias
eglesor
eglesores
ego
egoforica
egoisme
egoiste
egos
egresiva
egyptian
eh
ei
eiac
eiffel
ein
einaudi
eine
einer
eines
einfu
einherjar
einstein
eiren
eisenhower
eius
ej
ejean
ejemonia
ejeo
ejeta
ejetada
eji
ek
eko
ekpɔ
eku
ekwo
el
ela
elagabalo
elam
elas
elativa
elba
elbe
eldo
ele
elea
electra
electric
elefa
elefante
elefantes
elefantin
elefanto
elefen
elefeniste
elefenistes
elejable
elejal
eleje
elejeda
elejedas
elejente
elejes
elementi
elemento
elementos
elena
elenica
eleniste
eler
eletrica
eletrical
eletrocimical
eletromagnetal
eletron
eletrones
eletronica
eletronical
eleusis
eleva
elevada
elevante
elf
elfa
elfica
elfo
elfos
elgin
eli
eliade
elias
elica
elical
elicotor
elidi
eliezer
eligio
elimina
eliminada
eliminante
elinica
elinicas
elinici
elinicida
eliniste
elio
eliot
elisabeth
elise
elite
elites
elizabetan
elizabeth
ella
ellen
ellesmere
ellice
ellu
elmo
elmos
elo
elohim
elos
elp
els
elsa
elvis
em
emanuel
ematoxilos
embarasante
embarcada
embrial
embrio
embutin
emergo
emerje
emerjente
emerji
emerjinte
emete
emeteda
emetes
emfisema
emi
emil
emile
emiliano
emilio
eminescu
emion
emiones
emisfera
emisferas
emisfero
emma
emmanuel
emmanuele
emo
emoglobina
emosia
emosial
emosias
emosiosa
emperor
empire
empirical
empiricalisme
emplea
empleada
empleadas
empleados
empleas
empleor
empleores
employer
emporta
emportada
emprende
emprendes
emprendor
empress
empresta
emprestada
emprestante
emprestas
empuries
emu
en
ena
enamada
enata
encanta
encantada
encantante
encantas
encarga
encargada
encargas
enciclope
enclave
enclaves
enclitico
enclui
encluida
encluinte
encontra
encontrada
encontras
encyclopedia
end
endemica
endocrin
endocrinolojia
endoreica
ene
enea
eneas
enebriada
eneida
enemi
enemia
enemin
enemis
enemy
eneolitica
enerjia
enerjiosa
enets
enfances
enfantal
enfante
enfantes
enfantia
enfantin
enfants
enferno
enfernos
enflue
enflues
enforsa
enforsada
eng
engana
enganada
engels
engl
england
englantilainen
engles
engleses
english
engoli
engrana
engranada
eniac
enigma
enigmosa
enim
enke
enlightenment
enlinia
enne
ennio
eno
enoch
enokke
enorme
enos
enough
enrico
enrique
enrola
enrolada
enrolas
ens
enscrive
enscriveda
enscrives
ensende
ensendeda
ensendor
ensenia
enseniada
ensenias
ensenior
enseniores
ensiclopedia
ensinta
ensintia
ensirca
ensircada
ensircante
ensircas
enspira
ent
enta
entendre
entera
enterada
enteras
entero
enteros
entra
entrada
entradas
entrante
entras
entre
entrer
entretempo
entretexeda
envelopa
envia
enviada
enviante
environment
envolve
envolveda
envolvente
envoyer
enzimas
enɔ
eo
eolo
eon
eones
eos
eosene
eosinofilica
ep
epaminondas
epatica
epaticas
epi
epic
epica
epicas
epictetus
epicurisme
epicuristes
epicuro
epicurus
epidemica
epidemicas
epidemiolojia
epiderma
epidermal
epigravetian
epilesia
epipaleolitica
epiro
episode
episodio
episodios
epistemolojia
epistola
epitelio
epiteto
epitetos
epoca
epopeias
eposta
epstein
eq
equal
equites
equus
er
era
eraldia
eraldial
erante
eras
erasmo
erasmus
erato
eratostene
erba
erbas
erbivor
erbivores
ere
erecto
erectus
eremita
eremiteria
eres
erese
eresia
eresias
ergane
ergativa
ergo
eri
eria
eric
erich
erie
erije
erijeda
erik
erika
eril
eris
eriso
erisos
erita
eritable
eritada
erital
eritas
eritema
eritor
eritores
eritrea
erlitou
erna
ernest
ernst
erode
erodeda
eroe
eroes
eroin
eroina
eroisme
eros
erotica
ertebolle
ertebølle
ertra
erudita
eruditas
eruditia
erugas
eruta
erutas
erđ
es
esa
esagon
esagones
esaia
esaias
esajera
esajerada
esajiste
esajo
esajos
esamina
esaminada
esaminante
esaminas
esar
esata
esatia
esc
escalote
escava
escavada
escavas
escaverias
escavores
esce
eschenbach
escilo
escl
esclama
esclamante
esclamas
esclave
esclui
escluida
escluinte
escorial
escota
escrete
escusa
escuta
escutor
escutores
ese
esecuta
esecutada
esecutante
esecutas
esecutor
esede
esedente
esele
eselente
eselentia
esempli
esemplida
esemplo
esemplos
esensal
esense
esenta
esente
esentes
eserse
eserseda
esesente
eseta
esetante
esetas
eseva
esflue
esi
esia
esibi
esibida
esibis
esije
esijeda
esijente
esijes
esistal
esiste
esistente
esistentialisme
esistentialiste
esistentialistes
esita
esitante
esocrin
esodo
esofagal
esofago
esopo
esotica
espada
espalda
espan
espande
espania
espaniol
espanioles
espasa
espera
esperante
esperantidos
esperantiste
esperantistes
esperanto
esperas
esperi
esperia
esperiada
esperiante
esperias
esperimena
esperimenta
esperimental
esperimentas
esperimente
esperimentes
esperiosa
esperta
espertas
espertia
espeta
espetada
espetante
espetas
espia
espill
espira
esplica
esplicada
esplicante
esplicas
esplode
esplodente
esplodentes
esplora
esplorada
esplorante
esploras
esploror
esplorores
esplota
esplotada
esplotante
esporta
esportada
esportante
esportas
esportor
esposa
esposada
esposante
espresa
espresada
espresante
espresas
espreseda
espresosa
espulsa
espulsada
esque
esquivel
ess
essai
essais
essay
essayer
essays
esse
essensa
esser
essere
essex
essite
est
esta
establi
establida
establinte
estadio
estado
estar
estas
estate
estates
este
esteban
estende
estendeda
estendente
estendes
estendosa
ester
esterna
esternal
esternas
esterne
estetica
estetical
esti
estima
estimada
estimas
estingui
estinguida
estinguis
estis
estmi
esto
estoria
estra
estracomun
estrada
estrae
estraeda
estraedas
estraordina
estraselulal
estrasolal
estrateral
estrateran
estrateranes
estrateritorial
estravagante
estrema
estremadura
estremaduran
estremas
estremisme
estremiste
estremistes
estrovertinte
estu
estuario
estuarios
estudio
estudios
estudis
esuan
et
eta
etc
eter
eterna
eternal
eternia
eteronimes
ethan
ethnologue
eti
etica
etical
eticeta
eticetas
eticeti
eticetida
etimolojia
etimolojial
etiopia
etnica
etnical
etnicas
etnicia
etnico
etnicos
etnojenese
eto
etruria
etrusca
etruscan
etruscanes
etruscas
etsɔ
ette
etymologisches
etɔ
eu
eubalaena
eucalipto
eucariota
eucariotal
eucariotas
eucaristia
euclidal
euclide
eudiptes
eue
eufonia
eufrates
euge
eugen
eugene
eugenia
eujenetica
eulalia
eunucos
eurasia
eurasian
euripide
euripilo
euripterido
euro
europa
europe
european
europeanes
europijin
euros
eurozona
euscadi
euscaleria
euscara
euscaras
euse
eusebio
eustasio
eustatius
euterpe
eux
ev
eva
evacua
evade
evalua
evaluas
evanjelial
evanjelio
evanjelios
evans
evapora
eve
even
evenci
evencis
eventiva
ever
everest
every
everything
evi
evidence
evidente
evidentes
evidenti
evidentia
evidentias
evidentida
evidently
evil
evita
evitada
evitante
evo
evoca
evola
evolual
evolui
evoluida
evoluinte
evoluis
evolution
evos
ew
ewe
ewo
ex
exa
exadesimal
exagon
exametre
example
expedition
experiment
experts
express
expresses
external
extra
exupe
ey
eyae
eyck
eye
eyi
ez
ezidi
ezidis
eziditis
ezra
ezɔ
eƒe
f
fa
fabianes
fabius
fable
fables
fabra
fabrica
fabricada
fabricadas
fabricas
fabriceria
fabricerias
fabricor
fabricores
fabula
fac
face
facebook
facer
facila
facto
facts
fada
fadas
fago
fai
faia
fair
fairy
fais
faisal
fala
falange
falasia
falasias
falcon
falcones
falda
faldas
faldeta
faldetas
falesa
falesas
fali
falida
falin
falinte
falion
faliones
falis
falkland
fall
fallen
falls
falsa
falsi
falsida
falxetin
fama
fame
fami
famia
familia
familial
familiar
familias
family
faminte
famion
famiones
famosa
fan
fanes
fang
fango
fangosa
fanoron
fantasia
fantasial
fantasias
fantasin
fantasma
fantasmas
fantasmin
fante
fanyo
far
faraday
faraon
faraones
fari
farina
farinjal
farinje
farm
farmacolojia
faro
faroiar
faroisce
farrell
farsalia
farsi
fas
fasa
fasada
fasal
fasante
fase
fases
fashion
fasianes
fasil
fasili
fasilia
fasilinte
fasimil
faso
fastener
fat
fata
fatal
fate
father
fatia
fatianovo
fatick
fatiga
fatigada
fatima
fato
fator
fatores
fatos
fatura
fauces
fault
fauna
faust
fausto
fava
favas
favor
favorable
favore
favoreda
favorente
favori
favorida
fax
faxisme
faxiste
faxistes
faxo
faxon
faxones
faxos
fay
fayard
fc
fe
fea
fear
febre
febrero
february
feces
fechner
feci
fedde
federa
federada
federal
federas
federico
fedro
feet
fehe
fei
fein
feira
felice
felido
felidos
felipe
felis
felisia
felix
fell
fellow
fem
fema
femal
female
femas
femes
femia
femin
femina
feminia
femisme
femiste
femistes
femo
femor
femoral
fende
fendeda
fendes
fendre
fenetra
fenetras
fenian
fenisia
fenisian
fenisianes
fenisias
fenix
feno
fenomenal
fenomeno
fenomenolojia
fenomenolojial
fenomenolojiste
fenomenos
fenric
fenrir
fer
ferdiad
ferdinand
fergus
ferguson
feri
feria
ferida
feris
fermat
fermenta
fermentada
fermentante
fermento
fermentos
fermi
ferna
fernando
fero
ferosa
ferose
ferovia
ferovial
feroviales
ferovias
ferrara
ferreira
ferrier
ferry
fers
fertil
fertili
fertilia
fertilintes
ferus
fes
festa
festas
festival
fesur
fesures
fetal
fetixes
feto
feton
fetones
feu
feudal
feudalisme
feudo
feudos
few
feynman
ff
ffel
fgf
fi
fia
fial
fianna
fias
fibias
fibre
fibres
fibromialjia
fibrosa
fibula
fibulas
ficas
fichte
ficino
fico
fictional
fida
fidable
fidada
fidante
fidas
fide
fidel
fidenes
fidosa
fidusial
fie
fiel
fierabras
fies
fiesta
fifa
figato
fight
figo
figur
figuras
figures
fiji
filadelfia
filastin
filastini
file
fileta
filetas
fili
filia
filida
filios
filipe
filipinas
filipo
filippo
filis
filises
filma
filmada
filmas
filo
filojenetica
filojenetical
filolojia
filolojiste
filos
filosofia
filosofial
filosofias
filosofiste
filosofistes
fils
filtri
filtrida
filtros
fin
final
finalisme
finansia
finansiada
finansial
find
finding
fine
fineo
finger
fini
finica
finida
fininte
finis
finita
finje
finjeda
finjente
finland
fino
fio
fionn
fiordos
fiorentin
fios
fiques
fire
firenze
fireplace
firma
firmament
firmia
first
fisa
fisada
fisador
fisadores
fisahn
fischer
fish
fisher
fishhook
fisica
fisical
fisiciste
fisicistes
fisiocrates
fisiolojia
fisiolojial
fisiolojiste
fit
fiume
five
fix
fixes
fl
flag
flajelatas
flajeli
flajelo
flajelos
flama
flamas
flamen
flames
flandre
flapper
flapperes
flauta
flautas
flavian
flavio
flesh
fletcher
fleur
flexa
flexable
flexas
flexione
flight
flo
flocos
flojisto
flood
flor
flora
floral
floras
florence
florent
flores
flori
florida
florinte
floro
florosa
flota
flotante
flotila
flour
floyd
flue
fluente
fluida
fluinte
flutua
flux
fly
fm
fo
fobia
fobias
foc
foca
focaccia
focada
focal
focas
foco
focon
focones
focos
focosa
foe
foias
fol
fola
folas
folclor
folcloral
foles
folia
folias
folida
folin
folk
folkspraak
fom
fon
fonda
fondas
fonde
fondeda
fondida
fondinte
fondo
fondos
fonem
fonemal
fonemes
fonemica
fonetic
fonetica
fonetical
fong
fonograf
fonolojia
fonolojial
fonotatica
fontaine
fontana
fonte
fontes
food
foot
for
fora
foraje
forajores
foras
force
forces
ford
fore
foreda
foreign
forense
forest
foresta
forestas
forestosa
forja
forjada
forjor
forjores
form
forma
formacio
formada
formal
formali
formante
formas
formation
formato
formed
formi
formica
formicas
formicores
formida
forminte
formosa
formosan
forms
formula
formulada
formulas
forni
fornida
forno
foro
forsa
forsada
forsante
forsas
forsyte
fort
forte
fortes
forti
fortia
fortias
fortida
fortinte
fortis
fortres
fortreses
fortuna
fortunas
fortuno
fortunosa
forum
forward
fosena
fosenas
fosfato
fosfor
fosil
fosiles
fosilida
foso
fosos
foto
fotografi
fotografia
fotografial
fotografida
fotografiste
fotones
fotos
fotosintese
foucault
found
foundation
four
fourier
fox
fr
fra
frac
fragment
fragmente
fragments
frajil
frakti
fraktur
frame
frameless
franc
franca
francas
france
frances
francesc
francesca
francesco
francese
francia
francis
francisco
francisme
franco
francofonia
francorum
francos
franjes
frank
franka
frankfurt
frankl
franklin
frans
franse
franses
fransesco
franseses
fransiscan
fransisco
franz
frasal
frase
frases
frat
fratal
fratas
frate
fratercula
fraterculas
frateria
fraterias
frates
frati
fratia
fratida
fratis
frato
fratos
fratres
fre
frecuente
frecuentia
frecuentias
freda
frederic
frederick
frederico
free
freeling
freeman
freetown
fregeles
frei
freia
freiburg
french
frenkisch
frente
frentes
freon
fresa
fresca
fresco
frescos
fresno
freta
fretante
freud
freudenthal
freudian
freyr
fri
fria
frica
fricante
fricantes
friedman
friedrich
frigg
frigia
frigian
frisce
frisces
frisia
frisland
frita
fritada
fritadas
friuli
fro
froda
froissart
from
fromm
front
frontal
fronte
frontera
fronteras
frontes
fronti
frontier
frontinte
frontios
frota
frotada
fruit
frum
frustra
frustrada
fruta
frutas
fruto
frutosa
fryslan
fs
ft
fu
fuca
fuego
fuentepinilla
fuentes
fuentetoba
fuentona
fueros
fufu
fugitive
fuhucha
fuji
fujikawa
fujinte
fujor
fulani
fulda
full
fulvio
fuma
fumas
fumi
fumida
fumor
funan
funda
fundada
fundal
fundalisme
fundaliste
fundalistes
fundas
fundi
fundida
fundinte
fundor
fundores
funera
funeral
funeras
fungal
fungo
fungos
funsion
funsiona
funsional
funsionalisme
funsionaliste
funsionas
funsiones
fur
fura
furada
furas
furi
furia
furio
furiosa
furlan
furni
furnida
furninte
furnis
furnor
furnores
furor
furores
furtiva
fury
fusa
fusada
fusante
fusiles
fusili
fusilida
fut
futbal
futbol
futhark
futil
futuna
futur
future
fuxe
fyodor
fæ
g
ga
gaba
gabon
gaborone
gabriel
gabriela
gabriele
gadir
gado
gaia
gailica
gaiman
gaio
gaisha
gaius
gaja
gajdusek
gakko
gal
galapagos
galasia
galasial
galasias
galatea
galatia
galaxia
galaxy
galba
galbijim
galbraith
galega
galego
galegos
galen
galeno
galeria
galerio
gales
galfridus
galia
galian
galiens
galilea
galilei
galileo
galin
galisia
galisian
galiziano
gallaecia
gallery
gallico
gallifrey
gallimard
gallo
galo
galois
galon
galos
galsworthy
galton
gama
gamas
gamba
gambas
gambia
game
games
gametas
gametica
gan
gana
gandhi
ganexa
ganga
ganges
ganglio
ganglios
gania
ganiada
ganiante
ganior
ganiores
ganso
gansos
gansu
gao
gara
garagu
garantia
garas
garc
garci
garcia
garcilaso
gard
garda
gardacosta
gardada
gardante
garden
gardner
gardor
gardores
garga
garibaldi
garifuna
garifunas
garin
garlandas
garnier
garnison
garo
garray
garrison
garry
garuda
gas
gases
gasosa
gasta
gaston
gastral
gastrointestinal
gata
gate
gates
gateta
gateway
gatin
gato
gatos
gaulle
gauss
gautama
gautas
gautier
gave
gavias
gavin
gaxa
gaxas
gay
gaz
gaza
gazebo
gbe
gbɔ
gdansk
gdp
ge
geese
gemaak
gemeinschaft
gen
gender
gendes
gene
general
generalitat
generation
genes
genesis
genetic
genetics
genev
geneva
geneve
geni
genitalia
genoa
genootskap
genou
genoux
genova
genoves
genres
gens
gente
gentile
gentis
genus
geo
geoffrey
geogra
geografi
georg
george
georges
georgia
ger
gera
gerais
geral
gerald
gerante
gerard
geras
gerd
gerilia
gerilias
german
germanes
germania
germanica
germanicas
germanico
germany
geror
gerores
gerosa
gertrude
gervasoni
gerðr
ges
gesellschaft
gesta
gestalt
gestaltes
geste
get
geto
getos
getsgw
geyer
gh
ghe
ghent
ghirlandaio
ghost
gi
giacomo
gian
giants
gibbon
gibones
gibran
gibson
gica
gida
gidada
gidante
gidas
gidor
gidores
gif
giga
gilbert
gildas
giles
gilman
gim
gima
gimbutas
gime
gimnospermas
gincos
gine
ginean
gion
giorgio
giovanni
giovinezza
gipuzcoa
girart
girdle
girl
girls
girolamo
girona
gitar
giudeo
giuliano
giulio
giuseppe
given
giza
gje
glaciares
gladiatores
glagolitica
gland
glande
glandes
glasa
glasada
glasi
glasia
glasial
glasias
gleditsia
glide
glifo
glifos
glisa
glise
glo
global
globali
globin
globo
gloria
gloriosa
glory
glosa
glosas
glot
glotal
glu
glucosa
gluteos
gm
gmbh
gn
gneo
gnostica
gnosticas
gnosticisme
go
goa
gobi
gocturc
gocturces
god
goddard
goddess
godefroi
godiva
gods
goebbels
goes
goethe
gogh
goia
goidelica
goig
going
gol
golden
goldson
goldstein
goles
golf
golfo
golfos
golmayo
golson
gomara
gombo
gomez
gon
gonadas
gonduana
gone
gonza
good
google
goose
gora
gorbatxov
gorda
gordimer
gordon
gordonia
gore
gorgon
gorila
gorilas
gorky
gormaz
gormont
goryeo
got
gota
gotas
gotha
gotica
gotischen
gotland
goto
gotos
gott
gottfried
gottingen
gottlieb
gottorf
gouda
goue
gov
governa
governada
governal
governante
governas
government
governor
governores
governoria
goya
gp
gr
gra
grace
gracian
gracos
grad
gradal
gradi
gradida
grado
grados
gradua
graduada
graduadas
graecia
grafica
grafical
grafiti
grafito
graham
grahovac
graindor
grait
gram
grama
gramatica
gramatical
gramaticas
grames
grammaire
grammar
grammaticus
grammatik
gran
granada
grand
granda
grande
grandes
grandfather
grandi
grandia
grandias
grandida
grands
grandson
graneria
granes
graniza
granos
grant
granta
granuloma
granulosites
granville
gras
grasia
grasias
grasiosa
grasosa
grass
grava
gravada
gravas
grave
gravetian
gravia
gravita
gravital
grazia
grazie
gre
great
greatest
greci
grecia
greco
greda
gredos
greece
greek
green
greene
greenwich
gregorian
gregorio
gregory
gregson
gren
grenada
grenadines
gresham
greuges
greve
greves
gri
grilia
grilida
grimm
gripe
gris
grisi
gro
groningen
gronland
gronlandes
gros
gross
grosso
grote
ground
group
grouping
grove
gru
grupi
grupida
grupo
grupos
gs
gsm
gsþula
gu
gua
guadalajara
guadalete
guadelupe
guaicuruan
guam
guambiano
guangdong
guangzhou
guanina
guantanamo
guanyin
guarani
guardia
guardian
guascone
guatemala
guatemalteca
guatemaltecas
gudjarati
gudrun
gue
guerra
guessard
gueta
guez
guglielmo
gui
guian
guiana
guianes
guichard
guide
guido
guila
guillain
guillaume
guillermo
guimera
guinea
guise
gulo
gunpo
guo
guosa
gupta
guptan
gurami
gure
gurmuci
guru
gusta
gustas
gustav
gustave
gustavo
gusto
gut
gutenberg
guðru
gw
gwa
gwangyang
gwu
gy
gyaanipedia
gye
gyeonggi
gylfaginning
gymreig
gyo
gyosei
gysbert
gz
h
ha
haag
haarlem
haarlemmermeer
habarovsc
habe
habeva
habsburg
habsburgo
hacasia
hace
hachette
had
hade
hadeica
hades
hadith
hadrian
hadriano
hadza
hae
haenir
haga
hagania
hagia
hai
haiarenes
haiastan
haicu
haida
haieren
hainan
hala
halatafl
hales
halewijn
half
hall
hallara
halldo
halle
halley
halloween
hallstatt
halma
hamangia
hamburg
hamid
hamilton
hamlet
hammurabi
hampshire
hamsun
han
hana
hand
hanes
hanggre
hangul
hania
hanias
hannibal
hannover
hanoi
hans
hansa
hanunuo
haos
happen
happiness
har
harald
harappa
harappan
harbor
hard
hare
harmattan
harold
harper
harr
harri
harriet
harris
harrison
harry
hart
hartmann
hartt
hartxas
harun
harvard
harvey
has
hasa
hasan
hascala
hashimoto
hasmonean
hasta
hastings
hat
hatra
hattusa
hau
hauptmann
haus
hausa
haute
hav
havana
havannah
have
haven
havi
hawa
hawai
hawaian
hawaii
hawking
haws
hawthorne
hay
haye
hayu
hazar
hazard
hazares
hda
he
head
heaney
hear
heart
heath
heaven
heavy
hebb
hebe
hebei
hebrides
hector
hecuba
hefesto
hegel
hegesia
hei
heian
heida
heidegger
heidelberg
heidelbergensis
heimdall
heimskringla
hein
heine
heinrich
hel
hela
held
helena
heleno
helens
helgakviða
helgi
heliade
helios
hell
helmholtz
heloise
helsinki
helvetianes
hem
hembra
hemel
hemingway
hemionus
hemudu
hen
henan
henderson
hendrik
henoteisme
henri
henrico
henry
henryk
hephaestus
her
hera
heracles
heraclito
herba
herbert
hercule
hercules
herder
here
herge
heritage
herman
hermann
hermes
hermit
herna
hernaut
hero
herod
herode
herodoto
heroes
heroi
heroine
herrera
hers
hersegovina
hervarar
herzl
hesiodo
hesse
hestia
het
hetki
heuneburg
heven
hewlett
hex
heyerdahl
heyse
heywood
hi
hibou
hibris
hic
hidalgo
hidatsa
hidden
hide
hier
hiero
hifas
high
highway
hij
hildegard
hill
hillary
hillel
hills
hillsboro
hilversum
him
himalaia
himalaias
hin
hindi
hindu
hiparco
hiphop
hipocrate
hipon
hiragana
hiroshima
hiroxima
his
hispania
hispaniae
hispano
histo
histoire
histoires
historia
historic
historical
histories
history
hit
hitchcock
hitita
hititas
hitler
hm
hms
hnefatafl
ho
hobbes
hobbit
hobites
hoc
hocan
hochelaga
hoci
hodge
hodiau
hodie
hoffman
hogben
hoi
hojin
hokkaido
holbein
holger
holland
hollandes
hollands
hollywood
holmes
holofernes
holstein
hombre
home
homepage
homer
homeral
homero
homes
homework
homilies
hominidos
homme
hommes
homo
hon
hondo
honey
hong
hongkong
honor
honore
honorio
hoo
hood
hoogehout
hook
hooke
hope
hopewell
hopi
hopis
hopkins
hora
horatio
horizons
horizontal
hormuz
horney
horror
horse
horses
hortensia
horus
hos
hospital
hot
hotel
house
houses
houston
houvet
how
howard
hoy
hp
ht
htm
html
http
https
hu
hua
huang
huanghe
huayllacahua
hubal
hubble
hubilai
hudson
huerta
hugh
hugo
hugues
hui
huile
huis
hull
hulle
human
humanita
humanitas
humboldt
hume
hun
hunde
hundes
hundingsbana
hundingsbane
hunes
hungry
hunspell
hunt
hunter
huntington
huon
hurian
hurt
hus
husain
husband
husserl
hut
hutus
huxley
huy
hvalinsc
hw
hwaseong
hy
hyaena
hyde
hypa
hyperion
hyva
høj
hə
i
ia
iac
iaga
iala
iaman
iamna
ian
iancu
iang
ianomaman
iapeto
iason
iata
iau
iaue
iberia
iberian
iberianes
iberico
ibero
ibi
ibm
ibn
ibo
ibride
ic
ica
icao
ice
ich
icnitas
icon
icones
iconin
iconografia
icosaedral
ictiosauros
id
ida
idaho
ide
idea
ideal
ideales
idealida
idealisme
idealiste
ideas
identia
identias
identica
identical
identidade
identifia
identifiada
identified
identity
ideolojia
ideolojial
ideolojias
ides
idiom
idioma
idiomal
ido
idol
idoles
idomeneo
idris
idrocarbonos
idrodinamical
idroeletrical
idrografial
idrojen
idrolojia
idromel
idrosfera
idrosido
idus
ie
iec
ielo
ien
iena
ienas
ienesei
ienisean
ienisei
ieniseian
ier
ierarcia
ierarcial
ierarcias
ieroglifal
ieroglifo
ieroglifos
ieruxalim
ies
iexu
iexua
if
ifen
ifenes
ifigenia
ig
igbo
iglesia
iglesias
igna
ignacio
igor
ii
iii
ijenia
iji
ijo
ik
ike
ikta
iku
il
ila
ilan
ilativa
ile
ilex
ili
ilia
iliada
ilial
ilio
iliria
ilirian
ilirianes
ill
illa
ille
illes
illinois
illo
illos
illustrated
ilmarinen
ilmatar
ilo
ilos
ils
ilude
iludes
im
ima
image
imaje
imajes
imaji
imajida
imajina
imajinada
imajinal
imajinas
imajinosa
imam
imbolc
imedia
img
imita
imitada
immanuel
imno
imnos
imobila
imobilas
imp
imparfait
impe
impedi
impedida
impedinte
imperal
imperalisme
imperativa
imperativas
imperial
imperii
imperio
imperium
impero
imperor
imperores
imperoresa
imperos
implanta
implica
implicada
implicas
importa
importada
important
importante
importantes
importantia
importas
imposa
impossible
imposta
impostas
imprenta
impresa
impresada
impresante
impresas
impresor
improvisa
impulsa
impulsas
imunal
imune
imunia
imunial
imunodebilia
imunolojia
imunosupresantes
in
ina
inata
inauguracion
inc
inca
incarne
incarnes
incas
inch
incheon
incl
inclina
inclinada
inclinas
include
includes
inclui
incluida
incluinte
incoativa
incorpora
incorporada
incorporated
increment
incuba
incui
incuisisio
inde
independente
index
indi
india
indian
indiana
indianes
indias
indica
indicada
indicante
indicantes
indicas
indicativa
indigo
indira
indise
individua
individual
individuas
individuisme
indo
indoeuropean
indoeuropeanes
indogermanisches
indoiranian
indoiranianes
indonesia
indonesian
indoxina
indra
indu
indui
induida
induisme
induiste
induistes
indulis
indus
industri
industria
industrial
industrias
industrida
ine
inen
inerente
inertia
ines
inesiva
infante
infantria
infarta
inferior
inferioria
inferno
infesta
infeta
infetada
infetante
infetas
infetosa
infiltra
infinita
infinitas
infinitia
infinitiva
infinitivas
infinitivo
infinitivos
infla
inflada
inflama
inflamada
inflamante
infleta
infletada
infletante
infletas
influe
influeda
influente
influes
influi
influida
influis
influosa
info
informa
informada
informante
informas
informatica
information
informe
infra
infraclase
infraordina
infrastrutur
infusa
ing
ingersoll
ingle
inglish
ingrediente
ingredientes
ingux
inguxetia
ini
inibador
inibi
inibinte
iniciativa
iniora
iniorada
iniorante
inisia
inisiada
inisial
inisiales
inisior
init
injenia
injenior
injeniores
injeta
inka
inn
inna
inonda
inondada
inondante
inondas
inosente
inova
inovante
inovas
inovosa
inserta
insertada
insesto
insetas
insetisides
insetivor
insetivores
inseto
insetos
insiste
insistente
inspira
inspirada
inspiras
instala
instalada
instintal
instinto
instintos
instintosa
institual
institui
instituida
instituidas
instituinte
instituis
institut
institute
instituto
instrui
instruida
instruinte
instruis
instruments
instruor
instruores
insula
insulin
insulta
insultada
insultante
insultas
int
intal
intata
inte
integra
integrada
integral
intel
inteletal
inteleto
inteletos
inteletosa
inteletosas
intelijente
intelijentia
intende
intendeda
intendente
intendes
intensa
intensi
intensia
intensias
inter
intera
interac
interas
interata
interatante
interatas
intercambia
intercambiable
intercambiada
intercambiante
intercambias
intercampal
intercomprendable
intere
interede
interelata
interesa
interesada
interesante
interesas
interese
intereses
interesi
interfas
interfere
interglasial
interglossa
intergovernal
interior
interliada
interlias
interlingua
interna
internal
internas
internasional
internasionalisme
international
internationale
internet
interoga
interogar
interompe
interompeda
interpersonal
interpone
interpreta
interpretada
interpretador
interpretatio
interprete
interpreteda
interpretes
interpretor
interrogar
intersentenial
interslavica
intersposi
interstatal
interstelal
interstisial
interurban
interval
intervales
interveni
interveninte
intervenis
intervisa
intestin
intestinal
intestine
intestines
intestinos
intima
into
intra
intravenal
introduction
introdui
introduida
introduinte
introduis
introspeta
intrui
intui
intuinte
intuis
intuisme
inuit
inuites
inuktitut
invade
invadeda
invadente
invades
invadores
invasion
inventa
inventada
inventas
inventor
inventores
inventosa
invernal
invernerial
inverni
inverno
invernos
inversa
inversada
investi
investida
investiga
investigada
investigas
investigores
investis
investor
investores
invia
invictus
invisible
invita
invitada
invitadas
io
ioannis
ioc
iodo
ioga
iogurte
iom
ion
ional
iones
ionia
ionian
ionio
iorc
ioruba
ios
iowa
ipa
iperativa
iperativia
ipertesto
ipertiroidisme
ipnose
ipo
ipopotamo
ipopotamos
ipotenusa
ipotesa
ipotesal
ipotese
ipoteses
ipre
ipsum
iq
iqaluit
iqbal
ir
ira
irac
iraci
iran
irani
iranian
iranianes
iranica
ire
ireland
iriga
iris
irish
irita
iritada
iritante
irocuoi
iron
ironia
ironiosa
iru
iruba
irving
irwindale
is
isa
isaac
isabel
isabella
isagoras
isaia
isar
isbn
ise
isembart
isi
isin
isis
isk
iskandariya
iskwe
isla
islam
islamabad
islamica
islamiste
islamistes
island
islands
islansce
islas
ism
isme
isn
iso
isoglosas
isola
isolada
isolal
isolante
isolas
isoletas
isoli
isolida
isolinte
isotopo
isotopos
ispaniola
israel
israeli
israelis
issant
issn
ist
ista
istamina
istanbul
iste
isteria
isti
istmo
isto
istolojia
istoria
istorial
istorias
istoriografia
istoriografial
istoriste
istoristes
it
ita
itaca
italia
italian
italiana
italianes
italiano
italica
italicas
italo
italy
ite
iti
itiopia
itiopian
itiopianes
itita
itre
its
itta
itu
itza
iu
iuan
iucagir
iuci
iudea
iuderia
iuderias
iudes
iudi
iudiciorum
iudis
iudisme
iudiste
iudistes
iugo
iugoslavia
iugoslavian
iul
iuman
iuniores
iuris
iv
iva
ivan
ivor
ivri
ivris
ix
iyo
iz
izar
izmir
j
ja
jac
jaca
jacaranda
jacas
jaceta
jacint
jack
jackson
jaco
jacob
jacobo
jacobs
jacobsen
jacon
jacopo
jacquard
jacques
jaguar
jah
jai
jaime
jain
jaines
jainisme
jaipur
jak
jakaltek
jako
jakob
jal
jala
jalin
jalo
jalon
jam
jamaica
jamaican
jamaicanes
jaman
james
jamestown
jammeh
jamon
jan
jana
jane
janeiro
janero
janet
jani
jano
january
japan
japanes
japon
japones
japonica
jardin
jardines
jarl
jarles
jaroslav
jask
jastorf
jaume
java
javascript
jay
jaz
jazair
jazairi
jazz
je
jean
jeanne
jedi
jedis
jefferson
jeffrey
jehan
jehova
jeju
jejuno
jela
jelada
jelatin
jelida
jelo
jelosa
jelosia
jem
jemelo
jemelos
jen
jena
jenas
jendeh
jenealojia
jeneolojia
jenera
jenerada
jeneral
jenerales
jenerali
jeneralia
jeneralida
jenerante
jeneras
jenero
jeneros
jenerosa
jenerosia
jenes
jenese
jenetica
jenetical
jeneticistes
jenetiva
jenio
jenios
jenita
jenital
jenitales
jenitiva
jenitivas
jenitor
jenitores
jeno
jenoa
jenom
jenomes
jenos
jenoside
jenosides
jenoveva
jens
jensen
jentil
jeodesia
jeografia
jeografial
jeografiste
jeolojia
jeolojial
jeolojistes
jeometria
jeometrial
jeomorfolojia
jeopolitica
jeopolitical
jerboa
jeremia
jeremy
jergo
jergos
jeronimo
jersey
jersi
jerundio
jerundios
jerusalem
jes
jeso
jespersen
jesta
jesti
jestis
jesu
jesuita
jesuitas
jesus
jeta
jeter
jeu
jeune
jewish
jezik
jh
ji
jia
jiahu
jiang
jiba
jibraltar
jigante
jigantes
jij
jim
jime
jimeno
jin
jina
jing
jingu
jinhae
jini
jinjer
jinn
jira
jirada
jirafa
jirafas
jirante
jiro
jo
joachim
joalas
joan
joana
joanot
job
jocelyne
joe
joey
johan
johann
johannes
john
johns
johnson
joia
joiada
joints
joiosa
jom
jon
jonas
jonathan
jones
jong
jonguo
jonson
jontik
jord
jordi
jorge
jorj
jorjia
jorjio
jornal
jornales
jornalisme
jornaliste
jornalistes
jos
jose
josef
joseon
josep
joseph
josia
jota
jotun
jotunes
joujou
joukahainen
jour
journal
journaux
journey
jove
jovedi
jovellanos
joven
jovenes
jovenia
joxua
joyce
jpeg
jpg
jr
jt
ju
jua
juada
juador
juan
juancho
juante
juas
jubila
juda
judah
judal
judas
judea
juderia
judi
judida
judinte
judis
judita
judith
judo
judor
judores
judorias
juego
juegos
jueta
juetas
juger
juglari
jul
jules
julia
julian
juliano
julieta
julio
julius
julle
july
jumis
jun
juna
junco
june
jung
jungen
jungla
junglas
junio
juniper
juniperes
juno
junta
juntada
juntante
juntas
juor
juores
jupiter
jura
jurament
juras
jurasica
juris
jus
just
justa
justi
justia
justice
justida
justinian
justiniano
jutalit
jutland
jy
jʊs
k
ka
kabbah
kabe
kabul
kafka
kah
kai
kaikai
kainos
kaj
kak
kakae
kakwa
kal
kalama
kalervo
kalevala
kali
kalinga
kalo
kam
kama
kampf
kan
kana
kane
kanji
kannemeyer
kansas
kant
kanta
kantele
kaplan
kapralov
kaqchikel
kar
kara
karamazov
karanovo
kare
karel
karen
kari
karl
karles
karno
karnoffel
kas
kasi
kaso
kasparov
kata
kate
katharina
kattegat
katxo
kausa
kavalo
kawasaki
kawi
kay
kayangel
kazakh
ke
keke
kel
kelly
kemɛ
kemɛwo
ken
kena
keninkryk
kennedy
kenneth
kenobi
kent
kepeken
kepler
kept
kerblam
kere
kerik
keskella
ket
keta
kevin
key
keyo
keys
kez
kg
kh
kha
kham
khan
khare
khata
khayyam
khe
khoe
khun
khwarizmi
ki
kia
kiel
kierikki
kierkegaard
kiev
kihe
kiitos
kil
kili
kilimanjaro
kill
killer
kilo
kilobaites
kim
kimta
kinda
king
kingdom
kings
kini
kipling
kiribati
kirja
kirjain
kirjasto
kirjata
kis
kisi
kiss
kissinger
kita
kitab
kitchen
kitts
kiu
kk
kl
klatawa
klein
kleist
klekkende
klemperer
kleos
klingon
klu
klush
km
knife
knight
knights
knock
know
known
knowth
ko
koba
kobenhavn
koe
koelreuteria
koestler
koffka
kofi
kohler
koln
kolpen
kom
komme
komo
kompo
kon
konak
kong
kongemose
kongo
kongzi
konrad
konsignen
kore
koror
koros
korsakov
korv
kos
koshkariov
kosi
kosmos
kot
kotava
kotor
kpando
kpg
kpui
kpɔ
kr
kraepelin
kraft
kre
kriegspiel
krige
kron
krono
ks
ksu
kte
ku
kubla
kucinich
kuhn
kuiper
kuk
kukum
kullervo
kuma
kume
kumi
kun
kuna
kunda
kuni
kup
kupa
kura
kuro
kurow
kurrent
kurt
kusi
kuwamo
kuwo
kv
kvasir
kvin
kw
kwa
kwami
kwe
kxa
kxo
ky
kyd
kyi
kyla
kyo
kz
kɔ
kɔdzo
kɔkɔ
kɔsi
kə
l
la
laat
labels
labial
labio
labios
labirinto
labor
labora
laborada
laboral
laborante
laboras
laboreria
laborerias
labores
laboro
laboror
laborores
laborosa
labrador
labs
lac
lachine
lacota
lacotas
ladal
ladin
ladino
lado
lados
lady
ladyville
lag
lagetas
lago
lagon
lagones
lagos
laguna
lah
lai
laik
laima
lais
lait
laita
laiva
lak
lake
lakota
lakshmi
lam
lama
lamaria
lamas
lambeth
lamenta
lamentante
lamia
lamina
laminas
lampa
lampas
lampo
lampos
lan
lana
lancaster
lancelot
land
landau
landesmuseum
lane
langa
langaix
langdon
lange
langer
langobarda
langobardas
langosto
language
languages
langue
langues
lanosa
lansa
lansada
lansante
lansapetra
lansas
lansia
lansias
lansietas
lanson
lansor
lansu
laozi
lape
lapis
lapises
laquelle
lar
lardo
larga
large
largi
largia
larinjal
larinjales
larinje
larix
larmas
larralde
larry
larsson
larva
larvas
las
lasa
lasada
lasanie
lasante
lasca
lascaux
laser
lasera
laserada
lasi
lasker
last
late
later
latin
latina
latinas
latine
latinesce
latini
latino
latio
latitude
latitudes
latium
latvia
latvian
latvisce
latvisces
lau
lauda
laura
laural
laurasia
laurence
laurens
laurent
laurentia
laurie
lauro
laurusia
lausberg
lava
lavada
lave
lavinia
lavo
lavoisier
lavoro
law
lawrence
laxe
laxness
lay
layer
laz
lazarus
lazio
lb
lbk
ld
le
leabhar
leal
lear
leau
leaves
lebor
leca
lecv
led
lee
left
lega
legacy
legal
legali
legalia
legalida
legalisme
lege
legend
legends
legeria
legerial
legerias
leges
legi
leginte
legiste
lego
legumes
lehi
lei
leibniz
leiden
leif
leinster
leipoldt
leipzig
leito
lejador
leje
lejeda
lejenda
lejendal
lejendas
lejendes
lejente
lejera
lejeri
lejeria
lejes
lejiones
lejor
lejores
lekto
lelantan
lemantaf
lemminka
lemnian
lemur
len
lena
lenape
lenapes
lenburu
lengua
lenguas
lengyel
lenin
leniniste
lenio
lenios
leniosa
lent
lenta
lente
lentes
lenti
lentil
lentiles
leo
leoa
leon
leona
leonard
leonardo
leones
leopardi
leopardo
leopold
leopoldo
leovigildo
lepido
lepre
lepres
leprosia
lequel
lera
lerinage
lermontov
les
lesbos
lesiones
leson
lesones
lesonor
lesoto
lesquelles
lesquels
lessing
lestrade
let
lete
letera
leteral
leteras
leteratur
leteratura
leteratural
leteratures
letin
letketv
leto
letos
letras
letter
letters
lettres
letuga
leucemia
leucipo
leuven
lev
leva
levada
levallois
levante
levas
lever
levi
levin
levitico
levy
lewe
lewin
lewis
lex
lexemes
leyba
lez
lezardo
lezardos
lezgi
lfn
lhasa
li
lia
liability
liada
liaison
liang
liante
liao
lias
libelulas
liber
libera
liberal
liberia
liberte
liberty
libi
libia
libra
librairie
libral
libralisme
libraliste
libralistes
library
libre
libreria
libres
libreta
libreville
libri
libria
librias
librida
librinte
libriste
libro
libros
lica
licia
licinio
lictenstain
licuida
licuidas
liddell
lidepla
lidia
lidian
lie
liebre
lietuva
lietuvisce
lieu
life
liga
ligamento
ligamentos
light
lightning
ligure
liguria
like
lil
liles
lili
lilit
lily
lim
lima
limb
limbica
limburgan
limes
limfa
limfal
limfoma
limfosite
limfosites
limina
limita
limitada
limitas
limited
limon
limpa
limpi
limpia
limpopo
lin
linares
lincoln
lincos
lindisfarne
line
linea
linear
lineo
lines
linescu
ling
linga
lingu
lingua
linguag
linguaje
linguajo
lingual
linguas
lingue
linguiste
linguistes
linguistic
linguistica
linguistical
linguistics
linguistique
linguo
lingva
lingwa
linia
linial
linias
linio
linn
linnaeus
lino
linux
linz
lion
lionardo
lipidos
lippi
lir
lira
lirica
lis
lisa
lisboa
lisbon
lisca
liscante
liscas
liscor
liscores
lisensa
liseo
liseos
lisi
lisian
lisistrata
list
lista
listada
listas
listen
lit
literary
literatur
literatura
literature
literaturii
litha
litiga
litigada
litosfera
litres
little
liturjia
liturjial
liturjias
liu
liv
live
liverpool
livia
living
livio
livius
livonia
livre
livres
livrustkammaren
livy
lix
ll
lla
llan
llc
lle
lleche
llengua
ller
lli
llibre
llingu
llingua
llo
lloyd
lluis
llull
ln
lo
lobes
lobo
lobos
lobotomia
lobotomias
loc
loca
locada
local
localida
locas
locativa
loci
locida
locke
loco
locustas
loda
lodable
lodada
lodas
loeb
logaritmos
logia
loglan
logo
logografia
logogrames
logopolis
logos
loi
loire
lojban
lojica
lojical
lokasenna
loke
loki
lolo
lolotɔ
lomantaf
lombal
lombard
lombarda
lombardes
lombardia
lome
lon
lona
london
londres
loner
long
longa
longas
longe
longi
longia
longias
longida
longo
longshan
lonjitude
lonjitudes
looking
lookout
lope
lorca
lord
lordose
lords
lorem
lorenz
lorenzo
lorin
lorina
loro
lorrain
lorraine
los
lost
lot
lottery
lou
louhi
louis
louise
louisiana
loukotka
lourdes
louverture
louvre
love
lovi
lovo
lower
lrl
ls
lsungakviða
lti
ltskog
lu
lua
luanda
luas
lubeck
lublin
lubnan
lubnani
luc
luca
lucania
lucano
lucanor
lucas
luce
luceres
luciano
lucio
lucratif
lucretio
lucrezia
lucy
ludovico
ludwig
ludwik
lug
lugh
lui
luigi
luis
luisa
luka
lumina
luminada
luminadas
luminosa
luna
lunal
lunas
lunasa
lund
lundi
lune
lunetas
lunisolal
lunlotra
luo
lupo
lupos
lupulo
lupus
lus
lusaka
lusi
lusia
lusiadas
lusio
lusitania
luso
lusosa
luspa
luta
lutada
lutante
lutas
luteran
luteranisme
luther
luto
lutra
lutras
lutwidge
luvian
luwiya
luxemburg
luxemburges
luy
luzon
lvarez
lvaro
lvez
lviv
ly
lyapunov
lyell
lymphoid
lyngstad
lyon
m
ma
maa
maalataan
maar
maarten
mabinogion
mac
maca
macaon
macaroni
macau
macbeth
maccabeo
macdonald
macedon
macedonia
macedonian
macedonsce
macedonsces
macha
machado
machaut
machiavelli
machine
machines
macho
macia
macina
macinal
macinas
macini
macintosh
mackinnon
macleod
macon
macra
macrino
macro
macrofagos
macromoleculas
macron
macropus
madagascar
madagasicara
madame
made
madeira
madera
madison
madona
madral
madre
madres
madria
madrid
madrin
madron
madryn
madsen
mae
mafia
maga
magadan
magallan
magallanes
magan
magazine
magdalena
magdalenian
magellan
magiar
magiares
magic
magmal
magna
magnetal
magnetes
magnolia
magnus
magra
magrali
magre
magreb
magri
magrib
magyar
maha
mahabharata
mahaiana
mahajanapadas
mahal
mahatma
mahler
mai
maia
maian
maias
maicop
maiden
maidu
mail
main
maine
mainet
mainyu
mainz
maio
maior
maiorca
mais
maison
maisonneuve
maj
maja
majel
majenta
majia
majial
majiosa
majiste
majistratias
majistrato
major
majoria
majos
makassar
make
makers
making
makuk
mal
malacusa
malada
maladas
maladi
maladia
maladias
malagasi
malaialam
malaian
malaio
malaisia
malaka
malaria
malaui
malawi
malbono
malcolm
malcomprende
malcomprendeda
malcomprendes
malden
maldise
maldises
maldives
male
malerbas
malfamosa
malflue
malformis
malfortuna
malfunsiona
malgidante
mali
malia
malida
mallory
malnuri
malo
malsonia
malspende
malta
malthus
malti
maltrata
maltratada
maltratas
malu
malucu
malusa
malvole
malvolente
mam
mama
mamal
mamales
mamelas
mamluc
mamluces
mamma
mamuk
mamute
mamutes
man
mana
manada
manadas
manaje
manas
manati
manatis
manca
mancala
mancante
mancas
mancha
manchester
manco
mancomunitat
manda
mandaia
mandala
mandan
mandanes
mandarin
mande
mandeisme
mandibula
mandibulas
mandinca
manding
mandju
mandjus
mandragora
mane
maneja
manejada
manejal
manejor
manejores
manera
maneras
manes
mang
manga
manganes
mangas
mange
mangean
mangeons
mangia
mangiato
mango
mangos
manha
manhattan
mani
mania
manica
manico
manicos
manila
manioca
manipula
manipulas
maniqui
manisme
maniste
manitoba
manje
manju
mann
mannheim
mano
manobra
manos
manoscrito
manoscritos
manrique
mansi
manteni
mantenida
manteninte
mantenor
mantra
mantua
manual
manubles
manuel
manufacture
manuscrito
manut
manutya
manxa
manxada
manxas
many
manzoni
mao
maori
map
mapa
mapas
mapungubwe
mar
mara
marais
maral
maranta
marati
maraton
marburg
marc
marca
marcada
marcante
marcas
marcel
marcelino
marcelo
marcesa
march
marche
marci
marcia
marco
marconi
marcos
marcus
mardi
mare
marea
mareal
mareas
mares
marexal
margaret
margarita
margen
margherita
mari
maria
mariah
mariana
marido
marie
marija
marilyn
marimba
marin
marina
marinal
marinas
mariner
marino
marinor
marinores
marinus
mario
marion
marjatta
marjin
marjinal
mark
marlowe
marmara
marmo
marne
maro
maroc
marocan
maroco
marrakesh
married
mars
marseille
marseilles
marshall
marsilio
marston
marsupial
marsupiales
marsupio
marta
marte
martedi
martel
marteli
marten
martes
martha
marti
martin
martinic
martino
martinus
martir
martires
martiria
marto
martorell
marx
marxa
marxism
marxisme
marxiste
marxistes
mary
maryam
maryland
mas
masa
masacra
masacrada
masacras
masan
masas
masca
mascida
mascita
mascitas
mases
masia
masima
masimi
masin
maslow
masosa
masq
massachusett
massachusetts
massalia
massinger
master
masto
mastosites
masturba
mat
mata
matabrune
matada
matante
matas
match
mate
matematica
matematical
matematicas
matematiciste
matematicistes
matematiste
mateo
mater
materia
material
materiales
materialisme
materialiste
materias
mathe
mathematical
matias
matina
matini
matino
mato
mator
matre
matrilinia
matrilinial
matris
matro
matsha
matthew
matthias
matur
matura
maturi
maturia
mau
mauchly
maugis
mauria
maurian
maurice
mauris
mauritania
maurizio
maurya
mausoleo
mawo
max
maxada
maxentio
maxes
maxia
maxial
maxim
maximiano
maximilian
may
maya
mayence
mayflower
mayka
mayo
mayor
mayores
mayotte
mazama
mazda
mb
mbe
mbi
mc
mccarthy
mcdonald
mcdougall
mcgill
mckinley
mcminnville
mdf
mdina
me
mea
meadows
meaning
meca
mecanica
mecanical
mecanicas
mecanicisme
mecanicismes
mecanisme
mecca
mecklenburg
mecong
med
medalia
medalias
medb
medda
medea
medes
medford
media
mediadia
mediaestate
medial
medianote
medias
mediasemana
medica
medical
medicas
medici
medicine
medicis
mediciste
medicistes
medieval
medina
medinaceli
medio
medioevo
mediolani
mediopasiva
medisin
medisinal
medisines
medita
meditas
mediteranean
mediteraneo
mediterra
mediterranea
mediterranean
mediterraneo
medjusloviansce
medula
medulas
medusa
meeting
meg
mega
megalital
megalitica
megalitos
megatero
megateros
meglos
meh
mehmed
mei
meida
meie
meille
mein
meiose
meir
meita
meiu
mek
mel
melaiu
melanesia
melanesian
melanesianes
melanin
melanoma
melanosite
melanosites
melbourne
mele
melek
melekeok
meles
meli
melia
melilla
melior
melma
melodia
melodias
melolo
melon
melonjena
melpomene
melville
melzi
mem
membrana
membranas
membranosa
membria
membro
membros
memnon
memori
memoria
memorial
memorias
memorida
men
mena
menace
menandro
menasa
menasada
menasante
menasas
menchu
mendel
mendelssohn
mendes
mendica
mendicores
mendoza
mene
menelao
menes
menestreles
meng
menna
meno
menon
menonita
menonitas
mensa
mensal
mensas
mense
menses
ment
menta
mental
mentaliste
mente
mentes
menti
mentis
mento
mentor
menu
menyo
menɔ
meo
mer
mera
mercantil
mercantilisme
mercantiliste
mercatal
mercato
mercator
mercatores
mercatos
merce
mercedes
mercia
mercurdi
mercurio
mercy
merda
meriasek
merina
merione
merita
meritada
meritante
merkel
merkop
merlo
meroitica
merovian
merovingian
mersenarios
merunka
mervelia
mervelias
merveliosa
mes
mesa
mesaje
mesajes
mesajor
mesajores
mesas
mesenia
mesenian
mesma
mesmas
mesme
mesmer
mesoamerica
mesoamerican
mesohil
mesolitica
mesopotamia
mesopotamian
mesopotamianes
mesozoica
messina
mester
mestral
mestre
mestres
mestri
mesura
mesurable
mesurada
mesuras
met
meta
metabolal
metaboli
metafisica
metafisical
metafor
metafora
metaforal
metafores
metal
metales
metalin
metalurjia
metano
meteorite
meteorites
meteorolojia
metodiste
metodistes
metodo
metodolojia
metodos
metral
metre
metres
metro
metropoli
metropolitan
metta
metz
metzeltin
meu
mexe
mexican
mexico
mey
meyer
meyi
mez
mi
mia
miama
miami
mianmar
miastenia
miau
miaƒe
mica
micael
micasuci
micenan
michael
michel
michelangelo
michiel
michiels
michigan
mickiewicz
micmac
micmaces
micro
microbiolojia
microbios
microlitos
micrometres
micronesia
micronesian
microprosedador
microscopial
microscopio
microscopios
microsoft
microtelia
microtubetas
mid
middle
middleton
midgard
midnight
mie
miel
mielin
mies
mifala
might
migra
migrania
migrante
migrantes
migras
migror
migrores
miguel
mihai
mihail
mijn
mika
mike
mikhail
mil
mila
milan
milanes
milano
mile
milenia
milenias
milenio
milenios
miles
milesianes
mileto
mili
milia
milias
milimetre
milimetres
milio
milion
miliones
milionor
militar
militares
militari
militaria
militarida
militia
militias
mill
milla
millares
millennium
miller
million
milton
milwaukee
mima
mimir
mimosa
min
mina
minada
minas
mind
mindanao
mindoro
mine
minen
mineral
minerales
mineria
minerias
minerva
ming
mini
miniatur
minim
minima
minimal
minimi
ministreria
ministro
ministros
minkowski
minneapolis
minnesota
mino
minoan
minoanes
minor
minoria
minorias
minus
minuto
minutos
mio
miocardial
miosene
mipela
miqui
mira
miracle
miracles
miraclosa
miraheze
miranda
mirandes
mirandola
mircea
mireille
miriapodo
miror
mirores
mirorida
mirto
mis
misa
misas
misca
miscada
miscadas
miscante
miscas
miscito
mise
misene
misenean
misera
miseria
misiles
mision
misiones
misionor
misionores
misre
misri
missa
mississippi
missouri
misterio
misterios
misteriosa
mistica
misticas
misticisme
mistinguett
mistral
misumalpan
mit
mita
mital
mitchell
mitlayt
mito
mitocondrial
mitocondrio
mitocondrios
mitolojia
mitolojial
mitolojias
mitos
mitose
mitra
mitraisme
mitraiste
mitras
mitsi
mixe
mixmi
mm
mme
mmm
mmpb
mno
mo
mobilas
mocasines
mocox
mocxa
mod
moda
modal
modas
mode
modekngei
model
modeles
modeli
modelida
models
modera
moderada
modern
moderna
moderne
modernes
moderni
modernia
modernisme
moderno
modesta
modi
modiste
modo
modos
modosa
modu
modus
mofo
mofos
mogano
mohamed
mohauces
mohenjo
moi
moiada
moisme
moistes
moksha
moku
mol
molda
moldavia
moldi
moldida
moldova
moldovan
mole
molecula
moleculal
moleculas
moleda
molen
molesta
moli
molia
molida
molie
moliere
molin
molina
molines
molini
molotov
molto
moluscas
molusco
moluscos
mom
moment
momentia
momento
momentos
momia
momias
mommsen
momu
mon
mona
monaces
monaco
monal
monarca
monarcas
monarcia
monarcias
monarcisme
monarciste
moncal
moncayo
monce
monceria
moncerias
monces
moncisme
monde
mondial
mondo
mone
mones
monet
moneta
monetas
monglane
mongol
mongoles
mongolica
moniage
monisme
monitori
monitorida
moniz
monmouth
mono
monodontidae
monogama
monografias
monolatrisme
monolingual
monologo
monopolio
monosilabal
monosilabas
monosites
monoteisme
monoteiste
monotremato
monotrematos
monroe
monsones
monster
monsters
monstrin
monstro
monstros
mont
monta
montada
montaigne
montale
montan
montana
montania
montanial
montanian
montanias
montanie
montaniosa
montante
montauban
monte
monteagudo
montenegrines
montenegro
monter
montes
month
monticello
monton
montones
montpellier
montre
montreal
montserat
montserrat
montur
montures
monument
monumental
monumento
monumentos
mood
moon
moore
mor
mora
moraceae
moral
morales
moralia
moralias
moravia
morbius
morde
mordes
mordvinica
more
morea
morero
mores
morfea
morfem
morfeme
morfemes
morfina
morfolojia
morfolojial
morgan
mori
moria
morida
morinte
morir
moris
moriscos
mormon
mormones
mormonisme
mormoniste
mormonistes
morning
moro
moroni
moros
moroz
morrigan
morsa
morse
morsos
mort
mortal
mortales
morte
mortero
mos
mosaic
mosaica
mosambic
mosarabi
mosca
moscas
moscito
moscitos
moscow
moscva
mose
moses
most
mostarda
mostra
mostrada
mostral
mostrante
mostrantes
mostras
mother
motif
motifes
motiva
motivada
motivante
motivas
motor
motores
motorwagen
motu
mouchoir
moulton
mountain
mourir
mouser
mousterian
mouth
movable
movablia
move
moveda
movement
movements
movente
moves
moxe
mozarabis
mozart
mozi
mp
mpi
mri
mrna
ms
mt
mte
mtv
mu
much
mucha
mucho
muchu
muco
mucosa
muela
mufarrag
mugul
muhamad
muhammad
muhammed
mui
muisca
mujer
mujeres
mukanaan
mul
muladis
mules
muller
mulos
multa
multe
multes
multi
multia
multicultural
multiculturisme
multietnical
multilingual
multinasional
multipartital
multiple
multiples
multipli
multipliada
multiplida
multiplinte
multiplis
multiselulal
multnomah
mumu
mun
munchen
munda
mundal
mundial
mundo
mundolinco
mundolingue
mundos
muner
munes
muni
munich
munisipa
munisipal
munisipas
munsi
munster
munsterberg
muntiaco
muntiacus
mur
mural
murcia
mures
muriel
muritania
muro
muron
murones
murray
mus
musa
musarania
musaranias
musaranin
musas
muscada
muscles
musco
muscocean
muscosa
musculal
musculo
musculos
musculosa
musculosceletal
musculus
muse
museo
museos
muses
museum
music
musica
musical
musician
musiciste
musicistes
muslim
muslimes
muspilli
mussolini
must
mustang
mustela
mustelas
mustelidos
musu
muta
mutada
mutadas
mutaformi
mutas
mute
mutilada
mutua
mutual
mwa
mwekane
my
myers
myhyka
myles
mym
myste
myth
mythe
mythologie
mɔ
n
na
naa
naam
nabatea
nabo
nacional
nada
nadores
nadsat
nadu
nafri
nagima
nagy
nah
nahali
nai
nairobi
naishon
naive
nak
naka
nam
nama
name
namib
namibia
nan
nana
nanak
nanas
nancy
nanich
nanin
nanjing
nanna
nano
nanometres
nanos
nanotecnolojia
nantes
nanteuil
napier
napole
napoleon
napoleonal
napoli
nar
nara
narada
naradas
naral
naras
narbonne
narci
narcolesia
nareta
naretas
narita
nariz
narkviða
naror
narros
narva
narval
narvales
nas
nasa
nasal
nasales
nasali
nasalida
nase
naseda
nasente
naser
nases
nash
nasion
nasional
nasionali
nasionalia
nasionalias
nasionalisme
nasionaliste
nasionalistes
nasiones
nasionoi
nasr
nassau
natal
nathan
nation
national
nationale
nationalism
nations
nativa
nativas
native
natur
natura
natural
naturalis
naturalisme
naturaliste
nature
natures
naturin
naturisme
naturiste
naturistes
natxez
nau
naua
nauatl
nauero
naughty
nausea
nauta
nautae
nautilos
nauvoo
navaho
naval
navara
navarra
navas
naveta
navidad
navidades
naviga
navigable
navigor
navigores
nax
naya
nayka
nazarbayev
nazca
nazi
nazis
nazisme
nc
nchen
nchez
nchi
ncia
nd
nda
nde
nder
ndez
ndiuca
ndo
ndu
ne
nea
neandertal
neandertales
neanderthalensis
near
nebla
neblas
neblosa
nebraska
nebrija
nebulosa
nebulosas
neci
necropoli
necropolis
nederland
nederlandes
nederlandeses
need
neezna
nefi
nefrolojia
nefron
neg
nega
negada
negante
negas
negativa
negativas
negociante
negosia
negosias
negosiores
negra
negras
negro
neher
neil
neill
neisser
nel
nelson
nelumbo
nematodo
nematodos
nen
nenets
nenju
neo
neoasirian
neoclasica
neolatina
neolatine
neolitica
neopaganes
neopaganisme
neoplasmas
neoplatonisme
neoplatoniste
neoplatonistes
nepal
nepali
nephew
nereo
nero
neron
neruda
nerva
nerval
nerves
nervo
nervos
nervous
nes
nesesa
nesesada
nesesadas
nesesante
nesesas
nesese
nesesia
nesis
nestor
nestorio
net
neta
netar
nete
netes
netherlands
neto
netos
netuno
neuchatel
neue
neumann
neural
neurolojia
neurolojial
neurolojiste
neuron
neuronal
neurones
neurose
neuroses
neurosica
neurosiensa
neurosiensistes
neurotransmetador
neurotransmetadores
neustria
neutra
neutral
neutras
neutri
neutria
neutron
neutrones
neva
nevada
never
neveu
nevis
nevosa
new
newbery
newfoundland
newgrange
newman
news
newspeak
newton
next
ney
neyo
nez
ng
nga
nganasan
nge
ngel
ngi
ngo
ngua
ngza
ngzai
nh
nha
nhua
ni
nia
niagara
niama
niasaland
nibelungenlied
nic
nica
nicaragua
nicas
niccolo
nice
nicea
nich
nicholas
nico
nicola
nicolai
nicolas
nicomaco
nicosia
nidi
nido
nidos
nie
niece
niels
niemeyer
nier
niet
nietzsche
niflheim
niger
night
nightmare
nigra
nigsberg
nihil
nihilisme
nihon
niinkuin
nijer
nijeria
nik
nikola
nikolai
nikud
nil
nilo
nilon
nilosaharan
nim
nima
nimboran
nimfa
nimfas
nimfea
nimfeas
nimo
nimon
nimyo
nin
nina
nini
nio
niobe
nioci
nion
niones
niord
nipe
nire
nirvana
nis
nisea
nisibis
niska
nitrato
nitratos
nitrojen
niue
niungan
nivel
niveles
nivhi
nix
nixon
nj
nja
nk
nke
nks
nku
nm
nmr
nn
nna
nnes
nnrot
no
noa
noam
nobel
nobil
nobiles
nobilia
nobilior
nobilitas
nobis
noble
noche
noda
nodas
nodo
nodos
nodulos
noel
nogai
noi
noia
noir
noite
noli
nom
noma
nomada
nomadas
nomal
nome
nomen
nomes
nometa
nometas
nomi
nomida
nomin
nomina
nominada
nominalisme
nominativa
nominative
nomine
nomines
nominte
nomis
nomo
non
nonabitada
nonacorda
nonagu
nonairobial
nonalfabetisme
nonalfabetiste
nonalienable
nonaliniada
nonambigua
nonanimada
nonasal
nonasentuada
nonasetable
nonaspirada
nonativa
nonautentica
noncambiable
noncambiada
noncambiante
noncapas
noncapasia
nonclar
nonclasida
noncoerente
noncoerentes
noncomable
noncompleta
noncompletada
noncomprendable
noncomun
noncondisionada
nonconosable
nonconoseda
nonconsensa
nonconstante
noncontable
noncontentes
noncontentia
noncontrolable
nonconveninte
noncoreta
noncorporada
noncortes
noncrede
noncurante
nondefinada
nondefinante
nondefini
nondefinida
nondefininte
nondepende
nondependente
nondesifrida
nondesirada
nondeterminada
nondireta
nondisputada
nondominable
nonegal
nonegalia
nonegalias
nonemplea
nonesata
nonesesada
nonesiste
nonesistente
nonespetada
nonesplicada
nonestrema
noneuclidal
noneuropean
nonevitable
nonfasil
nonfelis
nonferable
nonfertil
nonfida
nonfidable
nonfidosa
nonfininte
nonfinita
nonfisical
nonformal
nonformida
nonfortunosa
nonfunsional
nonfutur
noni
nonimportante
nonindoeuropean
nonintendeda
nonirigada
noniudi
nonjusta
nonjustia
nonlegal
nonlevada
nonliada
nonlibre
nonlimitada
nonlojical
nonmarcada
nonmatur
nonmetal
nonmilitares
nonmoral
nonmortal
nonmortalia
nonmortalida
nonmovente
nonobligante
nonofisial
nonormal
nonormales
nonormalias
nonosiva
nonp
nonparable
nonpartisan
nonpasada
nonpenetrable
nonperfeta
nonperfetida
nonperfetiva
nonperiodal
nonpermeteda
nonperosa
nonpersonal
nonplasente
nonplural
nonpopular
nonposible
nonposiblia
nonpredisable
nonprisma
nonprobable
nonprofesal
nonprofitante
nonprogresa
nonproportial
nonpublicida
nonpuntual
nonpur
nonramal
nonrazonal
nonrazonante
nonreal
nonrealia
nonrefletante
nonregulada
nonreguladas
nonregulal
nonrelatada
nonrelijiosa
nonresolveda
nonsabe
nonsabeda
nonsasia
nonsasiada
nonsasiante
nonscriveda
nonsecur
nonseria
nonserta
nonsertia
nonsesal
nonsimil
nonsinifiante
nonsolveda
nonspesifada
nonspetral
nonsposida
nonstable
nonstablia
nonsteroidal
nonsufisi
nonsufisinte
nonsusedosa
nontipal
nontolera
nontransitiva
nonumana
nonusa
nonusual
nonvantaje
nonvariable
nonvariante
nonvertebratos
nonvidable
nonvidablia
nonviolente
nonvivente
nonvolante
nonvolente
nonvosida
nor
norbert
nord
norde
nordica
nordwestblock
noria
noricum
norma
normal
normale
normali
normalida
norman
normande
normandes
normandia
normanes
normas
normes
normi
normida
norn
norsce
norsces
norte
north
northern
northumbria
norway
nos
nosa
nose
nosi
nosiva
nosotros
nostos
nostra
nostre
nostri
nostro
not
nota
notabile
notable
notables
notada
notal
notante
notario
notas
note
notes
nothing
noti
notre
noturna
nou
noume
noun
nouns
nous
nouveau
nouvelle
nova
novas
nove
novel
novela
novelas
noveleta
noveliste
novelor
november
novembre
novesento
novgorod
novi
novial
novo
novus
now
noyon
noza
nozas
nozes
nozeto
nozo
np
npakamawe
npakamu
npo
nr
ns
nsa
nsdap
nsm
nt
nta
nte
nter
ntsh
ntshagetsgwaʔ
nu
nube
nubes
nubia
nuca
nucleal
nucleo
nucleos
nucleotidos
nuda
nudia
nue
nueche
nuera
nuestra
nueva
nuevo
nui
nuit
nuka
nul
nula
nuli
null
nulo
num
numa
numancia
numansia
numantia
numantian
numantianes
numantinos
numbers
nume
numeno
numeral
numerida
numero
numeros
numerosa
numica
numitor
numun
numuna
nun
nuna
nunavut
nunca
nuo
nuova
nup
nur
nurages
nural
nuremberg
nuri
nurida
nurinte
nurintes
nus
nusa
nusen
nustr
nut
nutri
nuwo
nv
ny
nya
nye
nyee
nyeka
nyi
nyo
nyt
nyɔnu
nz
nzi
nɔ
nɔewo
o
oakley
oasis
oaxaca
ob
obama
obedi
obedinte
obelisce
obesa
obesia
obi
object
objeto
obl
oblast
oblastes
oblica
oblida
oblidada
obliga
obligada
obligante
obligas
obra
obras
observa
oc
occasion
occidental
occidentale
occidentali
occidente
occitan
occitane
occitano
ocde
oce
ocer
och
ochroma
oci
ocilis
ocipa
ocroxca
ocrug
ocruges
octavian
oculo
oculos
oculta
ocupa
ocupada
ocupante
ocupas
ocupores
od
oda
ode
odenato
oder
odes
odesio
odi
odia
odiada
odin
odio
odisea
odiseo
odja
odoacro
odor
odores
odorosa
odra
odul
oe
oeste
of
ofende
ofendeda
ofendente
ofendes
off
office
official
ofisia
ofisial
ofisiales
ofisiali
ofisias
ofisior
ofisiores
ofre
ofreda
ofrente
ofres
oftalmolojiste
ofte
often
og
ogam
ogg
oggiono
ogier
oguz
oh
ohio
ohthere
oi
oia
oiada
oietas
oif
oil
oileo
oinom
oio
oioi
oior
oios
oir
oirat
ois
oise
oisin
oj
oje
ojeta
ojetal
ojeto
ojetos
oji
ojibue
ok
oklahoma
oku
ol
ola
olaf
old
ole
oleaceae
olen
oles
olet
oli
oliang
oligarcia
oligosene
olimpial
olimpian
olimpo
olin
olio
olios
oliste
oliva
olivas
olive
oliveira
oliver
olivo
olivos
olkoon
olla
oller
olmo
olmos
olo
olocausto
ologisches
olosene
oluga
olvega
olympic
olympici
om
omaha
omar
omaro
ombilico
ombra
ombrida
omdat
omelas
omeostase
omerta
omes
omete
ometeda
ominidos
ominines
omiside
omisides
omisidor
omne
omni
omnibus
omniglot
omnipotente
omnipotios
omnisiente
omnivor
omnivores
omo
omofon
omofones
omojen
omonimia
omosesal
omosesales
omosesalia
omotica
oms
omu
on
ona
onca
oncas
once
oncida
onda
ondas
onde
ondos
onduras
one
onestia
oni
onion
oniones
onklo
onko
online
only
ono
onomatopea
onondaga
onor
onora
onorable
onorada
onoral
onorante
onoras
ons
ont
ontario
onze
oo
ook
ooli
oolkiłi
oor
oort
op
opa
open
opens
opera
operable
operada
operante
operas
opereta
ophile
opina
opinas
opine
opio
opla
oportun
oportunes
oportunia
oportunias
oposa
oposada
oposante
oposantes
oposas
oposor
oposores
oposum
oposumes
opperman
opresa
ops
opstelle
optativa
optica
opus
or
ora
oraculo
oral
orange
orangutanes
orania
oranias
oranje
oras
orbita
orbital
orbitas
orca
orcas
orcestra
orchestra
orcidea
orcideas
orco
orcos
orden
ordenanza
order
orders
ordina
ordinada
ordinal
ordinales
ordinas
ordines
ordos
ordovician
ore
orea
oreal
oreas
oreddy
oregon
orfan
orfanes
orfeo
org
organ
organa
organal
organeta
organica
organisations
organisme
organismes
organiza
organizada
organizante
organizas
organizations
organo
organos
organs
organya
orgulo
orgulosa
orhon
ori
oria
orient
orienta
orientada
oriental
orientale
orientation
origen
origin
original
originally
origini
origins
orijin
orijina
orijinal
orijinante
orijinas
orijines
orinoco
oriol
orion
oriteropo
orizon
orizonal
orizones
orjen
orkney
orle
orleans
orlo
ormon
ormones
orna
ornada
ornal
ornas
ornitorinco
ornosa
oro
orolojia
orolojo
orolojos
oromo
oror
orosa
orpimento
ortativa
orteos
orticultur
orticulturistes
ortodox
ortodoxa
ortodoxia
ortodoxisme
ortogonal
ortogra
ortografia
ortografial
orwell
orzo
os
osa
osaca
osan
osante
osborne
oscar
oscur
oscura
oscuri
oscuria
oseania
oserva
oservable
oservada
oservante
oservas
oserveria
oservor
oservores
oseta
osetia
osidi
osidinte
osido
osidos
osijen
osio
osiris
ositan
ositania
ositano
oslo
osma
osman
osmanan
osmanian
osmanianes
osmanli
oso
osos
ososa
ospita
ospitada
ospital
ospitales
ospitante
ospitia
ospitor
ospitores
oss
ostaculo
ostaculos
ostaje
ostajes
ostara
osteraic
osteraices
osteraiceses
ostia
ostras
ostrasidos
ostrobothnia
ostrogotos
oswald
oswego
ot
ota
otagon
otan
otavio
ote
otel
oteles
otenable
oteni
otenida
oteninte
otero
othello
other
oti
otica
otical
otimalisme
otimisme
otimiste
oto
otobre
otodes
otra
otras
otro
otros
otta
ottanut
ottawa
ottino
otto
ou
ouare
oude
ought
oul
our
ours
ous
out
oux
ov
ova
oval
ovarios
ovat
ovea
oveas
over
oveta
ovidio
oviedo
oviparinte
ovn
ovo
ovos
ow
owis
oxford
oy
oz
ozon
oɪ
p
pa
paarl
pablo
pac
paceta
pacetas
pacha
paci
pacific
pacioli
pacistan
packard
paco
pacos
padela
pademelon
pademelones
padral
padre
padres
padron
padronal
padrones
padua
paez
paga
pagan
paganes
paganisme
page
pages
pah
pahoa
pahtite
pai
paia
paiada
paiante
paideia
painted
pais
paises
paje
pajeria
pajerias
pajes
pajo
paju
pakam
pal
palace
paladio
palais
palante
palas
palasio
palasios
palatal
palatali
palatalida
palati
palatida
palato
palatovelales
palau
palazzo
palencia
paleoeuropean
paleojen
paleolitica
paleontolojia
paleosene
paleosibirica
paleozoica
palermo
palestina
pali
palia
pallars
pallas
palma
palmach
palmas
palmira
palmiran
palmyra
palo
palos
palpebra
palpebri
pam
pama
pamir
pamplona
pan
panama
panasionalisme
pancreas
panda
pandaro
pandemica
pandjab
pandjabi
pandora
pandorica
pane
panel
paneria
panes
pangea
pangermanica
pangolin
panica
pannonia
pano
panon
panonia
panorama
panoramio
panpsicisme
panromanica
panta
pantala
pantalas
pantalasa
pantaleta
pantaletas
pantalon
pantalones
pantan
pantanes
pantanosa
panteisme
panteiste
panteistes
panteon
pantera
panthera
panto
pantoqanto
pao
paolo
pap
papa
papal
papas
papavera
pape
paper
paperes
papes
papia
papiamento
papiamentu
papilio
papilios
papiro
pappi
papua
papuan
par
para
parabola
paracas
parada
parade
paradiso
parador
paradores
paradox
paragraf
paragrafes
paraguai
paralel
paraleles
paralise
parametres
paramilitar
parana
paranoica
parapluve
parario
pararios
parasital
parasito
parasitos
paratiroide
parce
parces
pardo
pardona
pardonas
pardonu
pare
parente
parentes
parentesi
pares
parfait
parfum
pari
paris
parise
park
parker
parkinson
parla
parlada
parladas
parlamental
parlamento
parlamentos
parlante
parlas
parle
parlen
parleta
parlor
parlores
parmenide
parocia
parocial
parocias
parocior
parodia
parola
parolas
parole
paroles
paroleta
paroletas
parolo
parque
parry
parsa
parsi
part
partager
partal
partales
parte
partement
parteni
parteninte
partenon
partes
parti
partia
partian
partianes
particle
particles
particula
particulas
particulo
particulos
partida
partidas
partido
partir
partisanes
partisipa
partisipante
partisipantes
partisipial
partisipio
partisipios
partisipor
partisipores
partitiva
partito
partitos
partnership
parto
parts
party
parvati
parvordina
parzival
pas
pasa
pasada
pasadas
pasado
pasaje
pasajeros
pasajes
pasajor
pasajores
pasante
pasaro
pasaros
pasatempo
pasatempos
pascal
pascua
pascual
pasea
paseante
paseas
paseria
paseriformo
pasi
pasiente
pasientes
pasifica
pasion
pasiones
pasionosa
pasisme
pasiste
pasiva
paso
pasos
pasosa
passe
passion
past
pasta
pastas
pastel
pasternak
pastetas
pasteur
pasto
pastor
pastoral
pastores
pastori
pastoria
pastos
pasts
pat
patagonia
patagonian
patajio
patajios
patata
patatas
patavium
patent
patenta
patentada
patentas
pater
patetic
pathetic
patini
patio
patios
pato
patojenes
patolojia
patolojial
patos
patre
patres
patria
patriarca
patriarcas
patriarcia
patriarcial
patric
patricio
patrick
patrilinial
patriota
patriotisme
patrisio
patrisios
patristes
patro
patroclo
patrulia
patxisi
pau
paul
paula
paulo
paundes
pausa
pausanias
pav
pave
paveda
pavel
pavilion
pavlov
pavo
pavon
pavos
pawley
pax
paxto
pay
payer
payez
payiez
payons
payot
pays
paz
paza
pazzi
pbs
pc
pcs
pcx
pd
pdf
pdu
pdx
pe
peace
peano
pearl
pearson
peca
pecas
pecosa
pecosia
pedal
pede
pedes
pedi
pedro
peele
peindre
peirce
pekka
pel
pela
peladon
pelayo
pele
peleliu
peleo
peler
peles
pelican
pella
pelo
peloponeso
pelos
pelosa
pelvis
pelvisal
pembroke
pemfigo
pen
penates
pende
pendeda
pendente
pendentes
pendiente
pendulo
pene
penelope
penes
penetra
penguin
penis
penisola
penisolal
penn
pennsylvania
penrose
pensa
pensada
pensante
pensas
pension
pensor
pensores
pentecostal
pentesilea
penutian
penyo
peon
peones
people
peoples
pepco
peper
peperon
peperones
pepin
per
pera
peral
peras
perca
perce
percunas
percute
perde
perdeda
perdente
perdes
perdida
perdona
perdre
pere
peregrina
peregrinas
peregrinores
peren
perene
perenne
perf
perfectiva
perfeta
perfeti
perfetia
perfetida
perfetisme
perfetiva
perfora
perforada
perga
pergamo
pergola
peri
perielio
perifera
periferal
periferia
periferial
perifrases
peril
periles
perilida
perilosa
perimetre
period
periodal
periodo
periodos
peristalsia
peritoneo
perla
perlas
perletas
perm
permajelada
permane
permanente
permea
permeable
permeante
permete
permeteda
permetente
permian
permica
permite
perne
pero
perosa
perpara
perpendicular
perrault
perro
pers
persefone
persegue
persegueda
persental
persento
persentos
perseo
persepable
persephone
persepi
persepida
persepinte
persepis
persia
persian
persianes
persiste
persistente
person
persona
personal
personalia
personalias
personality
personas
persones
personi
personida
persons
perspectives
perspetiva
perspetivas
perth
pertine
pertinente
peru
peruan
perugino
perun
pesa
pesante
pesas
pesca
pesetas
pesia
pesimisme
pesimiste
pesimistes
peso
pesos
pesosa
pessoa
pesta
pestada
pestas
peste
pesto
pet
petal
petar
peten
petenes
petenida
peter
peterburg
petersburg
peti
petida
petis
petit
peto
petra
petrarca
petras
petrea
petreles
petro
petrogrames
petrolio
petrovic
petrus
pex
pexa
pexerias
pexes
pexor
pexores
pez
pf
pg
ph
phaethon
philadelphia
philip
philippe
phillip
phillips
philosophical
philosophie
philosophy
phocoena
phoenix
phone
phonetic
php
physalus
physics
physiology
physis
pi
pia
piaget
piano
piazza
pica
picajelo
picante
picaria
picas
picasso
pices
pick
pico
picos
pictor
pictura
pidal
pidgin
pidna
pido
pie
pied
piemonte
piemontes
piemontese
piero
pierre
piet
pietas
pieter
pietro
pig
pigmento
pigmentos
pigmeo
pigmeos
pigra
pigria
pijin
pijines
pijon
pijones
pil
pila
pilada
pilas
pilato
piles
pilin
pilipina
pilipinas
pilo
piloral
piloro
pilote
pilotes
pim
pima
pin
pina
pinaculos
pinar
pinares
pinas
pine
pineal
pinel
ping
pingualuit
pinguin
pinguines
piniin
pino
pinos
pinson
pinsones
pinta
pintada
pinti
pintida
pintor
pinus
pinyin
pio
piolio
piolios
piotr
pipa
pipin
pira
piramide
piramides
pirandello
pirata
piratas
pirates
piratia
pirenaiche
pirene
pirineo
pirineos
piro
pirogi
piron
pirro
pisa
pisan
piscolithax
pisea
piseas
pisin
piso
pit
pita
pitagora
pitaka
pitcairn
pitman
piton
pittsburgh
pitur
pitures
piu
pius
pixa
piza
pizarro
pizas
pizza
pke
pl
placa
placas
place
placodermos
plaia
plaias
plaindre
plaire
plan
plana
planas
plancton
planes
planet
planeta
planetal
planetas
planning
plano
planos
plant
planta
plantada
plantal
plantas
planti
plantpedia
plants
plase
plasenta
plasental
plasentales
plasente
plaser
plaseres
plasir
plasma
plasmaferese
plasmodio
plastica
plata
plataforma
plataformas
platas
platdeutx
platihelminto
platino
plato
platon
platonica
platos
play
played
playing
plays
plaza
plc
ple
please
plein
plej
plen
plena
pleni
plenida
plesiosauros
plestosene
pleuvoir
pli
plia
pliable
pliada
plias
plinio
pliosene
plo
plomo
plora
plorante
plotino
plu
pluma
plumas
plumin
pluperfeta
plur
plural
plurales
plurali
pluralia
pluralida
pluralinte
pluralisme
plus
plutarco
pluto
pluva
pluve
pluvosa
plymouth
pm
pn
pneu
pneuma
pneumonia
png
po
poca
pocer
poco
podgorica
poe
poem
poema
poemas
poesi
poesia
poesial
poesias
poesior
poesiores
poesiste
poesistes
poeta
poetas
poetisa
poetry
pohjola
poil
poincare
point
poiret
poisson
poitiers
poka
pokorny
pol
pola
polal
poland
polari
poleis
polemicas
polen
poleni
polenida
polgar
poli
polibio
policy
polidamante
polidoro
poligon
poligones
polinesia
polinesian
polinesianes
polinomial
polio
polipo
polis
polisia
polisintesal
polisior
polisiores
polite
politeisme
politeiste
politica
political
politicas
politiciste
politicistes
politico
politics
politique
polo
polos
polpo
polpos
polsca
polsce
polsces
polso
poltavca
polux
polvida
polvo
polvos
polygram
poma
pomas
pomo
pomoan
pomos
pompa
pompadour
pompei
pompeii
pompeio
pompeu
pona
pondal
pondre
pone
poneda
ponente
poni
ponte
pontes
pontica
pontifex
ponto
pop
popa
pope
poperinge
popiaro
popla
poplada
popladas
poplal
poplas
pople
popli
poplida
poplo
popolo
popper
popula
popular
populares
populari
popularia
popularida
population
populus
por
porco
porcos
porcospina
porcospinas
pornografia
poro
porselana
port
porta
portable
portada
portafeno
portamone
portamones
portante
portas
portaseno
portasenos
porte
portes
porth
portico
portland
porto
portogallo
portoghese
porton
portones
portor
portores
portos
portrait
portucalense
portugal
portuges
portugeses
portugues
portuguesa
pos
posa
posable
posablia
posalveolal
posas
posclasica
pose
posedon
poseidon
posesa
posesal
posese
poseseda
posesedas
posesente
poseses
posesivas
posesor
posesores
posglasial
posgraduada
posi
posible
posibles
posiblia
posidon
position
positiva
positivisme
posmedia
posmodernisme
posmori
poso
posos
pospone
posponeda
posponedas
posposada
posposadal
posposadas
posroman
post
posta
postal
poster
posterior
posto
postos
postraumal
postumo
pota
potasio
pote
potensia
potensial
potensias
potential
poti
potia
potias
potiosa
potiosas
potsdam
potsdamer
potter
pou
pouille
poultney
pound
pour
pourtant
pouvoir
poux
povre
povres
povria
powell
power
pox
poxe
poxes
pozo
pp
pr
pra
practice
pradesh
prado
prados
pragmatica
praha
prami
prat
pratica
praticada
pratical
praticalisme
praticas
praticores
pratique
praxeus
pre
prea
preambul
preas
precolonial
precristian
preda
predas
predestina
predeterminantes
predeterminisme
predica
predical
predicas
predicativa
predis
predisable
predise
prediseda
predises
predor
predores
preesistente
prefas
prefasa
preferable
prefere
prefereda
preferente
preferes
prefetia
prefeto
prefetura
prefis
prefisa
prefisada
prefisas
prefrontal
pregraduada
prehistoria
preindoeuropean
preistoria
preistorial
prejudi
prejudis
preleteratural
preliminary
prematur
premia
premio
premios
premostra
premuslim
prende
prendeda
prendente
prendre
prenom
prenomes
prensil
prentice
preocupa
prepara
preparada
preparante
preparas
preposada
preposadal
preposadas
prepronomal
preroman
presa
presada
presas
presbiterian
prescrive
prescriveda
presede
presededa
presedente
presedentes
presedor
presedores
presendente
present
presenta
presentada
presentante
presentas
presente
presentia
presentor
preserva
preservada
preside
president
presidental
presidente
presidentes
presidentia
presidio
presipe
presipes
presipita
preso
presocratal
press
presses
presta
prestada
prestas
prestijia
prestijiosa
prete
preteme
pretes
pretia
pretoria
pretorio
pretty
prevenable
preveni
prevenida
preveninte
preverbo
preverbos
previdable
previde
prevideda
previdor
previdores
pri
priamo
price
priest
prim
prima
primador
primadores
primal
primary
primas
primates
primavera
prime
primer
primeria
primero
primeval
primi
primida
primitiva
primitivas
primo
primores
prince
princeps
princeton
principado
principes
principles
prinse
prinses
prinsesa
prinsia
prinsias
prinsipal
prinsipe
prinsipes
prinsipia
prior
priori
pripiat
prise
prisma
prison
prisones
prisoni
prisonida
prisonidas
pristina
priva
privada
privata
privatia
pro
proa
proba
probable
probablia
probablias
probably
probada
probas
problem
problemas
problemes
problemosa
problems
proclama
proclamada
proclamas
proconsul
procopio
production
produi
produida
produidas
produinte
produis
produor
produores
produosa
produosia
profesa
profesal
profesas
profesor
profesores
profeta
profetas
profil
profit
profita
profitante
profitas
profitosa
profonda
profondas
profondia
profunda
profundia
profundo
prognose
program
programa
programal
programas
programes
programi
programida
programores
progresa
progresante
progresiste
proibi
proibida
project
projenia
projeta
projetada
projetas
prolativa
promedia
promete
prometeda
prometes
prometheus
promiscua
promove
promoveda
promovente
promoves
promovor
promovores
pron
proni
pronom
pronomal
pronome
pronomes
pronouns
pronto
pronunsia
pronunsiada
pronunsias
propaganda
propatajio
propensa
propensada
propensas
propiores
proportial
proportio
proportios
proposa
proposada
proposal
proposante
proposas
propra
propre
propri
propria
proprias
proprida
proprior
propriores
propulsa
propulsada
propulsante
prosa
prosal
prosedador
prosede
prosededa
prosedente
prosedes
prosegues
proserpina
prosima
prosimi
prosimia
prosiminte
prosimis
prostitui
prostituida
prostituidas
protagoniste
protagora
protea
proteje
protejeda
protejedas
protejente
protejor
protejoria
protena
protenas
protende
protendente
proterozoica
protesta
protestante
protestantes
protestantisme
protestantiste
protestas
protestores
protista
protistas
proto
protoalgoncian
protobalgares
protocelta
protocol
protocoles
protodravidian
protogermanica
protoindoeuropean
protoindoeuropeanes
protolingua
protolinguas
protomaia
proton
protones
protoslavica
prototipal
prototipo
prototipos
protouralica
proud
provence
provensal
provenzale
proverbos
providence
providenciales
province
provincia
provinsal
provinse
provinses
provinsia
provinsial
provoca
provocada
provocante
proxi
proxima
prt
prunas
pruno
pruri
prus
prusen
ps
pseudo
psice
psiciatria
psiciatrial
psiciatriste
psiciatristes
psicoanalise
psicoativa
psicofarmacolojia
psicolinguistica
psicolojia
psicolojial
psicolojiste
psicolojistes
psicopatolojia
psicose
psicosica
psicoterapia
pst
psu
psychology
pt
pterosauros
ptolemean
ptolemeo
pu
public
publica
publicada
publicas
publications
publici
publicida
publicis
publicor
publio
publique
publisher
publishers
publishing
pucelle
pudu
pueblo
pueblos
puer
puero
puerto
puhu
puhunut
puia
puiada
pulgas
pulitzer
pullman
pulmon
pulmonal
pulmones
pulsa
pulsas
pum
puma
pun
punc
puni
punica
punicas
punida
punio
punis
punjab
punt
punta
puntal
puntas
puntida
punto
puntos
puntua
puntual
pup
pupa
pupetas
pupetin
pupil
pur
pura
pure
purepetxa
purga
purgatorio
puri
puria
purida
puritan
puritanes
purpur
purpures
pus
pushis
pushisa
pushkin
put
puta
putamen
putin
putong
putri
putrida
puxa
px
pyongyang
pyramids
q
qa
qahira
qali
qanto
qaqeew
qasi
qe
qi
qia
qiang
qin
qing
qiu
qo
qojo
qoka
qolo
qomode
qope
qotem
qu
qua
quake
qual
quale
quales
quam
quan
quand
quando
quant
quar
quarter
quatre
que
quebec
quechua
queen
queensland
queiles
queiroz
quelli
quello
quem
quentin
quenya
questi
questo
quevedo
qui
quickly
quie
quijote
quikscript
quimby
quin
quintana
quinto
quintus
quite
quito
quixote
quo
quoi
qwe
r
ra
rabat
rabelais
rabi
rabie
rabin
rabis
race
rache
rachel
racine
raconta
racontada
racontas
rada
radar
radia
radiante
radical
radio
radioativa
radiocarbonal
radioiodo
radis
radisal
radises
rae
raes
rafael
rafaello
ragnarok
ragu
ragusa
rahman
rai
rail
railway
rainbow
raio
raion
raios
raiosa
raja
rajasthan
ral
raleigh
ralph
ram
rama
ramayana
rametas
rami
raminte
ramis
ramnes
ramo
ramon
ramos
rampa
rampe
ramu
rana
ranas
rance
rand
random
rani
rank
ranti
ranur
ranures
ranurida
raoul
rap
rapa
rapida
rapide
rapidemente
rapidi
rapidia
rappeler
rara
rard
rare
raria
rarida
ras
rasa
rasas
rasca
rascasielo
rascasielos
rascia
rashi
rashid
rasional
rasmus
rasolnic
rat
rata
ratas
ratel
rather
ration
rattus
rau
raven
ravenna
rawson
ray
raymond
raynaud
raza
razal
razas
razisme
raziste
razona
razonable
razonada
razonal
razonalisme
razonaliste
razonante
razonas
rbol
rd
rdd
rdor
rdpc
re
rea
read
reading
reafirma
real
reales
reali
realia
realias
realida
realis
realisme
realiste
realistes
reapare
reas
reata
reatante
reatas
reatosa
rebela
rebelante
rebelas
rebelores
rebels
rebus
rec
recambia
recambiada
recambiante
recatura
reclama
reclamada
reclamas
reclina
reclinante
recolie
recolieda
recolies
recoloni
recombina
recomenda
recomendada
recomensa
recompensa
recompensada
recompensas
reconcista
reconnai
reconosable
reconosablia
reconose
reconoseda
reconosente
reconsidera
reconsilia
reconstrui
reconstruida
reconstruis
reconta
recontas
recorda
recordada
recordante
recordas
recordo
records
recorente
recovre
recovreda
recrea
recreal
recurso
recursos
red
rede
redes
redescovre
redescovreda
redirije
redise
redistribui
redona
redonada
redonda
redui
reduida
reduinte
reduisme
reduiste
redupli
reduplida
reelejeda
reemerji
reenvia
reevalua
refere
refereda
referendo
referendos
referente
referes
referi
refina
refinada
refl
refleta
refletada
refletante
refletas
reflexe
reflexes
reform
reforma
reformas
reformi
reformida
reformis
reformiste
reformor
reformores
reformula
reforti
refortida
refortinte
refortis
refuja
refujada
refujadas
refujeria
refundi
refusa
refusada
refuta
reg
regala
regania
reganiada
regarda
regardada
regardante
regardor
regardores
rege
regilo
regina
regio
region
regional
regius
regla
reglas
regne
regno
regnum
regresa
regrete
regte
regula
regulada
regulal
regular
regulas
regum
rei
reia
reial
reich
reims
reina
reincarne
reine
reino
reinstitui
reinstituida
reintrodui
reintroduida
reinventa
rejenera
rejeta
rejetada
rejetante
rejimento
rejimes
rejio
rejion
rejional
rejiones
rejistra
rejistrada
rejistras
rejunta
reklai
rel
relasa
relasada
relata
relatada
relatadas
relatal
relatante
relatas
related
relativa
relativia
relativisme
reles
releva
relevante
relevas
religio
religion
religiosas
religious
relijial
relijio
relijion
relijios
relijiosa
relijiosas
relijiosia
relijo
reloca
relocali
rem
rembrandt
remedia
remediada
remedias
remente
remete
remi
remitte
remo
remos
removed
ren
rena
renada
renaissance
renaixenc
renal
renante
renara
renart
renas
renasa
renase
renaseda
renato
renaud
rencontra
rendre
rene
renes
renfrew
reni
renia
renier
reno
renomi
renomida
renor
renores
renos
renovable
renovi
renovida
renunsia
renuri
reocupa
reorganiza
rep
repaia
repara
repartiment
repas
repenti
repentor
repetada
repete
repeteda
repetente
repetes
repin
replica
repone
reponeda
reponente
repopli
report
reporta
reportada
reportas
reportor
reposa
reposante
reprende
represa
represada
representa
representada
represental
representante
representas
represente
representor
representores
reprodui
reproduida
reproxa
repu
repubblica
republic
republica
republican
republicas
republicisme
republiciste
republicistes
repulsa
repulsante
reputa
reputada
res
rescate
rescu
research
resen
resente
reserva
reservada
reservas
reseta
resetada
resetadores
resetante
resetas
resetor
resetores
resiclida
resife
resifes
resina
resinas
resinia
resiproca
resiprocal
resista
resistante
resiste
resistente
resita
resitada
reso
resolution
resolve
resoma
resomada
resomas
resona
resonante
respeta
respetada
respira
respiral
responda
responde
respondente
respondes
responsabilia
resposi
resta
restablinte
restada
restante
restas
restora
restorada
restorante
restorantes
restore
restrinje
restrinjeda
restrinjente
restrinjes
restruturi
restruturida
resulta
resultante
resultas
reta
retalia
retangulo
retangulos
retarda
retardada
reteni
retenida
reteninte
retia
retica
retiche
retil
retiles
retina
retinal
retinol
retira
retirable
retirada
retirante
reto
retoric
retorica
retorical
retoriciste
retoromanica
retortillo
retrae
retraeda
retrieved
retro
retroflexe
retrogradal
retrosede
retrova
return
reumatica
reumatoide
reuni
reunida
reunion
reuniones
reunis
reusa
reusada
rev
revade
reve
revela
revelada
revelante
revelas
revelation
reveni
reveninte
revenu
revenus
reversa
reversada
reversi
revide
review
revinuesa
revisa
revisada
revisas
revised
revista
revistas
revisteta
revive
reviveda
revives
revolt
revolta
revoltas
revolui
revoluinte
revoluis
revoluiste
revolution
revue
reworking
rex
rexerca
rexercada
rexercante
rexercas
rexercor
rexercores
rexurdimento
reyes
reykjavi
rez
rfd
rg
rgb
rgovis
rh
rhetoric
rhode
rhone
ri
ria
riable
rial
riba
ribbentrop
ribofuranosyl
ribonucleal
ribos
ric
rica
ricardo
ricas
rice
rich
richard
richmond
rici
ricia
ricias
ricida
rico
rid
ride
rider
ridge
ridim
rie
rieta
rietas
rieur
rieure
rig
riga
right
rightarrow
rights
rigor
rigveda
rija
rijida
rijidia
rijn
riku
rima
rimada
rimante
rimbaud
rin
rinco
rinen
ring
rings
rinosero
rinoseros
rio
rioja
rios
rippert
ris
risa
risc
risca
riscas
riscosa
rise
ritchie
ritmo
ritmos
ritual
rituales
rituas
rituo
rituos
ritz
riva
rivas
river
rivera
rivergrove
rix
rizofora
rizoforas
rk
rka
rmt
rn
ro
road
roald
roatan
roba
robas
robbia
robert
roberto
roberts
robespierre
robin
robinia
robins
robinson
robot
robotes
robots
roc
roca
rocas
rocetos
rochester
rock
rococo
rocos
rocosa
rod
roda
rodas
rode
rodente
rodentes
rodes
rodesia
rodri
rodrigo
rodrigues
roe
roger
rogers
roi
roig
roja
rojas
roji
rojin
rojo
rol
rola
rolada
roland
rolante
roles
roll
roly
rom
roma
romain
romaine
romaines
romaji
roman
romana
romanc
romance
romane
romanes
romani
romania
romanian
romanianes
romanica
romanid
romanida
romanis
romano
romanos
romans
romanse
romanses
romantica
romanticisme
romanticiste
romanticistes
romanum
romanus
romanza
romanze
romanzo
rome
romeo
romney
rompe
rompeda
rompente
rompetesta
rompetestas
romulo
ron
ronald
ronca
rond
ronda
rondi
rondida
rondin
roo
rooney
roosevelt
rorcual
rorcuales
ros
rosa
rosaceae
rosali
rosario
rosas
rosci
rose
rosenberger
rosin
rosio
roskilde
ross
rossen
rossi
rosta
rostada
rostov
rota
rotas
roti
rotifero
rotir
rotterdam
rouen
rouge
rouran
rousseau
roussillon
routledge
row
rowan
rowley
rowling
roy
royal
rozzi
rp
rr
rra
rris
rru
rs
rsml
rt
rterbuch
ru
rua
ruanda
ruas
ruba
rubens
rubi
rubic
rubik
rubio
rudolf
rudolph
rue
rueta
ruetas
rufio
rufo
rugbi
rugby
ruido
ruina
ruinada
ruinante
ruinas
ruiz
rukh
rule
rumans
rumi
run
runa
runas
runeberg
rung
rural
rus
rusa
rusalem
rusce
rusces
rusenso
rushd
rusia
russel
russell
russia
russian
rut
ruta
rutebeuf
rva
rw
ry
rð
s
sa
saari
saarland
saba
sabe
sabeda
sabente
saber
sabes
sabia
sabinas
sabines
sabir
sabor
sabores
saborida
saborosa
sabota
sabre
sabres
saca
sacada
sacagawea
sacartvelo
sacas
sach
sachsen
saco
sacos
sacrifia
sacrifiada
sacrifias
sadat
safo
saga
sagarmata
sagas
sage
sagesse
sagio
saguna
saha
sahalin
sahara
saharan
sahel
saian
said
saigon
sailor
saint
sainte
saints
sais
saisi
saisida
saisnes
saison
saisonal
saisones
saja
sajas
saje
sajia
sajias
sajo
sakmann
sal
sala
salada
salade
saladin
salai
salamanca
salario
salarios
salas
salazar
salda
sale
salem
sales
saleta
salida
salin
salisbury
saliva
salival
salivan
salix
sally
salmo
salmon
salmones
salmos
salomon
salon
salone
salones
salosa
salosia
salpetriere
salsa
salsas
salse
salsix
salsixes
salt
salta
saltante
saltas
salustio
saluta
salute
salva
salvada
salvador
salvante
salvor
salzburg
sam
sama
samara
samaritan
samba
sambar
sambuco
same
samhain
sami
samnita
samnitas
samo
samoa
samoan
samoanes
samodeica
samos
samotracia
sample
samples
sampo
samuel
samurai
san
sana
sanchez
sancho
sanct
sanctuary
sandales
sandaue
sandro
sandy
sang
sango
sangual
sangue
sangui
sanguosa
sani
sania
saninte
sanjak
sano
sans
sanscrito
sant
santa
santana
santas
sante
santeria
santerias
santi
santia
santiago
santida
santo
santorini
santos
sanzio
sao
sapato
sapator
sapatores
sapatos
sape
sapiens
sapiente
sapmi
sapo
saponi
sar
sara
sarah
sarajevo
saraseno
sarasvati
saraswati
sarcis
sarcofago
sarcoidose
sarda
sardinas
sardinia
sardinian
sardinianes
sardo
sargon
sarmatian
sarmatianes
sarpedon
sarrau
sarstoon
sartre
sas
sasafras
sasanan
sasananes
sasanian
sasia
sasiada
sasiante
saskatchewan
sason
sasones
sasonia
sat
satan
satchmo
satelite
satelites
satelitin
satem
satira
satiras
satura
saturada
saturdi
saturno
saudi
saule
sauna
sauniere
sauropodos
saussure
sava
savages
savaje
savajes
savana
savanas
save
savoir
saxe
saxo
saxon
saxons
say
sc
scafal
scala
scalas
scalera
scaleras
scalpo
scama
scamandro
scamas
scamosa
scandalosa
scandinavia
scandinavian
scandinavianes
scane
scania
scanse
scappoose
scarabe
scarabes
scaramuxa
scaramuxas
scarlata
scarus
sce
sceletal
sceleto
sceletos
scema
scemas
scere
scermo
scermos
scha
schans
sche
scheele
schema
schengen
schiaparelli
schiller
schipfer
schleicher
schleswig
schliemann
schloss
schmid
schmitt
scho
scholz
school
schopenhauer
schrunk
schulten
sci
science
sciences
scientific
scientist
scikeo
sciko
scipio
scitia
scitian
scitianes
scizofrenia
sclavi
sclavia
sclavida
sclavin
sclavo
sclavos
sclerodatilia
scleroderma
sclerose
sco
scola
scolal
scolas
scolastica
scolor
scolores
scopeto
scopinte
scopo
scorpion
scorpiones
scotes
scotia
scotland
scots
scott
script
scrive
scriveda
scrivedas
scrivente
scrives
scriviste
scrivor
scrivores
scuadron
sculta
scultas
scultetas
scultor
scural
scurales
se
sea
seal
seamus
search
searight
seattle
sebastian
sebosa
sebuano
sec
seca
seci
secia
secida
seco
second
secondo
secondos
secret
secreta
secretas
secrete
secreteria
secretes
secretor
sector
secular
secularisme
secuoia
secur
securi
securia
securida
securinte
securipolsos
security
secute
sed
seda
sede
sededa
sedente
sedes
sedges
sedro
sedui
see
seeds
seek
seeman
sefalopodo
sefalopodos
sefardi
segal
segeda
segovia
segregada
segue
segueda
seguente
seguentes
segues
segun
segundo
seguor
seguores
sei
seina
seine
seja
sejas
sejon
sekediwa
seki
sel
selacanto
selacantos
selaco
selacos
selcup
selcupes
selebra
selebrada
selebrante
selebras
selected
selene
seleri
seleucan
seleucanes
seleucia
seleuco
self
seli
selo
selos
selula
selulal
selulas
selulite
selva
sem
semana
semanal
semanas
semantic
semantica
semantical
sembla
semblante
semble
seme
semes
semetero
semeteros
semi
semiacual
semida
seminal
seminario
seminomada
semiotica
semipresidental
semirefletante
semiseca
semisirculo
semita
semitica
semivocal
semivocales
semper
sempre
sempreverde
sen
sena
senas
senato
senator
senatores
senatus
sene
seneca
senegal
senerela
senes
senesentes
senet
senglar
senglares
seni
senida
senior
seniora
seniores
seniorisme
seno
senos
senozoica
sens
sensa
sensada
sensal
sensante
sensas
sense
senso
sensoral
sensosa
sensosia
sensura
sensuror
sensurores
sent
senta
sentada
sentani
sentante
sentauro
sente
sentence
sentenio
sentenios
sententio
senti
sentida
sentim
sentimetres
sentinte
sentir
sentis
sento
sentos
sentra
sentrafrica
sentral
sentralida
sentri
sentrida
sentriol
sentrisme
sentriste
sentro
sentromero
sentros
seo
seoul
sep
separa
separada
separadiste
separante
sepawa
sepe
sepic
sepida
september
septimania
septimio
sequeira
sequel
sequels
ser
sera
seramica
seramicas
serano
serbia
serbo
serbsce
serbsces
serca
sercas
sereal
sereales
serebral
serebreta
serebro
serebros
serebrospinal
serer
serfos
sergei
sergio
seri
seria
serial
serie
series
serifes
seriso
sermo
sermon
sermones
sermonor
sero
serotonina
serpe
serpente
serpentes
serpentin
serra
serrano
serta
serti
sertia
sertida
sertorio
servador
servadores
serve
servi
service
services
servida
servinte
servintes
servio
servir
servis
servo
servor
servores
servos
ses
sesa
sesal
sesalia
sesaspara
sesclo
sesdes
sese
sesi
sesia
sesion
sesiones
sesioni
sesionida
sesisme
seso
sesos
sessento
sesto
sestos
set
seta
setal
setas
setaseo
setaseos
setasios
sete
setedes
setembre
seti
setica
seticisme
seto
setor
setos
setro
seule
seun
sevastopol
seven
sever
several
severia
severo
sevilla
sex
sexeles
sexelua
seya
seychelles
sfa
sfeniscus
sfera
sferas
sfero
sferos
sfinje
sfinter
sfm
sforza
sfumato
sg
sh
sha
shaanxi
shaftesbury
shah
shahrazad
shakespeare
shall
shan
shandong
shang
shanghai
shanxi
shatranj
shaw
shawqi
she
sheehan
sheep
sheheke
shelley
shelta
sherlock
sherwood
shetland
shi
shift
shippensburg
shirley
shit
shiva
shocking
shoes
shogi
sholokhov
shore
short
shot
should
show
shtetl
shu
shui
si
sia
sian
sianobateria
siawo
sibe
sibelius
sibernetica
siberomes
sibila
sibir
sic
sica
sicadas
sices
sichuan
sicisme
sicle
sicles
siclisme
siclo
siclon
siclones
siclos
sicut
siddhartha
side
sidia
sido
sidwell
sie
sieca
siecia
sieculos
siege
siegfried
siel
sielal
sielo
sielos
siemi
siena
sienkiewicz
siensa
siensal
siensas
siensia
siensial
siensias
siensiste
siensistes
siera
sieras
sierra
sif
sifra
sifri
sigar
sigareta
sigaretas
sigismund
siglo
sigmoide
sigmund
sigrdri
sigrdrifa
sigrid
sigurd
siil
sik
sikh
sil
sila
silaba
silabal
silabario
silabarios
silabas
silas
silence
silente
silenti
silentia
silia
silica
silicon
silindre
silios
silla
silueta
silurian
silva
silver
sim
sima
simbales
simbiosica
simbol
simbolal
simbole
simboles
simboli
simbolida
simbolin
simbolisme
simetre
simetria
simi
simia
simias
simil
simila
simile
similes
simili
similia
similias
simo
simon
simone
simpatia
simpatiosa
simple
simpli
simplia
simplicissimus
simplida
simplifita
simultan
simwana
sin
sina
sinagoga
sinai
sinapse
sinapses
sinbad
since
sinci
sinclair
sinco
sincodes
sincosento
sindarin
sindi
sindicatisme
sindicatiste
sindicato
sindicatos
sindrom
sindromes
sine
sinema
sinemas
sinemiste
sinfiante
sing
singapor
singer
singh
single
singles
singulal
singular
singulares
singularia
sinhala
sinia
siniada
sinial
siniales
siniali
sinias
sinica
sinicas
sinicisme
sinie
sinies
sinieta
sinietas
sinifa
sinifia
sinifiante
sinifias
sinifiosa
sinistra
sinistriste
sink
sino
sinonim
sinonimes
sinope
sinopia
sinotica
sinsera
sint
sintagma
sintagmas
sintas
sintatica
sintatical
sintaxta
sinterklaas
sintesal
sintese
sinteseda
sintil
sintom
sintomes
sintra
sintur
sinu
sinun
sinus
sio
sion
sionisme
sip
siperos
sipres
sipreses
sipunculos
sir
sira
siracha
siracusa
sirca
sircante
sirco
sircoflexe
sirconaviga
sircuito
sircuitos
sircula
sirculi
sirculo
sirculos
sirenas
siria
sirurjia
sirurjial
sirurjiste
sirurjistes
sis
sisa
sisel
siseli
siselida
siselidas
sisifo
sisilia
sisilian
sisilianes
sisor
sistem
sistema
sistemal
sistemes
sistemi
sistemosa
sistems
sister
sistina
sit
sita
sitada
sitadan
sitadanes
sitadania
sitadela
sitas
site
sites
sitio
sitizanes
sitocina
sitocinas
sitolojia
sitoplasma
sitra
sitting
situa
situada
situal
situas
situida
siu
sivil
sivila
siviles
sivilia
sivilias
sivilida
six
sj
sjo
sk
ska
skadi
skaill
skaldes
skaldskaparmal
skamma
skara
skatkis
skaði
ski
skinner
skirnir
skolo
skopje
sky
skywalker
slave
slavery
slavica
slavicas
slavonica
sle
sleep
sligo
slik
slogan
slovacia
slovenia
slovenian
slovenianes
slovensce
slovensces
slovensco
sloviansce
slovianto
sm
small
smetana
smile
smilodon
smilodones
smirna
smith
smo
smuts
sn
sneguroxca
snorri
snowmen
so
sobre
sobrin
sobrina
sobrines
sobrino
social
socie
sociedad
society
soco
socratal
socrate
socrates
sodio
sodomia
sofa
sofia
sofie
sofiste
sofistes
sofistica
sofisticada
sofito
sofla
sofoca
sofocada
sofocle
soft
sogdian
soia
soiu
sol
sola
solal
solana
solari
sold
soldata
soldatas
soldato
soldatos
soldi
soldis
sole
soler
soles
solianca
solida
solidi
solidia
solidida
solisita
solitar
solitaria
solitreo
solo
solomon
solon
solorio
solos
solosa
solresol
solstisio
solstisios
soltera
soltero
solutrean
solvable
solve
solveda
solves
solvi
solzhenitsyn
som
soma
somali
somalia
somas
sombre
some
somerville
somme
somni
son
sona
sonante
sonas
sonda
sondas
sonetos
song
songai
songs
sonia
sonias
sonja
sons
sonsorol
sontaran
sony
soon
sopa
sopas
sophie
sor
sorbo
sorbonne
sorda
sore
soreria
sores
sorgo
soria
sorian
sorianisme
soriano
soror
sorsor
sorsores
sorsoresa
sorsoria
sorti
sortinte
sortir
sosia
sosial
sosialisme
sosialiste
sosialistes
sosias
sosiobiolojia
sosiobiolojial
sosiobiolojistes
sosioeconomial
sosiolojia
sosiolojial
sosiolojiste
sosiolojistes
soter
sotillos
soto
sou
soul
soup
south
sov
soviet
sovietes
soweli
soy
soyinka
sp
spa
space
spada
spadas
spageti
spagna
spagnola
spagnolo
spain
spala
spalas
spanish
spara
sparta
spartan
spartanes
spasial
spasio
spasios
spasiosa
spasiotempo
spasma
spasmas
spe
speak
speaking
special
species
spectrum
speech
speer
spele
speleda
speles
speling
spell
spelling
spencer
spende
spendeda
spendes
spengler
sperde
sperdeda
sperdente
sperma
spermas
spesa
spesi
spesia
spesial
spesiali
spesialida
spesialis
spesialiste
spesialistes
spesias
spesie
spesies
spesifa
spesifada
spesifas
spesifiada
spetaculo
spetaculos
spetral
spetro
spia
spiegelberg
spigas
spina
spinal
spinas
spinax
spinos
spinosa
spinoza
spior
spiral
spirales
spirital
spiritalia
spirito
spiritos
spise
spises
spisosa
spit
spla
spleno
split
spokil
spondilite
spondilo
spondilos
sponjes
sponsor
sponsoria
spontan
spontane
sporas
sporte
sportes
spos
sposa
sposable
sposal
sposas
sposes
sposi
sposia
sposida
sposis
sposo
sposos
spot
spra
sprachbund
springfield
sputa
sqa
square
sr
sra
sranan
sredny
srfl
sri
srilanca
srubna
sry
srɔ
ss
ssa
sse
ssma
st
sta
stabilia
stable
stabli
stablia
stablida
stadio
stadion
stadios
staircase
stairs
stajia
stajiada
stajior
stalin
staliniste
stamford
stan
stand
standard
stanford
stange
stangerson
stania
stanio
stanley
stante
stap
star
starc
stare
start
stasion
stasiones
stat
statal
state
staten
states
statia
statica
statical
station
statiste
statistica
statistical
statisticas
statisticistes
statistics
stativa
stativas
stato
statos
status
ste
steel
steenbergen
stefan
stein
steinbach
steinbeck
steiner
steinmeier
stela
stelal
stelas
stenden
stendhal
stenografia
stensil
step
stepe
stepes
stephen
stereotipos
steril
sterili
sterne
sternhalma
steroides
steven
stevens
stevenson
sti
stica
stico
sticos
stilida
still
stilo
stilos
stimula
stimulada
stimulante
stimulas
stix
sto
stoa
stockholm
stofa
stofas
stog
stoic
stoica
stoicas
stoicisme
stoicistes
stoker
stolen
stomaco
stona
stonada
stonante
stone
stonehenge
stones
stop
storia
stories
stornui
story
str
stra
strabo
strada
stradas
strana
stranjer
stranjeres
stranjeri
strasbourg
stratego
stratejia
stratejial
stratejias
strati
stratida
strato
stratos
stratosfera
strauss
street
streeter
stresa
streta
stretas
stribo
strofe
strofes
structures
strumenta
strumental
strumento
strumentos
strutur
strutural
struturalisme
strutures
struturida
stu
stuart
stude
studen
studentes
students
studi
studia
studiada
studiante
studiantes
studias
studien
studies
studio
studiosa
study
stumpf
stupida
sturion
sturluson
sturm
stuttgart
stutures
su
sua
suacuan
suahili
suais
suartica
suaspetas
suastica
suatomal
suave
suaverbo
suavi
suazi
suaziland
sub
subfamily
subita
subject
subjonctif
sublima
suburban
suburbe
suburbes
suca
sucampo
sucampos
such
suclase
suconsensa
sucontinente
sucre
sucultur
sucultures
sucutanea
sud
suda
sudafrica
sudafrican
sudafricanes
sudan
sudani
sude
sudevelopada
sudivide
sudivideda
sudivides
sudre
sudui
sue
sueba
suebas
suellacabras
suetonio
sufamilia
sufamilias
sufilo
sufisa
sufisada
sufisas
sufises
sufisi
sufisinte
sufri
sufrida
sufrinte
sugrupo
sugrupos
sui
suindise
suisida
suiside
suisidente
suit
suiz
sujesta
sujestada
sujestante
sujestas
sujeste
sujesteda
sujestente
sujestes
sujetal
sujeto
sujetos
sujunta
sujuntal
sujuntas
sujuntiva
sul
sula
sulauesi
suli
sulla
sully
sulpice
sultan
sultania
sultanias
sum
suma
sumaco
sumatra
sumatran
sumer
sumeres
sumerianes
sumerji
sumerjida
sumerjor
summa
sumodo
sumundo
sun
sunda
sundjata
sung
suni
sunis
sunnah
suno
sunt
suo
suomi
suomis
suordina
suordinada
suordinante
suordinas
super
superego
superficie
superior
superiores
superioria
superlativa
superordina
superstisio
superstisios
supina
suplica
suplicante
suplicas
suporta
suportada
suportante
suportas
suportor
suportores
suposa
suposable
suposada
suposas
supra
supracomputador
supracontinente
supraego
supraelise
suprafamilia
suprafas
suprafilo
supraindise
supranatural
supraordina
suprapasa
suprapasada
suprapasante
suprapone
supraponeda
supraponente
suprapopla
suprarenal
suprasiles
suprastrato
supraumana
supravide
supravive
suprema
supremia
supresa
supresada
supronom
suproposa
suproposas
sur
sura
surdimientu
surealiste
surfa
surfador
surfas
surfasal
surfases
suri
suria
surie
suriname
surprende
surprendeda
surprendente
surprendre
suru
survide
survive
survivente
surviving
survivor
survivores
sus
susaharan
susan
susana
suscrive
suscriveda
suscrivores
susede
susededa
susedente
susedentes
susedes
susedor
susedores
susedosa
susia
susiste
suspende
suspendeda
suspesie
suspesies
suspeta
suspetada
sussex
susta
sustable
sustantia
sustantial
sustantias
sustantivo
sustantivos
sustitua
sustitui
sustituida
sustituinte
sustituis
sustratal
sustrato
sustratos
susu
suteninte
sutera
suteran
suteto
sutil
sutiles
sutra
sutrae
sutraeda
sutraente
sutraes
sutral
sutras
sutropical
sutta
sutton
suu
suventa
suverti
suvertida
suvestes
suyu
svan
svensce
svensces
sveria
sveti
svevo
svg
svo
sw
swedenborg
swietenia
swift
swifterbant
sydney
symphony
synthesis
system
systema
systems
sz
szczecin
sɔ
sə
t
ta
taal
tabaco
tabebuia
tabla
tablado
table
tables
tableta
tabletas
tablut
tabor
tabu
tacanan
tacito
tacos
tad
tadi
tadjic
tadjici
tadjicistan
tae
taekwondo
tafelberg
tafl
tagalog
tago
tahiti
tai
taie
taies
taifas
taiga
tain
taino
taire
tait
taiuan
taivaassa
taj
tajicistan
tak
take
taken
takes
tal
talamo
tale
talento
talentos
talentosa
tales
talia
taliada
taliante
talias
talib
talietas
taliores
talk
talking
tallinn
talmud
talo
talon
talones
talos
tam
tama
tamales
tambur
tambures
tamia
tamias
tamil
tan
tana
tanakh
tance
tances
tang
tanganyika
tango
tanguilla
tanjente
tanoan
tant
tante
tanto
tantum
tanzania
taormina
taos
tapador
tape
tapeto
tapetos
tapir
taq
tar
tara
tarantino
taranto
tarazona
tarcinio
tard
tarda
tarde
tardenosian
tardis
tarifas
tarim
tariq
tarnovo
taro
taroci
tarquinio
tarquinios
tarraconensis
tarso
tartaro
tarte
tartes
tartesian
tartesos
tartessos
tartu
tas
tases
tasmania
tasmanian
taso
tasonomia
tasonomial
tasos
tasso
tat
tata
tatar
tatares
tatica
taticas
taus
tause
tavo
tawa
taxe
taxes
taxi
taxiste
taxo
taylor
tayta
taz
tbol
te
teatral
teatrales
teatre
teatro
teatros
teau
teba
teban
tebanes
tebas
tebes
technology
tecla
teclador
teclas
tecnica
tecnical
tecnicas
tecnolojia
tecnolojial
tecnolojias
ted
tehda
tehuelche
tehwa
tei
teindre
teisme
tel
tela
telamon
telamonio
telan
telanjectasia
telanjectasias
telas
tele
telecomunica
telefon
telefonal
telefones
telefoni
telegraf
telegrafia
telemaco
teleolojia
teleolojial
telescopio
telescopios
teletas
televide
televisa
televisada
televisador
televisadores
televisal
television
telia
telias
tell
tells
telo
telones
telugu
tem
tema
temal
temas
teme
temeda
temente
temes
temne
temp
tempal
tempel
tempera
temperada
temperatur
temperatures
tempesta
tempestas
tempestes
tempesto
tempestos
temple
templo
templos
tempo
tempora
temporal
tempos
temprana
temps
temu
ten
tena
tenda
tendas
tende
tendente
tendes
tendi
tendones
tene
tenedos
tenes
tengri
tengrisme
tengwar
teni
tenid
tenida
teninte
tenintes
tenir
tenis
tennessee
tennis
tennyson
teno
tenochtitlan
tenpo
tensa
tensada
tensas
tense
tensino
tenta
tentacion
tentaculos
tentation
tentatione
tento
tenu
teocratia
teodosio
teolojia
teolojial
teolojiste
teolojistes
teorem
teoremes
teori
teoria
teorial
teorias
teorida
teoriste
teoristes
teotihuacan
tepe
tepehua
tepida
tepl
ter
tera
teracota
teral
teran
terapia
terapiste
terapistes
terapsidos
teras
teravada
teraza
terazas
terazida
tercero
tereno
terenos
terentio
teresa
terin
teris
teritoria
teritorial
teritorias
teritorio
teritorios
terma
termal
termantia
termas
termina
terminal
terminativa
terminolojia
termites
termodinamica
termos
terms
ternate
tero
teropodos
teror
terores
terorisme
teroriste
teroristes
terra
terrace
terre
terror
terry
tertii
tes
tesalia
tesalonici
tese
teseda
tesedas
teseo
teses
tesla
tesores
tesoro
tesoros
test
testa
testas
testiculos
testo
testos
testosterona
teta
teti
tetis
teto
tetonica
tetonical
tetos
tetrapodos
tetrarca
tetrarcas
tetrarcia
teua
teucro
teutoburg
teutones
teutonica
tew
texadores
texas
texe
texeda
texedas
texon
text
textcolor
textes
textos
texts
tf
th
tha
thair
thames
than
that
thay
the
theatre
their
them
then
theodor
theodore
theologica
theory
theravada
there
theresa
therese
these
they
thi
thibaut
thin
thing
think
third
this
tho
thode
thomas
thompson
thomson
thor
thoracic
thoreau
thorndike
those
thought
three
through
thumb
thus
thw
thwaʔ
thy
ti
tia
tian
tias
tiber
tiberio
tibet
tibetan
tibetanes
tibia
tica
ticas
tico
ticos
tictacto
tie
tiel
tiempu
tien
tiermes
tierra
tierras
tif
tifinagh
tigard
tigre
tigres
tigrin
tigrinia
tigris
tihany
tiki
tikunov
til
tilia
till
tillamook
tim
timbuctu
time
timeo
times
timida
timidia
timo
timor
timur
tin
tina
ting
tinges
tinje
tinjeda
tinjentes
tinjes
tintin
tio
tios
tipa
tipal
tipas
tipi
tipis
tipo
tipografia
tipografial
tipolojia
tipolojial
tipos
tique
tiques
tir
tira
tirada
tirana
tirania
tirano
tiranos
tirant
tireno
tiro
tiroide
tirol
tirsenica
tis
tisse
tisza
titanes
titchener
titicaca
tities
titila
tito
titula
titulida
titulo
titulos
tiu
tiua
tiwi
tiya
tk
tl
tla
tli
tlingit
tma
tn
to
toba
tobago
tobi
tobias
toc
toca
tocada
tocante
tocarian
tocarianes
tocelau
tocipona
tod
today
todo
todos
tofa
toga
together
togo
toile
toimesta
toit
tok
toki
tokio
tokyo
tol
told
toledo
tolera
tolerada
tolerante
toli
tolkien
tolman
tolosa
tolstoy
tom
tomas
tomaso
tomate
tomates
tomba
tombas
tome
tomes
tomo
tomson
ton
tona
tonal
tone
tones
tong
tonga
tongan
tongue
tonnies
tono
tonos
tonsiles
tonto
tooth
top
tope
topica
topografia
topografial
topolojia
topolojial
toponim
toponimes
toponimia
tor
tora
toranzo
torax
toraxal
torba
torce
tore
tores
torino
torneo
torneos
toro
toronto
torquato
torra
torres
torricelli
torse
torseda
torta
tortas
tortilia
tortilias
tortuga
tortugas
tortura
torturada
torvalds
tos
toscan
toscana
tose
toske
tot
tota
total
totas
tote
totemes
toti
toto
totonac
totonacan
tots
tou
toua
toulouse
tour
tours
toussaint
towards
tower
town
toxinas
tr
tra
trabaya
tracea
tracia
tracian
tracianes
trad
trade
tradi
tradicionales
tradision
tradisional
tradisionaliste
tradisiones
tradition
traditional
trador
traductores
tradui
traduida
traduinte
traduis
traduor
traduores
trae
traeda
traente
trafalgar
trafica
trage
train
training
trajan
trajano
trajedia
trajedial
trajedias
tram
trama
trames
tran
trans
transalpina
transatlantica
transcaucasian
transcrive
transcriveda
transcrives
transende
transendente
transfere
transfereda
transforma
transilvania
transistor
transit
transita
transitiva
transitivia
translated
translatio
translation
translocadas
transmete
transmeteda
transnistria
transparente
transplanta
transporta
transportada
transportante
transportation
trapa
trapas
trapida
trasa
trasada
trasas
trascrive
trastamara
trastes
trata
tratada
tratante
tratas
trauma
traumal
traumas
traumosa
travail
travaux
travellers
travelling
travels
traversa
traversada
traversal
traversante
travua
travuas
trb
tre
trecento
tredes
tree
trefolia
trefolias
trek
trelew
trema
tremante
trematera
tremateras
tren
trenes
treno
trensada
trento
trepa
trepante
tres
tresento
trevelin
tri
tria
triangula
triangulo
triangulos
trianon
triasica
triazole
tribal
tribu
tribui
tribuis
tribuno
tribunos
tribus
tricontial
tricota
trictrac
tridevi
tridimensional
trier
trifosfato
trigo
trigonometria
trigonometrial
trigos
trilingual
trilion
triliones
trilobitos
trilojia
trimestre
trimet
trimurti
trinia
trinidad
triomphe
tripitaka
triple
tripoli
tris
trisomia
tristan
triste
tristia
tristinte
tritico
triumvirato
trivia
trivial
trivium
triz
tro
trobadores
troia
troian
troianes
troie
troilo
trois
trompa
trompas
trompeta
tronceta
troncetas
tronco
troncos
trono
tropes
tropeza
tropical
tropicos
tros
trotski
trotsky
troubadours
troutdale
trouve
trova
trovable
trovada
trovadas
trovante
trovas
troyes
tru
truci
truco
trucos
trud
truman
trumfo
trump
truple
truples
truth
trypillia
ts
tsa
tsai
tsalagi
tsar
tse
tsernagora
tsernagorsce
tsernagorsces
tsi
tsimxian
tsoh
tsuranga
tt
tta
ttr
tty
tu
tua
tualatin
tuareg
tuas
tuatara
tuataras
tuatha
tubal
tuber
tuberculose
tubo
tubos
tucana
tucanoan
tucidide
tude
tudes
tudor
tue
tufa
tufante
tui
tuia
tuireadh
tulen
tulio
tulla
tullio
tulu
tum
tumor
tumores
tumulo
tumulos
tumulta
tumultas
tumultosa
tun
tundra
tunel
tuneles
tunelinte
tungus
tungusica
tunica
tunicas
tunis
tunisi
tunisia
tunnbro
tuo
tuoba
tuonela
tupi
tupian
tur
turan
turba
turbada
turbante
turbas
turbosa
turces
turcesa
turceses
turcestan
turcia
turcica
turcicas
turcmen
turcmenistan
turcs
turgenev
turi
turin
turing
turisme
turistes
turk
turn
turna
turnada
turner
turno
turnos
tus
tuscarora
tutancamun
tutankhamun
tute
tutsis
tuva
tuvalu
tuya
tv
tvoje
tw
twain
twaʔ
twice
two
tx
txa
txacras
txacta
txad
txamoro
txarconi
txavax
txecia
txerces
txercesia
txesce
txesces
txesco
txescoslovensco
txeso
txetxen
txetxnia
txibtxa
txibtxan
txilan
txile
txili
tximacuan
tximacum
txin
txingis
txoco
txoson
txu
txucotca
txuctxi
ty
tya
tyler
typically
tyranno
tzi
tzin
tɔ
tɔga
tɔgbinye
tɔnye
tɔwo
tɛ
tɛna
tʃ
u
ua
uacaxan
ualabi
ualabis
ualon
ualonia
uapiti
uapo
uarao
uau
ubaid
ubangi
ubermensch
ubu
ucero
uci
ucla
ucraina
ucrainsce
udia
udmurt
ue
ueb
uesca
ueste
uffizi
uganda
ugarit
ugaritica
ugonote
ugonotes
ugrica
uh
uha
ui
uica
uicanes
uiguames
uigur
uigures
uiliam
uintu
uintuan
uit
uitotoan
uk
ukko
ukuk
ul
ula
ulaid
ulise
ulrich
ulsan
ulsera
ulseras
ulserosa
ulster
ultima
ultra
ultramar
ultramaral
ultravioleta
ulvaeus
ulysses
um
uma
umaian
uman
umana
umanai
umanas
umanes
umani
umania
umanin
umanisme
umaniste
umanistes
umberto
umbra
umbria
umida
umidi
umidia
umil
umilia
uml
umlaut
umm
umor
umores
umorosa
un
una
unal
uncle
und
under
underwater
undset
une
unesco
unetice
ungegn
ungia
ungias
ungnadia
ungulas
ungulato
ungulatos
uni
unia
unial
unias
unica
unicef
unicia
unicode
unicorno
unida
unidistes
uniforma
uniformas
uniladal
uninte
union
unis
uniselulal
unit
unitarian
unitarianes
unitarianisme
united
univ
universa
universal
universala
universales
universalisme
universalistes
universelle
universia
universial
universias
universidad
universidade
universita
universitaires
universitaria
university
universo
unix
unje
unknown
uno
unrerat
uns
untamo
untermenschen
unu
uo
uolof
uolofes
uombata
uombatas
uon
up
uple
upon
upper
uppland
uppsala
upright
ur
ura
ural
urales
uralica
urania
uranio
urano
urartu
urban
urbani
urbanisme
urbe
urbes
urbio
urbion
urdu
urdun
ureter
ureteres
urethra
uretra
urgell
uri
urina
urinal
urinary
urini
urje
urjente
urnfeld
uropi
uros
urso
ursos
urss
ursula
uruc
uruguai
us
usa
usable
usada
usan
usante
usas
used
user
uso
usor
usores
usos
usosa
usosia
usp
uss
ustaxa
uste
usual
ut
utah
utero
utf
utian
util
utiles
utilitarisme
uto
utopia
utrecht
utu
uu
uv
uva
uvas
uvea
uvie
uvo
uvos
uvulal
uw
uwi
uxama
uy
uys
uzbec
uzbeces
uzbecistan
v
va
vaca
vacanse
vacanses
vacca
vacua
vacui
vacuida
vada
vadas
vade
vadente
vader
vado
vae
vafþru
vaga
vagante
vagon
vagones
vagor
vai
vaihinger
vainamoinen
vajina
vajinal
vajinas
vajrayana
val
valahia
valais
valde
vale
valencia
valencian
valenciana
valensia
valensian
valenti
valerian
valeriana
valerio
vales
valhalla
vali
valida
validi
validia
validida
valimar
valis
valkyria
valkyrias
valladolid
valle
valley
valo
valoir
valois
valonsadero
valparai
valsa
valua
valuable
valuada
valuadas
valuas
value
valuosa
valva
valvas
valvenedizo
vampires
van
vana
vanaheim
vancouver
vandal
vandales
vania
vanir
vano
vanos
vantaje
vantajes
vantajosa
vanuatu
vapor
vapori
vaporida
var
varangianes
vargas
varia
variable
variables
variada
variante
varias
variola
varios
variosa
varna
varo
varos
varro
varuna
vasa
vasal
vasales
vasari
vasco
vascones
vasconica
vasculal
vascular
vasia
vasila
vasilante
vasina
vasines
vasini
vasinia
vaso
vasos
vasta
vatican
vava
vavam
ve
vea
veas
vec
vecchio
veculo
veculos
veda
vedal
vedanta
vedas
vedica
vedla
veel
vega
veia
veies
veil
vejetal
vejetales
vejetalisme
vejetaliste
vejez
vel
vela
velal
velales
velas
velcro
veli
velia
veliada
veliko
velilla
vell
vella
velle
velnias
velo
veluda
ven
vena
venar
venas
vende
vendeda
vendel
vendente
venderia
vendor
vendores
vendre
venena
veneni
venenida
venenosa
venerdi
veneto
venezia
venezian
venezuela
venezuelan
veni
venice
veninte
venir
venja
venjosa
venner
veno
venos
venta
ventas
venti
vento
ventral
ventre
ventriculo
ventura
venture
venu
venus
ver
vera
veras
verb
verba
verbal
verbin
verbo
verbos
verbs
verbum
vercingetorix
verdaguer
verde
verdes
verdi
verdin
vere
verga
vergil
vergilio
vergonia
vergoniante
vergoniosa
veria
verias
verje
verjentes
verlag
verlan
verme
vermeer
vermes
vermont
verne
verner
vero
verona
verrocchio
versa
versailles
version
verso
vertebral
vertebras
vertebrato
vertebratos
vertical
vertigo
very
ves
veses
vesica
vesiculas
vespa
vespasiano
vespera
vespero
vesta
vestas
veste
vestes
vesteta
vestetas
vesti
vestida
vestijial
vesuvio
veteranes
vetoral
vetores
veux
vez
vezzosi
vi
via
viable
viaja
viajante
viajas
viajor
viajores
vias
vibra
vibrante
vibras
vicari
vice
vicente
vici
vicia
vicing
vicinges
vicipedia
vicis
victor
victoria
victorian
victory
vid
vida
vidable
vidablia
vidal
vidar
vide
videda
vidente
video
videos
vides
vidi
vidores
vidre
vidua
viduida
vie
viejo
viene
vienne
viet
vietnam
vieux
view
vigo
vii
viii
vijila
vijilante
viktor
vil
vila
vilas
vileta
viletas
vilhelm
vili
vilia
villa
village
villanueva
villar
villares
ville
villers
villon
vilnius
vim
vin
vinagra
vinaigre
vinc
vincent
vinci
vinden
vino
vinos
vinsal
vinse
vinseda
vinsent
vinsente
vinses
vinsor
vinsores
vint
vinuesa
vio
viola
viole
violente
violentia
violes
violeta
violin
violiniste
vipunen
vir
viral
virazole
virgil
virgilio
virginia
virgula
virgulas
virjin
virjines
virjinia
viro
virtu
virtua
virtual
virtuas
virtuosa
virus
virusal
viruses
vis
viscio
visconti
vise
viseral
vishnu
visi
visia
visigodos
visigotas
visigoto
visigotos
visin
visina
visinas
visineria
visinerias
visinia
visita
visitada
visitante
visitas
visitor
visitores
vispresidente
visre
vista
vistas
vistula
visual
vita
vitamina
vite
vitelo
viterias
viti
vitim
vitimes
vitimisme
vito
vitoria
vitro
vitros
vitruvio
vittorio
viu
viva
vive
viveda
vivente
viventes
vives
vivien
vivin
vivosa
vixnu
vizir
vladimir
vlax
vo
voc
vocabula
vocabulal
vocabulario
vocabulary
vocabulo
vocabulos
vocal
vocale
vocales
vocalida
vocativa
vogue
voi
voir
voisitteko
vojislav
vojte
vojvodina
vol
vola
volante
volapu
volapuk
volar
volas
volcan
volcanal
volcanes
volde
vole
voleda
volelibriste
volente
voles
volga
volibal
volk
volkerpsychologie
volo
volodimir
volpe
volpes
vols
volscos
volsunga
volt
volta
voltaire
voltas
volum
volume
volumes
volunta
voluntate
voluspa
vomita
von
vonnegut
voor
vor
vorpommern
vortis
vos
vosa
vosal
vose
voses
vosi
vosida
vosis
vota
votas
vote
votes
votores
vou
vouloir
vous
vowels
voyage
vre
vres
vrier
vrijburgers
vs
vso
vu
vudu
vulgar
vult
vultures
vun
vus
vɔ
w
wa
waa
wace
wadogo
wadul
wagner
wahl
wai
wak
waka
walden
wales
walk
walker
wall
wallace
wallis
walt
walter
walters
walvis
wampanoag
wan
wana
wang
wani
want
waqa
war
ware
warm
warmi
warriors
wars
warszawa
was
wash
washington
wasi
waskeeto
wasserman
wat
watashi
watch
water
waterhouse
waterloo
watoto
watson
watt
watts
wawa
way
wayllaqawaqa
ways
waʔ
waʔhaye
we
web
weber
webpage
webster
wedding
wedgwood
wee
weferling
wegener
wehrmacht
wei
weimar
weje
well
wellington
wells
welsh
wen
wenedyk
went
wepa
were
wernicke
wertheimer
werther
weser
wessex
west
western
westfalia
westminster
weston
wet
wezai
weʔ
wh
whale
what
wheel
wheeler
when
where
which
white
whitehouse
who
whom
whose
why
wi
wicha
wide
widow
width
wie
wien
wiener
wierzbicka
wife
wiggins
wik
wiki
wikimedia
wikipedia
wil
wild
wildcat
wilde
wile
wiley
wilhelm
will
willamette
willem
william
williams
willibrord
willis
wilson
wilsonville
win
winchester
wind
windmill
window
windows
windsor
winnipeg
winter
wira
wisconsin
with
within
without
witkowski
wladfa
wo
wodan
wode
woden
wofe
wokpɔ
wole
wolf
wolfgang
wolfram
woman
women
won
wonoti
wood
woodland
woods
wool
woqan
word
worde
wordle
wordpress
words
work
works
world
worlds
worms
would
wouldn
wova
woyi
woyɔ
wozniak
woƒe
wrare
wright
write
writer
writing
written
wrong
wrote
wu
wulfila
wundt
wurttemberg
wurzburg
www
wy
wycliffe
wyoming
wɔm
x
xa
xacal
xacales
xace
xacemata
xacuhatxi
xaman
xamanes
xamanisme
xampinion
xampiniones
xan
xang
xanghai
xani
xapa
xapeta
xapo
xapos
xaria
xarleston
xarnier
xasa
xasada
xasante
xasas
xasor
xasores
xavacano
xavier
xcip
xciperia
xec
xef
xeferia
xefes
xefia
xefias
xeien
xeienes
xenofane
xenofon
xerca
xercable
xercada
xercador
xercante
xerox
xevi
xhtml
xi
xia
xian
xianbei
xiang
xiangqi
xias
xica
xicas
xico
xicos
xiii
xime
ximine
ximineria
ximinerias
ximo
ximpanze
ximpanzes
xin
xina
xines
xineses
xinjiang
xinotibetan
xinto
xinuc
xiongnu
xirope
xiva
xml
xo
xoca
xocante
xocolada
xose
xoxo
xoxone
xoyan
xs
xtetl
xtetles
xu
xuan
xuta
xuupa
xuxa
xv
xva
xvi
xx
xxy
xy
xɔ
xɔa
xɔwo
y
ya
yada
yagu
yagwa
yahoo
yaka
yale
yam
yamna
yan
yang
yangon
yangtze
yanguas
yangzi
yard
yawa
yaʔk
yaʔks
ydna
ye
year
years
yeats
yegua
yehuda
yellow
yelo
yem
yer
yerevan
yerno
yes
yesterday
yeux
yev
yew
yggdrasil
yi
yibɔɔ
yin
yisrael
yitzhak
yiyi
yiyim
ymir
ymma
yn
yo
yok
yolik
yolun
yon
yopv
yoq
yori
york
yorkshire
yosemite
you
young
younger
your
yours
yr
yt
yu
yua
yuan
yucatan
yue
yuezhi
yuki
yukon
yul
yuli
yumi
yun
yunnan
yusuf
yuutsk
yves
yyyy
z
za
zaandam
zada
zafran
zagreb
zagros
zala
zama
zambia
zamboanguenio
zamenhof
zamora
zan
zar
zara
zaragoza
zaratustra
ze
zealand
zebra
zeit
zeland
zelensci
zelo
zelosa
zen
zeno
zenobia
zero
zeros
zeta
zeus
zeven
zh
zha
zhang
zhao
zhe
zheng
zhi
zho
zhou
zhu
zi
zifido
zifidos
zigones
zigotica
zigoto
zigzaga
zij
zil
zimbabue
zion
zipe
zipes
zo
zoce
zodiaco
zolojia
zolta
zona
zonal
zonas
zoroastra
zoroastrisme
zoroastristes
zu
zuca
zucar
zucarosa
zucas
zulu
zum
zuni
zuo
zur
zuri
zurich
zuse
zwingli
zygon
{
|
}
~

¡
£
¥
§
¨
©
ª
«
­
¯
°
±
²
³
´
µ
·
¹
º
»
¼
½
¾
¿
×
ß
æ
ð
ðnisma
ðr
÷
ø
þ
þa
þeins
þo
þru
þrymskviða
þu
đ
đa
đe
ħ
ı
ĳ
ł
ŋ
ŋkume
ŋutsu
ŋutsua
ŋutsuvi
ŋutɔ
œ
ƒe
ƒle
ƒo
ƕ
ƞ
ƿ
ǀ
ǁ
ǂ
ǝ
ȣ
ȥ
ɂ
ɐ
ɑ
ɒ
ɓ
ɔ
ɕ
ɖa
ɖe
ɖeka
ɖevi
ɖewo
ɖokui
ɖokuiwo
ɖu
ə
əh
ən
ɛ
ɜ
ɟ
ɡ
ɢ
ɣ
ɣleti
ɤ
ɨ
ɪ
ɫa
ɫu
ɬ
ɲ
ɴ
ɸ
ɹ
ɻ
ɾ
ʁ
ʂ
ʃ
ʈ
ʊ
ʌ
ʍ
ʎ
ʏ
ʐ
ʒ
ʔ
ʕ
ʕweuis
ʘ
ʜ
ʢ
ʤ
ʧ
ʰ
ʲ
ʷ
ʹ
ʻ
ʼ
ʾ
ʿ
ˁ
ˆ
ˇ
ˈ
ˊ
ˋ
ˌ
ː
ːˈ
˙
˜
ˠ
ˤ
ˮ
̀
́
̂
̃
̄
̆
̇
̈
̉
̊
̋
̌
̏
̑
̓
̔
̛
̠
̡
̢
̣
̥
̦
̧
̨
̩
̪
̮
̯
̰
̱
̲
̸
͂
ͅ
͈
͗
͡
α
αι
ας
β
γ
γε
γεια
γη
γι
δ
δε
δης
ε
η
θ
θηνα
ι
κ
και
κη
κρη
κυ
λ
λη
μ
μα
με
μη
μνω
ν
να
ναξ
νη
νιν
νο
νος
ξ
ο
οι
ος
π
πε
πο
πολις
πολυ
ρ
ρας
ς
σ
σος
ται
τε
τη
της
τιμη
υ
φ
χ
ω
ων
ϑ
ϙ
ϯ
а
ам
аудиториын
б
в
вал
во
вылэм
г
д
да
дас
е
есь
ж
з
и
иван
институт
к
ка
как
карысал
кыл
кырз
л
лэ
м
н
на
нам
нас
наш
не
нылъ
о
п
р
с
си
ссср
твое
тоды
тодымтэ
тодэм
у
уг
удмурт
уз
учебн
ф
х
ц
ч
чебер
ш
щ
щи
ы
ыз
ь
э
я
і
ҫ
ӈ
եւ
է
ի
քո
և
։
ְ
ֲ
ִ
ֵ
ֶ
ַ
ָ
ֹ
ּ
־
ֿ
ׁ
ׂ
א
ב
ג
ד
ה
ו
ז
ח
ט
י
ית
ך
ל
ם
מ
ן
נ
ס
ע
ף
פ
צ
ק
ר
ש
ת
װ
ײ
ا
ال
الا
ب
بن
ة
ت
ج
ح
خ
د
ذ
ر
ز
ش
ظ
ع
ف
ل
م
محمد
ن
ه
و
ي
ٌ
ٍ
َ
ُ
ِ
ّ
ْ
ٓ
ٔ
ٕ
ی
ं
अ
क
ग
झ
ट
ण
त
थ
द
ध
न
प
ब
म
य
र
ल
व
श
ष
स
ह
ा
ि
ी
ु
ृ
े
ै
ो
ौ
्
ॐ
॥
०
१
२
३
४
५
६
७
८
९
ং
গ
জ
ত
থ
দ
প
ব
ভ
য
র
ল
শ
়
া
ি
ী
ে
্
ਕ
ਖ
ਗ
ਜ
ਥ
ਦ
ਨ
ਪ
ਬ
ਭ
ਮ
ਰ
ਲ
ਸ
ਸਚ
ਹ
ਾ
ਿ
ੀ
ੁ
ੂ
ੇ
ੈ
ੋ
੍
੧
ੰ
ੴ
ગ
જ
ત
પ
ર
લ
હ
ા
િ
ી
ુ
ૂ
ૃ
ଆ
ଲ
ଳ
ଶ
଼
ି
ୀ
େ
ୖ
ஃ
ச
த
ம
ய
ர
ழ
ி
ு
ெ
்
ఐ
ఔ
గ
త
ప
ల
ి
ు
ె
ತ
ಳ
ು
್
ം
ള
ാ
ං
ම
ල
ව
ස
්
ා
ි
ก
ข
ด
น
บ
ม
ย
ร
อ
า
ิ
ี
ื
ุ
็
้
་
།
ཀ
ཁམས
ག
ང
ཆ
ཇ
ད
ན
པ
ཕ
བ
མ
མཛ
ཚ
འ
འད
འབ
ཡ
ར
ལ
ས
ཨ
ི
ུ
ེ
ོ
ྒ
ྱ
ྲ
ླ
တ
ု
်
ᐯ
ᐱ
ᐳ
ᐸ
ᚫ
᛫
᜴
ជ
ណ
ព
រ
ា
ុ
ះ
្
ᵃ
ᵉ
ᵑ
ᵒ
ᵘ
῾
​
‌
‎
‏
‑
–
—
‘
’
‚
“
”
„
†
‡
•
…
‬
′
‹
›
‿
ⁱ
₁
₂
₃
€
℃
№
ℝ
⅓
←
↑
→
↓
↔
↰
↲
↷
∅
−
∙
√
∞
∼
≈
③
④
⑦
─
│
└
├
▫
▶
○
●
☉
☾
☿
♀
♂
♃
♄
♆
♇
♠
♣
♥
♦
⚳
⚴
⚶
⛢
⟨
⟩
⯓
⯰
ⲁ
ⲕ
ⲟ
ⲣ
ⴰ
ⴼ
ⵉ
ⵊ
ⵏ
ⵖ
ⵗ
ⵜ
⺀
⺄
⺆
⺈
⺊
⺌
⺕
⺝
⺸
⺼
⿰
⿱
⿲
⿳
⿴
⿵
⿶
⿷
⿸
⿹
⿺
⿻
、
。
〢
あ
い
う
お
か
き
く
け
こ
さ
し
す
せ
そ
た
ち
っ
つ
て
と
な
に
の
は
ふ
へ
ま
み
や
ょ
よ
ら
り
る
れ
ろ
わ
を
゙
゚
ア
イ
オ
カ
キ
ケ
コ
シ
ス
セ
タ
チ
ツ
ト
ナ
ニ
ヒ
ミ
ム
メ
モ
ヤ
ュ
ユ
ヨ
ラ
レ
ヲ
ン
・
ー
ㄅ
ㄆ
ㄇ
ㄈ
ㄉ
ㄊ
ㄋ
ㄌ
ㄍ
ㄎ
ㄏ
ㄐ
ㄑ
ㄒ
ㄓ
ㄔ
ㄕ
ㄖ
ㄗ
ㄘ
ㄙ
ㄚ
ㄛ
ㄜ
ㄝ
ㄞ
ㄟ
ㄠ
ㄡ
ㄢ
ㄣ
ㄤ
ㄥ
ㄦ
ㄨ
ㄩ
ㄱ
ㄷ
ㄹ
ㅂ
㇁
㇂
㇄
㇇
㇈
㇉
㇓
㎢
㐁
㐄
㐅
㐌
㐫
㐬
㐭
㐮
㐱
㑒
㒵
㒸
㒼
㓁
㓞
㔾
㕛
㕣
㖾
㘝
㚅
㚇
㚔
㚘
㝉
㝡
㝴
㝵
㞋
㞢
㞷
㠩
㠭
㠯
㡀
㡭
㡿
㢲
㢴
㣇
㣺
㥯
㪅
㫄
㫐
㫒
㫺
㬅
㬎
㬥
㬰
㲋
㳄
㷠
㸒
㸚
㸦
㼌
㼲
㽞
㿟
䀠
䂞
䍃
䏍
䒑
䖍
䖒
䖝
䖵
䙴
䚻
䜌
䝿
䡛
䧹
䪞
一
丁
丂
七
丄
丅
丆
万
丈
三
上
下
丌
不
与
丏
丐
丑
专
且
丕
世
丘
丙
业
东
丞
丢
丣
两
严
並
丨
丩
个
丫
丬
中
丮
丰
丱
串
丵
丶
丷
丸
丹
为
主
丽
丿
乀
乂
乃
久
乆
乇
么
义
之
乌
乍
乎
乏
乐
乑
乔
乖
乗
乘
乙
乚
乛
乜
九
乞
也
习
乡
乳
乾
亀
亅
了
亇
予
争
事
二
亍
于
亏
亐
云
互
亓
五
井
亘
亚
亜
亞
亟
亠
亡
亢
交
亥
亦
产
亨
亩
享
京
亭
亮
亯
亰
亲
亳
亶
亷
人
亻
亼
亾
仁
今
介
仌
从
仐
仑
仒
仓
仕
他
付
仝
代
令
以
们
任
企
伊
伎
伏
伐
休
会
伯
但
位
何
佘
余
作
你
佥
使
來
侈
侌
侖
侨
侯
侵
便
保
俞
信
俥
修
俺
倉
個
倍
候
借
倠
假
做
停
健
傈
傌
備
傲
僉
像
僕
僳
儒
儿
兀
允
兂
元
兄
充
兆
兇
先
光
兊
克
兌
免
兑
兒
兓
兔
党
兜
兟
入
全
兩
兪
八
公
六
兮
兰
共
关
兴
兵
其
具
典
兹
兼
冀
冂
冃
冄
内
冈
冉
冊
冋
册
再
冎
冏
冐
冒
冓
冖
冗
冘
军
农
冝
冡
冥
冫
冬
冷
凝
几
凡
凢
凵
凶
凷
凸
凹
出
函
凾
刀
刁
刂
刃
刄
刅
分
切
刍
刑
刕
刖
列
刘
则
初
別
利
别
到
制
刺
刻
則
削
剌
前
剛
剡
剣
剽
劇
劉
力
功
加
劦
助
劫
劳
劵
勃
勇
勉
勒
動
務
勞
勢
勤
勹
勺
勻
勾
勿
匀
匂
包
匆
匈
匊
匋
匍
匕
化
北
匚
匝
匡
匪
匯
匱
匸
匹
区
医
匽
匿
區
十
卂
千
卄
卅
卆
升
午
卉
半
卌
华
协
卑
卒
卓
協
单
卖
南
卜
卝
卞
占
卡
卢
卣
卤
卦
卩
卪
卬
卯
印
危
即
却
卵
卷
卸
卻
厂
厃
厄
历
厈
厉
厌
厓
厘
厚
原
厤
厥
厨
厭
厲
厶
厷
厸
去
厼
厽
县
叀
参
參
叅
又
叉
及
友
双
反
叐
发
叒
叔
叕
取
受
叚
叜
叟
口
古
句
另
叩
只
召
可
台
叱
史
右
叵
号
司
叹
吂
吃
各
吅
合
吉
吊
吋
同
名
后
吏
向
吕
吗
君
吝
吞
否
含
听
启
吳
吴
吹
吾
呂
呆
呈
告
员
呙
周
味
命
咅
和
咎
咠
咢
咨
咱
咸
咼
哀
品
哈
哉
員
哥
哲
唐
商
啇
問
啚
啬
啻
善
喜
喝
喬
單
営
喿
嗇
噩
嚴
囊
囗
囘
囙
囚
四
回
囟
因
団
囧
囬
园
困
囱
囲
囷
固
国
圂
圅
國
圍
圓
土
圡
圣
圥
在
圭
地
圶
场
圼
均
坐
坒
坚
坡
坴
垂
垔
垚
埀
埋
城
埶
執
基
堂
堅
堆
堇
堯
塑
塞
墙
墨
壘
士
壬
壮
壯
声
壳
壴
壹
壺
壽
夂
处
夅
夆
备
夊
夋
夌
复
夏
夒
夕
外
夗
夘
多
夜
夢
大
夨
天
太
夫
夬
夭
央
失
夲
头
夷
夸
夹
夻
夾
奂
奄
奇
奈
奉
奎
奏
奐
契
奓
奔
奚
奞
奠
奢
奥
奭
女
奴
她
奻
好
如
妄
妈
妙
妟
妥
妻
妾
姑
委
姜
威
娄
婁
婴
嬰
嬴
子
孑
孔
孕
孖
字
存
孚
孛
孝
孟
季
孤
学
孩
孫
孱
學
宀
宁
宂
它
宅
宇
守
安
宋
完
宏
宓
宗
官
定
宛
宜
宝
客
宣
室
宪
宮
宰
害
家
容
宾
宿
寄
寅
密
富
寒
察
寧
審
寫
寬
寮
寸
对
寺
寻
寽
対
寿
封
尃
射
将
將
專
尉
尊
尋
尌
對
小
少
尒
尓
尔
尖
尗
尚
尞
尢
尣
尤
尧
尨
尭
就
尸
尹
尺
尻
尼
尽
尾
尿
局
居
屈
屋
屎
屏
屑
展
屖
屚
属
屠
屡
屬
屮
屯
屰
山
屵
屾
岁
岂
岑
岡
岩
岳
岸
峯
島
崇
崑
崔
崖
崙
崩
嵬
嶲
巂
巛
川
州
巟
巠
巢
巤
工
左
巧
巨
巩
巫
差
己
已
巳
巴
巷
巸
巽
巾
巿
帀
市
布
希
帚
帛
帝
帥
带
師
席
帮
帰
帶
常
幅
干
平
年
幵
并
幷
幸
幺
幻
幼
幽
幾
广
広
庄
庆
床
底
店
庚
府
度
庫
庭
庶
康
庸
廉
廌
廛
廣
廩
廴
延
廷
建
廾
廿
开
弁
弃
弄
弇
弋
式
弓
弔
引
弗
弘
弜
弟
张
弥
弦
弱
張
強
强
彊
彌
彎
彐
彑
当
彔
录
彖
彗
彝
彡
形
彥
彦
彧
彭
彳
役
彼
往
待
很
律
徒
得
徙
從
復
微
徵
德
徽
心
忄
必
忌
忍
志
忝
忠
忩
快
念
忽
忿
怒
思
怠
急
怱
恆
恒
恩
恭
息
恼
悉
患
悤
您
悲
悶
情
惠
惡
惢
想
愁
愈
意
愛
感
慈
慧
慮
憂
憲
懂
應
戀
戈
戉
戊
戋
戌
戍
戎
成
我
戒
戔
或
戚
戠
戢
戦
截
戲
戶
户
戹
戼
戾
房
所
扁
扇
手
扌
才
打
托
执
扶
找
承
把
折
拉
拍
拜
拳
拿
挂
指
掌
推
提
摩
支
攴
攵
收
攸
改
放
政
敄
敏
敕
敖
敗
教
敝
敞
敢
散
敦
敫
敬
数
敷
數
斂
文
斉
斊
斗
斤
斥
斩
斬
斯
新
方
於
施
斿
旁
旅
旋
族
无
旡
既
旣
日
旦
旧
旨
早
旬
旱
旲
时
旾
昆
昇
昌
昍
明
昏
易
昔
昗
昜
星
映
春
昨
昬
是
昱
昴
昷
時
晃
晉
晋
晏
晓
晚
普
景
晴
晶
智
暑
暴
曇
曩
曰
曲
曳
更
曷
書
曹
曼
曾
替
最
朁
會
月
有
朋
服
朔
朕
朗
望
朝
木
朩
未
末
本
札
朮
术
朱
朴
朵
朶
机
朿
杀
李
杏
杜
束
条
来
杯
東
杲
杳
松
析
林
枚
果
枝
枲
枼
柏
某
柔
查
柬
柰
柴
栗
校
株
根
桀
桌
桑
桼
梁
梅
條
梟
梨
棋
棘
棠
棥
森
植
楊
楚
業
楽
榮
樂
樊
欠
次
欣
欮
欲
欶
欽
款
歆
歇
歌
歛
止
正
此
步
武
歨
歪
歮
歯
歰
歲
歴
歷
歸
歹
歺
死
殳
段
殷
殸
殹
殺
殻
殿
毋
毌
母
每
毒
比
毕
毚
毛
毳
氏
氐
民
气
気
氣
水
氵
氶
氷
永
氺
氾
求
汇
汉
汝
汞
江
沃
沓
沙
沝
没
河
治
泉
法
波
泣
泥
注
泰
泾
洋
洛
津
洪
洲
活
派
流
浙
浦
浪
浮
海
涇
淡
淮
清
渚
渠
渤
港
湖
湘
湯
湾
源
滨
滿
漂
漢
漸
潮
澳
濱
火
灬
灭
灰
灵
灷
炅
炎
炏
炗
炙
炭
炮
炷
点
為
烈
烏
烝
烦
焉
無
焦
焱
然
煞
熊
熏
燕
燚
營
燮
爪
爫
爬
爭
爯
爰
爱
爲
爵
父
爻
爽
爾
爿
片
牙
牚
牛
牜
牟
牢
牧
牪
特
牽
犀
犬
犭
犮
狂
狄
狊
狗
独
狺
猋
猒
猪
猫
献
獄
獨
獻
玄
率
玉
王
玟
玨
玲
珎
珞
班
現
球
琴
瑟
瑩
瓜
瓦
甘
甚
生
産
用
甫
甬
田
由
甲
申
电
甶
男
甸
甹
町
画
甾
畀
畅
界
畏
畐
留
畜
畟
畢
畧
畨
番
畫
異
畱
當
畺
畾
疆
疊
疋
疌
疑
疒
疾
痛
療
癶
癸
癹
登
發
白
百
皀
皃
的
皆
皇
皋
皐
皕
皮
皷
皿
盃
盆
盇
盈
益
盍
盎
监
盒
盖
盘
盛
盡
監
盤
盧
目
直
相
盾
省
眇
眉
看
眔
眞
真
眷
眼
眾
着
睘
睡
睪
睿
瞏
瞢
瞿
矍
矛
矞
矢
矣
知
矦
短
石
砲
破
碁
碎
磊
磨
示
礻
礼
社
祉
祜
神
祟
票
祭
禀
禁
福
禪
禸
禹
禺
离
禽
禾
禿
秀
私
秃
秉
秋
科
秝
秦
移
稟
穀
穌
穴
究
穹
空
穿
突
窄
窒
立
竒
竜
竝
竟
章
童
竹
笑
笠
符
笨
筆
等
筋
答
箕
算
箴
節
篤
篭
籍
米
粉
粛
粟
粤
粦
粲
粵
糞
糸
糹
系
紀
約
納
紙
素
索
紫
累
細
紺
絜
絫
絲
經
維
網
綿
線
縣
繇
纍
纟
级
纳
经
给
维
缶
网
罒
罔
罕
罗
罙
罡
罢
罪
署
罷
羅
羊
羌
羍
美
羔
羕
羗
羞
羡
羣
群
義
羲
羸
羽
翁
翏
習
翕
翟
翠
翼
老
耂
考
者
耆
而
耎
耑
耒
耳
耴
耶
耷
聂
聊
聖
聚
聲
聶
聿
肀
肃
肅
肉
肖
肙
肥
肩
肯
育
肴
胃
背
胞
胡
胥
能
脊
脩
膚
臣
臤
臧
自
臬
臭
臯
臱
至
致
臺
臼
臽
臾
臿
舀
舂
舄
與
興
舉
舌
舍
舛
舜
舞
舟
般
艮
良
色
艸
艹
艾
芒
芔
芬
芮
花
芳
芺
芻
苏
苔
苗
苟
若
苦
英
茶
茸
荅
草
荒
荣
荼
莆
莧
莫
莽
菆
菊
菐
華
营
萬
落
葉
著
葛
董
葵
蒙
蒦
蒼
蓋
蓬
蓺
蔑
蔚
蔡
蕉
蕭
薄
薛
薦
薰
藍
藏
藥
蘭
虍
虎
虐
虒
虔
處
虖
虗
虘
虚
虛
虜
虞
號
虫
虽
蚊
蚤
蚩
蜀
蜜
蟲
蠡
血
行
衍
術
衛
衣
衤
表
衮
衰
袁
袞
被
褭
褱
襄
襾
西
覀
要
覃
見
規
覓
覧
親
覽
见
觉
角
解
言
訁
訇
計
詰
話
詹
語
誩
諸
諾
議
讠
议
许
话
语
请
诺
谷
豆
豈
豊
豐
豕
豖
豙
象
豦
豩
豪
豸
貇
貝
貞
貟
負
財
貢
貧
貪
貫
責
貳
貴
買
費
賁
資
賈
賏
賓
賔
賛
賞
賢
賣
質
賴
贊
贛
贝
贡
责
贯
贲
贵
赖
赛
赞
赣
赤
赦
走
超
越
足
跆
路
蹇
身
躬
車
軍
軎
軟
転
輦
轉
车
转
辆
辖
辛
辜
辟
辥
辰
辱
農
辵
辶
边
辽
达
迄
过
近
返
还
这
连
迷
追
退
送
逆
逐
這
通
速
造
逢
連
逮
進
遀
遂
遊
過
道
達
遣
適
遷
遺
邊
邑
邓
邕
那
邦
邪
郎
郡
部
郭
都
鄉
酉
酋
配
酓
釆
采
里
重
野
量
金
釒
釜
銀
錢
鎭
钅
钱
長
镸
长
門
閃
閉
開
閏
閑
閒
間
閔
関
閩
閵
閻
闌
门
间
闷
闽
阑
阜
阝
阪
阿
陈
降
陕
院
陳
陽
隆
隊
隋
際
隡
隨
隱
隶
隹
隺
隻
隼
隽
难
雀
雁
集
雈
雋
雍
雐
雔
雙
雚
雜
雝
離
難
雨
雩
雪
雲
零
雷
電
需
霊
霍
霜
霝
霞
露
霸
靈
靑
青
非
靡
面
靣
革
韋
韦
韭
韯
韱
音
頁
頃
項
須
頗
頡
頻
題
顛
页
顿
颇
颖
風
风
飛
飞
食
飠
養
餌
饣
饭
饿
首
香
馬
馮
駅
駦
马
骄
骑
骨
高
髟
鬥
鬯
鬲
鬼
魚
魯
鮮
鰲
鱼
鲁
鲜
鲸
鳥
鳳
鳴
鸟
鸡
鹵
鹿
麃
麗
麥
麦
麻
黃
黄
黍
黎
黑
黒
黨
黹
黽
黾
鼎
鼓
鼠
鼻
齊
齋
齐
齒
齿
龄
龍
龙
龜
龟
龠
龰
龱
龴
龵
龶
龷
龸
龹
ꜣ
ꜥ
ꟾ
ꭹ
ꮃ
ꮙ
ꮝ
ꮟ
ꮳ
ꮿ
者
艹
︎
︢
ﺀ
ﺍ
ﺎ
ﺏ
ﺐ
ﺑ
ﺒ
ﺕ
ﺖ
ﺗ
ﺘ
ﺙ
ﺚ
ﺛ
ﺜ
ﺝ
ﺞ
ﺟ
ﺠ
ﺡ
ﺢ
ﺣ
ﺤ
ﺥ
ﺦ
ﺧ
ﺨ
ﺩ
ﺪ
ﺫ
ﺬ
ﺭ
ﺮ
ﺯ
ﺰ
ﺱ
ﺲ
ﺳ
ﺴ
ﺵ
ﺶ
ﺷ
ﺸ
ﺹ
ﺺ
ﺻ
ﺼ
ﺽ
ﺾ
ﺿ
ﻀ
ﻁ
ﻂ
ﻃ
ﻄ
ﻅ
ﻆ
ﻇ
ﻈ
ﻉ
ﻊ
ﻋ
ﻌ
ﻍ
ﻎ
ﻏ
ﻐ
ﻑ
ﻒ
ﻓ
ﻔ
ﻕ
ﻖ
ﻗ
ﻘ
ﻙ
ﻚ
ﻛ
ﻜ
ﻝ
ﻞ
ﻟ
ﻠ
ﻡ
ﻢ
ﻣ
ﻤ
ﻥ
ﻦ
ﻧ
ﻨ
ﻩ
ﻪ
ﻫ
ﻬ
ﻭ
ﻮ
ﻱ
ﻲ
ﻳ
ﻴ
！
（
）
？
￼
𐀍
𐀐
𐀩
𐀯
𐀳
𐎂
𐎅
𐎆
𐎓
𐎔
𐎖
𐎘
𐐨
𐐯
𐐻
𐐼
𐑅
𐑉
𐤊
𐤍
𐤏
𐬀
𐬎
𐬙
𐬚
𐬭
𐬰
𐬱
𑀓
𑀴
𒁇
𒃼
𒄒
𒄘
𒉣
𒌓
🜨
𠀁
𠀃
𠀆
𠀉
𠀎
𠀐
𠁁
𠁣
𠂆
𠂇
𠂈
𠂉
𠂊
𠂋
𠂎
𠂒
𠂔
𠂛
𠂡
𠂢
𠂤
𠂬
𠂭
𠂹
𠃊
𠃋
𠃌
𠃍
𠃎
𠃑
𠃓
𠃔
𠃜
𠄌
𠄎
𠄠
𠄢
𠆢
𠆥
𠇍
𠈌
𠌵
𠓜
𠔉
𠔥
𠔼
𠔽
𠔿
𠕀
𠕁
𠕋
𠘧
𠘨
𠙻
𠙼
𠚏
𠚒
𠚤
𠚪
𠣏
𠤎
𠤕
𠥓
𠦄
𠦑
𠦝
𠧒
𠧗
𠧪
𠩺
𠪚
𠫓
𠫔
𠫤
𠬛
𠬝
𠬞
𠬢
𠬤
𠬶
𠮛
𠮦
𠮷
𠯑
𠱠
𠳮
𠷎
𡈼
𡉀
𡉵
𡌥
𡍮
𡏳
𡕒
𡕩
𡕰
𡖅
𡗗
𡗜
𡘆
𡘤
𡧱
𡨄
𡩧
𡬠
𡭽
𡰣
𡰥
𡰪
𡰯
𡰱
𡷈
𡸁
𡿨
𡿩
𡿪
𡿺
𢀖
𢀛
𢀩
𢁙
𢆉
𢆰
𢆶
𢇁
𢇇
𢉖
𢌬
𢌿
𢏚
𢑑
𢑚
𢖻
𢙣
𢛳
𢦏
𢦒
𢧵
𢼄
𢾕
𣁋
𣄼
𣅀
𣅽
𣍘
𣎳
𣎵
𣏋
𣏼
𣗥
𣥂
𣥖
𣦵
𣦼
𣧄
𣪊
𣪠
𣬉
𣳾
𣶒
𤇾
𤊽
𤐫
𤓰
𤔔
𤕨
𤣩
𤰇
𤰔
𤰞
𤴓
𤴔
𤽄
𥁑
𥁕
𥃦
𥃩
𥃭
𥇡
𥑟
𥘅
𥘈
𥝢
𥫗
𥱡
𦈢
𦉪
𦉬
𦉼
𦍌
𦍒
𦎧
𦐇
𦓔
𦔮
𦘒
𦙃
𦚏
𦣝
𦣞
𦣻
𦥑
𦥔
𦥯
𦨉
𦭝
𦰩
𧆞
𧈧
𧘇
𧰨
𧴪
𧴮
𧵩
𧾷
𨸏
𨾴
𩙿
𩠐
𩫏
𩵋
𪉷
𪜀
𪟽
𪠲
𪩲
𫇦
𫔭
𫜸
𫝀
𫠣
𫠩
𫢉
𫥞
𫩏
𫩠
𫪡
𫲽
𫶧
𬀷
𬐘
𬗌
𬙙
𬛸
𬜯
𬟩
𬯁
𬴘
𬺻
𬼉
𬼖
𭀰
𭁈
𭁨
𭅰
𭑈
𭕄
𭗼
𭤨
𭥫
𭻾
𮅕
𮊿
𮍌
𮍏
𮓗
𮥼
𮧮
廾
𰀁
𰀄
𰀈
𰀉
𰀕
𰀠
𰀡
𰀢
𰀪
𰁜
𰃮
𰆊
𰆘
𰋙
𰕎
𰢴
𰧭
𰯲
00--
08--
10--
13--
15--
17--
30--
31--
46--
56--
57--
61--
69--
80--
82--
84--
89--
a--
aa--
ab--
abd--
abe--
abi--
abom--
ac--
acc--
ace--
aci--
acro--
act--
actinop--
acu--
acua--
acuif--
ad--
ade--
adi--
adje--
adoles--
adv--
ae--
af--
afi--
afrika--
afro--
ag--
age--
agh--
agricul--
ah--
ai--
aida--
ailu--
air--
aj--
aje--
ak--
aks--
al--
ala--
albi--
aldehu--
ale--
algori--
ali--
all--
alle--
almu--
alo--
alp--
als--
alt--
alve--
am--
ama--
amat--
ame--
amebo--
amfi--
ami--
amnes--
amo--
amu--
an--
ana--
and--
ane--
ang--
anglo--
anim--
anna--
ano--
ans--
ant--
ante--
anti--
anto--
antropo--
anu--
ao--
ap--
apa--
api--
apo--
aps--
apxa--
ar--
ara--
arau--
arc--
arceo--
are--
ari--
arn--
arom--
ars--
art--
as--
asa--
ascel--
ase--
ash--
asi--
aspra--
ast--
astra--
astrol--
asun--
at--
ata--
ate--
ath--
atta--
au--
aus--
australo--
auto--
aux--
av--
ava--
ave--
avi--
aw--
awa--
ax--
ay--
az--
aŋ--
b--
ba--
bacc--
bach--
bad--
bag--
bah--
bai--
bal--
balus--
bamb--
ban--
bar--
bas--
bass--
bat--
bau--
bay--
be--
bec--
bee--
bel--
ben--
bene--
ber--
beren--
bertho--
bes--
bet--
bh--
bi--
bia--
big--
bil--
bin--
biodi--
biof--
biofisi--
biog--
bios--
bir--
bis--
bit--
bl--
bla--
bli--
bloo--
bo--
bod--
boic--
bol--
bom--
bon--
bona--
bor--
boro--
bos--
bou--
bour--
bow--
br--
bra--
brig--
brit--
bro--
brod--
bru--
bry--
bu--
bug--
bul--
bunde--
bundes--
bur--
buruxa--
bus--
but--
bw--
by--
byzan--
c--
ca--
cabr--
cac--
cai--
cal--
cala--
cam--
can--
cap--
capre--
car--
cardio--
cari--
cartv--
cas--
cast--
cat--
cau--
caua--
cava--
cax--
cay--
ce--
cel--
cen--
cent--
cer--
cere--
ces--
cet--
ch--
cha--
chari--
chart--
che--
chi--
chlo--
cho--
chron--
chu--
ci--
cia--
cid--
cil--
cilo--
cimb--
cimi--
cir--
cisal--
cislei--
citi--
citri--
ciu--
cl--
cla--
clar--
clau--
cle--
clo--
clorofluorocar--
cly--
cni--
co--
coc--
cock--
cod--
coe--
cogn--
col--
coli--
com--
come--
con--
confu--
confuix--
conse--
contra--
cop--
cor--
cordi--
corre--
corti--
cos--
cosmo--
cost--
cot--
cou--
coup--
cour--
cova--
covre--
cr--
crac--
cre--
cri--
cript--
cris--
cro--
cru--
ct--
cteno--
cu--
cua--
cuadr--
cucu--
cul--
cum--
cur--
cut--
cv--
cy--
cze--
d--
da--
dai--
dal--
dam--
dan--
dar--
das--
dau--
daw--
de--
dec--
ded--
defe--
dei--
del--
dem--
democ--
den--
dendr--
der--
des--
descen--
desu--
det--
dh--
di--
dia--
dic--
die--
diff--
dift--
dimit--
din--
dio--
dipo--
dipteroc--
dis--
div--
diver--
dj--
dju--
dm--
do--
docum--
dok--
dol--
dolo--
dom--
don--
dor--
dord--
dr--
drau--
dre--
dru--
du--
dua--
duc--
dui--
dul--
duls--
dum--
dun--
dur--
dy--
dz--
dzi--
e--
ea--
eb--
ec--
ecate--
eco--
ectop--
ecui--
ecumen--
ed--
ede--
edu--
ee--
ef--
eg--
egi--
egy--
eh--
ei--
ej--
ek--
el--
ela--
ele--
elect--
eletro--
elf--
eli--
elio--
els--
em--
emer--
emi--
emo--
empor--
en--
encu--
ency--
end--
eng--
engl--
eno--
ens--
ensef--
ent--
entop--
eo--
ep--
epi--
epic--
eq--
equi--
er--
ere--
eri--
eru--
es--
esa--
esc--
escul--
ese--
esi--
espe--
espre--
ess--
est--
esta--
estra--
estro--
estu--
et--
eteo--
ethno--
eti--
etnogra--
etnografi--
etnolo--
etnor--
eto--
eu--
eucom--
eudic--
eurilai--
euro--
eury--
eusta--
ev--
eva--
evanj--
evi--
evo--
ew--
ex--
expan--
explo--
ey--
ez--
f--
fa--
fac--
fago--
fal--
falx--
fam--
fan--
far--
farm--
fas--
fax--
fe--
fel--
feld--
fenes--
feno--
fer--
fes--
ff--
fi--
fibr--
fil--
fila--
filan--
fili--
filo--
fin--
fit--
fitz--
fl--
flex--
flo--
flu--
fo--
fol--
fom--
fon--
fonct--
foot--
for--
foro--
foto--
fou--
fr--
fra--
framb--
fre--
fri--
fro--
frons--
fru--
ft--
fu--
fuent--
ful--
fule--
func--
fur--
g--
ga--
gal--
gan--
gar--
gas--
gastro--
gatt--
gau--
gay--
gaz--
ge--
gen--
geo--
ger--
ges--
get--
gh--
ghi--
gi--
gil--
gimnos--
gioc--
gir--
giul--
gla--
glad--
gli--
glo--
glu--
gn--
go--
god--
gol--
gon--
gor--
got--
gotis--
gra--
grand--
grapt--
gre--
green--
gri--
griec--
gro--
groß--
gru--
gu--
gua--
guadal--
gue--
gui--
gull--
gulli--
gut--
gw--
gy--
gyit--
h--
ha--
had--
hai--
hal--
ham--
hamam--
han--
haplo--
har--
hard--
has--
hat--
haw--
hay--
haz--
he--
head--
heb--
hei--
hel--
hem--
hen--
her--
hex--
hi--
high--
him--
hin--
hirs--
his--
hit--
hm--
ho--
hoh--
hohen--
hol--
hold--
homp--
hon--
hoo--
hor--
hos--
hot--
hox--
hu--
hua--
hui--
hun--
hus--
hut--
hw--
hy--
hynd--
hypp--
hyppy--
i--
ia--
ianom--
ibi--
ic--
ice--
ich--
id--
idrau--
idro--
ie--
ien--
ier--
if--
ig--
ii--
iji--
ik--
il--
ili--
illus--
ilo--
ilus--
im--
ima--
imp--
imuno--
in--
ina--
inc--
inde--
indi--
indo--
ine--
infan--
ing--
ingen--
ini--
int--
integu--
inter--
intere--
intro--
io--
ion--
iper--
ipo--
ir--
ire--
is--
isk--
iso--
ist--
isto--
it--
ita--
itel--
iu--
iusti--
iv--
ix--
iz--
j--
ja--
jai--
jan--
jar--
je--
jem--
jen--
jeom--
jer--
jerun--
jes--
ji--
jin--
jo--
jormun--
ju--
jud--
juden--
junct--
k--
ka--
kah--
kai--
kak--
kal--
kam--
kan--
kapt--
kar--
kara--
kas--
kau--
kazah--
ke--
kel--
ken--
kh--
kha--
khu--
ki--
kil--
kilo--
kir--
kirjo--
kirk--
kiu--
kl--
km--
kne--
ko--
kom--
kon--
kos--
kosmo--
kr--
kre--
ku--
kul--
kun--
kuqa--
kuqaqe--
kv--
kw--
kwa--
kwe--
ky--
l--
la--
labio--
lac--
lag--
lager--
lah--
lai--
lam--
lan--
land--
lang--
lango--
lar--
las--
latif--
lau--
lav--
laz--
le--
leca--
led--
lef--
lei--
leji--
len--
leo--
les--
let--
leu--
leucos--
lex--
ley--
li--
lia--
lici--
licop--
lietu--
lim--
limfo--
lin--
lir--
lirio--
lis--
lit--
liv--
ll--
lla--
lle--
lli--
llo--
lo--
loco--
lod--
lofo--
logo--
lohen--
loi--
loji--
lon--
los--
lou--
low--
ls--
lu--
luc--
lud--
ludo--
lumb--
ly--
lymp--
m--
ma--
maa--
mac--
macro--
mae--
mag--
magen--
magi--
magn--
mah--
mai--
main--
maj--
mal--
mam--
man--
mans--
manus--
map--
mapu--
mar--
mara--
mari--
mas--
mat--
matri--
mau--
maw--
max--
may--
mb--
mc--
me--
med--
media--
mega--
mei--
mel--
melan--
meloc--
mem--
men--
mer--
mercat--
merid--
mes--
met--
meta--
meteo--
metho--
mi--
mico--
micro--
mid--
mie--
mil--
mili--
min--
mini--
mio--
mis--
mit--
mm--
mo--
mod--
moi--
mol--
mole--
mom--
mon--
mono--
monte--
mor--
morfo--
mos--
moza--
mp--
ms--
mt--
mu--
mul--
multi--
mun--
mur--
mus--
muta--
my--
myris--
n--
na--
nabo--
nah--
nai--
nan--
nano--
nar--
nas--
naso--
nau--
naz--
nazar--
nc--
nd--
ne--
nea--
necro--
nefro--
neg--
neo--
nes--
net--
neur--
nev--
new--
ng--
nga--
ni--
nia--
nic--
nico--
nie--
nim--
nin--
niqui--
nis--
nj--
nk--
nn--
no--
noa--
nom--
non--
noncon--
noni--
nonom--
nonp--
nonper--
nor--
nos--
not--
nova--
novo--
np--
ns--
nt--
nu--
nue--
nuku--
num--
nup--
nur--
nut--
ny--
nz--
nɔ--
o--
ob--
obi--
oc--
oce--
octa--
od--
odi--
odontos--
oe--
of--
off--
offic--
oftal--
og--
oh--
oi--
oj--
ok--
ol--
old--
oli--
olo--
oly--
om--
omni--
omo--
omu--
on--
one--
oni--
onico--
ont--
oo--
op--
opa--
or--
ora--
ore--
org--
ori--
orni--
ornitis--
ornitol--
oro--
os--
oseanogra--
oss--
oste--
ostra--
ostro--
ot--
ota--
ote--
oti--
oto--
ou--
out--
ov--
ova--
ow--
oxy--
oy--
oz--
p--
pa--
pac--
pah--
pai--
paint--
pal--
paleo--
pam--
pan--
pap--
papa--
par--
para--
parla--
pas--
pasa--
pat--
patri--
pau--
pauci--
pc--
pe--
pel--
pelo--
pelux--
pen--
penob--
per--
pera--
perci--
peri--
perm--
pet--
petro--
petx--
pf--
ph--
philhar--
phoe--
phy--
pi--
pia--
pie--
piet--
pig--
pigos--
pil--
pin--
pina--
pit--
pix--
pl--
plas--
plate--
plati--
plau--
ple--
pleurot--
pli--
plo--
plu--
po--
poe--
poh--
pol--
poli--
pomp--
por--
port--
pos--
post--
pov--
pow--
pr--
pra--
pragm--
pre--
prece--
pres--
pri--
princ--
pro--
profes--
prote--
proto--
pru--
ps--
pseudo--
psic--
psico--
psita--
psy--
psycho--
pt--
pu--
pul--
pum--
pun--
pur--
put--
puzz--
px--
pyr--
q--
qa--
qi--
qo--
qu--
qua--
que--
qui--
quin--
quo--
quoti--
r--
ra--
rab--
radio--
rai--
ram--
ran--
rans--
rap--
ras--
rasta--
rd--
re--
rea--
rec--
recon--
recons--
recor--
recur--
red--
rede--
reg--
rei--
rein--
rel--
rem--
remem--
ren--
rep--
repri--
res--
respo--
resur--
reti--
retro--
reuma--
rev--
rg--
rh--
rhizop--
ri--
rid--
rie--
rin--
ris--
rizo--
rn--
ro--
rob--
roc--
rock--
rod--
roe--
rom--
ron--
ros--
rose--
rott--
rp--
rs--
rt--
ru--
run--
rus--
ry--
s--
sa--
sab--
saccharomy--
sacr--
sal--
sam--
san--
sar--
sara--
sas--
sat--
satir--
sauri--
sauv--
sc--
scale--
scap--
sce--
sch--
schi--
schle--
schu--
schw--
sci--
scizo--
scizofre--
sco--
scu--
scua--
scul--
se--
sea--
sec--
see--
sefa--
sei--
sel--
sem--
semi--
sen--
sep--
ser--
ses--
set--
sew--
sex--
sey--
sh--
sha--
shah--
she--
shel--
shi--
shu--
si--
sic--
sica--
sie--
sient--
sif--
sign--
sigurð--
sii--
sik--
sil--
sim--
sin--
sint--
sip--
sir--
sirco--
sis--
sit--
sk--
ska--
skri--
skul--
sky--
sla--
sli--
slu--
sm--
smo--
sn--
snow--
so--
socio--
sog--
sol--
son--
sor--
soric--
sosio--
sou--
sp--
spa--
spe--
spina--
spir--
spon--
spor--
sr--
ss--
st--
sta--
stabil--
star--
stat--
ste--
ster--
stere--
stern--
sti--
sto--
str--
strep--
strom--
strut--
stu--
sty--
su--
sua--
sub--
subos--
succ--
sud--
sue--
suff--
sui--
suje--
sul--
suli--
sulpi--
sum--
sun--
suo--
super--
supra--
sur--
sus--
suses--
sve--
sviz--
svo--
sw--
sy--
syl--
syn--
syr--
sz--
t--
ta--
taci--
tag--
taglia--
tai--
tak--
tal--
taliq--
tam--
tan--
tar--
tas--
tay--
te--
tech--
tei--
tel--
tele--
tem--
temp--
ten--
teof--
ter--
tereb--
termo--
terri--
tertu--
tes--
tetra--
th--
tha--
the--
tho--
thy--
ti--
tia--
tif--
til--
tim--
time--
tin--
tir--
tis--
tla--
to--
tol--
tom--
ton--
top--
tor--
tos--
tou--
tr--
tra--
trans--
tre--
tri--
trilo--
tris--
trium--
tro--
trombos--
tromp--
tru--
ts--
tsa--
tse--
tsɛ--
tt--
tu--
tua--
tubuli--
tui--
tul--
tum--
tur--
tus--
tv--
tw--
tx--
txa--
txu--
ty--
tyrr--
tzo--
u--
ua--
ucc--
ude--
ue--
ui--
uk--
ul--
ultra--
um--
un--
una--
under--
une--
uni--
uno--
uns--
unter--
uo--
up--
ur--
ura--
us--
usa--
usur--
ut--
uu--
uy--
uz--
v--
va--
vadi--
vai--
val--
van--
var--
vascul--
vatk--
ve--
vec--
veget--
ven--
ver--
verte--
ves--
vesic--
vi--
via--
vici--
vie--
vil--
vin--
vir--
vis--
visi--
vla--
vo--
voi--
vol--
vomb--
von--
vor--
vos--
vougioukl--
vu--
vul--
w--
wa--
wai--
wal--
wald--
wan--
war--
wart--
way--
waʔ--
we--
wei--
wen--
wet--
wh--
whit--
wi--
wie--
wik--
wiki--
wil--
win--
wit--
wo--
won--
woor--
wra--
wu--
wy--
x--
xa--
xal--
xan--
xec--
xer--
xi--
xin--
xo--
xu--
xx--
y--
ya--
yam--
yan--
yanom--
yar--
ye--
yer--
yi--
yng--
yo--
yu--
z--
za--
zaans--
zambo--
zasla--
ze--
zel--
zem--
zen--
zhong--
zi--
ziph--
zo--
zoroast--
zu--
æ--
ð--
þ--
þa--
þu--
đ--
ł--
ŋ--
ƒo--
ƕ--
ɔ--
ə--
ɛ--
ɡ--
ɣ--
ɨ--
ɪ--
ɫ--
ɫa--
ʃ--
ʊ--
ʒ--
ʔ--
ʕ--
α--
β--
βα--
γ--
δ--
ε--
ελ--
θ--
κ--
κα--
λ--
μ--
ν--
νε--
ο--
π--
πα--
ρ--
ρι--
σ--
στ--
τ--
τρ--
χ--
ω--
а--
алек--
б--
ба--
бо--
в--
ва--
ве--
выл--
г--
го--
д--
до--
е--
з--
за--
зе--
и--
к--
кр--
ку--
л--
ле--
м--
ми--
мо--
н--
ну--
о--
п--
пр--
пу--
р--
ре--
с--
сту--
сь--
т--
та--
у--
х--
ца--
ш--
ы--
э--
я--
ד--
י--
ا--
ع--
ـ--
ـا--
ف--
م--
ي--
त--
व--
ਰ--
ད--
--0
--06
--1
--2
--28
--3
--4
--5
--6
--7
--8
--9
--a
--aa
--aan
--ab
--aba
--able
--ac
--aca
--aceae
--ach
--aco
--acos
--ad
--ada
--ade
--ado
--ae
--af
--afa
--ag
--aga
--age
--ah
--ai
--aian
--ail
--ainen
--ais
--ak
--al
--ala
--ales
--alia
--all
--am
--an
--ana
--and
--anes
--ani
--ania
--ano
--anoi
--ant
--ante
--ao
--aq
--ar
--ara
--ard
--are
--ario
--arios
--aro
--ary
--as
--ase
--asea
--at
--ata
--ation
--ato
--atura
--au
--aurio
--auro
--auros
--aurus
--aut
--aw
--awo
--ax
--ay
--ayo
--az
--b
--ba
--bal
--bar
--be
--bed
--berg
--bet
--bi
--bia
--bio
--ble
--bli
--blia
--bo
--borough
--bour
--bre
--bria
--bro
--bs
--bsd
--bu
--bua
--bulo
--burg
--bus
--by
--c
--ca
--cal
--can
--car
--cas
--cchio
--cci
--ccio
--ce
--cea
--ceae
--cen
--ceo
--cer
--ces
--ch
--che
--ches
--chfa
--chi
--cht
--chte
--ci
--cia
--cido
--cin
--cino
--cio
--cion
--ciones
--cions
--ciste
--cius
--ck
--cke
--cker
--cle
--co
--coan
--copio
--cos
--cratia
--criptodiro
--cs
--ct
--cte
--ction
--cto
--cu
--cula
--culal
--culato
--culum
--cum
--cus
--cy
--cyte
--czo
--d
--da
--daceae
--dad
--dae
--dag
--dale
--dam
--das
--dasea
--dd
--de
--dea
--den
--dendron
--deo
--der
--deria
--des
--dge
--dh
--di
--dia
--ding
--dio
--dis
--disme
--diste
--dium
--diz
--djan
--dl
--dler
--do
--dol
--don
--dones
--dontido
--dontos
--dor
--dores
--doro
--dos
--dr
--dra
--dria
--dro
--dron
--ds
--dt
--du
--dura
--dus
--dy
--e
--ea
--eae
--ean
--eas
--ec
--eca
--eco
--ed
--eda
--edro
--ee
--ef
--eg
--ega
--eh
--ei
--eira
--ejo
--ek
--eka
--el
--ela
--elf
--elido
--ell
--ello
--els
--em
--empe
--en
--ena
--ence
--ene
--eni
--enia
--enio
--eno
--ens
--ensis
--ent
--ente
--eo
--eognato
--ep
--eque
--er
--ere
--eri
--eria
--erias
--ering
--ern
--ero
--ers
--erse
--ert
--erve
--es
--eso
--est
--et
--eta
--etas
--ete
--eti
--eto
--etre
--ett
--etta
--etto
--etv
--eu
--eum
--eus
--eux
--ev
--eve
--ey
--ez
--f
--fa
--fd
--fe
--fem
--fen
--feo
--fete
--ff
--ffe
--fford
--fi
--fia
--fica
--fido
--field
--filo
--fire
--fis
--fisme
--fita
--flue
--fn
--fo
--fon
--ft
--fu
--fy
--g
--ga
--gai
--gan
--gapa
--gar
--gas
--gawa
--ge
--ged
--gel
--gen
--ger
--ges
--gg
--gga
--ggio
--gh
--ght
--ghts
--gi
--gia
--gido
--gie
--gin
--ging
--gio
--gl
--gle
--gma
--gn
--gna
--gne
--gno
--gny
--go
--gor
--goro
--gos
--gra
--grad
--grada
--grafi
--grafia
--gram
--graph
--gs
--gu
--gua
--gui
--guk
--gun
--gus
--gy
--h
--ha
--hai
--hal
--ham
--han
--he
--head
--heim
--hes
--heus
--hi
--hia
--hies
--hl
--hley
--hn
--hna
--ho
--hoe
--hold
--hood
--horn
--hr
--hra
--hs
--ht
--hta
--hu
--i
--ia
--iad
--iada
--ial
--ian
--iana
--ianes
--ias
--iato
--iava
--ibe
--ible
--ic
--ica
--ical
--icas
--ices
--ici
--icia
--icio
--ick
--icli
--ico
--ics
--iculo
--icum
--icus
--id
--ida
--idad
--idas
--ide
--ideo
--ides
--idi
--idia
--idido
--idino
--ido
--idos
--ie
--iel
--ien
--ier
--ieta
--iete
--if
--ifero
--iformo
--iformos
--ig
--iga
--ige
--ight
--ign
--igo
--igrado
--igu
--ih
--ii
--ija
--ijio
--ik
--ika
--iki
--ikon
--iks
--il
--ilabal
--ilainen
--iliada
--im
--ime
--imes
--in
--ina
--inas
--ine
--ines
--ing
--ini
--inio
--ino
--inos
--ins
--inte
--intese
--inus
--io
--iola
--ion
--ior
--ios
--ip
--ique
--ir
--ira
--ire
--iri
--iro
--is
--isa
--isada
--ise
--ish
--ism
--isme
--ist
--ista
--iste
--istes
--ists
--it
--ita
--itariste
--itas
--ite
--ites
--ith
--itica
--ities
--ito
--itos
--ity
--iu
--ium
--ius
--iva
--ive
--ives
--ivo
--iw
--ix
--iza
--j
--ja
--jar
--jas
--je
--jen
--jeo
--ji
--jia
--jial
--jida
--jio
--jk
--jn
--jo
--jp
--ju
--k
--ka
--ke
--ker
--kerk
--kes
--kh
--ki
--kin
--kins
--kir
--ko
--kov
--ks
--kt
--kti
--ku
--kviða
--ky
--l
--la
--lada
--lal
--lan
--land
--lao
--lar
--las
--lat
--lata
--lato
--lay
--lba
--lc
--ld
--lda
--lde
--ldi
--ldorf
--le
--leo
--ler
--les
--less
--ley
--lf
--lha
--lho
--li
--lia
--lic
--lico
--lida
--lido
--lig
--lige
--lin
--lio
--lior
--lis
--lisme
--liste
--litos
--lk
--ll
--lla
--llas
--lle
--lli
--llo
--lly
--lo
--logie
--logy
--lojia
--lojial
--lojiste
--lojistes
--lop
--lor
--los
--low
--ls
--lt
--lta
--lto
--lu
--lum
--lung
--lungen
--ly
--lz
--læ
--m
--ma
--mak
--mala
--mama
--man
--mar
--mas
--math
--matica
--mba
--mbo
--mbon
--md
--me
--men
--ment
--mente
--mer
--mes
--mi
--mia
--mido
--mir
--miste
--mment
--mo
--monio
--morfo
--mos
--mosa
--mp
--mple
--mpo
--mps
--mr
--ms
--mu
--my
--n
--na
--naceae
--nae
--nah
--nai
--nal
--nam
--nan
--nas
--nata
--nath
--nay
--nc
--nca
--ncas
--nce
--ncia
--nco
--nd
--nda
--nde
--nder
--ndi
--ndo
--ndro
--ne
--neal
--ned
--nel
--nell
--nen
--neo
--ner
--nera
--ners
--nes
--nese
--ness
--neuro
--nfeta
--ng
--nga
--nge
--ngen
--ngula
--ni
--nia
--nial
--nian
--nianes
--nias
--nicus
--nida
--nig
--nim
--nin
--ning
--nio
--nir
--nis
--nisme
--nita
--nius
--nj
--nje
--nk
--nki
--nn
--nna
--nne
--no
--noi
--nol
--non
--nor
--nos
--nova
--ns
--nse
--nsi
--nsia
--nsial
--nsin
--nsis
--nso
--nt
--nta
--ntal
--nte
--ntes
--nti
--ntia
--ntial
--ntias
--ntida
--ntido
--ntino
--ntis
--nto
--ntor
--nts
--ntz
--nu
--nuro
--nus
--nx
--ny
--nye
--nz
--nza
--nɛ
--o
--oa
--oco
--od
--odo
--of
--og
--ogia
--ografi
--ografia
--oh
--oi
--oide
--oidea
--oideo
--oides
--ojia
--ok
--oka
--oks
--ol
--olojia
--om
--oma
--ome
--omei
--omia
--omorfo
--on
--onal
--ond
--one
--ones
--ong
--ongo
--onia
--ons
--oo
--oon
--op
--ophiae
--opsida
--or
--ora
--orda
--ore
--ores
--ormo
--ort
--orum
--ory
--os
--osa
--ose
--osia
--osto
--ot
--ota
--ote
--otu
--ou
--oun
--our
--ous
--ov
--ova
--ovich
--ovo
--ow
--p
--pa
--pada
--pal
--pan
--panax
--pas
--pe
--ped
--pes
--phe
--phic
--phil
--phis
--phus
--phy
--phyta
--pi
--pia
--pial
--pis
--pla
--po
--poda
--podes
--podo
--podos
--pos
--ppo
--ps
--psida
--psido
--pt
--pta
--pte
--ptera
--pterido
--ptero
--ption
--pu
--pus
--q
--qa
--qi
--qua
--que
--ques
--r
--ra
--rad
--rado
--rak
--ran
--rar
--ras
--rba
--rc
--rca
--rce
--rch
--rco
--rcto
--rd
--rda
--rdia
--rdo
--rdt
--re
--rea
--ren
--reo
--rer
--res
--rey
--rf
--rfo
--rfos
--rg
--rges
--rgo
--ri
--ria
--rian
--rias
--rido
--rie
--ries
--rii
--rin
--rina
--rio
--rios
--ris
--rit
--rite
--rium
--rius
--rk
--rl
--rm
--rma
--rmo
--rn
--rna
--rnas
--rno
--ro
--ron
--rop
--ropodo
--ror
--rores
--ros
--rp
--rra
--rre
--rro
--rs
--rse
--rson
--rt
--rta
--rte
--rth
--rty
--ru
--rum
--rus
--rve
--ry
--rz
--s
--sa
--sada
--sai
--sal
--san
--sar
--sas
--saurio
--saurus
--sberg
--sburg
--sc
--sca
--scape
--sce
--sch
--se
--sea
--see
--sefalo
--sen
--ses
--sez
--sfeld
--sh
--ship
--shire
--si
--sia
--sian
--sianes
--sias
--sida
--side
--sideda
--sin
--sio
--sis
--site
--siva
--sive
--sk
--ske
--sl
--sla
--sm
--sma
--sme
--smo
--so
--son
--sor
--sos
--sosa
--ss
--ssa
--sse
--ssi
--sso
--sson
--ssu
--st
--sta
--stad
--stas
--ste
--ster
--stes
--sti
--stial
--sto
--ston
--stry
--stur
--su
--sus
--sy
--szoon
--t
--ta
--taceae
--tad
--tada
--tal
--tam
--tan
--tar
--tas
--tato
--te
--tea
--tec
--ted
--tek
--ten
--teo
--ter
--tes
--tgo
--th
--ti
--tia
--tic
--tica
--tics
--tida
--tidae
--tide
--tidi
--tido
--tidos
--ties
--tig
--tin
--tino
--tinte
--tio
--tion
--tione
--tions
--tis
--tisme
--tiste
--tium
--tius
--tiva
--tive
--tje
--tl
--tle
--tli
--tm
--to
--tock
--tolojia
--ton
--tor
--tors
--tory
--tos
--tov
--town
--tra
--tro
--try
--ts
--tsch
--tsci
--tsu
--tt
--tta
--tte
--tter
--ttes
--tti
--tto
--tu
--tud
--tula
--tuli
--tum
--tur
--tus
--tuta
--tuto
--tva
--tx
--txi
--txol
--ty
--tz
--tzer
--u
--ua
--uable
--ual
--uan
--ub
--uble
--uc
--uck
--uco
--uctions
--ud
--udo
--ue
--uer
--uf
--ug
--uga
--ugh
--uh
--ui
--uia
--uida
--uin
--uis
--uk
--ul
--ulato
--ule
--uli
--ulic
--ull
--ulo
--ulos
--ult
--um
--un
--und
--ung
--unt
--uo
--uosa
--up
--uplic
--ur
--ura
--ure
--ures
--urg
--urido
--urio
--uro
--urs
--urus
--us
--use
--usen
--ut
--uta
--ute
--utes
--uti
--uts
--utxe
--uu
--uw
--ux
--uz
--v
--va
--van
--vas
--vc
--ve
--ved
--vedra
--ver
--vese
--vi
--via
--vian
--vic
--vidor
--vik
--vir
--vo
--vu
--vuri
--vy
--w
--wa
--wald
--way
--we
--wer
--wers
--wi
--wick
--wk
--wn
--wo
--wood
--worth
--ws
--x
--xa
--xe
--xen
--xes
--xi
--xo
--xt
--xu
--y
--ya
--yan
--yard
--yat
--ye
--yel
--yen
--yi
--yk
--yl
--yle
--ym
--yn
--yne
--ynx
--yo
--ys
--yte
--yu
--yx
--yy
--yz
--z
--za
--zac
--zacio
--zar
--zas
--zation
--zd
--ze
--zer
--zi
--zin
--zione
--zo
--zon
--zos
--zt
--zu
--zzi
--zzo
--ß
--ð
--ða
--ðr
--ø
--ız
--ł
--ŋ
--ɔ
--ə
--ɛ
--ɪ
--ɫ
--ɾ
--α
--ε
--η
--ι
--ια
--ις
--ν
--νι
--ο
--ον
--ρ
--ρι
--ς
--τα
--τι
--υ
--ω
--а
--в
--ва
--вич
--г
--га
--ги
--д
--е
--еи
--ет
--з
--и
--ии
--ич
--к
--л
--ла
--ля
--м
--н
--ние
--ны
--о
--ов
--ова
--п
--р
--с
--са
--ски
--скии
--сти
--сь
--та
--то
--ть
--ции
--ч
--ы
--ын
--ь
--я
--і
--ւն
--ה
--ان
--ب
--ة
--د
--ر
--ل
--م
--ن
--ي
--ية
--ی
--ས
