!
"
#
##a
##aa
##ab
##ac
##ad
##ae
##af
##ag
##ah
##ai
##aj
##ak
##al
##am
##an
##ao
##ap
##aq
##ar
##as
##at
##au
##av
##aw
##ax
##ay
##az
##b
##ba
##bb
##bc
##bd
##be
##bf
##bg
##bh
##bi
##bj
##bk
##bl
##bm
##bn
##bo
##bp
##bq
##br
##bs
##bt
##bu
##bv
##bw
##bx
##by
##bz
##c
##ca
##cb
##cc
##cd
##ce
##cf
##cg
##ch
##ci
##cj
##ck
##cl
##cm
##cn
##co
##cp
##cq
##cr
##cs
##ct
##cu
##cv
##cw
##cx
##cy
##cz
##d
##da
##db
##dc
##dd
##de
##df
##dg
##dh
##di
##dj
##dk
##dl
##dm
##dn
##do
##dp
##dq
##dr
##ds
##dt
##du
##dv
##dw
##dx
##dy
##dz
##e
##ea
##eb
##ec
##ed
##ee
##ef
##eg
##eh
##ei
##ej
##ek
##el
##em
##en
##eo
##ep
##eq
##er
##es
##et
##eu
##ev
##ew
##ex
##ey
##ez
##f
##fa
##fb
##fc
##fd
##fe
##ff
##fg
##fh
##fi
##fj
##fk
##fl
##fm
##fn
##fo
##fp
##fq
##fr
##fs
##ft
##fu
##fv
##fw
##fx
##fy
##fz
##g
##ga
##gb
##gc
##gd
##ge
##gf
##gg
##gh
##gi
##gj
##gk
##gl
##gm
##gn
##go
##gp
##gq
##gr
##gs
##gt
##gu
##gv
##gw
##gx
##gy
##gz
##h
##ha
##hb
##hc
##hd
##he
##hf
##hg
##hh
##hi
##hj
##hk
##hl
##hm
##hn
##ho
##hp
##hq
##hr
##hs
##ht
##hu
##hv
##hw
##hx
##hy
##hz
##i
##ia
##ib
##ic
##id
##ie
##if
##ig
##ih
##ii
##ij
##ik
##il
##im
##in
##io
##ip
##iq
##ir
##is
##it
##iu
##iv
##iw
##ix
##iy
##iz
##j
##ja
##jb
##jc
##jd
##je
##jf
##jg
##jh
##ji
##jj
##jk
##jl
##jm
##jn
##jo
##jp
##jq
##jr
##js
##jt
##ju
##jv
##jw
##jx
##jy
##jz
##k
##ka
##kb
##kc
##kd
##ke
##kf
##kg
##kh
##ki
##kj
##kk
##kl
##km
##kn
##ko
##kp
##kq
##kr
##ks
##kt
##ku
##kv
##kw
##kx
##ky
##kz
##l
##la
##lb
##lc
##ld
##le
##lf
##lg
##lh
##li
##lj
##lk
##ll
##lm
##ln
##lo
##lp
##lq
##lr
##ls
##lt
##lu
##lv
##lw
##lx
##ly
##lz
##m
##ma
##mb
##mc
##md
##me
##mf
##mg
##mh
##mi
##mj
##mk
##ml
##mm
##mn
##mo
##mp
##mq
##mr
##ms
##mt
##mu
##mv
##mw
##mx
##my
##mz
##n
##na
##nb
##nc
##nd
##ne
##nf
##ng
##nh
##ni
##nj
##nk
##nl
##nm
##nn
##no
##np
##nq
##nr
##ns
##nt
##nu
##nv
##nw
##nx
##ny
##nz
##o
##oa
##ob
##oc
##od
##oe
##of
##og
##oh
##oi
##oj
##ok
##ol
##om
##on
##oo
##op
##oq
##or
##os
##ot
##ou
##ov
##ow
##ox
##oy
##oz
##p
##pa
##pb
##pc
##pd
##pe
##pf
##pg
##ph
##pi
##pj
##pk
##pl
##pm
##pn
##po
##pp
##pq
##pr
##ps
##pt
##pu
##pv
##pw
##px
##py
##pz
##q
##qa
##qb
##qc
##qd
##qe
##qf
##qg
##qh
##qi
##qj
##qk
##ql
##qm
##qn
##qo
##qp
##qq
##qr
##qs
##qt
##qu
##qv
##qw
##qx
##qy
##qz
##r
##ra
##rb
##rc
##rd
##re
##rf
##rg
##rh
##ri
##rj
##rk
##rl
##rm
##rn
##ro
##rp
##rq
##rr
##rs
##rt
##ru
##rv
##rw
##rx
##ry
##rz
##s
##sa
##sb
##sc
##sd
##se
##sf
##sg
##sh
##si
##sj
##sk
##sl
##sm
##sn
##so
##sp
##sq
##sr
##ss
##st
##su
##sv
##sw
##sx
##sy
##sz
##t
##ta
##tb
##tc
##td
##te
##tf
##tg
##th
##ti
##tj
##tk
##tl
##tm
##tn
##to
##tp
##tq
##tr
##ts
##tt
##tu
##tv
##tw
##tx
##ty
##tz
##u
##ua
##ub
##uc
##ud
##ue
##uf
##ug
##uh
##ui
##uj
##uk
##ul
##um
##un
##uo
##up
##uq
##ur
##us
##ut
##uu
##uv
##uw
##ux
##uy
##uz
##v
##va
##vb
##vc
##vd
##ve
##vf
##vg
##vh
##vi
##vj
##vk
##vl
##vm
##vn
##vo
##vp
##vq
##vr
##vs
##vt
##vu
##vv
##vw
##vx
##vy
##vz
##w
##wa
##wb
##wc
##wd
##we
##wf
##wg
##wh
##wi
##wj
##wk
##wl
##wm
##wn
##wo
##wp
##wq
##wr
##ws
##wt
##wu
##wv
##ww
##wx
##wy
##wz
##x
##xa
##xb
##xc
##xd
##xe
##xf
##xg
##xh
##xi
##xj
##xk
##xl
##xm
##xn
##xo
##xp
##xq
##xr
##xs
##xt
##xu
##xv
##xw
##xx
##xy
##xz
##y
##ya
##yb
##yc
##yd
##ye
##yf
##yg
##yh
##yi
##yj
##yk
##yl
##ym
##yn
##yo
##yp
##yq
##yr
##ys
##yt
##yu
##yv
##yw
##yx
##yy
##yz
##z
##za
##zb
##zc
##zd
##ze
##zf
##zg
##zh
##zi
##zj
##zk
##zl
##zm
##zn
##zo
##zp
##zq
##zr
##zs
##zt
##zu
##zv
##zw
##zx
##zy
##zz
$
%
&
'
(
)
*
+
,
-
.
/
0
00
000
001
002
003
004
005
006
007
008
009
01
010
011
011667
012
013
014
015
016
016667
018
019
02
020
023
025
03
033
033333
034
035
04
05
055
06
063
064
065
066667
0685
07
070
075
08
083333
084
09
090
0a
0b
0c
0d
0e
0f
0g
0h
0i
0j
0k
0l
0m
0n
0o
0p
0q
0r
0s
0t
0u
0v
0w
0x
0y
0z
1
10
100
1000
1002
1005
1007
101
1015
1016
1017
102
1029
103
1034
1038
104
105
1050
1054
106
1065
107
1073
108
1080
1088
1089
109
1090
1095
1096
1098
11
110
1100
1103
1109
111
1110
1112
1113
112
1124656644
1126
113
1130
114
1145
115
116
1164
116667
117
118
1183
1185
119
1190
1192
1193
1195
12
120
1200
1204
1206
1207
121
1214
1216
1217
1218
122
1224
1225
123
1232
1233
1237
1238
124
125
1250
1255
1257
1258
1259
126
1261
126944
127
1270
1274
1275
128
1284
1288
129
1295
1297
1299
13
130
1300
131
1316
1317
132
1323
1324
1325
1326
1327
133
1331
133333
1334
1336
1337
134
1341
1343
1347
1348
135
1350
1353
1354
1355
1358
136
1362
1365
1369
137
1375
1376
1377
138
1383
1387
1388
139
1391
1392
1396
14
140
1400
1407
1408
1409
141
1410
1412
1414
1415
1416
142
1420
1421
142294
1424
1427
143
1436
144
1448
1449
145
1453
1455
1456
1458
146
1468
1469
147
1470
1475
1476
1477
1478
1479
148
149
1492
1494
1496
1497
1499
15
150
1500
1502
1503
1504
1505
1507
1508
1509
151
1511
1514
1515
1516
1517
1519
152
1520
1521
1523
1526
153
1533
1534
1535
1538
1539
154
1540
1541
1542
1543
1544
1548
155
1550
1555
1556
1558
156
1563
1564
1567
157
1570
1571
1572
1573
1577
1578
158
1580
1581
1582
1584
1588
1589
159
1591
1594
1595
1596
1597
16
160
1600
1602
1603
1604
1605
1607
1608
1609
161
1610
1614
1615
1616
1617
1618
162
1620
1621
1622
1623
1624
1625
1626
1627
163
1630
1631
1637
1639
164
1640
1642
1643
1644
1648
165
1650
1652
1654
1655
1656
1657
1658
166
1665
166667
1667
1668
1669
167
1672
1673
1674
168
1680
1683
1685
169
1690
1691
1697
1699
17
170
1700
1701
1706
1707
1708
171
1711
1712
1713
1714
1715
1717
1718
172
1720
1724
1725
1726
1729
173
1732
1738
174
1740
1748
1749
175
1750
1751
1753
1755
1756
1758
1759
176
1760
1762
1763
1764
1765
1767
1768
1769
177
1770
1772
1773
1774
1775
1776
1777
1778
1779
178
1780
1783
1785
1786
1787
1788
1789
179
1790
1791
1792
1793
1794
1795
1796
1797
1798
1799
18
180
1800
1801
1802
1803
1804
1805
1806
1807
1808
1809
181
1810
1811
1812
1813
1814
1815
1816
1817
1818
1819
182
1820
1821
1822
1823
1824
1825
1826
1827
1828
1829
183
1830
1831
1832
1833
183333
1834
1835
1836
1837
1838
1839
184
1840
1841
1842
1843
1844
1845
1846
1847
1848
1849
185
1850
1851
1852
1853
1854
1855
1856
1857
1858
1859
186
1860
1861
1862
1863
1864
1865
1866
1867
1868
1869
187
1870
1871
1872
1873
1874
1875
1876
1877
1878
1879
188
1880
1881
1882
1883
1884
1885
1886
1887
1888
1889
189
1890
1891
1892
1893
1894
1895
1896
1897
1898
1899
19
190
1900
1901
1902
1903
1904
1905
1906
1907
1908
1909
191
1910
1911
1912
1913
1914
1915
1916
1917
1918
1919
192
1920
1921
1922
1923
1924
1925
1926
1927
1928
1929
193
1930
1931
1932
1933
1934
1935
1936
1937
1938
1939
194
1940
1941
1942
1943
1944
1945
1946
1947
1948
1949
195
1950
1951
1952
1953
1954
1955
1956
1957
1958
1959
196
1960
1961
1962
1963
1964
1965
1966
1967
1968
1969
197
1970
1971
1972
1973
1974
1975
1976
1977
1978
1979
198
1980
1981
1982
1983
1984
1985
1986
1987
1988
1989
199
1990
1991
1992
1993
1994
1995
1996
1997
1998
1999
1a
1b
1c
1d
1e
1f
1g
1h
1i
1j
1k
1l
1m
1n
1o
1p
1q
1r
1s
1t
1u
1v
1w
1x
1y
1z
2
20
200
2000
2001
2002
2003
2004
2005
2006
2007
2008
2009
201
2010
2011
2012
2013
2014
2015
2016
2017
2018
2019
202
2020
2021
2022
203
204
205
2050
206
207
208
209
21
210
211
212
213
214
215
216
216667
217
218
22
220
221
222
223
224
225
226
227
228
229
23
230
2307
231
231730413
232
233
233333
234
235
236
237
238
239
24
240
2400
241
242
243
244
245
246
247
248
249
25
250
2500
251
253
254
255
256
257
258
259
26
260
261
262
263
264
265
266
266667
267
268
269
27
270
271
272
273
274
275
276
277
278
279
28
280
281
282
283
283333
283611
284
285
286
287
288
289
29
290
291
292
293
294
295
297
298
299
2a
2b
2c
2d
2e
2f
2g
2h
2i
2j
2k
2l
2m
2n
2o
2p
2q
2r
2s
2t
2u
2v
2w
2x
2y
2z
3
30
300
3000
301
302
303
304
305
306
307
308
309
31
310
311
312
313
314
315
316667
317
318
32
320
3200
321
322
323
324
325
326
327
328
329
33
330
3300
3309
331
332
333
333333
334
335
336
338
339
34
340
341
342
343
344
345
346
347
348
349
35
350
3500
351
352
353
355
356
357
358
359
36
360
361
364
365
366667
369
37
370
371
372
374
375
376
377
378
379
38
380
381
383
383333
384
385
386
387
388
389
39
390
391
392
393
395
396
397
398
399
3a
3b
3c
3d
3e
3f
3g
3h
3i
3j
3k
3l
3m
3n
3o
3p
3q
3r
3s
3t
3u
3v
3w
3x
3y
3z
4
40
400
4000
402
405
408
409
41
410
412
414
415
416
416667
418
419
42
420
421
422
424
425
426
428
43
430
431
432
433333
434
435
439722
44
440
444
445
45
450
451
452
453
454
455
456
457
458
459
46
460
461
462
464
465
466
466667
467
468
47
470
470391425
472
475
476
477
478
48
480
482
483
483333
484
487
49
490
491
49195883
492
493
495
497
498
498333
499
4a
4b
4c
4d
4e
4f
4g
4h
4i
4j
4k
4l
4m
4n
4o
4p
4q
4r
4s
4t
4u
4v
4w
4x
4y
4z
5
50
500
5000
501
502
505
506
507
509
51
510
514
516
516667
517
518
52
520
521
522
523
524
525
526
527
529
53
530
532
533
533333
534
535
536
54
540
541
542
545
548
549
55
550
551
55136
551944
552
553
554
555
556
559167
56
560
563
565
566667
567
568
57
570
571
572
575
576
577
578
58
580
581
582
583333
584
586
59
590
591
594
595
597
599
5a
5b
5c
5d
5e
5f
5g
5h
5i
5j
5k
5l
5m
5n
5o
5p
5q
5r
5s
5t
5u
5v
5w
5x
5y
5z
6
60
600
6000
602
6025
603
604
605
606
609
61
610
612
616667
617
618
62
620
6202
622
625
626
627
628
63
632
633
633333
634
635
636
639
64
640
641
645
646
648
649
65
650
658
66
660
661
666667
669
67
670
671
676
679
6791
68
682
683333
685
6851
69
690
692
694
696
698
6a
6b
6c
6d
6e
6f
6g
6h
6i
6j
6k
6l
6m
6n
6o
6p
6q
6r
6s
6t
6u
6v
6w
6x
6y
6z
7
70
700
7000
701
704
705
709
71
711
7138
716667
718
7192
72
720
726667
727
73
730
731
733333
7343
7356
736
738
7383
74
740
741
744
745
746
75
750
751
753
76
760
766
766667
77
771
7741
77504100
77556665
777
778
78
783333
787
79
792
793
794
798
7a
7b
7c
7d
7e
7f
7g
7h
7i
7j
7k
7l
7m
7n
7o
7p
7q
7r
7s
7t
7u
7v
7w
7x
7y
7z
8
80
800
8000
802
803
806
8080
808889
81
810
812
813
814
815
816
816667
82
820
821
822
825
827
829
83
833333
834
84
840
843
8467
848
85
850
85098
851
8525
854
855
856863696
857
85995
86
860
86002
86143
862
86229
863
864
866
866667
868643061
87
870
878
87825
879939459
88
880
881
88246
883333
885
88569
886513630
888708482
89
89187
89188
8a
8b
8c
8d
8e
8f
8g
8h
8i
8j
8k
8l
8m
8n
8o
8p
8q
8r
8s
8t
8u
8v
8w
8x
8y
8z
9
90
900
903
91
911
912
912286255
915
916667
92
920
922
924
925
926
93
930
932
933333
934
935
937
938
94
943
945
947
9475
949
95
950
951
957
959
96
960
962
963
966667
967
96778
968
969
97
970
97084
971
97285
973
974
975
977
978
9788871382418
979
98
980
980297209
981
981944
982
983
983333
984
986
988
989
99
990
992
995
997
998
999
9a
9b
9c
9d
9e
9f
9g
9h
9i
9j
9k
9l
9m
9n
9o
9p
9q
9r
9s
9t
9u
9v
9w
9x
9y
9z
:
;
<
=
>
?
@
[
[CLS]
[MASK]
[PAD]
[SEP]
[UNK]
\
]
^
_
`
a
a0
a1
a2
a3
a4
a5
a6
a7
a8
a9
aa
aaron
aavv
ab
aba
abade
abaidare
abaliadu
abandonada
abandonadu
abandonu
abarrada
abarradas
abarrados
abarradu
abarrai
abarraiant
abarraiat
abarrant
abarrare
abarrat
abarrau
abarraus
abarrende
abarros
abarru
abas
abasatu
abasciamentu
abate
abba
abbadia
abbaida
abbaidadu
abbaidare
abbandonada
abbandonadas
abbandonados
abbandonadu
abbandonare
abbandonat
abbandonati
abbandonende
abbandonu
abbarrada
abbarrados
abbarradu
abbarrant
abbarrare
abbarrat
abbas
abbasanta
abbatzia
abbentu
abbentura
abberu
abbey
abbia
abbiamo
abbigliamento
abbila
abbisongiu
abbistesa
abbocadu
abbolotos
abbolotu
abbreviadu
abc
abcasia
abd
abdicadu
abdicatzione
abdul
abe
abealzu
abeba
abel
abellinu
abentura
aberende
aberint
aberit
aberrer
aberrere
aberta
abertamente
abertas
abertos
abertu
abertura
abes
abetare
abetat
abiadu
abiatiga
abiatigas
abiatigu
abidjan
abile
abilesa
abilidade
abini
abioportos
abioportu
abis
abisongiu
abistesa
abitada
abitadas
abitadores
abitados
abitadu
abitant
abitantes
abitanti
abitantis
abitau
abitoriu
abituale
abitudines
abogada
abogados
abogadu
abogau
abolida
abolidu
abolire
abolitzione
abolotos
abolotu
aborigena
aborigenas
aborigenos
aborigenu
aboriginal
abortion
aborto
abortu
about
abraham
abramo
abratzat
abreviadu
abril
abrile
abrili
abrutzu
abruzzo
abside
abu
abuja
abundante
abusos
abusu
ac
acabada
acabadas
acabadora
acabados
acabadu
acabai
acabaiat
acabant
acabare
acabat
acabau
acabbada
acabbant
acabbare
acabbat
acabbau
acabbu
acabu
acacia
academia
academic
academica
academicos
academicu
academy
acadianos
acanta
acapiada
acapiadas
acapiados
acapiadu
acapiadura
acapiat
acapiau
acapiaus
acapiu
acarare
acarat
acarende
acasagiadu
acasagiare
acasagiat
acatamentos
acatamentu
acatare
acatat
acattare
accabada
accabadora
accabbu
accademia
accademicu
accanta
access
accessdate
accesso
accioccu
accoddi
according
accordiu
accordo
accordu
account
accra
accudire
accumpagnamentu
accumpanzat
accusadu
ace
aceleratzione
aceleratzioni
acentu
acessu
achemenide
acheuleanu
achille
achirida
achiridas
achiridos
achiridu
achirimentu
achirire
achirit
achistu
achitania
acid
acm
acnp
acollidu
acollire
acometada
aconcadu
acontessent
acontesser
acontessere
acontesset
acontessiat
acontessida
acontessidas
acontessidos
acontessidu
acontessimentos
acontessimentu
acontessit
acontzada
acontzare
acontzu
acordadu
acordios
acordiu
acordius
acordos
acordu
acosidu
acostada
acostagiadu
acostamentu
acostare
acostat
acqua
acreschimentu
acronimu
across
act
acta
actes
action
active
activist
activists
actors
acua
acudiant
acudint
acudit
acuedutu
acuistu
acumpangiada
acumpangiadu
acumpangiamentu
acumpangiant
acumpangiare
acumpangiat
acumpangiau
acumprida
acumpridu
acumprimentu
acumprint
acumprire
acumprit
acuntessida
acuntessidas
acuntessimentos
acuntessimentu
acuntessimentus
acuntessit
acuntessiu
acurtziare
acurtziat
acusa
acusados
acusadu
acusas
acusativu
acussorgiados
acustica
acusticu
acute
ad
ada
adam
adamo
adams
adata
adatada
adatadas
adatadu
adatamentos
adatamentu
adatare
adatas
adatos
adattu
adatu
adda
addae
addaghi
addanniada
adde
adderettura
adderetzare
addio
addis
addobiadu
addobiant
addobiare
addobiat
addobios
addobiu
addoviu
addurat
addurau
ade
adecuadu
adeguada
adeguadu
adelaide
adelantada
adelantadas
adelantamentu
adelasia
adelchi
adelphi
aden
aderetada
aderetadore
aderetadu
aderetare
aderetat
aderetu
aderidu
aderint
aderit
adesione
adesivos
adi
adiabatica
adige
adillida
adiosu
administration
adn
adnkronos
adobbende
adobiadu
adobiare
adobiu
adolf
adolfo
adotada
adotadas
adotadu
adotare
adotat
adotau
adotiva
adottat
adotzione
adria
adrian
adriana
adriano
adrianopolis
adriaticu
adriatigu
adult
adulta
adultos
adultu
adunantzia
advanced
adventure
adventures
ae
aende
aendi
aequo
aer
aera
aere
aerea
aereas
aerent
aereo
aereonautica
aereoporto
aereos
aeret
aereu
aergiu
aero
aeronautica
aeroplanos
aeroplanu
aeroporto
aeroportos
aeroportu
af
afaca
afacca
afares
afarios
afaris
afatante
afestat
afestau
afetos
affaca
affacca
affairs
affarios
affettu
affirmat
afganistan
afganos
afghanistan
afi
afiantzadu
afiantzare
aficu
afidabili
afidada
afidadu
afidat
afiladu
afines
afirmadu
afirmadura
afirmaiat
afirmant
afirmare
afirmat
afirmatzione
afirmatziones
afirmende
afitu
afluente
afluentes
afortiadu
afortiare
afortigadu
afortigare
afortios
afortzios
afracadas
afracadu
africa
african
africana
africanas
africanos
africanu
afriga
afrikaans
afriscos
afriscu
afro
afroamericanu
afrontai
afrontant
afrontare
after
afternoon
ag
aga
agabadu
agabbada
agabbadu
agabbare
agabbat
agabbu
agabu
again
against
agalbursa
agata
agatada
agatadas
agatados
agatadu
agatai
agataiant
agataiat
agatamentos
agatamentu
agatamus
agatan
agatana
agatant
agatare
agatat
agatau
agataus
agatende
agatent
agatet
agattada
agattant
agattare
agattat
agatu
age
agency
agent
agente
agentes
agenti
agentis
agentzia
agentzias
agenzia
agetivu
aghedu
aghera
aghina
agiomai
agire
agiu
agiuadu
agiuare
agiuda
agiudadu
agiudare
agiudat
agiudau
agiudicadu
agiudos
agiudu
agiumai
agiunghe
agiunghende
agiunghere
agiunghet
agiunghiat
agiunta
agiuntas
agiuntos
agiuntu
agli
agnelli
agnese
agnetha
ago
agoa
agonia
agora
agorru
agostini
agostino
agostinu
agosto
agraria
agrariu
agreement
agressione
agreste
agrestes
agricola
agricoltura
agricula
agriculas
agriculos
agricultura
agriculu
agrigento
agriturismos
agro
agru
agrupadas
agrupados
agrupamentu
agrupat
agu
agua
agualat
aguale
agualidade
aguantadu
aguantare
aguarmente
aguda
aguilar
agus
agustin
agustu
ah
ahmed
ahn
ai
aia
aiad
aiada
aiais
aiamus
aian
aiana
aiant
aias
aiat
aicci
aici
aids
aidu
aimara
ain
aina
ainas
aine
ainnantis
aint
aintru
ainturu
ainu
aioli
air
airbus
aires
airi
airlines
airways
ais
ait
aiuto
aivure
aj
aja
ajaccio
ajacciu
ajaja
ajaju
ajo
ajudai
ajudaiddu
ajudu
ak
aka
akira
al
ala
alabama
alabatu
alagon
alain
alan
aland
alas
alaska
alb
alba
albanesa
albanese
albanesi
albanesos
albanesu
albania
albergo
albergos
albergu
albero
albert
alberta
alberti
albertinu
alberto
albertu
albina
albino
albrecht
albu
album
albumes
albums
albuquerque
alcala
alcalde
alcalinu
alcol
alcolo
alcudia
alcune
alcuni
aldara
aldo
ale
alejandro
alemania
alemannas
alemannos
alemannu
alena
aleni
aleria
ales
alessandra
alessandria
alessandro
alessio
alex
alexander
alexandra
alexandre
alfa
alfabeticu
alfabetizatzione
alfabeto
alfabetos
alfabetu
alfonso
alfonsu
alfred
alfredo
algebra
algeri
algeria
algerina
algerinos
algerinu
algherese
algheresi
alghero
algoritmos
algoritmu
alguer
algueres
algueresos
ali
alias
alicante
alice
alicia
alida
aligaresos
aligaresu
aligas
alighera
aligheresa
aligheresos
aligheresu
alighieri
alimentadu
alimentadura
alimentant
alimentare
alimentares
alimentariu
alimentat
alimentatzione
alimentos
alimentu
alindat
alinu
alison
alitalia
aljazeera
all
alla
allacanat
allah
allai
allan
allarme
alle
alleados
alleadu
alleantzia
allega
allegada
allegadas
allegados
allegadu
allegare
allegas
allegat
allegau
allegoria
allen
allenadore
allende
allestimentu
allevada
allevadores
allevadu
allevamento
allevamentu
alliada
alliadas
alliados
alliadu
alliance
alliantzia
alliantzias
alliberamentu
allievu
alligru
allindada
allindadu
alliniamentu
allison
allium
allmusic
allo
allogare
allongada
allonghiada
allora
allu
allughet
alluminiu
allutu
alluvionale
almanacco
almeno
alogenos
alone
alonso
alpes
alpha
alpi
alpina
alpinu
alpis
alpitour
als
alsatzia
alsatzianu
also
alt
alta
altamente
altara
altare
altares
altaria
altea
alter
alternativa
alternativas
alternative
alternativu
alternos
altipianu
alto
altos
altra
altre
altri
altrimenti
altro
altu
altura
alturas
altzaghena
alunnos
alunnu
alvaro
alveolos
alvure
alzheimer
alziator
am
ama
amada
amadeus
amadu
amalia
amanda
amaniadu
amaniadura
amaniare
amaniat
amanniau
amante
amanti
amantiosos
amantiosu
amaranta
amare
amaricu
amaro
amat
amato
amazon
amb
ambaduas
ambaduos
ambas
ambasciada
ambasciadas
ambasciadore
ambasciadores
ambidda
ambientadas
ambientadu
ambientale
ambientales
ambientalista
ambientalistas
ambiente
ambientes
ambienti
ambiguidade
ambito
ambitos
ambitu
ambos
ambosduos
ambrogio
ambrosio
ambrosu
amburgo
amburgu
amd
amedeo
amedeu
amelia
amelio
amellorai
amen
amentare
amentat
america
american
americana
americanas
americano
americanos
americanu
americanus
americas
ameriga
amerigana
ameriganos
ameriganu
amerigo
amica
amici
amicis
amico
amicos
amicu
amiens
amiga
amigantzia
amigas
amighentzia
amigos
amigu
amigus
amilcare
amin
amir
amiri
amistade
amistosa
amleto
ammancu
ammaniada
ammaniadu
ammaniare
ammaniat
ammaniu
ammanniada
ammanniadu
ammanniamentu
ammanniare
ammenta
ammentada
ammentados
ammentadu
ammentaiat
ammentamus
ammentant
ammentare
ammentat
ammentos
ammentu
ammesturada
ammesturados
ammesturu
amministrada
amministradore
amministradores
amministrados
amministradu
amministradura
amministrare
amministrat
amministrativa
amministrativamente
amministrativas
amministrativos
amministrativu
amministratzione
amministratziones
amministrazione
ammiralliu
ammirare
ammiratzione
ammissione
ammisturu
ammitere
ammitida
ammitidas
ammitidu
ammostat
ammuntada
ammuntadu
ammuntaiat
ammuntant
ammuntare
ammuntat
ammuntende
ammustrados
ammustradu
ammustrant
ammustrare
ammustrat
ammustrende
amnesty
amnistia
amo
among
amor
amorada
amoradu
amorat
amore
amores
amori
amorosa
amos
amostant
amostat
amour
amparada
amparadas
amparadora
amparados
amparadu
amparare
amparat
amparau
amparu
ampere
ampliata
ampra
ampramente
ampras
ampros
ampru
ampsicora
ampulla
ampurias
amsicora
amsterdam
amtrak
amus
amy
an
ana
anagrafe
analisi
analisis
analistas
analitica
analizadu
analizare
analoga
analogia
analogos
analogu
analysis
ananti
anarchia
anarchica
anarchicu
anarchismu
anastasia
anatolia
anatomia
anatra
anca
ancas
anche
anchieta
ancien
ancient
ancona
ancora
ancoras
and
anda
andada
andadas
andados
andadu
andai
andaiant
andaiat
andala
andalas
andalusia
andalusu
andamentu
andan
andande
andant
andanta
andare
andat
andau
ande
andende
andendi
andere
andersen
anderson
andersson
andes
ando
andorra
andre
andrea
andreas
andreotti
andres
andreu
andrew
andria
andriy
android
andy
aneddos
aneddu
anela
anelli
anemia
angel
angela
angeles
angeli
angelini
angelis
angelo
angels
angena
anghelos
anghelu
angione
angioni
angiou
angioy
angius
angles
anglicana
anglo
anglona
anglosassone
angola
anguidda
anguilla
angulare
anguli
angulu
anhalt
anibal
anidridi
anima
animada
animados
animadu
animal
animale
animales
animali
animalis
animalismu
animare
animas
animassione
animation
animatzione
animatziones
anime
animu
anita
aniutxo
ankylosaurus
ann
anna
annada
annales
annali
annalisa
annanghedoras
annanghende
annanghere
annanghet
annanta
annantas
annantos
annantu
annarita
anne
annessionada
annessionadas
annessionadu
annessione
annestru
anni
annichilamentu
annie
anniversarios
anniversariu
anniversary
anno
annoamentu
annoare
annoditzare
annos
annotamala
annotos
annotu
announce
announces
annu
annual
annuale
annuales
annuariu
annullamentu
annullare
annuntziada
annuntziadu
annuntziant
annuntziare
annuntziat
annuntziau
annuntzios
annuntziu
annunzio
annus
ano
anonima
anonimadu
anonimu
anos
another
ansa
anseatica
anselmo
ansia
ant
anta
antarticas
antarticu
antartide
ante
anten
antennas
antepassados
antepassadu
antepostu
anteprima
anteriora
anteriore
anteriores
anteriormente
anthology
anthony
anthropology
anti
antibioticos
antica
anticas
antiche
antichi
antichidadi
antico
anticos
anticu
antifascista
antifeudale
antiga
antigamente
antigas
antighidade
antighidades
antighidadi
antigone
antigoriu
antigos
antigu
antigua
antiguo
antigus
antillas
antimes
antimoniu
antine
antiochia
antioco
antiogu
antis
antitzipu
antivirus
antoine
antologia
antologica
anton
antona
antonella
antonello
antoni
antonia
antonietta
antonino
antoninu
antonio
antropologia
antropologica
antropologicos
antropologicu
antropologu
antropomorfas
antzianismu
antzianos
antzianu
antzis
anu
any
anys
anzelu
anzone
anzu
ao
aorru
aosta
ap
apa
apaghiamentu
apaghiare
apais
apalacos
apalas
apamus
apant
aparatos
aparatu
aparatus
aparcadorzu
aparcamentu
aparechios
aparechiu
aparente
aparentzia
aparessent
aparesset
aparessida
aparessidu
aparint
aparit
aparitzione
aparitziones
aparitzos
aparitzu
aparrere
apartamentu
apartenent
apartenente
apartenentzia
apartenet
aparteniant
aparteniat
apartenit
apartheid
apas
apassionadu
apat
apatridia
ape
apeadorzu
apellu
apenditzios
apenditziu
apenninos
apenninu
apenninus
aperitivu
aperta
aperto
apertu
apetus
api
apia
apiais
apiant
apias
apiat
apiaus
apicadu
apidu
apitzu
apitzus
apiu
aplicada
aplicadas
aplicadu
aplicant
aplicare
aplicat
aplicatzione
aplicatziones
aplicatzionis
aplichende
apo
apoderada
apoderadu
apoderaiat
apoderamentu
apoderare
apoderat
apogiu
apoi
apolinar
apollo
apompiu
aporridu
aporrit
aportu
aposentada
aposentadas
aposentados
aposentadu
aposentamentos
aposentamentu
aposentare
aposentos
aposentu
aposentus
apositu
apostivigat
apostolicu
apostolo
apostolu
apostulos
app
appare
apparentzia
appartenet
appena
appenas
appendice
appennino
appice
appidu
appiu
apple
application
appoi
appretziada
approach
approccio
approvau
apps
appunti
appuntu
appustis
apre
apres
apretu
apretziada
apretziados
apretziadu
apretziare
aprigadu
aprigadura
aprigu
april
aprile
aprofitende
aproghilende
aproliant
aprontadu
aprossimada
aprossimadamente
aprossimativa
aprovada
aprovadu
aprovatzione
apu
apuntu
apustis
aq
aqua
aquila
aquileia
aquino
ar
ara
araba
arabas
arabe
arabia
arabica
arabicu
arabos
arabu
arabus
aracataca
aragona
aragone
aragonesa
aragonesas
aragonese
aragonesi
aragonesos
aragonesu
aragonesus
aral
araldica
aramaicu
aran
arangiu
arantzu
araolla
aratzos
arba
arbarea
arbaree
arbarees
arbarei
arbaresos
arbaresu
arbas
arbatassa
arbatax
arbeghes
arbeschida
arbili
arbitraria
arbitrariu
arbitriu
arbitru
arbore
arborea
arboree
arborense
arbores
arboresu
arbos
arbu
arbure
arbures
arburesa
arbus
arbustu
arc
arca
arcadia
arcadio
arcaicas
arcaicu
arcanu
arce
arch
archaea
archaeology
archeas
archeologia
archeologica
archeologicas
archeologiche
archeologici
archeologico
archeologicos
archeologicu
archeologos
archeologu
archibiscamu
archimede
archipelagu
archipiscamu
archipiscopu
architect
architects
architectural
architecture
architeto
architetonica
architetonicas
architetonicos
architetonicu
architetos
architetto
architettos
architettu
architettura
architetu
architetura
architeturas
archive
archived
archives
archiviadu
archivio
archivios
archiviu
archivius
arci
arcidiocesi
arcidiotzesi
arcipelagu
arcipiscopu
arcivescovo
arco
arcos
arctic
arcu
arculu
arda
ardara
ardennas
ardia
are
area
areas
arecibo
areddu
aregos
arena
arenas
ares
areste
arestes
aresti
arezzo
arfabetu
arga
argan
argentiera
argentina
argentinu
argento
argentu
arghidda
argiolas
argon
argumentos
argumentu
argumentus
argunas
argunos
ari
aria
arianas
arianos
ariel
arienzo
arioportu
aristanesa
aristanesu
aristanis
aristocratica
aristocraticos
aristocratzia
aristotele
aritzo
aritzu
arizona
arkadia
arkansas
arles
arleta
arlington
arm
arma
armada
armadas
armados
armadu
armamentos
armamentu
armando
armas
armena
armenia
armenos
armenu
armi
armistitziu
armonia
armonica
arms
armstrong
armungia
army
arn
arnaldo
arnold
around
arpa
arpanet
arpes
arpesu
arquer
arradiu
arrampamentu
arrampos
arrangiamentos
arrangiamentu
arrastus
arratza
arraxoni
arredos
arregistrau
arregordai
arregordat
arregordu
arregorta
arregulas
arrejonu
arremonant
arremonau
arrenescit
arrenniu
arresonat
arresonos
arresonu
arressada
arressadas
arressare
arrest
arrestada
arrestados
arrestadu
arrestare
arrestau
arrestos
arrestu
arrestus
arresurtau
arretza
arretzas
arreu
arrexoni
arrexonis
arribada
arribadas
arribados
arribadu
arribai
arribaiant
arribaiat
arribande
arribant
arribare
arribat
arribau
arribaus
arribbada
arribbados
arribbadu
arribbant
arribbare
arribbat
arribbende
arribbu
arribende
arribu
arrica
arricada
arrichire
arricit
arriciu
arridu
arrigo
arrimada
arrimadu
arrimu
arriora
arriscat
arriscos
arriscu
arriu
arrius
arriva
arrivada
arrivadu
arrivare
arrivat
arrivida
arrivo
arrivu
arroca
arrocas
arrocu
arroda
arrodu
arrogos
arrogu
arrolados
arromanu
arrondissement
arrosu
arrubia
arrubiu
arruga
arrugas
arrui
arruinas
arrumpellamentu
arruoladu
arruta
arrutroxa
arrutu
ars
art
arta
artamente
artari
artaria
artarias
artas
arte
artes
artesa
artesanale
artesania
artesanos
arthana
arthur
arti
artiada
artica
article
articolo
articu
articulada
articuladu
articulatzione
articulos
articulu
articulus
artificiale
artifitziale
artifitziales
artigianale
artigulos
artigulu
artiore
artipranu
artisanos
artista
artistas
artisti
artistica
artisticas
artisticos
artisticu
artistiga
artistigas
artistigu
artists
artos
artrite
artrus
arts
artu
artura
arturo
artus
artziada
artziados
artziadu
artziare
artziat
artzidiotzesi
artziende
artzipelagos
artzipelagu
artzivos
artzivu
aru
aruba
arumenu
arveghe
arveschida
arvore
arvure
arvures
arzachena
arzola
arzolas
as
asa
asburgos
asburgu
ascii
ascurtadura
asdrubale
asexual
asfaltu
asia
asian
asiatica
asiaticas
asiaticos
asiaticu
asienda
asiendas
asili
asilu
asinara
askra
asl
asp
aspects
aspetos
aspetti
aspettu
aspetu
aspiratziones
asproni
aspru
aspx
ass
assaditos
assalto
assandira
assas
assassinadu
asse
assediu
asseguradu
assegurare
assemblea
assembleas
assemblee
assembly
assemini
assempru
assentada
assentadas
assentadorzu
assentados
assentadu
assentadura
assentant
assentare
assentat
assentu
assessoradu
assessore
assetiu
assia
assignada
assignados
assignadu
assignare
assimbillat
assimigiant
assimigiare
assimigiat
assimilatzione
assimizadora
assimizadore
assimizadores
assimizant
assimizat
assimizos
assimizu
assinnadu
assione
assiones
assiros
assiru
assisi
assistente
assistentzia
assistidu
assistire
assistit
assistu
assitiada
assitiu
associated
association
associatzione
associatziones
associatzioni
associazione
associazioni
assolu
assoluta
assoluti
assolutos
assolutu
assotziada
assotziados
assotziadu
assotziat
assotziau
assotzios
assotziu
assu
assumancu
assumende
assumere
assumet
assumida
assumidu
assuncao
assunta
assuntadu
assuntu
assuntzione
assussadore
astatu
asteroidi
asteroidis
asti
astore
astores
astra
astragu
astrata
astratzione
astrintu
astrofisica
astrologia
astronomia
astronomica
astronomical
astronomicas
astronomicu
astronomos
astronomu
astronomus
astronomy
asturiana
asturianu
asturias
asuba
asula
asulu
asuncion
asuta
at
ata
atacada
atacados
atacadu
atacante
atacare
atacat
atacos
atacu
atacus
ataturk
atea
ateismu
atelier
atene
atenet
ateneu
atentados
atentadu
atentu
atentzione
atentzioni
ateos
atera
ateras
ateros
ateru
aterue
aterus
atestada
atestadu
atestant
atestat
atestatziones
atesu
ateu
athletic
athletics
ati
atibiadu
atiliu
atinat
atinoides
atitudine
atitudines
ativa
ativadu
ativare
ativas
atividade
atividades
atividadi
atividadis
ativismu
ativista
ativistas
ativos
ativu
ativus
atlanta
atlante
atlantic
atlantica
atlanticos
atlanticu
atlas
atleta
atletica
atletico
atleticu
atmosfera
atmosferas
atmosferica
atmosfericas
atmosfericu
atobiat
atobiau
atobios
atobiu
atoliu
atollos
atollu
atomic
atomica
atomicas
atomicos
atomicu
atomos
atomu
atongiu
atonzu
atopu
atora
atore
atores
atos
atotu
atra
atraessada
atraessadu
atraessant
atraessat
atraessu
atraida
atraidas
atraidu
atrantigu
atras
atratzione
atressu
atreta
atretas
atretzaduras
atribuida
atribuidos
atribuidu
atribuire
atribuit
atributzione
atrice
atru
atrus
attacco
attaccos
attaccu
attack
attacks
attera
atteramente
atteras
atteros
atteru
attesu
atti
attilio
attividade
attividades
attivista
attivistas
attivita
attivu
attoppu
attoppus
attora
attore
attores
attori
attos
attraverso
attrice
attrici
attrus
attu
attuale
attualmente
attuazione
atu
atuadu
atuale
atuales
atualidade
atualmente
atuamentu
atuare
atuarmente
atuatzione
atumbada
atumbu
atunzu
atza
atzapada
atzapadas
atzapados
atzapadu
atzapare
atzapat
atzappare
atzara
atzargiu
atzarzu
atzedere
atzelerada
atzeni
atzentu
atzertadu
atzessibile
atzessu
atzetabile
atzetada
atzetadu
atzetant
atzetare
atzetat
atzidos
atzidu
atzione
atziones
atzioni
atzionis
atzori
au
auba
auckland
aude
audientzia
audientzias
audio
auditorium
audiu
auf
auge
auguriu
august
augusta
auguste
augusto
augustu
augustus
aula
aumentada
aumentadu
aumentare
aumentat
aumentende
aumentu
aundi
aung
auniadu
aunida
aunidas
aunidos
aunidu
aunimentu
aunint
aunire
aunit
aunius
aureliano
aurelio
aureliu
aurora
aus
auschwitz
ausentzia
ausiliare
ausiliares
austera
austeru
austin
austinu
austis
australe
australes
australi
australia
australian
australiana
australianas
australianos
australianu
austria
austriaca
austriacas
austriacos
austriacu
austro
austu
autem
autentica
autenticu
author
authorities
autismu
auto
autobiografia
autobiografica
autobiograficu
autocaminos
autocaminu
autoctona
autoctonas
autoctonos
autodeterminatzione
autodidata
autoguvernu
autoistopu
automatica
automaticu
automatiga
automobile
automobiles
automobilistica
autonoma
autonomas
autonome
autonomia
autonomismu
autonomista
autonomos
autonomu
autopsia
autopsy
autore
autores
autorevoles
autori
autoridade
autoridades
autoridadis
autoris
autorita
autoritarios
autoritariu
autoritratto
autorizada
autorizados
autorizadu
autorizadura
autorizatzione
autos
autostrada
autu
autumn
autunno
auvernia
aux
av
avaloramentu
avampostu
avana
avanguardia
avantagios
avantagiu
avanti
avantzada
avatar
ave
avec
aveiro
avellino
avena
avenimentos
aventura
aventuras
avenue
averbios
averbiu
averguadu
averguare
averiguadu
averiguu
aversarios
aversariu
avertu
avesarmente
avesu
avezzano
aviada
aviadu
aviare
aviation
aviatzione
avignone
avisu
aviu
aviv
avocadu
avogadro
avogadu
avolotos
avolotu
avoriu
avra
avui
avvenire
avventuras
avventure
avversariu
avversarius
avvesu
avvocadu
aw
award
awards
away
ax
axel
axina
axudu
ay
aymeri
aymerich
az
azeglio
azente
azentes
azentzias
azera
azerbaigian
azeru
azienda
aziendas
azione
azioni
aziz
aznavour
azomai
azorras
azotu
azu
azuat
azudu
azunghere
azuni
azunta
azuntos
azuntu
azur
azutoriu
azzurri
b
b0
b1
b2
b3
b4
b5
b6
b7
b8
b9
ba
babai
babautzos
babbos
babbu
babel
babilonia
babos
babu
baby
baca
bacallar
baccas
bach
bacharach
bachis
bachisio
back
backtracking
bacteria
bacu
bad
badajoz
badas
badde
baddes
baden
badore
badu
bae
bagantzias
bagazos
baghdad
bagnu
bahamas
bahia
bahrain
bahrein
bai
baia
baile
bailey
bainzu
baix
baja
bajer
baker
bakunin
balangende
balangiadu
balangiare
balangios
balangiu
balanzadu
balanzu
balares
balaros
balbiano
balcanica
balcanicas
balcanicos
balcanos
baldini
baldur
baleares
balent
balente
balentes
balentia
balere
balestreris
balet
balia
balida
balidas
balidesa
balidos
balidu
balilla
balit
balkan
balkans
ball
balla
ballantine
ballas
ballata
ballau
ballero
ballo
ballos
ballu
ballumene
ballus
balore
balores
balori
baltica
balticas
balticos
balticu
baltimora
baltimore
baluardu
bamako
bambi
bambini
bambino
bambinu
ban
banana
bananas
bananera
banari
banca
bancariu
bancas
banchita
banco
bancu
band
banda
bandalismu
bandas
bandera
banderas
bandha
bandidos
bandidu
bandiera
bandinu
banditi
banditismu
bandito
bandoneon
bandu
bang
bangkok
bangladesh
banjo
bank
bannia
bantare
bantat
bantu
bantzigu
baptiste
bar
barack
baranta
baratu
baratz
barba
barbados
barbagia
barbagias
barbar
barbara
barbaria
barbaricas
barbaricina
barbaricini
barbaricino
barbaritzinos
barbaritzinu
barbaro
barbaros
barbarossa
barbaru
barbarus
barbastro
barbaza
barbera
barberi
barbuda
barca
barcas
barcellona
barcelona
barceloneta
barcino
barclay
bardadu
bardana
bardanas
bardi
bardia
baresu
bari
bariada
bariadas
bariados
bariante
bariantes
barias
bariat
bariavile
bariedade
bariedades
bariedadi
bariedadis
barigadu
barigare
barigat
barios
barisone
bariu
barker
barletta
barnes
barngarla
baroca
barocas
barocca
barocco
barocu
baron
baronale
barone
barones
baroni
baronia
baroniesa
barore
barra
barrabi
barracas
barrali
barranquilla
barras
barreca
barrera
barreras
barriera
barris
barry
barthelemy
bartimora
bartoli
bartolomeo
bartzellona
barumini
barusone
bas
basada
basadas
basados
basadu
basaltu
basant
basat
basau
basca
bascas
bascia
basciadu
bascias
bascios
basciu
bascius
bascos
bascu
base
baseball
based
basende
bases
basi
basic
basile
basilea
basili
basilica
basilicata
basis
basket
bass
bassa
bassanu
bassas
bassista
basso
bassos
bassu
basta
bastante
bastantes
bastanti
bastat
bastet
bastia
bastimentu
bastione
bastiones
batalla
batallas
batallione
batasuna
batende
bateria
batericas
baterios
baterista
bateriu
batiare
batiat
batida
batidos
batidu
batijadu
batijare
batijimu
batint
batire
batista
batit
batman
baton
bator
batordighi
battaglia
battaglie
battalla
batteria
batterista
battiato
battijimu
battire
battista
battiu
battle
battor
battoro
baturi
bau
bauhaus
baunei
bavaresu
bavaria
baviera
bay
bb
bbc
bc
bd
be
beach
beast
beat
beatificadu
beatles
beato
beatrice
beau
beautiful
beauty
beauvoir
beaux
became
beccia
becciu
beccu
becia
beciu
becomes
bed
bee
been
beer
beethoven
before
beginning
beh
behind
bei
beiculos
beiculu
beijing
being
beirut
bel
bela
belarus
belchidda
belfast
belga
belgas
belgio
belgiu
belgrado
belgradu
believe
belisari
belisariu
belize
bell
bella
bellagio
bellas
belle
bellesa
bellesas
belli
bellica
bellicas
bellicos
bellicu
bellieni
bellini
bello
bellodi
bellos
bellota
bellu
bellunu
bellus
belmonte
belo
belotzidade
belvedere
ben
bena
benas
bendende
bendent
bender
bendere
bendet
bendia
bendida
bendidas
bendidore
bendidos
bendidu
bendiu
bene
benedetinos
benedetta
benedetti
benedettinos
benedettinu
benedetto
benedicta
beneditu
beneditzione
benefitzios
benefitziu
beneita
beneittu
beneitu
benende
benent
benes
benessere
benet
benetu
benetuti
benetutti
benetzia
bengala
bengiat
beni
beniant
beniat
benidi
benidora
benidoras
benidore
benidores
benidori
benin
beninde
benint
benis
benit
benito
benjamin
benjamins
bennalzu
bennarzu
benner
bennere
bennet
bennett
benni
bennia
bennida
bennidas
bennidos
bennidu
benniu
benny
bentana
bentanas
bentos
bentu
bentzon
benvenuti
benvenuto
benzat
benzi
benzina
beowulf
beppe
bera
beranos
beranu
beras
berbeghe
berbeghes
berbeghinu
berbera
berberas
berbere
berberia
berberos
berberu
berchida
berchidda
berdaderu
beren
berenguer
berg
bergamasco
bergamo
bergamu
beridade
beridadi
beridadis
berilinu
bering
berio
berkeley
berlin
berlinguer
berlino
berlinu
berlusconi
bermentinu
bern
berna
bernard
bernardini
bernardino
bernardinu
bernardo
bernardu
bernasconi
berners
berona
beros
berrita
bersione
bersionis
bert
berta
bertani
bertigale
bertolt
bertolucci
bertrand
bertula
beru
berus
berveghe
berveghes
berveghinu
bes
bessare
bessendi
bessia
bessias
bessida
bessidas
bessidos
bessidu
bessint
bessire
bessiri
bessit
bessiu
bessude
best
bestia
bestiamene
bestiamine
bestias
bestida
bestidos
bestidu
bestimenta
bestimentas
bestint
bestire
bestires
beta
betidu
better
betti
betty
betura
beturas
betureddas
between
betza
betzas
betzesa
betzos
betzu
bevida
bevidas
bey
beyond
bezirk
bf
bg
bgp
bh
bhutan
bi
bia
biada
biadu
biafra
biagiadores
biagiadu
biagiare
biagiat
biagio
biagios
biagiu
biaita
biaittu
biaitu
bianca
biancanie
biancas
bianche
bianchi
bianco
biancos
biancu
biango
bias
biasi
biata
biazadores
biazare
biazos
biazu
biba
bibbia
bibcode
bible
bibliografia
bibliograficos
biblioteca
bibliotecariu
bibliotecas
bichipedia
bida
bidas
bidat
bidd
bidda
biddamanna
biddanoa
biddas
biddeputzi
biddesatu
biddesorris
biddexidru
biddighedda
biddigheddas
bidditzolos
bidditzolu
biddixeddas
bide
bidea
bideas
biden
bidende
bident
bideos
bider
bidere
bidet
bidiant
bidiat
bidit
bidos
bidru
bidu
bie
biela
biella
bielorussia
bielorussu
bien
biennale
bient
bier
biere
biet
big
bighina
bighinados
bighinadu
bighinos
bighinu
bilancia
bilancio
bilantzu
bilartzi
bilbao
bilbo
bilingualism
bilingue
bilingues
bilingui
bilinguismu
bill
billa
billboard
billete
billeteria
billetes
billie
billy
bim
bin
binariu
bincendu
binchende
binchent
bincher
binchere
binchet
binchiat
binchida
binchidora
binchidoras
binchidore
binchidores
binchidu
bincida
bincidori
bincit
bincitas
bindichi
bindighi
bindighina
bing
bingia
bingias
binh
binos
bint
binta
bintas
binti
bintibator
bintiduos
bintighimbe
bintina
bintitres
bintoria
bintos
bintu
bintunu
binu
binza
binzas
bio
biochimica
biodiversidade
biografia
biografica
biograficas
biografico
biograficu
biographie
biography
biol
biolentzia
biologia
biologica
biologicas
biologicos
biologicu
biologu
biology
biondi
bios
bipm
bir
bird
birde
birdes
birdi
birds
birdura
birduras
biri
birmania
birmingham
birore
birori
biroro
birra
birras
birth
birthday
biru
bis
bisantziu
bisartziu
biscaglia
bisessuale
bisessualidade
bisestradu
bisio
bisione
bisita
bisitada
bisitadores
bisitadu
bisitare
bisitas
bisivile
bismarck
bismutu
bisogna
bisogniat
bisognin
bisongiat
bisongios
bisongiu
bisonzat
bisonzu
bissau
bissentzia
bista
bistada
bistados
bistimenta
bistiri
bistu
bisu
bisura
bisuras
bit
bithia
bitima
bitimas
bitti
bittu
bitu
bitzi
biu
biuda
biudu
biv
bivende
bivent
biventes
biver
bivere
bivet
bivi
biviant
biviat
bivida
bividas
bividore
bividores
bividoris
bividorzu
bividos
bividu
bivint
bivit
biviu
bivu
bixinadu
bixinau
bixinaus
bixinu
bizantina
bizantinas
bizantinos
bizantinu
bizantinus
bizet
bizilantzia
bj
bjork
bjorn
bk
bl
black
blacklivesmatter
blackmore
blackwell
blair
blake
blanc
blanca
blancos
blasco
blasetti
blc
bleu
bliss
blocada
blocadu
blocare
blocat
blockbuster
blocos
blocu
bloemfontein
blog
blogger
blogspot
blood
bloody
blu
blue
blues
bm
bn
bncf
bo
board
boatiri
bob
bobby
bobo
bobore
boca
bocabolariu
bocare
bocat
bocau
bocca
bocchidu
bocchidura
boccia
boccoli
bocconi
bocelli
boche
bochidorgios
bochidos
bochidu
bochidura
bochiduras
bochire
bochum
bocia
bociu
body
boe
boeing
boemia
boes
bofiu
boga
bogada
bogadas
bogados
bogadu
bogadura
bogai
bogant
bogare
bogat
bogau
bogaus
boghe
boghende
boghes
bogino
bogota
boi
boicottare
boicottazu
boidu
boinc
bois
bolabentu
boladoreddos
boladoreddu
bolare
bolarzos
boldsymbol
bolen
bolende
bolent
boler
bolere
bolet
boliant
boliat
bolidu
bolin
bolit
bolivar
bolivia
boll
bolli
bologna
bolognesi
bolognesu
bolognini
bolonna
bolos
bolotana
bolotanesi
bolscevica
bolscevicos
bolta
boltanski
boltas
bolu
boluntade
boluntarios
bolzano
bomba
bombardada
bombardadu
bombardamentos
bombardamentu
bombas
bombay
bombo
bompiani
bon
bona
bonacatu
bonaccattu
bonaire
bonairi
bonaparte
bonarcado
bonarcadu
bonaria
bonas
bonaventura
bondone
bone
bonelli
bonet
bonete
bonetti
bonifacio
bonifatziu
bonn
bono
bonolva
bonorva
bonos
bonu
bonuighinu
bonus
book
books
boom
bootleg
borbone
borbones
bordeaux
border
borders
bordu
bore
boreale
boreali
borghese
borghesia
borgia
borgo
borgogna
boris
born
borneu
borore
borromeo
borsa
borsellino
borta
bortada
bortadas
bortados
bortadu
bortadura
bortaduras
bortare
bortas
bortat
bortau
bortende
bortigale
bortigali
boruta
bos
bosa
bosana
bosateros
bosaterus
bosatrus
bosco
boscolo
bosforu
bosna
bosnia
bosniacos
boss
bossa
boston
bostru
bot
botadu
botanica
botanicu
botas
botos
botswana
botu
botza
botzacanastra
boulder
bourdieu
bournemouth
bouzid
bove
boveda
bovida
bowie
box
boxi
boxis
boy
boycott
boys
bozen
bp
bq
br
brabara
braccio
braga
bragaglia
brahe
brai
brain
brama
bramadu
bramante
branca
brancaleone
brancalione
brancos
brancu
brandeburgu
brandenburgu
brandu
brani
brano
branos
brant
branu
brasil
brasile
brasili
brasilia
brasiliana
brasilianu
brass
brassens
bratzolu
bratzos
bratzu
braun
braunstein
bravu
brazil
break
breakfast
brebei
brebi
brecht
brel
brema
brennan
brenta
brera
brescia
bresson
bretagna
bretone
breve
breves
brevetos
brevetu
brevie
brexit
brian
bridge
bridgeport
brief
brien
briga
brigada
brigadas
brigaglia
brigas
brigata
briggs
bright
brincare
brincat
brincos
brincu
brindisi
bring
bristol
britain
britannia
britannica
britannicas
britannicos
britannicu
britannicus
britanniga
british
broadcasting
broadway
brocadu
brocu
brodu
broken
bromu
bronzu
brooklyn
brooks
bros
brothers
brotzu
brought
brown
browsh
bruce
bruciacchiate
bruciata
brujamentu
brule
brulla
brullas
bruncu
brundu
brunei
bruni
bruno
brunswick
brunu
brunzu
brusceria
brusiada
brusiadu
brusiare
brutu
bruxelles
bs
bsd
bt
bu
buatone
buble
buca
bucarest
bucas
bucca
buccas
buccia
bud
budapest
buddha
buddhismu
buddhista
buddhistas
buddidura
buddire
buddista
budduso
buddy
budget
budoni
budterence
budune
buena
buendia
buenos
bufaduras
bufare
buffalo
buffare
bugerru
buggy
building
bukowski
bulbu
bulgara
bulgaras
bulgaria
bulgarian
bulgaros
bulgaru
bull
bulla
bulletin
bullismu
bulzoni
bum
bumbe
bundante
bundantes
bundesland
bunker
bunnannaru
bunnymen
buon
buona
buono
bur
burcei
burda
burdu
bureau
burgenland
burghesa
burghesia
burghesos
burgos
burgu
burkina
burlesque
burn
burrare
burroughs
burruni
bursa
burt
burton
burundi
bus
busache
busca
buscare
buscica
buscos
buscu
bush
business
bussa
bussalai
bussas
bustianu
bustu
but
butariga
butega
butegas
butiru
butler
butone
butt
buttega
buttegas
butterfly
butzaca
buzzer
bv
bw
bx
by
bye
byron
byte
bz
c
c0
c1
c2
c3
c4
c5
c6
c7
c8
c9
ca
cab
cabaiceno
cabale
caballeri
caballeris
caballeros
cabaret
cabidanne
cabidanni
cabiddu
cabidos
cabidu
cabilia
cabina
cabinas
cabitale
cabitanu
cabitza
cabizza
cabo
cabori
cabos
caboto
cabra
cabras
cabrera
cabu
cabudanne
cabudanni
cabuderra
cabudianamente
cabudianos
cabudianu
cabudu
cabulogu
cabuterra
caccia
caceres
cache
cachi
cacuminale
cad
cada
cadalana
cadalanas
cadalanos
cadalanu
cadalina
cadauna
cadaunu
cadderis
caddos
caddu
caddura
cadeddu
cadelana
cadelanos
cadelanu
cadelanus
cadena
cadenas
caderina
cadibona
cadice
cadira
cadiz
cadoni
caduta
cae
caente
caentes
caesar
caetano
cafe
cafei
cafes
cafetera
cag
cagliari
cagliaricalcio
cagliaripad
cagliaritano
cairo
caixer
cajenna
cala
calabria
calada
calados
calagonis
calais
calangianus
calanzanus
calare
calari
calaris
calas
calat
calcare
calcareas
calcareu
calchi
calciadore
calcio
calcistica
calciu
calcolatori
calcutta
calda
calderon
cale
caledonia
calendario
calendariu
calentura
cales
calesi
calesisiat
calgary
cali
calibru
calicuna
calicunas
calicunos
calicunu
calidade
calidades
calidadi
califadu
califfadu
california
califu
calincuna
calincunas
calincunu
calisisiat
calita
call
calle
called
callenti
caller
calling
callistu
calls
calma
calore
calori
calota
caltanissetta
calvia
calvino
cam
camaldolesos
camara
camba
cambara
cambaras
cambas
cambia
cambiada
cambiados
cambiadu
cambiai
cambiamentos
cambiamentu
cambiant
cambiapare
cambiapares
cambiare
cambiat
cambiato
cambiau
cambiende
cambios
cambiu
cambogia
cambogianu
camboni
cambosu
cambridge
came
camera
camerini
camerino
cameron
camerun
camillo
caminale
caminare
caminera
camineras
camino
caminos
caminu
caminus
camisa
camminu
camp
campagna
campagnas
campaign
campana
campanas
campania
campaniforme
campanile
campanna
campannia
campare
campat
campbell
campeda
campi
campidanesa
campidanesas
campidanese
campidanesos
campidanesu
campidanesus
campidanian
campidano
campidanos
campidanu
campiello
campionados
campionadu
campionati
campionato
campionau
campione
campiones
campionessa
campioni
campo
campos
campra
camps
campu
campura
campuras
campus
campusantos
campusantu
camus
can
canada
canadesa
canadesas
canadesos
canadesu
canadian
canale
canales
canali
canaria
canarias
canarios
canberra
cancaru
cancer
cancru
cancu
cancua
cancunu
candaleri
candaleris
candareri
candela
candelas
candia
candida
candidada
candidados
candidadu
candidadura
candidau
cando
candu
candy
cane
canepa
canes
cani
canis
canna
cannabis
cannaca
cannacas
cannas
canne
cannes
cannonau
cannones
cannosciu
cano
canonicu
canonigu
canopolo
cant
canta
cantabria
cantada
cantadora
cantadore
cantadores
cantadori
cantadu
cantai
cantaiat
cantan
cantano
cantant
cantante
cantantes
cantanti
cantare
cantaru
cantas
cantat
cantau
cantautora
cantautore
cantautrice
cante
cantende
canti
cantidade
cantidades
cantidadi
cantieris
cantigos
cantigu
canto
canton
cantone
cantones
cantore
cantori
cantos
cantrell
cantu
cantus
cantzelleri
cantzilleri
cantzone
cantzones
cantzoni
cantzonis
cantzos
cantzu
canu
canzo
canzone
canzones
canzoni
cao
caos
cap
capa
capaci
capanna
caparezza
capassu
capatzidade
capatzidades
capatzidadi
capatzos
capatzu
cape
capedda
capeddu
capella
capellas
capelli
capello
capidanne
capitadu
capital
capitale
capitales
capitali
capitalismu
capitalista
capitan
capitanu
capitat
capite
capitol
capitolo
capitulos
capitulu
capo
capodanno
capolavoro
capoluogo
capos
cappadocia
cappai
cappella
cappellacci
cappellas
cappelli
capraja
caprera
capriccio
captain
capu
capudanni
capulogu
caput
car
cara
carabineri
carabineris
caracas
caraibes
caraibi
caraibica
caraibicos
caraibicu
carales
caralis
caralu
caras
carasadu
caratere
carateres
carateristica
carateristicas
carateristicos
carateristicu
carateristiga
carateristigas
caraterizada
caraterizadas
caraterizados
caraterizadu
caraterizant
caraterizare
caraterizat
carattere
caratteres
caratteri
caratteristica
caratteristicas
caratza
caratzas
caravaggio
carbone
carboni
carbonia
carbonica
carboniu
carca
carcere
carche
carchi
carchidunu
carchina
carci
carcu
carculadore
carculadores
carculadu
carculare
carculat
carculos
carculu
cardedu
cardia
cardinale
cardinali
cardu
care
carena
carenas
caresima
carestia
caretta
caria
caribbean
carica
caridade
carintzia
caristia
carl
carla
carlini
carlo
carloforte
carlos
carlton
carlu
carluforti
carmelo
carmen
carmina
carmine
carnevale
caro
carocci
carol
carolina
carolingiu
carolu
caros
carpatzos
carpenter
carpenters
carpitella
carrada
carrasegare
carraxu
carre
carrer
carrera
carreras
carriera
carriga
carrigadu
carrigas
carrigos
carrigu
carros
carroz
carru
carrus
carson
carta
cartagena
cartagine
cartaginesa
cartaginesos
cartaginesu
cartas
carte
cartellos
carter
cartier
cartografia
cartografu
cartone
cartones
cartzofa
caru
caruso
carvalho
carvone
carvonia
carzeghe
cas
casa
casal
casale
casalis
casanova
casas
cascada
cascia
cascias
case
casella
casellas
caserma
casermas
caserta
casey
casi
casino
caso
casos
caspar
caspiu
cassa
cassadore
cassadores
cassadu
cassadura
cassare
cassias
cassola
cast
casta
castaneda
castangia
castangiu
castanza
castanzu
castas
casteddaja
casteddajos
casteddaju
casteddos
casteddu
castel
castelli
castello
castellon
castellu
castelo
castelsardo
castia
castiada
castiai
castiare
castiat
castigadu
castiglia
castigliana
castiglianu
castiglione
castigu
castilla
castillia
castilliana
castillianu
castillo
castiu
castle
castoldi
castoro
castro
castru
castrum
casu
casuale
casualidade
casula
casusu
cat
catacumbas
catala
catalan
catalana
catalanas
catalani
catalano
catalanos
catalans
catalanu
catalina
catalog
catalogna
catalogu
catalugna
catalunya
catania
catanzaro
catastrofe
catedra
catedral
catedrale
catedrali
categoria
categorias
catena
caterina
caterini
catherine
catholic
catolica
catolicos
catolicu
catoliga
catolitzesimu
cattaneo
catte
cattedra
cattedrale
cattelan
cattolica
cattolicu
cattoliga
caturadu
catza
catzada
catzadu
catzare
cau
caucasu
causa
causada
causadas
causados
causadu
causare
causas
causat
causau
cause
causende
cautiveriu
cava
cavalier
cavaliere
cavalieri
cavalleria
cavallo
cavas
cave
cavour
cavu
cavus
cayman
cb
cbs
cc
cd
cdc
cdot
ce
ceausescu
ceca
cecchi
cecena
cecenia
cechia
cechov
cecil
cecilia
cecoslovachia
cecu
cedam
cee
cefet
ceglie
celebrada
celebrate
celeste
celine
cell
celsius
celtic
celu
cemetery
cen
cena
cenere
censidos
censimentu
censura
census
cent
centauri
centelles
centenario
center
cento
central
centrale
centrali
centre
centri
centro
centru
centrus
centu
century
ceramica
ceraxius
ceraxus
cerbeddu
cerdena
cern
cernobyl
certa
certo
certu
ceruti
cervantes
cervellon
cervera
cesar
cesare
cesarea
cesareo
cetra
cetti
ceuta
cf
cfds
cfi
cfn
cfr
cg
cgpm
cgs
ch
chachapoyas
chains
chamberland
champagne
champions
championship
championships
chance
change
channel
channels
chant
chantal
chante
chants
chapter
charentes
charged
charles
charlie
charlotte
charlottenburg
chart
charter
chase
chat
chauvin
che
cheja
chejas
chelos
chelu
chemical
chemistry
chen
chena
chenabura
chenapura
chene
chent
chentimetros
chentina
chentinas
chentu
chentz
chentza
chenza
chera
cheratzu
cherbeddu
cherbu
cherchi
chercos
chercu
cheremule
cheren
cherent
cheret
cherfida
cherfidu
cherian
cheriant
cherias
cheriat
cherit
cherrer
cherrere
cherta
chertat
chertos
chertu
chervu
chescias
chess
chessa
chessidu
chessit
chet
chi
chia
chiama
chiamata
chianu
chiara
chiaravalle
chiarella
chibudda
chicago
chico
chida
chidas
chie
chief
chiesa
chieti
child
children
chile
chili
chilivane
chillan
chilogrammu
chilometros
chilometru
chilometrus
chilos
chilu
chimbant
chimbanta
chimbe
chimbichentos
chimbighentos
chimica
chimicamente
chimicas
chimicos
chimicu
chin
china
chind
chinese
chini
chinta
chintorza
chintu
chirca
chircada
chircadore
chircadores
chircadu
chircaiant
chircaiat
chircande
chircant
chircare
chircas
chircat
chircau
chirchende
chircos
chircu
chirigu
chironi
chirra
chirrios
chirriu
chirros
chirru
chisciotte
chisina
chistionabat
chistionada
chistionadas
chistionadu
chistionai
chistionaiat
chistionant
chistionare
chistionat
chistionau
chistione
chistionende
chistiones
chistioni
chistionis
chistionu
chitarra
chitarrista
chitarristas
chiterra
chiterrista
chito
chitzi
chitzo
chiu
chiusa
choice
chomsky
chopin
chorographiam
chris
christ
christian
christina
christine
christmas
christophe
christopher
christu
chromista
chronica
chronicle
chuck
church
churchill
ci
cia
ciad
ciak
ciampi
cianciulli
ciao
ciascuno
cibudda
cica
cicap
ciccio
cicciput
ciclista
ciclu
cicrista
cida
cielo
cien
cier
cii
cikti
cile
cilenu
cilocco
cima
cina
cincinnati
cincu
cincuanta
cinema
cinematografica
cinematograficu
cinesa
cinesos
cinesu
cinque
cintu
cinzia
cio
cioe
cioppi
cipro
cipru
circa
circai
circat
circle
circo
circoli
circolo
circonferentzia
circuit
circus
cirese
cirillicu
ciro
cisco
cisgiordania
cit
citadi
citadis
cite
cities
citing
citta
cittadi
cittadinanza
cittadino
cittiglio
city
ciudad
ciusa
ciutat
civico
cividale
civil
civile
civili
civilis
civilization
civilta
civiltadi
civita
cixerri
cj
ck
cl
claims
clamav
clamwin
clan
clandestina
clannad
clara
clare
clarence
clarinet
clarinettu
clarissas
clark
clarke
claro
clash
class
classe
classes
classi
classic
classica
classical
classicas
classici
classicos
classics
classicu
classifica
classificada
classificadas
classificados
classificadu
classificadura
classificant
classificare
classificas
classification
classificatzione
classificatziones
classis
claude
claudia
claudio
claudiu
clausura
clay
clayton
clement
clemente
cleopatra
clero
cleru
cleveland
clic
client
cliente
clientes
clienti
clifford
clima
climas
climate
climaticas
climaticos
climaticu
climatologia
clinica
clinical
clinicas
clinicu
clinton
clive
clock
clooney
cloro
close
closer
cloud
clouds
club
clubs
cm
cn
cnn
cnr
co
coa
coalitzione
coas
coast
coates
coautori
cobain
coberare
coberit
coberrefogu
coberrere
coberta
cobertas
cobertu
cobertura
coberturas
coca
cocco
coco
coda
coddu
code
codex
codice
codiche
codiches
codici
codifica
codificadas
codighe
codighes
codixi
cody
coe
coefitzientes
coerente
coerentzia
cofanetto
coffee
coghene
coghidura
coghina
coghinale
coghinas
coghineri
cognome
cognomi
cohen
coi
coia
coimbra
cointzidentzia
cointzidet
coja
cojadu
cojare
cojas
cojau
coju
cojuada
cojuados
cojuadu
cojuare
cojuat
cojuiu
col
cola
colada
coladas
coladorgiu
colados
coladu
colaiat
colande
colant
colare
colat
colau
cold
cole
coleman
colende
coli
colin
colla
collaboradore
collaboradores
collaboradu
collaborare
collaborat
collaboratzione
collaboratziones
collaboratzioni
collaborazione
collaborazioni
collaborende
collage
collana
collanas
collassu
collection
collega
collegada
collegadas
collegados
collegadu
collegamentos
collegamentu
collegare
collegas
collegat
collegau
college
collegios
collegiu
colletiva
colletividade
colletividades
colletivos
colletivu
colletzione
colletziones
collezione
colliat
collida
collidos
collidu
collina
collins
collint
collire
collit
colliu
collocada
collocadas
collocadu
collocat
collodi
collserola
collu
colo
colombia
colombiana
colombianu
colombo
colomo
colonia
coloniale
coloniales
coloniali
colonialismu
colonias
colonizada
colonizadores
colonizadu
colonizatzione
colonna
colonnas
colonos
color
coloradas
colorado
colorados
coloradu
colore
colores
colori
coloru
colpa
colpi
colpo
coltivada
coltivos
coltivu
coltrane
coltura
colucci
columbia
columbu
columbus
colunia
colunias
colunna
colunnas
com
coma
comarca
combat
combustibile
combustibiles
combustione
come
comedy
comencini
coment
comente
comenti
comentzu
comes
comet
cometa
cometas
comets
comica
comicos
comics
comicu
coming
comino
comintzada
comintzadas
comintzados
comintzadu
comintzant
comintzare
comintzat
comintzende
comintzu
cominzadu
cominzat
cominzu
comita
comitados
comitadu
comitato
comitau
comma
command
commedia
commediografu
commentary
commentati
commente
commenti
commento
commerciale
commerciu
commissario
commissariu
commission
commissionadu
commissione
commitidu
committee
commo
common
commons
commonwealth
communication
communications
communis
community
como
comomai
comoras
comp
compagnia
companion
company
comparative
competenzias
compiladore
compilados
compiladu
compilare
compilation
compitu
complessa
complessas
complesso
complessu
completa
complete
completes
complex
componente
componentes
compora
comporada
comporados
comporadu
comporare
comporat
comporau
compores
composidore
compositzione
composizione
compostela
compra
compton
compulsivu
computatzionale
computer
computers
computing
comte
comu
comuna
comunale
comunales
comunali
comunas
comuncas
comune
comunemente
comunes
comuni
comunicadu
comunicadura
comunicaduras
comunicare
comunicassione
comunicat
comunicativo
comunicato
comunicatzione
comunicatziones
comunicatzioni
comunicazione
comunidad
comunidade
comunidades
comunidadi
comunidadis
comunione
comunis
comunismu
comunista
comunistas
comunita
comunitariu
comunos
comunque
comunu
comunus
comutadori
comutadoris
con
conan
conca
concas
concentramentu
concepcion
concepts
concert
concerto
concetto
concetus
conchedda
concheddas
conchista
conchistada
conchistadores
conchistados
conchistadu
conchistare
conchistas
conchistau
conchistende
conciliu
concluida
concluidu
concord
concordia
concorso
concruida
concruidu
concruire
condaghe
condaghes
condanna
condannato
conditzione
conditziones
conditzioni
condizioni
condor
condotta
conduta
condutas
conference
conferenza
configuratzione
confinat
confine
confines
confini
conflict
conflitto
conforti
confronti
confundere
confundidu
confusione
congiu
congiuntivu
congiura
congo
congregatzione
congress
congresso
coni
coniadu
conifa
coniugatzione
connada
connadu
connecticut
connessione
connessiones
connessioni
connor
connoscentzia
connoschede
connoschent
connoschentzia
connoschentzias
connoschere
connoschet
connoschiant
connoschiat
connoschida
connoschidu
connoschimentos
connoschimentu
connoschimus
connosci
connoscit
connota
connotas
connotatzione
connotatziones
connotos
connotta
connottas
connottos
connottu
connotu
connotus
conosce
conoscenza
conotta
conottu
conquista
conrad
conservatoria
considerada
consideradu
considerat
considerau
considerazioni
considerevole
consigiu
consiglio
consilium
consillu
consixu
consizu
console
consolidadu
consonante
consonantes
constantine
consule
consulente
consules
consulta
consultadu
consultare
consultato
consultatzione
consultivu
consumat
consumu
conta
contact
contada
contadas
contadini
contadino
contados
contadu
contagiu
contai
contaiant
contaiat
contaminatzione
contant
contare
contat
contatto
contau
conte
contea
conteas
contemporanea
contemporanei
contemporaneos
contemporary
contende
contene
contenit
content
contes
contest
contesto
contestu
conti
contiene
contina
continental
continentale
continentales
continentali
continente
continentes
continenti
continentis
contingentes
contini
continu
continua
continuada
continuadu
continuare
continuat
continuidade
continuum
contissa
contivigiant
contivigiare
contone
contos
contr
contra
contrabandu
contrabasciu
contrada
contraparte
contraposidura
contraria
contrariedade
contrarios
contrariu
contras
contrasemper
contratzione
contribuende
contribuidu
contribuire
contribuit
contribuiu
contributo
contributos
contributu
contro
controidu
control
controlladas
controlladu
controllai
controllaiant
controllare
controllat
controllore
controllu
contu
contus
contzentratzione
conu
convegno
convention
conversations
cook
cool
cooper
cooperativa
cooperativas
cooperatzione
cooperatzioni
coordinadas
coordinadore
coordinamentu
copa
copas
copenaghen
copernicu
copertina
copia
copiare
copias
coppa
copper
coppi
coppia
coppola
cops
copy
copyleft
copyright
coracenses
coraddu
coragiu
corale
coratzada
corbeddu
corbin
corbusier
corda
cordas
cordialmente
cordoba
cordolinu
cordova
core
corea
coreana
coreanos
coreanu
corfida
corfidos
corfidu
corfos
corfu
corgiu
coria
corju
cork
cornelia
corneliu
cornell
corner
cornovallia
cornus
coro
corona
coronas
coronavirus
coronellu
corongiu
coros
corpi
corpo
corporation
corpos
corps
corpu
corpus
corrado
corraine
corraini
corrasi
corriere
corros
corrosione
corru
corrutzione
corsa
corsari
corse
corsi
corsica
corsicae
corsicana
corsicanas
corsicanos
corsicanu
corsiga
corso
corsos
corsu
corte
cortes
corteu
corti
cortina
cortometraggio
corts
coru
coruna
corzu
cos
cosa
cosas
coscienza
cose
cosenza
cosi
cosima
cosimo
cosinu
cosma
cosmicu
cosmo
cosmographicum
cosmos
cosomo
cossa
cossiga
cossizeri
cossoine
cossos
cossu
cost
costa
costadu
costagiu
costante
costantes
costanti
costantine
costantino
costantinopoli
costantinu
costantza
costanza
costas
costat
costau
costazos
costazu
costellatzione
costellatziones
costera
costeras
costituende
costituente
costituentes
costituiant
costituiat
costituida
costituidas
costituidos
costituidu
costituint
costituire
costituit
costitutiva
costitutivas
costitutivu
costitutzionale
costitutzionales
costitutzione
costitutzioni
costituzione
costoidu
costos
costrintu
costruere
costruida
costruidu
costruire
costruttiva
costrutzione
costrutziones
costrutzioni
costruzione
costu
costuma
costumant
costumantzia
costumantzias
costumat
costumene
costumenes
costumi
cota
cotard
cote
cotes
cotidianu
cotone
cotta
cottin
cottu
cotu
coudu
coudus
could
couleur
coulomb
council
countries
country
county
coup
court
cov
cover
covers
covid
cox
coxina
cp
cpsq
cpu
cq
cr
craba
crabarissu
crabas
crabiele
crabonaxa
craboni
crabonia
craccracriccrecr
crack
cracovia
crae
crai
craig
cramada
cramadu
cramu
crannatza
crara
craramente
craras
crarire
craros
craru
cras
crasi
crassigu
crastu
crateris
cravadu
crazy
crc
creada
creadas
creados
creadu
creai
creant
creare
creat
creation
creativa
creative
creatividade
creativu
creatzione
creatzioni
creau
creaus
credentzia
credet
creditu
credo
creek
creende
creent
creentzias
creere
creet
crei
creiant
creiat
creingios
creit
creja
crejas
crema
cremona
creo
creola
creolu
creschede
creschende
creschene
creschent
crescher
creschere
creschet
creschiat
creschida
creschidas
creschidu
creschimentu
cresci
crescia
crescida
crescit
cresia
cresias
cresiedda
crespi
creta
cretidu
creu
crew
creze
criada
criados
criadu
criadura
criaduras
criai
criara
criare
criatzione
criau
criende
crientes
crima
crime
crimea
crimene
crimenes
crimes
criminale
criminales
criminalidade
crimine
crimines
criminosu
crimson
crinera
cripta
crise
crisi
crisis
cristallina
cristian
cristiana
cristianas
cristianesimu
cristianidade
cristianizatzione
cristiano
cristianos
cristianu
cristina
cristo
cristofaro
cristoforo
cristolu
cristos
cristu
criterios
criteriu
critica
criticada
criticadu
criticare
criticas
criticat
critici
critico
criticos
critics
criticu
critique
croata
croatos
croatu
croatzia
croba
crobas
crobu
croce
crocifissu
crocker
croft
croix
cromosoma
cromosomas
cromper
crompet
crompida
crompidas
crompidu
crompit
cronaca
cronacas
cronache
cronica
cronista
cronologia
crosadas
crosby
cross
crosta
crotone
crow
crown
crs
crua
crucifissu
crucis
crusiera
crutzadas
crutzados
cruu
cruz
crystal
cs
css
csu
ct
cthulhu
cu
cuada
cuaddu
cuaddus
cuadorzu
cuados
cuadrada
cuadrados
cuadradu
cuadrau
cuadraus
cuadriennale
cuadros
cuadru
cuadu
cuantica
cuare
cuarta
cuarteri
cuartetu
cuartieri
cuartos
cuartu
cuat
cuator
cuatru
cuattru
cuaturu
cuba
cubana
cubanu
cubeddu
cubello
cubicu
cubos
cubu
cucca
cucciari
cuccu
cuccuru
cucu
cucureddu
cucuros
cucuru
cudd
cudda
cuddas
cuddos
cuddu
cuddus
cue
cuec
cufforma
cughe
cugugiadu
cugugiare
cuguzat
cui
cuidales
cuile
cuiles
cuindixi
cuintu
cullaboradura
cullega
cullera
cullieri
culoris
culpa
cult
cultas
cultibu
cultivada
cultivadu
cultivos
cultivu
cultos
cultu
cultura
cultural
culturale
culturales
culturali
culturalis
culturalmente
culturas
culture
cultures
culumbu
cum
cumandada
cumandadore
cumandados
cumandadu
cumandaiat
cumandamentos
cumandante
cumandantes
cumandare
cumandat
cumandos
cumandu
cumarca
cumassa
cumbata
cumbatas
cumbatentes
cumbatere
cumbatida
cumbatidu
cumbatimentos
cumbatos
cumbattere
cumbattidu
cumbeniu
cumbennidos
cumbennidu
cumbentos
cumbentu
cumbentura
cumbessias
cumbidadu
cumbidant
cumbidare
cumbidat
cumbidu
cumbinada
cumbinadas
cumbinados
cumbinadu
cumbinadura
cumbinant
cumbinat
cumbinatzione
cumbinatziones
cumbinchere
cumbinchimentos
cumbinende
cumbintu
cumbocadu
cumenciau
cumente
cumenti
cumentzadu
cumentzant
cumentzat
cumentzendi
cumentzu
cumertziale
cumertziales
cumertziu
cumintzada
cumintzadu
cumintzande
cumintzant
cumintzare
cumintzat
cumintzau
cumintzeit
cumintzende
cumintzos
cumintzu
cumissione
cumissioni
cumitidu
cummedia
cummente
cummentende
cummenti
cummentos
cummentu
cummerciu
cummertziale
cummertziales
cummertziantes
cummertziare
cummertzios
cummertziu
cummessariu
cummissione
cummissiones
cummitidos
cumonale
cumonales
cumone
cumpagnia
cumpagnos
cumpangia
cumpangias
cumpangios
cumpangiu
cumpanza
cumpanzia
cumpanzias
cumpanzos
cumpanzu
cumparada
cumparadu
cumparantzia
cumparent
cumparet
cumparis
cumparit
cumparrer
cumparrere
cumparta
cumpartos
cumpartu
cumpartzida
cumpartzidos
cumpartzidu
cumpartzimentu
cumpartzint
cumpartzire
cumpartzit
cumpassida
cumpatibile
cumpatibiles
cumpensu
cumpetentzia
cumpetentzias
cumpetere
cumpetitiva
cumpetitzione
cumpetitziones
cumpiladura
cumplementu
cumplessa
cumplessas
cumplessidade
cumplessiva
cumplessos
cumplessu
cumpleta
cumpletada
cumpletadu
cumpletamente
cumpletare
cumpletende
cumpletu
cumponent
cumponente
cumponentes
cumponenti
cumponentis
cumponet
cumponidore
cumponidura
cumponiduras
cumponimentos
cumponimentu
cumponint
cumponner
cumponnere
cumportadu
cumportamentos
cumportamentu
cumportant
cumportare
cumportat
cumposidore
cumpositzione
cumpositziones
cumposta
cumpostas
cumpostos
cumpostu
cumpostus
cumprende
cumprenden
cumprendende
cumprendent
cumprender
cumprendere
cumprendet
cumprendi
cumprendiant
cumprendiat
cumprendida
cumprendidu
cumprendiri
cumprendit
cumprendiu
cumprendo
cumprensione
cumprensioni
cumpresa
cumpresos
cumpressione
cumpressores
cumpressos
cumpressu
cumpresu
cumpreta
cumpretamente
cumpretu
cumpria
cumprida
cumpridu
cumprimentu
cumprimida
cumprire
cumprit
cumpromissu
cumproos
cumprou
cumunu
cun
cuncambiu
cuncertu
cuncetu
cunchista
cunchistada
cunchistadu
cunchistare
cuncordada
cuncordadu
cuncordare
cuncordu
cuncreta
cuncretamente
cuncretu
cuncruimentu
cuncurrentes
cuncurrentzia
cuncursos
cuncursu
cund
cundannadu
cundannau
cundenna
cundennada
cundennados
cundennadu
cundennare
cundennau
cundensatzione
cundissione
cundissiones
cunditzionada
cunditzionadu
cunditzionale
cunditzione
cunditziones
cunditzionis
cundottu
cunduta
cuneo
cunetada
cunfederados
cunfederadu
cunfederatzione
cunferentzia
cunferentzias
cunferidu
cunfessadu
cunfessiones
cunfiantzia
cunfinat
cunfirma
cunfirmada
cunfirmadu
cunfirmant
cunfirmare
cunfirmat
cunfirmende
cunflitos
cunflitu
cunforma
cunformadu
cunforme
cunformidade
cunfortu
cunfrarias
cunfronta
cunfrontos
cunfrontu
cunfunder
cunfundere
cunfusione
cungiada
cungiadu
cungiat
cungiau
cungressos
cungressu
cunningham
cunnoschimentu
cunnota
cunnotas
cunnotos
cunnotu
cunsacrada
cunsacradu
cunsagrada
cunsagradu
cunseghentzia
cunseguentzia
cunsensu
cunsentidu
cunsentire
cunsentit
cunserbare
cunserbat
cunservada
cunservadas
cunservadore
cunservadores
cunservados
cunservadu
cunservant
cunservare
cunservat
cunservatoriu
cunservatzione
cunsiderada
cunsideradas
cunsiderados
cunsideradu
cunsiderai
cunsideraiant
cunsideraiat
cunsiderant
cunsiderare
cunsiderat
cunsiderau
cunsideraus
cunsiderende
cunsideros
cunsideru
cunsighente
cunsighentes
cunsighentzia
cunsighentzias
cunsighidu
cunsighire
cunsigiu
cunsigna
cunsignadu
cunsillu
cunsistent
cunsistente
cunsistentes
cunsistentzia
cunsistet
cunsistiant
cunsistiat
cunsistit
cunsizu
cunsolidadu
cunsonante
cunsonantes
cunsortziu
cuntantu
cuntatos
cuntattos
cuntattu
cuntatu
cuntatus
cuntemporanea
cuntemporaneas
cuntemporaneos
cuntemporaneu
cuntenent
cuntenet
cunteniat
cuntenimentu
cuntenit
cunteniu
cuntenner
cuntennere
cuntennida
cuntennidos
cuntennidu
cuntenta
cuntentas
cuntentesa
cuntentu
cuntenutu
cuntestadu
cuntestatzione
cuntestos
cuntestu
cuntierra
cuntierrada
cuntierradu
cuntierras
cuntinentale
cuntinente
cuntinentes
cuntingente
cuntrastadu
cuntrastare
cuntrastos
cuntrastu
cuntratos
cuntratu
cuntribuidu
cuntributos
cuntributu
cuntrollada
cuntrolladores
cuntrollados
cuntrolladu
cuntrollaiat
cuntrollare
cuntrollos
cuntrollu
cuntronos
cuntzedere
cuntzediat
cuntzedida
cuntzedidos
cuntzedidu
cuntzedit
cuntzediu
cuntzentrada
cuntzentradas
cuntzentrados
cuntzentradu
cuntzentramentu
cuntzentrare
cuntzentrat
cuntzentratzione
cuntzertos
cuntzertu
cuntzessione
cuntzessiones
cuntzetos
cuntzettu
cuntzetu
cuntzibidu
cuntziliu
cunvegnos
cunvegnu
cunventu
cunventzionale
cunventzione
cunventziones
cunversione
cunvertere
cunvertida
cunvertidos
cunvertidu
cunvertire
cunvertit
cunvocadu
cuore
cuori
cuota
cuotidiana
cuotidianu
cup
cupa
cupola
cupula
cura
curacao
curada
curadore
curadoria
curadorias
curadu
curare
curas
curat
curatore
curatoria
curau
curcio
curia
curiosa
curiosu
curitiba
curpa
curregidore
currende
current
currente
currentes
currenti
currera
curreras
currespondent
currespondentzia
currespondere
currespondet
currespondiat
curret
curreta
curretu
curretzione
curretziones
curreu
curriculum
curridu
currispondent
currispondentes
currispondentzia
currispondentzias
currispondere
currispondet
cursa
cursada
cursariu
cursas
cursos
cursu
curta
curtas
curteddu
curtis
curtu
curtura
curturale
curturales
curturas
curtza
curtzas
curtzesa
curtzos
curtzu
curva
cus
cuscientzia
cuss
cussa
cussas
cusseguentzia
cusseguentzias
cussentzia
cussiderabile
cussiderada
cussideradu
cussiderant
cussiderare
cussiderat
cussiderende
cussideru
cussigeri
cussigeris
cussighentzia
cussigios
cussigiu
cussizera
cussizeri
cussizu
cussorgia
cussorgias
cussos
cussu
cussus
cust
custa
custas
custituida
custituidos
custituidu
custituimentu
custituint
custituit
custodia
custody
custos
custringhende
custringhidu
custrinta
custrintos
custrintu
custu
custumantzia
custus
cut
cutanea
cuzone
cv
cw
cx
cy
cynthia
cz
d
d0
d1
d2
d3
d4
d5
d6
d7
d8
d9
da
dabile
daboi
dada
dadas
dados
dadu
dae
daen
daet
daga
dagli
dai
daiant
daiat
dail
daily
dakar
dakota
dal
dall
dalla
dallas
dalle
dallo
dalmata
dalmaticu
dalmatzia
dalmau
dalton
dama
dame
damiani
damiano
damianu
dan
dana
dance
dancing
dande
danesa
danese
danesos
danesu
daniel
daniela
daniele
danimarca
dannos
dannu
danny
dans
dant
dante
dantis
dantza
dantzas
danubiu
dany
danza
dao
dapoi
dar
dare
dario
dark
darkness
darko
darwin
das
dassadu
dassare
dassat
dassende
dat
data
dataarchivio
dataarchiviu
database
databile
databiles
datada
datadas
datados
datadu
datadura
datagrama
datagramas
datant
datas
datat
datatzione
date
dati
dativu
dato
datos
datu
datus
dau
daughter
dave
daverio
david
davide
davidson
davies
davis
davoli
dawson
day
days
db
dc
dd
dda
ddas
ddd
ddi
ddis
ddoe
ddoi
ddos
ddr
ddt
ddu
ddui
dduna
ddunu
ddus
de
dea
dead
deaf
deal
dean
dear
death
debate
debian
debile
debiles
debilesa
debili
debrecen
debugger
debutadu
dec
decada
decadas
decade
decadentzia
decadessimentu
december
deche
decidit
decidiu
decimarum
decimetru
decision
decisioni
declarada
declaradu
declaratzione
declaratzioni
declinu
deco
decodificada
decolladu
decolonizatzione
decorada
decoradas
decoradu
decoradura
decoraduras
decorativa
decrarada
decrarados
decraradu
decraradura
decraraiat
decrarare
decrarat
decraratzione
decraratziones
decrarau
decrarende
decretada
decretadu
decretu
dedica
dedicada
dedicadas
dedicados
dedicadu
dedicare
dedicat
dedicato
dedicau
dedicaus
dedichende
dedigadu
dedola
deduit
dee
deejay
deep
deepest
deepin
def
defender
defendere
defensa
defensare
defensas
defense
defesa
deficit
definende
definiat
definida
definidas
definidos
definidu
definint
definire
definiri
definit
definition
definitiva
definitivamente
definitive
definitivu
definitzione
definitziones
definitzioni
definiu
defuntos
defuntu
degadas
deghe
deghenniu
deghennoe
degheoto
deghes
deghessete
deghimale
deghina
deghinas
degli
degolliu
degollos
degortes
degradu
degree
degumas
dei
deidda
deja
del
delaware
deledda
deleddianu
delegados
delegadu
delegatzione
deleuze
delfino
delfinu
delgada
delhi
delibera
deliberazione
delicada
delirio
delitala
delitos
delitto
delitu
dell
della
delle
dello
delogu
dels
delta
delusione
dem
demand
demaniu
demasiadu
demo
democratica
democraticas
democratico
democraticos
democraticu
democratigu
democratization
democratzia
democrazia
democrito
demografia
demografica
demografico
demograficu
demon
demos
den
denanti
dende
denegare
dengler
dengue
denia
denis
dennegu
dennis
denominada
denominadu
denominatzione
denominatziones
densamente
densidade
densidadi
dentale
dente
dentes
dentro
denumenada
denumenados
denumenadu
denumenatzione
denuntzia
denuntziadu
denver
deo
deos
departamentu
department
depat
dependent
dependet
depent
deper
depere
depes
depet
depi
depiant
depiat
depida
depidas
depidos
depidu
depimus
depint
depit
depiu
deportados
deportadu
deportatziones
depositos
depositu
depositzione
depostu
deppit
depressione
deputada
deputados
deputadu
deputau
der
derbi
derby
derek
dereta
deretamente
deretas
deretore
deretos
derettos
derettu
deretu
deretura
deretus
deriu
derivada
derivadas
derivados
derivadu
derivant
derivare
derivat
derivatzione
derivet
deroga
derrota
derrotada
derrotados
derrotadu
derrotare
derrotas
derruta
derzhkino
des
desacatu
descriende
descrient
descriere
descriet
descriiat
descrissione
descrita
descritas
descritos
descrittu
descritu
descritzione
descritziones
descrivet
desert
deserticu
desertos
desertu
desiderio
design
designadu
designare
designat
designer
desinentzia
desinniadu
desire
desktop
despite
dessa
dessi
dessintotu
dessu
dessy
destinada
destinadas
destinados
destinadu
destinatarios
destinatariu
destinatzione
destino
destinos
destinu
destituidu
destra
destroyed
destru
destruida
destruidu
destruidura
desu
desulu
det
details
detained
detallios
detective
detenimentu
detennidu
detention
detentos
detentu
determinada
determinadas
determinados
determinadu
determinante
determinare
determinat
determinatzione
determinu
detlev
detroit
detto
dettori
detzidende
detzidere
detzidet
detzidida
detzididu
detzidit
detzidiu
detzimale
detzisione
detzisiones
detzisiva
detzisivu
detzisu
deu
deum
deus
deutsch
deutsche
deutschland
deux
dev
devaddis
deve
devede
development
devenende
devenit
devenner
devennere
devennet
devennida
devennidas
devennidu
devent
dever
devere
devet
devi
deviant
deviat
device
devices
devidu
devil
devoto
devotzione
dexi
deximeputzu
deximu
deximumannu
df
dg
dh
dhabi
dhamma
dharma
di
dia
diabete
diaconu
diacriticos
diada
diaderus
diadoru
diagnosi
diagramma
diais
dialetale
dialetales
dialetos
dialettale
dialetti
dialetto
dialettos
dialettu
dialetu
dialetus
dialoghi
dialogo
dialogos
dialogu
diamantes
diametru
diamond
diamus
dian
diana
diane
diant
diario
diarios
diariu
diary
dias
diaspora
diat
diaulu
diaz
dibata
dibatas
diccionari
dice
dicembre
dichiaradu
diciu
dick
dicono
dictionary
did
didatica
didaticos
didaticu
diderot
didn
didu
didus
die
dieci
died
diego
diegu
dies
diesel
dieta
dietrich
diez
difatis
difattis
difendere
difensores
diferente
diferentemente
diferentes
diferenti
diferentis
diferentzia
diferentziados
diferentziadu
diferentziale
diferentziant
diferentziare
diferentzias
diferentziat
diferit
difesa
difesu
difetu
diffattis
different
differente
differentes
differenti
differentis
differentzia
differentzias
differenze
diffitzile
diffusa
diffusione
dificultade
dificultades
dificultosa
dificultosu
dificurtade
difitzile
difitziles
difizile
difundere
difundet
difundida
difundidas
difundidos
difundidu
difundiu
difusione
difusu
diga
digas
digital
digitale
digitales
diglossia
dignidade
dignu
digramma
dii
diis
diletantes
dilettanti
dilettantistica
dili
dillindada
dillindadas
dillindadu
dillu
diluviu
dimanda
dimandadu
dimandas
dimandat
dimensione
dimensiones
dimensionis
dimenticati
dimesso
diminutivu
dimissiones
dimitidu
dimitris
dimoniu
dimustradu
dimustrant
dimustrare
dimustrat
dimustratzione
din
dinai
dinamica
dinamicas
dinamo
dinare
dinari
dinastia
dinastias
dinastica
dinasticu
dino
dinosaurus
dins
dintorni
dio
diocesi
diocletzianu
dionigi
diora
diorio
diosa
diossidu
diotzesi
diotzesis
dipartimentos
dipartimentu
dipendende
dipendent
dipendente
dipendentes
dipendentzia
dipendentzias
dipendet
dipendiant
dipendit
dipinti
diploma
diplomacy
diplomadu
diplomat
diplomatica
diplomatico
diplomaticos
diplomaticu
diplomaticus
diplomatzia
dir
dire
director
directory
direta
diretamente
diretora
diretore
diretores
diretori
diretos
diretta
direttore
direttu
diretu
diretzione
diretziones
diretzioni
direzione
dirigente
dirigentes
dirigere
dirigida
dirigidos
dirigidu
dirigit
diritos
diritti
diritto
dirittos
dirittu
diritu
dirty
dis
disabitada
disabitadas
disacatos
disacatu
disafios
disafiu
disambiguatzione
disamistade
disamistades
disaster
disastru
disc
discansu
discassu
discendentes
dischente
dischentes
dischi
disciplina
disciplinas
discipline
disciprina
discipulos
discipulu
disco
discografia
discografica
discograficu
discogs
discoidu
disconnota
disconnotas
disconnotos
disconnotu
discorso
discos
discovery
discreta
discriminatzione
discriminatziones
discu
discuntentesa
discuntentu
discursos
discursu
discus
discussione
discutegas
disease
diseases
disegni
disegno
disegnos
disigiada
disigiadu
disigiu
disignos
disimpreu
disinnadu
disinnos
disinnu
disintegratzione
disisperu
disizu
disk
dislindada
dislindadas
dislindados
dislindadu
disney
disordines
dispensadu
dispensadura
dispensare
dispensat
display
displaystyle
disponent
disponet
disponiat
disponibile
disponibiles
disponimentos
disponimentu
dispositivos
dispositivu
dispositivus
disposta
dispostas
dispostos
dispostu
disputa
disputadu
disputare
disputau
dissiplina
distacamentu
distantzia
distantzias
disterrados
disterradu
disterrare
disterru
distinghent
distingher
distinghere
distinghet
distinghit
distinta
distintas
distintos
distintu
distintzione
distretos
distretu
distribuida
distribuidos
distribuidu
distribuidura
distribuire
distribution
distributzione
distributziones
district
distritos
distritu
distruida
distruidas
distruidos
distruidu
distrutzione
disturbu
disusadu
disvariada
disvariadas
disvariados
disvilupadu
dita
ditadore
ditadura
ditatoriale
ditzionarios
ditzionariu
ditzu
divenende
diveniat
divenida
divenidu
divenint
divenire
divenit
divennere
divennida
divennidu
divenniu
diventa
diventada
diventados
diventadu
diventai
diventande
diventant
diventare
diventat
diventende
diveris
diversa
diversamente
diversas
diverse
diversi
diversidade
diversity
diverso
diversos
diversu
diversus
divescias
divescios
dividia
dividida
divididas
divididos
divididu
dividire
dividit
dividiu
divina
divinidade
divinidades
divinidadis
divinu
divisa
division
divisione
divisiones
divisioni
divisu
divortziu
divulgatzione
dixie
dizionario
dizzy
dj
djamena
django
dk
dl
dle
dm
dmitrij
dn
dna
dniester
do
dobrugia
doc
docente
doctor
document
documenta
documentada
documentadas
documentadu
documentario
documentarios
documentariu
documentas
documentassione
documentation
documentatzione
documenti
documento
documentos
documents
documentu
documentus
doddore
doe
does
doesburg
dog
dogna
dogni
doha
doi
doighi
dolce
dolia
dolianova
dollaros
dollaru
dolmen
dolore
dolores
dolorosa
dolorosas
dolu
dom
domanda
domandat
domani
domenica
domenico
domestica
domesticos
domesticu
dominada
dominadora
dominadore
dominadores
dominados
dominadu
dominadura
dominaiat
dominante
dominantes
dominare
dominat
dominatzione
dominatziones
dominazione
domingo
domini
dominica
dominicana
dominicanu
dominiga
dominigas
dominigu
dominio
dominion
dominios
dominique
dominiu
domino
dominos
dominus
dommo
dommu
domo
domos
domu
domunoas
domus
domusdejanaseditore
don
dona
donada
donadu
donai
donald
donant
donare
donat
donatello
donativu
donato
donatzione
donatziones
donau
dondolando
donende
donendi
dong
donigala
donizetti
donna
donne
donnia
donniasantu
donniassantu
donnie
donnu
donoratico
donori
donos
dontzi
donu
donzi
dop
dopia
dopiu
dopo
dopofestival
doppiada
doppiadu
doppio
dopu
dore
dorgali
doria
dorias
doris
dormire
dorsale
dos
dossale
dossu
dostoevskij
dot
dotada
dotadas
dotados
dotadu
dotoradu
dotore
dotrina
dottor
dottori
dottrina
dotzente
dotzentzia
double
douglas
douro
dove
dover
dovere
down
download
downs
doxi
dp
dq
dr
draft
dragon
dragu
drake
dramatica
dramma
drammatica
drammaticu
drammaturgu
dread
dream
dreamcast
dreams
drer
dresta
drew
dreyfus
drive
driver
droga
drogas
drom
drop
druche
druches
drug
drums
ds
dsm
dt
du
duamigia
duamiza
duarche
duas
dub
dubai
dubbiu
dublin
dublino
dublinu
dubrovnik
duca
ducados
ducadu
ducas
duchamp
ducretet
duda
dudas
dudosa
due
duellu
duetu
dughentos
dugone
dui
duilio
duke
dulce
dule
duluth
dumbo
dumont
dun
dunas
duncan
duncas
dune
duo
duomo
duos
dupra
dura
durada
duradu
duran
durant
durante
duranti
durare
duras
durat
durcarias
durche
durches
durci
dure
durgali
durham
duri
during
durov
duru
dus
duse
dusseldorf
dust
dusu
dutore
duttore
duus
dux
dv
dvd
dw
dwight
dx
dy
dylan
dynamic
dynamics
dz
də
e
e0
e1
e2
e3
e4
e5
e6
e7
e8
e9
ea
eac
eagle
eagulls
ear
earl
early
earth
east
eastern
easy
eat
eb
ebba
ebbia
ebia
eboli
ebraica
ebraicu
ebraismu
ebrea
ebreas
ebreos
ebreu
ebro
ec
ecc
ecce
eccellenza
ecciu
ecclesiasticos
ecco
ecentritzidadi
echilibrios
echilibriu
echipa
echipagiu
echipamentos
echipazu
echo
eclesiastica
eclesiasticos
eclesiasticu
eclissi
eclitica
eco
ecole
ecologia
ecology
economia
economias
economic
economica
economicamente
economicas
economiche
economico
economicos
economicu
economiga
economigu
economist
economista
economy
ecosistema
ecosistemas
ecuador
ecuadore
ecuadoriale
ecuanime
ecuatoriale
ecuatzione
ecuatziones
ecuinotziu
ecuivalente
ecuivalentes
ecumenicu
ed
edade
edades
edadi
edd
eddie
edduncas
eddy
eden
edera
edes
edgar
edge
edi
edicio
ediciones
edicions
edificios
edifitzios
edifitziu
edile
edilitzia
edilitziu
edimburgo
edimburgu
edina
edinburgh
edipo
edirne
edisar
edissione
edissiones
edit
editadu
edith
edition
editions
editor
editora
editore
editores
editori
editoria
editorial
editoriale
editoriales
editrice
editu
editzione
editziones
editzioni
editzionis
ediz
edizione
edizioni
edmonton
edmund
edoardo
edouard
eds
edu
eduard
eduardo
eduardu
educacion
educadore
educadu
education
educativu
educatzione
educazione
edward
edwards
ee
eelst
ef
efetiva
efetivamente
efetivu
efetos
efetu
efetus
effects
effetti
eficatze
eficatzidade
efis
efisio
efitziente
eg
egemone
egemonia
egeu
egidio
egitto
egittu
egitu
egitziana
egitzianas
egitzianos
egitzianu
egitzias
egizianu
ego
egua
eguale
eguales
egualidade
egypt
egyptian
eh
ei
ein
einaudi
eine
eines
einfuhrung
einstein
eireann
eis
eisenhower
eisenman
eixample
ej
eja
ejatv
ek
eka
el
elaborada
elaboradore
elaboradores
elaboradori
elaboradoris
elaborados
elaboradu
elaborare
elaborat
elaboratzione
elaboratziones
elba
elecciones
electa
election
electric
electronic
elefante
elegante
eleghere
eleghida
eleghidos
eleghidu
eleghiduras
elegidos
elegidu
elementare
elementares
elementi
elementos
elements
elementu
elementus
elena
elenco
elencu
elene
eleonora
eletoradu
eletorale
eletorales
eletores
eletrica
eletricas
eletricos
eletricu
eletritzidade
eletromagnetica
eletromagneticas
eletromagneticu
eletrone
eletrones
eletronica
eletronicos
eletronicu
elettrica
eletu
eletzione
eletziones
eletzionis
eleuthera
elevada
elevadu
elezioni
elia
elianora
elias
elies
elighe
elighes
eligiu
eliminadu
eliminare
eliminatzione
elini
elio
elioelestorietese
elionora
elios
eliot
elisa
elisabeth
elisabetta
eliseo
elisione
elite
elites
eliu
elizabeth
ella
elle
ellenica
ellenistica
ellington
ellis
ellissoide
elmas
elmundo
eloquentia
elpais
els
elsa
else
elsevier
elvira
elvis
em
emacs
email
emanadu
emanatzione
emantzipatzione
emanuela
emanuele
emarcy
emblema
emergentzia
emergidas
emeritu
emerzentzia
emi
emigrada
emigrados
emigradu
emigrantes
emigratzione
emil
emile
emilia
emiliana
emilianu
emilio
emiliu
emily
emirados
emiradu
emiru
emisferiu
emisferu
emissarios
emissione
emissiones
emissora
emitende
emitent
emitente
emitere
emitet
emitida
emitidos
emitidu
emitit
emittente
emivida
emma
emmanuel
emmy
emoglobina
emotiva
emotziones
emozioni
empire
empirica
empiricas
emu
en
ena
encarta
enciclopedia
enclave
enclaves
encyclopaedia
encyclopedia
encyclopædia
end
endangered
ende
endemica
endemicas
enduring
enel
eneoliticu
energetica
energia
energias
energy
enerzia
engadget
engels
engine
engineering
engineers
engiu
england
english
eni
enigma
enit
enja
enkidu
enna
ennalzu
ennarzu
ennas
ennio
enorme
enormes
enrico
enricu
ensemble
ente
enterprise
entertainment
entes
enti
entidade
entidades
entre
entro
entry
entscheidungsproblem
entu
entusiasmu
entziclopedia
entziclopedias
entzu
environmental
enzimas
enzo
eo
ep
ephemeris
epica
epicu
epidemia
epidemias
epidemiology
episcopu
episode
episodio
episodios
episodiu
episodius
epitzentru
epoca
epocas
epoga
epopea
epoque
eppuru
epub
epuca
eq
er
era
eracliu
erano
eranu
erasmus
erba
erbas
ercole
ere
eredade
eredadu
erede
eredera
erederi
erederis
eredes
eredidade
eredita
ereditaria
ereditariu
eremida
erentzia
eresia
eresias
ereticos
ereu
erfurt
eri
eric
erich
erickson
ericsson
erie
erik
eritrea
eritzu
ermafroditismu
ermita
ernest
ernesto
ernst
eroe
eroes
eroina
eros
erosione
erosioni
erricu
erriu
erroneamente
error
errore
errores
ertzegovina
eru
erutzione
erva
ervosa
erzegovina
es
esa
esame
esamene
esaminu
esarcadu
esata
esatamente
esatas
escludende
escludere
escludidu
escluende
escluet
esclusione
esclusiva
esclusivamente
esclusivu
esco
escola
esecutabile
esecutada
esecutadas
esecutados
esecutadu
esecutare
esecutat
esecutiva
esecutivu
esecutzione
esecutziones
esecutzioni
esempio
esempios
esempiu
esemplare
esemplares
esempros
esempru
esemprus
esercito
esercitu
esertzitaiant
esertzitare
esertzitos
esertzitu
esertzitziu
esibitzione
esibitziones
esigint
esigit
esiliados
esiliadu
esiliu
esistat
esistent
esistentzia
esistentziali
esistentzialismu
esistenza
esistere
esistet
esistiant
esistiat
esistida
esistidas
esistidu
esistini
esistint
esistit
esitos
esitu
eso
esodu
esordi
esordidu
esordit
esordiu
espana
espanol
espanola
espansione
espanyol
espardell
esperanto
esperientzia
esperientzias
esperienza
esperimentos
esperimentu
esperta
espertos
espertu
esploradore
esploradu
esplorare
esploratzione
esploratziones
esplosione
esplosioni
esplosivu
esponente
esponentes
esponentziale
esponet
esponnere
esportat
esportatzione
esportatziones
espositzione
espositziones
esposizione
esposizioni
esposta
espostas
espostos
espostu
espressada
espressadas
espressadu
espressare
espressat
espressione
espressiones
espressioni
espresso
esprimere
espulsione
essa
essai
essays
esse
essen
essende
essendi
essential
essentzia
essentziale
essentziales
essentzialmente
esser
essere
esserent
esseres
esseret
esseris
essi
essia
essiat
essida
essidas
essidi
essidos
essidu
essint
essire
essiri
essit
essiu
est
esta
estadistica
estado
estate
este
estelada
estendet
estendida
estendidu
estendit
estensione
estensiones
estensioni
estera
esterna
esternas
esternos
esternu
esteros
esteru
esterzili
estetica
esti
estinta
estintu
estintzione
estintzioni
estone
estones
estonia
estrativa
estratzione
estratzioni
estrema
estremadura
estremamente
estremas
estremidade
estremos
estremu
estu
estuariu
estudis
eswatini
et
eta
etade
etadi
etanu
etaros
etarus
etat
etc
eterna
eternu
eterosessuale
eterosessualidade
ethernet
ethnic
ethnologue
etica
eticas
eticheta
etichetadura
eticos
etimologia
etimologica
etimologico
etiope
etiopia
etnia
etnias
etnica
etnicamente
etnicas
etnicos
etnicu
etno
etnografia
etnografico
etnograficu
etnologicu
etnomusicologo
etnotzidiu
etottu
etotu
etruria
etrusca
etruschi
etruscos
etruscu
ets
ettaros
ettore
etude
etudes
etz
etza
etzetzione
etzetziones
etzu
eu
eucariotas
eugene
eugenio
eugeniu
eur
eurasia
euro
euromaidan
euronews
europa
europaeus
europarl
europe
europea
european
europeas
europeenne
europeo
europeos
europeu
europeus
euros
eurovision
euru
eus
eusebiu
euskal
euskaltzaindia
euskara
euskera
eustatius
eutanasia
ev
eva
evacuatzione
evan
evans
evaporatzione
even
event
evento
eventos
eventu
eventuale
eventuales
eventus
ever
every
everything
evic
evidence
evidente
evidentzia
evidentziadu
evidentzias
evil
evitai
evitare
evitat
evitende
evolution
evolutiva
evolutzione
evolutzioni
evoluzione
evolvidu
evviva
ew
ex
excellence
exchange
exclave
experience
exploration
explore
explosion
expo
express
extra
extraterrestrial
extremadura
ey
eyes
ez
ezitu
f
f0
f1
f2
f3
f4
f5
f6
f7
f8
f9
fa
faa
fabbri
fabbrica
fabbricu
faber
fabio
fabrica
fabricas
fabricatzione
fabricos
fabricu
fabrizio
fac
faca
facat
facci
faccia
face
facebook
fache
fachen
fachende
fachent
facher
fachere
fachet
fachian
fachiant
fachiat
faci
facies
facile
facili
facolta
fact
facta
factbook
facto
factor
factory
factotum
facts
facultade
facultades
facultadi
fadas
fadda
faddimentu
faddina
faddinamente
faddinas
fadende
fadendi
fadiant
fadiat
fae
faeddada
faeddadas
faeddadore
faeddadores
faeddados
faeddadu
faeddaiant
faeddaiat
faeddant
faeddare
faeddat
faeddatores
faeddende
faeddos
faeddu
faendi
faendu
faenza
fagat
faghe
faghede
faghen
faghende
faghene
faghent
fagher
faghere
faghet
faghian
faghiant
faghiat
faghinde
fahrenheit
fai
faiant
faiat
faidi
faina
fainas
faint
fainti
fair
fairi
fairy
fait
falada
faladu
falange
falare
falat
falcone
falconi
falesias
falkland
fall
fallida
fallidu
fallimentare
fallimentu
falling
fallout
falls
fallu
falta
faltskog
fama
famada
famadas
famados
famadu
famau
famaus
fame
famene
famiglia
familia
familiale
familiare
familiares
familiaris
familias
familla
famillia
famillias
family
famine
famosa
famosas
famosos
famosu
famous
fan
fancello
fandango
fanpage
fans
fantascientzia
fantascienza
fantasia
fantasma
fantasmi
fantastica
fantasy
fanteria
fantes
fantzedda
fanum
far
fara
faradda
faraone
farche
fardetta
fare
farina
farm
farmacologia
farmacos
faro
faros
farra
farrancas
farsa
farsas
farsu
farta
fartant
fartas
fartat
faru
fasca
fascas
fascia
fascismo
fascismu
fascista
fascistas
fasciu
fase
fases
fasi
fasis
faso
fassbinder
fassista
fasulo
fat
fata
fatal
fatale
fatas
fate
father
fatore
fatores
fatoria
fatorias
fatos
fatta
fattas
fatti
fattias
fatto
fattos
fattu
fatu
fatufatu
fatus
fatuvatu
fatzada
fatzant
fatzat
fatzile
fatziles
fatzilidade
fatzione
fatziones
faulas
fauna
faust
fausto
fava
faveddaban
faveddabat
faveddada
faveddan
faveddande
faveddant
faveddare
faveddat
faveddos
faveddu
favola
favole
favorabile
favorabiles
favore
favoressere
favoressidu
favorevole
favorevoles
favori
favoridu
favorire
favorite
fazile
fazilidade
fb
fc
fd
fdl
fe
fear
fears
feat
feature
features
featuring
febbraio
febrarju
febrer
february
fedales
fede
federados
federadu
federadura
federal
federale
federales
federali
federassione
federation
federatzione
federatziones
federatzioni
federazione
federica
federico
federicu
fedor
fedu
feedback
feel
feiez
fejzo
feldman
fele
felice
felici
felicita
felipe
felis
felisatti
felitze
felix
felline
fellini
fellowship
felton
feltrinelli
femenina
femina
feminas
feminile
feminina
femininas
femininos
femininu
feminismu
feminista
femme
femmina
femminas
femminile
femminili
fendi
fenice
fenicia
fenicio
fenicios
feniciu
fenicius
fenitzia
fenitzias
fenitzios
fenitziu
fenomeno
fenomenos
fenomenu
fenomenus
fentomada
fentomadas
fentomados
fentomadu
fentomare
fentomau
fentomu
fentzamentas
fenu
fenugu
fera
ferdinand
ferdinando
ferdinandu
ferguson
feria
ferida
feridas
feridos
feriti
fermentu
fermentus
fermi
fernanda
fernandez
fernando
ferrante
ferrara
ferre
ferreira
ferrer
ferrere
ferreri
ferri
ferridu
ferro
ferrovia
ferroviaria
ferroviariu
ferrovias
ferru
ferruccio
ferruviaria
ferruviarias
ferruviarios
ferruviariu
fertas
fertile
fertilia
fertilidade
fertos
fertu
fessint
fessit
fest
festa
festada
festadu
festant
festare
festas
festat
feste
festival
festivale
festivals
feti
feu
feudale
feudales
feudalesimu
feudatarios
feudatariu
feudos
feudu
ff
fg
fh
fi
fia
fiabe
fiada
fiandras
fiant
fiantza
fiara
fias
fiat
fibra
fibras
fiction
fidada
fidadas
fidadu
fidal
fide
fidel
fidele
fideles
fidelidade
fidelis
fidericu
fides
fidi
field
fields
fiera
fieras
fifa
figadu
figari
figc
figg
fight
fighting
figi
figia
figias
figios
figiu
figli
figlia
figlio
figu
figura
figurant
figuras
figurat
figurativas
figures
fila
filadelfia
filamentu
filas
file
filera
fileras
files
filiberto
filighe
filigosa
filigresia
filipinas
filippini
filippo
filippu
filipu
filla
fille
fillu
fillus
film
filmados
filmadu
filme
films
filo
filologia
filologiasarda
filologica
filologici
filologu
filone
filos
filosofia
filosofias
filosofica
filosoficos
filosoficu
filosofo
filosofos
filosofu
fils
filtru
filu
fimi
fin
fina
final
finale
finales
finali
finalidade
finalidades
finalista
finalmente
finamentas
financial
finantzia
finantziados
finantziadu
finantziamentos
finantziamentu
finantziare
finantziaria
finantziarias
finantziarios
finantziariu
finantzias
finanza
finarmente
finas
finat
finch
fincias
find
finds
fine
finende
fines
fini
finiat
finida
finidu
finint
finire
finis
finit
finlandesa
finlandesu
finlandia
finlandizatzione
fino
fins
finsas
fint
finta
fintas
fintzamentas
fintzas
fintzes
fintzione
finu
finzas
finzi
fiore
fiorella
fiorentina
fiorentino
fiorentinu
fiorenzo
fiores
fiori
fiorinos
fire
firentze
firenze
firma
firmada
firmados
firmadu
firmai
firmant
firmare
firmas
firmat
firmau
firmende
firmesa
firmu
first
fisarmonica
fiscale
fiscales
fischer
fisgale
fisica
fisicamente
fisicas
fisicos
fisicu
fisietto
fisiologia
fisionomia
fissa
fissada
fissadu
fissare
fissione
fissu
fit
fita
fitas
fitiana
fitianamente
fitianas
fitiania
fitianos
fitianu
fitzgerald
fiuda
fiume
fiumene
fiumi
five
fivestore
fiza
fizas
fizos
fizu
fizzu
fj
fk
fl
flaminio
flanker
flash
flauto
flautu
flavia
flavio
flight
flnc
flora
flores
florida
florinos
florio
floris
flota
flotta
flow
flower
flowers
floyd
fluidos
fluidu
flumendosa
flumini
flussos
flussu
flute
fluviale
fly
flying
flynn
fm
fn
fo
foce
focu
focus
foggia
foghe
foghesu
foghile
fogias
foglie
fogos
fogu
fogulone
foibas
fois
foiso
foix
folclore
folk
folklore
folla
follas
follia
fondamentale
fondation
fondazione
fondo
fondos
fonema
fonetica
foneticas
foneticu
fonit
fonne
fonnesu
fonni
fonologia
font
fontana
fontanelli
fonte
fontes
fonti
fontis
fontomada
fontomadu
food
fool
football
for
fora
foradada
foraidda
foras
forbes
force
forced
forces
ford
fordongianus
foreign
forest
foresta
forestale
forestas
forever
forgotten
forili
forli
form
forma
formada
formadas
formados
formadu
formadura
formaggio
formai
formaiant
formaiat
formale
formales
formalmente
formant
formare
formas
format
formato
formatu
formatzione
formatziones
formatzioni
formau
formaus
formazione
forme
formell
formende
former
formigas
formula
formuladu
formulare
formulas
formulatzione
forni
foro
forreddos
forros
forru
forse
forsis
fort
fortalesa
forte
fortemente
fortes
forti
fortificadu
fortificatziones
fortilesa
fortilesas
fortuna
fortune
fortza
fortzada
fortzados
fortzadu
fortzare
fortzas
fortzi
fortzis
foru
forum
forza
fosfatu
fosili
fossa
fossataro
fossile
fossiles
fossu
foster
foto
fotografa
fotografia
fotografias
fotografica
fotografico
fotograficu
fotografu
fotone
fotones
fotos
fotosintesi
found
foundation
four
fourier
fourth
fox
foza
fozas
fozu
fp
fq
fr
fra
frac
frade
frades
fradi
fradile
fradis
frae
fragile
fragu
fraigada
fraigadas
fraigados
fraigadu
fraigadura
fraigai
fraigamentu
fraigant
fraigare
fraigat
fraigau
fraighende
fraigos
fraigu
frame
framework
frammentos
franca
francais
francaise
francaises
francas
france
frances
francesa
francesc
francesca
francesco
francese
francesu
francesus
franchi
franchismu
franchista
francia
franciolini
francioni
francis
francisco
franciscu
francke
franco
francoangeli
francofonos
francoforte
francois
francophonie
francos
francu
francuforte
frank
frankfurt
franklin
franks
frantza
frantzesa
frantzesas
frantzesos
frantzesu
frantzesus
frantzisca
frantziscanos
frantziscanu
frantziscu
franz
franziscu
frasca
frase
fraser
frases
frasia
frasias
frasso
frassu
frate
fratelli
fratello
fratzione
fratziones
fratzioni
frau
fraus
fravicare
fravicau
frazione
frealzu
freargiu
frearzu
freaxu
frechentadu
frechente
frechentemente
frechentes
frecuentadu
frecuentare
frecuentat
frecuentzia
frecuentzias
fred
freddie
frederic
frederick
fredrik
free
freedom
freeman
freetown
fregura
freguras
freie
freistaat
frelimo
french
frenu
frequency
frequentzia
fresa
fresh
fresu
freud
frey
friargiu
friaxu
frid
frida
fridolin
fridos
friedrich
friedrichshain
friend
friends
frimmada
frimmare
frimmu
frisca
frisch
friscos
friscu
frisone
frita
fritos
frittu
fritu
fritz
fritza
fritzas
friulana
friulanu
friuli
frius
frode
frodo
frogheri
from
froma
fromma
frongia
frontale
fronte
frontera
fronteras
fronti
frontier
frora
frore
frorentzia
frores
frori
frorida
froridu
froridura
frorire
froris
fruit
frumene
frumenes
frumini
fruminis
fruniant
fruniat
frunida
frunidas
frunidori
frunidoris
frunidos
frunidu
frunimentu
frunint
frunire
frunit
frussu
fruta
frutas
frutora
frutos
frutta
fruttos
fruttu
frutu
frutus
fs
fsf
ft
fu
fua
fubaleri
fubalu
fudi
fudit
fueddada
fueddai
fueddant
fueddariu
fueddat
fueddau
fueddu
fueddus
fuego
fuende
fuentes
fuerteventura
fuga
fughire
fui
fuida
fuidos
fuidu
fuint
fuire
fuit
fukushima
fulgentziu
full
fulliada
fulliadu
fumetos
fumettos
fumettu
fumettus
fumetu
fumetus
fumu
funchal
fund
fundacio
fundada
fundadas
fundadore
fundadores
fundadori
fundadoris
fundados
fundadu
fundadura
fundamentale
fundamentales
fundamentali
fundamentalis
fundamentas
fundamentos
fundamentu
fundare
fundat
fundatzione
fundau
fundende
fundere
fundesa
fundet
fundidura
fundos
fundu
funduru
funerarios
funerariu
fungos
funi
funk
funt
funtana
funtanas
funtes
funti
funtis
funtzionaiat
funtzionale
funtzionales
funtzionalidade
funtzionalidades
funtzionamentu
funtzionant
funtzionare
funtzionarios
funtzionariu
funtzionat
funtzione
funtziones
funtzioni
funtzionis
funzione
fuoco
fuori
fur
fura
furada
furadu
furare
furas
furca
furesi
furint
furinti
furisteris
furlan
furono
furriada
furriadas
furriadu
furriadura
furriai
furriare
furriat
furriau
furriende
furriu
furros
furru
further
furto
fusiladu
fusile
fusione
fusioni
fut
futbol
futei
futuna
future
futurista
futuro
futuru
fv
fw
fx
fy
fz
føroyar
g
g0
g1
g2
g3
g4
g5
g6
g7
g8
g9
ga
gabbale
gaber
gabine
gabo
gabon
gabor
gaborone
gabriel
gabriele
gabriella
gaddura
gadduresa
gadduresos
gadduresu
gadoni
gaelic
gaelica
gaelicu
gaeta
gaetano
gai
gaia
gaine
gairu
gal
galassia
galeano
galeas
galegu
galera
galeras
galicia
galilea
galilei
galileo
galileu
galitzia
galitzianu
galleria
gallerias
gallery
galles
gallesa
gallesu
gallesus
galli
gallia
gallizzi
gallo
gallone
gallu
gallura
gallurese
galluresu
galo
galtelli
galu
gama
gambia
game
games
gamma
gana
gandalf
gandhi
gang
gara
garantida
garantire
garantit
garantzia
garantzias
garas
garau
garcia
garden
garibaldi
garipa
garland
garnier
garrone
garteddi
garth
gartner
gary
garzanti
gas
gases
gasi
gasos
gasperini
gasquet
gassosu
gassu
gastaldi
gasteiz
gaston
gastos
gastronomia
gastu
gastus
gasu
gate
gates
gateway
gatos
gatto
gatu
gaudi
gaulle
gavina
gavino
gavinu
gavoi
gay
gays
gaza
gazeta
gazetteer
gazzetta
gazzolo
gb
gc
gcc
gd
gdp
ge
geezer
gela
gelimeru
gelisio
gelli
gelocal
gemellaggio
gemellu
gemma
gencat
gender
gene
genealogia
generadu
general
generale
generales
generali
generalitat
generalizadu
generalmente
generare
generation
generatzione
generatziones
genere
generes
generi
generica
genericas
genericu
generis
genes
genesi
genetic
genetica
geneticas
geneticu
genia
genias
genica
genina
geniri
genitores
geniu
genius
genna
gennaio
gennargentu
gennargiu
gennaro
gennarxu
gennas
gennaxu
genoa
genocide
genocidiu
genoma
genoni
genotzidios
genotzidiu
genova
genovesa
genovesas
genovesi
genovesos
genovesu
gens
gente
gentes
genti
gentile
geo
geodesia
geoffrey
geografia
geografica
geograficamente
geograficas
geografico
geograficos
geograficu
geografos
geografu
geographic
geographical
geographie
geography
geologia
geologica
geologicamente
geometria
geometricas
geometricos
geominerariu
geophysical
geopolitica
georg
george
georges
georgetown
georgia
georgian
georgianos
georgianu
georgie
ger
gerais
gerald
gerarchia
gerarchias
gerarchica
gerard
gerhard
gerineldo
germain
german
germana
germania
germanica
germanicas
germanicos
germanicu
germaniu
germany
gerolamo
geroni
gerrei
gerundiu
gerusalemme
gervasi
geschichte
gestiat
gestidu
gestione
gestire
gestores
gestu
gesturi
gesu
gesuita
gesuitas
gesus
get
gets
getting
gewalt
gf
gfdl
gg
gh
ghana
gheddafi
ghedini
gheneros
ghenna
ghennargiu
ghennarzu
ghennas
gherardesca
gherardo
gherardu
gherra
gherrada
gherradores
gherradu
gherraiat
gherrare
gherras
gherrat
gherrau
gherrende
gherreris
gherrilla
ghetada
ghetadu
ghetant
ghetare
ghetat
ghetende
ghezzi
ghia
ghiaciu
ghiada
ghiadas
ghiadore
ghiados
ghiadu
ghiaiat
ghiani
ghiare
ghias
ghiat
ghibli
ghiende
ghil
ghilarza
ghiniperu
ghir
ghitarra
ghitarreri
ghitarrista
ghost
gi
gia
giacarta
giacche
giacobbe
giacomo
giae
giagu
giai
gialappa
giallo
giamada
giamadu
giamaica
giamaicanu
giamat
giampaolo
giampiero
gian
gianas
giancarlo
gianfranco
giangiacomo
giani
gianluca
gianluigi
gianna
gianni
giant
giapone
giaponesa
giaponesas
giaponesu
giaponi
giappone
giapponesa
giapponesas
giapponese
giapponesos
giapponesu
giapponi
giara
giardinagiu
giardino
giardinos
giardinu
giaru
giassos
giassu
giau
giava
giave
gibbs
gibilterra
gibraltar
gibuti
gif
gigante
gigantes
giganti
gigantis
gigi
gil
gilbert
gilberto
gilgamesh
gilla
gillan
gilles
gilt
ginesu
ginevra
gino
gio
giobia
giochi
gioco
giogada
giogadore
giogadores
giogadori
giogadoris
giogadu
giogai
giogant
giogare
giogat
giogau
gioghende
giogos
giogu
giogus
gioia
gioja
giommaria
giordania
giordano
giordanu
giorghi
giorgi
giorgia
giorgio
giornada
giornale
giornales
giornali
giornalismu
giornalista
giornalistas
giornalisticas
giornalisticu
giornata
giorni
giorno
giosso
giossu
giotto
giovana
giovanas
giovane
giovaneddu
giovani
giovanile
giovanili
giovanna
giovanni
giovanos
giovanu
giove
gioventu
gioventude
giovia
giovunu
giovunus
girada
giradu
girai
girant
girare
girasoli
girat
girau
girende
giri
girl
girls
giro
girolamo
giron
girona
girone
girones
giros
giru
girus
gisella
git
gita
github
giu
giuanna
giuanne
giuanni
giubileu
giuda
giudea
giudeos
giudeu
giudicadu
giudicale
giudicales
giudicali
giudicato
giudice
giudici
giuditta
giuditziaria
giuditziarias
giuditziariu
giuditziu
giudizio
giuffre
giughent
giughere
giughet
giugi
giugno
giuigados
giuigadu
giuigale
giuigales
giuighe
giuighes
giuighissa
giulia
giuliana
giuliano
giulianu
giulietta
giulio
giuliu
giunta
giuntu
giuoco
giuradu
giuramentu
giuria
giuridica
giuridicas
giuridico
giuridicu
giurisditzione
giurisditzioni
giurisprudentzia
giurista
giusepe
giusepi
giuseppa
giuseppe
giuseppina
giusta
giustificare
giustinianu
giustitzia
giustizia
giustos
giustu
giuta
giutos
giuttu
giutu
give
gj
gk
gl
gladio
glasgow
glenn
gli
global
globale
globalizatzione
globalizzazione
globe
globu
globulos
gloria
gloriosa
glory
glossariu
glover
gm
gn
gna
gnu
go
goal
gob
gobbo
goceano
god
goda
godit
goes
goethe
goffredo
gog
goi
going
gol
gold
golden
goldoni
goldstein
golfo
golfu
gollei
gologone
golos
golothene
golpe
golu
gomera
gomez
gomma
gommaflex
gonare
gonario
gonariu
gone
gonfalone
goni
gonnesa
gonnos
gonone
gonzalez
gonzalo
good
goodbye
goodman
google
gora
gorare
gorbacev
gordon
gorgobena
goritzia
gorizia
gosaiant
gosamu
gosant
gosat
gosi
gosos
gospel
got
goteborg
gotha
gotica
goticas
goticu
gotos
gottfried
gouv
gov
government
governo
governu
govoni
gp
gpl
gplv
gps
gpu
gq
gr
grace
gracia
gracian
grado
grados
gradu
graduale
grae
graemente
graes
graesa
grafema
grafia
grafias
grafica
graficas
grafiche
graficos
graficu
grafiga
grafigu
graham
grai
grais
gramatica
gramatiga
grammar
grammatica
grammaticale
grammaticales
grammos
grammu
grammy
gramsci
gran
granada
grand
grande
grandes
grandesa
grandesas
grandi
grandu
granducadu
grandus
granitica
granitu
grant
graphics
grappa
grassia
grassias
grasso
grassu
gratis
gratuita
gratuitu
gratzia
gratzianu
gratzias
grauso
grave
graves
gravidade
gravidadi
gravitatzionale
gray
graz
grazia
graziani
graziano
grazie
great
greater
greatest
greca
grecas
grecia
greco
grecos
grecu
greece
greek
green
greene
greenwich
greenwood
greg
grega
gregas
greghia
gregori
gregorianu
gregorio
gregoriu
gregory
gregos
gregu
gremios
gremiu
grenada
grenadinas
grenoble
gretchen
gretzia
greyhound
grido
grigiu
griko
grillo
grimaldi
grimm
grobale
grobarmente
grodde
groenlandia
groga
grogos
grogu
grohl
groove
gropius
gros
grosseto
grotta
ground
group
groups
groves
grozny
grunge
grupos
gruppo
gruppos
gruppu
gruppus
grupu
grupus
grussa
grussaria
grussera
grussos
grussu
grustios
grustiu
grustu
gruta
grutas
grutta
gruttas
gruyter
gs
gsfc
gt
gu
guadalupa
guadalupe
guam
guanda
guantanamo
guarani
guard
guardia
guardian
guardias
guasi
guasila
guatemala
guayaquil
gubernadore
gubernare
gubernos
gubernu
guelfo
guernica
guerra
guerre
guerrieri
guest
guevara
gufi
guglielmo
guglielmu
guia
guida
guide
guides
guido
guilcer
guinea
guinness
guiso
guitar
gujana
gula
gulag
gulfnews
gulfu
gullielmu
gulliermu
gunale
gunnare
gurfu
gurissa
gurrei
gurteddu
gus
guspini
gustav
gustave
gustavo
gusto
gustu
gutenberg
guturos
guturu
guvernada
guvernadore
guvernadores
guvernadori
guvernados
guvernadu
guvernaiat
guvernare
guvernativa
guvernativas
guvernativos
guvernativu
guvernos
guvernu
guy
guyana
gv
gw
gx
gy
gz
h
h0
h1
h2
h3
h4
h5
h6
h7
h8
h9
ha
habeo
habitat
hack
hacker
had
hadot
hagen
hague
hai
haiat
haiti
haitianu
haley
half
hall
halle
halley
ham
hamburg
hamid
hamilton
hammond
hampshire
han
hanau
hand
handbook
hanno
hannover
hanoi
hans
hansen
hansestadt
hant
happened
happy
hara
harbor
harcourt
hard
hardly
hardware
hardy
harlem
harmon
harold
harpercollins
harris
harrison
harry
hartford
harvard
harvesting
harvey
has
hashtag
hassan
hasta
hastings
hat
haus
havana
have
haven
hawaii
hayao
hayes
hb
hc
hd
he
head
health
hearst
heart
hearts
heat
heather
heaven
heavy
hebe
hebrew
heck
hector
hedera
heeringa
hegazi
hegel
heidegger
heidelberg
heinrich
heinz
helix
hell
hellersdorf
hello
helmar
help
helsinki
hemingway
henderson
hendrix
henri
henry
her
herbert
here
herero
hereros
heridos
heritage
herman
hermann
hernandez
hero
herzegovina
hewitt
hey
hf
hg
hh
hi
hic
hieronimu
high
higher
highlands
hikikomori
hill
hills
him
himalaya
hindi
hip
hiroshima
his
hispania
hispaniola
histoire
historia
historiae
historic
historica
historical
historico
historics
history
hit
hitler
hits
hiv
hj
hk
hl
hm
hn
ho
hobart
hobbit
hoc
hockey
hoffmann
hofmann
hogwarts
hohenstaufen
hoi
hojarasca
hokkaido
hold
holderlin
hole
holiday
holland
hollywood
holmes
holocaust
holstein
home
homines
homme
homo
honduras
honey
hong
honolulu
honorary
honore
honoris
hop
hopkins
hora
horizon
horizonte
horn
horror
horse
horta
hospital
host
hot
hotan
hotel
houghton
house
housing
houston
how
howard
howe
howland
hoy
hp
hq
hr
hrw
hs
ht
htcpcp
htm
html
http
https
hu
huang
hub
hudson
huelva
huesca
hughes
hugo
hui
hukapan
human
humanity
humphrey
hundred
hungary
hunt
hunter
hurd
hurin
hussein
hutu
hutus
hv
hw
hx
hy
hz
i
i0
i1
i2
i3
i4
i5
i6
i7
i8
i9
ia
iaa
iada
ian
iant
ianta
iast
iat
iau
ib
ibanez
ibarbo
ibe
iberica
ibericas
iberico
ibericos
ibericu
iberru
ibiza
ibm
ibn
ibrahim
ibridos
ic
icarus
iccu
ice
iceage
ichi
ichnusa
ichnussa
icon
icona
iconas
ictv
id
idaho
idas
idda
iddanoa
iddhi
iddhu
ide
idea
ideale
ideales
ideas
idee
identica
identicas
identidade
identidades
identificada
identificados
identificadu
identificai
identificant
identificare
identificat
identificativu
identificatzione
identita
identitade
identitariu
identity
ideologia
ideologias
ideologica
ideologicas
ideologicos
ideologicu
idioma
idiomas
idir
ido
idrisi
idrogenu
idru
idu
ie
iec
ieee
ieri
ierriles
ierros
ierru
ietf
if
ifferru
ig
igbos
ighinu
igia
igiene
iglesias
iglesiente
ignatziu
ignazio
ignoradu
ignorantzia
igor
igresias
igresiente
igresienti
iguaran
ih
ii
iii
ij
ijerru
ijime
ik
ikastolas
il
ilaria
ilartzi
ile
iles
ilia
iliade
ilienses
ilisso
ill
illa
illargu
ille
illegale
illegales
illeggibile
illinois
illitzitos
illitzitu
illorai
illuminismu
illusione
illustradore
illustrated
illustratzione
illustratziones
illustre
illustres
illustri
ilpost
ilsole
im
image
images
imagine
imagines
imam
imap
imbarcadu
imbarcu
imbasciada
imbatent
imbatere
imbatet
imbatida
imbatidos
imbatidu
imbeniente
imbenientes
imbentada
imbentadas
imbentadu
imbentare
imbentau
imbentore
imbentu
imbesse
imbestidu
imbestigadura
imbestigaduras
imbestimentos
imbetze
imbetzes
imbetzis
imbiada
imbiadas
imbiadore
imbiados
imbiadu
imbiai
imbiant
imbiare
imbiat
imbiau
imbiaus
imbiende
imbios
imbiu
imboligadu
imbressi
imbuccai
imbuccat
imdb
imf
imitare
immacolata
immaginare
immaginaria
immaginariu
immagine
immagines
immagini
immanuel
immateriale
immediatamente
immediatu
immigrados
immigratzione
imminente
immoa
immoe
immoi
immune
imoe
imoi
impact
imparada
imparadu
imparai
imparamentus
imparant
imparare
imparat
imparau
impare
impari
imparis
imparonzu
imparu
impatu
impedidu
impedire
impedradu
impegno
impellida
imperada
imperadas
imperadore
imperadores
imperadori
imperai
imperant
imperat
imperativu
imperatore
imperau
imperaus
imperfetu
imperia
imperial
imperiale
imperiales
imperiali
imperios
imperiu
imperju
impero
impertantu
imperu
impiantos
impiantu
impiccati
impignadu
impignu
impinnadu
impinnu
impitada
impitadore
impitadores
impitadori
impitadoris
impitadu
impitant
impitat
impitu
implementation
implicat
imponende
imponente
imponentes
imponet
imponimentu
imponnere
importadu
important
importante
importantes
importanti
importantis
importantzia
importanza
importat
importatzione
importu
impositu
impossibile
impossibilidade
imposta
impostas
impostatzione
impostu
imprantu
impreabat
impreada
impreadas
impreados
impreadu
impreai
impreaiant
impreaiat
imprean
impreant
impreare
impreat
impreau
impreaus
impreende
impreendi
impreent
impreet
imprenda
imprendidore
imprendidores
imprenta
imprentada
imprentadora
imprentadore
imprentadu
imprentare
imprentas
impreos
impresa
impresariu
impresas
impresonados
impresonadu
impresonau
impressione
imprestidos
imprestidu
impreu
impropiamente
improvisatzione
impulsu
imputados
imputadu
imputu
in
ina
inantis
inaugura
inaugurada
inauguradu
inaugurazione
inc
inca
incaminadori
incaminadoris
incaminamentu
incantada
incapatzidade
incarat
incarchende
incarrigada
incarrigados
incarrigadu
incarrigat
incarrigos
incarrigu
incendio
inche
incherta
inchiesta
inchiestas
inchisitzione
incident
incidente
incidenti
incipit
incisa
incisu
inclinatzione
inclinu
includende
includent
includere
includet
includiat
includida
includidas
includidos
includidu
including
incluende
incluent
incluere
incluet
incluiat
incluida
incluidas
incluidos
incluidu
incluint
incluire
incluit
inclusione
incolliosa
incomentzu
incomintzada
incomintzadu
incomintzat
incomintzu
incontra
incontrada
incontradu
incontri
incontro
incontros
incontru
incorporada
incorporadu
incras
incrudidu
incruet
incue
incuida
incuinamentu
incuisitzione
incumenciau
incumentzada
incumentzados
incumentzadu
incumentzai
incumentzant
incumentzare
incumentzat
incumentzau
incumentzende
incumentzu
incumintzada
incumintzadu
incumintzare
incumintzat
incumintzu
incunza
incurare
incurat
incurtzadu
incurtzadura
incurtziada
incuru
ind
indagine
indec
indedda
independencia
independent
independente
independentzia
index
india
indian
indiana
indianapolis
indianas
indianos
indianu
indianus
indias
indicada
indicadu
indicant
indicare
indicat
indicativo
indicativu
indie
indiferente
indiferentzia
indigena
indigenas
indigenos
indigenous
indigenu
indios
indipendente
indipendentemente
indipendentes
indipendenti
indipendentis
indipendentismo
indipendentismu
indipendentista
indipendentistas
indipendentzia
indiretos
indiritzada
indiritzadu
indiritzos
indiritzu
indiritzus
indispensabile
inditada
inditadas
inditadori
inditados
inditadu
inditai
inditaiat
inditant
inditare
inditat
inditos
indittare
inditu
inditze
individuale
individuales
individuali
individuare
individuat
individuos
individuu
indo
indoeuropea
indoeuropeas
indoeuropeos
indoeuropeu
indonesia
indonesianu
indoor
indotzina
indu
induidu
induire
induismu
induista
indus
industria
industrial
industriale
industriales
industriali
industrializatzione
industrias
ine
ineditas
inedite
inediti
inedito
ineditos
ineditu
inegi
inertzia
ines
inevitabile
infadu
infante
infantile
infantzia
infanzia
infartu
infatis
infatti
infattis
inferiora
inferiore
inferiores
inferiori
inferioridade
inferno
inferru
infetadu
infetiva
infetivas
infetzione
infetziones
infeudada
infeudadas
infeudadu
infines
infinitu
influente
influentes
influentzada
influentzados
influentzadu
influentzia
influentzias
influenzadu
influidu
influssos
influssu
info
informadu
informaduras
informale
informare
informatica
informaticas
informaticos
informaticu
informaticus
information
informativa
informativu
informatzione
informatziones
informatzioni
informatzionis
informazione
informazioni
infraistruturas
infraruja
infrastruturas
infty
infusta
inganno
ingegneri
ingegneria
ingenieria
ingenneros
ingenneru
ingham
inghilterra
inghiriada
inghiriadu
inghiriadura
inghiriant
inghiriat
inghiriu
inghirterra
inghitzadu
inghitzat
inghitzu
ingiriu
ingiustitzia
inglesa
inglesas
inglese
inglesos
inglesu
inglesus
ingollet
ingortas
ingraidentzia
ingrassia
ingrediente
ingredientes
ingresa
ingresu
ingresus
inguni
ingurtosu
inie
inimicos
inimicu
inimigas
inimigos
inimigu
initiative
initziale
initziales
initziativa
initziativas
iniziativa
iniziative
inizio
inklings
inn
innanti
innantis
innassiu
inner
innetafumajolos
inno
innoi
innotzentziu
innovation
innovatzione
innovatziones
innovazione
innsbruck
innu
innui
inoche
inoghe
inouva
inquisicion
ins
insajadura
insalada
insandus
insaras
insediamentos
insediamentu
insediamentus
insee
insegna
insegnadu
insegnamento
insegnamentu
insegnante
insegnantes
insegnanti
insegnare
insegnat
inserradu
inserrat
insertada
insertadas
insertados
insertadu
insertare
insertende
insettos
insettu
inside
insider
insieme
insignante
insinzadu
insoro
insoru
instabile
instabiles
instabilidade
instagram
installada
installadu
installadura
installaduras
installare
installatzione
installatziones
instant
instauradu
instaurare
instauratzione
institut
institute
instituto
insubordinatzione
insula
insulare
insulares
insularidade
insurretzione
insurrezione
int
intagios
intamas
intames
intamis
intantu
inte
integrada
integradas
integrados
integradu
integrale
integrare
integrat
integratzione
integrende
integridade
integru
intel
inteligente
intellettuale
intellettuales
intelletuale
intelletuales
intelligence
intelligente
intelligentzia
intellighentzia
intendende
intendent
intender
intendere
intendet
intendi
intendida
intendimentu
intendit
intendiu
intensa
intensidade
intensiva
intensivu
intensu
intentadu
intentare
intentat
intentende
intentos
intentu
intentzione
intentziones
inter
interactive
interamente
interassione
interatzione
interatziones
intercontinentale
interessada
interessadas
interessados
interessadu
interessamentu
interessant
interessante
interessantes
interessare
interessat
interesse
interessi
interessios
interessiu
interessos
interessu
interfaccia
interface
interfatzia
interfatzias
interi
interim
interiore
interiores
interis
interlinea
interlingua
intermedia
intermedios
intermediu
interna
internacional
internamentu
internas
internassionale
internassionales
international
internationale
internatzionale
internatzionales
internatzionali
internatzionalis
internatzionalmente
internazionale
internazionali
internet
interno
internos
internu
interplanetariu
interpol
interpretada
interpretados
interpretadu
interpretare
interpretat
interpretatzione
interpretatziones
interpretau
interpretazione
interprete
interpretende
interpretes
interrada
interrados
interradu
interrare
interrau
interros
interru
interrumpidu
interrutzione
interrutziones
intersessuales
intersessualidade
intertantu
intervennere
intervennida
intervennidos
intervennidu
interventi
interventos
interventu
interview
intervista
intervistas
interviste
intervocalica
intesa
intestatziones
intesu
intima
intitoladu
intitulada
intituladu
intitulau
into
intonatzione
intorinos
intorno
intorrios
intr
intra
intrada
intradas
intrados
intradu
intrae
intragnas
intrai
intraiat
intrant
intrare
intrat
intrau
intre
intrea
intreamente
intreas
intrega
intregada
intregadu
intregare
intregat
intregu
intreit
intrena
intrende
intrenu
intreos
intreu
intro
introduction
introduende
introduida
introduidas
introduidu
introduire
introduit
introdutzione
introduzione
intru
intrus
intrusida
intzertesa
intzidentale
intzidente
intzidentes
intzidentzia
intzisione
intzisiones
inu
inube
inue
inui
inuit
inutile
inutiles
invadendi
invadere
invadida
invadidu
invalid
invasione
invasiones
invasores
invece
invecias
invecis
inventada
inventadu
inventore
invenzione
inverno
investigation
investimentos
investimentu
invisibile
invisibiles
invisibili
invitadu
involuntaria
inzenieri
io
iommi
ion
ione
iones
ionicu
iorcu
ios
iowa
ip
ipa
ipagnolu
ipb
ipermercadu
ipertestu
ipertestuale
iphone
ipogeicas
ipogeu
ipotesi
ipotesis
ipotizadu
ipotizat
ippona
ipse
ipsu
iq
iqbal
ir
ira
irachena
irachenas
irachenos
irachenu
iran
iranian
iraniana
iranianu
iraq
irbonu
irde
ireland
irene
irgas
irgoli
iridiu
iris
irish
irlanda
irlandesa
irlandesas
irlandesos
irlandesu
irochesus
ironia
ironica
ironicu
iroxi
irradighinadu
irraighinadu
irrajamentu
irregulare
irregulares
irst
irving
is
isa
isaac
isabel
isabella
isalle
isballiada
isbarcados
isbarcadu
isbarcare
isbarcu
isbn
iscacos
iscadenadu
iscadenare
iscagiada
iscagiadura
iscagiamentu
iscagiare
iscala
iscalare
iscalas
iscalu
iscambios
iscambiu
iscampiat
iscandalu
iscandinava
iscandinavas
iscandinavia
iscandinavos
iscansione
iscantzellare
iscanu
iscapamentu
iscarrafachelos
iscarricare
iscarrigare
iscarrigu
iscaru
iscassa
iscassadorgiu
iscassia
iscassos
iscassu
iscata
iscavos
iscavu
iscavus
iscena
iscenariu
iscenas
isceneggiadore
iscentzia
iscentziadu
iscera
iscerant
iscerare
iscerat
isceti
iscetis
ischeda
ischedas
ischema
ischemas
ischende
ischermada
ischermos
ischermu
ischiat
ischiavos
ischida
ischidu
ischiglia
ischimus
ischina
ischint
ischire
ischirriada
ischirriadas
ischirriados
ischirriadu
ischirriadura
ischirriare
ischirriat
ischit
iscia
iscientifica
iscientificos
iscientificu
iscientzia
iscientziados
iscientziadu
iscientzias
iscioperu
iscipione
isciri
isco
iscoberit
iscoberrere
iscoberta
iscobertas
iscobertos
iscobertu
iscola
iscolas
iscolasticu
iscollas
iscolliu
iscomintzu
iscontrorios
iscontroriu
iscontru
iscontzada
iscontzadu
iscontzare
iscontzu
iscoperta
iscopertu
iscopiada
iscopiu
iscopos
iscopu
iscorias
iscorta
iscostiada
iscostiadu
iscostiare
iscostiat
iscotzesa
iscotzesos
iscotzesu
iscotzia
iscra
iscraos
iscratza
iscravamentu
iscravidade
iscravos
iscravu
iscresias
iscriede
iscriende
iscrient
iscrier
iscriere
iscriet
iscriiant
iscriiat
iscriidura
iscrita
iscritas
iscritora
iscritore
iscritores
iscritos
iscritta
iscrittas
iscrittora
iscrittore
iscrittores
iscrittos
iscrittu
iscritu
iscritura
iscrituras
iscritzione
iscritziones
iscriver
iscrivere
iscrusivamente
iscuadra
iscuadras
iscucuradore
iscudetu
iscudu
iscultore
iscultores
iscultura
isculturas
iscumbata
iscumbatare
iscumparta
iscumpartos
iscumpartu
iscura
iscuras
iscuredda
iscurigada
iscurta
iscurtadu
iscurtare
iscurtone
iscuru
iscussertos
iscuta
isemprales
isempru
isetare
isetende
isetu
isfaghimentu
isfera
isferas
isfilada
isfortzos
isfortzu
isfritamentu
isfrutada
isfrutadas
isfrutados
isfrutadu
isfrutamentu
isfrutant
isfrutare
isfrutende
isfrutu
isfundu
isgavos
ishtar
isia
isili
isis
iskida
iskra
isla
islam
islamabad
islamic
islamica
islamicos
islamicu
island
islanda
islandesa
islandesu
islands
islas
islava
islavas
islavos
islavu
isle
islesia
islovachia
islovacos
islovacu
islovena
islovenia
islovenos
islovenu
ismanniadu
ismanniare
ismanniat
ismentigare
iso
isola
isolamentu
isolana
isolanas
isolanos
isolanu
isolas
isole
isorvere
isorvimentu
isotopos
isotopu
ispada
ispadas
ispagna
ispagnola
ispagnolas
ispagnolos
ispagnolu
ispainada
ispainadas
ispainados
ispainadu
ispainadura
ispainare
ispaniada
ispaniadas
ispaniadu
ispaniadura
ispaniare
ispanica
ispanna
ispannia
ispannola
ispannolos
ispannolu
ispano
ispantadu
ispantare
ispantosa
ispantosas
ispantosos
ispantosu
ispantu
ispanu
isparadorzu
isparadu
isparatottu
isparegiu
isparessidos
isparghere
isparghidura
isparghinada
isparghinadas
isparghinados
isparghinadu
isparta
ispartas
ispartos
ispartu
ispartzida
ispartzidu
ispartzidura
ispartzit
ispassiare
ispassiu
ispatziale
ispatziales
ispatzios
ispatziu
ispecie
ispeditzione
ispeditziones
ispendulas
ispentumes
ispera
isperdende
isperdere
isperdia
isperdida
isperdidos
isperdidu
isperdimentu
isperdios
isperientzia
isperimentadu
isperimentale
isperimentales
isperimentare
isperimentatzione
ispertos
ispertu
isperu
ispesas
ispetaculos
ispetaculu
ispetadores
ispetru
ispettore
ispetzia
ispetziale
ispetziales
ispetzialidade
ispetzialista
ispetzialistas
ispetzializada
ispetzializadas
ispetzializados
ispetzializadu
ispetzializatzione
ispetzialmente
ispetzias
ispetzie
ispetzies
ispetzifica
ispetzificada
ispetzificadu
ispetzificas
ispetzificos
ispetzificu
ispiaggias
ispidale
ispidales
ispiegare
ispiegat
ispiegatzione
ispiga
ispina
ispinas
ispinghende
ispingher
ispinta
ispintos
ispintu
ispionagiu
ispirada
ispirados
ispiradu
ispirale
ispirat
ispiratzione
ispirau
ispirende
ispiridu
ispiritos
ispiritu
ispirituale
ispirituales
ispissu
isponda
ispontanea
ispontaneu
ispopulada
ispopuladas
isporlatu
isport
isportellu
isportiva
isportivas
isportivos
isportivu
isposa
isposos
isprene
ispressione
ispressura
ispricare
ispricat
isproradore
isproradores
isprosura
ispuntone
isquadra
isquadras
israel
israele
israeli
israeliana
israelianas
israelianos
israelianu
isre
isresardegna
isrobatoriu
issa
issas
isse
isseberada
isseberadu
isseberare
isseberat
isseberende
isseberos
isseberu
issena
isseperadu
isseperare
isseperau
isseperu
issientifica
issientificu
issn
issohadores
issoro
issoru
issos
issu
issue
issues
issupra
issus
issuu
ist
ista
istabat
istabile
istabilende
istabiles
istabiliat
istabilida
istabilidade
istabilidas
istabilidos
istabilidu
istabilimentos
istabilimentu
istabilire
istabilit
istada
istadas
istade
istades
istadi
istadiale
istadios
istadiu
istado
istados
istadu
istadunidensa
istadunidensas
istadunidense
istadunidensos
istadunidensu
istadunidesa
istadunidesu
istadus
istafeta
istagione
istagnu
istai
istaiant
istaiat
istajone
istajones
istamentos
istamentu
istampa
istampada
istampadu
istampare
istampu
istan
istanbul
istandard
istandardizatzione
istandards
istangiu
istaniu
istant
istantanea
istante
istantzia
istanzu
istaos
istare
istasone
istasones
istassionamentu
istassione
istassiones
istat
istatale
istatales
istatistica
istatisticas
istatisticos
istatisticu
istatos
istatu
istatua
istatuas
istatudos
istatueddas
istatus
istatutos
istatutu
istatzione
istatziones
istatzu
istau
istedda
isteddas
isteddos
isteddu
istele
istemma
istemmas
istentales
istereotipos
istereotipu
isterminiu
isterrende
isterrere
isterret
isterriat
isterrida
isterridas
isterridos
isterridu
isterridura
isterrit
istesiada
istesiadas
istesiados
istesiadu
istesiadura
istesiamentu
istesiant
istesiare
istesiat
istetia
istetias
istetiu
istetius
istevene
istiale
istiales
istigas
istile
istiles
istiliu
istilu
istima
istimada
istimadas
istimados
istimadu
istimare
istimas
istimat
istimuladu
istimulos
istintinu
istios
istipuladu
istiria
istituida
istituidas
istituidu
istituire
istituto
istitutos
istitutu
istitutzionale
istitutzionales
istitutzione
istitutziones
istitutzioni
istitutzionis
istituzioni
istiu
istmu
istocolma
istorbu
istoria
istorias
istorica
istoricamente
istoricas
istoricos
istoricu
istoriga
istorigamente
istorigas
istorigu
istoriografia
istrabone
istrada
istradale
istradales
istradas
istraditamentu
istragu
istrana
istrangia
istrangias
istrangiat
istrangios
istrangiu
istranieros
istranza
istranzas
istranzat
istranzos
istranzu
istraordinaria
istraordinarios
istraordinariu
istrategia
istrategias
istrategica
istrategicos
istrategicu
istrema
istremadura
istremidade
istremidades
istremu
istrenadu
istrepitu
istria
istringhet
istrinta
istrintamente
istrintas
istrintos
istrintu
istrobos
istrobu
istrumadura
istrumentale
istrumentos
istrumentu
istruttura
istrutturas
istrutura
istruturada
istruturales
istruturas
istruturatzione
istrutzione
istrutziones
istruzione
istudadu
istudare
istudat
istudentes
istudiada
istudiados
istudiadu
istudiante
istudiantes
istudiare
istudiat
istudiau
istudiende
istudios
istudiosa
istudiosos
istudiosu
istudiu
istudius
isua
isula
isulada
isuladas
isulados
isuladu
isulamentu
isulana
isulanas
isulanos
isulanu
isulas
isuledda
isuleddas
isus
isvariadas
isvariados
isvedesa
isvedesos
isvedesu
isvetzia
isvevia
isvilupada
isvilupadas
isvilupadores
isvilupados
isvilupadu
isvilupant
isvilupare
isvilupat
isvilupau
isvilupende
isvilupos
isviluppada
isviluppadu
isviluppau
isviluppu
isvilupu
isvitzera
isvitzeros
isvitzeru
it
ita
italia
italiae
italian
italiana
italianas
italiane
italiani
italianismu
italianizatzione
italiano
italianos
italianu
italianus
italica
italicu
italie
italien
italo
italu
italy
italyan
ite
itinerante
itinerari
itinerario
itinerarios
itinerariu
itiri
itoria
itria
its
itte
iu
iua
iudex
iugoslavia
iulia
iupac
iv
ivan
ivi
iviluppu
ivo
ivrea
iw
ix
iy
iz
j
j0
j1
j2
j3
j4
j5
j6
j7
j8
j9
ja
jaca
jack
jackie
jackson
jacksonville
jacob
jacopo
jacques
jacu
jae
jai
jaime
jake
jakob
jam
jamada
jamadu
jamaica
james
jamon
jan
jana
janas
jane
janeiro
janna
jannacci
jannarju
jannas
jantoman
january
janukovyc
japan
japanese
jara
jared
jason
jassu
jaume
java
javascript
javier
jay
jazz
jb
jc
jd
je
jean
jeff
jefferson
jeffrey
jelly
jemen
jenkins
jenner
jennifer
jeremy
jerez
jerome
jerry
jersey
jerusalem
jesse
jesus
jet
jethro
jeune
jf
jg
jh
ji
jim
jimmy
jj
jk
jl
jm
jmap
jn
jo
joachim
joan
joao
joaquin
jobim
jobs
jocadore
jocadores
jocare
jocat
jocos
jocu
jodiu
joe
joey
jogu
johan
johann
johannes
johannesburg
john
johnny
johnson
johnston
joint
jolly
jon
jonathan
jones
joniu
joplin
jordan
jordi
jorge
jorgi
jose
josef
josep
joseph
josephine
josh
joshua
josif
josso
jossu
josto
joule
joules
jour
journal
journalist
journey
jours
jove
joy
joyce
jp
jpg
jpl
jq
jr
jrr
js
jstor
jt
ju
juan
juana
juanne
juanni
juarez
juba
jubanne
judicados
judicadu
judiche
judigados
judigadu
judighe
judike
judy
jughet
jugoslavia
jugoslavija
jugoslavos
jugoslavu
juke
jules
julia
julian
julie
julien
julio
julius
july
jump
june
junior
juniores
juny
jure
jurgen
just
justa
justice
justin
justinianu
justitzia
justu
juttu
juve
juventus
jv
jw
jx
jy
jz
k
k0
k1
k2
k3
k4
k5
k6
k7
k8
k9
ka
kabul
kafka
kaiser
kaliningrad
kamandi
kamel
kami
kampala
kansas
kant
karabakh
karales
karalis
karen
karim
kariyana
karl
karma
karsten
kashmir
katakana
kate
kathleen
katmandu
kaulsdorf
kay
kazachistan
kazacu
kazakistan
kazan
kaze
kb
kc
kd
ke
keanu
keep
keith
keller
kelly
kelvin
ken
kendall
kennedy
kenneth
kenny
kent
kentannos
kentucky
kentzeboghes
kenya
kenze
kepler
kernel
kerouac
kevin
key
kf
kg
kgb
kh
khan
kharkiv
khmer
khz
ki
kid
kids
kiel
kiev
killed
killer
killing
kilogram
kilogrammu
kilometros
kilt
kim
kind
king
kingdom
kings
kingston
kinshasa
kirchhoff
kirgizistan
kiribati
kirk
kirsten
kiss
kissinger
kit
kitts
kj
kk
kl
klan
klaus
klee
klein
klimt
klux
km
kmq
kn
kna
know
knowledge
knows
ko
koch
koine
kola
kong
konigsberg
koolhaas
kosovo
kp
kq
kr
kreuzberg
ks
kt
ku
kuban
kubrick
kumar
kunst
kuntz
kurdistan
kurt
kuwait
kv
kw
kx
ky
kyi
kyiv
kylie
kyoto
kypchak
kyuss
kz
l
l0
l1
l2
l3
l4
l5
l6
l7
l8
l9
la
label
labor
laboratorio
laboratorios
laboratoriu
laboratory
labrador
lacana
lacanantes
lacanas
lacanat
lacon
laconi
ladamine
ladamini
ladaria
laden
ladina
ladinas
ladino
ladinos
ladinu
ladiore
ladiri
lados
ladri
ladu
lady
laerru
laforgue
lager
lagos
lagu
laguna
lagunas
lai
laicos
lake
lama
lamas
lambda
lamberto
lambicadura
lambro
lammermoor
lampada
lampadas
lampedusa
lan
lana
lanaitu
lancashire
lancaster
land
lande
lander
landes
landi
landscape
lane
laneri
lang
langiu
langlade
language
languages
langue
languedoc
lanka
lannou
lantaniu
lantanoides
lantza
lantzadu
lantzitadas
lantziu
lanuovasardegna
lanuse
lanusei
lanza
lanzarote
lao
laogai
laore
laores
laos
lapis
lapola
laponia
lara
lardu
larentu
larentzu
larga
largaria
largas
large
larghesa
largo
largu
larry
lars
laru
las
laser
lassa
lassada
lassadas
lassados
lassadu
lassai
lassaiat
lassande
lassant
lassare
lassat
lassau
lassende
lassendi
lasso
last
lastampa
lastima
lastras
laszlo
lat
late
latente
later
laterales
laterza
latest
latimes
latin
latina
latinas
latine
latinidade
latino
latinoamericanu
latinos
latinu
latitudine
lato
latte
latvia
latziu
lau
laude
launeddas
laura
laurea
laureada
laureadu
laureat
laureau
lauren
laurera
lauro
lava
lavagna
lavinio
lavoro
law
lawrence
lawson
lay
layer
lazio
lb
lc
ld
ldm
le
lead
leada
leadas
leader
leaders
leadership
leados
leadu
league
leal
lealidade
lealistas
leant
leap
leare
learn
learning
leas
leat
leave
lebbrosos
lebia
lebiamente
lebias
lebiu
lecce
lectures
led
ledamene
ledamini
ledda
lee
leeds
leende
left
lega
legal
legale
legales
legali
legalidade
legarsi
lege
legenda
legendariu
legendarium
legendas
legere
leges
legge
leggenda
leggende
legges
leggi
leghe
legher
leghere
leghet
leghidu
leghidura
legifrance
legionarios
legiones
legisladura
legislativa
legislativas
legislativu
legislatzione
legitima
legitimidade
legitimu
lei
leibniz
leipzig
leis
leland
lena
lenardu
lengua
lenin
leninista
lenitzione
lennon
lenta
lenti
lentore
lentu
leo
leon
leonard
leonarda
leonardo
leone
leones
leonesu
leoni
leonora
leopardi
leopold
lepa
lepanto
lepere
lepori
leppa
lepra
lepus
lerici
lerner
lerron
les
lesbica
lesbicas
lesiadas
lesione
leslie
lesotho
lessicale
lessicales
lessicografia
lessicu
lessons
lester
lestra
lestras
lestresa
lestresas
lestros
lestru
let
letera
letone
letonia
letore
letores
letos
letter
lettera
letterari
letteraria
letterario
letteratura
letterature
lettere
letters
lettonia
lettres
lettu
lettura
letu
letura
letze
letziones
lev
leva
levante
level
levenstein
levi
lewis
lex
lexington
leze
lezes
lezione
lezioni
lezze
lf
lg
lgbt
lh
li
lia
libanesa
libano
libanu
libbertadi
libellu
liber
libera
liberada
liberados
liberadu
liberadura
liberale
liberales
liberalismu
liberamente
liberare
liberas
liberation
liberatzione
liberatzioni
liberazione
liberdade
libereddos
liberende
liberia
libero
liberos
liberta
libertade
libertades
libertadi
liberty
liberu
liberus
libia
libicu
libido
libisonis
librando
libraria
library
libre
libreddu
libreria
librerias
libri
libro
libros
libru
librus
liburu
licantropu
license
licentia
licentzia
liceo
liceu
lichidu
lichtenberg
licore
licuida
licuidos
licuidu
lideru
lidone
liebe
liechtenstein
liet
life
liga
ligada
ligadas
ligados
ligadu
ligamene
ligamenes
ligamine
ligamines
ligant
ligare
ligas
ligat
liggiu
light
lights
ligi
ligios
ligit
ligongios
ligongiu
liguori
ligure
ligures
liguria
ligurinu
like
likely
lila
lilla
lilliu
lillu
lily
lim
lima
limba
limbagios
limbagiu
limbara
limbas
limbazos
limbazu
limbista
limbistas
limbistica
limbisticas
limbisticos
limbisticu
limerick
limes
limitada
limitadas
limitados
limitadu
limitare
limitat
limitatziones
limite
limited
limitende
limites
limiti
limone
limpiadura
lin
lina
linas
linate
lincoln
linda
line
linea
lineare
lineares
lineas
linga
lingua
linguaggio
linguagiu
linguas
lingue
linguista
linguistas
linguistic
linguistica
linguisticamente
linguisticas
linguistiche
linguistici
linguistico
linguisticos
linguistics
linguisticu
linguistiga
linguistiques
linia
liniare
linias
link
linkoristano
linna
linnaeus
linnamene
lino
linu
linus
linux
linz
lion
lione
lionel
lionello
liongiu
lioni
lionora
lipsia
liras
lirica
liricas
lis
lisa
lisandria
lisandru
lisboa
lisbona
lisp
lissentzia
lissentzias
lissia
lissos
list
lista
listas
listen
litanias
litera
literados
literadura
literale
literalmente
literaria
literarias
literarios
literariu
literary
literas
literatura
literature
litica
liticos
litorale
litros
litru
littera
litteradura
litteras
littin
little
littu
litu
lituana
lituania
lituanu
liturgia
liturgica
litzeu
liu
liv
live
livello
livellos
livellu
livellus
livermore
liverpool
lives
living
livio
liviu
livorno
lizu
lizzani
lj
lk
ll
lla
llach
llanos
lleida
llengua
llibre
llingua
llobregat
llosa
lluis
lm
ln
lo
lobina
local
locale
locales
locali
localidade
localidades
localidadi
localis
localizada
localizadu
localizatzione
locarnu
loceri
loco
locoe
locos
locu
locula
locumotivas
locus
locutores
locutzione
loddo
lode
lodi
lodine
log
logale
logales
logalidade
logalidades
loggia
logica
logicu
logo
logos
logradu
lograre
lograt
logrende
logu
logudoresa
logudoresas
logudorese
logudoresos
logudoresu
logudoro
logus
logusantu
logutenente
loi
loira
loire
lola
lomax
lombarda
lombardi
lombardia
lombardo
lombardu
lompende
lompent
lomper
lompere
lompet
lompi
lompiat
lompida
lompidas
lompidos
lompidu
lompiri
lompit
lompiu
london
londra
londres
lonely
long
longa
longamente
longanesi
longaria
longarias
longas
longhesa
longitudine
longo
longobarda
longobardos
longobardu
longos
longu
longumetragios
lontano
lontanu
look
looking
lopez
lorca
lord
lordi
lorena
lorenzo
loreto
lori
loro
lortat
los
losa
losas
lost
lostia
lotta
lotzorai
lou
louis
louise
louisiana
louisville
louvre
love
lover
loves
low
loy
loyola
lp
lq
lr
ls
lsc
lsp
lsu
lt
ltd
lu
lubu
luc
luca
lucas
lucca
luce
luche
luchia
luchino
lucia
luciana
luciano
luciferu
lucio
lucky
lucrezia
lucrezio
lucuru
lucy
ludovico
ludu
ludwig
luego
luegus
lugano
luganu
lughe
lughente
lughes
lughia
lughidore
lughidu
luglio
lugore
lui
luigi
luigiladu
luis
luisa
luisi
luissione
luisu
lukashenko
lula
lumen
lumenada
lumene
lumenes
luminosa
luminosu
luna
lunada
lunare
lunari
lunas
lunga
lungo
lungometraggio
lungoni
luni
lunis
luoghi
luogo
lupinu
lupo
luporini
lupu
luras
lusaka
lusatzia
lussemburgu
lussu
lussurgiu
lussurzu
luta
luterana
luther
luthien
lutocisterna
lutone
lutu
lutziu
luvula
luxenti
luxi
luxia
lv
lviv
lw
lwn
lx
ly
lycoperdon
lydia
lyngstad
lynn
lyon
lyra
lz
m
m0
m1
m2
m3
m4
m5
m6
m7
m8
m9
ma
maarten
maastricht
mac
macarrones
macau
macchina
macchinas
maccioni
macdonald
macedonia
macerata
macero
machiavelli
machina
machinas
machine
macintosh
mackenzie
macmillan
macomer
macondo
macos
macro
macroregiones
macu
macumere
madagascar
madalena
madame
madau
maddalena
maddie
made
madeira
madesani
madison
madness
madonna
madre
madrepatria
madrid
madrighe
madura
maduros
maduru
mae
maenza
maestrale
maestri
maestro
maffei
mafia
magadan
magasinos
magasinu
magazine
magdalena
magdeburg
maggie
maggio
maggiore
maggiori
maghreb
magia
magic
magica
magical
magico
magicos
magicu
magini
maginis
magiori
magister
magistradu
maglia
magma
magna
magnani
magneticu
magni
magnitudine
magnitudo
magno
magnum
magnus
magra
magreb
magus
magyar
mahatma
mahayana
mahmood
mahmoud
mai
maia
maidan
maiden
mail
mailing
maimone
main
maine
mainz
maior
maiorca
mais
maistra
maistros
maistru
maistu
maiu
maja
majakovskij
major
majorca
majore
majores
majori
majoria
majoritariu
majority
maju
majuscula
make
makeba
makes
making
makoto
maktoum
mal
mala
malabo
maladia
maladias
maladiu
malaida
malaidos
malaidu
malaisia
malaria
malas
malaspina
malaspinas
malattia
malawi
malcolm
maldivas
male
malecuntentu
malesa
malesia
malesu
malformed
malfoy
mali
mallia
mallorca
malloreddus
malos
malpensa
malta
maltesu
malu
malus
mama
mamangkakis
mamas
mambo
mambro
mameli
mamentos
mamentu
mamiferu
mamma
mammiferos
mamoiada
mamujada
mamujadinu
mamuthone
mamuthones
man
manacor
management
manager
managua
manai
manca
mancada
mancadu
mancai
mancant
mancantzia
mancare
mancares
mancari
mancat
mancha
manchester
mancia
mancinelli
manconi
mancu
mancuna
mandada
mandados
mandadu
mandamentu
mandare
mandarinu
mandas
mandat
mandau
mandela
mandende
mandicare
mandicu
mandigada
mandigana
mandigant
mandigare
mandigat
mandigos
mandigu
mandos
mandrolisai
mandu
manera
maneras
manfredi
manga
manganelli
mangianu
mangoni
manhattan
mani
mania
maniera
maniestos
manifatura
manifestada
manifestadas
manifestadu
manifestant
manifestantes
manifestare
manifestat
manifestatzione
manifestatziones
manifesto
manifestu
maniga
manigas
manigiai
manigiare
manigiat
manigiu
manigu
manila
manipulatzione
manitoba
manlio
manliu
mann
manna
mannanimu
mannaria
mannarias
mannas
mannesa
manno
mannoi
mannoia
mannos
mannu
mannus
mano
manon
manos
manoscritto
manovra
mansio
manta
manteddu
mantenende
mantenent
mantenet
manteniant
manteniat
mantenidura
mantenimentu
mantenner
mantennere
mantenni
mantennidu
mantenta
mantentu
mantesa
mantessi
mantesu
mantova
mantza
mantzas
manu
manuale
manuales
manuals
manuel
manuela
manuelle
manufatos
manus
manuscritos
manuscritu
many
manzanu
manzoni
mao
maoma
maori
maoris
map
mapa
mapas
maps
maputo
mar
mara
maracalagonis
marc
marca
marcada
marcados
marcadu
marcadura
marcare
marcas
marcat
marcel
marcello
march
marche
marchende
marchesa
marchesadu
marchesas
marchese
marchesi
marchesos
marchesu
marchiu
marcia
marco
marconi
marcos
marcu
marcus
marcuse
mare
mareas
maremma
mares
maresciallu
marfilu
margaret
margarida
margherita
marghine
margiani
marguerite
mari
maria
mariana
mariane
mariani
marianna
mariannabussalai
mariannas
marianne
mariano
mariantonietta
marianu
maridos
maridu
marie
mariedda
marigosu
marigot
marijuana
marin
marina
marinai
marinas
mariner
marineras
marineri
marineris
marini
marino
marinos
marinu
mario
mariposas
maris
marisa
maristella
maritima
maritimas
maritimos
maritimu
mariu
marjorie
mark
market
marketing
markup
marlene
marmara
marmaru
marmidda
marmilla
marmora
marocco
maroco
marok
marongiu
marquez
marras
marrocu
marrone
marrubiu
mars
marseille
marshall
marsiglia
marsilio
marsillia
marta
marte
marteddu
martedi
marti
martin
martine
martinenc
martinez
martini
martinica
martino
martinu
martire
martires
martiri
martiris
martiriu
martis
martu
marty
martza
martzu
marvel
marx
marxismu
marxista
mary
maryland
marzahn
marzo
marzu
mas
masaccio
masala
masaprestu
mascamente
mascara
mascaras
maschere
maschile
mascios
masciu
mascrismu
mascros
mascru
mascu
masculina
masculinos
masculinu
masedu
masia
masih
masone
mass
massa
massachusetts
massacros
massacru
massajos
massaju
massama
massaria
massas
massima
massimamente
massimas
massimiliano
massimo
massimos
massimu
massitza
massitzu
massiva
massivas
massivos
master
masters
mastino
mastiu
mastra
mastrocinque
mastros
mastru
masu
mata
matas
match
matematica
matematicas
matematicos
matematicu
matematicus
mater
matera
materia
material
materiale
materiales
materiali
materialis
materias
materna
maternu
matessi
matessis
mateu
mathbb
mathbf
mathematics
mathieu
mathit
mathrm
matone
matonellas
matones
matrimonio
matrimoniu
matrix
matt
matta
mattei
matteo
matteotti
matter
matteu
matthew
mattia
mattoli
mattone
mattu
maturidade
matzedone
matzedonia
matzeu
mau
maurice
mauricio
mauritania
mauritius
mauritziu
maurizio
mauro
mauru
mausoleu
max
maxia
maxim
maxwell
may
maya
mayor
mayotte
mayu
mazore
mazza
mazzini
mazzotta
mazzotti
mb
mbox
mc
mca
mccartney
mcculloch
mcgraw
mcmicrocomputer
mcveigh
md
me
mea
mean
meana
meaning
meca
mecanica
mecanicu
mecanigu
mecanismos
mecanismu
meccanica
mecklenburg
med
meda
medade
medaglia
medal
medalla
medallia
medallias
medas
medea
media
mediamente
mediana
medianeristas
mediante
medianu
medias
mediaset
mediatzione
medica
medical
medici
medicina
medicine
medico
medicu
medida
medidas
medieval
medievale
medievales
medievali
medina
medio
medioevale
medioevali
medioevo
medioevu
medios
mediovale
medire
medit
mediterranea
mediterranean
mediterraneas
mediterranee
mediterraneo
mediterraneos
mediterraneu
mediterraniu
mediu
medium
medius
medusa
medvedev
meet
meeting
megali
megalitica
megaliticas
megaliticos
megaliticu
megalitismo
megalitismu
megalitos
megioradu
megiorare
megioros
megioru
megius
meglio
mehmet
mei
meidade
meiga
meighina
meighinas
meigos
meigu
meiji
meilogu
mein
meitade
meixina
mekong
mela
melanesia
melbourne
melchiorre
mele
meli
melilla
melis
melissa
melkiorre
mellifera
mellon
mellus
melo
melodia
meloni
meloria
melquiades
melville
member
members
membros
membru
membrus
meme
memoria
memorial
memoriale
memorias
memorie
memories
memory
memphis
men
mena
mendicanti
mendoza
mendula
mene
mengianu
mengua
menhir
mennea
meno
menos
mensching
mensile
menta
mentale
mentales
mentalidade
mente
menti
menton
mentovada
mentovadas
mentovados
mentovadu
mentovare
mentovat
mentovu
mentras
mentre
mentres
mentris
menu
menzus
meo
meos
mer
mera
meravigliosa
merca
mercaderis
mercados
mercadu
mercantes
mercantile
mercantzia
mercantzias
mercau
mercedes
mercurio
mercuris
mercuriu
mercury
mere
merengues
meres
mereu
meri
meria
merida
meridiana
meridiani
meridianu
meridionale
meridionales
meridionali
meridione
meridioni
merie
meriesa
meris
meritos
meritu
merleau
mermos
mermu
merriam
merton
mertze
mertzenarios
mertzes
mes
mesa
mesana
mesania
mesanu
mesapare
mesas
mesaustu
mescamente
mesches
mese
meses
mesi
mesina
mesis
mesisula
mesoliticu
mesopotamia
message
messageria
messaggero
messaging
messagios
messagiu
messagius
messajus
messaria
messenger
messia
messicana
messicanos
messicanu
messico
messicu
messigu
messina
mesu
mesudie
mesuevu
mesura
mesurada
mesurare
mesuras
mesurat
mesures
mesus
mesuterranu
meta
metabrainz
metaddu
metade
metades
metadi
metafisica
metafora
metal
metallica
metallicas
metallicu
metallos
metallu
metallurgia
metanu
metas
metatesi
meteorologia
meteorologica
meteorologicas
metodi
metodo
metodologias
metodos
metodu
metres
metri
metrica
metricu
metro
metrologia
metropoli
metropolis
metropolita
metropolitan
metropolitana
metropolitanas
metropolitanu
metros
metru
metrus
metz
meu
meus
mexico
meyer
mezoradu
mezorare
mezus
mezzanotte
mezzo
mezzogiorno
mf
mg
mh
mhz
mi
mia
miali
mialinu
miami
micca
michael
michail
michalis
michel
michela
michelangelo
michele
micheli
michelle
michigan
michoacan
mick
mickey
micro
microbiol
microbiologia
microbiology
microfonu
micronesia
microorganismos
microsoft
middle
midi
midway
midwest
mie
miei
mies
mifflin
mig
mighele
migheli
mighty
migia
migias
miglias
miglio
miglior
migliore
migratzione
migratziones
miguel
mike
mikhail
mil
mila
milan
milanesa
milanese
milanesos
milanesu
milani
milano
milanu
milena
miles
miliardos
miliardus
milione
miliones
milioni
milionis
milis
militadu
militante
militantes
militare
militares
militari
militaris
militarmente
military
militat
militzias
mill
milla
mille
millelire
millennio
millennios
millenniu
millennium
miller
milli
milliardos
milliardu
milliardus
million
millione
milliones
millionis
millios
milliotughentos
millis
millisecundos
milton
milwaukee
mimi
mimmo
min
mina
minaccia
minadores
minadoris
minas
mind
mine
minera
minerale
minerales
mineralis
mineraria
minerarias
minerarios
minerariu
mineras
minerva
minetza
minetzadu
minetzare
minetzas
minh
mini
miniera
minieras
miniere
minima
minimada
minimadu
minimare
minimas
minimat
minimende
minimonzu
minimu
miniserie
ministerios
ministeriu
ministero
ministeru
ministro
ministros
ministru
minix
minneapolis
minnesota
minor
minora
minorantzia
minoranza
minoranze
minoras
minorca
minore
minoredda
minoreddas
minoreddedda
minoreddos
minoreddu
minores
minori
minoria
minorias
minoris
minoritaria
minoritarias
minoritarie
minorities
minority
minoriu
minsk
minuda
minudas
minudu
minuit
minujas
minutes
minuti
minutos
minutu
minutus
mio
mips
miquel
miquelon
mira
miracoli
miracolo
miraculu
mirada
miranda
mirare
miras
miriam
mirias
miris
mirko
mirror
mirto
misaki
misandria
miscela
miseria
misoginia
miss
missa
missadas
missiles
mission
missionarios
missionariu
missione
missiones
missioni
missionis
mississippi
missiva
missouri
missu
mister
misterios
misteriosa
misteriosu
misteriu
mistero
mistica
mistras
mistura
misturu
misura
mit
mitchell
miti
miticu
mito
mitologia
mitos
mitte
mitu
mitza
mitzas
miu
mix
miyazaki
miza
mizas
mj
mk
mks
ml
mm
mn
mo
mob
mobile
mobiles
mobili
mobilidade
mobilis
moccia
moda
modalidade
modalidades
modalidadi
modas
modde
moddes
mode
model
modella
modellos
modellu
modena
moderada
moderadas
moderados
moderadu
modern
moderna
modernas
moderne
modernidade
modernismu
modernita
modernizatzione
modernizzazione
moderno
modernos
modernu
modernus
modesta
modestu
modifica
modificada
modificadas
modificados
modificadu
modificant
modificare
modificas
modifichende
modo
modos
modu
modugno
modulos
modulu
moeddu
moende
moent
moere
moet
moglie
mogoresu
mogoro
moguru
mohamed
mohammad
mohammed
moholy
moi
moida
moimentos
moimentu
moise
mol
mola
molare
molas
moldava
moldavia
moldavos
moldavu
moldova
mole
molecula
moleculare
moleculas
molente
moles
moliere
molina
molinos
molins
molinu
molise
moll
mollos
mollu
molotov
molta
molti
molto
moment
momento
momentos
momentu
mommsen
mon
monachesimu
monaco
monacos
monacu
monagu
monarca
monarchia
monarchicu
monasterios
monasteriu
monasteru
monasticu
mondadori
monde
mondi
mondiale
mondiali
mondo
mondrian
moneda
monedas
monetaria
monetariu
money
monferrato
mongia
mongias
mongili
mongios
mongiu
mongolia
mongolu
monica
monicelli
monitor
monitoraggio
monk
monkey
mono
monografia
monografie
monoliticu
monologo
mononota
monopoliu
monreale
mons
monserrato
monsters
mont
montados
montagna
montagnas
montagnina
montana
montanaru
montanas
montarbu
montare
montasio
monte
montecassino
monteleone
montenegro
montenegru
monteponi
montes
montessori
montevecchio
montevideo
montgomery
monti
montiferru
montigros
montigru
montiju
montis
montjuic
montologia
montosa
montosu
montpellier
montreal
montserrat
monumentale
monumentales
monumenti
monumento
monumentos
monumentu
monumentus
monviso
monza
monzas
mood
moon
moore
mor
moraes
morale
morales
morali
morandi
moravetti
moravia
more
mores
moresby
moretti
morfologia
morfologicas
morfologicu
morgan
mori
moribundu
moridi
morint
morire
morisca
moriscos
morit
morning
moro
moroni
moros
morra
morrer
morrere
morri
morris
morrison
morse
mort
morta
mortale
mortales
mortalidade
mortas
morte
mortes
morti
morto
morton
mortore
mortores
mortorgiu
mortorzos
mortorzu
mortos
mortu
mortus
morty
morus
mosaicos
mosaicu
mosca
moschea
moscheas
moscote
mose
mosella
moser
moses
mossa
most
mostra
mostre
mostri
mostro
mostru
mostu
mother
moti
motivatzione
motivos
motivu
moto
motore
motores
motori
motoria
motorios
motorola
motos
motta
motto
mottu
motu
mou
mount
mountain
mountains
mouse
mouton
movement
movende
movent
movere
movet
movi
movida
movidas
movidos
movidu
movie
movimento
movimentos
movimentu
movimentus
mozambicu
mozart
mozilla
mp
mq
mr
mreca
mrexani
ms
msdmanuals
msn
mt
mtv
mu
mucadore
much
mud
muda
mudada
mudadas
mudados
mudadu
mudadura
mudaduras
mudai
mudamentos
mudamentu
mudant
mudantzia
mudantzias
mudare
mudas
mudat
mudau
muddy
mudende
mudimene
mudimine
mudu
muertos
mugabe
mugere
muggini
muhammad
mujahid
mukwege
mulargia
mulas
mulino
mulinu
muller
mulleri
multi
multietnica
multietnicu
multilingualism
multimedia
multimediale
multimediales
multiplas
multiplos
multiplu
mumbai
mummia
munari
munchen
mundana
mundiale
mundiales
mundiali
mundialis
mundo
mundos
mundu
mundus
municipal
municipios
municipiu
municipium
munitzipale
munitzipales
munitzipalidade
munitzipalidades
munitzipios
munitzipiu
munster
muntagna
muntagninos
muntone
muore
mura
murad
murada
muraglias
murales
muralla
muraria
murcia
murdegu
murder
mureddu
murenu
murera
murgia
muri
murichessa
murillo
murineddu
muristenes
muristenis
muro
murolo
muroni
muros
murphy
murra
murray
murru
mursia
murta
murtas
murtatzolu
muru
murus
mus
musa
musas
musca
musculos
muse
museale
musee
musei
museo
museos
musetu
museu
museum
music
musica
musical
musicale
musicales
musicali
musicas
musicbrainz
musiche
musicista
musicistas
musicos
musicu
musiga
musigale
musigales
musique
musitzista
musitzistas
muslim
muslims
mussolini
must
mustafa
mustra
mustradu
mustrant
mustrare
mustras
mustrat
mustrende
mustu
musulmana
musulmanas
musulmanos
musulmanu
muta
mutettu
mutiat
mutida
mutidas
mutidos
mutidu
mutint
mutire
mutit
mutiu
muttiu
muttos
muttu
mutua
muzere
mv
mvc
mw
mx
my
myanmar
myblog
myspace
mysterious
mysterium
mystery
myth
mz
n
n0
n1
n2
n3
n4
n5
n6
n7
n8
n9
na
nabat
nach
nachi
naciodigital
nacional
nada
nadadorzos
nadadorzu
nadale
nadali
nadas
nadia
nadias
nadios
nadiu
nados
nadu
nae
naes
nagasaki
nagorno
nagy
nai
nairobi
naitza
nama
name
named
names
namibia
nana
nanas
nanchi
nancy
nande
nandeli
nang
nannai
nanni
nant
nanta
nantes
napoleon
napoleone
napoleoni
napoleonica
napoleonicas
napoletana
napoli
napolione
napule
napuletana
napuletanas
napulitanu
nara
narabuia
narada
naradas
narados
naradu
narai
naraiant
naraiat
naramus
naran
narande
narant
narat
narau
naraus
narbona
narbonne
nare
narende
narendi
narradore
narrante
narrare
narrativa
narrative
narrativu
narratori
narratzione
narre
narrer
narrere
narri
nasa
nasce
nasche
naschede
naschende
naschent
naschere
naschet
naschia
naschiat
naschida
naschidas
naschidos
naschidu
naschimentu
naschint
naschios
naschire
naschit
naschitu
naschiu
nasci
nascia
nascias
nascida
nascimentu
nasciri
nascit
nascita
nasciu
nascius
nascosto
nash
nashville
naskida
naskidu
naso
nassau
nassionale
nassionales
nassionalidade
nassione
nassiones
nasu
nat
nata
natale
nathan
nation
national
nationale
nationalism
nations
nativa
native
nativos
nativu
nato
natura
natural
naturale
naturales
naturali
naturalis
naturalista
naturalisticas
naturalisticu
naturalizadu
naturalizzadu
naturalmente
nature
natz
natzionale
natzionales
natzionali
natzionalidade
natzionalidades
natzionalismu
natzionalista
natzionalistas
natzione
natziones
natzioni
natzionis
nau
nauru
navada
navadas
navajo
naval
navale
navales
navarra
nave
navegadura
naves
navigabile
navigadore
navigadores
navigadori
navigare
navigatzione
navios
navy
nazaret
nazi
nazionale
nazionali
nazionalis
nazione
nazioni
nazionis
nazismu
nazista
nazistas
nb
nbc
nc
nca
ncbi
nch
nche
nci
ncov
nd
nde
ndi
ndiu
ne
neapolis
near
nebode
nebodes
nebraska
necessario
neck
necropoli
necropolis
need
neerlandia
negadu
negativa
negativas
negativos
negativu
negau
neghe
neglect
negli
negotziados
negotziadu
negotziu
negra
negri
negro
nei
neil
neke
nel
nell
nella
nelle
nello
nelly
nelson
nemancu
nemigos
nemmancu
nemos
nen
nenaldu
nende
neo
neoclassicu
neolatinas
neolitica
neoliticas
neolitico
neoliticu
neon
neoneli
nepal
nera
neras
neri
nero
nerone
nessi
nessuno
net
neta
netflix
netherlands
nettunu
netu
netunu
network
networks
netzessaria
netzessariamente
netzessarias
netzessarios
netzessariu
netzessidade
netzessidades
netzessitat
neue
neufeld
neula
neumann
neunele
neutrale
neutrali
neutralidade
neutrones
neutru
nevada
never
nevis
new
newark
newfoundland
newman
news
newspaper
newsweek
newton
newtons
nexi
next
nf
ng
nh
nha
nhk
ni
nia
niadas
niagara
niamey
nicaragua
niccolo
nice
nicea
nichel
nicholas
nichols
nick
nico
nicola
nicolae
nicolas
nicolau
nicole
nicolo
nicosia
nidu
nie
niedda
nieddas
nieddos
nieddu
niemoller
niente
niffoi
nigel
niger
nigeria
nigerianos
nighedda
nigheddu
night
nightingale
nights
nigola
nih
nihon
nihonjinron
nikah
nikos
nilu
nimancu
nimmancu
nina
nine
ninetta
ninja
nino
nintendo
nioi
nippon
nirvana
nisciuna
nisciunu
nissa
nissuna
nist
nitza
nitzas
niu
niuna
niunu
nivola
nixon
nizza
nj
nk
nkvd
nl
nlm
nm
nn
no
noa
noantamas
noantimes
noas
noba
nobel
nobelprize
nobile
nobiles
nobilesa
nobili
nobiliare
nobilis
nobis
noble
nobody
nodia
nodida
nodidas
nodidos
nodidu
nodiu
nodos
nodu
nodus
noe
noel
noemi
nogueira
noi
noighentos
nointames
noir
noirs
nois
noise
noixentus
nokia
nola
nolan
nolitados
nolitadu
nolitu
nom
nomades
nome
nomen
nomenada
nomenadas
nomenadu
nomenau
nomenaus
nomenclature
nomene
nomenes
nomes
nomi
nomina
nominada
nominados
nominadu
nominale
nominas
nominat
nomination
nominau
nomine
nomines
nomingios
nomingiu
nomini
nominis
nominzu
non
nonna
nonnu
nono
nonostante
nonu
noos
nop
nor
nora
noragugume
noranta
nord
nordafrica
nordafricana
nordamerica
nordamericana
nordamericanas
nordamericanos
nordamericanu
nordica
nordicos
nordicu
nordu
norfolk
norm
norma
normale
normales
normalidade
normalizadores
normalizatzione
normalmente
norman
normandia
normanna
normannos
normannu
normarmente
normas
normativa
normativas
norme
norrenu
norte
north
northern
norti
norton
norvegesu
norvegia
nos
nosi
nosta
nostamis
nostra
nostras
nostre
nostri
nostro
nostros
nostru
nostu
nosu
not
nota
notabile
notabiles
notai
notant
notare
notas
notat
notatzione
note
notes
notevole
notevoles
nothing
noti
noticias
notifica
notizia
notizie
noto
notoriedade
notre
notte
notti
notu
nou
nous
nouveau
nouvelle
nova
novadores
novanta
novara
novas
nove
novecento
novel
novella
novellas
novelle
november
novembre
novena
novi
novichentos
novidade
novidades
novita
novo
novos
novu
now
nowhere
nozze
np
npl
npr
nq
nr
ns
nssdc
nt
nu
nuclear
nucleare
nucleares
nucleari
nuclearis
nucleos
nucleu
nucleus
nudda
nudo
nudu
nue
nues
nuestra
nueva
nuevo
nug
nughe
nughedu
nughes
nugoresa
nugoresos
nugoresu
nugoro
nugoru
nui
nuis
nuit
nuivi
nule
nulla
nullu
num
number
numbers
numen
numenada
numenadas
numenados
numenadu
numenadura
numenale
numenare
numenat
numene
numenes
numenor
numeratzione
numeri
numerica
numericos
numericu
numero
numeros
numerosa
numerosas
numerosos
numerosu
numeru
numerus
numidia
numuru
nun
nunavut
nunzio
nuorese
nuoresi
nuoro
nuova
nuove
nuovi
nuovo
nur
nurache
nurachi
nuradda
nuraghe
nuraghes
nuraghesa
nuraghesas
nuraghesos
nuraghesu
nuraghi
nuragica
nuragicas
nuragico
nuragicos
nuragicu
nuragus
nurake
nuraminis
nuraxi
nuraxis
nurighe
nurnberg
nurra
nurri
nuto
nutzola
nuvole
nuxis
nv
nw
nx
ny
nytimes
nz
o
o0
o1
o2
o3
o4
o5
o6
o7
o8
o9
oa
oak
oakland
oasi
oaxaca
ob
obama
obera
oberas
oberta
obertu
obietivos
obietivu
obietivus
obiettivu
obino
obispadu
obispale
obispali
obitadu
object
oblast
obligadu
obligu
obra
obrativu
obres
obrigadu
obrigadura
obrigatoriu
observatory
oburu
oc
ocasione
ocasiones
ocasioni
occasione
occasioni
occhi
occhio
occidentale
occidentali
occidente
occupada
occupadu
occupat
occupatzione
ocean
oceania
oceanu
oche
ochida
ochidorgiu
ochidos
ochidu
ochidura
ochiende
ochier
ochiet
ochiidu
ochire
ochisura
ochit
ocidentali
oclc
oclusivas
ocros
ocru
october
octubre
ocupada
ocupadas
ocupadores
ocupados
ocupadu
ocupaiant
ocupaiat
ocupant
ocupare
ocupat
ocupatzione
ocupende
od
odeon
oder
odessa
odia
odierna
odissea
odiu
oe
of
ofensiva
oferint
oferit
oferrere
oferta
ofertas
ofertu
off
offerta
office
officer
officers
official
officina
offissiali
offitziali
oficial
ofissiali
ofitziale
ofitziales
ofitziali
ofitziu
ofitzius
og
oganesson
ogetos
ogetu
ogetus
oggetto
oggi
oghe
ogiastra
ogios
ogiu
ogliastra
ogna
ognassantu
ogni
ognia
ognunu
ograda
ogros
ogru
oguali
ogus
oh
ohio
ohm
ohne
oi
oil
oindii
oip
oj
oje
ojos
ok
okhlobystin
okinawa
oklahoma
ol
olanda
olandesa
olandesas
olandesos
olandesu
olbia
olbiacalcio
old
ole
olga
oli
olia
oliana
olias
oliena
olimpia
olimpiades
olimpico
olimpicos
olimpicu
olimpigos
olimpigu
oliva
olivarios
oliveira
oliver
olivetti
olivieri
olla
ollasta
ollastra
ollolai
ollollai
ollu
olocaustu
olta
oltre
oltremare
olympia
olzai
om
oma
omaggio
omaha
omaju
oman
omar
omayyade
ombra
ombre
omega
omero
omine
omines
omini
ominis
omnia
omodeo
omogenea
omogeneu
omonima
omonimo
omonimu
omosessuale
omosessuales
omosessualidade
oms
omundson
on
ona
onanie
once
onda
ondra
one
oneste
oniai
onieri
onitsha
online
onlus
only
onni
onnia
onniasanti
onniasantu
onnipotente
onnis
onniunu
ono
onorare
onoraria
onorario
onorariu
onorau
onore
onores
onori
onoriu
ontario
onu
onzi
oo
oos
op
open
opening
opera
operadore
operadores
operadu
operadura
operaduras
operai
operaiat
operaja
operajos
operaju
operant
operare
operas
operat
operating
operation
operations
operativa
operativas
operativos
operativu
operatorname
operatzione
operatziones
operazione
opere
operende
opinion
opinione
opiniones
opinioni
opinionis
oponiat
oponidura
oponnere
oportunidade
oposidores
oposidura
opositzione
oposta
opostas
opostos
opostu
oppenheimer
oppidum
oppo
opposition
oppuru
opressione
opuru
opus
oq
or
ora
oral
orale
orales
oramai
orane
orange
orani
orariu
oras
oratoriu
orazio
orbatze
orbita
orbitale
orbitali
orbitas
orchestra
orchidea
orcu
order
ordered
ordinadu
ordinamentu
ordinare
ordinaria
ordinariu
ordinat
ordinau
ordine
ordines
ordingiada
ordingiadu
ordini
ore
oregon
oremari
oreste
orfanos
orfanu
org
organ
organica
organicas
organicos
organisation
organismos
organisms
organismu
organismus
organista
organitzazione
organizada
organizadas
organizadores
organizados
organizadu
organizadura
organizant
organizare
organizat
organization
organizatzione
organizatziones
organizatzioni
organizatzionis
organizau
organizing
organizzazione
organos
organu
organulos
orgiu
orgolesos
orgosolo
orientada
orientadu
orientale
orientales
orientali
orientalis
orientamentos
orientamentu
orientare
oriente
orienti
origin
originadu
original
originale
originales
originali
originalidade
originaria
originariamente
originarias
originarios
originariu
originat
origine
origines
origini
originiariamente
originis
origins
origoni
origra
oristanis
oristano
orizinale
orizinarmente
orizine
orizines
orizontale
orizonte
orlando
orleans
ormai
orme
ornamentu
ornella
ornitologia
oro
oros
orosei
oroteddi
orroli
orrore
orru
orso
orta
ortacesus
ortaliscia
ortalitzia
ortas
orthulle
ortigru
ortigu
ortiz
ortobene
ortodossa
ortodossos
ortodossu
ortografia
ortografica
ortograficas
ortograficu
ortos
ortu
ortueri
ortzai
oru
orune
orvieto
orwell
orzocor
os
osama
osbourne
oscar
oscheri
oschiri
osidda
osidde
osile
osini
oslo
osos
ospedale
ospite
ospitone
osservada
osservadore
osservadores
osservadu
osservare
osservat
osservatoriu
osservatzione
osservatziones
osservatzioni
osservatzionis
ossessione
ossessivu
ossetzia
ossi
ossia
ossiat
ossidat
ossidatzione
ossidiana
ossidu
ossigenu
ossos
ossu
ossus
ostagios
ostalgie
ostana
osteria
ostia
ostrogotos
osvaldo
ot
otaku
otanta
otavas
otavianu
otello
otenende
otenent
otenet
otenimentu
otenit
otenner
otennere
otennidu
otenta
otentos
otentu
other
othieri
othoca
otica
oticas
oticos
oticu
otieri
otighentos
otima
otimu
oto
otomana
otomanas
otomanos
otomanu
otone
otranto
otsuchi
ottana
ottava
ottavas
ottawa
ottenit
ottichentos
ottighentos
otto
ottobre
ottocento
ottoman
otu
otuxentus
otzana
otzeania
otzeanos
otzeanu
otzi
otzidentale
otzidentales
otzidentali
otzidente
otzidenti
otzitana
otzitania
otzitanu
ou
our
out
outbreak
outdoor
outlook
output
outre
ov
over
overas
overline
overrightarrow
overview
ovest
oviedo
ovodda
ovvero
ovverosiat
ow
owen
own
ox
oxford
oy
oz
ozastra
ozetos
ozettu
ozetu
ozieri
ozu
ozzastra
ozzy
p
p0
p1
p2
p3
p4
p5
p6
p7
p8
p9
pa
paba
pabas
pabillonis
pabiru
pablo
pac
paca
pacare
pacas
pace
pache
pachete
pachetes
pachetu
pachetus
pacific
pacifico
pacificu
pacifista
packet
paco
pacos
pacu
padana
padania
padanu
padente
padentes
padessende
padessere
padessidu
padiglione
padova
padre
padres
padria
padrone
padru
padua
paella
paesaggi
paesaggio
paesagios
paesagiu
paese
paesi
pag
paga
pagada
pagados
pagadu
pagai
pagaiat
pagamenta
pagamentu
pagana
pagani
paganini
pagano
paganos
pagare
pagas
pagat
page
pages
pagg
paghe
paghiosa
paghiosos
paghiosu
pagia
pagina
paginas
pagine
pago
pagos
pagu
pagus
paice
pais
paisos
paisu
paisus
paja
pakistan
pakistanu
pal
pala
palabanda
palace
palas
palatina
palatinadu
palatos
palattos
palattu
palatu
palatziu
palatzos
palatzu
palau
palazzi
palazzo
palcu
pale
paleoliticu
paleosardo
palermi
palermo
palermu
palestina
palestinesa
palestinesos
palestinesu
paleusardu
palgrave
pali
paliaccio
palla
pallacanestro
palladio
pallamanu
pallone
palloni
palm
palma
palmas
palomar
palos
palte
palu
palus
pamplona
pan
panada
panama
pancreas
panda
pandemia
pane
panedda
panes
pani
pankow
pannamenta
pannellos
pannu
panorama
panoramica
pansessualidade
pantaleo
pantasima
pantasimas
pantasma
pantera
pantheon
paola
paoli
paolo
papa
papadu
papai
papale
papant
papare
papat
paper
paperi
paperis
papiamentu
papiros
papore
pappare
papua
par
para
parabola
parabula
parabulas
parada
parade
paradigma
paradise
paradiso
paradisu
paradu
parafrinas
paragone
paragrafu
paraguay
paragula
paragulas
paralisi
parallela
parallelamente
parallelas
parallelos
parallelu
parametros
parametru
paramilitare
paramilitares
paranumenadu
paranumene
parare
pararutas
pararutistas
paras
parassitos
paraula
paraulas
parco
parcos
parcu
pardulas
pare
parede
paredes
paregiu
parent
parente
parentela
parentes
parentesi
parentesis
parenti
parentis
pares
paret
pari
pariant
pariat
paribile
parica
paricis
paridade
pariga
parigas
parigi
parint
paris
paristoria
paristorias
parit
paritzas
paritzos
parizi
park
parker
parla
parlamentare
parlamentares
parlamentari
parlamento
parlamentos
parlamentu
parlano
parlanti
parlare
parlata
parliament
parma
parodi
parodia
parodias
parola
parole
parque
parracu
parre
parrer
parrere
parri
parrit
parrochia
parrochiale
parrochiali
parrochias
parseval
part
parte
partecipadu
partecipanti
partende
partendi
partenent
partenet
parteniat
partentzia
partenza
parteolla
partes
partetzipadores
partetzipadu
partetzipadura
partetzipant
partetzipantes
partetzipare
partetzipat
partetzipatzione
partetzipende
parti
partia
partiale
partiant
partias
particolare
particolari
particulare
particulares
particulari
particularidade
particularmente
partida
partidas
partidi
partidos
partidu
partidura
partiduras
partighedda
partigheddas
partile
partinde
partint
partire
partiri
partis
partisanos
partit
partita
partito
partitzipadu
partitzipat
partu
party
partziale
partziales
partzida
partzidas
partzidos
partzidu
partzidura
partziduras
partzint
partzire
partzit
parusu
pas
pasada
pasare
pasca
pascal
pascale
paschedda
paschixedda
pascual
pasculos
pasias
paso
pasolini
pasqua
pasquale
pass
passa
passada
passadas
passaditzu
passados
passadu
passaggiu
passagiu
passai
passaiat
passant
passaportos
passaportu
passare
passat
passato
passau
passaus
passazu
passende
passendi
passeron
passi
passiente
passigeris
passigiada
passio
passion
passione
passiones
passioni
passiva
passivu
passizeri
passizeris
passo
passos
passu
past
pasta
pastor
pastorale
pastore
pastores
pastori
pastoritzia
pastoriu
pastura
pasu
pat
pata
patada
patagonia
patata
patatas
pater
path
pati
patiat
patidu
patiolla
patiu
patogenu
patologia
patologias
patologica
patos
patria
patriarca
patriarcale
patricia
patrick
patrimonio
patrimonios
patrimoniu
patriota
patrioticu
patriottu
patriotu
patritziu
patrizia
patron
patrona
patronos
patronu
pattada
pattadesa
patti
patu
patzientes
patzificu
pau
paui
paul
paula
paule
paules
pauli
paulinho
paulis
paulle
paulo
paulu
paura
pausa
pausania
pavarotti
pavel
pavese
pavia
pax
paxi
pays
paz
paza
pazina
pazinas
pb
pbs
pc
pci
pcs
pd
pdf
pdpa
pe
peace
pearl
pearson
peazu
pecados
peccados
peccato
pechino
pechinu
peculiare
peculiares
peculiaridade
peculiaridades
pedde
peddes
peddi
pede
pedende
pedes
pediant
pediat
pedida
pedidu
pedinde
pedint
pedire
pedit
pediu
pedra
pedras
pedro
pedrosa
pedrosu
pedru
pee
peemonte
peemontesa
peerla
pees
peggy
pegos
pegus
pei
peifugas
peis
pejus
pel
pelea
peleas
pelle
pellegrinagios
pellegrinagiu
pellegrini
pellegrinos
pellicula
pelliculas
peloponnesu
pena
penadorzu
penagos
penale
penales
penarol
penas
pendentzia
pendulu
penetratzione
penguin
peninsula
peninsulare
penisola
penisua
penisula
penitentzia
penn
pennsylvania
pensada
pensadore
pensadores
pensadu
pensai
pensaiat
pensamentos
pensamentu
pensant
pensare
pensat
pensau
pensende
pensieri
pensiero
pensione
penso
pentagonu
pentzamentu
pentzat
people
peoples
pepe
pepinu
peppe
pepper
peppino
peppinu
per
peraula
peraulas
perca
percas
percentuali
perche
perchentos
perchentu
percorsi
percorso
percursos
percursu
percussion
percussiones
percussioni
perda
perdas
perdende
perder
perdere
perdet
perdia
perdiat
perdida
perdidas
perdidos
perdidu
perdiri
perdit
perdita
perdiu
perdonu
perdu
pere
perez
perfect
perfeta
perfetta
perfetu
perfetzione
perfilu
performance
pergamenas
pergolesi
peri
periculu
periferia
periferica
perifericas
perigulosa
perigulosas
perigulosos
perigulosu
perigulu
perimetru
perino
periodica
periodicos
periodicu
periodo
periodos
periodu
peristantu
periudu
perla
perlongada
permanent
permanente
permanentes
permanenti
permanentzia
permissos
permissu
permitende
permitent
permiter
permitere
permitet
permiti
permitiant
permitiat
permitidu
permitint
permitit
permitiu
permittit
permittiu
pero
peroe
peromine
perou
perpetuada
perpignanu
perra
perrica
perricada
perricadu
perricas
perry
persecutzione
persecutziones
persefone
persia
persiana
persianos
persianu
persicu
persighida
persighire
person
persona
personaggi
personaggios
personaggiu
personaggius
personagios
personagiu
personagius
personal
personale
personales
personali
personalidade
personalidades
personalita
personalmente
personas
persone
persones
personi
personis
perspective
perspectives
perta
pertenen
pertenent
pertenentzia
pertenet
perteniat
perth
pertocaiant
pertocaiat
pertocant
pertocat
pertoccat
pertzentuale
pertzentuales
pertzetzione
peru
perugia
peruna
perunu
peruvianu
pes
pesada
pesadas
pesadia
pesadiu
pesados
pesadu
pesai
pesant
pesante
pesare
pesat
pesau
pescara
pesce
peschentos
peschentu
pesci
peso
pesones
pesos
pessadu
pessamentos
pessamentu
pessare
pessat
pessau
pessighidos
pessona
pessonagios
pessonagiu
pessonale
pessonalidade
pessonas
pessonazos
pessonazu
pessone
pessones
pessu
pesta
peste
pesu
peta
pete
peter
petersburg
petit
petite
petitzione
petra
petri
petro
petrolifera
petrolini
petrolio
petroliu
petru
petrucci
petrucciani
petta
pettalzu
petti
petus
petza
petzi
petzos
petzu
peuple
peus
pezzi
pezzo
pf
pfaltzer
pfalz
pg
ph
phd
phenomenon
phi
phikis
phil
philadelphia
philip
philipp
philippe
philips
philology
philosophy
phoenix
phone
phonetic
phonetique
phonogram
phonology
photograph
photos
php
phu
phyla
physical
physics
pi
pia
piace
piacenza
piacere
piaget
piaghe
piaghere
piana
pianeta
piani
pianificadore
pianificatzione
pianista
piano
pianoforte
pianos
pianta
piantas
piante
pianu
pianuforte
pianura
piatta
piatto
piazza
pib
pibiri
pica
picada
picande
picare
picat
picau
picciocca
piccioccas
piccola
piccoli
piccolo
picculu
picioca
piciocu
picture
pictures
pie
piece
pied
piedad
piedade
piedi
pieds
piemonte
piemontesa
piemontese
piemontesi
piemontesos
piemontesu
piena
pier
piera
piero
pierre
piessigna
piessignas
piessignos
piessignu
piessinnios
piet
pietra
pietre
pietro
pietroburgo
pieve
pig
piga
pigada
pigadas
pigados
pigadu
pigai
pigaiant
pigaiat
pigant
pigare
pigat
pigau
pighende
pighendi
pigios
pigiu
pigliaru
pigo
pigota
pil
pila
pilar
pilastros
pilatu
pili
pillonca
pilloni
pillonis
pillu
piloni
pilos
pilot
pilota
pilotas
pilotu
pilu
pimentel
pin
pina
pinacoteca
pineta
ping
pinilla
pink
pinna
pinnas
pinnetas
pinnetos
pino
pinocchio
pinochet
pinta
pintada
pintadas
pintados
pintadu
pintare
pintor
pintore
pintores
pintori
pintura
pinturas
pintus
pinu
pinuccia
pinuccio
pinyin
pio
pioneer
pioneri
pip
pipia
pipios
pipiu
pipius
pippo
pipppero
pira
piramide
pirandello
piras
pirastru
pirata
piratas
pirateria
pirati
piredda
pirelli
pireneos
pirri
pisa
pisana
pisanas
pisani
pisano
pisanos
pisanu
pisanus
pisca
piscadores
piscadoris
piscamos
piscamu
piscare
pische
pischedda
pisches
pischina
pisci
piscina
piscinas
piscopu
pisedda
piseddas
piseddos
piseddu
pissu
pista
pistas
pistis
pistola
pistone
pistones
pisu
pisurzi
pitia
pitias
pitica
piticas
piticos
piticu
piticus
pitiu
pittau
pittore
pittsburgh
pittura
pitzinna
pitzinnas
pitzinnia
pitzinnos
pitzinnu
pitzoca
pitzocas
pitzocca
pitzoccu
pitzochedda
pitzocheddos
pitzocheddu
pitzocos
pitzocu
pitzolo
pitzorno
pitzos
pitzu
pitzus
piu
pius
pivano
pizos
pizu
pizzarelli
pj
pk
pl
pla
placa
placas
place
places
placido
plan
plana
planargia
planck
planet
planetariu
planetary
planets
planitia
plant
plants
plaques
plasma
plasmodium
plassas
plastica
plata
plataforma
platform
platinu
platone
platonos
plauto
play
player
playing
plays
playstation
plaza
please
plebiscitu
pleiadi
pleiku
pleistocene
pleistotzene
plenaria
plinio
pliniu
plotone
plur
plurale
plurales
pluralidade
plurimos
plus
plutoniu
plymouth
pm
pmc
pmid
pn
png
po
pobera
poberas
poberesa
poberos
poberu
pobidda
pobiddu
poblacion
poble
pobulada
pobuladas
pobuladu
pobuladura
pobulare
pobularidade
pobulatzione
pobulos
pobulu
poburu
poco
podan
podant
podat
podda
poddighe
poddighes
poddine
podede
podeis
poden
podende
podent
poder
poderadu
podere
poderent
poderes
poderet
poderi
poderios
poderiu
poderosa
poderosas
poderosos
poderosu
podestade
podestades
podet
podeus
podgorica
podi
podian
podiant
podiat
podidu
podimus
podint
podinti
podiri
podit
poema
poemas
poems
poesia
poesias
poesie
poeta
poetas
poete
poetes
poetessa
poeti
poetica
poeticas
poeticu
poetissa
poetry
poetu
pogrom
poi
poiche
poids
point
pois
poita
poite
poitiers
poitou
poitta
pola
polaca
polacas
polacos
polacu
polare
polares
polaris
polemica
polemicas
polemicu
polesine
poli
police
policy
poligono
polima
polinesia
polinesiana
polinesianas
polinomica
polisportiva
politecnicu
politica
political
politicamente
politicas
politiche
politici
politico
politicos
politics
politicu
politicus
politiga
politigas
politigos
politigu
politzia
polizia
poll
pollock
polonesa
polonesos
polonesu
polonia
poloniu
polos
polska
polu
polygram
pombal
pomerania
pompei
pompeo
pompeu
pompia
pompiaduras
pompiare
pon
ponen
ponende
ponendi
ponendu
ponent
ponente
ponet
poniant
poniat
ponint
ponit
ponner
ponnere
ponni
ponniri
ponta
ponte
pontes
ponti
pontificia
pontifitze
pontis
ponty
ponzende
pop
popai
popeye
popolanos
popolare
popolari
popolatzione
popolatziones
popolatzioni
popolazione
popoli
popolo
popolu
populada
populadas
populados
populadu
populamentu
popular
populare
populares
populari
popularidade
populassione
populassiones
population
populations
populatzione
populatziones
populatzioni
populatzionis
populazioni
populista
populos
populosa
populosu
populu
populus
por
porcheddinu
porcheddu
porcile
porcos
porcu
pordenone
pore
porfia
porridu
porru
porsche
port
porta
portable
portada
portados
portadu
portai
portaiant
portaiat
portal
portale
portalegre
portales
portali
portant
portare
portas
portat
portato
portau
porte
portende
portieri
portland
porto
portogallu
portoghesu
portolu
portos
portrait
portu
portuale
portugal
portugallu
portughesa
portughesas
portughesos
portughesu
portus
portzione
posada
posca
posidura
posiduras
posissione
positiva
positivas
positivos
positivu
positzione
positziones
positzioni
posizione
posner
possa
posse
possedent
possedet
possediant
possediat
possedimentos
possedimentu
possedit
possessu
possibile
possibiles
possibili
possibilidade
possibilidades
possibilidadi
possible
possuit
post
posta
postale
postalencas
postales
postas
postcoloniali
poster
posteriore
posteriores
posteriormente
postis
posto
postos
postu
postura
postus
pot
potassiu
potat
potecaria
potente
potentes
potentzia
potentziale
potentziales
potentziamentu
potentzias
potenza
potere
potho
potosi
potsdam
potter
potu
potzant
potzat
pou
pour
povera
poveri
povero
poveros
povertade
powell
power
powerpc
powers
pozzo
pozzomaggiore
pp
pq
pr
practice
prado
pradu
praeses
praga
praghentzia
praghere
praia
praja
prajas
prama
pramantellu
pramas
pramma
prammas
prana
praneta
pranetas
pranificada
pranificadori
pranificadu
pranificatzione
pranos
pranta
prantas
prantedos
pranu
pranura
pranuras
pranus
prastiga
prata
prataforma
prataformas
pratica
praticada
praticadu
praticamente
praticare
praticas
praticat
praticos
praticu
pratiga
pratigadu
pratigamente
prato
pratobello
pratos
pratu
pratus
pratza
pratzas
praxiant
pre
prebida
prebidas
prebidet
prebidu
precursore
preda
predas
predi
predis
predu
prefatzione
prefazione
preferende
preferentemente
preferentzia
preferida
preferidu
preferint
preferit
preferrere
prefertu
prefettura
prefetu
prefetura
prefissos
prefissu
pregadoria
pregadorias
preghiera
pregiuditzios
pregonta
pregontadu
pregunta
preguntadu
preguntare
preguntas
preide
preideros
preideru
preigadore
preigare
preigas
preistoria
preistorica
preistoricas
preistorico
preistoricos
preistoricu
prejos
preju
prelatzione
preliminare
preliminares
prelude
premi
premiada
premiadu
premiat
premiatzione
premier
premiere
premio
premios
premissa
premiu
premium
prena
prenadu
prenare
prenas
prenda
prendas
prendet
prenos
prensa
prentice
prenu
prenuragica
prenuragicas
prenuragicos
prenuragicu
prenzlauer
preparadu
preparare
preparat
preparatzione
prepositurale
prepositzione
preromana
presa
presbiteriu
presbiteru
present
presenta
presentada
presentadas
presentadore
presentadori
presentados
presentadu
presentaiat
presentant
presentare
presentat
presentatzione
presentau
presentazione
presente
presentende
presentes
presenti
presentis
presentzia
presentzias
presenza
preservare
preside
president
presidente
presidentes
presidenti
presidentzia
presidentziale
presidentziales
presidida
presididu
presidiu
presley
preso
presone
presoneri
presoneris
presones
presoni
presonia
press
presse
pressione
pressiones
pressioni
presso
pressure
prestadu
prestatziones
prestidos
prestidu
prestige
prestigiu
prestu
presu
presumida
presutu
prete
pretendet
pretendiat
pretendidu
pretesa
pretesas
pretore
pretoria
pretoriu
pretu
pretzedente
pretzedentemente
pretzedentes
pretzedentzia
pretzedet
pretzedida
pretzedidu
pretzediu
pretzios
pretziosa
pretziosas
pretziosos
pretziosu
pretzisa
pretzisamente
pretzisas
pretzisione
pretzisos
pretzisu
pretziu
prevalentemente
prevalentzia
prevennere
prevention
preventzione
previdet
previdiat
previdida
prevididu
pride
priest
prima
primadu
primargiu
primaria
primarias
primariu
primas
primatzia
primavera
prime
primer
primera
primi
primidia
primis
primitiva
primitivas
primitivu
primitzios
primitziu
primma
primmu
primo
primore
primorosa
primorosu
primos
primu
primus
prince
princess
princeton
principale
principali
principalis
principalmenti
principe
principessa
principi
principles
pringia
printzesa
printzipados
printzipadu
printzipale
printzipales
printzipali
printzipalis
printzipalmente
printzipalmenti
printzipe
printzipes
printzipessa
printzipiadu
printzipiare
printzipios
printzipiu
printzipius
priore
prioridade
priorissa
prison
prisoner
prite
priva
privada
privadas
privados
privadu
private
privilegio
privilegios
privilegiu
prix
priyom
prize
pro
proa
proadu
proant
proare
proas
proat
probabile
probabilidade
probabilidadi
probabilmente
probabilmenti
probe
probiana
probianas
probianias
probianu
probida
probidas
probidos
probidu
problem
problema
problemas
problematicas
problemi
probremas
procariotas
proceedings
proces
process
processione
processioni
processo
processu
processus
prochentale
proclamada
proclamadu
proclamat
proclamatzione
procopiu
procura
procuradore
prodotos
prodottu
prodotu
production
productions
products
produede
produende
produent
produer
produere
produet
produida
produidas
produidore
produidos
produidu
produidura
produint
produire
produit
produsi
produsint
produsiu
produsius
produssione
produtiva
produtivas
produtividade
produtivos
produtivu
produtora
produtore
produtores
produtos
produttore
produtu
produtus
produtzione
produtziones
produtzioni
produzione
produzioni
proet
prof
professionale
professionales
professione
professionista
professionistas
professone
professones
professor
professora
professore
professores
professoressa
professori
profeta
profetas
profetos
profetu
profile
profilo
profilu
profissionale
profondo
profugos
profumados
profunda
profundamente
profundas
profundidade
profundos
profundu
progetada
progetados
progetadu
progetare
progetatzione
progetau
progetos
progettadu
progetto
progettu
progetu
progetus
program
programa
programas
programatzione
programma
programmadore
programmadores
programmadu
programmare
programmas
programmatzione
programmera
progres
progress
progressiva
progressivamente
progressive
progressivu
progressos
progressu
proibiat
proibida
proibidos
proibidu
proibire
proibit
proibitzione
proina
proite
project
projects
projekct
projekt
proletaria
proloco
promesse
promessi
promissa
promissas
promitiat
promitidu
promontoriu
promotore
promotzionale
promotzione
promovende
promovere
promovet
promovi
promovida
promovidas
promovidu
promozione
promulgadu
pron
pronominales
pronta
prontos
prontu
pronumene
pronumenes
pronuntzia
pronuntziada
pronuntziadu
pronuntziare
pronuntziat
pronuntziau
propaganda
propagatzione
propassat
propia
propiamente
propias
propiduras
propiedade
propiedades
propiedadi
propietaria
propietarios
propietariu
propios
propiu
proponende
proponet
proponiat
proponner
proponnere
proportzionale
proportzione
proportziones
proposal
proposito
propositos
propositu
propositzioi
proposta
propostas
proposte
propostos
propostu
propria
propriamente
proprias
propriedade
propriedades
proprieta
proprietariu
proprio
propriu
propulsion
pros
prosa
prosperare
prosperidade
prospetiva
prospetivas
prospettiva
prospettive
prospetu
prossima
prossimai
prossimo
prossimu
prostituta
prostitutas
protagonista
protagonistas
protagonisti
protegher
proteghidura
proteinas
protest
protesta
protestante
protestantes
protestare
protestas
proteste
protesters
protests
protetorados
protetoradu
protetta
protetzione
protezione
protistas
proto
protocol
protocollos
protocollu
protocollus
protoistoria
protomartyr
proton
protone
protones
protonuraghes
protosarda
prototipu
protozoa
protozoos
protzedimentos
protzedimentu
protzedura
protzeduras
protzessadu
protzessione
protzessore
protzessores
protzessos
protzessu
prova
provas
provat
provence
proventza
proventzale
providence
province
provincia
provinciae
provinciale
provinciali
provintzia
provintziale
provintziales
provintzias
provisoria
provisoriu
provocadu
provocare
provocat
provochende
provvidenza
provvisori
proxima
proyecciones
prozettu
prozetu
pru
prubicau
prubicu
prudencio
pruere
pruini
pruinu
pruite
prumones
prumu
prupu
prus
prusaprestu
prusatotu
pruschetotu
prussia
prussiana
prussianu
prusu
ps
psd
pseudo
pseudoermafroditismu
pseudonimu
psichiatra
psicologia
psicologica
psicologicas
psicologicu
psicologu
psych
psycho
psychology
pt
ptm
pu
pub
pubblica
pubblicada
pubblicadu
pubblicato
pubblicau
pubblicazione
pubblicita
pubblico
pubblicu
public
publica
publicada
publicadas
publicados
publicadu
publicamente
publicant
publicare
publicas
publicat
publications
publicatzione
publicatziones
publicau
publichende
publicos
publicu
publicus
published
publisher
publishers
publishing
publitzidade
publitzitarios
publitzitariu
pubrica
pubricada
pubricadu
pubricau
pubricu
pubriga
pubrigadu
pubrigadura
pubrigas
pubrigos
pubrigu
puccini
pudda
puddas
puddos
puddu
pueblo
puente
puerto
pugione
pugiones
puglia
pula
pulitzer
pulp
pumas
punga
punica
punicas
punicos
punicu
punicus
punk
punna
punnaiant
punnaiat
punnant
punnare
punnas
punnat
punt
punta
puntada
puntadas
puntas
puntat
puntata
puntegiadura
puntegiu
punti
punto
puntos
puntu
puntus
puo
pur
pura
pure
puresa
purile
purmones
purpa
purple
puru
pusceddu
push
pusti
pustigherra
pustis
pustisgherra
puthu
puthumajore
putin
puttu
putumajore
putzolu
putzos
putzu
putzulu
putzus
puzone
puzones
pv
pw
px
py
python
pz
q
q0
q1
q2
q3
q4
q5
q6
q7
q8
q9
qa
qaeda
qatar
qb
qc
qd
qe
qf
qg
qh
qi
qj
qk
ql
qm
qn
qo
qp
qq
qquad
qr
qs
qt
qu
qua
quad
quaderni
quaderno
quadri
quadriennale
qual
qualche
quale
quali
qualita
quand
quando
quang
quante
quanto
quaranta
quark
quarks
quarta
quarterly
quartet
quartetto
quartu
quartus
quartz
quasi
quatre
quattro
quattru
que
quebec
quechua
queen
queens
queensland
queer
quei
quel
quell
quella
quelle
quelli
quello
queneau
quentin
quest
questa
queste
questi
questione
questo
qui
quijote
quindi
quinta
quintet
quintino
quinto
quirinale
quirra
quito
quo
quoc
quodlibet
quora
quotidiano
qv
qw
qx
qy
qz
r
r0
r1
r2
r3
r4
r5
r6
r7
r8
r9
ra
raccolta
racconta
racconti
racconto
raccontu
rachel
racism
raciti
racumandadu
racumandatziones
rada
radar
radcliffe
radiale
radiantes
radiation
radiatzione
radiatziones
radicale
radicales
radichina
radici
radio
radioativa
radioatividade
radioativos
radioativu
radiofonica
radiofonicu
radiolina
radios
radiu
radon
rae
raf
rafael
raffaele
raffaello
ragazza
ragazzi
ragazzo
ragione
ragioni
ragusa
rai
raider
raighina
raighinas
rail
raimondo
rain
rainbow
rainews
rajos
raju
rakoske
raleigh
rally
ralph
ram
rambutan
rame
ramene
ramessu
ramine
raminosa
ramon
ramos
ramu
ran
randolph
random
rangu
ranh
ranieri
ranos
rap
rapa
raphael
rapina
rapinadores
raportos
raportu
raportus
rapper
rapporti
rapporto
rapportos
rapportu
rappresentare
rapresentada
rapresentadas
rapresentados
rapresentadu
rapresentaiant
rapresentaiat
rapresentant
rapresentante
rapresentantes
rapresentantzia
rapresentare
rapresentat
rapresentativa
rapresentativos
rapresentativu
rapresentatzione
rapresentatziones
rapresentende
rapunzel
raquel
rara
raramente
raras
raros
raru
ras
raspi
rassegna
rassu
rasta
rastas
rastos
rastras
ratifica
ratificada
ratificadu
ratificare
rationes
ratos
ratza
ratzas
ratziale
ratziales
ratzionale
ratzionales
ratzismu
ratzistas
raul
raval
ravenna
ray
raymond
razza
rb
rbs
rc
rca
rcfi
rcs
rd
rda
rdt
re
reach
read
reader
reading
ready
reagan
reagidu
reagit
real
reale
reales
reali
realidade
realidades
realidadi
realismu
realista
reality
realizada
realizadas
realizados
realizadu
realizadura
realizant
realizare
realizat
realizatzione
realizatzioni
realizau
realizende
realizzadu
really
realpolitik
realta
realtade
reassione
reativu
reatore
reatores
reatzione
reatziones
rebeca
rebecca
rebeldes
rebellados
rebelladu
rebelles
rebellia
rebellias
rebellos
reberdes
rebista
rebolussione
rebus
rebusadu
recatadores
recatamentu
recensione
recensioni
recent
recente
rechedet
recherche
recherent
recheret
recherrere
recherta
rechertas
rechertos
rechertu
rechesta
rechestas
rechisitos
recital
recitau
recitazione
reclutamentu
reconchista
reconnoschende
reconnoschent
reconnoscher
reconnoschere
reconnoschet
reconnoschiat
reconnoschida
reconnoschidu
reconnoschimentos
reconnoschimentu
reconnota
reconnotas
reconnotos
reconnottu
reconnotu
record
recording
recordings
records
recreu
recuida
recunnotu
recuperadu
recuperare
recupero
recuperu
red
redatadu
redatore
redatzione
redazione
redditu
redentore
reditu
reducciones
reduida
reduidas
reduidos
reduidu
reduire
reed
reeder
reeves
ref
reference
referendum
referente
referentzia
referiat
referidu
referimentu
referinde
referint
referire
referit
referrere
reflections
reforma
reformas
refudada
refudados
refudadu
refudare
refudat
refudende
refudos
refudu
refugiados
regente
regentzia
reggae
reggio
reghente
reghentemente
reghentes
regia
regias
regime
regimene
regimenes
regimentos
regimentu
regina
regio
region
regional
regionale
regionales
regionali
regionalis
regione
regiones
regioni
regionis
regions
regista
registas
registrada
registradas
registrados
registradu
registrare
registrat
registratzione
registratziones
registrazione
registrazioni
registrende
registros
registru
regiu
regnaiat
regnantes
regniculos
regno
regnos
regnu
regnum
regolas
regollit
regolta
regoltos
regoltu
regordadu
regordare
regorta
regortas
regortos
regula
regulada
reguladu
regulamentos
regulamentu
regulare
regulares
regularmente
regulas
rei
reich
reid
reims
reina
reinickendorf
reis
relascione
relassionados
relassionadu
relassione
relassiones
relata
relatadas
relatados
relatas
related
relativa
relativamente
relativas
relatividade
relativos
relativu
relatos
relatu
relatzionada
relatzionados
relatzione
relatziones
relazione
relazioni
release
releases
relevu
relichias
religion
religione
religiones
religioni
religionis
religiosa
religiosas
religiose
religiosidade
religiosos
religiosu
religious
relizione
relogios
relogiu
rem
remake
remedios
remediu
remember
remembrance
remenu
remix
remixes
remo
remontant
remontat
remota
remotos
remotu
rempellos
remplasada
remplasados
remplasadu
remplasare
remplasat
remundu
remy
rena
renaissance
renania
renaschida
renata
renato
rende
rendida
rendidu
rendimentu
rene
renesset
reniu
renner
rennes
rennet
rennios
renniu
rennoamentu
rennos
rennu
renu
renuntziadu
renuntziare
renzo
repartzidura
reparu
repente
repertoriu
repertos
repertu
repertus
repitere
replica
report
reporter
reports
reposare
reposu
repression
repressione
reprimida
reprise
repubblica
repubblicana
repubbrica
republic
republica
republicana
republicanos
republicanu
republicas
republik
republika
republique
repubrica
repubricas
repubriga
rerum
res
resa
rescuers
research
reserva
reservadu
reservas
reserve
resessende
resessere
resesset
resessida
resessidas
resessidos
resessidu
resessint
resessire
resessit
resessiu
residente
residentes
residentzia
residentziale
residentzias
resissende
resissida
resissidas
resissidos
resissidu
resissire
resistance
resistente
resistentzia
resistentzias
resistenza
resistidu
resistire
resolution
resolutzione
resolvere
resone
resones
resource
resources
respetadu
respetare
respetivamente
respetu
respiratoria
respiratory
respiru
responder
responsabile
responsabiles
responsabilidade
responsabilidades
resposta
respostu
respublika
resta
restada
restadu
restana
restare
restat
restaurada
restauradu
restauratzione
restauru
restorante
restorantes
restos
restritziones
restu
resultados
resultadu
resultat
results
resumu
resursas
resurtada
resurtados
resurtadu
resurtant
resurtare
resurtat
resurtau
resurtende
resurtu
retangulare
retangulu
rete
retenent
retenet
retes
reti
retirada
retiradas
retirados
retiradu
retirare
retirat
retiru
retore
retorica
retratu
retrieved
retro
rettore
return
retza
retzas
retze
retzende
retzensimentu
retzensione
retzensiones
retzentes
retzes
retzeta
retzetas
retziant
retziat
retzida
retzidi
retzidore
retzidos
retzidu
retzidura
retzint
retzire
retzit
reuel
reunidu
reunificatzione
reunione
reuters
rev
reveladu
revessu
review
reviews
revised
revision
revisione
revista
revistas
revolution
revolutzionaria
revolutzionariu
revolutzione
revue
rex
rexia
rey
reynolds
rezidu
rezimene
rezionale
rezionales
rezione
reziones
rezonale
rezone
rezones
rezu
rf
rfc
rfrm
rg
rge
rh
rheinland
rhin
rhode
rhodes
rhodesia
rhythm
ri
ria
riba
ribas
ribbentrop
ribelli
ribera
ribu
rica
ricas
ricca
riccardo
ricci
ricco
riccos
riccu
ricerca
ricercadores
ricercas
ricerche
ricetta
rich
richard
richards
richesa
richesas
richiesta
richmond
richter
rick
rico
ricorda
ricordi
ricordo
ricos
ricostrutzione
ricu
ricursu
ride
rider
ridere
ridge
riellu
riferidu
riferimento
riferimentos
riferimentu
riferit
riflessione
riflessivos
rifletere
rifletet
riforma
riformadores
riformas
riga
right
rightarrow
rights
rigore
rigores
rigorosa
rigorosu
riguardat
rijeka
rilevadu
rilevantzia
rilevare
rilievu
rima
rimas
rimbaltzare
rimini
rinaldi
rinaldo
rinaschida
rinaschimentu
rinascimento
rinascita
ring
ringo
rings
rinnovamentu
rinunce
rinuncia
rinuntzia
rinuntziadu
rinuntziare
rio
riohacha
rioja
rione
rios
riot
ripresa
ripristinu
riprodutzione
risa
risalit
risc
riscatu
rischio
riscossa
riscu
rise
riserva
riservadu
riservas
risi
risk
riso
risolutzione
risolvere
risolvet
risolvida
risolvidu
risorgimentu
risorsa
risorsas
rispetivamente
rispetivos
rispetto
rispettu
rispetu
rispondere
rispondet
rispondidu
risposta
rispostas
rispostu
rist
ristampa
ristorante
ristorantes
ristruturatzione
risu
risultat
risultati
risursa
risursas
rita
ritiru
ritmica
ritmo
ritmos
ritmu
ritorna
ritorno
ritos
ritratos
ritratto
ritratu
ritu
rituale
rituales
riu
riudoms
riuniat
riunidu
riunione
riuniones
riuniti
rius
riva
rivale
rivales
riveladu
rivelat
rivelatzione
rivendicatziones
river
riverside
rivista
rivistas
rivolta
rivolutzionaria
rivolutzionarias
rivolutzionarios
rivolutzionariu
rivolutzione
rivolutziones
rivolutzioni
rivoluzionari
rivoluzionario
rivoluzione
riyad
rizzoli
rj
rk
rl
rm
rms
rn
ro
roach
road
rob
roba
robert
roberta
roberto
roberts
robin
robinson
robustas
robustu
roca
rocaberti
rocas
rocca
roccas
rocco
rocha
roche
rochester
rock
rockefeller
rockit
rockol
rocky
rocosos
roda
rodados
rodanu
rodari
rodas
rodatzioni
roday
rodi
rodia
rodiu
rodrigo
rodrigues
rodriguez
roger
rogers
rogo
rogos
rohe
rohwedder
roi
roiland
rojas
rol
roland
role
roll
rolling
rolos
rolu
rolus
rom
roma
romagna
romagnolu
roman
romana
romanas
romance
romangia
romani
romania
romanica
romanicu
romanistischer
romanizatzione
romanna
romannola
romannolu
romano
romanos
romantica
romanticu
romantzu
romanu
romanus
romanza
romanzas
romanze
romanzi
romanzo
romanzos
romanzu
romasinu
rome
romenu
romeo
romeria
romunos
romunu
ron
ronald
ronaldo
rondalles
ronnie
room
rooney
roosevelt
roque
rosa
rosacee
rosada
rosalba
rosalia
rosanna
rosario
rosariu
rosas
rose
rosetta
rosi
rosone
ross
rossa
rossana
rosse
rossello
rossi
rossiglione
rossini
rosso
rossomori
rostock
rota
rotas
rotatzione
rotondo
rotore
rotterdam
roudometof
rouen
rouge
rough
round
router
routing
routledge
roux
rovelli
rover
rovereto
rovigo
rowe
roy
royal
royale
rp
rpg
rpm
rq
rr
rs
rsi
rss
rt
ru
ruanda
rubattu
rubini
rubino
rubiu
rubrica
ruby
ruche
rude
rudolf
rudy
ruere
ruet
ruga
rugby
ruggeri
ruggero
ruggiero
rughe
rugher
rughera
rughes
rugrada
rugradu
rugraiant
rugramentu
rugrare
rugrat
rugrende
ruida
ruidu
ruina
ruinas
ruiu
ruiz
ruja
rujas
rujos
ruju
rule
rules
rum
rumana
rumanu
rumena
rumenos
rumenu
run
runcu
running
ruolo
ruolos
ruolu
rurale
rurales
rus
rusconi
rush
rusia
russ
russa
russas
russell
russia
russian
russo
russos
russu
rusta
rustica
ruta
rutas
rutenia
rutenu
ruth
rutherford
rutta
ruttu
rutu
ruy
ruza
rv
rw
rx
ry
ryan
ryanair
ryuji
ryukyu
rz
rzeczpospolita
s
s0
s1
s2
s3
s4
s5
s6
s7
s8
s9
sa
saami
saar
saarbrucken
saarland
saba
sabadu
sabarussa
sabato
sabauda
sabaudi
sabaudos
sabaudu
sabbath
sabiduria
sabina
sabiu
sabore
sabores
sabori
sabrina
sabunadorgiu
sachigiada
sachigiadu
sachigiu
sachs
sachsen
sacra
sacramentu
sacras
sacrifitzios
sacrifitziu
sacro
sacros
sacru
sacrus
sacu
sad
sadako
saddam
sadru
sadurru
safety
saga
sagan
sage
saggi
saggiatore
saggio
saggista
saggiu
sagios
sagista
sagiu
sagra
sagrada
sagradu
sahara
sahariana
sahel
sahrawi
sai
said
saint
sakhalin
sal
sala
salamanca
salas
salazar
sale
salem
salentina
salento
salerno
sales
salgari
sali
salicornia
salida
salighe
saligheresu
salimbasarda
salinas
salinidade
saliosas
salis
salisbury
salomone
salone
salonico
salsa
salt
salto
saltu
salude
saludi
saludu
salusi
salusiu
salute
saluzzo
salvador
salvadore
salvagno
salvare
salvati
salvator
salvatore
salve
salvi
salvietti
salvo
salzburg
sam
samaga
samassi
samatzai
samba
sambenados
sambenadu
sambene
sambenosa
sambenosas
sambenosos
sambenosu
samfaina
sami
samma
samoa
samoanu
samsara
samuel
samuele
samugheo
san
sana
sanare
sanchez
sancta
sancti
sanctu
sandinista
sandokan
sandra
sandro
sangre
sangue
sanguni
sanidade
sanitaria
sanitarias
sanitarios
sanitariu
sanjust
sanluri
sanna
sanremo
sans
sanscritu
sanskrit
sant
santa
santadi
santana
santander
santandria
santas
santeru
santi
santiago
santis
santissima
santissimu
santo
santos
sants
santu
santuaine
santuandria
santuario
santuarios
santuariu
santugaine
santus
santziones
sanu
sao
saona
sapadu
sapegno
sapere
saperne
sapiens
sapienza
sar
sara
saraghinas
saraghinos
sarah
sarbadore
sarbana
sarcapos
sarcidanu
sarda
sardaigne
sardara
sardas
sarde
sardegna
sardegnacultura
sardegnadigitallibrary
sardegnaeventi
sardegnamagazine
sardegnaturismo
sardenya
sardgina
sardi
sardiana
sardianu
sardigna
sardinia
sardiniae
sardinian
sardiniapost
sardinien
sardinna
sardinnia
sardische
sardista
sardistas
sardo
sardofonos
sardonicu
sardorum
sardos
sardu
sardus
sarebbe
sarrabus
sarria
sars
sartiglia
sartos
sartre
sartu
sarule
sarvada
sarvadore
sarvadu
sarvamentu
sarvare
sarvat
sas
sasaki
saskatchewan
sassarese
sassaresu
sassari
sasser
sasso
sassofonista
sassofonu
sassone
sassonia
sassu
satellitare
satellitares
satellite
satellites
satira
satiras
satirica
satisfaghere
sato
satriani
satta
saturatzione
saturday
saturn
saturnu
satzerdote
satzerdotes
satzerdotu
saucu
saudita
sauron
saussure
savana
save
saviano
savina
savoia
savoias
savoie
savoja
savojas
savona
sax
saxophone
say
says
sb
sbn
sbs
sc
scacchi
scala
scale
scanner
scano
scanu
scappiamo
scarenna
scavi
scavu
sceberau
sceberu
scelta
scelte
scena
scenas
scene
scerrino
sceti
scetti
scheda
scheiwiller
schema
schengen
schenk
schermu
schermus
schirru
schleswig
schmidt
schmitt
schneider
scholars
school
schools
schopenhauer
schuster
schwarze
schwerin
sci
sciascia
scidada
science
sciences
scientific
scientifica
scientifico
scientificu
scienza
scienze
sciola
scipione
sciri
scoberta
scobertu
scola
scolas
scolastica
scomparsa
sconfitta
scoperta
scorta
scotia
scotland
scots
scott
scottish
scotzesu
scotzia
scova
scozia
scraffingiu
scripting
scriri
scrita
scritta
scritti
scritto
scrittore
scrittori
scrittu
scrittura
scritu
scritus
scuadra
scuadras
scudetu
scudu
scultura
sculture
scuola
scuole
sd
se
sea
seamonkey
sean
search
seas
season
seattle
sebastian
sebastiano
seberada
seberados
seberadu
seberant
seberare
seberat
seberos
seberu
sebestare
sec
secare
secchi
secci
seccio
secessione
sechestradores
sechestros
sechestru
sechi
secoli
secolo
secolu
second
seconda
secondo
seconds
secret
secreta
secretaria
secretariu
secretas
secretu
secuela
secuentzia
secuentzias
secuestros
secuestru
seculare
seculares
seculos
seculu
seculus
secunda
secundu
securitate
security
secustantzias
sed
seda
sedda
seddini
seddori
sede
sedes
sedi
sedilo
see
sefarditas
sega
segada
segadas
segadu
segai
segare
segat
seghende
segmentatzione
segmentos
segmentu
segni
segno
segnora
segnore
segre
segreda
segregatzione
segreta
segretariu
segreteria
segreti
segreto
segretos
segretu
segudada
segudadu
segudare
seguito
segulos
segulu
segun
segunda
segundaria
segundarias
segundarios
segundariu
segundos
segundu
segundus
segura
seguramente
seguramenti
segurantzia
seguras
seguresa
seguridade
seguridadi
seguros
seguru
segus
sei
seidorzos
seidorzu
seighi
seine
seis
sekai
selargius
selected
seletzioni
selezione
self
selis
sella
sellerio
selvagem
selvaggio
semantica
sembra
semene
semenes
semestene
semi
semicondutore
semifinale
seminarios
seminariu
semitica
semiticas
semiticu
semper
sempere
sempiri
semplice
semplici
semplitzemente
sempre
sempri
semus
sen
sena
senadore
senadori
senadu
senato
sende
sendi
seneca
senegal
seneghe
senes
senna
sennaru
sennora
sennore
sennores
sennoria
senora
senorbi
sensi
sensibile
sensibiles
sensibilidade
sensitivu
sensu
sententzia
sentenza
sentida
sentidos
sentidu
sentimental
sentimentos
sentimentu
sentire
sentit
sentza
senza
seoul
separada
separadas
separados
separadu
separare
separat
separatista
separatistas
separatzione
september
septentrionale
sepulcru
sepultadu
sera
serada
seradas
serafino
serafinu
serata
serba
serbariu
serbas
serbestianu
serbia
serbiant
serbiat
serbida
serbidore
serbidores
serbidu
serbint
serbire
serbit
serbitzios
serbitziu
serbocroatu
serbos
serbu
serena
serente
serentes
seret
serge
sergio
sergiu
seria
seriale
serias
serie
series
seriu
sero
serra
serrada
serradas
serrados
serradu
serramanna
serrano
serrare
serras
serrat
serrau
serreli
serri
server
serviat
service
services
servida
servidi
servire
servit
servitzios
servitziu
servitzius
ses
seschentos
sese
sesi
sessadu
sessagesimale
sessanta
sessione
sessiones
sessions
sessismu
sessos
sessu
sessuale
sessuales
sessuali
sessualidade
sesta
sestare
sesto
sestu
set
seta
setanta
sete
setembre
setentrionale
setentrionales
setentrionali
setentrione
seti
setighentos
setimanale
setimu
setore
setores
setori
setoris
settanta
sette
settecento
settembre
settentrionale
settentrionali
settentrione
setti
settimana
settimanale
settore
setzessione
setzida
setziduras
setzione
setziones
setzioni
seu
seui
seuil
seul
seulu
seus
seven
seventh
severa
severu
seveso
sevilla
sevres
sex
sexo
sexual
seychelles
sezione
sezzi
sf
sfida
sfinge
sfroos
sg
sgt
sguardo
sh
shades
shadow
shah
shakespeare
shangai
shanghai
shankar
shannon
shardana
share
sharif
sharp
shaw
shawn
she
shell
shenmue
sherman
sheva
shgb
shi
shigeaki
shigeo
shippey
shirley
shoah
shock
short
shorter
shoten
should
show
shows
shtml
shu
si
sia
siamo
sian
siant
sias
siat
siberia
sibilla
sic
sica
sicas
siccu
sich
siche
sichidore
sichin
sichinde
sichire
sichit
sichiu
sicilia
sick
sicomente
sicos
sicu
siculo
sicund
sicundu
sicurezza
sid
siddadu
siddat
side
sidi
sidney
sidore
sie
siecle
siena
sienda
siendas
siendi
sientifica
sientificas
sientificos
sientificu
sientificus
sientzia
sientzias
sierra
siet
siete
sighende
sighendi
sighent
sighente
sighentes
sighenti
sighentis
sighet
sighi
sighia
sighiant
sighiat
sighida
sighidas
sighidi
sighidore
sighidores
sighidos
sighidu
sighidura
sighinde
sighint
sighire
sighiri
sighit
sighiu
sigismondo
sigla
siglo
sigmund
sign
signada
signadu
signal
signalare
signalat
signale
signales
signat
significados
significadu
significare
significat
significativa
significativas
significativos
significativu
significato
significau
significu
signor
signora
signore
signorelli
signori
signoria
signos
signs
signu
sigomente
sigomenti
sigumenti
sigunda
sigundu
siguramente
sigurd
siguru
sil
silanos
silanus
silence
silent
silenzio
siliciu
silicon
silicua
silighe
siligo
silitziu
silki
silla
sillaba
sillabas
silmarillion
silurzia
silva
silvana
silver
silvestri
silvia
silvio
simaghis
simbigiante
simbigiantes
simbolica
simbolicas
simbolicu
simbolu
simbulos
simbulu
simigiante
simigiantes
simile
similes
simili
simon
simona
simone
simonon
simpatia
simple
simplemente
simples
simpli
simplitziu
simpre
simpremente
simpres
simpson
simula
sin
sinai
since
sinche
sindacadu
sindacale
sindacalista
sindaco
sindia
sindigos
sindigu
sindria
sindrome
sinfonia
sing
singapore
singia
singias
singiat
single
singles
sings
singula
singulare
singulares
singulas
singulos
singulu
singurto
sini
sinis
siniscola
sinistra
sinistru
sinnada
sinnadu
sinnaladu
sinnalat
sinnale
sinnales
sinnali
sinnare
sinnat
sinnia
sinnificat
sinnificu
sinnifigat
sinnifigu
sinnis
sinnos
sinnu
sinnus
sino
sinodicu
sinonimos
sinonimu
sinoticu
sinotticu
sint
sintassi
sintesi
sinteticu
sintetizadu
sintomos
sintzillamente
sintzillu
sinu
sinzadu
sinzale
sinzolamentos
sion
sionismu
siotto
sioux
siprage
sir
siracusa
sirai
sirbones
sirca
siria
sirigu
sirio
siro
sirvia
sisini
sisinnio
sistema
sistemas
sistematica
sistematicu
sit
sitar
site
sites
siti
sitiadu
sito
sitos
situ
situada
situadas
situados
situadu
situassione
situassiones
situat
situatzione
situatziones
situatzioni
situazione
situazioni
sitzilia
sitziliana
sitzilianos
sitzilianu
sitzilias
siviglia
six
sizende
sizidu
sizire
sizit
sj
sk
ska
sketches
sky
sl
slam
slava
sleeping
slogan
slovenia
sls
sm
small
smallpox
smart
smartphone
smarty
smeralda
smile
smirne
smith
smoke
smrl
sms
smtp
sn
snake
sncf
snow
so
soberana
soberania
soberanos
soberanu
sobi
sobrada
sobre
socedari
social
sociale
sociales
sociali
socialismo
socialista
sociedadi
societa
societe
society
socio
sociolinguistica
sociologia
socrate
sodale
soddos
soddu
sodiu
sofia
sofocle
soft
softball
software
soggetto
sogni
sogno
sogus
soi
sol
sola
solar
solare
solari
solaris
solas
soldados
soldati
soldato
soldi
sole
soledad
soledade
soleminis
solenne
soli
solianos
solida
solidariedade
solidos
solidu
solinas
solista
solita
solitario
solitu
solitude
solitudine
sollai
solmi
solo
solos
solstitziu
solu
solutzione
solutziones
solutzioni
somalia
somaliland
somalos
somalu
some
somebody
something
somewhere
somme
son
sonada
sonadas
sonadore
sonadores
sonadori
sonadoris
sonadu
sonaiat
sonant
sonare
sonat
sonda
sondagiu
sondas
sonende
sonete
song
songs
sonnu
sonny
sono
sonora
sonoras
sonos
sons
sonu
sonus
sony
soon
sophia
sophie
sopra
soprano
sopranu
soprattutto
soprintendenza
sor
soraba
sorabos
sorabu
sorbona
sordados
sordadu
sordaos
sordau
sordaus
sorgente
sorgia
sorgono
soriga
sorighe
sorighes
sorpresa
sorradile
sorre
sorres
sorri
sorso
sorte
sortes
sorti
soru
sos
sossu
sostituende
sostituidos
sostituidu
sostituire
sostratu
soter
sotgiu
sotho
sotto
sotzialdemocraticu
sotziale
sotziales
sotziali
sotzialis
sotzialismu
sotzialista
sotzialistas
sotziedade
sotziedades
sotziedadi
sotziedadis
sotzietade
sotzio
sotziolinguistica
sotziologia
sotziologica
sotziologicu
sotzios
sotziu
sou
soul
souls
sound
sounds
soundtrack
source
sources
south
southern
soviet
sovietica
sovieticas
sovieticos
sovieticu
sovietiga
sovrana
sovranita
soziedade
sp
spa
space
spacecraft
spada
spagna
spagnola
spagnolo
spagnolu
spain
spainadura
spainau
spandau
spanish
spannia
spanniola
spanniolu
spano
spantosa
spanu
sparau
sparc
spargi
spatziu
spazio
speaker
speakers
specchio
special
speciale
speciali
specialmenti
specie
species
specificadu
speed
spencer
spendula
speranza
sperimentale
spetat
spettacolo
spetzialmente
spezia
speziale
spezzigu
spiaggia
spidali
spiegai
spiegel
spiga
spin
spina
spingete
spirit
spirito
spiritu
spiritual
spirituali
splasc
split
spoken
spoon
sport
sportiva
sportivo
sports
sposa
sposi
spot
sprache
spraxidura
sprea
sprigu
spring
springer
springfield
springs
sq
sqrt
squadra
squadras
square
squeaky
sr
srabadoi
srd
sri
srl
ss
ssa
ssl
ssu
st
sta
stabilessiu
stabili
stada
stadio
stadiu
stadium
stadt
stadu
stadunidensu
stadunitensi
stadus
staff
stafford
stagione
stagioni
staini
stajone
staley
stalin
stallings
stallman
stampa
stampaxi
stamperia
stampu
stan
stand
standard
standardizzazione
standards
stanford
stanis
stanislavski
stanley
stanza
star
stare
starkey
starr
stars
start
startup
stasi
stasoni
stata
state
statement
states
stati
station
stations
statistica
statistical
statistico
statistics
stato
statua
statue
statunitensi
status
statuto
statzioni
statzionis
stau
staus
stay
stazione
steam
steddu
steeplechase
stefania
stefanija
stefano
stein
stele
stella
stelle
stemma
stendhal
step
stephane
stephen
sterling
stern
sterria
stesiada
stesiat
stessa
stesso
stetia
stetias
stetiu
stetius
stettia
stettiu
steve
steven
stevens
stevenson
stevini
stewart
stifler
stig
stigma
stijl
stile
stili
still
stills
stima
sto
stoccarda
stoccolma
stone
stones
stonewall
stop
store
stores
storia
storica
storiche
storici
storico
storicu
storicus
storie
stories
storiografia
storm
story
strada
strange
strangers
stranieri
straordinaria
strauss
straße
streaming
street
streghe
strike
strings
strintu
striscia
structure
strumenti
strumentu
strumentus
strummer
struttura
strutturale
strutura
struturas
stuart
studente
studentessi
studenti
studi
studiai
studianti
studiantis
studiau
studies
studio
studios
studiu
studius
study
stuttgart
[...]
