!
"
#
##0
##1
##10
##11
##12
##13
##14
##15
##16
##17
##18
##19
##2
##20
##21
##22
##23
##24
##25
##26
##27
##28
##29
##3
##30
##31
##32
##33
##34
##35
##36
##37
##38
##39
##4
##40
##41
##42
##43
##44
##45
##46
##47
##48
##49
##5
##50
##51
##52
##53
##54
##55
##56
##57
##58
##59
##6
##60
##61
##62
##63
##64
##65
##66
##67
##68
##69
##7
##70
##71
##72
##73
##74
##75
##76
##77
##78
##79
##8
##80
##81
##82
##83
##84
##85
##86
##87
##88
##89
##9
##90
##91
##92
##93
##94
##95
##96
##97
##98
##99
$
%
&
'
(
)
*
+
,
-
.
/
0
00
000
001
002
003
004
005
006
007
008
009
01
010
011
012
013
016
019
02
023
025
03
034
04
05
050
055
06
07
070
08
080
09
1
10
100
1000
1005
101
1012
1015
1016
1017
102
103
1030
1038
104
105
1050
1054
106
1065
1066
107
1073
108
1089
109
1090
1095
1096
1098
11
110
1100
1103
111
1110
1112
1113
112
1126
1127
113
1130
1138
114
1144
115
116
1163
1164
117
1172
1173
118
1183
1185
1188
119
1190
1191
1192
1193
1195
1198
12
120
1200
1203
1204
1206
1207
121
1214
1215
1216
1217
1218
122
1224
1225
1228
123
1232
1233
1237
1238
124
125
1250
1255
1256
1257
1258
1259
126
1261
1264
1265
1268
127
1270
1272
1274
1275
1278
128
1282
1284
1287
1288
1289
129
1295
1297
1299
13
130
1300
130000
1302
1308
131
1314
1316
1317
1319
132
1321
1323
1324
1325
1326
1327
1329
133
1331
1334
1335
1336
1337
1339
134
1341
1343
1347
1348
135
1350
1353
1354
1355
1358
136
1362
1363
1365
1368
1369
137
1375
1376
1377
1378
138
1383
1386
1387
1388
139
1390
1391
1392
1395
1396
1397
14
140
1400
1403
1404
1407
1408
1409
141
1410
1412
1414
1415
1416
142
1420
1421
1424
1427
143
1431
1436
144
1448
1449
145
1450
1453
1455
1456
1458
146
1468
1469
147
1470
1475
1476
1477
1478
1479
148
1482
1485
149
1492
1493
1494
1496
1497
1499
15
150
1500
1502
1503
1504
1505
1507
1508
1509
151
1511
1512
1514
1516
1517
1518
1519
152
1520
1521
1523
1526
1528
153
1533
1534
1535
1536
1538
154
1540
1541
1542
1543
1544
1548
155
1550
1555
1556
1558
156
1563
1564
1566
1567
1568
157
1570
1571
1572
1573
1574
1577
1578
158
1580
1581
1582
1584
1588
1589
159
1594
1595
1596
1597
16
160
1600
1601
1602
1603
1604
1605
1607
1608
1609
161
1610
1614
1615
1616
1617
1618
162
1620
1621
1622
1623
1624
1625
1626
1627
163
1630
1631
1634
1636
1637
1639
164
1640
1641
1642
1643
1644
1648
165
1650
1651
1652
1653
1654
1655
1656
1657
166
1665
1667
1668
167
1672
1674
1675
1678
168
1680
1681
1683
1685
1690
1691
1697
17
170
1700
1701
1706
1707
1708
171
1711
1713
1714
1715
1716
1717
1718
1719
172
1720
1724
1726
173
1730
1732
1737
1738
174
1740
1748
1749
175
1750
1751
1752
1753
1755
1756
1758
1759
176
1760
1761
1762
1763
1764
1765
1767
1768
1769
177
1770
1772
1773
1774
1775
1776
1777
1778
178
1780
1782
1783
1785
1786
1787
1788
1789
179
1790
1791
1792
1793
1794
1795
1796
1797
1798
1799
18
180
1800
1801
1802
1803
1804
1805
1806
1807
1808
1809
181
1810
1811
1812
1813
1814
1815
1816
1818
1819
182
1820
1821
1822
1823
1824
1825
1826
1827
1828
1829
183
1830
1831
1832
1833
1834
1835
1836
1837
1838
1839
184
1840
1841
1842
1843
1844
1845
1846
1847
1848
1849
185
1850
1851
1852
1853
1854
1855
1856
1857
1858
1859
186
1860
1861
1862
1863
1864
1865
1866
1867
1868
1869
187
1870
1871
1872
1873
1874
1875
1876
1877
1878
1879
188
1880
1881
1882
1883
1884
1885
1886
1887
1888
1889
189
1890
1891
1892
1893
1894
1895
1896
1897
1898
1899
19
190
1900
1901
1902
1903
1904
1905
1906
1907
1908
1909
191
1910
1911
1912
1913
1914
1915
1916
1917
1918
1919
192
1920
1921
1922
1923
1924
1925
1926
1927
1928
1929
193
1930
1931
1932
1933
1934
1935
1936
1937
1938
1939
194
1940
1941
1942
1943
1944
1945
1946
1947
1948
1949
195
1950
1951
1952
1953
1954
1955
1956
1957
1958
1959
196
1960
1961
1962
1963
1964
1965
1966
1967
1968
1969
197
1970
1971
1972
1973
1974
1975
1976
1977
1978
1979
198
1980
1981
1982
1983
1984
1985
1986
1987
1988
1989
199
1990
1991
1992
1993
1994
1995
1996
1997
1998
1999
2
20
200
2000
200000
2001
2002
2003
2004
2005
2006
2007
2008
2009
201
2010
2011
2012
2013
2014
2015
2016
2017
2018
2019
202
2020
2021
2022
203
204
205
206
207
208
209
21
210
2100
211
212
213
214
215
216
217
218
219
22
220
222
223
224
225
2250
226
227
228
229
23
230
231
232
233
234
235
236
237
238
239
24
240
2400
241
242
243
244
245
246
247
248
249
25
250
2500
25000
251
252
253
254
255
256
257
258
259
26
260
2600
261
262
263
264
265
266
267
268
269
27
270
2700
271
272
273
274
275
2750
276
277
278
279
28
280
2800
281
2819
282
283
284
285
286
287
288
289
29
290
291
292
293
294
295
296
297
298
299
3
30
300
3000
301
302
303
304
305
306
307
308
309
31
310
311
312
313
314
315
316
317
318
319
32
320
3200
321
322
323
324
325
3250
326
327
328
329
33
330
3300
331
332
333
334
335
336
337
338
339
34
340
3400
341
342
343
344
345
346
347
348
349
35
350
3500
351
352
353
354
355
356
357
358
359
36
360
361
362
363
364
365
366
367
368
369
37
370
371
372
373
374
375
376
377
378
379
38
380
381
382
383
384
385
386
387
388
389
39
390
391
392
393
395
396
397
398
399
4
40
400
4000
4004
402
403
404
405
408
409
41
410
411
412
414
415
416
417
418
419
42
420
421
422
424
426
428
43
430
431
432
433
434
435
437
44
440
441
442
444
445
45
450
4500
451
452
454
455
456
457
458
459
46
460
461
462
464
465
466
467
468
47
470
472
475
4750
476
477
478
48
480
482
484
49
490
491
492
494
495
496
499
5
50
500
5000
501
506
51
510
514
516
518
52
520
521
522
523
525
526
527
529
53
530
533
534
535
536
54
540
541
542
544
545
549
55
550
551
552
553
554
555
56
560
563
565
568
57
570
571
572
576
577
578
58
580
581
582
583
584
586
588
59
590
591
594
595
599
6
60
600
6000
602
603
604
605
609
61
610
612
62
620
622
625
626
627
628
629
63
632
634
636
639
64
640
641
645
646
648
649
65
650
652
66
660
661
669
67
670
671
676
677
678
679
68
680
6800
68000
68020
6809
681
682
69
690
692
694
696
698
7
70
700
7000
701
704
705
709
71
711
7138
717
718
72
720
727
73
730
731
737
738
74
740
741
745
746
75
750
751
752
753
76
760
763
766
77
771
774
777
778
78
79
792
793
794
797
798
8
80
800
8000
80000
802
803
806
807
8080
81
810
812
813
814
815
816
82
820
821
822
827
829
83
84
840
8400
848
85
850
851
854
857
86
860
862
864
87
870
871
878
88
880
881
89
9
90
900
903
91
911
912
914
918
92
920
922
924
925
926
93
930
932
934
936
937
938
94
942
943
945
947
949
95
950
951
957
959
96
960
961
962
963
967
968
969
97
970
971
973
974
975
977
978
979
98
980
981
982
983
984
986
988
988867
989
99
990
992
995
997
998
999
:
;
<
=
>
?
@
\
^
_
`
a
aa
aaron
aavv
ab
aba
abade
abadia
abaidare
abaliadu
abandonada
abandonadu
abandonare
abandonu
abarrada
abarradas
abarrados
abarradu
abarrai
abarraiant
abarraiat
abarrant
abarrare
abarrat
abarrau
abarraus
abarrende
abarret
abarros
abarru
abas
abasatu
abasciamentu
abate
abba
abbadia
abbafortes
abbaidadu
abbaidare
abbaidende
abbandonada
abbandonadas
abbandonados
abbandonadu
abbandonare
abbandonat
abbandonende
abbandonu
abbarrada
abbarrados
abbarradu
abbarrai
abbarrant
abbarrare
abbarrat
abbas
abbasanta
abbasso
abbatzia
abbe
abbellu
abbentu
abbentura
abberu
abbey
abbi
abbia
abbiamo
abbigiadu
abbiso
abbistada
abbistesa
abbistu
abbocadu
abbogau
abbolo
abbolotos
abbolotu
abbotzu
abbratzaiad
abbreviadu
abbreviatzione
abbundante
abc
abca
abd
abdicadu
abdicatzione
abdul
abe
abealzu
abeba
abel
abele
abellinu
abelzu
abentura
aberdeen
aberende
aberiant
aberiat
aberint
aberit
aberrer
aberrere
aberta
abertamente
abertas
abertos
abertu
abertura
aberturas
abes
abetare
abetat
abi
abia
abiadu
abicoltura
abidjan
abile
abilesa
abilidade
abilidadi
abini
abioportos
abioportu
abis
abiso
abistesa
abitada
abitadas
abitadores
abitados
abitadu
abitaiant
abitaiat
abitant
abitantes
abitanti
abitantis
abitare
abitativu
abitatzione
abitau
abito
abitu
abituale
abjad
abo
abogada
abogados
abogadu
abogau
abogaus
abolida
abolidu
abolire
abolitzione
abolotos
abolotu
abori
aboriginal
abortos
abortu
about
abraham
abramo
abrams
abratzat
abratzeddu
abreviadu
abri
abril
abrile
abrili
abrutzu
abruzzo
abside
abu
abuja
abundante
abundosu
abusos
abusu
ac
aca
acabada
acabadas
acabadora
acabados
acabadu
acabai
acabaiat
acabant
acabar
acabare
acabari
acabat
acabau
acabbada
acabbant
acabbare
acabbat
acabbau
acabbu
acabos
acabu
acade
academia
academic
academiuta
academy
acadianos
acalasc
acampamentu
acanta
acapiada
acapiadas
acapiados
acapiadu
acapiadura
acapiare
acapiau
acapiaus
acapios
acapius
acaradu
acarare
acarat
acarende
acas
acasa
acasagiados
acasagiadu
acasagiaiat
acasagiare
acatadu
acatamentos
acatamentu
acatare
acatat
acatende
acattare
acca
accabada
accabadora
accabbu
accademia
accademicu
accadit
accanta
accattone
access
accioccu
acciungi
accoddi
accordion
accordiu
accordu
account
accra
accu
accudi
accudire
accumpagnamentu
accumpanzat
accusadu
ace
aceleratzione
aceleratzioni
acentu
acessu
acheuleanu
achille
achirida
achiridas
achiridos
achiridu
achirimentu
achirire
achirit
achistu
achita
acid
acireale
aco
acollidu
acollire
acollit
acometada
aconcadu
aconte
acontessat
acontessent
acontesser
acontesset
acontessiat
acontessida
acontessidas
acontessidu
acontessimentos
acontessimentu
acontessint
acontessit
acontzada
acontzadu
acontzare
acontzu
acordadu
acordiu
acordius
acordos
acordu
acos
acosidu
acosta
acostada
acostadu
acostagiada
acostagiadu
acostai
acostamentu
acostare
acostat
acostumados
acqua
acrarai
acrarimentu
acrarire
acreschimentu
acro
acronimu
act
acta
actes
action
active
actors
acu
acua
acudiant
acudiat
acudint
acudit
acuedutu
acuistu
acumpa
acumpangiada
acumpangiadu
acumpangiamentu
acumpangiare
acumpangiau
acumpensos
acumpensu
acumpriant
acumprida
acumpridos
acumpridu
acumprimentu
acumprint
acumprire
acumprit
acunte
acuntessi
acuntessimentos
acuntessimentu
acuntessimentus
acuntessit
acurtziare
acusa
acusados
acusadu
acusas
acusativu
acussorgiados
acustica
acusticu
ad
ada
adam
adamo
adams
adamson
adata
adatada
adatadas
adatadu
adatamentos
adatamentu
adatare
adatas
adatos
adattu
adatu
adda
addae
addaghi
addanniada
adde
adderettu
adderettura
adderetzare
addesegus
addestramentu
addetos
addio
addiritura
addis
additzionale
additzionales
addo
addobiadu
addobiare
addurat
ade
adecuadu
adeguada
adeguadu
adela
adelaide
adelantada
adelantadas
adelantamentu
adelasia
adelchi
adelphi
aden
aderetada
aderetadore
aderetadu
aderetare
aderetat
aderetu
aderidu
aderint
aderit
ades
adesione
adesivos
adesivu
adi
adiabatica
adieux
adige
adillida
adiosos
adiosu
adis
adn
ado
adobbadu
adobbende
adobiadu
adobiare
adolescentes
adolf
adolfo
adotada
adotadas
adotados
adotadu
adotant
adotare
adotat
adotau
adotiva
adotivu
adottant
adottat
adotzione
adria
adrian
adriana
adriano
adu
adult
adulta
adultos
adultu
aduna
advanced
adventure
adventures
advice
ae
aende
aendi
aequo
aer
aera
aere
aerent
aereo
aereona
aereoporto
aeret
aero
aeronautica
aeroplanos
aeroplanu
aeroporto
aeroportos
aeroportu
af
afa
afaca
afacca
afares
afaris
afatante
afestat
afestau
afetos
afetu
affa
affabulazione
affaca
affacca
affairs
affaris
affettu
affinche
affirmat
afgana
afganista
afganos
afganu
afi
afiantzadu
afiantzare
aficu
afida
afidada
afidadu
afidat
afigurant
afilados
afiladu
afilare
afilende
afiliatzione
afines
afirmadu
afirmadura
afirmaiat
afirmant
afirmare
afirmat
afirmatzione
afirmatziones
afirmende
afitu
afluente
afluentes
aflussu
afo
afortiada
afortiados
afortiadu
afortiamentu
afortiare
afortigadas
afortigadu
afortigare
afracada
afracadas
afracadu
afracare
africa
africadas
african
africana
africanas
africanos
africanu
afrikaans
afriscos
afriscu
afriscus
afro
afroamericanos
afroamericanu
afrontai
afrontant
afrontare
after
afternoon
afundat
ag
aga
agabadu
agabbada
agabbadu
agabbadura
agabbare
agabbat
agabbu
agabu
again
against
agalbursa
agassi
agata
agatada
agatadas
agatados
agatadu
agatai
agataiant
agataiat
agatamentos
agatamentu
agatamus
agatan
agatana
agatant
agatare
agatat
agatau
agataus
agatende
agatendi
agatent
agatet
agattada
agattai
agattant
agattare
agattat
agatu
age
agency
agent
agente
agentes
agenti
agentis
agentzia
agentzias
agetivos
agetivu
aggantzos
agganzos
aggiudu
agh
aghedu
aghera
agiografia
agiomai
agiornada
agiornadas
agire
agit
agiu
agiuadu
agiuare
agiudada
agiudados
agiudadu
agiudant
agiudare
agiudat
agiudau
agiudicadu
agiudos
agiudu
agiumai
agiunghende
agiunghet
agiunghiat
agiunta
agiuntas
agiuntos
agiuntu
agli
agnelli
agnesa
agnese
agnetha
agnone
agoa
agonia
agorru
agostini
agostino
agostinu
agosto
agra
agrabiados
agrabiadu
agradaiant
agradat
agrade
agraria
agregadu
agressione
agreste
agrestes
agri
agricola
agricoltura
agricultura
agrigento
agriturismos
agro
agroalimenta
agru
agrupadas
agrupados
agrupamentos
agrupamentu
agrupat
agu
agua
agualat
aguale
aguales
agualidade
aguantadu
aguantare
aguarmente
aguda
agudu
aguilar
agus
agusti
agustu
ah
ahmed
ahmet
ai
aia
aiad
aiada
aiais
aian
aiana
aiant
aias
aiat
aicci
aici
aidi
aids
aimara
aime
ain
aina
ainas
aine
ainnantis
aint
aintru
ainu
aioli
air
aires
airlines
airways
ais
aise
ait
aiuto
aja
ajaccio
ajacciu
ajaja
ajaju
ajedrez
ajo
ajudu
ak
aka
akira
al
ala
alabama
alabatu
alacant
alago
alagon
alain
alamos
alan
alas
alasdair
alaska
alavi
alb
alba
albacete
albanesa
albanesas
albanese
albanesi
albanesos
albanesu
albania
albany
albergo
albergos
albergu
albero
albert
alberta
alberti
albertinu
alberto
albertu
albino
albrecht
albu
albufera
album
albums
albuquerque
alca
alcala
alcalinu
alcanada
alchimia
alco
alcol
alcolismu
alcudia
alcun
alcune
alcuni
aldara
aldo
ale
alectoris
alejandro
aleksandr
alema
alemannas
alemannos
alemannu
alena
aleni
alenu
aleria
ales
alessa
alessandra
alessandria
alessandro
alessio
alex
alexander
alexandre
alfa
alfabe
alfabetizatzione
alfabeto
alfabetos
alfabetu
alfonso
alfonsu
alfred
alfredo
alga
alge
algebra
algeri
algeria
algerina
algerinos
algerinu
algherese
alghero
algoritmos
algoritmu
alguer
alguere
ali
alias
alicante
alice
alicia
alida
alienu
alienus
aligaresos
aligaresu
alighe
alighera
aligheresa
aligheresos
aligheresu
alighieri
align
alignbars
alii
alimenta
alimentadu
alimentadura
alimentant
alimentare
alimentares
alimentat
alimentatzione
alimentos
alimentu
alindat
alison
alitalia
alive
all
alla
allacanat
alladiadura
allagamentos
allah
allai
allan
allargada
allargadu
allarmadu
allarme
alle
allea
alleada
alleados
alleadu
allega
allegada
allegadas
allegados
allegadu
allegare
allegas
allegat
allegau
allego
allegoria
allen
allenadore
allenamentu
allenare
allende
allestimentu
allestrada
allevada
allevadores
allevadu
allevamento
allevamentu
alley
alli
allia
alliada
alliadas
alliados
alliadu
alliance
alliantzia
alliberamentu
allievi
allievu
alligru
allindada
allindadu
alliniados
alliniamentu
alliniatzione
allison
allium
allmusic
allo
allogare
allongada
allongadu
allonghiada
allora
allu
allughet
alluidura
allumada
allumi
allutu
alluvionale
almanzor
almeno
almirante
alo
alone
alonso
alonzo
alpes
alpha
alphonse
alpi
alpina
alpinos
alpinu
alpis
alpitour
alps
als
alsa
alsatzianu
also
alt
alta
altamente
altana
altara
altare
altares
altari
altaria
altea
alter
alteratzione
alteratziones
alteridade
alternados
alternativa
alternativas
alternative
alternativu
alternos
altipianu
alto
altos
altra
altre
altri
altro
altu
altura
alturas
altzaghena
alunnos
alunnu
alvaro
alve
alvos
alvure
alzheimer
alziator
am
ama
amada
amadeo
amadeus
amados
amadu
amanda
amaniadore
amaniadu
amaniadura
amaniare
amanniau
amante
amantes
amanti
amantio
amantiosos
amantiosu
amaranta
amare
amari
amaricu
amaro
amat
amato
amaus
amazon
amb
ambaduas
ambaduos
ambas
ambasciada
ambasciadas
ambasciadore
ambasciadores
ambi
ambidda
ambientada
ambientadas
ambientadu
ambientale
ambientales
ambientali
ambientalista
ambientalistas
ambiente
ambientes
ambienti
ambiguidade
ambito
ambitu
ambitziosa
amblyocarenum
ambos
ambosduos
ambrogio
ambrosio
ambrosu
amburgo
amburgu
amd
ame
amedeo
amedeu
amelia
amelio
amellorai
amen
amendola
amentare
amentat
ameri
america
american
americana
americanas
americano
americanos
americanu
americanus
americas
amerigana
ameriganos
ameriganu
amerigo
amerigu
amerindia
amesturu
ami
amici
amicizia
amico
amicos
amicu
amiens
amiga
amigantzia
amigas
amighe
amigos
amigu
amigus
amin
aministra
aministradori
aministratzioni
amistade
amistosa
amistosas
amleto
amma
ammajadore
ammanca
ammancat
ammancu
ammaniada
ammaniados
ammaniadu
ammaniare
ammaniat
ammanniada
ammanniadu
ammanniamentu
ammanniare
ammasedare
amme
ammenta
ammentada
ammentados
ammentadu
ammentai
ammentaiat
ammentamus
ammentant
ammentare
ammentat
ammentende
ammentos
ammentu
ammentuados
ammentuadu
ammesturada
ammesturadas
ammesturados
ammesturadu
ammesturare
ammesturu
ammi
amministrada
amministradore
amministradores
amministrados
amministradu
amministradura
amministrare
amministrat
amministrativa
amministrativamente
amministrativas
amministrativos
amministrativu
amministratzione
amministratziones
amministratzioni
amministrazione
amminoa
ammira
ammirallu
ammirare
ammiratzione
ammissione
ammisturada
ammisturu
ammitent
ammitet
ammitiat
ammostant
ammostat
ammostu
ammuntada
ammuntadore
ammuntadu
ammuntaiat
ammuntant
ammuntare
ammuntat
ammuntende
ammuntonamentu
ammustra
ammustrados
ammustradu
ammustraiat
ammustrant
ammustrare
ammustrat
ammustrende
amnesty
amnistia
amo
among
amor
amorada
amoradu
amorat
amore
amores
amori
amorosa
amos
amostai
amostant
amostat
amostau
amour
amparada
amparadas
amparadora
amparados
amparadu
amparare
amparat
amparau
amparos
amparu
ampe
ampere
ampliata
ampra
ampramente
ampras
ampros
ampru
ampsi
ampsicora
ampu
ampulla
ampurias
amsicora
amsterdam
amtrak
amu
amus
amy
an
ana
analfabetismu
anali
analisi
analista
analistas
analizadu
analizare
analizende
analogia
analogias
analysis
ananti
anarchia
anarchicos
anarchicu
anarchismu
anasta
anastasia
anato
anatomia
anatra
anca
ancas
anch
anche
anchieta
anchor
ancient
anco
ancona
ancora
ancoras
ancu
and
anda
andada
andadas
andados
andadu
andai
andaiant
andaiat
andalusia
andalusu
andamentu
andamus
andan
andande
andant
andanta
andare
andari
andas
andat
andau
andaus
ande
andende
andendi
andere
anders
andersen
anderson
andersson
andes
ando
andorra
andre
andrea
andreas
andreolu
andreotti
andreotto
andres
andreu
andrew
andri
andria
andriy
android
andu
andy
ane
anedda
aneddos
aneddu
anela
anemia
aneto
anfiteatru
anfitrione
ange
angel
angela
angeles
angeli
angelini
angelis
angelo
angels
angena
anghelos
anghelu
angio
angione
angioni
angiou
angioy
angius
angle
anglicana
anglicanu
anglo
anglona
anglosa
angola
anguidda
anguilla
angulare
anhalt
ani
anibal
anidridi
anima
animada
animados
animadu
animal
animale
animales
animali
animalis
animalismu
animalista
animare
animas
animassione
animation
animatzione
animatziones
anime
animu
anita
anitzetu
ankylosaurus
ann
anna
annada
annales
annali
annanghedoras
annanghende
annanghet
annanta
annantas
annantos
annantu
annarita
anne
annessionada
annessionadas
annessionadu
annessionadura
annessione
annestru
anni
annichilamentu
annie
anninnia
anniversa
anniversary
anno
annoaduras
annoamentos
annoamentu
annoare
annoditzare
annos
annoscategoria
annotamala
annotated
annotos
annotu
annu
annua
annuale
annuales
annuali
annullada
annulladu
annullamentu
annullare
annuntziada
annuntziadu
annuntziare
annuntziau
annuntziende
annunzio
annus
ano
anonimadu
anos
another
ans
ansa
ansas
ansea
anselmo
ant
anta
antas
ante
anten
antennas
antepassada
antepassados
antepassadu
anteposta
antepostas
antepostos
antepostu
anteprima
antequera
anteriora
anteriore
anteriores
anteriormente
antetzedentes
anthology
anthony
anti
antiae
antibio
antica
anticas
antiche
antichidade
antichidadi
antico
anticomunista
anticos
anticu
antifascismu
antifascista
antifascistas
antifeudale
antiga
antigamente
antigas
antighidade
antighidades
antighidadi
antigo
antigone
antigoriu
antigos
antigu
antigua
antigus
antillas
antimes
antimo
antine
antio
antiochia
antioco
antiogu
antis
antisemita
antivirus
anto
antofagasta
antoine
antolo
antologia
antologias
anton
antona
antonella
antonello
antonellovenditti
antoni
antonia
antonietta
antonino
antoninu
antonio
antonoma
antro
antropo
antropolo
antropologia
antropomorfas
antzianismu
antzianos
antzianu
antzis
anu
any
anzelu
anzone
anzu
ao
aorru
aosta
aoste
ap
apa
apache
apaghiamentu
apaghiare
apais
apalacos
apamus
apant
aparadu
aparatos
aparatu
aparatus
aparcadorzu
aparcamentu
apare
aparente
aparessent
aparesset
aparessiat
aparet
aparint
aparit
aparitzadu
aparitzaiat
aparitzione
aparitziones
aparitzos
aparitzu
apartamentu
aparte
apartene
apartenent
apartenente
apartenet
aparteniant
aparteniat
apartenit
apartheid
apartu
apas
apassionadu
apat
apatridia
ape
apeadorzu
apellativu
apellu
apenas
apendi
apenditze
apenninos
apenninu
apenninus
apensamentadu
aperitivu
aperta
aperte
aperto
apertu
apetus
aphrodite
api
apia
apiant
apias
apiat
apicadu
apidu
apitzu
apitzus
apiu
aplica
aplicada
aplicadas
aplicadu
aplicare
aplicatzione
aplicatziones
aplicatzioni
aplicatzionis
aplichende
apo
apocalisse
apoderada
apoderadu
apoderadura
apoderaiat
apoderamentu
apoderare
apoderat
apoi
apojadu
apolinar
apollo
apollonia
apompiadu
apompiare
aporriat
aporrida
aporridos
aporridu
aporrit
aportu
aposentada
aposentadas
aposentados
aposentadu
aposentamentos
aposentamentu
aposentare
aposentos
aposentu
aposentus
aposti
aposto
apostolo
apostolu
apostrofada
apostrofadu
app
appare
apparentzia
apparsi
apparte
appena
appenas
appendice
appennino
appice
appidu
apple
application
appoderamentu
appoi
appretziada
appunti
appuntu
appustis
apre
apretu
apretziada
apretziados
apretziadu
apretziare
apricada
aprigadu
aprigadura
aprigu
april
aprile
apro
aprofetamentu
aprofetende
aprofitende
aproghilende
aproliados
aproliant
aprontadu
aprontare
aprossimada
aprossimadamente
aprossimativa
aprovada
aprovadas
aprovados
aprovadu
aprovat
aprovatzione
apu
apuane
apuntu
apustis
aqua
aquila
aquileia
aquino
ar
ara
araba
arabos
arabu
arabus
aracataca
arago
aragona
aragone
aragonesa
aragonesas
aragonese
aragonesi
aragonesos
aragonesu
aragonesus
aral
aramaicu
aran
arantzu
aranzu
araolla
arasole
aratzos
arba
arbanesa
arbare
arbarea
arbaree
arbarees
arbarei
arbaresa
arbaresos
arbaresu
arbatassa
arbatax
arbe
arbeghes
arbi
arbili
arbitra
arbitru
arbore
arborea
arboree
arborense
arboresos
arboresu
arbos
arbu
arbum
arbure
arbures
arburesa
arbus
arbustu
arc
arca
arcadas
arcadia
arcadio
arcanu
arce
arch
archaea
archaeology
arche
archeas
archeo
archeolo
archeologia
archeologica
archeologicos
archeologicu
archeologos
archeologu
archi
archibiscamu
archidio
archimede
archipe
archipi
architects
architectural
architecture
architeto
architetos
architetto
architettos
architettu
architettura
architetu
architetura
architeturas
archive
archivio
archivios
archiviu
arci
arcidio
arcipe
arcipelagu
arcipi
arcivescovo
arco
arconte
arcos
arctic
arcu
arcuentu
arcus
ardara
ardennas
ardern
ardia
are
area
areas
arecibo
areddu
aregos
arena
arenas
arendelle
ares
areste
arestes
aresti
arezzo
arfabetu
arga
argan
argentiera
argentina
argentinos
argentinu
argento
argentu
arghenti
arghidda
argiolas
argo
argumentos
argumentu
argumentus
argunas
argunos
arhat
ari
aria
ariana
arianas
arianos
arianu
ariel
arimai
arioportu
aristanesu
aristanis
aristo
aristocra
aristocratzia
aristotele
aritme
aritzo
aritzu
arizona
arkansas
arles
arlington
arm
arma
armada
armadas
armados
armadu
armamentos
armamentu
armando
armas
arme
armena
armenia
armenos
armenu
armi
armisti
armo
armonia
armonica
arms
armstrong
armu
army
arn
arnaldo
arno
arnold
arol
aroma
aronco
around
arpa
arpanet
arpes
arpesu
arquer
arra
arrabiosa
arrampamentu
arrampos
arrane
arrangiamentos
arrangiamentu
arrangiare
arrapresentai
arrastus
arratza
arratzare
arraxoni
arre
arreare
arrecada
arredos
arregistratzionis
arregistrau
arregordai
arregordat
arregordu
arregorta
arreguai
arreina
arrejonu
arrelatu
arremonant
arremonau
arremonaus
arrena
arrenescit
arrenne
arrennegu
arrennescit
arrennu
arrepi
arresi
arresonat
arresonos
arresonu
arrespirai
arrespustas
arressada
arressadas
arressare
arrestada
arrestados
arrestadu
arrestare
arrestau
arrestos
arrestu
arrestus
arresurtau
arresurtaus
arretza
arretzas
arreu
arrexoni
arrexonis
arri
arriba
arribada
arribadas
arribados
arribadu
arribai
arribaiant
arribaiat
arribande
arribant
arribare
arribat
arribau
arribaus
arribbada
arribbados
arribbadu
arribbant
arribbare
arribbat
arribbende
arribbu
arribende
arribendi
arribu
arrica
arricada
arrichida
arrichidu
arrichire
arricidura
arricit
arriciu
arricu
arrigo
arrimada
arrimadu
arrimu
arriora
arriscat
arriscos
arriscu
arrispetu
arritirat
arrituali
arriu
arrius
arriva
arrivada
arrivadu
arrivare
arrivat
arrivende
arrivida
arrivu
arro
arroca
arrocas
arrocu
arroda
arrodu
arrogos
arrogu
arrogus
arrolados
arroma
arromana
arromanu
arrondissement
arrosa
arrosu
arru
arrubia
arrubiu
arruga
arrugas
arrui
arruinare
arruinas
arruiri
arruit
arrumpellamentu
arruoladu
arruta
arrutroxa
arrutu
ars
arse
art
arta
artaldo
artale
artamente
artari
artaria
artas
arte
artecategoria
artes
artesa
artesanale
artesania
artesanos
arthur
arti
artiada
artica
article
articolo
articu
articulada
articuladas
articuladu
articulatzione
articulatziones
articulos
articulu
artificiale
artifitziale
artifitziales
artigianale
artigulu
artillierias
artioli
artiore
artipranu
artisanos
artista
artistas
artisti
artistica
artisticu
artistigos
artistigu
artists
artos
artras
artrite
artrus
arts
artsakh
artu
artura
arturo
artus
artziada
artziados
artziadu
artziamentu
artziare
artzidio
artziende
artzipe
artzipelagu
artzivos
artzivu
aruba
arumanos
arumenu
arutas
arve
arveghe
arvore
arvure
arvures
arxiu
arzachena
arzola
arzolas
arzu
as
asa
asbjørnsen
asburgos
asburgu
asca
ascii
asciuga
ascoli
ascurtadore
ascurtadura
asdru
asessualidade
asfaltu
ashram
asi
asia
asienda
asiendas
asili
asilu
asinara
asini
askra
asl
asp
aspects
asperger
aspetos
aspetti
aspettu
aspetu
aspiratzione
aspiratziones
aspromonte
asproni
aspru
ass
assa
assaditos
assago
assandira
assas
assassinadu
assassinu
asse
assediu
assegnatzione
assegura
asseguradu
assegurare
assegurat
assemblea
assembleas
assembly
assempru
assentada
assentadas
assentadorzu
assentados
assentadu
assentadura
assentant
assentare
assentat
assentau
assentu
assese
assesi
assessoradu
assessore
assetiada
assi
assignada
assignadas
assignados
assignadu
assignare
assignat
assimbi
assimbillat
assimi
assimigiant
assimigiare
assimilatzione
assimizadora
assimizadore
assimizadores
assimizant
assimizat
assimizu
assinnadu
assinniamentu
assio
assione
assiones
assiros
assiru
assisi
assiste
assistente
assistenti
assistidu
assistire
assistit
assistu
assitiada
assitiadu
assitiende
asso
association
associations
associatzione
associatziones
associatzioni
associazione
assolada
assoladas
assolados
assoladu
assolu
assoluta
assoluti
assolutismu
assolutos
assolutu
assotziada
assotziadas
assotziados
assotziadu
assotziare
assotziat
assotziau
assotzios
assotziu
assu
assumancu
assumende
assumere
assumet
assumida
assumidu
assummant
assunc
assunta
assuntadu
assuntare
assuntu
assuntzione
assussadore
assussadores
assustare
astana
astero
asteroidis
asti
astore
astores
astra
astrata
astratu
astratzione
astrintu
astro
astrofi
astrologia
astrona
astrono
astronomia
astronomicu
astronomu
astronomy
astu
asturiana
asturianu
asturias
asuba
asula
asulu
asuncio
asuta
at
ata
atacada
atacadas
atacados
atacadu
atacadura
atacante
atacare
atacat
atachende
atacos
atacu
atacus
atal
atatu
ate
ateismu
atene
atenet
ateneu
atentados
atentadu
atentu
atentzione
atentzioni
ateos
atera
ateras
ateros
aterrada
aterradu
ateru
aterue
aterus
atestada
atestadas
atestadu
atestant
atestat
atestatziones
atesu
ateu
athen
athletic
ati
atibia
atibiados
atibiadu
atinat
atino
atirende
atitu
atitudine
atitudines
ativa
ativadu
ativai
ativare
ativas
atividade
atividades
atividadi
atividadis
ativismu
ativista
ativistas
ativos
ativu
ativus
atla
atlanta
atlante
atlantic
atlanticu
atlas
atle
atleta
atletas
atletica
atletico
atmosfe
atmosfera
atmosferas
atmosphere
ato
atobiadu
atobiat
atobiau
atollos
atollu
atomic
atomica
atongiu
atonzu
atopare
atopos
atopu
atora
atore
atores
atori
atos
atotu
atque
atra
atraessada
atraessados
atraessadu
atraessamentu
atraessant
atraessat
atraessu
atraida
atraidas
atras
atratzione
atre
atressu
atreta
atretas
atretzaduras
atribui
atribuida
atribuidos
atribuidu
atribuire
atribuit
atributos
atributzione
atrice
atru
atrus
attaccos
attaccu
attera
atteras
atteros
atteru
attesu
atti
attic
attilio
attiva
attividade
attividades
attivista
attivistas
attivita
attivu
atto
attoppu
attoppus
attora
attore
attores
attorescategoria
attori
attos
attraverso
attrice
attrus
attu
attuale
attualmente
attuazione
atu
atuados
atuadu
atuale
atuales
atualidade
atualmente
atuamentu
atuare
atuarmente
atuatzione
atumbada
atumbadas
atumbu
atunzu
atza
atzapa
atzapada
atzapadas
atzapados
atzapadu
atzapare
atzapat
atzappare
atzara
atzarzu
atze
atzedet
atzelerada
atzellerada
atzeni
atzentos
atzentu
atzertada
atzertadu
atzessi
atzessu
atzeta
atzetada
atzetadas
atzetados
atzetadu
atzetant
atzetare
atzetat
atzetende
atzetta
atzettadu
atzione
atziones
atzioni
atzionis
atzitzadu
atzori
au
auba
auckland
aude
auden
audie
audio
audiovisivu
audito
auf
auge
augu
august
augusta
auguste
augustea
augusti
augusto
augustu
augustus
aumentada
aumentadu
aumentant
aumentare
aumentat
aumentende
aumentu
aunde
aundi
aung
auniadu
aunida
aunidas
aunidos
aunidu
aunimentu
aunint
aunire
aunit
auniu
aunius
aunt
aure
aureliano
aurelio
aurora
aus
auschwitz
ause
ausilia
ausiliare
ausiliares
austera
austeru
austin
austinu
austis
austra
australe
australes
australi
australia
australian
australiana
australianas
australianos
australianu
austri
austria
austriaca
austriacos
austro
austu
aut
autas
aute
autem
autismu
auto
autobiogra
autobiografia
autobiograficu
autocaminos
autocaminu
autocra
autodeterminatzione
autodidata
autoguvernu
autoistopu
automa
automo
automobili
autonoma
autonomia
autonomismu
autonomista
autonomistas
autonomu
autoproduzione
autopsia
autora
autore
autores
autori
autoridade
autoridades
autoridadi
autoridadis
autoris
autorita
autoritratto
autorizada
autorizados
autorizadu
autorizadura
autorizatzione
autorizatziones
autostrada
autre
autu
autunno
auve
aux
avaloramentu
avalorare
avampostu
avana
avangua
avanguardia
avant
avanta
avanti
avantzada
avantzadas
avantzadu
avantzamentu
avatar
ave
avec
aveiro
avelignese
avellino
avena
avenimentos
aventura
aventuras
avenue
averguadu
averguare
averi
averiguada
averiguadu
averiguu
aversa
avertimentu
avertu
avesarmente
avesu
avezzano
aviada
aviadu
aviaiat
aviare
aviatzione
avignone
avisu
aviu
aviv
aviva
avo
avocadu
avogadro
avogadu
avolotos
avolotu
avril
avvenimentos
avvenire
avventura
avventuras
avventure
avvenuto
avversariu
avversarius
award
awards
away
axudu
ayatollah
aymeri
aymerich
az
azeglio
azente
azentes
azentzias
azera
azerbaigia
azerbaigian
azeru
azienda
aziendales
aziendas
azione
azioni
aziz
azkaban
aznavour
azoma
azorras
azotu
azu
azuat
azudu
azul
azunghere
azuni
azunta
azuntos
azuntu
azur
azuto
azzurri
azzurro
b
ba
baba
babai
babautzos
babbos
babbu
babbus
babel
babele
babenco
babilonesos
babilonia
babos
babu
baby
baca
bacallar
bacas
bacca
baccas
bacchidi
bach
bacharach
bachis
bachisio
baci
back
backgroundcolors
backtracking
bacon
bacu
bad
badajoz
badas
badde
baddes
baddi
baddis
baddu
baden
badore
badu
bae
baga
bagazos
bagdad
baghdad
bagno
bagnu
bahamas
bahia
bahn
bahrain
bahrein
bai
baia
baile
bailey
bainzu
baix
baja
baker
bakshi
bakunin
bal
bala
balajana
balangende
balangiadu
balangiare
balanzadu
balanzare
balanzu
balares
balaros
balbiano
balca
balcanos
baldassarre
baldini
baldosa
baldu
bale
baleare
baleares
balent
balente
balentes
balentia
balestreris
balet
bali
balia
baliant
balida
balidesa
balilla
baliosa
balit
ball
balla
ballad
balladores
ballads
ballantine
ballare
ballas
ballata
ballau
ballero
ballet
ballo
ballos
ballota
ballu
ballus
balore
balores
balori
baltasar
baltimora
baltimore
balu
baluardu
balzac
bamako
bambi
bambina
bambini
bambino
bambinu
ban
banale
banana
bananas
bananera
banca
bancas
banchita
banco
bancos
bancu
band
banda
bandalismu
bandas
bande
bandela
bandella
bandera
banderas
bandha
bandi
bandidismu
bandidos
bandidu
bandini
bandinu
bandire
banditi
banditismu
bandito
bandmembers
bandone
bandu
banduleri
bang
bangkok
banglade
bangladesh
bangu
banjo
bank
banned
bannus
bant
bantadu
bantare
bantat
bantine
bantu
banu
banyalbufar
bar
bara
barack
barant
baranta
barantena
baratos
baratu
baratz
barba
barbados
barbagia
barbar
barbara
barbaria
barbaricina
barbaricino
barbariscos
barbaritzinos
barbaritzinu
barbaro
barbaros
barbarossa
barbaruja
barbastro
barbaza
barbera
barberi
barbuda
barc
barca
barcas
barcellona
barcelona
barceloneta
barcha
barcino
barclay
bardadu
bardana
bardanadu
bardanas
bardare
bardata
bardi
bardia
bardiamentu
baresu
bari
baria
bariada
bariadas
bariados
bariante
bariantes
bariedade
bariedades
bariedadi
bariedadis
barigadu
barigare
bariju
bariles
barilla
barisone
barker
barnes
barney
barngarla
baro
baroca
barocas
barocca
barocco
barocu
baron
baronale
barone
barones
baroni
baronia
baroniesa
barore
barra
barrabi
barraca
barracas
barracoco
barranquilla
barras
barratzellu
barreca
barrera
barreras
barriera
barris
barrosu
barry
bars
barset
barthe
bartimora
bartoli
bartolomeo
bartza
bartzellona
baru
barusone
bas
basada
basadas
basados
basadu
basaiant
basaiat
basalto
basaltu
basant
basare
basat
basau
basca
bascas
bascia
basciadu
bascios
basciu
bascius
bascos
bascu
base
baseball
based
basende
bases
basi
basic
basile
basilea
basili
basilianos
basilica
basilicata
basilio
basis
basket
bass
bassa
bassanu
bassas
bassista
basso
bassos
bassu
basta
bastaiat
bastante
bastantes
bastanti
bastat
bastet
bastia
bastien
bastimentu
bastione
bastiones
basu
bat
bata
bataille
batalla
batallas
batallione
batasuna
batch
bate
batende
bateria
baterias
baterista
bati
batiant
batiare
batiat
batida
batidos
batidu
batijadas
batijadu
batijare
batijimu
batinde
batint
batire
batista
batit
batman
bato
baton
bator
batorchentos
batordighi
batru
battaglia
battaglie
battalla
batteria
batterista
batti
battiato
battijimu
battista
battle
battor
battoro
baturi
bau
baudi
baudo
bauhaus
baule
baunei
baux
bava
baviera
bay
bb
bbc
bbia
bbias
bbila
bbile
bblica
bbn
bbrica
bbricos
bbricu
bbu
bc
be
beach
beados
beardsley
beast
beat
beata
beatificadu
beatles
beato
beatrice
beau
beautiful
beauty
beauvoir
beaux
beaver
beavis
bec
beccia
becciu
beck
bed
bedson
bee
been
beer
beethoven
beffa
before
begin
beh
behind
bei
beijing
being
beirut
bel
bela
belafonte
belchidda
belfast
belga
belgas
belgio
belgiu
belgrado
belgradu
believe
belisa
belisari
belize
bell
bella
bellagio
bellas
belle
bellesa
bellesas
bellezza
belli
bellieni
bellimbusto
bellini
bello
bellodi
bellos
bellota
bellow
bellu
bellunu
bellus
belmopan
belo
belotzidade
belvedere
ben
bena
benas
benassi
benda
bendende
bendent
bender
bendet
bendiant
bendidore
bendidu
bendiu
bene
benedetinos
benedetta
benedetti
benedettinos
benedettinu
benedetto
benedicta
beneditu
beneditzione
benefi
benefit
benefitze
beneita
beneittu
beneitu
benende
benent
benes
benet
benetuti
benetutti
benevento
bengala
bengiat
beni
beniamino
beniant
beniat
benidi
benidora
benidoras
benidore
benidores
benidori
benidoris
benigni
benin
benint
benis
benit
benito
benius
benjamin
benjamins
benna
bennalzu
bennarzu
benner
benneret
bennet
bennett
benni
bennia
bennidos
bennidu
benny
benson
bentana
bentanas
bentesoi
bentos
bentu
bentzon
benvenuti
benvenuto
benzat
benzi
benzina
beowulf
beppe
ber
bera
beranos
berant
beranu
beras
berat
berbe
berbeghe
berbeghes
berbeghinu
berbera
berberian
berberu
berchidda
berdade
bere
beren
berenga
berenguer
berg
bergamasco
bergamo
bergman
beri
beridade
beridadi
beridadis
berilinu
bering
berio
berit
berke
berkeley
berlin
berlinghieri
berlinguer
berlino
berlinu
berlusconi
bermentinu
bern
berna
bernard
bernardi
bernardini
bernardino
bernardinu
bernardo
bernardu
bernasconi
berners
bernie
bernsen
berona
beros
berria
berrita
berritta
berry
bersa
bersione
bersionis
berta
berte
bertieri
bertigale
bertolt
bertolucci
bertrand
beru
berus
berveghe
berveghes
berveghinu
bes
besesti
beso
bespe
bessare
bessendi
bessi
bessia
bessias
bessida
bessidas
bessidos
bessidu
bessidus
bessint
bessire
bessiri
bessit
bessiu
bessude
best
beste
bestes
bestia
bestiamine
bestida
bestidos
bestidu
bestimenta
bestimentas
bestint
bestire
bestires
bestiri
bestiu
beta
bethe
betiant
betidu
betlemme
bettazzi
bette
better
betti
bettino
betty
betura
beturas
betureddas
between
betza
betzas
betzesa
betzos
betzu
bevida
bey
beyond
bezirk
bg
bgp
bhuta
bhutan
bi
bia
biada
biadu
biafra
biagiadores
biagiadu
biagiare
biagio
biai
biaita
biaitas
biaitu
biamente
bianca
biancanie
biancapitzorno
biancas
bianche
bianchi
bianco
biancos
biancu
biango
biant
bias
biasi
biasu
biat
biata
biazadores
biazare
biazos
biazu
biba
bibbia
bibcode
bible
bibliogra
bibliografi
bibliografia
biblioteca
bibliotecas
bica
bicas
bichipedia
bicos
bicu
bida
bidais
bidas
bidat
bidd
bidda
biddacidru
biddamanna
biddamatraxa
biddanoa
biddas
biddeputzi
biddesatu
biddesorris
biddexidru
biddighedda
biddigheddas
bidditzolos
bidditzolu
biddixeddas
bide
bidea
bideas
biden
bidende
bident
bideos
bider
bidere
bidet
bidi
bidiant
bidiat
bidit
bidos
bidru
bidu
bie
biela
biella
bieloru
bielorussia
bielorussu
bien
biennale
bient
bier
biere
biet
big
bighina
bighinados
bighinadu
bighinos
bighinu
bihar
biint
bil
bilancia
bilantzu
bilartzi
bilbao
bilbo
bile
biles
bili
bilingualism
bilingue
bilingui
bilinguismu
bilis
bill
billa
billboard
billete
billeteria
billetes
billetu
billie
billy
bim
bin
bina
bincendu
binchende
binchent
bincher
binchere
binchet
binchiat
binchidora
binchidoras
binchidore
binchidores
binchidu
binchit
binci
bincida
bincidas
bincidori
bincit
bincitas
bindighi
bindighina
bing
bingen
bingias
binomio
binos
bint
binta
bintas
binti
bintibator
bintiduos
bintighimbe
bintimi
bintina
bintisete
bintitre
binto
bintos
bintrare
bintu
bintun
bintunu
binu
binza
binzas
bio
biobot
biochi
biodiversidade
biogra
biografia
biografias
biografiascategoria
biografiascategory
biografico
biography
biole
biolo
biologia
biondi
bios
bipm
bir
bird
birde
birdes
birdi
birdland
birds
birdura
birduras
bire
birgo
biri
birma
birmingham
birra
birras
birthday
biru
bis
bisa
bisarcio
biscaglia
bisconte
biscontes
bisessuale
bisessualidade
bisestradu
bisestraiat
bisestrare
bisi
bisidau
bisio
bisione
bisita
bisitada
bisitadores
bisitadu
bisitare
bisitau
bisitende
bismarck
bismutu
biso
bisogna
bisogniat
bisongiare
bisongiat
bisongiu
bisonzat
bisonzu
bissau
bisse
bista
bistada
bistados
bistimenta
bistiri
bistos
bistu
bisu
bisura
bisuras
bit
bithia
bitiu
bitti
bittu
bitu
bitzi
biu
biuda
biudu
biunis
bius
biv
biva
bivat
bivende
bivent
biventes
biventis
biver
bivere
bivet
bivi
biviant
biviat
bividore
bividores
bividoris
bividorzu
bividu
bivint
biviri
bivit
biviu
bivu
bixinadu
bixinau
bixinaus
bixinu
biz
bizantina
bizantinas
bizantinos
bizantinu
bizantinus
bizet
bizila
bjo
bjork
bla
black
blackmore
blackwell
blaise
blake
blanc
blanca
blancos
blasco
blasetti
blau
blaugrana
blc
bleu
bleuclair
blica
blicant
blicas
blicat
blicos
blicu
bligat
bligos
bligu
bliss
blocada
blocados
blocadu
blocare
blocat
blockbuster
blocos
blocu
bloemfontein
blog
blogger
blood
bloody
blu
blue
blues
bmg
bmw
bo
boa
board
bob
bobby
bobo
bobore
boc
boca
bocabolariu
bocare
bocat
bocau
bocca
boccaccio
boccaperta
bocchidu
boccia
boccoli
bocconi
boche
boches
bochido
bochidos
bochidu
bochidura
bochiduras
bochire
bochum
boci
bocidura
bociri
boddire
bodies
body
boe
boeci
boeing
boes
bog
bogada
bogadas
bogados
bogadu
bogadura
bogai
bogant
bogare
bogat
bogau
bogaus
boghe
boghende
boghes
bogino
bogota
bohe
boi
boicota
boicottamentu
boicottare
boicottazu
boidu
bois
boisa
boise
bola
bolabentu
boladoreddos
boladoreddu
bolare
bolarzos
bolat
boldsymbol
bolen
bolena
bolende
bolent
bolet
bolgheri
boli
boliant
boliat
bolimus
bolin
bolit
bolivariana
bolivia
bolli
bolliri
bolo
bologna
bolognesi
bolognini
bolonna
bolos
bolscevica
bolscevicos
bolt
bolta
boltanski
boltas
bolu
bolunta
boluntade
boluntades
bomb
bomba
bombadil
bombardada
bombardadu
bombardamentos
bombardamentu
bombas
bombay
bombo
bompiani
bon
bona
bonacatu
bonaccattu
bonaire
bonaparte
bonaria
bonas
bonaventura
bondone
bone
bonelli
bonet
bonete
bonetti
bonghi
boni
bonifa
bonifacio
bonifatziu
bonn
bono
bonolva
bonorva
bonos
bonu
bonuighinu
bonus
book
books
boom
boot
bootleg
bor
bora
borat
borbo
borbone
borbones
bordeaux
border
borders
bordo
bordu
bore
boreale
boreali
borfiu
borges
borghese
borgia
borgo
borgogna
boris
born
borromeo
borsa
borsellino
borta
bortada
bortadas
bortados
bortadu
bortadura
bortaduras
bortare
bortas
bortat
bortau
bortende
bortigale
boruta
bos
bosa
bosana
bosco
boscolo
bosi
bosni
bosnia
boss
bossa
boston
bostra
bostru
bot
bota
botadu
botanica
botas
botos
botswana
bottom
botu
botus
botza
botzacanastra
boulder
bound
bourdieu
bourgeois
bournemouth
bove
bovina
bowie
box
boxer
boxi
boxis
boy
boycott
boys
bozen
br
bra
brabara
bracas
brachitzefalia
bradley
braga
bragaglia
bragheta
bragueta
brahe
brai
brain
brama
bramadu
bramante
branca
brancaleone
brancalione
brancos
brancu
brand
brandeburgu
brandenburgu
brandu
brani
brano
branos
brant
branu
bras
brasi
brasil
brasile
brasili
brasiliana
brasilianos
brasilianu
brass
brassens
bratzales
bratzolu
bratzos
bratzu
braunmu
bravi
bravu
bre
break
breakfast
brebei
brebi
brecht
bregungiosu
brel
brema
bremen
brent
brenta
brera
brescia
bresson
bretagna
breton
bretone
breve
breves
brevetos
brevetu
brevi
brevis
brexit
bri
bria
brian
brianza
brica
bricas
bricos
bricu
bricus
bridge
bridgeport
bridges
bridos
bridu
brief
briga
brigada
brigadas
brigade
brigaglia
brigas
brigata
briggs
brigos
brigu
brincai
brincare
brincat
brincos
brincu
bring
brintai
brios
bristol
brita
britain
britannia
britannica
britannicas
britannicu
british
brits
briu
brixton
brno
broadway
brocadu
brocca
brocu
brodu
broken
bromu
bronzu
brooklyn
broome
bros
brothers
brotzu
brown
brownie
bru
brubeck
bruce
bruciacchiate
bruciata
bruja
brujamentu
brule
brulla
brullas
bruncu
brunei
bruni
bruno
brunswick
brunu
brunzu
brusiada
brusiadu
brusiare
bruta
brutu
bruxelles
bryan
bs
bsd
bside
bu
buarque
buatone
buble
buca
bucarest
bucas
bucca
buccas
buccia
buciaca
buck
bud
budapest
buddende
buddha
buddhismo
buddhismu
buddhista
buddhistas
buddi
buddida
buddidura
buddire
buddista
buddistas
budduso
buddy
budget
budoni
budu
budune
buena
buendi
buenos
bufaduras
bufare
bufat
buffalo
buffare
bugerru
buggy
bugnato
bugs
building
buio
bukowski
bula
bulas
bulbu
bulgakov
bulgaria
bulgaru
bull
bulla
bullismu
bullock
bullu
bulos
bultzi
bulu
bulzi
bulzoni
bum
bumbe
bundante
bundantes
bundesland
bunker
bunna
bunnymen
buon
buona
buongiorno
buono
bura
burcei
burda
burdu
bureau
burgenland
burghesa
burghesia
burghesos
burghesu
burgos
burgu
burkina
burlesque
burn
burocra
burradura
burrare
burricu
burro
bursa
bursas
burt
burton
buru
burundi
burus
bus
busache
busca
buscare
buscica
buscos
buscu
bush
business
bussa
bussalai
bussas
busta
bustianu
bustu
busy
but
buta
butch
butega
butegas
butiru
butler
butone
butones
butt
buttega
buttegas
butterfly
buttram
butzaca
buy
buzzer
by
byron
byte
bytecode
c
ca
cab
cabaiceno
cabale
caballeri
caballeris
caballeros
cabannas
cabaret
cabi
cabidanne
cabidanni
cabina
cabinas
cabitale
cabitanu
cabitza
cabitzas
cabizali
cabizza
cabo
cabori
cabos
caboto
cabra
cabras
cabrera
cabu
cabudanne
cabudanni
cabuderra
cabudianamente
cabudianos
cabudianu
cabudu
cabulogu
cabuterra
caccia
cacciatore
cache
cachi
cachorro
cacioppo
cacuminale
cad
cada
cadalana
cadalanas
cadalanos
cadalanu
cadalina
cadallanu
cadas
cadauna
cadaunu
cadderi
cadderis
caddos
caddu
caddura
cade
cadeddu
cadela
cadelana
cadelanas
cadelanos
cadelanu
cadelanus
cadena
cadenas
caderina
cadetos
cadibona
cadice
cadillac
cadira
cadoni
cadrea
caduta
cae
caente
caentes
caesar
caetani
caetano
cafe
cafei
cafetera
caffe
cagliari
cagliaritano
caimano
cain
cairo
caixer
cajenna
cajone
cake
cal
cala
calabresa
calabria
calada
calados
calagonis
calai
calais
calangianus
calant
calanzanus
calare
calari
calaris
calas
calat
calavetta
calca
calcare
calchi
calci
calciadore
calciadores
calcio
calcistica
calciu
calcu
calcutta
calda
caldera
caldero
cale
caledo
calenda
calendariu
calentura
cales
calesi
calesisi
calesisiat
caletta
calgary
cali
calicu
calicuna
calicunas
calicunos
calicunu
calidade
calidades
calidadi
califadu
califfadu
califo
california
califu
calincuna
calincunas
calincunu
calisisiat
calita
call
callar
calle
called
callentai
callentamentu
callenti
callentura
calli
calling
callistu
calloway
calma
calore
calori
calota
calotas
caltanissetta
calvia
calvino
calvu
cam
camaldolesos
camarassa
camargo
camba
cambas
cambia
cambiada
cambiadas
cambiados
cambiadu
cambiai
cambiamentos
cambiamentu
cambiapare
cambiare
cambiat
cambiau
cambiende
cambios
cambiu
cambo
cambogianu
cambosu
cambridge
camera
camerini
camerino
cameron
cameru
camerun
cami
camillo
caminada
caminale
caminare
caminat
caminera
camineras
camino
caminos
caminu
caminus
camisa
camito
camminu
camp
campa
campadu
campagna
campagnas
campana
campanas
campania
campaniforme
campanile
campanili
campanna
campare
campat
campbell
campeda
campello
campi
campidanesa
campidanesas
campidanese
campidanesos
campidanesu
campidanesus
campidanian
campidano
campidanos
campidanu
campiello
campiona
campionados
campionadu
campionati
campionato
campionatu
campionau
campionaus
campione
campiones
campionessa
campioni
campionis
campo
campos
campra
camps
campu
campubassu
campura
campuras
campus
campusantos
campusantu
camus
can
cana
canada
canadesa
canadesas
canadesos
canadesu
canal
canale
canales
canali
canalis
canaria
canarias
canas
canat
canberra
cancio
cancru
cancu
cancuna
cancunu
candaleri
candaleris
candareri
candela
candelas
candida
candidada
candidados
candidadu
candidadura
candidau
cando
candu
candy
cane
canelles
canepa
canes
cani
canna
cannabis
cannaca
cannacas
cannas
canne
cannella
cannes
cannitas
canno
cannonau
cannones
cano
canone
canoni
canonicus
canopolo
cant
canta
cantada
cantadora
cantadore
cantadores
cantadori
cantados
cantadu
cantai
cantaia
cantaiant
cantaias
cantaiat
cantan
cantando
cantant
cantante
cantantes
cantantescategoria
cantanti
cantare
cantas
cantat
cantau
cantautore
cantautores
cante
canteapare
cantende
cantent
cantes
cantet
canti
cantidade
cantidades
cantidadi
cantieris
cantigos
cantina
canto
canton
cantone
cantones
cantore
cantores
cantori
cantoria
cantos
cantrell
cantu
cantus
cantzelleri
cantzilleri
cantzione
cantzone
cantzones
cantzoni
cantzonis
cantzos
cantzu
canu
canvas
canzo
canzone
canzones
canzoni
cao
caos
cap
capa
capanna
caparezza
capas
capassu
capatzidade
capatzidades
capatzidadi
capatzos
capatzu
cape
capedda
capeddu
capella
capellas
capello
capi
capida
capidanne
capido
capit
capita
capitadu
capital
capitale
capitales
capitali
capitalismu
capitalista
capitalistas
capitan
capitano
capitanu
capite
capitellus
capitol
capituladu
capitulos
capitulu
capo
capolavoro
capoluogo
capos
cappadocia
cappai
cappella
cappellacci
cappellas
cappelli
cappuccetto
capraja
caprera
capriccio
captain
capu
capua
capuana
capudanni
capulogu
capus
caput
caputo
car
cara
carabineri
carabineris
caracalla
caracas
carai
caraibi
caraibis
carales
caralis
caralu
caras
carasadu
carasu
caratere
carateres
carateri
carateristica
carateristicas
caraterizada
caraterizadas
caraterizados
caraterizadu
caraterizant
caraterizare
caraterizat
carattere
caratteres
caratteri
caratteristica
caratteristicas
caratteristicu
caratza
caratzas
caravaggio
caravan
carbo
carbone
carboni
carbonia
carca
carcere
carche
carchi
carchina
carchiunu
carci
carciai
carcu
carculada
carculadore
carculadores
carculadu
carculare
carculat
carculos
carculu
card
cardedu
cardia
cardiale
cardiff
cardinale
cardinales
cardinali
carduelis
care
carena
carenas
carenses
caresima
carestia
caretta
carey
cargo
cari
caria
carica
caridade
carisii
caristia
carl
carla
carles
carlo
carloforte
carlos
carlton
carlu
carluforti
carmelo
carmen
carmina
carmine
carmu
carnem
carnevale
caro
carocci
carol
caroli
carolina
carolu
caros
carpatzos
carpenter
carpenters
carpio
carpitella
carrada
carradores
carradu
carrara
carrare
carrasecare
carrasegare
carraxu
carre
carrende
carrer
carrera
carreras
carri
carrie
carrier
carriera
carrieras
carriga
carrigada
carrigados
carrigadu
carrigare
carro
carronadori
carroppu
carros
carrotza
carroz
carru
carrus
carson
carta
cartagena
cartaghinesos
cartagine
cartaginesa
cartaginesos
cartaginesu
cartas
carte
cartellos
cartellu
carter
cartier
cartina
carto
cartografia
cartone
cartones
cartzofa
caru
caruso
carvalho
carvo
carvone
carzeghe
cas
casa
casal
casale
casalini
casalis
casanova
casarsa
casas
cascada
cascare
casciale
case
casella
casellas
caserma
casermas
caserta
casey
cash
casi
casina
casino
caso
casos
caspar
cassa
cassadore
cassadores
cassados
cassadu
cassadura
cassare
casseta
cassita
cassola
cast
casta
castaneda
castanza
castanzu
castas
castedda
casteddaja
casteddajos
casteddaju
casteddos
casteddu
castedduaragonesu
castel
castell
castellaccio
castelli
castellitto
castello
castellu
castelo
castelsardo
castelvi
casti
castia
castiada
castiadas
castiai
castiare
castiende
castiendi
castigadu
castiglia
castigliana
castiglianu
castiglione
castigu
castilla
castilliana
castillianu
castillo
castle
castoro
castro
castru
castrum
casu
casuale
casualidade
casula
casus
casusu
cat
cata
catacumbas
catala
catalana
catalanas
catalane
catalani
catalano
catalanos
catalans
catalanu
catalina
catalogatzione
catalogna
catalonia
catalugna
catalunya
catania
catanzaro
catastro
catch
catedral
catedrale
catedrali
categoria
categorias
category
catena
caterina
catherine
cathy
cato
catolica
catolicos
catolitze
cattaneo
catte
cattedrale
cattelan
catto
cattolica
cattolicesimu
cattolicu
cattoligos
catura
caturados
caturadu
catza
catzada
catzadu
catzare
catzet
cau
cauca
causa
causada
causadas
causados
causadu
causaiat
causare
causas
causat
causau
causende
cautive
cav
cava
cavalcata
cavalier
cavaliere
cavalieri
cavalleria
cavallo
cavas
cave
cavos
cavour
cavu
cavus
cayman
cbs
cc
ccaru
ccat
ccia
cciu
ccn
ccu
cd
cdot
cds
ce
ceaus
ceca
cecchi
cece
cecena
cecil
cecilia
cecoslova
cecu
cedam
cee
cei
celebrada
celebrate
celebrau
celeste
cellino
cello
celsitani
celsius
celso
celtic
celu
cen
cena
cenere
censimentu
censura
census
cent
centauri
centelles
centenario
centenas
center
centi
centimetrus
centinato
cento
central
centrale
centrali
centralis
centre
centri
centrifuga
centro
centru
centrus
centu
century
ceppo
cera
ceramiche
ceraxius
ceraxus
cerbeddu
cerden
ceres
cerimo
cern
certa
certo
certosa
certu
certus
ceruti
cervantes
cervellon
cervera
ces
cesare
cesarea
cesareo
cesi
cessione
cet
cetra
cetti
ceuta
cf
cfds
cfn
cfr
cgpm
cgs
ch
cha
chachapoyas
chad
chain
chains
chamberland
chambers
champagne
champions
championship
chance
change
channel
channels
chant
chantal
chante
chants
chapter
charentes
charles
charleston
charlie
charlotte
charlottenburg
charter
chase
chattanooga
chatterley
chauvin
che
chea
cheja
chejas
chelos
chelu
chemical
chemu
chen
chena
chenabura
chenapura
chene
cheney
chent
chenti
chentimetros
chentina
chentinas
chentu
chentumi
chentz
chentza
chenza
cher
chera
cheratzu
cherbeddu
cherbu
cherchi
cherchizza
chercos
chercu
chere
cheren
cherent
cheres
cheret
cherfidu
cheri
cheriant
cheriat
cherit
chermayeff
cherrer
cherta
chertat
chertos
chertu
chervu
ches
chess
chessa
chessidu
chessit
chet
cheyenne
chełmno
chi
chia
chiama
chianu
chiapas
chiara
chiarcossi
chiarella
chias
chibudda
chicago
chico
chida
chidas
chidos
chidu
chie
chief
chiesa
chieta
chieti
chietos
child
childhood
children
chile
chili
chilivane
chilivani
chilla
chilo
chilogrammu
chilometros
chilonewtons
chilos
chilu
chima
chimbant
chimbanta
chimbe
chimbi
chimbighentos
chimes
chimica
chimicamente
chimicas
chimicos
chin
china
chinas
chinaski
chind
chine
chini
chinisu
chinta
chintale
chintorza
chintu
chios
chiosco
chirca
chircada
chircadore
chircadores
chircadu
chircaiant
chircaiat
chircan
chircande
chircant
chircare
chircas
chircat
chirchende
chircos
chircu
chironi
chirra
chirriu
chirros
chirru
chiru
chirurgia
chisciotte
chisina
chistan
chistio
chistiona
chistionada
chistionadas
chistionadu
chistionai
chistionaiant
chistionaiat
chistionant
chistionare
chistionari
chistionat
chistionau
chistione
chistionende
chistionendi
chistiones
chistioni
chistionis
chistionu
chit
chitarra
chitarrista
chitarristas
chiterra
chiterras
chiterrista
chito
chitzi
chitzo
chiu
chiudende
chiusa
choice
chomsky
chris
christ
christian
christina
christine
christmas
christopher
christu
chronica
chu
chuck
church
churchill
churintzio
ci
cia
ciampi
cianciulli
ciao
cias
cibudda
cica
cicap
cicci
ciccio
cicciput
ciceri
ciclista
ciclistas
ciclu
cicri
cida
cidade
cie
cielo
cien
cier
cigarettes
cii
cil
cile
cilenu
cili
cilis
cim
cima
cina
cincinnati
cincu
cincuanta
cine
cinema
cinematogra
cinematografica
cinematograficos
cinematograficu
cinesa
cinesos
cinesu
cinque
cinta
cintu
cinzia
cio
cioe
cioppi
ciotti
cipm
cipro
cipru
circa
circai
circas
circat
circhendi
circle
circo
circolo
circonvallazione
circulari
circus
circusta
cirese
cirillicu
ciro
cit
cita
citade
citadi
citadis
citing
citta
cittadi
cittadini
citti
cittiglio
city
ciu
ciuculati
ciudad
cius
ciusa
ciutat
civaschi
cividale
civil
civile
civili
civilidadi
civilis
civilizatziones
civilta
civiltadi
civiltadis
civita
civitas
civitate
civitates
cixerri
ck
cke
cken
cl
cla
clactonianu
clairvaux
clan
clandestina
clannad
clara
clare
clarence
clarine
clarinet
clarissas
clark
clarke
claro
claru
clash
class
classe
classes
classi
classic
classica
classical
classici
classicos
classics
classicu
classifica
classificada
classificadas
classificados
classificadu
classificadura
classificare
classificas
classificatzione
classificatziones
classificaus
classis
claude
claudia
claudio
clausura
clay
clayderman
clayton
clement
clemente
clementi
cleopatra
cleos
clero
cleru
clesia
cleu
cleus
cleveland
cli
clic
cliche
click
client
cliente
clientelares
clientes
clienti
clifford
clima
climas
climatizatzione
climatologia
clinea
clinica
clinton
clipperton
cliu
clive
clock
clockwork
clones
clor
cloro
close
closer
cloud
clouds
clown
club
clubs
cluster
cm
cmos
cnica
cnicas
cnicos
cnicu
cnn
co
coa
coalitzione
coas
coast
coat
cobain
cobe
coberare
cobercu
coberiat
coberit
coberrefogu
coberta
cobertas
cobertedda
cobertu
cobertura
coberturas
coca
cocaina
cocco
cockrell
coco
coda
coddu
code
codex
codi
codice
codiche
codici
codificadas
codificados
codificadu
codificare
codighe
cody
coefitzientes
coeli
coere
coerente
cofanetto
coffea
coffee
coghidura
coghina
coghinale
coghinare
coghinas
coghineri
cogiuare
cogoni
cohen
coi
coia
coidadu
coimbra
cointzi
cointzide
cointzident
cointzidet
coira
coitare
coja
cojadu
cojare
cojas
cojau
coju
cojuada
cojuados
cojuadu
cojuare
cojube
cojuios
cojuiu
col
cola
colada
coladas
colado
colados
coladu
colaiat
colande
colant
colare
colat
colau
cold
cole
coleman
colende
coletti
coli
colin
colla
collabora
collaboradore
collaboradores
collaboradoris
collaboradu
collaborare
collaborat
collaboratzione
collaboratziones
collaboratzioni
collaborazione
collaborende
collage
collana
collanas
collassu
colle
collected
collection
collega
collegada
collegadas
collegados
collegadu
collegai
collegamenti
collegamentos
collegamentu
collegamentus
collegant
collegare
collegas
collegat
collegau
college
colleges
colleghende
collegiu
colletiva
colletivas
colletividade
colletividades
colletivos
colletivu
collettivo
collettivu
colletzione
colletziones
collezioni
colli
colliat
collida
collidas
collidos
collidu
colligamentu
collina
collins
collint
collire
collit
collocada
collocadas
collocados
collocadu
collocare
collocatzione
collodi
collserola
collu
colo
coloma
colombia
colombiana
colombianu
colombo
colonia
coloniale
coloniales
coloniali
colonialism
colonialismu
colonias
colonizada
colonizadores
colonizadu
colonizatzione
colonna
colonnas
colonnello
colonos
color
colorada
coloradas
colorado
colorados
coloradu
coloraus
colore
colores
colori
coloris
colors
coloru
colpa
colpo
colpu
coltivada
coltivari
coltivos
coltivu
coltrane
coltura
colturas
colu
colucci
coluccis
columbia
columbu
columbus
colunia
colunias
colunna
colunnas
com
coma
comarca
comarcas
combat
combusti
combustione
come
comedy
comencini
coment
comente
comenti
comentisisiat
comentu
comentzu
comes
cometa
cometas
comi
comicos
comics
comicu
coming
comino
comintzada
comintzadas
comintzados
comintzadu
comintzant
comintzare
comintzat
comintzende
comintzu
cominzadu
cominzat
cominzu
comita
comitados
comitadu
comitau
comma
command
comme
commedia
commedie
commedio
commentary
commentati
commente
commenti
commento
commerciale
commerciu
commi
commissa
commission
commissionadu
commissione
commissioni
commitidu
committee
commo
common
commons
commonwealth
communication
communications
community
como
comodidade
comomai
comoras
compagnia
companion
company
comparative
compatibilidade
compendio
competenzias
competizioni
competizionis
compidare
compiladore
compilados
compiladu
compilare
compilation
compilations
compitu
complessa
complessas
complesso
complessu
completa
complete
completes
complicada
complicados
componente
componentes
compora
comporada
comporados
comporadu
comporare
comporau
composidore
composidores
compositzione
compositzioni
composizione
compostela
compton
compulsivu
computable
computadores
computatzionale
computer
computers
computing
comte
comu
comuna
comunale
comunales
comunali
comunas
comuncas
comune
comunemente
comunes
comuni
comunicadu
comunicadura
comunicaduras
comunicai
comunicare
comunicativo
comunicatzione
comunicatziones
comunicatzioni
comunicazione
comunidade
comunidades
comunidadi
comunidadis
comunione
comunioni
comunis
comunismu
comunista
comunistas
comunisti
comunita
comunitadi
comunos
comunque
comunu
comunus
comutadori
comutadoris
con
conan
conca
concas
concentramentu
concepcio
concepcion
concert
concerto
concetto
concetus
conchedda
concheddas
conchi
conchista
conchistada
conchistadas
conchistadores
conchistados
conchistadu
conchistare
conchistas
conchistau
conchistende
conci
conciliu
concluida
concluidu
concord
concordu
concorso
concruende
concruida
concruidu
concruire
concruit
concurrentzia
condaghe
condaghes
condanna
condaxis
conditzione
conditziones
conditzioni
condizionale
condizioni
condon
condor
condotta
condu
conduit
condusit
conduta
condutas
confederation
conference
confessions
configuratzione
confinat
confine
confines
confini
conflict
conflitu
conforti
confronti
confu
confusione
conge
congiu
congiuntivo
congiuntivu
congiuntzione
congiura
congo
congregatzione
congress
congresso
congruida
coni
coniadu
coniare
conifa
coniugatzione
connada
connadu
conne
connecticut
connessa
connessione
connessiones
connessioni
connessionis
conno
connor
connosce
connosche
connoschede
connoschende
connoschent
connoschentzia
connoschere
connoschet
connoschiant
connoschiat
connoschida
connoschidu
connoschimentos
connoschimentu
connoschimus
connosci
connoscit
connota
connotas
connotatzione
connotatziones
connotos
connotta
connottas
connottos
connottu
connotu
connotus
conotta
conottu
conquista
conrad
consapevolezza
conscie
consecutivas
consecutivos
consensus
conservatoria
conservazione
consi
considera
considerada
consideradu
considerat
considerau
considerazioni
considerevole
consie
consigli
consiglio
consiliu
consillu
consixu
consizu
console
consolidadu
consonante
consonantes
consorzio
constantine
consulente
consulta
consultadu
consultare
consultato
consultatzione
consultivu
consumant
consumat
consumos
consumu
conta
contact
contada
contadas
contadini
contadino
contados
contadu
contai
contaiant
contaiat
contaminatzione
contant
contare
contat
contatto
contau
conte
contea
conteas
contempora
contemporanea
contemporanei
contemporary
contende
contendi
contenit
content
contes
contest
contesto
contestu
conti
contiene
contierrados
contierras
contina
continental
continentale
continentales
continente
continentes
continenti
continentis
contingentes
contini
continu
continua
continuada
continuadu
continuare
continuat
continuidade
continuidadi
continuum
contissa
contivigiare
contos
contr
contra
contrabandu
contrada
contradito
contragassu
contraparte
contraposidura
contrariedade
contrariu
contras
contrasemper
contratzione
contribuende
contribuidu
contribuint
contribuire
contribuit
contribuiu
contributo
contributos
contributu
contro
controidu
control
controllada
controlladas
controlladu
controllai
controllaiant
controllare
controllat
controllore
controllu
contu
contus
contzentratzione
contzentratziones
conu
convegno
convenienze
coo
coochie
cook
cool
cooperativa
cooperativas
cooperatzione
cooperatzioni
coordinada
coordinadas
coordinadore
coordinadu
coordinamentu
coordinare
cop
copa
copas
cope
copenaghen
copernico
copertina
copertura
copia
copiadu
copiare
copias
coppa
copper
coppi
coppia
coppola
copyleft
copyright
cora
coracenses
coraddos
coraddu
coraggio
corale
coratzada
corbeddu
corbin
corbusier
corcare
cord
corda
cordas
cordialmente
cordolinu
cordova
cords
core
corea
coreana
coreanos
coreanu
corfidos
corfidu
corfire
corfos
corfu
coria
corju
cork
corne
cornelia
cornell
cornenses
corner
cornova
cornus
coro
corona
coronadu
coronas
coronavirus
coronellu
corongiu
coros
corpi
corpicenses
corpo
corporadura
corporation
corporatziones
corpos
corps
corpu
corpus
corra
corrado
corraini
corrasi
correspondance
corrias
corrida
corride
corriere
corros
corrosione
corru
corrumpit
corrutzione
corsa
corsas
corse
corsi
corsica
corsicae
corsicana
corsicanas
corsicanos
corsicanu
corsivu
corso
corsos
corsu
corte
cortellino
cortes
corteu
corti
cortina
cortometraggio
corts
coru
corun
corzu
cos
cosa
cosas
cosasa
coscienza
cose
cosenza
cosi
cosima
cosimo
cosinu
cosma
cosmic
cosmo
cosmographicum
cosmos
cosmu
cossa
cossiga
cossizeri
cossoine
cossos
cossu
cost
costa
costabadde
costada
costadu
costante
costantemente
costantes
costanti
costantine
costantino
costantinopoli
costantinu
costantza
costantzu
costanza
costas
costat
costau
costazos
costazu
coste
costellatzione
costellatziones
costera
costeras
costerinu
costi
costituende
costituente
costituentes
costituiant
costituiat
costituida
costituidas
costituidos
costituidu
costituint
costituire
costituit
costitutiva
costitutivas
costitutivu
costitutzionale
costitutzionales
costitutzionali
costitutzione
costitutzioni
costituzione
costoidu
costos
costrinta
costrintu
costru
costruida
costruidu
costruire
costrutzione
costrutziones
costrutzioni
costruzione
costu
costuma
costumant
costumas
costumat
costumene
costumenes
costumi
costumu
cota
cotard
cotes
cotidianu
cotone
cotta
cottafavi
cottin
cotton
cotu
cotura
coudu
coudus
could
couleur
couleurs
coulomb
council
count
country
county
court
cov
cover
covers
covid
cox
coxina
coyada
cpsq
cpu
cra
craba
crabarissu
crabas
crabiele
crabonaxa
craboni
crabonia
craccracriccrecr
crack
craco
cracovia
crae
craes
crafts
crai
craig
cramada
cramadu
cramer
cramu
crannatza
crara
craramente
craras
craresa
crarimentos
crarire
craros
craru
cras
crasi
crassifigadura
crastu
crateris
cravadas
cravadu
crazy
crc
cre
creada
creadas
creados
creadu
creai
creant
creare
creari
creat
creativa
creative
creatividade
creativu
creatzione
creatzioni
creau
creaus
creazione
crede
credentes
credet
credi
credito
credo
cree
creek
creende
creent
creet
crei
creiant
creiat
creit
creja
crejas
crema
creo
creolu
creschede
creschende
creschene
creschent
creschente
crescher
creschere
creschet
creschiat
creschida
creschidu
creschimentu
cresci
crescit
cresia
cresias
cresiedda
cresieddas
crespi
creta
creu
crew
creze
cri
criada
criados
criadu
criadura
criaduras
criai
criare
criatzione
criau
criende
crientes
crima
crime
crimea
criminale
criminales
criminalidade
criminosu
crimson
crinera
cripta
crise
crisi
crisis
cristallina
cristiana
cristianas
cristiane
cristianesimu
cristianidade
cristianizatzione
cristiano
cristianos
cristianu
cristianus
cristina
cristo
cristofaro
cristoforo
cristolu
cristos
cristu
crite
criterium
critica
criticada
criticadu
criticare
criticas
critichende
critici
critico
criticos
critics
criticu
critografia
crivelli
cro
croa
croata
croatos
croatu
croatzia
croba
crobas
crobu
croce
crocefisso
crocifisso
crocifissu
crockett
croft
croix
croke
cromlech
cromosoma
cromosomas
cromper
crompet
crompit
cronaca
cronache
cronista
cronolo
cronologia
crooked
crosadas
crosby
cross
crosta
crotone
crowe
crown
crs
cru
crua
crucifissu
crucis
cruelidade
crusiera
crutzada
crutzadas
crutzados
cruu
cruxi
cruz
cry
crystal
cs
cthulhu
ctm
ctona
ctonas
ctonos
ctor
cu
cua
cuada
cuadas
cuaddu
cuaddus
cuados
cuadrada
cuadrados
cuadradu
cuadrangulare
cuadras
cuadrau
cuadraus
cuadriennale
cuadros
cuadru
cuadu
cuant
cuarantena
cuare
cuarta
cuarteri
cuartetu
cuartieri
cuartos
cuartu
cuat
cuaterna
cuator
cuatru
cuattru
cuba
cubana
cubanu
cube
cubeddos
cubeddu
cubello
cubos
cubu
cucca
cucchi
cucciari
cuccu
cuccuru
cuccurullo
cucu
cucumiau
cudd
cudda
cuddas
cuddos
cuddu
cuddus
cue
cuec
cuffo
cufforma
cugat
cuggino
cughe
cuginu
cugu
cugugiada
cugugiadu
cugugiare
cuguzat
cui
cuida
cuidales
cuidos
cuidu
cuile
cuiles
cuindixi
cuinta
cuintu
cula
culas
culla
cullaboradura
cullega
cullegamentos
cullegamentu
cullegamentus
cullegas
cullera
culo
culoris
culos
culpa
cult
culta
cultas
cultibu
cultivada
cultivadu
cultivare
cultivos
cultivu
cultos
cultu
cultura
cultural
culturale
culturales
culturali
culturalis
culturalmente
culturas
culture
cultures
culu
culumbu
culus
cum
cumandada
cumandadore
cumandados
cumandadu
cumandaiat
cumandamentos
cumandante
cumandantes
cumandare
cumandat
cumandos
cumandu
cumandus
cumarca
cumassa
cumba
cumbata
cumbatas
cumbatende
cumbatentes
cumbatere
cumbatimentos
cumbatimentu
cumbatos
cumbattere
cumbattidu
cumbe
cumbentos
cumbentu
cumbentura
cumbessias
cumbi
cumbidadu
cumbidant
cumbidare
cumbidat
cumbidau
cumbidende
cumbidu
cumbinada
cumbinadas
cumbinados
cumbinadu
cumbinadura
cumbinant
cumbinat
cumbinatzione
cumbinatziones
cumbinchet
cumbinchimentos
cumbinende
cumbinta
cumbintos
cumbintu
cumbocadu
cume
cumenciau
cumente
cumenti
cumentzada
cumentzadu
cumentzant
cumentzat
cumentzau
cumentzendi
cumentzu
cumertziale
cumertziales
cumi
cumintza
cumintzada
cumintzadu
cumintzan
cumintzande
cumintzant
cumintzare
cumintzat
cumintzau
cumintze
cumintzende
cumintzos
cumintzu
cumissione
cumissioni
cumme
cummentadu
cummente
cummentende
cummenti
cummentos
cummentu
cummerciale
cummerciu
cummertziale
cummertziales
cummertziantes
cummertziare
cummertziu
cummessa
cummi
cummissione
cummissiones
cummissioni
cummo
cumonale
cumonales
cumone
cumpa
cumpagnia
cumpagnos
cumpangia
cumpangias
cumpangiu
cumpanza
cumpanzi
cumpanzia
cumpanzias
cumpanzos
cumpanzu
cumpara
cumparada
cumparadu
cumparativu
cumparent
cumparet
cumparis
cumparit
cumparrer
cumparta
cumpartos
cumpartzi
cumpartzida
cumpartzidas
cumpartzidos
cumpartzidu
cumpartzidura
cumpartzimentu
cumpartzint
cumpartzire
cumpartzit
cumpati
cumpatibilidade
cumpe
cumpensos
cumpensu
cumpete
cumpetentzia
cumpetidore
cumpetitiva
cumpetitzione
cumpetitziones
cumpiladura
cumplementu
cumplessa
cumplessas
cumplessidade
cumplessiva
cumplessos
cumplessu
cumpleta
cumpletada
cumpletadu
cumpletamente
cumpletamenti
cumpletare
cumpletende
cumpletu
cumpo
cumponent
cumponente
cumponentes
cumponenti
cumponentis
cumponet
cumponidore
cumponidores
cumponidura
cumponiduras
cumponimentos
cumponimentu
cumponint
cumportadu
cumportai
cumportamentos
cumportamentu
cumportamentus
cumportant
cumportare
cumportat
cumposidore
cumpositzione
cumpositziones
cumposta
cumpostas
cumpostos
cumpostu
cumpostus
cumpre
cumprende
cumprendende
cumprendent
cumprender
cumprendere
cumprendet
cumprendi
cumprendiant
cumprendiat
cumprendiri
cumprendit
cumprendo
cumprensione
cumprensioni
cumpresa
cumpresos
cumpressione
cumpressores
cumpressos
cumpressu
cumpresu
cumpreta
cumpretamente
cumpretu
cumpri
cumprida
cumpridu
cumpridura
cumprimentu
cumprint
cumprire
cumprit
cumproare
cumprobu
cumpromi
cumpromissu
cumproos
cumprou
cumunu
cun
cunca
cuncentramentu
cuncertu
cuncetu
cunchista
cunchistada
cunchistadas
cunchistadu
cunchistare
cunchistau
cuncordada
cuncordadu
cuncordant
cuncordare
cuncordat
cuncordu
cuncreta
cuncretamente
cuncretas
cuncretos
cuncretu
cuncruimentu
cuncurre
cuncurrente
cuncurrentes
cuncursos
cuncursu
cund
cundanna
cundannadu
cundannau
cundenna
cundennada
cundennados
cundennadu
cundennant
cundennare
cundennat
cundennau
cundensadore
cundensatzione
cundidas
cundissione
cundissiones
cunditzionada
cunditzionadu
cunditzionale
cunditzione
cunditziones
cunditzionis
cundottu
cunduta
cuneo
cunetada
cunfederados
cunfederadu
cunfederatzione
cunfere
cunferentzia
cunferidu
cunfessadu
cunfessiones
cunfia
cunfiguratzione
cunfinat
cunfirma
cunfirmada
cunfirmados
cunfirmadu
cunfirmai
cunfirmant
cunfirmare
cunfirmat
cunfirmende
cunfisca
cunfiscados
cunflitos
cunflitu
cunforma
cunformadu
cunformatzione
cunforme
cunformidade
cunfortu
cunfraria
cunfrarias
cunfronta
cunfrontos
cunfrontu
cunfu
cunfunder
cunfusione
cungiada
cungiadu
cungiau
cungressos
cungressu
cuni
cunnatzionalis
cunningham
cunnoscher
cunnoschimentu
cunnota
cunnotas
cunnotos
cunnotu
cunsacrada
cunsacradu
cunsagrada
cunsagradu
cunsagradura
cunsagrantis
cunseghe
cunsegue
cunseguentzia
cunsensos
cunsensu
cunsentende
cunsentidu
cunsentint
cunsentire
cunsentit
cunserbare
cunserbat
cunsertadu
cunservada
cunservadas
cunservadore
cunservadores
cunservados
cunservadu
cunservant
cunservare
cunservat
cunservato
cunservatzione
cunsi
cunsidera
cunsiderada
cunsideradas
cunsiderados
cunsideradu
cunsiderai
cunsideraiant
cunsideraiat
cunsiderandu
cunsiderant
cunsiderare
cunsiderat
cunsideratziones
cunsiderau
cunsideraus
cunsiderende
cunsideros
cunsideru
cunsighe
cunsighente
cunsighentes
cunsighidos
cunsighidu
cunsighire
cunsighit
cunsigna
cunsignadu
cunsignare
cunsillu
cunsiste
cunsistent
cunsistente
cunsistentes
cunsistet
cunsistiant
cunsistiat
cunsistit
cunsizu
cunso
cunsolidadu
cunsonante
cunsonantes
cunsumu
cuntantu
cuntatos
cuntattos
cuntattu
cuntatu
cuntatus
cunte
cuntempora
cuntenende
cuntenent
cuntenet
cunteniant
cunteniat
cuntenidores
cuntenimentu
cuntenint
cuntenit
cunteniu
cuntenner
cuntenta
cuntentas
cuntentesa
cuntentos
cuntentu
cuntenutos
cuntenutu
cuntestadu
cuntestatzione
cuntestos
cuntestu
cuntierra
cuntierrada
cuntierradu
cuntierras
cuntinentale
cuntinentales
cuntinente
cuntinentes
cuntingente
cuntra
cuntrastadu
cuntrastare
cuntrastos
cuntrastu
cuntratos
cuntrattu
cuntratu
cuntributos
cuntributu
cuntrollada
cuntrolladores
cuntrollados
cuntrolladu
cuntrollaiat
cuntrollare
cuntrollat
cuntrollos
cuntrollu
cuntronos
cuntze
cuntzedende
cuntzedet
cuntzediat
cuntzentrada
cuntzentradas
cuntzentrados
cuntzentradu
cuntzentramentu
cuntzentrant
cuntzentrare
cuntzentrat
cuntzentratzione
cuntzepida
cuntzepidu
cuntzertos
cuntzertu
cuntzessione
cuntzessiones
cuntzetos
cuntzettu
cuntzetu
cuntzetuale
cuntzi
cunusitani
cunve
cunvegnos
cunvegnu
cunventu
cunventzionale
cunventzione
cunventziones
cunversione
cunversiones
cunvertende
cunvertida
cunvertidos
cunvertidu
cunvertire
cunvertit
cunvive
cunvoca
cunvocados
cunvocadu
cunvocare
cunzughet
cuore
cuori
cuota
cuotas
cuotidiana
cuotidianos
cuotidianu
cup
cupa
cupant
cupat
cupola
cupula
cura
curac
curada
curadora
curadore
curadori
curadoria
curadorias
curados
curadu
curare
curas
curat
curatori
curatoria
curau
curazao
curcio
curie
curioni
curiosa
curiosidade
curiosidades
curiosidadi
curiosu
curitiba
curnisa
curos
curpa
curre
curregidore
currela
curreladas
currende
current
currentadas
currente
currentes
currenti
currera
curreras
currespo
curresponde
currespondent
currespondet
currespondiat
curret
curreta
curretu
curretzione
curretziones
curreu
curriculum
currispo
currisponde
currispondent
currispondentes
currispondet
currispondiat
currispondit
cursa
cursada
cursas
cursos
cursu
curta
curtas
curte
curteddu
curtis
curtos
curtu
curtura
curturale
curturales
curturas
curtza
curtzas
curtzesa
curtzos
curtzu
curu
curva
cus
cusano
cuss
cussa
cussas
cusse
cussegue
cussi
cussidera
cussiderada
cussideradu
cussiderare
cussiderende
cussideru
cussigeri
cussigeris
cussighe
cussizera
cussizeri
cussizu
cusso
cussos
cussu
cussus
cust
custa
custas
custi
custitui
custituimentu
custituit
custo
custos
custri
custringhende
custrinta
custrintos
custrintu
custrintus
custu
custuma
custus
cut
cuta
cutzara
cuxina
cuzi
cuzone
cv
cynotherium
d
da
daba
daboi
daca
dada
dadas
dade
dados
dadu
dae
daet
daga
dagli
dahl
dai
daiant
daiat
dakar
dakota
dal
dale
dali
dall
dalla
dallas
dalle
dalma
dalmaticu
dalmatzia
dalmau
dalton
dama
dame
damiani
damiano
damianu
dan
dana
dance
dancing
dande
danesa
danese
danesos
danesu
dangerous
daniel
daniela
daniele
danimarca
dannos
dannu
danny
dans
dant
dante
dantis
dantza
dantzas
danu
dany
danza
dao
dapoi
dappoi
dar
dare
dario
dark
darkgrey
darkness
darko
darwin
das
dassadu
dassare
dassat
dassende
dat
data
database
datada
datadas
datados
datadu
datadura
datagrama
datagramas
datant
datare
datas
datat
datatzione
datau
date
dateformat
dates
dativu
dato
datos
datu
datus
dau
daughter
dave
daverio
david
davide
davidson
davis
davoli
dawson
day
days
db
dc
dd
dda
ddan
ddas
ddat
ddd
ddi
ddighes
ddine
ddini
ddis
dditos
dditu
ddiu
ddoe
ddoi
ddos
ddr
ddt
ddu
ddui
dduna
ddunu
ddus
de
dea
dead
deadache
deaf
dean
dear
death
deathly
debate
debian
debile
debilesa
debrecen
debugger
debutadu
dec
decade
decadessimentu
decameron
december
deche
deci
decidibilidadi
decidit
decidiu
decimarum
decisioni
decisionis
declarada
declaradu
declaratzione
declaratzioni
declinatzione
declinatziones
declinu
decolladu
decolonizatzione
decorada
decoradas
decorados
decoradu
decoradura
decoraduras
decorativa
decorativu
decrarada
decrarados
decraradu
decraradura
decraraiat
decrarare
decrarat
decraratzione
decraratziones
decrarau
decrarende
decraru
decretada
decretadu
decretaiat
decretos
decretu
dedica
dedicada
dedicadas
dedicados
dedicadu
dedicare
dedicat
dedicato
dedicau
dedicaus
dedichende
dedigadu
dedola
deduit
dee
deejay
deep
deepin
def
defe
defender
defensa
defensare
defensas
defense
defesa
define
definende
defini
definiat
definida
definidas
definidos
definidu
definidura
definint
definire
definiri
definit
definitiva
definitivamente
definitive
definitivu
definitzione
definitziones
definitzioni
definiu
defuntos
defuntu
degaici
deghe
deghennoe
degheoto
deghes
deghessete
deghet
deghimale
deghina
deghinas
deghit
degli
dego
degollos
degortes
degradu
dei
deidda
del
delaware
deledda
deleddianu
delegados
delegadu
delegatzione
delegatziones
deleuze
delfino
delgada
delhi
deli
deliberada
delicada
delirio
delitala
delitos
delitto
delitu
dell
della
delle
dello
delogu
dels
delta
delusione
dem
dema
demasiadu
demetra
demo
democra
democratica
democratico
democraticu
democratzia
democrazia
democrito
demogra
demografia
demografica
demolitzione
demon
demos
den
dena
denanti
dende
denegada
denegare
dengler
dengosu
dengue
denia
denis
denisenko
dennegadu
dennegu
dennis
denominada
denominados
denominadu
denominatzione
denominatziones
densamente
densidade
densidadi
dentale
dente
dentes
dentro
denu
denumenada
denumenados
denumenadu
denumenatzione
denuntzia
denuntziadu
denuntziare
denver
deo
deos
depant
departamentu
department
depat
depen
depende
dependent
dependet
depent
deperet
depes
depet
depi
depiant
depiat
depida
depidu
depimus
depint
depit
depiu
depo
deportados
deportadu
deportatziones
deportivo
depositzione
depostos
depostu
deppit
depressione
deprus
deputada
deputados
deputadu
der
derant
derat
derbi
derby
dere
derectu
derek
deres
deret
dereta
deretamente
deretamenti
deretas
deretore
deretos
deretta
derettos
derettu
deretu
deretura
deretus
deriu
derivada
derivadas
derivados
derivadu
derivant
derivare
derivat
derivatzione
derivaus
derivet
deros
derosas
derrida
derrota
derrotada
derrotados
derrotadu
derrotare
derrotas
derrotende
derru
derruta
derrutu
deru
derzhkino
des
desacatu
descansar
descendentis
descri
descriende
descrient
descriere
descriet
descriiat
descriptio
descrissione
descrita
descritas
descritiva
descritos
descrittu
descritu
descritzione
descritziones
descritzioni
descrivet
desde
dese
desert
desertos
desertu
desiderio
design
designada
designadu
designare
designat
designer
desine
desinniadu
desire
desktop
desmond
desole
dessa
dessi
dessintotu
dessu
dessy
destinada
destinadas
destinados
destinadu
destinata
destinatzione
destinatziones
destinazione
destino
destinos
destinu
destituidu
destra
destrale
destro
destru
destrui
destruida
destruidura
det
deta
detadu
dete
detective
detenimentu
detentos
detentu
detentzione
determinada
determinadas
determinados
determinadu
determinante
determinantes
determinare
determinat
determinativos
determinativu
determinatzione
determinende
determinu
detlev
detroit
dettori
detzi
detzidende
detzident
detzidet
detzididu
detzidit
detzifrare
detzimale
detzimales
detzisa
detzisione
detzisiones
detzisiva
detzisivu
detzisos
detzisu
deu
deum
deus
deutsch
deutsche
deutschland
deux
devaddis
deve
devede
development
devenende
devenit
devenner
devennet
devent
deventale
dever
devet
devi
deviant
deviat
devices
devidu
devil
devota
devoto
devotzione
devotzioni
dexe
dexi
deximeputzu
deximumannu
dh
dhabi
dhamma
dharma
dhya
di
dia
diabete
diaconu
diacri
diaderus
diadoru
diagno
diagonale
diagonales
diagramma
diagrammas
diaici
diais
diale
dialetale
dialetales
dialetologia
dialetos
dialettale
dialetti
dialetto
dialettologia
dialettos
dialettu
dialetu
dialetus
dialoghi
dialogo
dialogos
diamantes
diametru
diamond
diamus
diana
diane
diant
diario
diary
dias
diat
diato
diavolo
diaz
diba
dibata
dibatas
dibatu
dica
dicant
dicas
dicat
diccionari
dice
dicembre
dichiaradu
diciu
dick
dickens
dicono
dicos
dictionary
dictionnaire
dicu
dicus
did
dida
didas
diderot
didos
didu
didus
die
dieci
diego
diegu
dies
diesel
dieta
dietrich
diez
difa
difati
difatis
difattis
dife
difendere
difendi
difendibile
difensiva
difensivu
difensore
difensores
difere
diferente
diferentemente
diferentes
diferenti
diferentis
diferentzia
diferentziados
diferentziadu
diferentziale
diferentziare
diferentzias
diferint
diferit
difesa
difesu
difetu
diffattis
differe
differente
differentes
differenti
differentis
differentzia
differentzias
differenza
differia
difficultade
diffitzile
diffusa
diffusione
difi
dificultade
dificultades
dificultosa
dificultosu
dificurtade
difitzile
difu
difundet
difusione
difusu
dig
diga
digas
digestivu
dighe
dighes
digital
digitale
digitales
digiunat
digiunu
diglossia
dignidade
dignu
digos
digramma
digu
dii
diis
diletantes
diletanti
dili
dillindada
dillindadas
dillindados
dillindadu
dillu
dilo
dilu
dimanda
dimandadu
dimandare
dimandas
dimandat
dimensionale
dimensione
dimensiones
dimensioni
dimensionis
dimenticati
dimi
diminutivi
diminutivu
dimissiones
dimitris
dimm
dimo
dimoniu
dimostradu
dimostratzioisi
dimustrada
dimustradu
dimustrant
dimustrare
dimustrat
dimustratzione
din
dina
dinai
dinamica
dinamo
dinare
dinares
dinari
dinastia
dinastias
dine
dinelli
dines
dinnidade
dino
dinosa
dinosauri
dinosaurus
dins
dintorni
dinu
dio
diocesanu
diocesi
diocletzianu
dionigi
diora
diorio
dios
diosa
diotzesanu
diotzesi
dipartimentos
dipartimentu
dipe
dipende
dipendende
dipendent
dipendente
dipendentes
dipendentzia
dipendet
dipendiant
dipendit
diploma
diplomadu
diplomaticus
diplomatzia
diproma
dir
dire
director
directory
direta
diretamente
diretas
diretivas
diretivu
diretora
diretore
diretores
diretori
diretos
diretta
direttore
direttores
direttu
diretu
diretzionale
diretzione
diretziones
diretzioni
direzione
diri
dirigente
dirigentes
dirigi
dirigida
dirigidoris
dirigidu
dirigit
diris
diritos
diritto
dirittos
dirittu
diritu
dirty
dis
disa
disabitada
disabitadas
disacatos
disacatu
disaccattu
disaco
disacordu
disafios
disafiu
disamistade
disamistades
disarmados
disastru
disc
discansare
discansu
discassu
discendentes
dischente
dischentes
dischi
disciplina
disciplinas
discipline
disciprina
discipulos
discipulu
disco
discogra
discografi
discografia
discografica
discogs
discoidu
disconnoschende
disconnota
disconnotas
disconnotos
disconnotu
discorso
discos
discoteca
discreta
discriminato
discriminatzione
discriminatziones
discu
discumbe
discuntentesa
discuntentu
discursos
discursu
discus
discussione
discussiones
discutega
discutegas
discutiamo
disdi
disegni
disegno
disegnos
disegnu
disgra
disi
disigiada
disigiadu
disigiaiant
disigiaiat
disigiare
disigiu
disignos
disimpreu
disinnadas
disinnadu
disinnare
disinnos
disinnu
disintegratzione
disisperu
disk
dislindada
dislindadas
dislindados
dislindadu
disney
diso
dispe
dispensadu
dispensadura
dispensare
dispensat
dispidire
dispo
disponent
disponet
disponi
disponiat
disponibile
disponibilidade
disponimentos
disponimentu
dispositivos
dispositivu
dispositivus
disposta
dispostas
dispostos
dispostu
disputadas
disputadu
disputare
disputau
dissiplina
dista
distacamentu
distantzia
disterra
disterrados
disterradu
disterru
disti
distinghent
distinghet
distinghit
distinta
distintas
distintos
distintu
distintzione
distintziones
distretos
distretu
distribuida
distribuidos
distribuidu
distribuidura
distribuire
distribution
distributzione
distributziones
district
distritos
distritu
distru
distruende
distruere
distruet
distruida
distruidu
distrutzione
disturbu
disubidie
disusadu
disvariada
disvariadas
disvariados
disvilupadu
disvilupare
dit
dita
ditadore
ditadores
ditadura
ditaduras
ditas
ditatoriale
ditions
ditongu
ditos
ditu
ditziona
ditzionariu
ditzu
diu
dius
diva
dive
divenende
diveni
divenida
divenidu
diveninde
divenint
divenire
divenit
divennere
divenniu
diventa
diventada
diventados
diventadu
diventai
diventant
diventare
diventat
diventata
diventende
diveris
diversa
diversamente
diversas
diverse
diversi
diversidade
diversificadu
diverso
diversos
diversu
diversus
divescias
divescios
divi
dividi
dividia
dividida
divididas
divididos
divididu
dividire
dividit
dividiu
divina
divinidade
divinidades
divinidadis
divinu
divisa
divisas
divisio
division
divisione
divisiones
divisioni
divisu
divo
divulgatzione
dixi
dixie
diz
dizionario
dizitale
dizzy
dj
djamena
django
dl
dm
dmitrij
dna
do
dobru
doc
doctor
document
documenta
documentada
documentadas
documentadu
documentant
documentario
documentarios
documentariu
documentas
documentassione
documentat
documentation
documentatzione
documenti
documento
documentos
documentu
documentus
dodger
dodoma
doe
doesburg
dog
dogg
dogma
dogna
dogni
dogs
doi
doighi
dolce
dolia
dollaros
dollaru
dolly
dolme
dolmen
dolo
dolore
dolores
doloretta
dolori
dolorosa
dolorosas
dolphy
dolu
dom
domanda
domandat
domani
dome
domenica
domenico
domi
domina
dominada
dominadora
dominadore
dominadores
dominados
dominadu
dominadura
dominaiat
dominante
dominantes
dominare
dominatzione
dominatziones
dominazione
domingo
domini
dominica
dominicana
dominicanu
dominiga
dominigu
dominio
dominion
dominique
dominiu
domino
dominus
domitziliares
dommo
dommu
domo
domos
domu
domunoas
domus
don
dona
donada
donadu
donai
donald
donant
donare
donas
donat
donatello
donativu
donato
donatzione
donatziones
donau
donaus
dondolando
done
donende
donendi
donetsk
dong
donigala
donizetti
donna
donne
donnia
donniasantu
donniassantu
donnie
donnikellu
donniunu
donnu
dono
donora
donoratico
donos
dontzi
donu
donzi
doors
dop
dopia
dopiadore
dopieta
dopiu
dopo
dopofestival
doppiada
doppiadu
doppio
dopu
dorada
dore
doria
dorias
doris
dormire
dormius
dorothy
dorsale
dorsali
dorset
dos
dosina
dossale
dossu
dostoevskij
dostum
dot
dotada
dotadas
dotados
dotadu
dotare
dotoradu
dotore
dotores
dotori
dotrina
dotto
dottor
dottore
dottori
dottrina
dotze
dotzente
double
douglas
douro
dov
dova
dove
dover
dovere
down
downs
doxi
dr
dra
draco
dragon
dragons
dragu
drake
drama
dramma
drammatica
drammaturgu
dre
dread
dream
dreamcast
dreams
drer
dresden
dresta
drew
dreyfus
dria
drive
driver
droga
drogas
droid
drom
dromi
dromillone
drop
druche
druches
druci
drug
drum
drums
druyan
ds
dsm
dt
dtirol
du
dua
duami
duamiza
duarche
duas
duat
dub
dubai
dublin
dublinu
dubrovnik
duc
duca
ducados
ducadu
ducale
ducas
duchamp
duchess
ducretet
duda
dudas
duddurinos
dudosa
dudosu
due
duellu
duero
duetu
dughentos
dugone
dui
duilio
duke
dukkha
dulce
dule
dulos
dulu
duluth
dunas
duncan
duncas
dune
duo
duomo
duos
dupra
dura
durada
duradas
duradu
duraiat
duran
durant
durante
duranti
durare
duras
durat
durcarias
durche
durches
durci
dure
durgale
durgali
durham
duri
durium
durov
duru
dus
duse
dusinas
dust
dusu
dutore
dutores
duttore
duu
duus
dux
duxentus
dvd
dwarves
dwight
dwut
dx
dy
dylan
dynamic
dyson
dz
də
e
ea
eac
eagle
eagulls
ear
earl
early
earth
east
eastern
easy
eat
eau
eba
ebba
ebbero
ebbi
ebbia
ebi
ebia
eboli
ebra
ebraica
ebraicu
ebraismu
ebrea
ebreas
ebreos
ebreu
ebro
ec
ecc
ecce
eccellenza
ecciu
ecclesiasticos
eccu
ecentritzidadi
echili
echilibrada
echipa
echipamentos
echipazu
echo
echov
eclesia
ecli
eclisse
eclissi
eclissis
eco
ecolo
ecologia
econo
economi
economia
economias
economic
economica
economicamente
economicas
economiche
economico
economicos
economicu
economista
economy
ecosistema
ecosistemas
ecua
ecuado
ecuador
ecuadore
ecuadoriale
ecuamente
ecuatoriale
ecuatzione
ecuatziones
ecuatzioni
ecuestre
ecuino
ecuivalente
ecuivalentes
ed
eda
edade
edades
edadi
edd
edda
eddie
eddy
eden
edera
edes
edgar
edgbaston
edge
edi
edicions
edifi
edificios
edifitziu
edile
edili
edimburgo
edimburgu
edina
edinburgh
edipo
edirne
edissione
edissiones
edit
editadu
edith
edition
editor
editora
editore
editores
editori
editoria
editorial
editoriale
editoriales
editrice
editto
editu
editzione
editziones
editzioni
editzionis
ediz
edizione
ediziones
edizioni
edmonton
edmundston
edo
edoardo
eds
edu
eduard
eduardo
eduardu
educada
educadore
educadu
educare
education
educational
educativu
educatzione
educatzioni
educazione
edward
edwards
ee
eelst
ef
efeme
efetiva
efetivamente
efetivu
efetos
efetu
efetus
effetti
efi
efica
eficatze
eficatzes
eficatzidade
efis
efisio
efitziente
eg
egalidade
ege
egemone
egemonia
egeu
egi
egitto
egittu
egitu
egitziana
egitzianas
egitzianos
egitzianu
egizianos
ego
eguale
eguales
egualidade
ehman
ei
ein
einaudi
einem
eines
einfu
einste
einstein
eis
eisenhower
eisenman
eixample
eja
ejatv
eka
el
ela
elaborada
elaboradore
elaboradores
elaboradori
elaboradoris
elaborados
elaboradu
elaborare
elaboratzione
elaboratziones
elaborazione
elba
elbla
elder
eldizio
ele
electa
electric
electronic
elefanta
elefante
elegante
elegantes
eleghidu
eleghiduras
elegidu
elementare
elementares
elementi
elementos
elementu
elementus
elen
elena
elencat
elenco
elencu
elene
eleonora
eletoradu
eletorale
eletorales
eletores
eletritzidade
eletro
eletromagne
eletrone
eletrones
eletrote
elettrica
elettronica
eletu
eletzione
eletziones
eletzionis
elevada
elevadu
eli
elia
elianora
elias
elico
elies
elighe
eliminadu
eliminare
eliminatzione
eliminende
elini
elinor
elio
elionora
eliot
elisa
elisabeth
elisabetta
eliseo
elisione
elita
elizabeth
ella
elle
elleni
elli
ellington
ellis
ellisso
elmas
elmu
eloquentia
els
elsa
else
elvis
em
ema
emacs
emanadu
emanatzione
emancipatzioni
emantzipatzione
emanuela
emanuele
emarcy
emblema
eme
emendamentu
emerge
emerson
emerze
emi
emigrada
emigrados
emigradu
emigrantes
emigratzione
emigrazione
emil
emilia
emiliana
emilianu
emilio
emily
emirados
emiradu
emiros
emiru
emisfe
emisferu
emissa
emissione
emissiones
emissora
emitende
emitent
emitente
emitet
emitit
emito
emittente
emivida
emma
emmanuel
emme
emmo
emmy
emocromu
emoglobina
emorragia
emotiva
emotziones
emozioni
empi
empire
emu
en
ena
encara
enciclope
enciclopedia
enclave
enclaves
encore
encyclopaedia
encyclopedia
end
enda
endangered
ende
endo
enel
eneoli
eneolitica
energe
energia
energias
energy
enerzia
enfadar
engels
engine
engineering
england
english
englund
eni
enigma
enis
enit
enja
enje
enkidu
enko
enna
ennalzu
ennarzu
ennas
enne
ennio
ennis
enorme
enormes
enough
enregistrements
enrico
enricu
enrique
ensemble
ent
ente
enterprise
enterrar
entertainment
entes
enti
entidade
entidades
entre
entscheidungsproblem
entu
entusiasmu
entziclopedia
entziclopedias
entzu
environmental
enzima
enzimas
enzo
eo
ep
ephemeris
ephraim
epi
epide
epidemia
epidemias
epidemiologia
epiru
episcopu
episcopus
episo
episode
episodi
episodio
episodios
episodiu
episodius
epistolare
epitome
epitzentru
epoca
epopea
eppuru
eps
epub
er
era
erano
eranu
eras
erba
erbas
ercole
ere
eredade
eredados
eredadu
erede
eredera
erederi
erederis
eredes
eredidade
eredita
eremida
erentzia
ereos
eresia
eresias
eretico
ereu
erfurt
erge
ergo
eri
eric
erich
erie
eritrea
eritu
eritzu
ermafroditismu
ermita
ermosu
ernest
ernesto
ernobyl
ernst
ero
eroe
eroes
eroina
eros
erosione
erosioni
erra
erradu
erricu
erriu
erroneamente
errore
errores
ertzego
eru
erutzione
erva
ervosa
erzego
es
esa
esagerada
esageradu
esaminadu
esantema
esarca
esarcadu
esas
esata
esatamente
esatas
esauridu
escacs
escala
esclamatzione
esclu
escludende
escluende
escluet
esclusione
esclusiva
esclusivamente
esclusivas
esclusivu
esco
escu
escursionismu
escut
ese
esecuta
esecutada
esecutadas
esecutados
esecutadu
esecutai
esecutare
esecutat
esecutau
esecutaus
esecutende
esecutiva
esecutivu
esecutzione
esecutziones
esecutzioni
esegue
esempio
esempios
esempiu
esemplare
esemplares
esemplari
esempros
esempru
esemprus
esercito
esercitu
esercizi
esertzi
esertzitadu
esertzitaiant
esertzitare
esertzitu
esi
esibitzione
esibitziones
esiliados
esiliadu
esiliu
esima
esistat
esiste
esistent
esistenti
esistentzia
esistentziali
esistentzialis
esistentzialismu
esistet
esistiant
esistiat
esistidu
esistini
esistint
esistire
esistit
eso
esordi
esordidu
esordit
esote
espace
espalmador
espan
espansione
espansioni
espantar
espanyol
espardell
espe
esperantistas
esperanto
esperie
esperientzia
esperientzias
esperimentos
esperimentu
esperimentus
esperta
espertos
espertu
espertus
esplo
esploradore
esploradu
esplorare
esploratzione
esploratziones
esploratzionis
esplosione
esplosiva
esplosivu
espo
esponende
esponente
esponentes
esponentziale
esponet
esportadores
esportat
esportatzione
esportatziones
espositzione
espositziones
esposizione
esposizioni
esposta
espostas
espostos
espostu
espreso
espressada
espressadas
espressadu
espressaiat
espressare
espressat
espressione
espressiones
espressioni
espresso
espulsione
esquerra
esquivel
essa
essays
esse
essen
essende
essendi
essential
essentziale
essentziales
essentzialmente
esser
essere
esserent
esseret
esseris
esserit
essex
essi
essida
essidas
essidi
essidos
essidu
essinde
essint
essire
essiri
essit
essiu
est
esta
estado
estany
estate
este
estelada
estendet
estendit
estensione
estensiones
estensioni
esterna
esternas
esterni
esternos
esternu
esternus
esti
estinta
estintas
estintu
estintzione
estintzioni
esto
estonia
estrales
estrativa
estratzione
estratzioni
estrema
estremadura
estremamente
estremas
estremidade
estremo
estremos
estremu
estu
estua
estudis
eswatini
et
eta
etade
etadi
etanu
etc
etcc
eterna
eternu
etero
eteroge
eterosessuale
eterosessualidade
ethan
ethernet
ethnic
ethnologue
eti
etiam
eticheta
etichetadura
etichetas
etimolo
etimologia
etimologico
etio
etnia
etnias
etnica
etnicamente
etnicas
etnico
etnicos
etnicu
etno
etnogra
etnografia
etnografico
etnolingui
etnomusicologo
etnotzi
eto
etottu
etotu
etru
etrusca
etruscas
etruschi
etruscos
etruscu
ets
ettaros
ettore
etz
etza
etzetzione
etzetziones
etzu
eu
eucariotas
eufonia
euge
eugen
eugene
eugenio
eura
eurafra
euro
euromaidan
europa
europacategoria
europaea
europaeus
europe
europea
european
europeas
europeascategoria
europeo
europeos
europeu
europeus
euros
eurovision
eus
euse
euskal
euskaltzaindia
euskara
euskera
eustatius
eutanasia
ev
eva
evacuada
evacuatzione
evange
evangelizatzione
evans
evaporatzione
eve
even
eventos
eventu
eventuale
eventuales
eventus
ever
every
everybody
everything
evic
evide
evidente
evidentemente
evidentes
evidentziada
evidentziadu
evidentziende
evil
evitai
evitare
evitende
evo
evolution
evolutiva
evolutzione
evolutziones
evolutzioni
evoluzione
evu
evviva
ex
excellence
excellent
exchange
exclave
expanded
experience
expo
express
ext
extra
extremadura
eyes
ez
ezitu
ezra
ezzu
f
fa
faa
fabbri
fabbrica
faber
fabio
fabra
fabricatzione
fabrizio
fac
faca
facat
facci
faccia
face
facebook
fache
fachen
fachende
fachent
facher
fachere
fachet
fachi
fachian
fachiat
faci
faciada
facies
facile
facolta
fact
facta
factbook
facto
factor
factory
factotum
facultade
facultades
facultadi
fadas
fadda
faddende
faddi
faddimentu
faddina
faddinamente
faddinas
fadende
fadendi
fadiant
fadiat
fado
fae
faedda
faeddada
faeddadas
faeddadore
faeddadores
faeddados
faeddadu
faeddaiant
faeddaiat
faeddant
faeddare
faeddat
faeddatores
faeddende
faeddos
faeddu
faendi
faendu
faenza
fagat
faghe
faghede
faghen
faghende
faghene
faghent
fagher
faghere
faghes
faghet
faghi
faghian
faghiant
faghiat
faghides
faghimus
faghinde
fago
fagos
fahrenheit
fai
faiant
faiat
faidi
faina
fainas
faint
fainti
fair
fairi
fairy
fais
fait
fala
falada
faladu
falange
falare
falat
falck
falco
falcone
fale
faline
falkland
fall
fallida
fallidu
fallimentare
fallimentu
falling
fallout
falls
fallu
falsa
falta
fama
famada
famadas
famados
famadu
famau
famaus
fame
fami
famiglia
famiglias
familia
familiale
familiare
familiares
familiaris
familias
familla
famillia
family
famine
famosa
famosas
famosos
famosu
fan
fana
fancello
fano
fans
fanta
fantasia
fantasie
fantasma
fantasmi
fantastic
fantasy
fanteria
fantes
fantzedda
fanum
far
fara
faradda
faraone
farche
fardetta
fare
farina
fario
farm
farmaceutica
farmacologia
faro
faros
farra
farrancas
farsa
farsas
farsu
farta
fartant
fartas
faru
fasani
fasca
fascas
fascia
fascismo
fascismu
fascista
fascistas
fase
fases
fasi
fasis
faso
fassbinder
fassista
fasti
fasulo
fat
fata
fatale
fatas
father
fathu
fatore
fatores
fatoria
fatorias
fatoris
fatos
fatta
fattas
fatti
fatto
fattos
fattu
fatu
fatufatu
fatura
fatus
fatuvatu
fatza
fatzada
fatzant
fatzas
fatzat
fatzile
fatzilidade
fatzilitadu
fatzione
fatziones
faulkner
fauna
faunisticu
faust
faustina
fausto
faut
fava
fave
favedda
faveddabant
faveddada
faveddan
faveddant
faveddare
faveddat
faveddos
faveddu
favola
favole
favor
favora
favore
favoressende
favorevole
favori
favoridu
favorire
favorite
favourite
fazilidade
fazio
fcfs
fdl
fe
fear
feat
feature
features
featuring
febbraio
febra
febrarju
february
fedales
fede
fedele
federados
federadu
federadura
federal
federale
federales
federali
federalismo
federassione
federation
federatzione
federatziones
federatzioni
federazione
federico
federicu
fedor
fedu
feedback
feel
feeling
feiez
fejzo
feldman
fele
felice
felici
felicita
felipe
felis
felisatti
felitze
felix
felline
fellini
fellow
felton
feltrinelli
femina
feminas
feminile
feminiles
feminina
femininas
femininos
femininu
feminismu
feminista
feministas
femme
femmina
femminile
femminili
femu
femus
fende
fendi
feni
fenice
fenicio
fenicios
feniciu
fenitzios
feno
fenomeno
fenomenologia
fenomenos
fenomenu
fenomenus
fenoti
fentoma
fentomada
fentomadas
fentomados
fentomadu
fentomare
fentomu
fentzamentas
fenu
fenugru
fenugu
fer
fera
feras
ferdinand
ferdinando
ferdinandu
ferentius
ferguson
feria
ferida
feridas
feridos
feridu
fermentatzioni
fermentos
fermentu
fermentus
fermi
ferna
fernanda
fernandez
fernando
feronia
feros
ferotze
ferrante
ferrara
ferraresi
ferrari
ferraris
ferre
ferrer
ferreri
ferretti
ferri
ferro
ferrovia
ferrovias
ferru
ferruccio
ferruvia
fertas
ferti
fertilia
fertilidade
fertos
fertu
feru
fessint
fessit
fest
festa
festada
festadu
festai
festant
festare
festas
festat
festival
festivale
festividade
feti
feu
feudale
feudales
feudalesimu
feudata
feudatarios
feudu
fi
fia
fiabe
fiada
fiais
fiandras
fiant
fiantza
fiara
fias
fiat
fibra
fibras
fica
ficant
ficas
ficat
ficit
ficos
fiction
ficu
ficus
fidada
fidadas
fidadu
fidal
fide
fidel
fidele
fideles
fidelidade
fidericu
fides
fidi
fiedler
field
fields
fiera
fieras
fiere
fifa
fifth
figa
figadu
figari
figaro
figas
figat
figg
figgatta
fight
figi
figia
figios
figiu
figli
figlia
figlio
figo
figos
figu
figura
figurant
figuras
figurat
figurativas
fila
filade
filadelfia
filamentu
filas
file
filepath
filera
fileras
files
filiale
filiberto
filiestru
filighe
filigosa
filigre
filipinas
filippini
filippo
filippu
filipu
filiu
filla
fille
fillu
fillus
film
filmados
filmadu
filmcritica
filme
filmis
filmografi
filmografia
films
filo
filolo
filologia
filologica
filologici
filologu
filone
filos
filoso
filosofale
filosofia
filosofias
filosofica
filosoficu
filosofo
filosofos
filosofu
fils
filtru
filu
fimi
fimus
fin
fina
final
finale
finales
finali
finalidade
finalidades
finalista
finalmente
finant
finantzia
finantziados
finantziadu
finantziamentos
finantziamentu
finantziare
finarmente
finas
finat
finch
fincias
find
fine
fineis
finende
fines
finghende
fini
finia
finiant
finias
finiat
finida
finides
finidu
finint
finire
finis
finit
finita
finla
finlandesa
finlandesos
finlandesu
finlandia
finlandizatzione
finn
fino
fins
finsas
fint
finta
fintas
fintzamentas
fintzas
fintzes
fintzione
finu
finzas
fiore
fiorella
fiorentina
fiorentino
fiorentinu
fiorenzo
fiores
fiori
fiorinos
fir
fire
firentze
firenze
firma
firmada
firmadas
firmados
firmadu
firmai
firmant
firmare
firmas
firmat
firmata
firmau
firmende
firmesa
firmu
firmware
first
fis
fisarmonica
fiscale
fiscales
fischer
fisgale
fish
fisher
fisica
fisicamente
fisicu
fisietto
fisiolo
fisiologia
fisionomia
fissa
fissada
fissadas
fissadu
fissare
fissas
fissione
fissos
fissu
fit
fita
fitas
fiti
fitiana
fitianamente
fitianas
fitiania
fitianos
fitianu
fitze
fitzgerald
fitzherbert
fiu
fiuda
fiume
fiumene
five
fivestore
fiza
fizas
fizis
fizos
fizu
fizzarotti
fizzu
fl
fla
flag
flaminia
flaminio
flanker
flash
flauto
flavia
flavio
flero
flesh
fleurs
flight
flnc
flo
flora
florence
flores
florida
florinos
florio
floris
flota
flotas
flotta
flow
flower
flowers
floyd
flu
flugelhorn
flumendosa
flumini
flussos
flussu
flute
fluviale
fly
flying
flynn
fm
fo
foa
focas
foce
focu
focus
foga
foggia
foghe
foghesu
foghile
fogliash
fogos
fogu
fogulone
fois
foiso
foix
folclore
folclori
folk
folklore
folli
follia
follu
fomentzas
fona
fonas
fondachi
fondamentale
fondazione
fondo
fondos
fone
fonema
fonemas
fonematica
fonetica
fonit
fonne
fonnesu
fonolo
fonologia
fonos
font
fontana
fonte
fontes
fontfroide
fonti
fontis
fontomada
fontomadu
fontsize
fonu
fonzi
fool
football
for
fora
foradada
foradas
foras
force
ford
fordongiani
fordongianus
foreign
forest
foresta
forestale
forestas
forever
forili
fork
forli
forma
formada
formadas
formados
formadu
formadura
formaggio
formai
formaiant
formaiat
formale
formales
formalizada
formalmente
formant
formare
formas
format
formatatzioni
formatu
formatzione
formatziones
formatzioni
formatzionis
formau
formaus
formazione
forme
formell
formende
formentera
formigas
formula
formulada
formuladu
formulare
formulatzione
forni
foro
forreddos
forros
forru
forse
forsis
fort
fortalesa
forte
fortemente
fortes
forti
fortificadu
fortificatziones
fortilesa
fortilesas
fortissime
fortran
fortuna
fortunada
fortune
fortza
fortzada
fortzados
fortzadu
fortzare
fortzas
fortzis
foru
forum
forza
forzata
fosfatu
fosili
fossa
fossataro
fossi
fossu
foster
foto
fotogra
fotografadu
fotografau
fotografi
fotografia
fotografias
fotografu
fotone
fotones
fotos
fotosi
foucault
foundation
four
fourier
fox
foza
fozas
fozu
fpr
fr
fra
frac
frade
frades
fradi
fradile
fradili
fradis
frae
fraga
fragu
fraiga
fraigada
fraigadas
fraigados
fraigadu
fraigadura
fraigai
fraigamentu
fraigare
fraigau
fraighende
fraigos
fraigu
fraila
frame
frameless
framework
frammento
frammentos
franc
franca
francas
france
frances
francesa
francesc
francesca
francesco
francese
francesu
francesus
franchi
franchismu
franchista
francia
franciolini
francioni
francis
francisci
francisco
franciscu
francke
franco
francoforte
francos
francu
francuforte
frank
frankfurt
franklin
frantz
frantza
frantzacategoria
frantze
frantzesa
frantzesas
frantzesos
frantzesoscategoria
frantzesu
frantzesus
frantzisca
frantziscanos
frantziscanu
frantziscu
franz
franziscu
frasca
frase
fraseologia
fraser
frases
frasi
frasia
frassada
frasso
frassu
frastimare
frate
fratelli
fratello
fratempus
frattempus
fratura
fratzione
fratziones
fratzioni
frau
fraus
fravica
frazione
fre
frea
frealzu
freargiu
frearju
frearzu
freaxu
frechentadu
frechente
frechentemente
frechentes
frecue
frecuentadu
frecuentare
frecuentat
frecuentatzione
frecuentende
fred
freddie
frederick
free
freedom
freeman
freetown
fregura
freguras
freie
freistaat
freitas
frelimo
frenare
french
frenu
freque
frequentada
fresa
fresh
fresu
freud
fri
fria
friaxu
frica
fricativa
fricativas
frid
frida
friday
fridolin
fridos
friedrich
friedrichshain
friends
friga
frigo
frigori
frimmada
frimmare
frimmu
frisca
frisch
friscos
friscu
frisone
frita
fritas
fritos
frittu
fritu
fritz
fritza
fritzas
friulana
friulanu
friuli
frius
fro
frode
frodo
frogheri
from
froma
fromma
frommas
frontale
fronte
frontera
fronteras
fronti
frontman
frontone
frora
frore
frores
frori
frorida
froridu
froridura
frorire
froris
frorit
frosinone
frou
fru
fruit
frumenes
frunende
fruniant
fruniat
frunida
frunidas
frunidori
frunidoris
frunidos
frunidu
frunimentu
frunint
frunire
fruniri
frunit
frussu
fruta
frutas
frutos
frutta
frutto
fruttos
fruttu
frutu
frutus
fs
ftp
fu
fua
fubaleri
fubaleris
fubalu
fudi
fudit
fue
fuedda
fueddada
fueddai
fueddant
fueddari
fueddat
fueddau
fueddu
fueddus
fuego
fuende
fuentes
fuerteventura
fuga
fughire
fugos
fui
fuida
fuidas
fuidos
fuidu
fuint
fuire
fuit
fukushima
fulanu
full
fulliada
fulliadu
fulvio
fumetos
fumettos
fumettu
fumettus
fumetu
fumetus
fumu
funchal
fund
funda
fundada
fundadas
fundadore
fundadores
fundadori
fundadoris
fundados
fundadu
fundadura
fundaiat
fundamenta
fundamentale
fundamentales
fundamentali
fundamentalis
fundamentas
fundamentos
fundamentu
fundant
fundare
fundat
fundatzione
fundau
fundende
fundesa
fundet
fundidura
fundos
fundu
funduru
fune
funera
fungos
funguda
funi
funk
funt
funtana
funtanas
funtes
funti
funtis
funtziona
funtzionaiat
funtzionale
funtzionales
funtzionalidade
funtzionalidades
funtzionamentu
funtzionant
funtzionare
funtzionarios
funtzionat
funtzione
funtziones
funtzioni
funtzionis
funzione
funzioni
fuoco
fuori
fura
furadu
furare
furas
furca
furesi
furint
furinti
furisteris
furlan
furlana
furono
furria
furriada
furriadas
furriados
furriadu
furriadura
furriai
furriare
furriat
furriau
furriaus
furriende
furru
furtado
furto
fusi
fusiladu
fusilare
fusile
fusiles
fusiliers
fusion
fusione
fusioni
fut
futbol
futei
futuna
futura
future
futurista
futuro
futuros
futuru
føroyar
g
ga
gabbale
gabbanu
gaber
gabine
gabinete
gabo
gabor
gaborone
gabriel
gabriele
gabriella
gadas
gaddura
gadduresa
gadduresas
gadduresos
gadduresu
gadget
gadoni
gae
gaelic
gaelica
gaelicu
gaeta
gaetano
gai
gaia
gaine
gairo
gal
gala
galana
galeano
galeas
galegu
galera
galeras
gali
galicia
galilea
galilei
galileo
galileu
galinfo
galitzia
galitzianu
galleria
gallerias
gallery
galles
gallesa
gallesos
gallesu
gallesus
galli
gallia
galliano
gallimard
gallizzi
gallo
gallone
gallu
gallura
gallurese
galluresu
galo
galtelli
galu
gama
game
games
gamma
gana
gandalf
gandhi
gandi
gange
gara
garantida
garantidu
garantire
garantit
garantzia
garantzias
garas
garau
garci
garcia
garda
garden
gargano
gari
garibaldi
garibaldino
garipa
garland
garnier
garrone
garteddi
garth
gary
garzanti
gas
gasdottu
gasi
gasos
gaspare
gasperini
gasquet
gassos
gassosu
gassu
gastaldi
gasteiz
gasto
gastone
gastos
gastrono
gastronomia
gastu
gastus
gasu
gat
gate
gates
gateway
gatos
gattini
gatto
gatu
gaudi
gaulle
gauss
gautama
gavin
gavino
gavinu
gavoi
gay
gays
gaza
gazeta
gazzano
gazzetta
gazzolo
gb
gcc
gdan
gdp
ge
geddes
geezer
geist
geli
gelimeru
gelisuli
gelli
gelosia
gemellas
gemellos
gemellu
gemma
gen
gena
genas
gene
genealogia
generada
generadas
generados
generadu
general
generale
generales
generali
generalis
generalitat
generalizada
generalizadu
generalmente
generare
generation
generatzione
generatziones
genere
generes
generi
generis
genes
genesi
genetica
geneticas
genia
genias
genina
genista
genitales
genitores
genius
genna
gennadios
gennaio
gennargentu
gennargiu
gennaro
gennarxu
gennas
gennaxu
genoa
genocide
genoma
genoni
genos
genotzi
genova
genovesa
genovesas
genovesi
genovesos
genovesu
gens
gente
gentes
genti
gentile
genu
geo
geodesia
geoff
geoffrey
geofi
geogra
geografia
geografiacategoria
geografica
geograficamente
geografico
geograficu
geografu
geografus
geographic
geoide
geolo
geologia
geologicamente
geome
geometria
geominera
geomorfologia
geopoli
georg
george
georges
georgetown
georgette
georgia
georgian
georgiana
georgianos
georgianu
georgie
geppi
ger
gera
gerais
gerald
gerarchia
gerarchias
gerardu
gerba
gere
gerhard
gerineldo
germa
germain
german
germana
germania
germanica
germanicas
germanicu
germano
germanu
germany
gerolamo
geroni
gerrei
gerrit
geru
gerundio
gerusalemme
gervasi
ges
gessner
gestiat
gestidos
gestidu
gestione
gestire
gestore
gestores
gestu
gesu
gesuita
gesuitas
gesus
get
gettext
getting
geunu
gewalt
gfdl
ggiu
gh
ghana
ghe
gheddafi
ghedini
ghenna
ghennarzu
ghennas
ghent
ghenugru
gher
ghera
gherardesca
gherardo
gherardu
ghere
gherra
gherrada
gherradores
gherradu
gherraiat
gherrare
gherras
gherrat
gherrende
gherreri
gherreris
gherrilla
ghet
ghetada
ghetadas
ghetadu
ghetant
ghetare
ghetat
ghetende
ghezzi
ghi
ghia
ghiada
ghiadas
ghiadore
ghiados
ghiadu
ghiaiat
ghiani
ghiare
ghias
ghiat
ghibli
ghida
ghidas
ghidos
ghidu
ghiende
ghil
ghilarza
ghilighia
ghina
ghine
ghini
ghir
ghirare
ghisare
ghitarra
ghitarreri
ghitarrista
ghost
gi
gia
giacarta
giacche
giacobbe
giacomo
giacu
giae
giagnoni
giagomina
giagu
giai
giait
gialappa
giallo
giama
giamada
giamadu
giamat
giambattista
giampaolo
giampiero
gian
gianas
giancarlo
gianfranco
giangiacomo
giani
gianluca
gianluigi
gianna
gianni
giannini
giannirodari
giant
gianvecchio
giapone
giaponesa
giaponesas
giaponesos
giaponesu
giaponi
giappone
giapponesa
giapponesas
giapponesidade
giapponesos
giapponesu
giapponi
giara
giardino
giardinos
giardinu
giarra
giaru
gias
giassos
giassu
giat
giau
giava
giave
gibbs
gibilterra
gibraltar
gibson
gibuti
gica
gicamente
gicas
gicos
gicu
gicus
gida
gidos
gidu
gif
gigante
gigantes
giganti
gigantis
gigi
gil
gilbert
gilberto
giles
gilgamesh
gilla
gillan
gilles
gillespie
gilliam
gilt
gimene
gina
ginas
ginat
gine
ginepro
gines
ginesu
ginevra
gini
ginis
gino
gio
giocatore
gioco
gioga
giogada
giogadas
giogadore
giogadores
giogadori
giogadoris
giogadu
giogai
giogant
giogare
giogat
giogau
gioghende
giogos
giogu
giogus
gioia
giommaria
gion
giona
giorda
giordania
giordano
giordanu
giorga
giorghi
giorgi
giorgia
giorginu
giorgio
giorgiostrehler
giornada
giornale
giornales
giornali
giornalis
giornalismu
giornalista
giornalistas
giornalistascategoria
giornata
giorni
giorno
gios
giosepa
giosso
giossu
giostra
giotto
giovan
giovana
giovane
giovaneddos
giovaneddu
giovani
giovanile
giovaniles
giovanili
giovanna
giovanni
giovanos
giovanu
giove
gioventu
gioventude
giovinezza
giovunu
giovunus
gipi
gira
girada
giradas
girados
giradu
giraffa
girai
giraiat
girant
girare
girasoli
girat
girau
girende
giri
girl
giro
girolami
girolamo
girona
girone
girones
giros
giru
girus
gisella
gita
gitega
giu
giuamentu
giuanna
giuanne
giuanni
giubileu
giuda
giudea
giudeos
giudeu
giudi
giudicados
giudicadu
giudicale
giudicales
giudicali
giudicato
giudice
giudici
giuditzia
giuditziu
giudizio
giudu
giuffre
giugadu
giughe
giughent
giughet
giughiat
giugi
giugno
giuigados
giuigadu
giuigadus
giuigale
giuigales
giuigau
giuighe
giuighes
giuighissa
giuixau
giulia
giuliana
giuliano
giulianu
giulietta
giulio
giuliu
giunta
giuntu
giura
giuradu
giuramentu
giuri
giuria
giuridica
giuridico
giurisditzionale
giurisditzione
giurisditzioni
giurisprude
giurista
giuristas
gius
giusepe
giusepi
giuseppe
giusta
giusti
giustificare
giustinianu
giustinu
giustitziadu
giustizia
giustos
giustu
giuta
giutos
giuttu
giutu
give
gje
glaciale
gladio
glasgow
glass
glauco
glenn
gli
glia
glias
gliu
glo
global
globale
globales
globalizatzione
globalizzazione
globe
globi
globu
gloria
gloriosa
gloriosu
glory
glossa
glover
gmx
gn
gna
gne
gno
gnosi
gnu
go
goa
gobbo
goceano
gocius
god
goda
godard
godint
godit
godse
goes
goethe
goffredo
gog
gogh
goi
goigs
goin
going
gol
gold
golden
goldoni
goldstein
golfo
golfu
gollei
golo
gologone
golos
golothene
golpe
golu
goma
gomera
gomita
gomma
gommaflex
gon
gona
gonare
gonario
gone
gonfalone
goni
gonna
gonnesa
gonnos
gonone
gonu
gonza
gonzaga
gonzalo
good
goodbye
goodman
google
gor
gora
gorbac
gordon
gore
goretti
gorgobena
gori
gorizia
goro
gorropu
goru
gos
gosadu
gosaiant
gosant
gosantine
gosare
gosat
gosi
gosos
gospel
goss
got
gotha
goticu
gotos
gottfried
gotthold
gotzos
gould
governo
governu
govoni
gozos
gpl
gplv
gps
gpu
gr
gra
gracia
gracu
gradas
grado
grados
gradu
graduale
grae
graemente
graes
graesa
grafa
grafe
grafema
grafia
grafias
grafica
grafiche
graficu
grafiga
grafite
grafitos
grafitu
grafitus
grafos
grafu
graham
grai
grais
grama
gramma
grammar
grammatica
grammaticale
grammaticales
grammos
grammu
grammy
gramsci
gran
grana
granada
granata
grand
grande
grandes
grandesa
grandesas
grandi
grandu
granducadu
grandus
grani
granitu
granixeddus
grant
graphic
graphics
grappelli
gras
grassetu
grassia
grassias
grasso
grassu
gratis
gratu
gratzia
gratzianu
gratzias
grauso
grave
graves
gravi
gravidade
gravidadi
gravitatzionale
gray
graz
grazia
graziani
graziano
grazie
graziella
gre
great
greater
greatest
greca
grecas
grecia
greco
grecos
grecu
greek
green
greene
greenwich
greenwood
greg
grega
gregas
greghia
grego
gregori
gregoriana
gregorianu
gregorio
gregoriu
gregory
gregos
gregu
gremio
gremlins
grenada
grenadinas
gretchen
greyhound
gri
grid
gridcolor
grido
grigiu
griko
grillo
grimaldi
grimm
grispo
grobale
grobarmente
groenla
groenlandia
groga
grogos
grogu
grohl
groove
gropius
gros
grosseto
grotta
group
groves
grozny
gru
grunge
grupos
gruppo
gruppos
gruppu
gruppus
grupu
grupus
grussa
grussas
grussera
grussesa
grussos
grussu
grustiu
grustu
gruta
grutas
grutta
gruttas
gruyter
gu
gua
guadalupa
guadalupe
guadeloupe
guam
guanda
guarani
guard
guarda
guardano
guardia
guardian
guariro
guas
guasi
guasila
guatemala
guayana
gubernadore
gubernare
gubernatis
gubernos
gubernu
gudat
gudru
gue
guedes
guelfo
guelfu
guernica
guerra
guerre
guerrero
guerrieri
guest
guevara
guez
gufi
guglielmo
guglielmu
guiana
guida
guide
guides
guidi
guido
guilcer
guillermu
guinea
guinness
guisar
guiso
guitar
gujana
gula
gulag
gulas
gulfu
gullielmu
gulliermu
gulos
gulu
gumas
gume
gun
gunale
gunnare
gunness
guns
gure
gures
gurfu
gurissa
gurrei
gurteddu
gurturju
guru
gus
gustav
gustave
gustavo
gusto
gustu
gutenberg
gutmann
guu
guvernada
guvernadore
guvernadores
guvernadori
guvernados
guvernadu
guvernaiat
guvernant
guvernare
guvernat
guvernativa
guvernativas
guvernativos
guvernativu
guvernende
guvernos
guvernu
guy
guyana
h
ha
habemus
habeo
habitat
habyarimana
hack
hacker
had
hadot
hagen
haggard
hague
hai
haiat
haiti
haitianu
haji
hajj
hal
hale
half
halifax
hall
halle
halley
hallows
ham
hamburg
hamid
hamilton
hamlet
hammersmith
hammond
hampshire
hampton
han
hand
handbook
hands
hanks
hanna
hanno
hannover
hanoi
hans
hansestadt
hant
happy
hara
harare
harbor
harcourt
hard
hardly
hardware
hardy
harmon
harold
harpercollins
harris
harrison
harry
hartford
hartman
harvard
harvey
has
hastings
hat
hatta
havana
have
haven
hawaii
hayao
hayes
he
head
health
hearst
heart
hearts
heat
heath
heaven
heavy
hebe
hebrew
heck
hector
hedera
heeringa
hegazi
hegel
heidegger
heidelberg
height
heinrich
heinz
helix
hell
hellersdorf
hello
help
hemingway
henderson
hendrix
hengest
henri
henrik
henry
her
herbert
here
herero
hereros
heritage
herman
hermann
hermione
herna
hernandez
heroes
herria
herta
hervarar
herzegovina
hewitt
hey
hi
hic
hid
hiera
hieronimu
high
highlands
hikikomori
hikmet
hilary
hill
hills
him
himalaya
himmel
hindi
hines
hip
hiroshima
his
hispaniola
histo
histoire
historia
historiae
historical
history
hit
hitler
hits
hiv
hl
ho
hoa
hobart
hobbit
hoc
hockey
hodie
hoffmann
hofmann
hogan
hogwarts
hohenstaufen
hoi
hojarasca
hokkaido
hoku
hold
hole
holiday
holland
holloway
hollywood
holman
holmes
holstein
homage
home
homi
homines
homme
hommes
homo
honduras
honey
hong
honolulu
honore
honoris
hoochie
hook
hoover
hop
hora
horizon
horizontal
horizonte
horn
horror
horse
horta
hospital
hospitalet
host
hot
hotel
houghton
hour
house
housing
houston
how
howard
howe
howland
howlin
hp
hrrn
hrung
htm
html
http
https
hu
huancas
huang
huatl
hub
hudson
huelva
huesca
hughes
hugo
huillet
hukapan
hull
human
humphrey
hunt
hunter
hurd
hurin
hussein
hutchinson
hutu
hutus
huygens
hypertext
i
ia
iaa
iada
ian
iant
ianta
ianuarius
ias
iast
iat
ibanez
ibarbo
ibas
ibe
iberica
iberru
ibes
ibid
ibiza
ibm
ibn
ibrahim
ic
ica
icas
ice
iceage
ich
ichi
ichnusa
ico
icona
iconas
icos
ictus
ictv
icu
id
ida
idaho
idas
idda
iddanoa
iddhi
iddhu
ide
idea
ideada
ideale
ideales
ideas
idee
identi
identidade
identidades
identidadi
identifica
identificada
identificadas
identificados
identificadu
identificai
identificaiat
identificare
identificat
identificativu
identificativus
identificatzione
identifichende
identita
identitade
ideolo
ideologia
ideologias
ides
idet
idi
idioma
idiomas
idir
idis
ido
idos
idra
idrisi
idro
idroele
idrogra
idrografia
idru
idu
ie
iec
ieee
ieri
ierriles
ierros
ierru
ietf
if
ifferru
ifugas
iga
igant
igas
igat
igbos
ighe
ighes
ighi
ighinu
igia
igiene
iglesia
iglesias
iglesiente
igna
ignatziu
ignazio
ignaziu
ignaziumannu
ignoto
igor
igos
igre
igresias
igresiente
igu
iguara
igus
ii
iii
ijerru
ijime
ikastola
ikastolas
ikti
il
ila
ilartzi
ilex
ili
ilia
iliade
ilienses
ilisso
ill
illa
illargu
ille
illegale
illegales
illeggibile
illegi
illi
illiero
illinois
illorai
illu
illuminada
illuminamentu
illuminatzione
illuminismu
illuministas
illusione
illustradore
illustradu
illustratzione
illustratziones
illustrazione
illustre
illustri
im
ima
imaculada
image
imagesize
imagina
imagine
imagines
imam
imba
imbarcadu
imbarcare
imbarcu
imbasciada
imbatende
imbatent
imbatet
imbe
imbeniente
imbenientes
imbenta
imbentada
imbentadas
imbentadu
imbentare
imbentau
imbentore
imbentos
imbentu
imbesse
imbesti
imbestidu
imbestidura
imbestigadura
imbestigaduras
imbestimentos
imbetze
imbetzes
imbi
imbiada
imbiadas
imbiadore
imbiados
imbiadu
imbiai
imbiaiat
imbiant
imbiare
imbiat
imbiau
imbiaus
imbiende
imbios
imbiu
imbo
imboligadu
imbre
imbressi
imbrotadu
imbucat
imbuccai
imbuccat
imdb
ime
imelda
imitare
imitende
imma
immacolata
immagina
immaginadu
immaginare
immaginaria
immaginato
immaginatzione
immagine
immagines
immagini
immanuel
immateriale
immateriali
immediata
immediatamente
immediatu
immensa
immigrados
immigrantes
immigrantis
immigratzione
imminente
immoa
immoe
immoi
immortal
immunita
imoe
imoi
impa
impamentadas
imparada
imparadu
imparai
imparamentu
imparamentus
imparant
imparare
imparat
imparau
impare
imparentadu
impari
imparis
imparonzu
imparu
impasse
impatu
impe
impedende
impedidu
impedimentos
impedire
impedradu
impedumare
imperada
imperadas
imperadore
imperadores
imperadori
imperai
imperant
imperat
imperativos
imperativu
imperatore
imperau
imperaus
imperfetto
imperfetu
imperiale
imperiales
imperiu
imperium
imperju
impero
impertantu
imperu
impestantu
impestos
impestu
impiantos
impiantu
impiccati
impignadu
impignu
impinnada
impinnadu
impinnat
impinnu
impitada
impitadore
impitadores
impitadori
impitadoris
impitadu
impitant
impitat
impitu
impli
implicat
impo
imponende
imponente
imponentes
imponet
imponiat
imponimentu
importa
importada
importadu
importante
importantes
importanti
importantis
importantzia
importare
importat
importatzione
importu
impositzione
impossi
impossibile
impossibilidade
imposta
impostas
impostatzione
impostu
imprantos
imprantu
impre
imprea
impreada
impreadas
impreadore
impreados
impreadu
impreai
impreaiant
impreaiat
impreamus
impreant
impreare
impreat
impreau
impreaus
impreende
impreendi
impreent
impreet
imprenda
imprendidore
imprendidores
imprenta
imprentada
imprentadas
imprentadora
imprentadore
imprentados
imprentadu
imprentare
imprentas
impreos
impresa
impresas
impresonados
impresonadu
impresonamentu
impresonau
impresonaus
impressionante
impressione
impretzisu
impreu
impro
improba
improvisation
improvisatzione
impudu
impulsos
impulsu
impunnados
imputados
imputadu
imputu
in
ina
inadeguada
inadeguadu
inantis
inas
inaugurada
inauguradu
inauguratzione
inc
inca
incaminadori
incaminadoris
incaminadu
incaminamentu
incanida
incantada
incapas
incapatzidade
incarat
incarcada
incarcat
incarchende
incarnatzione
incarrigada
incarrigados
incarrigadu
inch
inche
incherta
inchiesta
inchiestas
inchingiadu
inchisitzione
incidenti
incino
incipit
incisa
incisione
incisu
inclinada
inclinatzione
inclinu
inclu
include
includende
includent
includet
includiant
includiat
incluende
incluent
incluet
incluiat
incluidas
incluidos
incluidu
incluint
incluire
incluit
inclusione
inco
incolliosa
incolumidade
incomentzu
incomintzada
incomintzadu
incomintzat
incomintzau
incomintzende
incomintzu
incompiuta
incompiuto
incontra
incontrada
incontradu
incontri
incontro
incontros
incontru
incora
incoragidu
incoragire
incoronadu
incorporada
incorporadu
incorporatzione
incras
increment
incru
incruet
incu
incui
incuida
incuinamentu
incuisitzione
incumenciau
incumentzada
incumentzadas
incumentzados
incumentzadu
incumentzai
incumentzant
incumentzare
incumentzat
incumentzau
incumentzende
incumentzendi
incumentzu
incumintzada
incumintzadu
incumintzare
incumintzat
incumintzu
incunza
incurare
incurat
incurtzadu
incurtzadura
incurtzia
incuru
ind
indagine
indedda
independe
independent
independente
indereta
index
indi
india
indian
indiana
indianas
indianos
indianu
indianus
indias
indicada
indicadas
indicados
indicadu
indicaiant
indicaiat
indicant
indicare
indicat
indicativo
indicativu
indicatzione
indicau
indichende
indicibile
indicos
indie
indifere
indiferente
indigenos
indignadu
indios
indipende
indipendente
indipendentemente
indipendentes
indipendenti
indipendentis
indipendentismo
indipendentismu
indipendentista
indipendentistas
indipendentzia
indireta
indiretos
indiritzada
indiritzadu
indiritzamentu
indiritzos
indiritzu
indiritzus
indispensa
indita
inditada
inditadas
inditadori
inditados
inditadu
inditai
inditaiat
inditant
inditare
inditat
inditos
indittare
inditu
inditze
indivi
individua
individuados
individuale
individuales
individuali
individuare
individuos
indivisi
indo
indoeuropea
indoeuropeas
indoeuropeos
indoeuropeu
indone
indonesia
indonesiana
indonesianu
indoor
indotzina
indovina
indu
induidu
induire
induismu
induista
induistas
indus
industria
industrial
industriale
industriales
industriali
industrializados
industrializatzione
industrias
ine
inedite
inediti
inedito
ines
inevita
inez
infa
infadadu
infadare
infadu
infamamentu
infante
infantile
infanzia
infartu
infatis
infatti
infe
inferiora
inferiore
inferiores
inferiori
inferioridade
inferno
inferru
infetadu
infetiva
infetivas
infetzione
infetziones
infeudada
infeudadas
infeudados
infeudadu
infines
infinitu
inflatzione
influe
influente
influentes
influentzada
influentzadas
influentzados
influentzadu
influentzant
influentzat
influentzia
influentziadu
influentzias
influenzadu
influidu
influsso
influssos
influssu
info
informa
informados
informadu
informaduras
informale
informare
information
informativa
informativu
informatzione
informatziones
informatzioni
informatzionis
informazione
infra
infraistruturas
infraruja
infrastruturas
infratziones
infrazioni
infty
infu
infusta
inganno
inge
ingeborg
ingegner
ingegneri
ingegneria
ingegneris
ingendrat
ingenieri
ingenieria
ingham
inghi
inghilterra
inghiriada
inghiriadas
inghiriados
inghiriadu
inghiriadura
inghiriat
inghiriu
inghirterra
inghitzadu
inghitzant
inghitzat
inghitzau
inghitzu
ingi
ingiusti
ingle
inglesa
inglesas
inglese
inglesos
inglesu
inglesus
ingollet
ingortas
ingortos
ingotos
ingotu
ingraide
ingrana
ingrassia
ingrediente
ingredientes
ingres
ingresa
ingresu
ingresus
inguni
ingurti
ingurtosu
ini
inie
inimicos
inimicu
inimigas
inimigos
inimigu
initiative
initziale
initziales
initziativa
initziativas
iniu
iniziativa
inizio
inklings
inn
inna
innanti
innantis
inner
innestu
innetafumajolos
innia
inno
innoi
innorabona
innoramala
innorante
innotze
innovatzione
innovatziones
innovazione
innsbruck
innu
innui
ino
inoche
inoghe
inoltre
inorga
inos
inouva
input
inquisicio
inredu
ins
insajadura
insalada
insandus
insaras
insediamento
insediamentos
insediamentu
insediamentus
insegna
insegnadu
insegnamento
insegnamentu
insegnante
insegnantes
insegnanti
insegnare
insegnat
inserimentu
inserradas
inserradu
inserrat
insertada
insertadas
insertados
insertadu
insertare
insertau
insertende
insetos
insettos
insettu
inside
insieme
insignante
insinzadu
inso
insoro
insoru
insta
instabilidade
instagram
installada
installadu
installadura
installaduras
installare
installatzione
installatziones
installatzioni
instant
instauradu
instaurare
instauratzione
institut
institute
institution
instituto
insubordinatzione
insufitziente
insula
insulare
insulares
insularidade
insuretis
insurretzione
insurretziones
insurrezione
int
inta
intamas
intames
intamis
intantu
intatu
inte
integrada
integradas
integrados
integradu
integrale
integrante
integrare
integratzione
integratzioni
integrende
integridade
intel
inteligente
intellettuales
intellettuali
intelletuale
intelletuales
intelletualidade
intellige
intelligence
intelligente
intelligenti
intellighe
intende
intendende
intendent
intender
intendere
intendet
intendi
intendiant
intendimentu
intendit
intensa
intensas
intensidade
intensidades
intensiva
intensivu
intensu
intentadu
intentaiant
intentare
intentat
intentende
intentos
intentu
intentzione
intentziones
inter
interactive
interassione
interativos
interatzione
interatziones
interatzioni
interconnessione
intercontinentale
intere
interessada
interessadas
interessados
interessadu
interessaiat
interessamentu
interessant
interessante
interessantes
interessanti
interessare
interessat
interessau
interesse
interessende
interessi
interessos
interessu
interfa
interfaccia
interface
interfache
interfere
interi
interim
interiore
interiores
interis
interlinea
interlingua
interme
intermedia
intermezzo
interna
internacional
internamentu
internas
internassionale
internassionales
international
internationale
internatzionale
internatzionales
internatzionali
internatzionalis
internatzionalmente
internazionale
internazionali
interne
internet
interno
internos
internu
interpol
interpreta
interpretada
interpretadas
interpretados
interpretadu
interpretare
interpretat
interpretatzione
interpretatziones
interpretau
interpretazione
interprete
interpretende
interpretes
interrada
interrados
interradu
interramentu
interrare
interrau
interregionales
interrogativa
interrogativu
interros
interru
interrutzione
interrutziones
intersessuales
intersessualidade
intertantu
intertra
interve
intervenit
intervenner
interventos
interventu
interview
interviews
intervista
intervistas
intervoca
intesa
intestatzione
intestatziones
intesu
inti
intitoladu
intitulada
intituladu
into
intollera
intonatzione
intorinos
intorno
intr
intra
intrada
intradas
intrados
intradu
intrae
intragnas
intrai
intraiat
intrana
intransitivos
intrant
intrare
intras
intrat
intrate
intrau
intre
intrea
intreamente
intreas
intrega
intregada
intregados
intregadu
intregai
intregare
intregat
intregatzione
intregu
intreit
intrena
intrende
intrenu
intreos
intreu
intrinada
intritzidas
intro
introdu
introduction
introduende
introdui
introduida
introduidas
introduidos
introduidu
introduire
introduit
introduttivo
introdutzione
introduzione
intru
intrus
intrusida
intuidu
intzertesa
intzidentale
intzidente
intzidentes
intzisione
intzisiones
intzullados
inu
inube
inue
inui
inuit
inva
invadendi
invasione
invasiones
invasore
invasores
inve
invece
invecias
invecis
inventada
inventadu
inventore
invenzione
inverno
inversione
investidu
investigation
investimentos
investimentu
invisi
invisibili
invisible
invitada
invitadu
invitare
invitu
involunta
inze
inzenieri
io
ioannis
iommi
ione
iones
iorcu
ios
iowa
ip
ipa
ipagnolu
iper
iperbo
ipermercadu
ipertestu
ipertestuale
ipo
ipocro
ipoge
ipogeu
ipote
ipotesi
ipotesis
ipotizadu
ipotizat
ipotizende
ippona
iprage
ipse
ipsu
ipubulamentu
iqbal
ir
ira
irachena
irachenas
irachenos
irachenu
iran
iraniana
iranianos
iranianu
iraq
irbonu
irde
ire
ireann
ireland
irena
irene
irgas
irgoli
irgonza
iri
iris
irish
irlanda
irlandesa
irlandesas
irlandesos
irlandesu
irma
iro
irochesa
irochesus
ironia
iroxi
irradighinadu
irraighinadu
irrajamentu
irreale
irregulare
irregulares
irst
iru
irving
irwin
irwing
is
isa
isaac
isabel
isabella
isalle
isba
isballiada
isballiadu
isbarcados
isbarcadu
isbarcare
isbarcu
isbarrare
isbn
isca
iscachera
iscacos
iscacu
iscade
iscadenadu
iscadenare
iscadenende
iscagiada
iscagiadu
iscagiamentu
iscagiare
iscala
iscalabrada
iscalabradu
iscalada
iscalare
iscalas
iscalu
iscambiadu
iscambiare
iscandalosu
iscandalu
iscandi
iscandina
iscannos
iscansione
iscantzellare
iscanu
iscapamentu
iscare
iscarpas
iscarrica
iscarrigare
iscaru
iscasi
iscassa
iscassado
iscassia
iscassos
iscassu
iscata
iscavos
iscavu
iscavus
isce
iscena
iscenas
isceneggiadore
isceneggiadores
iscentzia
iscentziadu
iscera
iscerant
iscerare
iscerat
isceti
iscetis
iscetitzismu
ische
ischeda
ischedas
ischema
ischemas
ischende
ischermada
ischermos
ischermu
ischi
ischiat
ischiavos
ischidare
ischidu
ischiglia
ischili
ischimus
ischina
ischint
ischire
ischirolu
ischirria
ischirriada
ischirriadas
ischirriados
ischirriadu
ischirriadura
ischirriare
ischit
ischitzos
isci
iscia
isciacuadura
iscie
iscienegiadura
iscienti
iscientziados
iscientziadu
iscientzias
iscio
iscipione
isciri
iscisma
isciusciadu
isco
iscobe
iscoberit
iscoberta
iscobertas
iscobertos
iscobertu
iscobiadu
iscola
iscolarizatzione
iscolas
iscollas
iscominigadu
iscomintzu
iscomu
iscontro
iscontros
iscontru
iscontzada
iscontzadu
iscontzare
iscontzu
iscope
iscoperta
iscopertu
iscopiada
iscopu
iscorta
iscostiada
iscostiadu
iscostiare
iscotzesa
iscotzesos
iscotzesu
iscotzia
iscra
iscraos
iscratza
iscravamentu
iscravidade
iscravos
iscravu
iscre
iscri
iscriede
iscriende
iscriendi
iscrient
iscrier
iscriere
iscriet
iscriiant
iscriiat
iscriidura
iscriri
iscrita
iscritas
iscritora
iscritore
iscritores
iscritos
iscritta
iscrittas
iscrittore
iscrittores
iscrittos
iscrittu
iscritu
iscritura
iscrituras
iscritzione
iscritziones
iscrivania
iscrobare
iscroca
iscru
iscrusivamente
iscu
iscuadra
iscuadras
iscucuradore
iscudetu
iscudos
iscudu
isculpidos
isculto
iscultore
iscultores
iscultura
isculturas
iscumbata
iscumbatare
iscumbatas
iscumpa
iscumparta
iscumpartos
iscumpartu
iscumproant
iscumprou
iscura
iscuras
iscuredda
iscurigada
iscuros
iscurreras
iscurrimentu
iscurta
iscurtadu
iscurtare
iscurto
iscurtu
iscuru
iscussertos
iscuta
iscutu
isemprales
isempru
isentro
isetare
isetende
isetu
isfaghimentu
isfatu
isfe
isfera
isferas
isfidende
isfilada
isfocada
isfogu
isfortzos
isfortzu
isfritamentu
isfrutada
isfrutadas
isfrutados
isfrutadu
isfrutamentu
isfrutant
isfrutare
isfrutende
isfrutu
isfumaduras
isfundu
isgavos
ishtar
isia
isili
isis
iskra
isla
islam
islamabad
islamica
islamicu
islamista
island
islanda
islandesa
islandesu
islands
islava
islavas
islavascategoria
islavos
islavu
isle
islova
islovacu
islove
islovena
islovenos
islovenu
isma
ismanniada
ismanniadu
ismanniamentu
ismanniare
ismentigare
ismurgiare
iso
isola
isolamentu
isolana
isolanas
isolanos
isolanu
isolas
isole
isorbet
isorvimentu
isoto
ispa
ispada
ispadas
ispagna
ispagnacategoria
ispagnola
ispagnolas
ispagnolos
ispagnolu
ispagnolucategoria
ispainada
ispainadas
ispainados
ispainadu
ispainadura
ispainare
ispainende
ispaniada
ispaniadas
ispaniadu
ispaniadura
ispaniare
ispanna
ispanniola
ispanniolu
ispannola
ispannolos
ispannolu
ispano
ispantadu
ispantare
ispantat
ispantosa
ispantosas
ispantosos
ispantosu
ispantu
ispanu
isparado
isparadorzos
isparadorzu
isparadu
isparant
isparat
isparatottu
ispare
isparesset
isparessimentu
isparghidura
isparghinada
isparghinadas
isparghinados
isparghinadu
isparghinare
isparta
ispartas
ispartos
ispartu
ispartzida
ispartzidos
ispartzidu
ispartzidura
ispartzinada
ispartzinados
ispartzire
ispartzit
ispassiare
ispatziale
ispatziales
ispatziu
ispe
ispecie
ispeditzione
ispeditziones
ispera
isperdende
isperdere
isperdimentu
isperie
isperientzia
isperimentadu
isperimentale
isperimentales
isperimentare
isperimentatzione
ispertos
ispertu
isperu
ispesas
ispeta
ispetadores
ispetaiant
ispetora
ispetore
ispetoris
ispetru
ispettore
ispetzi
ispetzia
ispetziale
ispetziales
ispetziali
ispetzialidade
ispetzialidades
ispetzialista
ispetzialistas
ispetzializada
ispetzializadas
ispetzializade
ispetzializados
ispetzializadu
ispetzializatzione
ispetzialmente
ispetzias
ispetzie
ispetzificada
ispetzificadu
ispetzificare
ispi
ispia
ispiaggias
ispidale
ispidales
ispiegadu
ispiegare
ispiegat
ispiegatzione
ispiga
ispina
ispinas
ispinghende
ispinghet
ispinosu
ispinta
ispintos
ispintu
ispiona
ispirada
ispiradas
ispirados
ispiradu
ispirale
ispirales
ispirare
ispirat
ispiratzione
ispirau
ispirende
ispiritos
ispiritu
ispirituale
ispirituales
ispissu
ispo
ispoderadu
isponda
isponsorizadu
isponta
ispontanea
ispopulada
ispopuladas
isporlatu
isport
isportiva
isportivas
isportivos
isportivu
isposa
isposadu
isposare
isposo
isposos
isposu
isprene
ispressione
ispressura
ispricant
ispricare
ispricat
isproradore
isproradores
isprosura
ispuntone
isquadra
isquadras
isra
israel
israele
israeli
israeliana
israelianas
israelianos
israelianu
isre
isrobadu
isrobato
issa
issas
isse
isseberada
isseberados
isseberadu
isseberare
isseberende
isseberu
issena
issentzia
issepera
isseperadu
isseperau
isseperu
issienti
issientificu
issire
issn
isso
issohadore
issohadores
issoro
issoru
issos
issu
issupra
issus
ist
ista
istabilende
istabiliat
istabilida
istabilidade
istabilidas
istabilidos
istabilidu
istabilimentos
istabilimentu
istabilinde
istabilint
istabilire
istabilit
istada
istadas
istade
istades
istadi
istadiale
istadiu
istado
istados
istadu
istaducategoria
istadunidensa
istadunidensas
istadunidense
istadunidensos
istadunidensu
istadunidesa
istadunidesu
istadus
istafeta
istagione
istagnu
istai
istaiant
istaiat
istajone
istajones
istalinismu
istamentos
istamentu
istampa
istampada
istampadu
istampadura
istampare
istampu
istan
istanbul
istandard
istandardizados
istandardizatzione
istandards
istant
istanta
istante
istanzu
istaos
istare
istas
istasone
istasones
istassionamentu
istassione
istassiones
istat
istatale
istatales
istati
istatisticas
istatos
istatu
istatua
istatuales
istatuas
istatudos
istatudu
istatuedda
istatueddas
istatus
istatutos
istatutu
istatzione
istatziones
istatzu
istau
iste
isteatita
istedda
isteddas
isteddos
isteddu
istele
istellare
istema
istemma
istemmas
istendarte
istentadu
istentos
istereo
isterilizada
istermi
isterrende
isterret
isterriat
isterrida
isterridura
isterrit
istesiada
istesiadas
istesiados
istesiadu
istesiadura
istesiamentu
istesiare
istetia
istetias
istetiu
istetius
istevene
isti
istiale
istiales
istiga
istigas
istile
istiles
istili
istiliu
istilizada
istilizados
istilu
istima
istimada
istimadas
istimados
istimadu
istimaiat
istimant
istimare
istimas
istimat
istimonius
istimuladu
istintinu
istios
istipe
istipuladu
istitui
istituida
istituidas
istituidu
istituire
istituit
istituto
istitutos
istitutu
istitutzionale
istitutzionales
istitutzione
istitutziones
istitutzioni
istitutzionis
istituzioni
istiu
istmu
isto
istocadas
istocolma
istorbos
istorbu
istoria
istorias
istorica
istoricamente
istoricas
istoricos
istoricu
istorigamente
istoriogra
istoriografia
istra
istrabone
istrada
istradale
istradales
istradas
istraditamentu
istrales
istrana
istrangiadu
istrangios
istranieros
istranos
istranza
istranzas
istranzat
istranzos
istranzu
istraordina
istrate
istrategia
istrategias
istrategicu
istre
istrema
istremadura
istremamente
istremegnu
istremidade
istremidades
istremu
istrenadu
istri
istria
istrianos
istringhet
istrinta
istrintamente
istrintas
istrintos
istrintu
istro
istrobos
istrobu
istru
istruida
istruidos
istrumadura
istrumentale
istrumentales
istrumentos
istrumentu
istruttura
istrutturas
istrutura
istruturada
istruturadas
istruturados
istruturadu
istruturales
istruturas
istruturatzione
istrutzione
istrutziones
istrutzionis
istruzione
istu
istudadu
istudaiat
istudare
istudat
istudentes
istudia
istudiada
istudiados
istudiadu
istudiaiat
istudiante
istudiantes
istudiare
istudiat
istudiau
istudiende
istudio
istudios
istudiosa
istudiosos
istudiosu
istudiu
istudius
istupat
isula
isulada
isuladas
isulados
isuladu
isulamentu
isulana
isulanas
isulanos
isulanu
isulas
isuledda
isuleddas
isus
isvanta
isvariadas
isvariados
isve
isvedesa
isvedesos
isvedesu
isvetzia
isvi
isvilu
isvilupa
isvilupada
isvilupadas
isvilupadores
isvilupados
isvilupadu
isvilupaiat
isvilupant
isvilupare
isvilupat
isvilupau
isvilupende
isvilupos
isviluppada
isviluppadu
isviluppau
isviluppu
isvilupu
isvitzera
it
ita
italia
italian
italiana
italianas
italiane
italiani
italianismos
italianismu
italianitzare
italianizatzione
italiano
italianos
italianoscategoria
italianu
italianus
italica
italiciana
italie
italien
italo
italy
italyan
ite
iteratzione
itinera
itinerante
itinerari
itinerario
itireddu
ito
itocor
itos
itria
its
itte
itu
iu
iua
iud
iudex
iudice
iudike
iugosla
iulia
iupac
ius
iv
ivan
ivi
iviluppu
ivkov
ivo
ivrea
ivure
ix
ixi
j
ja
jaca
jack
jackie
jackson
jacksonville
jacob
jacopo
jacques
jacu
jae
jagdeo
jagu
jai
jaime
jaju
jake
jam
jamada
jamadu
jamaica
james
jamo
jan
jana
janas
jandolo
jane
janeiro
janet
janis
janna
jannacci
jannarju
jannas
jantoman
january
janukovyc
jao
japan
japanese
jar
jara
jared
jarmusch
jas
jason
jassu
jatu
jaume
java
javascript
javicoli
javier
jaw
jay
jazz
jazzcategoria
je
jean
jeff
jefferson
jeffrey
jelly
jemen
jena
jencks
jennifer
jennings
jenny
jeo
jeremy
jerez
jerome
jerry
jersey
jerusalem
jessop
jest
jesus
jethro
jeune
ji
jim
jimmy
jinnah
jinping
jn
jo
joa
joachim
joan
joao
job
jobim
jobs
jocadores
jocare
jocos
jocu
joe
joel
joey
jogu
johan
johann
johannes
johannesburg
john
johnny
johnson
johnston
joint
jolly
jon
jonathan
jones
jonimitchell
jopek
joplin
jordan
jordi
jorge
jorzi
jose
joseba
josef
josep
joseph
josh
josif
josso
jossu
josto
jostu
joule
joules
jour
journal
journalist
journalists
journey
jours
jovanotti
jove
joy
joyce
jpg
jr
ju
jua
juan
juana
juanne
juanni
juant
juat
juba
jubanne
judicados
judicadu
judiche
judiches
judigados
judigadu
judigale
judighe
judighes
judighissa
judike
judy
jughet
jugosla
jugoslavija
jugoslavos
jugoslavu
juke
jules
julia
julian
julie
julien
julio
julius
july
jumbo
jun
juncu
june
juneau
junior
juniores
juny
jure
jus
just
justa
justi
justice
justify
justin
justinianu
justu
juve
juventus
juygadu
k
ka
kabul
kafka
kai
kaiser
kalevala
kaliningrad
kamandi
kamel
kami
kamikaze
kammanta
kampala
kan
kandahar
kandinskij
kaneko
kani
kansas
kant
karabakh
karales
karalis
karen
karin
kariyana
karl
karma
karman
karol
karsten
kashmir
kasturba
katakana
kate
kathmandu
katmandu
katzenjammer
kaulsdorf
kaunda
kay
kayrat
kaza
kazachista
kazacu
kazakistan
kazan
kaze
kb
kde
ke
keanu
keep
kei
keith
keller
kelly
kelvin
kemal
ken
kennedy
kenneth
kenny
kent
kentucky
kentza
kenya
kenze
kepler
kernel
kerouac
kertu
kevin
key
keyboards
keys
kg
kgb
khan
khanadu
kharkiv
khmer
kho
khz
ki
kid
kids
kiel
kierkegaard
kiev
kij
killer
killing
kilo
kilogrammu
kilometros
kilt
kim
kind
king
kingdom
kings
kingston
kinney
kinshasa
kipling
kirby
kircher
kirchhoff
kirgizista
kiribati
kirk
kirsten
kiss
kissinger
kit
kita
kitts
kkk
klan
klaus
klee
klein
kleist
klimt
klux
km
kmq
kn
kna
knight
know
knows
knoxville
knyazhytsky
ko
koch
kocher
koine
kola
komotini
kong
koolhaas
kos
kosovo
kreuzberg
krimi
kristen
kristin
kristoff
kristofferson
krus
ku
kuala
kuban
kubrick
kullervo
kunis
kunst
kuntz
kurdistan
kurosawa
kurpfalz
kurt
kuwait
kuwaitianos
kyi
kyiv
kylie
kyo
kyoto
kypchak
kyu
kyuss
l
la
laa
label
laborato
laboratorio
laboratoriu
laboratorius
laboratory
labrador
laburista
lacana
lacanantes
lacanas
lacon
laconi
lacrime
lacu
lada
ladamini
ladas
laden
ladi
ladina
ladinas
ladino
ladinos
ladinu
ladiore
lados
ladri
ladro
ladu
lady
laerru
laforgue
lager
lagos
lagu
laguna
lagunas
lai
laja
lake
lama
lamada
lamas
lambda
lamberto
lambertu
lambicadura
lambro
lamentadu
lamentaiat
lamento
lammermoor
lampadario
lampadas
lampedusa
lampu
lan
lana
lanaitu
lancashire
lancaster
land
lande
lander
landes
landi
landscape
lane
lanegan
lang
langlade
language
languages
langue
languedoc
lanka
lannou
lansing
lanta
lantano
lantza
lantzadores
lantzadu
lantzitadas
lanuovasardegna
lanuse
lanusei
lanza
lanzarote
lao
laore
laorera
laores
laos
lapis
lapo
lapola
lara
lardu
larentu
larentzu
lares
larga
larganas
largas
large
larghesa
largo
largu
lari
laris
laroddu
larry
lars
laru
las
laser
lasnigo
lassa
lassada
lassadas
lassados
lassadu
lassai
lassaiat
lassande
lassandu
lassant
lassare
lassari
lassas
lassat
lassau
lassende
lassendi
last
lastra
lastras
lat
late
latente
later
laterale
laterales
laterali
laterza
lati
latifundu
latin
latina
latinas
latine
latini
latinidade
latinismos
latino
latinoamericanu
latinos
latinu
latitu
lato
latte
latu
latziu
lau
laude
laugier
launeddas
laura
laurea
laureada
laureadu
laureau
laurera
lauro
lava
lavadora
lavagna
laveria
lavinio
lavoro
lavra
law
lawrence
lawrencelessig
lawson
lay
layer
layne
lazio
lazzaro
lbia
lbumes
lchi
lciu
ldara
lderlin
ldica
ldm
ldx
le
lea
leada
leadas
leader
leados
leadu
leaf
league
leal
lealidade
lealistas
leant
lear
leare
learn
learning
leas
leat
leave
leaves
leaving
lebbrosos
lebrat
lecce
lech
lectures
led
leda
ledda
lee
leeds
leende
left
lega
legale
legales
legali
legalidade
legarsi
legas
lege
legend
legenda
legendarium
legendas
leges
legge
leggenda
legges
leggi
leghe
leghent
legher
leghet
leghida
leghidura
legi
legiona
legione
legiones
legisladore
legisladura
legislativa
legislativas
legislativu
legislatzione
legitimare
legitimidade
lei
leibniz
leigh
leipzig
leis
leland
lemma
lemy
len
lena
lenardu
lenga
lenin
leninista
lenitzione
lennon
lenta
lentamente
lenti
lentore
lentu
leo
leon
leonard
leonarda
leonardo
leone
leones
leonesu
leoni
leonora
leopardi
leopold
lepa
lepanto
lepori
leppa
lepra
lepus
ler
lere
lerici
lerner
lerron
les
lescaut
lesiadas
lesione
leslie
lesotho
lessicale
lessicales
lessicografia
lessicu
lessing
lessons
lester
lestra
lestras
lestresa
lestresas
lestros
lestru
lestu
let
leta
letera
leto
letore
letores
letos
lettera
letteraria
letteratura
letterature
lettere
letters
lettonia
lettres
lettu
lettura
letu
letura
letze
letziones
letzionis
lev
leva
levante
levantesa
levenstein
levi
levitatzione
lewis
lewiston
lexington
lez
leze
lezes
lezione
lezioni
lezze
lfia
lgara
lgaras
lgaros
lgaru
lgbt
lgebra
lgiu
lhe
li
lia
liacategoria
lianora
lias
liat
libanesa
libe
libellu
liber
libera
liberada
liberadores
liberados
liberadu
liberadura
liberai
liberale
liberales
liberalismu
liberamente
liberare
liberation
liberatzione
liberatzioni
liberazione
liberdade
libereddos
liberende
libero
liberos
liberta
libertade
libertades
libertadi
libertadores
liberty
liberu
libia
libido
libisonis
libra
library
libras
libratzioni
libre
libreddu
libreria
librerias
libretto
libri
libro
libros
libru
librus
lica
licas
lice
license
licentia
liceo
liceu
lichtenberg
licklider
lico
licore
licos
licu
licus
lida
lidas
lidone
lidos
lidu
lie
liebe
liechtenstein
liet
life
liga
ligada
ligadas
ligados
ligadu
ligaiat
ligamene
ligamentu
ligant
ligare
ligas
ligat
ligaus
ligendi
ligera
liggiu
lighe
lighes
light
lightgrey
lightning
lights
ligi
ligidura
ligios
ligit
ligo
ligos
ligu
liguori
ligure
liguri
liguria
ligurinu
like
lila
lilla
lilli
lilliu
lily
lim
lima
limba
limbara
limbas
limbascategoria
limbazos
limbazu
limbi
limbista
limbistas
limbistica
limbisticas
limbisticu
limerick
limes
limitada
limitadas
limitados
limitadu
limitai
limitaiat
limitare
limitatziones
limited
limitende
limiti
limone
limoni
limpiadura
lina
linas
linate
lincoln
linda
lindgren
lindsey
line
linea
lineare
lineares
lines
linfa
lingotu
lingu
lingua
linguaggio
linguam
linguas
lingue
lingui
linguista
linguistas
linguistic
linguistica
linguisticamente
linguisticas
linguistiche
linguistici
linguistico
linguistics
linia
liniare
linias
link
linna
linnaeus
linnas
lino
linu
linus
linux
linz
lio
lion
lione
lionel
lionello
lioni
lionora
liori
lios
lipsia
liras
lirica
lis
lisa
lisandru
lisboa
lisbona
lisi
lisis
lisp
lisse
lissentzia
lissos
list
lista
listas
listen
lita
litanias
litat
lite
litera
literados
literadu
literadura
literaduras
literale
literalmente
literaria
literariu
literas
literatura
literature
lites
litica
litorale
litos
litron
litros
litru
litt
litte
littera
litteradura
litteras
litti
little
littu
litu
litua
lituana
lituania
lituanu
liturgia
litze
litzeu
liu
liv
live
livello
livellos
livellu
livellus
livermo
livermore
liverpool
lives
living
livorno
lix
lixi
liz
lizzani
ll
lla
llaba
llabas
llach
llai
llanos
llaros
llaru
lle
lleida
llengua
ller
llia
llias
llibre
llica
llicas
llicos
llicu
llida
llidos
llidu
llieri
llios
llite
llites
lliu
llobregat
llocat
llorenc
llos
llosa
lloyd
llu
llui
llula
llulas
llus
lm
lo
lobdell
lobina
loc
local
locale
locales
locali
localidade
localidades
localidadi
localis
localizada
localizadas
localizadu
localizare
localizatzione
locarnu
location
loceri
loci
loco
locoe
locos
locu
locumotivas
locus
locutores
locutzione
loddo
lode
lodi
lodine
loening
log
loga
logale
logales
logalidade
logalidades
loggia
loggiato
logi
logica
logicos
logo
logos
logotipu
lograda
logradu
lograre
lograt
logrende
logu
logudoresa
logudoresas
logudorese
logudoresos
logudoresu
logudoro
logus
logusantu
logutenente
loi
loire
lola
lomax
lombarda
lombardi
lombardia
lombardo
lombardu
lompende
lompent
lompet
lompi
lompiat
lompiri
lompit
lompiu
london
londra
londres
lonely
lonesome
long
longa
longamente
longanesi
longaria
longas
longhesa
longitu
longo
longobarda
longobardos
longobardu
longone
longos
longu
longumetra
longus
lonja
lonnie
lontano
lontanu
look
looking
lopez
loquuntur
lorca
lord
lordi
loredana
lorena
lorenzo
loreto
lori
loria
loro
lortat
los
losa
losas
lost
lota
lothar
lotta
lotzorai
lou
loud
lough
louis
louise
louisiana
louisville
louvre
love
lover
lovers
loves
loving
low
lowell
lower
loy
loyola
lp
lpj
lsc
lsinki
lsp
lsu
lsunga
ltd
lter
ltica
lticas
lticos
lticu
ltiplas
ltiplos
ltiplu
ltiu
ltskog
ltzer
lu
lubu
luc
luca
lucas
lucca
luce
luche
luchia
luchino
luci
lucia
luciana
luciano
lucini
lucio
luck
lucky
lucrezia
lucrezio
lucuidonenses
lucy
ludovico
ludu
ludwig
luego
luegus
lugano
lugansk
luganu
lughe
lughente
lughes
lughi
lughia
lughidore
luglio
lugore
lui
luigi
luigia
luis
luisa
luisi
luissione
luisu
luke
lula
lullabies
lumen
lumene
lumens
lumia
luminosa
luminosas
luminosu
lumpur
luna
lunada
lunare
lunari
lunaris
lunas
lungo
lungometraggio
lungoni
luni
lunis
luoghi
luogo
lupi
lupinu
lupo
luporini
lupu
luras
lusa
lusaka
lussemburgu
lussu
lussulgiu
lussurgiu
lussurzu
luta
lutas
lute
luterana
luterane
luteranos
lutero
luther
lutocisterna
lutone
lutu
luxenti
luxi
luxia
lvaro
lvere
lvicu
lvida
lvidas
lvidu
lviv
lvulas
ly
lybissonis
lycoperdon
lydia
lyngstad
lynn
lyon
lyra
lzu
m
ma
maara
maarten
maastricht
maathai
mabel
mac
macarrones
macau
macbeth
macchias
macchina
macchinas
maccioni
macdonald
macedonia
macerata
macero
machiavelli
machina
machinas
machine
macintosh
mackenzie
macmillan
macondo
macopsissa
macos
macro
macron
macroregiones
macroregionis
macrosco
macu
macumere
mad
madagasca
madagascar
madalena
madame
madau
madawaska
maddalena
maddie
made
madeira
mades
madesani
madison
madness
madonna
madre
madrid
madridistas
madrighe
madura
maduros
maduru
mae
maenza
maestosu
maestrale
maestrat
maestro
maffei
mafia
magadan
magasinos
magasinu
magazine
magdalena
magdeburg
maggi
maggie
maggio
maggiore
maggiori
maghreb
magia
magic
magica
magical
magico
magiori
magister
magistrados
magistradu
magistratu
magma
magna
magnani
magne
magni
magnificent
magnitu
magnitudo
magno
magnolia
magnu
magnum
magnus
mago
magone
magra
magreb
magu
magumadas
magus
maha
mahatma
mahfouz
mahmood
mahmoud
mai
maia
mail
maimone
maimoni
main
maine
mainz
maior
maiorca
maiori
mais
maistra
maistros
maistru
maistu
maistus
maiu
maja
majakovskij
majo
major
majorca
majore
majores
majori
majoria
majorita
maju
majuro
make
makeba
making
makoto
maktoum
mal
mala
malabo
malachi
maladi
maladia
maladias
malaghera
malai
malaidos
malaidu
malaria
malas
malaspina
malaspinas
malattia
malawi
malcolm
malcu
maldivas
male
malecuntentu
males
malesa
malesu
malfoy
malga
mali
malistare
malley
mallorca
malloreddus
malos
malpensa
malta
maltesu
malu
malumore
malus
malvasia
malvestiti
mam
mama
mamangkakis
mamas
mambo
mameli
mamentos
mamentu
mami
mamiferu
mamma
mammi
mamujada
mamujadinu
mamuthone
mamuthones
man
mana
manacor
management
manager
manageriales
manai
manca
mancada
mancadu
mancai
mancant
mancantzia
mancare
mancares
mancari
mancat
mancha
manchende
manchester
mancia
manciata
mancinelli
mancini
manconi
mancosu
mancu
mandada
mandados
mandadu
mandamentu
mandant
mandare
mandarinu
mandas
mandat
mandau
mandela
mandende
mandiare
mandica
mandigada
mandigana
mandigare
mandigat
mandos
mandra
mandrolisai
mandrone
mandu
mane
manera
maneras
manfredi
manfredo
manga
manganaro
manganelli
manganese
mangianu
mangones
mangoni
manhattan
mani
mania
maniera
maniestos
manifatura
manifestada
manifestadas
manifestadores
manifestadu
manifestant
manifestantes
manifestare
manifestat
manifestatzione
manifestatziones
manifestende
manifesto
manifestu
maniga
manigiadore
manigiados
manigiadu
manigiai
manigiare
manila
manio
manipulatzione
manitoba
manlio
mann
manna
mannai
mannaria
mannarias
mannas
mannesa
manni
manno
mannoi
mannoia
mannos
mannu
mannus
mano
manon
manos
manoscritti
manovra
manovras
mansio
manta
mante
manteddu
mantenende
mantenent
mantenet
manteni
manteniat
mantenidura
mantenimentu
mantenner
mantenni
mantenta
mantentas
mantentos
mantentu
mantesa
mantessi
mantesu
mantova
mantza
mantzas
manu
manuale
manuales
manuals
manudo
manuel
manuela
manuelle
manufatos
manus
manuscritos
manuscritu
many
manzanu
manzoni
mao
maoma
maori
map
mapa
mapas
mappa
maps
maputo
maqom
mar
mara
maracalagonis
marc
marca
marcada
marcadas
marcados
marcadu
marcadura
marcaduras
marcare
marcas
marcat
marceddi
marcel
marcello
march
marche
marchende
marchesa
marchesadu
marchesas
marchese
marchesi
marchesos
marchesu
marcia
marco
marconi
marcos
marcu
marcus
mare
marea
mareas
mares
maresciallu
marfilu
margaret
margarida
margherita
marghine
margone
marguerite
mari
maria
mariah
mariana
mariane
mariani
marianna
mariannas
marianne
mariano
marianu
maridos
maridu
marie
mariedda
marigosu
marigot
marin
marina
marinai
marinaras
marinas
marine
mariner
marineras
marineri
marineris
marines
marini
marino
marinos
marinu
mario
mariposa
mariposas
maris
marisa
maristella
mariza
marjorie
mark
market
marketing
markle
markt
markup
marlene
marley
marmaru
marmidda
marmilla
marmo
marmora
marocco
maroccolo
maroco
marongiu
maroni
marquez
marras
marro
marroccu
marrocu
marrone
marru
mars
marsalis
marseille
marshall
marsi
marsiglia
marsilio
marta
marte
marteddos
marteddu
martedi
martello
martes
martha
marti
martin
martine
martinez
martini
martinica
martino
martinu
martire
martires
martiri
martiriu
martis
martu
martures
marty
martza
martziale
martzianus
martzu
marvel
marvellous
marx
marxismu
marxista
marxistas
mary
maryland
marzahn
marzo
marzu
mas
masaccio
masala
masaprestu
mascame
mascamente
maschera
maschere
maschile
mascia
mascimamenti
mascios
masciu
mascrismu
mascros
mascru
mascu
masculina
masculinos
masculinu
masedu
masia
masih
maso
masone
masones
mass
massa
massachusetts
massacre
massacros
massacru
massaiu
massaius
massajos
massaju
massaria
massas
massima
massimamente
massimas
massimiliano
massimo
massimos
massimu
massitza
massitzu
massiva
massivas
massivos
massoud
master
masters
mastino
mastra
mastrocinque
mastroianni
mastros
mastru
masu
mat
mata
matantza
matas
match
mate
matema
matematica
matematicu
mater
materia
material
materiale
materiales
materiali
materialis
materias
materna
maternu
matessi
matessis
mateu
mathbb
mathbf
mathieu
mathisen
mathit
mathrm
matilda
matilde
matone
matonellas
matones
matrimo
matrimonio
matrix
matt
matta
mattarella
mattei
matteo
matteotti
matter
matteu
matthew
matti
mattia
matto
mattoli
mattone
maturidade
matze
matzedo
matzeu
matzigusa
mau
maureta
mauri
maurice
mauricio
maurita
mauritania
mauritius
maurizio
mauro
mauru
mausoleu
mavka
max
maxi
maxia
maxim
maxima
maxwell
may
maya
mayor
mayotte
mayu
mazore
mazza
mazzini
mazzoli
mazzotta
mazzotti
mb
mba
mbabane
mbara
mbaras
mbas
mbe
mbene
mbia
mbiant
mbiat
mbios
mbitos
mbitu
mbiu
mbolu
mbox
mbria
mbulos
mbulu
mc
mca
mccartney
mcculloch
mcdonald
mcgraw
mclaughlin
mcmahon
mcveigh
me
mea
mean
meana
meas
meca
mecanismos
mecanismu
mecca
meccanica
mecklenburg
med
meda
medade
medaglia
medal
medalla
medas
medea
medi
media
mediana
medianeristas
mediante
medianu
mediaset
mediatzione
medical
medici
medicina
medicine
medico
medicu
medida
medidas
medidu
medieval
medievale
medievales
medievali
medina
medio
medioevale
medioevali
medioevo
medioevu
mediolanum
mediometraggio
mediometraggiu
mediorientale
medios
mediovale
medire
medit
meditations
meditatzioni
mediterra
mediterranea
mediterraneo
mediterraneu
mediu
medusa
meeting
meets
mega
megali
megalitica
megalitismo
megalitismu
megalitos
megiorada
megioradu
megiorare
megiorende
megioros
megioru
megius
megli
meglio
megus
mehmet
mei
meidade
meighina
meighinas
meigos
meigosa
meigu
meiji
meilogu
mein
meita
meixina
meji
mekong
mel
mela
melane
melbourne
melchiorre
mele
meli
melilla
melina
melis
melissa
melkiorre
mellifera
mellus
melo
melodia
meloni
melqui
melville
membranas
membros
membru
membrus
meme
memo
memoirs
memoria
memorial
memoriale
memorie
memories
memory
memphis
men
mena
menada
menadu
menant
menat
mendes
mendicanti
mendoza
mene
menecmi
menes
mengarini
mengianu
menguai
menguare
menhir
menhirs
menispre
mennea
meno
menor
menorca
menos
mensile
mentale
mentales
mentalidade
mente
mentes
menti
menton
mentovada
mentovadas
mentovados
mentovadu
mentovare
mentovat
mentovu
mentras
mentre
mentres
mentris
mentu
menu
menus
menzus
meo
meos
mer
mera
meras
meravi
meravigliosa
merca
mercaderis
mercaderos
mercados
mercadu
mercante
mercantes
mercantile
mercantiles
mercantzia
mercantzias
mercato
mercau
mercedes
mercer
mercu
mercurio
mercuris
mercuriu
mercury
mere
merella
merengues
meres
mereu
meri
meria
meridiana
meridianu
meridionale
meridionales
meridionali
meridione
meridioni
merie
meriesa
meris
meritu
merleau
merlo
mermadura
mermos
mermu
mero
meros
merre
merton
mertze
mertzena
mertzes
mertzu
meru
mes
mesa
mesana
mesani
mesania
mesanu
mesanus
mesapare
mesas
mesaustu
mescamente
mescamenti
mesches
mese
meses
mesi
mesina
mesis
mesoli
mesopota
mesopotamia
mesos
messa
message
messageria
messaggero
messajus
messaria
messenger
messia
messicana
messicanos
messicanu
messico
messicu
messina
mesu
mesudie
mesuevu
mesumundu
mesunote
mesura
mesurada
mesurados
mesurare
mesuras
mesurat
mesurende
mesures
mesus
mesuterranu
meta
metaddu
metade
metades
metadi
metafi
metafonesi
metal
metalla
metallica
metallos
metallu
metallurgia
metallurgical
metanu
metas
mete
meteorolo
meteorologia
metheny
metodi
metodo
metodologia
metodologias
metodu
metres
metri
metrica
metrics
metro
metropoli
metropolita
metropolitan
metropolitana
metropolitanas
metropolitanos
metropolitanu
metros
metru
metrus
metz
meu
meus
mexico
meyer
mez
mezoradu
mezorare
mezus
mezza
mezzanotte
mezzo
mezzogiorno
mg
mhz
mi
mia
miala
miali
mialinu
miami
mias
mica
micas
micca
miceneu
michael
michail
michalis
michel
michela
michelangelo
michele
micheli
michelle
michigan
michoaca
mick
mickey
mickiewicz
micos
micro
microbiologia
microne
microorganismos
microsco
microsoft
microtzi
micu
micus
mida
midas
middle
mide
midi
midnight
midos
midu
midway
midwest
mie
miei
mies
mifflin
mig
miga
migas
mighele
migheli
mighty
migliajas
miglio
miglior
migliore
migos
migrato
migratzione
migratziones
migrazioni
migu
miguel
mike
mikhail
mil
mila
milan
milanesa
milanesas
milanese
milanesos
milanesu
milani
milano
milanu
mile
milena
miles
mili
miliardos
miliardus
milione
miliones
milioni
milionis
milis
militadu
militante
militantes
militare
militares
militari
militaris
militarismu
militarmente
militum
militzianos
mill
milla
millas
mille
millelire
millenniu
millennium
miller
milli
milliardos
milliardu
milliardus
million
millione
milliones
millionis
milliotughentos
millis
millisecundos
milt
milton
milwaukee
mimi
mimmo
min
mina
minaccia
minadores
minadoris
minant
minas
minat
mind
mine
minera
minerale
minerales
mineralis
mineraria
mineras
mineris
minerva
mines
minetza
minetzadu
minetzare
minetzas
minetzat
mingiu
minh
mini
miniatura
miniera
minieras
miniere
minima
minimada
minimadas
minimadu
minimare
minimende
minimonzu
minimu
minis
miniserie
minispre
ministe
ministeru
ministra
ministro
ministros
ministru
ministry
minix
minneapolis
minnesota
mino
minogue
minor
minora
minoranza
minoranze
minoras
minorca
minore
minoredda
minoreddas
minoreddedda
minoreddos
minoreddu
minores
minori
minoria
minorias
minoris
minorita
minority
minoriu
minos
minsk
minu
minuda
minudas
minudu
minuit
minujas
minuti
minutos
minutu
minutus
mio
miocene
mios
mips
miquel
miquelon
mir
mira
miracoli
miracolo
miraculu
mirada
mirage
miraiat
miranda
mirare
miras
mirat
mirbeau
miri
miriam
miris
mirko
mirror
misaki
misandria
miscela
mise
miseno
mismo
misoginia
miss
missa
missadas
mission
missiona
missionarios
missionariu
missione
missiones
missioni
missionis
mississippi
missiva
missouri
missu
miste
mister
misterios
misteriosa
misteriosu
mistero
mistral
mistras
mistura
misturu
misura
misuratziones
mit
mitant
mitat
mitchell
mite
mites
miti
mitis
mito
mitocondriale
mitolo
mitologia
mitos
mitte
mitu
mitza
mitzas
miu
mius
mix
miyazaki
miza
mizas
mk
mks
ml
mm
mme
mmia
mmo
mn
mo
mob
mobile
mobiles
mobilidade
moda
modalidade
modalidades
modalidadi
modas
modde
moddes
mode
model
modella
modellos
modellu
modena
moderada
moderadas
moderados
moderadu
modern
moderna
modernas
modernidade
modernismu
modernista
modernita
modernizatzione
modernizzazione
moderno
modernos
modernu
modernus
modesta
modestu
modi
modifica
modificada
modificadas
modificados
modificadu
modificare
modifiche
modifichende
modo
modos
modu
modugno
moeddu
moende
moent
moet
mogadi
moglie
mogoresu
mogoro
mohamed
mohammad
mohammed
moholy
moi
moiat
moida
moimentos
moimentu
moires
moka
mol
mola
molare
molas
molda
moldavia
moldavos
moldavu
mole
molecolare
moleculare
molente
moles
molie
molinos
molins
molinu
molise
moll
mollos
mollu
molotov
molta
molti
molto
molu
moment
momentaneo
momenti
momentos
momentu
momentus
momigliano
mommsen
mon
mona
monachesimu
monaco
monacos
monacu
monarca
monarchia
monarchias
monaste
monasterios
monasteriu
monasteru
mondadori
monde
mondi
mondiale
mondiali
mondo
mondrian
mone
moneda
monedas
moneta
money
monferrato
mongili
mongo
moni
monica
monicelli
monie
monincas
monk
monkey
monkeys
mono
monoato
monogra
monografia
monoli
mononota
monopo
monosi
monreale
mons
monserrat
monster
monsters
mont
monta
montados
montadura
montagna
montagnas
montagnina
montalcino
montana
montanaru
montanas
montarbu
montare
montasio
monte
monteacutu
montecassino
monteferru
monteleone
montenegro
montenegru
monteponi
montes
montessori
montessu
montevecchio
montevideo
montgomery
monti
montiel
montiferru
montigros
montigru
montiju
montis
montjui
montologia
montosa
montosu
montpellier
montre
montreal
montreux
montserrat
monument
monumentale
monumentales
monumenti
monumentos
monumentu
monumentus
monviso
monza
monzas
mood
moody
moon
moore
moori
mor
mora
moraes
morale
morales
morali
morandi
moravia
morcom
more
morelli
mores
moresby
morette
moretti
morfolo
morfologia
morgan
morgen
mori
moriant
moriat
moribundu
moridi
morint
morire
moriscos
morit
morning
moro
moroni
moros
morra
morrer
morrere
morri
morris
morrison
morse
mort
morta
mortale
mortales
mortalidade
mortas
morte
mortes
morti
morto
morton
mortore
mortores
mortorzos
mortorzu
mortos
mortoxu
mortu
mortus
morty
moru
morus
mos
mosa
mosaicadas
mosaicos
mosca
moscati
moschea
moscheas
moscote
mose
moseley
mosella
moser
moses
mossa
most
mostra
mostri
mostro
mostros
mostru
mostu
mother
moti
motivadu
motivatzione
motivatziones
motivos
motivu
moto
motore
motores
motori
motorola
motos
motta
mottu
motu
motus
mou
mount
mountain
mouse
mouton
movement
movements
movende
movent
movere
movet
movi
movie
movimento
movimentos
movimentu
movimentus
movit
moz
mozambicu
mozart
mozilla
mp
mpada
mpadas
mparu
mper
mperas
mpere
mpet
mpia
mpiat
mpicos
mpicu
mpida
mpidas
mpidos
mpidu
mpigos
mpigu
mpios
mpiri
mpitu
mpiu
mpius
mplicat
mpora
mporat
mporo
mpru
mr
mreca
mrexani
mrs
ms
mt
mtv
mu
mucadore
mucadores
much
mud
muda
mudada
mudadas
mudados
mudadu
mudadura
mudaduras
mudai
mudamentos
mudamentu
mudant
mudare
mudas
mudat
mudau
muddy
mudende
mudi
mudu
mugabe
mugere
mugeres
mugeri
mugrone
muhammad
mui
muisca
muja
mujahid
mujahidines
mukwege
mula
mulas
mulatos
mule
mulinu
muller
mulleri
mulligan
mulos
multa
multi
multie
multilingualism
multimedia
multimediale
multimediales
multinatzionale
multiplex
multiplicare
mulu
mumbai
munari
mundana
mundare
mundiale
mundiales
mundiali
mundialis
mundialli
mundo
mundos
mundu
mundus
municipiu
municipium
muninca
munitzi
munitzipale
munitzipales
munitzipalidade
munitzipalidades
munsulmana
muntagna
muntagninos
munto
muntone
muntoni
munu
muore
mura
murad
murada
muraglias
murale
murales
muralla
muratori
murcia
murder
murenu
murera
murgia
muri
murichessa
muriel
murillo
murineddu
muristenes
muristenis
muro
murolo
muroni
muros
murphy
murra
murras
murray
murru
mursia
murta
murtas
murtatzolu
muru
murus
mus
musa
musas
musca
muse
museale
musei
museo
museos
musetu
museu
museum
music
musica
musical
musicale
musicales
musicali
musicantes
musicas
musicasseta
musiche
musicista
musicistas
musico
musiga
musigale
musigales
musique
musitzista
musitzistas
musorgksij
musso
mussolini
must
mustafa
mustra
mustradu
mustrant
mustrare
mustras
mustrat
mustrende
mustu
musulmana
musulmanas
musulmanos
musulmanu
musulmanus
muta
mutettu
muti
mutiat
mutida
mutidas
mutidos
mutidu
mutint
mutire
mutit
mutos
mutti
muttos
muttu
mutua
muzere
mvc
my
myanma
myanmar
mykola
myself
myspace
mysterium
mystery
n
na
nabat
nabui
naca
nacas
nach
nacht
nacional
naco
nacu
nada
nadadorzos
nadadorzu
nadale
nadali
nadia
nadias
nadios
nadiu
nados
nadu
nae
naes
nagasaki
nagib
nagorno
nagu
nagy
nai
nairobi
naitza
nakane
naked
naldini
nama
name
nami
nana
nanas
nanchi
nancy
nande
nang
nanna
nannai
nanni
nanos
nant
nanta
nantes
napoleo
napoleon
napoleone
napoleoni
napoletana
napoletanu
napoli
napolione
napuletana
napuletanas
napuletanu
napulitanu
nara
narabuia
narada
naradas
narados
naradu
narai
naraiant
naraiat
naramus
naran
narande
narant
narat
narau
naraus
narayan
narba
narbona
nare
narende
narendi
nari
narradore
narrante
narrativa
narrativu
narratori
narratzione
narre
narrer
narrere
narri
nas
nasa
nasce
nasche
naschede
naschende
naschent
naschere
naschet
naschias
naschiat
naschida
naschidas
naschidos
naschidu
naschimentu
naschint
naschire
naschit
naschitu
naschiu
nasci
nascia
nascimentu
nasciri
nascit
nascita
nasciu
nascius
nash
nashville
naskida
naskidu
naso
nassau
nassionale
nassionales
nassionalidade
nassione
nassiones
nasu
nat
nata
natal
natale
natasha
nathan
nation
national
nationale
nations
nativa
nativas
native
nativos
nativu
nato
natura
natural
naturale
naturales
naturalesa
naturali
naturalis
naturalista
naturalizados
naturalizadu
naturalizzados
naturalmente
nature
natzionale
natzionales
natzionali
natzionalidade
natzionalidades
natzionalis
natzionalismu
natzionalista
natzionalistas
natzione
natziones
natzioni
natzionis
nau
naufra
nauru
nava
navada
navadas
navajo
naval
navale
navales
navalmoral
navarra
navas
nave
navedda
navegadura
naves
navi
navicularii
naviga
navigadore
navigadores
navigadori
navigadoris
navigare
navigatzione
navos
nazaret
nazaro
nazionale
nazionali
nazionalis
nazione
nazioni
nazionis
nazismu
nazista
nazistas
nazım
nberg
nc
nca
ncaru
ncas
nch
nche
nchen
nchere
nchez
nchi
nchida
nchidu
nci
ncia
ncipe
ncora
ncoras
ncorat
ncrona
ncu
ncua
nculos
nculu
nd
nda
ndala
ndalas
ndalos
ndalu
ndalus
ndas
ndat
nde
ndebi
ndeche
ndela
ndeli
nden
nder
ndere
ndesi
ndet
ndez
ndi
ndia
ndias
ndichi
ndida
ndidas
ndidos
ndidu
ndigat
ndighi
ndigos
ndigu
ndios
nditat
nditze
ndiu
ndius
ndo
ndolin
ndria
ndriu
ndrome
ndu
ndula
ndulas
ndulu
ne
nea
neapolis
neapolitani
near
neas
nebode
nebodes
nebraska
necessario
necessidadi
necro
necropoli
need
neerlandia
negada
negadu
negant
negat
negativa
negativas
negativos
negativu
negatzioni
negau
neghe
neglect
negli
nego
negotziados
negotziadu
negotziare
negotziari
negra
negri
negro
nei
neil
neke
nel
nell
nella
nelle
nello
nelly
nelson
nema
nemancu
nemas
nemigos
nemmancu
nemos
nen
nenaldu
nende
nent
neo
neocla
neolatina
neolatinas
neoli
neolitica
neolitico
neoliticu
neon
neoneli
neos
nepa
nepal
nera
neras
nerat
nere
neres
neri
nero
nerone
neros
neru
nes
nesi
nesogorale
nessi
nessuno
net
neta
netas
netflix
netos
nettunu
netu
netunu
network
netze
netzessa
netzessariamente
netzessidade
netzessidades
neu
neue
neufeld
neula
neumann
neunele
neuro
neurolo
neutrale
neutrales
neutrali
neutralidade
neutralizare
neutrones
neutru
nevada
nevastri
neve
never
nevis
nevra
new
newark
newfoundland
newman
newport
news
newton
newtoniana
newtons
nexi
next
nez
nf
nfasi
ng
ngala
ngara
ngaros
ngaru
ngel
nger
nghela
nghelos
nghelu
ngher
nghere
nghet
nghida
nghidu
ngia
ngiant
ngias
ngiat
ngio
ngios
ngiu
ngius
ngolu
ngua
nguas
ngue
ngues
ngula
ngulas
ngulos
ngulu
nguni
nh
nha
nhausen
nhk
ni
nia
niacategoria
niada
niadas
niagara
niamey
niant
nias
niat
nibba
nibelungos
nic
nica
nicanor
nicant
nicara
nicaragua
nicas
nicat
niccolo
nice
nicea
nichel
nicholas
nichols
nicholson
nicht
nick
nico
nicola
nicolae
nicolas
nicolau
nicolo
nicos
nicosia
nicu
nicus
nida
nide
nides
nidu
nie
niedda
nieddas
nieddos
nieddu
nieddus
niederscho
niente
nies
niffoi
niga
nigas
nige
nigel
niger
nigerianas
nigerianos
nigerianu
nigheddu
night
nighthawk
nightingale
nights
nigola
nigos
nigsberg
nigu
nihon
nihonjinron
nika
nike
nikos
nilo
nils
nilu
nima
nimancu
nimant
nimas
nimat
nime
nimmancu
nimos
nimu
nimus
nin
nina
ninahagen
nine
ninive
ninja
nino
nint
nintendo
nio
nioi
nios
nippon
niri
nirmala
niro
nirva
nirvana
nis
nisciuna
nisciunu
nisciunus
nisi
nissa
nissuna
nissunu
nit
nitas
nitro
nitza
nitzas
niu
niuna
niunu
nivola
nix
nixon
nizza
nkvd
nliu
nm
nn
nna
nnaru
nnas
nnat
nne
nner
nnere
nneret
nneros
nneru
nni
nnia
nnias
nniat
nnica
nnicas
nnicos
nnicu
nnicus
nnida
nnidas
nnidos
nnidu
nniga
nnigas
nnigu
nnios
nniri
nniu
nnius
nnos
nnu
no
noa
noam
noamchomsky
noantamas
noantimes
noas
noba
nobel
nobile
nobiles
nobilesa
nobili
nobilia
nobiliare
nobilis
nobody
nobrega
nodia
nodida
nodidas
nodidos
nodidu
nodiu
nodos
nodu
nodus
noe
noel
noemi
nogueira
noi
noighentos
nointames
noir
noirs
nois
noise
noixentus
nokia
nola
nolan
nolitados
nolitadu
noltza
noma
nomas
nome
nomen
nomenada
nomenadas
nomenadu
nomenau
nomenaus
nomene
nomenes
nomes
nomi
nomia
nomina
nominada
nominados
nominadu
nominale
nomination
nominativu
nominau
nomine
nomingiu
nomini
nomos
nomu
nomus
non
nones
nonna
nonnu
nono
nonostante
nonsense
nonu
noon
noos
nop
nor
nora
norabonas
noragu
noragugume
noranta
norcia
nord
norda
nordafrica
nordafricana
nordafricanos
nordame
nordamerica
nordamericana
nordamericanas
nordamericanos
nordamericanu
nordu
norfolk
noritani
norma
normale
normales
normalidade
normalizadores
normalizatzione
normalmente
normalmenti
norman
normandia
normanna
normannos
normannu
normarmente
normas
normativa
normativas
normativu
norme
norrenu
norte
north
northern
norti
norton
norve
norvegesa
norvegesas
norvegesu
norvegia
nos
nosi
nossa
nosta
nostamis
noster
nostra
nostras
nostre
nostri
nostro
nostros
nostru
nostu
nosu
not
nota
notada
notadu
notai
notant
notare
notas
notat
notatzione
note
notes
nothing
noti
notizia
notizias
noto
notoriedade
notre
nottambuli
notte
notti
notu
nou
nous
nouveau
nouveaux
nouvelle
nouvelles
nova
novadores
novanta
novara
novas
nove
novecento
novel
novella
novellas
novelle
novels
november
novembre
novena
novi
novidade
novidades
noviewer
novo
novos
novu
now
nowhere
nozze
ns
nscritu
nsia
nsitu
nsole
nster
nsula
nsule
nsules
nt
nta
ntaru
ntas
ntat
nte
ntegrat
ntene
nteri
nternet
ntes
ntesi
ntesis
nti
ntia
ntica
nticas
nticos
nticu
ntigos
ntigu
ntima
ntinas
ntis
ntn
ntomos
ntomu
ntos
ntova
ntras
ntrica
ntropu
ntu
ntumes
nturu
ntzas
ntzat
ntzi
ntzia
ntziant
ntzias
ntziat
ntzigu
ntzios
ntzipe
ntzipes
ntziu
ntzu
ntzula
nu
nua
nucle
nuclear
nucleare
nucleares
nucleari
nuclearis
nuda
nudda
nudo
nudu
nue
nues
nuestra
nuevo
nug
nughe
nughedu
nughes
nugoresa
nugoresos
nugoresu
nugoro
nui
nuis
nuit
nule
nulla
nullu
nulos
num
number
numbers
nume
numenada
numenadas
numenados
numenadu
numenadura
numenale
numenare
numene
numeratzione
numero
numeros
numerosa
numerosas
numerosos
numerosu
numeru
numerus
numisma
nun
nunavut
nunca
nunzio
nuorese
nuoro
nuova
nuove
nuovi
nuovo
nur
nura
nurache
nurachi
nuradda
nuraghe
nuraghes
nuraghesa
nuraghesas
nuraghesos
nuraghesu
nuraghi
nuragica
nuragico
nuragicu
nuragus
nurake
nuraxi
nuraxis
nure
nurra
nurri
nus
nuto
nutzola
nuu
nuvole
nuxi
nuxis
ny
nza
nzat
nzos
nzu
o
oak
oasi
oaxaca
ob
obama
obbligu
obera
oberas
oberbaumbru
oberint
oberta
obertu
obertura
obietivos
obietivu
obietivus
obiettivu
obino
obispadu
obispale
obispali
obitadu
object
oblast
obligados
obligadu
obligare
obligato
oblighende
obra
obrativu
obres
obrigado
obrigados
obrigadu
obrigadura
obrigato
observatory
oburu
oc
ocannu
ocasionale
ocasione
ocasiones
ocasioni
occasione
occasioni
occhi
occhio
occidental
occidentale
occidentali
occidente
occupada
occupadu
occupat
occupatzione
oce
ocean
oceania
oceanu
oche
ochi
ochida
ochido
ochidos
ochidu
ochidura
ochiende
ochient
ochier
ochiet
ochire
ochisura
ochit
ocidentali
oclusivas
ocra
ocros
ocru
octave
october
octubre
ocupada
ocupadas
ocupadores
ocupados
ocupadu
ocupaiant
ocupaiat
ocupare
ocupat
ocupatzione
ocupende
ocurre
od
odeon
oder
odessa
odierna
odio
odissea
odoacre
odos
odu
oe
of
ofe
ofensiva
ofensivas
oferiat
oferint
oferit
oferta
ofertas
ofertu
off
offe
offerta
office
officer
official
officina
offissiali
offitziale
offitziali
ofi
ofissiali
ofitziale
ofitziales
ofitziali
og
ogetivu
ogetos
ogetu
ogetus
oggetto
oggi
oghe
ogiastra
ogiastru
ogliastra
ogna
ognassantu
ogni
ognunu
ograda
ogros
ogru
ogu
oguali
ogus
oh
ohio
ohm
ohne
oi
oil
oindii
oip
ois
oise
oje
ojos
oju
ok
okhlobystin
okinawa
oklahoma
oksana
ol
ola
olanda
olandesa
olandesas
olandesos
olandesu
olbia
olbrich
old
ole
olga
oli
olia
oliana
olias
oliena
olimpi
olimpia
olimpiades
olimpico
olinto
olio
oliva
olivarios
oliveira
oliver
oliveri
olivetti
olivieri
oliviero
olla
ollasta
ollastra
ollastu
olleras
ollolai
ollollai
ollu
oloca
olos
olta
oltolina
oltre
oltremare
olu
olympia
oma
omaggio
omaha
omaju
omar
omayyade
ombra
ombre
omega
omeopa
omero
omi
omine
omines
omini
ominis
omnia
omo
omodeo
omoge
omonima
omonimo
omonimu
omosessuale
omosessuales
omosessualidade
oms
omundson
on
ona
onanie
once
onda
ondra
one
onesta
oneste
ong
oniai
onieri
onitsha
online
onlus
only
onne
onni
onnia
onniasanti
onniasantu
onnipotente
onnis
onniunu
onno
ono
onomatopeica
onora
onoradu
onorare
onorato
onorau
onore
onores
onori
onta
ontario
onu
onzi
oos
op
ope
open
opera
operadore
operadores
operadoris
operadu
operadura
operaduras
operai
operaia
operaiant
operaiat
operaio
operaja
operajos
operaju
operare
operas
operat
operating
operativa
operativas
operativos
operativu
operatore
operatorname
operatzione
operatziones
operatzioni
operazione
opere
operende
operetta
opetaia
opinione
opiniones
opinioni
opinionis
opo
oponet
oponiat
oponidura
oponit
oportuna
oportunidade
oportunidades
oportunu
oposidores
oposidura
opositzione
opositzioni
oposta
opostas
opostos
opostu
oppenheimer
oppidum
oppo
opposed
oppuru
opressione
opt
optzionale
opuru
opus
or
ora
oradea
oral
orale
orales
orali
orama
oramai
orane
orange
oras
orato
orazio
orbatze
orbita
orbitale
orbitali
orbiter
orchestra
orchideas
orcu
order
ordi
ordina
ordinada
ordinadu
ordinamento
ordinamentu
ordinare
ordinaria
ordinatzioni
ordinau
ordine
ordines
ordingiada
ordingiadu
ordini
ore
orecchio
oregon
oremari
oreopithecus
oreste
org
orga
organ
organisation
organismos
organismu
organismus
organitzazione
organizada
organizadas
organizadores
organizados
organizadu
organizadura
organizaduras
organizant
organizare
organizat
organization
organizatzione
organizatziones
organizatzioni
organizatzionis
organizau
organizing
organizzazione
organu
orgia
orgo
orgoglio
orgolesos
orgosolo
ori
orientada
orientados
orientadu
oriental
orientale
orientales
orientali
orientalis
orientamentos
orientamentu
orientare
orientation
oriente
orienti
origina
originada
originadu
original
originale
originales
originali
originalidade
originalis
originaria
originariamente
originariu
origine
origines
origini
originiariamente
originis
origins
origoni
origra
oris
oristanis
oristano
orizinale
orizinarmente
orizine
orizontale
orizonte
orizzonte
orlando
orle
orleans
ormai
ornamentu
ornella
ornette
ornitologia
oro
oros
orosei
oroteddi
orroli
orrolu
orrore
orru
orrubia
orsos
orta
ortacesus
ortali
ortaliscia
ortas
orthulle
ortigru
ortigu
orto
ortobene
ortodossa
ortodossos
ortodossu
ortogonale
ortogonales
ortogra
ortografia
ortolu
ortos
ortu
ortueri
ortzai
oru
orune
orvieto
orwell
orzocor
os
osama
osanna
osbourne
oscar
oscheri
oschiri
osi
osidde
osile
osini
oslo
osos
ospedale
ospite
ospitone
osrd
ossadura
osse
osserva
osservada
osservadore
osservadores
osservados
osservadu
osservare
osservat
osservato
osservatzione
osservatziones
osservatzioni
osservatzionis
ossessione
ossessivu
ossi
ossia
ossiat
ossidatzione
ossidiana
ossos
ossosu
ossu
ossus
osta
ostalgie
ostana
osteria
ostia
ostile
ostrogotos
ostrom
osvaldo
ota
otaku
otanta
otavas
otavianu
ote
otello
otenende
otenent
otenet
otenimentu
otenimus
otenit
otenner
otenta
otentos
otentu
other
others
othieri
othoca
otieresu
otieri
otighentos
otis
oto
otomana
otomanas
otomanos
otomanu
otone
otros
ottava
ottavas
ottaviano
ottawa
otte
ottenit
ottighentos
otto
ottobre
ottocento
ottomanu
ottowagner
otu
otuxentus
otzana
otze
otzea
otzeanu
otzidentale
otzidentales
otzidentali
otzidente
otzidenti
otzita
otzitana
otzitania
otzitanu
ou
oud
our
ous
out
outdoor
outlook
output
outre
ov
ovali
over
overas
overline
overrightarrow
ovest
ovi
oviedo
ovodda
ovvero
ovverosiat
owen
owerri
owl
own
oxford
oz
ozastra
ozetos
ozettu
ozetu
ozierese
ozieri
ozu
ozzastra
ozzy
p
pa
paba
pabas
pabillonis
pabilu
pabiros
pabiru
pablo
pac
paca
pacas
pace
pache
pachete
pachetes
pachetu
pachetus
paci
pacific
pacifico
pacificu
pacifista
pacino
paco
pacos
pacu
padana
padania
padanu
pade
padente
padentes
padenti
padessende
padessiat
padiglione
padilla
padova
padre
padres
padri
padria
padrino
padrone
padru
padu
paella
paesa
paesaggi
paesaggio
paesagi
paese
paesi
pag
paga
pagada
pagados
pagadu
pagai
pagaiat
pagamenta
pagamentu
pagana
pagani
paganini
pagano
paganos
pagare
pagari
pagas
pagat
page
pages
pagg
paghe
paghende
paghiosa
paghiosas
paghiosos
paghiosu
paghit
paghu
pagina
paginas
pagine
pagnano
pago
pagos
pagu
pagus
pai
paice
painting
pair
pais
paisa
paisos
paisu
paisus
paja
pake
pakista
pakistan
pakistana
pakistanos
pakistanu
pal
pala
palace
palas
palatina
palatinadu
palatos
palattos
palattu
palatu
palatziu
palatzos
palatzu
palau
palazzi
palazzo
palcu
pale
paleo
paleocristiana
paleoli
paleonto
paleosardo
palermi
palermo
palermu
palestina
palestine
palestinesa
palestinesos
palestinesu
palestrina
paleusardu
palgrave
pali
paliaccio
palinsestu
palla
pallacanestro
palladio
pallamanu
pallone
palloni
palm
palma
palmare
palmas
palmiro
palmyra
palomar
palos
palte
palu
palus
pamela
pamplona
pan
panada
panama
panathinaikos
panda
pande
pandemia
pane
panedda
panes
pani
panic
panigada
pankow
pannamenta
pannellos
pannellu
panno
pannu
panora
panorama
panoramica
pansessualidade
panta
pantaleo
pantaleu
pantasima
pantasimas
pantasma
pantheon
paola
paoli
paolini
paolo
papa
papadu
papai
papale
papant
papare
papat
pape
paper
paperback
paperi
paperis
papi
papiamentu
papiros
papore
pappare
par
para
parabola
parada
paradas
parade
paradigma
paradise
paradiso
paradisu
paradossu
paradu
parafrinas
parago
paragogica
paragone
paraguay
paragula
paragulas
parallela
parallelamente
parallelas
parallelismos
parallelos
parallelu
paralyze
paramilitare
paramilitares
parana
paranoid
paranu
paranumenadu
parapsicologia
parare
pararutas
pararutistas
paras
parassitos
parastas
parastaxu
parat
paraula
paraulas
parco
parcos
parcu
parde
pardulas
pare
parede
paredes
paremighe
parent
parentalla
parente
parentes
parenti
parentis
pares
paret
pareto
pari
pariant
pariat
pariccius
paricis
paridade
pariga
parigas
parigi
parinales
parint
paris
paristo
parit
paritzas
paritzos
parizi
park
parker
parla
parlamentare
parlamentares
parlamento
parlamentos
parlamentu
parlano
parlanti
parlare
parlata
parli
parma
parodi
parodia
parodias
parole
parque
parre
parrer
parri
parrint
parrit
parro
parrochiale
parrochiali
parseval
part
parte
partecipadu
partecipare
partecipat
partenariadu
partende
partendi
partenent
partenet
parteniant
parteniat
partenza
parteolla
partes
partetzipadu
partetzipadura
partetzipaiat
partetzipantes
partetzipare
partetzipatzione
partetzipatziones
partetzipende
parti
partia
partiale
partiant
partias
partiat
particolare
particolari
particulare
particulares
particulari
particularidade
particularidades
particularis
particularmente
partida
partidas
partidi
partidos
partidu
partidura
partiduras
partidus
partighedda
partigheddas
partile
partinde
partint
partire
partiri
partis
partisanos
partisanu
partit
partito
partitzione
partitzipadu
partitzipat
partner
parton
partu
party
partziale
partziales
partzida
partzidas
partzidos
partzidu
partzidura
partziduras
partzint
partzire
partzit
parusu
pas
pasada
pasare
pasca
pascal
pascale
paschedda
paschighedda
paschixedda
pascia
pascual
pashtu
paso
pasolini
pasquale
pass
passa
passada
passadas
passaditzu
passados
passadu
passaggiu
passai
passaiat
passant
passaportos
passaportu
passare
passat
passato
passau
passaus
passazu
passeggiate
passende
passendi
passerella
passeron
passi
passiente
passigeris
passigiada
passio
passion
passione
passiones
passioni
passiva
passivu
passizeri
passizeris
passo
passos
passu
past
pasta
pasticceria
pasto
pastor
pastorale
pastorales
pastorali
pastore
pastores
pastori
pastoriu
pastura
pasu
pat
pata
patada
patagonia
patata
patatas
patente
pater
paterna
paternidade
path
pati
patiat
patidu
patiolla
patire
patitucci
pato
patolo
patologia
patologias
patos
patri
patria
patriarca
patriarcale
patricia
patrick
patrimo
patrimonio
patrimonios
patrimoniu
patrio
patriota
patriottu
patriotu
patrizia
patrizio
patro
patron
patrona
patronos
patronu
pattada
pattadesa
patti
pattinson
pattuglias
patu
patzi
patzientes
patzificu
pau
paui
paul
paula
paule
paules
pauli
paulinho
paulis
paulo
paulu
paura
pausa
pausania
pausini
pavarotti
pavel
pavese
pavia
pax
paxi
pays
paz
paza
pazina
pbs
pc
pci
pcs
pd
pdf
pdpa
pe
peace
peacock
pearl
peazu
pecados
pecadu
peccados
peccato
pechino
pechinu
peculiare
peculiares
peculiaridade
peculiaridades
pedago
pedde
peddes
peddi
pede
pedende
pedendi
pedersen
pedes
pediant
pediat
pedida
pedidas
pedidu
pedinde
pedint
pedire
pedit
pediu
pedra
pedrabissi
pedracontzas
pedras
pedres
pedro
pedrosa
pedrosos
pedrosu
pedru
pee
peemonte
peemontesa
peerla
pees
peggy
pegos
pegus
pei
peierls
peis
pejus
pel
pelea
peleas
peli
pelle
pellegrina
pellegrini
pellegrinos
pellegrinu
pelli
pellicula
peloponnesu
pembroke
pen
pena
penadorzu
penagos
penale
penales
penas
pende
penetradu
penetratzione
penguin
peni
peninsula
peninsulare
penisola
penisula
penitentzia
penn
pennacchi
pennsylvania
penny
pensa
pensada
pensadore
pensadores
pensadu
pensai
pensaiant
pensaiat
pensamentos
pensamentu
pensamentus
pensant
pensare
pensat
pensau
pensende
pensieri
pensiero
pensione
penso
penta
pentium
pentzadu
pentzai
pentzamentu
pentzat
penu
peone
peones
people
peoramentu
pepa
pepe
peppe
pepper
peppino
peppinu
per
pera
perant
peras
perat
peraula
peraulas
perbe
perca
percas
percentuali
percezione
perche
perchentos
perchentu
percival
percursos
percursu
percussion
percussiones
percussioni
perda
perdas
perdat
perdende
perdent
perder
perdere
perdet
perdia
perdiat
perdida
perdidu
perdiri
perdit
perdita
perdiu
perdo
perdona
perdonu
perdu
perdurada
perduta
perduto
pere
perez
perfect
perfeta
perfetas
perfetos
perfetta
perfetu
perfetzionamentu
perfetzione
perfilu
performance
pergamenas
pergola
pergolesi
peri
periculu
perie
perife
periferia
perigulosa
perigulosas
perigulosos
perigulosu
perigulu
perino
perio
period
periodo
periodu
peristantu
periudu
perlongada
perlongadu
permane
permanente
permanentes
permanenti
permi
permissos
permissu
permitende
permitent
permiter
permitet
permiti
permitiant
permitiat
permitint
permitit
permittiri
permittit
permittiu
pero
peroe
peros
perou
perpe
perpetuada
perpignanu
perra
perrica
perricada
perricados
perricadu
perricas
perry
persecutzione
persecutziones
persefone
persia
persiana
persianos
persianu
persico
persighida
persighidas
persighidu
persighire
perso
persona
personaggi
personaggios
personaggiu
personaggius
personagios
personagiu
personal
personale
personales
personali
personalidade
personalidades
personalis
personalizare
personalmente
personas
persone
persones
personi
personis
perta
perte
pertene
pertenent
pertenet
perteniant
perteniat
perth
perto
pertocaiant
pertocaiat
pertocant
pertocat
pertoccat
pertzentuale
pertzentuales
pertzetzione
peru
perugia
peruna
perunu
peruvianu
peruza
pes
pesa
pesada
pesadas
pesadia
pesadiu
pesados
pesadu
pesai
pesaiat
pesant
pesante
pesare
pesas
pesat
pesau
pescara
pesce
peschentos
peschentu
pesci
pese
pesende
peso
pesones
pesos
pessa
pessadu
pessame
pessamentos
pessamentu
pessare
pessat
pessighidos
pessighidu
pesso
pessona
pessonale
pessonalidade
pessonalidades
pessonas
pessonazos
pessonazu
pessone
pessones
pessu
pesta
peste
pesu
pet
peta
pete
peter
petersburg
petha
petit
petite
petitzione
petra
petri
petro
petrolchi
petroli
petrolini
petroliu
petronilla
petru
petrucci
petrucciani
petrugradu
petta
pettalzu
petti
pettiford
petus
petza
petzi
petzos
petzu
peus
peut
pez
pezzi
pfa
pg
phane
phenomenon
phi
phikis
phil
philadelphia
philip
philipp
philippe
philips
philology
philosophie
philosophy
phoenix
phone
phonogram
phonology
php
phu
phyla
physical
physics
pi
pia
piace
piacenza
piacere
piaf
piaget
piaghe
piana
pianeta
pianificadore
pianificatzione
pianista
pianistas
piano
pianoforte
pianos
piant
pianta
piantas
piante
pianu
pianuforte
pianura
pianus
pias
piat
piatta
piazza
pib
pic
pica
picada
picamente
picande
picare
picas
picat
picau
piccante
picciocca
piccioccas
piccioccus
piccola
piccoli
piccolo
picculu
pichepedreri
picioca
piciocu
picos
picture
pictures
picu
picus
pida
pidas
pide
pidos
pidu
pie
piece
piedad
piedade
piedi
pieds
piemonte
piemontesa
piemontese
piemontesos
piemontesu
piena
pier
piera
pierluigi
piero
pierre
piessi
piessigna
piessignas
piessignos
piessignu
piet
pieter
pietra
pietro
pietroburgo
pieve
pig
piga
pigada
pigadas
pigados
pigadu
pigai
pigaiant
pigaiat
pigamus
pigant
pigare
pigari
pigas
pigat
pigau
pighende
pighendi
pigiones
pigliaru
pigo
pigos
pigota
pigu
pil
pila
pilade
pilar
pilastros
pilatu
pili
pillingrina
pillole
pillonca
pilloni
pillonis
pillu
piloni
pilos
pilot
pilota
pilotas
pilotos
pilotu
pilu
pilus
pimentel
pin
pina
pinacoteca
pineta
pingiadedda
pink
pinna
pinnas
pinnetas
pinnetos
pinnone
pino
pinocchio
pinochet
pinta
pintada
pintadas
pintados
pintadu
pintare
pintat
pintau
pintiniadu
pinto
pintor
pintore
pintores
pintori
pintura
pinturas
pintus
pinu
pinuccio
pinyin
pio
pioneer
pioneri
pios
pip
piper
pipia
pipios
pipiu
pipius
pippo
pipppero
pira
pirandello
piras
pirastru
pirata
piratas
pirateria
pirati
pirelli
pireneos
piri
pirmasens
piro
piromalli
pirri
piru
pisa
pisana
pisanas
pisani
pisano
pisanos
pisanu
pisanus
pisca
piscadores
piscadoris
piscamos
piscamu
piscare
pische
pischedda
pisches
pischina
pisci
piscina
piscinas
piscupu
pisedda
piseddas
piseddos
piseddu
pissu
pista
pistas
pistis
pistola
pistone
pistones
pisu
pisurzi
pita
pitat
pitia
pitias
pitica
piticas
piticos
piticu
piticus
pitiu
pito
pittau
pitti
pittore
pittsburgh
pittura
pitu
pitzi
pitzinna
pitzinnas
pitzinneddos
pitzinnia
pitzinnos
pitzinnu
pitzoca
pitzocas
pitzocca
pitzoccu
pitzochedda
pitzocheddos
pitzocheddu
pitzocos
pitzocu
pitzolo
pitzorno
pitzos
pitzu
pitzus
piu
pius
pivano
pizos
pizu
pizzarelli
pizzente
pizzinna
pizzinnu
pl
pla
placa
placas
placcaggiu
place
placido
plaisir
plan
plana
planargia
planck
planet
planeta
planetary
planimetria
planitia
plasma
plasmodium
plassas
plastic
plata
platea
platform
plato
platone
platonos
plauto
play
player
playing
plays
playstation
plaza
please
pleasure
plebe
plebiscitu
pleiku
pleistocene
pleistotze
pleistotzene
plena
pli
plica
plicant
plicat
plinio
plotarea
plotdata
plotone
plu
plur
plurale
plurales
pluralidade
plus
pluto
plymouth
pm
pmid
png
po
pobera
poberesa
poberos
pobidda
pobiddu
poble
pobulada
pobuladas
pobuladu
pobuladura
pobulare
pobulares
pobulari
pobularidade
pobulatzione
pobulatzioni
pobulu
poca
pocas
poco
podant
podat
poddighe
pode
podede
podemus
poden
podende
podent
poder
poderadu
poderare
podere
poderent
poderes
poderet
poderi
poderios
poderiu
poderosa
poderosas
poderosos
poderosu
podes
podestade
podestades
podet
podeus
podgorica
podi
podian
podiant
podiat
podimus
podint
podinti
podiri
podit
poe
poema
poemas
poems
poesi
poesia
poesias
poesie
poeta
poetas
poete
poetes
poeti
poetica
poetissa
poetry
poetu
poga
pogrom
poi
poiche
poids
point
pois
poita
poite
poitiers
poitou
poitta
pol
pola
polaca
polacas
polacos
polacu
polare
polares
polari
polaris
pole
poleddu
polemica
poli
police
policy
polifo
polifuntzionale
polilobados
polima
poline
polinesiana
polinesianas
polino
polis
polisessualidade
polisportiva
polistrumentista
polite
politecnicu
politica
politicamente
politicas
politiche
politici
politico
politicos
politics
politicu
politiga
politigas
politigos
politigu
politkovskaya
politzia
polizia
pollock
polo
polonesa
polonesos
polonesu
polonia
polos
polska
poltu
polu
polydor
polygram
pomera
pompei
pompeo
pompeu
pompi
pompia
pompiadura
pompiaduras
pompiare
pon
poncho
pone
ponende
ponendi
ponendu
ponent
ponente
ponet
poni
poniant
poniat
ponint
ponit
ponner
ponnere
ponni
ponniri
pont
ponta
ponte
pontes
pontevedra
ponti
pontifi
pontificadu
pontis
ponty
pony
ponza
ponzende
pop
popolanos
popolare
popolari
popolatzione
popolatziones
popolatzioni
popolazione
popoli
popolo
popolu
populada
populadas
populados
populadu
populamentu
popular
populare
populares
populari
popularidade
populassione
populassiones
population
populatzione
populatziones
populatzioni
populatzionis
populazioni
populista
populos
populosa
populosu
populu
populus
por
porcari
porcheddinu
porcheddu
porcile
porcos
porcu
porcupine
pordenone
pore
porechenkov
porfia
pori
pork
porno
pornografia
porque
porridu
porru
porsche
port
porta
portabilidade
portable
portaboghe
portada
portadore
portados
portadu
portai
portaiant
portaiat
portal
portale
portalegre
portales
portali
portant
portare
portas
portat
portato
portau
porte
portende
portiere
portieri
portland
porto
portogallu
portoghesu
portolu
portos
portrait
portu
portuale
portuales
portugal
portugallu
portughesa
portughesas
portughesos
portughesu
portus
portzione
pos
posada
posca
posidura
posiduras
posissione
positiva
positivas
positivos
positivu
positzione
positziones
positzioni
positzionis
posizione
posizioni
posner
possa
posse
possedent
possedet
possediant
possediat
possedimentos
possedimentu
possedit
possessivos
possessores
possessu
possi
possibile
possibili
possibilidade
possibilidades
possibilidadi
possibilis
possibilita
possidentes
possiu
possono
possuit
post
posta
postale
postalencas
postales
postas
postaziones
postcoloniali
poster
posteriore
posteriores
posteriormente
postfazione
postino
postis
posto
postos
postu
postura
postus
pot
pota
potat
pote
potecaria
potente
potentes
potentzia
potentziale
potentziales
potentziamentu
potentzias
potenza
potere
potestade
potho
potosi
potsdam
potter
potu
potzant
potzat
potzo
pou
pour
povera
poveri
povero
povertade
powell
power
powerpc
pozzo
pozzomaggiore
pp
ppa
ppiu
pr
pra
prado
pradu
praeses
prag
praga
praghe
praghere
praghet
praia
praja
prajas
prama
pramantellu
pramas
pramma
prammas
prana
praneta
pranetas
pranificada
pranificadori
pranificadu
pranificatzione
pranos
pranta
prantas
prantedos
pranu
pranura
pranuras
pranus
pranzo
prat
prata
prataforma
prataformas
pratica
praticada
praticadu
praticamente
praticare
praticas
praticat
pratigadu
pratigamente
prato
pratobello
pratos
pratta
pratu
pratus
pratza
pratzas
praxeri
praxi
pre
prea
preados
prebida
prebidas
prebidet
prebidiat
prebidu
preca
precisa
precisamenti
precisioni
precursore
preda
predas
predi
predis
predispostu
predu
prefatzione
prefazione
prefe
prefere
preferende
preferentemente
preferiant
preferida
preferidu
preferint
preferit
prefertu
prefettura
prefetu
prefetura
prefissos
prefissu
pregadoria
pregadorias
pregare
preghendi
preghiera
pregiudi
pregonta
pregontadu
pregontare
pregontas
pregunta
preguntadu
preguntar
preguntare
preguntas
prei
preideros
preideru
preigadore
preigare
preisto
preistoria
preistorica
prejos
preju
prelatzione
prelatzioni
prelevamentu
preliminare
preliminares
premiada
premiados
premiadu
premiatzione
premie
premier
premio
premios
premissa
premiu
premius
prena
prenadu
prenadura
prenare
prenas
prenda
prendas
prendet
prenos
prensa
prenu
prenura
prenuragica
prenuragicu
prenzlauer
preparada
preparadu
preparant
preparare
preparat
preparatzione
preparatzioni
preparende
prepositurale
prepositzione
prepostu
preromana
pres
presa
presbi
presbite
presbiteriu
prese
present
presenta
presentada
presentadas
presentadore
presentadori
presentados
presentadu
presentai
presentaiant
presentaiat
presentant
presentare
presentas
presentat
presentatzione
presentau
presentazione
presente
presentende
presentes
presenti
presentis
presentzia
presentzias
presenza
preservare
presi
preside
presidenta
presidente
presidentes
presidenti
presidentziale
presidentziales
presidida
presididu
presley
preso
presone
presoneri
presoneris
presones
presoni
presonia
press
presse
pressi
pressione
pressiones
pressioni
presso
prestadu
prestat
prestatziones
prestatzionis
presti
prestige
prestigio
prestu
presu
presumida
presumit
presutu
prete
pretendende
pretendente
pretendentes
pretendet
pretendiat
pretesa
pretesas
preto
pretore
pretu
pretze
pretzede
pretzedent
pretzedente
pretzedentemente
pretzedentes
pretzedet
pretzi
pretziosa
pretziosas
pretziosos
pretziosu
pretzisa
pretzisada
pretzisamente
pretzisas
pretzisione
pretzisos
pretzisu
prevale
prevalente
prevalentemente
preve
prevention
preventzione
previ
previdet
previdiant
previdiat
prevosto
prexada
pri
pria
priamo
pride
prieto
prima
primados
primadu
primaria
primas
primatzia
primavera
prime
primera
primi
primidia
primidiu
primis
primitiva
primitivas
primitivu
primma
primmu
primo
primore
primorosa
primorosu
primos
primu
primus
prince
princess
princeton
princi
principale
principales
principali
principalis
principalmenti
principe
principessa
principi
printzesa
printzi
printzipados
printzipadu
printzipale
printzipales
printzipali
printzipalis
printzipalmente
printzipalmenti
printzipe
printzipes
printzipessa
printzipiadu
printzipiare
printzipios
printzipiu
prinzipales
priore
priori
prioridade
priorissa
prison
prisoner
prisoneris
prite
pritzker
priu
priva
privada
privadas
privados
privadu
private
privatesa
privatizatzione
privaus
privile
privos
prix
prize
pro
proa
proados
proadu
proant
proare
proas
proat
proba
probabile
probabilidade
probabilidadi
probabilmente
probabilmenti
probe
probiana
probianas
probianias
probianu
probida
probidas
probidos
probidu
problema
problemas
problemi
probremas
procariotas
process
processione
processioni
processo
processoris
processu
processus
prochentale
prochi
proclamada
proclamadu
proclamare
proclamat
proclamatzione
proco
procu
procura
procuradore
procuradores
procurator
prodotos
prodottos
prodottu
prodotu
produ
production
productions
products
produede
produende
produent
produer
produet
produi
produida
produidore
produidos
produidu
produidura
produint
produire
produit
produsi
produsint
produsiu
produssione
produtiva
produtivas
produtividade
produtivos
produtivu
produtora
produtore
produtores
produtoris
produtos
produttore
produttos
produtu
produtus
produtzione
produtziones
produtzioni
produzione
produzioni
proet
prof
professionale
professionales
professionali
professione
professiones
professionista
professionistas
professone
professones
professor
professora
professore
professores
professoressa
professori
profeta
profetas
profetos
profetu
profetzia
profile
profilo
profilu
profissionale
profumados
profunda
profundamente
profundas
profundidade
profundis
profundos
profundu
progetada
progetados
progetadu
progetare
progetat
progetatzione
progetau
progetos
progettadu
progetto
progettu
progetu
progetus
programa
programas
programatzione
programma
programmadore
programmadores
programmadu
programmare
programmas
programmatzione
programmera
progres
progressiva
progressivamente
progressive
progressivu
progressos
progressu
proibi
proibiat
proibida
proibidos
proibidu
proibire
proibit
proibiti
proibitzione
proibitziones
proina
proite
project
projekct
projekt
projetzione
projetziones
prolagus
proleta
proloco
promesse
promessi
promi
promissa
promissas
promitet
promitiat
promo
promonto
promontoriu
promotore
promotzionale
promotzione
promovende
promovet
promovi
promozione
promulgadu
pron
prono
pronominale
pronominales
pronta
prontas
prontos
prontu
pronu
pronuntzia
pronuntziada
pronuntziados
pronuntziadu
pronuntziare
pronuntziau
propaganda
propagatzione
propassat
propia
propiamente
propias
propiduras
propiedade
propiedades
propiedadi
propieta
propiu
propo
proponende
proponet
proponiat
proponit
proportzionale
proportzione
proportziones
proposito
propositu
propositzioi
proposta
propostas
proposte
propostos
propostu
propria
propriamente
proprias
propriedade
propriedades
proprieta
proprio
proprios
propriu
proprius
propulsore
pros
prosa
prosperadu
prosperare
prosperidade
prospetiva
prospetivas
prospettiva
prospettive
prospetu
prossimai
prossimo
prostituta
prostitutas
protagonista
protagonistas
protagonisti
prote
protect
protegher
proteghidura
proteinas
protesta
protestante
protestantes
protestare
protestas
protetorados
protetoradu
protetzione
protezione
proti
protistas
proto
protoantropomorfos
protocol
protocollos
protocollu
protocollus
protoisto
protomartyr
proton
protone
protones
protonuraghe
protonuraghes
protosarda
protozoos
protzedimentos
protzedimentu
protzedit
protzedura
protzeduras
protzessadu
protzessare
protzessione
protzessore
protzessores
protzessos
protzessu
proust
prova
provai
provas
provat
provedimentos
provedimentu
provenc
provence
proventza
proventzale
proventzales
provi
providence
provider
provincia
provinciae
provinciali
provintzia
provintziale
provintziales
provintzias
proviso
provocada
provocadu
provocare
provochende
provvedimenti
provvidenza
proxima
prozetos
prozettu
prozetu
pru
prubica
prubicau
prudencio
pruini
pruite
prummonares
prumones
prumu
prunisinda
prupu
prus
prusaprestu
prusatotu
pruschetotu
prussiana
prussianos
prussianu
prusu
prutzessione
ps
psd
pseudo
pseudoermafroditismu
pseudolo
pseudonuraghes
psi
psichede
psichia
psichiatria
psico
psicolo
psicologia
psych
psycho
psychology
ptm
ptol
ptolemeu
pu
pua
pubbl
pubblica
pubblicada
pubblicadu
pubblicato
pubblicau
pubblicazione
pubblicazioni
pubblico
pubblicu
pubidda
public
publica
publicada
publicadas
publicados
publicadu
publicamente
publicare
publicas
publicat
publicatzione
publicatziones
publicau
publichende
publicu
publique
publishing
publitzidade
publitzita
pubricada
pubricadu
pubricau
pubrigadu
pubrigadura
puccini
pudda
puddas
puddos
puddu
pueblo
puente
puerto
pugione
pugiones
puglia
pugno
pula
pulcinoelefante
pule
pulitzer
pulos
pulp
pulsante
pulu
pumas
punga
punica
punicos
punk
punna
punnaiant
punnaiat
punnant
punnas
punnat
punnende
punt
punta
puntada
puntadas
puntadore
puntadu
puntas
puntat
punte
puntegiadura
puntera
punti
puntigheddu
punto
puntos
puntu
puntus
puntza
puo
pupo
pur
pura
pure
puresa
purmones
purmonite
purna
purpa
purple
purpu
puru
pusceddu
push
pusti
pustigherra
pustis
pustisgherra
puthu
puthumajore
putin
puttu
putu
putumajore
putzos
putzu
putzulu
putzus
puzone
puzones
px
pyre
python
q
qa
qaeda
qaem
qata
qquad
qu
qua
quad
quaderni
quadri
quadriennale
quae
qual
qualcosa
quale
quali
quand
quando
quante
quanto
quark
quarks
quarta
quartet
quartetto
quarti
quartieri
quartu
quartus
quartz
quasi
quatre
quattro
quattru
que
quebec
quechua
queen
queens
queensland
queer
quei
quel
quell
quella
quelle
quelli
quello
queneau
quenya
quercus
quere
quest
questa
queste
questi
questione
questo
qui
quijote
quilo
quindi
quinta
quintet
quintino
quinto
quintus
quirra
quit
quito
quiz
quo
quod
quodlibet
quomo
quora
quotidiano
r
ra
raap
raba
rabano
rabas
rabia
rabos
rabu
racchiude
raccolta
raccoltas
racconti
racconto
raccontu
rachel
raciti
racumandadu
racumandatzione
racumandatziones
rada
radar
radars
radcliffe
radi
radiale
radiantes
radiation
radiatzione
radiatziones
radiatzionis
radicale
radicales
radicali
radichina
radici
radio
radioativa
radioatividade
radioativos
radioativu
radiofo
radiolina
radon
raf
rafael
raffaela
raffaele
raffaello
raffigurante
rafinada
rafinerias
rag
ragazza
ragazze
ragazzi
ragazzo
ragione
ragioni
ragusa
rai
raid
raider
raighina
raighinas
raimondo
rain
rainbow
raire
rajos
raju
raleigh
rales
ralis
rally
ralph
ralu
ram
rambuta
rame
ramessu
raminosa
ramon
ramos
ramu
ramundu
ran
rana
randolph
random
rangos
rangu
ranh
ranieri
rankine
ranos
rant
raoul
rap
rapa
raphael
rapina
rapinadores
raportos
raportu
raportus
rapper
rapporti
rapporto
rapportos
rapportu
rappresentant
rappresentare
rappresentat
rapresenta
rapresentada
rapresentadas
rapresentados
rapresentadu
rapresentaiant
rapresentaiat
rapresentant
rapresentante
rapresentantes
rapresentare
rapresentat
rapresentativa
rapresentativos
rapresentativu
rapresentatzione
rapresentatziones
rapresentatzioni
rapresentende
rapunzel
raquel
rara
raramente
raras
rard
raros
raru
ras
rashid
raspi
rassa
rassegna
rassu
rasta
rastas
rastos
rastras
rat
rate
rated
rati
ratificada
ratificadu
ratificare
ratio
ration
ratos
ratu
ratza
ratzas
ratziale
ratziales
ratzionale
ratzionales
ratzione
ratzismu
ratzista
ratzistas
rau
raval
ravenna
ravennate
ravenscroft
ravi
rawlinson
ray
raymond
raza
razza
rb
rbara
rbaros
rbaru
rbera
rberas
rberos
rberu
rbia
rbios
rbita
rbitas
rbitros
rbitru
rbiu
rbore
rbores
rbs
rbure
rbures
rbus
rca
rcadu
rcas
rcfi
rchi
rchica
rchicas
rchicos
rchicu
rchida
rchiu
rciu
rcs
rcu
rculant
rculat
rculos
rculu
rcuris
rd
rda
rdara
rdere
rdia
rdias
rdica
rdicos
rdicu
rdida
rdidas
rdidos
rdidu
rdighi
rdinat
rdine
rdines
rdini
rdios
rdiu
rdoba
rdt
rdu
re
rea
read
reader
ready
reagan
reagidu
reagit
real
reale
reales
reali
realidade
realidades
realidadi
realismu
realista
reality
realizada
realizadas
realizados
realizadu
realizadura
realizant
realizare
realizat
realizatzione
realizatziones
realizatzioni
realizau
realizende
realizzadu
realpolitik
realta
realtade
reas
reassione
reat
reativu
reatore
reatores
reatziona
reatzione
reatziones
reazione
rebe
rebeca
rebecca
rebeldes
rebellados
rebelladu
rebellare
rebelles
rebellia
rebellias
rebellos
reberdes
rebista
rebolussione
rebus
rebusadu
rebusare
recatadores
recatamentu
recco
recensione
recensioni
recent
recente
recenti
reche
rechedent
rechedet
recherche
recherent
recheret
recherta
rechertas
rechertos
rechertu
rechesta
rechestas
rechisitos
recitai
recitau
recitazione
reclutados
reclutamentu
reconchista
reconno
reconnoschende
reconnoschent
reconnoschet
reconnoschiat
reconnoschime
reconnoschimentos
reconnoschimentu
reconnota
reconnotas
reconnotos
reconnottu
reconnotu
record
recording
recordings
records
recreu
recu
recuida
recuisitos
recunnotu
recuperadu
recuperare
recupero
red
redatadu
redatore
redatores
redatzione
redding
redentore
redu
reducciones
reduende
reduida
reduidas
reduidos
reduidu
reduire
reed
reeder
reent
reeves
refe
refere
reference
referende
referendum
referente
referentzias
referiat
referidos
referidu
referimentu
referinde
referint
referire
referit
reflections
reforma
reformas
refudada
refudadas
refudados
refudadu
refudare
refudat
refudende
refudos
refudu
refugiados
regalu
rege
regente
reggae
reggio
reghente
reghentemente
reghentes
regi
regia
regime
regimentos
regimentu
regina
regio
regiolas
region
regional
regionale
regionales
regionali
regionalis
regione
regiones
regioni
regionis
regista
registas
registrada
registradas
registrados
registradu
registrant
registrare
registrat
registratzione
registratziones
registratzioni
registrazione
registrazioni
registrende
registros
registru
regnadu
regnaiat
regnantes
regnare
regni
regno
regnos
regnu
regnum
rego
regola
regolamentu
regolas
regole
regollit
regolta
regoltas
regoltos
regoltu
regordada
regordadu
regordaiat
regordare
regorta
regortas
regortos
regortu
regula
regulada
reguladu
regulamentos
regulamentu
regulare
regulares
regularidade
regularmente
regulas
regulativa
rei
reich
reid
reims
reina
reinickendorf
reis
relascione
relassionados
relassionadu
relassione
relassiones
relata
relatadas
relatados
relatadu
relatare
relatas
relativa
relativamente
relativas
relatividade
relativos
relativu
relatos
relatu
relatzionada
relatzionadas
relatzionados
relatzionadu
relatzionat
relatzione
relatziones
relatzionis
relazione
relazioni
release
relevu
reli
religion
religione
religiones
religioni
religionis
religiosa
religiosas
religiosidade
religiosos
religiosu
religiosus
religious
relizione
relo
reloaded
relogios
relogiu
rem
reme
remedios
remember
remenosa
remenu
remix
remixes
remo
remontant
remontat
remota
remotas
remotos
remotu
rempellos
remplasada
remplasadas
remplasados
remplasadu
remplasare
remplasat
remplasu
remundu
rena
renaissance
renata
renato
rendas
rendimentu
rene
renesset
renner
rennes
rennet
renniu
rennoamentu
rennos
rennu
renoir
rentzia
renu
renuntziadu
renuntziare
renzo
reos
repartu
repartzidura
reparu
repente
reperto
repertoriu
repertos
repertu
repertus
repi
report
reporter
reporters
reposare
reposu
represa
represas
repressione
repressiones
repri
reprimida
reprise
repu
repubblica
repubblicana
repubbrica
republic
republica
republicana
republicanas
republicanos
republicanu
republik
republika
repubrica
repulsione
requiem
rere
rerum
res
resa
rescatu
rescuers
rese
research
resentimentu
reserva
reservadu
reservas
resessende
resesset
resessida
resessidu
resessint
resessire
resessit
resfriai
resi
reside
residente
residentes
residentzia
residentziale
residentziales
resissende
resissida
resissidas
resissidos
resissidu
resissire
resiste
resistente
resistentes
resistentzia
resistiant
resistidu
resistire
reso
resolutzione
resonare
resone
resones
resonu
resource
respetadu
respetare
respetivamente
respetu
respirato
respiru
respo
responder
responsa
responsabile
responsabilidade
responsabilidades
resposta
respostu
respublika
resta
restada
restadu
restana
restare
restat
restaurada
restauradu
restaurant
restauratzione
restoradura
restorante
restorantes
restos
restritziones
restu
resu
resultados
resultadu
resultat
resumu
resurretzione
resursas
resurta
resurtada
resurtados
resurtadu
resurtaiat
resurtant
resurtare
resurtat
resurtende
resurtet
resurtu
resuscitadu
ret
reta
retangulare
retangulares
rete
retenent
retenet
retes
reti
retili
retirada
retiradas
retirados
retiradu
retirare
retirat
retiru
reto
retore
retrattu
retratu
retrieved
retro
return
retza
retzas
retze
retzende
retzensimentu
retzensione
retzensiones
retzentes
retzes
retzeta
retzetas
retzi
retziant
retziat
retzida
retzidore
retzidores
retzidos
retzidu
retzidura
retzint
retzire
retzit
reu
reuel
reunidu
reunificatzione
reunione
rev
reveladu
revelation
revesa
revessu
review
revisione
revista
revocadu
revolution
revolutions
revolutziona
revolutzione
rex
rexia
rey
reynolds
rez
rezi
rezidu
rezionale
rezionales
rezione
reziones
rezonale
rezone
rezones
rezu
rezzago
rfc
rfida
rfidu
rfu
rfuru
rga
rganos
rganu
rgb
rge
rgen
rghere
rghidu
rghine
rghines
rgia
rgiant
rgias
rgiat
rgica
rgicas
rgicos
rgicu
rgine
rgines
rgio
rgios
rgiu
rgono
rgula
rgunu
rhead
rhin
rhode
rhodes
rhythm
ri
ria
riabilitatzione
riacategoria
rialia
rialias
riant
rias
riat
rib
riba
ribas
ribbentrop
ribelli
ribera
ribu
ric
rica
ricamente
ricardo
ricas
ricca
riccardo
ricci
riccione
ricco
riccos
riccu
rice
ricerca
ricercadores
ricercas
ricerche
rich
richard
richards
richesa
richesas
richiamu
richmond
richter
rick
ricky
rico
ricordi
ricordo
ricorrenza
ricorsione
ricos
ricostrutzione
ricoveradu
ricu
ricursu
ricus
rida
ride
rider
ridere
rides
ridge
ridu
rie
riellu
rien
ries
rieti
rietveld
riferimento
riferimentos
riferimentu
riferimentus
riferit
rifle
riflessione
riflessivos
rifletet
riforma
riformadores
riformas
rifornimentu
rifugiados
riga
rigas
rigat
righe
righelli
righes
right
rightarrow
rights
rigore
rigores
rigorosa
rigorosu
rigos
rigu
riguardat
rijeka
rile
rileva
rilevadu
rilevare
rilevende
rilievos
rilievu
rima
rimas
rimbaltzare
rimbalzu
rime
rimini
rimos
rina
rinaldi
rinaldo
rinaschimentu
rinascimento
rinascita
rinfortzos
ring
ringo
rings
rinnovamentu
rinos
rinu
rinuntziadu
rinuntziare
rinvenimentos
rio
riohacha
rioja
rione
rios
riot
ripetitzione
ripetitziones
ripresa
ripresas
ripri
riproduidos
riprodutzione
ris
risa
risalit
risaltu
risc
riscaldamentu
riscatu
rischiu
riscossa
riscu
rise
riserva
riservada
riservadas
riservadu
riservas
risi
risk
riso
risolutzione
risolvet
risona
risorgimento
risorgimentu
risorsa
risorsas
rispa
rispetivamente
rispetivos
[...]
