!
"
#
##0
##1
##10
##11
##12
##13
##14
##15
##16
##17
##18
##19
##2
##20
##21
##22
##23
##24
##25
##26
##27
##28
##29
##3
##30
##31
##32
##33
##34
##35
##36
##37
##38
##39
##4
##40
##41
##42
##43
##44
##45
##46
##47
##48
##49
##5
##50
##51
##52
##53
##54
##55
##56
##57
##58
##59
##6
##60
##61
##62
##63
##64
##65
##66
##67
##68
##69
##7
##70
##71
##72
##73
##74
##75
##76
##77
##78
##79
##8
##80
##81
##82
##83
##84
##85
##86
##87
##88
##89
##9
##90
##91
##92
##93
##94
##95
##96
##97
##98
##99
$
%
&
'
(
)
*
+
,
-
.
/
0
00
000
001
002
003
004
005
006
007
008
0085729
009
01
010
011
0119480
012
013
014
015
016
016667
018
019
02
020
023
025
026
03
030
033
033333
034
035
038
04
045
048
05
050
051
055
056
06
063
064
065
066667
068
07
070
071
074
075
0752056
076
078
08
080
083333
084
09
090
1
10
100
1000
1002
1004
1005
1007
101
1012
1015
1016
1017
102
1029
103
1030
1034
1038
104
1045959048
105
1050
1054
106
1065
1066
107
1070
1073
108
1080
1088
1089
109
1090
1093
1095
1096
1098
11
110
1100
1103
1109
111
1110
1112
1113
112
1123
1124656644
1126
1127
113
1130
1138
1139
114
1144
1145
1146534261
115
116
1164
116667
117
1173
118
1183
1185
1186
119
1190
1192
1193
1195
12
120
1200
1203
1204
1206
1207
121
1214
1216
1217
1218
122
1224
1225
1226
123
1232
1233
1237
1238
124
125
1250
1255
1256
1257
1258
1259
126
1261
126944
127
1270
1272
1274
1275
1278
128
1284
1288
129
1295
1297
1299
13
130
1300
131
1316
1317
1318
1319
132
1321
1323
1324
1325
1326
1327
133
1331
133333
1334
1336
1337
134
1341
1342
1343
1344
1347
1348
135
1350
1352
1353
1354
1355
1358
136
1362
1363
1364
1365
1369
137
1375
1376
1377
138
1383
1386
1387
1388
1389
139
1391
1392
1394
1395
1396
1397
14
140
1400
1403
1407
1408
1409
141
1410
1412
1414
1415
1416
142
1420
1421
1422
142294
1424
1427
143
1431
1434
1436
144
1448
1449
145
1450
1453
1455
1456
1458
146
1468
1469
147
1470
1475
1476
1477
1478
1479
148
1480
1482
1483
1485
149
1492
1493
1494
1496
1497
1498
1499
15
150
1500
1502
1503
1504
1505
1506
1507
1508
1509
151
1511
1512
1514
1515
1516
1517
1518
1519
152
1520
1521
1522
1523
1524
1526
1528
153
1533
1534
1535
1538
1539
154
1540
1541
1542
1543
1544
1545
1548
155
1550
1555
1556
1558
156
1563
1564
1566
1567
1568
1569
157
1570
1571
1572
1573
1574
1575
1577
1578
158
1580
1581
1582
1584
1588
1589
159
1591
1593
1594
1595
1596
1597
1598
16
160
1600
1601
1602
1603
1604
1605
1607
1608
1609
161
1610
1614
1615
1616
1617
1618
162
1620
1621
1622
1623
1624
1625
1626
1627
163
1630
1631
1632
1634
1635
1636
1637
1639
164
1640
1641
1642
1643
1644
1648
165
1650
1652
1654
1655
1656
1657
1658
166
1665
166667
1667
1668
1669
167
1672
1673
1674
1675
1676
168
1680
1681
1683
1684
1685
169
1690
1691
1692
1697
1699
17
170
1700
1701
1706
1707
1708
1709
171
1711
1712
1713
1714
1715
1716
1717
1718
1719
172
1720
1724
1725
1726
1729
173
1730
1732
1734
1737
1738
174
1740
1748
1749
175
1750
1751
1752
1753
1755
1756
1757
1758
1759
176
1760
1761
1762
1763
1764
1765
1767
1768
1769
177
1770
1772
1773
1774
1775
1776
1777
1778
1779
178
1780
1781
1782
1783
1785
1786
1787
1788
1789
179
1790
1791
1792
1793
1794
1795
1796
1797
1798
1799
18
180
1800
1801
1802
1803
1804
1805
1806
1807
1808
1809
181
1810
1811
1812
1813
1814
1815
1816
1817
1818
1819
182
1820
1821
1822
1823
1824
1825
1826
1827
1828
1829
183
1830
1831
1832
1833
183333
1834
1835
1836
1837
1838
1839
184
1840
1841
1842
1843
1844
1845
1846
1847
1848
1849
185
1850
1851
1852
1853
1854
1855
1856
1857
1858
1859
186
1860
1861
1862
1863
1864
1865
1866
1867
1868
1869
187
1870
1871
1872
1873
1874
1875
1876
1877
1878
1879
188
1880
1881
1882
1883
1884
1885
1886
1887
1888
1889
189
1890
1891
1892
1893
1894
1895
1896
1897
1898
1899
19
190
1900
1901
1902
1903
1904
1905
1906
1907
1908
1909
191
1910
1911
1912
1913
1914
1915
1916
1917
1918
1919
192
1920
1921
1922
1923
1924
1925
1926
1927
1928
1929
193
1930
1931
1932
1933
1934
1935
1936
1937
1938
1939
194
1940
1941
1942
1943
1944
1945
1946
1947
1948
1949
195
1950
1951
1952
1953
1954
1955
1956
1957
1958
1959
196
1960
1961
1962
1963
1964
1965
1966
1967
1968
1969
197
1970
1971
1972
1973
1974
1975
1976
1977
1978
1979
198
1980
1981
1982
1983
1984
1985
1986
1987
1988
1989
199
1990
1991
1992
1993
1994
1995
1996
1997
1998
1999
2
20
200
2000
2001
2002
2003
2004
2005
2006
2007
2008
2009
201
2010
2011
2012
2013
2014
2015
2016
2017
2018
2019
202
2020
2021
2022
2025
203
2030
204
205
2050
206
207
208
209
21
210
211
212
213
214
215
216
216667
217
218
219
22
220
221
222
223
224
225
226
227
228
229
23
230
2307
231
231730413
232
233
233333
234
235
236
237
238
239
24
240
2400
241
242
243
244
245
246
247
248
249
25
250
2500
251
253
254
255
256
257
258
259
26
260
261
262
263
264
265
266
266667
267
268
269
27
270
271
272
273
274
275
276
277
278
279
28
280
2800
281
282
283
283333
283611
284
285
286
287
288
289
29
290
291
292
293
294
295
297
298
299
3
30
300
3000
301
302
303
304
305
306
307
308
309
31
310
311
312
313
314
315
316667
317
318
32
320
3200
321
322
323
324
325
326
327
328
329
33
330
3300
3309
331
332
333
333333
334
335
336
337
338
339
34
340
341
342
343
344
345
346
347
348
349
35
350
3500
351
352
353
355
356
357
358
359
36
360
361
364
365
366
366667
367
369
37
370
371
372
374
375
376
377
378
379
38
380
3800
381
383
383333
384
385
386
387
388
389
39
390
391
392
393
394
395
396
397
398
399
4
40
400
4000
4004
402
405
406
407
408
409
41
410
411
412
414
415
416
416667
418
419
42
420
421
422
424
425
426
427
428
429
43
430
431
432
433
433333
434
435
438
439
439722
44
440
441
442
443
444
445
446
45
450
4500
45098
451
452
453
454
455
456
457
458
459
46
460
461
462
462998915
464
465
466
466667
467
468
47
470
470391425
472
473
475
476
477
478
48
480
4800
482
483
483333
484
48407842
487
49
490
491
49195883
492
493
495
496
497
498
498333
499
5
50
500
5000
501
502
505
506
507
508
509
51
510
512
514
515
516
516667
517
518
52
520
521
522
523
524
525
526
527
529
53
530
531
532
533
533333
534
535
536
54
540
541
542
544
545
548
549
55
550
551
55136
551944
552
553
554
555
556
559167
56
560
563
564
565
566667
567
568
57
570
571
572
574
575
576
577
578
58
580
581
582
583
583333
584
586
588
589
59
590
591
594
595
596
597
599
6
60
600
6000
602
6025
603
604
605
606
609
61
610
612
614
616667
617
618
619
62
620
6202
622
624
625
626
627
628
629
63
630
631930398
632
633
633333
634
635
636
639
64
640
641
6429
645
646
647
648
649
65
650
6500
652
658
66
660
661
665
666667
669
67
670
671
672
676
677
679
6791
68
680
68000
68020
682
683333
685
6851
69
690
692
694
696
697
698
7
70
700
7000
701
704
705
709
71
711
7138
714
715
716667
717
718
7192
72
720
721
725
726667
727
729
73
730
731
733333
7343
735
7356
736
737
738
7383
739
74
740
741
744
745
746
75
750
751
752
753
755
757
759743536
76
760
762
766
766667
767
77
771
774
7741
77504100
77556665
777
778
78
783333
784
785
787
79
791
792
793
794
797
798
8
80
800
8000
800805225
802
803
806
807
8080
808889
81
810
812
813
814
815
816
816667
82
820
821
822
825
827
828
829
83
833
833333
834
835
84
840
8400
841
843
845
846
8467
847
848
85
850
85098
851
85138
853
854
855
856863696
857
85995
86
860
86002
86111
86143
862
86229
863
864
866
866667
868
87
870
871
87393
87636
878
87825
879890484
879939459
88
880
881
88246
883333
885
88569
886
886513630
8873831129
888708482
89
890
89187
89188
893
894820561
895
9
90
900
903
91
911
912
912286255
914
915
916667
918
92
920
922
924
925
926
928
93
930
931462627
932
933333
934
935
936
937
938
94
940
942
943
944
945
947
9475
949
95
950
951
952
952962357
953
957
959
96
960
961
962
963
964
966
966667
967
96778
968
969
97
970
97084
971
97285
973
974
975
976
977
978
9788842506850
9788871382418
979
98
980
980297209
98035
981
981944
982
983
983333
984
986
988
989
99
990
991
992
994
995
997
998
999
:
;
<
=
>
?
@
[
\
]
^
_
`
a
aa
aaron
aavv
ab
aba
abade
abadia
abaidare
abaliadu
abaliare
abandonada
abandonadu
abandonare
abandonu
abarrada
abarradas
abarrados
abarradu
abarrai
abarraiant
abarraiat
abarrant
abarrare
abarrat
abarrau
abarraus
abarrende
abarros
abarru
abas
abasatu
abasciamentu
abate
abba
abbadia
abbaidadu
abbaidare
abbaidende
abbandonada
abbandonadas
abbandonados
abbandonadu
abbandonare
abbandonat
abbandonati
abbandonende
abbandonu
abbarrada
abbarrados
abbarradu
abbarrant
abbarrare
abbarrat
abbas
abbasanta
abbasso
abbatzia
abbe
abbentu
abbentura
abberu
abbey
abbi
abbia
abbiamo
abbigliamento
abbiso
abbistada
abbistesa
abbistu
abbocadu
abbolo
abbolotos
abbolotu
abbreviadu
abbreviatzione
abbundante
abc
abca
abd
abdicadu
abdicatzione
abdul
abe
abealzu
abeba
abel
abele
abellinu
abentura
aberdeen
aberende
aberiant
aberiat
aberint
aberit
aberrer
aberrere
aberta
abertamente
abertas
abertos
abertu
abertura
aberturas
abes
abetare
abetat
abi
abia
abiadu
abicoltura
abidjan
abile
abilesa
abilidade
abini
abioportos
abioportu
abis
abiso
abistesa
abitada
abitadas
abitadores
abitados
abitadu
abitaiant
abitant
abitantes
abitanti
abitantis
abitare
abitau
abito
abitu
abituale
abjad
abo
abogada
abogados
abogadu
abogau
abolida
abolidu
abolire
abolitzione
abolotos
abolotu
abori
aboriginal
abortion
aborto
abortos
abortu
about
abraham
abramo
abratzat
abreviadu
abri
abril
abrile
abrili
abrutzu
abruzzo
abside
abu
abuja
abundante
abusos
abusu
ac
aca
acabada
acabadas
acabadora
acabados
acabadu
acabai
acabaiat
acabant
acabare
acabari
acabat
acabau
acabbada
acabbant
acabbare
acabbat
acabbau
acabbu
acabu
acacia
acade
academia
academic
academiuta
academy
acadianos
acadie
acanta
acapiada
acapiadas
acapiados
acapiadu
acapiadura
acapiau
acapiaus
acapulco
acaradu
acarare
acarat
acarende
acas
acasa
acasagiados
acasagiadu
acasagiaiat
acasagiare
acatadu
acatamentos
acatamentu
acatare
acatat
acattare
acca
accabada
accabadora
accabbu
accademia
accademicu
accadit
accanta
accattone
accenture
accept
access
accessdate
accesso
accioccu
accoddi
according
accordiu
accordo
accordu
account
accra
accu
accudi
accudire
accumpagnamentu
accumpanzat
accusadu
ace
aceleratzione
aceleratzioni
acentu
acessu
ache
acheuleanu
achille
achirida
achiridas
achiridos
achiridu
achirimentu
achirire
achirit
achistu
achita
aciapa
acid
acireale
acm
acnp
aco
acollida
acollidu
acollire
acollit
acometada
aconcadu
aconte
acontessat
acontessent
acontesser
acontesset
acontessiat
acontessida
acontessidas
acontessidu
acontessimentos
acontessimentu
acontessit
acontza
acontzada
acontzadu
acontzare
acontzu
acordadu
acordiu
acordius
acordos
acordu
acos
acosidu
acostada
acostadu
acostagiadu
acostamentu
acostare
acostat
acqua
acrarai
acrarire
acreschimentu
acro
acronimu
across
act
acta
actes
action
active
activist
activists
actor
actors
acu
acua
acudiant
acudint
acudit
acuedutu
acuistu
acumpa
acumpangiada
acumpangiadu
acumpangiamentu
acumpangiare
acumpangiau
acumpriant
acumprida
acumpridu
acumprimentu
acumprint
acumprire
acumprit
acunte
acuntessimentos
acuntessimentu
acuntessimentus
acuntessit
acurtziare
acurtzu
acusa
acusada
acusados
acusadu
acusas
acusativu
acussorgiados
acustica
acute
ad
ada
adam
adamo
adams
adamson
adata
adatada
adatadas
adatadu
adatamentos
adatamentu
adatare
adatas
adatos
adattu
adatu
adda
addae
addaghi
addanniada
adde
adderettu
adderettura
adderetzare
addes
addestramentu
addetos
addio
addis
additzionales
addo
addobiadu
addobiare
addopiada
addurat
ade
adecuadu
adeguada
adeguadu
adela
adelaide
adelantada
adelantadas
adelantamentu
adelasia
adelchi
adelphi
aden
aderetada
aderetadore
aderetadu
aderetare
aderetat
aderetu
aderidu
aderint
aderit
ades
adesione
adesivos
adi
adiabatica
adige
adillida
adiosu
administration
adn
adnkronos
ado
adobbende
adobiadu
adobiare
adolescentes
adolf
adolfo
adorno
adotada
adotadas
adotadu
adotare
adotat
adotau
adotiva
adottadu
adottat
adotzione
adozione
adria
adrian
adriana
adriano
adu
adult
adulta
adultos
adultu
aduna
advance
advanced
adventure
adventures
ae
aende
aendi
aequo
aer
aera
aere
aerent
aereo
aereona
aereoporto
aeret
aero
aeronautica
aeroplanos
aeroplanu
aeroporto
aeroportos
aeroportu
aerosmith
af
afa
afaca
afacca
afares
afaris
afatante
afatantes
afe
afestada
afestat
afestau
afetos
affa
affaca
affacca
affair
affairs
affare
affari
affaris
affettu
affirmat
afgana
afganista
afganos
afganu
afghanistan
afi
afiantzadu
afiantzare
aficu
afida
afidada
afidadu
afidat
afiladu
afines
afirmadu
afirmadura
afirmaiat
afirmant
afirmare
afirmat
afirmatzione
afirmatziones
afirmende
afitu
afluente
afluentes
afo
afortiadu
afortiamentu
afortiare
afortigada
afortigadu
afortigare
afracada
afracadas
afracadu
africa
african
africana
africanas
africanos
africanu
afrikaans
afriscos
afriscu
afriscus
afro
afroamericanos
afroamericanu
afrontai
afrontant
afrontare
after
afternoon
afundat
ag
aga
agabadu
agabbada
agabbadu
agabbare
agabbat
agabbu
agabu
again
against
agalbursa
agata
agatada
agatadas
agatados
agatadu
agatai
agataiant
agataiat
agatamentos
agatamentu
agatamus
agatan
agatana
agatant
agatare
agatat
agatau
agataus
agatende
agatendi
agatent
agatet
agattada
agattai
agattant
agattare
agattat
agatu
age
agence
agency
agent
agente
agentes
agenti
agentis
agentzia
agentzias
agenzia
agetivu
aggiudu
aghedu
aghera
agi
agiomai
agiornada
agiornadas
agire
agiu
agiuadu
agiuare
agiuda
agiudada
agiudadu
agiudare
agiudat
agiudau
agiudicadu
agiudos
agiudu
agiumai
agiunghe
agiunghende
agiunghet
agiunghiat
agiunta
agiuntas
agiuntos
agiuntu
agli
aglomeradu
agnelli
agnesa
agnese
agnetha
ago
agoa
agonia
agora
agorru
agostini
agostino
agostinu
agosto
agra
agrabiados
agrabiadu
agradat
agrade
agraria
agreement
agregatzione
agressione
agreste
agrestes
agri
agricola
agricoltura
agricultura
agrigento
agriturismos
agro
agroalimenta
agru
agrupadas
agrupados
agrupamentos
agrupamentu
agrupat
agu
agua
agualat
aguale
agualidade
aguantadu
aguantare
aguarmente
aguda
aguilar
agus
agusti
agustu
ah
ahmed
ahn
ai
aia
aiad
aiada
aiais
aian
aiana
aiant
aias
aiat
aicci
aici
aided
aidi
aids
aiello
aimara
aime
ain
aina
ainas
aine
ainnantis
aint
aintru
ainu
aioli
air
airbus
aires
airlines
airport
airways
ais
aise
aises
ait
aiuto
aja
ajaccio
ajacciu
ajaja
ajaju
ajo
ajudai
ajudaiddu
ajudu
ak
aka
akira
al
ala
alabama
alabatu
alaesos
alago
alagon
alain
alan
alas
alasdair
alaska
alb
alba
albacete
albanesa
albanesas
albanese
albanesi
albanesos
albanesu
albania
albatros
albergo
albergos
albergu
albero
albert
alberta
alberti
albertinu
alberto
albertoni
albertu
albina
albino
albo
albrecht
albright
albu
album
albums
albuquerque
alca
alcala
alcalde
alcalinu
alchimia
alcol
alcolismu
alcu
alcun
alcune
alcuni
aldara
aldo
ale
alejandro
aleksandr
alema
alemanna
alemannas
alemannos
alemannu
alena
aleni
aleria
ales
alessa
alessandra
alessandria
alessandro
alessandru
alessio
alex
alexander
alexandra
alexandre
alexandria
alfa
alfabe
alfabetizatzione
alfabeto
alfabetos
alfabetu
alfaeditrice
alfonso
alfonsu
alfred
alfredo
alge
algeri
algeria
algerina
algerinos
algerinu
algherese
algheresi
alghero
algoritmos
algoritmu
alguer
alguere
algueresos
ali
alias
alicante
alice
alicia
alida
aligaresos
aligaresu
alighe
alighera
aligheresa
aligheresos
aligheresu
alighieri
aligi
alii
alimenta
alimentadu
alimentadura
alimentant
alimentare
alimentares
alimentat
alimentatzione
alimentatzioni
alimentos
alimentu
alinari
alindat
alison
alitalia
alive
aljazeera
all
alla
allacanat
allagamentos
allai
allan
allargada
allargadu
allarme
alle
allea
alleada
alleados
alleadu
alleanza
allega
allegada
allegadas
allegados
allegadu
allegare
allegas
allegat
allegau
allego
allegoria
allen
allenadore
allenamentu
allende
allestimentu
allevada
allevadores
allevadu
allevamento
allevamentu
alley
alli
allia
alliada
alliadas
alliados
alliadu
alliance
alliantzia
alliberamentu
allievi
allievu
alligru
allindada
allindadu
alliniados
alliniamentu
allison
allium
allmusic
allo
allogare
allongada
allongadu
allonghiada
allora
allu
allughet
allumi
allutu
alluvionale
almanacco
almanzor
almaty
almeno
almost
alo
alone
alonso
alpes
alpha
alphonse
alpi
alpina
alpinos
alpinu
alpis
alpitour
alps
als
alsa
alsatzianu
also
alt
alta
altamente
altan
altara
altare
altares
altaria
altavilla
altea
alter
alternados
alternativa
alternativas
alternative
alternativos
alternativu
alternos
altieri
altipianu
alto
altos
altra
altre
altri
altrimenti
altro
altu
altura
alturas
altzaghena
alunnos
alunnu
alvaro
alve
alvos
alvure
always
alzheimer
alziator
am
ama
amada
amadeo
amadeus
amadu
amal
amalfi
amalia
amalie
amanda
amaniada
amaniadu
amaniadura
amaniare
amanniada
amanniau
amante
amanti
amantio
amantiosos
amantiosu
amaranta
amare
amari
amaricu
amaro
amat
amato
amazigh
amazon
amb
ambaduas
ambaduos
ambadus
ambas
ambasciada
ambasciadas
ambasciadore
ambasciadores
ambasciate
ambassador
ambi
ambidda
ambientadas
ambientadu
ambientale
ambientales
ambientali
ambientalista
ambientalistas
ambiente
ambientes
ambienti
ambiguidade
ambito
ambitu
ambos
ambosduos
ambrogio
ambrosio
ambrosu
amburgo
amburgu
amd
ame
amedeo
amedeu
amelia
amelio
amellorai
amen
amendola
amentant
amentare
amentat
ameri
america
american
americana
americanas
americano
americanos
americanu
americanus
americas
amerigana
ameriganos
ameriganu
amerigo
amesturu
ami
amica
amici
amicis
amico
amicos
amicu
amid
amiens
amiga
amigas
amighe
amigos
amigu
amigus
amin
aministradori
aministratzione
amir
amistade
amistosa
amleto
amma
ammancu
ammaniada
ammaniadas
ammaniados
ammaniadu
ammaniare
ammaniat
ammanitzadu
ammanniada
ammanniadu
ammanniamentu
ammanniare
ammasedare
amme
ammenta
ammentada
ammentados
ammentadu
ammentaiat
ammentamus
ammentant
ammentare
ammentat
ammentende
ammentos
ammentu
ammentuada
ammentuados
ammentuadu
ammesturada
ammesturadas
ammesturados
ammesturu
ammi
amministrada
amministradas
amministradore
amministradores
amministrados
amministradu
amministradura
amministrare
amministrat
amministrativa
amministrativamente
amministrativas
amministrativos
amministrativu
amministratzione
amministratziones
amministratzioni
amministrazione
amminoa
ammira
ammirallu
ammirare
ammiratzione
ammissione
ammisturada
ammisturu
ammitet
ammostant
ammostat
ammuntada
ammuntadore
ammuntadu
ammuntaiat
ammuntant
ammuntare
ammuntat
ammuntende
ammustra
ammustrados
ammustradu
ammustrant
ammustrare
ammustrat
ammustrende
amnesty
amnistia
amo
among
amor
amorada
amoradu
amorat
amore
amores
amori
amorosa
amos
amostai
amostant
amostat
amostau
amour
amparada
amparadas
amparadora
amparados
amparadu
amparare
amparat
amparau
amparende
amparu
ampe
ampere
ampliata
ampra
ampramente
ampras
ampros
ampru
ampsicora
ampu
ampulla
ampurias
amsi
amsicora
amsterdam
amtrak
amu
amus
amy
an
ana
analfabetismu
anali
analisi
analistas
analizadu
analizare
analizat
analizende
analogia
analogias
analysis
ananti
anarchia
anarchico
anarchicu
anarchismu
anas
anasta
anastasia
anato
anatolia
anatomia
anatomy
anatra
anca
ancas
anche
anchieta
ancien
ancient
anco
ancona
ancora
ancoras
and
anda
andada
andadas
andados
andadu
andai
andaiant
andaiat
andalusia
andalusu
andamentu
andan
andande
andant
andanta
andare
andat
andau
andaus
ande
andende
andendi
andere
andersen
anderson
andersson
andes
andiamo
ando
andorra
andre
andrea
andreas
andreotti
andres
andreu
andrew
andrews
andri
andria
andriy
android
andrzej
andy
ane
aneddos
aneddu
anela
anelli
anemia
anfitrione
angel
angela
angeles
angeli
angelico
angelini
angelis
angelo
angels
angena
anghelos
anghelu
angio
angione
angioni
angiou
angioy
angius
angle
anglicana
anglicanu
anglo
anglona
anglosa
angola
anguidda
anguilla
angulare
anguli
anhalt
ani
anibal
anidridi
anima
animada
animados
animadu
animal
animale
animales
animali
animalia
animalis
animalismu
animare
animas
animassione
animation
animatzione
animatziones
anime
animu
anita
aniutxo
anjou
anjouan
ankylosaurus
ann
anna
annaba
annada
annalena
annales
annali
annalisa
annanghedoras
annanghedores
annanghende
annanghet
annanta
annantas
annantos
annantu
annarita
anne
annessionada
annessionadas
annessionadu
annessionadura
annessione
annestru
anni
annichilamentu
annie
anniversa
anniversario
anniversary
anno
annoamentos
annoamentu
annoare
annoditzare
annos
annotamala
annotos
annotu
announce
announces
annu
annua
annual
annuale
annuales
annuali
annuario
annullada
annulladu
annullamentu
annullare
annuntziada
annuntziadu
annuntziare
annuntziau
annunzio
annus
ano
anonimadu
anos
another
ans
ansa
ansea
anselmo
answers
ant
anta
antas
ante
anten
antenna
antennas
antepassados
antepassadu
anteposta
antepostu
anteprima
anteriora
anteriore
anteriores
anteriormente
antetzedentes
anthology
anthony
anthonymuroni
anthropology
anti
antiae
antibio
antica
anticas
antiche
antichi
antichidadi
antichita
antico
anticos
anticu
antifascismu
antifascista
antifeudale
antiga
antigamente
antigas
antighidade
antighidades
antighidadi
antigo
antigone
antigoriu
antigos
antigu
antigua
antiguo
antigus
antillas
antimes
antine
antiochia
antioco
antiogu
antis
antivirus
anto
antoine
antolo
antologia
antologias
antologica
anton
antona
antonella
antonello
antoni
antonia
antonietta
antonino
antoninu
antonio
antro
antropo
antropolo
antropologia
antropomorfas
antzianismu
antzianos
antzianu
antzis
anu
any
anys
anzelu
anzone
anzu
ao
aorru
aosta
ap
apa
apaghiamentu
apaghiare
apais
apalacos
apamus
apant
aparadu
aparatos
aparatu
aparatus
aparcadorzu
aparcamentu
apare
aparente
aparessent
aparesset
aparint
aparit
aparitzadu
aparitzione
aparitziones
aparitzos
aparitzu
apartamentu
aparte
apartene
apartenent
apartenente
apartenet
aparteniant
aparteniat
apartenint
apartenit
apartheid
apartu
apas
apassionadu
apat
apatridia
ape
apeadorzu
apellativu
apellu
apendi
apenditze
apenni
apenninos
apenninu
apenninus
apensamentadu
aperitivu
aperta
aperte
aperto
apertu
apetus
aphrodite
api
apia
apiant
apias
apiat
apicadu
apidu
apitzu
apitzus
apiu
aplica
aplicada
aplicadas
aplicadu
aplicare
aplicatzione
aplicatziones
aplicatzioni
aplicatzionis
aplichende
apo
apoderada
apoderadu
apoderai
apoderaiat
apoderamentu
apoderare
apoderat
apoi
apolinar
apollo
aporrida
aporridu
aporrit
aportu
aposentada
aposentadas
aposentados
aposentadu
aposentamentos
aposentamentu
aposentare
aposentos
aposentu
aposentus
aposti
aposto
apostolo
apostolu
app
appare
apparentzia
apparte
appartene
appena
appenas
appendice
appennino
appice
appidu
apple
application
appoi
appretziada
approach
approccio
approva
approvau
apps
appunti
appuntu
appustis
apre
apretadu
apretu
apretziada
apretziados
apretziadu
apretziamentu
apretziare
aprigadu
aprigadura
aprigu
april
aprile
apro
aproadu
aprofetamentu
aprofitende
aproghilende
aproliados
aproliant
aprontadu
aprossimada
aprossimadamente
aprossimativa
aprovada
aprovadas
aprovados
aprovadu
aprovat
aprovatzione
apu
apuane
apuntamentu
apuntu
apustis
aqua
aquila
aquileia
aquino
ar
ara
arab
araba
arabe
arabi
arabia
arabo
arabos
arabu
arabus
aracataca
arago
aragona
aragone
aragonesa
aragonesas
aragonese
aragonesi
aragonesos
aragonesu
aragonesus
aral
aramaicu
aran
arana
arantzu
aranzolu
araolla
arasole
arasule
aratzos
arba
arbare
arbarea
arbareas
arbaree
arbarees
arbarei
arbaresos
arbaresu
arbas
arbatassa
arbatax
arbe
arbeghes
arbi
arbili
arbitra
arbitru
arbore
arborea
arboree
arborense
arboresu
arbos
arbu
arbure
arbures
arburesa
arbus
arbustu
arbutu
arc
arca
arcadio
arcana
arcangelo
arcanu
arce
arch
archaea
archaeology
arche
archeas
archeo
archeolo
archeologia
archeologica
archeologiche
archeologici
archeologico
archeologicos
archeologicu
archeologu
archi
archibiscamu
archidio
archimede
archipe
archipi
architect
architects
architectural
architecture
architeto
architetos
architetto
architettos
architettu
architettura
architetture
architetu
architetura
architeturas
archive
archived
archives
archivi
archiviadu
archiviata
archivio
archiviu
arci
arcidio
arcidiocesi
arcipe
arcipelaghi
arcipelagu
arcipi
arcivescovo
arco
arcos
arctic
arcu
arcuentu
arda
ardara
ardaule
ardennas
ardia
are
area
areas
arecibo
areddu
aregos
aremos
arena
arenas
areniles
ares
areste
arestes
aresti
aresu
arezzo
arfabetu
arga
argan
argent
argentiera
argentina
argentinu
argento
argentu
arghenti
arghidda
argiolas
argo
argumentos
argumentu
argumentum
argumentus
argunas
argunos
ari
aria
ariana
arianas
arianos
ariel
arienzo
arioportu
aristanesa
aristanesu
aristanis
aristo
aristocra
aristocratica
aristocratzia
aristotele
aritme
aritzo
aritzu
arizona
arkadia
arkansas
arles
arleta
arlington
arm
arma
armada
armadas
armados
armadu
armamentos
armamentu
armando
armas
arme
armena
armenia
armenos
armenu
armi
armisti
armo
armonia
armonica
arms
armstrong
armu
army
arn
arnaldo
arnold
arol
aroma
around
arpa
arpanet
arpes
arpesu
arquer
arra
arrabbiamo
arrampamentu
arrampos
arrampu
arrane
arrangiamentos
arrangiamentu
arrastus
arratza
arraxoni
arre
arreare
arredos
arregistrau
arregordai
arregordat
arregordu
arregorta
arreina
arrejonu
arremonant
arremonau
arrena
arrenescit
arrenne
arrepi
arrescotu
arresi
arresonare
arresonat
arresonos
arresonu
arrespirai
arrespusta
arressada
arressadas
arressadu
arressare
arrest
arrestada
arrestados
arrestadu
arrestare
arrestau
arrested
arrestos
arrestu
arrestus
arresurtau
arretza
arretzas
arreu
arrexoni
arrexonis
arri
arriba
arribada
arribadas
arribados
arribadu
arribai
arribaiant
arribaiat
arribande
arribant
arribare
arribat
arribau
arribaus
arribbada
arribbados
arribbadu
arribbant
arribbare
arribbat
arribbende
arribbu
arribende
arribendi
arribu
arrica
arricada
arrichida
arrichire
arricit
arriciu
arrigo
arrimada
arrimadu
arrimu
arriora
arriscat
arriscos
arriscu
arriu
arrius
arriva
arrivada
arrivadu
arrivare
arrivat
arrivida
arrividi
arrivo
arrivu
arro
arroca
arrocas
arrocu
arroda
arrodu
arrogos
arrogu
arrogus
arrolados
arrolli
arromana
arromanu
arrondissement
arrosa
arrosu
arru
arrubia
arrubiu
arruga
arrugas
arrui
arruinare
arruinas
arrumpellamentu
arruoladu
arruta
arrutroxa
arrutu
ars
arse
art
arta
artaldo
artamente
artari
artas
arte
artes
artesa
artesanale
artesania
artesanos
arthur
arti
artiada
article
articles
articolo
articu
articulada
articuladu
articulatzione
articulos
articulu
artificiale
artifitziale
artifitziales
artifitziali
artigianale
artiore
artipranu
artis
artisanos
artista
artistas
artisti
artistica
artisticu
artistigu
artists
artizzu
artos
artras
artribune
artrite
artrus
arts
artsakh
artu
artufaeddadore
artura
arturas
arturo
artus
artziada
artziados
artziadu
artziare
artzidio
artziende
artzipe
artzipelagu
artzivos
artzivu
aru
aruba
arumenu
arve
arveghe
arvore
arvure
arvures
arxiv
arzachena
arzola
arzolas
arzu
as
asa
asbu
asburgos
asburgu
asca
ascii
asciuga
ascoli
ascurtadore
ascurtadores
ascurtadura
asdru
asessualidade
asexual
asexuality
asfaltu
ashton
asi
asia
asiago
asian
asienda
asiendas
asili
asilu
asinara
asini
ask
askra
asl
aslcagliari
asp
aspects
asperger
aspetos
aspetti
aspettu
aspetu
aspiratzione
aspiratziones
aspromonte
asproni
aspru
aspx
ass
assa
assaditos
assai
assalto
assandira
assas
assassinadu
assassino
asse
assedio
assediu
assegura
asseguradu
assegurare
assegurat
asseliare
assemblea
assembleas
assembly
assempru
assentada
assentadas
assentadores
assentadorzos
assentadorzu
assentados
assentadu
assentadura
assentant
assentare
assentat
assentu
assessment
assessoradu
assessore
assetiada
assetiadu
assetto
assi
assignada
assignadas
assignados
assignadu
assignare
assimbi
assimbillat
assimi
assimigiare
assimilatzione
assimizadora
assimizadore
assimizadores
assimizant
assimizat
assimizu
assinnadu
assio
assione
assiones
assiros
assiru
assisi
assiste
assistente
assistidu
assistire
assistit
assistu
assitiada
assitiadu
asso
associated
association
associatzione
associatziones
associatzioni
associazione
associazioni
assoladu
assolu
assoluta
assolutamente
assoluti
assolutismu
assolutos
assolutu
assortimentu
assotziada
assotziados
assotziadu
assotziat
assotziau
assotzios
assotziu
assu
assumancu
assumende
assumet
assumida
assumidu
assummant
assunc
assunta
assuntadu
assuntu
assuntzione
assussadore
asta
astana
astero
asteroidi
asteroidis
asti
astore
astores
astra
astragu
astrata
astrattu
astratu
astratzione
astrintu
astro
astrofi
astrologia
astrona
astrono
astronomia
astronomical
astronomicu
astronomu
astronomy
astu
asturiana
asturianu
asturias
asuba
asula
asulu
asuncio
asusu
asuta
at
ata
atacada
atacados
atacadu
atacante
atacare
atacat
atacos
atacu
atacus
atatu
ate
ateismu
atelier
atene
atenet
ateneu
atentados
atentadu
atentu
atentzione
atentzioni
atera
ateras
ateretantu
ateros
aterradu
aterrazu
ateru
aterue
aterus
atestada
atestadas
atestadu
atestant
atestat
atestatziones
atesu
ateu
athens
athletic
athletics
ati
atibiadu
atinat
atino
atitu
atitudine
atitudines
ativa
ativadu
ativai
ativare
ativas
ativatzione
atividade
atividades
atividadi
atividadis
ativismu
ativista
ativistas
ativos
ativu
ativus
atla
atlanta
atlante
atlantic
atlanticu
atlas
atle
atleta
atletas
atletica
atletico
atm
atmosfe
atmosfera
atmosferas
atmosphere
ato
atobiat
atobiau
atollos
atollu
atomic
atomica
atongiu
atonzu
atopos
atopu
atora
atore
atores
atos
atotu
atque
atra
atraessada
atraessadu
atraessant
atraessat
atraessu
atraida
atraidas
atras
atratzione
atratziones
atraversu
atre
atressu
atreta
atretas
atretzaduras
atria
atribui
atribuida
atribuidos
atribuidu
atribuire
atribuit
atributzione
atrice
atrogat
atru
atrus
atsushi
attaccadu
attacco
attaccos
attaccu
attack
attacks
atte
attention
attenzione
attera
atteras
atteros
atteru
attesu
atti
attila
attilio
attiva
attividade
attividades
attivista
attivistas
attivisti
attivita
attivu
atto
attonzu
attoppu
attoppus
attora
attore
attores
attori
attos
attraverso
attrice
attrici
attrus
attu
attuale
attuali
attualmente
attuazione
atu
atuadas
atuadu
atuale
atuales
atualidade
atualmente
atuamentu
atuare
atuarmente
atuatzione
atumbada
atumbu
atunzu
atza
atzapa
atzapada
atzapadas
atzapados
atzapadu
atzapare
atzapat
atzappare
atzara
atzarzu
atzas
atze
atzeder
atzelerada
atzellerada
atzeni
atzentos
atzentradu
atzentu
atzertadu
atzessi
atzesso
atzessu
atzeta
atzetada
atzetadas
atzetados
atzetadu
atzetant
atzetare
atzetat
atzetatzione
atzetende
atzetta
atzione
atziones
atzioni
atzionis
atzori
atzotu
atzur
au
auba
auckland
aude
audie
audience
audio
audito
auditorium
auf
auge
augu
august
augusta
auguste
augustea
augusto
augustu
augustus
aumentada
aumentadu
aumentant
aumentare
aumentat
aumentende
aumentu
aunde
aundi
aung
auniadu
aunida
aunidas
aunidos
aunidu
aunimentu
aunint
aunire
aunit
auniu
aunius
aure
aureliano
aurelio
aurora
aus
auschwitz
ause
ausilia
ausiliare
ausiliares
austera
austeru
austin
austinu
austis
austra
australe
australes
australi
australia
australian
australiana
australianas
australianos
australianu
austri
austria
austriaca
austriacas
austriacos
austriacu
austro
austu
aute
autem
author
authorities
autismu
auto
autobiogra
autobiografia
autobiograficu
autocaminale
autocaminos
autocaminu
autocra
autodeterminatzione
autodidata
autoguvernu
autoistopu
automa
automo
automobili
autonoma
autonome
autonomia
autonomismu
autonomista
autonomistas
autonomu
autopsia
autopsy
autora
autore
autores
autori
autoridade
autoridades
autoridadis
autoris
autorita
autoritratto
autorizada
autorizados
autorizadu
autorizadura
autorizatzione
autostrada
autu
autumn
autunno
auve
auvergne
aux
avallardi
avaloramentu
avalorare
avampostu
avana
avangua
avanguardia
avant
avanta
avanti
avantzada
avantzamentu
avatar
ave
avec
aveiro
avellino
avena
avenimentos
aventura
aventuras
avenue
averguadu
averguare
averiguada
averiguadu
averiguu
aversa
aversione
avertu
avesarmente
avesu
avezzano
aviada
aviadu
aviare
aviation
aviatzione
avignone
avisu
aviu
aviv
avo
avocadu
avogadro
avogadu
avolotos
avolotu
avra
avui
avvenire
avventura
avventuras
avventure
avversariu
avversarius
avvesu
avvocadu
award
awards
away
axel
axudu
aymeri
aymerich
az
azardu
azeglio
azente
azentes
azentzias
azera
azerbaigia
azerbaigian
azerbaijan
azeros
azeru
azienda
aziendale
aziendas
azione
azioni
aziz
azkaban
aznavour
azoma
azorras
azos
azotu
azow
azu
azuat
azudu
azul
azunghere
azuni
azunta
azuntos
azuntu
azur
azuto
azzurra
azzurri
azzurro
b
ba
baal
babai
babautzos
babbos
babbu
babel
babele
babilonesos
babilonesus
babilonia
babos
babu
baby
baca
bacallar
bacca
baccas
bacchetta
bach
bacharach
bachis
bachisio
back
backbone
backtracking
bacon
bacteria
bacu
bad
badajoz
badas
badde
baddes
baddi
baddu
baden
badore
badu
bae
baga
bagazos
bagdad
baggins
baghdad
bagnara
bagnu
bahamas
bahia
bahrain
bahrein
bai
baia
baile
bailey
bainzu
baix
baja
bajas
bajer
baker
bakunin
bal
bala
balaguer
balajana
balangende
balangiadu
balangiare
balanzadu
balanzu
balares
balaros
balbiano
balca
balcanos
baldini
baldur
bale
baleare
baleares
balent
balente
balentes
balentia
balentinu
balestreris
balet
bali
balia
balidesa
balilla
baliosa
balit
balkan
balkans
ball
balla
balladores
ballantine
ballas
ballat
ballata
ballau
ballerina
ballero
ballet
ballo
ballos
ballota
ballu
ballus
balore
balores
balori
baltimora
baltimore
balu
baluardu
balzac
bamako
bambi
bambina
bambini
bambino
bambinu
ban
banale
banana
bananas
bananera
banca
bancarota
bancas
banchita
banco
bancu
band
banda
bandalismu
bandas
bandera
banderas
bandha
bandi
bandidos
bandidu
bandiera
bandinu
banditi
banditismu
bandito
bandu
bang
bangkok
banglade
bangladesh
banjo
bank
banned
bannus
bant
bantare
bantat
bantine
bantu
banu
baptiste
bar
bara
barack
baran
baranta
barantena
baratu
baratz
barba
barbados
barbagia
barbar
barbara
barbaria
barbaricina
barbaricini
barbaricino
barbariscos
barbaritzinos
barbaritzinu
barbaro
barbaros
barbarossa
barbaruja
barbastro
barbaza
barbera
barberi
barbuda
barc
barca
barcas
barcellona
barcelona
barceloneta
barchedda
barcino
barclay
bardados
bardadu
bardana
bardanas
bardare
bardi
bardia
bardiamentu
baresu
bari
baria
bariada
bariadas
bariados
bariante
bariantes
bariedade
bariedades
bariedadi
bariedadis
barigadu
barigare
barilla
barisone
barker
barletta
barnes
barngarla
baro
baroca
barocas
barocca
barocco
barocu
baron
baronale
barone
barones
baroni
baronia
baroniesa
barore
barra
barrabi
barraca
barracas
barracoco
barrali
barrancu
barranquilla
barras
barreca
barrera
barreras
barriera
barris
barry
bars
barthe
bartimora
bartoli
bartolomeo
bartoloni
bartzellona
baru
barusone
bas
basa
basada
basadas
basados
basadu
basaltu
basant
basat
basau
basca
bascas
bascia
basciadu
bascios
basciu
bascius
bascos
bascu
base
baseball
based
basee
basende
bases
basi
basic
basile
basilea
basili
basilica
basilicata
basilio
basiliu
basin
basis
basket
basketball
bass
bassa
bassano
bassanu
bassas
bassista
basso
bassos
bassu
basta
bastante
bastantes
bastanti
bastat
bastet
bastia
bastien
bastimentu
bastione
bastiones
bat
batalla
batallas
batallione
batasuna
bate
batende
bateri
bateria
baterias
bateriologia
baterista
bati
batiare
batiat
batida
batidos
batidu
batijadu
batijare
batijimu
batinde
batint
batire
batista
batit
batman
bato
baton
bator
batorghentos
batru
battaglia
battaglie
battalla
batteria
batterista
batti
battiato
battijimu
battire
battista
battle
battor
battoro
baturi
bau
baudi
baudo
bauhaus
baunei
baux
bava
bavaresu
baviera
bay
bayern
bb
bba
bbc
bbia
bbias
bbila
bbile
bblica
bbn
bbrica
bbricos
bbricu
bbu
bc
be
beach
beast
beat
beata
beatificadu
beatles
beato
beatrice
beatriz
beau
beautiful
beauty
beauvoir
beaux
beaver
beavis
bec
became
beccaria
becciu
beccu
bechi
beck
becomes
bed
bedson
bee
been
beer
beethoven
beffa
before
beginning
begins
beh
behind
bei
beijing
being
beirut
bel
bela
belafonte
belarus
belchidda
belfast
belga
belgas
belgio
belgiu
belgrado
belgradu
believe
belisa
belisari
belize
bell
bella
bellagio
bellas
belle
bellesa
bellesas
bellezza
belli
bellieni
bellini
bello
bellocchio
bellodi
bellos
bellota
bellu
bellunu
bellus
belmonte
belo
belotzidade
belvedere
belvi
ben
bena
benas
bendende
bendent
bender
bendet
bendiant
bendidore
bendidores
bendidu
bendiu
bene
benedetinos
benedetinu
benedetta
benedetti
benedettinos
benedettinu
benedetto
benedicta
beneditu
beneditzione
benefi
benefitze
beneighet
beneita
beneittu
beneitu
benende
benent
benes
benestantes
benet
benetuti
benetutti
benevento
bengala
bengalesu
bengiat
beni
beniamino
beniant
beniat
beniculturali
benidi
benidora
benidoras
benidore
benidores
benidori
benidoris
benin
benini
benint
benis
benit
benito
benjamin
benjamins
benna
bennalzu
bennarzu
benner
bennet
bennett
benni
bennia
bennida
bennidu
benny
benson
bentana
bentanas
bentesoi
bentos
bentre
bentu
bentzon
benvenuti
benvenuto
benzat
benzi
benzina
beowulf
beppe
ber
bera
beranos
berant
beranu
beras
berat
berbe
berbeghe
berbeghes
berbeghinu
berbera
berberia
berberian
berberos
berberu
berchidda
berdade
berdaderu
bere
beren
berenguer
berg
bergamasco
bergamo
beri
beridade
beridadi
beridadis
berilinu
bering
berio
berit
berke
berkeley
berlin
berlinguer
berlino
berlinu
berlusconi
bermentinu
bern
berna
bernard
bernardi
bernardini
bernardino
bernardinu
bernardo
bernardu
bernasconi
bernerio
berners
bernhard
bernie
berona
beros
berri
berria
berrita
berritta
bersa
bersione
bersionis
bert
berta
bertani
bertigale
bertolt
bertolucci
bertrand
bertzeddi
beru
berus
berveghe
berveghes
berveghinu
bes
bessare
bessende
bessendi
bessi
bessia
bessias
bessida
bessidas
bessidos
bessidu
bessint
bessire
bessiri
bessit
bessiu
bessude
best
beste
bestia
bestiamene
bestiamine
bestida
bestidos
bestidu
bestimenta
bestimentas
bestint
bestire
bestires
bestiri
beta
bethe
betidos
betidu
betlemme
better
betti
bettino
betty
betura
beturas
betureddas
between
betza
betzas
betzesa
betzos
betzu
bevida
bey
beyond
bezirk
bgp
bhuta
bhutan
bi
bia
biada
biadu
biafra
biagende
biagi
biagiadores
biagiadu
biagiare
biagio
biai
biaita
biaitu
bianca
biancanie
biancas
bianche
bianchi
bianco
biancos
biancu
biango
biant
bias
biasi
biasu
biat
biata
biazadore
biazadores
biazare
biazos
biazu
biba
bibbia
bibcode
bible
bibliogra
bibliografia
biblioteca
bibliotecas
bibliotheca
bica
bicas
bichipedia
bicos
bicu
bida
bidas
bidat
bidd
bidda
biddacidru
biddamanna
biddanoa
biddarzu
biddas
biddeputzi
biddesatu
biddesorris
biddexidru
biddighedda
biddigheddas
bidditzolos
bidditzolu
biddixeddas
bide
bidea
bideas
biden
bidende
bident
bideos
bider
bidere
bidet
bidi
bidiant
bidiat
bidit
bidos
bidru
bidu
bie
biela
biella
bieloru
bielorussia
bielorussos
bielorussu
biennale
biennales
bient
bier
biere
biet
big
biggest
bighina
bighinados
bighinadu
bighinos
bighinu
biint
bilancia
bilancio
bilantzu
bilartzi
bilbao
bilbo
bilchidda
bile
biles
bili
bilingualism
bilingue
bilingui
bilinguismo
bilinguismu
bilis
bill
billa
billboard
billete
billeteria
billetes
billie
billion
billy
bilmente
bilsini
bim
bin
bina
bincendu
binchende
binchent
bincher
binchere
binchet
binchiat
binchidora
binchidoras
binchidore
binchidores
binchidu
binchit
binci
bincida
bincidori
bincit
bincitas
bindighi
bindighina
bing
bingen
bingias
binos
bint
binta
bintas
binti
bintibator
bintiduos
bintighimbe
bintina
bintisete
bintitre
binto
bintos
bintrare
bintu
bintunu
binu
binza
binzas
bio
biochi
biodiversidade
biogra
biografia
biografias
biografico
biographie
biography
bioko
biol
biole
biolo
biologia
biologica
biology
biome
biondi
bios
bipm
bir
bird
birde
birdes
birdi
birdland
birdura
birduras
bire
birgo
biri
birma
birmania
birmingham
birore
birori
birra
birras
birth
birthday
biru
bis
bisa
bisarcio
biscaglia
bisconte
bisessuale
bisessualidade
bisestradu
bisi
bisidau
bisio
bisione
bisita
bisitada
bisitadores
bisitadu
bisitare
bisitau
bisitende
bismarck
bismutu
biso
bisogna
bisogniat
bisognin
bisogno
bisongiat
bisongiu
bisonzat
bisonzu
bissau
bisse
bista
bistada
bistados
bistadu
bisti
bistimenta
bistiri
bistu
bisu
bisura
bisuras
bit
bitcoin
bithia
bitiu
bitti
bittu
bitu
bitzi
bitzicleta
biu
biuda
biudu
bius
biv
bivende
bivent
biventes
biver
bivere
bivet
bivi
biviant
biviat
bividore
bividores
bividoris
bividorzos
bividorzu
bividu
bivint
bivit
biviu
bivu
bixinadu
bixinau
bixinaus
bixinu
bizantina
bizantinas
bizantinos
bizantinu
bizantinus
bizet
bizila
bizzarri
bjo
bjork
bla
black
blacklivesmatter
blackmore
blackwell
blair
blaise
blake
blanc
blanca
blancos
blasco
blasetti
blast
blaugrana
blc
bleu
blica
blicant
blicas
blicat
blicos
blicu
bligat
bligu
bliss
blitz
blocada
blocadu
blocare
blocat
blockbuster
blocos
blocu
bloemfontein
blog
blogger
blogspot
blood
bloody
bloomberg
blu
blue
blues
bncf
bo
boa
board
bob
bobby
bobo
bobore
boc
boca
bocabolariu
bocare
bocat
bocau
bocca
boccaccio
bocchidos
bocchidu
bocchidura
bocci
boccia
boccoli
bocconi
bocelli
boche
boches
bochido
bochidos
bochidu
bochidura
bochiduras
bochire
bochum
boci
bocidroxu
bocidura
bociri
bociu
body
boe
boeing
boes
bog
boga
bogada
bogadas
bogados
bogadu
bogadura
bogai
bogant
bogare
bogat
bogau
bogaus
boghe
boghende
boghes
bogino
bogota
bohe
boi
boicotta
boicottare
boicottazu
boidu
boinc
bois
bola
bolabentu
bolada
boladoreddos
boladoreddu
boladu
bolare
bolarzos
bolat
boldsymbol
bolende
bolent
bolet
boli
boliant
boliat
bolin
bolit
bolivariana
bolivia
bollati
bolli
bolo
bologna
bolognesi
bolognesu
bolognini
bolonna
bolos
bolotana
bolotanesi
bolscevica
bolscevicos
bolta
boltanski
boltas
boltzanu
bolu
bolunta
boluntade
bolzano
bomb
bomba
bombardada
bombardadu
bombardamentos
bombardamentu
bombardende
bombas
bombay
bombe
bombo
bomboi
bompiani
bon
bona
bonacatu
bonaccattu
bonaire
bonaparte
bonarcado
bonaria
bonas
bonaura
bonaventura
bondone
bone
bonelli
bonet
bonete
bonetti
boni
bonifa
bonifacio
bonifatziu
bonn
bono
bonolva
bonorva
bonos
bonu
bonuighinu
bonus
book
books
boom
bootleg
bor
borat
borbo
borbone
borbones
bordeaux
border
borders
bordu
bore
boreale
boreali
borfiu
borges
borghese
borghesi
borgia
borgo
borgogna
boringhieri
boris
born
borore
borromeo
borsa
borsellino
borta
bortada
bortadas
bortados
bortadu
bortadura
bortaduras
bortare
bortas
bortat
bortau
bortende
bortigale
bortigali
boruta
bos
bosa
bosana
bosco
boscolo
bosi
bosna
bosni
bosnia
bosque
boss
bossa
bossi
boston
bostra
bostru
bot
bota
botadu
botanica
botanico
botas
botos
botswana
botticini
botu
botza
botzacanastra
bou
boulder
bourdieu
bourgeois
bournemouth
bouzid
bove
bowie
box
boxi
boxis
boy
boycott
boyer
boys
bozen
br
bra
brabara
braccio
bradley
braga
bragaglia
brahe
brai
brain
brama
bramadu
bramante
branca
brancaleone
brancalione
brancos
brancu
brandeburgu
brandenburgu
brandu
brani
brano
branos
brant
branu
brasi
brasil
brasile
brasileiro
brasili
brasiliana
brasilianu
brass
brassens
bratislava
bratzolu
bratzos
bratzu
braun
braunstein
bravo
bravu
brazil
brazzaville
bre
break
breakfast
brebei
brebi
brecht
brel
brema
bremen
brenta
brera
brescia
bresson
bretagna
breton
bretone
brett
breve
breves
brevetos
brevetu
brevi
brevis
brexit
bri
bria
brian
brianza
brica
bricas
bricos
bricu
bridge
bridgeport
bridgetown
bridos
brief
brien
briga
brigada
brigadas
brigaglia
brigas
brigata
brigatas
briggs
bright
brigos
brigu
briley
brincare
brincat
brincos
brincu
brindisi
bring
brios
bristol
brita
britain
britannia
britannica
britannicas
britannicu
british
briu
broad
broadcast
broadcasting
broadway
brocadu
brocare
brocca
brocu
brodu
broken
bromu
bronzu
brooklyn
brooks
bros
brother
brothers
brotzu
brought
brown
browsh
bru
bruce
bruciacchiate
bruciata
brujadu
brujamentu
brule
brulla
brullas
bruncu
brundu
brunei
bruni
bruno
brunswick
brunu
brunzu
brusiada
brusiadu
brusiare
bruta
brutu
bruxelles
bryan
bs
bsd
bside
bu
bua
buatone
buble
buca
bucarest
bucas
bucca
buccas
buccia
bud
budapest
buddha
buddhismu
buddhist
buddhista
buddhistas
buddi
buddida
buddidura
buddire
buddismu
buddista
budduso
buddy
budget
budoni
budterence
budu
budune
buena
buendi
bueno
buenos
buettner
bufaduras
bufare
buffalo
buffare
bugerru
buggy
bugs
build
building
buio
bukowski
bula
bulas
bulbu
bulgaria
bulgarian
bulgaru
bull
bulla
bulletin
bullismu
bulos
bultzi
bulu
bulzoni
bum
bumbe
bundante
bundantes
bundesland
bunker
bunna
bunnymen
buon
buona
buono
bur
bura
burcei
burda
burdu
bureau
burgenland
burghesa
burghesia
burghesos
burgos
burgu
burke
burkina
burlesque
burn
burocra
burrare
burricu
burroughs
burruni
bursa
bursas
burt
burton
buru
burundi
burus
bus
busache
busca
buscare
buscica
buscos
buscu
bush
business
bussa
bussalai
bussas
bustianu
bustu
but
buta
butega
butegas
butiru
butler
butone
butones
butt
buttega
buttegas
butterfly
butzaca
buy
buzzer
by
bye
byrne
byron
byte
bz
c
ca
cab
cabaiceno
cabale
caballeri
caballeris
caballeros
cabaret
cabesusesu
cabi
cabidanne
cabidanni
cabiddu
cabina
cabinas
cabitale
cabitales
cabitanu
cabitza
cabizza
cabo
cabori
cabos
caboto
cabra
cabras
cabrera
cabu
cabuabbas
cabudanne
cabudanni
cabuderra
cabudianamente
cabudianos
cabudianu
cabulogu
cabuterra
caccia
cacciatore
cache
cachi
cachorro
cacuminale
cad
cada
cadalana
cadalanas
cadalanos
cadalanu
cadalina
cadallanu
cadas
cadauna
cadaunu
cadderi
cadderis
caddos
caddu
caddura
cade
cadeddu
cadela
cadelana
cadelanos
cadelanu
cadelanus
cadena
cadenas
caderina
cadibona
cadice
cadira
cadoni
cadrea
caduta
cae
caente
caentes
caesar
caetani
caetano
cafe
cafei
cafetera
caffe
cag
cagli
cagliari
cagliaricalcio
cagliaripad
cagliaritano
cai
caillois
cairo
caironat
caixer
cajenna
cajone
cal
cala
calabresa
calabria
calada
calados
calagonis
calai
calais
calangianus
calant
calanzanus
calare
calari
calaris
calas
calat
calca
calcare
calchi
calciadore
calcio
calcistica
calciu
calcolatori
calcutta
calda
caldero
cale
caledo
calenda
calendario
calendariu
calentura
cales
calesi
calesisi
calesisiat
calgary
cali
calice
calich
calicu
calicuna
calicunas
calicunos
calicunu
calidade
calidades
calidadi
califadu
califfadu
califo
california
califu
calincuna
calincunas
calincunu
calis
calisisiat
calita
call
callada
calle
called
callentamentu
callenti
callentura
calli
calling
callistu
calls
calma
calore
calori
calota
caltanissetta
calvia
calvinista
calvino
cam
camaldolesos
camarda
camargo
camba
cambas
cambia
cambiada
cambiados
cambiadu
cambiai
cambiamento
cambiamentos
cambiamentu
cambiapare
cambiapares
cambiare
cambiat
cambiato
cambiau
cambiende
cambio
cambios
cambiu
cambo
cambogianu
camboni
cambosu
cambridge
cambu
came
camera
camerini
camerino
cameron
cameru
camerun
cami
camillo
caminadorzu
caminale
caminare
caminera
camineras
camino
caminos
caminu
caminus
camisa
camito
camminu
camorra
camp
campa
campagna
campagnas
campaign
campana
campanas
campaneddas
campania
campaniforme
campanile
campanna
campannas
campare
campat
campbell
campeda
campi
campidanesa
campidanesas
campidanese
campidanesos
campidanesu
campidanesus
campidanian
campidano
campidanos
campidanu
campiello
campiona
campionados
campionadu
campionati
campionato
campionau
campionaus
campione
campiones
campionessa
campioni
campionis
campo
campos
campra
camps
campu
campubassu
campura
campuras
campus
campusantos
campusantu
camus
can
cana
canada
canadesa
canadesas
canadesos
canadesu
canadian
canal
canale
canales
canali
canaria
canarias
canas
canat
canberra
canc
cancelleria
cancer
cancru
cancu
cancunu
candaleri
candaleris
candareri
candela
candelas
candia
candida
candidada
candidados
candidadu
candidadura
candidau
cando
candu
candy
cane
canepa
canes
cani
canina
canis
canna
cannabis
cannaca
cannacas
cannas
canne
cannedu
cannes
cannitas
canno
cannonau
cannones
cano
canone
canopolo
cant
canta
cantada
cantadora
cantadore
cantadores
cantadori
cantados
cantadu
cantai
cantaiat
cantan
cantando
cantano
cantant
cantante
cantantes
cantanti
cantare
cantas
cantat
cantau
cantautora
cantautore
cantautrice
cante
cantende
canti
cantidade
cantidades
cantidadi
cantieris
cantigheddos
cantigos
cantigu
cantina
canto
canton
cantone
cantones
cantore
cantores
cantori
cantos
cantrell
cantu
cantus
cantzelleri
cantzilleri
cantzione
cantzone
cantzones
cantzoni
cantzonis
cantzos
cantzu
canu
canzo
canzone
canzones
canzoni
cao
caocci
caos
cap
capa
capaci
capanna
caparezza
capas
capassu
capatza
capatzidade
capatzidades
capatzidadi
capatzos
capatzu
cape
capedda
capeddu
capella
capellas
capelli
capello
capi
capida
capidanne
capit
capita
capitadu
capital
capitale
capitales
capitali
capitalismo
capitalismu
capitalista
capitan
capitanu
capite
capitolo
capituladu
capitulos
capitulu
capo
capodanno
capolavoro
capolavoros
capoluogo
capos
cappadocia
cappai
cappella
cappellacci
cappellas
cappelli
capra
capraia
capraja
caprera
capriccio
captain
capu
capua
capuana
capudanni
capulogu
capus
caput
car
cara
carabineri
carabineris
caracalla
caracas
carai
caraibi
caraibis
carales
caralis
caralu
caraluforte
caras
carasadu
carasu
caratere
carateres
carateri
carateristica
carateristicas
caraterizada
caraterizadas
caraterizados
caraterizadu
caraterizant
caraterizare
caraterizat
carattere
caratteres
caratteri
caratteristica
caratteristicas
caratteristiche
caratteristicu
caratza
caratzas
caravaggio
carbo
carbone
carboni
carbonia
carburante
carca
carcere
carche
carchi
carchina
carchiunu
carci
carcu
carculadore
carculadores
carculadu
carculare
carculat
carculos
carculu
card
cardedu
cardia
cardiale
cardiff
cardinale
cardinales
cardinali
cardu
carducci
care
carena
carenas
caresima
carestia
caretta
caretti
cargo
cari
caria
caribbean
caribes
carica
caridade
caristia
carl
carla
carles
carlini
carlo
carloforte
carlos
carlton
carlu
carluforti
carmelo
carmen
carmina
carmine
carnegie
carnevale
caro
carocci
carol
caroli
carolina
caroline
caros
carpathian
carpatzos
carpegna
carpenter
carpenters
carpio
carpitella
carrada
carradu
carrara
carrasegare
carraxu
carre
carrer
carrera
carreras
carri
carriera
carriga
carrigada
carrigados
carrigadu
carrigare
carro
carros
carroz
carru
carrus
carson
carta
cartagena
cartagine
cartaginesa
cartaginesos
cartaginesu
cartas
carte
cartellos
carter
cartier
carto
cartografia
cartografu
cartone
cartones
cartzofa
caru
caruso
carvalho
carvo
carvone
carzeghe
cas
casa
casal
casale
casalis
casanova
casarsa
casas
cascada
case
casella
casellas
caserma
casermas
caserta
cases
casey
cash
casi
casino
caso
casos
caspar
cassa
cassadore
cassadores
cassados
cassadu
cassadura
cassano
cassare
cassita
cassola
cast
casta
castaneda
castanza
castanzu
castas
castedda
casteddaja
casteddajos
casteddaju
casteddos
casteddu
castel
castell
castellaccio
castellana
castelli
castello
castellu
castelo
castelsardo
casti
castia
castiada
castiadas
castiai
castiare
castigadu
castiglia
castigliana
castiglianu
castiglione
castigu
castilla
castilliana
castillianu
castillo
castle
castoldi
castoro
castri
castro
castru
castrum
castu
casu
casuale
casualidade
casula
casus
casusu
cat
cata
catacumbas
catala
catalan
catalana
catalanas
catalane
catalani
catalano
catalanos
catalans
catalanu
catalina
catalog
catalogatzione
catalogna
catalogo
catalonia
catalugna
catalunya
catania
catanzaro
catardi
catastro
catch
catechismu
catedral
catedrale
catedrali
categoria
categorias
catena
caterina
caterini
catherine
catholic
cathy
cato
catolica
catolicos
catolitze
cattaneo
catte
cattedra
cattedrale
cattelan
cattolica
cattolicu
catura
caturados
caturadu
catza
catzada
catzadore
catzadu
catzare
cau
cauca
causa
causada
causadas
causados
causadu
causaiat
causare
causas
causat
causau
cause
causende
causes
cautive
cav
cava
cavalier
cavaliere
cavalieri
cavalleria
cavalleris
cavallo
cavas
cave
cavos
cavour
cavu
cavus
cayman
cbc
cbs
cc
ccat
ccia
cciu
ccu
cd
cdc
cdot
cds
ce
ceaus
ceca
cecchi
cece
cecena
cecil
cecilia
cecoslova
cecu
cedam
cee
cefet
ceglie
cei
celebra
celebrada
celebrate
celeste
celesti
celestino
cell
cellino
celsius
celtic
celu
cemetery
cen
cena
cenere
censidos
censimentu
censo
censura
census
cent
centauri
centelles
centenario
centennial
center
centimetropolitane
cento
centotrentuno
central
centrale
centrali
centre
centri
centro
centru
centrus
centu
century
cera
ceraxius
ceraxus
cerbeddu
cerden
cerealis
ceres
cern
certa
certo
certosa
certu
ceruti
cervantes
cervellon
cervera
ces
cesar
cesare
cesarea
cesareo
cesi
cessione
cetra
cetti
ceuta
cf
cfds
cfi
cfn
cfr
cgpm
cgs
ch
cha
chachapoyas
chad
chain
chains
challenge
chamberland
chambers
champagne
champions
championship
championships
chance
change
changes
channel
channels
chant
chantal
chante
chants
chapel
chapter
charentes
charged
charles
charlie
charlotte
charlottenburg
chart
charter
chase
chat
chatterley
chauvin
chaves
che
cheja
chejas
chelos
chelsea
chelu
chemical
chemistry
chen
chena
chenabura
chenapura
chene
chent
chenti
chentimetros
chentina
chentinas
chentu
chentumi
chentz
chentza
chenza
cher
chera
cheratzu
cherbeddu
cherbu
cherchi
chercos
chercu
chere
cheremule
cheren
cherent
cheret
cherfidu
cheri
cheriant
cherias
cheriat
cherit
cherrer
cherta
chertat
chertos
chertu
chervu
ches
chess
chessa
chessidu
chessit
chet
cheyenne
chi
chia
chiama
chiamata
chianu
chiapas
chiara
chiaravalle
chiarella
chias
chibudda
chicago
chico
chida
chidas
chidos
chidu
chie
chief
chiesa
chieti
chijinas
child
children
chile
chili
chilivane
chilivani
chilla
chilo
chilogrammu
chilometros
chilos
chilu
chimbant
chimbanta
chimbe
chimbi
chimbichentos
chimbighentos
chimica
chimicamente
chimicas
chimicu
chin
china
chinas
chinatown
chind
chine
chinese
chini
chinisu
chino
chinta
chintorza
chintu
chios
chip
chirca
chircada
chircadore
chircadores
chircadu
chircaiant
chircaiat
chircande
chircant
chircare
chircas
chircat
chirchende
chircos
chircu
chirghisu
chironi
chirra
chirriu
chirros
chirru
chiru
chirurgia
chisciotte
chisina
chistio
chistiona
chistionabat
chistionada
chistionadas
chistionadu
chistionai
chistionaiat
chistionant
chistionare
chistionat
chistionau
chistione
chistionende
chistiones
chistionet
chistioni
chistionis
chistionu
chit
chitarra
chitarrista
chitarristas
chiterra
chiterras
chiterrista
chito
chitzi
chitzo
chiu
chiudende
chiusa
choc
choice
chomsky
chopin
chorographiam
chris
christ
christensen
christi
christian
christina
christine
christmas
christophe
christopher
christu
chromista
chronica
chronicle
chu
chuck
church
churchill
ci
cia
ciak
ciampi
cianciulli
ciao
cias
ciascuno
cibudda
cica
cicap
cicci
ciccio
cicciput
ciceri
ciclista
ciclu
cicri
cid
cida
cidade
cie
cielo
cien
cier
cii
cil
cile
cilenu
cili
cilis
cilocco
cim
cima
cina
cincinnati
cincu
cincuanta
cine
cinema
cinematogra
cinematografica
cinematograficu
cinesa
cinesos
cinesu
cinotz
cinque
cintu
cinzia
cio
cioe
cioppi
ciotti
cipro
cipru
circa
circadoris
circai
circas
circat
circeo
circhendi
circle
circo
circoli
circolo
circuit
circulari
circus
cirese
cirillicu
ciro
cirra
cirronis
cisco
cisgiorda
cit
cita
citade
citadi
citadis
cities
citing
citta
cittadi
cittadinanza
cittadini
cittadino
citti
cittiglio
city
ciu
ciudad
cius
ciusa
ciutat
civici
civico
cividale
civil
civile
civili
civilidadi
civilis
civilization
civilta
civiltadi
civiltadis
civita
civitas
civitate
cixerri
ck
cke
cken
cl
cla
claims
clairvaux
clamav
clamwin
clan
clandestina
clandestino
clandestinos
clannad
clara
clare
clarence
clarine
clarinet
clarissas
clark
clarke
claro
claru
clash
class
classe
classes
classi
classic
classica
classical
classici
classicos
classics
classicu
classifica
classificada
classificadas
classificados
classificadu
classificadura
classificare
classificas
classification
classificatzione
classificatziones
classificaus
classis
claude
claudia
claudio
claus
clausura
clay
clayton
cle
clement
clemente
clementi
cleopatra
cleos
clermont
clero
cleru
cles
cleu
cleus
cleveland
cli
clic
client
cliente
clientes
clienti
clifford
clima
climas
climate
climatologia
clinica
clinical
clinton
clipperton
cliu
clive
clock
clones
clooney
cloro
cloroplastos
close
closer
cloud
clouds
club
clubs
cluster
cm
cn
cnica
cnicas
cnicos
cnicu
cnn
cnr
co
coa
coach
coalitzione
coas
coast
coates
coautori
cobain
cobe
coberare
coberit
coberrefogu
coberta
cobertas
cobertedda
cobertu
cobertura
coberturas
coca
cocco
cockrell
cocktail
coco
coda
coddu
code
codex
codi
codice
codiche
codiches
codici
codificadas
codighe
cody
coe
coefitzientes
coeli
coere
coerente
coesiste
cofanetto
coffea
coffee
coghene
coghet
coghidura
coghina
coghinale
coghinare
coghinas
coghineri
cognome
cognomi
cohen
cohone
coi
coia
coidadu
coimbra
cointzi
cointzide
cointzident
cointzidet
coja
cojadu
cojare
cojas
cojau
coju
cojuada
cojuados
cojuadu
cojuare
cojuat
cojuba
cojuiu
col
cola
colada
coladas
colado
colados
coladu
colaiat
colande
colant
colare
colat
colau
cold
cole
coleman
colende
coletti
coli
colin
colla
collaboradore
collaboradores
collaboradu
collaborare
collaborat
collaborativu
collaboratzione
collaboratziones
collaboratzioni
collaborazione
collaborazioni
collaborende
collage
collana
collanas
collassu
colle
collected
collection
collectivite
collega
collegada
collegadas
collegados
collegadu
collegamentos
collegamentu
collegant
collegare
collegas
collegat
collegau
collegaus
college
colleges
collegios
collegiu
colletiva
colletivas
colletividade
colletividades
colletivos
colletivu
collettivo
collettivu
colletzione
colletziones
collezione
collezioni
colli
colliat
collida
collidas
collidos
collidu
collina
collins
collint
collire
collit
collocada
collocadas
collocados
collocadu
collodi
collserola
collu
colo
colombia
colombiana
colombianu
colombo
colomo
colonia
coloniale
coloniales
coloniali
colonialismu
colonias
colonizada
colonizadores
colonizados
colonizadu
colonizare
colonizatzione
colonna
colonnas
colonnello
colonos
color
coloradas
colorado
colorados
coloradu
colore
colores
colori
coloris
coloru
colpa
colpadu
colpi
colpisce
colpo
colpu
coltivada
coltivatzione
coltivos
coltivu
coltrane
coltura
colu
colucci
columbia
columbu
columbus
colunia
colunias
colunna
colunnas
com
coma
comarca
combat
combusti
combustione
come
comedian
comedy
comencini
coment
comente
comenti
comentisisiat
comentzu
comercio
comes
comet
cometa
cometas
comets
comi
comic
comics
comicu
coming
comino
comintzada
comintzadas
comintzados
comintzadu
comintzant
comintzare
comintzat
comintzende
comintzu
cominzadu
cominzat
cominzu
comita
comitados
comitadu
comitato
comitau
comma
command
comme
commedia
commedie
commedio
commentary
commentati
commente
commenti
commento
commerciale
commercio
commerciu
commi
commissa
commissario
commission
commissionadu
commissione
committee
commo
common
commons
commonwealth
communication
communications
communis
communista
community
communu
como
comomai
comoras
comp
compact
compagnia
companion
company
comparative
competenzias
competitzioni
compidare
compie
compiladore
compilados
compiladu
compilare
compilation
compitu
complessa
complessas
complesso
complessu
completa
complete
completes
complex
componente
componentes
compora
comporada
comporados
comporadu
comporare
comporau
compores
composidore
compositzione
compositzioni
composizione
compostela
compra
compton
compulsivu
computatzionale
computer
computers
computing
comte
comu
comuna
comunale
comunales
comunali
comunas
comuncas
comune
comunemente
comunes
comuni
comunicadu
comunicadura
comunicaduras
comunicai
comunicare
comunicassione
comunicativo
comunicato
comunicatzione
comunicatziones
comunicatzioni
comunicazione
comunidad
comunidade
comunidades
comunidadi
comunidadis
comunione
comunioni
comunis
comunismu
comunista
comunistas
comunisti
comunita
comunitarismo
comunos
comunque
comunu
comunus
comutadori
comutadoris
comutatzioni
con
conakry
conan
conca
concas
concentramentu
concepcio
concepcion
concepts
concert
concerto
concertos
concetto
concetus
conchedda
concheddas
conchi
conchista
conchistada
conchistadores
conchistados
conchistadu
conchistant
conchistare
conchistas
conchistau
conchistende
conci
conciliu
concluida
concluidu
concord
concordia
concorso
concruida
concruidu
concruire
concruit
condaghe
condaghes
condanna
condannato
conde
condita
conditzione
conditziones
conditzioni
condizioni
condor
condotta
condu
conduit
conduta
condutas
confe
confere
conference
conferenza
configuratzione
confinat
confine
confines
confini
confirms
conflict
conflitto
conforti
confronti
confu
confusione
confusiones
conge
congiu
congiuntivu
congiura
congo
congregatzione
congreso
congress
congresso
congruida
coni
coniadu
conifa
coniugatzione
connada
connadu
conne
connecticut
connection
connessione
connessiones
connessioni
connessionis
conno
connor
connosce
connosche
connoschede
connoschende
connoschent
connoschentzia
connoschere
connoschet
connoschiant
connoschiat
connoschida
connoschidu
connoschimentos
connoschimentu
connoschimus
connosci
connoscit
connota
connotas
connotatzione
connotatziones
connotos
connotta
connottas
connottos
connottu
connotu
connotus
cono
conosce
conoscenza
conoschida
conotta
conottu
conquista
conrad
conscie
consecutivas
consecutivos
conseguenze
consejo
consensus
conservatoria
consi
considera
considerada
consideradu
considerat
considerau
considerazioni
considerevole
consiglio
consilium
consillu
consixu
consizu
console
consolidadu
consonante
consonantes
consorzio
constantin
constantine
construction
consulente
consulenti
consulta
consultadu
consultare
consultato
consultatzione
consultivu
consumat
consumu
conta
contact
contada
contadas
contadini
contadino
contados
contadu
contai
contaiant
contaiat
contaminatzione
contant
contare
contat
contatto
contattu
contau
conte
contea
conteas
contempora
contemporanea
contemporanei
contemporary
contende
contendi
contenit
content
contes
contest
contesto
contestu
conti
contiene
contina
continent
continental
continentale
continentales
continentali
continente
continentes
continenti
continentis
contingentes
contini
continu
continua
continuada
continuadu
continuare
continuat
continuidade
continuum
continzente
contissa
contivigiant
contivigiare
contone
contos
contr
contra
contraba
contrabandu
contrada
contradito
contragassu
contraparte
contraposidura
contrapostu
contrariedade
contrario
contrariu
contras
contrasemper
contratzione
contre
contribuende
contribuidu
contribuire
contribuit
contribuiu
contributo
contributos
contributu
contro
controidu
control
controllada
controlladas
controlladu
controllai
controllaiant
controllare
controllat
controllore
controllu
controstorie
contu
contus
contzentratzione
contzentratziones
conu
convegno
convenience
convention
conventzione
conversations
conversazioni
coo
cook
cool
cooling
cooper
cooperativa
cooperativas
cooperatzione
cooperatzioni
coordinada
coordinadas
coordinadore
coordinadu
coordinamentu
coordinare
cop
copa
copas
cope
copenaghen
copertina
copertura
copia
copiare
copias
coppa
copper
coppi
coppia
coppieters
coppola
cops
copy
copyleft
copyright
cora
coracenses
coraddos
coraddu
corale
coratzada
corbata
corbeddu
corbin
corbos
corbusier
corcare
cord
corda
cordas
cordialmente
cordolinu
cordova
core
corea
coreana
coreanos
coreanu
corfidos
corfidu
corfire
corfos
corfu
coria
coriattas
corju
cork
corne
cornelia
cornell
corner
cornova
cornus
coro
corona
coronadu
coronas
coronavirus
coronellu
coroneo
corongiu
coros
corpi
corpo
corporation
corporatziones
corpos
corps
corpu
corpus
corra
corrado
corraine
corraini
corrasi
correspondance
corrias
corrida
corride
corriere
corros
corrosione
corru
corrutzione
corsa
corsari
corse
corsi
corsica
corsicae
corsicana
corsicanas
corsicanos
corsicanu
corso
corsos
corsu
corte
cortellino
cortes
corteu
corti
cortina
cortometraggio
cortometraggiu
corts
coru
corun
corus
corza
corzu
cos
cosa
cosas
cosasa
coscienza
cose
cosentino
cosenza
cosi
cosima
cosimo
cosinu
cosma
cosmic
cosmo
cosmographicum
cosmos
cossa
cossiga
cossizeri
cossoine
cossos
cossu
cost
costa
costadu
costante
costantemente
costantes
costanti
costantine
costantino
costantinopoli
costantinu
costantza
costantzu
costanza
costas
costat
costau
costazos
costazu
coste
costellatzione
costellatziones
costera
costeras
costerinu
costi
costituende
costituente
costituentes
costituiant
costituiat
costituida
costituidas
costituidos
costituidu
costituint
costituire
costituit
costitutiva
costitutivas
costitutivu
costitutzionale
costitutzionales
costitutzione
costitutzioni
costituzione
costoidos
costoidu
costos
costrinta
costrintu
costru
costruida
costruidu
costruire
costruttiva
costrutzione
costrutziones
costrutzioni
costruzione
costu
costuma
costumant
costumas
costumat
costumenes
costumi
cota
cotard
cotes
cotidianu
cotone
cotta
cottin
cottu
cotu
coudu
coudus
could
couleur
couleurs
coulomb
council
count
countries
country
county
coup
court
cov
cover
covers
covid
cox
coxina
cp
cpsq
cpu
cra
craba
crabarissu
crabas
crabiele
crabo
crabonaxa
craboni
crabonia
craccracriccrecr
crack
crackdown
craco
cracovia
crae
craes
crai
craic
craig
cramada
cramadu
cramu
crannatza
crara
craramente
craras
crarire
craros
craru
cras
crasi
crassifigadura
crastu
crateris
cravadu
crazy
crc
cre
creada
creadas
creados
creadu
creai
creant
creare
creat
creativa
creative
creatividade
creativu
creatzione
creatzioni
creau
creaus
creazione
crede
credentzia
credet
credi
credo
cree
creek
creende
creent
creet
crei
creiant
creiat
creit
creja
crejas
crema
cremona
creo
creolu
crescendo
creschede
creschende
creschene
creschent
creschente
crescher
creschere
creschet
creschiat
creschida
creschidu
creschimentu
cresci
crescit
cresia
cresias
cresiedda
cresieddas
crespi
creta
creu
crew
creze
cri
criada
criadas
criados
criadu
criadura
criaduras
criai
criara
criare
criatzione
criau
criaus
criende
criente
crientes
crima
crime
crimea
crimes
criminal
criminale
criminales
criminalidade
criminosu
crimson
crina
crinera
cripta
crise
crisi
crisis
cristallina
cristallos
cristian
cristiana
cristianas
cristiane
cristianesimu
cristianidade
cristianizatzione
cristiano
cristianos
cristianu
cristianus
cristina
cristo
cristofaro
cristoforo
cristolu
cristos
cristu
crite
critica
criticada
criticadu
criticare
criticas
critici
critico
critics
criticu
critique
crivelli
cro
croa
croata
croatos
croatu
croatzia
croba
crobas
crobu
croce
crociera
crocifissu
crocker
croft
croix
cromosoma
cromosomas
cromper
crompet
crompit
cronaca
cronache
cronista
cronolo
cronologia
crooked
crosadas
crosby
cross
crosta
crotone
crow
crown
crs
cru
crua
crucifissu
crucis
crusiera
crutzadas
crutzados
cruu
cruxi
cruz
crystal
cs
css
csu
ct
cthulhu
ctm
ctona
ctonas
ctonos
ctor
cu
cua
cuada
cuaddu
cuaddus
cuadorzu
cuados
cuadrada
cuadrados
cuadradu
cuadrau
cuadraus
cuadriennale
cuadros
cuadru
cuadu
cuarantena
cuare
cuarta
cuarteri
cuartetu
cuartieri
cuartos
cuartu
cuat
cuaterna
cuator
cuatru
cuattru
cuba
cubana
cubanu
cube
cubeddos
cubeddu
cubello
cubos
cubu
cucca
cucchi
cucciari
cuccu
cuccuru
cuchinadorza
cucina
cucu
cucureddu
cudd
cudda
cuddas
cuddos
cuddu
cuddus
cue
cuec
cuffo
cufforma
cugat
cughe
cugu
cugugiadu
cugugiare
cuguzat
cui
cuida
cuidales
cuidos
cuidu
cuile
cuiles
cuintu
cula
culas
culla
cullaboradura
cullega
cullegamentu
cullegas
cullera
culo
culoris
culos
culpa
cult
culta
cultas
cultibu
cultivada
cultivadu
cultivare
cultivos
cultivu
cultos
cultu
cultura
cultural
culturale
culturales
culturali
culturalis
culturalmente
culturas
culture
cultures
culu
culumbu
culus
cum
cumandada
cumandadore
cumandados
cumandadu
cumandaiat
cumandamentos
cumandante
cumandantes
cumandare
cumandat
cumandos
cumandu
cumarca
cumassa
cumba
cumbata
cumbatas
cumbatentes
cumbatere
cumbatimentos
cumbatos
cumbattere
cumbattidu
cumbe
cumbentos
cumbentu
cumbentura
cumbessias
cumbi
cumbidadu
cumbidant
cumbidare
cumbidat
cumbidende
cumbidu
cumbinada
cumbinadas
cumbinados
cumbinadu
cumbinadura
cumbinant
cumbinat
cumbinatzione
cumbinatziones
cumbinchimentos
cumbinchimentu
cumbinende
cumbinta
cumbintu
cumbocadu
cume
cumenciau
cumente
cumenti
cumentzada
cumentzadu
cumentzant
cumentzat
cumentzau
cumentzendi
cumentzu
cumenzau
cumertziale
cumertziales
cumi
cumintza
cumintzada
cumintzadu
cumintzan
cumintzande
cumintzant
cumintzare
cumintzat
cumintzau
cumintze
cumintzende
cumintzos
cumintzu
cumissione
cumissioni
cumme
cummente
cummentende
cummenti
cummentos
cummentu
cummerciu
cummertziale
cummertziales
cummertziantes
cummertziare
cummertziu
cummessa
cummi
cummissione
cummissiones
cummissioni
cumonale
cumonales
cumone
cumpa
cumpagnia
cumpagnos
cumpagnu
cumpangia
cumpangias
cumpangiu
cumpanza
cumpanzi
cumpanzia
cumpanzias
cumpanzos
cumpanzu
cumpara
cumparada
cumparadu
cumparent
cumparet
cumparis
cumparit
cumparrer
cumparta
cumparti
cumpartos
cumpartzi
cumpartzida
cumpartzidos
cumpartzidu
cumpartzidura
cumpartzimentu
cumpartzint
cumpartzire
cumpartzit
cumpati
cumpatibilidade
cumpe
cumpensos
cumpensu
cumpete
cumpetitiva
cumpetitzione
cumpetitziones
cumpiladura
cumplementu
cumplessa
cumplessas
cumplessidade
cumplessiva
cumplessos
cumplessu
cumpleta
cumpletada
cumpletadu
cumpletamente
cumpletamenti
cumpletare
cumpletende
cumpletu
cumpo
cumponent
cumponente
cumponentes
cumponenti
cumponentis
cumponet
cumponidore
cumponidura
cumponiduras
cumponimentos
cumponimentu
cumponint
cumportadu
cumportai
cumportamentos
cumportamentu
cumportant
cumportare
cumportat
cumposidore
cumpositzione
cumpositziones
cumposta
cumpostas
cumpostos
cumpostu
cumpostus
cumpre
cumprende
cumprendende
cumprendent
cumprender
cumprendere
cumprendet
cumprendi
cumprendiant
cumprendiat
cumprendint
cumprendiri
cumprendit
cumprendo
cumprensione
cumprensioni
cumpresa
cumpresos
cumpressione
cumpressores
cumpressos
cumpressu
cumpresu
cumpreta
cumpretamente
cumpretu
cumpri
cumprida
cumpridu
cumprimentu
cumprint
cumprire
cumprit
cumproare
cumprobu
cumpromi
cumpromissu
cumproos
cumprou
cumunu
cun
cunca
cuncentramentu
cuncertu
cuncetu
cunchista
cunchistada
cunchistadu
cunchistare
cuncordada
cuncordadu
cuncordare
cuncordat
cuncordu
cuncreta
cuncretamente
cuncretas
cuncretu
cuncruimentu
cuncurre
cuncurrente
cuncurrentes
cuncursos
cuncursu
cund
cundanna
cundannadu
cundannau
cundenna
cundennada
cundennados
cundennadu
cundennant
cundennare
cundennau
cundensadore
cundensatzione
cundissione
cundissiones
cunditzionada
cunditzionadu
cunditzionale
cunditzione
cunditziones
cunditzionis
cundottu
cunduta
cuneo
cunetada
cunetadu
cunfederados
cunfederadu
cunfederatzione
cunfere
cunferentzia
cunferidu
cunfessadu
cunfessione
cunfessiones
cunfia
cunfinat
cunfirma
cunfirmada
cunfirmados
cunfirmadu
cunfirmant
cunfirmare
cunfirmat
cunfirmende
cunfissadu
cunflitos
cunflitu
cunforma
cunformadu
cunforme
cunformidade
cunfortu
cunfrarias
cunfronta
cunfrontos
cunfrontu
cunfu
cunfunder
cunfusione
cungiada
cungiadu
cungiau
cungregatzione
cungressos
cungressu
cunha
cuni
cunningham
cunnoscher
cunnoschimentu
cunnota
cunnotas
cunnotos
cunnotu
cunsacrada
cunsacradu
cunsagrada
cunsagradu
cunsagrantis
cunsagrare
cunsagrat
cunseghe
cunsegue
cunseguentzia
cunsensos
cunsensu
cunsentidu
cunsentint
cunsentire
cunsentit
cunserbadas
cunserbare
cunserbat
cunservada
cunservadas
cunservadore
cunservadores
cunservados
cunservadu
cunservant
cunservare
cunservat
cunservato
cunservatora
cunservatzione
cunsi
cunsidera
cunsiderada
cunsideradas
cunsiderados
cunsideradu
cunsiderai
cunsideraiant
cunsideraiat
cunsiderant
cunsiderare
cunsiderat
cunsiderau
cunsideraus
cunsiderende
cunsideros
cunsideru
cunsighe
cunsighente
cunsighentes
cunsighidu
cunsighire
cunsigna
cunsignadu
cunsillu
cunsiste
cunsistent
cunsistente
cunsistentes
cunsistet
cunsistiant
cunsistiat
cunsistit
cunsizu
cunso
cunsolidadu
cunsonante
cunsonantes
cunsumu
cuntantu
cuntatos
cuntattos
cuntattu
cuntatu
cuntatus
cunte
cuntempora
cuntenende
cuntenent
cuntenet
cunteniant
cunteniat
cuntenidores
cuntenimentu
cuntenit
cunteniu
cuntenner
cuntenta
cuntentas
cuntentesa
cuntentos
cuntentu
cuntenutos
cuntenutu
cuntestadu
cuntestatzione
cuntestos
cuntestu
cuntierra
cuntierrada
cuntierradu
cuntierras
cuntinentale
cuntinente
cuntinentes
cuntingente
cuntra
cuntrastadu
cuntrastare
cuntrastos
cuntrastu
cuntratos
cuntrattu
cuntratu
cuntribui
cuntributos
cuntributu
cuntrollada
cuntrolladores
cuntrollados
cuntrolladu
cuntrollaiat
cuntrollare
cuntrollat
cuntrollos
cuntrollu
cuntronos
cuntze
cuntzedende
cuntzedet
cuntzediat
cuntzedit
cuntzentrada
cuntzentradas
cuntzentrados
cuntzentradu
cuntzentradura
cuntzentramentu
cuntzentrant
cuntzentrare
cuntzentrat
cuntzentratzione
cuntzentrende
cuntzertos
cuntzertu
cuntzessione
cuntzessiones
cuntzetos
cuntzettu
cuntzetu
cuntzetuale
cuntzi
cunve
cunvegnos
cunvegnu
cunventu
cunventzionale
cunventzione
cunventziones
cunversatzione
cunversione
cunvertende
cunvertida
cunvertidi
cunvertidu
cunvertire
cunvertit
cunvoca
cunvocadu
cunzughet
cuore
cuori
cuota
cuotas
cuotidiana
cuotidianos
cuotidianu
cup
cupa
cupant
cupat
cupola
cupula
cura
curac
curada
curadore
curadori
curadoria
curadorias
curadu
curare
curas
curat
curatore
curatoria
curau
curazao
curcio
curie
curiosa
curiosidade
curiosu
curitiba
curos
curpa
curre
curregidore
currende
current
currente
currentes
currenti
currera
curreras
currespo
curresponde
currespondent
currespondet
currespondiat
currespondidore
curret
curreta
curretamente
curretu
curretzione
curretziones
curreu
curriculum
currispo
currisponde
currispondent
currispondente
currispondentes
currispondet
currispondiat
cursa
cursada
cursas
cursos
cursu
curta
curtas
curte
curteddos
curteddu
curtis
curtos
curtu
curtura
curturale
curturales
curturas
curtza
curtzas
curtzesa
curtzos
curtzu
curu
curva
cus
cuss
cussa
cussas
cusse
cussegue
cussi
cussidera
cussiderada
cussiderados
cussideradu
cussiderare
cussiderende
cussideru
cussigeri
cussigeris
cussighe
cussizera
cussizeri
cussizu
cusso
cussos
cussu
cussus
cust
custa
custas
custi
custitui
custituimentu
custituit
custo
custodia
custody
custos
custri
custringhende
custrinta
custrintos
custrintu
custu
custuma
custus
cut
cuta
cuzone
cv
cyclades
cymru
cynthia
d
da
daboi
dada
dadas
dade
dados
dadu
dae
daet
daga
dagli
dahomey
dai
daiant
daiat
daily
dakar
dakota
dal
dalai
dale
dali
dalida
dall
dalla
dallas
dalle
dallo
dalma
dalmaticu
dalmatzia
dalmau
dalton
dama
damasco
dame
damiani
damiano
damianu
dan
dana
dance
dancing
dande
dane
danesa
danese
danesos
danesu
danger
daniei
daniel
daniela
daniele
danimarca
dannos
dannu
danny
dans
dant
dante
dantis
dantza
dantzas
danu
dany
danza
dao
dapoi
dappoi
dar
dare
dario
dark
darkness
darko
darwin
das
dasegus
dassadu
dassare
dassat
dassende
dat
data
dataarchi
dataarchivio
database
datada
datadas
datados
datadu
datadura
datagrama
datagramas
datant
datare
datas
datat
datatzione
date
dati
dativu
dato
datos
datu
datus
dau
daughter
davanti
dave
daverio
david
davide
davidson
davies
davis
davoli
dawson
day
days
db
dc
dd
dda
ddan
ddas
ddat
ddd
ddi
ddighes
ddine
ddini
ddis
dditos
dditu
ddiu
ddoe
ddoi
ddos
ddr
ddt
ddu
ddui
dduna
ddunu
ddus
de
dea
dead
deaf
deal
dean
dear
death
deathconsciousness
debate
debian
debile
debilesa
debrecen
debugger
debutadu
dec
deca
decade
decadessimentu
december
deche
deci
decidi
decidit
decidiu
decimarum
decimoputzu
decision
decisione
decisioni
declarada
declaradu
declaration
declaratzione
declaratzioni
declinatzione
declinu
decodificada
decolladu
decolonizatzione
decorada
decoradas
decorados
decoradu
decoradura
decoraduras
decorativa
decorativu
decrarada
decrarados
decraradu
decraradura
decraraiat
decrarare
decrarat
decraratzione
decraratziones
decrarau
decrarende
decraru
decretada
decretadu
decretaiat
decreto
decretu
dedica
dedicada
dedicadas
dedicados
dedicadu
dedicare
dedicat
dedicata
dedicato
dedicau
dedicaus
dedichende
dedigadu
dedola
deduit
dee
deejay
deep
deepest
deepin
def
default
defe
defender
defensa
defensare
defensas
defense
defesa
definende
defini
definiat
definida
definidas
definidos
definidu
definidura
definint
definire
definiri
definit
definition
definitiva
definitivamente
definitive
definitivu
definitzione
definitziones
definitzioni
definiu
defuntos
defuntu
degaici
deghe
deghennoe
degheoto
deghes
deghessete
deghet
deghimale
deghina
deghinas
degli
dego
degollos
degortes
degradu
degree
dei
deidda
deja
del
delaware
deledda
deleddianu
delegados
delegadu
delegatzione
delegatziones
deleuze
delfino
delfinu
delgada
delhi
deli
delia
delibera
deliberada
deliberazione
delicada
delimitadu
delirio
delitala
delitos
delitto
delitu
dell
della
delle
dello
delogu
dels
delta
delusione
dem
dema
demand
demasiadu
demetra
demilitarizada
demilitarize
demo
democra
democratic
democratica
democratico
democraticu
democratization
democratzia
democrazia
democrito
demogra
demografia
demografico
demon
demos
den
dena
denanti
dende
denegada
denegadu
denegare
deng
dengler
dengue
denia
denis
denise
dennegadu
dennegu
dennis
denominada
denominadu
denominatzione
denominatziones
densamente
densidade
densidadi
dent
dentale
dente
dentes
dentro
denu
denumenada
denumenados
denumenadu
denumenatzione
denuntziadu
denuntziare
denuntziende
denver
deo
deos
departamento
departamentu
department
depat
depende
dependent
dependet
depent
deper
deperet
depes
depet
depi
depiant
depiat
depida
depidu
depimus
depint
depit
depiu
depo
deportados
deportadu
deportatziones
deportivo
depositzione
depostos
depostu
deppit
depressione
deproducers
deputada
deputados
deputadu
deputati
deputau
der
derant
derat
derbi
derby
dere
derechos
derek
deres
deret
dereta
deretamente
deretas
deretore
deretos
derettos
derettu
deretu
deretura
deretus
deriu
derivada
derivadas
derivados
derivadu
derivant
derivare
derivat
derivatzione
derivaus
derivet
deros
derrida
derrota
derrotada
derrotados
derrotadu
derrotare
derrotas
derrotende
derru
derruta
derrutas
derrutu
deru
derzhkino
des
desacatu
descri
descriende
descrient
descriere
descriet
descriiat
descriptio
descrissione
descrita
descritas
descritiva
descritos
descrittu
descritu
descritzione
descritziones
descrivet
dese
desembre
desert
desertos
desertu
desiderio
design
designada
designadu
designare
designat
designer
desine
desinniadu
desire
desktop
despite
dessa
dessi
dessintotu
dessu
dessy
destinada
destinadas
destinados
destinadu
destinata
destinatzione
destinazione
destino
destinos
destinu
destituidu
destra
destroyed
destru
destrudo
destrui
destruida
destruidura
desu
det
deta
details
detained
dete
detective
detenimentu
detention
detentos
detentu
determinada
determinadas
determinados
determinadu
determinante
determinare
determinat
determinatzione
determinende
determinu
detlev
detroit
detto
dettori
detzi
detzidende
detzidet
detzididu
detzidit
detzifrare
detzimale
detzisa
detzisione
detzisiones
detzisiva
detzisivu
detzisu
detzisura
deu
deum
deus
deutsch
deutsche
deutschen
deutscher
deutschland
deux
dev
devaddis
deve
devede
development
devenende
devenet
devenit
devenner
devennet
devent
dever
devet
devi
deviant
deviat
device
devices
devidu
devil
devota
devoto
devotzione
devotzioni
dexi
deximeputzu
deximumannu
dh
dhabi
dhamma
dharma
dhya
di
dia
diabete
diaconu
diacri
diacro
diada
diaderus
diadoru
diagno
diagonale
diagramma
diaici
diais
diale
dialecte
dialetale
dialetales
dialetologia
dialetos
dialettale
dialetti
dialetto
dialettos
dialettu
dialetu
dialetus
dialoghi
dialogo
dialogos
dialogu
dialogue
diamantes
diametru
diamond
diamus
dian
diana
diane
diant
diario
diariu
diary
dias
diaspora
diat
diato
diavolo
diaz
diba
dibata
dibatas
dibattiti
dibatu
dica
dicas
dicat
diccionari
dice
dicembre
diche
dichiaradu
diciu
dick
dicono
dicos
dictionary
dictionnaire
dicu
dicus
did
dida
didas
didattica
diderot
didn
didos
didu
didus
die
dieci
died
diego
diegu
dies
diesel
dieta
dietrich
diez
difa
difati
difatis
difattis
dife
difendere
difendi
difensores
difere
diferente
diferentemente
diferentes
diferenti
diferentis
diferentzia
diferentziados
diferentziadu
diferentziale
diferentziare
diferentzias
diferentziatzione
diferint
diferit
difesa
difesu
difetu
diffattis
diffe
differe
differente
differentes
differenti
differentis
differentzia
differentzias
differenze
difficultade
diffitzile
diffusa
diffusione
difi
dificultade
dificultades
dificultosa
dificultosu
dificurtade
difitzile
difu
difundet
difusione
difusu
diga
digas
digestione
digestivu
dighe
dighes
digital
digitale
digitales
digitallibrary
digiunu
diglossia
dignidade
dignu
digos
digramma
digu
dii
diis
diletantes
diletanti
dilettanti
dilettantistica
dili
dillindada
dillindadas
dillindados
dillindadu
dilo
dilu
dimanda
dimandadu
dimandant
dimandas
dimandat
dimensione
dimensiones
dimensioni
dimensionis
dimenticati
dimesso
dimi
diminutivu
dimissiones
dimitris
dimo
dimoniu
dimostradu
dimustrada
dimustradu
dimustrant
dimustrare
dimustrat
dimustratzione
din
dina
dinai
dinamica
dinamo
dinare
dinares
dinari
dinastia
dinastias
dine
dines
dinnidade
dino
dinosa
dinosaurus
dins
dintorni
dinu
dio
diocesanu
diocesi
diocletzianu
dionigi
diora
diorio
dios
diosa
diotzese
diotzesi
dipartimento
dipartimentos
dipartimentu
dipe
dipende
dipendende
dipendent
dipendente
dipendentes
dipendentzia
dipendet
dipendiant
dipendit
dipinti
diploma
diplomacy
diplomadu
diplomat
diplomatico
diplomaticus
diplomatzia
diplomazia
diproma
dir
dire
director
directory
direta
diretamente
diretiva
diretivas
diretivu
diretora
diretore
diretores
diretori
diretos
diretta
direttore
direttori
direttu
diretu
diretzione
diretziones
diretzioni
direzione
diri
dirigente
dirigentes
dirigi
dirigida
dirigidu
dirigit
diritos
diritti
diritto
dirittos
dirittu
diritu
dirty
dis
disa
disabitada
disabitadas
disacatos
disacatu
disaccattu
disaco
disafios
disafiu
disambiguatzione
disamistade
disamistades
disappeared
disaster
disastro
disastru
disc
discansu
discassu
discendentes
dischente
dischentes
dischi
disciplina
disciplinas
discipline
disciprina
discipulos
discipulu
disco
discogra
discografia
discografica
discogs
discoidadu
discoidu
disconnota
disconnotas
disconnotos
disconnotu
discorso
discos
discoteca
discovery
discreta
discriminato
discriminatzione
discriminatziones
discu
discumbe
discuntentu
discursos
discursu
discus
discussione
discutega
discutegas
disease
diseases
disegnadore
disegni
disegno
disegnos
disegnu
disi
disigiada
disigiadu
disigiu
disignos
disignu
disimpreu
disinnadu
disinnare
disinnos
disinnu
disintegratzione
disisperu
disk
dislindada
dislindadas
dislindados
dislindadu
disney
diso
dispensadu
dispensadura
dispensare
dispensat
display
displaystyle
dispo
disponent
disponet
disponi
disponiat
disponibile
disponibilidade
disponimentos
disponimentu
dispositivos
dispositivu
dispositivus
disposta
dispostas
dispostos
dispostu
disputa
disputadas
disputadu
disputare
disputau
dissiplina
dista
distacamentu
distantzia
diste
disterra
disterrados
disterradu
disterru
disti
distinghende
distinghent
distingher
distinghere
distinghet
distinghit
distinta
distintas
distintos
distintu
distintzione
disto
distretos
distretu
distribuida
distribuidos
distribuidu
distribuidura
distribuiduras
distribuire
distribution
distributzione
distributziones
district
distritos
distritu
distru
distruende
distruida
distruidu
distrutzione
disturbu
disusadu
disvariada
disvariadas
disvariados
disvariadu
disvilupadu
dit
dita
ditadore
ditadura
ditaduras
ditas
ditatoriale
ditions
ditongu
ditos
ditu
ditziona
ditzionariu
ditzione
ditzu
diu
dius
diva
dive
divenende
diveni
divenida
divenidos
divenidu
diveninde
divenint
divenire
divenit
divennere
divenniu
diventa
diventada
diventados
diventadu
diventai
diventande
diventant
diventare
diventat
diventau
diventende
diveris
diversa
diversamente
diversas
diverse
diversi
diversidade
diversidadi
diversita
diversity
diverso
diversos
diversu
diversus
divescias
divescios
divi
dividi
dividia
dividida
divididos
divididu
dividire
dividit
dividiu
divina
divinidade
divinidades
divinidadis
divinu
divisa
divisas
divisio
division
divisione
divisiones
divisioni
divisu
divo
divulgatzione
dixi
dixie
dixit
diz
dizionario
dizionariu
dizzy
dj
djamena
django
dk
dl
dle
dm
dmitrij
dna
dniester
do
dobru
doc
docente
docenti
doctor
document
documenta
documentada
documentadas
documentados
documentadu
documentario
documentariu
documentas
documentassione
documentat
documentation
documentatzione
documentazione
documenti
documento
documentos
documents
documentu
documentus
doda
doddore
dodoma
doe
does
doesburg
dog
dogna
dogni
doha
doi
doighi
dolce
dolia
dolianova
dollari
dollaros
dollaru
dolly
dolme
dolmen
dolo
dolomi
dolore
dolores
doloretta
dolori
dolorosa
dolorosas
dolu
dom
domanda
domandat
domande
domani
dome
domenica
domenico
domi
domina
dominada
dominadora
dominadore
dominadores
dominados
dominadu
dominadura
dominaiat
dominante
dominantes
dominare
dominatzione
dominatziones
dominatzioni
dominazione
domingo
domini
dominica
dominicana
dominicanu
dominiga
dominigu
dominio
dominion
dominique
dominiu
domino
dominus
dommo
dommu
domo
domos
domu
domunoas
domus
domusdejanaseditore
don
dona
donada
donados
donadu
donai
donald
donant
donare
donat
donatello
donativu
donato
donatzione
donatziones
donau
dondolando
done
donende
donendi
donetsk
dong
donigala
donizetti
donna
donne
donnia
donniasantu
donniassantu
donnie
donnikellu
donniunu
donnu
dono
donora
donoratico
donori
donos
dontzi
donu
donzelli
donzi
doodle
door
doors
dop
dopieta
dopo
dopofestival
dopoguerra
doppia
doppiada
doppiadu
doppio
dopu
dorada
dore
dorgali
doria
dorias
doris
dormire
dormius
dorothy
dorsale
dos
dose
dosina
dossale
dossu
dostoevskij
dot
dotada
dotadas
dotados
dotadu
dotoradu
dotore
dotori
dotrina
dottor
dottore
dottori
dottrina
dotze
dotzente
double
douglas
douro
dov
dova
dove
dover
dovere
down
download
downs
doxi
doze
dr
dra
draco
dracones
draft
dragon
dragons
dragu
drake
drama
dramma
drammatica
drammaturgu
dre
dread
dream
dreamcast
dreaming
dreams
drer
dresden
dresta
dret
drew
dreyfus
dria
drive
driver
drivers
dro
droga
drogas
droid
drom
dromu
drop
druche
druches
drug
drugs
drum
drums
druyan
ds
dsm
dsu
dt
dtd
dtirol
du
dua
duami
duamiza
duarche
duas
duat
dub
dubai
dubbiu
dublin
dublinesos
dublino
dublinu
dubna
dubrovnik
duca
ducados
ducadu
ducas
duchamp
ducretet
duda
dudas
dudosa
dudosu
due
duellu
duetu
dughentos
dugone
dui
duilio
duke
dulce
dule
dulos
dulu
duluth
dumbo
dumont
dun
dunas
duncan
duncas
dune
duo
duomo
duos
dupra
dura
durada
duradas
duradu
duraiat
duran
durant
durante
duranti
durare
duras
durat
durcarias
durche
durches
durci
dure
durera
durgale
durgali
durham
duri
during
durov
duru
dus
duse
dust
dusu
dutore
dutores
duttore
duu
duus
dux
dvd
dw
dwight
dx
dy
dylan
dynamic
dynamics
dz
də
e
ea
eac
each
eagle
eagulls
ear
earl
earliest
early
earth
east
eastern
easy
eat
ebba
ebbi
ebbia
ebi
ebia
eboli
ebra
ebraica
ebraicu
ebraismu
ebrea
ebreas
ebreos
ebreu
ebro
ec
ecc
ecce
eccellenza
ecciu
ecclesiasticos
ecco
ecdc
ecentritzidadi
echili
echipa
echipamentos
echipazu
echo
echov
eclesia
ecli
eclisse
eclissi
eclissis
eco
ecolo
ecologia
ecology
econo
economi
economia
economias
economic
economica
economicamente
economicas
economiche
economico
economicos
economicu
economist
economista
economy
ecosistema
ecosistemas
ecua
ecuado
ecuador
ecuadore
ecuadoriale
ecuadoriales
ecuamente
ecuatoriale
ecuatzione
ecuatziones
ecuino
ecuivalente
ecuivalentes
ed
eda
edade
edades
edadi
edd
eddie
eddy
eden
edera
edes
edgar
edge
edi
edicio
ediciones
edicions
edicola
edifi
edificios
edile
edili
edimburgo
edimburgu
edina
edinburgh
edipo
edirne
edisar
edissione
edissiones
edit
editadu
edith
edition
editions
editor
editora
editore
editores
editori
editoria
editorial
editoriale
editoriales
editrice
editu
editzione
editziones
editzioni
editzionis
ediz
edizione
ediziones
edizioni
edmondo
edmonton
edmund
edo
edoardo
eds
edu
eduard
eduardo
eduardu
educacio
educadore
educadu
educare
education
educational
educativu
educatzione
educatzioni
educazione
edward
edwards
edwin
ee
eec
eelst
efetiva
efetivamente
efetivu
efetos
efetu
efetus
effects
effetti
efi
efica
eficatze
eficatzes
eficatzidade
efis
efisio
efitziente
eg
egemone
egemonia
egeu
egi
egidio
egitto
egittu
egitu
egitziana
egitzianas
egitzianos
egitzianu
egizianu
ego
eguale
eguales
egualidade
egypt
egyptian
ehman
ei
ein
einaudi
eine
einer
eines
einfu
einste
einstein
eis
eisenhower
eisenman
eivissa
eixample
eja
ejatv
eka
el
ela
elaborada
elaboradore
elaboradores
elaboradori
elaboradoris
elaborados
elaboradu
elaborare
elaboratzione
elaboratziones
elba
elder
eldizio
ele
elecciones
electa
election
electoral
electric
electronic
elefanta
elefante
elegante
elegantes
eleghidu
eleghiduras
elegidu
eleic
element
elementare
elementares
elementi
elementos
elements
elementu
elementus
elen
elena
elenco
elencu
elene
eleonora
eletoradu
eletorale
eletorales
eletores
eletritzidade
eletro
eletromagne
eletrone
eletrones
eletrote
elettrica
eletu
eletzione
eletziones
eletzionis
elevada
elevadu
elezioni
elezionistorico
eli
elia
elianora
elias
elico
elies
elighe
eligiu
eliminadu
eliminare
eliminatzione
eliminende
elini
elio
elioelestorietese
elionora
eliot
elisa
elisabeth
elisabetta
elise
eliseo
elisione
elizabeth
ell
ella
elle
elleni
elli
ellington
elliott
ellis
ellisso
elmas
elmundo
eloquentia
elpais
els
elsa
else
elsevier
elvira
elvis
em
ema
emacs
email
emanadu
emanatzione
emantzipatzione
emanuela
emanuele
emarcy
emblema
eme
emendamentu
emerge
emergency
emerze
emi
emigrada
emigradores
emigrados
emigradu
emigrantes
emigratzione
emigrazione
emil
emilia
emiliana
emilianu
emilio
emily
emirados
emiradu
emiru
emisfe
emisferu
emissione
emissiones
emissions
emissora
emitende
emitent
emitente
emitet
emitit
emittente
emivida
emma
emmanuel
emme
emmy
emocromu
emoglobina
emotiva
emotziones
emozioni
empi
empire
emu
en
ena
enas
encarta
enciclope
enciclopedia
enclave
enclaves
encyclopaedia
encyclope
encyclopedia
encyclopædia
end
enda
endangered
ende
endo
enduring
enel
eneoli
energe
energia
energias
energy
enerzia
engadget
engels
engine
engineering
engineers
england
english
eni
enidi
enigma
enit
enja
enjo
enkidu
enko
enna
ennalzu
ennarzu
ennas
enne
ennio
ennis
enorme
enormes
enough
enrico
enricu
enrique
ensemble
ent
ente
enterprise
entertainment
entes
enti
entidade
entidades
entra
entre
entro
entropia
entry
entscheidungsproblem
entu
entusiasmu
entziclopedia
entziclopedias
entzu
environment
environmental
enza
enzima
enzimas
enzo
eo
ep
epa
ephemeris
epi
epic
epide
epidemia
epidemic
epidemiology
episcopale
episcopu
episo
episode
episodi
episodio
episodios
episodiu
episodius
epitzentru
epoca
epopea
eppat
eppuru
eprints
epub
equality
equestre
er
era
eradication
erano
eranu
eras
erasmus
erba
erbas
ercole
erde
ere
eredade
eredados
eredadu
erede
eredera
erederi
erederis
eredes
eredidade
eredita
eremida
erentzia
eresia
eresias
ereu
erfurt
ergo
eri
eric
erice
erich
erickson
ericsson
erie
erik
eritrea
eritzu
ermafroditismu
ermes
ermita
ermizolu
ernest
ernesto
ernobyl
ernst
ero
eroe
eroes
eroina
eros
erosione
erosioni
erra
erricu
erriu
erroneamente
error
errore
errores
errori
ertzego
eru
erutzione
erva
ervas
ervosa
erzego
es
esa
esagerada
esame
esaminadu
esaminare
esaminu
esantema
esarcadu
esata
esatamente
esatas
escala
escaped
esclu
escludende
escluende
escluet
esclusione
esclusiva
esclusivamente
esclusivu
esco
escola
escu
escut
ese
esecuta
esecutada
esecutadas
esecutados
esecutadu
esecutai
esecutare
esecutat
esecutau
esecutende
esecutiva
esecutivu
esecutzione
esecutziones
esecutzioni
esempio
esempios
esempiu
esemplare
esemplares
esemplari
esempros
esempru
esemprus
esercito
esercitu
esertzi
esertzitadu
esertzitaiant
esertzitare
esertzitu
esi
esibitzione
esibitziones
esigint
esigit
esiliados
esiliadu
esiliu
esistat
esiste
esistent
esistenti
esistentzia
esistentziali
esistentzialismu
esistenza
esistet
esistiant
esistiat
esistidu
esistini
esistint
esistire
esistit
eso
esordi
esordidu
esordio
esordit
espan
espansione
espanyol
espardell
espe
esperanto
esperie
esperientzia
esperientzias
esperienza
esperienze
esperimentos
esperimentu
esperimentus
espero
esperta
espertos
espertu
espertus
esplo
esploradore
esploradu
esplorare
esploratzione
esploratziones
esplosione
esplosioni
esplosivu
espo
esponende
esponente
esponentes
esponentziale
esponet
esportadores
esportat
esportatzione
esportatziones
espositzione
espositziones
esposizione
esposizioni
esposta
espostas
espostos
espostu
espressada
espressadas
espressadu
espressare
espressat
espressione
espressiones
espressioni
espresso
esprimere
espulsione
esquerra
esquivel
essa
essai
essays
esse
essen
essende
essendi
essential
essentzia
essentziale
essentziales
essentzialmente
esser
essere
esserent
esseres
esseret
esseris
essex
essi
essida
essidas
essidi
essidos
essidu
essint
essire
essiri
essit
essiu
est
esta
estadi
estado
estate
este
estelada
estendet
estendit
estensione
estensiones
estensioni
esterna
esternas
esternos
esternu
esterzili
estetica
esti
estimates
estinta
estintas
estintu
estintzione
estintzioni
esto
estonia
estrativa
estratu
estratzione
estratzioni
estrema
estremadura
estremamente
estremas
estremidade
estremo
estremos
estremu
estu
estudios
estudis
eswatini
et
eta
etade
etadi
etanu
etat
etc
eterna
eternu
etero
eteroge
eterosessuale
eterosessualidade
ethernet
ethnic
ethnologue
eti
etiam
etica
eticheta
etichetadura
etichetas
etimolo
etimologia
etimologico
etio
etnia
etnias
etnica
etnicamente
etnicas
etnicos
etnicu
etno
etnogra
etnografia
etnografico
etnolingui
etnolo
etnomusicologo
etnotzi
eto
etottu
etotu
etru
etrusca
etruscas
etruschi
etruscos
etruscu
ets
ettaros
ettore
etude
etz
etza
etzessiva
etzetzione
etzetziones
etzu
eu
eucariotas
euge
eugen
eugene
eugenio
eugeniu
eur
eura
eurafra
euro
eurodeputados
euromaidan
euronews
europa
europaea
europaeus
europarl
europe
europea
european
europeas
europee
europeo
europeos
europeu
europeus
euros
eurovision
eurozona
eus
euse
euskadi
euskal
euskaltzaindia
euskara
euskera
eustatius
eutanasia
eux
ev
eva
evacuatzione
evan
evange
evangelion
evans
evaporatzione
eve
even
event
eventi
evento
eventos
eventu
eventuale
eventuales
eventus
ever
every
everybody
everything
evic
evide
evidence
evidente
evidentziadu
evil
evitai
evitare
evitende
evo
evolussione
evolution
evolutionary
evolutiva
evolutzione
evolutzioni
evoluzione
evviva
ex
excellence
exchange
exclave
exclusive
exhibition
experience
expert
experts
exploration
explore
expo
express
extended
extra
extraterrestrial
extremadura
extreme
eyes
ez
ezitu
ezzu
f
fa
faa
fabbri
fabbrica
faber
fabio
fabra
fabricatzione
fabrizio
fac
faca
facat
facci
faccia
face
facebook
faces
fache
fachen
fachende
fachent
facher
fachere
fachet
fachi
fachian
fachiat
faci
facies
facile
facolta
fact
facta
factbook
facto
factor
factors
factory
factotum
facts
facultade
facultades
facultadi
fadas
fadda
faddende
faddi
faddidu
faddimentu
faddina
faddinamente
faddinas
fadende
fadendi
fadiant
fadiat
fado
fae
faedda
faeddada
faeddadas
faeddadore
faeddadores
faeddados
faeddadu
faeddaiant
faeddaiat
faeddant
faeddare
faeddat
faeddatores
faeddende
faeddos
faeddu
faendi
faendu
faenza
fagat
faggin
faghe
faghede
faghen
faghende
faghene
faghent
fagher
faghere
faghet
faghi
faghian
faghiant
faghiat
faghinde
fagos
fahrenheit
fai
faiant
faiat
faidi
faina
fainas
faint
fainti
fair
fairi
fairy
fais
fait
faith
fake
fala
falada
faladu
falange
falare
falat
falco
falcone
falconi
fale
falkland
fall
fallida
fallidu
fallimentare
fallimentu
falling
fallout
falls
fallu
falsa
false
falta
fama
famada
famadas
famados
famadu
famau
famaus
fame
fami
famiglia
familia
familiale
familiales
familiare
familiares
familiaris
familias
familla
famillia
family
famine
famosa
famosas
famosi
famosos
famosu
famous
fan
fana
fancello
fandango
fanpage
fans
fanta
fantagenitori
fantascie
fantascienza
fantasia
fantasie
fantasma
fantasmi
fantasy
fanteria
fantes
fantzedda
fanum
fao
faq
far
fara
faradda
faraone
farche
fardetta
fare
farina
fario
farm
farmacologia
faro
faros
farra
farrancas
farsa
farsas
farsu
farta
fartant
fartas
fartat
faru
fasani
fasc
fasca
fascas
fasci
fascia
fascismo
fascismu
fascista
fascistas
fase
fases
fasi
fasis
faso
fassbinder
fassista
fast
fasti
fasulo
fat
fata
fatal
fatale
fatas
fate
father
fatica
fatore
fatores
fatoria
fatorias
fatoris
fatos
fatta
fattas
fatti
fatto
fattori
fattos
fattu
fatu
fatufatu
fatura
fatus
fatuvatu
fatzada
fatzant
fatzat
fatzile
fatzilidade
fatzione
fatziones
faulkner
fauna
faust
fausta
fausto
faut
fava
fave
favedda
faveddaban
faveddabant
faveddada
faveddan
faveddande
faveddant
faveddare
faveddat
faveddos
faveddu
favola
favole
favor
favora
favore
favoressende
favorevole
favori
favoridu
favorire
favorite
favourite
fazilidade
fazio
fbi
fdl
fe
fear
fears
feat
feature
features
featuring
febbraio
febo
febra
febrarju
febrer
february
fedales
fede
fedele
federados
federadu
federadura
federal
federale
federales
federali
federassione
federation
federatzione
federatziones
federatzioni
federazione
federica
federico
federicu
fedor
fedu
feedback
feel
feet
feiez
fejzo
feldman
fele
felice
felici
felicita
felipe
felis
felisatti
felitze
felix
felline
fellini
fellow
fellowship
felton
feltrinelli
femenina
femina
feminas
feminile
feminiles
feminina
femininas
femininos
femininu
feminismu
feminista
femme
femmina
femminas
femminile
femminili
femminista
fende
fendi
feni
fenice
fenicio
fenicios
feniciu
fenitzios
feno
fenomeno
fenomenologia
fenomenos
fenomenu
fentoma
fentomada
fentomadas
fentomados
fentomadu
fentomare
fentomu
fentzamentas
fenu
fenugru
fenugu
fer
fera
feras
ferdinand
ferdinando
ferdinandu
ferguson
ferida
feridas
feridos
feridu
feriti
fermentatzioni
fermentos
fermentu
fermentus
fermi
ferna
fernanda
fernandez
fernando
feros
ferragosto
ferrand
ferrante
ferrara
ferrari
ferre
ferreira
ferrer
ferreri
ferri
ferro
ferrovia
ferrovias
ferru
ferruccio
ferruvia
fertas
ferti
fertilia
fertilidade
fertos
fertu
feru
fesch
fessint
fessit
fest
festa
festada
festadu
festai
festant
festare
festas
festat
feste
festival
festivale
festividade
feta
feti
feu
feudale
feudales
feudalesimu
feudata
feudatarios
feudu
fi
fia
fiabe
fiada
fiandras
fiant
fiantza
fiara
fias
fiat
fibra
fibras
fica
ficant
ficas
ficat
ficit
ficos
fiction
ficu
ficus
fidada
fidadas
fidadu
fidal
fide
fidel
fidele
fideles
fidelidade
fidelis
fidericu
fides
fidi
field
fields
fiera
fieras
fiere
fifa
fifth
figa
figadu
figari
figas
figat
figc
figg
fight
fighting
figi
figia
figios
figiu
figli
figlia
figlio
figos
figu
figura
figuradu
figurant
figuras
figurat
figurativas
figure
figures
fila
filade
filadelfia
filamentu
filas
filastrocche
file
filera
fileras
files
filiale
filiberto
filighe
filigosa
filigre
filipinas
filippini
filippo
filippu
filipu
filiu
filla
fille
fillu
fillus
film
filmados
filmadu
filme
films
filo
filolo
filologia
filologiasarda
filologica
filologici
filologu
filone
filos
filoso
filosofia
filosofias
filosofica
filosoficu
filosofo
filosofos
filosofu
fils
filtru
filu
fimi
fin
fina
final
finale
finales
finali
finalidade
finalidades
finalista
finalmente
finamentas
financial
finantzia
finantziados
finantziadu
finantziamentos
finantziamentu
finantziare
finanza
finarmente
finas
finat
finch
finche
fincias
find
finding
finds
fine
finende
fines
fini
finiat
finida
finidu
finint
fininvest
finire
finis
finit
finla
finlandesa
finlandesu
finlandia
finlandizatzione
fino
fins
finsas
fint
finta
fintas
fintzamentas
fintzas
fintzes
fintzione
finu
finzas
finzi
fiolinas
fiore
fiorella
fiorentina
fiorentino
fiorentinu
fiorenzo
fiores
fiori
fiorinos
fiorinu
fiorit
fire
firentze
firenze
firinu
firma
firmada
firmadas
firmados
firmadu
firmai
firmant
firmare
firmas
firmat
firmata
firmau
firmende
firmesa
firmu
first
fis
fisarmonica
fiscale
fiscales
fischer
fisgale
fish
fisica
fisicamente
fisicu
fisietto
fisiolo
fisiologia
fisionomia
fissa
fissada
fissadas
fissadu
fissare
fissione
fissu
fit
fita
fitas
fiti
fitiana
fitianamente
fitianas
fitiania
fitianos
fitianu
fitnzas
fitze
fitzgerald
fiu
fiuda
fiume
fiumene
fiumi
five
fivestore
fiza
fizas
fizos
fizu
fizzu
fl
fla
flaminio
flandes
flanker
flash
flauto
flavia
flavio
flight
flnc
flo
flood
flop
flora
florence
flores
florida
florinos
florio
floris
flota
flotas
flotta
flow
flower
flowers
floyd
flu
flumendosa
flumini
flussos
flussu
flute
fluviale
fluviales
fly
flying
flynn
fm
fo
foa
foce
focos
focu
focus
foggia
foghe
foghesu
foghile
fogle
fogli
foglie
fogos
fogu
fogulone
fois
foiso
foix
folclore
folclori
folk
folklore
folla
follas
folli
follia
following
fona
fonas
fondachi
fondamentale
fondation
fondatzione
fondazione
fondo
fondos
fone
fonema
fonemas
fonetica
fonit
fonne
fonnesu
fonni
fonolo
fonologia
fonos
font
fontana
fontanelli
fonte
fontes
fontfroide
fonti
fontis
fontomada
fontomadu
fonu
fonzi
food
fool
football
for
fora
forada
foradada
foras
forbes
force
forced
forces
ford
fordongiani
fordongianus
foreign
forest
foresta
forestale
forestas
forever
forgotten
forili
fork
forli
form
forma
formada
formadas
formados
formadu
formadura
formaggio
formai
formaiant
formaiat
formale
formales
formali
formalmente
formant
formare
formas
format
formation
formato
formatu
formatzione
formatziones
formatzioni
formau
formaus
formazione
forme
formell
formende
formentera
former
formigas
formula
formuladu
formulare
formulatzione
forni
foro
forreddos
forros
forru
forse
forsis
fort
fortalesa
forte
fortemente
fortes
forti
fortificadu
fortificatziones
fortilesa
fortilesas
fortran
fortuna
fortune
fortza
fortzada
fortzados
fortzadu
fortzare
fortzas
fortzi
fortzis
foru
forum
forza
forze
fosfatu
fosili
fossa
fossataro
fossati
fossu
foster
foto
fotogra
fotografa
fotografia
fotografias
fotografico
fotografu
fotone
fotones
fotos
fotosi
foucault
found
foundation
four
fourier
fourth
fox
foxnews
foza
fozas
fozu
fr
fra
frac
frade
frades
fradi
fradile
fradis
frae
fraga
fragos
fragu
fraiga
fraigada
fraigadas
fraigados
fraigadu
fraigadura
fraigai
fraigamentos
fraigamentu
fraigare
fraigau
fraighende
fraigos
fraigu
frame
framework
frammentos
franc
franca
francas
france
frances
francesa
francesc
francesca
francesco
francese
francesu
francesus
franchi
franchismu
franchista
francia
franciolini
francioni
francis
francisci
francisco
franciscu
francke
franco
francoangeli
francoforte
francophonie
francos
francu
francuforte
frank
frankfurt
franklin
franks
frantza
frantze
frantzesa
frantzesas
frantzesos
frantzesu
frantzesus
frantzisca
frantziscanos
frantziscanu
frantziscu
franz
franziscu
franzo
frasca
frase
fraseologico
fraser
frases
frasi
frasia
frasso
frassu
frate
fratelli
fratello
fratempus
fratzione
fratziones
fratzioni
frau
fraus
fravica
fravicare
frazione
fre
frea
frealzu
freargiu
frearju
frearzu
freaxu
frechentadu
frechente
frechentemente
frechentes
frecue
frecuentadu
frecuentare
frecuentat
frecuentatzione
frecuentende
fred
freddie
frederick
fredrik
free
freedom
freeman
freetown
fregura
freguras
freie
freistaat
frelimo
frenare
french
frenu
freque
frequency
frequentada
frequentadu
fresa
fresh
fresi
fresu
freud
frey
fri
fria
friaxu
frica
fricativa
fricativas
frid
frida
friday
fridolin
fridos
friedrich
friedrichshain
friend
friends
friga
frigori
frimmada
frimmare
frimmu
frisca
friscas
frisch
friscos
friscu
frisone
frissa
frita
fritos
frittu
fritu
fritz
fritza
fritzas
friulana
friulanu
friuli
frius
fro
frode
frodo
frogheri
from
froma
fromma
frommas
frongia
frontale
fronte
frontera
fronteras
fronti
frontier
frontman
frora
frore
frores
frori
frorida
froridu
froridura
frorinos
frorire
froris
frorit
frosinone
frota
fru
fruit
frumenes
frunende
fruniant
fruniat
frunida
frunidas
frunidori
frunidoris
frunidos
frunidu
frunimentu
frunint
frunire
fruniri
frunit
frussu
fruta
frutas
frutos
frutta
fruttos
fruttu
frutu
frutus
fsf
ft
ftp
fu
fua
fubaleri
fubalu
fudi
fudit
fue
fuedda
fueddada
fueddai
fueddant
fueddat
fueddau
fueddu
fueddus
fuego
fuende
fuente
fuentes
fuerteventura
fuga
fughire
fugos
fui
fuiant
fuida
fuidos
fuidu
fuint
fuire
fuit
fukushima
fulanu
full
fulliada
fulliadu
fumetos
fumettos
fumettu
fumettus
fumetu
fumetus
fumu
funchal
fund
funda
fundacio
fundada
fundadas
fundadore
fundadores
fundadori
fundadoris
fundados
fundadu
fundadura
fundamenta
fundamentale
fundamentales
fundamentali
fundamentalis
fundamentals
fundamentas
fundamentos
fundamentu
fundant
fundare
fundat
fundatzione
fundau
fundende
fundesa
fundet
fundidura
fundos
fundu
funduru
fune
funera
funeral
fungos
funguda
funi
funk
funny
funt
funtana
funtanas
funtes
funti
funtis
funtziona
funtzionai
funtzionaiat
funtzionale
funtzionales
funtzionalidade
funtzionalidades
funtzionamentu
funtzionant
funtzionare
funtzionarios
funtzionat
funtzione
funtziones
funtzioni
funtzionis
funzione
funzioni
fuoco
fuori
fura
furadu
furare
furas
furca
furesi
furint
furinti
furio
furisteris
furlan
furones
furono
furria
furriada
furriadas
furriadu
furriadura
furriai
furriare
furriat
furriau
furriende
furrighesu
furros
furru
furtado
further
furto
fusi
fusiladu
fusile
fusiles
fusion
fusione
fusioni
fut
futbol
futei
futuna
futura
future
futurista
futuro
futuru
føroyar
g
ga
gabbale
gabbanu
gaber
gabi
gabine
gabinete
gabo
gabor
gaborone
gabriel
gabriele
gabriella
gadas
gaddhuresu
gaddura
gadduresa
gadduresas
gadduresos
gadduresu
gadoni
gae
gaelic
gaelica
gaelicu
gaeta
gaetano
gai
gaia
gaine
gairo
gal
gala
galana
galanas
galardonadu
galeano
galeas
galeazzo
galegu
galera
galeras
gali
galicia
galilea
galilei
galileo
galileu
galinfo
galitzia
galitzianu
galleria
gallerias
gallery
galles
gallesa
gallesu
gallesus
galli
gallia
gallimard
gallini
gallizzi
gallo
gallone
gallu
gallura
gallurese
galluresu
galo
galsi
galtelli
galu
gama
game
games
gamma
gana
gandalf
gandhi
gandolfo
gang
ganga
gange
gara
garantida
garantidu
garantire
garantit
garantzia
garantzias
garas
garau
garci
garcia
garcilaso
garden
gargano
gari
garibaldi
garipa
garland
garnier
garrone
garteddi
garth
gartner
gary
garzanti
gas
gasdottu
gases
gasi
gasos
gaspare
gasperini
gasquet
gassos
gassosu
gassu
gastaldi
gasteiz
gasto
gaston
gastos
gastrono
gastronomia
gastu
gastus
gasu
gat
gate
gates
gateway
gatos
gatto
gatu
gaudi
gaulle
gauss
gautama
gava
gavin
gavina
gavino
gavinu
gavoi
gay
gays
gaza
gazeta
gazette
gazetteer
gazzetta
gazzolo
gb
gcatholic
gcc
gdp
ge
geddes
geezer
geist
gela
geli
gelimeru
gelisio
gelisuli
gelli
gelocal
gemellaggio
gemellos
gemellu
gemma
gen
gena
genas
gencat
gender
gene
genealogia
generada
generadas
generados
generadu
general
generale
generales
generali
generalitat
generalizadu
generalmente
generare
generation
generativa
generatzione
generatziones
generazioni
genere
generes
generi
generis
genes
genesi
genetic
genetica
geneticas
geneticu
genia
genias
genina
genista
genitales
genitores
genius
genna
gennadios
gennaio
gennargentu
gennargiu
gennaro
gennarxu
gennas
gennaxu
genoa
genoci
genocide
genoma
genoni
genos
genotzi
genova
genovesa
genovesas
genovesi
genovesos
genovesu
gens
gente
gentes
genti
gentile
gentili
genu
genungu
genus
geo
geode
geodesia
geoff
geoffrey
geofi
geogra
geografia
geografica
geograficamente
geografico
geograficu
geografu
geographic
geographical
geography
geolo
geologia
geologicamente
geome
geometria
geominera
geophysical
geopoli
georg
george
georges
georgetown
georgia
georgian
georgianos
georgianu
georgie
geppi
ger
gera
gerais
gerald
gerarchia
gerarchias
gere
geremia
gerhard
gerineldo
germa
germain
german
germana
germania
germanica
germanicas
germanicu
germano
germanu
germany
geroglificos
gerolamo
geroni
geronimo
gerrei
geru
gerusalemme
gervasi
geschichte
gessu
gestiat
gestidos
gestidu
gestione
gestire
gestores
gestu
gesu
gesuita
gesuitas
gesus
get
gets
gettext
getting
gewalt
gfdl
ggiu
gh
ghana
ghe
gheddafi
ghedini
ghenga
ghenna
ghennarzu
ghennas
ghent
gher
ghera
gherardesca
gherardo
gherardu
ghere
gherra
gherrada
gherradores
gherradu
gherraiat
gherrare
gherras
gherrat
gherrende
gherreris
gherrilla
ghet
ghetada
ghetadas
ghetadu
ghetaduras
ghetant
ghetare
ghetat
ghetende
ghezzi
ghi
ghia
ghiada
ghiadas
ghiadore
ghiados
ghiadu
ghiaiat
ghiani
ghiare
ghias
ghiat
ghibli
ghida
ghidas
ghidos
ghidu
ghiende
ghil
ghilant
ghilarza
ghina
ghine
ghini
ghir
ghiseddu
ghitarra
ghitarreri
ghitarrista
ghiu
ghociani
ghost
gi
gia
giacarta
giacche
giacobbe
giacomino
giacomo
giae
giagnoni
giagu
giai
giait
gialappa
giallo
giallu
giama
giamada
giamadu
giamaicanu
giamat
giambattista
giampaolo
giampiero
gian
gianas
giancarlo
gianfranco
giangiacomo
giani
gianluca
gianluigi
gianna
gianni
giant
gianuari
giapone
giaponesa
giaponesas
giaponesos
giaponesu
giaponi
giappichelli
giappone
giapponesa
giapponesas
giapponese
giapponesos
giapponesu
giapponi
giara
giardinagiu
giardino
giardinos
giardinu
giaru
gias
giassos
giassu
giat
giau
giava
giave
gibbs
gibilterra
gibraltar
gibson
gibuti
gica
gicamente
gicas
gicos
gicu
gicus
gida
gidos
gidu
gif
gigante
gigantes
giganti
gigantis
gigi
gigli
giglio
gil
gilbert
gilberto
gilda
gile
giles
gilgamesh
gilla
gillan
gilles
gilliam
gilt
gimene
gina
ginas
ginat
gine
ginepro
gines
ginesu
ginevra
gini
ginis
gino
gio
giocatore
giochi
gioco
gioga
giogada
giogadore
giogadores
giogadori
giogadoris
giogadu
giogai
giogant
giogare
giogat
giogau
gioghende
giogos
giogu
giogus
gioia
gioja
giommaria
gion
giona
giorda
giordania
giordano
giordanu
giorghi
giorgi
giorgia
giorgio
giornada
giornale
giornales
giornali
giornalismu
giornalista
giornalistas
giornata
giorni
giorno
gios
giosso
giossu
giotto
giovana
giovane
giovaneddu
giovani
giovanile
giovanili
giovanna
giovanni
giovanos
giovanu
giove
gioventu
gioventude
giovunu
giovunus
gipi
gir
girada
giradas
giradu
girai
girant
girare
girasoli
girat
girau
girende
giri
girl
girls
giro
girolamo
giron
girona
girone
girones
giros
giru
girus
gisella
git
gita
github
giu
giuanna
giuanne
giuanni
giubileu
giuda
giudea
giudeos
giudeu
giudi
giudicadu
giudicale
giudicales
giudicali
giudicati
giudicato
giudicau
giudice
giudici
giuditta
giuditzia
giuditziu
giudizio
giudu
giuffre
giugadu
giughent
giughet
giughiat
giugi
giugno
giuigados
giuigadu
giuigale
giuigales
giuigau
giuighe
giuighes
giuighissa
giulia
giuliana
giuliani
giuliano
giulianu
giulietta
giulio
giuliu
giunta
giuntu
giuoco
giuradu
giuramentu
giuri
giuria
giuridico
giuridicu
giurisditzione
giurisditzioni
giurisprude
giurista
giuristas
gius
giusepe
giusepi
giuseppa
giuseppe
giuseppina
giusta
giusti
giustificare
giustinianu
giustitziadu
giustizia
giustos
giustu
giuta
giutos
giuttu
giutu
give
gives
gl
gladio
glasgow
glenn
gli
glia
glias
gliu
glo
global
globale
globalization
globalizatzione
globalizzazione
globe
globi
globo
globu
gloria
gloriosa
gloriosu
glory
glossa
glover
gn
gna
gne
gno
gnosi
gnu
go
goa
goal
gob
gobbo
goccius
goceano
god
goda
godfather
godint
godit
goes
goethe
goffredo
gog
goi
going
gol
gold
golden
goldoni
goldstein
golf
golfo
golfos
golfu
gollei
golo
gologone
golos
golothene
golpe
golu
gomera
gomez
gomma
gommaflex
gona
gonare
gonario
gondranu
gone
gonfalone
goni
gonnesa
gonnos
gonone
gonu
gonza
gonzaga
gonzalo
good
goodbye
goodman
google
gora
gorare
gorbac
gordon
goretti
gorgobena
gori
gorizia
goro
goros
gorropu
goru
gos
gosadu
gosaiant
gosant
gosantine
gosare
gosat
gosi
gosos
gospel
got
gotha
goticu
gotos
gottfried
gouv
gov
government
governo
governu
govoni
gpl
gplv
gps
gpu
gr
gra
grace
gracia
grado
grados
gradu
graduale
gradualmente
grae
graemente
graes
graesa
grafa
grafe
grafema
grafemas
grafia
grafias
grafica
grafiche
graficu
grafiga
grafos
grafu
graham
grai
grais
grama
gramma
grammar
grammatica
grammaticale
grammaticales
grammos
grammu
grammy
gramsci
gran
grana
granada
grand
grande
grandes
grandesa
grandesas
grandi
grandu
granducadu
grandus
graneris
grani
granitu
grant
graphic
graphics
grappa
gras
grassia
grassias
grasso
grassu
gratis
gratu
gratzia
gratzianu
gratzias
grauso
grave
graves
gravi
gravidade
gravidadi
gravitatzionale
gray
graz
grazia
graziani
graziano
grazie
graziella
gre
great
greater
greatest
greca
grecas
greci
grecia
greco
grecos
grecu
greece
greek
green
greene
greenpeace
greenwich
greenwood
greg
grega
gregas
greghia
grego
gregori
gregorianu
gregorio
gregoriu
gregory
gregos
gregu
grenada
grenadinas
grenoble
gretchen
greyhound
gri
grido
grigiu
griko
grillo
grimaldi
grimm
grispo
grobale
grobarmente
grobu
grodde
groenla
groenlandia
groga
grogos
grogu
grohl
groove
gropius
gros
grosseto
grotta
ground
group
groups
groves
growth
grozny
gru
gruis
grunge
grup
grupos
gruppo
gruppos
gruppu
gruppus
grupu
grupus
grussa
grussas
grussera
grussesa
grussos
grussu
grustiu
grustu
gruta
grutas
grutta
gruttas
gruyter
gsfc
gu
gua
guadalupa
guadalupe
guadeloupe
guam
guanches
guanda
guarani
guard
guarda
guardia
guardian
guasi
guasila
guatemala
guayaquil
gubernadore
gubernare
gubernatis
gubernos
gubernu
gudat
gue
guelfo
guelfu
guernica
guerra
guerre
guerrero
guerrieri
guest
guevara
guez
guf
gufi
guggenheim
guglielmo
guglielmu
gui
guida
guide
guides
guidi
guido
guilcer
guillermo
guillermu
guine
guinea
guinness
guiso
guitar
gujana
gula
gulag
gulas
gulf
gulfnews
gulfu
gullielmu
gulliermu
gulos
gulu
gumas
gume
gunale
gunnare
gunness
gure
gures
gurfu
gurissa
gurrei
gurteddu
guru
gus
gustav
gustave
gustavo
gusto
gustu
gutenberg
guu
guvernada
guvernadore
guvernadores
guvernadori
guvernados
guvernadu
guvernaiat
guvernare
guvernat
guvernativa
guvernativas
guvernativos
guvernativu
guvernos
guvernu
guy
guyana
gwu
h
ha
habana
habeo
habitat
hachette
hack
hacker
had
hadot
hagen
haggard
hague
hai
haiat
haiti
haitianu
hal
hale
haley
half
halifax
hall
halle
halley
ham
hamburg
hamid
hamilton
hamlet
hammond
hampshire
hampton
han
hanau
hand
handbook
hands
hanks
hanna
hanno
hannover
hanoi
hans
hansen
hansestadt
hant
happened
happy
hara
harare
harbor
harcourt
hard
hardly
hardware
hardy
harlem
harmon
harold
harper
harpercollins
harris
harrison
harry
hartford
hartman
harvard
harvesting
harvey
has
hashtag
hassan
hasta
hastings
hat
haus
haute
hautes
hauts
havana
have
havel
haven
hawaii
hayao
hayes
hb
hdblog
hdr
he
head
health
hearst
heart
hearts
heat
heath
heather
heaven
heavy
hebe
hebrew
heck
hector
hedera
heeringa
hegazi
hegel
heidegger
heidelberg
heinrich
heinz
held
helix
hell
hellersdorf
hello
helmar
help
helsinki
hemingway
henderson
hendrix
hennepin
henning
henri
henry
her
herbert
here
herero
hereros
heridos
heritage
herman
hermann
hermione
herna
hernandez
hero
herria
herzegovina
hewitt
hey
hi
hic
hid
hidden
hieronimu
high
higher
highest
highlands
highway
hikikomori
hilary
hill
hills
him
himalaya
hindi
hip
hippie
hiroshima
his
hispania
hispaniola
histo
histoire
historia
historiae
historic
historical
historische
history
hit
hitler
hitodama
hits
hiv
hl
hn
ho
hobart
hobbit
hoc
hockey
hodges
hoffmann
hofmann
hogwarts
hohenstaufen
hoi
hojarasca
hokkaido
hoku
hold
hole
holiday
holland
hollywood
holmes
holocaust
holstein
homage
home
homi
homines
homme
hommes
homo
honduras
honey
hong
honolulu
honorary
honore
honoris
honshu
hook
hop
hopkins
hora
horacio
horizon
horizonte
horn
horror
horse
horta
hoskin
hospital
host
hot
hotan
hotel
hoteles
houghton
hour
house
housing
houston
how
howard
howe
howland
hoy
hp
hrung
hrw
htcpcp
htm
html
http
https
hu
huancas
huang
hub
hubei
hudson
hue
huelva
huesca
huffingtonpost
hugh
hughes
hugo
hui
huillet
hukapan
human
humanity
humans
humphrey
hundred
hungary
hunt
hunter
hurd
hurin
hussein
hutu
hutus
huygens
hyderabad
hyper
i
ia
iaa
iaaf
iada
ian
iant
ianta
iast
iat
iau
ibanez
ibarbo
ibas
ibba
ibe
iberica
ibericos
iberru
ibes
ibge
ibid
ibiza
ibm
ibn
ibrahim
ic
ica
icarus
icas
iccu
ice
iceage
ich
ichi
ichnusa
ichnussa
ico
icon
icona
iconas
icos
ictus
ictv
icu
id
ida
idaho
idas
idat
idda
iddanoa
iddhi
iddhu
ide
idea
ideal
ideale
ideales
ideas
idee
identi
identidade
identidades
identidadi
identifica
identificada
identificadas
identificados
identificadu
identificai
identificare
identificat
identificativu
identificatzione
identificau
identita
identitade
identity
ideolo
ideologia
ideologias
ides
idet
idi
idioma
idiomas
idir
idis
ido
idos
idra
idrisi
idro
idroele
idrogra
idru
idu
ie
iec
ieee
ieri
ierriles
ierros
ierru
ietf
if
ifferru
ifugas
iga
igant
igas
igat
igbos
ighe
ighes
ighi
ighinu
igia
igiene
iglesia
iglesias
iglesiente
igna
ignatziu
ignazio
ignaziu
ignora
ignoradu
ignoto
igor
igos
igre
igresias
igresiente
igresienti
igu
iguara
igus
ii
iii
ijerru
ijime
ikastola
ikastolas
ikti
il
ila
ilaria
ilartzi
ili
ilia
iliade
ilienses
ilisso
ill
illa
illargu
ille
illegale
illegales
illeggibile
illegi
illi
illinois
illonghiada
illorai
illu
illuminada
illuminamentu
illuminismu
illuministas
illusione
illustradore
illustradu
illustrated
illustratzione
illustratziones
illustre
illustres
illustri
ilmessaggero
ilpost
ilsole
im
ima
imaculada
image
images
imagina
imagine
imagines
imam
imap
imba
imbarcadu
imbarcaduras
imbarcu
imbargu
imbaros
imbasciada
imbatende
imbatent
imbatet
imbe
imbeniente
imbenientes
imbenta
imbentada
imbentadas
imbentadu
imbentare
imbentau
imbentore
imbentu
imbesse
imbestidu
imbestigadura
imbestigaduras
imbestimentos
imbetze
imbetzes
imbetzis
imbi
imbiada
imbiadas
imbiadore
imbiados
imbiadu
imbiai
imbiant
imbiare
imbiat
imbiau
imbiaus
imbiende
imbios
imbiu
imbo
imboligados
imboligadu
imbre
imbressi
imbrotadu
imbuccai
imbuccat
imdb
imf
imitare
imitende
imma
immacolata
immagina
immaginare
immaginatzione
immagine
immagines
immagini
immanuel
immateriale
immediatamente
immediatu
immigrados
immigrantes
immigration
immigratzione
imminente
immoa
immoe
immoi
immortal
immune
immunidade
immunita
imoe
imoi
impa
impact
impara
imparada
imparadore
imparadu
imparai
imparamentus
imparant
imparare
imparat
imparau
impare
impari
imparis
imparonzu
imparu
impatu
impe
impedende
impedidu
impedimentos
impedint
impedire
impedradu
impedumare
impegno
impei
impending
imperada
imperadas
imperadore
imperadores
imperadori
imperadu
imperai
imperant
imperat
imperativu
imperatore
imperau
imperaus
imperfetu
imperia
imperial
imperiale
imperiales
imperiali
imperiu
imperium
imperju
impero
impertantu
imperu
impiantos
impiantu
impiccati
impiegados
impignadu
impignu
impinnadu
impinnu
impitada
impitadore
impitadores
impitadori
impitadoris
impitadu
impitant
impitat
impitu
implementation
impli
implications
impo
impone
imponende
imponente
imponentes
imponet
imponimentu
importa
importadu
important
importante
importantes
importanti
importantis
importantzia
importanza
importat
importatzione
importu
impositzione
impossi
impossibile
impossibilidade
imposta
impostada
impostas
impostatzione
impostu
imprantu
impre
imprea
impreada
impreadas
impreadore
impreados
impreadu
impreai
impreaiant
impreaiat
impreamus
imprean
impreant
impreare
impreat
impreau
impreaus
impreende
impreendi
impreent
impreet
imprenda
imprendidora
imprendidore
imprendidores
imprenta
imprentada
imprentadora
imprentadore
imprentados
imprentadu
imprentare
imprentas
impreos
impresa
impresas
impresonados
impresonadu
impresonau
impressione
impreu
impro
improba
impropiamente
improvisation
improvisatzione
impulsu
imputados
imputadu
imputu
in
ina
inaguradu
inantis
inas
inaugura
inaugurada
inauguradu
inauguratzione
inaugurazione
inbestimentos
inc
inca
incaminadori
incaminadoris
incaminadu
incaminamentu
incantada
incapatzidade
incarat
incarchende
incarrigada
incarrigados
incarrigadu
incendio
inche
incherta
inchiesta
inchiestas
inchisitzione
incident
incidente
incidenti
incidenza
incipit
incisa
incisu
inclinatzione
inclinu
inclu
includende
includent
includet
includiant
includiat
including
incluende
incluent
incluet
incluiat
incluidas
incluidos
incluidu
incluint
incluire
incluit
inclusione
inco
incolliosa
incolumidade
incomentzu
incomintzada
incomintzadu
incomintzat
incomintzau
incomintzende
incomintzu
incontra
incontrada
incontradu
incontri
incontro
incontros
incontru
incoragidu
incorporada
incorporadu
incorporatzione
incras
increase
incru
incruende
incruet
incu
incue
incui
incuida
incuinamentu
incuisitzione
incumenciau
incumentzada
incumentzadas
incumentzados
incumentzadu
incumentzai
incumentzant
incumentzare
incumentzat
incumentzau
incumentzende
incumentzendi
incumentzu
incumintzada
incumintzadu
incumintzare
incumintzat
incumintzu
incunza
incurare
incurat
incurtzada
incurtzadu
incurtzadura
incurtzia
incuru
ind
indagine
indebilitadu
indec
indedda
independe
independent
independente
indereta
index
indi
india
indian
indiana
indianapolis
indianas
indianos
indianu
indianus
indias
indicada
indicados
indicadu
indicaiat
indicant
indicare
indicat
indicativo
indicativu
indie
indifere
indiferente
indigenos
indigenous
indios
indipende
indipendente
indipendentemente
indipendentes
indipendenti
indipendentis
indipendentismo
indipendentismu
indipendentista
indipendentistas
indipendentzia
indipendenza
indireta
indiretos
indiritzada
indiritzadu
indiritzos
indiritzu
indiritzus
indispensa
indita
inditada
inditadas
inditadori
inditados
inditadu
inditai
inditaiat
inditamentos
inditant
inditare
inditat
inditos
indittare
inditu
inditze
indivi
individu
individuale
individuales
individuali
individuare
individuos
indivisi
indo
indoeuropea
indoeuropeas
indoeuropeos
indoeuropeu
indone
indonesia
indonesianu
indoor
indotzina
indu
induidu
induire
induismu
induista
indus
industria
industrial
industriale
industriales
industriali
industrializada
industrializados
industrializadura
industrializatzione
industrias
ine
inedite
inediti
inedito
inegi
inerte
ines
inevita
infa
infadadu
infadu
infante
infantile
infanzia
infartu
infatis
infatti
infattis
infe
infection
infectious
inferiora
inferiore
inferiores
inferiori
inferioridade
inferno
inferru
infetadu
infetiva
infetivas
infetzione
infetziones
infeudada
infeudadas
infeudadu
infines
infinito
infinitu
inflatzione
influe
influence
influente
influentes
influentzada
influentzadas
influentzados
influentzadu
influentzat
influentzia
influentziadu
influentzias
influenzadu
influidu
influssos
influssu
info
informa
informadu
informaduras
informale
informare
informat
informatica
information
informativa
informativu
informatzione
informatziones
informatzioni
informatzionis
informazione
informazioni
infra
infraistruturas
infraruja
infrastruturas
infty
infu
infusta
inganno
inge
ingegneri
ingegneria
ingegneris
ingenieri
ingenieria
ingham
inghi
inghilterra
inghiriada
inghiriadas
inghiriadu
inghiriadura
inghiriat
inghiriu
inghirterra
inghitzadu
inghitzat
inghitzau
inghitzu
ingi
ingiusti
ingl
ingle
inglesa
inglesas
inglese
inglesos
inglesu
inglesus
ingollet
ingortas
ingortos
ingotos
ingotu
ingraide
ingrassia
ingrediente
ingredientes
ingresa
ingresu
ingresus
inguni
ingurti
ingurtosu
ini
inia
inie
inimicos
inimicu
inimigas
inimigos
inimigu
initiative
initziale
initziales
initziativa
initziativas
iniziativa
iniziative
inizio
inklings
inn
inna
innanti
innantis
inner
innestu
innetafumajolos
innetare
innia
inno
innoi
innos
innotze
innotzente
innovation
innovatzione
innovatziones
innovazione
innsbruck
innu
innui
inoche
inoghe
inorga
inos
inouva
input
inquisicio
ins
insajadura
insajos
insalada
insandus
insaras
insediamento
insediamentos
insediamentu
insediamentus
insee
insegna
insegnadu
insegnamento
insegnamentu
insegnante
insegnantes
insegnanti
insegnare
insegnat
insel
inserimentu
inserradu
inserrat
insertada
insertadas
insertados
insertadu
insertare
insertende
insetos
insettos
insettu
inside
insider
insieme
insignante
insinzadu
inso
insoro
insoru
insta
instabilidade
instagram
installada
installadu
installadura
installaduras
installai
installare
installatzione
installatziones
instant
instauradu
instaurare
instauratzione
institut
institute
institution
instituto
instrumentale
insubordinatzione
insufitziente
insula
insulare
insulares
insularidade
insurretzione
insurretziones
insurrezione
int
inta
intamas
intames
intamis
intantu
intatu
inte
integrada
integradas
integrados
integradu
integrale
integrante
integrare
integratzione
integraus
integrende
integridade
integru
intel
inteligente
intellettuale
intellettuales
intellettuali
intelletuale
intelletuales
intellige
intelligence
intelligente
intellighe
intende
intendende
intendent
intender
intendere
intendet
intendi
intendiant
intendimentu
intendit
intensa
intensas
intensidade
intensiva
intensividade
intensivu
intensu
intentadu
intentant
intentare
intentat
intentau
intentende
intentos
intentu
intentzionale
intentzione
intentziones
inter
interactive
interamente
interassione
interatzione
interatziones
interatzioni
intercontinentale
intere
interessada
interessadas
interessados
interessadu
interessaiat
interessamentu
interessant
interessante
interessantes
interessanti
interessare
interessat
interessau
interesse
interessende
interessi
interessos
interessu
interfa
interfaccia
interface
interfache
interfere
intergovernativa
interguvernativa
interi
interim
interiore
interiores
interis
interlinea
interlingua
interme
intermedia
intermodale
interna
internacional
internadu
internals
internamentu
internas
internassionale
internassionales
international
internationale
internatzionale
internatzionales
internatzionali
internatzionalis
internatzionalmente
internazionale
internazionali
interne
internet
internment
interno
internos
internu
interplay
interpol
interpretada
interpretadas
interpretados
interpretadu
interpretare
interpretat
interpretatzione
interpretatziones
interpretau
interpretazione
interprete
interpretende
interpretes
interrada
interrados
interradu
interrare
interrau
interros
interru
interrupt
interrutzione
interrutziones
intersessuales
intersessualidade
intertantu
interve
intervenner
interventi
interventos
interventu
interview
intervista
intervistas
interviste
intervoca
intesa
intestatzione
intestatziones
intesu
intitoladu
intitulada
intituladu
into
intonatzione
intorinos
intorno
intr
intra
intrada
intradas
intrados
intradu
intrae
intragnas
intrai
intraiat
intrana
intrant
intrare
intrat
intrate
intrau
intre
intrea
intreamente
intreas
intrega
intregada
intregadu
intregare
intregat
intregatzione
intregu
intreit
intrena
intrende
intrenu
intreos
intrepidi
intretzat
intreu
intri
intritzidas
intro
introdu
introduction
introduende
introdui
introduiat
introduida
introduidas
introduidu
introduire
introduit
introdutivos
introduttivo
introdutzione
introduzione
intru
intrus
intrusida
intzertesa
intzide
intzidentale
intzidente
intzidentes
intzisione
intzisiones
inu
inube
inue
inui
inuit
inva
invadendi
invalid
invasione
invasiones
invasores
inve
invece
invecis
inventada
inventadu
inventore
invenzione
inverno
inversione
investigation
investimentos
investimentu
invisi
invisibili
invisible
invitada
invitadu
invitare
invitu
involunta
inze
inzenieri
io
ioan
iommi
ion
ione
iones
iorcu
iorio
ios
iowa
ip
ipa
ipagnolu
ipb
ipcc
iper
iperbo
ipermercadu
ipertestu
ipertestuale
iphone
ipo
ipoge
ipogeu
ipote
ipotesi
ipotesis
ipotizadu
ipotizat
ipotizende
ippolito
ippona
iprage
ipse
ipsu
iqbal
ir
ira
irachena
irachenas
irachenos
irachenu
iran
iranian
iraniana
iranianu
iraq
irbonu
irde
ire
ireann
ireland
irene
irgas
irgoli
iri
iride
iris
irish
irlanda
irlandesa
irlandesas
irlandesos
irlandesu
irma
iro
irochesa
irochesus
ironia
iroxi
irraighinadu
irrajamentu
irregulare
irregulares
irregularidades
irst
iru
irving
is
isa
isaac
isabel
isabella
isalle
isba
isballiada
isbarcados
isbarcadu
isbarcare
isbarcu
isbn
isca
iscacos
iscadenadu
iscadenare
iscadenende
iscagiada
iscagiadu
iscagiadura
iscagiamentu
iscagiare
iscagiato
iscala
iscalare
iscalas
iscalinas
iscalu
iscambiadu
iscampiaiat
iscandalu
iscandi
iscandina
iscannos
iscansione
iscantzellare
iscanu
iscapamentu
iscarpas
iscarrica
iscarrigare
iscaru
iscasi
iscassa
iscassado
iscassia
iscassos
iscassu
iscata
iscavos
iscavu
iscavus
isce
iscena
iscenas
isceneggiadore
iscentzia
iscentziadu
iscera
iscerant
iscerare
iscerat
isceti
iscetis
ische
ischeda
ischedas
ischema
ischemas
ischende
ischermada
ischermos
ischermu
ischerriadorzu
ischerriamentu
ischi
ischiat
ischiavos
ischida
ischidada
ischidare
ischidu
ischiglia
ischimus
ischina
ischint
ischire
ischirolu
ischirria
ischirriada
ischirriadas
ischirriados
ischirriadu
ischirriadura
ischirriare
ischirriat
ischit
iscia
iscie
iscienegiadura
iscienti
iscientziados
iscientziadu
iscientzias
iscio
isciopu
iscipione
isciri
iscisma
isciusciadu
isco
iscobe
iscoberit
iscoberta
iscobertas
iscobertos
iscobertu
iscobiadu
iscola
iscolarizatzione
iscolas
iscollas
iscomintzu
iscontro
iscontros
iscontru
iscontzada
iscontzadu
iscontzare
iscontzu
iscope
iscoperta
iscopertas
iscopertu
iscopiada
iscopu
iscorta
iscostiada
iscostiadu
iscostiamentu
iscostiare
iscotzesa
iscotzesos
iscotzesu
iscotzia
iscra
iscraos
iscratza
iscravamentu
iscravidade
iscravos
iscravu
iscre
iscri
iscriede
iscriende
iscrient
iscrier
iscriere
iscriet
iscriiant
iscriiat
iscriidura
iscriri
iscrita
iscritas
iscritora
iscritore
iscritores
iscritori
iscritos
iscritta
iscrittas
iscrittora
iscrittore
iscrittores
iscrittos
iscrittu
iscrittura
iscritu
iscritura
iscrituras
iscritus
iscritzione
iscritziones
iscroca
iscru
iscrusivamente
iscu
iscuadra
iscuadras
iscucuradore
iscudetu
iscudu
isculto
iscultore
iscultores
iscultura
isculturas
iscumbata
iscumbatare
iscumpa
iscumparta
iscumpartos
iscumpartu
iscuncorda
iscura
iscuras
iscuredda
iscurigada
iscuros
iscurreras
iscurta
iscurtadu
iscurtare
iscurto
iscurtu
iscuru
iscussertos
iscuta
iscutu
ise
isemprales
isempru
isetadu
isetare
isetende
isetu
isfaghimentu
isfatu
isfera
isferas
isfidende
isfilada
isfogu
isfortzos
isfortzu
isfritamentu
isfrutada
isfrutadas
isfrutados
isfrutadu
isfrutamentu
isfrutant
isfrutare
isfrutende
isfrutu
isfundu
isgavos
ishtar
isia
isidro
isili
isis
iski
iskra
isla
islam
islamabad
islamic
islamica
islamicu
island
islanda
islandesa
islandesu
islands
islas
islava
islavas
islavos
islavu
isle
islova
islovacos
islovacu
islove
islovena
islovenos
islovenu
isma
ismanniada
ismanniadu
ismanniare
ismentigare
iso
isola
isolamentu
isolana
isolanas
isolanos
isolanu
isolas
isole
isorbet
isorvimentu
isozaki
ispa
ispada
ispadas
ispagna
ispagnola
ispagnolas
ispagnolos
ispagnolu
ispainada
ispainadas
ispainados
ispainadu
ispainadura
ispainare
ispainende
ispaniada
ispaniadas
ispaniadu
ispaniadura
ispaniare
ispanna
ispanniola
ispannola
ispannolos
ispannolu
ispano
ispantadu
ispantare
ispantat
ispantosa
ispantosas
ispantosos
ispantosu
ispantu
ispanu
isparadorzu
isparadu
isparat
isparatottu
ispare
isparessimentu
isparghent
isparghidura
isparghinada
isparghinadas
isparghinados
isparghinadu
isparghinare
isparta
ispartas
ispartos
ispartu
ispartzida
ispartzidos
ispartzidu
ispartzidura
ispartzinada
ispartzire
ispartzit
isparzimentu
ispassiare
ispatziale
ispatziales
ispatziu
ispe
ispecie
ispeditzione
ispeditziones
ispera
isperdende
isperdere
isperdi
isperdida
isperdimentu
isperie
isperientzia
isperimentadu
isperimentale
isperimentales
isperimentare
isperimentatzione
isperimentatziones
ispertos
ispertu
isperu
ispesas
ispeta
ispetadores
ispetore
ispetru
ispettore
ispetzi
ispetzia
ispetziale
ispetziales
ispetziali
ispetzialidade
ispetzialidades
ispetzialista
ispetzialistas
ispetzializada
ispetzializadas
ispetzializados
ispetzializadu
ispetzializatzione
ispetzialmente
ispetzias
ispetzie
ispetzificada
ispetzificadu
ispi
ispia
ispiaggias
ispidale
ispidales
ispiegare
ispiegat
ispiegatzione
ispiga
ispina
ispinas
ispinghende
ispinosos
ispinta
ispintos
ispintu
ispiona
ispira
ispirada
ispiradas
ispirados
ispiradu
ispirale
ispirat
ispiratzione
ispirau
ispirende
ispiritos
ispiritu
ispirituale
ispirituales
ispissu
ispo
isponda
isponta
ispontanea
ispopulada
ispopuladas
isporlatu
isport
isportellu
isportiva
isportivas
isportivos
isportivu
isposa
isposada
isposadu
isposo
isposos
isposu
isprene
ispressione
ispressura
ispricant
ispricare
ispricat
ispro
isproradore
isproradores
isprosura
ispuntone
isquadra
isquadras
isra
israel
israele
israeli
israeliana
israelianas
israelianos
israelianu
isre
isresardegna
isrobato
issa
issas
isse
isseberada
isseberadu
isseberare
isseberende
issena
issentzia
issepera
isseperadu
isseperau
isseperu
issienti
issientificu
issn
isso
issohadores
issoro
issoros
issoru
issos
issu
issue
issues
issupra
issus
issuu
ist
ista
istabile
istabilende
istabiliat
istabilida
istabilidade
istabilidas
istabilidos
istabilidu
istabilimentos
istabilimentu
istabilire
istabilit
istada
istadas
istade
istades
istadi
istadiale
istado
istados
istadu
istadunidensa
istadunidensas
istadunidense
istadunidensos
istadunidensu
istadunidesa
istadunidesu
istadus
istafeta
istagione
istagnu
istai
istaiant
istaiat
istajonadura
istajone
istajones
istalinismu
istamentos
istamentu
istampa
istampada
istampadu
istampare
istampu
istan
istanbul
istandard
istandardizados
istandardizatzione
istandards
istant
istanta
istante
istanzu
istaos
istare
istas
istasone
istasones
istassionamentu
istassione
istassiones
istat
istatale
istatales
istati
istatisticas
istatos
istatu
istatua
istatuales
istatuas
istatudos
istatueddas
istatus
istatutos
istatutu
istatzione
istatziones
istatzu
istau
iste
istedda
isteddas
isteddos
isteddu
istele
istemma
istemmas
istentadu
istentales
istepas
istereo
istereotipu
istermi
isternu
isterrende
isterret
isterriat
isterrida
isterridura
isterrit
istesiada
istesiadas
istesiados
istesiadu
istesiadura
istesiamentu
istesiare
istetia
istetiu
istetius
istevene
isti
istiale
istiales
istiga
istigas
istile
istiles
istili
istiliu
istilu
istima
istimada
istimadas
istimados
istimadu
istimant
istimare
istimas
istimat
istimuladu
istintinu
istintu
istios
istipe
istipuladu
istitui
istituida
istituidas
istituidu
istituimentos
istituire
istituit
istituto
istitutos
istitutu
istitutzionale
istitutzionales
istitutzione
istitutziones
istitutzioni
istitutzionis
istituzioni
istiu
istmu
isto
istocadas
istocolma
istorbu
istoria
istorias
istorica
istoricamente
istoricas
istoricos
istoricu
istorigamente
istoriogra
istoriografia
istra
istrabone
istrada
istradale
istradales
istradas
istraditamentu
istradone
istragu
istrales
istrampada
istrana
istrangiadu
istrangiare
istrangios
istranieros
istranu
istranza
istranzas
istranzat
istranzos
istranzu
istraordina
istraordinaria
istrasburgu
istrate
istrategia
istrategias
istrategicu
istre
istrema
istremadura
istremamente
istremegnu
istremidade
istremidades
istremu
istrenadu
istri
istria
istriana
istringhet
istrinta
istrintamente
istrintas
istrintos
istrintu
istrisa
istro
istrobos
istrobu
istrumadura
istrumentale
istrumentos
istrumentu
istruttura
istrutturas
istrutura
istruturada
istruturadas
istruturadu
istruturales
istruturas
istruturatzione
istrutzione
istrutziones
istruzione
istu
istudadu
istudamentu
istudantes
istudare
istudat
istudentes
istudia
istudiada
istudiadas
istudiados
istudiadu
istudiante
istudiantes
istudiare
istudiat
istudiau
istudiende
istudio
istudios
istudiosa
istudiosos
istudiosu
istudiu
istudius
istupat
isula
isulada
isuladas
isulados
isuladu
isulamentu
isulana
isulanas
isulanos
isulanu
isulas
isuledda
isuleddas
isus
isvanta
isvariadas
isvariados
isve
isvedesa
isvedesos
isvedesu
isvetzia
isvi
isvilu
isvilupa
isvilupada
isvilupadas
isvilupadores
isvilupados
isvilupadu
isvilupaiat
isvilupant
isvilupare
isvilupat
isvilupau
isvilupende
isvilupos
isviluppada
isviluppadu
isviluppau
isviluppu
isvilupu
isvitzera
it
ita
italia
italiae
italian
italiana
italianas
italiane
italiani
italianismos
italianismu
italianizatzione
italiano
italianos
italianu
italianus
italica
italie
italien
italo
italy
italyan
ite
iteratzione
itinera
itinerante
itinerari
itinerario
itireddu
ito
itos
itri
itria
its
itte
itu
itunes
iu
iua
iucn
iudex
iugosla
iulia
iupac
iure
ius
iv
ivan
ivi
iviluppu
ivkov
ivo
ivrea
ivure
ix
ixi
j
ja
jaca
jack
jackie
jackson
jacksonville
jacob
jacopo
jacques
jacu
jae
jagdeo
jai
jaime
jake
jakob
jam
jamada
jamadu
jamaica
james
jamo
jan
jana
janas
jane
janeiro
janet
janna
jannacci
jannarju
jannas
jantoman
january
janukovyc
janus
japan
japanese
jar
jara
jared
jarmusch
jason
jassu
jaume
java
javascript
javicoli
javier
jay
jazz
jb
je
jean
jeff
jefferson
jeffrey
jelly
jemen
jena
jenkins
jenner
jennifer
jenny
jeremy
jerez
jerome
jerry
jersey
jerusalem
jesse
jest
jesus
jet
jethro
jeune
jeunesse
jezik
ji
jim
jimmy
jmap
jn
jo
joa
joachim
joan
joao
joaqui
jobim
jobs
joca
jocadore
jocadores
jocare
jocat
jocos
jocu
joe
joel
joey
jogu
johan
johann
johannes
johannesburg
john
johnny
johnson
johnston
join
joint
jolly
jon
jonathan
jones
joplin
jordan
jordi
jorge
jorgi
jorzi
jose
josef
josep
joseph
josephine
josh
joshua
josif
josip
josso
jossu
josto
joule
joules
jour
journal
journalist
journalists
journals
journey
jours
jove
joy
joyce
jp
jpg
jpl
jr
jrr
json
jstor
ju
jua
juan
juana
juanne
juanni
juat
juba
jubanne
judicados
judicadu
judiche
judigados
judigadu
judighe
judike
judy
jughet
jugosla
jugoslavija
jugoslavos
jugoslavu
juke
jules
julia
julian
julie
julien
julio
julius
july
jump
june
juneau
jung
junio
junior
juniores
juny
jura
jure
jus
just
justa
justi
justice
justin
justinianu
justu
juttu
juve
juventus
jya
k
ka
kabul
kafka
kahn
kai
kaiser
kaliningrad
kamandi
kamel
kami
kamikaze
kampala
kan
kandinskij
kansas
kant
kara
karabakh
karales
karalis
karen
karim
kariyana
karl
karma
karsten
kas
kashgar
kashmir
katakana
kate
kathleen
katmandu
katsura
kaulsdorf
kay
kazachista
kazacu
kazakistan
kazan
kaze
kb
ke
keanu
keep
kei
keith
keller
kelly
kelvin
ken
kendall
kennedy
kenneth
kenny
kent
kentannos
kentucky
kentzeboghes
kenya
kenze
kepler
kerenskij
kernel
kerouac
kevin
key
keyboards
kg
kgb
khan
khanadu
kharkiv
khmer
kho
khz
ki
kid
kids
kiel
kiev
killed
killer
killing
kilo
kilogram
kilogrammu
kilometros
kilt
kim
kin
kind
king
kingdom
kings
kingston
kinshasa
kirby
kirchhoff
kirgizista
kiribati
kirk
kirsten
kiss
kissinger
kit
kitts
klan
klaus
klee
klein
kleist
klimt
klux
km
kmq
kn
kna
knight
know
knowledge
known
knows
knoxville
ko
koch
koine
kola
komotini
kon
kong
koolhaas
korea
kos
kosovo
kr
kra
kramatorsk
kremlin
kreuzberg
ku
kuala
kuban
kubrick
kuiper
kumar
kunst
kuntz
kurdistan
kurt
kuwait
kyi
kyiv
kyj
kylie
kyo
kyoto
kypchak
kyu
kyuss
kɔ
l
la
laa
lab
labarbagia
labbra
label
labor
laborato
laboratorio
laboratory
labrador
laburista
lacana
lacanantes
lacanas
lack
lacon
laconi
lacu
lada
ladamini
ladas
laden
ladina
ladino
ladinu
ladiore
lados
ladri
ladro
ladu
lady
laerru
laforgue
laga
lager
lagos
lagu
laguna
lagunas
lai
lake
lama
lamada
lamas
lambda
lamberto
lambicadura
lambro
lamento
lammermoor
lampada
lampadas
lampedusa
lampu
lan
lana
lanaitu
lancashire
lancaster
lancia
lanciano
land
lande
lander
landes
landi
landscape
lane
laneri
lang
langlade
language
languages
langue
languedoc
lanka
lannou
lant
lanta
lantano
lantza
lantzadu
lantzitadas
lanuovasardegna
lanuse
lanusei
lanza
lanzarote
lao
laogai
laore
laorera
laores
laos
lapis
lapo
lapola
lara
lardu
larentu
larentzu
larga
largas
large
larghesa
largo
largu
lari
laris
larry
lars
laru
larvas
las
laser
lassa
lassada
lassadas
lassados
lassadu
lassai
lassaiat
lassande
lassant
lassare
lassat
lassau
lassende
lassendi
lassiter
lasso
last
lastampa
lastra
lastras
lat
late
lately
latente
later
laterales
laterali
laterza
latest
lati
latifundu
latimes
latin
latina
latinas
latine
latinidade
latino
latinoamericana
latinoamericanu
latinos
latinu
latitu
lato
latte
lattuada
latu
latvia
latziu
lau
laude
launch
launches
launeddas
laura
laurea
laureada
laureadu
laureare
laureau
laureende
lauren
laurera
lauro
lautlehre
lava
lavagna
lavinia
lavinio
lavoro
law
lawrence
lawson
lay
laye
layer
lazio
lbia
lbumes
lchi
lciu
lcolo
ldara
lderlin
ldica
ldm
le
lea
lead
leada
leadas
leader
leaders
leadership
leados
leadu
league
leal
lealidade
lealistas
leant
leap
leare
learn
learning
leas
least
leat
leave
leaves
lebbrosos
lebrat
lecce
lecco
lectura
lectures
led
leda
ledda
lee
leeds
leende
left
lega
legacy
legal
legale
legales
legali
legalidade
legalmente
legarsi
legas
lege
legend
legenda
legendarium
legendas
leges
legge
leggenda
leggende
leggera
leggeri
legges
leggi
leghe
legher
leghet
leghidura
legi
legifrance
legiona
legione
legiones
legisladura
legislativa
legislativas
legislativos
legislativu
legislatzione
legitimare
legitimidade
lei
leibniz
leipzig
leis
leland
lemma
lemy
len
lena
lenardu
lengua
lenin
leninismu
leninista
lenitzione
lennon
lenta
lenti
lentore
lentu
leo
leon
leonard
leonarda
leonardo
leone
leones
leonesu
leoni
leonora
leopardi
leopold
lepa
lepanto
lepori
leppa
lepra
lepschy
lepus
ler
lere
lerici
lerner
lerron
les
lesiadas
lesione
leslie
lesotho
lessicale
lessicales
lessico
lessicografia
lessicu
lessons
lester
lestra
lestras
lestresa
lestresas
lestros
lestru
lestu
let
leta
letargu
letera
leto
letore
letores
letos
letter
lettera
letterari
letteraria
letterarie
letterario
letteratura
letterature
lettere
letters
lettonia
lettres
lettu
lettura
letu
letura
letze
letziones
letzionis
lev
leva
levante
levantesa
level
levenstein
levi
levu
lewis
lewistown
lex
lexington
lez
leze
lezes
lezione
lezioni
lezisradura
lezze
lfia
lgara
lgaras
lgaros
lgaru
lgbt
lgebra
lgiu
li
lia
liant
lias
liat
libanesa
libano
libanu
libbertadi
libe
libellos
libellu
liber
libera
liberada
liberadores
liberados
liberadu
liberadura
liberai
liberale
liberales
liberalismu
liberamente
liberare
liberation
liberatzione
liberatzioni
liberazione
liberdade
libereddos
liberi
libero
liberos
liberta
libertade
libertades
libertadi
liberty
liberu
libia
libido
libisonis
libra
librando
library
libre
libreddu
libreria
librerias
libri
libro
libros
libru
librus
lica
licas
liccardi
lice
license
licentia
liceo
liceu
lichtenberg
lico
licore
licos
licu
licus
lida
lidas
lidone
lidos
lidu
lie
liebe
liechtenstein
liet
life
liga
ligada
ligadas
ligados
ligadu
ligant
ligare
ligas
ligat
ligendi
ligera
liggiu
lighe
lighes
light
lights
ligi
ligidura
ligios
ligit
ligo
ligos
ligu
liguori
ligure
liguri
liguria
ligurinu
like
likely
lila
lilla
lille
lilliu
lillu
lily
lim
lima
limba
limbara
limbas
limbazos
limbazu
limbi
limbista
limbistas
limbistica
limbisticas
limbisticu
limerick
limes
limitada
limitadas
limitados
limitadu
limitaiat
limitare
limitatziones
limited
limitende
limiti
limits
limone
limoni
limosinu
limpiadura
lin
lina
linas
linate
lincei
lincoln
linda
line
linea
lineare
lineares
linee
linfa
linga
lingu
lingua
linguaggi
linguaggio
linguam
linguas
lingue
lingui
linguista
linguistas
linguistic
linguistica
linguisticamente
linguisticas
linguistiche
linguistici
linguistico
linguistics
linguistique
linguistiques
linia
liniare
linias
link
linkoristano
linna
linnaeus
linnas
lino
linu
linus
linux
linz
lio
lion
lione
lionel
lionello
lionesu
lioni
lionora
lios
lipsia
liras
lirica
lis
lisa
lisandru
lisboa
lisbona
lisi
lisis
lisp
lisse
lissentzia
lissos
list
lista
listas
listen
lita
litanias
litat
lite
litera
literados
literadu
literadura
literaduras
literale
literalmente
literaria
literariu
literary
literas
literatur
literatura
literature
lites
litica
litorale
litos
litros
litru
litt
litte
littera
litteradura
litteras
litti
little
littu
litu
litua
lituana
lituania
lituanu
liturgia
litze
litzeu
liu
liv
live
lived
livello
livellos
livellu
livellus
livermo
livermore
liverpool
lives
living
livio
livorno
lix
lixi
liz
lizos
lizu
lizzani
ll
lla
llaba
llabas
llach
llai
llanos
llaros
llc
lle
lleida
llengua
ller
llia
llias
llibre
llica
llicas
llicos
llicu
llida
llidos
llidu
llieri
llingua
llios
llite
llites
lliu
llo
llobregat
llocat
llorenc
llos
llosa
llu
llui
llula
llulas
llus
lm
lo
lobina
local
locale
locales
locali
localidade
localidades
localidadi
localis
localizada
localizadas
localizadu
localizat
localizatzione
localmente
locarnu
location
loceri
loci
loco
locoe
locos
locu
locumotivas
locus
locusantu
locutores
locutzione
loddo
lode
lodi
lodine
log
loga
logale
logales
logalidade
logalidades
loggia
logi
logia
logica
logo
logos
lograda
logradu
lograre
lograt
logrende
logu
logudoresa
logudoresas
logudorese
logudoresos
logudoresu
logudoro
logus
logusantu
logutenente
loi
loire
lola
lomax
lombarda
lombardas
lombardi
lombardia
lombardo
lombardu
lompende
lompent
lompet
lompi
lompiat
lompiri
lompit
lompiu
london
londra
londres
lonely
long
longa
longamente
longanesi
longaria
longas
longhesa
longitu
longo
longobarda
longobardo
longobardos
longobardu
longos
longu
longumetra
longumotera
longus
lontano
lontanu
look
looking
lopez
lorca
lord
lordi
loredana
lorena
lorenzo
loreto
lori
loro
lortat
lorziana
los
losa
losas
lost
lostia
lotta
lotte
lotzorai
lou
loud
louis
louise
louisiana
louisville
louvre
love
lovecraft
lover
lovers
loves
loving
low
lower
loy
loyola
lp
lr
lsc
lsinki
lsp
lsu
ltd
lter
ltica
lticas
lticos
lticu
ltiplas
ltiplos
ltiplu
ltskog
ltzer
lu
lua
lubiana
lubu
luc
luca
lucas
lucca
luce
luche
luchia
luchino
luci
lucia
luciana
luciano
luciferu
lucio
lucky
lucrezia
lucrezio
lucy
ludovico
ludovisi
ludu
ludwig
luego
luegus
lugano
lugansk
luganu
lughe
lughente
lughes
lughia
lughidore
luglio
lugore
lui
luigi
luigiladu
luis
luisa
luisi
luissione
luisu
luiz
luka
lukashenko
lula
lumen
lumene
luminosa
luminosu
lumpur
luna
lunada
lunare
lunari
lunas
lunedi
lunga
lungo
lungometraggio
lungone
lungoni
luni
lunis
luoghi
luogo
lupinu
lupo
luporini
lupu
luras
lusa
lusaka
lussemburgu
lussu
lussurgiu
lussurzu
luta
lutas
luterana
lutero
luther
lutocisterna
lutone
lutta
lutto
lutu
luxenti
luxi
luxia
luz
lv
lvaro
lvere
lvida
lvidas
lvidu
lviv
lwn
ly
lycoperdon
lydia
lynch
lyngstad
lynn
lyon
lyra
lzu
m
ma
maarten
maastricht
maathai
mabel
mac
macao
macarrones
macau
macbeth
macchias
macchina
macchinas
maccioni
macdonald
macedonia
macerata
macero
machiavelli
machina
machinas
machine
macintosh
mackenzie
macmillan
macomer
macondo
macos
macro
macron
macroregiones
macrosco
macu
macumere
mad
madagasca
madagascar
madalena
madame
madau
madawaska
maddalena
maddie
made
madeira
mades
madesani
madison
madness
madonna
madre
madrid
madrighe
madura
madurat
maduresa
maduros
maduru
mae
maenza
maesta
maestrale
maestrat
maestri
maestro
maffei
mafia
magadan
magasinos
magasinu
magazine
magdalena
magdeburg
maggie
maggio
maggiore
maggiori
maghia
maghreb
magia
magic
magica
magical
magico
magiori
magister
magistradu
magistrale
magistrau
magma
magna
magnani
magne
magni
magnitu
magnitudo
magno
magnum
magnus
mago
magra
magrana
magreb
magu
magus
magyar
maha
mahatma
mahlsdorf
mahmood
mahmoud
mai
maia
maidan
maiden
maiella
mail
mailing
maimone
main
maine
mainz
maior
maiorca
maiori
mais
maistra
maistros
maistru
maistu
maiu
maja
majakovskij
majo
major
majorca
majore
majores
majori
majoria
majorita
majority
maju
majuro
make
makeba
makes
making
makoto
maktoum
mal
mala
malabo
maladi
maladia
maladias
malai
malaidos
malaidu
malaria
malas
malaspina
malaspinas
malassortadu
malattia
malawi
malcolm
maldivas
male
malecuntentu
males
malesa
malesu
malformed
malfoy
malga
mali
malley
mallorca
malloreddus
malos
malpensa
malta
maltesu
malu
malufaghedores
malus
malvasia
malvestiti
mama
mamangkakis
mamas
mambo
mambro
mameli
mamentos
mamentu
mami
mamiferu
mamma
mammi
mamoiada
mamujada
mamujadinu
mamuthone
mamuthones
man
mana
manacor
management
manager
manai
manama
manca
mancada
mancadu
mancai
mancant
mancantzia
mancare
mancares
mancari
mancat
mancha
manchester
mancia
manciata
mancinelli
mancini
manconi
mancosu
mancu
mancuna
manda
mandada
mandados
mandadu
mandamentu
mandare
mandarinu
mandas
mandat
mandato
mandau
mandel
mandela
mandende
mandica
mandigada
mandigana
mandigare
mandigat
mandigu
mandos
mandra
mandrolisai
mandu
mane
manera
maneras
manfredi
manfredo
manga
mangaka
manganelli
mangianu
mangoni
manhattan
mani
mania
maniera
maniestos
manifatura
manifestada
manifestadas
manifestadu
manifestant
manifestantes
manifestare
manifestat
manifestatzione
manifestatziones
manifestende
manifesto
manifestu
maniga
manigiadore
manigiadu
manigiai
manigiare
manigu
manila
manio
manipulatzione
manitoba
manlio
mann
manna
mannaria
mannas
mannesa
manni
manno
mannoi
mannoia
mannos
mannu
mannus
mano
manon
manos
manoscritto
manovra
mansio
manta
mantas
mante
manteddu
mantenende
mantenent
mantenet
manteni
manteniant
manteniat
mantenidura
mantenimentu
mantenner
mantenni
mantennidu
mantenta
mantentu
mantesa
mantessi
mantesu
mantova
mantza
mantzas
manu
manuale
manuales
manuals
manuel
manuela
manuelle
manufatos
manus
manuscritos
manuscritu
many
manzanu
manzoni
mao
maoma
maori
map
mapa
mapas
maps
maputo
mar
mara
maracalagonis
maran
marassi
maratona
marc
marca
marcada
marcadas
marcados
marcadu
marcadura
marcare
marcas
marcat
marcel
marcella
marcello
march
marche
marchende
marchesa
marchesadu
marchesas
marchesato
marchesau
marchese
marchesi
marchesos
marchesu
marchi
marcia
marco
marconi
marcos
marcu
marcus
marcuse
mare
marea
mareas
maremma
mares
maresciallu
marfilu
margaret
margarida
margherita
marghine
margiani
marguerite
mari
maria
mariana
mariane
mariani
marianna
mariannabussalai
mariannas
marianne
mariano
mariantonietta
marianu
maridos
maridu
marie
mariedda
marigosu
marigot
marijuana
marin
marina
marinai
marinaras
marinas
marine
mariner
marinera
marineras
marineri
marineris
marini
marino
marinos
marinu
mario
marionettas
mariposa
mariposas
maris
marisa
maristella
marjorie
mark
market
marketing
markup
marlene
marmaru
marmidda
marmilla
marmora
marocco
maroco
marok
marongiu
marquez
marras
marro
marrocu
marrone
marru
mars
marsalis
marseille
marsella
marshall
marsi
marsiglia
marsilio
marta
marte
marteddos
marteddu
martedi
martha
marti
martian
martin
martine
martinenc
martinez
martini
martinica
martino
martinu
martire
martires
martiri
martiriu
martis
martu
marty
martza
martziale
martzu
marvel
marx
marxismu
marxista
mary
maryland
marzahn
marzo
marzu
mas
masaccio
masala
masaprestu
mascagni
mascame
mascamente
maschere
maschile
mascimamenti
mascios
masciu
mascrismu
mascros
mascru
mascu
masculina
masculinos
masculinu
masedu
masellu
masia
masih
masone
masones
mass
massa
massachusetts
massacros
massacru
massaiu
massajos
massaju
massaria
massas
masse
massima
massimamente
massimas
massimiliano
massimo
massimos
massimu
massitza
massitzu
massiva
massivas
massivos
massivu
master
masters
mastino
mastinu
mastra
mastrocinque
mastros
mastru
masu
masuddas
mat
mata
matas
match
mate
matema
matematica
matematicu
mater
matera
materia
material
materiale
materiales
materiali
materialis
materias
materna
maternas
maternu
matessi
matessis
mateu
mathbb
mathbf
mathematics
mathieu
mathit
mathrm
matilda
matita
matone
matonellas
matones
matrimo
matrimonio
matrix
matt
matta
mattei
matteo
matteotti
matter
matteu
mattheu
matthew
mattia
mattina
matto
mattoli
mattone
mattu
maturidade
maturita
matze
matzedo
matzeu
matzone
mau
mauri
maurice
mauricio
maurita
mauritania
mauritius
maurizio
mauro
mauru
mausoleu
max
maxi
maxia
maxim
maxwell
maxxi
may
maya
mayor
mayori
mayotte
mayu
mazore
mazores
mazza
mazzini
mazzotta
mazzotti
mb
mba
mbabane
mbara
mbaras
mbas
mbe
mbene
mbia
mbiant
mbiat
mbios
mbitos
mbitu
mbiu
mbolu
mbox
mbria
mbulos
mbulu
mc
mca
mccartney
mcculloch
mcdonald
mcgraw
mclaughlin
mcmahon
mcmicrocomputer
mcveigh
md
me
mea
mean
meana
meaning
means
meas
measures
meca
mecanismos
mecanismu
mecca
meccanica
meccanicas
mecenate
mecklenburg
meclemburgu
med
meda
medade
medaglia
medal
medalla
medas
medea
medi
media
mediamente
mediana
medianeristas
mediante
medianu
mediaset
mediatzione
medical
medici
medicina
medicine
medico
medicu
medida
medidas
medidu
medieval
medievale
medievales
medievali
medina
medio
mediocampidano
medioevale
medioevali
medioevo
medioevu
mediometraggio
mediorientale
medios
mediovale
mediovo
medire
medit
mediterra
mediterranea
mediterranean
mediterraneas
mediterranee
mediterranei
mediterraneo
mediterraneu
mediu
medium
medusa
medvedev
meet
meeting
mega
megali
megalitismo
megalitismu
megalitos
megioradu
megiorare
megiorende
megioros
megioru
megius
meglio
mehmet
mei
meidade
meighina
meighinas
meigu
meiji
meilogu
mein
meita
meitade
meixina
mekong
mel
mela
melane
melbourne
melchiorre
mele
meli
melilla
melina
melis
melissa
melkiorre
mellifera
mello
mellus
melo
melodia
meloni
melqui
melville
member
members
membership
membranas
membros
membru
membrus
meme
memo
memoirs
memoria
memorial
memoriale
memorias
memorie
memories
memory
memphis
men
mena
menada
menadu
menant
menat
mendicanti
mendoza
mene
menes
mengianu
menguare
menhir
menhirs
menispre
mennea
meno
menor
menorca
menos
mensching
mensile
menta
mentale
mentales
mentalidade
mente
menti
menton
mentovada
mentovadas
mentovados
mentovadu
mentovamus
mentovare
mentovat
mentovu
mentras
mentre
mentres
mentris
mentu
menu
menus
menzus
meo
meos
mer
mera
meras
meravi
meravigliosa
merca
mercaderis
mercaderos
mercados
mercadu
mercantes
mercantile
mercantiles
mercantzia
mercantzias
mercato
mercau
mercedes
mercer
mercu
mercurio
mercuris
mercuriu
mercury
mere
merengues
meres
mereu
meri
meria
meridiana
meridiani
meridianu
meridionale
meridionales
meridionali
meridione
meridioni
merie
meriesa
meris
meritu
merleau
mermaid
mermos
mermu
mero
meros
merriam
merton
mertze
mertzena
mertzes
mertzioro
mertzu
meru
mes
mesa
mesan
mesana
mesani
mesania
mesanu
mesapare
mesas
mesaustu
mescame
mescamente
mesche
mesches
mese
meses
mesi
mesina
mesis
mesoli
mesopota
mesopotamia
messa
message
messageria
messaggero
messaging
messajus
messaria
messenger
messia
messicana
messicanos
messicanu
messico
messicu
messina
mesu
mesudie
mesuevu
mesumundu
mesura
mesurada
mesurados
mesurare
mesuras
mesurat
mesures
mesus
mesuterranu
met
meta
metabolismu
metabrainz
metacritic
metaddu
metade
metades
metadi
metafi
metafonesi
metal
metalla
metallica
metallos
metallu
metallurgia
metanu
metas
mete
meteo
meteorolo
meteorologia
metheny
method
metodi
metodo
metodologia
metodologias
metodos
metodu
metres
metri
metrica
metro
metrologia
metropoli
metropolita
metropolitan
metropolitana
metropolitanas
metropolitanos
metropolitanu
metros
metru
metrus
metz
meu
meus
mexico
meyer
mez
mezoradu
mezorare
mezus
mezza
mezzanotte
mezzo
mezzogiorno
mg
mhz
mi
mia
miali
mialinu
miami
mias
mica
micamente
micas
micca
michael
michail
michalis
michel
michela
michelangelo
michele
micheli
michelle
michigan
michoaca
mick
mickey
micos
micro
microbial
microbiol
microbiologia
microbiology
microne
microorganismos
microsco
microsoft
micu
micus
mida
midas
middle
mide
midi
midos
midu
midway
midwest
mie
miei
mies
mifflin
mig
miga
migas
mighele
migheli
mighty
miglio
miglior
migliore
migliori
migos
migration
migrato
migratzione
migratziones
migu
miguel
mike
mikhail
mil
mila
milan
milanesa
milanesas
milanese
milanesos
milanesu
milani
milano
milanu
mile
milena
miles
mili
miliardos
miliardus
milione
miliones
milioni
milionis
milis
milita
militadu
militante
militantes
militare
militares
militari
militaris
militarmente
military
mill
milla
mille
millelire
millena
millennio
millenniu
millennium
miller
milli
milliardos
milliardu
milliardus
million
millione
milliones
millionis
milliotughentos
millis
millisecundos
milt
milton
milwaukee
mimesis
mimi
mimmo
min
mina
minaccia
minadores
minadoris
minant
minas
minat
mind
mine
minera
minerale
minerales
minerali
mineralis
mineraria
mineras
mineris
minerva
mines
minetza
minetzadu
minetzare
minetzas
mingiu
minh
mini
miniera
minieras
miniere
minima
minimada
minimadu
minimai
minimare
minimende
minimonzu
minimu
minis
miniserie
ministe
minister
ministero
ministeru
ministra
ministro
ministros
ministru
minix
minneapolis
minnesota
mino
minor
minora
minoranza
minoranze
minoras
minorca
minore
minoredda
minoreddas
minoreddedda
minoreddos
minoreddu
minores
minori
minoria
minorias
minoris
minorita
minoritarie
minorities
minority
minoriu
minos
minsk
minu
minuda
minudas
minudu
minuit
minujas
minutes
minuti
minuto
minutos
minutu
minutus
mio
mios
mips
miquel
miquelon
mir
mira
miracoli
miracolo
mirada
miradore
mirage
miraiat
miranda
mirare
miras
mirat
mireille
miri
miriam
miris
mirko
mirror
mirto
misaki
misandria
miscela
miscellanea
mise
mismo
misoginia
miss
missa
missadas
missili
missing
mission
missiona
missionarios
missionariu
missione
missiones
missioni
missionis
mississippi
missiva
missouri
missu
miste
mister
misterios
misteriosa
misteriosu
mistero
mistral
mistras
mistura
misturu
misura
mit
mitade
mitant
mitat
mitchell
mite
mites
miti
mito
mitochondrial
mitolo
mitologia
mitos
mitrus
mitte
mitu
mitza
mitzas
miu
mius
mix
miyazaki
miza
mizas
mk
mks
ml
mm
mme
mmia
mmo
mn
mo
mob
mobi
mobile
mobilidade
moccia
moda
modalidade
modalidades
modalidadi
modas
modde
moddes
modditzi
mode
model
modella
modellos
modellu
modena
moderada
moderadas
moderados
moderadu
modern
moderna
modernas
moderne
moderni
modernidade
modernismu
modernista
modernita
modernizatzione
modernizzazione
moderno
modernos
modernu
modernus
modesta
modestu
modi
modifica
modificada
modificadas
modificados
modificadu
modificare
modificas
modifichende
modo
modos
modu
modugno
moeddu
moende
moent
moet
moglie
mogorese
mogoresu
mogoro
mohamed
mohammad
mohammed
moholy
moi
moiat
moida
moimentos
moimentu
moires
mol
mola
molar
molare
molas
molda
moldava
moldavia
moldavos
moldavu
moldova
mole
molecolare
moleculare
molente
moles
molie
molinos
molins
molinu
molise
moll
mollos
mollu
molotov
molta
molti
molto
molu
moment
momento
momentos
moments
momentu
momigliano
mommsen
mon
mona
monachesimu
monachus
monaco
monacos
monacu
monarca
monarchia
monaste
monasterios
monasteriu
monasteru
monasticu
mondadori
monde
mondi
mondiale
mondiali
mondo
mondrian
moneda
monedas
moneta
monetazione
monete
money
monferrato
mongili
mongo
moni
monica
monicelli
monie
monitor
monitoraggio
monk
monkey
monkeypox
monkeys
mono
monoato
monografia
monografie
monoli
mononota
monopo
monreale
mons
monserrat
monserrato
monster
monsters
mont
montados
montagna
montagnas
montagnina
montagnino
montaigne
montana
montanaru
montanas
montarbu
montare
montasio
monte
montecassino
monteferru
monteleone
montenegro
montenegru
monteponi
montes
montessori
montevecchio
montevideo
montgomery
month
monti
montiel
montiferru
montigheddu
montigros
montigrosu
montigru
montiju
montis
montjui
montologia
montology
montosa
montosas
montosu
montpellier
montre
montreal
montserrat
monumentale
monumentales
monumenti
monumento
monumentos
monumentu
monumentus
monviso
monza
monzas
mood
moody
moon
moore
mor
mora
moraes
morale
morales
morali
moralista
morandi
moravetti
more
morelli
mores
moresby
moretti
morfolo
morfologia
morgan
morgana
morgen
mori
moriant
moriat
moribundu
moridi
morint
morire
morisca
moriscos
moriscu
morit
morning
moro
moroni
moros
morra
morrer
morrere
morri
morris
morrison
morse
mort
morta
mortale
mortales
mortalidade
mortas
morte
mortes
morti
morto
morton
mortore
mortores
mortorzos
mortorzu
mortos
mortoxu
mortu
mortus
morty
moru
morus
mos
mosa
mosaicos
mosca
moschea
moscheas
moscote
mose
mosella
moser
moses
mossa
most
mostra
mostre
mostri
mostro
mostros
mostru
mostu
mother
moti
motion
motivadu
motivatzione
motivatziones
motivos
motivu
moto
motore
motores
motori
motorola
motos
motta
mottu
motu
mou
mount
mountain
mountains
mouse
mouton
movement
movements
movende
movent
movere
movet
movi
movie
movimento
movimentos
movimentu
movimentus
movimiento
moyen
mozambicu
mozart
mozilla
mp
mpada
mpadas
mper
mperas
mpere
mpet
mpia
mpiat
mpicos
mpicu
mpida
mpidas
mpidos
mpidu
mpigos
mpigu
mpios
mpiri
mpitu
mpiu
mpius
mplicat
mpora
mporat
mpru
mpus
mr
mreca
mrexani
ms
msdmanuals
msn
mt
mtv
mu
mucadore
much
mud
muda
mudada
mudadas
mudados
mudadu
mudadura
mudaduras
mudai
mudamentos
mudamentu
mudant
mudare
mudas
mudat
mudau
muddy
mudegru
mudende
mudi
mudu
muerto
muertos
mugabe
mugere
muggini
mugheddu
muhammad
mui
muisca
muja
mujahid
mukwege
mula
mulas
mulatos
mule
mulino
mulinu
mulleri
mulos
multa
multi
multie
multilingualism
multimedia
multimediale
multimediales
multinatzionale
multinatzionales
multiplex
multiplicare
mulu
mumbai
mun
munari
mundana
mundial
mundiale
mundiales
mundiali
mundialis
mundo
mundos
mundu
mundus
munici
municipal
municipium
muninca
munitzi
munitzipale
munitzipales
munitzipalidade
munitzipalidades
muntagna
muntagninos
munto
muntone
muntoni
munu
muore
mura
murad
murada
muraglias
murales
muralla
muratori
muravera
murcia
murdegu
murder
mureddu
murenu
murera
murgia
muri
murichessa
muridke
muriel
murillo
murineddu
muristenes
muristenis
muro
murolo
muroni
muros
murphy
murra
murray
murru
mursia
murta
murtala
murtas
murtatzolu
muru
murus
mus
musa
musas
musca
muscas
muse
museale
musei
museo
museos
musetu
museu
museum
music
musica
musical
musicale
musicales
musicali
musicas
musicbrainz
musiche
musicista
musicistas
musico
musiga
musigale
musigales
musique
musitzista
musitzistas
muslim
muslims
musso
mussolini
must
mustafa
mustra
mustradu
mustrant
mustrare
mustras
mustrat
mustrende
mustu
musulmana
musulmanas
musulmanos
musulmanu
musulmanus
muta
mutettu
muti
mutiat
mutida
mutidas
mutidos
mutidu
mutint
mutire
mutit
mutiu
mutos
mutti
muttos
muttu
mutua
muze
muzere
mvc
mx
my
myanma
myanmar
myblog
myers
myself
myspace
mysterious
mysterium
mystery
myth
myths
n
na
nabat
naca
nacas
nach
nacio
nacional
naco
nacu
nada
nadadorzos
nadadorzu
nadale
nadali
nadas
nadia
nadias
nadies
nadios
nadiu
nados
nadu
nae
naes
naga
nagasaki
nagorno
nagu
nagy
nai
nairobi
naitza
nama
name
named
names
nami
naming
nana
nanas
nanchi
nancy
nande
nang
nanna
nannai
nanni
nanos
nant
nanta
nantes
nanu
napoleo
napoleon
napoleone
napoleoni
napoletana
napoletanu
napoli
napolione
napuletana
napuletanas
napuletanu
napulitanu
nara
narabat
narabuia
narada
naradas
narados
naradu
narai
naraiant
naraiat
naramus
naran
narande
narant
narara
narat
narau
naraus
narba
narbona
narbonne
nare
narende
narendi
nari
narradore
narrante
narrare
narrat
narrativa
narrativas
narrative
narrativu
narratori
narratzione
narre
narrer
narrere
narri
nartzisu
nas
nasa
nasce
nasche
naschede
naschende
naschent
naschere
naschet
naschiat
naschida
naschidas
naschidos
naschidu
naschimentu
naschint
naschire
naschit
naschitu
naschiu
nasci
nascia
nascimentu
nasciri
nascit
nascita
nasciu
nascius
nascosto
nash
nashville
naskida
naskidu
naso
nassau
nassionale
nassionales
nassionalidade
nassione
nassiones
nasu
nat
nata
natale
natasha
nathan
nation
national
nationale
nationalism
nations
nativa
nativas
native
nativos
nativu
nato
natur
natura
natural
naturale
naturales
naturali
naturalis
naturalista
naturalizadu
naturalizzadu
naturalmente
naturas
nature
natz
natzionale
natzionales
natzionali
natzionalidade
natzionalidades
natzionalis
natzionalismu
natzionalista
natzionalistas
natzione
natziones
natzioni
natzionis
nau
nauru
nava
navada
navadas
navajo
naval
navale
navales
navalmoral
navarra
navas
nave
navegadura
naves
navi
naviga
navigadore
navigadores
navigadori
navigadoris
navigare
navigatzione
navios
navos
navy
nazaret
nazi
nazionale
nazionali
nazionalis
nazione
nazioni
nazionis
nazismu
nazista
nazistas
nbc
nberg
nc
nca
ncaru
ncas
ncbi
nch
nche
nchen
nchere
nchez
nchi
nchida
nchidu
nci
ncia
ncies
ncipe
ncora
ncoras
ncorat
ncov
ncu
ncua
nculos
nculu
nd
nda
ndala
ndalas
ndalos
ndalu
ndalus
ndas
ndat
nde
ndebi
ndeche
ndela
ndeli
nden
nder
ndere
ndesi
ndet
ndez
ndi
ndia
ndias
ndichi
ndida
ndidas
ndidos
ndidu
ndigat
ndighi
ndigos
ndigu
ndios
nditat
nditze
ndiu
ndius
ndixi
ndo
ndria
ndriu
ndrome
ndu
ndula
ndulas
ndulu
ne
nea
neapolis
neapolitani
near
neas
nebode
nebodes
nebraska
necessario
necessidadi
necessita
neck
necro
necropoli
necropolis
need
neerlandia
negadu
negant
negativa
negativas
negativos
negativu
negatzionismu
negau
neghe
neglect
negli
nego
negotziados
negotziadu
negotziatziones
negra
negri
negro
nei
neil
neke
nel
nell
nella
nelle
nello
nelly
nelson
nema
nemancu
nemas
nemigos
nemmancu
nemos
nemus
nen
nenaldu
nende
nent
neo
neocla
neolatinas
neolatine
neoli
neolitica
neolitico
neoliticu
neon
neoneli
neos
nepa
nepal
nepalesu
nera
neras
nerat
nere
neres
neri
nero
nerone
neros
neru
nes
nesi
nespoli
nessi
nessuno
net
neta
netas
netflix
netherlands
netos
nettunu
netu
netunu
network
networks
netze
netzessa
netzessariamente
netzessidade
netzessidades
neu
neue
neufeld
neuilly
neula
neumann
neunele
neuro
neurolo
neurosie
neutrale
neutrali
neutralidade
neutro
neutrones
neutru
nevada
nevastri
never
nevis
new
newark
newfoundland
newman
news
newspaper
newsweek
newton
newtoniana
newtons
nexi
next
nez
ng
ngara
ngaros
ngaru
ngel
nger
nghelos
nghelu
ngher
nghere
nghet
nghida
nghidu
ngia
ngiant
ngias
ngiat
ngio
ngios
ngiu
ngius
ngolu
ngua
nguas
ngue
ngues
ngula
ngulas
ngulos
ngulu
nh
nha
nhausen
nhk
ni
nia
niada
niadas
niagara
niamey
niant
nias
niat
nibba
nic
nica
nicanor
nicant
nicara
nicaragua
nicas
nicat
niccolo
nice
nicea
niche
nichel
nicholas
nichols
nicholson
nicht
nick
nico
nicola
nicolae
nicolas
nicolau
nicolaus
nicole
nicoletta
nicolo
nicos
nicosia
nicu
nicus
nida
nide
nides
nidos
nidu
nie
niedda
nieddas
nieddos
nieddu
niederscho
niemo
niente
nies
niffoi
niga
nigas
nige
nigel
niger
nigeria
nigerianos
nighe
nighedda
nigheddu
night
nightingale
nights
nigola
nigos
nigsberg
nigu
nih
nihon
nihonjinron
nika
nikah
nike
nikos
nilo
nilu
nima
nimancu
nimant
nimas
nimat
nime
nimmancu
nimos
nimu
nimus
nin
nina
nine
ninetta
ninive
ninja
ninni
nino
nint
nintendo
nio
nioi
nios
nippon
niri
nirva
nirvana
nis
nisciuna
nisciunu
nisi
nissa
nissuna
nissunu
nist
nit
nitro
nitza
nitzas
niu
niuna
niunu
nivola
nix
nixon
nizza
nkvd
nl
nliu
nlm
nm
nn
nna
nnaru
nnas
nnat
nne
nner
nnere
nneret
nneros
nneru
nni
nnia
nnias
nniat
nnica
nnicas
nnicos
nnicu
nnicus
nnida
nnidas
nnidos
nnidu
nniga
nnigas
nnigos
nnigu
nnios
nniri
nniu
nnius
nnos
nnu
no
noa
noam
noantamas
noantimes
noas
noba
nobel
nobelprize
nobile
nobiles
nobilesa
nobili
nobilia
nobiliare
nobilis
nobiltade
nobis
noble
nobody
nodia
nodida
nodidas
nodidos
nodidu
nodiu
nodos
nodu
nodus
noe
noel
noemi
nogueira
noi
noighentos
nointames
noir
noirs
nois
noise
noixentus
nokia
nola
nolan
nolitados
nolitadu
nom
noma
nomas
nombre
nome
nomen
nomenada
nomenadas
nomenadu
nomenau
nomenaus
nomencladura
nomenclature
nomene
nomenes
nomes
nomi
nomia
nomina
nominada
nominados
nominadu
nominale
nomination
nominations
nominau
nomine
nomingiu
nomini
nominzu
nomos
nomu
nomus
non
nones
nonna
nonnu
nono
nonostante
nonu
noos
nop
nor
nora
noragu
noragugume
noranta
norcia
nord
norda
nordafrica
nordafricana
nordame
nordamerica
nordamericana
nordamericanas
nordamericanos
nordamericanu
nordicos
nordrhein
nordu
norfolk
norm
norma
normale
normales
normalidade
normalizadores
normalizatzione
normalmente
normalmenti
norman
normandia
normanna
normannos
normannu
normarmente
normas
normativa
normativas
normativu
norme
norrenu
norte
north
northern
northwest
norti
norton
norve
norvegesa
norvegesos
norvegesu
norvegia
norway
nos
nosi
nossa
nosta
nostamis
nostra
nostras
nostre
nostri
nostro
nostros
nostru
nostu
nosu
not
nota
notadu
notai
notant
notare
notas
notat
notatzione
note
notes
notevole
nothing
noti
noticias
notizia
notizias
notizie
noto
notoriedade
notre
notte
notti
notu
nou
nous
nouveau
nouvelle
nouvelles
nov
nova
novadores
novanta
novara
novas
nove
novecento
novel
novella
novellas
novelle
novels
november
novembre
novena
novi
noviche
novidade
novidades
novita
novo
novos
novu
novus
now
nowhere
nozze
npl
npr
nr
ns
nsarchive
nscritu
nsdap
nsia
nsitu
nsole
nssdc
nster
nsula
nsule
nsules
nt
nta
ntara
ntaru
ntas
ntat
nte
ntegrat
ntene
nteri
nternet
ntes
ntesi
ntesis
nti
ntica
nticas
nticos
nticu
ntidu
ntigos
ntigu
ntinas
ntis
ntiu
ntomos
ntos
ntova
ntras
ntrica
ntropos
ntropu
ntru
ntu
ntumes
nturu
ntzas
ntzat
ntzi
ntzia
ntziant
ntzias
ntziat
ntzigu
ntzios
ntzipe
ntzipes
ntziu
ntzu
ntzula
nu
nua
nucle
nuclear
nucleare
nucleares
nucleari
nuclearis
nucleotides
nudda
nudo
nudu
nue
nues
nuestra
nueva
nuevo
nug
nughe
nughedu
nughes
nugoresa
nugoresos
nugoresu
nugoro
nugurbi
nui
nuis
nuit
nule
nulla
nullu
nulos
number
numbers
nume
numenada
numenadas
numenados
numenadu
numenadura
numenale
numenare
numene
numeratzione
numeri
numero
numeros
numerosa
numerosas
numerosos
numerosu
numeru
numisma
nun
nunavut
nunzio
nuorese
nuoresi
nuoro
nuova
nuove
nuovi
nuovo
nur
nura
nurache
nurachi
nuradda
nuraghe
nuraghes
nuraghesa
nuraghesas
nuraghesos
nuraghesu
nuraghi
nuragica
nuragico
nuragicu
nuragus
nurake
nuraxi
nuraxis
nurighe
nurra
nurri
nus
nuto
nutzola
nuu
nuvole
nuxedda
nuxi
nuxis
ny
nya
nytimes
nyy
nza
nzat
nzelu
nzos
nzu
nzus
o
oak
oakland
oasi
oaxaca
ob
obama
obera
oberas
oberbaumbru
oberta
obertu
obietivos
obietivu
obietivus
obiettivu
obino
obispadu
obispale
obispali
obitadu
object
oblast
obligados
obligadu
obligare
obligato
obra
obrativu
obres
obrigado
obrigadu
obrigadura
obrigato
observatory
oburu
oc
oca
ocannu
ocasionale
ocasione
ocasiones
ocasioni
ocasionis
occasione
occasioni
occhi
occhio
occidental
occidentale
occidentali
occidente
occupada
occupadu
occupat
occupatzione
oce
ocean
oceania
oceano
oceanu
oche
ochi
ochida
ochidas
ochido
ochidos
ochidu
ochidura
ochiende
ochier
ochiet
ochire
ochisura
ochit
ocidentali
ocidentalis
oclc
oclusivas
ocra
ocros
ocru
ocse
october
octubre
ocupada
ocupadas
ocupadores
ocupados
ocupadu
ocupaiant
ocupaiat
ocupare
ocupat
ocupatzione
ocupau
ocupende
ocurre
od
odeon
oder
odessa
odierna
odissea
odoacre
odos
odu
odyssey
oe
of
ofe
ofensiva
oferiat
oferint
oferit
oferta
ofertas
ofertu
off
offe
offerta
office
officer
officers
official
officially
officials
officina
offissiali
offitziale
offitziali
ofi
oficial
ofissiali
ofitziale
ofitziales
ofitziali
og
oganesson
ogare
ogetos
ogetu
ogetus
oggetto
oggi
oghe
ogiastra
ogliastra
ogna
ognassantu
ogni
ognia
ognunu
ograda
ographie
ogros
ogru
ogu
oguali
ogus
oh
ohio
ohm
ohne
oi
oil
oindii
oip
ois
oise
oje
ojos
ok
okhlobystin
okinawa
oklahoma
ol
ola
olanda
olandesa
olandesas
olandesos
olandesu
olas
olbia
olbiacalcio
olbrich
old
oldman
ole
olga
oli
olia
oliana
olias
oliena
olimpi
olimpia
olimpiades
olimpiadi
olimpico
olio
oliva
olivarios
oliveira
oliver
oliveri
olivetti
olivieri
olla
ollasta
ollastra
olleras
ollolai
ollollai
ollu
oloca
olos
olta
oltre
oltremare
olu
olympia
olzai
oma
omaggio
omaha
omar
omayyade
ombra
ombre
omega
omero
omi
omicidio
omine
omines
omini
ominis
omnia
omo
omodeo
omoge
omonima
omonimo
omonimu
omosessuale
omosessuales
omosessualidade
oms
omundson
on
ona
onani
onanie
once
onda
ondarock
ondra
ondras
one
oneglia
onesta
oneste
ong
oniai
onieri
onitsha
online
onlus
only
onne
onni
onnia
onniasanti
onniasantu
onnipotente
onnis
onniunu
ono
onoma
onora
onorare
onoraria
onorario
onorau
onore
onores
onori
onryo
ons
onta
ontario
onu
onzi
oos
op
ope
opec
open
opening
opera
operadore
operadores
operadoris
operadu
operadura
operaduras
operai
operaia
operaiant
operaiat
operaio
operaja
operajos
operaju
operare
operas
operat
operating
operation
operations
operativa
operativas
operativos
operativu
operatorname
operatzione
operatziones
operazione
operazioni
opere
operende
operetta
opinion
opinione
opiniones
opinioni
opinionis
opo
oponende
oponiat
oponidura
oporto
oportuna
oportunidade
oportunidades
oposidores
oposidura
opositzione
oposta
opostas
opostos
opostu
oppenheimer
oppidum
oppo
opposition
oppuru
opressione
opuru
opus
or
ora
oradea
oral
orale
orales
orama
oramai
orane
orange
orani
oras
orato
orazio
orbatze
orbita
orbitale
orbitali
orchestra
orchidea
orchideas
orcu
order
ordered
ordi
ordina
ordinada
ordinadu
ordinamentu
ordinare
ordinaria
ordinatzioni
ordinau
ordine
ordines
ordingiada
ordingiadu
ordingiare
ordini
ore
orecchio
oregon
oremari
oreste
orfici
org
orga
organ
organica
organisation
organismos
organisms
organismu
organismus
organista
organitzazione
organizada
organizadas
organizadores
organizados
organizadu
organizadura
organizaduras
organizant
organizare
organizat
organization
organizatzione
organizatziones
organizatzioni
organizatzionis
organizau
organizing
organizzazione
organs
organu
orgia
orgiu
orgo
orgoglio
orgolesos
orgosolo
ori
orientada
orientadu
oriental
orientale
orientales
orientali
orientalis
orientamentos
orientamentu
orientare
orientation
oriente
orienti
origin
origina
originada
originadu
original
originale
originales
originali
originalidade
originaria
originariamente
originariu
origine
origines
origini
originiariamente
origins
origoni
origra
oris
oristanis
oristano
orizinale
orizinarmente
orizine
orizontale
orizontales
orizonte
orlando
orle
orleans
ormai
orme
ormonale
ornamentu
ornella
ornitologia
oro
oros
orosei
oroteddi
orroli
orrore
orru
orrubia
orsay
orso
orta
ortacesus
ortali
ortaliscia
ortas
orthulle
ortigru
ortigu
ortiz
orto
ortobene
ortodossa
ortodossos
ortodossu
ortogra
ortografia
ortografico
ortos
ortu
ortueri
ortzai
oru
orune
orvieto
orwell
orzocor
os
osama
osbourne
oscar
oscheri
oschiri
oscura
osi
osidda
osidde
osile
osini
oslo
osos
ospedale
ospite
ospitone
osse
osserva
osservada
osservadore
osservadores
osservados
osservadu
osservare
osservat
osservato
osservatorio
osservatoriu
osservatzione
osservatziones
osservatzioni
osservatzionis
ossessione
ossessivu
ossi
ossia
ossiat
ossidatzione
ossidiana
ossos
ossosu
ossu
ossus
osta
ostalgie
ostana
osteria
ostia
ostile
ostrogotos
osvaldo
otaku
otanta
otavas
otavianu
ote
otello
otenende
otenent
otenet
otenimentu
otenit
otenner
otenta
otentos
otentu
other
others
othieri
othoca
otieresu
otieri
otighentos
otis
oto
otomana
otomanas
otomanos
otomanu
otone
otros
ottana
ottava
ottavas
ottawa
otte
ottenidi
ottenit
ottighentos
otto
ottobre
ottocento
ottoman
ottomanu
otu
otuxentus
otzana
otze
otzea
otzeania
otzeanu
otzidentale
otzidentales
otzidentali
otzidente
otzidenti
otzita
otzitana
otzitania
otzitanu
ou
oud
our
ous
out
outbreak
outdoor
outlook
output
outre
ov
ovali
over
overas
overline
overrightarrow
overview
ovest
ovi
oviedo
ovodda
ovvero
ovverosiat
owen
own
oxford
oxfordshire
oz
ozastra
ozetos
ozettu
ozetu
ozieri
ozu
ozzastra
ozzy
p
pa
paba
pabas
pabillonis
pabilu
pabiru
pablo
pac
paca
pacare
pacas
pace
pache
pachete
pachetes
pachetu
pachetus
paci
paciencia
pacific
pacifico
pacificu
pacifista
pacino
packet
paco
pacos
pacu
padana
padania
padanu
pade
padente
padentes
padessende
padiglione
padova
padre
padres
padri
padria
padrino
padrone
padru
padu
paella
paesa
paesaggi
paesaggio
paesagi
paese
paesi
pag
paga
pagada
pagados
pagadu
pagai
pagaiat
pagamenta
pagamentu
pagana
pagani
paganini
pagano
paganos
pagare
pagas
pagat
page
pages
pagg
paghe
paghende
paghiosa
paghiosas
paghiosos
paghiosu
paghit
pagina
paginas
pagine
pagnano
pago
pagos
pagu
pagus
pai
paice
pair
pais
paisa
paisos
paisu
paisus
paja
pakista
pakistan
pakistanu
pal
pala
palabanda
palace
palas
palatina
palatinadu
palatos
palattos
palattu
palatu
palatziu
palatzos
palatzu
palau
palazzi
palazzo
palcu
pale
paleo
paleoli
paleolitico
paleonto
paleosardo
palermi
palermo
palermu
palestina
palestinesa
palestinesos
palestinesu
palestra
paleusardu
palgrave
pali
paliaccio
palinsestu
palla
pallacanestro
palladio
pallamanu
pallone
palloni
palm
palma
palmare
palmas
palmavera
palmiro
palomar
palos
palte
palu
palus
paluzzi
paluzzo
pamela
pamplona
pan
panada
panama
panda
pande
pandela
pandemia
pane
panedda
panes
pani
pankow
pannamenta
pannellos
panno
pannu
panora
panorama
pansessualidade
panta
pantaleo
pantasima
pantasimas
pantasma
pantera
pantheon
paola
paoli
paolo
paolofresu
papa
papadu
papai
papale
papant
papare
papas
papat
pape
paper
paperback
paperi
paperis
papers
papi
papiamentu
papiros
papore
pappai
pappare
par
para
parabola
parada
paradas
parade
paradigma
paradise
paradiso
paradisu
paradu
parafrinas
paragone
paraguay
paragula
paragulas
parallela
parallelamente
parallelas
parallelos
parallelu
paramilitare
paramilitares
paramount
parano
paranu
paranumenadu
parapsicologia
parare
pararutas
pararutistas
paras
parassitos
parat
paraula
paraulas
paravia
parco
parcos
parcu
parde
pardulas
pare
parede
paredes
paremighe
parent
parente
parentela
parentes
parenti
parentis
pares
paret
pari
pariant
pariat
parica
paricis
paridade
pariga
parigas
parigi
parinales
parint
paris
paristo
paristorias
parit
paritzas
paritzos
parizi
park
parker
parla
parlamentare
parlamentares
parlamentari
parlamento
parlamentos
parlamentu
parlano
parlanti
parlare
parlata
parliament
parma
parnaso
parodi
parodia
parodias
parola
parole
parque
parre
parrer
parri
parrint
parrit
parro
parrochiale
parrochiali
parseval
part
parte
partecipadu
partecipanti
partecipazione
partende
partendi
partenent
partenet
parteniant
parteniat
partenza
parteolla
partes
partetzipadu
partetzipadura
partetzipantes
partetzipare
partetzipatzione
partetzipende
parti
partiale
partiant
partias
particolare
particolari
particula
particulare
particulares
particulari
particularidade
particularidades
particularmente
partida
partidas
partidi
partido
partidos
partidu
partidura
partiduras
partidus
partighedda
partigheddas
partile
partinde
partint
partire
partiri
partis
partisanos
partisanu
partit
partita
partito
partitzione
partitzipadu
partitzipat
partner
parton
partu
party
partziale
partziales
partzialmente
partzida
partzidas
partzidos
partzidu
partzidura
partziduras
partzint
partzire
partzit
parusu
pas
pasada
pasare
pasca
pascal
pascale
paschedda
paschighedda
paschixedda
pascia
pascual
pasculos
pashtu
pasias
paska
paso
pasolini
pasqua
pasquale
pass
passa
passada
passadas
passaditzu
passados
passadu
passaggio
passaggiu
passai
passaiat
passant
passaportos
passaportu
passare
passat
passato
passau
passaus
passazu
passende
passendi
passeron
passi
passiente
passigeris
passigiada
passio
passion
passione
passiones
passioni
passiva
passivu
passizeri
passizeris
passo
passos
passu
past
pasta
pastor
pastorale
pastorali
pastore
pastores
pastori
pastoria
pastoris
pastoritzia
pastoriu
pastura
pasu
pat
pata
patada
patagonia
patata
patatas
patente
pater
paterna
paternidade
path
pati
patiat
patidu
patiolla
pato
patolo
patologia
patologias
patos
patri
patria
patriarca
patriarcale
patricia
patrick
patrimo
patrimonio
patrimonios
patrimoniu
patrio
patriota
patriottu
patriotu
patrizia
patron
patrona
patronos
patronu
patrotzi
patruno
pattada
pattadesa
patti
pattu
patu
patzi
patzientes
patzificu
pau
paui
paul
paula
paule
paules
pauli
paulinho
paulis
paulle
paulo
paulu
paura
pausa
pausania
pavarotti
pavel
pavese
pavia
pax
paxi
pays
paz
paza
pazina
pbs
pc
pci
pcs
pd
pdf
pdpa
pe
peace
peacock
pearl
pearson
peazu
pecados
peccados
peccato
peces
pechino
pechinu
peculiare
peculiares
peculiaridade
peculiaridades
pedago
pedde
peddes
peddi
pede
pedende
pedendi
pedersen
pedes
pedi
pediant
pediat
pedida
pedidas
pedidu
pedinde
pedint
pedire
pedit
pediu
pedra
pedras
pedres
pedro
pedrosa
pedrosu
pedru
pee
peemonte
peemontesa
peerla
pees
peggy
pegos
pegus
pei
peis
pejus
pel
pele
pelea
peleas
peli
pelle
pellegrina
pellegrinagios
pellegrini
pellegrino
pellegrinos
pellegrinu
pelli
pellicola
pellicula
peloponnesu
pelosi
pen
pena
penadorzu
penagos
penale
penales
penas
pende
penetratzione
penguin
peni
peninsula
peninsulare
penisola
penisula
penitentzia
penn
pennsylvania
penny
pensa
pensada
pensadore
pensadores
pensadu
pensai
pensaiat
pensamentos
pensamentu
pensamentus
pensant
pensare
pensat
pensau
pensende
pensieri
pensiero
pensione
penso
penta
pentzai
pentzamentu
pentzat
penu
people
peoples
pepe
pepinu
peppe
pepper
peppino
peppinu
per
pera
perant
peras
perat
peraula
peraulas
perbe
perca
percas
percentuali
perche
perchentos
perchentu
percorsi
percorso
percursos
percursu
percussion
percussiones
percussioni
percussionista
perda
perdas
perdende
perdent
perder
perdere
perdet
perdi
perdiat
perdida
perdidu
perdiri
perdit
perdita
perdiu
perdo
perdona
perdono
perdonu
perdu
pere
pereira
peres
perez
perfect
perfeta
perfetos
perfetta
perfetu
perfetzionamentu
perfetzione
perfilu
performance
pergamenas
pergola
pergolesi
peri
periculu
perie
perife
periferia
perigulosa
perigulosas
perigulosos
perigulosu
perigulu
perino
perio
periodo
periodu
peristantu
periudu
perla
perlongada
permane
permanent
permanente
permanentes
permanenti
permi
permissos
permissu
permitende
permitendi
permitent
permiter
permitet
permiti
permitiant
permitiat
permitint
permitit
permittit
permittiu
pero
peroe
peros
perou
perpe
perpetuada
perpetuadas
perpignanu
perra
perrault
perrica
perricada
perricadu
perricas
perrier
perry
persecutzione
persecutziones
persefone
persia
persiana
persianos
persianu
persico
persighida
persighidos
persighidu
persighire
perso
person
persona
personaggi
personaggios
personaggiu
personaggius
personagios
personagiu
personal
personale
personales
personali
personalidade
personalidades
personalita
personalmente
personas
persone
persones
personi
personis
perspective
perspectives
perta
perte
pertene
pertenent
pertenet
perteniant
perteniat
perth
perto
pertocaiant
pertocaiat
pertocant
pertocat
pertoccat
pertzentuale
pertzentuales
pertzetzione
peru
perugia
peruna
perunu
peruvianu
peruza
pes
pesa
pesada
pesadas
pesadia
pesadiu
pesados
pesadu
pesai
pesant
pesante
pesare
pesat
pesau
pescara
pesce
peschentos
peschentu
pesci
pese
peso
pesones
pesos
pessa
pessadu
pessame
pessamentos
pessamentu
pessare
pessat
pessau
pessighidos
pessighidu
pesso
pessona
pessonalada
pessonale
pessonales
pessonalidade
pessonalidades
pessonas
pessonazos
pessonazu
pessone
pessones
pessu
pesta
peste
pesti
pestile
pesu
pet
peta
pete
peter
petersburg
petha
petit
petite
petitzione
petitziones
petorra
petra
petri
petro
petrolchi
petroli
petrolini
petrolio
petroliu
petrozu
petru
petrucci
petrucciani
petta
pettalzu
petti
petus
petza
petzi
petzos
petzu
peuple
peus
pez
pfa
pfalz
pg
ph
phane
phd
phenomenon
phi
phikis
phil
philadelphia
philip
philipp
philippe
philips
philology
philosophy
phoenix
phone
phonetic
phonogram
phonology
photo
photograph
photos
php
phu
phyla
phys
physical
physics
pi
pia
piace
piacenza
piacere
piaget
piaghe
piana
pianeta
piani
pianificadore
pianificatzione
pianista
piano
pianoforte
pianos
piant
pianta
piantas
piante
piantighedda
pianu
pianuforte
pianura
pias
piat
piatta
piatto
piazza
pib
piberoni
pic
pica
picada
picamente
picande
picare
picas
picat
picau
piccante
picciocca
piccioccas
piccioccu
piccola
piccole
piccoli
piccolo
picculu
picioca
piciocu
pico
picos
picture
pictures
picu
pida
pidas
pide
pidos
pidu
pie
piece
pied
piedad
piedade
piedi
pieds
piemonte
piemontesa
piemontese
piemontesi
piemontesos
piemontesu
piemontesus
piena
pier
piera
pierluigi
piero
pieroni
pierpaolo
pierre
piessi
piessigna
piessignas
piessignos
piessignu
piet
pieta
pietra
pietre
pietro
pietroburgo
pieve
pig
piga
pigada
pigadas
pigados
pigadu
pigai
pigaiant
pigaiat
pigant
pigara
pigare
pigas
pigat
pigau
pighende
pighendi
pigliaru
pigmentos
pigo
pigos
pigota
pigu
pil
pila
pilar
pilastros
pilatu
pili
pillonca
pilloni
pillonis
pillu
piloni
pilos
pilot
pilota
pilotas
pilotos
pilotu
pilu
pimentel
pimpa
pin
pina
pinacoteca
pineta
ping
pinilla
pink
pinna
pinnas
pinnetas
pinnetos
pino
pinocchio
pinochet
pinta
pintada
pintadas
pintados
pintadu
pintare
pintat
pintau
pinto
pintor
pintore
pintores
pintori
pintura
pinturas
pintus
pinu
pinuccia
pinuccio
pinyin
pio
pioneer
pioneri
pios
pip
pipa
piper
pipi
pipia
pipios
pipiu
pipius
pippo
pipppero
pira
pirandello
piras
pirastru
pirata
piratas
pirateria
pirati
piredda
pirelli
pireneos
pirisi
piro
pirodda
piromalli
pirri
piru
pis
pisa
pisana
pisanas
pisani
pisano
pisanos
pisanu
pisanus
pisca
piscadore
piscadores
piscadoris
piscamos
piscamu
piscare
pische
pischedda
pisches
pischina
pisci
piscina
piscinas
pisedda
piseddas
piseddos
piseddu
pissu
pista
pistas
pistis
pistola
pistols
pistone
pistones
pisu
pisurzi
pita
pitat
pitaya
pitia
pitias
pitica
piticas
piticos
piticu
piticus
pitios
pitiu
pito
pittau
pitti
pitticcu
pittore
pittsburgh
pittura
pitu
pitz
pitzi
pitzinna
pitzinnas
pitzinnia
pitzinnos
pitzinnu
pitzoca
pitzocas
pitzocca
pitzoccu
pitzochedda
pitzocheddos
pitzocheddu
pitzocos
pitzocu
pitzolo
pitzorno
pitzos
pitzu
pitzus
piu
pius
pivano
pizos
pizu
pizzarelli
pizzinnu
pl
pla
placa
placas
place
places
placido
plaisir
plan
plana
planargia
planck
planet
planeta
planetary
planets
planitia
plant
plants
planu
plaques
plasma
plasmodium
plassas
plastic
plata
plataforma
platform
plato
platone
platonos
plauto
play
player
playing
plays
playstation
plaza
please
plebiscitu
pleiadi
pleiku
pleistocene
pleistotzene
plena
pli
plica
plicant
plicat
plinio
plos
plotone
plu
plur
plurale
plurales
pluralidade
plurilinguismu
plus
pluto
plymouth
pm
pmc
pmi
pmid
pnas
pneumonia
pnf
png
po
pobera
poberesa
poberos
pobidda
pobiddu
poblacio
poble
pobulada
pobuladas
pobulados
pobuladu
pobuladura
pobulare
pobularidade
pobulatzione
pobulu
poca
pocas
pocketnow
poco
podant
podat
podda
poddighe
pode
podede
podeis
podemus
poden
podende
podene
podent
poder
poderadu
podere
poderent
poderes
poderet
poderi
poderios
poderiu
poderosa
poderosas
poderosos
poderosu
podes
podesta
podestade
podestades
podet
podeus
podgorica
podi
podian
podiant
podiat
podimus
podint
podinti
podiri
podit
poe
poema
poemas
poems
poesi
poesia
poesias
poesie
poeta
poetas
poete
poetes
poetessa
poeti
poetica
poetissa
poetry
poetu
poga
pogrom
poi
poiche
poids
point
pois
poita
poite
poitiers
poitou
poitta
pol
pola
polaca
polacas
polacos
polacu
poland
polare
polares
polaris
pole
poleddu
polemica
polesine
poli
police
policy
polifo
polifuntzionale
poligono
polima
polimesu
poline
polinesiana
polinesianas
polinesianos
polis
polisessualidade
polisportiva
polistrumentista
polite
politecnicu
politica
political
politicamente
politicas
politiche
politici
politico
politicos
politics
politicu
politiga
politigos
politigu
politzia
polizia
polka
poll
polla
pollock
polo
polonesa
polonesos
polonesu
polonia
polos
polska
poltergeist
poltu
polu
polvere
polygram
pombal
pomera
pompa
pompei
pompeo
pompeu
pompi
pompia
pompiadura
pompiaduras
pompiare
pon
poncho
pone
ponende
ponendi
ponendu
ponent
ponente
ponet
poni
poniant
poniat
ponint
ponit
ponner
ponnere
ponni
ponniri
pont
ponta
ponte
pontecorvo
pontes
pontevedra
ponti
pontifi
pontis
ponty
ponza
ponzende
pop
popai
popeye
popolanos
popolare
popolari
popolatzione
popolatziones
popolatzioni
popolazione
popoli
popolo
popolu
populada
populadas
populados
populadu
populamentu
popular
populare
populares
populari
popularidade
populassione
populassiones
population
populations
populatzione
populatziones
populatzioni
populatzionis
populazione
populazioni
populista
populos
populosa
populosu
populu
populus
por
porcheddinu
porcheddu
porcile
porcos
porcu
porcupine
pordenone
pore
porechenkov
porfia
porfias
pori
porno
pornografia
porridu
porru
porsche
port
porta
portable
portaboghe
portada
portadore
portados
portadu
portai
portaiant
portaiat
portal
portale
portalegre
portales
portali
portant
portare
portas
portat
portato
portau
porte
portende
portieri
portland
porto
portogallu
portoghesu
portolu
portos
portrait
portu
portuale
portuales
portugal
portugallu
portughesa
portughesas
portughesos
portughesu
portus
portzione
posada
posca
posidura
posiduras
posissione
positiva
positivas
positivos
positivu
positzione
positziones
positzioni
positzionis
posizione
posizioni
posner
possa
posse
possedent
possedet
possediant
possediat
possedimentos
possedimentu
possedit
possessu
possi
possibile
possibili
possibilidade
possibilidades
possibilidadi
possible
possuer
possuit
post
posta
postale
postalencas
postales
postas
postcoloniali
poster
posteriore
posteriores
posteriormente
postino
postis
posto
postos
postu
postura
postus
pot
pota
potat
pote
potecaria
potente
potentes
potential
potentzia
potentziale
potentziales
potentziamentu
potentzias
potenza
potere
potet
potho
potosi
potsdam
potter
potu
potzant
potzat
potzo
pou
pour
povera
poveri
povero
povertade
powell
power
powerpc
powers
pozzi
pozzo
pozzomaggiore
pp
ppa
ppiu
pr
pra
practice
prado
pradu
praeses
praga
praghe
praghere
praia
praja
prajas
prama
pramantellu
pramas
pramentelu
pramma
prammas
prana
praneta
pranetas
pranificada
pranificadori
pranificadu
pranificatzione
pranos
pranta
prantas
prantedos
pranu
pranura
pranuras
pranus
prat
prata
prataforma
prataformas
pratica
praticada
praticadu
praticamente
praticare
praticas
pratigadu
pratigamente
prato
pratobello
pratos
pratta
pratu
pratus
pratza
pratzas
praxeri
praxi
pre
prebenner
prebida
prebidas
prebidet
prebidiat
prebidu
preca
precisa
precursore
preda
predas
predetzessore
predi
predis
predispostu
predu
prefatzione
prefazione
prefe
prefere
preferende
preferentemente
preferida
preferidu
preferint
preferit
prefertu
prefettu
prefettura
prefetu
prefetura
prefissos
prefissu
pregadoria
pregare
preghiera
preghieras
pregiudi
pregonta
pregontadu
pregunta
preguntadu
preguntare
preguntas
prehistoric
prei
preideros
preideru
preigadore
preigare
preigas
preisto
preistoria
preistorica
preistorico
preistoricu
prejos
preju
prelatzione
preliminare
preliminares
prelude
premi
premiada
premiadu
premiatzione
premie
premier
premio
premios
premissa
premiu
premium
prena
prenadu
prenare
prenas
prenda
prendas
prendere
prendet
prenimentu
prenos
prensa
prensu
prentice
prenu
prenura
prenuragica
prenzlauer
preparadu
preparare
preparat
preparatzione
preparende
prepissione
prepositurale
prepositzione
preromana
pres
presa
presbi
presbite
presbiteriu
prese
presence
present
presenta
presentada
presentadas
presentadore
presentadori
presentados
presentadu
presentai
presentaiat
presentant
presentare
presentat
presentatzione
presentau
presentazione
presente
presentende
presentes
presenti
presentis
presents
presentzia
presenza
preservare
presi
preside
presidency
president
presidenta
presidente
presidentes
presidenti
presidential
presidentziale
presidentziales
presidenza
presidida
presididu
presley
preso
presone
presoneri
presoneris
presones
presoni
presonia
press
presse
pressi
pressione
pressiones
pressioni
presso
pressure
prestadu
prestat
prestatziones
prestatzionis
prestazioni
presti
prestige
prestigio
prestu
presu
presumida
presumit
presutu
prete
pretendende
pretendentes
pretendet
pretendiat
pretesa
pretesas
preto
pretore
pretu
pretze
pretzede
pretzedente
pretzedentemente
pretzedentes
pretzedet
pretzi
pretziada
pretziosa
pretziosas
pretziosos
pretziosu
pretzisa
pretzisamente
pretzisas
pretzisione
pretzisos
pretzisu
prevale
prevalentemente
preve
prevention
preventzione
previ
previdet
previdiat
prevosto
prexeri
pri
pria
pride
priest
prigioniero
prima
primados
primadu
primaria
primas
primatzia
primavera
prime
primer
primera
primi
primidia
primidiu
primis
primitiva
primitivas
primitivu
primma
primmu
primo
primore
primorosa
primorosu
primos
primu
primus
prince
princess
princeton
principale
principali
principalis
principalmenti
principe
principessa
principi
principles
printzesa
printzi
printzipa
printzipados
printzipadu
printzipale
printzipales
printzipali
printzipalis
printzipalmente
printzipalmenti
printzipe
printzipes
printzipessa
printzipiadu
printzipiare
printzipios
printzipiu
priore
priores
prioridade
priorissa
prison
prisoner
prite
priu
priva
privada
privadas
privados
privadu
private
privatesa
privau
privaus
privile
privilegio
prix
priyom
prize
pro
proa
proadu
proant
proare
proas
proat
proba
probabile
probabilidade
probabilidadi
probabilmente
probabilmenti
probe
probiana
probianas
probianias
probianu
probida
probidas
probidos
probidu
problem
problema
problemas
problemi
probremas
procariotas
proce
proceedings
process
processes
processione
processioni
processo
processu
processus
prochentale
proclama
proclamada
proclamadu
proclamare
proclamat
proclamatzione
proco
procu
procura
procuradore
prodotos
prodotti
prodottos
prodottu
prodotu
produ
production
productions
products
produede
produende
produent
produer
produet
produi
produida
produidore
produidores
produidos
produidu
produidura
produint
produire
produit
produsi
produsint
produssione
produtiva
produtivas
produtividade
produtivos
produtivu
produtora
produtore
produtores
produtoris
produtos
produttore
produttos
produtu
produtus
produtzione
produtziones
produtzioni
produtzionis
produzione
produzioni
proet
prof
professional
professionale
professionales
professionali
professione
professionista
professionistas
professone
professones
professor
professora
professore
professores
professoressa
professori
profeta
profetas
profetos
profetu
profile
profilo
profilu
profissionale
profit
profondo
profumados
profunda
profundamente
profundas
profundidade
profundis
profundos
profundu
progetada
progetados
progetadu
progetare
progetatzione
progetau
progetos
progettadu
progetto
progettu
progetu
progetus
program
programa
programas
programatzione
programatzioni
programma
programmadore
programmadores
programmadoris
programmadu
programmare
programmas
programmatzione
programme
programmera
programmers
progres
progress
progressistas
progressiva
progressivamente
progressive
progressivu
progressos
progressu
proibi
proibiat
proibida
proibidos
proibidu
proibire
proibit
proibiti
proibito
proibitzione
proibitziones
proina
proit
proite
project
projects
projekct
projekt
projetzione
projetziones
proleta
proloco
promesse
promessi
promi
promissa
promissas
promitiat
promo
promonto
promontoriu
promotore
promotzionale
promotzione
promovende
promovet
promovi
promozione
promulgadu
promuovere
pron
prono
pronominales
pronta
prontas
prontos
prontu
pronu
pronuntzia
pronuntziada
pronuntziados
pronuntziadu
pronuntziare
pronuntziau
propaganda
propagatzione
propassat
propia
propiamente
propias
propiduras
propieda
propiedade
propiedades
propiedadi
propieta
propiu
propo
proponende
proponet
proponiat
proponit
proportzionale
proportzione
proportziones
proposal
proposito
propositu
propositzioi
proposta
propostas
proposte
propostos
propostu
propria
propriamente
proprias
propriedade
propriedades
proprieta
proprio
proprios
propriu
propulsion
pros
prosa
prosperadu
prosperare
prosperidade
prospetiva
prospetivas
prospettiva
prospettive
prospetu
prossimai
prossimo
prostituta
prostitutas
protagonista
protagonistas
protagonisti
prote
protection
protegher
proteghidura
proteinas
protest
protesta
protestante
protestantes
protestare
protestas
proteste
protesters
protests
protetorados
protetoradu
protetore
protetta
protetzione
protezione
prothu
protistas
proto
protoantropomorfos
protocol
protocollos
protocollu
protocollus
protoisto
protomartyr
proton
protone
protones
protonuraghes
protosarda
protozoa
protozoos
protzedimentos
protzedimentu
protzedit
protzedura
protzeduras
protzessadu
protzessione
protzessore
protzessores
protzessos
protzessu
proust
prova
provant
provas
provat
provenc
provence
proventza
proventzale
provenza
provi
providence
province
provincia
provinciae
provinciale
provinciali
provintzia
provintziale
provintziales
provintzias
proviso
provocada
provocadu
provocare
provochende
provvidenza
provvisori
proxima
proxy
proyecciones
prozetada
prozettu
prozetu
pru
prubica
prubicau
prudencio
pruini
pruite
prumone
prumones
prumonite
prumu
pruna
prupu
prurali
prus
prusapre
prusaprestu
prusatotu
pruschetotu
prussia
prussiana
prussianos
prussianu
prusu
ps
psd
pseudo
pseudoermafroditismu
pseudonimu
psi
psichia
psichiatra
psico
psicolo
psicologia
psicologica
psych
psycho
psychology
pt
ptm
pu
pua
pub
pubblica
pubblicada
pubblicadu
pubblicat
pubblicato
pubblicau
pubblicazione
pubblicazioni
pubblicita
pubblico
pubblicu
pubbricadu
pubbricu
public
publica
publicada
publicadas
publicados
publicadu
publicamente
publicare
publicat
publications
publicatzione
publicatziones
publicau
publichende
publicu
publique
published
publisher
publishers
publishing
publitzidade
publitzista
publitzita
pubricada
pubricadu
pubricau
pubrigados
pubrigadu
pubrigadura
puccini
pudda
puddas
puddos
puddu
pueblo
puente
puerto
pugione
pugiones
puglia
pugno
pula
pule
pulenta
pulitzer
pullen
pulos
pulp
pulu
puma
pumas
punga
punica
punicos
punk
punna
punnaiant
punnaiat
punnant
punnas
punnat
punnende
punt
punta
puntada
puntadas
puntadu
puntas
puntat
puntata
punte
puntegiadura
punti
punto
puntos
puntu
puntus
puo
pur
pura
pure
puresa
purmones
purmonite
purpa
purple
puru
pusceddu
push
pusti
pustigherra
pustis
pustisgherra
puthu
puthumajore
putin
puttu
putumajore
putzolu
putzos
putzu
putzulu
putzus
puzo
puzone
puzones
puzzle
px
pyre
python
q
qa
qaeda
qaem
qaida
qata
qatar
qquad
qu
qua
quad
quaderni
quaderno
quadri
quadriennale
quadro
quae
qual
qualche
qualcosa
quale
quali
qualita
quand
quando
quante
quanto
quarant
quaranta
quark
quarks
quarta
quarterly
quartet
quartetto
quartiere
quartu
quartus
quartz
quasi
quatre
quattro
quattru
quattrus
que
quebec
quechua
queen
queens
queensland
queer
quei
quel
quell
quella
quelle
quelli
quello
queneau
quentin
quercus
quere
quest
questa
queste
questi
question
questione
questioni
questo
qui
quijote
quilo
quindi
quinta
quintet
quintino
quinto
quirinale
quirra
quit
quito
quo
quodlibet
quora
quotidiano
r
ra
raap
raba
rabas
rabe
rabos
rabu
raccolta
racconta
racconti
racconto
raccontu
race
rachel
racism
raciti
racumandadu
racumandatziones
rada
radar
radcliffe
radi
radiale
radiantes
radiation
radiatzione
radiatziones
radiatzionis
radical
radicale
radicales
radichina
radici
radio
radioativa
radioatividade
radioativos
radioativu
radiofo
radiohead
radiolina
radon
rae
raf
rafael
raffaela
raffaele
raffaella
raffaello
rafinadas
rafinerias
rag
ragazza
ragazzi
ragazzo
ragione
ragioni
ragtime
ragusa
rai
raider
raighina
raighinas
rail
raimondo
rain
rainbow
rainer
rainews
raire
rajos
raju
rakoske
rale
raleigh
rales
ralis
rally
ralph
ralu
ram
rambuta
rame
ramessu
raminosa
ramo
ramon
ramos
rampicante
ramu
ran
rana
randolph
random
range
rangu
ranh
ranieri
ranos
rant
rantu
raoul
rap
rapa
raphael
rapina
rapinadores
raportos
raportu
raportus
rapper
rappers
rapporti
rapporto
rapportos
rapportu
rappresenta
rappresentadas
rappresentante
rappresentare
rapresenta
rapresentada
rapresentadas
rapresentadore
rapresentados
rapresentadu
rapresentaiant
rapresentaiat
rapresentant
rapresentante
rapresentantes
rapresentare
rapresentat
rapresentativa
rapresentativos
rapresentativu
rapresentatzione
rapresentatziones
rapresentende
rapture
rapunzel
raquel
rara
raramente
raras
rard
raros
raru
ras
raspi
rassa
rassegna
rassigna
rassu
rasta
rastas
rastatt
rastos
rastras
rat
rati
ratifica
ratificada
ratificadu
ratificare
ration
rationes
ratos
ratu
ratza
ratzas
ratziale
ratziales
ratzionale
ratzionales
ratzismu
ratzista
ratzistas
rau
raul
raval
ravenna
ravi
rawlinson
ray
raymond
raza
razza
rbara
rbaros
rbaru
rbera
rberas
rberos
rberu
rbia
rbios
rbita
rbitas
rbitros
rbitru
rbiu
rbore
rbores
rbs
rbumu
rbure
rbures
rbus
rc
rca
rcadu
rcas
rcfi
rchi
rchica
rchicas
rchicos
rchicu
rchida
rchiu
rcitu
rciu
rcs
rcu
rculant
rculat
rculos
rculu
rcuris
rd
rda
rdara
rder
rdere
rdf
rdia
rdias
rdica
rdicos
rdicu
rdida
rdidas
rdidos
rdidu
rdighi
rdinat
rdine
rdines
rdini
rdios
rdiu
rdius
rdoba
rdt
rdu
re
rea
reach
read
reader
reading
ready
reagan
reagidu
reagit
real
reale
reales
reali
realidade
realidades
realidadi
realismu
realista
reality
realizada
realizadas
realizados
realizadu
realizadura
realizant
realizare
realizat
realizatzione
realizatzioni
realizau
realizende
realizzadu
really
realpolitik
realta
realtade
reas
reassione
reativu
reatore
reatores
reatziona
reatzione
reatziones
reazione
rebe
rebeca
rebecca
rebel
rebeldes
rebellados
rebelladu
rebelles
rebellia
rebellias
rebellos
reberdes
rebiba
rebista
rebolussione
rebus
rebusadu
rebusare
recanati
recatadores
recatamentu
recensement
recensione
recensioni
recent
recente
reche
rechedent
rechedet
recherche
recherent
recheret
recherta
rechertas
rechertos
rechertu
rechesta
rechestas
rechisitos
recitai
recitante
recitau
recitazione
reclutamentu
reconchista
reconno
reconnoschende
reconnoschent
reconnoschet
reconnoschiat
reconnoschimentos
reconnoschimentu
reconnota
reconnotas
reconnotos
reconnottu
reconnotu
record
recording
recordings
records
recreu
recu
recuida
recunnoschimentu
recunnotu
recuperadu
recuperare
recupero
recursu
red
redatadu
redatore
redatzione
redazione
redentore
redu
reducciones
reduende
reduida
reduidas
reduidos
reduidu
reduire
reed
reeder
reeves
ref
refe
refere
reference
referende
referendum
referente
referiat
referidos
referidu
referimentu
referinde
referint
referire
referit
reflections
reforma
reformas
refuda
refudada
refudados
refudadu
refudare
refudat
refudende
refudos
refudu
refugiados
regarding
rege
regente
reggae
reggio
reghente
reghentemente
reghentes
regi
regia
regime
regimentos
regimentu
regina
regio
region
regional
regionale
regionales
regionali
regionalis
regione
regiones
regioni
regionis
regions
regista
registas
registrada
registradas
registrados
registradu
registrant
registrare
registrat
registratu
registratzione
registratziones
registrazione
registrazioni
registrende
registros
registru
regnaiat
regnantes
regnare
regni
regno
regnos
regnu
regnum
rego
regola
regolamentu
regolas
regole
regollit
regolta
regoltos
regoltu
regordadu
regordaiat
regordare
regorta
regortas
regortos
regortu
regula
regulada
reguladu
regulamentos
regulamentu
regulare
regulares
regularidade
regularmente
regulas
regulativa
rei
reich
reichstag
reid
reims
reina
reinickendorf
reis
relascione
relassionada
relassionados
relassionadu
relassione
relassiones
relata
relatadas
relatados
relatadu
relatas
related
relations
relativa
relativamente
relativas
relative
relatividade
relativos
relativu
relatos
relatu
relatzionada
relatzionadas
relatzionados
relatzionale
relatzione
relatziones
relazione
relazioni
release
releases
relevu
reli
religion
religione
religiones
religioni
religionis
religiosa
religiosas
religiose
religiosidade
religiosos
religiosu
religious
relizione
relo
relogios
relogiu
relozu
rem
remake
reme
remedios
remember
remembrance
remenu
remix
remixes
remo
remontant
remontat
remota
remotas
remotos
remotu
rempellos
remplasada
remplasadas
remplasados
remplasadu
remplasare
remplasat
remu
remundu
remunnu
ren
rena
renaissance
renaschimentu
renata
renato
rendas
rende
rendimentu
rene
renesset
renner
rennes
rennet
renniu
rennoamentu
rennos
rennu
rentzia
renu
renuntziadu
renuntziare
renzo
reos
repartu
repartzidura
reparu
repente
reperto
repertorio
repertoriu
repertos
repertu
repertus
repi
replica
report
reportage
reporter
reports
reposare
repository
reposu
represa
repression
repressione
repri
reprimida
reprise
repu
repubblica
repubblicana
repubbrica
republic
republica
republicana
republicanas
republicanos
republicanu
republik
republika
repubrica
repubrigana
request
required
rere
rerum
res
resa
resadu
rescatu
rescuers
rese
research
researchgate
reserva
reservadu
reservas
reserve
resessende
resesset
resessida
resessidi
resessidu
resessint
resessire
resessit
reshe
resi
reside
residente
residentes
residentzia
residentziale
residentziales
resissende
resissida
resissidas
resissidos
resissidu
resissire
resiste
resistente
resistentes
resistentzia
resistenza
resistenziale
resistire
reso
resolution
resolutzione
resona
resonare
resone
resones
resource
resources
respetadu
respetare
respetivamente
respetu
respirato
respiratory
respiru
responder
responsa
responsabile
responsabilidade
responsabilidades
resposta
respostu
respublika
resta
restada
restadu
restana
restare
restat
restaurada
restauradu
restaurant
restauratzione
restauro
restoradura
restorante
restorantes
restos
restritziones
restu
resu
resultados
resultadu
resultat
results
resumu
resurretzione
resursas
resurta
resurtada
resurtados
resurtadu
resurtaiat
resurtant
resurtare
resurtat
resurtende
resurtet
resurtu
resuscitadu
ret
reta
retangulare
retangulares
rete
retenent
retenet
retes
reti
retili
retirada
retiradas
retirados
retiradu
retirare
retirat
retirende
retiru
reto
retore
retorica
retratu
retrieved
retro
retti
rettore
return
retza
retzas
retze
retzende
retzensimentu
retzensione
retzensiones
retzentes
retzes
retzeta
retzetas
retzi
retziant
retziat
retzida
retzidas
retzidi
retzidore
retzidores
retzidos
retzidu
retzidura
retzint
retzire
retzit
reu
reuel
reunidu
reunificatzione
reunione
reuters
rev
reveal
reveals
reveladu
revesa
revessu
review
reviews
revised
revision
revisione
revista
revistas
revocadu
revolucio
revolution
revolutziona
revolutzione
revue
rex
rexia
rey
reyes
reynolds
rez
rezi
rezidu
rezionale
rezionales
rezione
reziones
rezonale
rezone
[...]
