!
"
#
##0
##1
##10
##11
##12
##13
##14
##15
##16
##17
##18
##19
##2
##20
##21
##22
##23
##24
##25
##26
##27
##28
##29
##3
##30
##31
##32
##33
##34
##35
##36
##37
##38
##39
##4
##40
##41
##42
##43
##44
##45
##46
##47
##48
##49
##5
##50
##51
##52
##53
##54
##55
##56
##57
##58
##59
##6
##60
##61
##62
##63
##64
##65
##66
##67
##68
##69
##7
##70
##71
##72
##73
##74
##75
##76
##77
##78
##79
##8
##80
##81
##82
##83
##84
##85
##86
##87
##88
##89
##9
##90
##91
##92
##93
##94
##95
##96
##97
##98
##99
$
%
&
'
(
)
*
+
,
-
.
/
0
00
000
00000
0001
0003
0006
001
0022
0028
003
004
005
006
007
008
009
01
012
013
0140
017
01753
019
0190
02
0261
03
0307
0362
04
04940
05
06
067
07
08
09
1
10
100
1000
1001
1002
1007
101
1016
1017
102
103
1037
1038
104
105
106
107
108
1080
1086
109
1093
1097
1098
11
110
1109
111
1111
112
1126
113
1136
114
115
116
1163
117
1177
118
119
12
120
121
122
123
1235
124
125
126
127
128
129
129817313510000000
13
130
1300
130814110413
131
132
133
134
135
1357
136
137
1371
138
1385
139
1390
1393
1395
1398
14
140
141
142
143
144
145
146
14651858
1469
147
148
149
15
150
1500
151
152
153
154
155
156
157
158
159
16
160
161
162
163
164
165
166
167
168
169
17
170
1707
171
172
173
174
175
176
177
178
179
18
180
1800
181
1818
182
1827
183
1830
1834
1837
1839
184
1840
1842
1844
1847
1848
185
1850
1852
1853
1854
1856
1857
1858
1859
186
1860
1861
1862
1863
1864
1865
1866
1867
1868
1869
187
1870
1871
1872
1873
1874
1875
1876
1877
1878
1879
188
1880
1881
1882
1883
1884
1885
1886
1887
1888
1889
189
1890
1891
1892
1893
1894
1895
1896
1897
1898
1899
19
190
1900
1901
1902
1903
1904
1905
1906
1907
1908
1909
191
1910
1911
1912
1913
1914
1915
1916
1917
1918
1919
192
1920
1921
1922
1923
1924
1925
1926
1927
1928
1929
193
1930
1931
1932
1933
1934
1935
1936
1937
1938
1939
194
1940
1941
1942
1943
1944
1945
1946
1947
1948
194887
1949
195
1950
1951
1952
1953
1954
1955
1956
1957
1958
1959
196
1960
1961
1962
1963
1964
1965
1966
1967
1968
1969
197
1970
1971
1972
1973
1974
1975
1976
1977
1978
1979
198
1980
1981
1982
1983
1984
1985
1986
1987
1988
1989
199
1990
1991
1992
1993
1994
1995
1996
1997
1998
1999
2
20
200
2000
2001
2002
2003
2004
2005
2006
2007
2008
2009
201
2010
2011
2012
2013
2014
2015
20150921014425127062
2016
2017
2018
2019
20190327172500
202
2020
2021
2022
203
204
205
206
207
208
2085
209
21
210
211
212
213
214
215
216
217
218
219
22
220
221
222
223
224
225
226
227
228
229
23
230
2307
231
232
233
234
235
236
237
238
239
24
240
241
242
245
247
248
249
25
250
251
252
253
254
255
256
257
26
260
261
262
263
264
265
265734
266
267
268
269
27
270
271
272
273
275
276
277
278
279
28
280
282
283
288
289
29
291
292
294
295
296
297
298
299
3
30
300
301
302
303
304
305
306
307
3077
308
309
31
310
312
313
315
316
3166
317
318
319
32
320
321
322
323
326
327
328
329
33
330
331
332
333
334
335
336
338
34
340
341
342
345
347
349
35
350
351
352
357
358
36
360
361
366
367
369
37
373
374
375
376
38
380
385
387
388
39
393
394
395
397
4
40
400
4000
401
404
405
409
41
411
412
413
415
416
417
419
42
422
43
431
433
4331
44
447
44731
45
450
457
46
460
461
467
47
470
471
4757
48
481
482
483
486
487
488
49
490
493
5
50
500
51
511
516
517
52
520
521
527
53
533
54
540
549
55
550
555
56
5667
567
57
578
58
58053128
582
583
5850691
59
6
60
600
605
61
612
617
618
62
62722
63
631
639
64
642
65
650
66
667
67
6736
674
68
69
691
698
7
70
700
71
72
73
74
75
750
76
77
78
783
79
7914
8
80
800
8014
804
8047
81
8108
8160
82
8286
83
84
85
850
86
87
88
89
9
90
900
91
92
93
94
95
950
96
964
97
975
978
9789622177734
98
99
9999
:
;
<
=
>
?
@
[
\
]
^
_
`
a
aa
aamir
aaron
ab
abbas
abc
abd
abdul
abdullah
abe
about
above
abraham
abrahamian
abrams
abs
abstract
abu
abuse
ac
academia
academic
academy
accepted
access
accessdate
accessed
according
account
accounting
ace
acetate
achievement
acid
acquires
acref
across
act
acta
acting
action
actions
active
activist
activists
activities
activity
actor
actors
actress
actresses
acts
actually
acute
ad
ada
adam
adams
adaptation
add
added
addition
additional
address
adds
adjusted
administration
administrative
adobe
adolescent
adolf
adopted
adult
adults
advance
advanced
advances
adventure
adventures
advocate
ae
aerodynamics
aerospace
af
afc
affair
affairs
afghan
afghanistan
afi
afp
africa
african
afrin
after
ag
again
against
age
aged
agence
agencies
agency
agenda
agent
agents
ages
ago
agree
agreement
agriculture
ah
ahead
ahly
ahmad
ahmed
ahmet
ahn
ai
aichi
aid
aidoh
aims
ain
air
aircraft
airlines
airport
airports
ais
aise
aj
ajax
ak
ake
al
ala
alabama
alain
alan
alaska
albania
albanian
albany
albert
albion
album
albums
alcohol
alec
alessandro
alex
alexa
alexander
alexandra
alexandre
alexis
alfred
alge
algebra
algeria
ali
alice
alien
align
aligned
alison
alive
aljazeera
all
alla
allah
allan
allen
allergy
alliance
allmovie
allmusic
alloy
almost
alone
along
alonso
alpha
alpine
alps
already
also
alternative
although
alukah
alumni
always
am
amanda
amar
amazing
amazon
ambassador
amc
ame
america
american
americans
americas
amid
amini
amir
ammad
amnesty
among
amp
amsterdam
amy
an
ana
anadolu
analysis
analytical
analytics
anarchy
anatomy
ancestry
ancient
and
anders
anderson
andre
andrea
andreas
andreeva
andrew
andrews
android
andy
anf
angel
angela
angeles
angelina
angelo
angels
anglo
animal
animals
animated
animation
anime
animenewsnetwork
anita
ankara
ankori
ann
anna
annales
annals
anne
annie
anniversary
annotated
announce
announced
announcement
announces
annual
another
answer
answers
ant
anthem
anthology
anthony
anthropology
anti
antiquity
antoine
anton
antonio
antony
any
ao
aol
aoyama
ap
apa
apache
api
apocalypse
apollo
app
appeal
appear
appearance
appearances
appears
appendix
apple
application
applications
applied
appointed
appoints
approach
approved
approx
apps
apr
april
ar
ara
arab
arabia
arabian
arabic
arabiya
arabs
aras
arborophila
arc
arccos
arccot
arccsc
arch
archaeological
archaeology
architectural
architecture
archive
archived
archivedate
archives
archiveurl
arcsec
arcsin
arctan
arctic
are
area
areas
arena
argentina
argument
ari
aristotle
arizona
armed
armenia
armenian
armenians
arms
armstrong
army
arnold
around
arrest
arrested
arrives
arrow
ars
arsenal
art
arte
arthritis
arthur
article
articles
artificial
artist
artists
arts
arxiv
as
asa
asahi
asher
ashley
asia
asian
asiatic
ask
asked
asp
aspects
aspx
assad
assassination
assault
assembly
assessment
asset
assigned
associated
association
associations
assyrian
aston
astro
astronomical
astronomy
at
atalanta
atatu
athens
athlete
athletes
athletic
athletics
atkins
atlanta
atlantic
atlas
atle
atomic
atp
attack
attacks
attempt
attendance
attention
au
audi
audience
audio
aug
august
aus
ausiello
austin
australia
australian
austria
auteurs
author
authorities
authority
authors
auto
automotive
autonomous
autumn
aux
av
available
avec
avengers
average
aviation
avicenna
aviv
avn
award
awarded
awards
away
awene
awiu
ax
axis
az
azad
azerbaijan
azerbaijani
azeri
azgharbi
aziz
azərbaycan
b
ba
baby
back
backed
background
bad
bae
baekje
bafta
bag
baghdad
baha
bahrain
bai
bailey
bailly
baker
baku
balance
baldwin
ball
baltimore
bamboo
ban
banarsi
band
bang
bangkok
bangladesh
bank
banks
banned
bar
barb
barbara
barber
barc
barcelona
barnes
baron
barry
bartlett
barzani
bas
base
baseball
based
basic
basics
basnews
bateman
batman
battle
battles
bauer
bay
bayern
bazaar
bb
bbc
bbfc
bc
bd
be
beach
bear
bearer
bearers
beast
beat
beatrice
beats
beautiful
beauty
became
because
beck
beckham
become
becomes
becoming
been
before
began
begg
begin
beginning
begins
behavior
behind
beijing
bein
being
beirut
belarus
belgian
belgium
belief
believe
bell
bella
bellucci
belt
ben
benedict
benefit
benefits
benfica
benjamin
bennett
ber
berber
berg
berger
berkeley
berlin
bernard
bertrand
best
beta
beth
better
betty
between
bevo
bevolking
beyond
bf
bfe
bg
bgcolor
bi
bibcode
bibel
bible
bibliographies
bibliography
bicalutamide
bid
biden
big
biggest
bill
billboard
billie
billion
billy
bin
binbaz
binge
bio
biochemistry
biographical
biographies
biography
biol
biological
biology
bios
bir
bird
birds
birmingham
birth
birthday
bisexual
bishop
bit
bitcoin
biz
bj
black
blackberry
blackwell
blade
blair
blake
blast
bleacher
blica
blind
block
blog
blogger
blogs
blogspot
blood
bloody
bloom
bloomberg
bloomsbury
blow
blu
blue
blues
bmatrix
bmi
bmj
bmw
bn
bnf
bo
board
boat
bob
bobby
boca
bodies
body
boehly
boeing
bolivia
bollywood
bolton
bomb
bombay
bombing
bond
bone
book
books
boom
boot
borat
border
borders
born
borussia
borys
bosnia
boss
boston
bosworth
bot
both
bottom
boundaries
boundary
bournemouth
box
boy
boys
br
brabazon
brace
brad
bradley
bradost
brain
branch
brand
brasil
brasileira
brave
bravo
brazil
brazilian
break
breaking
breaks
breast
brent
brett
brian
bridge
brief
bright
brill
brilliant
bring
brings
bristol
britain
britannica
british
britney
broadcast
broadcasting
broadway
broke
broken
bronte
bronze
brooklyn
brooks
bros
brother
brotherhood
brothers
brown
browse
bruce
brunei
bruno
bryan
bu
buckley
budget
build
building
buildings
built
bulgaria
bulgarian
bull
bulletin
bundesliga
burden
bureau
burke
burkina
burning
burns
burrus
burton
bus
bush
business
busquets
but
butler
buy
bx
by
c
ca
cabinet
cable
caf
cafe
cage
cairo
calcium
calendar
california
call
called
calls
cam
camavinga
cambodia
cambridge
came
cameo
camera
cameron
cameroon
camp
campaign
campbell
campus
can
canada
canadian
canal
cancer
candidate
cannabis
cannes
canon
cape
capital
captain
car
carbon
card
cardiovascular
cards
care
career
caribbean
carl
carlos
carol
carolina
caroline
carpet
carrey
carroll
carry
cars
carson
carter
cartoon
casa
case
cases
casino
caspar
caspian
cast
casting
castle
casts
cat
catalog
catalogue
cate
categories
category
categoryid
catherine
catholic
caucasus
cause
causes
cave
cbc
cbs
cbsnews
cc
cd
cdc
cdot
cdots
ce
celebrate
celebrates
celebrities
celebrity
celeste
cell
cells
cengage
censorship
census
cent
center
centers
central
centre
centuries
century
ceo
ceremony
certain
cf
cfm
cgi
ch
cha
chad
chae
chain
challenge
challenges
chamber
chambers
champion
champions
championship
championships
chan
chance
chandra
chang
change
changed
changes
changing
channel
chaos
chaplin
chapman
chapter
character
characteristics
characters
charge
charged
charity
charles
charlie
charlotte
chart
charter
charts
chase
che
check
chelsea
chemical
chemistry
chen
chennai
chernobyl
chess
chicago
chief
child
childhood
children
chile
china
chinese
chisholm
cho
choi
choice
cholera
choose
chopin
chopra
chosen
chosun
chra
chris
christ
christensen
christian
christianity
christians
christina
christine
christmas
christophe
christopher
chronic
chronicle
chronicles
chronology
chu
chuck
chucky
chung
church
ci
cia
cicero
cid
cine
cinema
cinematic
circ
circle
citation
cite
cited
citeref
citerefa
citerefbanarsi
citerefjones
citerefk
citerefkishori
citereflebo
citerefmontefiore
cities
citizen
citizens
citizenship
city
citypopulation
civil
civilians
civilization
civilizations
cj
ckb
cl
claim
claims
claire
clara
clarendon
clark
clarke
clash
clashes
class
classic
classical
classics
classification
claude
clause
cleansing
clear
cleveland
climate
climbers
climbing
clin
clinic
clinical
clinton
clio
clip
clock
clooney
close
closed
closing
cloud
club
clubs
cm
cms
cn
cnbc
cnet
cnn
cns
co
coach
coalition
coast
cochrane
code
codes
cognitive
cohen
coins
cold
cole
colin
collaboration
collapse
collected
collection
collections
collective
college
colleges
collider
collins
colombia
colon
colonial
color
colorado
colors
columbia
column
com
combat
combination
combined
combustion
come
comeback
comedy
comes
comic
comicbook
comics
coming
comingsoon
command
commander
commentary
comments
commerce
commercial
commission
commissioner
committee
common
commonly
commons
commonwealth
commune
communication
communications
communism
communist
communities
community
como
companies
companion
company
comparative
comparison
competition
competitions
complete
completes
complex
composer
composition
compound
comprehensive
computer
computing
con
conan
concept
concepts
concert
concise
concrete
conde
condemns
condition
conditions
conference
confirm
confirmed
confirms
conflict
congo
congress
conmebol
connect
connecticut
connection
connor
conor
conquest
consciousness
consequence
conservation
conservative
considered
conspiracy
constant
constitution
constitutional
construction
consulate
contact
contains
contemporains
contemporary
content
contest
context
continue
continues
contract
contribution
contributions
contributors
control
controlled
controversial
controversy
convention
conversation
conversations
cook
cool
cooper
cooperation
cop
copa
copper
copy
copyright
corbero
cordillera
core
cornell
cornett
coronavirus
corporate
corporation
correspondence
correspondent
corresponding
corruption
cos
cosmic
cosmos
cost
costa
cot
could
council
count
countries
country
counts
county
coup
couple
courage
courier
course
court
cov
cover
coverage
covid
cox
cp
cr
crackdown
craig
crash
crayola
crazy
crc
create
created
creation
creative
creator
credit
credits
crespigny
crew
crews
crime
crimes
criminal
crisis
cristiano
critic
critical
criticism
critics
critique
croatia
croatian
cross
crossover
crown
crowned
cruise
crunchyroll
crush
cruyff
cruz
cry
crypto
cryptocurrency
crystal
crystalyn
cs
csc
css
ct
ctv
cu
cuba
cucurella
cult
cultural
culture
cultures
cup
currency
current
curtis
curve
cut
cutting
cv
cw
cy
cycle
cylinder
cynthia
cyprus
czech
d
da
dad
dag
dagbladet
dai
daily
daka
dale
dallas
daly
dam
damascus
dame
damon
dan
dana
dance
dancing
danger
dangerous
daniel
danielle
danish
danny
dans
dar
dargis
dark
darwin
das
dashni
data
database
date
dated
dates
dating
daughter
daum
dave
david
davidson
davies
davis
dawn
dawson
day
days
db
dc
de
dead
deadline
deadly
deadurl
deal
dean
dear
death
deaths
debate
debian
deborah
debut
debuts
dec
decade
decades
december
decision
declaration
declared
declares
decline
deep
deepika
def
default
defeat
defence
defender
defenders
defense
defined
definition
definitions
definitive
degree
del
delhi
dell
della
delmer
delta
dem
demand
demo
democracy
democratic
demographic
demographics
demon
den
denies
denis
denise
denmark
dennis
deno
department
depression
deputy
der
derby
derek
dergipark
des
descendants
description
desert
deserts
design
desk
despite
destination
destroyed
destruction
det
detail
detailed
details
detained
detective
detroit
deutsche
deutschland
dev
develop
developed
developer
developers
developing
development
developments
devices
devil
dexter
dfb
di
dia
diabetes
diagnosis
dialect
dialogue
diamond
diana
diane
diario
diary
diaspora
diaz
dick
dickinson
dictator
dictionaries
dictionary
did
didn
die
died
diego
dies
diesel
diet
dieter
difference
different
digest
digital
dil
dilemma
din
dino
dio
direct
direction
director
directors
directory
disaster
disc
discogs
discours
discourse
discover
discovered
discovery
discrimination
discuss
discussion
disease
diseases
disney
disorder
disorders
display
displaystyle
disputed
dissertation
dissident
distance
distances
distribution
district
districts
distrowatch
dit
diversity
divided
division
divorce
dixon
diyako
diyarbakır
dj
dk
dm
dna
dns
do
doc
docs
doctor
doctors
document
documentary
documentation
documents
does
doesn
dog
dogecoin
dogs
doi
doing
dollar
domain
domestic
dominic
don
donald
done
dong
donnelly
door
dorar
dorothy
dortmund
dos
dot
dots
double
douglas
dover
down
download
doyle
dp
dq
dr
dragon
dragons
drama
dramas
drapeau
draw
dream
dreams
dreamworks
drew
drinking
drive
driven
driver
driving
droit
drop
drug
drugs
ds
dt
du
dual
dubai
due
duffer
duhok
duke
durant
during
dutch
duty
dvb
dvd
dw
dwayne
dx
dylan
dynamic
dynamics
dynasties
dynasty
dyson
dysphoria
dz
e
ea
each
eagle
ear
earl
earlier
earliest
early
earns
earth
earthquake
east
eastern
easy
eat
eating
eaton
eb
ebchecked
ebert
ebs
ec
echo
eclipse
ecological
ecology
economic
economics
economist
economy
ecuador
ed
eddie
eden
edgar
edge
edinburgh
edited
editing
edition
editions
editor
editorial
editors
edm
edmond
edmund
eds
edu
eduardo
education
educational
edward
edwards
edwin
ee
effect
effective
effects
eg
egan
egypt
egyptian
ei
eight
eileen
einstein
either
ek
ekurd
el
elaine
elba
elbakyan
elected
election
elections
electoral
electric
electrical
electron
electronic
element
elementary
elements
elena
elevation
eleven
eli
elias
elimination
elizabeth
elks
elle
ellen
ellis
elon
else
elsevier
em
email
eman
embassy
emergence
emergency
emi
emil
emilia
emily
emirates
emma
emmanuel
emmy
emmys
emotional
empereurs
emperor
emperors
empire
empires
employment
empty
en
encyclopaedia
encyclopedia
encyclopædia
end
ending
endocrinology
ends
energy
eng
engine
engineering
engines
england
english
enola
enough
enter
enterprise
entertainment
entourage
entre
entries
entry
environment
environmental
ep
epic
episode
episodes
equal
equality
equalizer
equation
er
era
erbil
erdogan
eric
erica
erik
erin
eritrea
ernest
ernst
error
es
esc
escape
espan
especially
espn
esporte
essay
essays
essential
est
esta
established
establishment
estadi
esther
estimate
estimated
estimates
estonia
estonian
estradiol
estrogen
estrogens
et
eta
etc
ethics
ethiopia
ethnic
ethnicity
ethnologue
etymology
etymonline
eu
eugene
eun
euro
eurogamer
euronews
europa
europe
european
eurosport
ev
eva
evaluation
evan
evanescence
evans
eve
even
evening
event
events
ever
everest
evergarden
everton
every
everyone
everything
evidence
evil
evolution
evolutionary
ew
ex
example
excerpt
exchange
exclusive
executed
execution
executive
exhaust
exhibition
exile
exist
existence
expanded
expansion
expected
expedition
experience
experiment
experimental
expert
explained
explains
exploration
explore
explorer
exploring
explosion
exposure
express
expression
extended
extends
external
extra
extraordinary
extreme
eye
eyes
ez
f
fa
face
facebook
faces
fact
factbook
factors
facts
faculty
failure
faiqkallhury
fair
faith
fake
falcon
falk
fall
fallaci
fallen
falling
falls
false
fame
families
family
famous
fan
fandango
fane
fans
fantastic
fantasy
faq
far
farhad
farid
farm
fars
fascism
fashion
fast
fate
father
fatima
fatwa
favorite
favourite
fay
fbi
fc
fda
fe
fear
fears
feature
features
feb
february
federal
federation
feed
feel
feet
felix
fellow
fellows
female
feminism
feminist
feng
ferdinand
ferguson
festival
fever
few
feyenoord
ff
fgm
fi
fiction
fidlar
field
fifa
fifth
fight
fighter
fighters
fighting
figure
figures
fiji
file
fileid
files
filesystem
film
filmfare
filming
filmmaker
films
fina
final
finale
finalists
finally
finals
finance
financial
find
finding
findings
finds
fine
finland
finn
finnish
fire
fires
first
firstpost
fischer
fish
fisher
fivb
five
fixtures
fl
flag
flags
flash
flat
fleet
fleming
flick
flight
florence
florian
florida
flow
flowers
fluid
flutter
fly
flying
fm
fo
focus
folk
folklore
follow
followed
following
food
foods
foot
football
footballer
for
forall
forbes
force
forced
forces
ford
foreign
forest
forever
forgotten
form
format
formation
former
forms
formula
fort
fortune
forum
forward
forza
fossil
foster
found
foundation
foundationpowered
foundations
founder
four
fourfourtwo
fourth
fox
fr
fra
frac
frame
framework
franc
france
frances
franchise
francis
francisco
frank
frankfurt
franklin
franz
fraser
fre
fred
frederick
free
freedom
freeman
french
frequently
fresh
frida
friday
friedman
friedrich
friend
friendly
friends
fritz
from
front
frontier
frozen
frye
ft
fu
fuel
fuji
full
fun
function
functional
fund
fundamental
fundamentals
funeral
funimation
furious
further
fury
futebol
futon
future
fx
g
ga
gabon
gabriel
gakpo
gal
galaxy
gale
gallagher
gallery
game
gamer
games
gamespot
gamesradar
gaming
gamma
gandhi
gandolfini
gangster
gap
garcia
garden
gary
gas
gate
gates
gave
gay
gaza
gazette
gazetteer
gb
gc
gdi
gdp
ge
geek
gemeente
gen
gender
gene
genealogy
general
generation
genetic
genetics
geneva
genital
genius
genocide
genome
geo
geoff
geoffrey
geographic
geographical
geography
geological
geology
geometry
geonames
georg
george
georges
georgia
geq
gerald
gerard
germain
german
germany
gertrude
geschichte
get
gets
getting
gh
ghana
ghost
ghulam
gi
giant
gibson
gil
gilbert
girl
girls
gis
github
give
given
gives
giving
gksat
glamour
glance
glasgow
glass
glenn
global
globaldatalab
globalsecurity
globe
globo
glory
glossary
gm
gmbh
gnu
go
goal
goals
god
godfather
gods
goes
goguryeo
going
gold
goldberg
golden
goldman
gomez
gone
gonzalez
good
goodbye
goodman
goodreads
google
gordon
got
gould
gov
government
governments
governor
govt
gps
gq
gr
grace
graham
grammar
grammy
grand
grande
grant
graphic
grave
gray
great
greater
greatest
greece
greek
green
greenpoems
greenwood
greg
gregorian
gregory
greta
grey
griffin
gross
ground
group
groups
grove
growing
grows
growth
gruyter
gt
gu
guarani
guard
guardian
guardians
guardiola
guatemala
guest
guidance
guide
guidelines
guides
guild
guillaume
guinea
guinness
guitar
gukansho
gulf
gun
gupta
gutenberg
guy
guys
gynecology
h
ha
haaretz
haber
habib
habibullah
had
hai
hair
haiti
hale
half
hall
haller
ham
hamid
hamilton
hammer
han
hanazawa
hancinema
hand
handbook
hands
handset
hanna
hannah
hannibal
hans
hansen
hanyang
happened
happy
harbour
hard
hardy
harmon
harold
harper
harpercollins
harris
harrison
harry
hart
hartmann
haruka
harv
harvard
harvey
harvnb
has
hasan
hassan
hastings
hat
hate
haunted
haval
have
haven
having
hawaii
hawar
hawler
hawlergov
hay
hayes
hbo
hcci
hd
hdi
hdl
hdp
he
head
headache
heads
health
healthline
hear
heard
heart
hearts
heat
heath
heather
heaven
heavy
hebrew
hee
heidelberg
height
heinrich
held
helen
helfen
hell
hellenic
hello
help
helped
hengaw
henri
henry
her
herald
herbert
here
heritage
herman
hermann
hero
heroes
herrera
herzegovina
hess
het
hewal
hezbollah
hi
hicks
hidden
hidilyn
high
higher
highest
highlights
highly
highway
hilary
hill
hills
him
himalayan
himself
hindi
hindu
hindustan
hip
hipes
his
hisham
histo
histoire
historia
historian
historic
historical
history
historyofkurd
hit
hitchens
hitler
hits
hiv
hl
ho
hocus
hodgkins
hoffenheim
hoffman
hold
holiday
holidays
holland
hollywood
holmes
holocaust
holt
holy
home
homepage
homo
homosexuality
honduras
honey
hong
honor
honorary
honored
honorees
honors
honour
honoured
honours
hood
hop
hope
hopes
hopkins
horizon
hormone
hormones
horror
horse
hospital
hossein
host
hosts
hot
hotel
hotspur
hottest
houdini
houghton
hour
hours
house
household
housing
houston
how
howard
however
hp
hr
hrithik
hrw
htm
html
http
https
hu
hua
hub
hudson
huffington
huffpost
huge
hugh
hughes
hugo
hui
hulk
hulu
human
humanitarian
humanity
humans
hundred
hundreds
hung
hungama
hungarian
hungary
hunger
hunt
hunter
hurriyet
hurt
husband
hussain
hussein
huxley
hwa
hwang
hye
hyo
hypothesis
hyun
i
ia
ian
iana
iata
iau
ib
ibge
ibm
ibn
ibrahim
ibrahima
ibrahimovic
ic
ice
iceland
ichiran
ichiro
icon
iconic
id
idaho
idea
ideal
ideas
identified
identities
identity
ideology
idol
idris
ie
ieee
if
iffhs
ign
ignored
ii
iii
ijf
ik
il
ilam
ilbo
ill
illinois
illustrated
im
image
images
imam
imax
imdb
imf
immigration
impact
imperial
implications
importance
important
impossible
in
inc
include
included
includes
including
income
increase
incredible
independence
independent
index
india
indian
indiana
indiatimes
indie
indiewire
indigenous
individual
indo
indonesia
industrial
industry
ine
infection
infectious
influence
influential
info
infobase
information
infrastructure
infty
ing
inhabitants
initiative
injection
injured
injury
inner
inquirer
inquiry
inside
insider
insight
inspired
instagram
installment
instead
institut
institute
institutes
institution
institutions
instituto
instrument
int
intake
integration
intellectual
intelligence
intelligent
inter
interaction
interactive
interest
interim
interior
internal
international
internationale
internet
interview
interviews
intimate
into
intolerance
introducing
introduction
invalid
invasion
invented
invention
inventor
investigation
investment
io
ioc
ios
iowa
ip
ipad
iphone
iq
ir
ira
irak
iran
iranatlas
iranian
iranica
iranicaonline
iraq
iraqi
ireland
irish
irna
iron
irvine
is
isa
isaac
isak
isbn
ishida
isil
isis
isla
islam
islamic
islamist
islamqa
islamway
islamweb
island
islands
isn
isna
iso
israel
israeli
issf
issn
issue
issued
issues
ist
istanbul
it
italia
italian
italy
item
itemid
its
itself
itunes
itv
iucn
iv
ivan
ivoire
ivory
ix
j
ja
jack
jackie
jackson
jacob
jacobs
jacques
jae
jaff
jail
jailed
jake
jama
jamal
james
jamestown
jamie
jan
jane
janeiro
janet
jang
januari
january
janvier
japan
japanese
japon
jason
java
javascript
jay
jazeera
je
jean
jeff
jeffrey
jennifer
jenny
jensen
jeong
jeremy
jerome
jerry
jersey
jerusalem
jesse
jessica
jesus
jet
jeux
jewish
jews
jha
ji
jihad
jill
jim
jimare
jimmy
jin
jinno
jl
jm
jo
joan
job
jobs
joe
joel
joey
johan
johannes
john
johnny
johns
johnson
johnston
join
joining
joins
joint
joker
jolie
jon
jonas
jonathan
jones
jong
joo
joon
joongang
jor
jordan
jose
joseon
joseph
josh
joshua
journal
journalism
journalist
journalists
journey
joy
joyce
jp
jpg
jr
js
jsp
jstor
ju
juan
judge
judith
judo
jul
jules
julia
julian
julie
july
jump
jun
june
jung
jungle
junior
jurassic
just
justice
justin
juventus
k
ka
kabul
kahlo
kai
kaif
kaljulaid
kalvin
kamal
kan
kana
kane
kang
kani
kapoor
kara
karabakh
karate
karen
karim
karl
kashmir
kate
katherine
kathleen
kathryn
katie
katrina
katy
katz
kaufman
kay
kazakh
kazakhstan
kazan
kazkhstan
kb
kbs
kc
kd
kdp
ke
keep
keeping
keith
kelly
kemal
ken
kennedy
kenneth
kent
kenya
kepler
kessie
kettenmann
kevin
key
keyboard
kg
kh
khaktv
khaled
khalid
khalifa
khan
khashoggi
khomeini
khrn
khrushchev
ki
kick
kicker
kid
kidman
kids
kill
killed
killer
killing
kills
kim
kimberly
kimetsu
kind
king
kingdom
kingdoms
kings
kinship
kirk
kirkuk
kishimoto
kishori
kiss
kit
klein
km
knew
knight
knives
know
knowledge
known
knwe
ko
kobe
koch
kodansha
konate
kondolojy
kong
kooora
korea
korean
koshy
kosovo
kou
koya
koyauniversity
kr
krd
krekar
krg
kroll
krso
ks
ku
kuch
kulusevski
kumar
kun
kunaicho
kurd
kurde
kurdi
kurdipedia
kurdish
kurdistan
kurdistane
kurdistanmedia
kurdiu
kurds
kuwait
kw
kyle
kylian
kyo
kyoto
kyra
kyrgyz
kyung
kz
l
la
lab
label
labor
laboratory
labour
lacey
ladies
lady
laga
lake
lal
lambda
lancet
land
lands
landscape
lane
lang
language
languages
langue
lanham
lanka
lara
large
largest
larry
lars
larson
larsson
las
laser
last
late
later
latest
latin
latitude
launch
launched
launches
laura
laureate
laureates
lauren
laurence
laurent
laurie
lavender
law
lawrence
laws
lawyer
lay
lb
lccn
ldots
le
lead
leader
leaders
leadership
leading
leads
league
learn
learned
learning
leary
least
leave
leaves
leaving
lebanese
lebanon
lebo
lecture
led
ledger
lee
leeds
left
leg
legacy
legal
legend
legendary
legends
legislation
leicester
leiden
leigh
leipzig
length
lenin
lens
leo
leon
leonard
leonardo
leq
leroy
les
lesbian
lesley
leslie
less
lesser
lessons
let
letter
letters
level
levels
levi
levy
lewis
lex
lexicon
lexington
lgbt
li
lia
lib
liber
liberal
liberalism
liberation
libertadores
liberty
libraries
library
libreoffice
libya
license
lie
lies
life
lifetime
lift
liga
light
lightning
ligt
ligue
like
likely
lili
lily
lim
limited
limits
lin
lincoln
linda
line
linear
lines
lineup
linguistic
linguistics
link
linked
links
linux
lion
lions
lippincott
liquid
lisa
list
lista
listed
listen
listing
lists
lit
lite
literary
literature
lithuania
little
littlefield
liu
live
lived
liver
liverpool
lives
living
liz
liza
lkerung
ll
llc
ller
lloyd
ln
lng
lo
loan
loc
local
locality
location
locations
lodi
loewe
log
logging
logic
london
lonely
long
longer
longest
longman
loo
look
looking
looks
lopez
lord
lorenzo
los
lose
loses
loss
lost
lot
loudwire
louis
louise
love
loved
low
lower
lp
lt
ltd
lu
lua
lucas
lucy
ludwig
luis
luka
luke
luna
lunar
lung
lynn
m
ma
mac
macchio
macdonald
macedonia
mach
machine
mackenzie
macmillan
mad
madagascar
maddison
made
madison
madness
madrid
mag
magazine
maggie
magic
magnetic
mahdi
maher
mahmoud
mahsa
mai
mail
main
mais
major
majority
make
makes
making
makoto
maktaba
malala
malawi
malaysia
malcolm
male
malik
mall
malta
man
management
manager
manchester
manga
mania
manohla
manual
many
map
mapping
maps
maqbool
mar
marathon
marc
marca
marcel
march
marco
marcos
marcus
margaret
mari
maria
marie
marijuana
marilyn
marine
mario
marion
mark
market
marketing
markets
markiplier
marks
maroon
marriage
married
mars
marshall
mart
marta
marti
martial
martin
martinelli
martinez
marvel
marx
mary
masashi
mashke
maslin
mason
mass
massachusetts
massacre
massive
master
masters
match
matches
material
materials
math
mathbb
mathbf
mathematical
mathematics
matheus
mathrm
mathworld
matrix
matt
matter
matters
matthew
matthijs
maureen
maurice
max
may
maya
mayo
mayoclinic
mayor
mb
mbappe
mbc
mbox
mc
mccarthy
mcfarland
mcgraw
mcgregor
mckeon
mcnary
mcnulty
mcu
md
mdma
me
mean
meaning
means
measures
meat
mecca
mechanical
mechanics
med
medal
medals
media
mediawiki
medical
medicine
medien
medieval
medium
medlineplus
meet
meeting
meets
meg
megan
mehr
mehrnews
melbourne
melissa
member
members
membership
memoirs
memorial
memories
memory
men
mental
mentalist
mer
merged
merriam
mesopotamia
message
messenger
messi
messina
met
meta
metabolism
metacritic
metal
metaphysics
metaverse
metcalf
meteorology
meter
method
methods
metres
metro
metropolitan
mexican
mexico
meyer
mg
mi
mia
miami
michael
michel
michelle
michigan
microsoft
mid
middle
middleeast
middleton
midfielder
mie
might
migration
mike
mikhail
mil
milan
mile
militant
militants
military
millennium
miller
millie
million
millions
milliyet
mills
min
mind
mine
minecraft
ming
mini
mining
minister
ministers
ministry
minnesota
minor
minorities
minority
minute
minutes
miracle
mirror
mismatch
miss
missile
missiles
missing
mission
missouri
mit
mitch
mitchell
mix
mixed
mj
mk
ml
mm
mma
mn
mo
mobile
mod
mode
model
models
modern
moderna
modified
module
mohamed
mohammad
mohammed
mojo
mol
moldova
molecular
mom
moment
moments
mon
mona
monaco
monday
monde
monetary
money
mongabay
mongolia
monica
monitor
monster
monsters
montana
montefiore
montgomery
month
monthly
months
montreal
monument
monuments
mood
moon
moore
morad
moral
morality
more
morgan
moriba
morning
morocco
morris
mortal
mortality
moscow
mosque
most
mosul
mother
motion
motor
motors
mount
mountain
mountains
mouse
move
moved
movement
movements
moves
movie
movies
moving
mp
mpicos
mporg
mr
mrbeast
mri
mrs
ms
msn
mt
mtv
mu
much
mughal
muh
muhammad
mullah
multi
multiple
mumbai
mundo
munich
municipal
municipalities
municipality
murad
murder
murdered
murphy
murray
muscle
museo
museum
museums
mushkil
musiala
music
musical
musicians
musk
muslim
muslims
must
mustafa
mutilation
mv
mw
my
myanmar
mysteries
mysterious
mystery
myth
myths
n
na
nabla
nacional
nadia
nagelsmann
nagorno
nalia
nam
name
named
names
nan
nancy
napoli
narrative
naruto
nasa
nash
nasr
nast
natalia
natalie
nathan
nation
national
nationale
nationalencyklopedin
nationalism
nationalist
nationality
nations
native
nato
natur
natural
nature
naver
navier
navy
nawaz
nazi
nb
nba
nbc
nc
ncaa
ncbi
nchen
ncia
ncis
nd
ndez
ndtv
ne
near
nearly
need
needs
negative
neil
nellie
nelson
neo
neon
nepal
neq
nes
net
netflix
netherlands
network
networks
neuroscience
nevada
never
new
newcastle
newly
newman
news
newspaper
newspapers
newsweek
newton
next
nexus
nez
nf
ng
ngo
nh
nhk
nhs
ni
nic
nice
nicholas
nicholson
nick
nickelodeon
nicolas
nicole
nietzsche
nigeria
night
nightmare
nih
nihilism
nihon
nil
nimrud
nin
nine
nineteenth
nineveh
ninja
nintendo
nizami
nj
nl
nlm
nm
nme
no
noah
nobel
nobelprize
noble
node
nohlen
nominated
nomination
nominations
nominees
non
noor
normal
norman
north
northeast
northern
norton
norway
norwegian
norwich
nos
not
note
notes
nothing
notice
nov
nova
novel
novels
november
now
nozzle
npr
nr
nrj
nrt
nrttv
nu
nuclear
number
numbers
nunes
nussbaum
nutrition
ny
nytimes
nz
o
obama
obituary
object
objects
oblast
observations
observatory
observer
obstetrics
ocalan
occurs
ocean
och
oclc
oct
october
odnb
odyssey
oecd
oed
of
off
offensive
offers
office
officer
officers
official
officially
officials
officiel
oficial
often
og
oh
ohchr
ohio
ohv
oi
oil
ois
ok
ol
old
oldest
oldid
olga
oli
oliver
olivia
olivier
olson
olympanalyt
olympedia
olympia
olympiad
olympic
olympics
om
oman
omar
omega
on
once
one
onepage
online
only
ontario
op
open
opened
opening
opens
openstreetmap
opera
operating
operation
operations
operatorname
opinion
opportunity
opposition
oprah
option
options
or
oracle
oral
orange
oranje
order
ordered
orders
org
organic
organisation
organising
organization
organizations
orhan
oriana
orient
oriental
orientation
origin
original
originally
originals
origins
os
oscar
oscars
oslo
other
others
otitis
otto
ottoman
ou
oup
our
out
outbreak
outdoor
outline
outlook
outside
ova
over
overall
overline
overseas
overview
owen
own
oxford
oxygen
ozark
p
pa
pacific
package
padding
padukone
page
pages
pai
paid
pain
painter
painting
paintings
pak
pakistan
pakistani
palace
pale
palestine
palestinian
palgrave
palmeiras
palmer
pamela
pamirs
pan
panda
pandemic
panel
panorama
pantheon
panther
papel
paper
paperback
papers
par
para
parade
paradise
paralympic
paralympics
parameter
parents
paris
park
parker
parks
parliament
parliamentary
parse
part
partial
participation
parties
partner
partners
partnership
parts
party
pas
pascal
pass
passes
passion
past
patent
path
patient
patients
patricia
patrick
patriot
patterns
paul
paula
paulo
pavement
pay
pbs
pc
pd
pdf
pe
peace
pearl
pearson
pediatrics
pedro
peer
pen
penalty
penguin
peninsula
pennsylvania
penske
people
peoples
per
percent
perfect
perform
performance
performing
period
permanent
perry
perseus
persia
persian
person
personal
persons
perspective
perspectives
peru
peshmerga
pet
peter
peters
petersburg
petroleum
petski
pew
pfa
pg
ph
phantom
pharmaceutical
pharmacology
phase
phd
phenomenon
phi
phil
philadelphia
philip
philippe
philippine
philippines
phillips
philosopher
philosophical
philosophy
phoenix
phone
phonographic
photo
photography
photos
php
physical
physician
physicist
physics
physiology
pi
piano
pic
pick
picks
picture
pictures
piece
pierre
pilot
pineda
pink
pinker
pioneer
pirate
piryonesi
pitch
pitt
pittsburgh
pixar
pk
pkk
pl
place
places
plain
plak
plan
planck
plane
planet
planning
plans
plant
plants
platform
plato
play
playbill
played
player
players
playing
plays
playstation
please
plos
plot
plus
pm
pmc
pmid
pnas
png
po
pocket
pocus
podcast
poems
poet
poetry
point
points
poland
police
policies
policy
polish
political
politician
politico
politics
poll
polo
polygon
ponsonby
pony
pop
pope
popular
population
populations
por
porn
port
portal
porte
porter
porto
portrait
portugal
portuguese
position
positive
possible
post
poster
potential
potter
pour
poverty
power
powered
powerful
powers
pp
pr
practical
practice
practices
prasad
pre
prediction
prefecture
prehistoric
preliminary
premier
premiere
premieres
premium
prentice
prepared
prequel
present
presentation
presented
presents
presidency
president
presidential
presidents
press
presse
pressure
preston
pretty
prevalence
prevention
preview
previous
previously
pri
price
pride
primary
prime
primer
prince
princess
princeton
principal
principle
principles
print
printing
prison
prisoner
prisoners
private
prix
priyanka
prize
prizes
pro
probably
problem
problems
procedure
proceedings
process
processes
processing
prod
produce
produced
producer
product
production
productions
products
professional
professor
profile
profiles
profit
progesterone
program
programme
programming
programs
progress
progressive
project
projects
prometheus
prominent
promise
promo
pronunciation
proof
properties
property
prophet
propulsion
prospects
prostate
prostitution
protect
protection
protein
protest
protesters
protests
protocol
proud
provided
provides
province
provinces
provincia
provincial
ps
psg
psi
psv
psychiatric
psychiatry
psychological
psychology
pt
pu
pub
public
publication
publications
publique
published
publisher
publishers
publishing
puk
pukmedia
pulse
punch
punjab
purple
purpose
push
put
putin
puts
pv
px
q
qa
qaeda
qatar
qian
qin
qing
qquad
qu
quad
qualification
qualifying
quality
quantum
quarter
quarterly
que
queen
queensland
queer
quest
question
questions
qui
quickfacts
quickstats
quiet
quinn
quipe
quote
quoted
qur
quran
r
ra
race
rachel
racial
racing
racist
rad
radiation
radical
radio
rafael
rage
rahman
rai
railway
rain
raised
raises
raising
rally
ralph
ram
ramos
ramsdale
ran
ranbir
random
range
ranges
rank
ranked
ranking
rankings
rant
rape
rapist
raqqa
rare
rassembler
rate
rated
rates
rather
ratings
ratingss
ratio
ration
raton
raw
ray
raymond
rb
rd
re
reach
reaction
reactions
read
reader
readers
reading
ready
real
realism
reality
really
reason
reasoning
reasons
rebecca
rebel
rebellion
rebels
receive
received
receives
recent
recipients
recognition
recognized
recommended
reconstruction
record
recorded
recording
records
recovery
red
reddit
redemption
rediff
redir
reece
reed
reel
ref
reference
references
referendum
referred
refers
reflections
reform
refugee
refugees
refworld
regarding
regime
region
regional
regions
register
registration
reguilo
regular
regulation
regulations
reich
reid
reign
reilly
related
relation
relations
relationship
relationships
release
released
releases
religion
religions
religious
remain
remains
remake
remembering
ren
renaissance
rene
renewed
renews
rennes
replacement
report
reported
reporter
reporting
reports
representation
representative
reprinted
repu
repubblica
republic
required
requirements
requires
res
research
researchgate
resident
residents
resigns
resistance
resolution
resolutions
resource
resources
respect
response
responses
rest
restoration
result
results
retail
retirement
retrieved
return
returning
returns
reuters
rev
reveal
revealed
reveals
revenge
review
reviews
revised
revision
revisited
revival
revolution
revolutionary
rey
reynolds
reza
rf
rho
ri
ria
rian
ric
rica
rice
rich
richard
richarlison
rick
rico
ridge
rie
rifle
right
rightarrow
rights
rin
ring
rings
rio
rise
rises
rising
risk
rita
river
rk
rkiye
rl
rm
rna
ro
road
roads
rob
robert
roberts
robertson
robin
robinson
robot
rock
rocket
rocky
rod
rodri
rodriguez
roemer
roger
rogers
rojava
rojnews
roland
role
roles
roll
rolling
rom
roma
roman
romance
romania
romano
romantic
rome
ron
ronald
ronaldo
room
root
roots
rosa
rose
rosen
ross
roster
roth
rothermund
rotten
round
route
routes
routledge
rovi
row
rowman
roy
royal
royale
rpm
rriyet
rs
rsssf
rsula
rt
ru
rubin
ruby
rudaw
rudolf
ruiz
rule
rulers
rules
ruling
rumi
run
runner
running
rural
rush
rushdie
russell
russia
russian
ry
ryan
s
sa
sabah
sabri
sacha
sacred
sad
saddam
sadr
safavid
safe
safety
sag
saga
sage
sai
said
saint
saints
saison
sakharov
saksena
saladin
salah
salam
sale
sales
sally
salman
salon
salt
salvador
salzburg
sam
samantha
same
samson
samsung
samuel
san
sanchez
sanctions
sand
sandra
sane
sang
santa
santos
sar
sara
sarah
saran
sars
satellite
saturday
saturn
saudi
saudis
saunders
savage
save
savory
saw
say
saying
says
sb
sbs
sc
scale
scandal
scarecrow
scarlet
scene
scenes
schedule
schizophrenia
schmidt
schmitt
schneider
schoenbaum
scholar
scholars
school
schools
schuster
schwartz
sci
science
sciencedirect
sciences
scientific
scientist
scientists
score
scorer
scores
scotland
scott
scr
screen
screening
screenrant
script
scroll
sd
sdf
se
sea
seal
sean
search
seas
season
seasons
seat
seattle
sec
second
secret
secretariat
secretary
secrets
section
sector
secular
secularism
secure
security
see
seeks
seems
seen
sees
seidman
selec
select
selected
selection
self
selling
sells
semi
sen
senate
send
senegal
senior
sense
sent
sentenced
sentinel
seo
seok
seoul
sep
sept
september
sequel
sequence
ser
sera
serbia
serbian
sere
sergio
serial
serie
series
serious
seru
server
service
services
ses
session
set
seth
sets
settlements
seung
seven
seventh
several
sevilla
sex
sexiest
sexual
sexuality
sfn
sfnm
sh
sha
shadow
shah
shakespeare
shane
shang
shanghai
shannon
shape
share
shared
shares
sharing
sharma
sharp
shaw
shawn
she
sheet
sheffield
sheikh
sherlock
shi
shia
shield
shim
shimbun
shin
shinkai
ship
shirley
shirt
sho
shonen
shoot
shooting
short
shorty
shot
shoten
should
shoulders
show
showbuzzdaily
shows
showtime
shroff
shtml
shu
shueisha
si
sid
side
sie
siege
sierra
sigma
sign
signal
signed
significance
signing
signs
sil
silence
silent
silicon
silk
silla
silva
silver
silverman
sim
sima
simeq
similar
simon
simons
simple
simpson
sin
sina
since
sing
singapore
singer
singh
single
sinjar
sir
sister
sisters
site
sites
situation
six
sixth
size
skard
ski
skin
sky
slam
slate
slavery
slayer
sleep
slovakia
slovenia
sm
small
smart
smash
smith
smithsonian
smoke
sniper
snow
so
soccer
soccerway
social
socialism
socialist
societies
society
sociological
sociology
sodium
sofia
software
sol
solar
sold
soldier
soldiers
soler
solid
solomon
solution
some
something
sometimes
son
song
songs
sonia
sons
sony
soo
sook
soon
sophia
sophie
soprano
sopranos
sorani
sotor
soul
sound
soundtrack
source
sources
south
southampton
southeast
southern
sovereigns
soviet
sp
space
spacex
spain
span
spangler
spanish
spark
speak
speaker
speakers
speaking
speaks
spears
special
species
specific
specified
spectrum
speech
speed
speemedia
spencer
spider
spiegel
spielberg
spin
spinoff
spirit
split
spoken
sponsor
sponsorship
sport
sporting
sports
spot
spotlight
spread
spring
springer
spy
sqrt
squad
square
squid
sr
sri
ss
st
sta
stability
stable
stadium
staff
stage
stalin
stallman
stanbul
stand
standard
standards
stanford
stanley
stanton
star
starrer
starring
stars
start
starting
starts
stat
statcan
state
statement
statements
states
statesman
station
statistical
statistics
statistik
stats
statue
status
stay
steam
steel
stefan
stein
stella
step
stephanie
stephen
steps
sterling
steroid
steve
steven
stevens
stewart
stica
still
stm
stock
stockholm
stokes
stone
stop
store
stories
storm
story
straight
straits
strange
stranger
strategic
strategy
strauss
stream
streamed
streaming
street
streets
strength
stress
strike
striker
strikes
string
stroke
strong
structural
structure
structures
struggle
stuart
student
studentlitteratur
students
studies
studio
studios
study
stuff
style
su
sub
subdistrict
subject
subjects
subscription
substance
suburbicon
success
successful
such
sudan
sue
suggested
suicide
sullivan
sultan
sultanate
sum
summary
summer
summit
sun
sundance
sunday
sung
sunnah
sunni
suny
super
superhero
supernatural
superstar
suppl
supplement
support
supporters
supporting
supreme
sur
surface
surgery
surprise
survey
survival
survivor
susan
suspect
sustainable
sutton
sv
swan
sweden
swedish
sweet
swift
swimmer
swimming
swiss
switzerland
sword
sy
sydney
symbol
symbols
symposium
symptoms
syndrome
synthesis
syracuse
syria
syriac
syriaca
syrian
system
systematic
systems
t
ta
tab
tabari
tabid
table
tables
tactical
tae
tag
tags
taipei
taiwan
tajikistan
take
taken
takes
taking
talbot
tale
talent
tales
taliban
talk
talking
talks
tally
tan
tang
tank
tantao
tanzania
taps
tarantino
target
targets
tas
task
tasnim
tate
tauris
taylor
tb
tbol
tc
tcm
te
tea
teacher
teachers
teaching
teachings
team
teams
teaser
tech
techcrunch
technica
technical
technoblade
technologies
technology
ted
teen
teenage
teenager
tehran
tel
telegram
telegraph
telescope
television
tell
tells
temperature
temple
ten
tension
ter
term
terminal
terms
territorial
territories
territory
terror
terrorism
terrorist
terrorists
terry
tes
tesla
test
testament
testing
testosterone
tests
texas
text
textbook
texts
tfrac
th
tha
thailand
than
thank
thanks
that
the
theater
theaters
theatre
theft
theguardian
their
them
theme
themselves
then
theodore
theology
theorem
theoretical
theories
theory
therapy
there
thermal
thermodynamics
these
thesis
thestar
theta
thewrap
they
thing
things
think
thinking
third
thirty
this
thomas
thompson
thomson
thor
thorne
those
though
thought
thoughts
thousand
thousands
threat
threatened
threats
three
thriller
thrones
through
throughout
thunberg
thursday
thus
ti
tico
tie
tiempo
ties
tiff
tiger
tiktok
til
till
tim
time
timeline
times
timesofindia
timo
timothy
title
titles
titsingh
tk
to
today
todd
together
tokio
tokyo
told
toll
tom
tomatoes
tomb
tomorrow
tongjian
tonight
tony
too
took
tool
tools
top
topendsports
topic
topics
tops
torild
toronto
total
tottenham
touch
tough
tour
tourism
tourist
tournament
toward
towards
tower
town
towns
toy
toyota
tr
tra
track
trade
tradition
traditional
traditions
traffic
trafficking
tragedy
trailer
train
training
trans
transactions
transcript
transfer
transformation
transgender
transit
transition
translated
translation
translations
translator
transport
transportation
transylvania
travel
travels
tre
treatment
treaty
tree
trends
trent
trial
triangle
tribe
tribes
tribune
tribute
trick
trip
tripathi
triple
triumph
troops
trophy
troy
trt
trudeau
true
trump
trust
truth
trying
ts
tsar
tt
ttc
tu
tube
tucker
tudes
tunisia
turbine
turkey
turkic
turkish
turkmen
turkmenistan
turks
turn
turned
turner
turning
turns
tv
tvline
tweet
twentieth
twenty
twice
twitch
twitter
two
tyler
type
types
tyson
u
ua
uae
ubisoft
ubuntu
uc
ucl
uefa
ufc
uganda
uk
ukraine
ukrainian
ul
ultimate
ultra
ultratop
um
uma
un
una
unable
und
under
underground
underline
understanding
undoing
undp
une
unesco
unhcr
unicef
union
unique
unit
united
units
unity
univ
universal
universe
universidad
universities
university
unix
unknown
unlikely
unrest
until
unveiled
unveils
up
upcoming
update
updated
updates
upi
upload
uploads
upon
upper
ups
ur
urban
urges
url
uruguay
us
usa
usatoday
use
used
user
users
uses
usgs
using
ussoccer
ussr
usually
uswnt
utah
utc
uzbekistan
v
va
vaccine
vaccines
valencia
valley
value
values
valve
vampire
vampires
van
vancouver
vanessa
vanity
var
variable
variety
various
varley
varphi
vatican
vdots
ve
vec
ved
vegan
vegas
vegetarian
vehicle
vejin
venezuela
venice
ver
vera
verdict
verge
verhoeven
verlag
verse
version
versus
vertical
very
vh
vi
via
viacomcbs
vice
victim
victims
victor
victoria
victorian
victory
video
videos
vie
vieira
vietnam
view
viewers
viewing
views
vii
viii
vijay
viking
vila
villa
village
villages
villarreal
vincent
vinci
vine
violence
violent
violet
viral
virgin
virginia
virtual
virus
visa
vision
visit
visitpetra
vista
visual
vita
vital
vitamin
vivid
viz
vladimir
vo
voa
voanews
vogue
voice
voices
vokradio
vol
volkswagen
volleyball
vols
volume
volumes
von
vote
voted
vox
vr
vs
vu
vulture
w
wa
wagner
wait
wake
wales
walk
walker
walking
wall
wallace
walsh
walt
walter
wanderers
wang
want
wanted
wants
war
ward
warfare
warner
warren
warrior
wars
was
washington
washingtonpost
wasn
watch
water
watford
watson
watts
wave
waves
way
wayback
wayne
ways
wcw
we
weapon
weapons
weather
web
webb
weber
webmd
webs
website
webster
wedding
wednesday
week
weekend
weekly
weeks
wei
weight
welch
welcome
welcomes
welfare
well
welle
wells
welt
wen
went
were
werkelijke
werner
wesley
west
western
westganews
what
wheel
when
where
which
while
white
whitney
who
whole
whom
whose
why
wi
wide
widow
width
wien
wife
wiki
wikimania
wikimapia
wikimedia
wikipedia
wikisource
wiktionary
wild
wildlife
wiley
wilhelm
wilkins
will
willem
william
williams
wilson
win
wind
windows
wing
winner
winners
winning
wins
winter
wire
wired
wisconsin
wisdom
wise
wishe
witch
with
within
without
wnt
wolf
wolfgang
wolfram
wolves
woman
women
won
wonder
wong
woo
wood
woods
word
wordpress
words
work
workers
working
works
world
worldathletics
worldcat
worldcitypopulation
worldfootball
worldometers
worlds
worldwide
worst
worth
would
wounded
wp
wrap
wrestling
wright
write
writer
writers
writing
writings
written
wrong
ws
wu
ww
wwe
wwf
www
wyoming
x
xavi
xbox
xelk
xendan
xi
xia
xiao
xico
xls
xml
xr
xu
xv
xvii
xware
xwaru
xx
xxx
xy
y
ya
yageyziman
yahoo
yaiba
yale
yang
yas
yayınları
yazidi
yazidis
ye
year
yearbook
years
yellow
yemen
yen
yeni
yeo
yeon
yerevan
yes
yet
yezidi
yi
yjc
yo
yong
yonhap
yoo
yoon
york
yorker
you
young
youngest
youngster
your
yousafzai
youth
youtube
youtuber
ypg
yu
yuan
yukon
yuri
z
za
zabka
zach
zack
zafar
zagros
zalta
zaman
zambia
zamenpress
zamora
zamoyski
zand
zap
zara
ze
zealand
zeitung
zero
zhang
zhou
zi
zidane
zik
zinda
zizhi
zlatan
zombies
zone
zoo
zu
zum
zur
{
|
}
~

¡
£
¤
§
©
ª
«
¬
­
®
¯
°
±
²
³
´
µ
·
¹
º
»
½
¿
×
÷
ø
ı
ın
ɑ
ə
ɪ
ʔ
ʕ
ʖ
ʘ
ʰ
ʲ
ʹ
ʻ
ʼ
ʾ
ʿ
ˇ
ˈ
ˉ
ˌ
ː
˘
˙
˚
˵
̀
́
̂
̃
̄
̅
̆
̇
̈
̉
̊
̋
̌
̓
̔
̛
̣
̥
̦
̧
̨
̩
̫
̮
̯
̱
̲
̸
͂
͈
͜
͞
͡
α
β
γ
δ
ε
ζ
η
θ
ι
κ
λ
μ
ν
ξ
ο
π
ρ
ς
σ
τ
υ
φ
χ
ω
ϕ
ϵ
а
азербаи
бласть
в
г
года
д
е
з
за
и
к
л
лаи
м
н
на
населения
национальныи
о
област
перепись
по
р
россии
с
ская
скои
состав
ссср
стратегія
т
у
ф
федерации
я
і
ә
՝
՞
է
ը
թ
հայաստանի
հանրապետության
և
֏
ְ
ֱ
ִ
ֵ
ֶ
ַ
ָ
ֹ
ּ
ׁ
ׂ
א
ב
ג
ד
ה
ו
ח
ט
י
כ
ל
ם
מ
ן
נ
ס
ע
ף
פ
צ
ר
ש
ת
،
؛
؟
ء
ا
اء
اب
اباجالی
اباد
ابادان
ابادی
ابادیھا
ابدا
ابراهیم
ابراھیم
ابن
ابو
ابوری
ابوور
ابووری
ابووریدا
ابووریزانی
ابووریناس
ابووریی
ابوورییە
ابوورییەوە
ابوورییەکان
ابوورییەکانی
ابوورییەکەی
ابی
ابێ
ات
اتر
اتلانتیک
اتوێڵ
اتکینز
اثر
اج
اجای
اجتماعی
اح
احمد
اخ
اخافتن
اخاوتن
اخاوتنی
اخبار
اخر
اخری
اخرین
اخکەنی
اخۆ
اخێوەرانی
اخێوەری
اد
ادا
اداب
ادابی
اداری
ادامز
ادانا
ادبیات
اده
ادۆڵف
ادی
ادیتیا
ادەخان
ادەم
ادەمز
ادەمی
ادەمیزاد
ار
ارا
ارادا
ارادایە
ارارات
اراس
اراستە
اراستەکردنی
اراستەکردنە
اراستەی
ارام
ارامی
ارامیی
اران
اراوە
اراگۆن
ارت
ارتی
ارتەر
ارجەنتین
ارد
اردلان
اردی
ارسن
ارسناڵ
ارسەر
ارمان
ارمسترۆنگ
ارنۆڵد
ارنێ
ارووناوا
ارژەنتین
ارک
ارۆن
اری
اریا
اریان
اریکاریی
ارییەکان
ارەزوو
ارەزووی
ارەزووەکانی
از
ازا
ازاد
ازادانە
ازادبوونی
ازادڕەوەکان
ازادکرا
ازادکران
ازادکردنی
ازادی
ازادیان
ازادیخوازی
ازادیی
ازادییە
ازادییەکانی
ازادە
ازادەکان
ازار
ازاردا
ازاردان
ازاردانی
ازاری
ازاریان
ازارێک
ازارێکی
ازارە
ازارەوە
ازارەکانی
ازارەکە
ازاڤەیسی
ازایەتی
ازربایجان
ازیز
ازەر
ازەربایجان
ازەربایجاندا
ازەربایجانی
ازەربایجانە
ازەری
ازەرین
ازەرییە
ازەرییەکان
ازەرییەکانیەکان
ازەریەکان
اس
اسا
اسان
اسانتر
اسانترین
اسانترە
اسانکاری
اسانکردنی
اسانی
اسانە
اسای
اسایش
اسایشی
اسایی
اساییانە
اساییدا
اساییی
اسایییە
اساییە
اساییەکان
اساییەکانی
است
استاد
استان
استشهاد
استی
استێک
استێکی
استە
استەر
استەنگ
استەنگی
استەکانی
استەی
استەیت
اسلام
اسلامی
اسم
اسماعیل
اسمان
اسماندا
اسمانی
اسمانیی
اسمانییە
اسمانییەکان
اسمانییەکانی
اسمانییەکە
اسمانیە
اسمانیەکان
اسمانیەکانی
اسمانەوە
اسمانەکان
اسن
اسناد
اسنگەر
اسنی
اسنین
اسنینی
اسنەوە
اسوودە
اسوودەیی
اسک
اسکان
اسکی
اسکە
اسۆ
اسۆس
اسۆی
اسۆیی
اسیا
اسیادا
اسیاوە
اسیای
اسیایی
اسیایە
اسەواری
اسەوارە
اسەوارەکانی
اش
اشت
اشتی
اشتیان
اشتیانە
اشتیخواز
اشتیدا
اشتیی
اشتییانە
اشتەوایی
اشعار
اشقی
اشنا
اشنابوون
اشنای
اشنایی
اشنایەتی
اشور
اشوری
اشورییەکان
اشوور
اشووری
اشوورییەکان
اشوورییەکانی
اشووریەکان
اشکرا
اشکرابوونی
اشکراکرد
اشکراکردنی
اشکرای
اشکرایکرد
اشکرایی
اشکرایە
اشی
اط
اطلاع
اطلاعات
اطلع
اع
اعتراضات
اعلام
اغ
اغا
اغاج
اغاوەیسی
اغاکان
اغاکانی
اغای
اغبولاغ
اغبوڵاغی
اغجەلەر
اغدەرەی
اغچەلی
اف
افره
افرەت
افرەتان
افرەتانی
افرەتانەی
افرەتی
افرەتێک
افرەتێکی
افرەتە
افلێک
افەرین
اق
اقاری
اك
ال
الا
الاتحاد
الاسرار
الاسکا
الاشهب
الافزەل
الالوکە
الان
الانتخابات
الانوار
الباز
البانیا
البتراء
البخاري
البداية
البغدادي
البيت
البيطار
البێر
البێرت
التاريخ
التاریخ
التراث
التي
الثاني
الثقافة
الجامع
الجديد
الجزء
الجزاي
الجزيرة
الجنة
الجيلاني
الحج
الحجر
الحديث
الحديثة
الحديثية
الحرام
الحسن
الحضارة
الحلبي
الخاطر
الدرر
الدكتور
الدولة
الدين
الدین
الدینی
الذهبي
الذي
الر
الرحمن
الرسالة
الرسمي
الرسول
الري
الرياضي
الزمان
الزواوي
الس
السابع
السادات
السلام
السلطان
السلطانية
السنة
السنية
السيرة
السيوطي
الش
الشاملة
الشرق
الشطنوفي
الشيخ
الشیخ
الص
الصحابة
الصفحات
الصلاة
الطب
الطبعة
العاصمة
العالم
العام
العامة
العباس
العراق
العراقي
العراقية
العراقی
العراقیة
العرب
العربي
العربية
العربیة
العزيز
العسقلاني
العلم
العلمية
العلوم
العمل
العنوان
العهد
الف
الفا
الفتوى
الفرعون
الفرێد
الفقه
الفكر
القادرية
القاسم
القاهرة
القدم
القرا
القران
القرن
الكبرى
الكبير
الكتاب
الكتب
الكريم
الكنيسة
الكيلاني
الل
اللغة
الله
اللە
الم
المختوم
المدينة
المرا
المسار
المصحف
المعارف
المعرفة
المغرب
المغربية
المكتبة
الملك
الملک
المنظمة
المو
الموسوعة
الموقع
الن
الناس
النبلاء
النبوة
النبوية
النبي
النحو
النساء
النشر
النظر
النور
الوحي
الوسيط
الوفد
اليوم
الپ
الکتاب
الی
الیس
الێن
الەگوێزی
ام
اماده
امادە
امادەبوو
امادەبووان
امادەبووانی
امادەبوون
امادەبوونی
امادەبێت
امادەن
امادەکاری
امادەکراو
امادەکراوە
امادەکرد
امادەکردن
امادەکردنی
امادەی
امادەیی
امادەییی
امادەیە
امار
اماری
امارێکی
امارە
امارەکان
امارەکانی
امان
امانج
امانجی
امانجیان
امانجێکی
امانجە
امانجەکان
امانجەکانی
امانجەکانیان
امانجەکەی
اماژه
اماژە
اماژەدان
اماژەمان
اماژەن
اماژەکردن
اماژەی
اماژەیان
اماژەیە
اماژەیەک
اماژەیەکی
اماژەیەکە
امراز
امرازی
امرازێک
امرازێکی
امرازێکە
امرازە
امرازەکان
امرازەکانی
امریکا
امریکایی
امریکایە
اموون
امۆزا
امۆزاکەی
امۆزای
امۆل
امۆژگاری
امۆژگاریی
امۆژگارییەکانی
امیر
امین
امینی
امینە
امێدی
امێر
امێرانە
امێرانەی
امێری
امێرێک
امێرێکی
امێرێکە
امێرە
امێرەکان
امێرەکانی
امێرەکە
امێرەکەی
امێز
امێزی
امەد
ان
انا
اناتۆلیای
انافیلاکسی
انتشارات
انتوان
انتۆن
انتۆنی
انتی
انتیگوا
انجلەس
انجۆ
اند
اندا
اندرو
اندرێ
اندی
انری
انقلاب
اننا
انگ
انۆ
انۆد
انی
انە
اه
اهل
اهەنگی
او
اوا
اوابوون
اوابوونی
اوات
اواتی
اوادا
اوارە
اوارەکان
اوارەکانی
اوارەی
اوارەیی
اواز
اوازدانان
اوازدانەر
اوازدانەرانی
اوازدانەری
اوازدانەرێکی
اوازی
اوازێکی
اوازە
اوازەکانی
اواش
اوان
اواوە
اوای
اوایی
اواییەکان
اواییەکانی
اوایە
اوباریک
اوبارە
اوت
اودا
اودانان
اودی
اودێری
اوریشم
اورەنگزێب
اوسان
اوسانی
اول
اولین
اوو
اووھەوا
اووھەوای
اوھا
اوھەوای
اوی
اویان
اویی
اوییە
اوییەکان
اوییەکانی
اوێتە
اوێتەکان
اوێتەی
اوێتەیەکی
اوێنە
اوێنەی
اوێکی
اوە
اوەدان
اوەدانکردنەوە
اوەدانکردنەوەی
اوەدانی
اوەز
اوەسپی
اوەوە
اوەڕۆ
اوەڕۆی
اوەکان
اوەکانی
اوەکە
اوەکەی
اوەھا
اوەی
اي
اپۆلۆ
اڕ
اڕاستە
اڕاستەبڕی
اڕاستەکردنی
اڕاستەی
اڕتی
اڕۆن
اژانسی
اژاوە
اژاوەی
اژه
اژەڵ
اژەڵان
اژەڵانی
اژەڵانە
اژەڵداری
اژەڵی
اژەڵێکی
اژەڵە
اژەڵەکان
اژەڵەکانی
اژەڵەکانیان
اڤا
اڤانت
اڤێستا
اکار
اکاری
اکام
اکامدا
اکامی
اکامەکانی
اکبر
اکتەر
اکتەری
اکرێ
اکرەیی
اکشای
اکشن
اکشەی
اکۆ
اکیرا
اکێ
اگا
اگادار
اگاداربوون
اگادارکردنەوە
اگادارکردنەوەی
اگاداری
اگاداریان
اگاداریی
اگای
اگایی
اگر
اگربەست
اگربەستی
اگری
اگریان
اگرین
اگرێکی
اگرە
اگرەکە
اڵ
اڵا
اڵای
اڵتون
اڵتونی
اڵتوون
اڵتوونی
اڵتەرنەتڤ
اڵمان
اڵمانی
اڵمانیا
اڵمانیای
اڵمانیایە
اڵن
اڵوگۆڕ
اڵوگۆڕی
اڵۆت
اڵۆز
اڵۆزتر
اڵۆزی
اڵۆزە
اڵۆزەکان
اڵی
اڵەکۆک
اھ
اھل
اھەنگ
اھەنگی
اھەنگێکی
اھەنگە
اھەنگەکانی
اھەنگەکە
ای
ایا
ایار
ایاردا
ایاری
ایاکس
ایتی
ایدز
ایدن
ایدۆلۆژیا
ایدۆلۆژیای
ایدیا
ایدین
ایدیۆلۆجی
ایران
ایرانی
ایرس
ایرنا
ایریس
ایزۆ
ایسلەند
ایسلەندا
ایسنا
ایشواریا
ایشە
ایفۆن
ایلام
این
ایندە
اینشتاین
اینی
اینیی
اینییە
اینییەکان
اینییەکانی
اینە
اینەکان
ایه
ایپاد
ایپۆد
ایچی
ایۆن
ایۆنی
ایین
اییندھۆڤن
ایینی
ایینیان
ایینیی
ایینییە
ایینییەکان
ایینییەکانی
ایینیەکان
ایینێک
ایینێکی
ایینە
ایینەکان
ایینەکانی
ایینەکە
ایینەکەی
ایە
ایەت
ایەتوڵڵا
ایەتی
ایەتە
ایەتەکانی
ب
با
باب
بابا
باباخانی
بابان
بابانی
بابانەکان
باباگەنجە
بابای
بابل
بابلی
بابلییەکان
بابه
بابی
بابێل
بابە
بابەت
بابەتانە
بابەتانەی
بابەتی
بابەتێک
بابەتێکی
بابەتە
بابەتەکان
بابەتەکانی
بابەتەکە
بابەتەکەی
بابەتەی
بابەشێخ
بابەعەلی
بابەک
بابەکر
بات
باتمان
باتی
باج
باجی
باجیان
باجیۆ
باخ
باخان
باخداری
باخودیدا
باخچە
باخچەکانی
باخچەکە
باخچەی
باخچەیەکی
باخی
باخەوان
باخەکانی
باد
بادا
بادن
بادی
بادین
بادینان
بادینی
بادەم
بار
بارام
باران
باراناوی
بارانبارین
بارانبارینی
بارانی
بارانێکی
باراو
باراوەی
باراک
باربادۆس
باربارا
باربەر
بارت
باردا
باردن
بارزان
بارزانی
بارسا
بارستایی
بارستاییەکەی
بارستە
بارستەی
بارسێلۆنا
بارسێلۆنای
بارمتە
باره
بارودۆخ
بارودۆخی
بارودۆخێک
بارودۆخێکی
بارودۆخە
بارودۆخەکە
باروودۆخی
بارکردن
بارکردنی
بارگاوی
بارگە
بارگەی
بارھەڵگر
بارھەڵگرەکان
بارۆن
باری
بارین
بارینی
باریک
باریکە
باریۆس
بارێ
بارێک
بارێکی
بارە
بارەوە
بارەکانی
بارەگا
بارەگاکانی
بارەگاکەی
بارەگای
بارەی
بارەیەوە
باز
بازار
بازاری
بازاڕ
بازاڕدا
بازاڕکردن
بازاڕکردنی
بازاڕی
بازاڕێکی
بازاڕە
بازاڕەوە
بازاڕەکان
بازاڕەکانی
بازدان
بازدانی
بازدید
بازرگان
بازرگانان
بازرگانانی
بازرگانی
بازرگانیان
بازرگانیدا
بازرگانیکردن
بازرگانیی
بازرگانییە
بازرگانییەوە
بازرگانییەکان
بازرگانییەکانی
بازرگانیەکانی
بازرگانێکی
بازرگانە
بازرگانەکان
بازنە
بازنەکانی
بازنەکە
بازنەی
بازنەیی
بازنەیەک
بازنەیەکی
بازووی
بازی
بازیان
بازەرگان
باس
باستەر
باسم
باسمان
باسنیوز
باسک
باسکرا
باسکراون
باسکراوە
باسکرد
باسکردن
باسکردنی
باسکردنە
باسکردووە
باسکی
باسکە
باسکەی
باسی
باسیان
باسێک
باسێکی
باسە
باسەکە
باش
باشتر
باشترکردنی
باشتری
باشترین
باشترینی
باشترینەکانی
باشترە
باشقەڵا
باشن
باشور
باشوری
باشورەوە
باشوور
باشووردا
باشووری
باشووریش
باشوورییە
باشوورە
باشوورەوە
باشی
باشیان
باشیک
باشە
باشەکانی
باغ
باغلوجە
باغی
بافتا
باقر
باقی
بالا
بالبان
بالدوین
بالله
باللە
بالکان
بالێ
بالێی
بالە
بالەی
بان
باناخ
بانارسی
باندی
باندێکی
باندەکە
بانزەمینی
بانک
بانکی
بانکێکی
بانکە
بانکەکان
بانکەکە
بانگ
بانگهێشت
بانگهێشتی
بانگکرا
بانگھێشت
بانگھێشتی
بانگی
بانگیان
بانگێشت
بانگێشتی
بانگەشە
بانگەشەکانی
بانگەشەکردن
بانگەشەی
بانگەواز
بانگەوازی
بانی
بانە
بانەر
بانەمەڕی
باو
باوا
باوان
باوانی
باوباپیرانی
باوترین
باوترە
باوكی
باون
باوه
باوک
باوکسالاری
باوکم
باوکی
باوکیان
باوکیدا
باوکیشی
باوکییەوە
باوکیەوە
باوکێک
باوکێکی
باوکە
باوکەوە
باوی
باوە
باوەجانی
باوەخۆشێن
باوەر
باوەری
باوەش
باوەشی
باوەڕ
باوەڕبوون
باوەڕداران
باوەڕم
باوەڕپێکراو
باوەڕی
باوەڕیان
باوەڕێک
باوەڕێکی
باوەڕە
باوەڕەدان
باوەڕەشانی
باوەڕەی
باوەکان
باوەکانی
باوەگوڕگوڕ
باپتیست
باپیر
باپیرانی
باپیری
باپیرە
باپیرەی
باچان
باڕنی
باڤاریا
باک
باکو
باکور
باکوری
باکورەوە
باکوو
باکوور
باکووردا
باکووری
باکوورە
باکوورەوە
باکۆ
باکی
باڵ
باڵا
باڵاترین
باڵاخانەی
باڵادەست
باڵادەستی
باڵانسی
باڵاکان
باڵاکانی
باڵای
باڵایان
باڵایە
باڵتیک
باڵدار
باڵدوین
باڵسامۆ
باڵندە
باڵندەکان
باڵندەی
باڵندەیە
باڵندەیەکی
باڵوێزخانەی
باڵوێزی
باڵکان
باڵۆن
باڵی
باڵیۆزخانەی
باڵیۆزی
باڵێکی
باڵە
باڵەخانە
باڵەخانەکە
باڵەخانەی
باڵەخانەیەکی
باڵەک
باڵەکان
باڵەکانی
باڵەکایەتی
باھۆز
بای
بایار
بایدن
بایرام
بایرن
بایرۆن
بایز
بایزاوا
بایلی
باینجان
باینگان
باینگانی
بایک
بایکاڵ
بایکجی
بایکسانگ
بایکۆتی
بایۆلۆجی
بایۆلۆژی
بایە
بایەخ
بایەخدان
بایەخی
بایەخێکی
بایەرز
بایەرن
بایەزید
بایەزیدی
بایەکان
بایەکی
ببات
بباتە
بباتەوە
ببرێت
ببم
ببن
ببنە
ببنەوە
ببوو
ببوون
ببووە
ببوە
ببڕن
ببڕێت
ببیتە
ببین
ببینرێت
ببینن
ببینین
ببینێ
ببینێت
ببینە
ببێ
ببێت
ببێتە
ببێتەوە
ببە
ببەخشرێت
ببەخشێت
ببەزێنێت
ببەسترێت
ببەستن
ببەستێت
ببەن
ببەنەوە
ببەوە
ببەین
بت
بتاريخ
بته
بتوانرێ
بتوانرێت
بتوانن
بتوانی
بتوانین
بتوانێ
بتوانێت
بجەنگن
بخات
بخاتە
بخاتەوە
بخایەنێت
بخرێت
بخرێتە
بخرێنە
بخش
بخوات
بخورێت
بخولێتەوە
بخوێنن
بخوێنێ
بخوێنێت
بخوێنێتەوە
بخۆن
بخەن
بخەنە
بخەنەوە
بدا
بدات
بداتێ
بداتە
بداتەوە
بدرێ
بدرێت
بدرێتەوە
بدرێن
بدلیس
بدۆزرێتەوە
بدۆزنەوە
بدۆزینەوە
بدۆزێتەوە
بدە
بدەم
بدەن
بدەنە
بدەنەوە
بدەیت
بدەین
بر
برا
براد
برادۆست
برازاکەی
برازای
برام
بران
براندۆ
براندی
براهيم
براون
براوە
براوەکانی
براوەی
براکان
براکانی
براکوژی
براکە
براکەم
براکەی
براگەورە
براھیم
برای
برایان
برایانی
برایتۆن
برایم
برایە
برایەتی
برایەکی
برج
برد
بردبوو
بردن
بردنی
بردنە
بردنەوە
بردنەوەی
بردنەوەیان
بردنەوەیەکی
بردووە
بردووەتە
بردووەتەوە
بردوە
بردۆتە
بردۆتەوە
بردیانەوە
بردییەوە
بردە
بردەوە
بررسی
برسی
برسییەتی
برسیەتی
برسێتی
برنج
برنجی
بروات
بروانامەی
بروس
بروسکە
برونۆ
برووس
بروونای
برۆدوەی
برۆدی
برۆس
برۆلین
برۆنتی
برۆنز
برۆنزی
برۆک
برۆکۆلی
بری
بریا
بریار
بریاری
بریت
بریتانی
بریتانیا
بریتانیای
بریتانیکا
بریتش
بریتۆن
بریتی
بریتیبوو
بریتیبوون
بریتین
بریتیه
بریتیی
بریتیین
بریتییە
بریتیە
بریجز
بریزبێن
بریستۆل
بریستۆڵ
بریمەر
برین
بریندار
برینداربوون
برینداربوونی
برینداری
بریندارە
بریندارەکان
برینی
برینێکی
برینەکان
بریکار
بریکاری
بریکارێکی
بریکارەکانی
برێت
برێنەر
برێک
برێکی
برەو
برەودان
برەوی
بزانرێت
بزانم
بزانن
بزانیت
بزانین
بزانێ
بزانێت
بزانە
بزاڤی
بزاڤە
بزر
بزرگ
بزماری
بزن
بزنی
بزوتنەوەی
بزووتنەوە
بزووتنەوەکە
بزووتنەوەی
بزووتنەوەیە
بزووتنەوەیەکی
بزوینەری
بزوێن
بزوێنی
بزوێنەر
بزوێنەرانە
بزوێنەرانەی
بزوێنەردا
بزوێنەری
بزوێنەرێک
بزوێنەرێکی
بزوێنەرە
بزوێنەرەکان
بزوێنەرەکانی
بزوێنەرەکە
بزۆک
بسەلمێنێت
بسەپێنن
بشارێتەوە
بشر
بشکێنن
بشکێنێت
بعد
بعض
بغداد
بفرۆشێت
بفڕێت
بكات
بكر
بكرێ
بكرێت
بكه
بكەن
بلا
بلاو
بلاک
بلباو
بلو
بلوز
بلووری
بلۆک
بلۆکی
بلیتی
بلیمەت
بلیمەتی
بلیۆن
بلەیر
بم
بمرن
بمرێت
بمێننەوە
بمێنێتەوە
بن
بناخەی
بناری
بناسرێت
بناسێت
بناسێنێت
بناسە
بناغە
بناغەدانەری
بناغەی
بناو
بناویلەی
بنبڕکردنی
بنت
بنزاری
بنزارەکانی
بنمیچی
بنه
بنوسێت
بنووسرێت
بنووسێت
بنووسێتەوە
بني
بنچینە
بنچینەدا
بنچینەکانی
بنچینەکەی
بنچینەی
بنچینەیی
بنچینەییەکان
بنچینەیەکی
بنکڕی
بنکە
بنکەدراوەی
بنکەى
بنکەکانی
بنکەکە
بنکەکەی
بنکەی
بنکەیەک
بنکەیەکی
بنگرد
بنی
بنیات
بنیاتنا
بنیاتنانی
بنیاتنانەوەی
بنیاتنراوە
بنیاتنەری
بنیاتی
بنیاد
بنیادنانی
بنیادنراوە
بنیادی
بنیامین
بنێ
بنێت
بنێرن
بنێرێت
بنێن
بنێژرێت
بنە
بنەرەتی
بنەما
بنەماکانی
بنەماڵە
بنەماڵەدا
بنەماڵەکاندا
بنەماڵەکەی
بنەماڵەکەیان
بنەماڵەی
بنەماڵەیی
بنەماڵەیە
بنەماڵەیەکی
بنەمای
بنەمایی
بنەمایە
بنەمایەک
بنەمایەکی
بنەچە
بنەچەدا
بنەچەی
بنەڕەت
بنەڕەتدا
بنەڕەتی
بنەڕەتیی
بنەڕەتییەکان
بنەڕەتییەکانی
بنەڕەتەوە
به
بهجة
بهێنرێت
بهێنن
بهێنێت
بو
بوابة
بوار
بواردا
بواره
بواری
بوارێکی
بوارە
بوارەدا
بوارەکانی
بوارەکە
بوارەکەی
بوایە
بوبێت
بوترێ
بوترێت
بوتڕوس
بوتڵی
بوخارا
بوخاری
بود
بودا
بوداق
بودجە
بودجەی
بودیزم
بورج
بورجی
بورسا
بوروندی
بورکینافاسۆ
بورگاس
بورھان
بوری
بوسان
بوسحاقی
بوش
بول
بولاخ
بولگاری
بولگاریا
بولگاریایە
بومەلەرزە
بون
بوندقیە
بونی
بونیادی
بونەوەی
بوه
بوو
بوواری
بووایە
بووبوو
بووبوون
بووبێ
بووبێت
بووبە
بووتان
بوودجەی
بووشێھر
بووم
بوومەلەرزە
بوومەلەرزەکە
بوومەلەرزەی
بوومەلەرزەیەک
بوون
بوونه
بوونی
بوونیان
بوونێکی
بوونە
بوونەتە
بوونەتەوە
بوونەوە
بوونەوەری
بوونەوەرێکی
بوونەوەرە
بوونەوەی
بووه
بووژانەوەی
بووک
بووکس
بووکی
بووکە
بووکەڵە
بووی
بووین
بووینە
بوویە
بوویەوە
بووە
بووەتە
بووەتەوە
بووەو
بووەوە
بوژاندنەوەی
بوژانەوەی
بوژنۆرد
بوکۆڤسکی
بوڵاغ
بوڵاغی
بوی
بویۆ
بویەوە
بوێت
بوێر
بوێری
بوێنس
بوە
بوەتە
بوەستێت
بوەستێنن
بوەستێنێت
بوەوە
بوەیھی
بي
بيروت
بين
بپارێزن
بپارێزێت
بپشکنە
بچن
بچنە
بچووک
بچووکتر
بچووکترن
بچووکتری
بچووکترین
بچووکترە
بچووکدا
بچووکن
بچووکی
بچووکیان
بچووکیش
بچووکە
بچووکەوە
بچووکەکان
بچووکەکانی
بچووکەکە
بچووکەکەی
بچوک
بچوکترین
بچوکی
بچوکە
بچکۆلە
بچیتە
بچێ
بچێت
بچێتە
بچێتەوە
بڕ
بڕاون
بڕاوە
بڕبڕە
بڕبڕەکانی
بڕبڕەی
بڕوا
بڕوات
بڕواتە
بڕوانامە
بڕوانامەی
بڕواننامەی
بڕوانە
بڕوای
بڕوایان
بڕوایە
بڕوایەدان
بڕوایەی
بڕوس
بڕگە
بڕگەی
بڕگەیی
بڕۆ
بڕۆدوەی
بڕۆن
بڕۆنز
بڕۆنزی
بڕۆکلین
بڕۆین
بڕی
بڕیار
بڕیاربوو
بڕیاردان
بڕیاردانی
بڕیاردرا
بڕیاردەدات
بڕیارنامەکانی
بڕیارنامەی
بڕیارنامەیە
بڕیاروابوو
بڕیاری
بڕیاریان
بڕیاریاندا
بڕیاریدا
بڕیاریداوە
بڕیارێک
بڕیارێکی
بڕیارە
بڕیارەکان
بڕیارەکانی
بڕیارەکە
بڕیارەکەی
بڕین
بڕینی
بڕیوە
بڕێ
بڕێک
بڕێکی
بڕە
بڕەکەی
بژاردنی
بژاردەی
بژی
بژیت
بژین
بژیوی
بژێوی
بکا
بکات
بکاتە
بکاتەوە
بکر
بکردایە
بکرێ
بکرێت
بکرێتە
بکرێتەوە
بکرێن
بکرێنەوە
بکه
بکوژ
بکوژن
بکوژی
بکوژێت
بکوژێکی
بکوژەکە
بکڕن
بکڕێت
بکێشێت
بکێشێتەوە
بکە
بکەر
بکەرەوە
بکەم
بکەمەوە
بکەن
بکەنە
بکەنەوە
بکەون
بکەونە
بکەوێ
بکەوێت
بکەوێتە
بکەوێتەوە
بکەوە
بکەی
بکەیت
بکەیتەوە
بکەین
بکەینەوە
بگات
بگاتە
بگرن
بگرنە
بگرنەوە
بگری
بگرین
بگرێ
بگرێت
بگرێتە
بگرێتەوە
بگرە
بگوازرێتەوە
بگوازنەوە
بگوازێتەوە
بگونجێت
بگۆڕدرێت
بگۆڕن
بگۆڕێ
بگۆڕێت
بگیرێ
بگیرێت
بگێڕێت
بگێڕێتەوە
بگەرێتەوە
بگەن
بگەنە
بگەڕێت
بگەڕێتەوە
بگەڕێن
بگەڕێننەوە
بگەڕێنێتەوە
بگەڕێنەوە
بگەیەنن
بگەیەنێت
بگەیەنێتە
بڵ
بڵاغ
بڵاغی
بڵاو
بڵاوبونەوەی
بڵاوبوونەتەوە
بڵاوبوونەوە
بڵاوبوونەوەی
بڵاوبوویەوە
بڵاوبووەتەوە
بڵاوبووەوە
بڵاوبکاتەوە
بڵاوبکرێتەوە
بڵاوبۆتەوە
بڵاوبۆوە
بڵاودەبێتەوە
بڵاودەکاتەوە
بڵاودەکرایەوە
بڵاودەکردەوە
بڵاودەکرێتەوە
بڵاودەکەنەوە
بڵاوکار
بڵاوکرانەوە
بڵاوکراونەتەوە
بڵاوکراوە
بڵاوکراوەتەوە
بڵاوکراوەکان
بڵاوکراوەکانی
بڵاوکراوەی
بڵاوکراوەیەکی
بڵاوکرایەوە
بڵاوکردنی
بڵاوکردنەوە
بڵاوکردنەوەی
بڵاوکردووەتەوە
بڵاوکردۆتەوە
بڵاوکردەوە
بڵاوکەرەوە
بڵاوکەرەوەی
بڵاوی
بڵاویان
بڵاویکردەوە
بڵاوە
بڵاوەی
بڵباس
بڵند
بڵندتر
بڵندی
بڵێ
بڵێت
بڵێسەی
بڵێم
بڵێن
بڵێی
بڵێین
بھ
بھێنرێ
بھێنرێت
بھێنرێن
بھێنن
بھێنیت
بھێنین
بھێنێ
بھێنێت
بھێنێتە
بھێنێتەوە
بھێڵن
بھێڵێت
بھێڵێتەوە
بۆ
بۆب
بۆبی
بۆت
بۆتان
بۆتانی
بۆتسوانا
بۆتێ
بۆتە
بۆتەوە
بۆجاری
بۆخۆی
بۆخۆیان
بۆدی
بۆر
بۆرا
بۆرات
بۆربۆن
بۆردومان
بۆردومانی
بۆردوومان
بۆردوومانی
بۆردی
بۆرسە
بۆرسەی
بۆرما
بۆرنمۆس
بۆروسیا
بۆری
بۆریس
بۆرینە
بۆرەکەیی
بۆستن
بۆسنیا
بۆسنە
بۆسکێن
بۆسەر
بۆش
بۆشای
بۆشایی
بۆشاییدا
بۆشاییی
بۆشایییە
بۆشایییەکی
بۆشاییە
بۆشاییەکان
بۆشاییەکی
بۆلای
بۆلیوود
بۆلیڤار
بۆلیڤیا
بۆم
بۆمان
بۆماوە
بۆماوەزانی
بۆماوەی
بۆماوەیی
بۆماوەیەک
بۆماوەیەکی
بۆمب
بۆمباخ
بۆمباران
بۆمبای
بۆمبڕێژکراو
بۆمبی
بۆمبێکی
بۆمبەکە
بۆن
بۆناو
بۆناپارت
بۆند
بۆندسلیگا
بۆندسلیگای
بۆندی
بۆنمونە
بۆنموونە
بۆنی
بۆنە
بۆنەوە
بۆنەکان
بۆنەی
بۆنەیەوە
بۆنەیەکی
بۆوە
بۆي
بۆچ
بۆچونی
بۆچوون
بۆچوونی
بۆچوونێکی
بۆچوونە
بۆچوونەکانی
بۆچی
بۆڕی
بۆکان
بۆکانی
بۆکرا
بۆکراوە
بۆکس
بۆکسینگ
بۆکسێن
بۆکسێنی
بۆڵ
بۆڵت
بۆی
بۆیان
بۆیس
بۆیلی
بۆینس
بۆینگ
بۆیه
بۆیە
بۆیەر
بۆیەش
بۆیەکەم
بۆیەکەمجار
بۆیەکەمینجار
بی
بیابان
بیاباندا
بیابانی
بیابانییە
بیابانێکی
بیابانە
بیابانەکان
بیابانەکانی
بیابانەکە
بیارە
بیان
بیانسێ
بیانووی
بیانی
بیانییەکان
بیانە
بیب
بیبسی
بیبیجەکی
بیبەر
بیبەری
بیت
بیتکۆین
بیتی
بیجاڕ
بیدەن
بیر
بیرت
بیرخستنەوەی
بیردۆز
بیردۆزه
بیردۆزی
بیردۆزیی
بیردۆزێکی
بیردۆزە
بیردۆزەکان
بیردۆزەکانی
بیردۆزەکەی
بیرم
بیرمەند
بیرمەندانی
بیرمەندی
بیرمەندێکی
بیرو
بیروباوەڕ
بیروباوەڕی
بیروباوەڕە
بیروبۆچوونی
بیرونی
بیروونی
بیروڕا
بیروڕاکانی
بیروڕای
بیرکار
بیرکاری
بیرکاریدا
بیرکاریزان
بیرکاریزانی
بیرکاریی
بیرکارییە
بیرکردنەوە
بیرکردنەوەی
بیرگە
بیرگەی
بیرۆکراسی
بیرۆکە
بیرۆکەکان
بیرۆکەکانی
بیرۆکەکە
بیرۆکەکەی
بیرۆکەی
بیرۆکەیە
بیرۆکەیەک
بیرۆکەیەکی
بیرۆکەیەی
بیری
بیریان
بیرێکی
بیرە
بیرەوەری
بیرەوەریی
بیرەوەرییەکانی
بیزەنتی
بیزەنتین
بیزەنتینییەکان
بیزەنتییەکان
بیزەنتیەکان
بیساو
بیست
بیستدا
بیستن
بیستنی
بیستی
بیستەم
بیستەمدا
بیستەمی
بیستەمین
بیستەمە
بیستەمەوە
بیستەکانی
بیسەلمێنێت
بیل
بیلا
بیلال
بیلاڕووس
بیلباو
بیلبۆ
بیلبۆرد
بیلی
بیمەی
بین
بینا
بیناسازی
بیناکان
بیناکانی
بیناکە
بینای
بینایی
بینایە
بینایەک
بینایەکی
بینرا
بینراو
بینراون
بینراوی
بینراوە
بینگ
بینگۆل
بینگۆلی
بینی
بینیان
بینیبوو
بینین
بینینی
بینیووە
بینیویەتی
بینیوە
بینییەوە
بینەر
بینەران
بینەرانی
بینەرانەوە
بینەری
بینەرێکی
بیوگرافی
بیچ
بیژەن
بیک
بیکات
بیکاتە
بیکێت
بیکەن
بیگ
بیڵ
بیڵی
بیھار
بییەوێت
بیەوێت
بێ
بێبێ
بێبەرامبەر
بێبەش
بێت
بێتا
بێتاوان
بێتاوانی
بێته
بێتواتە
بێتھۆڤن
بێتی
بێتە
بێتەوە
بێجووڵە
بێجگە
بێخود
بێدەنگ
بێدەنگی
بێرتراند
بێرد
بێرن
بێرنار
بێرنارد
بێرکلی
بێرگ
بێری
بێرینگ
بێزار
بێزاری
بێزەنتی
بێساران
بێسارانی
بێستان
بێستانە
بێستوون
بێسنوور
بێشکچی
بێل
بێلا
بێلاکان
بێلایەن
بێلایەنی
بێلووچی
بێلگراد
بێلەنگە
بێن
بێنجامین
بێنز
بێنن
بێنی
بێنین
بێنیگنی
بێنێ
بێنێت
بێنێدیکت
بێنە
بێوەژنەکەی
بێي
بێژ
بێژی
بێژەری
بێک
بێکا
بێکاری
بێکام
بێکۆتا
بێکۆتایی
بێکەس
بێکەڵک
بێگ
بێگانە
بێگانەکان
بێگلویا
بێگم
بێگومان
بێگوومان
بێگەرد
بێگەردی
بێڵ
بێڵی
بێھرووز
بێھزاد
بێھێزی
بێی
بە
بەبازاڕکردنی
بەباشترین
بەباشی
بەبڕی
بەبۆنەی
بەبیانووی
بەبێ
بەبەراورد
بەبەردەوامی
بەبەشداری
بەبەکارھێنانی
بەتاڵ
بەتاڵی
بەتایبەت
بەتایبەتی
بەتایبەتیش
بەتحایی
بەتوانا
بەتوانای
بەتوانایە
بەتوندی
بەتووندی
بەتڵیمۆس
بەتۆمارکردنی
بەتۆمەتی
بەتەرفیێڵد
بەتەمەن
بەتەمەنترین
بەتەنھا
بەتەنیا
بەتەواوی
بەتەواوەتی
بەجوانی
بەجۆرێ
بەجۆرێک
بەجیا
بەجێ
بەجێبھێڵێت
بەجێدەھێڵێت
بەجێماوە
بەجێهێشت
بەجێھێشت
بەجێھێشتنی
بەجێھێشتووە
بەجێھێنانی
بەجێی
بەحرکە
بەحرکەیی
بەحری
بەحرەین
بەخاک
بەخاکسپاردنی
بەخت
بەختی
بەختیار
بەختیاری
بەختەوەری
بەخراپی
بەخش
بەخشرا
بەخشراوە
بەخشرایە
بەخششی
بەخشندە
بەخشی
بەخشیبوو
بەخشین
بەخشینی
بەخشیوە
بەخشییە
بەخوا
بەخوێندن
بەخوێندنی
بەخۆوە
بەخۆڕایی
بەخۆی
بەخۆیان
بەخۆیەوە
بەخێرایی
بەخێو
بەخێوکردنی
بەخێوی
بەد
بەداخەوە
بەدر
بەدرخان
بەدری
بەدرێژای
بەدرێژایی
بەدرێژاییی
بەدرە
بەدلیس
بەدلیسی
بەدوا
بەدوادا
بەدواداچوون
بەدواداچوونی
بەدواداچوونێکی
بەدواوە
بەدوای
بەدوایدا
بەدوو
بەدوور
بەدووری
بەدڵ
بەدڵی
بەدی
بەدیار
بەدیاریکراوی
بەدیل
بەدیھێنانی
بەدەخشان
بەدەر
بەدەست
بەدەستبھێنن
بەدەستبھێنێت
بەدەستهێنا
بەدەستهێنانی
بەدەستهێناوە
بەدەستھێنا
بەدەستھێنابوو
بەدەستھێنان
بەدەستھێنانی
بەدەستھێناوە
بەدەستی
بەدەستیان
بەدەستەوە
بەدەستەوەیە
بەدەسەڵات
بەدەم
بەدەنگی
بەدەوری
بەدەگمەن
بەدەیان
بەر
بەرابەری
بەرابەرە
بەرات
بەراز
بەرازی
بەرازیل
بەرازیلی
بەرامبەر
بەرامبەردا
بەرامبەری
بەرامبەریان
بەرامبەرە
بەرانان
بەرانبەر
بەراندێز
بەراندێزا
بەراو
بەراورد
بەراوردکاری
بەراوردکردن
بەراوردکردنی
بەراوردی
بەراي
بەرایی
بەربوونی
بەربژێری
بەربڵاو
بەربڵاوترین
بەربڵاوی
بەربڵاوە
بەربەری
بەربەست
بەربەستی
بەرتڵە
بەرتیل
بەرجەستە
بەرجەستەکردنی
بەرجەستەی
بەرخۆدان
بەرخۆدانی
بەرد
بەردا
بەردانە
بەردبوو
بەردبووەکان
بەردبەرد
بەردی
بەردین
بەردینی
بەردینە
بەردینەکان
بەردێک
بەردێکی
بەردە
بەردەرەش
بەردەزەرد
بەردەست
بەردەستن
بەردەستی
بەردەستە
بەردەم
بەردەمی
بەردەوام
بەردەوامبوو
بەردەوامبوون
بەردەوامبوونی
بەردەوامن
بەردەوامی
بەردەوامیان
بەردەوامیی
بەردەوامە
بەردەوامەکانی
بەردەڕەش
بەردەکان
بەردەکانی
بەردەکە
بەردەکەوێت
بەردەکەڕ
بەرز
بەرزایی
بەرزایییەکانی
بەرزاییەکانی
بەرزبونەوەی
بەرزبوونەوە
بەرزبوونەوەی
بەرزبوویەوە
بەرزبووەوە
بەرزبکاتەوە
بەرزبێتەوە
بەرزتر
بەرزتری
بەرزترین
بەرزترە
بەرزدا
بەرزدەبێتەوە
بەرزن
بەرزنجی
بەرزنجە
بەرزکراوەتەوە
بەرزکرایەوە
بەرزکردنەوە
بەرزکردنەوەی
بەرزکردەوە
بەرزکەرەوە
بەرزی
بەرزیان
بەرزیی
بەرزییەکەی
بەرزیەکەی
بەرزە
بەرزەنجی
بەرزەوە
بەرزەکان
بەرزەکانی
بەرزەکەی
بەرزەی
بەرشلۆنە
بەرشە
بەرشەلۆنا
بەرشەلۆنای
بەرشەلۆنە
بەرفراوان
بەرفراوانتر
بەرفراوانی
بەرقەڵا
بەرلین
بەرلینی
بەرلە
بەرلەوەی
بەرمیل
بەرن
بەرنامە
بەرنامەسازی
بەرنامەسازیی
بەرنامەکان
بەرنامەکانی
بەرنامەکە
بەرنامەکەی
بەرنامەی
بەرنامەیە
بەرنامەیەک
بەرنامەیەکی
بەرهەم
بەرهەمهێنان
بەرهەمهێنانی
بەرهەمهێنراوە
بەرهەمهێنەر
بەرهەمهێنەری
بەرهەمی
بەرهەمێکی
بەرهەمە
بەرهەمەکانی
بەرو
بەرواری
بەروبوومی
بەري
بەرپا
بەرپاکرد
بەرپرس
بەرپرسان
بەرپرسانی
بەرپرسایەتی
بەرپرسن
بەرپرسی
بەرپرسیار
بەرپرسیارن
بەرپرسیاری
بەرپرسیارێتی
بەرپرسیارێتیی
بەرپرسیارە
بەرپرسێکی
بەرپرسە
بەرپرسەکانی
بەرپەرچ
بەرپەرچدانەوەی
بەرپەرچی
بەرچاو
بەرچاوترین
بەرچاوی
بەرچاویان
بەرچاوە
بەرچاوەکانی
بەرژەوەندی
بەرژەوەندیی
بەرژەوەندییە
بەرژەوەندییەکانی
بەرکەوت
بەرکەوتن
بەرکەوتنی
بەرکەوتووە
بەرگ
بەرگدا
بەرگری
بەرگریان
بەرگریکار
بەرگریکاری
بەرگریکردن
بەرگریی
بەرگرییە
بەرگرییەکی
بەرگی
بەرگێکی
بەرگە
بەرگەگرتنی
بەرگەھەوای
بەرگەی
بەرھەم
بەرھەمانە
بەرھەمانەی
بەرھەمدێت
بەرھەمھێنا
بەرھەمھێنان
بەرھەمھێناندا
بەرھەمھێنانی
بەرھەمھێناوە
بەرھەمھێنرا
بەرھەمھێنراوە
بەرھەمھێنی
بەرھەمھێنەر
بەرھەمھێنەران
بەرھەمھێنەرانی
بەرھەمھێنەری
بەرھەمھێنەرێکی
بەرھەمھێنەرە
بەرھەمھێنەرەکان
بەرھەمی
بەرھەمیان
بەرھەمێک
بەرھەمێکی
بەرھەمە
بەرھەمەکان
بەرھەمەکانی
بەرھەمەکانیان
بەرھەمەکە
بەرھەمەکەی
بەرھەڵستی
بەری
بەریاجی
بەریتانی
بەریتانیا
بەریتانیادا
بەریتانیاوە
بەریتانیای
بەریتانیایە
بەریتانییە
بەریتانییەکان
بەریتانیەکان
بەرین
بەرینی
بەریەک
بەریەککەوتنی
بەرێ
بەرێت
بەرێز
بەرێوبەری
بەرێوە
بەرێوەبردنی
بەرێوەبەرایەتی
بەرێوەبەری
بەرێوەچوو
بەرە
بەرەباب
بەرەبەرە
بەرەبەیان
بەرەبەیانی
بەرەنگاربوونەوەی
بەرەنگاری
بەرەو
بەرەوپێش
بەرەوپێشبردنی
بەرەوپێشچوونی
بەرەوە
بەرەکانی
بەرەکەی
بەرەڵا
بەرەی
بەرەیەکی
بەزاند
بەزاندنی
بەزمانی
بەزوویی
بەزۆر
بەزۆری
بەزەیی
بەس
بەسادەیی
بەساڵاچوو
بەساڵاچووان
بەست
بەستبوو
بەسترا
بەستراو
بەستراون
بەستراونەتەوە
بەستراوە
بەستراوەتەوە
بەستن
بەستنی
بەستنەوەی
بەستوو
بەستووە
بەستی
بەستە
بەستەر
بەستەری
بەستەرە
بەستەوە
بەستەڵەک
بەستەڵەکی
بەسرە
بەسوود
بەسوودە
بەسڕی
بەسڕە
بەسە
بەسەختی
بەسەر
بەسەرا
بەسەربرد
بەسەربردن
بەسەربردنی
بەسەربردووە
بەسەردا
بەسەرداچوونەوە
بەسەرداچوونەوەی
بەسەرداگرتنی
بەسەرپەرشتی
بەسەرکردایەتی
بەسەرکەوتوویی
بەسەرھاتی
بەسەرھاتەکانی
بەسەرۆکایەتی
بەسەرۆکی
بەسەری
بەسەریاندا
بەسەریدا
بەش
بەشار
بەشاری
بەشارەتی
بەشانی
بەشانە
بەشانەی
بەشدا
بەشدار
بەشداربوانی
بەشداربوو
بەشداربووان
بەشداربووانی
بەشداربوون
بەشداربوونی
بەشداربووی
بەشداربووە
بەشداربووەکان
بەشداربووەکانی
بەشداربێت
بەشدارن
بەشداری
بەشداریان
بەشداریکرد
بەشداریکردن
بەشداریکردنی
بەشداریکردنیان
بەشداریکردووە
بەشداریی
بەشدارییان
بەشدارییەکانی
بەشدارییەکی
بەشدارە
بەشدراوی
بەشی
بەشیر
بەشیوەیەکی
بەشیک
بەشێ
بەشێوازی
بەشێوازێکی
بەشێوەی
بەشێوەیەک
بەشێوەیەکی
بەشێک
بەشێکن
بەشێکی
بەشێکیان
بەشێکیش
بەشێکە
بەشە
بەشەدا
بەشەوە
بەشەکان
بەشەکانی
بەشەکە
بەشەکەی
بەشەی
بەعاج
بەعس
بەعسدا
بەعسی
بەعسەوە
بەعشیقە
بەعەرەبی
بەغدا
بەغداد
بەغدادا
بەغدادی
بەغداوە
بەغدای
بەغدایان
بەفر
بەفرانبار
بەفرانباری
بەفری
بەفرێکی
بەفرە
بەفیڕۆ
بەفەرمانی
بەفەرمی
بەقسەی
بەقەد
بەقەرە
بەكار
بەلام
بەلاوە
بەلای
بەلایەنی
بەلجیکا
بەلجیکی
بەلشەفی
بەلقان
بەلکو
بەلۆچستان
بەلۆچی
بەلیز
بەلەم
بەلەمی
بەلەمەکانی
بەم
بەمانای
بەماوەیەکی
بەمجۆرە
بەمشێوەیە
بەمشێوەیەش
بەمۆ
بەمە
بەمەبەستی
بەمەرجێک
بەمەش
بەمەشەوە
بەن
بەناز
بەناو
بەناوبانگ
بەناوبانگترین
بەناوبانگترینیان
بەناوبانگن
بەناوبانگی
بەناوبانگە
بەناوبانگەکان
بەناوبانگەکانی
بەناوبانگەکەی
بەناونیشانی
بەناوى
بەناوی
بەناوەندی
بەناوەکانی
بەناچاری
بەند
بەنداو
بەنداوی
بەنداوە
بەنداوەکە
بەندایەتی
بەندکردن
بەندی
بەندیخانە
بەندیخانەی
بەندە
بەندەر
بەندەری
بەندەرێکی
بەندەرە
بەندەرەکە
بەندەکانی
بەندەی
بەنرخ
بەنرخی
بەنرخە
بەنزین
بەنزینی
بەنزیکی
بەنزیکەی
بەنزیکەیی
بەنفیکا
بەنو
بەنگال
بەنگالی
بەنگلادیش
بەنگلادێش
بەنھێنی
بەنی
بەنیازی
بەنێو
بەنێوی
بەنەخۆشی
بەها
بەهار
بەهاری
بەهای
بەهۆى
بەهۆی
بەهۆیەوە
بەهێز
بەهێزترین
بەهێزکردنی
بەهێزی
بەهەشت
بەهەمان
بەو
بەواتای
بەوانەی
بەوجۆرە
بەور
بەوردی
بەوری
بەولاوە
بەوپێیەی
بەوپەڕی
بەوێنە
بەوە
بەوەدا
بەوەش
بەوەوە
بەوەکرد
بەوەی
بەوەیە
بەي
بەپلەی
بەپیت
بەپیتی
بەپێ
بەپێچەوانەوە
بەپێچەوانەی
بەپێی
بەپەلە
بەچاپ
بەچەند
بەڕادەیەک
بەڕازیل
بەڕازیلی
بەڕازیلییە
بەڕازیلە
بەڕاست
بەڕاستی
بەڕای
بەڕوو
بەڕوونی
بەڕووڵە
بەڕووی
بەڕۆژ
بەڕۆژوو
بەڕۆڵی
بەڕیتانی
بەڕیتانیا
بەڕیتانییە
بەڕێ
بەڕێز
بەڕێوبردن
بەڕێوبردنی
بەڕێوبەر
بەڕێوبەرایەتی
بەڕێوبەری
بەڕێوە
بەڕێوەبرد
بەڕێوەبردن
بەڕێوەبردنی
بەڕێوەبردووە
بەڕێوەبچێت
بەڕێوەبەر
بەڕێوەبەرانی
بەڕێوەبەرایەتی
بەڕێوەبەرایەتیی
بەڕێوەبەری
بەڕێوەبەریی
بەڕێوەبەرێتی
بەڕێوەدەبات
بەڕێوەدەبرا
بەڕێوەدەبرد
بەڕێوەدەبرێت
بەڕێوەدەبرێن
بەڕێوەدەبەن
بەڕێوەدەچوو
بەڕێوەدەچێت
بەڕێوەچوو
بەڕێوەچوون
بەڕێوەچوونی
بەڕێوەی
بەڕێژەی
بەڕێژەیەکی
بەڕێکەوت
بەڕێکەوتن
بەڕێگای
بەڕەسمی
بەڕەچەڵەک
بەڕەگەز
بەژدار
بەژداری
بەک
بەکاتی
بەکار
بەکاربردنی
بەکاربهێنرێت
بەکاربوو
بەکاربھێندرێت
بەکاربھێنرێ
بەکاربھێنرێت
بەکاربھێنرێن
بەکاربھێنن
بەکاربھێنێت
بەکاربێت
بەکاربێنن
بەکاربێنێت
بەکاربەر
بەکاربەران
بەکاربەری
بەکاردێ
بەکاردێت
بەکاردێن
بەکاردێنن
بەکاردێنێت
بەکاردەهات
بەکاردەهێنرێت
بەکاردەهێنن
بەکاردەهێنێت
بەکاردەھات
بەکاردەھێنا
بەکاردەھێندرێت
بەکاردەھێنرا
بەکاردەھێنران
بەکاردەھێنرێت
بەکاردەھێنرێن
بەکاردەھێنن
بەکاردەھێنێت
بەکارنەھاتووە
بەکارهاتووە
بەکارهێنا
بەکارهێنان
بەکارهێنانی
بەکارهێناوە
بەکارهێنراوە
بەکارهێنەر
بەکارهێنەران
بەکارهێنەرانی
بەکاري
بەکارکردن
بەکارھات
بەکارھاتوو
بەکارھاتوون
بەکارھاتووە
بەکارھێنا
بەکارھێنابوو
بەکارھێنان
بەکارھێنانی
بەکارھێنانیان
بەکارھێنانێکی
بەکارھێنانە
بەکارھێنانەکانی
بەکارھێناوە
بەکارھێنرا
بەکارھێنراو
بەکارھێنراون
بەکارھێنراوە
بەکارھێنەر
بەکارھێنەران
بەکارھێنەرانی
بەکارھێنەری
بەکارھێنەرێکی
بەکارھێنەرە
بەکاری
بەکاریان
بەکارەکانی
بەکالۆریۆس
بەکالۆریۆسی
بەکالۆریۆسە
بەکتریا
بەکتریاکان
بەکتریای
بەکتریایە
بەکر
بەکرێ
بەکرەجۆ
بەکرەجۆیە
بەکشلوچای
بەکورتی
بەکوردی
بەکۆتا
بەکۆتایی
بەکۆمەڵ
بەکۆمەڵی
بەکۆکردنەوی
بەکۆی
بەکەمی
بەگ
بەگزادە
بەگشتی
بەگم
بەگن
بەگوێرەی
بەگی
بەگە
بەڵا
بەڵام
بەڵخە
بەڵکو
بەڵکوو
بەڵگانەی
بەڵگە
بەڵگەفیلم
بەڵگەفیلمی
بەڵگەنامە
بەڵگەنامەکان
بەڵگەنامەکانی
بەڵگەنامەی
بەڵگەنامەیی
بەڵگەنامەیەکی
بەڵگەکان
بەڵگەکانی
بەڵگەی
بەڵگەیە
بەڵگەیەک
بەڵگەیەکی
بەڵێ
بەڵێن
بەڵێنی
بەھا
بەھادور
بەھادین
بەھار
بەھاردا
بەھاری
بەھارە
بەھاوبەشی
بەھاوکاری
بەھاي
بەھاکانی
بەھاکەی
بەھای
بەھایی
بەھایییەکان
بەھایەکی
بەھرام
بەھرامی
بەھرە
بەھرەمەند
بەھرەکانی
بەھرەی
بەھرەیەکی
بەھلول
بەھمەن
بەھۆکاری
بەھۆی
بەھۆیەوە
بەھیچ
بەھێز
بەھێزبوونی
بەھێزتر
بەھێزترین
بەھێزترە
بەھێزکردنی
بەھێزی
بەھێزیان
بەھێزە
بەھێزەکان
بەھێزەکانی
بەھەر
بەھەرحاڵ
بەھەردوو
بەھەشت
بەھەشتی
بەھەمان
بەھەموو
بەھەڵم
بەھەڵە
بەی
بەیات
بەیارمەتی
بەیان
بەیاننامە
بەیاننامەی
بەیاننامەیەکی
بەیانی
بەیانیان
بەیانەی
بەیت
بەیتار
بەیتی
بەیتە
بەیروت
بەیرووت
بەیرەم
بەیز
بەیس
بەیسبۆڵ
بەیلی
بەینی
بەیکەر
بەیەک
بەیەکجاری
بەیەکسانی
بەیەکگەیشتن
بەیەکێ
بەیەکێک
بەیەکەم
بەیەکەوە
ة
ت
تا
تابلۆ
تابلۆکانی
تابلۆکە
تابلۆی
تابلۆیە
تابلۆیەکی
تاتار
تاتی
تاج
تاجی
تاجیک
تاجیکستان
تاجیکی
تاجە
تاد
تار
تارا
تاران
تارانتینۆ
تارانی
تارانە
تارانەوە
تاراوگە
تارق
تارمایی
تارنۆڤۆ
تاريخ
تاريخية
تاری
تاریخ
تاریخی
تاریق
تاریک
تاریکی
تاریکیدا
تاریکە
تازاوا
تازاوای
تازه
تازە
تازەترین
تازەدێ
تازەدێی
تازەشار
تازەکان
تازەکەند
تازەکەندی
تازەکەندە
تازەی
تازەیە
تاساڵی
تاسمانیا
تاسڵوجە
تاش
تاق
تاقانە
تاقمی
تاقمێک
تاقمە
تاقی
تاقیکاری
تاقیکردنەوە
تاقیکردنەوەکان
تاقیکردنەوەکانی
تاقیکردنەوەکە
تاقیکردنەوەکەی
تاقیکردنەوەی
تاقیکردنەوەیە
تاقیکردنەوەیەک
تاقیکردنەوەیەکی
تاقیگە
تاقیگەی
تاقیگەیەکی
تاقە
تالیب
تالیس
تالین
تام
تامی
تامیل
تامیلی
تامەزرۆی
تان
تانجەرۆ
تانزانیا
تانک
تانکۆبۆن
تانکی
تانکە
تانکەکە
تانگ
تانگۆ
تانگی
تانۆس
تانی
تانیا
تانە
تانەی
تاهیر
تاو
تاوان
تاوانانەی
تاوانبار
تاوانباران
تاوانباری
تاوانکاری
تاوانی
تاوانێک
تاوانێکی
تاوانە
تاوانەکان
تاوانەکانی
تاوانەکە
تاوتوێ
تاوتوێکردنی
تاودان
تاودانی
تاون
تاوه
تاوگۆزی
تاوی
تاوێرە
تاوەر
تاوەری
تاوەرە
تاوەرەکە
تاوەکو
تاوەکوو
تاي
تاپۆ
تاڕادەیەک
تاڕادەیەکی
تاڤوش
تاڤگە
تاڤگەی
تاک
تاکاجی
تاکاوۆ
تاکتیکی
تاکسی
تاکو
تاکوو
تاکی
تاکێک
تاکێکی
تاکە
تاکەکان
تاکەکانی
تاکەکەس
تاکەکەسی
تاکەگۆرانی
تاکەی
تاگی
تاڵ
تاڵان
تاڵانکردن
تاڵانی
تاڵشی
تاڵی
تاڵیب
تاڵیبان
تاڵەبانی
تاھیر
تاھیری
تای
تایبه
تایبە
تایبەت
تایبەتدا
تایبەتمەند
تایبەتمەندی
تایبەتمەندیی
تایبەتمەندییانە
تایبەتمەندییە
تایبەتمەندییەکان
تایبەتمەندییەکانی
تایبەتمەندییەکی
تایبەتمەندیە
تایبەتمەندیەکانی
تایبەتمەندیەکی
تایبەتمەندێتی
تایبەتمەندە
تایبەتن
تایبەتی
تایبەتیان
تایبەتیش
تایبەتیی
تایبەتییان
تایبەتییە
تایبەتییەکان
تایبەتییەکانی
تایبەتە
تایبەتەوە
تایبەتەکان
تایبەتەکانی
تایبەتەکەی
تایتانیک
تایرۆیدە
تایسۆن
تایفەی
تایلۆر
تایلەر
تایلەند
تایلەندی
تایم
تایمز
تایمی
تایوان
تایپ
تایکواندۆ
تایگەر
تایە
تایەر
تایەی
تبت
تبتی
تبلیس
تح
تحقيق
تر
ترامپ
ترانس
ترانسجێندەر
تراژیدی
تراڤیس
تراک
تراکی
ترجمة
ترجمە
تردا
ترس
ترسا
ترسان
ترسناک
ترسناکی
ترسناکە
ترسناکەکان
ترسی
ترسیان
ترسێنەر
ترسێکی
ترش
ترشی
ترشە
ترشەکان
ترم
ترمزی
ترن
ترومبێل
تروودۆو
ترۆتسکی
تری
تریان
تریستان
تریش
تریشدا
تریشی
تریشیان
تریشەوە
تریفە
تریلیۆن
ترین
ترینیداد
ترێ
ترێی
ترە
ترەمپ
ترەوە
ترەیسی
تسنیم
تشرینی
تصویب
تعالى
تعداد
تعرف
تعريف
تفسير
تفسیر
تفلیس
تفەنگ
تفەنگی
تقسیمات
تل
تلکێف
تلێ
تم
تمه
ته
تهران
تو
توان
توانا
تواناى
تواناکانی
تواناکەی
توانای
توانایان
توانایدا
توانایی
توانایە
توانایەکی
توانایەی
توانرا
توانراوە
توانستی
توانی
توانیان
توانیبووی
توانین
توانیویانە
توانیویەتی
توانیوێتی
توانیی
توانییان
توانێت
توانەوە
توانەوەی
تواوە
توتن
توخم
توخمی
توخمێکی
توخمە
توخمەکان
توخمەکانی
تودەی
توران
تورانی
تورجان
توركیا
تورک
تورکان
تورکستان
تورکمان
تورکمانستان
تورکمانی
تورکمانەکان
تورکمانەکانی
تورکی
تورکیا
تورکیادا
تورکیاوە
تورکیای
تورکیایە
تورکیدا
تورکیش
تورکیی
تورکییە
تورکییەوە
تورکییەکان
تورکیە
تورکە
تورکەمان
تورکەکان
تورکەکانی
تورین
توش
توشبوان
توشبوانی
توشبوو
توشبوون
توشبوونی
توشی
توضیح
توغلاق
توغلوق
توماس
تون
توند
توندتر
توندو
توندوتیژ
توندوتیژی
توندوتیژیی
توندوتیژییە
توندڕەو
توندڕەوی
توندڕەوەکان
توندی
توندیان
توندە
تونس
تونسی
تونێلی
توو
تووتن
توودەی
توور
تووش
تووشبوان
تووشبوو
تووشبووان
تووشبووانی
تووشبوون
تووشبوونی
تووشبوونیان
تووشبووی
تووشبووە
تووشبووەکان
تووشی
توونبەری
تووند
تووندووتیژی
تووندی
توونس
تووڕە
تووڕەیی
تووی
توویتەر
توڕە
توڕەیی
تویتەر
توێژی
توێژینه
توێژینەوە
توێژینەوەکان
توێژینەوەکانی
توێژینەوەکەی
توێژینەوەی
توێژینەوەیەک
توێژینەوەیەکی
توێژەر
توێژەران
توێژەرانی
توێژەری
توێژەرێکی
توێژەکانی
توێکاری
توێکاریی
توێکڵی
توێی
تى
تي
تڕەمپ
تکایە
تکریت
تھران
تۆ
تۆباگۆ
تۆبی
تۆتالیتاریزم
تۆتنھام
تۆتی
تۆخ
تۆد
تۆر
تۆرباین
تۆرباینی
تۆربينى
تۆربۆ
تۆربۆچارج
تۆرن
تۆرنتۆ
تۆرنیۆ
تۆرۆنتۆ
تۆرۆنتۆی
تۆری
تۆرێس
تۆرە
تۆرەمەی
تۆرەنتۆ
تۆز
تۆزی
تۆزێک
تۆش
تۆشكه
تۆفیق
تۆلستۆی
تۆلکین
تۆم
تۆما
تۆمار
تۆماربکات
تۆماردەکات
تۆمارکرا
تۆمارکرابوو
تۆمارکرابێت
تۆمارکران
تۆمارکراو
تۆمارکراون
تۆمارکراوی
تۆمارکراوە
تۆمارکرد
تۆمارکردن
تۆمارکردنی
تۆمارکردووە
تۆمارگەی
تۆماری
تۆماریان
تۆمارێکی
تۆمارە
تۆمارەکان
تۆمارەکانی
تۆمارەکە
تۆماس
تۆمی
تۆمەت
تۆمەتبار
تۆمەتی
تۆمەیتۆز
تۆن
تۆنگ
تۆنگا
تۆنی
تۆو
تۆوی
تۆوە
تۆوەکان
تۆپ
تۆپخانە
تۆپزاوا
تۆپی
تۆپێکی
تۆپە
تۆپەکانی
تۆپەکە
تۆپەکەی
تۆڕ
تۆڕباینی
تۆڕبۆیی
تۆڕبۆییەکان
تۆڕبین
تۆڕبینی
تۆڕبینەکە
تۆڕی
تۆڕێک
تۆڕێکی
تۆڕە
تۆڕەکانی
تۆڕەکە
تۆڕەی
تۆژینەوەی
تۆک
تۆکمە
تۆکوگاوا
تۆکیۆ
تۆکیۆی
تۆگۆ
تۆڵستۆی
تۆڵکین
تۆڵە
تۆڵەستێنەکان
تۆڵەسێنەرەکان
تۆڵەسێنەکان
تۆڵەسەندنەوە
تۆڵەکردنەوە
تۆڵەی
تۆی
تۆیۆتا
تی
تیا
تیابووی
تیادا
تیادایە
تیان
تیایاندا
تیایدا
تیایە
تیتان
تیدا
تیر
تیراژی
تیرۆر
تیرۆرستی
تیرۆرکرا
تیرۆرکردن
تیرۆرکردنی
تیرۆری
تیرۆریزم
تیرۆریست
تیرۆریستی
تیرۆریستییەکان
تیری
تیرە
تیرەکانی
تیرەکەی
تیرەی
تیرەیەکی
تیشک
تیشکدانەوە
تیشکدانەوەی
تیشکۆ
تیشکی
تیشکێکی
تیشکە
تیشکەکانی
تیشکەکە
تیفلیس
تیلمەخانی
تیلەکۆ
تیلەکۆی
تیم
تیمار
تیمور
تیمۆری
تیمی
تیمێک
تیمێکی
تیمە
تیمەکان
تیمەکانی
تیمەکە
تیمەکەی
تین
تیه
تیپ
تیپی
تیپێکی
تیپە
تیپەکانی
تیپەکە
تیپەکەی
تیژ
تیژی
تیژە
تیڤی
تیک
تیکاب
تیۆدۆر
تیۆرمی
تیۆرمە
تیۆری
تیۆریی
تیۆرییە
تیۆرییەکانی
تیۆرە
تیی
تییه
تێ
تێبگات
تێبگەن
تێبگەین
تێبینی
تێبینیی
تێبینییەکانی
تێد
تێدا
تێدابوو
تێدابووە
تێدابێت
تێداکرد
تێداکردبوو
تێداکردووە
تێدایە
تێدەپەڕن
تێدەپەڕێ
تێدەپەڕێت
تێدەپەڕێنێت
تێدەکەن
تێدەگات
تێدەگەن
تێر
تێرمی
تێرمیناڵی
تێرنەر
تێری
تێریۆن
تێزی
تێس
تێسا
تێستۆستیرۆن
تێسلا
تێل
تێنس
تێنسی
تێنۆ
تێوەگلانی
تێي
تێپەر
تێپەربوونی
تێپەڕ
تێپەڕاند
تێپەڕاندنی
تێپەڕاندووە
تێپەڕبوون
تێپەڕبوونی
تێپەڕدەبێت
تێپەڕی
تێپەڕین
تێپەڕینی
تێپەڕیوە
تێچوو
تێچوون
تێچوونی
تێچووی
تێچووە
تێڕوانین
تێڕوانینی
تێڕوانینێکی
تێڕوانینە
تێک
تێکدا
تێکدان
تێکدانی
تێکدەچێت
تێکرای
تێکرایی
تێکردنی
تێکساس
تێکست
تێکستی
تێکشکا
تێکشکان
تێکشکاند
تێکشکاندنی
تێکشکانی
تێکچونی
تێکچوو
تێکچوون
تێکچوونی
تێکڕا
تێکڕای
تێکڕایی
تێکھەڵچوونی
تێکۆشان
تێکۆشانی
تێکۆشەر
تێکی
تێکەل
تێکەلەی
تێکەڵ
تێکەڵاو
تێکەڵاوی
تێکەڵبوون
تێکەڵبوونی
تێکەڵکردنی
تێکەڵی
تێکەڵە
تێکەڵەکە
تێکەڵەی
تێکەڵەیەک
تێکەڵەیەکی
تێگەشتن
تێگەیشت
تێگەیشتن
تێگەیشتنی
تێگەیشتنێکی
تێگەیشتنە
تێی
تێیاندا
تێیدا
تێیدایە
تە
تەبایی
تەبرێز
تەبەرستان
تەبەری
تەجوید
تەحسین
تەحەدای
تەخت
تەختی
تەختە
تەختەکلیلی
تەختەی
تەرابلوس
تەرخان
تەرخانکراوە
تەرخانکردنی
تەرمی
تەرمەنی
تەرمەکەی
تەرواڵ
تەرکیز
تەرگەوەڕ
تەریقەت
تەریقەتی
تەریقەتە
تەریقەتەکەیان
تەزوو
تەزووی
تەزەکەند
تەسلیم
تەسک
تەسەوف
تەشەنەکردنی
تەشەنەی
تەغامین
تەغڕۆڵ
تەفسیر
تەفسیری
تەق
تەقاندن
تەقاندنی
تەقاندنەوەی
تەقاندەوە
تەقتەق
تەقلیدی
تەقینی
تەقینەوە
تەقینەوەکان
تەقینەوەکانی
تەقینەوەکە
تەقینەوەی
تەقینەوەیەک
تەقینەوەیەکی
تەقییەوە
تەقیەوە
تەقە
تەقەمەنی
تەقەکردن
تەقەی
تەقەیان
تەل
تەلار
تەلارساز
تەلارسازی
تەلارسازیی
تەلارسازێکی
تەلاری
تەلارە
تەلان
تەلي
تەلی
تەلیسکۆب
تەلیسکۆبی
تەلیسکۆپی
تەلەسکۆپی
تەلەعفەر
تەلەفزیۆن
تەلەفزیۆنی
تەلەفزیۆنیی
تەلەفزیۆنییە
تەلەفۆن
تەلەفۆنی
تەلەفیزیۆنی
تەلەڤزیۆن
تەلەڤزیۆنی
تەلەڤیزیۆن
تەلەڤیزیۆنی
تەلەڤیزیۆنیدا
تەلەڤیزیۆنیی
تەلەڤیزیۆنییە
تەلەڤیزیۆنییەکان
تەلەڤیزیۆنییەکانی
تەلەکان
تەلەگراف
تەلەگرافی
تەم
تەماتە
تەماشا
تەماشاکردنی
تەماشای
تەمای
تەمموز
تەمموزی
تەممووز
تەممووزدا
تەممووزی
تەموزی
تەموورە
تەمووز
تەمووزی
تەمۆغە
تەمی
تەمەن
تەمەنی
تەمەنیان
تەمەنیدا
تەمەنێک
تەمەنێکی
تەمەنە
تەن
تەنانەت
تەندروست
تەندروستى
تەندروستی
تەندروستیی
تەندروستییە
تەندرووستی
تەنزانیا
تەنها
تەنک
تەنکی
تەنکە
تەنگ
تەنگژە
تەنگی
تەنھا
تەنھایی
تەنۆلکە
تەنۆلکەی
تەنی
تەنیا
تەنیایی
تەنیشت
تەنیشتی
تەنێک
تەنێکی
تەنە
تەنەکان
تەنەکانی
تەنەکە
تەواو
تەواوبوو
تەواوبوونی
تەواودەکات
تەواوکاری
تەواوکاریی
تەواوکرد
تەواوکردنی
تەواوکردووە
تەواوکەر
تەواوکەری
تەواوی
تەواویان
تەواوە
تەواوەتی
تەواوەکان
تەوبە
تەورات
تەورێز
تەورێزی
تەوشک
تەوژم
تەوژمی
تەوژمە
تەویل
تەوێڵە
تەوەر
تەوەری
تەوەرە
تەوەرەی
تەوەرەیی
تەوەکەڵی
تەي
تەپڵ
تەپۆڵکە
تەپی
تەپە
تەپەدێی
تەپەسپی
تەپەڕەش
تەپەی
تەڕ
تەڕەماری
تەڤگەری
تەک
تەکساس
تەکسی
تەکنۆلۆژی
تەکنۆلۆژیا
تەکنۆلۆژیای
تەکنیک
تەکنیکی
تەکنیکیی
تەکنیکێکی
تەکنیکە
تەکنیکەکانی
تەکنەلۆجیا
تەکنەلۆجیای
تەکنەلۆژی
تەکنەلۆژیا
تەکنەلۆژیای
تەکیە
تەکیەی
تەکێ
تەڵاتەپە
تەڵاق
تەھا
تەھمەسپ
تەیب
تەیران
تەیفوور
تەیمور
تەیموور
تەیمووری
تەیمیە
تەیناڵی
تەییب
تەیەر
ث
ثار
ثم
ج
جا
جابر
جابیر
جادوو
جادووگەر
جادووگەران
جادووگەری
جادووگەرە
جادووگەرەکان
جادووگەرەکە
جادووی
جادوویی
جادەی
جار
جاران
جارانی
جاروبار
جاری
جاریش
جارێ
جارێک
جارێکی
جارێکیان
جارێکیتر
جارێکیش
جارە
جارەکان
جاز
جاسم
جاش
جاف
جافر
جافی
جافە
جالووت
جام
جامایکا
جامع
جامعة
جاموو
جامی
جامێکی
جامە
جامەکە
جامەکەی
جان
جانسن
جانڤی
جانگ
جانی
جانیرۆ
جاوید
جاڕ
جاڕنامەی
جاڤا
جاڤاسکریپت
جاک
جاکسن
جاکسۆن
جاکلین
جاکۆب
جاکی
جاڵجاڵۆکە
جاڵجاڵۆکەی
جای
جایا
جبل
جددی
جدی
جدید
جريدة
جزء
جزیر
جزیری
جزیرە
جشنواره
جعفر
جغرافیاي
جغرافیایی
جل
جلاء
جلال
جلد
جلوبەرگ
جلوبەرگی
جلووبەرگ
جلووبەرگی
جلی
جلێکی
جلە
جلەکانی
جم
جمال
جمهوری
جموجۆڵی
جمھوری
جنس
جنسی
جنگ
جنۆکە
جنۆکەی
جنێزە
جنێڤ
جنە
جه
جهان
جو
جوامێر
جوان
جوانتر
جوانترین
جوانڕۆ
جوانڕۆی
جوانکاری
جوانی
جوانیناسی
جوانیی
جوانە
جوانەکان
جوانەکانی
جوبرەي
جوتیار
جوتیاران
جودا
جودایی
جودۆ
جودی
جوراسی
جوغاشڤیلی
جوغرافیای
جولای
جولیا
جولیان
جولیوس
جولە
جولەکە
جولەکەکان
جولەکەکانی
جولەکەی
جولەی
جومعە
جومگە
جومگەکان
جومگەکانی
جومگەکە
جومگەی
جومۆنگ
جون
جونگ
جونی
جونیۆر
جونیەر
جونەیدی
جوو
جووت
جووتبوون
جووتیار
جووتیاران
جووتێک
جووتە
جوودا
جوول
جوولای
جوولیان
جوولیانی
جوولە
جوولەکە
جوولەکەکان
جوولەکەکانی
جوولەکەی
جوولەکەیە
جوولەی
جوون
جوونی
جووڵاندنی
جووڵانەوە
جووڵانەوەی
جووڵاو
جووڵاوی
جووڵاوەکان
جووڵە
جووڵەکانی
جووڵەی
جووڵەیەکی
جووی
جووە
جووەکان
جوپ
جوگرافی
جوگرافیا
جوگرافیای
جوگرافیایی
جوگرافیاییو
جوگرافیی
جوگرافییە
جوگرافییەوە
جوگرافییەکان
جوڵان
جوڵاندنی
جوڵانەوە
جوڵانەوەی
جوڵاو
جوڵاوی
جوڵە
جوڵەی
جڤات
جڤاتی
جڤاکی
جڤاکێن
جگه
جگە
جگەر
جگەرخوێن
جگەرە
جگەرەکێشان
جگەلە
جگەلەوەی
جڵەوی
جھان
جۆ
جۆبز
جۆدی
جۆر
جۆرانە
جۆرانەی
جۆراو
جۆراوجۆر
جۆراوجۆردا
جۆراوجۆری
جۆراوجۆریان
جۆراوجۆرە
جۆراوجۆرەوە
جۆراوجۆرەکان
جۆراوجۆرەکاندا
جۆراوجۆرەکانی
جۆرایەتی
جۆربەجۆر
جۆربەجۆرەکان
جۆربەجۆرەکانی
جۆرج
جۆرجی
جۆرجیا
جۆرن
جۆره
جۆری
جۆریان
جۆرێ
جۆرێتی
جۆرێک
جۆرێکی
جۆرێکە
جۆرە
جۆرەش
جۆرەکان
جۆرەکانی
جۆرەکەی
جۆرەھا
جۆرەی
جۆرەیان
جۆرەیە
جۆزیف
جۆزێف
جۆزەردان
جۆزەردانی
جۆس
جۆسۆن
جۆسێ
جۆسێف
جۆش
جۆشی
جۆشەتووی
جۆلەی
جۆن
جۆناتان
جۆناس
جۆناسان
جۆنز
جۆنس
جۆنسن
جۆنسۆن
جۆنگ
جۆنگوم
جۆنی
جۆو
جۆولی
جۆکەر
جۆگە
جۆگەی
جۆڵ
جۆڵس
جۆھان
جۆھانسن
جۆھەر
جۆی
جۆیس
جۆیل
جی
جیا
جیابوونەتەوە
جیابوونەوە
جیابوونەوەی
جیابوونەوەیان
جیابووەتەوە
جیابووەوە
جیابکرێتەوە
جیاتی
جیاجیا
جیاجیاکان
جیاجیاکاندا
جیاجیاکانی
جیاجیای
جیادا
جیادەبنەوە
جیادەبێتەوە
جیادەکاتەوە
جیادەکرێتەوە
جیادەکرێنەوە
جیان
جیانگ
جیانگسو
جیاواز
جیاوازتر
جیاوازدا
جیاوازن
جیاوازی
جیاوازیان
جیاوازیی
جیاوازییان
جیاوازییە
جیاوازییەکی
جیاوازە
جیاوازەوە
جیاوازەکان
جیاوازەکاندا
جیاوازەکانی
جیاوازەکانەوە
جیاکاری
جیاکاریی
جیاکراونەتەوە
جیاکراوەتەوە
جیاکرایەوە
جیاکردنەوە
جیاکردنەوەی
جیاکردەوە
جیاکەرەوەی
جیای
جیایان
جیایە
جیبووتی
جیددی
جیرارد
جیلی
جیم
جیمس
جیمی
جین
جینگ
جینۆساید
جینۆسایدی
جینی
جینەکان
جیهاد
جیهان
جیهاندا
جیهانی
جیهانیی
جیهانە
جیوە
جیھاد
جیھادی
جیھان
جیھاندا
جیھانی
جیھانیان
جیھانیدا
جیھانیش
جیھانیی
جیھانییە
جیھانییەوە
جیھانییەکان
جیھانییەکانی
جیھانییەکە
جیھانێکی
جیھانە
جیھانەوە
جیۆرج
جیۆلۆجی
جیۆنگ
جیۆپرۆجێکتس
جیۆپۆلەتیک
جیۆڤانی
جیێ
جێ
جێبھێڵێت
جێبەجێ
جێبەجێکار
جێبەجێکاری
جێبەجێکرا
جێبەجێکردن
جێبەجێکردنی
جێبەجێکردنەوە
جێبەجێی
جێت
جێتی
جێدەھێڵێت
جێرسی
جێرمان
جێرمی
جێری
جێسی
جێسیکا
جێف
جێفری
جێفەرسۆن
جێمس
جێن
جێناوی
جێناکۆکەکانی
جێندەر
جێندەری
جێندەرە
جێندەرەکەی
جێندەرەی
جێنس
جێنسن
جێنشین
جێنشینی
جێنی
جێنیفەر
جێهێشت
جێژن
جێژنی
جێگا
جێگای
جێگایەکی
جێگر
جێگرتنەوەی
جێگری
جێگرەوە
جێگرەوەی
جێگرەوەیەکی
جێگیر
جێگیربوون
جێگیربوونی
جێگیردا
جێگیرکردنی
جێگیری
جێگیرە
جێگیرەکان
جێگە
جێگەی
جێگەیەکی
جێھێشت
جێھێشتنی
جێھێشتووە
جێی
جێیان
جە
جەبار
جەباری
جەبر
جەبری
جەبەل
جەخت
جەختی
جەختیان
جەراح
جەرگ
جەرگەی
جەزا
جەزاي
جەزمان
جەزیرە
جەزەری
جەستن
جەستە
جەستەدا
جەستەی
جەستەیان
جەستەیی
جەستەیەکی
جەعفەر
جەعفەری
جەغەتوو
جەلادەت
جەلال
جەلالی
جەلالیان
جەلالەدین
جەلی
جەلیل
جەلیلیان
جەلیلە
جەلەولا
جەم
جەماعەتی
جەمال
جەماوەر
جەماوەری
جەماوەریی
جەماوەرێکی
جەماڵ
جەمسەری
جەمسەرییەکان
جەمشید
جەمشیدی
جەمپ
جەمیل
جەنابی
جەند
جەنگ
جەنگا
جەنگان
جەنگاوەر
جەنگاوەری
جەنگاوەرێکی
جەنگاوەرە
جەنگدا
جەنگی
جەنگیز
جەنگیزخان
جەنگییە
جەنگییەکان
جەنگییەکانی
جەنگێک
جەنگێکی
جەنگە
جەنگەدا
جەنگەوە
جەنگەکان
جەنگەکانی
جەنگەکە
جەنگەکەدا
جەنەراڵ
جەنەوا
جەنەڕاڵ
جەواد
جەودەت
جەوھەر
جەوھەری
جەژن
جەژنی
جەژنە
جەکسن
جەگەنلوی
جەڵتە
جەڵتەی
جەڵدەی
جەھان
جەی
جەیدن
جەیسن
جەیسۆن
جەیمز
جەیمس
جەیمی
جەین
جەیک
جەیکەب
ح
حاتەم
حاج
حاجعلی
حاجی
حاجیاباد
حاجیان
حاجیاوا
حاجیلار
حاديث
حارس
حازر
حاسونی
حاشا
حافز
حافزی
حال
حالەت
حالەتی
حامد
حامید
حاکم
حاکمی
حاڵ
حاڵی
حاڵێکدا
حاڵەت
حاڵەتانەی
حاڵەتدا
حاڵەتی
حاڵەتێک
حاڵەتێکی
حاڵەتێکە
حاڵەتە
حاڵەتەدا
حاڵەتەکان
حاڵەتەکاندا
حاڵەتەکانی
حاڵەتەکە
حبیب
حتى
حجر
حد
حديث
حدک
حدکا
حزب
حزبی
حزبە
حساب
حسابی
حسن
حسين
حسین
حسێن
حسێنی
حسەین
حسەینی
حق
حقوق
حكام
حكاية
حكم
حكومه
حكوومه
حمد
حمه
حمە
حه
حوجرە
حوجرەی
حوزنی
حوزەیران
حوزەیراندا
حوزەیرانی
حوسنی
حوسێن
حوسێناوا
حوسێناوای
حوسێنی
حوسەین
حوسەینی
حول
حومس
حوکم
حوکمڕانی
حوکمی
حوکمیان
حوکمە
حوکمەت
حوکمەتی
حوکمەکەی
حوکومەتی
حکومڕانی
حکومی
حکومییەکان
حکومەت
حکومەتدا
حکومەتی
حکومەتێکی
حکومەتە
حکومەتەوە
حکومەتەکەی
حکوومی
حکوومەت
حکوومەتدا
حکوومەتی
حکوومەتێکی
حکوومەتە
حکوومەتەوە
حکوومەتەکان
حکوومەتەکانی
حکوومەتەکەی
حکۆمەتی
حی
حیجاب
حیجاز
حیجازی
حیزب
حیزبوڵڵا
حیزبوڵڵای
حیزبی
حیزبێکی
حیزبە
حیزبەکان
حیزبەکانی
حیزبەکە
حیزبەکەی
حیساب
حیسابی
حیسامی
حیلمی
حیکمەت
حیکمەتی
حە
حەبیب
حەبیبوڵڵا
حەبەشە
حەج
حەجی
حەجەر
حەداد
حەدید
حەدیس
حەرام
حەرامە
حەرب
حەریری
حەرەمی
حەز
حەزرەتی
حەزم
حەزی
حەزیان
حەزەر
حەسار
حەسارا
حەسیچە
حەسەن
حەسەناوا
حەسەنزادە
حەسەنلو
حەسەنی
حەسەنیانی
حەسەکە
حەشدی
حەشیمەتی
حەفت
حەفتا
حەفتاکان
حەفتاکاندا
حەفتاکانی
حەفتە
حەفتەم
حەفتەیەک
حەفس
حەفید
حەق
حەقی
حەقیقی
حەقیقەت
حەلیمە
حەلەب
حەلەبی
حەما
حەماس
حەمام
حەمامی
حەمامە
حەمدانی
حەمدانیە
حەمدی
حەمرین
حەمزە
حەمید
حەمیدی
حەمە
حەمەد
حەمەوی
حەمەی
حەنا
حەنبەل
حەنبەلی
حەنەفی
حەوا
حەوانەوەی
حەوای
حەوت
حەوتی
حەوتە
حەوتەم
حەوتەمدا
حەوتەمی
حەوتەمین
حەوز
حەوزی
حەوشەی
حەولی
حەویجە
حەڤدە
حەڤدەھەم
حەکیم
حەکەم
حەی
حەیدەر
حەیدەراوا
حەیدەرلی
حەیدەری
حەیران
حەیفا
خ
خاتر
خاتری
خاتوو
خاتوون
خاتوونی
خاتوونە
خارپێت
خاس
خاسیەتی
خاشقچی
خالجی
خالد
خالدی
خالقی
خالی
خالید
خالیدی
خامنەیی
خان
خانای
خانزاد
خانم
خانمان
خانمانی
خانمی
خانمێکی
خانمە
خانمەي
خانمەکتەر
خانمەکتەری
خانمەکتەرێکی
خانه
خانوو
خانووبەرە
خانووی
خانوویەک
خانوویەکی
خانووە
خانووەکان
خانووەکانی
خانووەکە
خانووەکەی
خانک
خانی
خانە
خانەخوێ
خانەخوێی
خانەدا
خانەدان
خانەدانی
خانەدانەکانی
خانەقا
خانەقای
خانەقین
خانەنشین
خانەنشینی
خانەوادەکەی
خانەوادەی
خانەوە
خانەکان
خانەکانی
خانەکە
خانەی
خانەیی
خانەیەک
خانەیەکی
خاو
خاوه
خاوی
خاوێن
خاوێنکردنەوەی
خاوێنی
خاوە
خاوەر
خاوەن
خاوەنداری
خاوەندارییەتی
خاوەنداریەتی
خاوەندارێتی
خاوەندارێتیی
خاوەنکار
خاوەنی
خاوەنەکەی
خاپوور
خاچ
خاچپەرستان
خاچپەرستی
خاچپەرستەکان
خاچی
خاک
خاکانەی
خاکدا
خاکی
خاکێکی
خاکە
خاکەلێوە
خاکەلێوەی
خاکەکانی
خاکەکە
خاکەکەی
خاڵ
خاڵانە
خاڵانەی
خاڵجی
خاڵدا
خاڵدان
خاڵۆ
خاڵی
خاڵێک
خاڵێکدا
خاڵێکی
خاڵە
خاڵەدا
خاڵەکان
خاڵەکانی
خاڵەی
خایاند
خایاندووە
خایەن
خبار
خبر
خبرگزاری
خبری
ختی
خدر
خدران
خدری
خديجة
خر
خرا
خرابە
خراسان
خرانە
خراونەتە
خراوە
خراوەتە
خراپ
خراپتر
خراپترین
خراپی
خراپیان
خراپە
خراپەکار
خراپەکاری
خراپەکان
خراپەکانی
خرایە
خرایەوە
خرین
خزم
خزمایەتی
خزمه
خزمی
خزمێکی
خزمە
خزمەت
خزمەتکار
خزمەتکاری
خزمەتکردن
خزمەتکردنی
خزمەتگوزاری
خزمەتگوزاریی
خزمەتگوزارییە
خزمەتگوزارییەکان
خزمەتگوزارییەکانی
خزمەتگوزارییەکی
خزمەتگوزاریە
خزمەتگووزاری
خزمەتی
خزمەتیان
خزمەتێکی
خزمەتە
خزمەتەکانی
خزمەکانی
خزڵی
خست
خستبووە
خستن
خستنی
خستنە
خستنەوەی
خستووە
خستووەتە
خستۆتە
خستییە
خستە
خستەوە
خستەڕوو
خشت
خشتی
خشتە
خشتەی
خشتەیەی
خشڵ
خشۆکەکان
خلیسکێنەی
خنه
خنکان
خه
خو
خوا
خواجە
خوادا
خوار
خوارد
خواردبوو
خواردن
خواردنی
خواردنیان
خواردنێکی
خواردنە
خواردنەوە
خواردنەوەی
خواردووە
خواردەمەنی
خوارو
خواروو
خوارووی
خواروی
خوارۆ
خواری
خوارێ
خوارە
خوارەوە
خوارەوەدا
خوارەوەن
خوارەوەی
خوارەوەیە
خوازراو
خوازی
خوازیاری
خواست
خواستن
خواستی
خواستێکی
خوالێخۆشبوو
خوان
خواناس
خواناسی
خوانساری
خوانی
خواو
خواوە
خواوەند
خواوەندی
خواپەرستی
خوای
خوایی
خوایە
خود
خودا
خوداوە
خوداوەند
خوداوەندی
خوداکانی
خودای
خودایی
خودایە
خودی
خوراسان
خورانی
خورشید
خورما
خورماتوو
خورماڵ
خوری
خوزستان
خوسراو
خوسرەو
خوشک
خوشکی
خوشکێکی
خوشکە
خوشکەزای
خوشکەکانی
خوشکەکەی
خول
خولانەوە
خولانەوەی
خولاوە
خولدا
خولگە
خولگەی
خولگەیی
خولی
خولیای
خولێکی
خولە
خولەدا
خولەک
خولەکانی
خولەکدا
خولەکی
خولەکێک
خولەکێکدا
خولەکە
خولەکەدا
خولەی
خومەین
خومەینی
خونین
خوو
خووزستان
خووشکەکەی
خوول
خوولگەی
خوولی
خوولەک
خوولەکی
خوولەکە
خووی
خوڕخوڕە
خوڕەم
خوی
خویندنی
خوێ
خوێن
خوێناوی
خوێنبەربوون
خوێنبەربوونی
خوێنبەرەکان
خوێند
خوێندا
خوێندن
خوێندندا
خوێندنگا
خوێندنگای
خوێندنگە
خوێندنگەی
خوێندنگەیەکی
خوێندنی
خوێندنیان
خوێندنە
خوێندنەوە
خوێندنەوەی
خوێندنەوەیەک
خوێندنەوەیەکی
خوێندنەکەی
خوێندوویانە
خوێندوویەتی
خوێندووە
خوێندویەتی
خوێندوێتی
خوێندوە
خوێندکار
خوێندکاران
خوێندکارانی
خوێندکاری
خوێندکارێکی
خوێندکارە
خوێندکارەکانی
خوێندی
خوێندەوار
خوێندەواری
خوێندەوە
خوێنمژ
خوێنمژی
خوێنمژەکان
خوێنی
خوێنە
خوێنەر
خوێنەران
خوێنەرانی
خوێنەری
خوێنەوە
خوێڵینی
خوێی
خوێیە
خوە
خير
خڕ
خڕۆکە
خۆ
خۆبەخش
خۆبەخشانە
خۆبەخشی
خۆبەڕیوەبەری
خۆبەڕێوەبەری
خۆت
خۆتان
خۆتۆمارکردن
خۆجێی
خۆجێیی
خۆدەگرێت
خۆر
خۆراسان
خۆراسانی
خۆراوا
خۆراوای
خۆراک
خۆراکانەی
خۆراکی
خۆراکیان
خۆراکییەکان
خۆراکە
خۆردا
خۆرهەڵاتی
خۆري
خۆرھەڵات
خۆرھەڵاتن
خۆرھەڵاتی
خۆری
خۆرە
خۆرەوە
خۆزگە
خۆزێ
خۆسێ
خۆسەری
خۆش
خۆشاردنەوە
خۆشتر
خۆشترین
خۆشحاڵ
خۆشحاڵی
خۆشدەوێت
خۆشم
خۆشناو
خۆشناوەتی
خۆشنووس
خۆشنووسی
خۆشه
خۆشویستنی
خۆشکەر
خۆشگوزەرانی
خۆشی
خۆشیان
خۆشیه
خۆشە
خۆشەویست
خۆشەویسترین
خۆشەویستی
خۆشەویستیی
خۆشەویستییە
خۆشەویستییەوە
خۆشەویستییەکی
خۆشەویستییەکەی
خۆشەویستە
خۆشەویستەکەی
خۆلادان
خۆم
خۆمان
خۆماڵی
خۆماڵیی
خۆمم
خۆن
خۆوە
خۆى
خۆي
خۆپاراستن
خۆپارێزی
خۆپیشاندان
خۆپیشاندانی
خۆپیشاندانیان
خۆپیشاندانێک
خۆپیشاندانە
خۆپیشاندانەکان
خۆپیشاندانەکانی
خۆپیشاندەر
خۆپیشاندەران
خۆپێشاندان
خۆڕ
خۆڕاگر
خۆڕاگری
خۆڕایی
خۆڕسک
خۆڕسکی
خۆڕي
خۆڕھەڵات
خۆڕھەڵاتی
خۆکارانە
خۆکوشتن
خۆکوشتنی
خۆکوژی
خۆکوژیی
خۆڵ
خۆڵی
خۆڵەمێشی
خۆی
خۆیان
خۆیاندا
خۆیانن
خۆیانی
خۆیانیان
خۆیانەوە
خۆیدا
خۆیشی
خۆیی
خۆیە
خۆیەتی
خۆیەوە
خیانەت
خیانەتی
خیزش
خیلافەت
خێر
خێرا
خێراتر
خێراترین
خێرايى
خێراکردنی
خێرای
خێرایی
خێراییی
خێرایییەکی
خێراییە
خێراییەکی
خێراییەکەی
خێرایە
خێرخوازی
خێرخوازیی
خێری
خێزان
خێزاندا
خێزاندارە
خێزانه
خێزانی
خێزانیی
خێزانێک
خێزانێکی
خێزانە
خێزانەکانی
خێزانەکانیان
خێزانەکە
خێزانەکەی
خێزانەکەیان
خێزانەکەیدا
خێزانەکەیەوە
خێسوس
خێوەتگای
خێوەتگەی
خێوەتە
خێڵ
خێڵان
خێڵی
خێڵە
خێڵەکان
خێڵەکانی
خە
خەبات
خەباتی
خەبەر
خەت
خەتاب
خەتتاب
خەتلان
خەتی
خەتیب
خەتەنە
خەتەنەکراو
خەتەنەکردن
خەتەنەکردنی
خەتەنەی
خەج
خەدیجە
خەرابەیی
خەرج
خەرجی
خەرمان
خەرمانان
خەرمانانی
خەرمانە
خەرمانەی
خەریک
خەریکن
خەریکی
خەریکە
خەزایی
خەزن
خەزنە
خەزنەدار
خەزێنە
خەزێنەی
خەزەر
خەزەڵوەر
خەزەڵوەری
خەست
خەستی
خەسراوا
خەسرەو
خەسرەوی
خەسڵەتی
خەسڵەتێکی
خەسڵەتە
خەسڵەتەکانی
خەفەت
خەلاتی
خەلافەت
خەلافەتی
خەلک
خەلکی
خەلیفان
خەلیفانی
خەلیفە
خەلیفەکانی
خەلیفەی
خەلیل
خەلیلی
خەلەف
خەلەکان
خەم
خەمبار
خەملێنراوە
خەمڵاندنی
خەمڵینراوە
خەمڵێنراوە
خەمۆکی
خەمی
خەنجەر
خەندان
خەندەق
خەو
خەوتن
خەودا
خەوزڕان
خەون
خەونی
خەونێکی
خەونە
خەونەکان
خەونەکانی
خەونەکەی
خەوی
خەڵات
خەڵاتی
خەڵاتێک
خەڵاتێکی
خەڵاتێکە
خەڵاتە
خەڵاتەکان
خەڵاتەکانی
خەڵاتەکە
خەڵاتەکەی
خەڵاتەی
خەڵكی
خەڵوز
خەڵوزی
خەڵووز
خەڵک
خەڵکان
خەڵکانی
خەڵکانێک
خەڵکانێکی
خەڵکدا
خەڵکی
خەڵکیان
خەڵکیدا
خەڵکیش
خەڵکێکی
خەڵکە
خەڵکەوە
خەڵکەکە
خەڵکەکەی
خەڵکەکەیان
خەیات
خەیار
خەیام
خەیاڵ
خەیاڵی
خەیاڵیی
خەیاڵییە
خەیبەر
خەییام
د
دا
داب
دابمەزرێنن
دابمەزرێنێت
دابنرێ
دابنرێت
دابنێ
دابنێت
دابنێن
دابنێین
دابه
دابونەریتی
دابوو
دابوون
دابووە
دابڕان
دابڕانی
دابڕاو
دابین
دابینکراوە
دابینکردن
دابینکردنی
دابینکەری
دابێ
دابێت
دابەزاند
دابەزاندنی
دابەزی
دابەزین
دابەزینی
دابەزیوە
دابەزێت
دابەش
دابەشبوون
دابەشبوونی
دابەشبوونە
دابەشبووە
دابەشکاری
دابەشکاریی
دابەشکارییە
دابەشکرا
دابەشکران
دابەشکراو
دابەشکراون
دابەشکراوی
دابەشکراوە
دابەشکرد
دابەشکردن
دابەشکردنی
دابەشکردنە
دابەشی
دات
داتا
داتاشراوە
داتاکان
داتاکانی
داتای
داخ
داخرا
داخران
داخرانی
داخراو
داخراوی
داخراوە
داخست
داخستنی
داخل
داخوازی
داخوران
داخورانی
داد
داده
دادوەر
دادوەران
دادوەرانی
دادوەری
دادوەریی
دادپەروەر
دادپەروەرانە
دادپەروەری
دادگا
دادگادا
دادگاکان
دادگاکانی
دادگاکە
دادگای
دادگایی
دادگاییکردنی
دادگایەکی
دادگەری
دادی
دادەبەزێت
دادەخرێت
دادەخرێن
دادەمەزرێ
دادەمەزرێت
دادەمەزرێنن
دادەمەزرێنێت
دادەنا
دادەندرێت
دادەنرا
دادەنران
دادەنرێ
دادەنرێت
دادەنرێن
دادەنیشت
دادەنیشن
دادەنیشێت
دادەنێ
دادەنێت
دادەنێن
دادەپۆشێت
دار
دارا
دارایی
دارایییەوە
داراییەوە
داربەڕولە
داربەڕوو
دارت
دارتاش
دارتووی
دارخورمای
دارستان
دارستانی
دارستانێکی
دارستانە
دارستانەکان
دارستانەکانی
دارستانەکە
دارو
داروین
دارک
دارۆخان
داری
داریان
دارین
داریووش
دارێک
دارێکی
دارێکە
دارە
دارەبەن
دارەتوو
دارەخورمای
دارەشمانە
دارەکان
دارەکانی
دارەکە
داس
داستان
داستانی
داستانێکی
داستانە
داش
داعش
داعشدا
داعشەوە
داغ
داغستان
داقوق
دالاس
دالی
دام
دامه
دامێنی
دامەزرا
دامەزرابوو
دامەزران
دامەزراند
دامەزراندن
دامەزراندنی
دامەزراندووە
دامەزراندی
دامەزرانی
دامەزراو
دامەزراون
دامەزراوی
دامەزراوە
دامەزراوەتەوە
دامەزراوەکان
دامەزراوەکانی
دامەزراوەکە
دامەزراوەی
دامەزراوەیی
دامەزراوەیە
دامەزراوەیەکی
دامەزرێنرا
دامەزرێنەر
دامەزرێنەران
دامەزرێنەرانی
دامەزرێنەری
دان
دانا
دانابوو
دانالوی
دانان
دانانرێت
دانانی
دانانەوەی
داناوە
دانایی
دانتێ
دانتە
داندرا
داندراوە
دانرا
دانرابوو
دانرابوون
دانران
دانراو
دانراون
دانراوی
دانراوە
دانس
دانش
دانشنامه
دانشگاه
دانمارک
دانمارکی
داننان
دانه
دانوستان
دانوستانی
دانووب
دانپێدانانی
دانی
دانیال
دانیان
دانیاڵ
دانیشت
دانیشتن
دانیشتنی
دانیشتنێکی
دانیشتنەکانی
دانیشتوان
دانیشتوانی
دانیشتوانیان
دانیشتوانە
دانیشتوانەوە
دانیشتوانەکەی
دانیشتوو
دانیشتووان
دانیشتووانی
دانیشتووانیان
دانیشتووانێکی
دانیشتووانە
دانیشتووانەوە
دانیشتووانەکەی
دانیشتوون
دانیشتووی
دانیشتووە
دانیمارک
دانیمارکی
دانیپێدانراوە
دانیێل
دانیەڵ
دانە
دانەر
دانەری
دانەوێڵە
دانەوێڵەی
دانەوە
دانەوەی
دانەکانی
دانەی
دانەیان
دانەیەک
دانەیەکی
داهاتوو
داهاتوودا
داهاتووی
داهاتی
داهێنا
داهێنانی
داو
داوا
داواکار
داواکاری
داواکاریی
داواکارییە
داواکارییەکانی
داواکارییەکی
داواکارییەکەی
داواکراو
داواکراوە
داواکردنی
داواکەی
داوای
داوایان
داوایەکی
داود
داودی
داودە
داون
داوه
داوود
داوی
داوێنی
داوە
داوەتە
داوەتەوە
داي
داپۆشراو
داپۆشراون
داپۆشراوە
داپۆشینی
داپۆشیوە
داپیرە
داپیرەی
داڕشت
داڕشتن
داڕشتنی
داڕشتووە
داڕشتە
داڕشتەی
داڕمانی
داڕێژرا
داڕێژراو
داڕێژراون
داڕێژراوە
داڕێژە
داڤید
داکا
داکۆکی
داکۆکیکردن
داکەوتووە
داگرت
داگرتن
داگرتنی
داگری
داگیر
داگیرساندن
داگیرساندنی
داگیرسانی
داگیرکاری
داگیرکاریی
داگیرکرا
داگیرکراوی
داگیرکراوە
داگیرکراوەکان
داگیرکرد
داگیرکردبوو
داگیرکردن
داگیرکردنی
داگیرکردووە
داگیرکەر
داگیرکەران
داگیرکەرانی
داگیرکەری
داگیری
داگیریان
داڵاھۆ
داڵتۆن
داھات
داھاتوو
داھاتوودا
داھاتووی
داھاتی
داھاتێکی
داھاتەکەی
داھێنا
داھێنان
داھێنانی
داھێنانە
داھێنانەکانی
داھێناوە
داھێنرا
داھێنراوە
داھێنەر
داھێنەری
داھێنەرێکی
دای
دایان
دایانا
دایرەی
دایك
داینا
داینامیکی
داینامیکە
دایناوە
داینەسۆرەکان
داینەمیکی
دایه
دایک
دایکان
دایکانی
دایکبوو
دایکبوون
دایکبوونی
دایکبووی
دایکبووە
دایکم
دایکوباوک
دایکی
دایکیان
دایکیدا
دایکیشی
دایکییەوە
دایکیەوە
دایکێکی
دایکە
دایکەکە
دایی
دایە
دایەر
دایەوە
دبلۆمی
دختر
دخل
ددان
ددانی
ددانە
ددانەکان
ددانەکانی
در
درا
درابوو
درابێت
دراسة
درام
دراما
دراماتورژی
دراماتیکی
دراماکان
دراماکانی
دراماکە
درامای
درامایە
درامایەکی
درامی
درامیی
درامییە
دران
دراو
دراوسێ
دراوسێکانی
دراوسێی
دراون
دراوی
دراوێکی
دراوە
دراوەتە
دراوەتەوە
دراوەکان
دراوەکانی
دراوەکە
دراوەی
دراکولا
دراگۆن
درایڤ
درایە
درایەوە
درباره
دره
درو
دروست
دروستبونی
دروستبوو
دروستبوون
دروستبوونی
دروستبووە
دروستبکات
دروستدەکات
دروستدەکرێت
دروستکرا
دروستکرابوو
دروستکرابوون
دروستکرابێت
دروستکران
دروستکراو
دروستکراون
دروستکراوی
دروستکراوە
دروستکراوەکانی
دروستکراوەی
دروستکرد
دروستکردن
دروستکردنی
دروستکردنەوەی
دروستکردووە
دروستکردوە
دروستکەر
دروستکەرانی
دروستکەری
دروستی
دروستیان
دروستە
دروشم
دروشمی
دروشمە
درووست
درووستبوونی
درووستکرا
درووستکراوی
درووستکراوە
درووستکرد
درووستکردنی
درووستکردووە
درووستی
درووشمی
درک
درکی
درگذشت
درۆ
درۆزن
درۆزنە
درۆی
دریم
درێ
درێسی
درێژ
درێژای
درێژایی
درێژاییی
درێژتر
درێژترین
درێژخایەن
درێژخایەنی
درێژخایەنیان
درێژخایەنە
درێژدەبێتەوە
درێژکراوەی
درێژکرایەوە
درێژکردنەوەی
درێژکردەوە
درێژی
درێژیان
درێژیی
درێژییەکەی
درێژیەکەی
درێژە
درێژەدان
درێژەکان
درێژەی
درێژەیان
درەخت
درەختی
درەختە
درەختەکان
درەنگ
درەنگانی
درەوشاوە
دز
دزڵی
دزی
دزین
دزینی
دزییەوە
دزێ
دزە
دزەکان
دزەی
دزەیی
دست
دستور
دل
دلێر
دم
دمدم
دمشق
دنیا
دنیادا
دنیاوە
دنیای
دنیایە
ده
دهستان
دهۆک
دو
دوا
دوابەدوای
دواتر
دواتردا
دواتری
دواتریش
دواترین
دواجار
دواخرا
دواخستنی
دوازدە
دوازدەھەم
دوازدەھەمین
دوان
دواناوەندی
دوانزدە
دوانزە
دوانزەي
دوانی
دوانە
دوانەي
دوانەی
دواوە
دواوەی
دواى
دواڕۆژ
دواکەوت
دواکەوتن
دواکەوتنی
دواھەمین
دوای
دوایدا
دواین
دوایی
دواییان
دواییانە
دواییانەدا
دواییدا
دواییش
دوایین
دواییکرد
دواییی
دوایییە
دواییە
دوایە
دوبارە
دوبەی
دور
دورانی
دوربینی
دورکەوتنەوە
دورگە
دورگەکانی
دورگەکە
دورگەی
دوری
دورە
دوستکراوی
دوسلدۆرف
دوعا
دوعای
دولة
دولت
دوم
دون
دونبەلی
دونیا
دونیادا
دونیاوە
دونیای
دونیایە
دوو
دوواتر
دووان
دووانی
دووانیان
دووانە
دووانەکەی
دووانەی
دوواوە
دووای
دووبارە
دووبارەبوونەوەی
دووبارەکردنەوەی
دووبارەی
دووبز
دووبەرەکی
دووتوێی
دووجا
دووجادایە
دووجار
دووجای
دووجایە
دوودڵ
دوودڵی
دوور
دوورتر
دوورترین
دوورخرانەوە
دوورخرایەوە
دوورخستنەوە
دوورخستنەوەی
دوورخستەوە
دوورن
دوورودرێژ
دوورودرێژی
دوورکەوتنەوە
دوورکەوتنەوەی
دوورکەوتەوە
دوورگانە
دوورگە
دوورگەکان
دوورگەکانی
دوورگەکە
دوورگەی
دوورگەیە
دوورگەیەک
دوورگەیەکی
دوورگەیەکە
دووری
دووریان
دووریی
دوورە
دوورەوە
دوورەکان
دووزخورماتوو
دووزەلە
دووساڵ
دووسەد
دووسەر
دووشەممە
دووم
دوومەڵ
دووه
دووهەم
دووهەمی
دووي
دووپات
دووپاتی
دووچاری
دووچۆمان
دووڕەگەزخواز
دووک
دووکان
دووکانی
دووکی
دووکەڵ
دووکەڵی
دووگیان
دووگیانی
دووھەم
دووھەمدا
دووھەمی
دووھەمین
دووی
دووە
دووەم
دووەمجار
دووەمدا
دووەمی
دووەمیان
دووەمیش
دووەمیشی
دووەمین
دووەمە
دووەمەوە
دوية
دوپا
دوچاری
دوڕگەی
دوژمن
دوژمنان
دوژمنانی
دوژمنایەتی
دوژمنی
دوژمنێکی
دوژمنەکانی
دوڤۆڵ
دوک
دوکان
دوکانی
دوکانێکی
دوکتور
دوکتۆر
دوکتۆرای
دوگمەی
دوین
دوێنێ
دوەم
دوەمی
دوەین
دي
ديزل
ديسمبر
دڕندانە
دڕندە
دڕندەی
دڕندەیی
دڕکە
دڕی
دژ
دژایەتی
دژایەتیکردنی
دژایەتیی
دژبە
دژه
دژوار
دژواری
دژوارە
دژی
دژیان
دژە
دژەي
دکتر
دکتۆر
دکتۆرا
دکتۆراکەی
دکتۆرای
دکتۆری
دکتۆرە
دڵ
دڵت
دڵتەنگ
دڵتەنگی
دڵخواز
دڵخوازی
دڵخۆش
دڵخۆشی
دڵخۆشە
دڵدا
دڵدار
دڵداری
دڵزار
دڵسۆز
دڵسۆزی
دڵشاد
دڵم
دڵنیا
دڵنیابوون
دڵنیابوونەوە
دڵنیای
دڵنیایی
دڵنیایییەوە
دڵنیاییەوە
دڵوەران
دڵڕفێن
دڵۆپە
دڵی
دڵیان
دڵێکی
دڵە
دڵەوە
دڵەڕاوکێ
دڵەڕاوکێی
دھۆک
دۆ
دۆبلاژ
دۆبلاژی
دۆت
دۆج
دۆجکۆین
دۆخ
دۆخی
دۆخێکی
دۆخە
دۆخەکە
دۆدی
دۆرا
دۆرتمۆند
دۆزرانەوە
دۆزراونەتەوە
دۆزراوە
دۆزراوەتەوە
دۆزرایەوە
دۆزی
دۆزینەوە
دۆزینەوەکانی
دۆزینەوەی
دۆزیوەتەوە
دۆزییەوە
دۆزیەوە
دۆزەخ
دۆزەرەوە
دۆزەرەوەی
دۆس
دۆست
دۆستانە
دۆستانەدا
دۆستانەی
دۆستایەتی
دۆستی
دۆسیەی
دۆغان
دۆلار
دۆلاری
دۆلاریان
دۆلارە
دۆلی
دۆم
دۆمینی
دۆمینیک
دۆمینیکا
دۆمینیکان
دۆمەینی
دۆن
دۆناڵد
دۆنم
دۆنگ
دۆنگی
دۆنی
دۆنێتسک
دۆڕا
دۆڕان
دۆڕاند
دۆڕاندنی
دۆڕاندنیان
دۆڕانی
دۆکیومێنتاری
دۆکیۆمێنتاری
دۆگ
دۆگلاس
دۆڵ
دۆڵبێشکی
دۆڵی
دۆڵێکی
دۆڵە
دۆڵەبی
دۆڵەڕووت
دۆڵەکانی
دۆی
دۆیڵ
دی
دیار
دیاربوو
دیاربەکر
دیارترین
دیارترینیان
دیاردە
دیاردەکانی
دیاردەکە
دیاردەی
دیاردەیە
دیاردەیەکی
دیارن
دیارنەمانی
دیارکردنی
دیاری
دیاریان
دیاریدەکرێت
دیاریکرا
دیاریکراو
دیاریکراودا
دیاریکراوی
دیاریکراویان
دیاریکراوە
دیاریکراوەوە
دیاریکراوەکان
دیاریکرد
دیاریکردن
دیاریکردنی
دیاریی
دیارە
دیارەکان
دیارەکانی
دیاز
دیالۆگ
دیالێکتی
دیالە
دیان
دیانا
دیاکۆ
دیبلۆماسی
دیبیان
دیت
دیتراوە
دیترۆیت
دیتنی
دیجلە
دیجیتاڵ
دیجیتاڵی
دیدات
دیدار
دیداری
دیدی
دیدە
دیزاین
دیزاینکردنی
دیزاینی
دیزاینە
دیزاینەر
دیزاینەری
دیزاینەکەی
دیزل
دیزنگۆف
دیزنی
دیزڵ
دیزڵی
دیسان
دیسانەوە
دیسک
دیسکی
دیسی
دیسەمبەری
دیكه
دیل
دیلان
دیلی
دیم
دیموکرات
دیموکراتی
دیموکراتیک
دیموکراتیکی
دیموکراتیی
دیموکراتە
دیموکراتەکان
دیموکراسی
دیموکراسیی
دیموکڕاسی
دیمۆگرافی
دیمۆگرافیای
دیمەشق
دیمەشقی
دیمەن
دیمەنی
دیمەنێک
دیمەنێکی
دیمەنە
دیمەنەکان
دیمەنەکانی
دیمەنەکە
دین
دینا
دینار
دیناری
دینامیکی
دیندار
دینگ
دینۆ
دینی
دینەمۆ
دینەوەری
دیو
دیوار
دیواری
دیوارێکی
دیوارە
دیوارەکان
دیوارەکانی
دیوارەکە
دیوان
دیواندەرە
دیواندەرەیە
دیوانی
دیوانێکی
دیوانە
دیوانەکەی
دیووتی
دیوی
دیوە
دیوەکەی
دیپلۆمات
دیپلۆماتکار
دیپلۆماسی
دیپلۆمی
دیپۆرتیڤۆ
دیپیکا
دیڤیدی
دیک
دیکاپریۆ
دیکتاتۆر
دیکتاتۆری
دیکسن
دیکن
دیکنز
دیکه
دیکۆری
دیکینسۆن
دیکە
دیکەب
دیکەدا
دیکەش
دیکەشدا
دیکەشی
دیکەشیان
دیکەشەوە
دیکەوە
دیکەی
دیکەیان
دیکەیە
دیگر
دیی
دیێگۆ
دێ
دێت
دێتە
دێتەوە
دێد
دێدانا
دێر
دێربی
دێرسم
دێری
دێرین
دێرینی
دێرینە
دێرینەکان
دێرینەکانی
دێرە
دێرەکە
دێس
دێسەمبەری
دێل
دێلوڕان
دێلێژە
دێم
دێموکرات
دێموکراتی
دێموکراسی
دێمۆکراتی
دێمی
دێن
دێنن
دێنیس
دێنێ
دێنێت
دێنێتە
دێنێتەوە
دێنە
دێوانە
دێولان
دێپ
دێڕ
دێڕی
دێڕە
دێڤاگیری
دێکارت
دێکانی
دێکۆن
دێگە
دێگەڵە
دێھاتی
دێی
دێیە
دێیەکە
دە
دەبا
دەبات
دەباتە
دەباتەوە
دەبارێت
دەباغ
دەبرا
دەبرد
دەبردرێ
دەبردرێت
دەبرێ
دەبرێت
دەبرێن
دەبلیو
دەبلیوو
دەبم
دەبن
دەبنە
دەبنەوە
دەبوایە
دەبوو
دەبوون
دەبوونە
دەبوونەوە
دەبوویەوە
دەبووە
دەبڕن
دەبڕێت
دەبڵ
دەبڵیو
دەبۆوە
دەبی
دەبیت
دەبیتە
دەبیسترێت
دەبین
دەبیندرێت
دەبینرا
دەبینرێ
دەبینرێت
دەبینرێن
دەبینم
دەبینن
دەبینی
دەبینیت
دەبینین
دەبینێ
دەبینێت
دەبینێتەوە
دەبێ
دەبێت
دەبێتە
دەبێتەوە
دەبێتەھۆی
دەبەخشرێت
دەبەخشن
دەبەخشێ
دەبەخشێت
دەبەزێنێت
دەبەست
دەبەسترێت
دەبەسترێتەوە
دەبەسترێنەوە
دەبەستن
دەبەستنەوە
دەبەستێ
دەبەستێت
دەبەستێتەوە
دەبەن
دەبەنە
دەبەنەوە
دەترسا
دەترسێت
دەتواندرێت
دەتوانرا
دەتوانرێ
دەتوانرێت
دەتوانم
دەتوانن
دەتوانی
دەتوانیت
دەتوانین
دەتوانێ
دەتوانێت
دەتوێتەوە
دەتەقێتەوە
دەتەوێت
دەجوڵێت
دەخات
دەخاتە
دەخاتەوە
دەخایەنێت
دەخرێت
دەخرێتە
دەخرێنە
دەخستە
دەخوات
دەخواتەوە
دەخوارد
دەخوازێت
دەخورێت
دەخولێتەوە
دەخولێنەوە
دەخوێند
دەخوێندرێت
دەخوێندرێتەوە
دەخوێندەوە
دەخوێنرێتەوە
دەخوێنن
دەخوێنێ
دەخوێنێت
دەخوێنێتەوە
دەخۆن
دەخۆنەوە
دەخەملێنرێت
دەخەمڵێنرێت
دەخەن
دەخەنە
دەدا
دەدات
دەداتێ
دەداتە
دەداتەوە
دەدایەوە
دەدرا
دەدران
دەدرێ
دەدرێت
دەدرێتە
دەدرێتەوە
دەدرێن
دەدرەوشێتەوە
دەدوێ
دەدوێت
دەدوێن
دەدۆزرێتەوە
دەدۆزرێنەوە
دەدۆزنەوە
دەدۆزێتەوە
دەدەم
دەدەن
دەدەنەوە
دەدەیت
دەدەین
دەر
دەرباری
دەربارە
دەربارەی
دەرباز
دەربازبوون
دەربازی
دەرببڕێت
دەربخات
دەربچێت
دەربڕی
دەربڕین
دەربڕینی
دەربڕینێکی
دەربڕینە
دەربڕیوە
دەربکات
دەربکەوێت
دەربەدەر
دەربەدەری
دەربەند
دەربەندی
دەربەندیخان
دەربەندیخانە
دەرخست
دەرخستنی
دەرخەری
دەرد
دەردانی
دەردی
دەردەبڕن
دەردەبڕێت
دەردەخات
دەردەخەن
دەردەچن
دەردەچوو
دەردەچێ
دەردەچێت
دەردەکات
دەردەکرێت
دەردەکەن
دەردەکەوت
دەردەکەون
دەردەکەوێ
دەردەکەوێت
دەرزی
دەرس
دەرسی
دەرسیم
دەرفەت
دەرفەتی
دەرفەتێک
دەرفەتێکی
دەرمان
دەرمانانەی
دەرماناوا
دەرمانخانە
دەرمانسازی
دەرمانی
دەرمانێک
دەرمانێکی
دەرمانە
دەرمانەکان
دەرمانەکانی
دەرمانەکە
دەرهێنانی
دەرهێنراوە
دەرهێنەر
دەرهێنەری
دەروات
دەروازە
دەروازەکانی
دەروازەکە
دەروازەی
دەروازەیەک
دەروازەیەکی
دەرونناسی
دەرونی
دەروون
دەروونناس
دەروونناسی
دەروونناسیی
دەروونپزیشکی
دەروونی
دەروونیی
دەروونییە
دەروونییەوە
دەروونییەکان
دەروێش
دەروێشانی
دەروێشی
دەروەی
دەري
دەرپەڕینی
دەرچوانی
دەرچونی
دەرچوو
دەرچووانی
دەرچوون
دەرچوونی
دەرچووی
دەرچووە
دەرچووەکان
دەرچێت
دەرچەی
دەرژێتە
دەرک
دەرکرا
دەرکران
دەرکراوە
دەرکرد
دەرکردبوو
دەرکردن
دەرکردنی
دەرکردووە
دەرکی
دەرکەوت
دەرکەوتن
دەرکەوتنی
دەرکەوتنیان
دەرکەوتنێکی
دەرکەوتوو
دەرکەوتوون
دەرکەوتووە
دەرکەوتوە
دەرکەوتەوە
دەرکەوێت
دەرگا
دەرگاکانی
دەرگاکە
دەرگای
دەرگایەکی
دەرگەزێنی
دەرھێنا
دەرھێنان
دەرھێنانی
دەرھێناوە
دەرھێندراوە
دەرھێنراوە
دەرھێنەر
دەرھێنەرانی
دەرھێنەری
دەرھێنەرێکی
دەرھێنەرە
دەری
دەریا
دەریادا
دەریان
دەریاوان
دەریاوانی
دەریاوە
دەریاچە
دەریاچەکە
دەریاچەی
دەریاچەیە
دەریاکان
دەریاکانی
دەریاکە
دەریای
دەریایی
دەریاییی
دەریایە
دەریخست
دەریدەخات
دەرێ
دەرێی
دەرە
دەرەبەگایەتی
دەرەشیشی
دەرەنجام
دەرەنجامی
دەرەوی
دەرەوە
دەرەوەدا
دەرەوەی
دەرەکی
دەرەکییەکان
دەزانرێت
دەزانم
دەزانن
دەزانی
دەزانیت
دەزانین
دەزانێ
دەزانێت
دەزگا
دەزگاکان
دەزگاکانی
دەزگاکە
دەزگای
دەزگایە
دەزگایەک
دەزگایەکی
دەس
دەست
دەستبەجێ
دەستبەرداری
دەستبەسەر
دەستبەسەرداگرتنی
دەستبەسەرکردنی
دەستبەکار
دەستبەکاربوو
دەستبەکاربوونی
دەستت
دەستخستنی
دەستدا
دەستدانی
دەستدرێژی
دەستدرێژیی
دەستدەکات
دەستلەکارکێشانەوەی
دەستم
دەستمان
دەستن
دەستنووس
دەستنووسی
دەستنووسە
دەستنووسەکانی
دەستنیشان
دەستنیشانکرا
دەستنیشانکردن
دەستنیشانکردنی
دەستنیشانی
دەستور
دەستوری
دەستوور
دەستووری
دەستپێبکات
دەستپێشخەری
دەستپێک
دەستپێکرد
دەستپێکردن
دەستپێکردنی
دەستپێکردنەوەی
دەستپێکردووە
دەستپێکی
دەستڕاگەیشتن
دەستکاری
دەستکاریکردن
دەستکاریکردنی
دەستکرا
دەستکرد
دەستکردی
دەستکردە
دەستکردەکان
دەستکردەکە
دەستکەوت
دەستکەوتنی
دەستکەوتی
دەستکەوتێکی
دەستکەوتە
دەستکەوتەکانی
دەستگای
دەستگرتن
دەستگیر
دەستگیرکرا
دەستگیرکران
دەستگیرکراوە
دەستگیرکرد
دەستگیرکردن
دەستگیرکردنی
دەستگیری
دەستگەیشتن
دەستی
دەستیان
دەستیانکرد
دەستیپێکرد
دەستیپێکردووە
دەستیکرد
دەستێوەردان
دەستێوەردانی
دەستێکی
دەستە
دەستەبەر
دەستەبەرکردنی
دەستەبەری
دەستەواژە
دەستەواژەکانی
دەستەواژەکە
دەستەواژەی
دەستەواژەیە
دەستەواژەیەکی
دەستەواژەیەکە
دەستەوە
دەستەکان
دەستەکانی
دەستەکە
دەستەکەی
دەستەڵات
دەستەڵاتی
دەستەی
دەستەیە
دەستەیەک
دەستەیەکی
دەسنیشان
دەسوتێت
دەسووڕێتەوە
دەسوڕێتەوە
دەسوڕێنەوە
دەسپێردرێت
دەسپێکردنی
دەسپێکی
دەسکاری
دەسکەوتی
دەسکەوتەکانی
دەسی
دەسەلاتی
دەسەلمێنێت
دەسەڵات
دەسەڵاتدا
دەسەڵاتدار
دەسەڵاتداران
دەسەڵاتدارانی
دەسەڵاتداری
دەسەڵاتداریی
دەسەڵاتدارە
دەسەڵاتدارەکانی
دەسەڵاتی
دەسەڵاتیان
دەسەڵاتیدا
دەسەڵاتێکی
دەسەڵاتە
دەسەڵاتەکان
دەسەڵاتەکانی
دەسەڵاتەکەی
دەشارێتەوە
دەشت
دەشتایی
دەشتی
دەشتێوی
دەشتێکی
دەشتە
دەشتەکانی
دەشنێ
دەشکێت
دەشکێنێت
دەشێ
دەشێت
دەف
دەفتەری
دەفرۆشرێت
دەفرۆشێت
دەفری
دەفرێکی
دەفڕن
دەفەر
دەفەرموێ
دەفەرموێت
دەق
دەقی
دەقێک
دەقێکی
دەقە
دەقەکان
دەقەکانی
دەقەکە
دەكات
دەكاتەوە
دەكرێت
دەكەن
دەلهی
دەلھی
دەلۆ
دەلێت
دەلێن
دەم
دەمار
دەمارگیری
دەماری
دەمارە
دەمارەکان
دەمارەکانی
دەمامکی
دەمانەوێت
دەمایەوە
دەمرن
دەمرێ
دەمرێت
دەموچاو
دەموچاوی
دەمی
دەمیرتاش
دەمیرچی
دەمینێتەوە
دەمێننەوە
دەمێنێت
دەمێنێتەوە
دەمێک
دەمە
دەمەدا
دەمەوانە
دەمەوانەکان
دەمەوانەکە
دەمەوانەی
دەمەوێت
دەمەوە
دەمەی
دەن
دەنا
دەنارد
دەناسرا
دەناسرێ
دەناسرێت
دەناسرێتەوە
دەناسرێن
دەناسن
دەناسی
دەناسێت
دەناسێنن
دەناسێنێت
دەناڵێنن
دەناڵێنێت
دەنرێت
دەنوسێت
دەنووسرێت
دەنووسرێن
دەنووسن
دەنووسی
دەنووسێ
دەنووسێت
دەنوێنن
دەنوێنێ
دەنوێنێت
دەنکە
دەنگ
دەنگدان
دەنگدانی
دەنگدانیان
دەنگدانەوە
دەنگدانەوەی
دەنگدانەوەیەکی
دەنگدەر
دەنگدەران
دەنگدەرانی
دەنگناسی
دەنگۆی
دەنگی
دەنگیان
دەنگیی
دەنگییە
دەنگییەکان
دەنگێک
دەنگێکی
دەنگە
دەنگەوە
دەنگەکان
دەنگەکانی
دەنگەکانیان
دەنگەکە
دەنگەکەی
دەنیز
دەنێ
دەنێت
دەنێردرێت
دەنێردرێتە
دەنێرن
دەنێرێت
دەنێن
دەهات
دەهلی
دەهێنا
دەهێنرێت
دەهێنرێن
دەهێنن
دەهێنێت
دەو
دەوا
دەوامی
دەوت
دەوترا
دەوترێ
دەوترێت
دەوتەوە
دەوحە
دەور
دەوران
دەورانی
دەورو
دەوروبەر
دەوروبەری
دەوروبەریان
دەورووبەر
دەورووبەری
دەوروپشتی
دەوری
دەوریان
دەورێکی
دەورە
دەورەدراوە
دەورەی
دەولەت
دەولەتی
دەووترێت
دەوڵەت
دەوڵەتان
دەوڵەتانی
دەوڵەتانەی
دەوڵەتدا
دەوڵەتی
دەوڵەتێک
دەوڵەتێکی
دەوڵەتە
دەوڵەتەوە
دەوڵەتەکان
دەوڵەتەکانی
دەوڵەتەکە
دەوڵەتەکەی
دەوڵەتەکەیان
دەوڵەمەند
دەوڵەمەندترین
دەوڵەمەندن
دەوڵەمەندی
دەوڵەمەندە
دەوڵەمەندەکان
دەوڵەمەندەکانی
دەویست
دەوێ
دەوێت
دەوەستن
دەوەستێت
دەوەستێنێت
دەوەن
دەي
دەپارێزرێت
دەپارێزن
دەپارێزێت
دەپرسێت
دەپێورێت
دەپەرژێتە
دەچن
دەچنە
دەچنەوە
دەچوو
دەچوون
دەچوونە
دەچووە
دەچیتە
دەچێ
دەچێت
دەچێتە
دەچێتەوە
دەچێنرێت
دەڕفێندرێت
دەڕوا
دەڕوات
دەڕواتە
دەڕوانێت
دەڕوانێتە
دەڕوێ
دەڕوێت
دەڕژێت
دەڕژێتە
دەڕژێنە
دەڕۆن
دەڕۆیشت
دەڕۆیشتن
دەڕەشار
دەژمێردرێت
دەژمێردرێن
دەژی
دەژیا
دەژیان
دەژیت
دەژین
دەژیێت
دەژێت
دەژێن
دەژەنرێت
دەژەنی
دەژەنێت
دەڤەری
دەڤەرە
دەڤەرەکە
دەکا
دەکات
دەکاتە
دەکاتەوە
دەکان
دەکرا
دەکران
دەکرایەوە
دەکرد
دەکردن
دەکردە
دەکردەوە
دەکریت
دەکرێ
دەکرێت
دەکرێتە
دەکرێتەوە
دەکرێن
دەکرێنەوە
دەکوژرێت
دەکوژرێن
دەکوژن
دەکوژێت
دەکڕێت
دەکۆڵێتەوە
دەکێشا
دەکێشن
دەکێشێت
دەکەم
دەکەمەوە
دەکەن
دەکەنە
دەکەنەوە
دەکەوت
دەکەوتە
دەکەون
دەکەونە
دەکەویتە
دەکەوێ
دەکەوێت
دەکەوێتە
دەکەوێتەوە
دەکەی
دەکەیت
دەکەین
دەکەینەوە
دەگات
دەگاتە
دەگرت
دەگرتەوە
دەگرن
دەگرنە
دەگرنەوە
دەگریت
دەگرین
دەگرێ
دەگرێت
دەگرێتە
دەگرێتەوە
دەگمەن
دەگمەنی
دەگمەنە
دەگوازرێتەوە
دەگوازرێنەوە
دەگوازنەوە
دەگوازێتەوە
دەگواستەوە
دەگوت
دەگوترا
دەگوترێ
دەگوترێت
دەگوتەوە
دەگونجێت
دەگووت
دەگووترێ
دەگووترێت
دەگوێزرێتەوە
دەگۆرێ
دەگۆرێت
دەگۆڕدرێ
دەگۆڕدرێت
دەگۆڕدرێن
دەگۆڕن
دەگۆڕێ
دەگۆڕێت
دەگۆڕێن
دەگیرێ
دەگیرێت
دەگیرێن
دەگێرێتەوە
دەگێڕا
دەگێڕدرێتەوە
دەگێڕن
دەگێڕنەوە
دەگێڕێ
دەگێڕێت
دەگێڕێتەوە
دەگەرێتەوە
دەگەرێنەوە
دەگەن
دەگەنە
دەگەڕا
دەگەڕان
دەگەڕایەوە
دەگەڕیتەوە
دەگەڕێ
دەگەڕێت
دەگەڕێتەوە
دەگەڕێن
دەگەڕێننەوە
دەگەڕێنێتەوە
دەگەڕێنەوە
دەگەڵ
دەگەیشتنە
دەگەیشتە
دەگەیەنن
دەگەیەنێت
دەڵی
دەڵیت
دەڵین
دەڵێ
دەڵێت
دەڵێتەوە
دەڵێم
دەڵێن
دەڵێی
دەڵێین
دەھات
دەھاتن
دەھاتە
دەھلی
دەھێنا
دەھێندرێت
دەھێنرا
دەھێنرێ
دەھێنرێت
دەھێنرێن
دەھێنن
دەھێنێ
دەھێنێت
دەھێنێتە
دەھێنێتەوە
دەھێڵێت
دەی
دەیان
دەیانتوانی
دەیانزانی
دەیانویست
دەیانگوت
دەیانەوێ
دەیانەوێت
دەیبات
دەیباتە
دەیبینێت
دەیتوانی
دەیخاتە
دەیخوێند
دەیزانی
دەیسەلمێنن
دەیفەرموو
دەیلی
دەیلەم
دەیمن
دەیناڵاند
دەینووسی
دەیوت
دەیویست
دەیڤ
دەیڤد
دەیڤس
دەیڤید
دەیکات
دەیکاتە
دەیکرد
دەیکرێ
دەیکوژێت
دەیکەن
دەیگوت
دەیگووت
دەیڵی
دەیھەوێت
دەیە
دەیەم
دەیەمی
دەیەمین
دەیەوێ
دەیەوێت
دەیەکانی
دەیەی
دەیەیەک
ذ
ذا
ذربایجان
ذكر
ذو
ر
را
رابردوو
رابردوودا
رادیو
رادیۆ
رادیۆی
رادەی
رازی
راست
راستی
راستەوخۆ
راستەوخۆی
رام
رامبه
رامیاری
ران
رانه
رانی
راوێژکاری
راي
راگەیاند
راگەیاندن
راگەیاندنی
رای
رایه
رایگەیاند
ربه
رةالمعارف
رجه
رخە
رد
ردا
ردن
رده
ردوو
ردی
ردە
رز
رزم
رزما
رزه
رزگار
رزگاری
رزی
رسالة
رستی
رسول
رسید
رش
رشيف
رض
رضا
رقم
ركه
رم
رمان
رمانی
رمضان
رمه
رمی
رمە
رنامه
ره
رهه
رو
روانگەی
روحانی
روز
روس
روستاهای
روستای
روسیا
روه
روو
رووباری
رووبەر
رووبەری
رووخانی
روودانی
رووداو
رووداوی
روودەدات
رووسی
رووسیا
روون
رووناکی
روونبرینداری
روونی
رووی
روویدا
روی
روە
رى
ري
رچاوه
رچه
رچی
رژه
رژیمی
رژێمی
رکه
رکە
رگه
رھە
رۆبێر
رۆح
رۆحانی
رۆحی
رۆشنبیری
رۆشنبیریی
رۆكی
رۆلی
رۆماجی
رۆمان
رۆمانی
رۆنی
رۆنێ
رۆژ
رۆژانە
رۆژاوا
رۆژاوای
رۆژنامه
رۆژنامە
رۆژنامەگەری
رۆژنامەی
رۆژهەڵاتی
رۆژي
رۆژگاری
رۆژھەلاتی
رۆژھەڵات
رۆژھەڵاتی
رۆژی
رۆژێ
رۆژێک
رۆک
رۆکی
رۆڵی
رۆڵێکی
ری
ریا
ریال
ریان
رین
ریه
ریچارد
ریۆ
ریی
رێ
رێبازی
رێبەری
رێز
رێزی
رێمی
رێن
رێژیمی
رێژەی
رێژەیەکی
رێک
رێکخراو
رێکخراوی
رێکخراوە
رێکخستن
رێکخستنی
رێکی
رێگا
رێگای
رێگری
رێگە
رێگەی
رێی
رە
رەخنەی
رەخنەیی
رەسمی
رەش
رەشید
رەمەزان
رەنگ
رەنگی
رەنگە
رەوانەی
رەي
رەگەز
رەگەزی
رەی
ز
زا
زابکا
زات
زاتی
زاتە
زاخۆ
زاخۆرانی
زاخۆیی
زاد
زاده
زادی
زادە
زار
زارا
زاراوە
زاراوەکانی
زاراوەکە
زاراوەی
زاراوەیە
زاراوەیەکی
زاراوەیەکە
زاره
زارۆک
زارۆکەکە
زاری
زارێن
زارە
زارەکانی
زارەکی
زارەکیی
زازا
زازاکی
زازاکییە
زازایی
زامبیا
زامدار
زان
زانا
زاناکان
زاناکانی
زانای
زانایان
زانایانی
زانایانە
زانایانەی
زانایە
زانایەک
زانایەکی
زانرا
زانراو
زانراوە
زانست
زانستانە
زانستدا
زانستنامەی
زانسته
زانستپەروەرانی
زانستگای
زانستگەی
زانستی
زانستیانە
زانستیدا
زانستیی
زانستییە
زانستییەوە
زانستییەکان
زانستییەکاندا
زانستییەکانی
زانستییەکەی
زانستیە
زانستیەکان
زانستێکی
زانستێکە
زانستە
زانستەکان
زانستەکانی
زانكۆی
زانکۆ
زانکۆدا
زانکۆکان
زانکۆکانی
زانکۆکە
زانکۆی
زانکۆیی
زانکۆییەکی
زانکۆیە
زانکۆیەکی
زانکۆیەکە
زانی
زانیار
زانیاران
زانیاری
زانیاریانە
زانیاریانەی
زانیارینامەی
زانیاریی
زانیارییانە
زانیارییانەی
زانیارییە
زانیارییەک
زانیارییەکان
زانیارییەکانی
زانیارییەکی
زانیاریە
زانیاریەکان
زانیاریەکانی
زانیان
زانین
زانینی
زانیوە
زاهیر
زاوا
زاوای
زاوزێ
زاوزێی
زاوە
زاک
زاگرۆس
زاگۆرا
زاڵ
زاڵبوو
زاڵبوون
زاڵبوونی
زاڵی
زاڵە
زاھیر
زای
زاید
زاین
زایندا
زاینی
زاینیدا
زایین
زاییندا
زایینی
زایینیدا
زایینەوە
زایەند
زایەندی
زبان
زرا
زراو
زراوه
زریان
زریانی
زرێبار
زرێپۆش
زستان
زستانان
زستاندا
زستانی
زستانێکی
زستانە
زستانەدا
زستانەی
زل
زلھێزەکانی
زمان
زمانانە
زمانانەی
زماندا
زمانناس
زمانناسی
زمانه
زمانى
زمانی
زمانێک
زمانێکی
زمانێکە
زمانە
زمانەوان
زمانەوانی
زمانەکان
زمانەکانی
زمانەکە
زمانەکەی
زمانەی
زن
زنان
زنجیر
زنجیرانە
زنجیره
زنجیرە
زنجیرەچیاکانی
زنجیرەچیای
زنجیرەچیایەکە
زنجیرەکان
زنجیرەکانی
زنجیرەکە
زنجیرەکەدا
زنجیرەکەی
زنجیرەکەیان
زنجیرەکەیە
زنجیرەی
زنجیرەیی
زنجیرەیە
زنجیرەیەک
زنجیرەیەکی
زندگی
زه
زو
زوبێر
زوبەیر
زور
زوربەی
زورووفچی
زورکانی
زوریخ
زوممار
زوو
زووانە
زووتر
زووترین
زوودا
زوولفەقار
زووی
زوویی
زووەوە
زووەکانی
زوکەربێرگ
زوڵم
زياتر
زياد
زڕ
زکماکی
زگ
زگماکی
زۆدیاک
زۆر
زۆراب
زۆران
زۆرانباز
زۆرانبازی
زۆرانبازیی
زۆرانبازێکی
زۆرانەی
زۆربه
زۆربوون
زۆربوونی
زۆربە
زۆربەى
زۆربەی
زۆربەیان
زۆرتر
زۆرتری
زۆرترین
زۆرترە
زۆرجار
زۆرجاران
زۆرجاریش
زۆردا
زۆرداری
زۆرن
زۆرکات
زۆری
زۆریان
زۆریش
زۆریشی
زۆرینە
زۆرینەی
زۆرینەیان
زۆریی
زۆرێ
زۆرێک
زۆرە
زۆرەملی
زۆرەملێ
زۆرەملێی
زۆرەوە
زۆرەکانی
زۆرەکییە
زۆرەی
زۆلا
زۆمبی
زۆمبییەکان
زۆڕ
زۆڕینەی
زۆۆر
زۆیا
زی
زیا
زیاتر
زیاترن
زیاتری
زیاتریان
زیاتریش
زیاترین
زیاترە
زیاد
زیادبونی
زیادبوون
زیادبوونی
زیادبکات
زیادتر
زیاددەکات
زیادکرا
زیادکراو
زیادکراودا
زیادکراوی
زیادکراوە
زیادکرد
زیادکردن
زیادکردنی
زیادی
زیادیان
زیادە
زیادەڕۆیی
زیادەڕەوی
زیادەی
زیارەتی
زیان
زیانبەخش
زیانبەخشەکان
زیانی
زیانیان
زیانێکی
زیانە
زیانەکان
زیانەکانی
زیاي
زیتۆ
زیدان
زیرەک
زیرەکانە
زیرەکی
زیرەکە
زیرەکەکان
زیلان
زیمبابوی
زیمبابۆی
زین
زینانەی
زینتا
زیندان
زینداندا
زیندانی
زیندانیکردن
زیندانیکردنی
زیندانییە
زیندانییەکان
زیندانە
زیندانەوە
زیندانەکانی
زیندوو
زیندووکردنەوەی
زیندووی
زیندوویی
زیندووە
زیندووەکان
زیندە
زیندەزانی
زیندەوەر
زیندەوەران
زیندەوەرزانی
زیندەوەری
زیندەوەرێک
زیندەوەرە
زیندەوەرەکان
زیندەیی
زیندەییەکان
زینچێنکۆ
زینک
زینی
زیو
زیوی
زیپکە
زیکر
زیکری
زێ
زێباری
زێتیان
زێد
زێدان
زێدی
زێدە
زێر
زێری
زێرین
زێویە
زێویەی
زێوە
زێوەدەر
زێوەر
زێڕ
زێڕی
زێڕیان
زێڕین
زێڕینی
زێڕینە
زێی
زە
زەبر
زەبری
زەبیحی
زەبەلاح
زەبەلاحی
زەبەلاحە
زەحمەت
زەحمەتکێشانی
زەحمەتی
زەحمەتە
زەختی
زەرد
زەردی
زەردە
زەردەشت
زەردەشتی
زەردەشتییەکان
زەردەڵان
زەریا
زەریاب
زەریاکان
زەریای
زەریایی
زەعفەر
زەفەر
زەلان
زەلکە
زەلکەی
زەمالیک
زەمان
زەمانی
زەمانە
زەمانەوە
زەماوەند
زەماوەندی
زەمبیلفرۆش
زەمین
زەمینی
زەمینە
زەمینەی
زەمەن
زەمەنی
زەند
زەندییەکان
زەنگ
زەنگان
زەنگاوا
زەنگی
زەنگەبار
زەنگەنە
زەهراوی
زەواجی
زەوت
زەوی
زەویدا
زەویناسی
زەویی
زەوییان
زەوییە
زەوییەوە
زەوییەکانی
زەوییەکی
زەوییەکە
زەویە
زەویەوە
زەویەکانی
زەڕافە
زەڕایەن
زەڕنە
زەڕیناوا
زەڕینە
زەکات
زەکاتی
زەکی
زەکەریا
زەڵم
زەڵمی
زەھا
زەھاو
زەھاوی
زەھرا
زەیتون
زەیتوون
زەیتی
زەید
زەیدی
زەین
زەیندا
زەینی
زەینەب
زەینەڵ
س
سا
سابت
سابق
سابوون
سابڵاغ
سابیر
سات
ساتۆ
ساتی
ساتێلا
ساتێک
ساتە
ساتەدا
ساتەکانی
ساجیدە
ساحێو
ساختاری
ساختمان
ساختە
ساختەکاری
ساد
سادات
ساداتی
سادق
سادقی
سادی
سادە
سادەتر
سادەترین
سادەکراو
سادەی
سادەیی
سادەیە
سار
سارا
ساران
سارای
سارتکە
سارتکەی
سارد
ساردترین
سارددا
ساردکردنەوە
ساردکردنەوەی
ساردکەرەوە
ساردی
ساردە
ساردەکان
سارس
ساروجەی
ساروو
سارۆخ
ساری
ساریبەیلی
سارە
ساز
سازان
سازدانی
سازمان
سازماندا
سازمانگەری
سازمانی
سازکرا
سازکراوە
سازکرد
سازکردنی
سازگار
سازگاری
سازی
سازە
ساسانی
ساسانییەکان
ساسانیەکان
ساسکێ
ساشا
ساغ
ساف
سافی
ساقی
سال
سالار
سالاری
سالانی
سالب
سالح
سالم
سالمۆنێلا
سالڤادۆر
سالی
سالێ
سالە
سالەکانی
سام
سامان
سامانی
سامانێکی
سامانە
سامانەکەی
سامسۆنگ
سامسۆنگە
ساموێل
سامگووک
سامی
سامەڕا
سان
سانا
سانت
سانتا
سانتۆس
سانتیاگۆ
سانتیمەتر
سانتیمەترە
سانجای
ساندرا
ساندی
سانسکریت
سانسۆر
سانسۆرکردن
سانسۆری
سانع
سانفرانسیسکۆ
سانه
سانچێز
سانگ
سانی
سانێ
ساو
ساوا
ساوان
ساواک
ساوایان
ساوت
ساورۆن
ساوند
ساوندتراک
ساوندتراکی
ساوپاولۆ
ساوە
ساي
ساڤانا
ساکار
ساکروێی
ساکسێنا
ساکن
ساکورا
ساگا
ساگی
ساڵ
ساڵان
ساڵاندا
ساڵانی
ساڵانێک
ساڵانێکی
ساڵانە
ساڵانەدا
ساڵانەی
ساڵانەیە
ساڵح
ساڵحی
ساڵدا
ساڵزبۆرگ
ساڵزبێرگ
ساڵنامه
ساڵنامەی
ساڵه
ساڵوەگەڕی
ساڵى
ساڵڕۆژی
ساڵی
ساڵیادی
ساڵیدا
ساڵیش
ساڵیشدا
ساڵیک
ساڵییەوە
ساڵیەوە
ساڵێ
ساڵێک
ساڵێکدا
ساڵێکی
ساڵێکە
ساڵە
ساڵەح
ساڵەدا
ساڵەوە
ساڵەکان
ساڵەکانی
ساڵەکە
ساڵەی
ساڵەیی
ساڵەیە
سای
سایت
سایتۆ
سایتی
سایتەکە
سایمۆن
ساین
ساینت
ساینقەڵا
سایه
سایوێڕڵد
سایکس
سایکۆلۆژیای
سایە
سایەی
سباب
سباستیان
سبتمبر
سبەی
ست
ستار
ستارلینک
ستارک
ستافی
ستالین
ستالینگراد
ستان
ستانتۆن
ستاندارد
ستانداردی
ستانداردە
ستانداردەکانی
ستانفۆرد
ستانلی
ستایش
ستایشی
ستایشێکی
ستایل
ستایلی
ستایلێکی
ستاینبێک
ستراتیجی
ستراتیژی
ستران
سترۆمای
ستریت
سترێس
سترەینج
سته
ستوارت
ستودیۆ
ستودیۆی
ستونی
ستوون
ستوونی
ستۆدیۆ
ستۆدیۆکانی
ستۆدیۆکە
ستۆدیۆی
ستۆدیۆیەکی
ستۆن
ستۆک
ستۆکھۆڵم
ستۆڵمەن
ستی
ستیان
ستیفانی
ستیفن
ستیل
ستیوارت
ستیڤ
ستیڤن
ستیڤنس
ستێرلینگ
ستێره
ستە
ستەم
ستەمی
ستەیت
ستەیج
ستەیسی
ستەیشن
سد
سدقی
سدیق
سر
سرار
سراسری
سراو
سراي
سربی
سربیا
سربیای
سردشت
سردی
سرشماری
سرشیو
سرشیوی
سرودی
سروش
سروشت
سروشتدا
سروشتی
سروشتیدا
سروشتیی
سروشتییە
سروشتییەوە
سروشتییەکان
سروشتییەکانی
سروشتێکی
سروشتە
سروود
سروودی
سروودە
سرووش
سرووشت
سرووشتی
سروە
سرۆچک
سری
سریانی
سریلانکا
سریڤاستاڤا
سزا
سزادان
سزادانی
سزاکەی
سزای
سسة
سستی
سسە
سطور
سعد
سعود
سعودی
سعودیا
سعودییە
سعودیە
سعودیەی
سعوودی
سعوودیە
سعيد
سعید
سفر
سفری
سفرە
سفلی
سقز
سلام
سلامي
سلامية
سلامی
سلامیة
سلاڤی
سلطان
سلم
سلندەر
سلندەری
سلندەرێک
سلندەرەکان
سلندەرەکە
سليمان
سلڤەر
سلۆڤاکی
سلۆڤاکیا
سلۆڤینیا
سلۆڤێنیا
سلیست
سلیلیزی
سلیم
سلیمان
سلیمانی
سلیوانا
سلیکۆن
سلێمان
سلێمانى
سلێمانی
سلێمانیدا
سلێمانیی
سلێمانییە
سلێمانییەوە
سلێمانیە
سم
سماء
سمارت
سماعيل
سماق
سماقان
سماقە
سمایل
سمنان
سمکۆ
سمکۆی
سمیت
سمیس
سمیلان
سمێڵ
سنة
سنت
سنجار
سنجاقی
سنجاوی
سند
سندوقی
سندووقی
سنن
سنندج
سنور
سنوردار
سنوری
سنورێکی
سنورە
سنورەکانی
سنورەکە
سنوور
سنووردار
سنووردارکردن
سنووردارکردنی
سنوورداری
سنووردارە
سنووری
سنووریی
سنوورییەکانی
سنوورێک
سنوورێکی
سنوورە
سنوورەکان
سنوورەکانی
سنوورەکە
سنگ
سنگی
سنە
سنەدا
سنەی
سنەیە
سه
سو
سوات
سوار
سوارچاک
سوارچاکانی
سوارچاکی
سواری
سوارێز
سوارە
سوارەی
سوان
سوبارو
سوتان
سوتاندنی
سوتانی
سوتانەکە
سوتەمەنی
سوتەمەنییەکە
سوجدە
سود
سودان
سودانی
سودی
سودیان
سودێکی
سور
سورة
سورداش
سوره
سوری
سوریا
سوریانی
سوریای
سورە
سورەتی
سورەکان
سورەیا
سوزان
سوزانا
سوزی
سوسور
سوسیال
سوسیالیست
سوسێی
سوقرات
سول
سولتان
سولتانی
سولیڤان
سولەیمان
سولەیمانی
سوم
سون
سوننی
سوننە
سوننەت
سوننەتی
سوننەتە
سوننەن
سوننەکان
سوننەی
سونگ
سونە
سونەنی
سوو
سووتا
سووتان
سووتاند
سووتاندن
سووتاندنی
سووتانی
سووتانە
سووتانەوەی
سووتانەکە
سووتەمەنى
سووتەمەنيى
سووتەمەنی
سووتەمەنیی
سووتەمەنییە
سووتەمەنییەکە
سووتەمەنیە
سوود
سوودان
سوودانی
سوودبەخش
سوودمەند
سوودوەرگرتن
سوودی
سوودیان
سوودێکی
سوودە
سوودەکانی
سوور
سووردا
سووری
سووریا
سووریادا
سووریاوە
سووریای
سووریایە
سوورییە
سوورە
سوورەتی
سوورەتێکی
سوورەکان
سوورەکانی
سوورەکە
سوون
سووپا
سووپای
سووپەر
سووپەرھیرۆی
سووپەری
سووڕ
سووڕانی
سووڕانەوەی
سووڕی
سووڕێکی
سووڕەتی
سووڕەکە
سووک
سووکایەتی
سووکایەتیکردن
سووکی
سووکە
سوي
سوپا
سوپادا
سوپاس
سوپاسگوزاری
سوپاسی
سوپاوە
سوپاکانی
سوپاکە
سوپاکەی
سوپاکەیەوە
سوپای
سوپایە
سوپایەک
سوپایەکی
سوپەر
سوپەرسۆنیک
سوپەرمان
سوپەری
سوڕانەوە
سوڕی
سوک
سوکایەتی
سوڵتان
سوڵتاناوا
سوڵتاناوای
سوڵتانی
سوڵتانییەتی
سوڵتانە
سوڵتانەکانی
سوھرەوەردی
سوی
سوید
سویدی
سویدە
سویس
سویسرا
سویسری
سویسڕا
سویسی
سویفت
سوێد
سوێدی
سوێدیەکان
سوێدە
سوێرە
سوێس
سوێند
سوێندی
سي
سيد
سير
سيرة
سيستەمى
سپا
سپاتیفای
سپارتا
سپارد
سپاردن
سپاردنی
سپارک
سپای
سپایدەرمان
سپرینگ
سپلیت
سپوتنیک
سپورغان
سپڵ
سپۆرت
سپۆرتینگ
سپۆنسەر
سپۆنسەری
سپی
سپیدارە
سپیریت
سپیلبێرگ
سپین
سپینۆزا
سپیکەی
سپییە
سپییەکان
سپییەکە
سپێدە
سپێردرا
سپێردراوە
سپێرم
سپێنسەر
سپەیس
سڕب
سڕبیا
سڕینەوەی
سڤانیدزێ
سڤیدریگالۆڤ
سڤیل
سک
سکاربۆرۆ
سکارسگارد
سکان
سکاندیناڤیا
سکاڵا
سکاڵای
سکای
سکتان
سکرتارییەتی
سکرتێر
سکرتێری
سکرین
سکووڵی
سکپڕی
سکچوون
سکچوونی
سکۆت
سکۆتلاند
سکۆتلەند
سکۆتلەندا
سکۆتلەندی
سکۆڕسێزی
سکی
سکە
سکەی
سڵاو
سڵاوی
سڵێمان
سۆ
سۆتکە
سۆدیۆم
سۆر
سۆران
سۆرانی
سۆز
سۆزداری
سۆزی
سۆزێکی
سۆسیال
سۆسیالیزم
سۆسیالیست
سۆسیالیستی
سۆسەن
سۆشیال
سۆشیالیزم
سۆشیالیستی
سۆفت
سۆفتوێر
سۆفی
سۆفیا
سۆفیان
سۆفیگەری
سۆل
سۆلمۆن
سۆما
سۆمالیا
سۆماڵ
سۆماڵی
سۆماڵیا
سۆمەری
سۆمەرییەکان
سۆن
سۆناتای
سۆنگ
سۆنی
سۆنیا
سۆي
سۆپرانۆ
سۆپرانۆکان
سۆپڕانۆ
سۆپڕانۆکان
سۆڤییەت
سۆڤیەت
سۆڤیەتدا
سۆڤیەتی
سۆڤیەتەوە
سۆڤێت
سۆکرات
سۆڵ
سۆڵەی
سۆیا
سی
سیا
سیاسه
سیاسی
سیاسیدا
سیاسیی
سیاسییە
سیاسییەوە
سیاسییەکان
سیاسییەکانی
سیاسیە
سیاسیەکان
سیاسیەکانی
سیاسەت
سیاسەتدا
سیاسەتمەدار
سیاسەتمەداران
سیاسەتمەدارو
سیاسەتمەداری
سیاسەتمەدارێکی
سیاسەتوان
سیاسەتوانی
سیاسەتوانێکی
سیاسەتی
سیاسەتێکی
سیاسەتە
سیاسەتەوە
سیاسەتەکانی
سیامەند
سیامەنسور
سیان
سیانگ
سیانی
سیانە
سیانەی
سیاوەش
سیبرۆک
سیبریا
سیبیریا
سیتکەمی
سیتی
سیتەک
سیحر
سیحری
سیخوڕ
سیخوڕی
سیخەکان
سید
سیدا
سیدنی
سیدی
سیدەکان
سیر
سیرا
سیرامیک
سیروان
سیری
سیزار
سیستان
سیستانی
سیستم
سیستمی
سیستمێک
سیستمێکی
سیستمە
سیستمەکان
سیستمەکانی
سیستمەکە
سیسته
سیستەم
سیستەمی
سیستەمێک
سیستەمێکی
سیستەمێکە
سیستەمە
سیستەمەکان
سیستەمەکانی
سیستەمەکە
سیستەمەکەی
سیسرۆ
سیسیلی
سیسیلیا
سیشێل
سیف
سیفاتی
سیفر
سیفەت
سیفەتی
سیفەتێکی
سیفەتە
سیفەتەکانی
سیق
سیل
سیلڤیۆ
سیلڤەر
سیلی
سیلیزی
سیم
سیما
سیمای
سیمران
سیمفۆنی
سیمفۆنیای
سیمفۆنیک
سیمکۆی
سیمۆن
سیمین
سیمینار
سین
سینا
سیناتۆر
سیناتۆری
سیناریۆ
سیناریۆنووس
سیناریۆنووسی
سیناریۆکە
سیناریۆکەی
سیناریۆی
سینان
سیندی
سینووسەکان
سینگ
سینگاپور
سینگاپوور
سینگی
سینی
سینیگال
سینە
سینەم
سینەما
سینەماتۆگرافی
سینەمادا
سینەماکار
سینەماکان
سینەماکانی
سینەماکانەوە
سینەمای
سینەمایی
سینەماییی
سیو
سیوان
سیواک
سیوەیل
سیي
سیچوان
سیڤیلیا
سیکس
سیگناڵی
سیۆ
سیۆنگ
سیۆک
سیی
سییە
سییەکان
سییەکانی
سیەرالیۆن
سیەکان
سێ
سێبەر
سێبەری
سێت
سێتی
سێتەلانی
سێجا
سێجار
سێدارە
سێدارەدان
سێدارەدانی
سێدارەی
سێر
سێرجیۆ
سێرڤەر
سێرگی
سێرۆ
سێزار
سێزدە
سێزدەھەم
سێسەد
سێشەممە
سێمێل
سێن
سێنیگال
سێهەم
سێو
سێوسێنان
سێوە
سێي
سێپتێمبەری
سێپتەمبەر
سێپتەمبەری
سێڤیلیا
سێک
سێکانیان
سێکس
سێکسناسی
سێکسی
سێکسیی
سێکی
سێگردکان
سێگۆشە
سێگۆشەزانی
سێگۆشەکە
سێگۆشەی
سێگۆشەیی
سێگۆشەیەک
سێگۆشەیەکی
سێڵاوتان
سێھەم
سێھەمی
سێھەمین
سێی
سێیەم
سێیەمدا
سێیەمی
سێیەمیان
سێیەمیش
سێیەمین
سێیەمە
سێیەمەوە
سێیەکی
سە
سەبا
سەباح
سەبارەت
سەبری
سەبزەوار
سەبیحە
سەبەتە
سەبەتەی
سەتەلایت
سەتەلایتی
سەجادی
سەججادی
سەحنە
سەحیح
سەحیحی
سەحەر
سەحەری
سەخت
سەختی
سەختە
سەد
سەدا
سەدام
سەدان
سەددام
سەددەی
سەدر
سەدری
سەدڕی
سەدی
سەدیق
سەدییە
سەدە
سەدەف
سەدەکان
سەدەکانی
سەدەھا
سەدەی
سەدەیە
سەدەیەک
سەر
سەرا
سەراب
سەرابیانی
سەرالی
سەرانسەر
سەرانسەری
سەرانی
سەرانە
سەراو
سەراوژێر
سەراوی
سەرای
سەرباری
سەرباز
سەربازان
سەربازانی
سەربازگەی
سەربازی
سەربازیان
سەربازیدا
سەربازیی
سەربازییە
سەربازییەوە
سەربازییەکان
سەربازییەکانی
سەربازیەکانی
سەربازێک
سەربازێکی
سەربازە
سەربازەکان
سەربازەکانی
سەربوردێکی
سەربکەون
سەربکەوێت
سەربە
سەربەخۆ
سەربەخۆبوونی
سەربەخۆن
سەربەخۆکان
سەربەخۆی
سەربەخۆیان
سەربەخۆیی
سەربەخۆییان
سەربەخۆییی
سەربەخۆیە
سەربەرزی
سەربەست
سەربەستی
سەربەستیی
سەرتاسەری
سەرتاپای
سەرتیپ
سەرتەنگ
سەرجەم
سەرجەمی
سەرجەمیان
سەرحەد
سەرخستنی
سەردا
سەردار
سەرداری
سەردان
سەردانی
سەردانیان
سەردانیکردنی
سەردانیکەران
سەردانێکی
سەردانەوە
سەردێڕ
سەردێڕی
سەردەشت
سەردەشتی
سەردەم
سەردەمانی
سەردەمانێک
سەردەمدا
سەردەمی
سەردەمێک
سەردەمێکدا
سەردەمێکی
سەردەمە
سەردەمەدا
سەردەمەوە
سەردەمەکانی
سەردەمەکە
سەردەمەکەی
سەردەمەی
سەردەکەون
سەردەکەوێت
سەرزەنشتی
سەرزەوی
سەرسام
سەرسامی
سەرسووڕھێنەر
سەرسوڕھێنەر
سەرسەختی
سەرشاتەی
سەرشەقام
سەرف
سەرقاڵ
سەرقاڵی
سەرقەڵا
سەرلێشێواوی
سەرلەبەری
سەرلەنوێ
سەرم
سەرما
سەرماوەز
سەرماوەزی
سەرمای
سەرمایە
سەرمایەدار
سەرمایەداری
سەرمایەی
سەرمێز
سەرنج
سەرنجدان
سەرنجڕاکێش
سەرنجڕاکێشترین
سەرنجڕاکێشی
سەرنجڕاکێشە
سەرنجی
سەرنجیان
سەرنجێکی
سەرنجە
سەرنشین
سەرنشینانی
سەرنشینی
سەرنشینەکان
سەرنوسەر
سەرنوسەری
سەرنووسەر
سەرنووسەری
سەرنەکەوتنی
سەرهەڵدانی
سەرو
سەروو
سەرووی
سەروچاوە
سەروی
سەروەت
سەروەر
سەروەری
سەروەریی
سەري
سەرپێچی
سەرپێڵ
سەرپێڵی
سەرپەرشت
سەرپەرشتی
سەرپەرشتیار
سەرپەرشتیاری
سەرپەرشتیکردنی
سەرپەرشتیی
سەرچاوانە
سەرچاوە
سەرچاوەدا
سەرچاوەکان
سەرچاوەکانی
سەرچاوەکراوە
سەرچاوەکە
سەرچاوەکەی
سەرچاوەی
سەرچاوەیان
سەرچاوەیە
سەرچاوەیەک
سەرچاوەیەکی
سەرچنار
سەرژماری
سەرژماریی
سەرژمێری
سەرژمێریی
سەرژمێرییەکانی
سەرژمێرییەکی
سەرکار
سەرکردایەتی
سەرکردایەتیی
سەرکردە
سەرکردەکان
سەرکردەکانی
سەرکردەکەیان
سەرکردەی
سەرکردەیەکی
سەرکوت
سەرکوتکردنی
سەرکۆنەی
سەرکێشی
سەرکێشییە
سەرکێشییەکانی
سەرکەلی
سەرکەوت
سەرکەوتن
سەرکەوتنی
سەرکەوتنیان
سەرکەوتنێکی
سەرکەوتنە
سەرکەوتنەکانی
سەرکەوتوو
سەرکەوتووانە
سەرکەوتووبوو
سەرکەوتووترین
سەرکەوتووی
سەرکەوتوویی
سەرکەوتووە
سەرکەوتووەکان
سەرکەوتووەکانی
سەرکەوتە
سەرکەون
سەرکەوێت
سەرکەپکان
سەرگەرمی
سەرگەڵو
سەرھێڵ
سەرھێڵی
سەرھەنگ
سەرھەڵدان
سەرھەڵدانی
سەرھەڵدەدات
سەرۆ
سەرۆك
سەرۆک
سەرۆکایەتی
سەرۆکایەتیی
سەرۆکوەزیران
سەرۆکوەزیرانی
سەرۆککۆماری
سەرۆکی
سەرۆکێکی
سەرۆکە
سەرۆکەکانی
سەری
سەریان
سەریدا
سەریھەڵدا
سەرێ
سەرێکی
سەرە
سەرەتا
سەرەتاترین
سەرەتادا
سەرەتاوە
سەرەتاکانی
سەرەتای
سەرەتایی
سەرەتاییترین
سەرەتاییدا
سەرەتاییی
سەرەتایییە
سەرەتایییەکان
سەرەتایییەکانی
سەرەتاییە
سەرەتاییەکان
سەرەتاییەکانی
سەرەتایەک
سەرەخۆشی
سەرەرای
سەرەكى
سەرەنجام
سەرەنجی
سەرەوە
سەرەوەدا
سەرەوەی
سەرەڕای
سەرەک
سەرەکان
سەرەکانی
سەرەکی
سەرەکیان
سەرەکیترین
سەرەکیدا
سەرەکین
سەرەکیی
سەرەکییان
سەرەکییە
سەرەکییەکان
سەرەکییەکانی
سەرەکییەکە
سەرەکییەکەی
سەرەکیەکان
سەرەکیەکانی
سەرەکیەکەی
سەرەکەی
سەعات
سەعاتی
سەعاتێک
سەعد
سەعداوا
سەعدون
سەعدی
سەعوودی
سەعی
سەعید
سەعیدی
سەفا
سەفاخانە
سەفادین
سەفای
سەفوەت
سەفی
سەفین
سەفەر
سەفەری
سەفەرێکی
سەفەوی
سەفەوییەکان
سەفەوییەکاندا
سەقامگیر
سەقامگیری
سەقز
سەقزی
سەقزە
سەقفی
سەلاح
سەلاحەددین
سەلاحەددینی
سەلاحەدین
سەلاحەدینی
سەلاسی
سەلام
سەلامی
سەلامەت
سەلامەتی
سەلجوقی
سەلجوقییەکان
سەلجوقیەکان
سەلجووقی
سەلجووقییەکان
سەلما
سەلمان
سەلماند
سەلماندن
سەلماندنی
سەلماندی
سەلیم
سەلیمی
سەلەفی
سەما
سەماکردن
سەماکەر
سەمای
سەمیر
سەمیرە
سەمەدی
سەمەر
سەمەرقەند
سەن
سەنت
سەنتوور
سەنتەر
سەنتەری
سەنتەرێکی
سەنتەرە
سەنتەرەکە
سەند
سەندوس
سەندووە
سەندیباد
سەندیکای
سەندەوە
سەندەی
سەنعا
سەنکاریا
سەنگ
سەنگافورە
سەنگاو
سەنگاوی
سەنگاوە
سەنگاپور
سەنگەر
سەنگەری
سەنگەسەر
سەنی
سەنیگال
سەهۆڵی
سەوز
سەوزایی
سەوزی
سەوزە
سەوزەکان
سەوڵاوا
سەپاند
سەپاندنی
سەپێندرا
سەپێنرا
سەڕۆکی
سەڕەرای
سەڕەڕای
سەکاکان
سەکۆی
سەکینە
سەگ
سەگی
سەگێک
سەگێکی
سەگە
سەگەکان
سەگەکانی
سەگەکەی
سەڵاح
سەڵاحەددین
سەڵاحەدین
سەڵاحەدینی
سەڵماس
سەھاک
سەھۆڵ
سەھۆڵی
سەی
سەیاحی
سەیارە
سەید
سەیدا
سەیدان
سەیدخەلیل
سەیدسادق
سەیدسادقە
سەیدی
سەیدە
سەیر
سەیران
سەیرانگای
سەیرکردن
سەیرکردنی
سەیری
سەیریان
سەیرە
سەیف
سەیفەدین
سەینت
سەیوان
سەیید
ش
شا
شابک
شاتری
شاجوانی
شاخ
شاخاوی
شاخاوییە
شاخاوییەکان
شاخوێنبەر
شاخی
شاخێک
شاخە
شاخەوان
شاخەوانان
شاخەوانانی
شاخەوانی
شاخەوانێکی
شاخەوانەکان
شاخەکان
شاخەکانی
شاخەکە
شاد
شادا
شادی
شار
شارام
شارانە
شارانەی
شاراوە
شاراوەی
شارباژێر
شارباژێڕ
شاردا
شاردنەوەی
شارستان
شارستانی
شارستانیی
شارستانییە
شارستانییەتی
شارستانییەکان
شارستانیەت
شارستانیەتی
شارستانیەتە
شارستانیەتەکان
شارستانێتی
شارستانە
شارستانەدا
شارستانەکانی
شارستانەکە
شارستێن
شارل
شارلو
شارلۆت
شارما
شارنشینی
شارنیوز
شاره
شارو
شاروخ
شارومەندێتی
شارى
شارپ
شارپرێس
شارۆن
شارۆچکە
شارۆچکەکانی
شارۆچکەکە
شارۆچکەکەدا
شارۆچکەکەی
شارۆچکەی
شارۆچکەیە
شارۆچکەیەدا
شارۆچکەیەک
شارۆچکەیەکی
شارۆچکەیەکە
شارۆکەی
شاری
شاریان
شارییەکان
شارێک
شارێکی
شارێکە
شارە
شارەبان
شارەدا
شارەداری
شارەدێ
شارەدێی
شارەدێیە
شارەدێیەکانی
شارەدێیەکە
شارەزا
شارەزای
شارەزایان
شارەزایانی
شارەزایی
شارەزایییەکی
شارەزاییەکی
شارەزایە
شارەزایەکی
شارەزوور
شارەزووری
شارەوانی
شارەوانیی
شارەوانییە
شارەوانییەکان
شارەوانییەکانی
شارەوانییەکە
شارەوە
شارەکان
شارەکاندا
شارەکانی
شارەکە
شارەکەدا
شارەکەم
شارەکەوە
شارەکەی
شارەکەیان
شارەکەیە
شارەی
شارەیە
شاز
شازادە
شازادەی
شازادەیەکی
شازدە
شازدەھەم
شازدەیەمی
شازەند
شاسوار
شاشە
شاشەی
شاعر
شاعیر
شاعیران
شاعیرانی
شاعیری
شاعیرێک
شاعیرێکی
شاعیرە
شاعیرەکانی
شاعەباس
شاعەباسی
شافعی
شافیعی
شالیار
شام
شامدا
شامی
شان
شانازی
شانازیی
شانامە
شانامەی
شانبەشانی
شاندۆنگ
شاندی
شانزە
شانسی
شانشین
شانشینی
شانشینێکی
شانشینە
شانشینەکانی
شانشینەکە
شانشینەکەی
شانگ
شانگھای
شانۆ
شانۆدا
شانۆن
شانۆنامە
شانۆنامەی
شانۆنووس
شانۆنووسی
شانۆکاری
شانۆکانی
شانۆکە
شانۆگەری
شانۆگەریی
شانۆگەرییەکانی
شانۆی
شانۆیی
شانۆیە
شانۆیەکی
شانی
شانە
شانەدەر
شانەدەری
شانەکان
شانەکانی
شانەی
شاه
شاهانە
شاهانەی
شاهی
شاوە
شاوەیس
شاي
شاڕی
شاژن
شاژنی
شاژنە
شاکاری
شاکارە
شاکارەکانی
شاکر
شاگردی
شاڵاوی
شاھانە
شاھانەی
شاھانەیی
شاھۆ
شاھی
شاھید
شاھیدی
شاھین
شای
شایان
شایانی
شایستە
شایستەی
شایی
شایەتحاڵی
شایەتمان
شایەتی
شایەنی
شاە
شب
شبکە
شت
شتانێک
شتانە
شتانەی
شتن
شته
شتوتگارت
شتومەک
شتومەکی
شتی
شتێ
شتێک
شتێکی
شتێکیان
شتێکە
شتە
شتەکان
شتەکانی
شتەکە
شتەی
شتەیە
شد
شدا
شداری
شده
شرح
شرنەخ
شرکت
شرکەت
شرۆف
شرۆڤە
شرۆڤەی
شریتی
شعر
شكه
شل
شلگاز
شلگازەکان
شلی
شلیک
شلە
شلەمەنی
شلەکان
شلەکە
شلەی
شلەیەک
شلەیەکی
شمارە
شمس
شمشاڵ
شمشێر
شمشێری
شمشێرەکەی
شمیت
شناپ
شنایدەر
شنایی
شنگال
شنۆ
شنۆیە
شه
شهر
شهرستان
شهروندان
شو
شوارتز
شوان
شوانکارە
شوانی
شوانە
شوبات
شوباتدا
شوباتی
شود
شورای
شوربوڵاغی
شوشە
شوشەی
شوعەیب
شوفێری
شوناس
شوناسی
شوو
شووبات
شووباتی
شووتی
شووشە
شووشەی
شووشەیی
شووناسی
شووی
شوي
شوکری
شوینی
شویچی
شوێشا
شوێن
شوێنانە
شوێنانەی
شوێندا
شوێنه
شوێنکەوتوانی
شوێنکەوتووانی
شوێنکەوتووی
شوێنکەوتووەکانی
شوێنکەوتەی
شوێنی
شوێنیان
شوێنێ
شوێنێک
شوێنێکدا
شوێنێکی
شوێنێکە
شوێنێکەوە
شوێنە
شوێنەدا
شوێنەوار
شوێنەوارناس
شوێنەوارناسان
شوێنەوارناسی
شوێنەواری
شوێنەواریی
شوێنەوارێکی
شوێنەوارە
شوێنەوارەکان
شوێنەوارەکانی
شوێنەوە
شوێنەکان
شوێنەکانی
شوێنەکە
شوێنەکەی
شوێنەی
شوێنەیە
شيخ
شڤان
شک
شکا
شکان
شکاند
شکاندن
شکاندنی
شکاندووە
شکانی
شکانەوەی
شکاو
شکاوی
شکاوە
شکاک
شکست
شکستخواردوو
شکستھێنانی
شکستی
شکستیان
شکستێکی
شکۆ
شکۆمەندی
شکۆنامە
شکۆی
شھر
شھرستان
شۆ
شۆخ
شۆر
شۆراوە
شۆرش
شۆرشی
شۆش
شۆفێر
شۆفێری
شۆن
شۆنن
شۆو
شۆپان
شۆپانی
شۆپنھاوەر
شۆڕ
شۆڕش
شۆڕشدا
شۆڕشگێری
شۆڕشگێڕ
شۆڕشگێڕانی
شۆڕشگێڕانە
شۆڕشگێڕی
شۆڕشگێڕێکی
شۆڕشی
شۆڕشیان
شۆڕشێک
شۆڕشێکی
شۆڕشە
شۆڕشەکانی
شۆڕشەکە
شۆڕشەکەی
شۆک
شۆکی
شۆگاکوکان
شۆگن
شۆگنی
شی
شیان
شیاو
شیاوی
شیاوە
شیبلوی
شیبوونەوەی
شیجی
شیخ
شیر
شیراز
شیرازی
شیردەر
شیردەرەکان
شیروان
شیری
شیرین
شیرینی
شیرینە
شیرە
شیرەمەنی
شیزۆفرینیا
شیعر
شیعردا
شیعری
شیعریی
شیعرێک
شیعرێکی
شیعرە
شیعرەکانی
شیعرەکانیدا
شیعرەی
شیعە
شیعەن
شیعەکان
شیعەکانی
شیعەی
شیفا
شیلا
شیلان
شیللا
شیللابوو
شیللای
شیلی
شیم
شین
شینچی
شینکای
شینی
شینە
شیوعی
شیوی
شیوە
شیوەشان
شیوەی
شیوەیەکی
شیپوودین
شیڤاجی
شیکار
شیکارانە
شیکارکردنی
شیکاری
شیکاریی
شیکاگۆ
شیکردنەوە
شیکردنەوەی
شیکردنەوەیەکی
شیڵد
شێ
شێت
شێتی
شێخ
شێخان
شێخانی
شێخولي
شێخی
شێخە
شێخەکانی
شێخەڵمارێن
شێدار
شێداری
شێر
شێربەگی
شێرزاد
شێرلۆک
شێرلی
شێروان
شێروانە
شێرپا
شێرپەنجە
شێرپەنجەوە
شێرپەنجەی
شێرپەنجەیی
شێرکوژی
شێرکۆ
شێری
شێرە
شێرەکان
شێعر
شێعری
شێعرێکی
شێعرە
شێعرەکانی
شێفیڵد
شێلی
شێن
شێواز
شێوازانە
شێوازی
شێوازێک
شێوازێکی
شێوازێکە
شێوازە
شێوازەکان
شێوازەکانی
شێوازەکەی
شێوازەی
شێواندنی
شێواو
شێواوی
شێوه
شێوی
شێوە
شێوەزاری
شێوەزارێکی
شێوەزارە
شێوەزارەکان
شێوەزارەکانی
شێوەسەر
شێوەش
شێوەو
شێوەيەكى
شێوەکار
شێوەکاری
شێوەکان
شێوەکانی
شێوەکەی
شێوەی
شێوەیان
شێوەیی
شێوەیێکی
شێوەیە
شێوەیەش
شێوەیەک
شێوەیەکی
شێوەیەکە
شێوەیەی
شێوەیەیە
شێک
شێکسپیر
شێکی
شێڵدۆن
شێی
شە
شەبانی
شەبەنگی
شەبەک
شەترەنج
شەتڕەنج
شەتڕەنجی
شەجەریان
شەخسی
شەداد
شەدادی
شەر
شەراب
شەرابی
شەرحی
شەرع
شەرعی
شەرم
شەرمەزار
شەرمەزاری
شەری
شەریعە
شەریعەت
شەریعەتی
شەریف
شەریفاوا
شەریفی
شەرە
شەرەف
شەرەفخانی
شەرەفنامە
شەرەفکەندی
شەرەفی
شەست
شەستەکان
شەستەکاندا
شەستەکانی
شەش
شەشی
شەشە
شەشەم
شەشەمدا
شەشەمی
شەشەمین
شەعب
شەعبان
شەعبی
شەعراوی
شەفت
شەفتی
شەفیق
شەفەق
شەق
شەقاقی
شەقام
شەقامی
شەقامێکی
شەقامە
شەقامەکان
شەقامەکانی
شەقڵاوە
شەل
شەماڵ
شەمزینان
شەمس
شەمسی
شەمسەدین
شەمشەمەکوێرە
شەممە
شەمۆ
شەمێران
شەمە
شەمەندەفەر
شەمەندەفەری
شەمەندەفەرە
شەمەندەفەرەکە
شەنگال
شەهید
شەو
شەوان
شەوانی
شەوانە
شەوت
شەودا
شەوقی
شەونم
شەوکەت
شەوی
شەوێک
شەوێکی
شەوە
شەپۆل
شەپۆلی
شەپۆلێکی
شەپۆلە
شەپۆلەکان
شەپۆلەکانی
شەپۆڵی
شەپۆڵە
شەڕ
شەڕانگێزی
شەڕدا
شەڕکردن
شەڕکەری
شەڕی
شەڕیان
شەڕێک
شەڕێکی
شەڕە
شەڕەدا
شەڕەوە
شەڕەکان
شەڕەکانی
شەڕەکە
شەڕەکەدا
شەڕەکەی
شەکر
شەکراو
شەکری
شەکرە
شەکرەی
شەڵماش
شەھاب
شەھباز
شەھرام
شەھری
شەھریار
شەھید
شەھیدان
شەھیدانی
شەھیدبوونی
شەھیدی
شەیتان
شەیتانی
شەیتانەکان
شەیدا
شەیدای
شەین
ص
صاحب
صالح
صحيح
صحيفة
صدا
صدام
صدای
صدیق
صفحة
صفحه
صفی
صل
صلاة
صلاح
صلى
صلی
صول
صيام
ض
ط
طباء
طبقات
طه
ظ
ع
عابدی
عابدین
عاج
عاد
عادل
عادیلە
عادەتەن
عارف
عارەب
عازەبان
عاس
عاسی
عاشق
عاشقی
عاشورا
عالم
عالی
عالەم
عام
عامر
عاي
عباس
عباسی
عبد
عبدالرحمن
عبدالرزاق
عبدالعزیز
عبدالقادر
عبدالله
عبداللە
عبدالکریم
عبدوڵا
عبدوڵڵا
عثمان
عدام
عدد
عراب
عراق
عربي
عربی
عز
عزیز
عشر
عشق
عصر
علام
علم
علماء
علوم
على
علي
عليه
علی
علیا
علیه
علیە
عمر
عمرو
عمومی
عن
عند
عنوان
عه
عوبێد
عوبەیدوڵڵا
عوبەیدوڵڵای
عوبەیدە
عودەی
عوسمان
عوسمانی
عوسمانیدا
عوسمانییە
عوسمانییەوە
عوسمانییەکان
عوسمانییەکاندا
عوسمانییەکانەوە
عوسمانیەکان
عومان
عومری
عومەر
عومەری
عوود
عکس
عیبری
عیراق
عیرفان
عیرفانی
عیزەت
عیزەدین
عیسا
عیسالی
عیسای
عیسمەت
عیشا
عیشق
عیشقی
عیلم
عیلمی
عیماد
عیمران
عین
عێراق
عێراقدا
عێراقی
عێراقیان
عێراقیش
عێراقییە
عێراقییەکان
عێراقە
عێراقەوە
عێزەدین
عێڕاق
عە
عەبابەیلێ
عەبادی
عەباس
عەباسی
عەباسییەکان
عەباسیەکان
عەبباس
عەبباسی
عەبد
عەبدول
عەبدولبەھا
عەبدولجەبار
عەبدولحەمید
عەبدولحەمیدی
عەبدولخالق
عەبدولرەحمان
عەبدولسەلام
عەبدولعەزیز
عەبدولعەزیزی
عەبدولقادر
عەبدولقادری
عەبدولموتەلیب
عەبدولمەجید
عەبدولمەلیک
عەبدولواحید
عەبدولوەھاب
عەبدولڕەحمان
عەبدولڕەحمانی
عەبدولڕەزاق
عەبدولکەریم
عەبدولکەریمی
عەبدولڵا
عەبدوڕەحمان
عەبدوڵا
عەبدوڵای
عەبدوڵلا
عەبدوڵڵا
عەبدوڵڵای
عەبدی
عەتا
عەجەم
عەجەمی
عەدنان
عەدەن
عەربەت
عەرووزی
عەرەب
عەرەبدا
عەرەبستان
عەرەبستانی
عەرەبشا
عەرەبلویا
عەرەبن
عەرەبی
عەرەبیدا
عەرەبیش
عەرەبیی
عەرەبییە
عەرەبییەوە
عەرەبییەکان
عەرەبییەکانی
عەرەبیە
عەرەبیەوە
عەرەبیەکان
عەرەبە
عەرەبەکان
عەرەبەکانی
عەرەفات
عەرەفە
عەزام
عەزیز
عەزیزی
عەسر
عەسکەر
عەسکەری
عەشق
عەشقی
عەشیرەت
عەشیرەتی
عەشیرەتە
عەشیرەتەکانی
عەفان
عەفرین
عەقڵ
عەقڵی
عەقید
عەقیدە
عەقیدەی
عەقەبە
عەلا
عەلادین
عەلام
عەلامگیری
عەلامی
عەلامە
عەلاوی
عەلاي
عەلمانی
عەلی
عەلیاوا
عەلیاوای
عەلیزادە
عەلییە
عەلیێڤ
عەلەم
عەلەوی
عەمر
عەمری
عەممان
عەنبەر
عەواد
عەواڵان
عەونی
عەوڵا
عەکا
عەین
غ
غا
غار
غاز
غازی
غاندی
غرب
غربی
غه
غولام
غوڵام
غوڵامی
غەرناتە
غەریب
غەریبی
غەزالی
غەزای
غەززە
غەزنەوی
غەزووی
غەزە
غەزەل
غەزەلنووس
غەزەلی
غەفور
غەفوور
غەم
غەنی
غەوس
غەوسی
غەیری
غەیرە
ـ
ـبوو
ـدا
ــ
ــی
ـه
ـی
ـە
ـەم
ـەمین
ـەوە
ف
فا
فابیۆ
فاتح
فاتمە
فاتیح
فاتیما
فاتیمی
فاتیمە
فار
فارابی
فارادەی
فارس
فارسدا
فارسی
فارسیدا
فارسیی
فارسییە
فارسییەوە
فارسە
فارسەکان
فاروق
فارکەھارسن
فازڵ
فاس
فاسۆلیا
فاشیزم
فالاچی
فالح
فالکۆن
فان
فانکشن
فانکشنی
فانکشنێک
فانکشنێکی
فانکشنە
فانکشنەکە
فانی
فاي
فاکتەری
فاکتەرە
فاکەڵتی
فاڵک
فاڵکۆن
فای
فایبرۆمایێلجا
فایل
فایلی
فایلە
فایلەکانی
فاینۆرد
فایەق
فتح
فته
فرات
فرانتس
فرانز
فرانس
فرانسوا
فرانسواز
فرانسۆ
فرانسیس
فرانسیسکۆ
فرانک
فرانکفۆرت
فرانکلین
فرانکۆ
فرانکی
فراوان
فراوانبوون
فراوانبوونی
فراوانتر
فراوانکردنی
فراوانی
فراوانیان
فراوانە
فراژووتنی
فراکسیۆنی
فردا
فرسەت
فرعون
فرمان
فرمانی
فرمێسک
فره
فرهنگ
فرهنگی
فروغ
فرھنگ
فرھنگی
فرۆدۆ
فرۆست
فرۆش
فرۆشت
فرۆشترین
فرۆشتن
فرۆشتنی
فرۆشتووە
فرۆشرا
فرۆشران
فرۆشراوە
فرۆشگا
فرۆشگاکانی
فرۆشگای
فرۆشگایەکی
فرۆشی
فرۆشیار
فرۆشەوە
فرۆکە
فرۆکەخانەی
فرۆکەوانی
فرۆکەکان
فرۆکەکە
فرۆکەی
فرۆید
فری
فریاکەوتن
فریاکەوتنی
فریاگوزاری
فریدا
فریدریش
فریدریک
فریدمان
فریشته
فریشتە
فریشتەکان
فریشتەی
فریمان
فرین
فریو
فرێد
فرێدریش
فرێدریک
فرێدی
فرێدێریک
فرە
فرەگۆشەیەکە
فرەیی
فستیڤاڵی
فشار
فشارى
فشاری
فشارێکی
فصل
فضل
فقال
فقه
فلاش
فلتەری
فلسطين
فلمی
فلمەکە
فلۆبێر
فلۆرانس
فلۆریدا
فلۆرێنس
فلیمی
فلیمە
فلیمەکە
فلیپ
فلیپس
فلیپی
فلیپین
فلیپینی
فلیک
فه
فهرست
فو
فواد
فوجی
فورات
فورمووڵی
فوو
فوي
فوڕات
في
فڕاندنی
فڕانسیس
فڕانک
فڕانکۆ
فڕۆکە
فڕۆکەخانە
فڕۆکەخانەکانی
فڕۆکەخانەکە
فڕۆکەخانەی
فڕۆکەخانەیەکی
فڕۆکەخانەیەکە
فڕۆکەدا
فڕۆکەوان
فڕۆکەوانی
فڕۆکەوانێکی
فڕۆکەکان
فڕۆکەکانی
فڕۆکەکە
فڕۆکەکەی
فڕۆکەی
فڕۆکەیە
فڕۆکەیەک
فڕۆکەیەکی
فڕی
فڕین
فڕینی
فڕێ
فڕێدانی
فڕەنسا
فکری
فڵچەی
فۆبۆس
فۆبیا
فۆتۆشۆپ
فۆتۆن
فۆتۆگرافی
فۆر
فۆربیس
فۆرت
فۆرد
فۆرزا
فۆرم
فۆرماتی
فۆرمی
فۆرمێکی
فۆرێست
فۆستەر
فۆسفۆر
فۆلکسڤاگن
فۆلکلۆر
فۆلکلۆری
فۆن
فۆنت
فۆنتی
فۆڕد
فۆڕمی
فۆکس
فۆکسی
فۆڵێن
فۆی
فی
فیبۆناچی
فیت
فیجی
فیدایی
فیدراسیۆنی
فیدرالی
فیدرالییەکان
فیدراڵ
فیدراڵی
فیدڕاڵی
فیردەوسی
فیرعەون
فیرعەونی
فیرقەی
فیروز
فیزیا
فیزیادا
فیزیای
فیزیایی
فیزیک
فیزیکدا
فیزیکزان
فیزیکزانی
فیزیکزانێکی
فیزیکی
فیزیکییەکان
فیزیۆلۆژی
فیستیڤاڵی
فیستیڤاڵە
فیشباک
فیشەر
فیشەک
فیشەکی
فیفا
فیفاوە
فیفای
فیفایە
فیقهی
فیقھ
فیقھی
فیل
فیلم
فیلمانە
فیلمانەی
فیلمدا
فیلمز
فیلمساز
فیلمسازی
فیلمنامەنووسی
فیلمی
فیلمیدا
فیلمیی
فیلمێک
فیلمێکدا
فیلمێکی
فیلمێکە
فیلمە
فیلمەدا
فیلمەوە
فیلمەکان
فیلمەکاندا
فیلمەکانی
فیلمەکە
فیلمەکەدا
فیلمەکەش
فیلمەکەوە
فیلمەکەی
فیلمەکەیان
فیلمەکەیە
فیلمەی
فیلی
فیلیپ
فیلیپس
فیلیپی
فین
فینلاند
فینلاندی
فینلەندا
فینلەندی
فینچ
فینگەر
فینیکس
فیکری
فیگۆ
فیڵ
فیڵد
فێدورا
فێر
فێربوو
فێربوون
فێربوونی
فێربووە
فێرخواز
فێرخوازان
فێردیناند
فێرما
فێرناندۆ
فێرکاری
فێرکاریی
فێرکارییەکانی
فێرکردن
فێرکردنی
فێرگە
فێرگەی
فێری
فێستیڤاڵی
فێستیڤاڵەکە
فێمینیزم
فێمینیست
فێمێنیستی
فێنک
فێڵ
فێڵی
فە
فەتاح
فەتح
فەتحوڵڵا
فەتحکردنی
فەتحی
فەتحەکانی
فەتوای
فەجر
فەجری
فەخری
فەخرەدین
فەرامۆش
فەراھانی
فەراھەم
فەرحان
فەرز
فەرزاد
فەرش
فەرشی
فەرمان
فەرمانبەر
فەرمانبەران
فەرمانبەرانی
فەرمانبەری
فەرمانبەرێکی
فەرمانداری
فەرمانداریی
فەرماندە
فەرماندەری
فەرماندەکانی
فەرماندەی
فەرماندەیی
فەرماندەیەکی
فەرمانرەوای
فەرمانرەوایی
فەرمانرەوایەتی
فەرمانڕەوا
فەرمانڕەواکانی
فەرمانڕەوای
فەرمانڕەوایی
فەرمانڕەواییان
فەرمانڕەواییەتی
فەرمانڕەواییەتییەکەی
فەرمانڕەوایەتی
فەرمانڕەوایەتییەکەی
فەرمانڕەوایەکی
فەرمانگە
فەرمانگەکان
فەرمانگەکانی
فەرمانگەی
فەرمانی
فەرمانیان
فەرمانێکی
فەرمانە
فەرمانەکانی
فەرموو
فەرموودە
فەرموودەدا
فەرموودەکان
فەرموودەکانی
فەرموودەکە
فەرموودەی
فەرموودەیە
فەرموودەیەک
فەرموودەیەکی
فەرموودەیەی
فەرمووی
فەرموویەتی
فەرمی
فەرمیی
فەرمییە
فەرمییەکان
فەرمییەکانی
فەرهاد
فەرهەنگی
فەرھاد
فەرھادی
فەرھەنگ
فەرھەنگی
فەرھەنگیی
فەرھەنگێکی
فەرھەنگە
فەرھەنگەکانی
فەرھەنگەکە
فەرید
فەریدە
فەریقی
فەرەج
فەرەح
فەرەنسا
فەرەنساوە
فەرەنسای
فەرەنسی
فەرەنسییەوە
فەرەنسییەکان
فەرەنسیەکان
فەرەیدوون
فەزا
فەزای
فەزڵ
فەزڵی
فەقی
فەقێ
فەلاح
فەلسەفی
فەلسەفیی
فەلسەفییە
فەلسەفە
فەلسەفەدا
فەلسەفەی
فەلسەفەیە
فەلەستین
فەلەستینی
فەلەک
فەلەکناسی
فەلەکی
فەنتازیا
فەنتازیای
فەندی
فەنیمەیشن
فەوزی
فەڕانسە
فەڕانسەوی
فەڕانسەیی
فەڕمی
فەڕەنسا
فەڕەنسادا
فەڕەنساوە
فەڕەنسای
فەڕەنسایە
فەڕەنسی
فەڕەنسیی
فەڕەنسییە
فەڕەنسییەوە
فەڕەنسییەکان
فەڕەنسیەکان
فەکووھی
فەڵەستین
فەڵەستینی
فەھد
فەیر
فەیروز
فەیزاوا
فەیزوڵڵابەگی
فەیزی
فەیس
فەیسبووک
فەیسبووکی
فەیسبوک
فەیسەڵ
فەیسەڵی
فەیلی
فەیلییەکان
فەیلەسوف
فەیلەسوفی
فەیلەسوفێکی
فەیلەسوفە
فەیلەسووف
فەیلەسووفانی
فەیلەسووفی
فەیلەسووفێکی
فەیلەسووفە
ق
قابیل
قات
قاتی
قاجار
قاجاڕ
قاجاڕەکان
قاجاڕەکاندا
قادر
قادري
قادرکەرەم
قادری
قادسیە
قارقولوقی
قارچک
قارەمان
قارەمانی
قاز
قازان
قازانج
قازانجی
قازانقایە
قازی
قازیاوا
قاسم
قاسملوو
قاسمی
قاضی
قاعیدە
قال
قامووسی
قامیش
قامیشلۆ
قامیشی
قامیشە
قانع
قانون
قانونی
قانوون
قانوونی
قاهیرە
قاوە
قاوەی
قاوەیی
قاي
قاپی
قاچ
قاچی
قاچەکانی
قاڕەی
قاڵبی
قاھیرە
قاھیرەی
قایل
قایم
قایمقامی
قایمی
قایەی
قبتی
قبل
قبووڵ
قبوڵ
قبوڵکردنی
قتل
قد
قرا
قرغیزستان
قزل
قزڵ
قزڵجی
قزڵجە
قزڵداغی
قزیلباش
قسانە
قسه
قسڵان
قسە
قسەبکات
قسەدەکەن
قسەکانی
قسەکانیدا
قسەکردن
قسەکردنی
قسەکەر
قسەکەرانی
قسەکەری
قسەی
قسەیان
قسەیە
قسەیەکی
قشڵاخ
قشڵاق
قشڵاقا
قشڵاقی
قصة
قصری
قضاء
قلعه
قليم
قناة
قه
قواعد
قوباد
قوبادی
قوبرس
قوبە
قوتابخانه
قوتابخانە
قوتابخانەدا
قوتابخانەکان
قوتابخانەکانی
قوتابخانەکە
قوتابخانەکەی
قوتابخانەی
قوتابخانەیە
قوتابخانەیەک
قوتابخانەیەکی
قوتابی
قوتابیان
قوتابیانی
قوتابیی
قوتابییانی
قوتابییە
قوتابییەکان
قوتابییەکانی
قوتابییەکی
قوتابیەکانی
قوتب
قوتبەدین
قودس
قودسی
قوربان
قوربانی
قوربانیان
قوربانیانی
قوربانیی
قوربانییەکان
قوربانییەکانی
قوربانییەکە
قورتوبە
قورس
قورسایی
قورستر
قورسترین
قورسی
قورسە
قورسەکان
قوروە
قوري
قورگ
قوری
قورەیش
قوزلوی
قوستەنتینییە
قوستەنتینیە
قوستەنتینە
قوسەی
قوشخانەی
قول
قولی
قولیجانی
قولە
قولەی
قوم
قومار
قومارکردنی
قوماش
قوماشی
قووت
قووڵ
قووڵایی
قووڵتر
قووڵترین
قووڵی
قووڵە
قوچ
قوڕ
قوڕس
قوڕقوشم
قوڕگ
قوڕەیش
قوڕەیشی
قوڵ
قوڵایی
قوڵتر
قوڵقوڵە
قوڵی
قوڵە
قژ
قژی
قۆخ
قۆخی
قۆرخکاری
قۆری
قۆرەتوو
قۆستەوە
قۆقز
قۆلۆن
قۆناخی
قۆناغ
قۆناغدا
قۆناغی
قۆناغێک
قۆناغێکی
قۆناغە
قۆناغەدا
قۆناغەکان
قۆناغەکانی
قۆنیە
قۆپی
قۆچان
قۆچی
قۆڵ
قۆڵدەرەی
قۆڵی
قۆڵە
قیاس
قیامەت
قیبلە
قیبلەی
قیددیس
قیر
قیزل
قیزیل
قیشڵاخ
قین
قیڕ
قیڕاي
قە
قەبارە
قەبارەکەی
قەبارەی
قەبارەیان
قەبارەیەکی
قەبانی
قەباچە
قەبری
قەبزی
قەبووڵ
قەت
قەتەر
قەتەری
قەتەڕ
قەد
قەدر
قەدری
قەدی
قەدەر
قەدەغە
قەدەغەکرا
قەدەغەکراو
قەدەغەکراوە
قەدەغەکرد
قەدەغەکردنی
قەدەغەی
قەدەغەیە
قەراخ
قەراخی
قەراغ
قەراغی
قەرز
قەرزی
قەرزەکانی
قەرس
قەرە
قەرەباغ
قەرەبولاخ
قەرەبوو
قەرەبووکردنەوەی
قەرەبووی
قەرەبوڵاغ
قەرەبوڵاغی
قەرەبڵاغی
قەرەتاج
قەرەتەپە
قەرەجالو
قەرەداخی
قەرەداغ
قەرەداغی
قەرەداغە
قەرەسو
قەرەقایە
قەرەقووش
قەرەلەرا
قەرەنی
قەرەي
قەرەپاپاقەکانن
قەرەچێواری
قەرەگوێزا
قەرەی
قەزا
قەزاز
قەزافی
قەزاى
قەزاکانی
قەزاکە
قەزای
قەزایە
قەزایەک
قەزایەکی
قەزوان
قەزوین
قەزوینی
قەزیە
قەساب
قەسرک
قەسرۆک
قەسری
قەسرێ
قەسیدە
قەسیدەی
قەشە
قەشەی
قەشەیەکی
قەفقاز
قەلەندەر
قەمەر
قەناعەت
قەناعەتی
قەنتۆری
قەندیل
قەندەهار
قەندەھار
قەوارە
قەوارەی
قەواڵی
قەوقاز
قەوقازی
قەومی
قەڵا
قەڵات
قەڵاتی
قەڵاتە
قەڵاجوق
قەڵادزێ
قەڵاسی
قەڵاسەیدەی
قەڵاشیو
قەڵاچوالان
قەڵاچوغ
قەڵاکانی
قەڵاکە
قەڵاکەی
قەڵای
قەڵایە
قەڵایەک
قەڵایەکی
قەڵبەزە
قەڵغانی
قەڵەم
قەڵەمڕەوی
قەڵەمی
قەڵەو
قەڵەوی
قەھرەمان
قەھرەمانلی
قەیران
قەیرانی
قەیرانێکی
قەیرانە
قەیس
قەیسی
قەیسەر
قەیسەری
قەیقاباد
قەیوان
قەیوانی
قەیەی
ك
كا
كات
كاته
كاتی
كاتێك
كار
كارده
كاره
كارهێنانی
كاری
كاریگه
كان
كانون
كانى
كانی
كانیان
كبر
كتاب
كتب
كتوبر
كتێبی
كثير
كرا
كراوه
كرد
كردن
كردنى
كردنی
كرده
كردووه
كردووە
كرێت
كل
كم
كه
كو
كورد
كوردستان
كوردستانی
كوردی
كوم
كووورة
كوڕی
كى
كچی
كڵۆی
كۆری
كۆمه
كۆنترۆل
كۆچی
كی
كێك
كە
كەم
ل
لا
لابرا
لابراوە
لابرد
لابردن
لابردنی
لابن
لات
لاتڤیا
لاتین
لاتینی
لاتینیی
لاتینییە
لاتینییەوە
لاجان
لادا
لادان
لادانی
لادرا
لادن
لادێ
لادێیی
لادەبات
لادەبرێت
لادەن
لار
لارا
لارس
لارسن
لاری
لاس
لاسایی
لاساییکردنەوەی
لاستیکی
لاسێل
لاشە
لاشەکەی
لاشەی
لافاو
لافاوی
لاق
لاقی
لاقەکردن
لال
لالش
لالیگا
لالیگای
لام
لاند
لانگ
لانی
لانیکەم
لاو
لاواز
لاوازبوونی
لاوازکردنی
لاوازی
لاوازە
لاوان
لاوانی
لاوترین
لاوتەر
لاورا
لاوس
لاوک
لاوی
لاویدا
لاوێتی
لاوێتیدا
لاوێکی
لاوە
لاوەکانی
لاوەکی
لاوەکییەکان
لاوەکییەکانی
لاي
لاين
لايه
لاپەرە
لاپەرەی
لاپەڕە
لاپەڕەدا
لاپەڕەکانی
لاپەڕەی
لاپەڕەیی
لاپەڕەیە
لاپەڕەیەکی
لاچین
لاڤوازیێ
لاکان
لاکانی
لاکتۆز
لاکشمی
لاکێشەی
لاکێشەیی
لاکەی
لاھور
لای
لایان
لایبریڤۆکس
لایبنیتس
لایت
لایتکۆین
لاین
لایه
لایپزیگ
لایڤ
لایگەر
لایە
لایەن
لایەنگر
لایەنگرانی
لایەنگری
لایەنگریی
لایەنی
لایەنێک
لایەنێکی
لایەنە
لایەنەکان
لایەنەکانی
لایەنەی
لایەک
لایەکان
لایەکانی
لایەکی
لایەکەوە
لایەکەی
لبنان
لة
لسان
لسه
لف
لفين
لق
لقی
لقێک
لقێکی
لقێکە
لقە
لقەکانی
لقەی
لكتروني
للا
للتربية
لم
لمحات
لمی
لمەکان
لن
له
لهذا
لو
لوا
لوبنان
لوبنانی
لوت
لوتفی
لوتکە
لوتکەی
لودڤیگ
لوسی
لوفی
لوقمان
لوقمانی
لولەیی
لوو
لووت
لووتکە
لووتکەکە
لووتکەکەی
لووتکەی
لووتی
لوولپێچی
لوولە
لوولەک
لوولەکی
لوولەی
لووک
لوي
لوڕ
لوڕستان
لوڕی
لوڕیی
لوڕەکان
لوژن
لوک
لوکا
لوکاس
لوکسەمبورگ
لوکەس
لوۆیانگ
لوی
لویز
لویزیانا
لویس
لویسا
لویسی
لویی
لى
لي
لڤین
لکاندنی
لکاوە
لکی
لۆ
لۆبی
لۆدی
لۆرا
لۆران
لۆرانس
لۆرد
لۆردی
لۆری
لۆرێنس
لۆرەنس
لۆزان
لۆس
لۆقا
لۆلا
لۆلان
لۆنگ
لۆپێز
لۆژیک
لۆژیکدا
لۆژیکی
لۆک
لۆکاڵی
لۆکی
لۆکە
لۆگ
لۆگاریتمی
لۆگۆی
لۆید
لی
لیا
لیام
لیان
لیانگ
لیبرال
لیبرالی
لیبرالیزم
لیبرالیزمی
لیبراڵ
لیبراڵی
لیبراڵەکان
لیبڕالیزمی
لیبڕاڵی
لیبیا
لیبێریا
لیبەرتادۆریس
لیبەریا
لیتر
لیتوانی
لیتوانیا
لیخت
لیختنشتاین
لیدز
لیدیا
لیر
لیرەی
لیز
لیزا
لیسا
لیسانسی
لیست
لیستی
لیستێکی
لیستە
لیستەر
لیستەی
لیسۆتۆ
لیف
لیل
لیلا
لیلی
لیما
لیمفە
لیمۆ
لین
لینا
لینجی
لیندا
لینوکس
لینکۆڵن
لینگ
لینین
لینینگراد
لینە
لیو
لیوا
لیوای
لیژنە
لیژنەی
لیژنەیەکی
لیڤ
لیڤەرپوول
لیک
لیگ
لیگا
لیگی
لیۆ
لیۆن
لیۆنارد
لیۆناردۆ
لیۆنێل
لیی
لێ
لێبوردن
لێبوردنی
لێبوردەیی
لێبوو
لێبووردنی
لێبکات
لێبێت
لێجەر
لێخوڕینی
لێخۆشبوون
لێخۆشبوونی
لێدا
لێدان
لێدانی
لێدانێکی
لێدانە
لێدانەکانی
لێداوە
لێدرا
لێدراوە
لێدوان
لێدوانی
لێدوانێکی
لێدوانە
لێدوانەکانی
لێدێت
لێدەدات
لێدەدرێت
لێدەکات
لێدەکرا
لێدەکرد
لێدەکرێت
لێدەکەن
لێدەکەوێتەوە
لێدەگیرێت
لێری
لێرە
لێرەدا
لێرەوە
لێزبیان
لێشاو
لێشاوی
لێشاوە
لێشاوەکە
لێم
لێمان
لێنا
لێنان
لێناوە
لێنرا
لێنراوە
لێنز
لێنزی
لێنین
لێنینیست
لێهاتوو
لێو
لێواری
لێوارەکانی
لێوناردۆ
لێوی
لێوە
لێوەی
لێي
لێپرسراوی
لێپرسینەوە
لێپرسینەوەی
لێپێچینەوە
لێژنەی
لێژی
لێڤی
لێک
لێکخشاندن
لێکدان
لێکدانی
لێکدانەوە
لێکدانەوەی
لێکدراو
لێکرا
لێکراو
لێکراوە
لێکرد
لێکردن
لێکردووە
لێکس
لێکچوونی
لێکۆلینەوە
لێکۆلینەوەی
لێکۆڵینەوە
لێکۆڵینەوەکان
لێکۆڵینەوەکانی
لێکۆڵینەوەکە
لێکۆڵینەوەی
لێکۆڵینەوەیان
لێکۆڵینەوەیە
لێکۆڵینەوەیەک
لێکۆڵینەوەیەکی
لێکۆڵێنەوەی
لێکۆڵەر
لێکۆڵەران
لێکۆڵەرانی
لێکۆڵەری
لێکۆڵەرێکی
لێکۆڵەرە
لێکۆڵەرەوان
لێکی
لێکەوت
لێکەوتەوە
لێگیرا
لێگیراوە
لێڵ
لێڵی
لێھات
لێھاتوو
لێھاتووی
لێھاتوویی
لێھاتووە
لێۆنارد
لێی
لێیان
لێیە
لێیەوە
لە
لەباتی
لەبار
لەباری
لەبارەی
لەبارەیەوە
لەباشترین
لەباشورەوە
لەباشووری
لەباشوورەوە
لەباکوری
لەباکورەوە
لەباکووری
لەباکوورەوە
لەبری
لەبنەڕەتدا
لەبواری
لەبوارەکانی
لەبڕی
لەبۆ
لەبیر
لەبەر
لەبەرامبەر
لەبەرامبەردا
لەبەردەست
لەبەردەستە
لەبەردەم
لەبەري
لەبەرچاو
لەبەرچاوگرتنی
لەبەرژەوەندی
لەبەرکردن
لەبەرکردنی
لەبەرکردووە
لەبەرگرتنەوە
لەبەرگرتنەوەی
لەبەری
لەبەرەی
لەبەشی
لەبەشەکانی
لەت
لەتبوونی
لەترسی
لەتکەری
لەتیف
لەتیفە
لەتەمەنی
لەتەنیشت
لەتەواوی
لەتەک
لەجامی
لەجۆری
لەجیاتی
لەجیھان
لەجیھاندا
لەجێگای
لەجێی
لەجەنگی
لەحێم
لەخوارەوە
لەخولی
لەخۆ
لەخۆبگرێت
لەخۆدەگرت
لەخۆدەگرن
لەخۆدەگرێت
لەخۆگرتبوو
لەخۆگرتنی
لەخۆگرتووە
لەخۆگری
لەخۆی
لەخۆیان
لەخۆیدا
لەخێرایی
لەخێزانێکی
لەداھاتوودا
لەدایک
لەدایکبونی
لەدایکبوو
لەدایکبوون
لەدایکبوونی
لەدایکبوونیدا
لەدایکبووی
لەدایکبووە
لەدوا
لەدوای
لەدواییدا
لەدوو
لەدژی
لەدەرھێنانی
لەدەرەوە
لەدەرەوەی
لەدەست
لەدەستدا
لەدەستدانی
لەدەستداوە
لەدەستی
لەدەوروبەری
لەدەوری
لەرزین
لەرووی
لەرێگای
لەرێگەی
لەرێی
لەرەلەر
لەرەلەری
لەزانکۆی
لەزمانی
لەزنجیرەی
لەزۆر
لەزۆربەی
لەسالی
لەساڵانی
لەساڵی
لەساڵەکانی
لەسێ
لەسێدارە
لەسێدارەدان
لەسێدارەدانی
لەسە
لەسەدا
لەسەدی
لەسەدەکانی
لەسەدەی
لەسەر
لەسەرانسەری
لەسەربوو
لەسەرتاسەری
لەسەرجەم
لەسەرخۆ
لەسەردەستی
لەسەردەمی
لەسەروو
لەسەرووی
لەسەري
لەسەرژمێری
لەسەری
لەسەریان
لەسەریەک
لەسەرە
لەسەرەتادا
لەسەرەتاوە
لەسەرەتاکانی
لەسەرەتای
لەسەرەوە
لەش
لەشاری
لەشارەکانی
لەشارەکە
لەشجوانی
لەشدا
لەشفرۆش
لەشفرۆشی
لەشفرۆشەکان
لەشوێنی
لەشوێنێکی
لەشکر
لەشکرکێشی
لەشکری
لەشکرێکی
لەشی
لەشیان
لەشێوەی
لەشە
لەشەڕی
لەفیلمی
لەفیلمێکی
لەفیلمەکە
لەقوري
لەقۆناغی
لەقەڵەم
لەلا
لەلايەن
لەلای
لەلایان
لەلاین
لەلایەن
لەلایەنی
لەلایەک
لەلایەکی
لەلیستی
لەم
لەمانگی
لەمانە
لەمانەش
لەمانەی
لەماوەی
لەماڵپەڕی
لەماڵی
لەماڵەوە
لەماڵەکەی
لەمبارەیەوە
لەمڕۆدا
لەمیانی
لەمیانەی
لەمیسر
لەمێژوودا
لەمێژووی
لەمە
لەمەش
لەمەو
لەمەوبەر
لەمەوپێش
لەمەوە
لەمەڕ
لەناو
لەناوبرد
لەناوبردن
لەناوبردنی
لەناوخۆی
لەناوچوو
لەناوچوون
لەناوچوونی
لەناوچە
لەناوچەکانی
لەناوچەکە
لەناوچەکەدا
لەناوچەی
لەناوی
لەناویان
لەناویاندا
لەناویدا
لەناوەندی
لەناوەڕاستی
لەناکاو
لەناکاوی
لەندەن
لەندەنی
لەندەنە
لەنزیک
لەنواندنی
لەنووسینی
لەنوێ
لەنگ
لەنگەری
لەنیوەی
لەنێو
لەنێوان
لەنێوانیان
لەنێوانیاندا
لەنێویاندا
لەنێویشیاندا
لەهەر
لەهەمان
لەهەموو
لەو
لەوان
لەوانی
لەوانیش
لەوانە
لەوانەش
لەوانەشە
لەوانەيە
لەوانەی
لەوانەیە
لەوپەڕی
لەوکاتە
لەوکاتەدا
لەوکاتەوە
لەوکاتەوەی
لەوکاتەی
لەوڵاتانی
لەوڵاتی
لەوڵاتەکەی
لەوی
لەوێ
لەوێدا
لەوێش
لەوێشدا
لەوێشەوە
لەوێنەی
لەوێوە
لەوێیە
لەوە
لەوەتەی
لەوەدا
لەوەدایە
لەوەرزی
لەوەش
لەوەوە
لەوەی
لەوەیە
لەي
لەپاریس
لەپارێزگای
لەپاش
لەپاشان
لەپاڵ
لەپای
لەپشت
لەپلەی
لەپێش
لەپێشدا
لەپێشوودا
لەپێناو
لەپێناوی
لەچاو
لەچوارچێوەی
لەچەند
لەچەندین
لەڕادەبەدەر
لەڕاستیدا
لەڕووی
لەڕوی
لەڕۆلی
لەڕۆژانی
لەڕۆژاواوە
لەڕۆژهەڵاتەوە
لەڕۆژھەڵاتەوە
لەڕۆژی
لەڕۆڵی
لەڕیزی
لەڕێکەوتی
لەڕێگای
لەڕێگەی
لەڕێی
لەژیان
لەژیاندا
لەژیانی
لەژیانیدا
لەژێر
لەژێردەستی
لەژێرناوی
لەژێڕ
لەک
لەکاتی
لەکاتێک
لەکاتێکدا
لەکار
لەکارکێشایەوە
لەکارکەوتنی
لەکاری
لەکارەکانی
لەکریمۆسا
لەکۆتا
لەکۆتایدا
لەکۆتایی
لەکۆتاییدا
لەکۆتاییەکانی
لەکۆندا
لەکۆی
لەکی
لەکە
لەکەناڵی
لەکەنەدا
لەگرنگترین
لەگوندی
لەگەل
لەگەنە
لەگەڵ
لەگەڵدا
لەگەڵدایە
لەگەڵم
لەگەڵی
لەگەڵیان
لەگەڵیاندا
لەگەڵیدا
لەھێڵی
لەھەر
لەھەردوو
لەھەرێمی
لەھەمان
لەھەمانکاتدا
لەھەموو
لەھەندێ
لەھەندێک
لەی
لەیاری
لەیاریکردن
لەیاریگای
لەیانەی
لەیزەر
لەیلا
لەین
لەیک
لەیەک
لەیەکتر
لەیەکتری
لەیەکێک
لەیەکەم
م
ما
مابوو
مابوونەوە
مابوویەوە
مابووەوە
مابێتەوە
مات
ماتریکس
ماتریکسی
ماتماتیک
ماتماتیکدا
ماتماتیکزان
ماتماتیکزانی
ماتماتیکی
ماتیاس
ماتیو
ماتیۆ
ماتەرازۆ
ماتەمینی
ماجد
ماجید
ماجە
ماخ
ماخی
ماد
مادام
ماداگاسکار
ماددانە
ماددانەی
ماددی
ماددە
ماددەکان
ماددەکانی
ماددەکە
ماددەی
ماددەیە
ماددەیەک
ماددەیەکی
ماددەیەکە
مادی
مادیسۆن
مادە
مادەکان
مادەکانی
مادەی
مادەیە
مادەیەکی
مار
ماراتا
ماراتاکان
مارادۆنا
ماران
مارت
مارتا
مارتن
مارتی
مارتین
مارتینێز
مارتینێلی
ماردین
مارس
مارسی
مارسیلیا
مارسێل
مارسێڵەس
مارشال
مارشاڵ
مارشاڵی
مارف
مارفان
مارفی
مارلۆ
مارلی
مارلین
مارچی
مارڤل
مارڤڵ
مارڤێڵ
مارک
مارکس
مارکسی
مارکسیزم
مارکسیست
مارکوس
مارکۆ
مارکۆس
مارکی
مارکێتینگ
مارکێتینگی
مارگریت
مارگرێت
مارگۆت
ماری
ماریا
ماریان
مارین
مارینۆ
ماریوانا
ماریۆ
ماریۆن
مارە
مارەکان
مازین
مازەندەران
مازەندەرانی
ماس
ماساچووسیتس
ماست
ماستەر
ماستەری
ماسولکە
ماسولکەکان
ماسولکەکانی
ماسوولکە
ماسوولکەکان
ماسوولکەکانی
ماسوولکەی
ماسک
ماسکی
ماسۆنی
ماسی
ماسییە
ماشاو
ماف
مافانە
مافنامەی
مافنامەیە
مافی
مافیا
مافیان
مافیای
مافێکی
مافە
مافەکان
مافەکانی
مافەکانیان
مال
مالاریا
مالاوی
مالدیڤ
مالك
مالوانی
مالوجە
مالپەری
مالک
مالی
مالیزیا
مالین
مالینا
مالیک
مالیکی
مام
ماملێ
مامناوەند
مامناوەندی
ماموستا
مامۆستا
مامۆستاکانی
مامۆستاکە
مامۆستاکەی
مامۆستای
مامۆستایان
مامۆستایانی
مامۆستایی
مامۆستایە
مامۆستایەتی
مامۆستایەک
مامۆستایەکی
مامی
مامە
مامەساڵە
مامەش
مامەند
مامەڵە
مامەڵەکردن
مامەڵەکردنی
مامەڵەی
مامەڵەیان
مامەڵەیەکی
مان
مانا
ماناکەی
مانای
مانایە
مانایەکی
مانایەی
ماندوو
ماندووبوون
ماندوویی
ماندێلا
مانناکان
مانه
مانوێل
مانچستە
مانچستەر
مانچێستەر
مانگ
مانگا
مانگانە
مانگانەی
مانگاکا
مانگاکە
مانگاکەی
مانگای
مانگایە
مانگایەکی
مانگدا
مانگرتن
مانگرتنی
مانگه
مانگی
مانگیدا
مانگیش
مانگێک
مانگێکدا
مانگێکی
مانگە
مانگەدا
مانگەکان
مانگەکانی
مانگەکە
مانگەی
مانھاتن
مانی
مانیفێستی
مانە
مانەوە
مانەوەی
مانەوەیان
ماو
ماوس
ماون
ماونا
ماونت
ماونەتەوە
ماوه
ماوە
ماوەت
ماوەتە
ماوەتەوە
ماوەدا
ماوەکانی
ماوەکەی
ماوەی
ماوەیی
ماوەیێک
ماوەیە
ماوەیەدا
ماوەیەک
ماوەیەکی
ماوەیەکیش
ماوەیەی
ماي
ماچ
ماچی
ماچیۆ
ماڕتن
ماڕڤڵ
ماڕک
ماک
ماکس
ماکسیم
ماکسیمۆف
ماکمان
ماکوان
ماکوین
ماکۆ
ماکۆتۆ
ماکی
ماکیاڤێلی
ماکە
ماگی
ماڵ
ماڵان
ماڵاوایی
ماڵتا
ماڵتایە
ماڵتی
ماڵدیڤ
ماڵه
ماڵي
ماڵپه
ماڵپەری
ماڵپەڕ
ماڵپەڕی
ماڵپەڕێ
ماڵپەڕێکی
ماڵپەڕە
ماڵپەڕەکانی
ماڵپەڕەکە
ماڵی
ماڵیان
ماڵێک
ماڵێکی
ماڵە
ماڵەوە
ماڵەوەی
ماڵەکان
ماڵەکانی
ماڵەکانیان
ماڵەکە
ماڵەکەی
ماڵەکەیان
ماڵەکەیدا
ماھیر
مای
مایا
مایر
مایس
مایسی
مایل
ماین
ماینکرافت
مایه
مایک
مایکرۆ
مایکرۆسۆفت
مایکل
مایکڵ
مایۆ
مایۆرکا
مایۆی
مایی
مایەسیری
مایەوە
مایەی
مبه
مبە
مة
متر
مترجم
متمانە
متمانەی
مجاور
مجلة
مجلس
مجێور
محافظة
محسن
محمد
محمدی
محمود
محه
محکمة
محێدین
محەممەد
محەممەدزادە
محەممەدڕەزا
محەممەدی
محەممەدە
محەمەد
محەمەدکەندی
محەمەدی
مختصر
مدينة
مر
مراد
مرادی
مرجع
مرد
مرداد
مردم
مردن
مردنی
مردنیان
مردنیدا
مردنیشی
مردنە
مردنەکەی
مردوخ
مردوو
مردوون
مردووی
مردووە
مردووەکان
مردووەکە
مركز
مرواری
مرکز
مرکزی
مرگ
مرۆ
مرۆڤ
مرۆڤایەتی
مرۆڤایەتیدا
مرۆڤایەتییەکان
مرۆڤدا
مرۆڤن
مرۆڤناسی
مرۆڤی
مرۆڤیان
مرۆڤیش
مرۆڤێک
مرۆڤێکی
مرۆڤە
مرۆڤەوە
مرۆڤەکان
مرۆڤەکاندا
مرۆڤەکانی
مرۆیی
مرۆیییەکان
مرۆییەکان
مریشک
مریکا
مریەم
مریەمی
مزووری
مزگه
مزگێنی
مزگەوت
مزگەوتی
مزگەوتێک
مزگەوتێکی
مزگەوتە
مزگەوتەکان
مزگەوتەکانی
مزگەوتەکە
مزگەوتەکەی
مس
مساعدة
مستەر
مستەفا
مستەفای
مسجد
مسعود
مسلم
مسوڵمانان
مسي
مسکن
مسۆگەر
مسۆگەرکردنی
مسۆگەڕ
مسی
مشاهیر
مشاھیر
مشت
مشتومڕ
مشتومڕی
مشتومڕێکی
مشتومڕە
مشک
مشکی
مشەخۆر
مصر
مصطفى
مصطفی
مصطلح
مطبعة
مع
معاویە
معاویەی
معجم
معدن
معرفة
معرفی
معلومات
معنى
مقالات
مقالة
مكة
مكتبة
مل
ملا
ملازم
ملم
ململانێ
ململانێکانی
ململانێی
ململانێیە
ململانێیەکی
ملوێن
ملکەچ
ملکەچی
ملی
ملیار
ملیارد
ملیمەتر
ملیون
ملیۆن
ملیۆنان
ملیۆنی
ملیۆنێک
ملیۆنەھا
ملە
مم
ممه
من
منارە
منارەی
مناقب
مناڵ
مناڵان
مناڵانی
مناڵانە
مناڵدان
مناڵی
مناڵیان
مناڵیدا
مناڵییەوە
مناڵێکی
مناڵە
مناڵەکان
مناڵەکانی
مناڵەکە
منت
مندا
منداڵ
منداڵان
منداڵاندا
منداڵانی
منداڵانە
منداڵانەی
منداڵبوون
منداڵدان
منداڵن
منداڵی
منداڵیان
منداڵیدا
منداڵیی
منداڵییەوە
منداڵیەوە
منداڵێک
منداڵێکی
منداڵێکیان
منداڵە
منداڵەکان
منداڵەکانی
منداڵەکانیان
منداڵەکە
منداڵەکەی
منداڵەکەیان
منصور
منطق
منم
منی
منیش
منە
مه
مهاباد
مهر
مهسا
مو
موانی
موبارەک
موبارەکاوا
موبایەعە
موبایەعەی
موبایەعەیان
موجتەبا
موجەب
موحسین
موحەممەد
موحەممەدی
موحەمەد
موحەمەدی
موختار
موختاری
مودەریس
مودەڕڕیس
مودەڕیس
مودەڕیسی
موراد
مورادلوی
مورادی
مورادەلیا
مورای
مورتەزا
مورسی
مورید
موریدی
موزیک
موزیکاڵی
موزیکژەن
موزیکی
موزەفەر
موسا
موسای
موستەفا
موستەفای
موسلیانلیەکانن
موسلیم
موسوعة
موسوڵمان
موسوڵمانان
موسوڵمانانی
موسوڵمانن
موسوڵمانی
موسوڵمانە
موسوڵمانەکان
موسى
موسڵ
موسڵمان
موسڵمانان
موسڵماناندا
موسڵمانانی
موسڵمانانە
موسڵمانانەوە
موسڵمانن
موسڵمانی
موسڵمانێکی
موسڵمانە
موسڵمانەکان
موسڵمانەکانی
موسڵی
موسۆلینی
موسی
موسیقای
موسیقی
موسێلا
موشەک
موشەکی
موشەکەکە
موضوع
موعاز
موعاوییە
موعاویە
موعتەزیلە
موعجیزە
موعین
موعینی
موعەمەر
موغەکان
موغەکانی
موفتی
موفتیزادە
موقبیل
موقتەدا
موقع
مولک
مومبای
مون
مونديال
موو
موودی
موور
مووسا
مووسای
مووسسەی
مووسڵ
مووسڵەوە
مووشتەری
مووشەک
مووشەکی
مووشەکێکی
مووشەکە
مووشەکەکان
مووشەکەکانی
مووشەکەکە
موون
موونی
مووچە
مووچەی
مووگابی
مووی
موي
موچەی
موڕاد
موڕادی
موژگان
موکرجی
موکری
موکریان
موکریانی
موکرین
موکریەکانن
موگناتیس
موگناتیسی
موڵتانی
موڵک
موڵکی
موڵکەکانی
موھتەدی
مي
مير
مين
مڕۆ
مژدەی
مژینی
مڵکاری
مھاباد
مھر
مۆ
مۆبایل
مۆبایلی
مۆبایلێکی
مۆبایلە
مۆبیل
مۆتسارت
مۆتۆر
مۆتۆری
مۆجۆ
مۆخی
مۆدی
مۆدیوول
مۆدێرن
مۆدێرندا
مۆدێرنی
مۆدێرنە
مۆدێرنەکان
مۆدێل
مۆدێلی
مۆدێلێکی
مۆدێلە
مۆدێلەکانی
مۆدێڕن
مۆدە
مۆر
مۆرای
مۆرتکە
مۆرفۆلۆجی
مۆرفی
مۆرکرد
مۆرکی
مۆرگان
مۆری
مۆریاتی
مۆریتانیا
مۆریس
مۆرینیۆ
مۆرە
مۆز
مۆزامبیک
مۆزیک
مۆزیکی
مۆزەخانە
مۆزەخانەکانی
مۆزەخانەکە
مۆزەخانەی
مۆزەخانەیە
مۆزەخانەیەکی
مۆزەخانەیەکە
مۆسکۆ
مۆسیقا
مۆسیقادا
مۆسیقار
مۆسیقاژەن
مۆسیقاژەنی
مۆسیقاژەنێکی
مۆسیقاکانی
مۆسیقاکە
مۆسیقاکەی
مۆسیقای
مۆسیقایی
مۆسیقایە
مۆسیقایەکی
مۆسیقی
مۆسیقیی
مۆسیقییە
مۆسیقییەکان
مۆسیقییەکانی
مۆفات
مۆلدۆڤا
مۆلەر
مۆم
مۆمبای
مۆمی
مۆن
مۆناکۆ
مۆنتانا
مۆنتاژ
مۆنتریال
مۆنتگۆمەری
مۆنتی
مۆنتینیگرۆ
مۆندیال
مۆندیالی
مۆنرۆی
مۆنۆمێنتی
مۆنیکا
مۆڕتاڵ
مۆکەبە
مۆڵ
مۆڵدۆڤا
مۆڵی
مۆڵەت
مۆڵەتی
می
میا
میازاکی
میان
میاندواو
میانمار
میانی
میانەی
میاگی
میت
میتر
میترۆ
میترۆی
میتۆدی
میتۆلۆژیای
میتۆکۆندێریایی
میحوەری
میخاي
میخایل
میدالیای
میدس
میدیا
میدیادا
میدیاکان
میدیاکانی
میدیای
میدیایی
میدیاییی
میر
میرا
میرات
میراتگری
میراتی
میران
میرانی
میراوا
میراودەلی
میراولی
میراوە
میرزا
میرزادە
میرزای
میرمام
میرنشین
میرنشینی
میرنشینیی
میرنشینێکی
میرنشینە
میرنشینەکانی
میرنشینەکە
میرنشینەکەی
میري
میری
میریی
میرە
میرەدێ
میرەکانی
میز
میزکردن
میزۆپۆتامیا
میزی
میزەڵدان
میسان
میستەر
میسر
میسردا
میسری
میسرییە
میسرییەکان
میسرە
میسرەوە
میسڕ
میسڕی
میسی
میش
میشه
میشیاو
میشیل
میشیگان
میشێل
میقداد
میل
میلاد
میلادی
میلان
میلانی
میلتۆن
میللی
میللیی
میللەت
میللەتی
میلۆدی
میلی
میلیارد
میلیشیا
میلیمەتر
میلیۆن
میلەر
میم
مین
مینا
میناوای
مینت
مینگ
مینھاج
مینۆرسکی
مینی
مینە
میوان
میوانخانەی
میواندار
میوانداری
میوانداریکردنی
میوانداریی
میوانی
میوانەکان
میوانەکانی
میوزیک
میوزیکی
میونخ
میونشن
میوە
میوەی
میچی
میژووی
میکانیزمی
میکانیک
میکانیکی
میکاوا
میکاي
میکرۆب
میکی
میڵ
میڵی
میڵەر
میھرەبان
میھرەبانی
مییەخاس
میێ
مێ
مێتا
مێتافیزیک
مێتاکریتیک
مێتاڵ
مێتاڵی
مێتاڵە
مێدالیای
مێدیا
مێرد
مێردی
مێردین
مێردەکەی
مێرسێدس
مێرنێر
مێروو
مێروولە
مێرووە
مێرووەکان
مێرکۆری
مێرگ
مێرگی
مێرگەسۆر
مێری
مێز
مێزۆپۆتامیا
مێزی
مێزەکە
مێسی
مێش
مێشک
مێشکدا
مێشکی
مێشکیان
مێشکە
مێشکەوە
مێلبۆرن
مێلیسا
مێوژ
مێژوو
مێژوودا
مێژووناس
مێژووناسان
مێژووناسی
مێژوونوسان
مێژوونوسی
مێژوونووس
مێژوونووسان
مێژوونووسانی
مێژوونووسی
مێژوونووسێکی
مێژوونووسە
مێژووى
مێژووی
مێژوویان
مێژوویدا
مێژوویی
مێژووییشی
مێژووییی
مێژوویییە
مێژوویییەوە
مێژوویییەکان
مێژوویییەکانی
مێژووییە
مێژووییەوە
مێژووییەکان
مێژووییەکانی
مێژوویە
مێژوویەکانی
مێژوویەکی
مێژووە
مێژووەوە
مێژووەکەی
مێژووەکەیان
مێژوی
مێژویی
مێژە
مێکوتە
مێگ
مێگا
مێگابایت
مێگان
مێگاپیکسلی
مێھر
مێھران
مێھرداد
مێھەمی
مێی
مێیتێتسو
مێیجی
مێینە
مێینەکان
مێینەی
مێیە
مە
مەبە
مەبەست
مەبەستی
مەبەستیان
مەبەستێک
مەبەستێکی
مەبەستە
مەبەستەش
مەبەستەکانی
مەتتا
مەتر
مەترسی
مەترسیدار
مەترسیداری
مەترسیدارە
مەترسیی
مەترسییە
مەترسییەوە
مەترسییەکانی
مەترسییەکی
مەتری
مەترێک
مەترە
مەتەڵ
مەتەڵی
مەجارستان
مەجدی
مەجلیسی
مەجلیسەکانی
مەجید
مەجیدی
مەجەر
مەجەرستان
مەجەڕ
مەحاڵ
مەحاڵی
مەحاڵە
مەحمود
مەحمودچغ
مەحمودی
مەحموود
مەحموودی
مەحمەشەی
مەحوی
مەحکووم
مەحەل
مەحەلات
مەخموور
مەدالیا
مەدالیاکان
مەدالیاکانی
مەدالیای
مەدالیایان
مەدالیایەک
مەدالیایەکی
مەدرید
مەدریدی
مەدرەسە
مەدرەسەی
مەدھۆش
مەدیتەرانە
مەدینە
مەدینەییە
مەدیەن
مەدە
مەدەد
مەدەنی
مەدەنیی
مەدەنییەکان
مەراسیمی
مەراسیمێکی
مەراغە
مەرامی
مەرج
مەرجان
مەرجانە
مەرجانەی
مەرجی
مەرجێک
مەرجێکی
مەرجە
مەرجەکانی
مەرجەی
مەردان
مەردۆخ
مەردۆخی
مەرزیە
مەرعەش
مەرقۆس
مەرقەدی
مەرمەرە
مەروان
مەروانی
مەرکەزی
مەرگ
مەرگی
مەرگە
مەرگەوەڕ
مەریخ
مەریوان
مەریوانی
مەریوانە
مەرەنەگلی
مەزارگەی
مەزاری
مەزرا
مەزرای
مەزن
مەزنترین
مەزندە
مەزندەی
مەزنی
مەزنێ
مەزنە
مەزنەکان
مەزنەکانی
مەزنەکە
مەزنەکەی
مەزهەبی
مەزھەب
مەزھەبی
مەزھەر
مەزەندە
مەزەندەی
مەست
مەستوورە
مەستی
مەسروور
مەسعود
مەسعوود
مەسنەوی
مەسک
مەسۆیی
مەسیح
مەسیحی
مەسیحین
مەسیحییە
مەسیحییەت
مەسیحییەتدا
مەسیحییەتی
مەسیحییەکان
مەسیحییەکانی
مەسیحیەت
مەسیحیەکان
مەسیحەوە
مەسەلە
مەسەلەی
مەشق
مەشقکردن
مەشقی
مەشکاوا
مەشھەد
مەشین
مەعادی
مەعروف
مەعروفی
مەعرووف
مەعرووفی
مەعریفە
مەعسووم
مەعنەوی
مەغریب
مەغریبی
مەغۆل
مەغۆلی
مەغۆلەکان
مەقام
مەقامی
مەقامەکانی
مەقدوونیا
مەقدوونیای
مەقەست
مەكينە
مەكينەى
مەل
مەلا
مەلاحەسەن
مەلاریا
مەلالە
مەلاي
مەلای
مەلایەتی
مەلیک
مەلیکی
مەلە
مەلەوانی
مەلەک
مەلەکردن
مەلەکشا
مەلەکەپە
مەلەگا
مەم
مەمالیکی
مەمالیکەکان
مەملوکەکان
مەملەکەتی
مەمک
مەمکان
مەمکی
مەمەسنی
مەنتیق
مەند
مەندل
مەندی
مەندەلی
مەنسور
مەنسوور
مەنسووری
مەنسوڕ
مەنچستەر
مەنگوڕ
مەنگوڕی
مەنگۆلی
مەنگۆلیا
مەنگەنیز
مەهاباد
مەهدی
مەودا
مەوداکەی
مەودای
مەودایەکی
مەولانا
مەولانای
مەولوود
مەولەوی
مەي
مەچەک
مەڕ
مەڕاسیمی
مەڕمەڕ
مەڕمەڕە
مەڕوان
مەک
مەکتەب
مەکتەبی
مەکسیک
مەکسیکۆ
مەکسیکی
مەککە
مەککەوە
مەککەی
مەککەییە
مەکۆکانی
مەکۆی
مەکی
مەکینە
مەکینەکە
مەکینەی
مەکە
مەکەن
مەگەر
مەگەزین
مەڵبەند
مەڵبەندی
مەڵبەندێکی
مەڵبەندە
مەھاباد
مەھابادی
مەھابادە
مەھاراشترا
مەھدی
مەھەستی
مەی
مەیدان
مەیدانی
مەیدانە
مەیل
مەیلی
مەیلیان
مەیلەو
مەیموون
مەین
مەیی
ن
نا
نابن
نابوو
نابی
نابینرێت
نابێ
نابێت
نابێتە
نابێتەوە
نابەجێ
ناتاشا
ناتالی
ناتالیا
ناتان
ناتواندرێت
ناتوانرێ
ناتوانرێت
ناتوانم
ناتوانن
ناتوانی
ناتوانیت
ناتوانین
ناتوانێ
ناتوانێت
ناتۆ
ناتەبایی
ناتەواو
ناتەواوی
ناتەواوە
ناجی
ناجێگیر
ناجێگیری
ناحکومی
ناحیة
ناحییەی
ناحیە
ناحیەکانی
ناحیەکە
ناحیەی
ناحیەیە
ناحیەیەکی
ناحیەیەکە
ناخچیڤانسکی
ناخچەوان
ناخۆش
ناخۆشی
ناخۆشە
ناخۆن
ناخی
ناخیچێڤان
نادا
نادات
نادر
نادروست
نادری
نادرێت
نادیار
نادیاری
نادیارە
نادیە
نادەن
نارا
نارد
ناردن
ناردنی
ناردنە
ناردووە
ناردی
ناردە
ناروتۆ
ناری
نارین
نازانرێت
نازانم
نازانن
نازانێت
نازری
نازم
نازناو
نازناوی
نازناوێکی
نازناوە
نازناوەکانی
نازناوەکە
نازناوەکەی
نازناوەکەیان
نازناوەی
نازکی
نازی
نازیا
نازییەکان
نازیەکان
نازەنین
ناس
ناسا
ناسان
ناساند
ناساندن
ناساندنی
ناساندووە
ناسایە
ناسر
ناسرا
ناسرابوو
ناسرابوون
ناسران
ناسراو
ناسراوبوو
ناسراوترین
ناسراون
ناسراوه
ناسراوی
ناسراویشە
ناسراوە
ناسراوەکان
ناسراوەکانی
ناسروشتی
ناسری
ناسریە
ناسرەدین
ناسنامە
ناسنامەی
ناسناوی
ناسڕ
ناسک
ناسکی
ناسی
ناسین
ناسینی
ناسینەوە
ناسینەوەی
ناسیوە
ناسیۆنالیزم
ناسیۆنالیزمی
ناسیۆنالیستی
ناسێندرا
ناسێنرا
ناسێنراوە
ناسەرەکی
ناشتن
ناشتنی
ناشر
ناشرین
ناشناڵ
ناشیرین
ناصر
نافورە
نافیع
نافەرمی
نالی
نالیا
نالەبار
نالەباری
نام
نامدار
نامه
نامور
نامۆ
نامۆکان
نامۆکانی
نامی
نامیبیا
نامیق
نامیلکە
نامیلکەی
نامیلکەیەکی
نامێنێ
نامێنێت
نامە
نامەکان
نامەکانی
نامەکە
نامەکەی
نامەی
نامەیەک
نامەیەکدا
نامەیەکی
نان
نانا
نانخواردن
نانسی
نانه
نانۆ
نانۆمەتر
نانی
نانەوازادە
ناو
ناوازە
ناوازەی
ناوانە
ناوانەش
ناوبانگ
ناوبانگترین
ناوبانگی
ناوبانگیان
ناوبانگێکی
ناوبانگە
ناوبانگەکەی
ناوبراو
ناوبراوە
ناوبرد
ناوبردنی
ناوبژیوان
ناوبژیوانی
ناوبەناو
ناوت
ناوجەرگەی
ناوخۆ
ناوخۆدا
ناوخۆی
ناوخۆیی
ناوخۆییی
ناوخۆیییەکان
ناوخۆیییەکانی
ناوخۆییە
ناوخۆییەکان
ناوخۆییەکانی
ناودا
ناودار
ناودارانی
ناودارترین
ناوداری
ناودارە
ناودارەکان
ناودارەکانی
ناودێر
ناودەبرا
ناودەبرێ
ناودەبرێت
ناودەبرێن
ناودەشت
ناوزەد
ناوزەند
ناوم
ناوماڵ
ناونا
ناونانی
ناونرا
ناونراون
ناونراوە
ناونووس
ناونیشان
ناونیشانی
ناونیشانێکی
ناونیشانە
ناونیشانەکانی
ناونیشانەکە
ناونەتەوەیی
ناوه
ناووکی
ناوى
ناوپۆشی
ناوچانە
ناوچانەدا
ناوچانەی
ناوچه
ناوچە
ناوچەدا
ناوچەکان
ناوچەکانی
ناوچەکە
ناوچەکەدا
ناوچەکەوە
ناوچەکەی
ناوچەکەیان
ناوچەکەیە
ناوچەی
ناوچەیی
ناوچەیە
ناوچەیەدا
ناوچەیەک
ناوچەیەکی
ناوچەیەکە
ناوچەیەی
ناوک
ناوکی
ناوکە
ناوگردان
ناوی
ناویان
ناویاندا
ناویدا
ناوین
ناویندا
ناوینە
ناویەوە
ناوێ
ناوێت
ناوێک
ناوێکی
ناوێکە
ناوە
ناوەخۆ
ناوەخۆی
ناوەخۆیی
ناوەراست
ناوەراستی
ناوەرۆکی
ناوەش
ناوەند
ناوەندی
ناوەندیدا
ناوەندیی
ناوەندییە
ناوەندییەکان
ناوەندێک
ناوەندێکی
ناوەندە
ناوەندەکانی
ناوەندەکەی
ناوەندەکەیەوە
ناوەوە
ناوەوەی
ناوەڕاست
ناوەڕاستدا
ناوەڕاستی
ناوەڕاستە
ناوەڕاستەوە
ناوەڕۆک
ناوەڕۆکدا
ناوەڕۆکی
ناوەڕۆکەکەی
ناوەکان
ناوەکانی
ناوەکانیان
ناوەکی
ناوەکیی
ناوەکییەکان
ناوەکە
ناوەکەی
ناوەکەیان
ناوەگۆشەکانی
ناوەی
ناوەیان
ناي
ناپاکی
ناپلیۆن
ناپۆلی
ناپۆلیۆن
ناچار
ناچاربوو
ناچاربوون
ناچارکرا
ناچارکرد
ناچاری
ناچاریان
ناچارە
ناچێت
ناچێتە
ناڕازی
ناڕاست
ناڕاستەوخۆ
ناڕوونە
ناڕێک
ناڕێکی
ناڕەحەت
ناڕەحەتی
ناڕەزایی
ناڕەزایییەکانی
ناڕەزایەتی
ناڕەزایەتییەک
ناڕەزایەتییەکان
ناڕەزایەتییەکانی
ناڤ
ناکا
ناکات
ناکاتەوە
ناکام
ناکاو
ناکرێ
ناکرێت
ناکرێتەوە
ناکرێن
ناکۆتا
ناکۆک
ناکۆکی
ناکۆکیان
ناکۆکیی
ناکۆکییە
ناکۆکییەکان
ناکۆکییەکانی
ناکۆکییەکی
ناکەم
ناکەن
ناکەوێت
ناکەین
ناگانۆ
ناگرێت
ناگرێتەوە
ناگونجێت
ناگڵیسمان
ناگۆرنۆ
ناگۆڕێت
ناگۆیا
ناگەڕێتەوە
ناگەیەنێت
ناڵپارێز
ناڵی
ناڵەی
ناھێڵێت
نای
نایاب
نایابی
نایابە
نایابەکانی
نایاسایی
نایاسایییە
نایب
نایت
نایترۆجین
نایترۆجینی
نایجیریا
ناین
نایە
نایەت
نایەوێت
نایەوە
نایەکسانی
نایەکسانیی
نباء
نبذة
نبياء
نت
نتایج
نجا
نجام
نجامی
ند
نداء
ندامی
نده
ندی
ندین
ندیه
ندێ
ندێک
ندە
نرا
نراوە
نرخ
نرخاندنی
نرخی
نرخێکی
نرخە
نرخەکان
نرخەکانی
نرخەکەی
نزا
نزار
نزاری
نزامی
نزاکردن
نزای
نزل
نزم
نزمبوونەوەی
نزمتر
نزمترین
نزمترە
نزمی
نزمە
نزمەکان
نزمەکانی
نزهة
نزیک
نزیکبوونەوە
نزیکبوونەوەی
نزیکتر
نزیکترین
نزیکن
نزیکی
نزیکیان
نزیکە
نزیکەوە
نزیکەکان
نزیکەکانی
نزیکەی
نزیکەیی
نسا
نساب
نسان
نشر
نشین
نشینی
نشیو
نظم
نفر
نفوس
نقد
نقوم
نلاین
نما
نمایش
نمایشکاری
نمایشکارێکی
نمایشکرا
نمایشکراوە
نمایشکردن
نمایشکردنی
نمایشی
نمایشیان
نمایشێکی
نمایشە
نمایشەکانی
نمایشەکە
نمایشەکەی
نمرە
نمرەی
نمونه
نمونە
نمونەی
نمونەیی
نمونەیەک
نمونەیەکی
نموونە
نموونەش
نموونەکان
نموونەکانی
نموونەی
نموونەیی
نموونەیە
نموونەیەک
نموونەیەکی
نموونەیەکە
نه
نها
نهۆمی
نهێنی
نو
نوار
نواند
نواندن
نواندنی
نواندنەکەی
نوح
نور
نورسی
نوری
نورەددین
نورەدین
نوسخەی
نوسرابوو
نوسراو
نوسراون
نوسراوی
نوسراوە
نوسراوەتەوە
نوسراوەکانی
نوسرەت
نوسی
نوسین
نوسینگەی
نوسینی
نوسینەوەی
نوسینەکانی
نوسیووە
نوسیویەتی
نوسیوە
نوسەر
نوسەرانی
نوسەری
نوشانا
نوشته
نوعمان
نوفمبر
نوقم
نونێز
نونێس
نوو
نووح
نوور
نوورسی
نووری
نووس
نووستن
نووسرا
نووسرابوو
نووسراو
نووسراون
نووسراوی
نووسراوێکی
نووسراوە
نووسراوەتەوە
نووسراوەکان
نووسراوەکانی
نووسراوەی
نووسه
نووسی
نووسیبوو
نووسیبووی
نووسین
نووسیندا
نووسینگە
نووسینگەی
نووسینی
نووسینێکی
نووسینە
نووسینەوە
نووسینەوەی
نووسینەکانی
نووسینەکەی
نووسیووە
نووسیویانە
نووسیویەتی
نووسیوە
نووسیوەتەوە
نووسییەوە
نووسێکی
نووسە
نووسەر
نووسەران
نووسەرانی
نووسەری
نووسەرێک
نووسەرێکی
نووسەرە
نووسەرەکان
نووسەرەکانی
نوی
نوێ
نوێتر
نوێترین
نوێخوازی
نوێدا
نوێنه
نوێنەر
نوێنەران
نوێنەرانی
نوێنەرایەتی
نوێنەرایەتیی
نوێنەری
نوێنەرێکی
نوێوە
نوێژ
نوێژکردن
نوێژی
نوێژە
نوێکاری
نوێکان
نوێکانی
نوێکراوەتەوە
نوێکرایەوە
نوێکردنەوە
نوێکردنەوەی
نوێکردەوە
نوێکە
نوێکەی
نوێی
نوێیان
نوێیە
نوێیەکان
نوێیەکانی
نوێیەکە
نوێیەکەی
ني
نژیاروانی
نژیاروانیی
نکۆڵی
نگ
نگلیزی
نگه
نگی
نھۆم
نھۆمی
نھێنی
نھێنیی
نھێنییە
نھێنییەکانی
نۆ
نۆبڵ
نۆبڵی
نۆبێل
نۆبێلی
نۆت
نۆتی
نۆتەی
نۆد
نۆدێ
نۆر
نۆرس
نۆرفۆلک
نۆرمان
نۆرویچ
نۆرویژ
نۆروێژی
نۆرەی
نۆزدە
نۆزدەدا
نۆزدەھەم
نۆزدەھەمدا
نۆزدەیەم
نۆزدەیەمدا
نۆزدەیەمی
نۆزل
نۆزڵ
نۆزڵی
نۆزڵەکە
نۆسەد
نۆشینشار
نۆلان
نۆوا
نۆڕک
نۆژەن
نۆژەنکرایەوە
نۆژەنکردنەوە
نۆژەنکردنەوەی
نۆڤا
نۆڤەمبەری
نۆک
نۆکیا
نۆکەندی
نۆکەندەکە
نۆھەمین
نۆی
نۆیەم
نۆیەمی
نۆیەمین
نۆێڵ
نی
نیا
نیاز
نیازی
نیان
نیاوەن
نیجەر
نیروهای
نیرۆ
نیزام
نیزامی
نیزامیی
نیزامەدین
نیزیک
نیس
نیسا
نیسان
نیساندا
نیسانی
نیسک
نیشان
نیشانانە
نیشانانەی
نیشاندا
نیشاندان
نیشاندانی
نیشاندرا
نیشاندراوە
نیشاندەدات
نیشاندەری
نیشانه
نیشانی
نیشانە
نیشانەکان
نیشانەکانی
نیشانەی
نیشانەیە
نیشانەیەک
نیشانەیەکی
نیشتمان
نیشتمانپەروەر
نیشتمانپەروەری
نیشتمانی
نیشتمانیی
نیشتمانییە
نیشتمانییەکانی
نیشتنی
نیشتنەوە
نیشتنەوەی
نیشتیمان
نیشتیمانی
نیشتیمانیی
نیشتە
نیشتەجێ
نیشتەجێبوون
نیشتەجێبوونی
نیشتەجێن
نیشتەجێی
نیشتەجێیە
نیشتەنی
نیشتەوە
نیعمەتاوای
نیل
نیلس
نیلی
نیم
نیما
نیمچە
نیمچەدوورگەی
نین
نینا
نینتێندۆ
نینجا
نینجایەکی
نینۆک
نیه
نیو
نیوان
نیوترۆن
نیوتن
نیوتنی
نیوتۆن
نیوجێرزی
نیوجێرسی
نیوز
نیوزلاند
نیوزلەندا
نیوزیلاند
نیووز
نیووزلەندا
نیوکاسڵ
نیوی
نیویۆرک
نیویۆرکی
نیویۆرکە
نیویۆڕک
نیوێک
نیوە
نیوەتیرەی
نیوەشەو
نیوەڕۆ
نیوەڕۆی
نیوەکەی
نیوەگۆی
نیوەی
نیپال
نیپالی
نیپاڵ
نیپۆن
نیچە
نیژادی
نیڤادا
نیک
نیکاراگوا
نیکس
نیکسۆن
نیکڵسۆن
نیکۆتین
نیکۆل
نیکۆلا
نیکۆلاس
نیکۆلای
نیکۆڵ
نیکۆڵاس
نیکی
نیکیتا
نیگا
نیگار
نیگارکێش
نیگارکێشانی
نیگارکێشی
نیگاری
نیگای
نیگەران
نیگەرانی
نیڵ
نیۆ
نیۆرک
نیۆیۆرک
نیین
نییه
نییە
نیە
نێت
نێتفلیکس
نێتفلیکسی
نێتفلیکسەوە
نێتفلێکس
نێتۆرک
نێجیریا
نێر
نێردرا
نێردراو
نێردراوی
نێردراوە
نێردراوەکان
نێردراوەکانی
نێردرایە
نێردەی
نێرگز
نێری
نێرینە
نێرینەی
نێرە
نێرەکان
نێزیک
نێزیکەی
نێو
نێوان
نێوانی
نێوانیان
نێوانیاندا
نێوخۆی
نێوخۆیی
نێوده
نێودەولەتی
نێودەوڵەتی
نێودەوڵەتیدا
نێودەوڵەتیی
نێودەوڵەتییە
نێودەوڵەتییەوە
نێودەوڵەتییەکان
نێودەوڵەتییەکانی
نێودەوڵەتیەکان
نێونەتەوەیی
نێونەتەوەییدا
نێونەتەوەییی
نێونەتەوەیییە
نێونەتەوەیییەکان
نێوی
نێویاندا
نێوەندی
نێوەندەدا
نێي
نێپتۆن
نێچیرڤان
نێژرا
نێژراوە
نێکسس
نێگەتیڤ
نە
نەبتییەکان
نەبرد
نەبن
نەبوایە
نەبونی
نەبوو
نەبوون
نەبوونی
نەبوونە
نەبووە
نەبووەت
نەبی
نەبینیوە
نەبێ
نەبێت
نەبێتەوە
نەبەز
نەتوانرا
نەتوانراوە
نەتوانن
نەتوانێ
نەتوانێت
نەتەوانە
نەتەوایەتی
نەتەوە
نەتەوەکان
نەتەوەکانی
نەتەوەکەی
نەتەوەی
نەتەوەیی
نەتەوەییی
نەتەوەیییە
نەتەوەییە
نەتەوەییەکان
نەتەوەییەکانی
نەتەوەیەک
نەتەوەیەکگرتووەکان
نەتەوەیەکی
نەجات
نەجاتی
نەجار
نەجاشی
نەجم
نەجمەددین
نەجمەدین
نەجیب
نەجەف
نەجەفاوا
نەجەفی
نەحو
نەخایاند
نەخش
نەخشاندنی
نەخشی
نەخشێنراوە
نەخشە
نەخشەسازی
نەخشەکانی
نەخشەکە
نەخشەی
نەخشەیە
نەخشەیەک
نەخشەیەکی
نەخوازراو
نەخوێندەوار
نەخوێندەواری
نەخچیڤان
نەخچیڤانی
نەخۆش
نەخۆشانی
نەخۆشانەی
نەخۆشخانە
نەخۆشخانەکان
نەخۆشخانەکانی
نەخۆشخانەکە
نەخۆشخانەی
نەخۆشخانەیە
نەخۆشخانەیەکی
نەخۆشی
نەخۆشیی
نەخۆشییە
نەخۆشییەوە
نەخۆشییەک
نەخۆشییەکان
نەخۆشییەکانی
نەخۆشییەکی
نەخۆشییەکە
نەخۆشییەکەی
نەخۆشیە
نەخۆشیەکانی
نەخۆشیەکی
نەخۆشیەکە
نەخۆشیەکەی
نەخۆشێک
نەخۆشێکی
نەخۆشە
نەخۆشەکان
نەخۆشەکانی
نەخۆشەکە
نەخێر
نەدا
نەدات
نەدانی
نەداوە
نەدرا
نەدراوە
نەدۆزراوەتەوە
نەدەبوو
نەدەدا
نەدەزانی
نەدەن
نەدەکرا
نەدەکرد
نەرم
نەرمامێر
نەرمامێری
نەرمی
نەرمە
نەرمەواڵە
نەرمەکالا
نەرمەکالای
نەرمەکاڵا
نەرمەکاڵای
نەرویج
نەرویجی
نەرویژ
نەرویژی
نەریت
نەریتی
نەریتێکی
نەریتە
نەریمان
نەرێنی
نەزان
نەزانراو
نەزانراوە
نەزانی
نەزمی
نەزیر
نەزەر
نەزەراوا
نەساي
نەسر
نەسروڵڵا
نەسرین
نەسیری
نەشتەرگەری
نەشتەرگەریی
نەشتەرگەرییە
نەشتەرگەرییەکی
نەشتەرگەرییەکە
نەشری
نەشیاو
نەغەدە
نەغەدەوە
نەفرەت
نەفرەتی
نەفس
نەفەر
نەقشبەندی
نەقیب
نەما
نەمابوو
نەمان
نەمانی
نەماون
نەماوە
نەمایەوە
نەمر
نەمرود
نەمروود
نەمری
نەمسا
نەمساوی
نەمسایی
نەمل
نەمەشیر
نەناسراو
نەناسراوی
نەناسراوە
نەناسراوەوە
نەنۆر
نەهرۆ
نەهێشتنی
نەوا
نەواب
نەوابی
نەواز
نەوبەھار
نەوت
نەوتی
نەوتییەکانی
نەوتە
نەوجول
نەورۆز
نەورۆزی
نەوزاد
نەوشیروان
نەوید
نەویستە
نەوە
نەوەد
نەوەدەکان
نەوەدەکاندا
نەوەدەکانی
نەوەوی
نەوەک
نەوەکان
نەوەکانی
نەوەکەی
نەوەی
نەوەیەکی
نەي
نەپەستێوراو
نەچوو
نەچووە
نەچێت
نەژاد
نەژادی
نەک
نەکا
نەکات
نەکرا
نەکرابوو
نەکراو
نەکراون
نەکراونەتەوە
نەکراوە
نەکراوەتەوە
نەکرد
نەکردبوو
نەکردن
نەکردنی
نەکردووە
نەکردوە
نەکردەوە
نەکرێت
نەکەن
نەکەوت
نەکەوتووە
نەکەی
نەگرت
نەگرتووە
نەگۆر
نەگۆری
نەگۆڕ
نەگۆڕی
نەگۆڕە
نەڵێن
نەھات
نەھاتووە
نەھامەتی
نەھاوەند
نەھری
نەھێشتنی
نەھێنا
نەھێناوە
نەی
نەیارانی
نەیاری
نەیارەکانی
نەیان
نەیانتوانی
نەیانتوانیوە
نەیاندەتوانی
نەیتوانی
نەیتوانیوە
نەیجیریا
نەیدەتوانی
نەیدەزانی
نەیدەویست
نەینەوا
ه
ها
هاباد
هات
هاتبوو
هاتن
هاتنی
هاتنە
هاتوو
هاتوون
هاتووه
هاتووچۆ
هاتووچۆی
هاتووە
هاتوە
هاتۆتە
هاتە
هارون
هاری
هاریس
هاشم
هان
هاندانی
هاندەر
هاندەری
هانس
هانگۆل
هانی
هاو
هاوبەش
هاوبەشی
هاوتا
هاوسنورە
هاوسنوورە
هاوسه
هاوسەرگیری
هاوسەری
هاوسەرەکەی
هاوسەنگی
هاوشێوە
هاوشێوەکان
هاوشێوەی
هاوي
هاوپەیمانی
هاوچەرخ
هاوڕێ
هاوڕێنامە
هاوڕێکانی
هاوڕێی
هاوڕێیەتی
هاوکات
هاوکاری
هاوکێشەی
هاوڵاتی
هاوڵاتیان
هاوڵاتیانی
هاوین
هاوینی
هاوینە
هاوینەی
هاوەڵانی
هاوەڵی
هاوەڵەکانی
های
هتد
هذا
هر
هشام
هـ
هل
هم
هندستان
هه
هو
هود
هونه
هونەر
هونەرمەند
هونەرمەندی
هونەرمەندێکی
هونەری
هونەرە
هوه
هي
هۆ
هۆتێل
هۆزی
هۆزە
هۆزەکانی
هۆشبەرەکان
هۆنراوە
هۆنراوەی
هۆنگ
هۆى
هۆکار
هۆکاری
هۆکارێک
هۆکارێکی
هۆکارە
هۆکارەکانی
هۆکارەکەی
هۆڵ
هۆڵی
هۆڵە
هۆڵەندا
هۆڵەندی
هۆی
هۆیەوە
هی
هیت
هیتلەر
هیلاری
هیند
هیندستان
هیندی
هیوا
هیوادارم
هیچ
هیچی
هێرش
هێرشبەر
هێرشی
هێرشیان
هێرشێکی
هێرشە
هێرشەکانی
هێز
هێزه
هێزی
هێزێکی
هێزە
هێزەکانی
هێشت
هێشتا
هێلکە
هێما
هێمای
هێمن
هێنا
هێنابوو
هێنان
هێنانی
هێناوە
هێندە
هێنرا
هێنراوە
هێنری
هێڵی
هێڵەکانی
هەبوو
هەبوون
هەبوونی
هەبووە
هەبێ
هەبێت
هەتا
هەتاوی
هەتاوەکوو
هەر
هەربۆیە
هەردوو
هەردووکیان
هەردەم
هەرزەکار
هەرزەکاری
هەروا
هەروەك
هەروەها
هەروەک
هەرچۆنێک
هەرچی
هەرچەند
هەرچەندە
هەرکەسێک
هەرگیز
هەریەک
هەریەکە
هەریەکەیان
هەرێم
هەرێمی
هەرێمە
هەرێمەکە
هەرە
هەزار
هەزاران
هەسارە
هەسارەکان
هەسارەکانی
هەسارەی
هەست
هەستا
هەستان
هەستی
هەشت
هەشتا
هەشتەم
هەشتەمین
هەفتانەی
هەفتە
هەفتەی
هەلی
هەم
هەمان
هەموو
هەمووان
هەمووی
هەموویان
هەمیشە
هەمیشەیی
هەمین
هەمەدان
هەن
هەناسە
هەنبانە
هەنتینگتۆن
هەندێ
هەندێك
هەندێک
هەندێکی
هەندێکیان
هەنگاریا
هەنگاو
هەنگاوی
هەوا
هەوادا
هەواوە
هەواى
هەواڵ
هەواڵگری
هەواڵی
هەوای
هەوایەکی
هەورامان
هەورامانی
هەولێر
هەوکردنی
هەوڵ
هەوڵدان
هەوڵدەدات
هەوڵی
هەوڵیدا
هەوڵەکانی
هەيە
هەڕەشە
هەڕەشەی
هەژار
هەژاران
هەژاری
هەژدە
هەژمار
هەژماری
هەکاری
هەڵبژارد
هەڵبژاردن
هەڵبژاردنی
هەڵبژاردنەکانی
هەڵبژاردە
هەڵبژاردەکان
هەڵبژاردەکانی
هەڵبژاردەکەی
هەڵبژاردەی
هەڵبژێردرا
هەڵبژێردراوی
هەڵدا
هەڵدانی
هەڵدەستێت
هەڵسا
هەڵسەنگاندنی
هەڵمی
هەڵمەتی
هەڵوەشاندنەوەی
هەڵکەوتووە
هەڵگرتنی
هەڵگری
هەڵە
هەڵەبجە
هەینی
هەیه
هەییە
هەیە
و
وا
وابوو
وابووە
وابێت
وات
واتا
واتاکەی
واتای
واتایی
واتایە
واتایەکی
واتس
واتسن
واتسۆن
واتنی
واته
واتە
واجب
واحید
وادی
وادیارە
وادەکات
وادەی
وار
وارانی
وارد
وارساو
وارماوا
وارن
وارنەر
واز
وازهێنان
وازھێنان
وازھێنانی
وازی
وازیان
واسیت
واش
واشنتن
واشنتۆن
واشینگتن
واشینگتۆن
واقیع
واقیعدا
واقیعی
والا
والعلم
والنهاية
والکۆت
والی
وام
وان
واندا
وانه
وانگ
وانی
وانیش
وانە
وانەبێژ
وانەبێژی
وانەوتنەوە
وانەکان
وانەکانی
وانەی
وانەیەک
واو
واوی
واي
واژوو
واژووکرد
واژووکردنی
واژووی
واژۆ
واژە
واکەر
واڵ
واڵاس
واڵت
واڵتەر
واڵس
وای
وایان
وایت
وایفای
وایند
وایه
وایکرد
وایکردووە
وایڵد
وایە
وایەر
وب
وبه
وبونتو
وبە
وت
وتا
وتار
وتاربێژ
وتاربێژی
وتاردا
وتارنووس
وتارنووسی
وتاری
وتارێک
وتارێکدا
وتارێکی
وتارە
وتارەکان
وتارەکانی
وتارەکە
وتارەکەی
وتبووی
وترا
وتراوە
وتم
وتن
وتنه
وتنی
وتنەوە
وتنەوەی
وته
وتومبێل
وتوویەتی
وتووێژ
وتووێژی
وتووە
وتووەتەوە
وتویەتی
وتوە
وتی
وتیان
وتیشی
وتە
وتەبێژی
وتەکانی
وتەی
وتەیە
وتەیەک
وتەیەکی
وجواب
وخۆ
ود
ور
ورارتوو
ورد
وردبین
وردبینی
وردتر
وردن
وردنی
وردو
وردوو
وردی
وردە
وردەن
وردەوردە
وردەکاری
وردەکاریی
وردەکارییەکانی
ورشەلیم
ورفا
ورمێ
ورمێدا
ورمێوە
ورمێی
ورمێیە
وره
ورووپا
وروپا
وروژاندنی
وروگوای
ورچ
ورچی
وری
وریا
ورە
ورەی
وزارة
وزە
وزەکەی
وزەی
وزەیە
وزەیەکی
وزەیەی
وس
وسالی
وسامە
وسترالی
وسترالیا
وسترالیای
وسترالیایە
وسترالییە
وستراڵیا
وستوورە
وستڕالیا
وسط
وسلم
وسوڵی
وشانی
وشانە
وشانەی
وشتر
وشه
وشک
وشکانی
وشکایی
وشکی
وشکە
وشکەساڵی
وشکەمرۆی
وشیاری
وشە
وشەنامەی
وشەکان
وشەکانی
وشەکە
وشەی
وشەیە
وشەیەک
وشەیەکی
وشەیەکە
وصل
وف
وفاة
وقاسلی
وقیانووسی
وك
وكالة
ول
ولا
ولات
ولاتانی
ولاتانەی
ولاتی
ولاتە
ولاتەکەیان
ولایەتی
ولایەتە
ولى
ولی
ولیام
ولیانۆڤ
ولیانی
ولیەم
ولێر
ولە
وم
وما
ومێد
ومێدی
ومەرو
ومەوی
ون
ونبوو
ونبوونی
ونبووەکان
وه
وو
ووت
ووتاری
ووتی
ووتە
وود
وودی
وورد
ووزە
ووزەی
ووشک
ووشە
ووشەی
ووف
وون
ووگاندا
ووڵات
ووڵاتانی
ووڵاتی
ووڵاتە
ووڵاتەکەت
ووھان
وي
ويب
ويكيبيديا
وچ
وچان
وک
وکراینا
وکراینی
وڵ
وڵات
وڵاتان
وڵاتاندا
وڵاتانی
وڵاتانە
وڵاتانەدا
وڵاتانەوە
وڵاتانەی
وڵاتدا
وڵاته
وڵاتى
وڵاتی
وڵاتیان
وڵاتیش
وڵاتیی
وڵاتێک
وڵاتێکدا
وڵاتێکی
وڵاتێکە
وڵاتێکەوە
وڵاتە
وڵاتەدا
وڵاتەوە
وڵاتەکان
وڵاتەکانی
وڵاتەکانیان
وڵاتەکە
وڵاتەکەت
وڵاتەکەدا
وڵاتەکەی
وڵاتەکەیان
وڵاتەکەیدا
وڵاتەکەیە
وڵاتەی
وڵاتەیە
وڵاخ
وڵامی
وڵه
وڵڵا
وڵی
وۆردپرێس
وۆرکس
وۆن
وۆنگ
وۆچ
وۆکەر
وۆڵ
وی
ویب
ویس
ویست
ویستوویەتی
ویستووە
ویستویەتی
ویستی
ویستیان
ویش
ویل
ویلایه
ویلایەت
ویلایەتی
ویلایەتیی
ویلایەتێک
ویلایەتێکی
ویلایەتێکە
ویلایەتە
ویلایەتەکان
ویلایەتەکانی
ویلایەتەکە
ویلایەتەکەی
ویلایەتەیەکگرتوەکانی
ویلسۆن
ویلشێر
ویلی
ویلیام
ویلیامز
ویلیەم
وینتەر
ویندۆز
ویندۆزی
وینستۆن
وینگ
وینۆنا
ویژدان
ویکڵی
ویکی
ویکیا
ویکیدراوە
ویکیزانکۆ
ویکیسەرچاوە
ویکیفەرھەنگ
ویکیمیدیا
ویکیوتە
ویکیپدیای
ویکیپیدیا
ویکیپیدیاکان
ویکیپیدیای
ویکیپیدیایە
ویکیپیدیایەکانی
ویکیپێدیای
ویکیکتێب
ویکیھەواڵ
ویکیی
ویڵ
ویڵسن
ویڵیام
ویڵەر
وێ
وێب
وێبسایتی
وێبگە
وێبگەڕ
وێبگەکە
وێبگەی
وێبگەیەکی
وێبی
وێت
وێدۆن
وێران
وێرانکاری
وێرانکردنی
وێرانی
وێرانەکانی
وێرای
وێرنەر
وێست
وێستفالیا
وێستگە
وێستگەکانی
وێستگەکە
وێستگەی
وێستگەیە
وێستگەیەکی
وێلز
وێمبلی
وێن
وێنا
وێنانەی
وێناکردنی
وێنای
وێنه
وێنە
وێنەکان
وێنەکانی
وێنەکێش
وێنەکێشان
وێنەکێشانی
وێنەکێشی
وێنەکێشێکی
وێنەکە
وێنەکەدا
وێنەکەی
وێنەگر
وێنەگرتن
وێنەگرتنی
وێنەگرتنەکە
وێنەگری
وێنەگرێکی
وێنەی
وێنەیان
وێنەیی
وێنەیە
وێنەیەک
وێنەیەکی
وێنەیەی
وێڕای
وێژە
وێژەدا
وێژەی
وێژەیی
وێکی
وێڵ
وێڵز
وێڵزی
وێڵسۆن
وێی
وە
وەبەر
وەبەرهێنانی
وەبەرھێنان
وەبەرھێنانی
وەتمانی
وەتەن
وەتەی
وەحی
وەخت
وەدی
وەدیع
وەدەست
وەر
وەربگرن
وەربگرێ
وەربگرێت
وەربگیرێت
وەرتێ
وەردەگرت
وەردەگرن
وەردەگرێ
وەردەگرێت
وەردەگیرا
وەردەگیرێ
وەردەگیرێت
وەرز
وەرزدا
وەرزش
وەرزشدا
وەرزشوان
وەرزشوانان
وەرزشوانانی
وەرزشوانی
وەرزشوانێکی
وەرزشوانە
وەرزشکردن
وەرزشی
وەرزشیانەی
وەرزشیدا
وەرزشیی
وەرزشییە
وەرزشییەکان
وەرزشییەکانی
وەرزشێکی
وەرزشە
وەرزی
وەرزیدا
وەرزێڕی
وەرزێک
وەرزێکی
وەرزە
وەرزەدا
وەرزەکان
وەرزەکانی
وەرزەکە
وەرزەکەدا
وەرزەکەی
وەرنەگرت
وەري
وەرچەرخان
وەرگر
وەرگرانی
وەرگرت
وەرگرتبوو
وەرگرتبێت
وەرگرتن
وەرگرتنی
وەرگرتنەوەی
وەرگرتووە
وەرگرتوە
وەرگرتەوە
وەرگرن
وەرگری
وەرگرێت
وەرگرەکانی
وەرگیرا
وەرگیرابوو
وەرگیراو
وەرگیراون
وەرگیراوە
وەرگێر
وەرگێران
وەرگێرانی
وەرگێڕ
وەرگێڕا
وەرگێڕان
وەرگێڕانی
وەرگێڕانێکی
وەرگێڕانە
وەرگێڕاوە
وەرگێڕاوەتە
وەرگێڕدرا
وەرگێڕدراون
وەرگێڕدراوی
وەرگێڕدراوە
وەرگێڕدراوەتە
وەرگێڕی
وەرگێڕێکی
وەری
وەریگێڕاوەتە
وەرە
وەرەقە
وەرەمی
وەزارەت
وەزارەتی
وەزارەتە
وەزارەتەکانی
وەزنێ
وەزنێی
وەزیر
وەزیران
وەزیرانی
وەزیری
وەزیرێکی
وەزیرەکانی
وەزیرەکەی
وەستا
وەستان
وەستاند
وەستاندنی
وەستانی
وەستاو
وەستاون
وەستاوە
وەستای
وەستێنرا
وەسف
وەسفکرد
وەسفکردنی
وەسفی
وەسمان
وەسیەتی
وەشان
وەشانخانەی
وەشاندنی
وەشانی
وەشانێکی
وەشانە
وەشانەکانی
وەشێنرا
وەفا
وەفات
وەفاتی
وەفاداری
وەفایی
وەك
وەكو
وەلا
وەلی
وەلید
وەلیدی
وەلێ
وەلێندەری
وەلە
وەن
وەنەوشە
وەنەوشەیی
وەها
وەهەروەها
وەوە
وەي
وەچە
وەچەی
وەک
وەکالەت
وەکو
وەکوو
وەکی
وەکیلی
وەڵات
وەڵام
وەڵامدا
وەڵامدانەوە
وەڵامدانەوەی
وەڵامی
وەڵامیان
وەڵامێک
وەڵامێکی
وەڵامەکان
وەھا
وەھاب
وەھای
وەھبی
وەھەروەھا
وەی
وەیبەک
وەیس
وەیسی
وەیسە
وەین
وەیکە
وەیڵز
ى
ي
يا
يات
ياسين
يان
ية
يد
ير
يس
يل
يم
يمان
ين
يناير
يه
يوسف
يوم
يەك
ً
ٌ
ٍ
َ
ُ
ِ
ّ
ْ
ٓ
ٔ
ٕ
٘
ٚ
ٛ
٠
٠٠
٠٠٠
٠١
٠٢
٠٣
٠٤
٠٥
٠٦
٠٧
٠٨
٠٩
١
١٠
١٠٠
١٠٠٠
١٠٠٠٠
١٠٠١
١٠٠٢
١٠٠٥
١٠٠٨
١٠٠٩
١٠١
١٠١٠
١٠١١
١٠١٢
١٠١٤
١٠١٥
١٠١٦
١٠١٩
١٠٢
١٠٢٠
١٠٢١
١٠٢٤
١٠٢٥
١٠٢٨
١٠٣
١٠٣٠
١٠٣١
١٠٣٥
١٠٣٦
١٠٣٧
١٠٣٨
١٠٤
١٠٤٠
١٠٤١
١٠٤٢
١٠٤٥
١٠٤٦
١٠٤٩
١٠٥
١٠٥٠
١٠٥٤
١٠٥٥
١٠٥٦
١٠٦
١٠٦٠
١٠٦٣
١٠٦٦
١٠٦٧
١٠٧
١٠٧٠
١٠٧١
١٠٧٢
١٠٧٥
١٠٧٧
١٠٧٨
١٠٧٩
١٠٨
١٠٨٠
١٠٨٥
١٠٨٦
١٠٨٧
١٠٩
١٠٩٠
١٠٩٤
١٠٩٦
١٠٩٩
١١
١١٠
١١٠٠
١١٠٦
١١١
١١١٠
١١١١
١١١٥
١١١٧
١١١٨
١١٢
١١٢٠
١١٢٧
١١٣
١١٣٠
١١٣٥
١١٣٨
١١٤
١١٤٠
١١٤٤
١١٤٥
١١٤٦
١١٤٧
١١٥
١١٥٠
١١٥٣
١١٥٤
١١٥٥
١١٥٧
١١٦
١١٦٠
١١٦٢
١١٦٥
١١٦٦
١١٦٧
١١٦٨
١١٦٩
١١٧
١١٧٠
١١٧١
١١٧٤
١١٧٥
١١٧٦
١١٧٧
١١٧٩
١١٨
١١٨٠
١١٨٢
١١٨٣
١١٨٥
١١٨٦
١١٨٧
١١٨٩
١١٩
١١٩٠
١١٩١
١١٩٢
١١٩٣
١١٩٤
١١٩٥
١١٩٧
١١٩٨
١١٩٩
١٢
١٢٠
١٢٠٠
١٢٠٠٠
١٢٠١
١٢٠٢
١٢٠٤
١٢٠٥
١٢٠٦
١٢٠٧
١٢١
١٢١٠
١٢١١
١٢١٢
١٢١٣
١٢١٥
١٢١٨
١٢٢
١٢٢٠
١٢٢١
١٢٢٤
١٢٢٥
١٢٢٦
١٢٢٧
١٢٢٨
١٢٢٩
١٢٣
١٢٣٠
١٢٣١
١٢٣٢
١٢٣٣
١٢٣٤
١٢٣٦
١٢٣٨
١٢٣٩
١٢٤
١٢٤٠
١٢٤١
١٢٤٢
١٢٤٤
١٢٤٦
١٢٤٧
١٢٤٨
١٢٤٩
١٢٥
١٢٥٠
١٢٥٢
١٢٥٤
١٢٥٨
١٢٥٩
١٢٦
١٢٦٠
١٢٦١
١٢٦٢
١٢٦٤
١٢٦٥
١٢٦٦
١٢٦٩
١٢٧
١٢٧٠
١٢٧١
١٢٧٣
١٢٧٤
١٢٧٥
١٢٧٧
١٢٨
١٢٨٠
١٢٨١
١٢٨٤
١٢٨٥
١٢٨٧
١٢٨٨
١٢٩
١٢٩٠
١٢٩١
١٢٩٢
١٢٩٣
١٢٩٤
١٢٩٦
١٢٩٧
١٢٩٨
١٢٩٩
١٣
١٣٠
١٣٠٠
١٣٠١
١٣٠٣
١٣٠٤
١٣٠٥
١٣٠٦
١٣٠٧
١٣٠٨
١٣١
١٣١٠
١٣١١
١٣١٣
١٣١٥
١٣١٦
١٣١٧
١٣١٨
١٣١٩
١٣٢
١٣٢٠
١٣٢١
١٣٢٢
١٣٢٤
١٣٢٥
١٣٢٦
١٣٢٧
١٣٢٨
١٣٢٩
١٣٣
١٣٣٠
١٣٣١
١٣٣٢
١٣٣٣
١٣٣٤
١٣٣٥
١٣٣٦
١٣٣٧
١٣٣٨
١٣٣٩
١٣٤
١٣٤٠
١٣٤١
١٣٤٢
١٣٤٣
١٣٤٤
١٣٤٥
١٣٤٦
١٣٤٧
١٣٤٨
١٣٤٩
١٣٥
١٣٥٠
١٣٥١
١٣٥٢
١٣٥٣
١٣٥٤
١٣٥٥
١٣٥٦
١٣٥٧
١٣٥٨
١٣٥٩
١٣٦
١٣٦٠
١٣٦١
١٣٦٢
١٣٦٣
١٣٦٤
١٣٦٥
١٣٦٦
١٣٦٧
١٣٦٨
١٣٦٩
١٣٧
١٣٧٠
١٣٧١
١٣٧٢
١٣٧٣
١٣٧٤
١٣٧٥
١٣٧٦
١٣٧٧
١٣٧٨
١٣٧٩
١٣٨
١٣٨٠
١٣٨١
١٣٨٢
١٣٨٣
١٣٨٤
١٣٨٥
١٣٨٦
١٣٨٧
١٣٨٨
١٣٨٩
١٣٩
١٣٩٠
١٣٩١
١٣٩٢
١٣٩٣
١٣٩٤
١٣٩٥
١٣٩٦
١٣٩٧
١٣٩٨
١٣٩٩
١٤
١٤٠
١٤٠٠
١٤٠١
١٤٠٢
١٤٠٣
١٤٠٤
١٤٠٥
١٤٠٦
١٤٠٧
١٤٠٨
١٤١
١٤١٠
١٤١١
١٤١٢
١٤١٣
١٤١٤
١٤١٥
١٤١٧
١٤١٨
١٤١٩
١٤٢
١٤٢٠
١٤٢١
١٤٢٢
١٤٢٤
١٤٢٦
١٤٢٨
١٤٣
١٤٣٠
١٤٣١
١٤٣٢
١٤٣٤
١٤٣٥
١٤٣٦
١٤٣٨
١٤٤
١٤٤٠
١٤٤١
١٤٤٢
١٤٤٤
١٤٤٦
١٤٤٧
١٤٥
١٤٥٠
١٤٥١
١٤٥٢
١٤٥٣
١٤٥٥
١٤٥٧
١٤٦
١٤٦٠
١٤٦٢
١٤٦٥
١٤٦٦
١٤٦٧
١٤٦٨
١٤٦٩
١٤٧
١٤٧٠
١٤٧٣
١٤٧٥
١٤٧٦
١٤٧٩
١٤٨
١٤٨٠
١٤٨١
١٤٨٣
١٤٩
١٤٩٢
١٤٩٤
١٤٩٥
١٤٩٦
١٤٩٩
١٥
١٥٠
١٥٠٠
١٥٠١
١٥٠٢
١٥٠٣
١٥٠٤
١٥٠٥
١٥٠٦
١٥٠٧
١٥٠٨
١٥٠٩
١٥١
١٥١٠
١٥١١
١٥١٢
١٥١٤
١٥١٥
١٥١٦
١٥١٧
١٥١٩
١٥٢
١٥٢٠
١٥٢١
١٥٢٤
١٥٢٥
١٥٢٦
١٥٣
١٥٣٠
١٥٣١
١٥٣٢
١٥٣٣
١٥٣٤
١٥٣٥
١٥٣٦
١٥٣٧
١٥٣٨
١٥٣٩
١٥٤
١٥٤٠
١٥٤٢
١٥٤٣
١٥٤٤
١٥٤٥
١٥٤٦
١٥٤٧
١٥٤٨
١٥٤٩
١٥٥
١٥٥٠
١٥٥٢
١٥٥٣
١٥٥٤
١٥٥٥
١٥٥٦
١٥٥٧
١٥٥٨
١٥٥٩
١٥٦
١٥٦٠
١٥٦١
١٥٦٣
١٥٦٤
١٥٦٥
١٥٦٦
١٥٦٧
١٥٧
١٥٧٠
١٥٧١
١٥٧٢
١٥٧٣
١٥٧٤
١٥٧٥
١٥٧٦
١٥٧٧
١٥٧٨
١٥٧٩
١٥٨
١٥٨٠
١٥٨١
١٥٨٢
١٥٨٣
١٥٨٥
١٥٨٧
١٥٨٨
١٥٨٩
١٥٩
١٥٩٠
١٥٩١
١٥٩٢
١٥٩٣
١٥٩٥
١٥٩٦
١٥٩٧
١٥٩٨
١٥٩٩
١٦
١٦٠
١٦٠٠
١٦٠١
١٦٠٢
١٦٠٣
١٦٠٤
١٦٠٥
١٦٠٦
١٦٠٧
١٦٠٨
١٦٠٩
١٦١
١٦١٠
١٦١١
١٦١٢
١٦١٣
١٦١٤
١٦١٥
١٦١٦
١٦١٧
١٦١٨
١٦١٩
١٦٢
١٦٢٠
١٦٢١
١٦٢٢
١٦٢٣
١٦٢٤
١٦٢٥
١٦٢٦
١٦٢٧
١٦٢٨
١٦٢٩
١٦٣
١٦٣٠
١٦٣١
١٦٣٢
١٦٣٥
١٦٣٦
١٦٣٨
١٦٣٩
١٦٤
١٦٤٠
١٦٤١
١٦٤٢
١٦٤٣
١٦٤٤
١٦٤٥
١٦٤٦
١٦٤٧
١٦٤٨
١٦٥
١٦٥٠
١٦٥١
١٦٥٤
١٦٥٥
١٦٥٦
١٦٥٨
١٦٥٩
١٦٦
١٦٦٠
١٦٦١
١٦٦٢
١٦٦٥
١٦٦٦
١٦٦٧
١٦٦٨
١٦٦٩
١٦٧
١٦٧٠
١٦٧١
١٦٧٢
١٦٧٣
١٦٧٤
١٦٧٥
١٦٧٦
١٦٧٧
١٦٧٩
١٦٨
١٦٨٠
١٦٨٣
١٦٨٤
١٦٨٥
١٦٨٧
١٦٨٨
١٦٨٩
١٦٩
١٦٩٠
١٦٩١
١٦٩٣
١٦٩٤
١٦٩٥
١٦٩٦
١٦٩٧
١٦٩٩
١٧
١٧٠
١٧٠٠
١٧٠١
١٧٠٢
١٧٠٣
١٧٠٤
١٧٠٦
١٧٠٧
١٧٠٩
١٧١
١٧١٠
١٧١١
١٧١٢
١٧١٣
١٧١٤
١٧١٥
١٧١٦
١٧١٧
١٧١٨
١٧١٩
١٧٢
١٧٢٠
١٧٢١
١٧٢٢
١٧٢٣
١٧٢٤
١٧٢٥
١٧٢٦
١٧٢٧
١٧٢٨
١٧٣
١٧٣٠
١٧٣١
١٧٣٢
١٧٣٤
١٧٣٥
١٧٣٦
١٧٣٧
١٧٤
١٧٤٠
١٧٤١
١٧٤٢
١٧٤٣
١٧٤٦
١٧٤٧
١٧٤٨
١٧٤٩
١٧٥
١٧٥٠
١٧٥١
١٧٥٢
١٧٥٣
١٧٥٤
١٧٥٥
١٧٥٦
١٧٥٧
١٧٥٨
١٧٥٩
١٧٦
١٧٦٠
١٧٦١
١٧٦٢
١٧٦٣
١٧٦٤
١٧٦٥
١٧٦٦
١٧٦٧
١٧٦٨
١٧٦٩
١٧٧
١٧٧٠
١٧٧١
١٧٧٢
١٧٧٣
١٧٧٤
١٧٧٥
١٧٧٦
١٧٧٧
١٧٧٨
١٧٧٩
١٧٨
١٧٨٠
١٧٨١
١٧٨٢
١٧٨٣
١٧٨٤
١٧٨٥
١٧٨٦
١٧٨٧
١٧٨٨
١٧٨٩
١٧٩
١٧٩٠
١٧٩١
١٧٩٢
١٧٩٣
١٧٩٤
١٧٩٥
١٧٩٦
١٧٩٧
١٧٩٨
١٧٩٩
١٨
١٨٠
١٨٠٠
١٨٠١
١٨٠٢
١٨٠٣
١٨٠٤
١٨٠٥
١٨٠٦
١٨٠٧
١٨٠٨
١٨٠٩
١٨١
١٨١٠
١٨١١
١٨١٢
١٨١٣
١٨١٤
١٨١٥
١٨١٦
١٨١٧
١٨١٨
١٨١٩
١٨٢
١٨٢٠
١٨٢١
١٨٢٢
١٨٢٣
١٨٢٤
١٨٢٥
١٨٢٦
١٨٢٧
١٨٢٨
١٨٢٩
١٨٣
١٨٣٠
١٨٣١
١٨٣٢
١٨٣٣
١٨٣٤
١٨٣٥
١٨٣٦
١٨٣٧
١٨٣٨
١٨٣٩
١٨٤
١٨٤٠
١٨٤١
١٨٤٢
١٨٤٣
١٨٤٤
١٨٤٥
١٨٤٦
١٨٤٧
١٨٤٨
١٨٤٩
١٨٥
١٨٥٠
١٨٥١
١٨٥٢
١٨٥٣
١٨٥٤
١٨٥٥
١٨٥٦
١٨٥٧
١٨٥٨
١٨٥٩
١٨٦
١٨٦٠
١٨٦١
١٨٦٢
١٨٦٣
١٨٦٤
١٨٦٥
١٨٦٦
١٨٦٧
١٨٦٨
١٨٦٩
١٨٧
١٨٧٠
١٨٧١
١٨٧٢
١٨٧٣
١٨٧٤
١٨٧٥
١٨٧٦
١٨٧٧
١٨٧٨
١٨٧٩
١٨٨
١٨٨٠
١٨٨١
١٨٨٢
١٨٨٣
١٨٨٤
١٨٨٥
١٨٨٦
١٨٨٧
١٨٨٨
١٨٨٩
١٨٩
١٨٩٠
١٨٩١
١٨٩٢
١٨٩٣
١٨٩٤
١٨٩٥
١٨٩٦
١٨٩٧
١٨٩٨
١٨٩٩
١٩
١٩٠
١٩٠٠
١٩٠١
١٩٠٢
١٩٠٣
١٩٠٤
١٩٠٥
١٩٠٦
١٩٠٧
١٩٠٨
١٩٠٩
١٩١
١٩١٠
١٩١١
١٩١٢
١٩١٣
١٩١٤
١٩١٥
١٩١٦
١٩١٧
١٩١٨
١٩١٩
١٩٢
١٩٢٠
١٩٢١
١٩٢٢
١٩٢٣
١٩٢٤
١٩٢٥
١٩٢٦
١٩٢٧
١٩٢٨
١٩٢٩
١٩٣
١٩٣٠
١٩٣١
١٩٣٢
١٩٣٣
١٩٣٤
١٩٣٥
١٩٣٦
١٩٣٧
١٩٣٨
١٩٣٩
١٩٤
١٩٤٠
١٩٤١
١٩٤٢
١٩٤٣
١٩٤٤
١٩٤٥
١٩٤٦
١٩٤٧
١٩٤٨
١٩٤٩
١٩٥
١٩٥٠
١٩٥١
١٩٥٢
١٩٥٣
١٩٥٤
١٩٥٥
١٩٥٦
١٩٥٧
١٩٥٨
١٩٥٩
١٩٦
١٩٦٠
١٩٦١
١٩٦٢
١٩٦٣
١٩٦٤
١٩٦٥
١٩٦٦
١٩٦٧
١٩٦٨
١٩٦٩
١٩٧
١٩٧٠
١٩٧١
١٩٧٢
١٩٧٣
١٩٧٤
١٩٧٥
١٩٧٦
١٩٧٧
١٩٧٨
١٩٧٩
١٩٨
١٩٨٠
١٩٨١
١٩٨٢
١٩٨٣
١٩٨٤
١٩٨٥
١٩٨٦
١٩٨٧
١٩٨٨
١٩٨٩
١٩٩
١٩٩٠
١٩٩١
١٩٩٢
١٩٩٣
١٩٩٤
١٩٩٥
١٩٩٦
١٩٩٧
١٩٩٨
١٩٩٩
٢
٢٠
٢٠٠
٢٠٠٠
٢٠٠١
٢٠٠٢
٢٠٠٣
٢٠٠٤
٢٠٠٥
٢٠٠٦
٢٠٠٧
٢٠٠٨
٢٠٠٩
٢٠١
٢٠١٠
٢٠١١
٢٠١٢
٢٠١٣
٢٠١٤
٢٠١٥
٢٠١٦
٢٠١٧
٢٠١٨
٢٠١٩
٢٠٢
٢٠٢٠
٢٠٢١
٢٠٢٢
٢٠٢٣
٢٠٢٤
٢٠٢٥
٢٠٢٦
٢٠٢٧
٢٠٢٨
٢٠٣
٢٠٣٠
٢٠٤
٢٠٥
٢٠٥٠
٢٠٦
٢٠٧
٢٠٨
٢٠٩
٢١
٢١٠
٢١٠٠
٢١١
٢١٢
٢١٣
٢١٤
٢١٥
٢١٦
٢١٧
٢١٨
٢١٩
٢٢
٢٢٠
٢٢٠٠
٢٢١
٢٢٢
٢٢٣
٢٢٤
٢٢٥
٢٢٦
٢٢٧
٢٢٨
٢٢٩
٢٣
٢٣٠
٢٣١
٢٣٢
٢٣٣
٢٣٤
٢٣٥
٢٣٦
٢٣٧
٢٣٨
٢٣٩
٢٤
٢٤٠
٢٤٠٠
٢٤١
٢٤٢
٢٤٣
٢٤٤
٢٤٥
٢٤٦
٢٤٧
٢٤٨
٢٤٩
٢٥
٢٥٠
٢٥٠٠
٢٥١
٢٥٢
٢٥٣
٢٥٤
٢٥٥
٢٥٦
٢٥٧
٢٥٨
٢٥٩
٢٦
٢٦٠
٢٦١
٢٦٢
٢٦٣
٢٦٤
٢٦٥
٢٦٦
٢٦٧
٢٦٨
٢٦٩
٢٧
٢٧٠
٢٧٠٦
٢٧١
٢٧٢
٢٧٣
٢٧٤
٢٧٥
٢٧٦
٢٧٧
٢٧٨
٢٧٩
٢٨
٢٨٠
٢٨١
٢٨٢
٢٨٣
٢٨٤
٢٨٥
٢٨٦
٢٨٧
٢٨٨
٢٨٩
٢٩
٢٩٠
٢٩١
٢٩٢
٢٩٣
٢٩٤
٢٩٥
٢٩٦
٢٩٧
٢٩٨
٢٩٩
٣
٣٠
٣٠٠
٣٠٠٠
٣٠٠٠٠
٣٠١
٣٠٢
٣٠٣
٣٠٤
٣٠٥
٣٠٦
٣٠٧
٣٠٨
٣٠٩
٣١
٣١٠
٣١١
٣١٢
٣١٣
٣١٤
٣١٥
٣١٦
٣١٧
٣١٨
٣١٩
٣٢
٣٢٠
٣٢١
٣٢٢
٣٢٣
٣٢٤
٣٢٥
٣٢٦
٣٢٧
٣٢٨
٣٢٩
٣٣
٣٣٠
٣٣١
٣٣٢
٣٣٣
٣٣٤
٣٣٥
٣٣٦
٣٣٧
٣٣٨
٣٣٩
٣٤
٣٤٠
٣٤١
٣٤٢
٣٤٣
٣٤٤
٣٤٥
٣٤٦
٣٤٧
٣٤٨
٣٤٩
٣٥
٣٥٠
٣٥٠٠
٣٥١
٣٥٢
٣٥٣
٣٥٤
٣٥٥
٣٥٦
٣٥٧
٣٥٨
٣٥٩
٣٦
٣٦٠
٣٦١
٣٦٢
٣٦٣
٣٦٤
٣٦٥
٣٦٦
٣٦٧
٣٦٨
٣٦٩
٣٧
٣٧٠
٣٧١
٣٧٢
٣٧٣
٣٧٤
٣٧٥
٣٧٦
٣٧٧
٣٧٨
٣٧٩
٣٨
٣٨٠
٣٨١
٣٨٢
٣٨٣
٣٨٤
٣٨٥
٣٨٦
٣٨٧
٣٨٨
٣٨٩
٣٩
٣٩٠
٣٩١
٣٩٢
٣٩٣
٣٩٤
٣٩٥
٣٩٦
٣٩٧
٣٩٨
٣٩٩
٤
٤٠
٤٠٠
٤٠٠٠
٤٠١
٤٠٢
٤٠٣
٤٠٤
٤٠٥
٤٠٦
٤٠٧
٤٠٨
٤٠٩
٤١
٤١٠
٤١١
٤١٢
٤١٣
٤١٤
٤١٥
٤١٦
٤١٧
٤١٨
٤١٩
٤٢
٤٢٠
٤٢١
٤٢٢
٤٢٣
٤٢٤
٤٢٥
٤٢٦
٤٢٧
٤٢٨
٤٢٩
٤٣
٤٣٠
٤٣١
٤٣٢
٤٣٣
٤٣٤
٤٣٥
٤٣٦
٤٣٧
٤٣٨
٤٣٩
٤٤
٤٤٠
٤٤١
٤٤٢
٤٤٣
٤٤٤
٤٤٥
٤٤٦
٤٤٧
٤٤٨
٤٤٩
٤٥
٤٥٠
٤٥٠٠
٤٥١
٤٥٢
٤٥٣
٤٥٤
٤٥٥
٤٥٦
٤٥٧
٤٥٨
٤٥٩
٤٦
٤٦٠
٤٦١
٤٦٢
٤٦٣
٤٦٤
٤٦٥
٤٦٦
٤٦٧
٤٦٨
٤٦٩
٤٧
٤٧٠
٤٧١
٤٧٢
٤٧٣
٤٧٤
٤٧٥
٤٧٦
٤٧٧
٤٧٨
٤٧٩
٤٨
٤٨٠
٤٨١
٤٨٢
٤٨٣
٤٨٤
٤٨٥
٤٨٦
٤٨٧
٤٨٨
٤٨٩
٤٩
٤٩٠
٤٩١
٤٩٢
٤٩٣
٤٩٤
٤٩٥
٤٩٦
٤٩٧
٤٩٨
٤٩٩
٥
٥٠
٥٠٠
٥٠٠٠
٥٠١
٥٠٢
٥٠٣
٥٠٤
٥٠٥
٥٠٦
٥٠٧
٥٠٨
٥٠٩
٥١
٥١٠
٥١١
٥١٢
٥١٣
٥١٤
٥١٥
٥١٦
٥١٧
٥١٨
٥١٩
٥٢
٥٢٠
٥٢١
٥٢٢
٥٢٣
٥٢٤
٥٢٥
٥٢٦
٥٢٧
٥٢٨
٥٢٩
٥٣
٥٣٠
٥٣١
٥٣٢
٥٣٣
٥٣٤
٥٣٥
٥٣٦
٥٣٧
٥٣٨
٥٣٩
٥٤
٥٤٠
٥٤١
٥٤٢
٥٤٣
٥٤٤
٥٤٥
٥٤٦
٥٤٧
٥٤٨
٥٤٩
٥٥
٥٥٠
٥٥١
٥٥٢
٥٥٣
٥٥٤
٥٥٥
٥٥٦
٥٥٧
٥٥٨
٥٥٩
٥٦
٥٦٠
٥٦١
٥٦٢
٥٦٣
٥٦٤
٥٦٥
٥٦٦
٥٦٧
٥٦٨
٥٦٩
٥٧
٥٧٠
٥٧١
٥٧٢
٥٧٣
٥٧٤
٥٧٥
٥٧٦
٥٧٧
٥٧٨
٥٧٩
٥٨
٥٨٠
٥٨١
٥٨٢
٥٨٣
٥٨٤
٥٨٥
٥٨٦
٥٨٧
٥٨٨
٥٨٩
٥٩
٥٩٠
٥٩١
٥٩٢
٥٩٣
٥٩٤
٥٩٥
٥٩٦
٥٩٧
٥٩٨
٥٩٩
٦
٦٠
٦٠٠
٦٠٠٠
٦٠١
٦٠٢
٦٠٣
٦٠٤
٦٠٥
٦٠٦
٦٠٧
٦٠٨
٦٠٩
٦١
٦١٠
٦١١
٦١٢
٦١٣
٦١٤
٦١٥
٦١٦
٦١٧
٦١٨
٦١٩
٦٢
٦٢٠
٦٢١
٦٢٢
٦٢٣
٦٢٤
٦٢٥
٦٢٦
٦٢٧
٦٢٨
٦٢٩
٦٣
٦٣٠
٦٣١
٦٣٢
٦٣٣
٦٣٤
٦٣٥
٦٣٦
٦٣٧
٦٣٨
٦٣٩
٦٤
٦٤٠
٦٤١
٦٤٢
٦٤٣
٦٤٤
٦٤٥
٦٤٦
٦٤٧
٦٤٨
٦٤٩
٦٥
٦٥٠
٦٥١
٦٥٢
٦٥٣
٦٥٤
٦٥٥
٦٥٦
٦٥٧
٦٥٨
٦٥٩
٦٦
٦٦٠
٦٦١
٦٦٢
٦٦٣
٦٦٤
٦٦٥
٦٦٦
٦٦٧
٦٦٨
٦٦٩
٦٧
٦٧٠
٦٧١
٦٧٢
٦٧٣
٦٧٤
٦٧٥
٦٧٦
٦٧٧
٦٧٨
٦٧٩
٦٨
٦٨٠
٦٨١
٦٨٢
٦٨٣
٦٨٤
٦٨٥
٦٨٦
٦٨٧
٦٨٨
٦٨٩
٦٩
٦٩٠
٦٩١
٦٩٢
٦٩٣
٦٩٤
٦٩٥
٦٩٦
٦٩٧
٦٩٨
٦٩٩
٧
٧٠
٧٠٠
٧٠٠٠
٧٠١
٧٠٢
٧٠٣
٧٠٤
٧٠٥
٧٠٦
٧٠٧
٧٠٨
٧٠٩
٧١
٧١٠
٧١١
٧١٢
٧١٣
٧١٤
٧١٥
٧١٦
٧١٧
٧١٨
٧١٩
٧٢
٧٢٠
٧٢١
٧٢٢
٧٢٣
٧٢٤
٧٢٥
٧٢٦
٧٢٧
٧٢٨
٧٢٩
٧٣
٧٣٠
٧٣١
٧٣٢
٧٣٣
٧٣٤
٧٣٥
٧٣٦
٧٣٧
٧٣٨
٧٣٩
٧٤
٧٤٠
٧٤١
٧٤٢
٧٤٣
٧٤٤
٧٤٥
٧٤٦
٧٤٧
٧٤٨
٧٤٩
٧٥
٧٥٠
٧٥١
٧٥٢
٧٥٣
٧٥٤
٧٥٥
٧٥٦
٧٥٧
٧٥٨
٧٥٩
٧٦
٧٦٠
٧٦١
٧٦٢
٧٦٣
٧٦٤
٧٦٥
٧٦٦
٧٦٧
٧٦٨
٧٦٩
٧٧
٧٧٠
٧٧١
٧٧٢
٧٧٣
٧٧٤
٧٧٥
٧٧٦
٧٧٧
٧٧٨
٧٧٩
٧٨
٧٨٠
٧٨١
٧٨٢
٧٨٣
٧٨٤
٧٨٥
٧٨٦
٧٨٧
٧٨٨
٧٨٩
٧٩
٧٩٠
٧٩١
٧٩٢
٧٩٣
٧٩٤
٧٩٥
٧٩٦
٧٩٧
٧٩٨
٧٩٩
٨
٨٠
٨٠٠
٨٠٠٠
٨٠١
٨٠٢
٨٠٣
٨٠٤
٨٠٥
٨٠٦
٨٠٧
٨٠٨
٨٠٩
٨١
٨١٠
٨١١
٨١٢
٨١٣
٨١٤
٨١٥
٨١٦
٨١٧
٨١٨
٨١٩
٨٢
٨٢٠
٨٢١
٨٢٢
٨٢٣
٨٢٤
٨٢٥
٨٢٦
٨٢٧
٨٢٨
٨٢٩
٨٣
٨٣٠
٨٣١
٨٣٢
٨٣٣
٨٣٤
٨٣٥
٨٣٦
٨٣٧
٨٣٨
٨٣٩
٨٤
٨٤٠
٨٤١
٨٤٢
٨٤٣
٨٤٤
٨٤٥
٨٤٦
٨٤٧
٨٤٨
٨٤٩
٨٥
٨٥٠
٨٥١
٨٥٢
٨٥٣
٨٥٤
٨٥٥
٨٥٦
٨٥٧
٨٥٨
٨٥٩
٨٦
٨٦٠
٨٦١
٨٦٢
٨٦٣
٨٦٤
٨٦٥
٨٦٦
٨٦٧
٨٦٨
٨٦٩
٨٧
٨٧٠
٨٧١
٨٧٢
٨٧٣
٨٧٤
٨٧٥
٨٧٦
٨٧٧
٨٧٨
٨٧٩
٨٨
٨٨٠
٨٨١
٨٨٢
٨٨٣
٨٨٤
٨٨٥
٨٨٦
٨٨٧
٨٨٨
٨٨٩
٨٩
٨٩٠
٨٩١
٨٩٢
٨٩٣
٨٩٤
٨٩٥
٨٩٦
٨٩٧
٨٩٨
٨٩٩
٩
٩٠
٩٠٠
٩٠١
٩٠٢
٩٠٣
٩٠٤
٩٠٥
٩٠٦
٩٠٧
٩٠٨
٩٠٩
٩١
٩١٠
٩١١
٩١٢
٩١٣
٩١٤
٩١٥
٩١٦
٩١٧
٩١٨
٩١٩
٩٢
٩٢٠
٩٢١
٩٢٢
٩٢٣
٩٢٤
٩٢٥
٩٢٦
٩٢٧
٩٢٨
٩٢٩
٩٣
٩٣٠
٩٣١
٩٣٢
٩٣٣
٩٣٤
٩٣٥
٩٣٦
٩٣٧
٩٣٨
٩٣٩
٩٤
٩٤٠
٩٤١
٩٤٢
٩٤٣
٩٤٤
٩٤٥
٩٤٦
٩٤٧
٩٤٨
٩٤٩
٩٥
٩٥٠
٩٥١
٩٥٢
٩٥٣
٩٥٤
٩٥٥
٩٥٦
٩٥٧
٩٥٨
٩٥٩
٩٦
٩٦٠
٩٦١
٩٦٢
٩٦٣
٩٦٤
٩٦٥
٩٦٦
٩٦٧
٩٦٨
٩٦٩
٩٧
٩٧٠
٩٧١
٩٧٢
٩٧٣
٩٧٤
٩٧٥
٩٧٦
٩٧٧
٩٧٨
٩٧٩
٩٨
٩٨٠
٩٨١
٩٨٢
٩٨٣
٩٨٤
٩٨٥
٩٨٦
٩٨٧
٩٨٨
٩٨٩
٩٩
٩٩٠
٩٩١
٩٩٢
٩٩٣
٩٩٤
٩٩٥
٩٩٦
٩٩٧
٩٩٨
٩٩٩
٪
٫
٬
٭
ٰ
ٱل
پ
پابلۆ
پابەند
پابەندبوون
پابەندبوونی
پابەندی
پات
پاتری
پاتریاکی
پاتریک
پاتریۆت
پاداشت
پاداشتی
پادشا
پادشای
پادشایی
پادشایەتی
پار
پارا
پاراست
پاراستن
پاراستنی
پاراستنیان
پاراستووە
پاراستی
پارالمپیکی
پاراماونت
پارامەتری
پاراو
پاراگوای
پارت
پارتریج
پارتی
پارتێکی
پارتە
پارتەکانی
پارتەکە
پارتەکەی
پارس
پارسی
پارسەکان
پارما
پارچە
پارچەکان
پارچەکانی
پارچەی
پارچەیەک
پارچەیەکی
پارک
پارکس
پارکی
پارکینسۆن
پارکێکی
پارکە
پارکەر
پارکەکە
پاریس
پاریسی
پارێز
پارێزراو
پارێزراون
پارێزراوی
پارێزراوە
پارێزگا
پارێزگار
پارێزگاران
پارێزگاری
پارێزگاریکردن
پارێزگاریی
پارێزگاى
پارێزگاکان
پارێزگاکانی
پارێزگاکە
پارێزگاکەدا
پارێزگاکەی
پارێزگای
پارێزگاییەکە
پارێزگایە
پارێزگایەک
پارێزگایەکی
پارێزگایەکە
پارێزگەی
پارێزی
پارێزەر
پارێزەرانی
پارێزەری
پارێزەرێکی
پارە
پارەدان
پارەکە
پارەکەی
پارەی
پارەیان
پارەیە
پارەیەکی
پارەیەی
پازدە
پازدەھەم
پاس
پاسادان
پاسادانی
پاساو
پاساوی
پاسداران
پاسدارانی
پاسپۆرت
پاسپۆرتی
پاسکال
پاسکاڵ
پاسکیل
پاسۆک
پاسی
پاسیفیک
پاسە
پاسەوان
پاسەوانانی
پاسەوانی
پاسەوانەکانی
پاسەکان
پاسەکانی
پاسەکە
پاش
پاشا
پاشان
پاشاندا
پاشانیش
پاشاوە
پاشاکان
پاشاکانی
پاشاکە
پاشای
پاشایی
پاشایە
پاشایەتی
پاشایەتیدا
پاشایەتیی
پاشایەتییەکان
پاشایەک
پاشایەکی
پاشتر
پاشماوە
پاشماوەکانی
پاشماوەی
پاشکۆی
پاشگری
پاشگەز
پاشی
پاشیەکی
پاشیەکیی
پاشەڕۆ
پاشەڕۆی
پاشەکشە
پاشەکشەی
پاشەکشەیان
پاشەکەوت
پاقلە
پالاوانێتی
پالاوانێتییە
پالۆ
پان
پانایی
پانتایی
پاندا
پاندای
پانزە
پانسەد
پانکە
پانکەی
پانی
پانییەکەی
پانە
پاوان
پاوانی
پاوانێکی
پاوانە
پاول
پاولۆ
پاوڵ
پاوە
پاوەر
پاوەند
پاوەندی
پاپ
پاپا
پاپای
پاپوا
پاچینۆ
پاڕامێترەکانی
پاڕانەوە
پاڕک
پاک
پاکتاوکردنی
پاکتاوی
پاکستان
پاکستانی
پاکستانە
پاککردنەوە
پاککردنەوەی
پاکی
پاکیزە
پاکە
پاگەنینی
پاڵ
پاڵاوانێتی
پاڵاوت
پاڵاوتن
پاڵاوتنی
پاڵاوتنەکانی
پاڵمەر
پاڵنان
پاڵنانی
پاڵنەر
پاڵنەری
پاڵنەرێکی
پاڵنەرە
پاڵپشت
پاڵپشتی
پاڵپشتیکردنی
پاڵپشتیی
پاڵھێز
پاڵھێزی
پاڵی
پاڵیان
پاڵێورا
پاڵێوراو
پاڵێوراوکرا
پاڵێوراوی
پاڵێوراوە
پاڵە
پاڵەوان
پاڵەوانان
پاڵەوانانی
پاڵەوانی
پاڵەوانییەتی
پاڵەوانییەتییە
پاڵەوانییەتییەکە
پاڵەوانیەتی
پاڵەوانیەتییەکی
پاڵەوانیەتییەکە
پاڵەوانیەتیە
پاڵەوانیەتیەکە
پاڵەوانێتی
پاڵەوانێتیی
پاڵەوانێتییە
پاڵەوانێتییەکانی
پاڵەوانێتییەکی
پاڵەوانێتییەکە
پاڵەوانێتییەکەدا
پاڵەوانێتییەکەی
پاڵەوانێتیە
پاڵەوانێتیەکە
پاڵەوانێکی
پاڵەوانە
پاڵەوانەکان
پاڵەوانەکانی
پاڵەوانەکە
پاڵەوی
پاڵەپەستۆی
پای
پایان
پایتەخت
پایتەختی
پایتەختێکی
پایتەختە
پایتەختەوە
پایتەختەکەی
پایز
پایزدا
پایزی
پاین
پایه
پایگاه
پاییز
پاییزی
پایە
پایەبەرز
پایەبەرزی
پایەکانی
پایەی
پتر
پتەو
پتەوکردنی
پتەوی
پدیا
پر
پرات
پرادیش
پراساد
پراکتیکی
پراگ
پرایم
پرتال
پرتووگالی
پرتوگال
پرتەقاڵ
پرتەقاڵی
پرد
پردی
پردێ
پردێک
پردێکی
پردە
پردەکە
پرس
پرسی
پرسیار
پرسیارانە
پرسیارکردن
پرسیاری
پرسیاریان
پرسیارێک
پرسیارێکی
پرسیارە
پرسیارەوە
پرسیارەکان
پرسیارەکانی
پرسە
پرسەکانی
پرسەی
پروسیا
پروپاگەندە
پرۆ
پرۆتۆن
پرۆتۆکۆلی
پرۆتین
پرۆتینی
پرۆتینەکان
پرۆتێستانت
پرۆجێسترۆن
پرۆست
پرۆستات
پرۆسێسەر
پرۆسە
پرۆسەکە
پرۆسەی
پرۆسەیە
پرۆسەیەکی
پرۆفایلی
پرۆفیسۆر
پرۆفیسۆری
پرۆفیشناڵ
پرۆپاگەندە
پرۆژە
پرۆژەکانی
پرۆژەکە
پرۆژەکەی
پرۆژەی
پرۆژەیە
پرۆژەیەکی
پرۆگرام
پرۆگرامکردنی
پرۆگرامی
پرۆگرامێکی
پرۆگرامە
پرۆگرامەکانی
پریا
پریانکا
پریانکای
پریتزکێر
پریتی
پریسی
پریشک
پریمەرلیگ
پرینستۆن
پرینسیپی
پرێس
پرێسی
پرێمیەرلیگ
پرێمەر
پرەنسیپی
پرەنسیپە
پزیشک
پزیشکان
پزیشکانی
پزیشکی
پزیشکیدا
پزیشکیی
پزیشکییە
پزیشکییەکان
پزیشکییەکانی
پزیشکێک
پزیشکێکی
پزیشکە
پزیشکەکان
پزیشکەکانی
پزیشکەکەت
پس
پستن
پستنی
پستنەکان
پستنەکە
پستۆن
پستۆنی
پستۆنەکە
پسپۆر
پسپۆری
پسپۆڕ
پسپۆڕانی
پسپۆڕى
پسپۆڕی
پسپۆڕێکی
پشت
پشتبەستن
پشتي
پشتڕاست
پشتڕاستکراو
پشتڕاستکرایەوە
پشتڕاستکردنەوەی
پشتڕاستکردەوە
پشتڕاستی
پشتگوێ
پشتگیری
پشتگیریان
پشتگیریکار
پشتگیریکردن
پشتگیریکردنی
پشتگیریی
پشتی
پشتیان
پشتیوان
پشتیوانی
پشتیوانیی
پشتێن
پشتێنی
پشتێنە
پشتێنەی
پشتە
پشتەوە
پشتەوەی
پشدەر
پشوو
پشوودان
پشووی
پشک
پشکنین
پشکنینی
پشکنینیان
پشکنینێکی
پشکنینە
پشکنینەکان
پشکنینەکانی
پشکنینەکەی
پشکنەر
پشکنەری
پشکی
پشکەکان
پشکەکانی
پشگیری
پشیلە
پشیلەی
پشێوی
پل
پلات
پلاتفۆرمی
پلاتۆ
پلاتینی
پلازا
پلازما
پلازمای
پلاستیک
پلاستیکی
پلان
پلاندانان
پلاندانانی
پلانک
پلانی
پلانیان
پلانێک
پلانێکی
پلانە
پلانەکانی
پلانەکە
پلانەکەی
پلاک
پلاکی
پلاکەکە
پله
پلۆتۆ
پلۆڤدیڤ
پلێتی
پلە
پلەبەندی
پلەو
پلەى
پلەکانی
پلەکەی
پلەی
پلەیستەیشن
پلەیە
پلەیەک
پلەیەکی
پنتاگۆن
په
پوتین
پوخت
پوختی
پوختە
پوختەی
پور
پورتوگال
پورتوگالی
پورتوگالییەکان
پوری
پول
پوور
پووری
پووش
پووشپەڕ
پووشپەڕی
پووچەڵ
پووک
پوکەی
پى
پچڕ
پچڕان
پچڕانی
پڕ
پڕایم
پڕبینەرترین
پڕدا
پڕداھاتترین
پڕفرۆشترین
پڕن
پڕوپاگەندە
پڕوپاگەندەی
پڕي
پڕکردنەوەی
پڕۆتۆن
پڕۆتین
پڕۆتینی
پڕۆجێسترۆن
پڕۆسە
پڕۆسەکە
پڕۆسەی
پڕۆسەیە
پڕۆسەیەکی
پڕۆفایلی
پڕۆفیسۆر
پڕۆفیسۆری
پڕۆژە
پڕۆژەکانی
پڕۆژەکە
پڕۆژەکەی
پڕۆژەی
پڕۆژەیە
پڕۆژەیەک
پڕۆژەیەکی
پڕۆگرام
پڕۆگرامی
پڕۆگرامێکی
پڕی
پڕە
پڕەکاندا
پژاک
پڵنگ
پڵنگی
پڵەس
پۆ
پۆتاسیۆم
پۆتانی
پۆتانەکان
پۆتەر
پۆدکاستی
پۆرت
پۆرترەیتی
پۆرتوگال
پۆرتوگالی
پۆرتۆ
پۆرن
پۆرناک
پۆرنۆگرافی
پۆزەتیڤ
پۆست
پۆستی
پۆستێکی
پۆستە
پۆستەدا
پۆستەر
پۆستەری
پۆستەکەی
پۆستەی
پۆشاک
پۆشاکی
پۆشی
پۆشینی
پۆل
پۆلدەشت
پۆلۆ
پۆلی
پۆلیتەکنیکی
پۆلیس
پۆلیسی
پۆلیسێکی
پۆلیسە
پۆلیسەوە
پۆلیسەکان
پۆلین
پۆلینی
پۆلیۆ
پۆلێن
پۆلێنکردنی
پۆلێنی
پۆلێک
پۆلێکی
پۆلەندا
پۆلەکانی
پۆن
پۆپ
پۆپی
پۆپەر
پۆکەر
پۆڵ
پۆڵا
پۆڵس
پۆڵێن
پۆڵەندا
پۆڵەندی
پۆینت
پی
پیا
پیادە
پیادەی
پیاز
پیاسەی
پیان
پیانۆ
پیانۆژەن
پیانۆژەنێکی
پیانۆکان
پیانۆکانی
پیانۆی
پیاو
پیاوان
پیاواندا
پیاوانی
پیاوانە
پیاوانەی
پیاودا
پیاوسالاری
پیاوی
پیاوێک
پیاوێکی
پیاوێکە
پیاوە
پیاوەکان
پیاوەکانی
پیاوەکە
پیاوەی
پیت
پیتاگۆرس
پیتی
پیتێکی
پیتە
پیتەر
پیتەرزبورگ
پیتەکان
پیتەکانی
پیدیا
پیر
پیران
پیرانشار
پیرانشه
پیرانی
پیرباڵ
پیرتاج
پیرس
پیروەلی
پیرۆ
پیرۆت
پیرۆز
پیرۆزبایی
پیرۆزترین
پیرۆزدا
پیرۆزی
پیرۆزە
پیرۆزەکان
پیرۆزەکانی
پیری
پیریا
پیریۆنسی
پیرە
پیرەمێرد
پیرەمێردی
پیرەمەگرون
پیس
پیسایی
پیسبوو
پیسبوون
پیسبوونی
پیسی
پیش
پیشان
پیشاندا
پیشاندانی
پیشاندەدات
پیشاندەری
پیشانی
پیشە
پیشەسازی
پیشەسازیدا
پیشەسازیی
پیشەسازییە
پیشەسازییەکان
پیشەسازییەکانی
پیشەکەی
پیشەگەر
پیشەگەری
پیشەی
پیشەیی
پیشەیەک
پیشەیەکی
پیلان
پیلانگێڕی
پیلانی
پیلانێکی
پیم
پین
پینکەر
پینگ
پیپین
پیچەکانی
پیک
پیکاسۆ
پیکسار
پیکچەرز
پیکچەرزەوە
پیکۆ
پیکەی
پیی
پیێر
پیەر
پێ
پێباز
پێبدات
پێبدرێت
پێبکات
پێبکرێت
پێبکەن
پێبەخشرا
پێبەخشراوە
پێبەخشی
پێت
پێترا
پێتەختی
پێدا
پێدابوو
پێدان
پێدانی
پێداویستی
پێداویستییە
پێداویستییەکانی
پێداویستیەکانی
پێداوە
پێداچوونەوە
پێداچوونەوەی
پێداچوونەوەیەکی
پێداگری
پێدرا
پێدرابوو
پێدراو
پێدراوە
پێدرۆ
پێدێت
پێدەبەخشێت
پێدەدا
پێدەدات
پێدەدرا
پێدەدرێت
پێدەوترێت
پێدەچێت
پێدەکا
پێدەکات
پێدەکرا
پێدەکرد
پێدەکرێ
پێدەکرێت
پێدەکەن
پێدەگات
پێدەڵێن
پێر
پێرس
پێرستی
پێرسن
پێرسی
پێرفۆڕمانس
پێروو
پێرڵ
پێرۆ
پێری
پێزانین
پێست
پێستی
پێستیان
پێستە
پێستەکان
پێش
پێشان
پێشاندانی
پێشانگا
پێشانگای
پێشانگایەکی
پێشبردنی
پێشبرکێی
پێشبڕکێ
پێشبڕکێکار
پێشبڕکێکانی
پێشبڕکێکە
پێشبڕکێی
پێشبڕکێیان
پێشبڕکێیە
پێشبڕکێیەکی
پێشبینی
پێشبینیکردنی
پێشبینیی
پێشتر
پێشتری
پێشتریش
پێشخستنی
پێشدا
پێشرەوی
پێشكه
پێشمەرگایەتی
پێشمەرگە
پێشمەرگەکان
پێشمەرگەکانی
پێشمەرگەی
پێشنوێژ
پێشنوێژی
پێشنیار
پێشنیارکردنی
پێشنیاری
پێشنیاریان
پێشنیارێکی
پێشنیارەکەی
پێشنیارەی
پێشنیازی
پێشه
پێشو
پێشوازی
پێشوازییەکی
پێشوازیەکی
پێشوو
پێشووتر
پێشووتری
پێشوودا
پێشووی
پێشوویان
پێشووە
پێشوی
پێشوەختە
پێشوەختەی
پێشچوونی
پێشڕەو
پێشڕەوی
پێشکه
پێشکەش
پێشکەشکاری
پێشکەشکرا
پێشکەشکرد
پێشکەشکردن
پێشکەشکردنی
پێشکەشکردووە
پێشکەشی
پێشکەوت
پێشکەوتن
پێشکەوتنی
پێشکەوتنێکی
پێشکەوتنە
پێشکەوتنەکانی
پێشکەوتوو
پێشکەوتووترین
پێشکەوتووی
پێشکەوتووە
پێشکەوتووەکان
پێشکەوتووەکانی
پێشگری
پێشگرێکی
پێشگرە
پێشگیری
پێشی
پێشیان
پێشینە
پێشینەی
پێشێل
پێشێلکاری
پێشێلکردنی
پێشەنگ
پێشەنگی
پێشەنگەکانی
پێشەوا
پێشەوای
پێشەوایەتی
پێشەوە
پێشەوەی
پێشەکی
پێشەکیی
پێشەکییەک
پێغه
پێغە
پێغەمبەر
پێغەمبەران
پێغەمبەرانی
پێغەمبەرایەتی
پێغەمبەردا
پێغەمبەری
پێغەمبەرێکی
پێغەمبەرە
پێغەمبەرەوە
پێغەمبەرەکان
پێغەمبەرەکانی
پێك
پێلێ
پێم
پێمان
پێموایە
پێن
پێناسی
پێناسە
پێناسەکراوە
پێناسەکردنی
پێناسەی
پێناسەیە
پێناسەیەک
پێناسەیەکی
پێناو
پێناوی
پێنج
پێنجشەممە
پێنجوێن
پێنجوێنی
پێنجی
پێنجەم
پێنجەمدا
پێنجەمی
پێنجەمین
پێندرۆ
پێنسیلڤانیا
پێنووس
پێنووسی
پێنچ
پێنی
پێنەدرا
پێوان
پێوانی
پێوانە
پێوانەکردن
پێوانەکردنی
پێوانەی
پێوانەیی
پێوه
پێويست
پێویست
پێویستت
پێویستدا
پێویستمان
پێویستن
پێویسته
پێویستی
پێویستیان
پێویستیش
پێویستیی
پێویستییان
پێویستییە
پێویستییەکانی
پێویستییەکی
پێویستە
پێویستەکان
پێوە
پێوەر
پێوەری
پێوەرێکی
پێوەرە
پێوەرەکانی
پێوەندی
پێوەندیی
پێوەندییەکی
پێوەی
پێوەیە
پێچ
پێچوو
پێچەوانە
پێچەوانەشەوە
پێچەوانەوە
پێچەوانەی
پێڕست
پێڕستی
پێڕەوی
پێک
پێکان
پێکانی
پێکانەوە
پێکدادان
پێکدادانی
پێکدادانێکی
پێکدادانەکانی
پێکدێ
پێکدێت
پێکدێن
پێکدێنن
پێکدێنێت
پێکدەھێنا
پێکدەھێنن
پێکدەھێنێت
پێکرا
پێکراوە
پێکرد
پێکردبوو
پێکردن
پێکردنی
پێکردووە
پێکردەوە
پێکهاتبوو
پێکهاتوون
پێکهاتووە
پێکهاتە
پێکهاتەی
پێکهێنانی
پێکھات
پێکھاتبوو
پێکھاتبوون
پێکھاتن
پێکھاتنی
پێکھاتوو
پێکھاتوون
پێکھاتووە
پێکھاتوە
پێکھاتە
پێکھاتەکان
پێکھاتەکانی
پێکھاتەکە
پێکھاتەکەی
پێکھاتەی
پێکھاتەیی
پێکھاتەیە
پێکھاتەیەک
پێکھاتەیەکی
پێکھێنا
پێکھێنانی
پێکھێناوە
پێکھێنرا
پێکھێنراوە
پێکھێنەری
پێکی
پێکەنین
پێکەوە
پێگه
پێگی
پێگە
پێگەی
پێگەیاندنی
پێگەیشت
پێگەیشتن
پێگەیشتنی
پێگەیشتوو
پێگەیشتووە
پێگەیشتووەکان
پێگەیەکی
پێڵاو
پێڵاوی
پێھات
پێھێنا
پێی
پێیان
پێیانوایە
پێیدا
پێیوابوو
پێیوایە
پێیە
پێیەتی
پێیەش
پێیەوە
پێیەکانی
پێیەی
پە
پەتا
پەتاتە
پەتای
پەتی
پەخش
پەخشان
پەخشانگای
پەخشانگەی
پەخشانی
پەخشکرا
پەخشکراوە
پەخشکرد
پەخشکردن
پەخشکردنی
پەخشی
پەراوێز
پەراوێزی
پەرت
پەرتووک
پەرتووکی
پەرتووکێکی
پەرتووکە
پەرتووکەکانی
پەرتوکی
پەرتەو
پەرخ
پەردە
پەردەی
پەرستار
پەرستاری
پەرستن
پەرستنی
پەرستگا
پەرستگاکان
پەرستگاکە
پەرستگای
پەرستگایەکی
پەرستی
پەرش
پەرلەمان
پەرلەمانتار
پەرلەمانتاری
پەرلەمانی
پەروانە
پەروانەی
پەرویز
پەروەر
پەروەردگار
پەروەردگاری
پەروەردە
پەروەردەکردنی
پەروەردەی
پەروەردەیی
پەرۆشی
پەری
پەرە
پەرەسەندن
پەرەسەندنی
پەرەسەندوو
پەرەپێدا
پەرەپێدان
پەرەپێدانی
پەرەپێدەری
پەرەی
پەرەیان
پەستان
پەستانی
پەستانێکی
پەستانە
پەستانەکە
پەستانەی
پەستاوتن
پەستاوتنی
پەستێنراو
پەستێنەر
پەسند
پەسندکرا
پەسنی
پەسوێ
پەسەند
پەسەندکرا
پەسەندکراو
پەسەندکراوە
پەسەندکردنی
پەسەندی
پەسەندە
پەشتۆ
پەشیمان
پەشێو
پەشێوی
پەل
پەلاماردانی
پەلاماری
پەلکەزێڕینە
پەلی
پەلە
پەلەوەر
پەلەوەران
پەمپ
پەمپی
پەمەیی
پەنا
پەنابەر
پەنابەران
پەنابەرانی
پەنابەری
پەنابەرێکی
پەنابەرە
پەناگەی
پەناھی
پەنای
پەنایان
پەنجا
پەنجاب
پەنجابی
پەنجاکان
پەنجاکانی
پەنجە
پەنجەرەکان
پەنجەرەی
پەنجەکان
پەنجەکانی
پەنجەی
پەند
پەندی
پەنک
پەنکریاس
پەنگوین
پەنیر
پەنیری
پەنەما
پەپوولە
پەپوولەکان
پەپوولەی
پەڕ
پەڕتووکی
پەڕلەمان
پەڕلەمانی
پەڕگە
پەڕگەی
پەڕی
پەڕینەوە
پەڕە
پەڕەکان
پەڕەکانی
پەڕەکە
پەڕەی
پەڕەیە
پەڕەیەک
پەڕەیەکی
پەژراندنی
پەکین
پەکەکە
پەڵپ
پەڵە
پەڵەی
پەھلە
پەھلەوی
پەھلەویدا
پەی
پەیام
پەیامبەر
پەیامبەری
پەیامنێر
پەیامنێری
پەیامی
پەیامێک
پەیامێکی
پەیامە
پەیامەکانی
پەیامەکەی
پەیتا
پەیج
پەیدا
پەیدابوو
پەیدابوون
پەیدابوونی
پەیدادەبێت
پەیداکرد
پەیداکردنی
پەیداکردووە
پەیرەو
پەیرەوی
پەیمان
پەیمانبەست
پەیماننامە
پەیماننامەکە
پەیماننامەی
پەیماننامەیە
پەیماننامەیەکی
پەیمانگا
پەیمانگاکان
پەیمانگاکە
پەیمانگای
پەیمانگایەکی
پەیمانگەی
پەیمانی
پەیمانێکی
پەیمانە
پەین
پەیوەست
پەیوەستن
پەیوەستی
پەیوەستە
پەیوەند
پەیوەندی
پەیوەندیان
پەیوەندیدا
پەیوەندیدار
پەیوەندیدارن
پەیوەندیدارە
پەیوەندیدارەکان
پەیوەندیدارەکانی
پەیوەندیکردن
پەیوەندیی
پەیوەندییان
پەیوەندییە
پەیوەندییەک
پەیوەندییەکان
پەیوەندییەکانی
پەیوەندییەکی
پەیوەندییەکەی
پەیوەندییەکەیان
پەیوەندیە
پەیوەندیەکانی
پەیوەندیەکی
پەیپاڵ
پەیڕەو
پەیڕەوانی
پەیڕەوکردنی
پەیڕەوی
پەیژەی
پەیژەیە
پەیژەیەکی
پەیکەر
پەیکەرتاش
پەیکەرتاشی
پەیکەرسازی
پەیکەری
پەیکەرێکی
پەیکەرە
پەیکەرەکە
پەیکەرەی
چ
چا
چاخی
چاد
چار
چارلز
چارلس
چارلی
چاره
چارڵز
چارڵزی
چارڵس
چارە
چارەسەر
چارەسەرکردن
چارەسەرکردنی
چارەسەری
چارەسەریی
چارەسەرێک
چارەسەرێکی
چارەسەرە
چارەنوسی
چارەنووس
چارەنووسی
چارەکی
چارەگی
چارەی
چالاک
چالاکانی
چالاکانە
چالاکن
چالاکوان
چالاکوانانی
چالاکوانی
چالاکوانێکی
چالاکی
چالاکیان
چالاکیی
چالاکییە
چالاکییەکان
چالاکییەکانی
چالاکییەکانیان
چالاکییەکی
چالاکیە
چالاکیەکانی
چالاکێکی
چالاکە
چالاکەکان
چامسکی
چامپیۆنز
چامپیۆنس
چامپیۆنشیپ
چان
چاند
چاندلەر
چاندن
چاندنی
چاندی
چانسی
چانگ
چاو
چاوت
چاودا
چاودێر
چاودێرانی
چاودێری
چاودێریکردن
چاودێریکردنی
چاودێریی
چاوپۆشی
چاوپێكەوتنی
چاوپێکەوتن
چاوپێکەوتنی
چاوپێکەوتنێک
چاوپێکەوتنێکدا
چاوپێکەوتنێکی
چاوپێکەوتنەکە
چاوگ
چاوگی
چاوۆ
چاوی
چاویان
چاویلکە
چاوێکی
چاوە
چاوەدێری
چاوەشی
چاوەڕوان
چاوەڕواننەکراو
چاوەڕوانی
چاوەڕێ
چاوەڕێی
چاوەکان
چاوەکانی
چاپ
چاپخانە
چاپخانەی
چاپلین
چاپکرا
چاپکراو
چاپکراوی
چاپکراوە
چاپکردن
چاپکردنی
چاپکەر
چاپکەری
چاپی
چاپێکی
چاپەمەنی
چاپەمەنیی
چاڤی
چاڤێز
چاک
چاکبوونەوە
چاکبوونەوەی
چاکسازی
چاکسازیی
چاکسازییە
چاکسازییەکانی
چاککردنی
چاککردنەوە
چاککردنەوەی
چاکی
چاکە
چاکەکاری
چاکەکان
چاکەی
چاڵ
چاڵاو
چاڵاک
چاڵاکی
چاڵدێران
چاڵگە
چاڵی
چاڵێکی
چاڵە
چاۆ
چای
چایخانە
چایخانەکە
چایخانەی
چایلەی
چایپارە
چایپاساری
چایچی
چرا
چراغ
چراکان
چرای
چرپە
چرکە
چرکەدا
چرکەیەک
چرکەیەکدا
چری
چریکەکانی
چل
چلچەمە
چلە
چلەکان
چلەکانی
چلەی
چنار
چنارشاھیجان
چنارە
چنارەی
چنگ
چنگی
چنین
چه
چو
چوار
چوارتا
چوارجار
چواردارانی
چواردە
چواردەوری
چواردەھەم
چوارسەد
چوارشەممە
چوارقوڕنە
چوارمەحاڵ
چوارچرا
چوارچێوە
چوارچێوەی
چوارچێوەیەکی
چوارکڕۆک
چوارکڵاوی
چوارگۆشە
چوارگۆشەی
چوارگۆشەیی
چوارگۆشەیە
چواری
چواریان
چوارینە
چوارەم
چوارەمدا
چوارەمی
چوارەمین
چوان
چوستی
چون
چونكه
چونكە
چونکه
چونکوو
چونکە
چونە
چوو
چووستی
چوومە
چوون
چوونی
چوونە
چوونەتە
چوونەوە
چوونەژوورەوە
چوونەژوورەوەی
چووە
چووەتە
چوە
چڕ
چڕترین
چڕی
چڕیی
چکۆلە
چڵک
چۆ
چۆتە
چۆلی
چۆم
چۆمان
چۆمی
چۆن
چۆنایەتی
چۆنییەتی
چۆنیەتی
چۆنیەتیی
چۆنێتی
چۆنە
چۆو
چۆوسە
چۆپرا
چۆپی
چۆڵ
چۆی
چی
چیا
چیاسەوز
چیان
چیانگ
چیانەوە
چیاکان
چیاکانی
چیاکە
چیای
چیایی
چیایە
چیایەک
چیایەکی
چیایەکە
چیبا
چیت
چیتا
چیتر
چیرۆک
چیرۆکنووس
چیرۆکی
چیرۆکێک
چیرۆکێکی
چیرۆکە
چیرۆکەکان
چیرۆکەکانی
چیرۆکەکە
چیرۆکەکەدا
چیرۆکەکەی
چیلی
چیمەنتۆ
چیمەنتۆی
چین
چینایەتی
چیندا
چینگ
چینی
چینیی
چینییە
چینییەکان
چینیەکان
چینێک
چینێکی
چینە
چینەوە
چینەکانی
چیو
چیچان
چیچانی
چیچەکلی
چیڕۆک
چیڕۆکی
چیڕۆکێکی
چیڕۆکە
چیڕۆکەکە
چیڕۆکەکەی
چیک
چیکۆسلۆڤاکیا
چیکی
چییە
چیە
چێ
چێت
چێرنۆبڵ
چێشت
چێشتخانە
چێشتخانەی
چێشتلێنان
چێشتی
چێن
چێنای
چێنگ
چێو
چێوەی
چێژ
چێژی
چێکۆسلۆڤاکیا
چێڵسی
چە
چەتری
چەتە
چەتەکان
چەتەکانی
چەتەی
چەخماقلوی
چەرخ
چەرخی
چەرداوڕ
چەرداوڕۆ
چەرداوڕۆکانن
چەرداوڕۆی
چەرم
چەرموو
چەرمۆ
چەرمەگا
چەسپاند
چەسپاندنی
چەشمە
چەشنی
چەشنێک
چەشنێکی
چەشنە
چەشنەکانی
چەق
چەقۆ
چەقۆی
چەقی
چەلەبی
چەم
چەماوە
چەماوەکە
چەماوەی
چەمچەماڵ
چەمک
چەمکی
چەمکێک
چەمکێکی
چەمکە
چەمکەکانی
چەمکەکە
چەمی
چەمێ
چەمە
چەمەن
چەمەنلو
چەن
چەند
چەندان
چەندانی
چەندجارێک
چەندی
چەندین
چەندینی
چەندێتی
چەندە
چەندەها
چەندەھا
چەنگ
چەنەھا
چەو
چەور
چەورکردنی
چەوری
چەوساندنەوە
چەوساندنەوەی
چەپ
چەپڵە
چەپی
چەپە
چەک
چەکدار
چەکدارانی
چەکدارانە
چەکداری
چەکداریی
چەکدارێکی
چەکدارە
چەکدارەکان
چەکدارەکانی
چەکوش
چەکی
چەکێک
چەکێکی
چەکە
چەکەکان
چەکەکانی
چەکەکە
چەیس
ڎ
ڕ
ڕا
ڕابردوو
ڕابردوودا
ڕابردووی
ڕابردووەوە
ڕابواردن
ڕابکات
ڕابکێشێت
ڕابگرن
ڕابگرێت
ڕابگەیەنێت
ڕابی
ڕابین
ڕابەر
ڕابەرایەتی
ڕابەری
ڕاتن
ڕاج
ڕاجا
ڕاجستان
ڕادار
ڕاده
ڕادیان
ڕادیۆ
ڕادیۆی
ڕادیۆیی
ڕادە
ڕادەبەدەر
ڕادەربڕین
ڕادەست
ڕادەستی
ڕادەکات
ڕادەکێشێت
ڕادەکەن
ڕادەگرن
ڕادەگرێت
ڕادەگەیەنێت
ڕادەی
ڕادەیە
ڕادەیەک
ڕادەیەکی
ڕادەیەی
ڕاز
ڕازاندنەوەی
ڕازاوەتەوە
ڕازی
ڕازیا
ڕازیبوون
ڕازیکردنی
ڕازییە
ڕاسان
ڕاست
ڕاسته
ڕاستکردنەوەی
ڕاستگۆ
ڕاستگۆیی
ڕاستی
ڕاستیدا
ڕاستیی
ڕاستییە
ڕاستییەکان
ڕاستییەکانی
ڕاستییەکی
ڕاستییەکە
ڕاستییەکەی
ڕاستییەی
ڕاستیەکان
ڕاستە
ڕاستەخۆ
ڕاستەقینە
ڕاستەقینەدا
ڕاستەقینەن
ڕاستەقینەکان
ڕاستەقینەکانی
ڕاستەقینەکەی
ڕاستەقینەی
ڕاستەقینەیە
ڕاستەوخۆ
ڕاستەوخۆی
ڕاستەوە
ڕاستەی
ڕاسپارد
ڕاسپاردە
ڕاسپاردەی
ڕاسپێردرا
ڕاسکۆڵنیکۆڤ
ڕاشدین
ڕاشکاوانە
ڕافایل
ڕام
ڕامان
ڕامجێت
ڕامسدەیڵ
ڕامۆس
ڕامی
ڕامیاری
ڕامیاریی
ڕامین
ڕان
ڕانبیر
ڕانچۆ
ڕانڤیر
ڕانی
ڕانیە
ڕاهول
ڕاهێنان
ڕاهێنانی
ڕاهێنەر
ڕاهێنەرایەتی
ڕاهێنەری
ڕاو
ڕاوچی
ڕاوکردن
ڕاوکردنی
ڕاوی
ڕاوێژ
ڕاوێژکار
ڕاوێژکاری
ڕاوێژکارێکی
ڕاوێژی
ڕاوە
ڕاوەستان
ڕاي
ڕاپ
ڕاپرسی
ڕاپرسییەک
ڕاپرسییەکی
ڕاپۆرت
ڕاپۆرتی
ڕاپۆرتێک
ڕاپۆرتێکی
ڕاپۆرتە
ڕاپۆرتەکان
ڕاپۆرتەکانی
ڕاپۆرتەکەی
ڕاپەر
ڕاپەری
ڕاپەرین
ڕاپەرینی
ڕاپەڕاندنی
ڕاپەڕین
ڕاپەڕینی
ڕاپەڕینێکی
ڕاپەڕینە
ڕاژە
ڕاژەکار
ڕاژەکاری
ڕاژەی
ڕاڤە
ڕاڤەی
ڕاکردن
ڕاکردنی
ڕاکێش
ڕاکێشا
ڕاکێشان
ڕاکێشانی
ڕاکێشاوە
ڕاکێشی
ڕاگرت
ڕاگرتن
ڕاگرتنی
ڕاگری
ڕاگواستن
ڕاگواستنی
ڕاگیرا
ڕاگیراوە
ڕاگەیاند
ڕاگەیاندبوو
ڕاگەیاندرا
ڕاگەیاندن
ڕاگەیاندنی
ڕاگەیاندنە
ڕاگەیاندنەکان
ڕاگەیاندووە
ڕاگەیەندرا
ڕاگەیەندراوی
ڕاگەیەندراوە
ڕاگەیەنرا
ڕاڵف
ڕاھێنان
ڕاھێنانی
ڕاھێنانیان
ڕاھێنەر
ڕاھێنەرایەتی
ڕاھێنەری
ڕاھێنەرێکی
ڕای
ڕایان
ڕایانگەیاند
ڕایت
ڕایتس
ڕایدەر
ڕاین
ڕاینی
ڕایکرد
ڕایگەیاند
ڕایگەیاندووە
ڕایە
ڕحا
ڕزگار
ڕزگاربووانی
ڕزگاربوون
ڕزگاربوونی
ڕزگارکرد
ڕزگارکردنی
ڕزگارکەری
ڕزگاری
ڕزگاریان
ڕزگاریخوازی
ڕزگاریی
ڕستە
ڕستەدا
ڕستەی
ڕستەیەکی
ڕشانەوە
ڕشتە
ڕشتەکەیدا
ڕشتەی
ڕفاندن
ڕفاندنی
ڕق
ڕقم
ڕقی
ڕم
ڕند
ڕه
ڕو
ڕواندا
ڕواندز
ڕوانسەر
ڕوانگە
ڕوانگەی
ڕوانگەیە
ڕوانگەیەکی
ڕوانین
ڕوانینی
ڕواڵەت
ڕواڵەتی
ڕوباری
ڕوبەری
ڕوبەڕوی
ڕوت
ڕوحی
ڕوخانی
ڕوخسار
ڕوخساری
ڕودانی
ڕوداوە
ڕودەدات
ڕوس
ڕوسۆ
ڕوسی
ڕوسیا
ڕوشد
ڕوشدی
ڕون
ڕوناکی
ڕونکردنەوەی
ڕونی
ڕوو
ڕووبار
ڕووباری
ڕووبارێک
ڕووبارێکی
ڕووبارە
ڕووبارەکان
ڕووبارەکانی
ڕووبارەکە
ڕووبدات
ڕووبەر
ڕووبەرووی
ڕووبەروی
ڕووبەری
ڕووبەرێکی
ڕووبەرە
ڕووبەرەوە
ڕووبەرەکەی
ڕووبەڕوو
ڕووبەڕووبونەوەی
ڕووبەڕووبوونەوەی
ڕووبەڕووی
ڕووبەڕوویان
ڕووبەڕوی
ڕووت
ڕووتی
ڕووتەختی
ڕووتەکان
ڕووحوڵڵا
ڕووحی
ڕووخا
ڕووخاند
ڕووخاندنی
ڕووخانی
ڕووخسار
ڕووخساری
ڕوودا
ڕوودانی
ڕووداو
ڕووداوانە
ڕووداوانەی
ڕووداوی
ڕووداوێک
ڕووداوێکی
ڕووداوە
ڕووداوەکان
ڕووداوەکانی
ڕووداوەکە
ڕووداوەکەی
ڕووداوەی
ڕوودەدات
ڕوودەدەن
ڕوودەکاتە
ڕووس
ڕووسی
ڕووسیا
ڕووسیادا
ڕووسیاش
ڕووسیاوە
ڕووسیای
ڕووسیایە
ڕووسییە
ڕووسەکان
ڕووماڵی
ڕوون
ڕوونادات
ڕووناک
ڕووناکبیر
ڕووناکبیری
ڕووناکبیریی
ڕووناکی
ڕووناکیی
ڕووناکییە
ڕووندەکاتەوە
ڕوونکردنەوە
ڕوونکردنەوەی
ڕوونکردنەوەیەکی
ڕوونکردەوە
ڕوونی
ڕوونیکردەوە
ڕوونە
ڕووي
ڕووپۆش
ڕووپییە
ڕووپێوی
ڕووکاری
ڕووکەشی
ڕووی
ڕوویان
ڕوویاندا
ڕوویانداوە
ڕوویدا
ڕوویداوە
ڕوویکردە
ڕوویی
ڕوویەکی
ڕووە
ڕووەو
ڕووەوە
ڕووەک
ڕووەکانی
ڕووەکناسی
ڕووەکی
ڕووەکە
ڕووەکەکان
ڕوژي
ڕوی
ڕویدا
ڕویداوە
ڕوەک
ڕوەکناسی
ڕوەکی
ڕوەکێکی
ڕوەکە
ڕوەکەکان
ڕژانی
ڕژانە
ڕژیمی
ڕژێم
ڕژێمی
ڕژێمێکی
ڕژێمە
ڕژێن
ڕژێنی
ڕکابەر
ڕکابەری
ڕکابەرییەکی
ڕکابەرە
ڕکابەرەکانی
ڕکابەرەکەی
ڕکات
ڕکێفی
ڕۆ
ڕۆب
ڕۆبن
ڕۆبنسن
ڕۆبۆت
ڕۆبۆتی
ڕۆبۆتەکە
ڕۆبی
ڕۆبین
ڕۆبێرت
ڕۆبێرتس
ڕۆبێرتۆ
ڕۆبەرت
ڕۆت
ڕۆتن
ڕۆجەر
ڕۆجەرز
ڕۆح
ڕۆحانی
ڕۆحی
ڕۆخی
ڕۆد
ڕۆدریگێز
ڕۆدیسیای
ڕۆز
ڕۆزا
ڕۆزڤێڵت
ڕۆزی
ڕۆس
ڕۆستەم
ڕۆستەمی
ڕۆسۆ
ڕۆسی
ڕۆشان
ڕۆشت
ڕۆشتن
ڕۆشتنی
ڕۆشتووە
ڕۆشن
ڕۆشنایی
ڕۆشنبیر
ڕۆشنبیران
ڕۆشنبیرانی
ڕۆشنبیری
ڕۆشنبیریی
ڕۆشنگەری
ڕۆشەن
ڕۆشەنبیری
ڕۆغزایی
ڕۆل
ڕۆلگێران
ڕۆلی
ڕۆلێت
ڕۆلێکی
ڕۆلەکانی
ڕۆم
ڕۆما
ڕۆماتیزم
ڕۆماجی
ڕۆمان
ڕۆمانتیک
ڕۆمانتیکی
ڕۆمانس
ڕۆمانسی
ڕۆمانسییە
ڕۆماننوس
ڕۆماننووس
ڕۆماننووسی
ڕۆماننووسێکی
ڕۆمانی
ڕۆمانیا
ڕۆمانیدا
ڕۆمانییەکان
ڕۆمانێک
ڕۆمانێکی
ڕۆمانێکە
ڕۆمانە
ڕۆمانەکان
ڕۆمانەکانی
ڕۆمانەکە
ڕۆمانەکەدا
ڕۆمانەکەی
ڕۆمای
ڕۆمدا
ڕۆمل
ڕۆمی
ڕۆمیۆ
ڕۆمەکان
ڕۆن
ڕۆناڵد
ڕۆناڵدۆ
ڕۆناڵدینھۆ
ڕۆنی
ڕۆنە
ڕۆنەکە
ڕۆولینگ
ڕۆژ
ڕۆژان
ڕۆژانی
ڕۆژانە
ڕۆژانەدا
ڕۆژانەی
ڕۆژاوا
ڕۆژاوادا
ڕۆژاواوە
ڕۆژاوای
ڕۆژاوایی
ڕۆژاوایە
ڕۆژبەیانی
ڕۆژدا
ڕۆژمێری
ڕۆژنامە
ڕۆژنامەنووس
ڕۆژنامەنووسان
ڕۆژنامەنووسانی
ڕۆژنامەنووسی
ڕۆژنامەنووسێکی
ڕۆژنامەوان
ڕۆژنامەوانی
ڕۆژنامەوانیدا
ڕۆژنامەوانیی
ڕۆژنامەوانێکی
ڕۆژنامەکان
ڕۆژنامەکانی
ڕۆژنامەکە
ڕۆژنامەگەری
ڕۆژنامەگەریی
ڕۆژنامەی
ڕۆژنامەیە
ڕۆژنامەیەکی
ڕۆژنیوز
ڕۆژهه
ڕۆژهەڵات
ڕۆژهەڵاتی
ڕۆژهەڵاتەوە
ڕۆژوو
ڕۆژووی
ڕۆژي
ڕۆژژمێر
ڕۆژژمێری
ڕۆژژمێرێکی
ڕۆژژمێرە
ڕۆژگاری
ڕۆژگیران
ڕۆژھەلات
ڕۆژھەلاتی
ڕۆژھەڵات
ڕۆژھەڵاتدا
ڕۆژھەڵاتناسی
ڕۆژھەڵاتی
ڕۆژھەڵاتە
ڕۆژھەڵاتەوە
ڕۆژی
ڕۆژێ
ڕۆژێک
ڕۆژێکدا
ڕۆژێکی
ڕۆژێکیان
ڕۆژە
ڕۆژەدا
ڕۆژەوە
ڕۆژەکان
ڕۆژەکانی
ڕۆژەکە
ڕۆژەی
ڕۆک
ڕۆکستار
ڕۆکی
ڕۆکێت
ڕۆکە
ڕۆڵ
ڕۆڵگێڕان
ڕۆڵگێڕانی
ڕۆڵی
ڕۆڵیان
ڕۆڵێک
ڕۆڵێکی
ڕۆڵە
ڕۆڵەکانی
ڕۆڵەکانیان
ڕۆڵەکە
ڕۆڵەکەی
ڕۆڵەی
ڕۆی
ڕۆیاڵ
ڕۆیتەرز
ڕۆیشت
ڕۆیشتن
ڕۆیشتنی
ڕۆیشتوون
ڕۆیشتووە
ڕی
ڕیا
ڕیاز
ڕیال
ڕیالیزم
ڕیالیزمی
ڕیان
ڕیاڵ
ڕیتا
ڕیتم
ڕیخۆڵە
ڕیخۆڵەکان
ڕیخۆڵەی
ڕید
ڕیدلی
ڕیدڵ
ڕیز
ڕیزبەند
ڕیزبەندی
ڕیزبەندیی
ڕیزبەندییەکە
ڕیزمارا
ڕیزکردنی
ڕیزی
ڕیزێک
ڕیزە
ڕیزەکانی
ڕیس
ڕیش
ڕیشاڵی
ڕیشی
ڕیشە
ڕیشەی
ڕیف
ڕیفراندۆمی
ڕیم
ڕیمان
ڕینز
ڕیوایەتی
ڕیپۆرتەر
ڕیچ
ڕیچارد
ڕیژەی
ڕیڤاڵدۆ
ڕیڤێرا
ڕیڤەر
ڕیک
ڕیکاردۆ
ڕیکخراوی
ڕیکلام
ڕیکلامی
ڕیکۆرد
ڕیکۆردی
ڕیکۆردێکی
ڕیکی
ڕیگای
ڕیگەی
ڕیۆ
ڕێ
ڕێباز
ڕێبازی
ڕێبازێکی
ڕێبازە
ڕێبوار
ڕێبین
ڕێبەر
ڕێبەرانی
ڕێبەرایەتی
ڕێبەرایەتیی
ڕێبەری
ڕێبەرێکی
ڕێبەندان
ڕێبەندانی
ڕێته
ڕێخۆشکەر
ڕێد
ڕێرەوی
ڕێز
ڕێزان
ڕێزبەندی
ڕێزدار
ڕێزدێنت
ڕێزلێنان
ڕێزلێنانی
ڕێزلێنانێک
ڕێزمان
ڕێزمانی
ڕێزگرتن
ڕێزی
ڕێزیان
ڕێزێک
ڕێزێکی
ڕێسا
ڕێساکانی
ڕێسای
ڕێناس
ڕێنمایی
ڕێنووسی
ڕێنوێنی
ڕێنیشاندەری
ڕێنێ
ڕێنێسانس
ڕێوشوێنی
ڕێوه
ڕێوڕەسمی
ڕێوی
ڕێوە
ڕێپێوان
ڕێپێوانی
ڕێپێوانێکی
ڕێچکە
ڕێچکەی
ڕێچکەیەکی
ڕێڕەوی
ڕێڕەوێکی
ڕێژیمی
ڕێژە
ڕێژەى
ڕێژەکە
ڕێژەکەی
ڕێژەی
ڕێژەیی
ڕێژەیە
ڕێژەیەکی
ڕێک
ڕێکار
ڕێکاری
ڕێکارێکی
ڕێکارە
ڕێکارەکان
ڕێکارەکانی
ڕێکبخات
ڕێکخرا
ڕێکخرابوو
ڕێکخراو
ڕێکخراون
ڕێکخراوی
ڕێکخراوێک
ڕێکخراوێکی
ڕێکخراوێکە
ڕێکخراوە
ڕێکخراوەکان
ڕێکخراوەکانی
ڕێکخراوەکە
ڕێکخراوەکەی
ڕێکخراوەی
ڕێکخراوەیی
ڕێکخراوەیە
ڕێکخراوەیەکی
ڕێکخست
ڕێکخستن
ڕێکخستنی
ڕێکخستنە
ڕێکخستنەوە
ڕێکخستنەوەی
ڕێکخستنەکانی
ڕێکخستووە
ڕێکخستەوە
ڕێکخەری
ڕێکدەخات
ڕێکدەخرێت
ڕێکلام
ڕێکوپێک
ڕێکوپێکی
ڕێککەوت
ڕێککەوتن
ڕێککەوتنامەی
ڕێککەوتننامەی
ڕێککەوتنی
ڕێککەوتنێک
ڕێککەوتنێکی
ڕێککەوتنە
ڕێککەوتنەکە
ڕێکی
ڕێکیان
ڕێکە
ڕێکەوت
ڕێکەوتن
ڕێکەوتنامەی
ڕێکەوتننامەی
ڕێکەوتنی
ڕێکەوتنێک
ڕێکەوتنێکی
ڕێکەوتنە
ڕێکەوتنەکە
ڕێکەوتی
ڕێکەوتە
ڕێکەوتەکە
ڕێگا
ڕێگادا
ڕێگاوبان
ڕێگاوە
ڕێگاکان
ڕێگاکانی
ڕێگاکە
ڕێگای
ڕێگایان
ڕێگایە
ڕێگایەوە
ڕێگایەک
ڕێگایەکی
ڕێگایەکە
ڕێگر
ڕێگرتن
ڕێگری
ڕێگریکردن
ڕێگریی
ڕێگه
ڕێگە
ڕێگەدان
ڕێگەپێدان
ڕێگەپێدانی
ڕێگەکان
ڕێگەکانی
ڕێگەگرتن
ڕێگەی
ڕێگەیان
ڕێگەیە
ڕێگەیەوە
ڕێگەیەک
ڕێگەیەکی
ڕێی
ڕێیگن
ڕە
ڕەبات
ڕەبان
ڕەبیع
ڕەبیعی
ڕەبیعە
ڕەبەت
ڕەبەن
ڕەت
ڕەتدەکاتەوە
ڕەتکرایەوە
ڕەتکردنەوەی
ڕەتکردووەتەوە
ڕەتکردەوە
ڕەتی
ڕەتیان
ڕەتیکردەوە
ڕەجەب
ڕەحمان
ڕەحمانی
ڕەحمەت
ڕەحیم
ڕەحیمی
ڕەخساند
ڕەخنە
ڕەخنەکانی
ڕەخنەگر
ڕەخنەگران
ڕەخنەگرانی
ڕەخنەگرانە
ڕەخنەگرانەوە
ڕەخنەگرانەی
ڕەخنەگرتن
ڕەخنەگری
ڕەخنەگرێکی
ڕەخنەی
ڕەخنەیان
ڕەخنەیی
ڕەخنەیەکی
ڕەد
ڕەزا
ڕەزازی
ڕەزامەندی
ڕەزامەندیی
ڕەزان
ڕەزاو
ڕەزای
ڕەزایی
ڕەزبەر
ڕەزبەری
ڕەزگە
ڕەزەوی
ڕەسمی
[...]
