!
"
#
##0
##1
##10
##11
##12
##13
##14
##15
##16
##17
##18
##19
##2
##20
##21
##22
##23
##24
##25
##26
##27
##28
##29
##3
##30
##31
##32
##33
##34
##35
##36
##37
##38
##39
##4
##40
##41
##42
##43
##44
##45
##46
##47
##48
##49
##5
##50
##51
##52
##53
##54
##55
##56
##57
##58
##59
##6
##60
##61
##62
##63
##64
##65
##66
##67
##68
##69
##7
##70
##71
##72
##73
##74
##75
##76
##77
##78
##79
##8
##80
##81
##82
##83
##84
##85
##86
##87
##88
##89
##9
##90
##91
##92
##93
##94
##95
##96
##97
##98
##99
$
%
&
'
(
)
*
+
,
-
.
/
0
00
000
0000
000000
0001
0002
0003
0004
0005
0006
0007
0008
0009
001
0010
0012
0017
002
0020
0021
0026
0027
003
0031
004
005
006
007
008
009
01
010
0108
0109
011
0110
0111
0115
0119
012
013
014
015
016
017
01745329252
018
019
02
020
021
022
023
024
025
026
027
028
029
03
030
031
032
033
034
035
036
037
04
040
041
042
043
046
047
05
050
051
057
06
062
067
07
08
09
090
1
10
100
1000
10000
1001
101
1016
102
103
104
105
1050
1055
106
107
108
1080
109
11
110
1100
111
112
113
114
115
1153785
116
117
118
119
12
120
1200
121
122
123
124
125
126
127
128
129
13
130
131
132
133
134
135
1350
136
137
138
139
14
140
1400
141
142
143
144
145
1453
146
147
148
149
15
150
1500
151
152
153
154
155
156
157
158
1582
159
15919
16
160
1600
161
162
163
164
165
166
167
168
169
17
170
171
172
173
174
175
1751
176
177
178
179
18
180
1800
181
182
183
1834
1839
184
1847
1848
185
1853
1857
1859
186
1860
1868
187
1871
1872
1873
1875
1878
188
1880
1881
1882
1884
1885
1886
1887
1888
1889
189
1890
1891
1892
1893
1894
1895
1896
1897
1898
1899
19
190
1900
1901
1902
1903
1904
1905
1906
1907
1908
1909
191
1910
1911
1912
1913
1914
1915
1916
1917
1918
1919
192
1920
1921
1922
1923
1924
1925
1926
1927
1928
1929
193
1930
1931
1932
1933
1934
1935
1936
1937
1938
1939
194
1940
1941
1942
1943
1944
1945
1946
1947
1948
1949
195
1950
1951
1952
1953
1954
1955
1956
1957
1958
1959
196
1960
1961
1962
1963
1964
1965
1966
1967
1968
1969
197
1970
1971
1972
1973
1974
1975
1976
1977
1978
1979
198
1980
1981
1982
1983
1984
1985
1986
1987
1988
1989
199
1990
1991
1992
1993
1994
1995
1996
1997
1998
1999
2
20
200
2000
2001
2002
2003
2004
2005
2006
2007
2008
2009
201
2010
2011
2012
2013
2014
2015
20150921014425127062
2016
2017
2018
2019
202
2020
2021
2022
2023
203
204
204963193
205
206
207
208
209
21
210
211
212
213
214
215
216
217
218
219
22
220
221
222
223
224
225
226
227
228
229
23
230
231
232
233
234
235
236
237
238
239
24
240
241
242
243
244
245
246
247
248
249
25
250
251
252
253
254
255
256
257
258
259
26
260
261
262
263
264
265
266
267
268
269
27
270
271
272
273
274
275
2752679
276
277
278
279
28
280
281
282
283
284
285
286
287
288
289
29
290
291
292
293
294
295
296
297
298
299
3
30
300
301
302
303
304
305
306
307
308
309
31
310
311
312
313
314
315
316
3166
316846592
317
318
319
32
320
321
322
323
324
325
326
327
328
329
33
330
331
332
333
3333
334
334460
335
336
337
338
339
34
340
344
345
349
3491997
35
350
351
352
355
356
357
36
360
3600
364
365
367
37
370
371
373
376
38
380
381
383
38348
39
393
394
395
397
4
40
400
401
402
404
405
407
408
41
410
412
413
414
415
416
42
420
424
429
43
430
432
433
44
440
444
447
45
450
454
46
460
465
468
47
470
48
480
486
49
490
495
499
5
50
500
5000
51
52
520
521
527
53
535
538
539
54
540
541
544
55
550
551
555
556
557
559
56
561
567
568
569
57
570
571
572
574
58
580
582
585
59
6
60
600
61
612
617
62
63
639
64
642
65
66
67
68
69
7
70
700
71
72
720
729
73
734
74
747
75
750
756
76
77
78
79
8
80
800
80665
81
82
828
83
8316846592
84
85
86
8601
87
88
89
9
90
900
91
910
92
93
94
95
96
964
97
978
98
99
999
9999
:
;
<
=
>
?
@
\
^
_
`
a
aa
aaa
ab
abbr
abbrev
abbreviation
abc
abd
abdullah
abe
able
about
above
abs
absolute
abstract
abu
abuse
abusefilter
ac
academic
academy
acceleration
accent
accept
acceptable
accepted
accepts
access
accessdate
accessed
accessibility
accessible
according
account
accounts
ace
acid
acre
acrophonic
across
act
acting
action
actioncompleted
actions
active
activesystems
activities
actor
actors
actress
actual
actually
acute
ad
ada
adam
add
addcat
addclass
added
addfooterlink
adding
addition
additional
addnewcontact
addon
addportletlink
addredirecttemplate
address
addresses
adds
adj
adjust
adlam
adm
admin
administration
administrative
administrator
administrators
adobe
advance
advanced
advice
ady
ae
aegean
af
afc
afd
affairs
affect
affected
affix
affricate
afghanistan
afr
africa
african
after
ag
again
against
age
aged
agencies
agency
agent
ages
aggregate
agh
ago
agreement
agriculture
agta
ah
ahmad
ahom
ahref
ai
aid
ain
air
aircraft
airlines
airport
ais
ajax
ajout
ajouter
ak
aka
al
ala
alan
alaska
albania
albanian
albert
album
alchemical
alef
alert
alexander
alexandria
alfred
algebra
algeria
ali
alias
aliases
aliaseslist
aliasesp
alien
align
alignment
all
alliance
allow
allowed
allows
almost
alone
along
alpha
alphabet
alphabetical
alphabets
alpine
alps
already
also
alt
alternate
alternating
alternative
although
altlink
altnames
alttitle
altvar
alveolar
always
am
amar
amarok
amazon
ambox
america
american
americas
aminijian
among
amount
amp
ampersand
an
ana
analysis
anatolian
anatomy
ancash
anchor
ancient
and
andalusian
andre
andrew
android
ang
angeles
angle
animal
animals
animation
anime
anna
annales
anne
annotation
announced
annual
another
answer
answers
ant
antarctica
anthony
anti
antilles
antiquity
antonio
anusvara
any
anyone
anything
ao
ap
apache
api
apiobj
apl
apologies
apostrophe
app
apparent
appear
appearance
appears
append
appendchild
appended
apple
applets
applicable
application
applications
applied
applies
apply
approach
appropriate
approx
approximant
apps
apr
april
ar
ara
arab
arabia
arabian
arabic
aram
aramaic
arc
arch
archaic
architectural
architecture
archive
archived
archivedate
archives
archiveurl
arcsin
are
area
areas
aren
arg
argentina
args
argsi
argsk
argstable
argsv
argument
arguments
aria
arizona
arm
armenia
armenian
arms
army
around
arr
array
arrow
arrowhead
arrows
art
arte
arthur
arti
article
articlehistoryobj
articlelengthlimit
articles
articletags
articletitle
artificial
artist
artists
arts
arv
arxiv
arya
as
ascii
ash
asia
asian
asiatic
asin
ask
asked
asp
aspx
assault
assembleoutput
assembly
assert
assesment
assigned
associated
association
assume
assyrian
ast
asterisk
astronomy
at
ata
atatu
athlete
athletes
athletics
ation
atlantic
atlas
atm
atmosphere
atp
attack
attempt
attention
attr
attribute
attributes
au
audio
aug
august
aus
australia
australian
austria
author
authority
authorlink
authorlist
authormask
authors
auto
autoblock
autoconfirmed
autofillprop
automated
automatic
automatically
autonomous
autoreview
autowikibrowser
autumn
aux
av
available
avar
avec
average
avertissement
avestan
aviation
avoid
avoidvalue
aw
awa
award
awards
away
awb
awyu
ax
ay
ayta
az
aza
azerbaijan
azerbaijani
b
ba
babel
baby
bach
back
background
bad
baekje
baghdad
bai
balance
balinese
balkan
ball
ballonicon
bamboo
bamum
ban
band
banda
bandeau
bandeauxportails
bang
bangladesh
bank
banner
bar
barb
barbara
barber
barcelona
bare
barrel
barrels
bars
bas
base
baseball
based
baseline
basic
basics
basil
basketball
basque
bassa
bat
batak
batchdelete
battery
battle
bay
bb
bbc
bc
bca
bce
bd
be
beach
bear
beautiful
because
become
becomes
bee
been
before
begg
begin
beginning
begins
beh
behalf
behavior
behaviour
behind
bei
being
bel
belgium
belize
bell
below
belt
ben
beng
bengali
benin
benjamin
bent
ber
berber
berkeley
berlin
bernard
best
beta
better
between
beyond
bf
bg
bgn
bh
bha
bhaiksuki
bi
bibcode
bible
biblio
big
bikol
bilabial
bill
billion
bin
bio
biographical
biography
biology
biorxiv
birth
bit
biz
black
blackberry
blacklist
blanchiment
blank
blica
blocage
block
blocked
blocks
blog
blood
blp
blue
blurb
bm
bmatrix
bmw
bn
bnd
bo
board
boat
body
boeing
bold
bolivia
bomb
bone
book
bookdata
books
boolean
bopomofo
border
borders
born
bosnia
boston
bot
both
bots
bottom
bouton
box
boxes
boxprotectionlevel
boy
br
bra
brabazon
braces
bracket
brackets
brahmi
braille
branch
brazil
break
breaking
breaks
breezeicons
breton
breve
brian
bridge
brief
brill
bristol
britain
britannica
british
broadway
broken
bronze
brothers
brown
browser
browsers
bru
bruce
brunei
bs
btu
bu
buffer
bug
buginese
bugs
build
buildblanckpreviewbar
builder
building
buildings
buildpreviewbar
built
builtin
bulgaria
bulgarian
bull
bullet
bulletin
bump
bundle
burkina
burmese
bus
business
but
button
buttongenerator
buttons
bw
bx
by
byte
byzantine
c
ca
caca
cache
cactions
cafe
cal
calak
calculate
calculated
calendar
california
call
callback
callbacks
called
calling
callparserfunction
calls
calorie
cam
cambodia
cambridge
camera
cameroon
camp
campaign
can
canada
canadian
canal
cancel
cancelinput
cancer
candidate
candidates
candrabindu
cannot
canonical
cap
cape
capital
capitalised
capitalization
caption
capture
car
card
cardinal
care
carian
caribbean
carl
carolina
caron
carrier
cascade
case
cases
cash
caspar
cast
castle
casualties
cat
catalan
catch
cate
categories
categorise
categorization
categorize
category
categoryid
categorylink
cathedral
catholic
cats
caucasian
caucasus
cause
causes
cave
cb
cbc
cbk
cbs
cc
ccc
ccite
cd
cdc
cdot
cdots
ce
ceb
cell
cells
celsius
census
cent
center
centimeter
centimetre
central
centre
century
ceremony
certain
cf
cfd
cfg
cfm
cgi
ch
cha
chad
chain
chakma
cham
chamber
champions
championships
change
changed
changes
changing
channel
chap
chapter
char
character
characters
charge
charles
chars
chart
charter
charts
charttype
chartvis
chat
chatino
che
check
checkbox
checkdictation
checked
checking
checks
checktype
chemical
chemistry
cherokee
chess
chi
chicago
chiki
child
children
chile
chin
china
chinantec
chinese
cho
choi
choice
choose
chopin
chosen
choseong
chp
chr
christ
christian
christmas
christopher
chromosome
chronicle
chronicles
chu
church
ci
cia
cid
cin
cinema
circ
circa
circle
circled
circuit
circular
circumflex
citation
citationclass
citations
cite
cited
citeref
citeseerx
citetb
citi
cities
citing
city
civil
civilization
civilizations
cjk
ckb
ckbwiki
cl
claim
claims
class
classes
classic
classical
classics
classification
classname
clean
cleanup
clear
click
clicking
client
climate
clinical
clip
clock
close
closed
closing
cloud
club
cluster
cm
cmodule
cn
cnn
co
coalition
coast
coat
coauthors
code
codepoint
codes
cohen
coins
col
cole
colhead
collaboration
collapse
collapsed
collapsible
collection
collective
college
collins
colombia
colon
color
colorado
colors
colour
cols
colspan
colstyle
columbia
column
columns
com
combatant
combination
combinations
combined
combining
come
comedy
comic
comics
coming
comma
command
commas
comment
comments
commercial
commission
committee
common
commons
commonwealth
communication
communist
communities
community
comp
compact
companies
companion
company
comparative
compare
comparison
compass
compatibility
compatible
competed
competition
complete
completed
completely
complex
component
components
composite
composition
compositions
compressed
compression
computer
computing
con
conan
concat
concatenate
concatenation
concepts
concert
concise
condition
conditions
conduct
conf
conference
config
configuration
configure
configured
confirm
confirmed
conflict
conflicts
congo
congress
conj
conjtype
conjunction
connect
connected
consensus
conservation
consider
considered
consistent
console
consonant
constant
constitution
construction
consultation
contact
contacts
contain
container
containing
contains
contemporary
content
contentcat
contents
contest
context
continue
contlang
contrast
contrib
contribs
contribute
contribution
contributions
contributor
contributors
control
controls
convention
conversation
conversion
convert
converted
converter
converts
cook
cookie
cool
coord
coordinate
coordinates
copied
coptic
copy
copyright
cordillera
core
corner
coronavirus
corporate
corporation
correct
correction
correctly
corresponding
coruler
cos
cost
costa
cot
cou
could
council
count
counter
counting
countries
country
counts
county
courage
cours
course
court
cov
cover
covered
covid
cp
cr
cre
create
created
createelement
creates
createtextnode
creating
creation
creative
creator
credit
cree
creole
cricket
crime
criminal
crisis
criteria
criterion
critical
croatia
croatian
crop
cropped
cross
crossing
crown
cruz
cs
csd
css
csstext
ct
ctx
ctype
cu
cuba
cubic
cuft
cuin
cuisine
cultural
culture
cuneiform
cup
cupe
cur
curly
currency
current
currently
currenttitle
cursive
cursor
curve
custom
customary
cut
cuyd
cv
cvt
cwy
cy
cycle
cylinder
cypriot
cyprus
cyrillic
czech
d
da
daa
dab
dad
dag
dai
daily
dal
dam
dan
dance
daniel
danish
dans
dar
dark
das
dash
dashes
dasia
data
database
datacode
dataset
datatype
datavalue
date
dated
dateformat
dates
datestr
datetime
datum
daum
david
davis
day
days
db
dc
dd
dda
ddha
de
dead
deal
death
deaths
debug
dec
decade
december
decimal
decimals
decision
declaration
decode
decoration
dedabbed
deep
def
default
defaultlang
defaults
defense
define
defined
defines
definition
definitions
deg
degree
degrees
del
delay
delete
deletebot
deleted
deletedcontrib
deletion
delhi
delivery
della
delmer
delta
dem
demande
demo
democracy
democratic
democrats
demographics
den
denmark
denominator
density
dental
dep
department
depend
dependencies
depending
deployment
deprecated
depth
der
des
desc
descender
described
description
descriptions
deseret
desert
design
desired
desk
desktop
det
detail
details
detect
detected
detection
detective
determine
determined
determines
deutsche
devanagari
developed
developer
developers
development
device
devices
df
dfb
dformat
dha
di
dia
diacritic
diacritics
diaeresis
diagonal
diagram
dialect
dialog
diamond
diana
dictionary
did
didn
die
diego
dies
diesel
diff
difference
different
diffs
digit
digital
digits
dil
dim
din
dingbat
dinka
dir
direct
direction
directly
director
disable
disabled
disambig
disambiguation
disambiguator
disc
discovered
discovery
discuss
discussion
discussions
disease
disney
disorder
disp
display
displayed
displayformat
displays
dissertation
distribution
district
div
division
divlivepreview
divtchat
diyar
diyarbakır
diyary
dk
dl
dm
dms
dmy
dna
dne
dns
do
doc
docs
doctitle
doctor
document
documentation
documentelement
documents
does
doesn
dog
dogon
dogra
doi
doing
dom
domain
domains
dominican
domino
don
donald
done
dong
dongguk
donum
dos
doses
dot
dots
dotted
double
doubled
douglas
down
download
downwards
dp
dq
dr
draft
drafting
dragon
drama
draw
drawings
dream
drive
drop
dropdown
drug
dry
drygal
ds
dsh
dst
dt
dts
dtype
du
dual
due
dug
dump
dumpobject
dunam
dungan
duplicate
duployan
durant
duration
during
dusun
dutch
dv
dvb
dvd
dw
dx
dynamic
dynasty
dz
e
ea
each
eagle
earlier
early
earth
ease
easier
east
eastern
easy
eb
ec
economic
economics
economy
ecuador
ed
edge
edit
editbuttons
edited
editform
editing
edition
editor
editorlink
editormask
editorrib
editors
editparam
edits
editsummary
edmund
edo
eds
edu
education
edward
edwin
ee
eea
eee
ef
effect
effects
efficiency
eg
egypt
egyptian
eh
ei
eid
eight
eighth
einstein
eissn
either
ejective
ek
el
elbasan
election
elections
electorate
electric
electrical
electronic
elem
element
elementary
elements
elevation
eleven
eli
elizabeth
else
elseif
em
emad
email
embargo
emblem
emi
emirates
emit
emotes
empereurs
emperor
empire
empty
en
enable
enabled
enabling
enclosed
encode
encoded
encodeuricomponent
encoding
encyclopaedia
encyclopedia
encyclopædia
end
endash
ending
endpoint
ends
endyear
energy
enforcement
eng
engine
engineering
engines
england
english
enough
ensure
enter
entered
entertainment
entire
entit
entities
entity
entityid
entries
entry
enum
enumerated
env
environment
environmental
enwiki
eo
epic
episode
episodes
epsilon
equal
equality
equals
equation
equivalent
er
era
erbil
erg
eric
ernst
err
error
errors
errortext
es
esc
escape
escaped
esh
especially
essential
est
established
estonia
estonian
et
eta
etal
etc
ethi
ethics
ethiopia
ethiopic
ethnic
ethnologue
etymology
eu
euro
europe
european
ev
eva
evaluate
even
event
events
ever
everest
every
everyone
everything
evidence
evil
evolution
evt
ew
ex
exactly
example
examples
except
exception
exceptions
excerpt
exchange
exclude
exec
exhaust
exhibition
exist
existing
exists
exit
expand
expanded
expandtemplate
expansion
expected
experience
experiment
expiry
explanation
explicitly
explorer
exponent
export
express
expression
ext
extend
extended
extendedconfirmed
extension
extensions
extensiontag
external
extra
extract
extraneous
eye
eyes
ez
ezen
f
fa
faa
face
facebook
fact
factor
facts
fade
fail
failed
failing
fails
failure
fair
faith
falk
fall
fallback
falls
falocalization
false
fame
family
fan
fane
faq
far
fars
fashion
faso
father
fault
faut
fay
fb
fbi
fc
fcc
fd
fdate
fdc
fe
feature
featured
features
feb
february
federal
federation
feedback
feel
feet
feh
female
fene
ferdinand
festival
fetch
fetchlanguagename
few
ff
ffa
ffc
ffd
ffe
fff
ffff
ffffff
fg
fi
fiction
fictional
field
fields
fieldset
fifa
fifth
fifty
fight
figure
figures
file
filename
filenames
files
fill
filled
film
films
filter
filters
final
find
findlang
finds
fine
fingers
finish
finland
finnish
fire
firefox
first
firstchild
firstn
firstvalue
fish
fist
fit
five
fix
fixed
fixes
fj
fl
flag
flags
flash
flat
flex
flight
flip
float
floating
floor
floorplane
flores
florida
flow
fluff
fluid
fly
fm
fmt
fn
fo
focus
folder
folk
folklore
follow
followed
following
follows
fonctions
font
fonts
fontsize
foo
food
foot
football
footballbox
footer
footnote
footnotes
for
force
forces
ford
foreign
form
format
formatcharacters
formatdate
formatentityid
formaterror
formatnum
formats
formatstatements
formatted
formattedbefore
formatter
formatting
former
forms
formula
forrest
forty
forum
forward
fossil
found
foundation
foundationpowered
four
fourth
fox
fr
fra
frac
fraction
frag
fragment
fragments
fraktur
frame
frameless
franc
france
francesco
franchise
francis
francisco
frank
franklin
fre
frederick
free
freedom
french
fricative
friday
friedrich
friendly
friends
frisian
from
front
ft
fu
fuel
fulfulde
full
fullargs
fulltext
fullurl
fullwidth
fully
fun
func
funcname
function
functional
functionality
functions
fund
fur
further
future
fw
fy
g
ga
gadget
gadgets
gal
galaxy
gali
gallery
gallon
game
games
gamma
gan
gap
gar
garden
gas
gauge
gay
gaza
gb
gbaya
gbe
gc
gd
gdi
ge
gem
gen
gender
gene
general
generally
generate
generated
generates
generating
generation
generator
generic
genocide
genre
genres
genus
geo
geographic
geography
geojson
geoloc
geomask
geometry
geonames
george
georges
georgia
georgian
ger
german
germanic
germany
get
getargs
getattribute
getbeststatements
getcallbackparameters
getcode
getcontent
getcontentlanguage
getcurrentframe
getcurrenttitle
getdate
getelementbyid
getelementsbyclass
getelementsbytagname
getelementwithid
getentity
getentityidforcurrentpage
getentityobject
getformparams
getlabel
getmessage
getopt
getpagecontent
getpagetext
getparameters
getparent
getpref
gets
getsitelink
getting
gettitle
geturl
getvalue
getvalueof
gha
ghana
ghost
gi
gid
gif
gim
girl
gis
gish
give
given
gives
giving
gj
gje
gl
glagolitic
glass
glk
global
globals
globalwatchlist
globe
glottal
gm
gmatch
gn
gnu
go
goal
goals
god
gods
goes
going
gold
golden
gondi
gone
good
google
gorie
gories
got
gothic
gov
governance
government
gr
gradient
gram
grammar
grams
gran
grand
grant
grantha
graph
grave
gray
grc
great
greater
greatest
grebo
greece
greek
green
gregorian
gregory
grek
grey
grid
ground
group
groups
grove
growth
gsub
gsw
gt
gu
guarani
guardian
guatemala
guide
guidelines
guinea
guitar
gujarati
gujr
gukansho
gulf
gun
gunjala
gunu
gurch
gurmukhi
guru
gustav
guy
gv
h
ha
had
hah
hai
haitian
half
halfwidth
hall
halloween
hamza
han
hana
hand
handball
handbook
handle
handled
handler
handlers
handles
handling
hands
hang
hangul
hani
hanifi
hans
hant
hanunoo
happen
happy
hard
harpoon
harry
harv
harvard
harvey
haryad
has
hasclass
hash
hasownproperty
haspage
hastings
hat
hatnote
hatran
hau
hauteur
haval
have
haven
having
hawlergov
hayez
haystack
hcci
hd
hdedit
hdl
hdr
he
head
headed
header
headercolor
headers
heading
headings
headline
health
hear
heart
heat
heaven
heavy
hebrew
hectare
hee
heh
height
heinrich
hello
help
helper
helptip
hemisphere
henri
henry
hentaigana
her
herbert
here
heritage
herzegovina
hess
hex
hexagram
hh
hi
hidden
hide
hieroglyph
hieroglyphic
hieuh
high
higher
highest
highland
highlands
hill
hills
him
himalayan
himself
hindi
hindu
hinge
hint
hiragana
his
hist
historia
historic
historical
historique
history
historyparams
hit
hitting
hiv
hl
hlist
hm
hmong
hms
ho
hockey
hold
holding
holds
hollywood
holmes
holt
holy
home
homosexuality
honduras
honey
hong
hook
hooks
hope
horizon
horizontal
horn
horse
horsepower
hospital
host
hostname
hot
hotcat
hotel
hour
hours
house
household
hover
how
howard
however
hp
hr
href
hsb
ht
hth
htm
html
http
https
hu
hua
hub
huggle
hui
huishui
human
hun
hundred
hundredweight
hungarian
hungary
hunter
hwy
hy
hyphen
hyphenated
hyphens
hz
i
ia
ian
iana
iata
ib
ibm
ibn
ibox
ibrahim
ic
ice
ichiran
icon
icons
id
idaho
idea
ideas
idem
identical
identifier
identifiers
identify
identity
ideogram
ideograph
ideographic
idnumber
ids
idx
ie
ietf
if
iframe
ig
igbo
igi
ign
ignition
ignore
ignored
ii
iii
ik
il
ilam
illustrated
illwd
ilo
im
image
imageright
images
imax
imbox
imdb
img
imp
impact
imperial
impgal
implement
implementation
implemented
implements
import
important
imported
impoz
improve
improved
improvements
in
inactive
iname
inappropriate
inc
inch
inches
include
included
includes
including
inclusion
incorrect
increase
increment
indent
independence
independent
index
indexof
india
indian
indiana
indic
indicate
indicator
individual
indo
indonesia
indonesian
industrial
industry
ine
infection
infinity
influence
info
infobox
infoboxes
information
infrastructure
infty
inherit
inherits
inhibitors
init
initial
initialcontrib
initialize
initials
initiative
inline
inner
innerhtml
inout
inprop
input
inputok
inputs
inputyear
ins
inscriptional
insert
insertbefore
inserted
inset
inside
installer
instance
instanceof
instead
institute
instructions
instrument
instrumental
instruments
int
integer
integral
intended
inter
interest
interested
interface
interior
internal
international
internet
intersection
interview
interviewer
interviewers
interwiki
into
intro
introduction
invalid
invented
inventor
inverse
invert
inverted
invisible
invocation
invoke
involved
io
ioc
ion
ios
iota
ip
ipa
ipad
ipairs
iphone
ipv
iq
ir
iran
iranatlas
iranian
iranica
iranicaonline
iraq
iraqi
irc
ireland
irish
iron
is
isaac
isbn
ishida
isis
islam
islamic
island
islands
ismn
isn
isnegative
isnotempty
iso
isodate
isolated
isoname
isonames
isoniazid
isprotected
israel
israeli
issn
issue
issued
issues
istanbul
isxn
it
italian
italic
italicize
italics
italictitle
italy
item
itemid
items
iterate
itneg
its
itself
iu
iucn
iv
ivan
ivoire
iw
ix
j
ja
jack
jacob
jacques
jamaica
james
jan
jane
january
japan
japanese
japon
java
javanese
javascript
je
jean
jeem
jeffrey
jersey
jet
jewish
jfm
jha
ji
jim
jimare
jin
jinno
jlabel
jo
joan
job
joe
johan
john
johnson
join
joiner
joins
joint
jonathan
jones
jongseong
jor
jordan
jose
joseph
jour
journal
journey
jp
jpeg
jpg
jquery
jr
js
json
jsp
jstor
ju
juan
judeo
jul
julia
julian
july
jump
jun
june
jung
jungseong
jupiter
just
justice
justin
jv
k
ka
kaf
kaithi
kak
kalinga
kan
kana
kangxi
kani
kanji
kannada
kano
kara
karen
karl
kartographer
katakana
kayah
kayan
kazakhstan
kb
kc
kcal
kd
kde
kdenlive
ke
keeni
keep
keeping
ken
kenya
kepler
kept
kern
kev
key
keyboard
keycode
keys
keyword
keywords
kf
kg
kgf
kh
kha
khah
khan
kharoshthi
khmer
khojki
khoy
khudawadi
ki
kid
kikakui
kill
killed
kilogram
kilograms
kilometer
kilometers
kilometre
kim
king
kingdom
kingdoms
kings
kit
kiyeok
kj
kk
kl
km
kn
knda
knight
knn
know
knowledge
known
ko
kok
komi
kong
korea
korean
kosovo
kpa
kr
krd
krso
ks
kt
ku
kur
kurd
kurdi
kurdipedia
kurdish
kurdishcharacters
kurdishwikitools
kurdistan
kurds
kurumba
kushared
kuwait
kv
kw
kwh
ky
kyoto
kyrgyzstan
l
la
lab
label
labelorid
labels
labor
labour
labplot
lad
lady
lagab
laing
lak
lake
lam
lambda
lamp
lan
land
lands
landscape
lane
lang
langcode
langobj
langpref
language
languagecode
languages
langue
lanka
lao
laoo
large
larger
largest
las
laser
last
lastn
lat
late
later
lateral
latest
latin
latitude
latn
latvia
launch
law
lawrence
lay
laydate
layout
laysource
laysummary
layurl
lazily
lazy
lb
lbf
lbl
lbmol
lc
lccn
lclz
ld
ldots
le
lead
leader
leaders
leadership
leading
leaf
league
leap
learn
learning
least
leave
led
lee
left
leftwards
leg
legacy
legal
legend
legs
len
leng
length
leni
lens
leo
lepcha
leq
les
less
let
letter
letters
level
levels
lewis
lg
lhs
li
liberal
liberation
liberty
library
libraryutil
libya
license
lie
lien
life
ligature
light
ligne
lignes
like
likely
lim
limbu
limit
limite
limited
limits
line
linear
linecons
linen
lines
linestring
linguistic
link
linkcurrent
linked
linkedarticle
linkfunctions
linking
linkprev
links
linktext
linux
lion
liquid
list
liste
listed
listing
lists
listtotext
lisu
lit
liter
literal
literary
literature
lithuania
lithuanian
litre
little
liu
live
livepreview
liverc
livercpreviewdisplayed
living
lk
ll
lm
ln
lng
lnk
lo
load
loaddata
loaded
loader
loading
loc
local
localdata
locally
located
location
locations
lock
locs
log
logged
logic
logical
logo
logpage
lon
london
long
longer
longitude
look
looking
looks
lookup
loop
lord
los
loss
lost
lot
louis
love
loves
low
lower
lowercase
lp
lrcaddtohistory
lrcbandeauportail
lrccloseall
lrcdisablelink
lrcdisplaydebug
lrcescapestr
lrcgetpageurl
lrcgetuglypageurl
lrchasstate
lrchistory
lrcicon
lrcinittableheight
lrcmanageparamstext
lrcparams
lrcpatrollnk
lrcstripstring
lrctimeout
lrcupdatebutton
lrcuserhasright
lstcontact
lstsuivi
lstsuividata
lt
ltd
ltf
ltr
lu
lua
lue
lui
luis
lum
lunar
luo
luxembourg
lv
ly
lycian
lydian
lyrics
m
ma
mac
macedonia
mach
machine
macmillan
macrolanguage
macron
mad
made
madrid
mag
magazine
magic
magnetic
magnitude
mahajani
mahjong
mai
mail
mailing
main
maindate
mainly
mainsnak
maint
maintain
maintenance
major
majority
makasar
make
makes
makeurllink
makewikilink
making
maksura
mal
malagasy
malawi
malay
malayalam
malaysia
male
mall
man
management
manageparams
manager
manchu
mandaic
manga
mangels
manichaean
manobo
manual
manually
many
map
mapframe
maps
mar
marc
march
marchen
margaret
margin
marguments
mari
maria
marie
marino
mark
marked
marker
market
marks
markup
marmzok
mars
marshall
martial
martin
marvel
marx
mary
masaram
mashan
mask
mass
massachusetts
master
match
matches
matching
material
materials
math
mathbb
mathbf
mathematical
mathematics
mathrm
matrix
matter
max
maximum
maxvals
may
maya
mayan
maybe
mayek
mazatec
mb
mbc
mbox
mbtu
mc
mcal
mcu
md
mdy
me
mean
meaning
means
measurement
mechanical
med
medal
medefaidrin
media
medial
mediawiki
medical
medici
medicine
medicines
medieval
medium
meem
meet
meetei
meeting
meetings
member
members
memorial
memory
men
mende
mental
menu
menucontent
mercury
merge
meroitic
merriam
message
messagebox
messages
messina
met
meta
metadata
metal
metatable
meter
method
methods
metre
metric
metro
metropolitan
mexican
mexico
mf
mfd
mg
mh
mhatnote
mi
miao
michael
michałowski
michigan
microformat
microformats
microsoft
mid
middle
middleeast
middleton
mie
mieum
might
migration
mike
mikhail
mil
milan
mile
miles
military
millennium
miller
million
mimetypes
min
mind
mine
minerva
mini
minimum
minister
ministry
minor
minus
minute
minutes
miranda
mirror
miscategorization
mise
mismatch
missile
missing
mission
missouri
mit
miwok
mixe
mixed
mixtec
mj
mk
ml
mln
mm
mmbtu
mmm
mmmm
mn
mnc
mo
mobile
mod
mode
model
modern
modi
modif
modification
modified
modifier
modify
modifytime
module
modules
mohammad
mohammed
mol
molar
moldova
mole
molecular
moles
moment
mon
money
mong
mongolia
mongolian
monitor
monkey
mono
monobook
monospace
montana
montenegro
month
monthly
months
monuments
moon
more
morebits
morocco
mos
moscow
mosque
most
mostly
mosul
mother
motion
motor
mount
mountain
mountains
mouse
mouth
move
moved
movement
movements
moves
movie
movies
moving
moz
mozambique
mp
mpa
mpgus
mph
mr
mri
mro
ms
msg
mshared
mt
mtabletools
mtavruli
mtext
mu
much
muhammad
muhammed
mult
multani
multi
multilingual
multiple
multiplier
municipalities
murder
muromachi
murray
museum
music
musical
muslim
must
mw
my
myanmar
mythology
mzn
n
na
nabataean
nabla
naga
nagri
nah
nahuatl
nam
name
named
namelist
names
namespace
namespaces
naming
nan
nandinagari
narrow
nasa
nasal
nation
national
nationalism
nationality
nations
native
nativetitle
natural
nature
nav
naval
navbar
navbox
navchild
navframe
navigation
navigational
navigator
navpop
navpopup
navseasoncats
nb
nba
nc
ncbi
nd
ndates
nde
ndebele
nds
ne
near
nearest
necessary
need
needed
needle
needs
negative
neither
nelson
nen
neo
nepal
neq
nes
nested
net
netherlands
network
neutral
nevada
never
new
newa
newcomers
newinput
newline
newlines
newoption
newrawmessage
news
newsgroup
newsletter
newspaper
newspapers
newuser
newwin
next
nextsibling
ng
nga
nh
ni
nicaragua
nicholas
nieun
niger
nigeria
night
nih
nihon
nihongo
nikolay
nil
nimrud
nin
nine
ninety
ninka
ninth
nko
nl
nlm
nm
nmi
nn
nna
no
noaliases
nobel
nocat
nocreate
node
nodename
nodes
nodescription
nodevalue
noeditsection
noflip
noicon
nolabel
nolink
nom
nombre
non
none
noon
nopp
nor
noref
normal
normalize
normally
norman
north
northeast
northern
northwest
northwestern
norway
norwegian
not
notation
note
notes
notfound
nothing
notice
noticeboard
notices
notification
notifications
notify
notifytext
notoc
noun
nov
novalue
novel
november
now
nowiki
nowrap
nozzle
nr
nrt
ns
nt
nth
nu
nuclear
null
num
number
numbered
numberol
numbers
numconv
numdot
numeral
numerals
numerator
numeric
numerical
numparts
nums
numsep
numstr
numval
nun
nushu
nussbaum
nv
nw
ny
nya
nyiakeng
nytimes
o
ob
obj
object
objects
objetxml
oblast
oc
oca
occidental
occurs
ocean
oceania
och
ocinsoutput
oclc
oct
october
od
odd
odyssey
oe
of
off
office
official
offset
often
ogg
ogham
oh
ohv
oil
ois
oj
ojibwa
ok
okinput
ol
old
older
oldid
oldtext
olympic
olympics
om
ombox
omega
omicron
omit
omitted
on
once
onclick
one
onepage
ones
onfailure
online
only
onlysourced
onselect
onsuccess
ontario
oo
op
opacity
open
opened
opening
openstreetmap
opera
operating
operation
operations
operator
operatorname
opinion
ops
opt
optical
option
optional
options
or
oral
orange
order
ordered
ordinal
oregon
org
organic
organisation
organization
organized
oriental
orig
origargs
origin
original
originalairdate
originally
origink
origins
oriya
orkhon
ornament
orogenic
orthodox
orya
os
osage
osm
osmanya
osti
ot
other
others
otherwise
otomi
otto
ottoman
ou
our
out
outer
outinfo
outline
outlined
output
outputs
outside
outvalue
over
overflow
overlay
overline
override
overrides
overview
own
owner
oxford
oxia
oz
p
pa
pacific
package
pad
padding
padlock
pag
page
pageid
pagename
pagenamenorm
pagenamespacenumber
pageobj
pages
pagetext
pagetitle
pagetype
pahawh
pahlavi
painting
pair
pairs
pakistan
palace
palatal
palestine
palestinian
palmyrene
pam
pamirs
pan
pandemic
panel
panorama
pap
paper
papers
papua
par
para
paradise
paragraph
paraguay
parallel
paralympic
param
parame
parameter
parameters
parammenu
params
paramsinurl
paramsparam
parens
parent
parentargs
parentheses
parenthesis
parenthesized
parentnode
pargs
paris
park
parliament
parm
parms
parse
parsed
parseinput
parseint
parseparam
parser
part
parthian
parti
partial
participants
participate
participated
participation
particular
partido
parties
parts
party
pas
pass
passed
passenger
passes
passport
password
past
patent
path
patrick
patriotic
patrol
pattern
patterns
pau
paul
pause
pc
pcall
pd
pdf
pe
peace
pearl
pedro
pen
pencil
pending
penguin
peninsula
penis
pennsylvania
people
peoples
per
percent
percentage
performance
performed
period
periodical
periods
perispomeni
permic
persia
persian
person
personal
perspective
peru
pet
peter
petra
pf
pframe
pg
ph
pha
phab
phabricator
phags
phaistos
phase
phi
phil
philadelphia
philip
philippine
philippines
philosophy
phoenician
phoenix
phone
photo
photography
photos
php
phrase
physical
physics
physiology
pi
pick
picture
pictures
pid
pidgin
pie
piece
pierre
pieup
pine
pink
pinyin
pioneer
pipe
pirate
pixels
pk
pkk
pl
place
placed
placeholder
placement
places
plain
plainlinks
plan
plane
planet
planned
plans
plant
plantilla
plants
plasma
plateau
platform
play
player
playing
playlist
please
plot
plr
plural
plus
pm
pmc
pmid
pn
png
po
podcast
poems
poet
poetry
point
pointed
pointer
pointing
points
poland
police
policy
polish
political
politics
polo
poly
pomo
ponsonby
pop
pope
popoloca
popular
population
popup
popups
popupstring
por
port
portail
portal
portals
portion
portlet
portrait
portugal
portuguese
pos
position
positional
positions
positionsouris
positive
possible
possibly
post
postarti
postcondition
posted
postfix
posthumous
postscript
potential
pound
pounds
pour
pow
power
powered
pp
ppp
pr
pra
practice
pre
prec
preceded
preceding
precision
precondition
pref
prefer
preference
preferences
preferred
prefervalue
prefix
prefixed
prefixedtext
prefixes
preload
premier
prepared
prepend
preprocess
preprocesssinglearg
present
presentation
preset
president
presidential
press
pressure
preunit
prev
prevendyear
prevent
preventdefault
preview
previewdiv
previews
previewwindow
previous
previously
primarily
primary
prime
prince
princess
princeton
principles
print
printed
prio
prior
priority
prison
privacy
private
prize
pro
probably
problem
problems
process
processed
processing
prod
produced
produces
product
production
products
professional
profile
program
programming
progress
progressive
project
projects
pronunciation
proof
prop
proper
properly
properties
property
propertyid
proposal
proposals
propose
proposed
props
prose
prote
protect
protected
protection
protectionlevels
protectionobj
protein
proto
protocol
prototype
proveit
provide
provided
provides
province
provinces
provincia
ps
psalter
psi
psili
psychology
pt
ptr
pu
puachue
pub
public
publication
publications
published
publisher
publishers
publishing
pubmed
puebla
puerto
pump
punctuation
pure
purge
purple
purpose
purposes
push
pushpin
put
putting
pv
pwo
px
q
qa
qaf
qatar
qid
qlinker
qp
qq
qquad
qu
qua
quad
quadrant
qual
qualid
qualifier
qualifiers
quality
quall
quals
quarter
que
quechua
queen
query
question
questions
qui
quichua
quick
quickform
quotation
quote
quoted
quotes
qxz
r
ra
race
rad
radiation
radical
radio
radius
rafael
rail
railway
railways
raised
ralttitle
ram
ran
random
range
ranges
rank
ranking
ranks
rate
rather
rating
ratings
ratio
ration
rationale
raw
rawget
rawset
ray
raymond
rc
rcrd
rd
re
reach
reached
reaction
read
reader
readers
reading
ready
real
really
reason
reasons
receive
received
recent
recentchanges
recently
recognized
recommended
record
records
recreate
rect
recurrent
red
redir
redirect
redirected
redirects
redirecttype
reduce
redundant
ref
refer
reference
references
refers
reff
reflist
refs
regardless
regex
regexp
region
regional
regions
registered
registration
regular
reh
rejang
related
relation
relations
relative
release
released
relevant
relief
religion
religions
religious
reload
remap
remember
removal
remove
removechild
removeclass
removed
removes
removing
ren
renaissance
render
rendered
rendering
renders
renommagecategorie
rep
repeat
repeated
replace
replacechild
replaced
replacement
replacements
replaces
reply
report
reported
reports
represent
representation
representing
represents
repu
republic
republican
req
reque
request
requested
requests
require
required
requirements
requires
res
research
reserved
reset
resolution
resource
resources
response
responsexml
respublika
rest
result
results
resume
ret
retrieve
retrieved
retroflex
return
returned
returns
retval
reuters
rev
reverse
reversed
revert
reverted
revertinput
revertmessagesextension
revertselect
revid
review
reviewer
reviews
revised
revision
revisiondelete
revisions
revolution
revolutionary
rfc
rft
rho
rhs
ri
ric
rica
richard
rico
ridge
rieul
rifampicin
rifle
right
rightarrow
rights
rightwards
ring
rio
rise
risk
river
rk
rkiye
rl
rm
rn
rna
ro
roa
road
robert
robin
robinson
roc
rock
rocket
rod
roger
rogers
rohingya
role
rollback
rolling
rom
romaji
roman
romance
romani
romania
romanian
romanization
rome
ron
ronaldo
room
root
rose
rotated
rotation
roth
round
rounded
rounding
rounds
route
routledge
row
rowargs
rows
rowspan
royal
rpm
rr
rs
rt
rtitle
rtl
ru
rudaw
rugby
rule
ruler
rulerend
rulerlink
rulerstart
rules
rumi
run
runhooks
runic
running
rup
rural
rus
russell
russia
russian
rvprop
ry
s
sa
sabah
sabri
sad
saddam
safe
safety
sag
saharan
sai
said
saint
sakura
sal
salt
salvador
sam
samaritan
same
sami
samoa
samson
samsung
samuel
san
sand
sandbox
sans
santa
sar
sara
sardinian
sarhan
sars
sat
satellite
saturn
saudi
saurashtra
save
saved
saving
say
says
sb
sc
scale
scaled
scales
scan
scbisie
schedule
scheme
school
science
sciences
scientific
scientist
scientists
sco
scope
score
scotland
scott
scottish
scr
screen
screenshot
scribunto
script
scriptcode
scripts
scroll
scrolltop
sd
se
sea
seal
search
searchengvar
searches
season
seasonnumber
seasons
seat
seats
sec
second
secondary
seconds
secret
secretary
sect
section
sections
security
see
seed
seems
seen
segment
sel
select
selected
selection
selector
self
selfref
semi
semicolon
sen
send
senior
senoufo
sense
sent
sentence
sep
separate
separated
separately
separator
separators
sepc
september
sequence
sequential
ser
serbia
serbian
serchia
serial
series
serif
serra
seru
serve
server
service
services
serving
session
set
setattribute
setcallbackparameters
setcreateoption
seteditsummary
setfollowredirect
setmetatable
setpagetext
setranks
sets
settimeout
setting
settings
settlement
setwatchlist
setwatchlistfrompreferences
seven
seventh
seventy
several
sex
sexual
sf
sfn
sg
sgn
sh
sha
shadow
shaft
shah
shan
shanghai
shape
sharada
share
shared
shark
shavian
she
sheen
sheet
sheets
shell
sherlock
shi
shield
shift
shin
ship
sho
short
shortcut
shortcuts
shortname
should
show
showerrs
showing
shown
shows
shtml
shu
si
siberian
sibilant
siddham
side
sidebar
sierra
sig
sigfig
sigma
sign
signal
signature
significant
signs
signwriting
silla
silver
similar
simon
simple
simpledebug
simpleicons
simplewindow
simplified
simply
sin
since
sing
singapore
single
singles
singular
sinh
sinhala
sinjar
sios
sir
sister
site
sitelink
sitelinks
sites
six
sixth
siyaq
size
sizing
sk
skating
ski
skin
skins
skip
sky
sl
slang
slanted
slash
slavic
slavonic
sld
slice
slk
slovakia
slovenia
sm
small
smaller
smith
sn
snak
snaks
snaktype
snap
snippet
snippets
snow
so
soc
social
socialism
socialist
society
sodium
soft
software
sogdian
solar
solid
solidarity
solomon
solution
som
some
someone
something
sometimes
sompeng
son
song
songs
sons
sony
soo
soon
sopranos
sopt
sora
sorani
sorry
sort
sortable
sorted
sorting
sortingproperty
sortkey
sound
soundfile
source
sourced
sources
south
southeast
southeastern
southern
southwest
southwestern
sovereigns
soviet
soyombo
sp
spa
space
spaces
spacex
spacing
spain
spam
span
spanish
spark
speaker
speaking
spec
special
specialtabs
species
specific
specifically
specified
specifies
specify
specifying
speech
speed
speedy
spell
spelled
spelling
spin
spirit
split
spoken
sport
sports
spread
spring
springer
spy
sq
sqft
sqkm
sqmi
sqrt
squad
square
squared
sr
src
sri
ss
ssa
ssrn
st
stable
stack
stadium
staff
stage
stanbul
stand
standard
standards
stanford
stanley
star
stars
start
started
starting
startpoint
starts
startyear
stat
state
statelem
statement
statements
states
static
station
stations
statistical
statistics
stats
statue
status
statuscheck
statuselement
stay
std
steam
stem
step
stephen
steve
steven
stf
sticky
still
stm
stock
stokes
stone
stop
storage
store
stored
stories
storm
story
str
straight
strain
strait
strange
strategy
street
strength
stress
strict
string
strings
strip
stripmarker
stripmarkers
stripped
striptonil
stroke
strong
struck
structure
structures
stub
studies
studio
studios
study
stuff
style
styles
styling
su
sub
subdivision
subdivisions
subdivs
subgroup
subject
subjectlink
subjects
subjectspace
subjoined
submit
submodules
subpage
subpages
subscribe
subscript
subscription
subset
subst
substitute
substituted
substr
substring
subtag
subtags
subtitle
subunit
success
successful
such
sudan
suffix
suggest
suggested
suggestion
suggestions
suivi
sum
sume
summary
summaryad
summarytext
summer
sun
sundanese
sunday
sup
super
superscript
supp
supplement
supplied
supply
support
supported
supporting
supports
suppress
suppressed
suppression
supprimer
sur
sure
surface
surgery
surname
survey
sv
svg
sw
sweden
swedish
swiss
switch
switzerland
syllabics
syllable
syloti
sym
symbol
symbols
syndrome
syntax
syria
syriac
syriaca
syrian
sysop
syste
system
systems
t
ta
tab
tablangue
table
tablei
tables
tabletools
tabs
tack
tae
tag
tagalog
tagbanwa
tagged
tagging
tagname
tags
tah
taha
tai
tail
taipei
taiwan
tajikistan
tak
take
taken
takes
taking
takri
tale
tales
talk
talkback
talkpage
tall
tally
tamil
taml
tan
tang
tangut
tank
tanzania
tar
tarask
target
targetdiv
targeted
targets
targs
task
tasks
tasmanian
tat
tau
tawgozy
taxobox
taxon
taxonbars
taxonomy
taylor
tb
tbl
tbody
tc
tchat
tcommon
td
te
team
teams
tech
technical
technology
ted
teh
teke
telegraph
telephone
telescope
television
tell
telu
telugu
temp
tempar
temperature
template
templateargs
templatedata
templateeditor
templatename
templatepar
templates
templatestyles
templatetitle
temple
temporary
ten
tens
tenu
term
terminal
terms
territory
tes
test
testament
testcases
tested
testing
tests
tet
tetragram
texas
text
textarea
texte
textes
texts
tf
tfd
tfrac
tg
tgentry
th
tha
thaana
thai
thailand
tham
than
thank
thanks
that
the
theatre
theguardian
their
them
theme
then
theory
therapy
there
therefore
thermal
thermochemical
these
thesis
thestar
theta
they
thing
things
think
thinking
third
thirty
this
tho
thomas
thompson
those
though
thought
thousand
three
through
throw
thumb
thumbnail
thursday
thus
ti
tibetan
tid
tie
tifinagh
tikeut
tilde
tile
till
time
timeline
times
timestamp
timev
timezone
timor
tip
tirhuta
title
titleobj
titles
titletype
titsingh
tj
tk
tl
tld
tm
tmbox
tmp
tn
tnt
tnttab
to
tobago
toc
today
todo
together
toggle
token
tokens
tokyo
tolowercase
tom
tomb
ton
tone
tonga
tonne
tonumber
too
tool
toolbar
tools
tooltip
tooltips
top
topic
topics
tor
toronto
torque
tortoise
tostring
tot
total
totonac
tour
tourism
towards
tower
town
tp
tr
tra
track
tracking
tracks
trade
tradition
traditional
traditions
traffic
trailing
train
training
traitement
trans
transcluded
transcript
transcription
transcripturl
transfer
transform
transit
transition
transl
translate
translated
translatewiki
translation
translations
translator
translators
translit
transliteration
translittitle
transparent
transport
transtitle
travel
tre
treated
treatment
treaty
tree
tres
trial
triangle
tried
trigger
trim
trimarg
trimmed
trinidad
triple
trudeau
true
trump
trust
trustees
truth
try
ts
tsa
tt
tta
ttc
ttha
tu
tube
tunisia
tur
turbine
turkey
turkic
turkish
turks
turn
turned
turtle
tv
tw
twelve
twenty
twinkle
twinkleconfig
twitter
two
txt
ty
type
typeof
types
typically
tz
u
ublock
ubuntu
uc
ucfirst
ucoc
ucode
ud
udeletedcontrib
ue
uefa
ug
uganda
ugaritic
ui
uid
uk
ukraine
ul
ultra
ulx
um
un
una
uncertainty
und
undefined
under
underline
understand
understanding
undo
une
unesco
unicode
unified
union
unique
unit
unitcode
united
units
unity
universal
universe
university
unix
unknown
unless
unlink
unnamed
unpack
unrecognized
unreviewed
unrounded
unset
unsourced
unsubscribe
until
unwatch
up
update
updated
updatepreviewwindowattributes
updates
upload
uploads
upon
upper
uppercase
upright
upsilon
upwards
ur
urban
uri
url
urls
urlx
urmia
uru
uruguay
us
usa
usability
usage
usdrygal
use
used
useful
uselang
usename
user
userbox
userboxes
userlanguage
userlinks
username
userpage
users
userspace
usertalk
usertalkpage
uses
usgal
using
usoz
ustring
usual
usually
utah
utc
utf
util
utilisateur
utilisateurs
utilities
utype
uu
uvular
uw
uz
uzbekistan
v
va
vaccinated
vaccine
vah
vai
val
valeur
valid
validate
validation
valinfo
valley
vals
value
valuematcher
values
valuesi
valve
vampire
van
vanc
vancouver
vandalism
vanuatu
var
varia
variable
variables
variant
variants
variation
variations
variety
various
varley
varphi
vas
vatican
vauthors
vdots
ve
vec
vector
vedic
veditors
vegan
vegetarian
vehicle
velar
venezuela
venus
verified
vers
version
versions
vertical
very
vessel
vgnvcm
vgwd
vi
via
victor
victoria
video
vie
viet
vietnam
vietnamese
view
viewed
viewer
viewers
views
vii
viii
village
vincent
virama
virgin
virginia
virtual
virus
visarga
visibility
visible
vision
visit
visitpetra
visual
visualeditor
visualisation
vital
vladimir
vo
vocal
vocalic
vocation
voice
voiced
voiceless
void
vol
volleyball
volume
volunteer
volunteers
von
vote
votes
voting
vowel
voyager
vs
vv
w
wa
wales
wall
wallplane
walter
wancho
wang
want
wanted
war
warang
warfare
warn
warning
warnings
wars
was
washington
watch
watched
watchlist
watchlistexpiry
water
watson
watt
wave
waw
way
wayback
ways
wd
we
weapons
weather
web
webarchive
webkit
website
webster
wednesday
week
weekly
weeks
wei
weight
welcome
well
welsh
wen
were
west
western
wgaction
wgformattednamespaces
wgnamespacenumber
wgpagename
wgrelevantusername
wgscript
wgscriptpath
wgserver
wgtitle
wgusername
what
whatever
whatlinkshere
wheel
when
where
whether
which
while
white
whitelist
whitelistpage
whitespace
who
whole
wholestr
whose
why
wi
wide
width
wife
wik
wiki
wikibase
wikibooks
wikidata
wikidataib
wikilink
wikilinked
wikilinks
wikimania
wikimapia
wikimedia
wikinews
wikipage
wikipe
wikipedia
wikipedias
wikiproject
wikiquote
wikis
wikisource
wikitable
wikitext
wiktionary
wild
wiley
wilhelm
will
william
williams
win
wind
window
windows
winner
winners
wins
winter
wisconsin
wish
wishes
wishlist
with
withdate
within
without
wl
wlink
wmf
wo
wolf
woman
women
won
word
words
work
workers
working
works
world
worldcat
worldwide
would
wp
wpajax
wpcleaner
wps
wptextbox
wrap
wrapped
wrapper
wrappers
wrestling
wright
write
writer
writers
writing
written
wrong
ws
wu
wwe
wwf
www
wyoming
x
xa
xaa
xab
xd
xe
xf
xfa
xfb
xfc
xfd
xfdtarget
xfe
xff
xg
xi
xico
xls
xml
xmlhttp
xmlreq
xsampa
xv
xx
xxx
xxxxors
xy
y
ya
yahoo
yale
yan
yang
yard
yayınları
yazidis
yd
ye
year
yearbc
years
yeh
yellow
yemen
yenisei
yerevan
yes
yesno
yet
yi
yiddish
ym
ymd
ymdhm
ymdhms
yo
york
you
young
your
youth
youtube
ypogegrammeni
yr
yu
yuan
yue
yugoslavia
yukon
yupik
yus
yy
yyy
yyyy
z
za
zam
zambia
zamoyski
zanabazar
zapotec
zbl
ze
zealand
zero
zeros
zh
zha
zhuang
zimbabwe
zinh
zo
zone
zones
zoo
zoom
zu
zyyy
{
|
}
~

¡
¢
£
¤
¥
§
©
«
¬
­
®
°
±
²
³
´
µ
¶
·
¹
»
¼
½
¾
¿
×
ß
æ
ð
÷
ø
þ
đ
ħ
ı
ŀ
ł
ŋ
œ
ƒ
ƿ
ǀ
ǁ
ǂ
ǃ
ɏ
ɐ
ɑ
ɒ
ɔ
ɕ
ɖ
ɘ
ə
ɛ
ɜ
ɞ
ɟ
ɡ
ɢ
ɣ
ɤ
ɨ
ɪ
ɬ
ɭ
ɯ
ɰ
ɲ
ɳ
ɴ
ɵ
ɶ
ɸ
ɹ
ɻ
ʁ
ʂ
ʃ
ʇ
ʈ
ʉ
ʊ
ʌ
ʎ
ʏ
ʐ
ʑ
ʒ
ʔ
ʕ
ʖ
ʗ
ʘ
ʝ
ʟ
ʡ
ʢ
ʰ
ʱ
ʲ
ʷ
ʷː
ʷːː
ʷˑ
ʻ
ʼ
ʾ
ʿ
ˀ
ˈ
ˌ
ː
ːː
ˑ
˔
˕
˖
˗
˞
ˤ
̀
́
̂
̃
̄
̅
̆
̇
̈
̉
̊
̋
̌
̍
̏
̑
̓
̔
̛
̜
̝
̞
̟
̠
̣
̤
̥
̦
̧
̨
̩
̪
̫
̬
̮
̯
̰
̱
̲
̵
̸
̹
̺
̼
̽
̿
͂
ͅ
͍
͜
͞
͡
α
β
γ
δ
ε
ζ
η
θ
ι
κ
λ
μ
ν
ξ
ο
π
ρ
ς
σ
τ
υ
φ
χ
ψ
ω
ϕ
а
б
в
г
д
е
еж
ж
з
и
к
л
м
н
на
о
п
р
с
т
у
ф
х
ч
часть
шаблон
ы
ьту
я
є
і
ә
֏
ְ
ִ
ֵ
ֶ
ַ
ָ
ֹ
ּ
ׁ
ׂ
א
ב
ד
ה
ו
ח
י
כ
ל
ם
מ
ן
נ
צ
ר
ש
ת
،
؛
؟
ء
ا
اء
اب
اباجالی
اباد
ابادی
ابدا
ابراھیم
ابن
ابو
ابوری
ابوور
ابوورزانانی
ابوورناسی
ابووری
ابووریدا
ابووریزانی
ابووریی
ابوورییە
ابوورییەوە
ابوورییەکان
ابوورییەکانی
ابی
ابێ
اة
ات
اتاتورک
اتر
اتلانتیک
اث
اج
اح
احمد
اخ
اخافتن
اخاوتن
اخاوتنی
اخر
اخری
اخرین
اخکەنی
اخۆ
اخێو
اخێوەرانی
اد
ادا
اداب
ادابی
اداری
ادانا
اده
ادۆڵف
ادی
ادیەمان
ادەخان
ادەم
ادەمز
ادەمی
ادەمیزاد
اذ
ار
ارا
ارادا
ارارات
اراس
اراستە
اراستەی
ارام
ارامی
ارامیی
اران
اراوە
اراگۆن
ارت
ارتی
ارتەر
ارجەنتین
ارجەنتینی
ارد
اردی
ارسناڵ
ارسیناڵ
ارسەر
ارنۆڵد
ارنێ
ارووناوا
ارژەنتین
ارگۆن
ارۆ
ارۆن
اری
اریا
اریان
اریکاریی
ارێنت
ارەزوو
ارەزوومەندانە
ارەزووی
از
ازا
ازاد
ازادانە
ازادبوونی
ازادن
ازادڕەوەکان
ازادکرا
ازادکران
ازادکردنی
ازادی
ازادیان
ازادیی
ازادییە
ازادە
ازادەکان
ازار
ازاردا
ازاردان
ازاردانی
ازاری
ازاریان
ازارێکی
ازارە
ازارەوە
ازارەکانی
ازارەکە
ازاڤەیسی
ازایەتی
ازیز
ازەر
ازەربایجان
ازەربایجاندا
ازەربایجانی
ازەری
ازەرین
ازەرییە
ازەرییەکان
ازەرییەکانیەکان
ازەریەکان
اس
اسا
اسان
اسانتر
اسانترین
اسانترە
اسانکاری
اسانکردنی
اسانی
اسانە
اسای
اسایش
اسایشی
اسایی
اساییانە
اساییدا
اساییی
اسایییە
اساییە
اساییەکان
اساییەکانی
است
استان
استی
استێک
استێکی
استە
استەنگ
استەنگی
استەکانی
استەی
اسلامی
اسم
اسمان
اسماندا
اسمانی
اسمانیی
اسمانییە
اسمانییەکان
اسمانییەکانی
اسمانیەکان
اسمانەوە
اسن
اسنی
اسنین
اسنینی
اسوودەیی
اسک
اسکان
اسکی
اسکە
اسۆ
اسۆی
اسۆیی
اسیا
اسیادا
اسیاوە
اسیای
اسیایی
اسیایییەکان
اسیایە
اسەواری
اسەوارە
اش
اشت
اشتی
اشتیانە
اشتیپارێز
اشتیی
اشنا
اشنای
اشنایەتی
اشور
اشوری
اشورییەکان
اشوور
اشووری
اشوورییەکان
اشوورییەکانی
اشووریەکان
اشکرا
اشکراکرد
اشکراکردن
اشکراکردنی
اشکرای
اشکرایی
اشکرایە
اشی
اص
اض
اط
اطلاعات
اطلع
اع
اعلام
اغ
اغا
اغاج
اغاکان
اغاکانی
اغای
اغبولاغ
اغبوڵاغی
اغجەلەر
اغدەرەی
اغچەلی
اف
افره
افرەت
افرەتان
افرەتانی
افرەتی
افرەتێک
افرەتێکی
افرەتە
افەرین
اق
اقاری
اك
ال
الا
الاسرار
الاسکا
الافزەل
الان
البانی
البانیا
البتراء
البخاري
البيطار
البێر
البێرت
الت
الثقافة
الجامع
الحديث
الحسن
الد
الدكتور
الدين
الدین
الذ
الر
الرحمن
الرسالة
الز
الس
السيرة
الش
الشطنوفي
الشيخ
الص
الصلاة
الض
الط
الطب
الطبعة
الظ
العراق
العرب
العربي
العربية
العلم
العلوم
العمل
الفا
الفرێد
الفكر
القادرية
القاهرة
القرا
الكنيسة
الكيلاني
الل
الله
اللە
الم
المسار
المعارف
المغرب
المو
الن
الناس
النبلاء
النبوية
النبي
الوودەبوون
الپ
الی
الەگوێزی
ام
اماده
امادە
امادەبوو
امادەبووان
امادەبووانی
امادەبوون
امادەبوونی
امادەبێت
امادەم
امادەن
امادەکاری
امادەکاریی
امادەکراوە
امادەکرد
امادەکردن
امادەکردنی
امادەی
امادەیی
امادەییی
امادەیە
امار
اماری
امارێکی
امارە
امارەکان
امارەکانی
امان
امانج
امانجی
امانجیان
امانجێکی
امانجە
امانجەکان
امانجەکانی
امانجەکەی
اماژه
اماژە
اماژەت
اماژەدان
اماژەم
اماژەمان
اماژەن
اماژەکردن
اماژەی
اماژەیان
اماژەیە
اماژەیەک
اماژەیەکی
اماژەیەکە
امراز
امرازی
امرازێک
امرازێکی
امرازێکە
امرازە
امرازەکان
امرازەکانی
امرازەکە
امریکا
اموون
امۆزا
امۆزاکەی
امۆزای
امۆل
امۆژگاری
امۆژگاریی
امۆژگارییەکانی
امین
امینە
امێدی
امێر
امێرانە
امێرانەی
امێری
امێرێک
امێرێکی
امێرێکە
امێرە
امێرەکان
امێرەکانی
امێرەکە
امێرەکەی
امێز
امێزی
امەد
ان
انا
اناتۆلیای
انافیلاکسی
انتارکتیکا
انتشارات
انتوان
انتۆن
انتۆنی
انتی
انتیگوا
انتەپ
انجلەس
انجۆ
اند
اندا
اندرو
اندرێ
اندی
انری
اننا
انگ
انگلیسی
انۆد
انی
انییەکان
انە
اه
اهەنگی
او
اوا
اوابوون
اوابوونی
اوات
اواتی
اوادا
اوارە
اوارەکان
اوارەکانی
اوارەی
اوارەیی
اواز
اوازدانان
اوازدانەر
اوازدانەران
اوازدانەرانی
اوازدانەری
اوازدانەرێکی
اوازدانەرە
اوازی
اوازێکی
اوازە
اوازەکانی
اواش
اوان
اواوە
اوای
اوایی
اواییەکان
اوایە
اوباریک
اوبارە
اوت
اودا
اودان
اودانان
اودی
اودێری
اوریشم
اورەنگزێب
اوسان
اوسانی
اول
اووھەوا
اووھەوای
اوھا
اوی
اویان
اویی
اوییە
اوییەکان
اوییەکانی
اوێتە
اوێتەکان
اوێتەی
اوێنە
اوێنەی
اوێکی
اوە
اوەدان
اوەدانکردنەوە
اوەدانکردنەوەی
اوەدانی
اوەدانەکان
اوەدانەکانی
اوەز
اوەسپی
اوەوە
اوەکان
اوەکانی
اوەکە
اوەکەی
اوەھا
اوەی
اي
اپان
اڕ
اڕاستە
اڕاستەبڕی
اڕاستەکردنی
اڕاستەی
اژانسی
اژاوە
اژاوەی
اژەڵ
اژەڵان
اژەڵانی
اژەڵانە
اژەڵداری
اژەڵی
اژەڵێکی
اژەڵە
اژەڵەکان
اژەڵەکانی
اڤانت
اکادمی
اکار
اکاری
اکام
اکامدا
اکامی
اکتەر
اکتەری
اکرێ
اکرەیی
اکشای
اکشن
اکشەی
اکۆ
اکیرا
اکێ
اگا
اگادار
اگاداربوون
اگادارم
اگادارکردنەوە
اگادارکردنەوەی
اگاداری
اگاداریان
اگاداریی
اگای
اگایی
اگر
اگربەست
اگربەستی
اگری
اگرین
اگرێکی
اگرە
اگرەکە
اگەداری
اڵ
اڵا
اڵای
اڵتونی
اڵتوونی
اڵتەرنەتڤ
اڵمان
اڵمانی
اڵمانیا
اڵمانیای
اڵمانییەکان
اڵن
اڵوودەبوون
اڵوگۆڕ
اڵوگۆڕی
اڵۆت
اڵۆز
اڵۆزتر
اڵۆزی
اڵۆزیی
اڵۆزە
اڵۆزەکان
اڵی
اھ
اھەنگ
اھەنگی
اھەنگێکی
اھەنگە
اھەنگەکە
ای
ایا
ایار
ایاردا
ایاری
ایاکس
ایتی
ایدز
ایدن
ایدڵەکانی
ایدۆلۆژیا
ایدۆلۆژیای
ایدیا
ایدیۆلۆجی
ایران
ایرس
ایرلاند
ایریس
ایزۆ
ایسلەند
ایسلەندی
ایشە
ایفۆن
ایلام
ایماکس
این
ایندە
اینشتاین
اینی
اینییە
اینییەکان
اینە
ایپاد
ایپۆد
ایپی
ایچی
ایۆن
ایۆنی
ایین
اییندھۆڤن
ایینی
ایینیی
ایینییە
ایینییەکان
ایینییەکانی
ایینیەکان
ایینێکی
ایینە
ایینەکان
ایینەکانی
ایینەکە
ایە
ایەت
ایەتوڵڵا
ایەتی
ایەتە
ایەتەکانی
ب
با
باب
بابا
بابان
بابانەکان
باباگەنجە
بابای
بابل
بابلی
بابه
بابی
بابە
بابەت
بابەتانە
بابەتانەی
بابەتی
بابەتێک
بابەتێکی
بابەتە
بابەتەکان
بابەتەکانی
بابەتەکە
بابەتەکەی
بابەتەی
بابەشێخ
بابەک
بات
باتمان
باتۆ
باتی
باج
باجی
باجیۆ
باخ
باخان
باخداری
باخودیدا
باخچە
باخچەکانی
باخچەی
باخچەیەکی
باخی
باخەوان
باخەکانی
باد
بادا
بادن
بادین
بادینان
بار
بارام
باران
باراناوی
بارانبارین
بارانبارینی
بارانی
بارانێکی
باراک
باربادۆس
باربارا
بارت
باردا
باردن
بارزان
بارزانی
بارسا
بارستایی
بارستە
بارستەی
بارسێلۆنا
بارسێلۆنای
بارمتە
باره
بارودۆخ
بارودۆخی
بارودۆخێکی
بارودۆخە
بارودۆخەکە
باروودۆخی
بارکردن
بارکردنی
بارکەر
بارگاوی
بارگە
بارگەی
بارھەڵگر
بارھەڵگرەکان
بارۆن
باری
بارین
بارینی
باریک
باریکە
باریۆس
بارێکی
بارە
بارەوە
بارەکانی
بارەگا
بارەگاکانی
بارەگاکەی
بارەگای
بارەی
بارەیەوە
باز
بازار
بازاری
بازاڕ
بازاڕدا
بازاڕکردن
بازاڕی
بازاڕێکی
بازاڕە
بازاڕەوە
بازاڕەکان
بازاڕەکانی
بازدان
بازدانی
بازدید
بازرگان
بازرگانان
بازرگانانی
بازرگانی
بازرگانیدا
بازرگانیکردن
بازرگانیی
بازرگانییە
بازرگانییەوە
بازرگانییەکان
بازرگانییەکانی
بازرگانیەکانی
بازرگانێکی
بازرگانە
بازنە
بازنەکانی
بازنەکە
بازنەی
بازنەیی
بازنەیەک
بازنەیەکی
بازووی
بازی
بازیان
بازەرگان
باس
باستان
باستەر
باسم
باسمان
باسنیوز
باسک
باسکرا
باسکراوە
باسکرد
باسکردن
باسکردنی
باسکردنە
باسکردووە
باسکی
باسکە
باسکەی
باسی
باسیان
باسێک
باسێکی
باسە
باسەکە
باش
باشتر
باشترکردنی
باشتری
باشترین
باشترینی
باشترە
باشدا
باشقەڵا
باشن
باشور
باشوری
باشورەوە
باشوور
باشووردا
باشووری
باشووریش
باشوورە
باشوورەوە
باشی
باشیان
باشیک
باشە
باشەکان
باشەکانی
باغ
باغلوجە
باغی
بافتا
باقر
باقی
باقیی
بالا
بالبان
باللە
بالکان
بالێ
بالێی
بالە
بالەی
بان
باناخ
بانتوو
باندی
باندێکی
باندەکە
بانزەمینی
بانک
بانکی
بانکێکی
بانکە
بانکەکان
بانکەکانی
بانکەکە
بانگ
بانگهێشت
بانگھێشت
بانگھێشتی
بانگی
بانگیان
بانگێشت
بانگێشتی
بانگەشە
بانگەشەکردن
بانگەشەی
بانگەواز
بانگەوازی
بانی
بانە
بانەر
باو
باوان
باوانی
باوباپیرانی
باوترین
باوترە
باون
باوه
باوک
باوکم
باوکی
باوکیان
باوکیدا
باوکیشی
باوکییەوە
باوکیەوە
باوکێکی
باوکە
باوی
باوە
باوەجانی
باوەخۆشێن
باوەر
باوەری
باوەشی
باوەڕ
باوەڕبوون
باوەڕداران
باوەڕم
باوەڕپێکراو
باوەڕی
باوەڕیان
باوەڕێکی
باوەڕە
باوەڕەدان
باوەڕەشانی
باوەڕەی
باوەکان
باوەکانی
باوەگوڕگوڕ
باپیر
باپیرانی
باپیری
باپیرە
باپیرەی
باچان
باڤاریا
باک
باکو
باکور
باکوری
باکورەوە
باکوو
باکوور
باکووردا
باکووری
باکوورە
باکوورەوە
باکۆ
باڵ
باڵا
باڵاترین
باڵاخانەی
باڵادەست
باڵادەستی
باڵانسی
باڵاکان
باڵاکانی
باڵای
باڵایان
باڵتیک
باڵدار
باڵسامۆ
باڵندە
باڵندەکان
باڵندەی
باڵندەیەکی
باڵوێزخانەی
باڵکان
باڵی
باڵیۆزخانەی
باڵیۆزی
باڵێکی
باڵە
باڵەخانە
باڵەخانەی
باڵەخانەیەکی
باڵەکان
باڵەکانی
بای
بایار
بایت
بایدن
بایرام
بایرن
بایرۆن
بایزاوا
بایلی
باینجان
باینگان
بایک
بایکاڵ
بایکجی
بایکسانگ
بایکۆتی
بایۆلۆجی
بایە
بایەخ
بایەخدار
بایەخداری
بایەخدان
بایەخی
بایەخێکی
بایەرز
بایەرن
بایەزید
بایەزیدی
بایەکان
بایەکی
ببات
بباتە
بباتەوە
ببرێت
ببن
ببنە
ببنەوە
ببورە
ببوو
ببوون
ببووە
ببوە
ببڕێت
ببیت
ببیتە
ببین
ببینرێت
ببینن
ببینی
ببینیت
ببینین
ببینێ
ببینێت
ببینە
ببێ
ببێت
ببێتە
ببێتەوە
ببە
ببەخشێت
ببەزێنێت
ببەسترێت
ببەسترێتەوە
ببەستن
ببەستێت
ببەن
ببەنەوە
ببەین
بة
بت
بتاريخ
بته
بتوانرێ
بتوانرێت
بتوانم
بتوانن
بتوانی
بتوانیت
بتوانین
بتوانێ
بتوانێت
بتەوێ
بتەوێت
بخات
بخاتە
بخاتەوە
بخرێت
بخرێتە
بخرێنە
بخش
بخوات
بخوێنن
بخوێننەوە
بخوێنیتەوە
بخوێنێت
بخوێنێتەوە
بخوێنەوە
بخۆن
بخەن
بخەنە
بخەیتە
بخەینە
بدا
بدات
بداتێ
بداتە
بداتەوە
بداغ
بدرێ
بدرێت
بدرێتە
بدرێتەوە
بدرێن
بدلیس
بدوێ
بدۆزرێتەوە
بدۆزنەوە
بدۆزیتەوە
بدۆزینەوە
بدۆزێتەوە
بدە
بدەم
بدەن
بدەنە
بدەنەوە
بدەی
بدەیت
بدەین
بر
برا
براد
برادۆست
برازاکەی
برازای
برام
بران
براندۆ
براندی
براندە
براون
براوە
براوەکان
براوەکانی
براوەی
براکان
براکانی
براکوژی
براکەم
براکەی
براھی
برای
برایان
برایانی
برایتۆن
برایم
برایە
برایەتی
برایەکی
برد
بردبوو
بردن
بردنی
بردنە
بردنەوە
بردنەوەی
بردنەوەیان
بردنەوەیەکی
بردووە
بردووەتە
بردووەتەوە
بردۆتەوە
بردیانەوە
بردییەوە
بردە
بردەوە
برسی
برسییەتی
برسیەتی
برسێتی
برنج
برنجی
بروانامەی
بروس
بروسکە
برونۆ
برووس
برووسک
بروونای
برۆدوەی
برۆس
برۆنتی
برۆنز
برۆنزی
برۆکۆلی
بری
بریا
بریار
بریاری
بریت
بریتانی
بریتانیا
بریتانیای
بریتانیکا
بریتانیی
بریتانییەکان
بریتش
بریتی
بریتیبوو
بریتیبوون
بریتین
بریتیه
بریتیی
بریتیین
بریتییە
بریتیە
بریجز
بریزبێن
بریستۆڵ
بریمەر
برین
بریندار
برینداربوون
برینداربوونی
برینداری
برینی
برینێکی
بریکار
بریکاری
بریکارێکی
بریکارەکانی
برێت
برێنەر
برێک
برێکی
برەو
برەوی
بزانرێت
بزانم
بزانن
بزانی
بزانیت
بزانین
بزانێ
بزانێت
بزانە
بزاڤی
بزاڤە
بزر
بزرۆکە
بزماری
بزن
بزوتنەوە
بزوتنەوەی
بزووتنەوە
بزووتنەوەکە
بزووتنەوەی
بزووتنەوەیە
بزووتنەوەیەکی
بزوینەری
بزوێن
بزوێنی
بزوێنە
بزوێنەر
بزوێنەرانە
بزوێنەرانەی
بزوێنەردا
بزوێنەری
بزوێنەرێک
بزوێنەرێکی
بزوێنەرە
بزوێنەرەکان
بزوێنەرەکانی
بزوێنەرەکە
بزوێنەرەکەی
بزوێنەکان
بزۆک
بسڕدرێتەوە
بسڕێتەوە
بسەلمێنێت
بسەپێنن
بشارێتەوە
بشکێنن
بشکێنێت
بعد
بغداد
بفرۆشێت
بكات
بكرێت
بكه
بلاو
بلاک
بلباو
بلو
بلوز
بلووری
بلۆک
بلۆکی
بلیت
بلیتی
بلیمەت
بلیمەتی
بلیۆن
بلەیر
بم
بمانەوێ
بمرێت
بمێننەوە
بمێنێتەوە
بن
بناخەی
بناری
بناسرێت
بناسێنێت
بناغە
بناغەدانەری
بناغەی
بناو
بنزاری
بنه
بنوسێت
بنووسرێ
بنووسرێت
بنووسرێن
بنووسم
بنووسن
بنووسی
بنووسیت
بنووسین
بنووسێت
بنووسێتەوە
بنووسە
بنچینە
بنچینەدا
بنچینەکانی
بنچینەی
بنچینەیی
بنچینەییەکان
بنکە
بنکەدراوە
بنکەدراوەی
بنکەى
بنکەکانی
بنکەکە
بنکەکەی
بنکەی
بنکەیەکی
بنگرد
بنی
بنیات
بنیاتنا
بنیاتنانی
بنیاتنانەوەی
بنیاتنراوە
بنیاتنەری
بنیاتی
بنیاد
بنیادنانی
بنیادی
بنیامین
بنێ
بنێت
بنێرن
بنێرێت
بنێن
بنە
بنەرەتی
بنەما
بنەماکانی
بنەماڵە
بنەماڵەدا
بنەماڵەکان
بنەماڵەکانی
بنەماڵەکەی
بنەماڵەکەیان
بنەماڵەی
بنەماڵەیی
بنەماڵەییی
بنەماڵەیە
بنەماڵەیەکی
بنەمای
بنەمایە
بنەمایەکی
بنەچە
بنەچەدا
بنەچەی
بنەڕەت
بنەڕەتدا
بنەڕەتی
بنەڕەتیی
بنەڕەتییەکان
بنەڕەتییەکانی
به
بهجة
بهێنرێت
بهێنن
بهێنێت
بو
بوار
بواردا
بواره
بواری
بوارێکی
بوارە
بوارەدا
بوارەکانی
بوارەکە
بوارەکەی
بوایە
بوبێت
بوترێ
بوترێت
بوتڕوس
بوخارا
بوخاری
بودجە
بودجەی
بودیزم
بورج
بورجی
بورسا
بوروندی
بورکینافاسۆ
بورگاس
بورھان
بوسان
بوسحاقی
بوش
بولاخ
بولگاری
بولگاریا
بومەلەرزە
بون
بوندقیە
بونی
بونیات
بونیادی
بوه
بوو
بوواری
بووایە
بووبوو
بووبێ
بووبێت
بووبە
بووتان
بوودجەی
بووشێھر
بووم
بوومە
بوومەلەرزە
بوومەلەرزەکە
بوومەلەرزەی
بوومەلەرزەیەک
بوومەڵێڵی
بوون
بوونه
بوونی
بوونیان
بوونێکی
بوونە
بوونەتە
بوونەتەوە
بوونەوە
بوونەوەری
بوونەوەرێکی
بوونەوەرە
بوونەوەی
بووه
بووک
بووکی
بووکە
بووکەڵە
بووکەڵەکاری
بووی
بوویت
بووین
بووینە
بوویە
بوویەوە
بووە
بووەتە
بووەتەوە
بووەو
بووەوە
بووەکان
بوژاندنەوەی
بوڵاغ
بوڵاغی
بویۆ
بوێت
بوێری
بوێریان
بوێنس
بوە
بوەتە
بوەستێت
بوەستێنێت
بوەوە
بوەیھی
بي
بيانات
بيروت
بين
بپارێزن
بپارێزێت
بپرسە
بچن
بچنە
بچنەوە
بچووک
بچووکتر
بچووکترن
بچووکتری
بچووکترین
بچووکترە
بچووکدا
بچووکن
بچووکی
بچووکیش
بچووکە
بچووکەوە
بچووکەکان
بچووکەکانی
بچووکەکە
بچووکەکەی
بچوک
بچوکترین
بچوکی
بچوکە
بچیتە
بچێ
بچێت
بچێتە
بچێتەوە
بڕ
بڕاون
بڕاوە
بڕبڕە
بڕبڕەکانی
بڕبڕەی
بڕوا
بڕوات
بڕواتە
بڕوانامە
بڕوانامەی
بڕواننامەی
بڕوانە
بڕواپێکراو
بڕوای
بڕوایان
بڕوایەی
بڕگە
بڕگەی
بڕگەیی
بڕۆ
بڕۆدوەی
بڕۆز
بڕۆن
بڕۆنز
بڕۆنزی
بڕۆین
بڕی
بڕیار
بڕیاربوو
بڕیاردان
بڕیاردانی
بڕیاردرا
بڕیاردەدات
بڕیارنامەکانی
بڕیارنامەی
بڕیارنامەیە
بڕیاروابوو
بڕیاری
بڕیاریان
بڕیاریاندا
بڕیاریدا
بڕیارێک
بڕیارێکی
بڕیارە
بڕیارەکان
بڕیارەکانی
بڕیارەکە
بڕیارەکەی
بڕین
بڕینی
بڕیوە
بڕێ
بڕێک
بڕێکی
بڕە
بڕەکەی
بژاردنی
بژاردەی
بژی
بژیت
بژین
بژێوی
بکا
بکات
بکاتە
بکاتەوە
بکردایە
بکرێ
بکرێت
بکرێتە
بکرێتەوە
بکرێن
بکرێنەوە
بکه
بکوژ
بکوژن
بکوژی
بکوژێت
بکوژێکی
بکوژە
بکوژەکە
بکڕن
بکڕێت
بکێشێت
بکێشێتەوە
بکە
بکەر
بکەرەوە
بکەم
بکەمەوە
بکەن
بکەنە
بکەنەوە
بکەون
بکەونە
بکەوێ
بکەوێت
بکەوێتە
بکەوێتەوە
بکەوە
بکەی
بکەیت
بکەیتەوە
بکەین
بکەینە
بکەینەوە
بگات
بگاتە
بگرن
بگرنە
بگرنەوە
بگری
بگریت
بگرین
بگرێ
بگرێت
بگرێتە
بگرێتەوە
بگرە
بگوازرێتەوە
بگوازنەوە
بگوازێتەوە
بگونجێت
بگۆڕدرێ
بگۆڕدرێت
بگۆڕن
بگۆڕی
بگۆڕیت
بگۆڕین
بگۆڕێت
بگۆڕە
بگیرێ
بگیرێت
بگێڕێت
بگێڕێتەوە
بگەرێتەوە
بگەن
بگەنە
بگەڕێ
بگەڕێت
بگەڕێتەوە
بگەڕێن
بگەڕێننەوە
بگەڕێنێتەوە
بگەڕێنەوە
بگەین
بگەیەنن
بگەیەنێت
بگەیەنێتە
بڵاغ
بڵاو
بڵاوبونەوەی
بڵاوبوونەتەوە
بڵاوبوونەوە
بڵاوبوونەوەی
بڵاوبوویەوە
بڵاوبووەتەوە
بڵاوبووەوە
بڵاوبکاتەوە
بڵاوبکرێتەوە
بڵاوبۆتەوە
بڵاوبۆوە
بڵاودەبێتەوە
بڵاودەکاتەوە
بڵاودەکرایەوە
بڵاودەکردەوە
بڵاودەکرێتەوە
بڵاوکار
بڵاوکرانەوە
بڵاوکراونەتەوە
بڵاوکراوە
بڵاوکراوەتەوە
بڵاوکراوەکان
بڵاوکراوەکانی
بڵاوکراوەی
بڵاوکرایەوە
بڵاوکردنەوە
بڵاوکردنەوەی
بڵاوکردووەتەوە
بڵاوکردۆتەوە
بڵاوکردەوە
بڵاوکەرەوە
بڵاوکەرەوەی
بڵاوی
بڵاویان
بڵاویکردەوە
بڵاوە
بڵاوەی
بڵند
بڵندی
بڵێ
بڵێت
بڵێسەی
بڵێم
بڵێن
بڵێی
بڵێیت
بڵێین
بھ
بھێنرێت
بھێنن
بھێنیت
بھێنین
بھێنێ
بھێنێت
بھێڵن
بھێڵێت
بھێڵێتەوە
بۆ
بۆب
بۆبی
بۆت
بۆتان
بۆتانی
بۆتسوانا
بۆتی
بۆتە
بۆتەوە
بۆتەکان
بۆخۆی
بۆخۆیان
بۆر
بۆرا
بۆرات
بۆردومان
بۆردومانی
بۆردۆ
بۆردی
بۆرسە
بۆرسەی
بۆرنمۆس
بۆروسیا
بۆری
بۆریس
بۆرینە
بۆرەکەیی
بۆستن
بۆسنیا
بۆسنە
بۆسکێن
بۆسەر
بۆش
بۆشایی
بۆشاییدا
بۆشاییی
بۆشایییە
بۆشایییەکی
بۆشاییەکی
بۆلای
بۆلیوود
بۆلیڤار
بۆلیڤیا
بۆم
بۆمان
بۆماوە
بۆماوەزانی
بۆماوەی
بۆماوەیی
بۆمب
بۆمباخ
بۆمبڕێژکراو
بۆمبی
بۆمبێکی
بۆمبەکە
بۆن
بۆناو
بۆناپارت
بۆند
بۆندسلیگا
بۆندسلیگای
بۆندی
بۆنمونە
بۆنموونە
بۆنی
بۆنە
بۆنەوە
بۆنەکان
بۆنەکانی
بۆنەی
بۆنەیەوە
بۆنەیەکی
بۆوە
بۆي
بۆچونی
بۆچوون
بۆچوونی
بۆچوونێکی
بۆچوونە
بۆچوونەکان
بۆچوونەکانی
بۆچی
بۆڕی
بۆکان
بۆکانی
بۆکرا
بۆکراوە
بۆکس
بۆکسی
بۆکسینگ
بۆکسێن
بۆکسێنی
بۆڵ
بۆڵت
بۆڵتۆن
بۆی
بۆیان
بۆیس
بۆیلی
بۆینس
بۆینگ
بۆیه
بۆیە
بۆیەر
بۆیەش
بۆیەکەم
بۆیەکەمجار
بۆیەکەمینجار
بی
بیابان
بیاباندا
بیابانی
بیابانییەکان
بیابانە
بیابانەکان
بیابانەکانی
بیابانەکە
بیارە
بیان
بیانووی
بیانی
بیانییە
بیانییەکان
بیانییەکانی
بیت
بیتکۆین
بیجاڕ
بیر
بیرت
بیرخستنەوە
بیرخستنەوەی
بیردۆز
بیردۆزه
بیردۆزی
بیردۆزێکی
بیردۆزە
بیردۆزەکانی
بیرم
بیرمەند
بیرمەندی
بیرمەنگهام
بیرمەنگھام
بیرو
بیروباوەڕ
بیروباوەڕی
بیروباوەڕە
بیروبۆچوونی
بیرورای
بیروڕا
بیروڕاکانی
بیروڕای
بیرکار
بیرکاری
بیرکاریدا
بیرکاریزان
بیرکارییە
بیرکارییەکان
بیرکردنەوە
بیرکردنەوەی
بیرگە
بیرگەی
بیرۆکە
بیرۆکەت
بیرۆکەکان
بیرۆکەکانی
بیرۆکەکە
بیرۆکەکەی
بیرۆکەی
بیرۆکەیە
بیرۆکەیەکی
بیرۆکەیەی
بیری
بیریان
بیرێکی
بیرە
بیرەوەری
بیرەوەرییەکانی
بیزەنتی
بیزەنتین
بیزەنتییەکان
بیزەنتیەکان
بیساو
بیست
بیستدا
بیستن
بیستنی
بیستووە
بیستەم
بیستەمدا
بیستەمی
بیستەمین
بیستەمەوە
بیستەکانی
بیسەلمێنێت
بیل
بیلا
بیلال
بیلاڕووس
بیلای
بیلبۆرد
بیلی
بین
بینا
بیناسازی
بیناکان
بیناکانی
بیناکە
بینای
بینایی
بینایە
بینایەکی
بینرا
بینراو
بینراوە
بینگ
بینگۆل
بینگۆلی
بینی
بینیان
بینیبوو
بینیم
بینین
بینینی
بینیووە
بینیوە
بینییەوە
بینەر
بینەران
بینەرانی
بینەری
بینەرێکی
بیي
بیچ
بیژەن
بیکات
بیکاتە
بیکێت
بیکەن
بیگ
بیڵ
بیڵی
بیھار
بییەوێت
بیەوێت
بێ
بێبەرامبەر
بێبەش
بێت
بێتا
بێتاوان
بێتاوانی
بێته
بێتواتە
بێتھۆڤن
بێتھۆڤنی
بێتی
بێتە
بێتەوە
بێجووڵە
بێجگە
بێخوایی
بێخود
بێدینەکان
بێدەنگ
بێدەنگی
بێرتراند
بێرد
بێرن
بێرنارد
بێرگ
بێرینگ
بێزار
بێزاری
بێزەنتی
بێسارانی
بێستان
بێستوون
بێسنوور
بێسوود
بێسەرچاوە
بێل
بێلا
بێلایەن
بێلایەنانە
بێلایەنی
بێلووچی
بێلگراد
بێمانا
بێن
بێنجامین
بێنز
بێنن
بێنی
بێنیت
بێنین
بێنێ
بێنێت
بێنێدیکت
بێنە
بێي
بێچوارچێوە
بێژ
بێژی
بێژەری
بێک
بێکا
بێکاری
بێکام
بێکۆتا
بێکۆتایی
بێکەس
بێگ
بێگانە
بێگانەکان
بێگلویا
بێگم
بێگومان
بێگوومان
بێگەرد
بێگەردی
بێڵ
بێھزاد
بێی
بە
بەبازاڕکردنی
بەباشترین
بەباشی
بەبڕی
بەبۆنەی
بەبیانووی
بەبێ
بەبەراورد
بەبەردەوامی
بەبەشداری
بەبەکارھێنانی
بەتاڵ
بەتاڵی
بەتایبەت
بەتایبەتی
بەتایبەتیش
بەتحایی
بەتوانا
بەتوانای
بەتوانایە
بەتوندی
بەتۆمارکردنی
بەتۆمەتی
بەتیرۆریست
بەتەرفیێڵد
بەتەمەن
بەتەنھا
بەتەنیا
بەتەواوی
بەتەواوەتی
بەجوانی
بەجۆرێ
بەجۆرێک
بەجیا
بەجێ
بەجێبھێڵێت
بەجێدەھێڵێت
بەجێماوە
بەجێهێشت
بەجێگەی
بەجێھێشت
بەجێھێشتنی
بەجێھێشتووە
بەجێی
بەحرکە
بەحری
بەحرەین
بەخاک
بەخت
بەختی
بەختیار
بەختیاری
بەختەوەری
بەخراپی
بەخش
بەخشرا
بەخشراوە
بەخشرایە
بەخشندە
بەخشی
بەخشین
بەخشینی
بەخشیوە
بەخشییە
بەخوا
بەخوێندن
بەخۆوە
بەخۆڕایی
بەخۆی
بەخۆیان
بەخۆیەوە
بەخێرایی
بەخێربێیت
بەخێرھاتن
بەخێرھاتنی
بەخێو
بەخێوکردنی
بەداخەوە
بەدر
بەدرخان
بەدرێسی
بەدرێژایی
بەدرێژاییی
بەدرە
بەدلیس
بەدلیسی
بەدوا
بەدوادا
بەدواداچوون
بەدواداچوونی
بەدواوە
بەدوای
بەدوایدا
بەدوو
بەدوور
بەدووری
بەدڵ
بەدڵی
بەدی
بەدیار
بەدیاریکراوی
بەدیل
بەدیھێنانی
بەدەخشان
بەدەر
بەدەست
بەدەستبھێنن
بەدەستبھێنێت
بەدەستهێنا
بەدەستهێنانی
بەدەستهێناوە
بەدەستھێنا
بەدەستھێنابوو
بەدەستھێنانی
بەدەستھێناوە
بەدەستی
بەدەستەوە
بەدەستەوەیە
بەدەم
بەدەوری
بەدەگمەن
بەر
بەرابەرە
بەرات
بەراز
بەرازیل
بەرازیلی
بەرامبەر
بەرامبەردا
بەرامبەری
بەرامبەریان
بەرامبەرە
بەرانان
بەرانبەر
بەراندێز
بەراندێزا
بەراورد
بەراوردکردن
بەراوردکردنی
بەراوردی
بەرایی
بەربژێری
بەربڵاو
بەربڵاوترین
بەربڵاوی
بەربڵاوە
بەربەست
بەربەستن
بەربەستنی
بەربەستی
بەرتڵە
بەرتیل
بەرجەستە
بەرجەستەکردنی
بەرجەستەی
بەرخۆدان
بەرخۆدانی
بەرد
بەردا
بەردبووەکان
بەردبەرد
بەردی
بەردین
بەردینی
بەردینە
بەردینەکان
بەردێک
بەردێکی
بەردە
بەردەست
بەردەستن
بەردەستی
بەردەستە
بەردەم
بەردەمی
بەردەوام
بەردەوامبوو
بەردەوامبوون
بەردەوامبوونی
بەردەوامن
بەردەوامی
بەردەوامیان
بەردەوامیی
بەردەوامە
بەردەوامەکان
بەردەوامەکانی
بەردەڕەش
بەردەکان
بەردەکانی
بەردەکە
بەردەکەوێت
بەردەکەڕ
بەرز
بەرزایی
بەرزایییەکانی
بەرزاییەکانی
بەرزبونەوەی
بەرزبوونەوە
بەرزبوونەوەی
بەرزبوویەوە
بەرزبووەوە
بەرزبکاتەوە
بەرزبێتەوە
بەرزتر
بەرزتری
بەرزترین
بەرزترە
بەرزدا
بەرزدەبێتەوە
بەرزن
بەرزنجی
بەرزنجە
بەرزکرایەوە
بەرزکردنەوە
بەرزکردنەوەی
بەرزکردەوە
بەرزکەرەوە
بەرزی
بەرزیان
بەرزیی
بەرزییەکەی
بەرزە
بەرزەنجی
بەرزەوە
بەرزەکان
بەرزەکانی
بەرزەکەی
بەرزەی
بەرشلۆنە
بەرشە
بەرشەلۆنا
بەرشەلۆنە
بەرفراوان
بەرفراوانی
بەرلین
بەرلینی
بەرلەوەی
بەرمیل
بەرن
بەرنامە
بەرنامەسازی
بەرنامەسازیی
بەرنامەکان
بەرنامەکانی
بەرنامەکە
بەرنامەکەی
بەرنامەی
بەرنامەیە
بەرنامەیەک
بەرنامەیەکی
بەرهەم
بەرهەمهێنان
بەرهەمهێنانی
بەرهەمهێنراوە
بەرهەمهێنەرانی
بەرهەمهێنەری
بەرهەمی
بەرهەمێکی
بەرهەمە
بەرهەمەکان
بەرهەمەکانی
بەرواری
بەروبوومی
بەري
بەرپا
بەرپاکرد
بەرپرس
بەرپرسان
بەرپرسانی
بەرپرسایەتی
بەرپرسن
بەرپرسی
بەرپرسیار
بەرپرسیارن
بەرپرسیاری
بەرپرسیارێتی
بەرپرسیارێتیی
بەرپرسیارە
بەرپرسێکی
بەرپرسە
بەرپرسەکانی
بەرپەرچ
بەرپەرچدانەوەی
بەرپەرچی
بەرچاو
بەرچاوترین
بەرچاوی
بەرچاویان
بەرچاوە
بەرچاوەکانی
بەرژەوەندی
بەرژەوەندیی
بەرژەوەندییەکانی
بەرکار
بەرکەوت
بەرکەوتن
بەرکەوتنی
بەرکەوتووە
بەرگ
بەرگدا
بەرگری
بەرگریان
بەرگریکار
بەرگریکاری
بەرگریکردن
بەرگریی
بەرگرییە
بەرگرییەکی
بەرگی
بەرگێکی
بەرگە
بەرگەگرتنی
بەرگەھەوای
بەرگەی
بەرھەم
بەرھەمانە
بەرھەمانەی
بەرھەمدێت
بەرھەمھێنا
بەرھەمھێنان
بەرھەمھێناندا
بەرھەمھێنانی
بەرھەمھێناوە
بەرھەمھێنرا
بەرھەمھێنراوە
بەرھەمھێنەر
بەرھەمھێنەران
بەرھەمھێنەرانی
بەرھەمھێنەری
بەرھەمھێنەرێکی
بەرھەمھێنەرەکان
بەرھەمھێنەرەکانی
بەرھەمی
بەرھەمیان
بەرھەمیھێناوە
بەرھەمێک
بەرھەمێکی
بەرھەمە
بەرھەمەکان
بەرھەمەکانی
بەرھەمەکانیان
بەرھەمەکە
بەرھەمەکەی
بەرھەڵستی
بەری
بەریاجی
بەریتانی
بەریتانیا
بەریتانیادا
بەریتانیاوە
بەریتانیای
بەریتانیایە
بەریتانییە
بەریتانییەکان
بەریتانیەکان
بەرین
بەریەک
بەریەککەوتنی
بەرێ
بەرێت
بەرێز
بەرێوبەری
بەرێوە
بەرێوەبردنی
بەرێوەبەر
بەرێوەبەران
بەرێوەبەرایەتی
بەرێوەبەری
بەرێوەچوو
بەرە
بەرەبابی
بەرەبەرە
بەرەبەیان
بەرەبەیانی
بەرەنگاربوونەوەی
بەرەنگاری
بەرەو
بەرەوپێش
بەرەوپێشبردنی
بەرەوپێشچوونی
بەرەوە
بەرەکانی
بەرەی
بەزاند
بەزاندنی
بەزمانی
بەزۆر
بەزۆری
بەزەیی
بەس
بەست
بەستبوو
بەسترا
بەستراو
بەستراون
بەستراونەتەوە
بەستراوە
بەستراوەتەوە
بەستن
بەستنی
بەستنەوەی
بەستوو
بەستووە
بەستەر
بەستەردان
بەستەری
بەستەرێک
بەستەرێکی
بەستەرە
بەستەرەکان
بەستەرەکانی
بەستەرەکە
بەستەڵەک
بەستەڵەکی
بەسرە
بەسوود
بەسوودی
بەسوودە
بەسڕە
بەسە
بەسەر
بەسەرا
بەسەربرد
بەسەربردن
بەسەربردنی
بەسەربردووە
بەسەردا
بەسەرداچوونەوە
بەسەرداچوونەوەی
بەسەرداگرتنی
بەسەرپەرشتی
بەسەرچاوە
بەسەرکردایەتی
بەسەرکەوتوویی
بەسەرھاتی
بەسەرھاتەکانی
بەسەرۆکایەتی
بەسەری
بەسەریاندا
بەسەریدا
بەسەریەکەوە
بەش
بەشار
بەشانی
بەشانە
بەشانەی
بەشدا
بەشدار
بەشداربن
بەشداربوو
بەشداربووان
بەشداربووانی
بەشداربوون
بەشداربوونی
بەشداربووی
بەشداربووە
بەشداربووەکان
بەشداربووەکانی
بەشداربێت
بەشدارن
بەشداری
بەشداریان
بەشداریکرد
بەشداریکردن
بەشداریکردنی
بەشداریکردنیان
بەشداریکردووە
بەشداریکەر
بەشداریکەران
بەشداریی
بەشدارییان
بەشدارییە
بەشدارییەکان
بەشدارییەکانت
بەشدارییەکانی
بەشدارییەکی
بەشدارە
بەشی
بەشیر
بەشێ
بەشێوازی
بەشێوازێکی
بەشێوەی
بەشێوەیەک
بەشێوەیەکی
بەشێک
بەشێکن
بەشێکی
بەشێکیان
بەشێکیش
بەشێکە
بەشە
بەشەدا
بەشەوە
بەشەکان
بەشەکانی
بەشەکە
بەشەکەی
بەشەی
بەعاج
بەعس
بەعسی
بەعسەوە
بەعشیقە
بەعەرەبی
بەغدا
بەغداد
بەغدادا
بەغدادی
بەغداوە
بەغدای
بەغدایان
بەفارسی
بەفر
بەفرانبار
بەفرانباری
بەفری
بەفیڕۆ
بەفەرمی
بەقسەی
بەقەد
بەقەرە
بەكار
بەلام
بەلاوە
بەلای
بەلایەنی
بەلجیکا
بەلجیکی
بەلقان
بەلکو
بەلۆچستان
بەلیز
بەلەد
بەلەم
بەلەمی
بەم
بەمانای
بەماوەیەکی
بەمجۆرە
بەمشێوەیە
بەمۆ
بەمە
بەمەبەستی
بەمەش
بەناز
بەناو
بەناوبانگ
بەناوبانگترین
بەناوبانگترینیان
بەناوبانگن
بەناوبانگی
بەناوبانگە
بەناوبانگەکان
بەناوبانگەکانی
بەناوبانگەکەی
بەناونیشانی
بەناوی
بەناوەکانی
بەناچاری
بەند
بەنداو
بەنداوی
بەنداوە
بەنداوەکانی
بەنداوەکە
بەندایەتی
بەندی
بەندیخانە
بەندیخانەی
بەندە
بەندەر
بەندەری
بەندەرییەکانی
بەندەرێکی
بەندەرە
بەندەرەکە
بەندەکانی
بەنرخ
بەنرخی
بەنرخە
بەنزین
بەنزینی
بەنزیکی
بەنزیکەیی
بەنفیکا
بەنو
بەنگال
بەنگالی
بەنگلادیش
بەنگلادێش
بەنھێنی
بەنی
بەنیازی
بەنێو
بەنێوی
بەنەخۆشی
بەهار
بەهاری
بەهای
بەهۆى
بەهۆی
بەهۆیەوە
بەهێز
بەهێزترین
بەهێزکردنی
بەهێزی
بەهەشت
بەهەمان
بەو
بەواتای
بەوانەی
بەوجۆرە
بەور
بەوردی
بەوپێیەی
بەوە
بەوەدا
بەوەش
بەوەوە
بەوەکرد
بەوەی
بەوەیە
بەي
بەپلەی
بەپیت
بەپیتی
بەپێ
بەپێچەوانەوە
بەپێچەوانەی
بەپێی
بەپەلە
بەچەند
بەڕادەیەک
بەڕازیل
بەڕازیلی
بەڕازیلە
بەڕاست
بەڕاستی
بەڕای
بەڕوو
بەڕوونی
بەڕووی
بەڕۆژ
بەڕۆژوو
بەڕۆڵی
بەڕیتانی
بەڕیتانیا
بەڕیتانییە
بەڕێ
بەڕێز
بەڕێزان
بەڕێزتان
بەڕێوبەر
بەڕێوبەران
بەڕێوبەرانی
بەڕێوبەرایەتی
بەڕێوبەری
بەڕێوە
بەڕێوەبرد
بەڕێوەبردن
بەڕێوەبردنی
بەڕێوەبردووە
بەڕێوەبچێت
بەڕێوەبەر
بەڕێوەبەران
بەڕێوەبەرانی
بەڕێوەبەرایەتی
بەڕێوەبەرایەتیی
بەڕێوەبەری
بەڕێوەبەرێتی
بەڕێوەبەرێک
بەڕێوەبەرێکی
بەڕێوەبەرە
بەڕێوەبەرەکان
بەڕێوەدەبات
بەڕێوەدەبرا
بەڕێوەدەبرد
بەڕێوەدەبرێت
بەڕێوەدەچێت
بەڕێوەچوو
بەڕێوەچوون
بەڕێوەچوونی
بەڕێوەی
بەڕێژەی
بەڕێژەیەکی
بەڕێکەوت
بەڕێکەوتن
بەڕێگای
بەڕەچەڵەک
بەڕەگەز
بەژدار
بەژداری
بەکاتی
بەکار
بەکاربراو
بەکاربردنی
بەکاربھێندرێت
بەکاربھێنرێت
بەکاربھێنرێن
بەکاربھێنن
بەکاربھێنیت
بەکاربھێنێت
بەکاربھێنە
بەکاربێت
بەکاربێن
بەکاربێنن
بەکاربێنیت
بەکاربێنێت
بەکاربێنە
بەکاربەر
بەکارخەری
بەکارخەرییەکانی
بەکاردێ
بەکاردێت
بەکاردێن
بەکاردێنن
بەکاردێنێت
بەکاردەهێنرێت
بەکاردەهێنن
بەکاردەهێنێت
بەکاردەھات
بەکاردەھێنا
بەکاردەھێندرێت
بەکاردەھێنرا
بەکاردەھێنران
بەکاردەھێنرێت
بەکاردەھێنرێن
بەکاردەھێنن
بەکاردەھێنێت
بەکارنایەت
بەکارهاتووە
بەکارهێنا
بەکارهێنان
بەکارهێنانی
بەکارهێناوە
بەکارهێنراوە
بەکارهێنەر
بەکارهێنەران
بەکارهێنەرانی
بەکارهێنەری
بەکارهێنەرە
بەکاري
بەکارکردن
بەکارھات
بەکارھاتوو
بەکارھاتوون
بەکارھاتووە
بەکارھاتووەکانی
بەکارھێنا
بەکارھێنان
بەکارھێنانی
بەکارھێنانیان
بەکارھێنانە
بەکارھێنانەوەی
بەکارھێنانەکانی
بەکارھێناوە
بەکارھێنرا
بەکارھێنراو
بەکارھێنراون
بەکارھێنراوە
بەکارھێنەر
بەکارھێنەران
بەکارھێنەرانی
بەکارھێنەرانە
بەکارھێنەرانەی
بەکارھێنەری
بەکارھێنەریت
بەکارھێنەریی
بەکارھێنەرێک
بەکارھێنەرێکی
بەکارھێنەرە
بەکارھێنەرەکان
بەکارھێنەرەکە
بەکاری
بەکاریان
بەکالۆریۆس
بەکالۆریۆسی
بەکتریا
بەکتریای
بەکر
بەکرێ
بەکرەجۆ
بەکشلوچای
بەکورتی
بەکوردی
بەکۆتا
بەکۆمەڵ
بەکۆمەڵی
بەکەمی
بەکەڵک
بەگ
بەگزادە
بەگشتی
بەگم
بەگن
بەگوێرەی
بەگی
بەگە
بەڵا
بەڵام
بەڵخە
بەڵکو
بەڵکوو
بەڵگە
بەڵگەفیلم
بەڵگەفیلمی
بەڵگەنامە
بەڵگەنامەکان
بەڵگەنامەکانی
بەڵگەنامەی
بەڵگەنامەیی
بەڵگەنامەیەکی
بەڵگەکان
بەڵگەکانی
بەڵگەھێنانەوە
بەڵگەی
بەڵگەیە
بەڵگەیەک
بەڵگەیەکی
بەڵێ
بەڵێن
بەڵێنی
بەھا
بەھادور
بەھار
بەھارات
بەھاردا
بەھاری
بەھارە
بەھاوبەشی
بەھاوکاری
بەھاي
بەھاکانی
بەھای
بەھایی
بەھایییەکان
بەھایەکی
بەھرام
بەھرە
بەھرەمەند
بەھرەکانی
بەھرەی
بەھرەیەکی
بەھلول
بەھمەن
بەھۆکاری
بەھۆی
بەھۆیەوە
بەھیوای
بەھیچ
بەھێز
بەھێزبوونی
بەھێزتر
بەھێزترین
بەھێزکردنی
بەھێزی
بەھێزیان
بەھێزە
بەھێزەکانی
بەھەر
بەھەرحاڵ
بەھەشت
بەھەشتی
بەھەمان
بەھەموو
بەھەڵم
بەھەڵە
بەی
بەیات
بەیارمەتی
بەیان
بەیاننامەی
بەیاننامەیەکی
بەیانی
بەیانیان
بەیانەی
بەیت
بەیتار
بەیتی
بەیروت
بەیرووت
بەیز
بەیس
بەیسبۆڵ
بەینی
بەیکەر
بەیەک
بەیەکجاری
بەیەکگەیشتن
بەیەکێ
بەیەکێک
بەیەکەم
بەیەکەوە
ة
ت
تا
تابلۆ
تابلۆکانی
تابلۆکە
تابلۆی
تابلۆیەک
تابلۆیەکی
تابی
تاتار
تاتی
تاج
تاجی
تاجیکستان
تاجیکی
تاد
تار
تارا
تاران
تارانتینۆ
تارانی
تارانەوە
تاراوگە
تارق
تارمایی
تارنۆڤۆ
تاريخ
تاريخية
تارگێریەن
تاریخ
تاریخی
تاریق
تاریک
تاریکی
تاریکە
تازاوا
تازاوای
تازە
تازەترین
تازەدێ
تازەدێی
تازەشار
تازەکان
تازەکەند
تازەکەندی
تازەکەندە
تازەی
تازەیە
تاساڵی
تاسمانیا
تاشکەند
تاق
تاقانە
تاقمی
تاقمێک
تاقی
تاقیکاری
تاقیکردنەوە
تاقیکردنەوەکان
تاقیکردنەوەکانی
تاقیکردنەوەکە
تاقیکردنەوەی
تاقیکردنەوەیەک
تاقیکردنەوەیەکی
تاقیگە
تاقیگەی
تاقە
تاقەتی
تالیب
تالیس
تام
تامی
تامیل
تامیلی
تامەزرۆی
تان
تانجەرۆ
تانزانیا
تانک
تانکۆبۆن
تانکی
تانکە
تانکەکە
تانگ
تانگا
تانگۆ
تانگی
تانی
تانە
تانەی
تاهیر
تاو
تاوان
تاوانبار
تاوانباران
تاوانباری
تاوانکاری
تاوانی
تاوانێک
تاوانێکی
تاوانە
تاوانەکان
تاوانەکانی
تاوانەکە
تاوتوێ
تاوتوێکردنی
تاودان
تاودانی
تاون
تاوگۆزی
تاوی
تاوەر
تاوەری
تاوەرە
تاوەرەکە
تاوەکو
تاوەکوو
تاي
تاڕادەیەک
تاڕادەیەکی
تاڤوش
تاڤگە
تاڤگەکانی
تاڤگەی
تاک
تاکاوۆ
تاکتیکی
تاکسی
تاکسە
تاکو
تاکوو
تاکی
تاکێک
تاکێکی
تاکە
تاکەکان
تاکەکانی
تاکەکەس
تاکەکەسی
تاکەکەسییەکان
تاکەگۆرانی
تاکەگۆرانییەکانی
تاکەی
تاگ
تاگۆر
تاگی
تاگە
تاگەکانی
تاڵ
تاڵان
تاڵانکردن
تاڵانی
تاڵشی
تاڵی
تاڵیب
تاڵیبان
تاڵەبانی
تاھیر
تاھیری
تای
تایبه
تایبە
تایبەت
تایبەتدا
تایبەتمەند
تایبەتمەندی
تایبەتمەندیی
تایبەتمەندییە
تایبەتمەندییەکان
تایبەتمەندییەکانی
تایبەتمەندییەکی
تایبەتمەندیە
تایبەتمەندیەکانی
تایبەتمەندێتی
تایبەتمەندە
تایبەتمەندەکان
تایبەتن
تایبەتی
تایبەتیان
تایبەتیش
تایبەتیی
تایبەتییەکان
تایبەتییەکانی
تایبەتە
تایبەتەوە
تایبەتەکان
تایبەتەکانی
تایبەتەکەی
تایتانیک
تایرۆیدە
تایسۆن
تایلۆر
تایلەر
تایلەند
تایلەندی
تایم
تایمز
تایمی
تایوان
تایون
تایپ
تایکواندۆ
تایکۆ
تایگەر
تایەر
تبت
تبتی
تبلیس
تح
تحقيق
تر
ترامپ
ترانسجێندەر
تراژیدی
تراک
تراکی
تراکەکان
ترجمە
تردا
ترس
ترسا
ترسان
ترسناک
ترسناکی
ترسناکە
ترسناکەکان
ترسناکەکانی
ترسی
ترسیان
ترسێکی
ترش
ترشی
ترشە
ترشەکان
ترم
ترمزی
ترن
ترومپای
تروودۆو
ترۆتسکی
تری
تریان
تریستان
تریش
تریشدا
تریشی
تریشیان
تریشەوە
تریلیۆن
ترین
ترینیداد
ترێ
ترێی
ترە
ترەمپ
ترەوە
تست
تشرینی
تصنيف
تقسیمات
تل
تلکێف
تلێ
تم
ته
تهران
تو
توان
توانا
تواناى
تواناکانی
تواناکەی
توانای
توانایان
توانایی
توانایە
توانایەکی
توانرا
توانی
توانیان
توانیبووی
توانیویانە
توانیویەتی
توانیوێتی
توانیی
توانییان
توانەوە
توانەوەی
تواوە
توتن
توخم
توخمی
توخمێکی
توخمە
توخمەکان
توخمەکانی
توران
تورانی
تورجان
توركیا
تورک
تورکان
تورکستان
تورکمان
تورکمانستان
تورکمانی
تورکمانەکان
تورکمانەکانی
تورکی
تورکیا
تورکیادا
تورکیاوە
تورکیای
تورکیایە
تورکیدا
تورکیی
تورکییە
تورکییەکان
تورکە
تورکەمان
تورکەکان
تورکەکانی
توش
توشبوان
توشبوو
توشبوون
توشبوونی
توشی
توضيح
توغلاق
توغلوق
توند
توندتر
توندو
توندوتیژ
توندوتیژی
توندوتیژیی
توندڕەو
توندڕەوی
توندڕەوەکان
توندی
توندیان
توندە
تونس
تونسی
تونێلی
توو
تووتن
توودەی
توور
تووش
تووشبوو
تووشبووان
تووشبووانی
تووشبوون
تووشبوونی
تووشبوونیان
تووشبووی
تووشبووەکان
تووشی
توونبەری
تووند
تووندووتیژی
توونس
تووڕە
تووڕەیی
تووڵامراز
تووڵی
تووی
توویتەر
توڕە
توڕەیی
تویتەر
توینکڵ
توێنتیت
توێژی
توێژینەوە
توێژینەوەکان
توێژینەوەکانی
توێژینەوەی
توێژینەوەیەک
توێژینەوەیەکی
توێژەر
توێژەران
توێژەرانی
توێژەری
توێژەرێکی
توێژەکانی
توێکاری
توێکاریی
توێکڵی
تى
تي
تکا
تکایە
تکریت
تھران
تۆ
تۆباگۆ
تۆبی
تۆبە
تۆتالیتاریزم
تۆتنھام
تۆتی
تۆخ
تۆر
تۆرباین
تۆرباینی
تۆربينى
تۆربۆ
تۆربۆچارج
تۆرنتۆ
تۆرۆنتۆ
تۆرۆنتۆی
تۆری
تۆرینۆ
تۆرێس
تۆرە
تۆرەمەی
تۆرەنتۆ
تۆز
تۆزی
تۆزێک
تۆش
تۆفیق
تۆلکین
تۆم
تۆما
تۆمار
تۆماربکات
تۆمارکرا
تۆمارکرابێت
تۆمارکران
تۆمارکراو
تۆمارکراون
تۆمارکراوی
تۆمارکراوە
تۆمارکرد
تۆمارکردن
تۆمارکردنی
تۆمارکردووە
تۆماری
تۆمارێکی
تۆمارە
تۆمارەکان
تۆمارەکانی
تۆمارەکە
تۆماس
تۆمی
تۆمەتبار
تۆمەتباری
تۆمەتی
تۆمەتەکانی
تۆمەیتۆز
تۆن
تۆنگ
تۆنگا
تۆنی
تۆو
تۆوی
تۆوە
تۆپ
تۆپخانە
تۆپزاوا
تۆپۆلۆژی
تۆپۆگرافی
تۆپی
تۆپێکی
تۆپە
تۆپەکە
تۆپەکەی
تۆڕ
تۆڕباینی
تۆڕبۆ
تۆڕبۆیی
تۆڕبۆییەکان
تۆڕبین
تۆڕبینی
تۆڕبینەکە
تۆڕی
تۆڕێکی
تۆڕە
تۆڕەکانی
تۆڕەکە
تۆڕەی
تۆژینەوەی
تۆکیۆ
تۆکیۆی
تۆگۆ
تۆڵستۆی
تۆڵکین
تۆڵە
تۆڵەستێنەکان
تۆڵەسەندنەوە
تۆڵەی
تۆی
تۆیۆتا
تۆیە
تی
تیا
تیابووی
تیادا
تیادایە
تیان
تیایاندا
تیایدا
تیایە
تیتان
تیر
تیراژی
تیرۆر
تیرۆرستی
تیرۆرکرا
تیرۆرکردن
تیرۆرکردنی
تیرۆری
تیرۆریزم
تیرۆریزمی
تیرۆریست
تیرۆریستی
تیرۆریستییەکان
تیری
تیرە
تیرەکانی
تیرەکەی
تیرەی
تیشک
تیشکدانەوە
تیشکدانەوەی
تیشکی
تیشکە
تیفلیس
تیلمەخانی
تیلەکۆ
تیلەکۆی
تیم
تیمار
تیمور
تیمۆری
تیمی
تیمێک
تیمێکی
تیمە
تیمەکانی
تیمەکە
تیمەکەی
تین
تیه
تیپ
تیپی
تیپێکی
تیپە
تیپەکە
تیپەکەی
تیژ
تیژی
تیژە
تیڤی
تیک
تیکاب
تیۆدۆر
تیۆرمی
تیۆرمە
تیۆری
تیۆریی
تیۆرییە
تیۆرییەکانی
تیۆرە
تێ
تێبگات
تێبگەن
تێبگەین
تێبینی
تێبینیی
تێبینییەکان
تێبینییەکانی
تێبینیەکان
تێد
تێدا
تێدابوو
تێدابووە
تێدابێت
تێداکرد
تێداکردبوو
تێداکردووە
تێدایە
تێدەپەڕن
تێدەپەڕێت
تێدەکەن
تێدەگات
تێدەگەن
تێر
تێرمی
تێرمیناڵی
تێری
تێریۆن
تێزی
تێسا
تێسلا
تێل
تێنس
تێنسی
تێنۆ
تێنیسی
تێوەگلانی
تێي
تێپەر
تێپەربوونی
تێپەڕ
تێپەڕاند
تێپەڕاندنی
تێپەڕاندووە
تێپەڕبوون
تێپەڕبوونی
تێپەڕی
تێپەڕین
تێپەڕینی
تێپەڕیوە
تێچوو
تێچوون
تێچوونی
تێچووی
تێچووە
تێڕوانینی
تێڕوانینێکی
تێڕوانینە
تێک
تێکدان
تێکدانی
تێکدەچێت
تێکرای
تێکردنی
تێکساس
تێکستی
تێکشکا
تێکشکان
تێکشکاند
تێکشکاندنی
تێکشکانی
تێکچوو
تێکچوون
تێکچوونی
تێکڕا
تێکڕای
تێکڕایی
تێکھەڵچوونی
تێکۆشان
تێکۆشانی
تێکۆشەر
تێکی
تێکەل
تێکەلەی
تێکەڵ
تێکەڵاو
تێکەڵاوی
تێکەڵبوون
تێکەڵبوونی
تێکەڵکردنی
تێکەڵی
تێکەڵە
تێکەڵەکە
تێکەڵەی
تێکەڵەیەک
تێکەڵەیەکی
تێگەشتن
تێگەیشتن
تێگەیشتنی
تێگەیشتنێکی
تێی
تێیاندا
تێیدا
تێیدایە
تە
تەبرێز
تەبەرستان
تەبەری
تەجوید
تەحسین
تەخت
تەختی
تەختە
تەختەکلیل
تەختەکلیلی
تەختەی
تەرابلوس
تەرخان
تەرخانکراوە
تەرخانکردنی
تەرمی
تەرمەنی
تەرمەکەی
تەرواڵ
تەرکیز
تەرگەوەڕ
تەریقەت
تەریقەتی
تەریقەتە
تەزوو
تەزووی
تەزەکەند
تەسلیم
تەسک
تەسەوف
تەشەنەکردنی
تەشەنەی
تەغامین
تەغڕۆڵ
تەفسیر
تەفسیری
تەق
تەقاندن
تەقاندنی
تەقاندنەوەی
تەقاندەوە
تەقتەق
تەقلیدی
تەقینەوە
تەقینەوەکان
تەقینەوەکانی
تەقینەوەکە
تەقینەوەی
تەقینەوەیەک
تەقینەوەیەکی
تەقییەوە
تەقە
تەقەمەنی
تەقەکردن
تەقەکەری
تەقەی
تەقەیان
تەل
تەلار
تەلارساز
تەلارسازی
تەلارسازیی
تەلارسازێکی
تەلاری
تەلارە
تەلي
تەلی
تەلیسکۆب
تەلیسکۆبی
تەلیسکۆپی
تەلەعفەر
تەلەفزیۆن
تەلەفزیۆنی
تەلەفزیۆنیی
تەلەفزیۆنییە
تەلەفزیۆنییەکان
تەلەفۆن
تەلەفۆنی
تەلەفۆنە
تەلەفیزیۆنی
تەلەڤزیۆن
تەلەڤزیۆنی
تەلەڤیزیۆن
تەلەڤیزیۆندا
تەلەڤیزیۆنی
تەلەڤیزیۆنیی
تەلەڤیزیۆنییانەی
تەلەڤیزیۆنییە
تەلەڤیزیۆنییەکان
تەلەڤیزیۆنییەکانی
تەلەکان
تەلەگراف
تەم
تەماتە
تەماشا
تەماشاکردنی
تەماشای
تەمموز
تەمموزی
تەممووز
تەممووزدا
تەممووزی
تەموورە
تەمووز
تەمووزی
تەمەن
تەمەنی
تەمەنیان
تەمەنیدا
تەمەنێک
تەمەنێکی
تەمەنە
تەن
تەنانەت
تەندروست
تەندروستی
تەندروستیی
تەندرووستی
تەنزانیا
تەنها
تەنک
تەنکی
تەنکە
تەنگ
تەنگژە
تەنگی
تەنھا
تەنۆلکە
تەنۆلکەی
تەنی
تەنیا
تەنیایی
تەنیشت
تەنیشتی
تەنێک
تەنێکی
تەنە
تەنەکان
تەنەکانی
تەنەکە
تەواو
تەواوبوو
تەواوبوون
تەواوبوونی
تەواوکاری
تەواوکاریی
تەواوکرد
تەواوکردنی
تەواوکردووە
تەواوکەر
تەواوکەری
تەواوی
تەواویان
تەواوە
تەواوەتی
تەواوەکان
تەورات
تەورێز
تەورێزی
تەونی
تەوژم
تەوژمی
تەوژمە
تەویل
تەوێڵە
تەوەر
تەوەری
تەوەرە
تەوەرەی
تەوەرەیی
تەوەکەڵی
تەي
تەپڵ
تەپۆڵکە
تەپی
تەپە
تەپەسپی
تەپەی
تەڕ
تەڕەماری
تەڤگەری
تەک
تەکساس
تەکسی
تەکنۆلۆژی
تەکنۆلۆژیا
تەکنۆلۆژیای
تەکنیک
تەکنیکی
تەکنیکیی
تەکنیکییەکان
تەکنیکێکی
تەکنیکە
تەکنیکەکانی
تەکنەلۆجیا
تەکنەلۆجیای
تەکنەلۆژی
تەکنەلۆژیا
تەکنەلۆژیای
تەکویر
تەکیە
تەکیەی
تەکێ
تەڵاتەپە
تەڵاق
تەھا
تەھمەسپ
تەیب
تەیفوور
تەیمور
تەیموور
تەیمووری
تەیمیە
تەییب
ث
ثار
ج
جا
جابر
جادوو
جادووگەر
جادووگەری
جادووگەرە
جادووی
جادوویی
جادەی
جار
جاران
جارانی
جاروبار
جاری
جاریش
جارێ
جارێک
جارێکی
جارێکیان
جارێکیتر
جارێکیش
جارە
جاز
جاسیە
جاف
جافر
جافی
جام
جامایکا
جامع
جامعة
جامی
جامێکی
جامە
جامەکە
جامەکەی
جان
جانسن
جانگ
جانی
جاوید
جاڕ
جاڕنامەی
جاڤا
جاڤاسکریپت
جاک
جاکسن
جاکسۆن
جاکۆب
جاکی
جاڵجاڵۆکە
جاڵجاڵۆکەی
جای
جددی
جدی
جزء
جزیری
جزیرە
جعفر
جل
جلال
جلد
جلوبەرگ
جلوبەرگی
جلووبەرگ
جلی
جلێکی
جلەکانی
جمال
جموجۆڵی
جن
جنابت
جنس
جنسی
جنۆکە
جنۆکەی
جنێزە
جنێڤ
جه
جو
جوامێر
جوان
جوانتر
جوانترین
جوانڕۆ
جوانکاری
جوانی
جوانیناسی
جوانیی
جوانە
جوانەکان
جوانەکانی
جوتیار
جوتیاران
جودا
جودۆ
جودی
جولای
جولیا
جولیان
جولیوس
جولە
جولەکە
جولەکەکان
جولەکەکانی
جولەی
جومعە
جومگە
جومگەکان
جومگەکانی
جومگەکە
جومگەی
جومۆنگ
جون
جونگ
جونیۆر
جوو
جووت
جووتبوون
جووتیار
جووتیاران
جووتێک
جووتە
جوولای
جوولە
جوولەکە
جوولەکەکان
جوولەکەکانی
جوولەکەی
جوولەی
جوون
جووڵاندنی
جووڵانەوە
جووڵانەوەی
جووڵاو
جووڵاوی
جووڵاوەکان
جووڵە
جووڵەکانی
جووڵەی
جووڵەیەکی
جووە
جووەکان
جووەکانی
جوگرافی
جوگرافیا
جوگرافیای
جوگرافیایی
جوگرافیی
جوگرافییە
جوڵان
جوڵاندنی
جوڵانەوە
جوڵانەوەی
جوڵاو
جوڵاوی
جوڵە
جوڵەی
جڤات
جڤاتی
جڤاکی
جڤاکێن
جگه
جگە
جگەر
جگەرخوێن
جگەرە
جگەرەکێشان
جگەلە
جڵەوی
جۆ
جۆبز
جۆدی
جۆر
جۆرانە
جۆرانەی
جۆراو
جۆراوجۆر
جۆراوجۆردا
جۆراوجۆری
جۆراوجۆریان
جۆراوجۆرە
جۆراوجۆرەوە
جۆراوجۆرەکان
جۆراوجۆرەکانی
جۆرایەتی
جۆربەجۆر
جۆربەجۆرەکان
جۆربەجۆرەکانی
جۆرج
جۆرجی
جۆرجیا
جۆره
جۆری
جۆریان
جۆرێ
جۆرێک
جۆرێکی
جۆرێکە
جۆرە
جۆرەش
جۆرەکان
جۆرەکانی
جۆرەکەی
جۆرەھا
جۆرەی
جۆرەیان
جۆرەیە
جۆزیف
جۆزێف
جۆزەردان
جۆزەردانی
جۆسۆن
جۆسێ
جۆسێف
جۆش
جۆشی
جۆشەتووی
جۆلەمێرگ
جۆلەی
جۆن
جۆناتان
جۆناس
جۆناسان
جۆنز
جۆنسن
جۆنسۆن
جۆنگ
جۆنی
جۆو
جۆولی
جۆکەر
جۆگەی
جۆڵس
جۆھان
جۆی
جۆیس
جی
جیا
جیابوونەتەوە
جیابوونەوە
جیابوونەوەی
جیابوونەوەیان
جیابووەتەوە
جیابووەوە
جیاتی
جیاجیا
جیاجیاکان
جیاجیاکانی
جیادا
جیادەبێتەوە
جیادەکاتەوە
جیادەکرێتەوە
جیادەکرێنەوە
جیان
جیانگسو
جیاواز
جیاوازتر
جیاوازدا
جیاوازن
جیاوازی
جیاوازیان
جیاوازیی
جیاوازییان
جیاوازییە
جیاوازییەکان
جیاوازییەکانی
جیاوازییەکی
جیاوازە
جیاوازەوە
جیاوازەکان
جیاوازەکاندا
جیاوازەکانی
جیاکاری
جیاکاریی
جیاکرایەوە
جیاکردنەوە
جیاکردنەوەی
جیاکردەوە
جیاکەرەوەی
جیای
جیایان
جیاییخوازی
جیایە
جیبووتی
جیرایا
جیم
جیمی
جین
جینگ
جینۆساید
جینۆسایدی
جینی
جیهان
جیهاندا
جیهانی
جیهانیی
جیهانە
جیوە
جیھاد
جیھادی
جیھان
جیھاندا
جیھانگیری
جیھانی
جیھانیان
جیھانیدا
جیھانیی
جیھانییە
جیھانییەوە
جیھانییەکان
جیھانییەکە
جیھانێکی
جیھانە
جیھانەوە
جیۆلۆجی
جیۆنگ
جیۆپرۆجێکتس
جێ
جێبھێڵێت
جێبەجێ
جێبەجێکار
جێبەجێکاری
جێبەجێکارەکان
جێبەجێکرا
جێبەجێکردن
جێبەجێکردنی
جێبەجێکردنەوە
جێبەجێی
جێت
جێتی
جێرمان
جێرمی
جێری
جێسی
جێسیکا
جێف
جێفری
جێفەرسۆن
جێناوی
جێناوە
جێناکۆکەکانی
جێندەر
جێندەری
جێندەرە
جێندەرەی
جێنس
جێنشین
جێنشینی
جێنی
جێنیفەر
جێهێشت
جێژنی
جێگا
جێگای
جێگایەکی
جێگر
جێگرتنەوەی
جێگری
جێگرەوە
جێگرەوەی
جێگرەوەیەکی
جێگیر
جێگیربوون
جێگیربوونی
جێگیرن
جێگیرکردنی
جێگیری
جێگیرە
جێگیرەکان
جێگە
جێگەی
جێگەیەکی
جێھێشت
جێھێشتنی
جێھێشتووە
جێی
جێیان
جە
جەبار
جەباری
جەبر
جەبری
جەبەل
جەخت
جەختی
جەراح
جەرگ
جەرگەی
جەزا
جەزاي
جەزمان
جەزیرە
جەستن
جەستە
جەستەدا
جەستەی
جەستەیان
جەستەیی
جەستەیەکی
جەعفەر
جەعفەری
جەلادەت
جەلال
جەلالی
جەلالەدین
جەلی
جەلیل
جەلیلە
جەم
جەماعەتەکانی
جەمال
جەماوەر
جەماوەری
جەماوەریی
جەماوەرێکی
جەمسەری
جەمشید
جەمشیدی
جەمپ
جەمیل
جەنابی
جەند
جەنگ
جەنگا
جەنگان
جەنگاوەر
جەنگاوەری
جەنگاوەرێکی
جەنگدا
جەنگی
جەنگیز
جەنگیزخان
جەنگییە
جەنگییەکان
جەنگییەکانی
جەنگێک
جەنگێکی
جەنگە
جەنگەدا
جەنگەوە
جەنگەکان
جەنگەکانی
جەنگەکە
جەنگەکەدا
جەنەراڵ
جەنەوا
جەنەڕاڵ
جەواد
جەودەت
جەوھەر
جەوھەری
جەژن
جەژنی
جەژنە
جەگەنلوی
جەڵتەی
جەڵدەی
جەھان
جەی
جەیسن
جەیسۆن
جەیمز
جەیمس
جەیمی
جەین
جەیک
جەیکەب
ح
حاج
حاجی
حاجیاباد
حاجیان
حاجیاوا
حارس
حازر
حاسونی
حافز
حافزی
حاققە
حالەتی
حامید
حاکم
حاکمی
حاڵ
حاڵی
حاڵێکدا
حاڵەت
حاڵەتدا
حاڵەتی
حاڵەتێک
حاڵەتێکدا
حاڵەتێکی
حاڵەتە
حاڵەتەدا
حاڵەتەکان
حاڵەتەکاندا
حاڵەتەکانی
حاڵەتەکە
حجر
حدک
حزب
حزبی
حزبە
حساب
حسابی
حسن
حسین
حسێن
حسێنی
حسەین
حسەینی
حق
حكومه
حمد
حمه
حمە
حه
حوجرە
حوجرەی
حوزنی
حوزەیران
حوزەیراندا
حوزەیرانی
حوسنی
حوسێن
حوسێناوا
حوسێناوای
حوسێنی
حوسەین
حوسەینی
حومس
حوکم
حوکمڕانی
حوکمی
حوکمیان
حوکمە
حوکمەت
حوکمەتی
حکومداری
حکومڕانی
حکومی
حکومییەکان
حکومەت
حکومەتی
حکومەتێکی
حکومەتە
حکومەتەوە
حکومەتەکەی
حکوومی
حکوومەت
حکوومەتدا
حکوومەتی
حکوومەتێکی
حکوومەتە
حکوومەتەوە
حکوومەتەکان
حکوومەتەکانی
حکوومەتەکەی
حکۆمەتی
حی
حیجاز
حیجر
حیزب
حیزبوڵڵای
حیزبی
حیزبێکی
حیزبە
حیزبەکان
حیزبەکانی
حیزبەکە
حیزبەکەی
حیساب
حیسابی
حیلمی
حیکمەت
حە
حەبیب
حەبەشە
حەتمەن
حەتین
حەج
حەجی
حەدید
حەدیس
حەرام
حەریری
حەرەمی
حەز
حەزرەتی
حەزم
حەزی
حەزیان
حەزەر
حەسار
حەسارا
حەسیچە
حەسەن
حەسەناوا
حەسەنلو
حەسەنی
حەشدی
حەشر
حەفت
حەفتا
حەفتاکان
حەفتاکاندا
حەفتاکانی
حەفتە
حەفید
حەق
حەقی
حەقیقی
حەقیقەت
حەلەب
حەلەبی
حەما
حەماس
حەمام
حەمامی
حەمامە
حەمدانیە
حەمدی
حەمرین
حەمزە
حەمید
حەمیدی
حەمە
حەمەد
حەمەوی
حەمەی
حەنا
حەنای
حەنبەل
حەنبەلی
حەنەفی
حەوا
حەوانەوەی
حەوای
حەوت
حەوتی
حەوتە
حەوتەم
حەوتەمدا
حەوتەمی
حەوتەمین
حەوتەی
حەوز
حەوزی
حەوشەی
حەڤدە
حەکیم
حەکەم
حەیدەر
حەیدەراوا
حەیدەرلی
حەیدەری
حەیران
حەیفا
خ
خاتوو
خاتوون
خاتوونی
خاتوونە
خارپێت
خارکیڤ
خاس
خاشقچی
خالجی
خالد
خالقی
خالی
خالید
خالیدی
خامنەیی
خان
خانزاد
خانم
خانمان
خانمانی
خانمی
خانمێکی
خانمە
خانمەي
خانمەکتەر
خانمەکتەران
خانمەکتەرانی
خانمەکتەری
خانمەکتەرێکی
خانمەکتەرە
خانمەکتەرەکانی
خانه
خانوو
خانووبەرە
خانووبەرەکان
خانووی
خانوویەک
خانوویەکی
خانووە
خانووەکان
خانووەکانی
خانووەکە
خانووەکەی
خانی
خانە
خانەخوێ
خانەخوێی
خانەدان
خانەدانی
خانەدانیی
خانەدانە
خانەدانەکان
خانەدانەکانی
خانەقا
خانەقای
خانەقین
خانەنشین
خانەنشینی
خانەنیشین
خانەوادەی
خانەکان
خانەکانی
خانەکە
خانەی
خانەیی
خانەیەکی
خاو
خاوه
خاوی
خاوێن
خاوێنکردن
خاوێنکردنەوەی
خاوێنی
خاوەن
خاوەندارییەتی
خاوەنداریەتی
خاوەندارێتی
خاوەنی
خاوەنەکەی
خاپوور
خاچ
خاچپەرستان
خاچپەرستی
خاچپەرستەکان
خاچی
خاک
خاکدا
خاکی
خاکێکی
خاکە
خاکەلێوە
خاکەلێوەی
خاکەکانی
خاکەکە
خاکەکەی
خاڵ
خاڵانە
خاڵانەی
خاڵبەندی
خاڵی
خاڵێک
خاڵێکدا
خاڵێکی
خاڵە
خاڵەدا
خاڵەکان
خاڵەکانی
خاڵەی
خایاند
خایاندووە
خایەن
خبرگزاری
ختی
خدر
خدران
خدری
خر
خرا
خرابە
خرانە
خراونەتە
خراوە
خراوەتە
خراپ
خراپتر
خراپترین
خراپکاری
خراپکاریی
خراپی
خراپیان
خراپە
خراپەکار
خراپەکاری
خراپەکان
خراپەکانی
خرایە
خرایەوە
خزم
خزمایەتی
خزمە
خزمەت
خزمەتکار
خزمەتکاری
خزمەتکردن
خزمەتکردنی
خزمەتگوزاری
خزمەتگوزاریی
خزمەتگوزارییە
خزمەتگوزارییەکان
خزمەتگوزارییەکانی
خزمەتگوزارییەکی
خزمەتگووزاری
خزمەتی
خزمەتیان
خزمەتێکی
خزمەتە
خزمەتەکانی
خزمەکانی
خزڵی
خست
خستبوو
خستبووە
خستن
خستنی
خستنە
خستنەڕووی
خستووە
خستووەتە
خستۆتە
خستییە
خستە
خستەوە
خستەڕوو
خشت
خشتی
خشتە
خشتەی
خشتەیەی
خشڵ
خشۆکەکان
خلیسکێنەی
خنکان
خه
خو
خوا
خواجە
خوادا
خوار
خوارد
خواردبوو
خواردن
خواردنی
خواردنێکی
خواردنە
خواردنەوە
خواردنەوەی
خواردنەکان
خواردووە
خواردەمەنی
خوارو
خواروو
خوارووی
خواروی
خوارۆ
خواری
خوارێ
خوارە
خوارەوە
خوارەوەدا
خوارەوەن
خوارەوەی
خوارەوەیە
خوازراو
خوازی
خوازیاری
خواست
خواستن
خواستی
خواستێکی
خوالێخۆشبوو
خوان
خواناسی
خوانی
خواوەند
خواوەندی
خواپەرستی
خوای
خوایە
خود
خودا
خوداوە
خوداوەند
خوداوەندی
خودای
خودایی
خودایە
خودی
خوراسان
خورشید
خورما
خورماتوو
خورماڵ
خوری
خوسراو
خوسرەو
خوشک
خوشکی
خوشکێکی
خوشکە
خوشکەزای
خوشکەکان
خوشکەکانی
خوشکەکەی
خول
خولانەوە
خولانەوەی
خولاوە
خولدا
خولگە
خولگەی
خولگەیی
خولی
خولیای
خولێکی
خولە
خولەدا
خولەک
خولەکانی
خولەکدا
خولەکی
خولەکێک
خولەکێکدا
خولەکە
خولەکەدا
خولەی
خومەینی
خوو
خوودی
خووزستان
خوول
خوولی
خوولەک
خوولەکی
خوولەکە
خووی
خوڕخوڕە
خوڕەم
خوی
خوێ
خوێن
خوێناوی
خوێنبەربوون
خوێند
خوێندا
خوێندن
خوێندندا
خوێندنگا
خوێندنگای
خوێندنگە
خوێندنگەی
خوێندنی
خوێندنە
خوێندنەوە
خوێندنەوەی
خوێندنەکانی
خوێندنەکەی
خوێندوویانە
خوێندوویەتی
خوێندووە
خوێندویەتی
خوێندوە
خوێندکار
خوێندکاران
خوێندکارانی
خوێندکاری
خوێندکارێکی
خوێندکارە
خوێندکارەکانی
خوێندی
خوێندەوار
خوێندەواری
خوێندەواریی
خوێندەوە
خوێنمژ
خوێنمژی
خوێنمژەکان
خوێنی
خوێنە
خوێنەر
خوێنەران
خوێنەرانی
خوێنەری
خوێنەوە
خوێڵینی
خوێی
خوە
خڕ
خڕۆکە
خڕۆکەی
خۆ
خۆبەخش
خۆبەخشانە
خۆبەخشی
خۆبەڕیوەبەری
خۆبەڕێوەبەری
خۆت
خۆتان
خۆجێیی
خۆدەگرێت
خۆر
خۆراسان
خۆراسانی
خۆراوا
خۆراوای
خۆراک
خۆراکی
خۆراکییەکان
خۆراکە
خۆردا
خۆرهەڵاتی
خۆري
خۆرھەڵات
خۆرھەڵاتی
خۆری
خۆرە
خۆرەوە
خۆزگە
خۆزێ
خۆسێ
خۆسەری
خۆش
خۆشبێت
خۆشت
خۆشترین
خۆشحاڵ
خۆشحاڵی
خۆشدەوێت
خۆشم
خۆشناو
خۆشناوەتی
خۆشنووس
خۆشنووسی
خۆشنووسە
خۆشنووسەکانی
خۆشه
خۆشکەر
خۆشگوزەرانی
خۆشی
خۆشیان
خۆشیه
خۆشە
خۆشەویست
خۆشەویسترین
خۆشەویستی
خۆشەویستیی
خۆشەویستییە
خۆشەویستییەوە
خۆشەویستییەکی
خۆشەویستییەکەی
خۆشەویستە
خۆشەویستەکەی
خۆلادان
خۆم
خۆمان
خۆماڵی
خۆماڵیی
خۆماڵییەکانی
خۆمم
خۆوە
خۆى
خۆي
خۆپاراستن
خۆپارێزی
خۆپیشاندان
خۆپیشاندانی
خۆپیشاندانیان
خۆپیشاندانێک
خۆپیشاندانە
خۆپیشاندانەکان
خۆپیشاندانەکانی
خۆپیشاندەر
خۆپیشاندەران
خۆڕ
خۆڕاگری
خۆڕایی
خۆڕسک
خۆڕي
خۆڕھەڵاتی
خۆژیاننامە
خۆکار
خۆکارانە
خۆکوشتن
خۆکوشتنی
خۆکوژی
خۆکوژیی
خۆگەر
خۆگەڕ
خۆڵ
خۆڵی
خۆڵەمێشی
خۆڵەپەتانێ
خۆی
خۆیان
خۆیاندا
خۆیانن
خۆیانی
خۆیانیان
خۆیانەوە
خۆیدا
خۆیشی
خۆیی
خۆیەتی
خۆیەوە
خیانەت
خیانەتی
خیلافەت
خێر
خێرا
خێراتر
خێراترین
خێرايى
خێراکردنی
خێرای
خێرایی
خێراییی
خێرایییەکی
خێراییە
خێراییەکی
خێراییەکەی
خێرایە
خێرخوازی
خێزان
خێزاندا
خێزانی
خێزانیی
خێزانێک
خێزانێکی
خێزانە
خێزانەکان
خێزانەکانی
خێزانەکانیان
خێزانەکە
خێزانەکەی
خێزانەکەیان
خێزانەکەیدا
خێسوس
خێوەتگای
خێوەتگەی
خێوەتە
خێڵ
خێڵان
خێڵی
خێڵە
خێڵەکان
خێڵەکانی
خە
خەبات
خەباتی
خەت
خەتاب
خەتای
خەتتاب
خەتلان
خەتی
خەتیب
خەتەنە
خەتەنەکراو
خەتەنەکردن
خەتەنەکردنی
خەتەنەی
خەدیجە
خەرج
خەرجی
خەرمان
خەرمانان
خەرمانانی
خەرمانەی
خەریک
خەریکن
خەریکی
خەریکە
خەزایی
خەزن
خەزنە
خەزنەدار
خەزێنە
خەزێنەی
خەزەر
خەزەڵوەر
خەزەڵوەری
خەست
خەستی
خەسراوا
خەسرەو
خەسڵەتی
خەسڵەتێکی
خەسڵەتە
خەلاتی
خەلافەت
خەلافەتی
خەلک
خەلکی
خەلیفان
خەلیفانی
خەلیفە
خەلیفەکان
خەلیفەکانی
خەلیفەی
خەلیل
خەلەج
خەلەف
خەلەکان
خەم
خەملێنراوە
خەمڵاندنی
خەمڵینراوە
خەمڵێنراوە
خەمۆکی
خەمی
خەنجەر
خەندان
خەندەق
خەو
خەوتن
خەوتوو
خەون
خەونی
خەونەکان
خەونەکانی
خەوی
خەڵات
خەڵاتی
خەڵاتێک
خەڵاتێکی
خەڵاتێکە
خەڵاتە
خەڵاتەکان
خەڵاتەکانی
خەڵاتەکە
خەڵاتەکەی
خەڵاتەی
خەڵوز
خەڵوزی
خەڵووز
خەڵک
خەڵکانی
خەڵکانێک
خەڵکانێکی
خەڵکدا
خەڵکی
خەڵکیان
خەڵکیدا
خەڵکیش
خەڵکێکی
خەڵکە
خەڵکەوە
خەڵکەکە
خەڵکەکەی
خەیات
خەیار
خەیام
خەیاڵ
خەیاڵدا
خەیاڵی
خەیاڵیی
خەیاڵییە
خەیاڵییەکان
خەیاڵییەکانی
خەیبەر
خەیمز
خەییام
د
دا
داب
دابمەزرێنن
دابمەزرێنێت
دابنرێ
دابنرێت
دابنێ
دابنێت
دابنێم
دابنێن
دابنێیت
دابنێین
دابه
دابونەریتی
دابوو
دابوون
دابووە
دابڕان
دابڕاندنی
دابڕانی
دابین
دابینکردنی
دابێت
دابەزاندنی
دابەزی
دابەزین
دابەزینی
دابەزیوە
دابەش
دابەشبوون
دابەشبوونی
دابەشکاری
دابەشکاریی
دابەشکارییە
دابەشکارییەکانی
دابەشکرا
دابەشکران
دابەشکراون
دابەشکراوە
دابەشکراوەکان
دابەشکرد
دابەشکردن
دابەشکردنی
دابەشکەرانی
دابەشی
دات
داتا
داتاکان
داتاکانی
داتای
داخ
داخرا
داخران
داخرانی
داخراو
داخراوی
داخراوە
داخراوەکان
داخست
داخستن
داخستنی
داخل
داخوازی
داخوران
داخورانی
داخەوە
داد
داده
دادوەر
دادوەران
دادوەرانی
دادوەری
دادپەروەر
دادپەروەرانە
دادپەروەری
دادگا
دادگاکان
دادگاکانی
دادگای
دادگایی
دادگاییکردنی
دادگایەکی
دادگەری
دادی
دادەبەزێت
دادەخرێت
دادەخرێن
دادەمەزرێت
دادەمەزرێنێت
دادەنا
دادەندرێت
دادەنرا
دادەنران
دادەنرێ
دادەنرێت
دادەنرێن
دادەنیشێت
دادەنێ
دادەنێت
دادەنێن
دادەپۆشێت
دار
دارا
دارایی
دارایییەوە
داربەڕولە
داربەڕوو
دارتووی
دارستان
دارستانی
دارستانە
دارستانەکان
دارستانەکانی
دارستانەکە
دارو
داروین
دارک
داری
داریووش
دارێک
دارێکی
دارە
دارەبەن
دارەتوو
دارەشمانە
دارەکان
دارەکانی
دارەکە
داس
داستان
داستانی
داستانییە
داستانە
داش
داعش
داعشەوە
داغ
داغستان
داقوق
دالی
دام
دامه
دامێنی
دامەزرا
دامەزرابوو
دامەزران
دامەزراند
دامەزراندن
دامەزراندنی
دامەزراندووە
دامەزرانی
دامەزرانەکان
دامەزرانەکانی
دامەزراو
دامەزراون
دامەزراوی
دامەزراوە
دامەزراوەکان
دامەزراوەکانی
دامەزراوەکە
دامەزراوەی
دامەزراوەیەکی
دامەزرێنرا
دامەزرێنەر
دامەزرێنەران
دامەزرێنەرانی
دامەزرێنەری
دان
دانا
دانابوو
دانالوی
دانان
دانانرێت
دانانی
دانانەوەی
داناوە
دانایی
دانتێ
داندرا
داندراوە
دانرا
دانرابوو
دانرابوون
دانران
دانراو
دانراون
دانراوی
دانراوە
دانس
دانمارک
دانمارکی
داننان
دانوستان
دانوستانی
دانووب
دانپێدانانی
دانی
دانیال
دانیان
دانیاڵ
دانیشت
دانیشتن
دانیشتنی
دانیشتنێکی
دانیشتنەکانی
دانیشتوان
دانیشتوانی
دانیشتوانیان
دانیشتوانە
دانیشتوانەوە
دانیشتوانەکەی
دانیشتوو
دانیشتووان
دانیشتووانی
دانیشتووانیان
دانیشتووانە
دانیشتووانەوە
دانیشتووانەکەی
دانیشتووی
دانیشتووە
دانیمارک
دانیمارکی
دانیێل
دانیەڵ
دانێ
دانە
دانەر
دانەری
دانەوێڵە
دانەوێڵەکان
دانەوێڵەی
دانەوە
دانەوەی
دانەی
دانەیان
دانەیەک
دانەیەکی
داهاتوو
داهاتوودا
داهاتووی
داهاتی
داهێنانی
داهێنانە
داو
داوا
داواکار
داواکاری
داواکاریی
داواکارییە
داواکارییەکان
داواکارییەکانی
داواکارییەکی
داواکارییەکە
داواکارییەکەی
داواکراو
داواکراوە
داواکردن
داواکردنی
داواکەی
داوای
داوایان
داوایەک
داوایەکی
داود
داودی
داودە
داون
داوه
داوود
داوکاری
داوی
داوێنی
داوە
داوەتە
داوەتەوە
داي
داپۆشراون
داپۆشراوە
داپۆشینی
داپۆشیوە
داپیرەی
داڕشت
داڕشتن
داڕشتنی
داڕشتووە
داڕشتە
داڕشتەی
داڕمانی
داڕێژراو
داڕێژراوە
داڕێژە
داڕێژەکان
داڕێژەکاندا
داڕێژەکانی
داڕێژەکە
داڕێژەی
داڕێژەیە
داڕێژەیەک
داڕێژەیەکی
داڤید
داکا
داکۆکی
داکۆکیکردن
داگرت
داگرتن
داگرتنی
داگری
داگيرساندن
داگیر
داگیرساندن
داگیرساندنی
داگیرسانی
داگیرکاری
داگیرکاریی
داگیرکرا
داگیرکراوی
داگیرکراوە
داگیرکراوەکان
داگیرکرد
داگیرکردبوو
داگیرکردن
داگیرکردنی
داگیرکردووە
داگیرکەر
داگیرکەران
داگیرکەرانی
داگیرکەری
داگیرگەکانی
داگیری
داگیریان
داڵاس
داڵتۆن
داھات
داھاتوو
داھاتوودا
داھاتووی
داھاتووەکان
داھاتی
داھاتێکی
داھاتەکەی
داھێنا
داھێنان
داھێنانی
داھێنانە
داھێنانەکان
داھێنانەکانی
داھێناوە
داھێنرا
داھێنراوە
داھێنەر
داھێنەرانی
داھێنەری
داھێنەرێکی
داھێنەرە
دای
دایان
دایانا
دایرەی
دایك
داینا
داینامیکی
دایناوە
داینەمیکی
دایه
دایک
دایکان
دایکبوو
دایکبوون
دایکبوونی
دایکبوونەکان
دایکبووی
دایکبووە
دایکم
دایکوباوک
دایکی
دایکیان
دایکیدا
دایکیشی
دایکییەوە
دایکێکی
دایکە
دایی
دایە
دایەوە
ددان
ددانی
ددانە
ددانەکان
در
درا
درابوو
درابێت
دراما
دراماتورژی
دراماتیکی
دراماکان
دراماکانی
دراماکە
درامای
درامایە
درامایەکی
درامی
درامیی
درامییە
دران
دراو
دراوسێ
دراوسێکانی
دراوسێی
دراون
دراوی
دراوێکی
دراوە
دراوەتە
دراوەتەوە
دراوەکان
دراوەکانی
دراوەی
دراکولا
دراگۆن
درایە
درایەوە
دروست
دروستبونی
دروستبوو
دروستبوون
دروستبوونی
دروستبووە
دروستبکات
دروستدەکات
دروستدەکرێت
دروستکرا
دروستکرابوو
دروستکرابوون
دروستکراو
دروستکراون
دروستکراوی
دروستکراوە
دروستکرد
دروستکردن
دروستکردنی
دروستکردنەوەی
دروستکردووە
دروستکەر
دروستکەرانی
دروستکەری
دروستی
دروستیان
دروستیی
دروستە
دروشم
دروشمی
دروشمە
درووست
درووستبوونی
درووستکرا
درووستکراون
درووستکراوی
درووستکراوە
درووستکرد
درووستکردن
درووستکردنی
درووستکردووە
درووستی
درووشمی
درک
درکی
درۆ
درۆزن
درۆزنە
درۆی
دریم
درێ
درێسی
درێژ
درێژای
درێژایی
درێژاییی
درێژتر
درێژترین
درێژخایەن
درێژخایەنی
درێژدەبێتەوە
درێژکراوەی
درێژکرایەوە
درێژکردنەوەی
درێژکردەوە
درێژی
درێژیان
درێژیی
درێژییەکەی
درێژیەکەی
درێژە
درێژەدان
درێژەکان
درێژەی
درێژەیان
درەخت
درەختی
درەختەکان
درەنگ
درەنگانی
درەوشاوە
دز
دزڵی
دزی
دزینی
دزێ
دزە
دزەی
دزەیی
دست
دستەوشە
دل
دلێر
دمدم
دمشق
دنیا
دنیادا
دنیاوە
دنیای
ده
دهۆک
دو
دوا
دوابەدوای
دواتر
دواتردا
دواتری
دواتریش
دواجار
دواخرا
دواخستنی
دوازدە
دوازدەھەم
دوان
دواناوەندی
دوانزدە
دوانزە
دوانی
دوانە
دوانەي
دوانەی
دواوە
دواوەی
دواى
دواڕۆژ
دواکەوت
دواکەوتن
دواکەوتنی
دواھەمین
دوای
دوایدا
دواین
دوایی
دواییان
دواییانە
دواییانەدا
دواییدا
دوایین
دواییکرد
دواییی
دوایییە
دوایە
دوبارە
دوبەی
دوخان
دور
دورانی
دوربینی
دورکەوتنەوە
دورگە
دورگەکانی
دورگەی
دوری
دورە
دوسلدۆرف
دوعا
دوم
دونبەلی
دونیا
دونیادا
دونیاوە
دونیای
دوو
دووان
دووانی
دووانیان
دووانە
دووانەکەی
دووانەی
دوواوە
دووای
دووبارە
دووبارەبوونەوەی
دووبارەکردنەوەی
دووبارەی
دووبەرەکی
دووجا
دووجادایە
دووجار
دووجای
دووجایە
دوودڵ
دوودڵی
دوور
دوورتر
دوورترین
دوورخرانەوە
دوورخرایەوە
دوورخستنەوە
دوورخستنەوەی
دوورخستەوە
دوورن
دوورودرێژ
دوورکەوتنەوە
دوورکەوتەوە
دوورگە
دوورگەکان
دوورگەکانی
دوورگەکە
دوورگەی
دوورگەییەکان
دوورگەیە
دوورگەیەکی
دوورگەیەکە
دووری
دووریان
دووریی
دوورە
دوورەوە
دوورەکان
دووزخورماتوو
دووساڵ
دووسەد
دووسەر
دووشەممە
دووم
دووه
دووهەم
دووهەمی
دووي
دووپات
دووپاتی
دووچاری
دووڕەگەزخواز
دووک
دووکان
دووکانی
دووکی
دووکەڵ
دووکەڵی
دووگیان
دووگیانی
دووھەم
دووھەمی
دووھەمین
دووی
دووە
دووەم
دووەمجار
دووەمدا
دووەمی
دووەمیان
دووەمیش
دووەمین
دووەمە
دووەمەوە
دوپا
دوڕگەی
دوژمن
دوژمنان
دوژمنانی
دوژمنایەتی
دوژمنی
دوژمنەکانی
دوک
دوکان
دوکانی
دوکتور
دوکتۆر
دوکتۆرای
دوگمەی
دوێنێ
دوەمی
ديزل
دڕندانە
دڕندە
دڕندەیی
دڕکە
دڕی
دژ
دژایەتی
دژایەتیکردنی
دژایەتیی
دژبە
دژه
دژوار
دژواری
دژوارە
دژی
دژیان
دژە
دکتر
دکتۆر
دکتۆرا
دکتۆراکەی
دکتۆرای
دکتۆری
دڵ
دڵت
دڵتەنگ
دڵتەنگی
دڵخواز
دڵخوازی
دڵخۆش
دڵخۆشی
دڵدار
دڵداری
دڵسۆز
دڵسۆزی
دڵشاد
دڵم
دڵنیا
دڵنیابوون
دڵنیابوونەوە
دڵنیابە
دڵنیام
دڵنیای
دڵنیایی
دڵنیایییەوە
دڵنیاییەوە
دڵوەران
دڵۆپە
دڵی
دڵیان
دڵە
دڵەوە
دڵەڕاوکێ
دھۆک
دۆ
دۆبلاژ
دۆبلاژی
دۆت
دۆج
دۆجکۆین
دۆخ
دۆخی
دۆخێکی
دۆخە
دۆخەکانی
دۆخەکە
دۆرا
دۆرتمۆند
دۆزرانەوە
دۆزراونەتەوە
دۆزراوە
دۆزراوەتەوە
دۆزرایەوە
دۆزی
دۆزینەوە
دۆزینەوەکانی
دۆزینەوەی
دۆزیوەتەوە
دۆزییەوە
دۆزیەوە
دۆزەخ
دۆزەرەوە
دۆزەرەوەکانی
دۆزەرەوەی
دۆس
دۆست
دۆستان
دۆستانە
دۆستانەدا
دۆستانەی
دۆستایەتی
دۆستی
دۆسیەکە
دۆسیەی
دۆغان
دۆلار
دۆلاری
دۆلارە
دۆم
دۆمینیک
دۆمینیکا
دۆمینیکان
دۆمەینی
دۆن
دۆناڵد
دۆنم
دۆنگ
دۆنگی
دۆنێتسک
دۆڕا
دۆڕان
دۆڕاند
دۆڕاندنی
دۆڕاندنیان
دۆڕانی
دۆکۆمێنتاری
دۆکیومێنتاری
دۆگ
دۆگلاس
دۆڵ
دۆڵبێشکی
دۆڵی
دۆڵێکی
دۆڵە
دۆڵەبی
دۆڵەڕووت
دۆڵەکانی
دۆی
دۆیڵ
دی
دیار
دیاربوو
دیاربەکر
دیارترین
دیارترینیان
دیاردە
دیاردەکانی
دیاردەکە
دیاردەی
دیاردەیە
دیاردەیەکی
دیارن
دیارکردنی
دیاری
دیاریان
دیاریکرا
دیاریکراو
دیاریکراودا
دیاریکراوی
دیاریکراویان
دیاریکراوە
دیاریکراوەکان
دیاریکرد
دیاریکردن
دیاریکردنی
دیاریی
دیارە
دیارەکان
دیارەکانی
دیاز
دیالۆگ
دیالێکتی
دیالە
دیانا
دیاکۆ
دیت
دیترۆیت
دیتنی
دیجلە
دیجیتاڵ
دیجیتاڵی
دیدار
دیداری
دیدی
دیزاین
دیزاینکردنی
دیزاینی
دیزاینێکی
دیزاینە
دیزاینەر
دیزاینەری
دیزاینەکەی
دیزل
دیزنی
دیزڵ
دیزڵی
دیسان
دیسانەوە
دیسک
دیسکۆگرافی
دیسکی
دیسی
دیسەمبەری
دیل
دیلان
دیلی
دیم
دیموکرات
دیموکراتی
دیموکراتیک
دیموکراتیکی
دیموکراتیی
دیموکراتەکان
دیموکراسی
دیموکراسیی
دیمۆگرافی
دیمۆگرافیای
دیمەشق
دیمەشقی
دیمەن
دیمەنی
دیمەنێک
دیمەنێکی
دیمەنە
دیمەنەکان
دیمەنەکانی
دیمەنەکە
دین
دینا
دینار
دیناری
دینامیکی
دیندار
دینگ
دینۆ
دینی
دینەمۆ
دیو
دیوار
دیواری
دیوارێکی
دیوارە
دیوارەکان
دیوارەکانی
دیوارەکە
دیوان
دیواندەرە
دیواندەرەیە
دیوانی
دیوانە
دیوانەکەی
دیووتی
دیوی
دیوە
دیوەخان
دیپلۆماتکار
دیپلۆماسی
دیپلۆمی
دیڤیدی
دیک
دیکتاتۆر
دیکتاتۆری
دیکن
دیکنز
دیکه
دیکینسۆن
دیکە
دیکەدا
دیکەش
دیکەشدا
دیکەشی
دیکەشیان
دیکەشەوە
دیکەوە
دیکەی
دیکەیان
دیکەیە
دیێگۆ
دێ
دێت
دێتە
دێتەوە
دێدانا
دێر
دێرا
دێربی
دێرسم
دێرنەکانی
دێری
دێرین
دێرینی
دێرینە
دێرینەکان
دێرینەکانی
دێرە
دێرەکە
دێس
دێل
دێلوڕان
دێلێژە
دێم
دێموکرات
دێموکراتی
دێن
دێنن
دێنیس
دێنێ
دێنێت
دێنێتە
دێنێتەوە
دێنە
دێوانە
دێولان
دێپ
دێڕ
دێڕی
دێڕە
دێڤاگیری
دێکارت
دێکانی
دێکۆن
دێی
دێیە
دێیەکە
دە
دەبا
دەبات
دەباتە
دەباتەوە
دەبارێت
دەبرا
دەبرد
دەبردرێت
دەبرێ
دەبرێت
دەبرێن
دەبلیو
دەبلیوو
دەبم
دەبن
دەبنە
دەبنەوە
دەبوایە
دەبوو
دەبوون
دەبوونەوە
دەبوویەوە
دەبووە
دەبڕن
دەبڕێت
دەبڵ
دەبۆوە
دەبی
دەبیت
دەبیتە
دەبیسترێت
دەبین
دەبیندرێت
دەبینرا
دەبینرێ
دەبینرێت
دەبینرێن
دەبینم
دەبینن
دەبینی
دەبینیت
دەبینین
دەبینێ
دەبینێت
دەبینێتەوە
دەبێ
دەبێت
دەبێتە
دەبێتەوە
دەبێتەھۆی
دەبەخشرێت
دەبەخشن
دەبەخشێ
دەبەخشێت
دەبەست
دەبەسترێت
دەبەسترێتەوە
دەبەسترێنەوە
دەبەستن
دەبەستێ
دەبەستێت
دەبەستێتەوە
دەبەن
دەبەنە
دەتواندرێت
دەتوانرا
دەتوانرێ
دەتوانرێت
دەتوانم
دەتوانن
دەتوانی
دەتوانیت
دەتوانین
دەتوانێ
دەتوانێت
دەتوێتەوە
دەتەقێتەوە
دەتەوێ
دەتەوێت
دەجوڵێت
دەخات
دەخاتە
دەخاتەوە
دەخایەنێت
دەخرێت
دەخرێتە
دەخرێنە
دەخستە
دەخوات
دەخوارد
دەخوازێت
دەخورێت
دەخولێتەوە
دەخولێنەوە
دەخوێند
دەخوێندرێتەوە
دەخوێندەوە
دەخوێنرێتەوە
دەخوێنن
دەخوێنێ
دەخوێنێت
دەخوێنێتەوە
دەخۆن
دەخەن
دەخەنە
دەدا
دەدات
دەداتێ
دەداتە
دەداتەوە
دەدرا
دەدرێ
دەدرێت
دەدرێتە
دەدرێتەوە
دەدرێن
دەدرەوشێتەوە
دەدوێ
دەدوێت
دەدوێن
دەدۆزرێتەوە
دەدۆزرێنەوە
دەدۆزنەوە
دەدۆزێتەوە
دەدەم
دەدەن
دەدەنەوە
دەدەیت
دەدەین
دەر
دەرباری
دەربارە
دەربارەی
دەرباز
دەربازبوون
دەربازی
دەرببڕن
دەرببڕێت
دەربچێت
دەربڕی
دەربڕین
دەربڕینی
دەربڕینە
دەربڕیوە
دەربکات
دەربکەوێت
دەربەدەری
دەربەند
دەربەندی
دەربەندیخان
دەرخست
دەرخستنی
دەرخەری
دەرد
دەردانی
دەردی
دەردەباریکە
دەردەبڕن
دەردەبڕێت
دەردەخات
دەردەخەن
دەردەچن
دەردەچوو
دەردەچێ
دەردەچێت
دەردەکات
دەردەکرێت
دەردەکەن
دەردەکەوت
دەردەکەون
دەردەکەوێ
دەردەکەوێت
دەرزی
دەرس
دەرسی
دەرسیم
دەرفەت
دەرفەتی
دەرفەتێک
دەرفەتێکی
دەرمان
دەرمانخانە
دەرمانسازی
دەرمانی
دەرمانێک
دەرمانێکی
دەرمانە
دەرمانەکان
دەرمانەکانی
دەرمانەکە
دەرناکەوێت
دەرهێنانی
دەرهێنەر
دەرهێنەری
دەروات
دەروازە
دەروازەکان
دەروازەکانی
دەروازەکە
دەروازەی
دەروازەیەک
دەروازەیەکی
دەرونناسی
دەرونی
دەروون
دەروونناس
دەروونناسی
دەروونناسیی
دەروونپزیشکی
دەروونی
دەروونیی
دەروونییە
دەروونییەوە
دەروونییەکان
دەروێش
دەروێشی
دەري
دەرپەڕینی
دەرچوانی
دەرچونی
دەرچوو
دەرچووان
دەرچووانی
دەرچوون
دەرچوونی
دەرچووی
دەرچووە
دەرچووەکان
دەرچەی
دەرژێتە
دەرکرا
دەرکران
دەرکراوە
دەرکرد
دەرکردبوو
دەرکردن
دەرکردنی
دەرکردووە
دەرکی
دەرکەوت
دەرکەوتن
دەرکەوتنی
دەرکەوتنیان
دەرکەوتنێکی
دەرکەوتوو
دەرکەوتوون
دەرکەوتووە
دەرکەوتەوە
دەرکەوێت
دەرگا
دەرگاکانی
دەرگای
دەرھێنا
دەرھێنان
دەرھێنانی
دەرھێناوە
دەرھێنراوە
دەرھێنەر
دەرھێنەرانی
دەرھێنەری
دەرھێنەرێکی
دەرھێنەرەکانی
دەری
دەریا
دەریادا
دەریان
دەریاوان
دەریاوانی
دەریاوە
دەریاچە
دەریاچەکان
دەریاچەکانی
دەریاچەکە
دەریاچەی
دەریاچەیە
دەریاکان
دەریاکانی
دەریاکە
دەریای
دەریایی
دەریاییی
دەریایە
دەریخست
دەریدەخات
دەرێ
دەرێی
دەرە
دەرەبەگایەتی
دەرەجەی
دەرەنجام
دەرەنجامی
دەرەوە
دەرەوەی
دەرەکی
دەرەکییە
دەرەکییەکان
دەرەکیەکان
دەزانرێت
دەزانم
دەزانن
دەزانی
دەزانیت
دەزانین
دەزانێ
دەزانێت
دەزگا
دەزگاکان
دەزگاکانی
دەزگاکە
دەزگای
دەزگایە
دەزگایەک
دەزگایەکی
دەس
دەست
دەستان
دەستبەجێ
دەستبەرداری
دەستبەسەر
دەستبەسەرداگرتنی
دەستبەسەرکردنی
دەستبەکار
دەستبەکاربوونی
دەستت
دەستتان
دەستخۆش
دەستخۆشی
دەستدا
دەستدانی
دەستدرێژی
دەستدرێژیی
دەستدەکات
دەستلەکارکێشانەوەی
دەستم
دەستمان
دەستن
دەستنووس
دەستنووسی
دەستنیشان
دەستنیشانکرا
دەستنیشانکراون
دەستنیشانکردن
دەستنیشانکردنی
دەستنیشانی
دەستور
دەستوری
دەستوور
دەستووری
دەستوورییە
دەستوورییەکان
دەستوورییەکانی
دەستپێبکات
دەستپێشخەری
دەستپێک
دەستپێکرد
دەستپێکردن
دەستپێکردنی
دەستپێکردنەوەی
دەستپێکردووە
دەستپێکی
دەستڕاگەیشتن
دەستکاری
دەستکاریکردن
دەستکاریکردنی
دەستکاریکەر
دەستکاریکەری
دەستکاریی
دەستکارییە
دەستکارییەک
دەستکارییەکان
دەستکارییەکانت
دەستکارییەکانی
دەستکارییەکی
دەستکارییەکە
دەستکرا
دەستکرد
دەستکردن
دەستکردی
دەستکردە
دەستکردەکان
دەستکردەکانی
دەستکردەکە
دەستکەوت
دەستکەوتنی
دەستکەوتی
دەستکەوتێکی
دەستکەوتە
دەستکەوتەکان
دەستکەوتەکانی
دەستگرتن
دەستگیر
دەستگیرکرا
دەستگیرکران
دەستگیرکراوە
دەستگیرکرد
دەستگیرکردن
دەستگیرکردنی
دەستگەیشتن
دەستی
دەستیان
دەستیانکرد
دەستیپێکرد
دەستیپێکردووە
دەستیکرد
دەستێوەردانی
دەستێکی
دەستە
دەستەبەر
دەستەبەرکردنی
دەستەبەری
دەستەواژە
دەستەواژەکە
دەستەواژەی
دەستەواژەیە
دەستەواژەیەکی
دەستەواژەیەکە
دەستەوە
دەستەکان
دەستەکانت
دەستەکانی
دەستەکە
دەستەکەی
دەستەڵات
دەستەڵاتی
دەستەی
دەستەیە
دەستەیەک
دەستەیەکی
دەسنیشان
دەسوڕێتەوە
دەسوڕێنەوە
دەسپێکی
دەسکاری
دەسکەوتی
دەسکەوتەکانی
دەسەلاتی
دەسەلمێنێت
دەسەڵات
دەسەڵاتدا
دەسەڵاتدار
دەسەڵاتداران
دەسەڵاتدارانی
دەسەڵاتداری
دەسەڵاتداریی
دەسەڵاتی
دەسەڵاتیان
دەسەڵاتێکی
دەسەڵاتە
دەسەڵاتەکانی
دەسەڵاتەکەی
دەشارێتەوە
دەشت
دەشتایی
دەشتی
دەشتێکی
دەشتە
دەشتەکانی
دەشنێ
دەشکێت
دەشکێنێت
دەشێ
دەشێت
دەف
دەفتەری
دەفرۆشرێت
دەفرۆشێت
دەفری
دەفرێکی
دەفڕن
دەفەر
دەفەرموێت
دەق
دەقاودەق
دەقی
دەقێک
دەقێکی
دەقە
دەقەکان
دەقەکانی
دەقەکە
دەقەی
دەكات
دەكرێت
دەلھی
دەلۆ
دەلێت
دەلێن
دەم
دەمار
دەمارگیری
دەماری
دەمارە
دەمارەکان
دەمارەکانی
دەمانەوێت
دەمایەوە
دەمرن
دەمرێت
دەموچاو
دەموچاوی
دەمی
دەمیرتاش
دەمیرچی
دەمینێتەوە
دەمێننەوە
دەمێنێتەوە
دەمێک
دەمێکە
دەمە
دەمەدا
دەمەوانە
دەمەوانەکان
دەمەوانەکانی
دەمەوانەکە
دەمەوانەی
دەمەوێ
دەمەوێت
دەمەوە
دەمەی
دەنا
دەناسرا
دەناسرێ
دەناسرێت
دەناسرێتەوە
دەناسرێن
دەناسن
دەناسێت
دەناسێنێت
دەناڵێنن
دەناڵێنێت
دەنرێت
دەنوسێت
دەنووسرێ
دەنووسرێت
دەنووسرێن
دەنووسن
دەنووسی
دەنووسیت
دەنووسێ
دەنووسێت
دەنوێنن
دەنوێنێ
دەنوێنێت
دەنکە
دەنگ
دەنگانە
دەنگدان
دەنگدانی
دەنگدانیان
دەنگدانەوە
دەنگدانەوەی
دەنگدانەوەیەکی
دەنگدانەکە
دەنگدەر
دەنگدەران
دەنگدەرانی
دەنگناسی
دەنگۆی
دەنگی
دەنگیان
دەنگیی
دەنگییە
دەنگێک
دەنگێکی
دەنگە
دەنگەوە
دەنگەکان
دەنگەکانی
دەنگەکانیان
دەنگەکە
دەنگەکەی
دەنیز
دەنێ
دەنێت
دەنێردرێت
دەنێردرێتە
دەنێرێت
دەنێن
دەهلی
دەهێنرێت
دەهێنن
دەهێنێت
دەو
دەوا
دەوت
دەوترا
دەوترێ
دەوترێت
دەوتەوە
دەوحە
دەور
دەوران
دەورانی
دەورو
دەوروبەر
دەوروبەری
دەوروبەریان
دەورووبەری
دەوروپشتی
دەوری
دەوریان
دەورێکی
دەورە
دەورەدراوە
دەورەی
دەولەت
دەولەتی
دەووترێت
دەوڵەت
دەوڵەتان
دەوڵەتانی
دەوڵەتدا
دەوڵەتی
دەوڵەتێک
دەوڵەتێکی
دەوڵەتە
دەوڵەتەوە
دەوڵەتەکان
دەوڵەتەکانی
دەوڵەتەکە
دەوڵەتەکەی
دەوڵەتەکەیان
دەوڵەمەند
دەوڵەمەندترین
دەوڵەمەندی
دەوڵەمەندە
دەوڵەمەندەکان
دەوڵەمەندەکانی
دەویست
دەوێ
دەوێت
دەوەستن
دەوەستێت
دەوەن
دەي
دەپارێزن
دەپارێزێت
دەپرسێت
دەپێورێت
دەچن
دەچنە
دەچنەوە
دەچوو
دەچوون
دەچوونە
دەچووە
دەچیتە
دەچێ
دەچێت
دەچێتە
دەچێتەوە
دەڕوا
دەڕوات
دەڕواتە
دەڕوانێت
دەڕوانێتە
دەڕوێت
دەڕژێتە
دەڕژێنە
دەڕۆن
دەڕۆیشت
دەڕۆیشتن
دەڕەشار
دەژمێردرێت
دەژمێردرێن
دەژی
دەژیا
دەژیان
دەژیت
دەژین
دەژیێت
دەژێت
دەژەنێت
دەڤەری
دەڤەرە
دەڤەرەکە
دەکا
دەکات
دەکاتە
دەکاتەوە
دەکان
دەکرا
دەکران
دەکرایەوە
دەکرد
دەکردن
دەکردە
دەکردەوە
دەکریت
دەکرێ
دەکرێت
دەکرێتە
دەکرێتەوە
دەکرێن
دەکرێنەوە
دەکوژرێت
دەکوژرێن
دەکوژن
دەکوژێت
دەکڕێت
دەکۆڵێتەوە
دەکێشا
دەکێشن
دەکێشێت
دەکەم
دەکەمەوە
دەکەن
دەکەنە
دەکەنەوە
دەکەوت
دەکەوتە
دەکەون
دەکەونە
دەکەویتە
دەکەوێ
دەکەوێت
دەکەوێتە
دەکەوێتەوە
دەکەی
دەکەیت
دەکەین
دەکەینەوە
دەگات
دەگاتە
دەگرت
دەگرتەوە
دەگرن
دەگرنە
دەگرنەوە
دەگرین
دەگرێ
دەگرێت
دەگرێتە
دەگرێتەخۆ
دەگرێتەوە
دەگمەن
دەگمەنی
دەگمەنە
دەگوازرێتەوە
دەگوازرێنەوە
دەگوازنەوە
دەگوازێتەوە
دەگوت
دەگوترا
دەگوترێ
دەگوترێت
دەگونجێت
دەگوێزرێتەوە
دەگۆرێت
دەگۆڕدرێت
دەگۆڕدرێن
دەگۆڕن
دەگۆڕێ
دەگۆڕێت
دەگۆڕێن
دەگیرێ
دەگیرێت
دەگیرێن
دەگێرێتەوە
دەگێڕا
دەگێڕدرێتەوە
دەگێڕن
دەگێڕنەوە
دەگێڕێ
دەگێڕێت
دەگێڕێتەوە
دەگەرێتەوە
دەگەن
دەگەنە
دەگەڕا
دەگەڕان
دەگەڕایەوە
دەگەڕیتەوە
دەگەڕێ
دەگەڕێت
دەگەڕێتەوە
دەگەڕێن
دەگەڕێندرێتەوە
دەگەڕێننەوە
دەگەڕێنێتەوە
دەگەڕێنەوە
دەگەڵ
دەگەیشتنە
دەگەیشتە
دەگەیەنن
دەگەیەنێت
دەڵێ
دەڵێت
دەڵێتەوە
دەڵێم
دەڵێن
دەڵێی
دەڵێین
دەھات
دەھاتن
دەھاتە
دەھلی
دەھێنا
دەھێندرێت
دەھێنرا
دەھێنرێ
دەھێنرێت
دەھێنرێن
دەھێنن
دەھێنێ
دەھێنێت
دەھێنێتە
دەھێنێتەوە
دەھێڵێت
دەی
دەیان
دەیانتوانی
دەیانزانی
دەیانویست
دەیانگوت
دەیانەوێ
دەیانەوێت
دەیبینێت
دەیتوانی
دەیخاتە
دەیخوێند
دەیزانی
دەیسەلمێنن
دەیفەرموو
دەیلی
دەیلەم
دەیمن
دەیناڵاند
دەینووسی
دەیوت
دەیویست
دەیڤ
دەیڤد
دەیڤس
دەیڤید
دەیکات
دەیکاتە
دەیکرد
دەیکوژێت
دەیکەن
دەیگوت
دەیگووت
دەیڵی
دەیە
دەیەم
دەیەمی
دەیەمین
دەیەوێ
دەیەوێت
دەیەکان
دەیەکانی
دەیەی
ذ
ر
را
رابردوو
رادیۆ
رادەی
رازی
راست
راستی
راستەوخۆ
راستەوخۆی
رامبه
ران
رانی
راوێژکاری
راي
راگەیاند
راگەیاندن
راگەیاندنی
رای
رایه
رایگەیاند
ربه
رجه
رد
رده
ردوو
ردی
ردە
رز
رزه
رزگار
رزگاری
رزی
رسالة
رسول
رضا
ركه
رم
رمان
رمانی
رمه
رمی
رنامه
ره
رهه
رو
روانگەی
روز
روس
روستاهای
روسیا
روه
روو
رووباری
رووبەر
رووبەری
رووخانی
رووداوەکان
روودەدات
رووسیا
روون
رووناکی
روونبرینداری
روونی
رووی
روی
روە
ري
رچاوه
رچی
رژه
رژێمی
رکه
رگه
رھە
رۆبێر
رۆشنبیری
رۆشنبیریی
رۆلی
رۆماجی
رۆمان
رۆمانی
رۆنی
رۆنێ
رۆژ
رۆژانە
رۆژاوا
رۆژاوای
رۆژنامە
رۆژنامەی
رۆژهەڵاتی
رۆژي
رۆژھەڵات
رۆژھەڵاتی
رۆژی
رۆژێ
رۆژێک
رۆک
رۆڵی
ری
ریال
ریان
رین
ریه
ریچارد
رێ
رێبازی
رێبەری
رێز
رێمی
رێنی
رێژەی
رێژەیەکی
رێک
رێکخراوی
رێکخراوە
رێکخستن
رێکخستنی
رێگا
رێگای
رێگری
رێگە
رێگەی
رە
رەخنەی
رەخنەیی
رەسمی
رەش
رەشید
رەمەزان
رەنگ
رەنگی
رەنگە
رەوانەی
رەی
ز
زا
زابکا
زاتی
زاتە
زاخۆ
زاخۆرانی
زاد
زاده
زادە
زار
زارا
زاراوە
زاراوەکان
زاراوەکانی
زاراوەکە
زاراوەی
زاراوەیە
زاراوەیەکی
زاراوەیەکە
زارۆک
زارۆکەکە
زاری
زاریات
زارێن
زارەکانی
زارەکی
زارەکیی
زازا
زازاکی
زازایی
زامبیا
زامدار
زان
زانا
زاناکان
زاناکانی
زانای
زانایان
زانایانی
زانایە
زانایەک
زانایەکی
زانرا
زانراو
زانراوە
زانست
زانستخوازەکانی
زانستدا
زانستنامە
زانستنامەکە
زانستنامەی
زانستپەروەرانی
زانستگای
زانستگەی
زانستی
زانستیانە
زانستیدا
زانستیی
زانستییە
زانستییەکان
زانستییەکانی
زانستیەکان
زانستێکی
زانستە
زانستەکان
زانستەکانی
زانکۆ
زانکۆکان
زانکۆکانی
زانکۆکە
زانکۆی
زانکۆیی
زانکۆیە
زانکۆیەکی
زانکۆیەکە
زانی
زانیار
زانیاران
زانیاری
زانیاریانە
زانیاریانەی
زانیاریدان
زانیاریدانی
زانیارینامەی
زانیاریی
زانیارییانە
زانیارییانەی
زانیارییە
زانیارییەک
زانیارییەکان
زانیارییەکانی
زانیارییەکی
زانیاریە
زانیاریەکان
زانیاریەکانی
زانین
زانینی
زانیوە
زاوای
زاوزێ
زاوزێی
زاوە
زاک
زاگرۆس
زاگۆرا
زاڵ
زاڵبوون
زاڵبوونی
زاڵە
زاھیر
زاین
زایندا
زاینی
زاینیدا
زایۆنیزم
زایین
زاییندا
زایینی
زایینیدا
زایینەوە
زایەند
زبان
زرا
زراو
زریان
زریانی
زرێبار
زستان
زستاندا
زستانی
زستانێکی
زستانە
زستانەدا
زستانەی
زل
زلھێزەکانی
زمان
زمانانە
زمانانەی
زماندا
زمانناسی
زمانه
زمانى
زمانی
زمانێک
زمانێکی
زمانێکە
زمانە
زمانەوان
زمانەوانانی
زمانەوانی
زمانەوانیی
زمانەکان
زمانەکانی
زمانەکە
زمانەکەی
زمانەی
زن
زنجیر
زنجیرە
زنجیرەچیاکانی
زنجیرەچیای
زنجیرەکان
زنجیرەکانی
زنجیرەکە
زنجیرەکەدا
زنجیرەکەوە
زنجیرەکەی
زنجیرەکەیان
زنجیرەکەیە
زنجیرەی
زنجیرەیی
زنجیرەییەکان
زنجیرەیە
زنجیرەیەک
زنجیرەیەکی
زه
زو
زوبێر
زوخروف
زور
زوربەی
زوممار
زومەر
زوو
زووانە
زووتر
زووترین
زوولفەقار
زووی
زوویی
زووەوە
زووەکانی
زوڵم
زياتر
زياد
زڕ
زگ
زگماکی
زۆدیاک
زۆر
زۆرانبازی
زۆرانبازیی
زۆرانبازێکی
زۆرانبازە
زۆربه
زۆربوون
زۆربوونی
زۆربە
زۆربەى
زۆربەی
زۆربەیان
زۆرتر
زۆرتری
زۆرترین
زۆرترە
زۆرجار
زۆرجاران
زۆرجاریش
زۆردا
زۆرداری
زۆرم
زۆرن
زۆرکات
زۆری
زۆریان
زۆریش
زۆریشی
زۆرینە
زۆرینەی
زۆرینەیان
زۆریی
زۆرێ
زۆرێک
زۆرە
زۆرەملێ
زۆرەملێی
زۆرەوە
زۆرەکانی
زۆرەی
زۆلا
زۆمبی
زۆمبییەکان
زۆڕ
زۆۆر
زی
زیا
زیاتر
زیاتری
زیاتریان
زیاتریش
زیاترین
زیاترە
زیاد
زیادبونی
زیادبوون
زیادبوونی
زیادبکات
زیادتر
زیاددەکات
زیادکرا
زیادکراو
زیادکراودا
زیادکراوی
زیادکراوە
زیادکرد
زیادکردن
زیادکردنی
زیادی
زیادیان
زیادە
زیادەڕۆیی
زیادەی
زیارەتی
زیان
زیانبەخش
زیانی
زیانیان
زیانێکی
زیانە
زیانەکان
زیانەکانی
زیاي
زیدان
زیرەک
زیرەکانە
زیرەکی
زیرەکە
زیرەکەکان
زیلان
زیمبابوی
زیمبابۆی
زیمەر
زین
زیندان
زینداندا
زیندانی
زیندانیکردن
زیندانیکردنی
زیندانییە
زیندانییەکان
زیندانە
زیندانەوە
زیندوو
زیندووان
زیندووکردنەوەی
زیندووی
زیندوویی
زیندووە
زیندووەکان
زیندە
زیندەزانی
زیندەوەر
زیندەوەران
زیندەوەرزانی
زیندەوەری
زیندەوەرە
زیندەیی
زیندەییەکان
زینچێنکۆ
زینک
زیو
زیوی
زیپکە
زێ
زێباری
زێتیان
زێد
زێدان
زێدی
زێر
زێری
زێرین
زێویە
زێویەی
زێوە
زێوەر
زێڕ
زێڕی
زێڕین
زێڕینی
زێڕینە
زێی
زە
زەبر
زەبری
زەبیحی
زەبەلاح
زەبەلاحی
زەبەلاحەکان
زەحمەت
زەحمەتکێشانی
زەحمەتی
زەحمەتە
زەرد
زەردی
زەردە
زەردەشت
زەردەشتی
زەردەڵان
زەریا
زەریاب
زەریاکان
زەریای
زەرەر
زەفەر
زەلان
زەلکەی
زەمالیک
زەمان
زەمانی
زەمانە
زەمانەوە
زەماوەندی
زەمبیلفرۆش
زەمین
زەمینی
زەمینەی
زەند
زەندییەکان
زەنگ
زەنگان
زەنگاوا
زەنگی
زەنگەبار
زەنگەنە
زەواجی
زەوت
زەوی
زەویدا
زەویناسی
زەویی
زەوییە
زەوییەوە
زەوییەکانی
زەوییەکی
زەوییەکە
زەویە
زەویەوە
زەویەکانی
زەڕایەن
زەڕنە
زەڕیناوا
زەڕینە
زەکات
زەکی
زەکەریا
زەڵم
زەھا
زەھاو
زەھرا
زەیتون
زەیتوون
زەیتی
زەید
زەیدی
زەین
زەینی
زەینەب
زەینەڵ
س
سا
سابت
سابق
سابڵاغ
سابیر
سات
ساتۆ
ساتی
ساتێلا
ساتێک
ساتە
ساتەدا
ساتەکانی
ساجیدە
ساحێو
ساختاری
ساختە
ساختەکاری
ساد
سادات
ساداتی
سادق
سادقی
سادە
سادەتر
سادەترین
سادەکراو
سادەی
سادەیی
سادەیە
سارا
سارای
سارتکە
سارتکەی
سارد
ساردترین
سارددا
ساردکردنەوە
ساردکردنەوەی
ساردکەرەوە
ساردی
ساردە
ساروجەی
سارۆخ
ساری
ساریبەیلی
سارە
ساز
سازان
سازدانی
سازمان
سازمانی
سازکرا
سازکرد
سازکردنی
سازگار
سازگاری
سازی
سازە
ساسانی
ساسانییەکان
ساسوکی
ساسکێ
ساشا
ساغ
ساغنیچ
ساف
سافات
سال
سالار
سالاری
سالانی
سالب
سالح
سالم
سالڤادۆر
سالی
سالێ
سالە
سالەکانی
سام
سامان
سامانی
سامانێکی
سامانە
سامانەکەی
سامسۆنگ
سامسۆنگە
ساموێل
سامگووک
سامی
سامییەکان
سامەڕا
سان
سانت
سانتا
سانتۆس
سانتیاگۆ
سانتیمەتر
سانجای
سانسکریت
سانسۆر
سانسۆرکردن
سانسۆری
سانفرانسیسکۆ
سانچێز
سانی
سانێ
ساو
ساوا
ساواک
ساوایان
ساوت
ساوتۆمێ
ساورۆن
ساوندتراکی
ساوپاولۆ
ساي
ساڤانا
ساکار
ساکورا
ساگی
ساڵ
ساڵان
ساڵاندا
ساڵانی
ساڵانێک
ساڵانێکی
ساڵانە
ساڵانەدا
ساڵانەی
ساڵانەیە
ساڵح
ساڵحی
ساڵدا
ساڵزبۆرگ
ساڵزبێرگ
ساڵنامەی
ساڵه
ساڵى
ساڵڕۆژی
ساڵی
ساڵیادی
ساڵیدا
ساڵیش
ساڵییەوە
ساڵیەوە
ساڵێ
ساڵێک
ساڵێکدا
ساڵێکی
ساڵە
ساڵەح
ساڵەدا
ساڵەوە
ساڵەکان
ساڵەکانی
ساڵەکە
ساڵەی
سای
سایت
سایتی
سایتەکە
سایمۆن
ساین
ساینت
ساینقەڵا
سایه
سایکس
سایکۆلۆژیای
سایە
سایەی
سباستیان
سبەی
ست
ستار
ستارلینک
ستارک
ستافی
ستالین
ستالینگراد
ستان
ستانتۆن
ستاندارد
ستانداردی
ستانداردە
ستانداردەکانی
ستانفۆرد
ستانلی
ستایش
ستایشی
ستایشێکی
ستایل
ستایلی
ستایلێکی
ستاینبێک
ستراتیژی
سترۆمای
ستریت
سترێس
سترەینج
سته
ستوارت
ستودیۆ
ستودیۆی
ستونی
ستوون
ستوونی
ستۆدیۆ
ستۆدیۆکانی
ستۆدیۆکە
ستۆدیۆی
ستۆدیۆیەکی
ستۆن
ستۆک
ستۆکھۆڵم
ستۆڵمەن
ستی
ستیان
ستیفن
ستیل
ستیوارت
ستیڤ
ستیڤن
ستیڤنس
ستێرلینگ
ستێره
ستەم
ستەمی
ستەیج
ستەیجی
ستەیسی
ستەیشن
سخ
سدیق
سر
سربی
سربیا
سربیای
سرشیو
سرشیوی
سرودی
سروش
سروشت
سروشتدا
سروشتی
سروشتیی
سروشتییە
سروشتییەوە
سروشتییەکان
سروشتییەکانی
سروشتیەکانی
سروشتێکی
سروود
سروودی
سروودە
سرووشت
سرووشتی
سروە
سرۆچک
سری
سریانی
سریلانکا
سزا
سزادان
سزادانی
سزاکەی
سزای
سسة
سستی
سعد
سعود
سعودی
سعودیا
سعودییە
سعودیە
سعوودی
سعوودیە
سعید
سفر
سفری
سفرە
سقز
سلام
سلامي
سلامية
سلامیة
سلاو
سلندەر
سلندەری
سلندەرێک
سلندەرەکان
سلندەرەکە
سلڤەر
سلۆڤاکی
سلۆڤاکیا
سلۆڤینیا
سلۆڤێنیا
سلیست
سلیمانی
سلیوانا
سلێمان
سلێمانى
سلێمانی
سلێمانیدا
سلێمانییە
سلێمانییەوە
سلێمانیە
سم
سماقان
سماقە
سمایل
سمنان
سمکۆ
سمکۆی
سمیت
سمیس
سمیلان
سمێڵ
سنة
سنجاقی
سند
سندوقی
سندووقی
سنندج
سنور
سنوردار
سنوری
سنورە
سنورەکانی
سنوور
سنووردار
سنووردارکردنی
سنوورداری
سنووردارە
سنووری
سنوورییەکان
سنوورییەکانی
سنوورێک
سنوورێکی
سنوورە
سنوورەکان
سنوورەکانی
سنوورەکە
سنگ
سنگی
سنە
سنەی
سنەیە
سه
سو
سوات
سوار
سوارچاک
سوارچاکانی
سوارچاکی
سوارچاکە
سواری
سوارێز
سوارە
سوارەکانی
سوارەی
سوان
سوبارو
سوتان
سوتانی
سوتەمەنی
سوتەمەنییەکە
سود
سودان
سودی
سودیان
سور
سورة
سورداش
سوری
سوریا
سوریانی
سوریای
سورە
سورەتی
سوزان
سوزانا
سوزی
سوسیال
سوسێی
سوقرات
سول
سولتان
سولتانی
سولەیمان
سولەیمانی
سون
سوننی
سوننە
سوننەت
سوننەتی
سوننەتە
سوننەن
سوننەکان
سوننەکانی
سونییە
سونە
سونەنی
سوو
سووتا
سووتان
سووتاند
سووتاندن
سووتاندنی
سووتانی
سووتانەوەی
سووتانەکە
سووتەمەنى
سووتەمەنيى
سووتەمەنی
سووتەمەنیی
سووتەمەنییە
سووتەمەنییەکە
سووتەمەنیە
سوود
سوودان
سوودانی
سوودبەخش
سوودمەند
سوودوەرگرتن
سوودی
سوودیان
سوودێکی
سوودە
سوودەکانی
سوور
سووری
سووریا
سووریاوە
سووریای
سووریایە
سوورییەکان
سوورە
سوورەتی
سوورەتێکی
سوورەتەکانی
سوورەکان
سوورەکانی
سوورەکە
سوون
سووپای
سووپەر
سووپەری
سووڕ
سووڕانەوەی
سووڕی
سووڕەکە
سووک
سووکایەتی
سووکایەتیکردن
سووکی
سووکە
سووکەکان
سوپا
سوپادا
سوپاس
سوپاسگوزاری
سوپاسی
سوپاوە
سوپاکانی
سوپاکە
سوپاکەی
سوپاکەیەوە
سوپای
سوپایە
سوپایەکی
سوپەر
سوپەرسۆنیک
سوپەرمان
سوپەری
سوڕ
سوڕی
سوژۆو
سوک
سوکارنۆ
سوڵتان
سوڵتاناوا
سوڵتاناوای
سوڵتانی
سوڵتانییەتی
سوڵتانە
سوڵتانەکانی
سوی
سوید
سویدی
سویس
سویسرا
سویسری
سویسڕا
سویسی
سویفت
سوێد
سوێدی
سوێدییەکان
سوێدیەکان
سوێرە
سوێس
سوێند
سوێندی
سپارتا
سپارد
سپاردن
سپارک
سپاس
سپاسی
سپای
سپایدەرمان
سپرینگ
سپوتنیک
سپورغان
سپڵ
سپۆرت
سپۆرتینگ
سپۆنسەر
سپۆنسەری
سپی
سپیاتی
سپیریت
سپین
سپینۆزا
سپییە
سپییەکان
سپییەکە
سپێدە
سپێردرا
سپێردراوە
سپێنسەر
سپەیس
سڕب
سڕبیا
سڕدراوەکان
سڕینەوە
سڕینەوەی
سڤانیدزێ
سڤیدریگالۆڤ
سڤیل
سک
سکاربۆرۆ
سکان
سکاندیناڤیا
سکاڵا
سکاڵای
سکای
سکتان
سکرتارییەتی
سکرتێر
سکرتێری
سکرین
سکووڵی
سکچوون
سکۆت
سکۆتلاند
سکۆتلاندی
سکۆتلەند
سکۆتلەندا
سکۆتلەندی
سکۆڕسێزی
سکی
سکە
سکەی
سڵاو
سڵاوی
سڵێمان
سۆ
سۆدیۆم
سۆر
سۆران
سۆرانی
سۆرانیدا
سۆز
سۆزداری
سۆزی
سۆزەکان
سۆسیال
سۆسیالیزم
سۆسیالیست
سۆسیالیستی
سۆسیالیستییەکانی
سۆسیالیستە
سۆسیالیستەکان
سۆشیال
سۆشیالیزم
سۆشیالیستی
سۆشیالیستە
سۆفت
سۆفی
سۆفیا
سۆفیان
سۆفیگەری
سۆل
سۆما
سۆمالیا
سۆماڵ
سۆماڵیا
سۆمەری
سۆمەرییەکان
سۆن
سۆناتای
سۆنگ
سۆنی
سۆنیا
سۆپرانۆکان
سۆپڕانۆ
سۆپڕانۆکان
سۆڤییەت
سۆڤیەت
سۆڤیەتدا
سۆڤیەتی
سۆڤیەتەوە
سۆڤێت
سۆکرات
سۆکۆتڕا
سۆڵ
سۆڵەی
سۆیا
سی
سیا
سیاسه
سیاسی
سیاسیدا
سیاسیی
سیاسییە
سیاسییەوە
سیاسییەکان
سیاسییەکانی
سیاسیە
سیاسیەکان
سیاسیەکانی
سیاسەت
سیاسەتدا
سیاسەتمەدار
سیاسەتمەداران
سیاسەتمەدارانی
سیاسەتمەدارو
سیاسەتمەداری
سیاسەتمەدارێکی
سیاسەتمەدارە
سیاسەتمەدارەکان
سیاسەتمەدارەکانی
سیاسەتوان
سیاسەتوانانی
سیاسەتوانی
سیاسەتوانێکی
سیاسەتوانە
سیاسەتوانەکانی
سیاسەتی
سیاسەتێکی
سیاسەتە
سیاسەتەوە
سیاسەتەکان
سیاسەتەکانی
سیامەند
سیامەنسور
سیان
سیانی
سیانەی
سیاوەش
سیبریا
سیبیریا
سیتکەمی
سیتی
سیتەک
سیحر
سیحری
سیخوڕ
سیخوڕی
سید
سیدنی
سیدی
سیدەکان
سیر
سیرامیک
سیروان
سیری
سیزار
سیستان
سیستانی
سیستم
سیستمی
سیستمێکی
سیستمە
سیستمەکان
سیستمەکانی
سیستمەکە
سیستەم
سیستەمی
سیستەمێک
سیستەمێکی
سیستەمێکە
سیستەمە
سیستەمەکان
سیستەمەکانی
سیستەمەکە
سیسرۆ
سیسیلی
سیسیلیا
سیشێل
سیفاتی
سیفر
سیفەتی
سیفەتێکی
سیفەتە
سیفەتەکانی
سیق
سیل
سیلڤیۆ
سیلی
سیلیزی
سیم
سیما
سیمای
سیمفۆنی
سیمفۆنیای
سیمفۆنیک
سیمپسۆنەکان
سیمۆن
سیمین
سیمینار
سین
سینا
سیناتۆری
سیناریۆ
سیناریۆنووس
سیناریۆنووسانی
سیناریۆنووسی
سیناریۆنووسە
سیناریۆنووسەکانی
سیناریۆکە
سیناریۆکەی
سیناریۆی
سینان
سیند
سیندی
سینووسەکان
سینگ
سینگاپور
سینگاپوور
سینگی
سینە
سینەما
سینەمادا
سینەماکان
سینەماکانی
سینەمای
سینەمایی
سینەماییی
سیوان
سیواک
سیوەیل
سیي
سیچوان
سیڤیلیا
سیگناڵی
سیۆ
سیی
سییەکان
سییەکانی
سیەرالیۆن
سیەکان
سێ
سێبەر
سێبەری
سێت
سێتی
سێجا
سێجار
سێدارە
سێدارەدان
سێدارەدانی
سێر
سێرجیۆ
سێرسی
سێرڤەر
سێرگی
سێرۆ
سێریا
سێزار
سێزدە
سێزدەھەم
سێسەد
سێشەممە
سێن
سێنچوری
سێنیگال
سێهەم
سێو
سێوسێنان
سێوە
سێي
سێپتەمبەر
سێپتەمبەری
سێڤیلیا
سێکس
سێکسی
سێکسیی
سێگردکان
سێگۆشە
سێگۆشەزانی
سێگۆشەکان
سێگۆشەکە
سێگۆشەی
سێگۆشەیی
سێگۆشەیییەکان
سێگۆشەیەک
سێگۆشەیەکی
سێڵاوتان
سێھەم
سێھەمی
سێھەمین
سێی
سێینن
سێیەم
سێیەمدا
سێیەمی
سێیەمیان
سێیەمیش
سێیەمین
سێیەمە
سێیەمەوە
سێیەکی
سە
سەبا
سەباح
سەبارەت
سەبری
سەبزەوار
سەبەتە
سەبەتەی
سەبەي
سەتەلایت
سەتەلایتی
سەجادی
سەججادی
سەجدە
سەحرای
سەحنە
سەحیح
سەحیحی
سەحەر
سەخت
سەختی
سەختە
سەد
سەدا
سەدام
سەدان
سەددام
سەدر
سەدری
سەدی
سەدیق
سەدییە
سەدە
سەدەکان
سەدەکانی
سەدەھا
سەدەی
سەدەیە
سەدەیەک
سەر
سەرا
سەرابیانی
سەرالی
سەرانسەر
سەرانسەری
سەرانی
سەراو
سەراوژێر
سەراوی
سەرای
سەرباری
سەرباز
سەربازان
سەربازانی
سەربازگەی
سەربازی
سەربازیان
سەربازیدا
سەربازیی
سەربازییە
سەربازییەوە
سەربازییەکان
سەربازییەکانی
سەربازێک
سەربازێکی
سەربازە
سەربازەکان
سەربازەکانی
سەربکەون
سەربکەوێت
سەربە
سەربەخۆ
سەربەخۆبوونی
سەربەخۆن
سەربەخۆکان
سەربەخۆی
سەربەخۆیان
سەربەخۆیی
سەربەخۆییان
سەربەخۆییی
سەربەخۆیە
سەربەست
سەربەستی
سەرتاسەری
سەرتاپای
سەرجەم
سەرجەمی
سەرجەمیان
سەرحەد
سەرخستنی
سەردا
سەردار
سەرداری
سەردان
سەردانی
سەردانیان
سەردانیکردنی
سەردانیکەران
سەردانێکی
سەردێڕ
سەردێڕی
سەردەشت
سەردەشتی
سەردەم
سەردەمانی
سەردەمانێک
سەردەمی
سەردەمێک
سەردەمێکی
سەردەمە
سەردەمەدا
سەردەمەکانی
سەردەمەکە
سەردەمەکەی
سەردەمەی
سەردەکەون
سەردەکەوێت
سەرزەنشتی
سەرزەوی
سەرزەویی
سەرسام
سەرسامی
سەرسووڕھێنەر
سەرسوڕمان
سەرسوڕھێنەر
سەرسەختی
سەرشەقام
سەرف
سەرقاڵ
سەرقاڵی
سەرقەڵا
سەرلێشێواوی
سەرلەبەری
سەرلەنوێ
سەرم
سەرما
سەرماوەز
سەرماوەزی
سەرمای
سەرمایە
سەرمایەدار
سەرمایەداری
سەرمایەی
سەرمێز
سەرنج
سەرنجدان
سەرنجڕاکێش
سەرنجڕاکێشترین
سەرنجڕاکێشی
سەرنجڕاکێشە
سەرنجی
سەرنجیان
سەرنجێکی
سەرنجە
سەرنشین
سەرنشینی
سەرنووسەر
سەرنووسەری
سەرنەکەوتنی
سەرهەڵدانی
سەرو
سەروو
سەرووی
سەروچاوە
سەروی
سەروەت
سەروەر
سەروەری
سەروەریی
سەري
سەرپێچی
سەرپێڵ
سەرپێڵی
سەرپەرشت
سەرپەرشتی
سەرپەرشتیار
سەرپەرشتیاری
سەرپەرشتیکردنی
سەرپەرشتیی
سەرچاوانە
سەرچاوه
سەرچاوە
سەرچاوەدا
سەرچاوەکان
سەرچاوەکانی
سەرچاوەکراوە
سەرچاوەکە
سەرچاوەکەی
سەرچاوەی
سەرچاوەیان
سەرچاوەیە
سەرچاوەیەک
سەرچاوەیەکی
سەرچنار
سەرچیا
سەرژماریی
سەرژمێری
سەرژمێریی
سەرژمێرییەکانی
سەرکار
سەرکردایەتی
سەرکردایەتیی
سەرکردە
سەرکردەکان
سەرکردەکانی
سەرکردەی
سەرکردەیەکی
سەرکوت
سەرکوتکردنی
سەرکێشی
سەرکێشییە
سەرکێشییەکانی
سەرکەلی
سەرکەوت
سەرکەوتن
سەرکەوتنی
سەرکەوتنیان
سەرکەوتنێکی
سەرکەوتنە
سەرکەوتنەکانی
سەرکەوتوو
سەرکەوتووانە
سەرکەوتووبوو
سەرکەوتووترین
سەرکەوتووی
سەرکەوتوویی
سەرکەوتووە
سەرکەوتووەکان
سەرکەوتووەکانی
سەرکەوێت
سەرکەپکان
سەرگەرمی
سەرگەڵو
سەرھێڵ
سەرھێڵی
سەرھەنگ
سەرھەڵدان
سەرھەڵدانی
سەرھەڵدەدات
سەرۆ
سەرۆک
سەرۆکانەی
سەرۆکایەتی
سەرۆکایەتیی
سەرۆکوەزیران
سەرۆکوەزیرانی
سەرۆککۆماری
سەرۆکی
سەرۆکێکی
سەرۆکە
سەرۆکەکان
سەرۆکەکانی
سەری
سەریان
سەریھەڵدا
سەرێ
سەرێکی
سەرە
سەرەتا
سەرەتاترین
سەرەتادا
سەرەتاوە
سەرەتاکان
سەرەتاکانی
سەرەتای
سەرەتایی
سەرەتاییترین
سەرەتاییدا
سەرەتاییی
سەرەتایییەکان
سەرەتایییەکانی
سەرەتاییە
سەرەتاییەکان
سەرەتاییەکانی
سەرەتایەک
سەرەتایەکی
سەرەخۆشی
سەرەرای
سەرەنجام
سەرەوە
سەرەوەدا
سەرەوەی
سەرەڕای
سەرەک
سەرەکانی
سەرەکی
سەرەکیان
سەرەکیترین
سەرەکیدا
سەرەکین
سەرەکیی
سەرەکییان
سەرەکییە
سەرەکییەکان
سەرەکییەکانی
سەرەکییەکە
سەرەکییەکەی
سەرەکیەکان
سەرەکیەکانی
سەرەکیەکەی
سەرەکەی
سەعات
سەعاتی
سەعاتێک
سەعد
سەعداوا
سەعدون
سەعدی
سەعوودی
سەعید
سەعیدی
سەفا
سەفاخانە
سەفای
سەفوەت
سەفی
سەفین
سەفەر
سەفەری
سەفەرێکی
سەفەوی
سەفەوییەکان
سەفەوییەکاندا
سەقامگیر
سەقامگیری
سەقز
سەقزی
سەقفی
سەلاح
سەلاحەددین
سەلاحەددینی
سەلاحەدین
سەلاحەدینی
سەلاسی
سەلام
سەلامی
سەلامەت
سەلامەتی
سەلجوق
سەلجوقی
سەلجوقییەکان
سەلجوقیەکان
سەلجووقی
سەلما
سەلمان
سەلماند
سەلماندن
سەلماندنی
سەلماندنیبوون
سەلماندی
سەلیم
سەلیمی
سەلەفی
سەما
سەماکردن
سەماکەر
سەمای
سەمیرە
سەمەدی
سەمەر
سەمەرقەند
سەن
سەنت
سەنتەر
سەنتەری
سەنتەرێکی
سەنتەرە
سەنتەرەکە
سەند
سەندوس
سەندووە
سەندیباد
سەندیکای
سەندەوە
سەنعا
سەنکاریا
سەنگ
سەنگافورە
سەنگاو
سەنگەر
سەنگەری
سەنگەسەر
سەنی
سەوز
سەوزایی
سەوزی
سەوزە
سەوزەکان
سەوڵاوا
سەپاند
سەپاندنی
سەپێندرا
سەپێنرا
سەڕۆکی
سەڕەرای
سەڕەڕای
سەکاکان
سەکۆی
سەگ
سەگی
سەگێکی
سەگەکان
سەڵاح
سەڵاحەدین
سەڵاحەدینی
سەڵماس
سەھاک
سەھۆڵ
سەھۆڵی
سەی
سەیاحی
سەیارە
سەید
سەیدا
سەیدسادق
سەیدسادقە
سەیدی
سەیدە
سەیر
سەیران
سەیرکردن
سەیرکردنی
سەیری
سەیریان
سەیرێکی
سەیرە
سەیف
سەیفەدین
سەینت
سەیوان
سەیید
ش
شا
شاباز
شابک
شاجوانی
شاخ
شاخاوی
شاخاوییە
شاخاوییەکان
شاخوێنبەر
شاخی
شاخە
شاخەوان
شاخەوانان
شاخەوانانی
شاخەوانی
شاخەوانێکی
شاخەوانەکان
شاخەکان
شاخەکانی
شاخەکە
شاد
شادا
شادی
شار
شارام
شارانە
شارانەی
شاراوە
شاراوەی
شارباژێر
شارباژێڕ
شاردا
شاردنەوەی
شارستان
شارستانی
شارستانیی
شارستانییە
شارستانییەتی
شارستانییەکان
شارستانیەت
شارستانیەتی
شارستانێتی
شارستانە
شارستانەدا
شارستانەکانی
شارستانەکە
شارستێن
شارل
شارلو
شارما
شاره
شارو
شاروخ
شارى
شارپ
شارۆن
شارۆچکە
شارۆچکەکان
شارۆچکەکانی
شارۆچکەکە
شارۆچکەکەدا
شارۆچکەی
شارۆچکەیە
شارۆچکەیەک
شارۆچکەیەکی
شارۆچکەیەکە
شاری
شارییەکان
شارییەکانی
شارێک
شارێکی
شارێکە
شارە
شارەبان
شارەدا
شارەداری
شارەدێ
شارەدێی
شارەدێیە
شارەدێیەکە
شارەزا
شارەزان
شارەزای
شارەزایان
شارەزایانی
شارەزایی
شارەزایییەکی
شارەزاییەکی
شارەزایە
شارەزایەکی
شارەزوور
شارەزووری
شارەوانی
شارەوانیی
شارەوانییە
شارەوانییەکان
شارەوانییەکانی
شارەوانییەکە
شارەوە
شارەکان
شارەکاندا
شارەکانی
شارەکە
شارەکەدا
شارەکەوە
شارەکەی
شارەکەیان
شارەکەیە
شارەی
شاز
شازادە
شازادەی
شازادەیەکی
شازدە
شازدەھەم
شازدەیەمی
شاسوار
شاشە
شاشەی
شاعیر
شاعیران
شاعیرانی
شاعیری
شاعیرێک
شاعیرێکی
شاعیرە
شاعیرەکانی
شاعەباسی
شافعی
شافیعی
شالیار
شام
شامدا
شامی
شان
شانازی
شانازیی
شانامە
شانامەی
شانبەشانی
شاندۆنگ
شاندی
شانزە
شانسی
شانشین
شانشینی
شانشینێکی
شانشینە
شانشینەکانی
شانشینەکە
شانشینەکەی
شانگ
شانگھای
شانۆ
شانۆن
شانۆنامە
شانۆنامەنووسانی
شانۆنامەی
شانۆنووس
شانۆنووسی
شانۆکانی
شانۆکە
شانۆگەری
شانۆگەریی
شانۆگەرییەکانی
شانۆی
شانۆیی
شانۆیەکی
شانی
شانە
شانەدەر
شانەدەری
شانەکان
شانەکانی
شانەی
شاهانە
شاهانەی
شاهی
شاوە
شاي
شاڕی
شاژن
شاژنی
شاژنە
شاکاری
شاکارەکانی
شاکر
شاگردی
شاڵاوی
شاھانە
شاھانەی
شاھانەیی
شاھۆ
شاھی
شاھید
شاھیدی
شاھین
شای
شایانی
شایستە
شایستەی
شایی
شایەتمان
شایەتی
شایەنی
شاە
شت
شتانە
شتانەی
شتن
شته
شتوتگارت
شتومەک
شتومەکی
شتی
شتێ
شتێک
شتێکی
شتێکیان
شتێکە
شتە
شتەکان
شتەکانی
شتەکە
شتەی
شتەیە
شد
شدا
شداری
شده
شرح
شرنەخ
شرۆف
شرۆڤە
شرۆڤەی
شریتی
شعر
شل
شلگاز
شلگازەکان
شلگازەکە
شلی
شلە
شلەمەنی
شلەکان
شلەکە
شلەی
شلەیەک
شلەیەکی
شمشاڵ
شمشێر
شمشێری
شمیت
شمەکی
شناپ
شنایدەر
شنگال
شنۆ
شنۆیە
شه
شهر
شو
شوان
شوانکارە
شوانی
شوبات
شوباتدا
شوباتی
شود
شورای
شوربوڵاغی
شوشە
شوعەرا
شوعەیب
شومان
شوناس
شوناسی
شوو
شووبات
شووباتی
شووتی
شوورا
شووشە
شووشەی
شووناسی
شووی
شوي
شوکری
شوینی
شوێشا
شوێن
شوێنانە
شوێنانەی
شوێندا
شوێنکەوتوانی
شوێنکەوتووانی
شوێنکەوتووی
شوێنکەوتووەکانی
شوێنی
شوێنیان
شوێنێ
شوێنێک
شوێنێکدا
شوێنێکی
شوێنێکە
شوێنە
شوێنەدا
شوێنەوار
شوێنەوارناسی
شوێنەوارناسیی
شوێنەواری
شوێنەوارییەکان
شوێنەوارییەکانی
شوێنەوارێکی
شوێنەوارە
شوێنەوارەکان
شوێنەوارەکانی
شوێنەوە
شوێنەکان
شوێنەکانی
شوێنەکە
شوێنەکەی
شوێنەی
شوێنەیە
شڤان
شک
شکا
شکان
شکاند
شکاندن
شکاندنی
شکاندووە
شکانی
شکانەوەی
شکاو
شکاوی
شکاوە
شکاک
شکست
شکستھێنانی
شکستی
شکستیان
شکستێکی
شکسپیر
شکۆ
شکۆمەندی
شکۆی
شھر
شھرستان
شۆ
شۆر
شۆرتی
شۆرش
شۆرشی
شۆش
شۆفێر
شۆفێری
شۆن
شۆنن
شۆو
شۆپان
شۆپانی
شۆپنھاوەر
شۆڕ
شۆڕش
شۆڕشگێری
شۆڕشگێڕ
شۆڕشگێڕانی
شۆڕشگێڕانە
شۆڕشگێڕی
شۆڕشگێڕە
شۆڕشی
شۆڕشیان
شۆڕشێک
شۆڕشێکی
شۆڕشە
شۆڕشەکانی
شۆڕشەکە
شۆڕشەکەی
شۆک
شۆکی
شۆگاکوکان
شۆگن
شی
شیان
شیاو
شیاوی
شیاوە
شیبلوی
شیجی
شیخ
شیر
شیراز
شیرازی
شیردەرەکان
شیردەرەکانی
شیروان
شیری
شیرین
شیرینی
شیرینە
شیرەمەنی
شیزۆفرینیا
شیعر
شیعردا
شیعری
شیعرێک
شیعرێکی
شیعرە
شیعرەکان
شیعرەکانی
شیعرەی
شیعە
شیعەن
شیعەکان
شیعەکانی
شیعەی
شیلان
شیللا
شیلی
شین
شینجیانگ
شینچی
شینکای
شینی
شینە
شیوعی
شیوە
شیپوودین
شیڤاجی
شیکار
شیکارانە
شیکارکردنی
شیکاری
شیکاریی
شیکاگۆ
شیکردنەوە
شیکردنەوەی
شیکردنەوەیەکی
شیڵد
شێ
شێت
شێتی
شێخ
شێخان
شێخانی
شێخولي
شێخی
شێخە
شێدار
شێداری
شێر
شێرزاد
شێرلۆک
شێروان
شێروانە
شێرپا
شێرپەنجە
شێرپەنجەی
شێرکوژی
شێرکۆ
شێری
شێرە
شێرەکان
شێعر
شێعری
شێعرەکانی
شێفیڵد
شێلی
شێن
شێنسی
شێواز
شێوازی
شێوازێک
شێوازێکی
شێوازە
شێوازەکان
شێوازەکانی
شێوازەکەی
شێوازەی
شێواندنی
شێواو
شێواوی
شێوه
شێوی
شێوە
شێوەزار
شێوەزاری
شێوەزارە
شێوەزارەکانی
شێوەش
شێوەکار
شێوەکاری
شێوەکان
شێوەکانی
شێوەکەی
شێوەی
شێوەیان
شێوەیی
شێوەیە
شێوەیەش
شێوەیەک
شێوەیەکی
شێوەیەکە
شێوەیەی
شێوەیەیە
شێکسپیر
شێڵدۆن
شێی
شە
شەبەنگی
شەبەک
شەترەنج
شەتڕەنج
شەتڕەنجی
شەجەریان
شەخسی
شەدادی
شەر
شەراب
شەرابی
شەرحی
شەرع
شەرعی
شەرم
شەرمەزاری
شەری
شەریعە
شەریعەت
شەریعەتی
شەریف
شەریفاوا
شەریفی
شەرە
شەرەف
شەرەفخانی
شەرەفنامە
شەرەفکەندی
شەرەفی
شەست
شەستەکان
شەستەکانی
شەش
شەشی
شەشە
شەشەم
شەشەمدا
شەشەمی
شەشەمین
شەعب
شەعبان
شەعبی
شەفت
شەفتی
شەفەق
شەق
شەقام
شەقامی
شەقامێکی
شەقامە
شەقامەکان
شەقامەکانی
شەقڵاوە
شەل
شەماڵ
شەمزینان
شەمس
شەمسی
شەمسەدین
شەمشەمەکوێرە
شەممە
شەمۆ
شەمە
شەمەندەفەر
شەمەندەفەری
شەمەندەفەرە
شەنگال
شەهید
شەو
شەوان
شەوانی
شەوانە
شەوت
شەودا
شەوقی
شەوکەت
شەوی
شەوێک
شەوێکی
شەوە
شەپۆل
شەپۆلی
شەپۆلێکی
شەپۆلە
شەپۆلەکان
شەپۆلەکانی
شەپۆڵی
شەپۆڵە
شەڕ
شەڕانگێزی
شەڕدا
شەڕکردن
شەڕی
شەڕیان
شەڕێک
شەڕێکی
شەڕە
شەڕەدا
شەڕەوە
شەڕەکان
شەڕەکانی
شەڕەکە
شەڕەکەدا
شەڕەکەی
شەکر
شەکری
شەکرە
شەکرەی
شەڵماش
شەھاب
شەھباز
شەھرام
شەھری
شەھید
شەھیدان
شەھیدانی
شەھیدی
شەیتان
شەیتانی
شەیتانەکان
شەیدای
شەین
ص
صالح
صحيح
صدیق
صفحة
صلاح
صلى
صلی
صول
ض
ط
طه
طە
ظ
ع
عادل
عادەتەن
عارف
عاس
عاشق
عاشقی
عاشورا
عالی
عامر
عاي
عباس
عبد
عبدالرحمن
عبدالقادر
عبدالله
عبداللە
عدد
عربی
عزیز
علام
علم
علوم
على
علي
عليه
علی
علیه
علیە
عمر
عن
عنوان
عه
عوبەیدوڵڵا
عوبەیدوڵڵای
عودەی
عوسمان
عوسمانی
عوسمانیدا
عوسمانییە
عوسمانییەوە
عوسمانییەکان
عوسمانییەکاندا
عوسمانییەکانەوە
عوسمانیەکان
عومان
عومەر
عومەری
عوود
عیبری
عیراق
عیرفان
عیرفانی
عیزەدین
عیسا
عیسالی
عیسای
عیسمەت
عیشق
عیلمی
عیماد
عیمران
عین
عێراق
عێراقدا
عێراقی
عێراقیان
عێراقیش
عێراقییە
عێراقییەکان
عێراقییەکانی
عێراقە
عێراقەوە
عێزەدین
عێڕاق
عە
عەبادی
عەباس
عەباسی
عەباسییەکان
عەباسیەکان
عەبباس
عەبباسی
عەبباسییەکان
عەبباسیەکان
عەبد
عەبدول
عەبدولبەھا
عەبدولحەمید
عەبدولحەمیدی
عەبدولرەحمان
عەبدولسەلام
عەبدولعەزیز
عەبدولعەزیزی
عەبدولقادر
عەبدولقادری
عەبدولواحید
عەبدولڕەحمان
عەبدولڕەحمانی
عەبدولڕەزاق
عەبدولکەریم
عەبدولکەریمی
عەبدولڵا
عەبدوڕەحمان
عەبدوڵا
عەبدوڵای
عەبدوڵلا
عەبدوڵڵا
عەبدوڵڵای
عەبەسە
عەتا
عەجەم
عەدنان
عەدەن
عەربەت
عەرووزی
عەرەب
عەرەبدا
عەرەبستان
عەرەبستانی
عەرەبشا
عەرەبلویا
عەرەبی
عەرەبیدا
عەرەبیش
عەرەبیی
عەرەبییە
عەرەبییەوە
عەرەبییەکان
عەرەبییەکانی
عەرەبیە
عەرەبیەوە
عەرەبیەکان
عەرەبە
عەرەبەکان
عەرەبەکانی
عەرەفات
عەرەفە
عەزیز
عەزیزی
عەسر
عەسکەر
عەسکەری
عەشق
عەشقی
عەشیرەت
عەشیرەتی
عەشیرەتەکانی
عەفان
عەفرین
عەقڵ
عەقڵی
عەقیدەی
عەقەبە
عەلام
عەلامگیری
عەلامی
عەلاي
عەلمانی
عەلی
عەلیاوا
عەلیاوای
عەلیزادە
عەلییە
عەلیێڤ
عەلەوی
عەمر
عەمری
عەممان
عەنبەر
عەنکەبووت
عەککا
عەین
غ
غا
غاز
غازی
غاشیە
غافر
غه
غولام
غوڵام
غوڵامی
غەریب
غەزالی
غەزای
غەززە
غەزنەوی
غەزووی
غەزە
غەزەل
غەزەلنووس
غەزەلی
غەفور
غەفوور
غەنی
غەوس
غەوسی
غەیری
غەیرە
ـ
ـدا
ـذ
ــ
ــی
ـه
ـي
ـی
ـە
ـەم
ـەمین
ـەوە
ف
فا
فابیان
فابیۆ
فاتح
فاتر
فاتمە
فاتیح
فاتیمی
فاتیمە
فارابی
فارادەی
فارس
فارسدا
فارسی
فارسیدا
فارسیش
فارسیی
فارسییە
فارسییەوە
فارسییەکان
فارسە
فارسەکان
فاروق
فارکەھارسن
فارۆ
فاسۆلیا
فاشیزم
فالاچی
فالح
فان
فانتازیا
فانکشن
فانکشنی
فانکشنێک
فانکشنێکی
فانکشنە
فانکشنەکە
فانی
فاي
فاکت
فاکتەری
فاکتەرە
فاکەڵتی
فاڵک
فاڵکۆن
فای
فایبرۆمایێلجا
فایل
فایلی
فایلە
فایلەکانی
فاینۆرد
فایەق
فتح
فته
فرات
فرانتس
فرانز
فرانس
فرانسوا
فرانسۆ
فرانسیس
فرانسیسکۆ
فرانک
فرانکفورت
فرانکفۆرت
فرانکلین
فرانکۆ
فرانکی
فراوان
فراوانبوون
فراوانبوونی
فراوانتر
فراوانترین
فراوانکردنی
فراوانی
فراوانیان
فراوانە
فراژووتنی
فراکسیۆنی
فرمان
فرمانی
فرمێسک
فره
فرھنگ
فرھنگی
فرۆدۆ
فرۆست
فرۆش
فرۆشت
فرۆشتن
فرۆشتنی
فرۆشتووە
فرۆشرا
فرۆشراوە
فرۆشگا
فرۆشگای
فرۆشی
فرۆشیار
فرۆکە
فرۆکەخانەی
فرۆکەوانی
فرۆکەکان
فرۆکەکە
فرۆکەی
فرۆید
فری
فریاکەوتن
فریاکەوتنی
فریاگوزاری
فریدا
فریدریش
فریدریک
فریشتە
فریشتەکان
فریشتەی
فرین
فرێد
فرێدریش
فرێدریک
فرە
فرەگۆشەکان
فرەیی
فستیڤاڵی
فشار
فشارى
فشاری
فشارێکی
فلاش
فلامینگۆ
فلتەری
فلمەکە
فلۆبێر
فلۆریدا
فلۆرێنس
فلیمی
فلیمەکە
فلیپ
فلیپس
فلیپین
فلیک
فه
فو
فواد
فوجی
فورات
فورقان
فوسسیلەت
فوق
فوي
فوڕات
في
فڕاندنی
فڕانسیس
فڕانک
فڕۆکە
فڕۆکەخانە
فڕۆکەخانەکان
فڕۆکەخانەکانی
فڕۆکەخانەکە
فڕۆکەخانەی
فڕۆکەخانەیەکی
فڕۆکەخانەیەکە
فڕۆکەدا
فڕۆکەوان
فڕۆکەوانی
فڕۆکەکان
فڕۆکەکانی
فڕۆکەکە
فڕۆکەکەی
فڕۆکەی
فڕۆکەیە
فڕۆکەیەک
فڕۆکەیەکی
فڕی
فڕین
فڕینی
فڕێ
فڕێدانی
فکر
فکری
فڵان
فڵچەی
فۆتۆشۆپ
فۆتۆن
فۆتۆگرافی
فۆر
فۆرت
فۆرد
فۆرزا
فۆرم
فۆرماتی
فۆرمی
فۆرمێکی
فۆرێست
فۆستەر
فۆسفۆر
فۆلکسڤاگن
فۆلکلۆر
فۆلکلۆری
فۆن
فۆنت
فۆنتی
فۆنتە
فۆڕد
فۆڕمی
فۆکس
فۆکسی
فۆڵک
فۆڵێن
فی
فیبۆناچی
فیجی
فیدراسیۆنی
فیدرالی
فیدرالییەکان
فیدراڵ
فیدراڵی
فیدڕالی
فیدڕاڵی
فیردەوسی
فیرعەون
فیرعەونی
فیرقەی
فیروز
فیزیا
فیزیادا
فیزیای
فیزیایی
فیزیک
فیزیکدا
فیزیکزان
فیزیکزانانی
فیزیکزانێکی
فیزیکی
فیزیکییەکان
فیزیۆلۆژی
فیستیڤاڵی
فیشباک
فیشەر
فیشەک
فیشەکی
فیفا
فیفاوە
فیفای
فیفایە
فیقهی
فیقھی
فیل
فیلم
فیلمانە
فیلمانەی
فیلمدا
فیلمز
فیلمسازی
فیلمۆگرافی
فیلمی
فیلمێک
فیلمێکدا
فیلمێکی
فیلمێکە
فیلمە
فیلمەدا
فیلمەوە
فیلمەکان
فیلمەکاندا
فیلمەکانی
فیلمەکە
فیلمەکەدا
فیلمەکەش
فیلمەکەوە
فیلمەکەی
فیلمەکەیان
فیلمەکەیە
فیلمەی
فیلی
فیلیپ
فیلیپس
فیلیپی
فین
فینلاند
فینلاندی
فینلەندا
فینچ
فینگەر
فینیکس
فیکری
فیگۆ
فێدراڵەکان
فێر
فێربوون
فێربوونی
فێربووە
فێرخواز
فێرخوازان
فێردیناند
فێرما
فێرناندۆ
فێرکاری
فێرکاریی
فێرکارییەکان
فێرکارییەکانی
فێرکردن
فێرکردنی
فێرگە
فێرگەی
فێری
فێستیڤاڵی
فێمینیزم
فێمینیست
فێمینیستە
فێمینیستەکان
فێنک
فێڵ
فە
فەتاح
فەتح
فەتحوڵڵا
فەتحکردنی
فەتحی
فەتحەکانی
فەتوای
فەجر
فەخری
فەخرەدین
فەرامۆش
فەراھەم
فەرحان
فەرز
فەرش
فەرشی
فەرمارەوا
فەرمان
فەرمانبەر
فەرمانبەران
فەرمانبەرانی
فەرمانبەری
فەرمانداری
فەرمانداریی
فەرماندە
فەرماندەکانی
فەرماندەی
فەرماندەیی
فەرماندەیەکی
فەرمانرەوای
فەرمانرەوایی
فەرمانڕەوا
فەرمانڕەواکانی
فەرمانڕەوای
فەرمانڕەوایانی
فەرمانڕەوایی
فەرمانڕەواییان
فەرمانڕەواییەتییەکەی
فەرمانڕەواییەکان
فەرمانڕەوایەتی
فەرمانڕەوایەتییەکەی
فەرمانڕەوایەکی
فەرمانگە
فەرمانگەکان
فەرمانگەکانی
فەرمانگەی
فەرمانی
فەرمانیان
فەرمانێکی
فەرمانە
فەرمانەکانی
فەرموو
فەرموودە
فەرموودەدا
فەرموودەکان
فەرموودەکانی
فەرموودەکە
فەرموودەی
فەرموودەیە
فەرموودەیەک
فەرموودەیەکی
فەرمووی
فەرموویەتی
فەرمی
فەرمیی
فەرمییە
فەرمییەکان
فەرمییەکانی
فەرهاد
فەرهەنگی
فەرھاد
فەرھادی
فەرھەنگ
فەرھەنگی
فەرھەنگیی
فەرھەنگێکی
فەرھەنگە
فەرید
فەریقی
فەرەج
فەرەنسا
فەرەنسای
فەرەنسی
فەرەنسییەوە
فەرەنسییەکان
فەرەیدوون
فەزا
فەزای
فەقی
فەقێ
فەلاح
فەلسەفی
فەلسەفییە
فەلسەفییەکان
فەلسەفە
فەلسەفەدا
فەلسەفەی
فەلەستین
فەلەستینی
فەلەستینییەکان
فەلەستینیەکان
فەلەکناسی
فەلەکی
فەنتازیا
فەنتازیای
فەندی
فەنیمەیشن
فەوزی
فەڕانسا
فەڕانسە
فەڕانسەوی
فەڕمی
فەڕەنسا
فەڕەنساوە
فەڕەنسای
فەڕەنسایە
فەڕەنسی
فەڕەنسیی
فەڕەنسییە
فەڕەنسییەکان
فەڕەنسیەکان
فەڕەنسیەکانی
فەکەڵتی
فەڵەستین
فەڵەستینی
فەڵەستینییەکان
فەیر
فەیزاوا
فەیزوڵڵابەگی
فەیزی
فەیس
فەیسبووک
فەیسبوک
فەیسەڵ
فەیسەڵی
فەیلی
فەیلییەکان
فەیلەسوف
فەیلەسوفی
فەیلەسوفە
فەیلەسووف
فەیلەسووفان
فەیلەسووفانی
فەیلەسووفی
فەیلەسووفێکی
فەیلەسووفە
فەیلەسووفەکان
فەیلەسووفەکانی
ق
قابیل
قات
قاجار
قاجاڕ
قاجاڕەکان
قاجاڕەکاندا
قادر
قادري
قادرکەرەم
قادری
قادسیە
قارقولوقی
قارەمان
قارەمانی
قاز
قازان
قازانج
قازانجی
قازانجێکی
قازی
قازیاوا
قاسم
قاسملوو
قاسمی
قاعیدە
قاف
قال
قالب
قامیش
قامیشلۆ
قانع
قانونی
قانوون
قانوونی
قاهیرە
قاوە
قاوەیی
قاي
قاپی
قاچ
قاچی
قاچەکانی
قاڵب
قاڵبی
قاھیرە
قاھیرەی
قایل
قایم
قایەی
قبووڵ
قبوڵ
قرغیزستان
قزل
قزڵ
قزڵجی
قزڵجە
قزڵداغی
قسانە
قسانەی
قسه
قسڵان
قسە
قسەدەکەن
قسەم
قسەکانی
قسەکردن
قسەکردنی
قسەکەر
قسەکەرانی
قسەی
قسەیان
قسەیە
قسەیەکی
قشڵاخ
قشڵاق
قشڵاقا
قشڵاقی
قه
قوباد
قوبادی
قوبرس
قوبرسی
قوبە
قوتابخانه
قوتابخانە
قوتابخانەکان
قوتابخانەکانی
قوتابخانەکە
قوتابخانەکەی
قوتابخانەی
قوتابخانەیە
قوتابخانەیەک
قوتابخانەیەکی
قوتابی
قوتابیان
قوتابیانی
قوتابیی
قوتابییە
قوتابییەک
قوتابییەکان
قوتابییەکانی
قوتابییەکی
قوتب
قوتبەدین
قودس
قودسی
قوربان
قوربانی
قوربانیان
قوربانیانی
قوربانیی
قوربانییەکان
قوربانییەکانی
قورس
قورسایی
قورستر
قورسترین
قورسی
قورسە
قورسەکان
قوروە
قوري
قورگ
قوری
قورەیش
قوزلوی
قوستەنتینییە
قوستەنتینیە
قوستەنتینە
قوسەی
قوشخانەی
قولی
قوم
قومار
قومارکردنی
قوماش
قوماشی
قووت
قووڵ
قووڵایی
قووڵتر
قووڵی
قوچ
قوڕ
قوڕقوشم
قوڕگ
قوڕەیش
قوڕەیشی
قوڵ
قوڵایی
قوڵتر
قوڵی
قوڵە
قژ
قژی
قۆخ
قۆخی
قۆرخکاری
قۆری
قۆرەتوو
قۆستەوە
قۆقز
قۆناخی
قۆناغ
قۆناغدا
قۆناغی
قۆناغێک
قۆناغێکی
قۆناغە
قۆناغەدا
قۆناغەکان
قۆناغەکانی
قۆنیە
قۆچان
قۆچی
قۆڵ
قۆڵدەرەی
قۆڵی
قۆڵە
قیاس
قیامەت
قیبلە
قیبلەی
قیددیس
قیر
قیزل
قیزیل
قیشڵاخ
قین
قیڕ
قیڕاي
قە
قەبارە
قەبارەکەی
قەبارەی
قەبارەیان
قەبارەیەکی
قەبانی
قەباچە
قەبری
قەبزی
قەبووڵ
قەت
قەتەر
قەتەری
قەتەڕ
قەد
قەدر
قەدی
قەدەر
قەدەغە
قەدەغەکرا
قەدەغەکراو
قەدەغەکراوە
قەدەغەکردنی
قەدەغەی
قەدەغەیە
قەراخ
قەراغ
قەراغی
قەرز
قەرزی
قەرزەکانی
قەرس
قەرە
قەرەباغ
قەرەبولاخ
قەرەبوو
قەرەبووکردنەوەی
قەرەبووی
قەرەبوڵاغ
قەرەبڵاغی
قەرەتاج
قەرەتەپە
قەرەجالو
قەرەداغ
قەرەداغی
قەرەداغە
قەرەسو
قەرەقووش
قەرەلەرا
قەرەي
قەرەپاپاقەکانن
قەرەگوێزا
قەرەی
قەزا
قەزافی
قەزاى
قەزاکانی
قەزاکە
قەزای
قەزایە
قەزایەکی
قەزوین
قەسرک
قەسرۆک
قەسری
قەسرێ
قەسیدە
قەسیدەی
قەسەس
قەشە
قەشەکان
قەشەکانی
قەشەی
قەشەیەکی
قەفقاز
قەلەندەر
قەمەر
قەناعەت
قەنتۆری
قەندیل
قەندەھار
قەوارە
قەوارەی
قەواڵی
قەوقاز
قەوقازی
قەومی
قەڵا
قەڵات
قەڵاتی
قەڵاجوق
قەڵادزێ
قەڵاسی
قەڵاشیو
قەڵاچوالان
قەڵاچوغ
قەڵاکانی
قەڵاکە
قەڵاکەی
قەڵای
قەڵایە
قەڵایەک
قەڵایەکی
قەڵبەزە
قەڵغانی
قەڵەم
قەڵەمی
قەڵەو
قەڵەوی
قەھرەمانلی
قەیران
قەیرانی
قەیرانە
قەیس
قەیسی
قەیسەر
قەیسەری
قەیەی
ك
كات
كاته
كاتی
كاتێك
كار
كارده
كاره
كاری
كاریگه
كان
كانى
كانی
كانیان
كتاب
كثير
كرا
كراوه
كرد
كردن
كردنى
كردنی
كردووه
كردووە
كرێت
كه
كو
كورد
كوردستان
كوردستانی
كوردی
كوڕی
كى
كڵۆی
كۆمه
كۆنترۆل
كۆچی
كی
كە
كەم
ل
لا
لابرا
لابراوە
لابرد
لابردن
لابردنی
لات
لاتڤیا
لاتین
لاتینی
لاتینیی
لاتینییە
لادا
لادان
لادانی
لادرا
لادن
لادێ
لادەبات
لادەبرێت
لادەن
لار
لارا
لاربوونی
لارسن
لاری
لاس
لاسایی
لاساییکردنەوەی
لاستیکی
لاسێل
لاشێز
لاشە
لاشەکەی
لاشەی
لافاو
لافاوی
لاقەکردن
لالش
لالیگا
لالیگای
لام
لاند
لانگ
لانی
لانیکەم
لاو
لاواز
لاوازبوونی
لاوازکردنی
لاوازی
لاوازە
لاوان
لاوانی
لاوترین
لاورا
لاوس
لاوک
لاوی
لاویدا
لاوێتی
لاوێکی
لاوە
لاوەکی
لاوەکییەکان
لاي
لاپەرە
لاپەرەی
لاپەڕە
لاپەڕەدا
لاپەڕەکانی
لاپەڕەی
لاپەڕەیی
لاپەڕەیە
لاپەڕەیەک
لاپەڕەیەکی
لاڤوازیێ
لاکانی
لاکشمی
لاکێشەی
لاکەوتوون
لاکەی
لاھور
لای
لایان
لایبنیتس
لایت
لاین
لایه
لایپزیگ
لایڤ
لایە
لایەن
لایەنگر
لایەنگرانی
لایەنگری
لایەنی
لایەنێک
لایەنێکی
لایەنە
لایەنەکان
لایەنەکانی
لایەک
لایەکانی
لایەکی
لایەکەوە
لایەکەی
لبنان
لة
لسه
لـێدوان
لق
لقی
لقێک
لقێکی
لقێکە
لقە
لقەکانی
للا
لم
لمی
لمەکان
لن
له
لو
لوا
لوبنان
لوبنانی
لوت
لوتفی
لوتکە
لوتکەی
لودڤیگ
لوسی
لوفی
لوقمان
لولەیی
لوو
لووت
لووتکە
لووتکەکە
لووتکەی
لووتی
لوولپێچی
لوولەک
لوولەکی
لوي
لوڕ
لوڕستان
لوڕی
لوڕەکان
لوژن
لوک
لوکاس
لوکسەمبورگ
لوکەس
لوۆیانگ
لوی
لویز
لویس
لویسی
لویی
لى
لي
لڤین
لکاندنی
لکاندنیان
لکاو
لکاوە
لکی
لۆ
لۆدی
لۆرا
لۆران
لۆرانس
لۆرد
لۆری
لۆرێنس
لۆرەنس
لۆزان
لۆس
لۆقا
لۆلا
لۆپێز
لۆژیک
لۆژیکدا
لۆژیکی
لۆک
لۆکی
لۆکە
لۆگ
لۆگاریتمی
لۆگۆ
لۆگۆی
لۆگی
لۆید
لی
لیام
لیبرال
لیبرالیزم
لیبراڵ
لیبراڵی
لیبراڵەکان
لیبڕالیزمی
لیبیا
لیبێریا
لیبەرتادۆریس
لیبەریا
لیتر
لیتوانیا
لیخت
لیختنشتاین
لیدز
لیدس
لیدیا
لیر
لیرەی
لیز
لیزا
لیزبن
لیسبۆن
لیست
لیستی
لیستێکی
لیستە
لیستەر
لیسۆتۆ
لیلا
لیلی
لیما
لیمۆ
لین
لینا
لینایۆسی
لینجی
لیندا
لینوکس
لینک
لینکۆڵن
لینکی
لینین
لینە
لیو
لیوا
لیوای
لیژنە
لیژنەکە
لیژنەی
لیژنەیەکی
لیڤ
لیڤەرپوول
لیگ
لیگا
لیگی
لیۆ
لیۆن
لیۆنارد
لیۆناردۆ
لیۆنێل
لیۆپۆڵد
لێ
لێبوردن
لێبوردنی
لێبوردەیی
لێبوو
لێبکات
لێبێت
لێت
لێجەر
لێخوڕینی
لێخۆشبوون
لێدا
لێدان
لێدانی
لێدانێکی
لێدانە
لێدانەکانی
لێداوە
لێدرا
لێدراوە
لێدوان
لێدوانی
لێدوانێک
لێدوانێکی
لێدوانە
لێدوانەکان
لێدوانەکانی
لێدوانەکەی
لێدێت
لێدەدات
لێدەکات
لێدەکرا
لێدەکرێت
لێدەکەن
لێدەکەوێتەوە
لێدەگیرێت
لێری
لێرە
لێرەدا
لێرەش
لێرەوە
لێزبیان
لێشاو
لێشاوی
لێشاوە
لێشاوەکە
لێم
لێنا
لێنان
لێناوە
لێنرا
لێنراوە
لێنز
لێنین
لێو
لێواری
لێوارەکانی
لێوناردۆ
لێوی
لێوە
لێوەی
لێي
لێپرسراوی
لێپرسینەوە
لێژنەی
لێژی
لێڤی
لێک
لێکخشاندن
لێکدان
لێکدانی
لێکدانەوە
لێکدانەوەی
لێکدراو
لێکدرایەوە
لێکدوور
لێکرا
لێکراوە
لێکرد
لێکردن
لێکردووە
لێکنزیک
لێکچوونی
لێکۆلینەوە
لێکۆلینەوەی
لێکۆڵینەوە
لێکۆڵینەوەکان
لێکۆڵینەوەکانی
لێکۆڵینەوەکە
لێکۆڵینەوەی
لێکۆڵینەوەیان
لێکۆڵینەوەیە
لێکۆڵینەوەیەک
لێکۆڵینەوەیەکی
لێکۆڵەر
لێکۆڵەران
لێکۆڵەرانی
لێکۆڵەری
لێکۆڵەرێکی
لێکۆڵەرە
لێکۆڵەرەوان
لێکەوت
لێکەوتەوە
لێگیرا
لێگیراوە
لێڵ
لێھات
لێھاتوو
لێھاتووی
لێھاتوویی
لێھاتووە
لێۆنارد
لێی
لێیان
لێیە
لێیەوە
لە
لەباتی
لەبار
لەباربردنی
لەباری
لەبارەی
لەبارەیەوە
لەباشترین
لەباشووری
لەباشوورەوە
لەباکورەوە
لەباکووری
لەباکوورەوە
لەبری
لەبنەڕەتدا
لەبواری
لەبوارەکانی
لەبڕی
لەبۆ
لەبیر
لەبیرت
لەبەر
لەبەرامبەر
لەبەرامبەردا
لەبەردەست
لەبەردەم
لەبەري
لەبەرچاو
لەبەرچاوگرتنی
لەبەرژەوەندی
لەبەرکردنی
لەبەرگرتنەوە
لەبەرگرتنەوەی
لەبەری
لەبەرەوەی
لەبەرەی
لەبەشی
لەبەشەکانی
لەت
لەتبوونی
لەترسی
لەتیف
لەتەمەنی
لەتەنیشت
لەتەواوی
لەتەک
لەجامی
لەجۆری
لەجیاتی
لەجیھاندا
لەجێگای
لەجێی
لەجەنگی
لەحێم
لەخوارەوە
لەخولی
لەخۆ
لەخۆبگرێت
لەخۆدەگرت
لەخۆدەگرن
لەخۆدەگرێت
لەخۆوە
لەخۆگرتبوو
لەخۆگرتنی
لەخۆگرتووە
لەخۆگری
لەخۆی
لەخێرایی
لەخێزانێکی
لەداھاتوودا
لەدایک
لەدایکبوو
لەدایکبووان
لەدایکبووانی
لەدایکبوون
لەدایکبوونی
لەدایکبوونە
لەدایکبوونەکان
لەدایکبووی
لەدایکبووە
لەدوا
لەدوای
لەدوو
لەدژی
لەدەرھێنانی
لەدەرەوە
لەدەرەوەی
لەدەست
لەدەستدا
لەدەستدانی
لەدەستداوە
لەدەستی
لەدەوروبەری
لەدەوری
لەرووی
لەرێگەی
لەرێی
لەرەلەر
لەرەلەری
لەزانکۆی
لەزمانی
لەزنجیرەی
لەزۆر
لەزۆربەی
لەسالی
لەساڵانی
لەساڵی
لەسێ
لەسێدارە
لەسێدارەدان
لەسێدارەدانی
لەسێدارەدراوانی
لەسە
لەسەدا
لەسەدی
لەسەدەی
لەسەر
لەسەرانسەری
لەسەرتاسەری
لەسەرجەم
لەسەرخۆ
لەسەردەستی
لەسەردەمی
لەسەروو
لەسەرووی
لەسەري
لەسەری
لەسەریان
لەسەریەک
لەسەرە
لەسەرەتادا
لەسەرەتاوە
لەسەرەتاکانی
لەسەرەتای
لەسەرەوە
لەسەرەوەی
لەسەرەکانی
لەش
لەشاری
لەشجوانی
لەشدا
لەشفرۆش
لەشفرۆشی
لەشوێنی
لەشکر
لەشکرکێشی
لەشکری
لەشکرێکی
لەشی
لەشیان
لەشێوەی
لەشە
لەشەڕی
لەفیلمی
لەفیلمێکی
لەفیلمەکە
لەفەرموودەدا
لەقوري
لەقۆناغی
لەقەڵەم
لەلا
لەلايەن
لەلای
لەلایان
لەلاین
لەلایەن
لەلایەنی
لەلایەک
لەلایەکی
لەلیستی
لەم
لەمانگی
لەمانە
لەمانەش
لەمانەی
لەماوەی
لەماڵەوە
لەمبارەیەوە
لەمڕۆدا
لەمیانی
لەمیانەی
لەمێژوودا
لەمێژووی
لەمێژە
لەمە
لەمەش
لەمەو
لەمەوبەر
لەمەودوا
لەمەوپێش
لەمەوە
لەمەڕ
لەناو
لەناوبرد
لەناوبردن
لەناوبردنی
لەناوچوو
لەناوچوون
لەناوچوونی
لەناوچە
لەناوچەکانی
لەناوچەکە
لەناوچەی
لەناوی
لەناویان
لەناویاندا
لەناویدا
لەناوەندی
لەناوەڕاستی
لەناکاو
لەناکاوی
لەندەن
لەندەنی
لەنزیک
لەنواندنی
لەنووسینی
لەنگ
لەنگەری
لەنیوەی
لەنێو
لەنێوان
لەنێوانیان
لەنێوانیاندا
لەنێویاندا
لەهەمان
لەهەموو
لەو
لەوان
لەوانی
لەوانیش
لەوانە
لەوانەش
لەوانەشە
لەوانەيە
لەوانەی
لەوانەیە
لەوپەڕی
لەوکاتە
لەوکاتەدا
لەوکاتەوە
لەوکاتەی
لەوڵاتانی
لەوڵاتی
لەوی
لەوێ
لەوێدا
لەوێش
لەوێشەوە
لەوێوە
لەوێیە
لەوە
لەوەتەی
لەوەدا
لەوەدایە
لەوەرزی
لەوەش
لەوەوە
لەوەی
لەوەیە
لەي
لەپاش
لەپاشان
لەپاڵ
لەپای
لەپشت
لەپلەی
لەپێش
لەپێشدا
لەپێناو
لەچاو
لەچوارچێوەی
لەچەند
لەچەندین
لەڕاستیدا
لەڕووی
لەڕوی
لەڕۆژانی
لەڕۆژاواوە
لەڕۆژهەڵاتەوە
لەڕۆژھەڵاتەوە
لەڕۆژی
لەڕۆڵی
لەڕێکەوتی
لەڕێگای
لەڕێگەی
لەڕێی
لەژیانی
لەژێر
لەژێرناوی
لەژێڕ
لەک
لەکاتژمێر
لەکاتی
لەکاتێک
لەکاتێکدا
لەکار
لەکارکێشایەوە
لەکارکەوتنی
لەکاری
لەکریمۆسا
لەکوێ
لەکۆتایدا
لەکۆتایی
لەکۆتاییدا
لەکۆتاییەکانی
لەکۆمەڵەی
لەکۆندا
لەکۆی
لەکی
لەکە
لەکەناڵی
لەگرنگترین
لەگوندی
لەگەل
لەگەنە
لەگەڵ
لەگەڵدا
لەگەڵدایە
لەگەڵم
لەگەڵی
لەگەڵیان
لەگەڵیاندا
لەگەڵیدا
لەھێڵی
لەھەر
لەھەردوو
لەھەمان
لەھەمانکاتدا
لەھەموو
لەھەندێ
لەھەندێک
لەیاری
لەیاریکردن
لەیاریگای
لەیانەی
لەیزەر
لەیزەری
لەیل
لەیلا
لەین
لەیک
لەیەک
لەیەکتر
لەیەکتری
لەیەکێک
لەیەکەم
م
ما
مابوو
مابوونەوە
مابووەوە
مابێتەوە
مات
ماتریکس
ماتریکسی
ماتماتیک
ماتماتیکدا
ماتماتیکزان
ماتماتیکزانان
ماتماتیکزانانی
ماتماتیکزانی
ماتماتیکی
ماتماتیکییەکان
ماتیاس
ماتیو
ماتیۆ
ماتەمینی
ماجد
ماجید
ماخ
ماخی
ماد
مادارا
مادام
ماداگاسکار
ماددانە
ماددانەی
ماددی
ماددە
ماددەکان
ماددەکانی
ماددەکە
ماددەی
ماددەیە
ماددەیەک
ماددەیەکی
مادی
مادیسۆن
مادیوتووێژ
مادە
مادەکان
مادەکانی
مادەی
مادەیەکی
مار
ماراتا
مارادۆنا
ماران
مارت
مارتا
مارتن
مارتی
مارتین
مارتینێز
مارتینێلی
مارتێنسایت
ماردین
مارس
مارسی
مارسیلیا
مارسێل
مارسێڵەس
مارشال
مارشاڵ
مارف
مارفان
مارفی
مارلۆ
مارلین
مارمزۆک
مارچی
مارڤل
مارڤڵ
مارڤێڵ
مارک
مارکس
مارکسی
مارکسیزم
مارکسیست
مارکسیستی
مارکسیستە
مارکۆ
مارکۆس
مارکی
مارکێتینگ
مارکێتینگی
مارگرێت
ماری
ماریا
مارین
مارینۆ
ماریوانا
ماریۆ
مارییا
مارە
مازین
مازەندەران
مازەندەرانی
ماس
ماساچووسیتس
ماست
ماستەر
ماستەری
ماسولکە
ماسولکەکان
ماسولکەکانی
ماسوولکە
ماسوولکەکان
ماسوولکەکانی
ماسوولکەی
ماسک
ماسکی
ماسۆنی
ماسی
ماسییە
ماف
مافانە
مافانەی
مافنامەی
مافنامەیە
مافی
مافیا
مافیان
مافیای
مافێک
مافێکی
مافە
مافەکان
مافەکانی
مافەکانیان
مافەکە
مافەکەی
مافەی
مال
مالاریا
مالاوی
مالدیڤ
مالوانی
مالوجە
مالپەری
مالی
مالیزیا
مالین
مالینا
مالیک
مالیکی
مام
ماملێ
مامناوەند
مامناوەندی
مامۆستا
مامۆستاکانی
مامۆستاکەی
مامۆستای
مامۆستایان
مامۆستایانی
مامۆستایی
مامۆستایەتی
مامۆستایەک
مامۆستایەکی
مامی
مامە
مامەساڵە
مامەند
مامەڵە
مامەڵەکردن
مامەڵەکردنی
مامەڵەی
مامەڵەیان
مامەڵەیەکی
مان
مانا
ماناکەی
مانای
مانایە
مانایەکی
مانایەی
ماندوو
ماندووبوونی
ماندێلا
مانناکان
مانه
مانوێل
مانچستەر
مانچێستەر
مانگ
مانگا
مانگانە
مانگانەی
مانگاکان
مانگاکانی
مانگاکە
مانگاکەی
مانگای
مانگایەکی
مانگدا
مانگرتن
مانگرتنی
مانگی
مانگیدا
مانگیش
مانگیلەی
مانگێک
مانگێکدا
مانگێکی
مانگە
مانگەدا
مانگەکان
مانگەکانی
مانگەی
مانھاتن
مانی
مانیفێستی
مانەوە
مانەوەی
مانەوەیان
ماو
ماوس
ماون
ماونا
ماونت
ماونەتەوە
ماوه
ماوە
ماوەت
ماوەتەوە
ماوەدا
ماوەکەی
ماوەی
ماوەیی
ماوەیە
ماوەیەدا
ماوەیەک
ماوەیەکی
ماوەیەکیش
ماوەیەکە
ماوەیەی
ماي
ماچ
ماچی
ماچیۆ
ماڕتن
ماڕڤڵ
ماڕک
ماک
ماکس
ماکسی
ماکمان
ماکوان
ماکۆ
ماکی
ماکە
ماڵ
ماڵان
ماڵاوایی
ماڵتا
ماڵتایە
ماڵه
ماڵي
ماڵپەری
ماڵپەڕ
ماڵپەڕی
ماڵپەڕێکی
ماڵپەڕە
ماڵپەڕەکان
ماڵپەڕەکانی
ماڵپەڕەکە
ماڵی
ماڵیان
ماڵێک
ماڵێکی
ماڵە
ماڵەوە
ماڵەوەی
ماڵەکان
ماڵەکانی
ماڵەکانیان
ماڵەکە
ماڵەکەی
ماڵەکەیان
مای
مایا
مایس
مایسی
مایل
مایند
مایک
مایکرۆ
مایکرۆسۆفت
مایکرۆنیزیا
مایکل
مایکڕۆسکۆپی
مایکڵ
مایۆرکا
مایۆی
مایەوە
مایەی
مبه
مبە
مة
متر
مترجم
متمانە
متمانەی
متن
مجاور
مجێور
محمد
محمدی
محمود
محه
محکمة
محێدین
محەممەد
محەممەدڕەزا
محەممەدی
محەممەدە
محەمەد
محەمەدکەندی
محەمەدی
مختصر
مرجع
مرد
مرداد
مردم
مردن
مردنی
مردنە
مردنەکان
مردنەکەی
مردوو
مردووان
مردووانی
مردوون
مردووی
مردووە
مردووەکان
مرواری
مرکز
مرۆڤ
مرۆڤایەتی
مرۆڤایەتیدا
مرۆڤایەتییەکان
مرۆڤدا
مرۆڤناسی
مرۆڤی
مرۆڤیان
مرۆڤیش
مرۆڤێک
مرۆڤێکی
مرۆڤە
مرۆڤەوە
مرۆڤەکان
مرۆڤەکاندا
مرۆڤەکانی
مرۆیی
مرۆیییەکان
مرۆییەکان
مریشک
مریکا
مریەم
مریەمی
مزگێنی
مزگەوت
مزگەوتی
مزگەوتێک
مزگەوتێکی
مزگەوتە
مزگەوتەکان
مزگەوتەکانی
مزگەوتەکە
مس
مساعدة
مستەر
مستەفا
مستەفای
مسلم
مسه
مسۆگەر
مسۆگەڕ
مسی
مشت
مشتومڕ
مشتومڕی
مشتومڕێکی
مشتومڕە
مشک
مصر
مصطفی
معاویە
معدن
معلومات
مكتبة
مل
ملا
ملم
ململانێ
ململانێکانی
ململانێی
ململانێیە
ململانێیەکی
ملکەچ
ملکەچی
ملی
ملیار
ملیارد
ملیۆن
ملیۆنان
ملیۆنی
ملیۆنێک
مم
من
منارە
منارەی
مناقب
منالەکانی
مناڵ
مناڵان
مناڵانی
مناڵی
مناڵییەوە
مناڵێکی
مناڵە
مناڵەکان
مناڵەکانی
مناڵەکە
مندا
منداڵ
منداڵان
منداڵاندا
منداڵانی
منداڵانە
منداڵانەی
منداڵبوون
منداڵن
منداڵی
منداڵیان
منداڵیدا
منداڵیی
منداڵییەوە
منداڵیەوە
منداڵێک
منداڵێکی
منداڵە
منداڵەکان
منداڵەکانی
منداڵەکانیان
منداڵەکە
منداڵەکەی
منم
منوون
منی
منیش
منە
منەوە
مه
مو
موانی
موبارەک
موبارەکاوا
موبایل
موبایەعە
موبایەعەی
موتەففین
موجتەبا
موجەب
موحسین
موحەممەد
موحەممەدی
موحەمەد
موحەمەدی
موختار
مودەریس
مودەسسر
موراد
مورادلوی
مورادی
مورادەلیا
مورتەزا
مورسی
مورسەلات
موزیک
موزیکی
موزەفەر
موسا
موسای
موستەفا
موستەفای
موسلیم
موسوعة
موسوڵمان
موسوڵمانان
موسوڵمانانی
موسوڵمانن
موسوڵمانی
موسوڵمانە
موسوڵمانەکان
موسڵ
موسڵمان
موسڵمانان
موسڵماناندا
موسڵمانانی
موسڵمانانە
موسڵمانانەوە
موسڵمانن
موسڵمانی
موسڵمانێکی
موسڵمانە
موسڵمانەکان
موسڵمانەکانی
موسڵی
موسۆلینی
موسی
موسێلا
موشەک
موشەکی
موشەکەکە
موعاوییە
موعاویە
موعتەزیلە
موعجیزە
موعین
موعینی
موعەمەر
موغەکان
موفتی
موفتیزادە
موقتەدا
موقع
مولحیدانی
مولک
مومبای
مون
موو
موودی
موور
مووسا
مووسڵ
مووسڵەوە
مووشتەری
مووشەک
مووشەکی
مووشەکێکی
مووشەکە
مووشەکەکان
مووشەکەکانی
مووشەکەکە
موون
مووچە
مووچەی
مووگابی
مووی
موي
موڕاد
موڕادی
موکرجی
موکری
موکریان
موکریانی
موکرین
موکریەکانن
موگناتیس
موگناتیسی
موڵتانی
موڵک
موڵکی
مژار
مژدەی
مکه
مڵکاری
مھاباد
مۆ
مۆبایل
مۆبایلی
مۆبایلێکی
مۆبایلە
مۆبایلەکانی
مۆتسارت
مۆتۆر
مۆتۆری
مۆخی
مۆدی
مۆدیوول
مۆدێرن
مۆدێرندا
مۆدێرنی
مۆدێرنە
مۆدێرنەکان
مۆدێل
مۆدێلی
مۆدێلێکی
مۆدێلە
مۆدێلەکانی
مۆدێڕن
مۆدە
مۆر
مۆرای
مۆرتکە
مۆرفی
مۆرکرد
مۆرکی
مۆرگان
مۆری
مۆریاتی
مۆریتانیا
مۆریس
مۆرینیۆ
مۆرە
مۆز
مۆزامبیک
مۆزیک
مۆزیکی
مۆزەخانە
مۆزەخانەکان
مۆزەخانەکانی
مۆزەخانەکە
مۆزەخانەی
مۆزەخانەیە
مۆزەخانەیەکی
مۆزەخانەیەکە
مۆسکۆ
مۆسیقا
مۆسیقادا
مۆسیقاژەن
مۆسیقاژەنانی
مۆسیقاژەنی
مۆسیقاژەنێکی
مۆسیقاکانی
مۆسیقاکە
مۆسیقاکەی
مۆسیقای
مۆسیقایی
مۆسیقایە
مۆسیقایەکی
مۆسیقی
مۆسیقیی
مۆسیقییە
مۆسیقییەکان
مۆسیقییەکانی
مۆفات
مۆلدۆڤا
مۆلەر
مۆم
مۆمبای
مۆن
مۆناکۆ
مۆنتانا
مۆنتاژ
مۆنتریال
مۆنتینیگرۆ
مۆندیال
مۆندیالی
مۆنۆمێنتی
مۆنیکا
مۆڵ
مۆڵی
مۆڵەت
مۆڵەتنامە
مۆڵەتنامەی
مۆڵەتی
می
میازاکی
میان
میاندواو
میانمار
میانی
میانەی
میاگی
میت
میتر
میترۆ
میترۆی
میتۆدی
میتۆلۆژیا
میتۆلۆژیای
میتۆکۆندێریایی
میحوەری
میخاي
میدالیای
میدیا
میدیادا
میدیاویکی
میدیاکان
میدیاکانی
میدیای
میدیایی
میر
میرا
میرات
میراتگری
میراتی
میران
میرانی
میراوا
میراودەلی
میراولی
میراوە
میرزا
میرنشین
میرنشینی
میرنشینێکی
میرنشینە
میرنشینەکانی
میرنشینەکە
میرنشینەکەی
میري
میری
میریی
میرە
میرەدێ
میرەکانی
میز
میزۆپۆتامیا
میزۆپۆتامیای
میزی
میسان
میستەر
میسر
میسردا
میسری
میسرییە
میسرییەکان
میسریەکان
میسرە
میسرەوە
میسڕ
میسڕی
میسی
میسیسیپی
میشیگان
میشێل
میل
میلاد
میلادی
میلان
میلانی
میلتۆن
میلل
میللی
میللیی
میللەت
میللەتی
میلی
میلیارد
میلیشیا
میلیمەتر
میلیۆن
میلەر
میمەکانی
مین
مینا
مینگ
مینھاج
مینی
مینە
میوان
میواندار
میوانداری
میوانداریکردنی
میوانداریی
میوانی
میوانەکان
میوزیک
میوزیکی
میونخ
میونشن
میوە
میوەکان
میوەی
میچی
میژووی
میکانیزمی
میکانیک
میکانیکی
میکاي
میکی
میڵی
میڵەر
میھرەبان
میھرەبانی
میێ
مێ
مێتا
مێتابۆلیزم
مێتافیزیک
مێتاکریتیک
مێتاڵ
مێتاڵی
مێتاڵە
مێتاڵەکان
مێدالیاوەرگرانی
مێدالیای
مێرد
مێردی
مێردین
مێردەکەی
مێرسێدس
مێرنێر
مێروو
مێروولە
مێرووەکان
مێرگی
مێرگەسۆر
مێری
مێزۆپۆتامیا
مێزی
مێسی
مێش
مێشک
مێشکدا
مێشکی
مێشکەوە
مێلبۆرن
مێژوو
مێژوودا
مێژووناس
مێژووناسان
مێژووناسانی
مێژووناسی
مێژووناسە
مێژووناسەکانی
مێژوونوسان
مێژوونووس
مێژوونووسان
مێژوونووسانی
مێژوونووسی
مێژووى
مێژووی
مێژوویان
مێژوویدا
مێژوویی
مێژووییی
مێژوویییە
مێژوویییەوە
مێژوویییەکان
مێژوویییەکانی
مێژووییە
مێژووییەوە
مێژووییەکان
مێژووییەکانی
مێژوویەکی
مێژووە
مێژووەوە
مێژووەکەی
مێژووەکەیان
مێژوی
مێژویی
مێژە
مێگ
مێگا
مێگابایت
مێگان
مێگاپیکسلی
مێھران
مێھەمی
مێی
مێیتێتسو
مێیجی
مێینە
مێینەکان
مێینەی
مە
مەبە
مەبەست
مەبەستت
مەبەستم
مەبەستی
مەبەستیان
مەبەستێک
مەبەستێکی
مەبەستە
مەبەستەش
مەبەستەکانی
مەتر
مەترسی
مەترسیدار
مەترسیداری
مەترسیدارە
مەترسیی
مەترسییەوە
مەترسییەکانی
مەترسییەکی
مەتری
مەترێک
مەترە
مەتەڵ
مەتەڵی
مەجارستان
مەجلیسی
مەجید
مەجیدی
مەجەر
مەجەرستان
مەجەڕ
مەحاڵ
مەحاڵی
مەحاڵە
مەحمود
مەحموداوای
مەحمودچغ
مەحمودی
مەحموود
مەحموودی
مەحمەشەی
مەحوی
مەحکووم
مەحەل
مەخموور
مەدالیا
مەدالیاکان
مەدالیاکانی
مەدالیای
مەدالیایان
مەدالیایەک
مەدالیایەکی
مەدخەلی
مەدرید
مەدریدی
مەدرەسەی
مەدیتەرانە
مەدینە
مەدیەن
مەدە
مەدەد
مەدەنی
مەدەنیی
مەدەنییەکان
مەراسیمی
مەراغە
مەرج
مەرجانەی
مەرجی
مەرجێک
مەرجێکی
مەرجە
مەرجەکان
مەرجەکانی
مەرجەی
مەردان
مەردۆخ
مەردۆخی
مەرزیە
مەرعەش
مەرقۆس
مەرقەدی
مەروان
مەرکەزی
مەرگ
مەرگی
مەرگە
مەرگەوەڕ
مەرگەکان
مەرگەکانی
مەریخ
مەریوان
مەریوانی
مەریوانە
مەرەنەگلی
مەزارگەی
مەزاری
مەزرا
مەزن
مەزنترین
مەزندە
مەزندەی
مەزنی
مەزنێ
مەزنە
مەزنەکان
مەزنەکانی
مەزنەکە
مەزنەکەی
مەزهەبی
مەزھەب
مەزھەبی
مەزھەر
مەزەندە
مەزەندەی
مەست
مەستی
مەسروور
مەسعود
مەسعوود
مەسنەوی
مەسک
مەسۆیی
مەسیح
مەسیحی
مەسیحییە
مەسیحییەت
مەسیحییەتدا
مەسیحییەکان
مەسیحییەکانی
مەسیحیەت
مەسیحیەکان
مەسیحەوە
مەسەلە
مەسەلەی
مەشق
مەشقی
مەشکاوا
مەشھەد
مەشین
مەعارج
مەعروفی
مەعریفەتناسی
مەعنەوی
مەغریب
مەغریبی
مەغۆل
مەغۆلی
مەغۆلەکان
مەقام
مەقامی
مەقامەکانی
مەقدوونیا
مەكينەى
مەل
مەلا
مەلاریا
مەلالە
مەلاي
مەلای
مەلایەتی
مەلیک
مەلیکشا
مەلیکی
مەلە
مەلەوانی
مەلەک
مەلەکان
مەلەکانی
مەلەکردن
مەلەکشا
مەلەگا
مەم
مەمالیکی
مەمالیکەکان
مەمک
مەمکی
مەمەسنی
مەند
مەندل
مەندی
مەندەلی
مەنسور
مەنسوور
مەنسووری
مەنسوڕ
مەنچستەر
مەنگوڕ
مەنگوڕی
مەنگۆلی
مەنگۆلیا
مەهاباد
مەهدی
مەودا
مەوداکەی
مەودای
مەودایەکی
مەولا
مەولانا
مەولانای
مەولەوی
مەي
مەچەک
مەڕ
مەڕمەڕ
مەڕمەڕە
مەڕوان
مەڕوانی
مەک
مەکتەب
مەکتەبی
مەکسیک
مەکسیکۆ
مەکسیکی
مەکسیکییەکان
مەککە
مەککەوە
مەککەی
مەککەییە
مەکۆکانی
مەکۆی
مەکینە
مەکینەکان
مەکینەکە
مەکینەی
مەکە
مەکەن
مەگەر
مەڵبەندانەی
مەڵبەندی
مەڵبەندێکی
مەڵبەندە
مەڵبەندەکان
مەڵبەندەکانی
مەڵیگن
مەھاباد
مەھابادی
مەھدی
مەھەستی
مەی
مەیدان
مەیدانی
مەیل
مەیلی
مەیلیان
مەیموون
مەین
ن
نا
نابن
نابوو
نابینرێت
نابینم
نابێ
نابێت
نابێتە
نابێتەوە
نابەجێ
ناتالی
ناتالیا
ناتواندرێت
ناتوانرێ
ناتوانرێت
ناتوانم
ناتوانن
ناتوانی
ناتوانیت
ناتوانین
ناتوانێ
ناتوانێت
ناتۆ
ناتەبایی
ناتەواو
ناتەواوی
ناجی
ناجێگیر
ناجێگیری
ناحکومی
ناحییەی
ناحیە
ناحیەکان
ناحیەکانی
ناحیەکە
ناحیەی
ناحیەیە
ناخچیڤانسکی
ناخۆش
ناخۆشی
ناخۆشە
ناخۆن
ناخی
ناخیچێڤان
ناخەیاڵی
نادا
نادات
نادر
نادروست
نادری
نادرێت
نادیار
نادیاری
نادیارە
نادیە
نادەن
نارا
نارد
ناردن
ناردنی
ناردووە
ناردی
ناردە
ناروتۆ
ناری
نازانرێت
نازانم
نازانن
نازانێ
نازانێت
نازری
نازعات
نازم
نازناو
نازناوی
نازناوێکی
نازناوە
نازناوەکان
نازناوەکانی
نازناوەکە
نازناوەکەی
نازناوەکەیان
نازناوەی
نازکی
نازی
نازیا
نازییەکان
نازیەکان
نازەنین
ناس
ناسا
ناساند
ناساندن
ناساندنی
ناساندنەکانی
ناساندووە
ناسر
ناسرا
ناسرابوو
ناسرابوون
ناسران
ناسراو
ناسراوبوو
ناسراوترین
ناسراون
ناسراوی
ناسراویشە
ناسراوە
ناسراوەکان
ناسراوەکانی
ناسری
ناسرەدین
ناسنامە
ناسنامەی
ناسناوی
ناسڕ
ناسک
ناسی
ناسیاریناسی
ناسین
ناسینی
ناسینەوە
ناسینەوەی
ناسیوە
ناسیۆنالیزم
ناسیۆنالیزمی
ناسیۆنالیستی
ناسیۆنالیستە
ناسێندرا
ناسێنرا
ناسێنراوە
ناشتن
ناشتنی
ناشرین
ناشناڵ
ناشیرین
ناصر
نافیع
نافەرمی
نالی
نالیا
نالەبار
نالەباری
نام
نامه
نامور
نامۆ
نامۆکان
نامۆکانی
نامیبیا
نامیق
نامیلکە
نامیلکەی
نامیلکەیەکی
نامێنێ
نامێنێت
نامە
نامەکان
نامەکانی
نامەکە
نامەکەی
نامەی
نامەیەک
نامەیەکدا
نامەیەکی
نان
نانخواردن
نانسی
نانۆ
نانی
ناو
ناوازە
ناوازەکانی
ناوازەی
ناوانە
ناوبانگ
ناوبانگترین
ناوبانگی
ناوبانگیان
ناوبانگێکی
ناوبانگە
ناوبراو
ناوبراوە
ناوبرد
ناوبردنی
ناوبژی
ناوبژیوان
ناوبژیوانی
ناوبەناو
ناوجەرگەی
ناوخۆ
ناوخۆدا
ناوخۆی
ناوخۆیی
ناوخۆییی
ناوخۆیییەکان
ناوخۆیییەکانی
ناوخۆییە
ناوخۆییەکان
ناوخۆییەکانی
ناودار
ناودارانی
ناودارترین
ناوداری
ناودارە
ناودارەکان
ناودارەکانی
ناودەبرا
ناودەبرێ
ناودەبرێت
ناودەبرێن
ناوزەد
ناوزەند
ناوم
ناوماڵ
ناونا
ناونان
ناونانی
ناونرا
ناونراون
ناونراوە
ناونووس
ناونیشان
ناونیشانی
ناونیشانێکی
ناونیشانە
ناونیشانەکانی
ناونیشانەکە
ناوه
ناوى
ناوچانە
ناوچانەدا
ناوچانەی
ناوچه
ناوچە
ناوچەدا
ناوچەکان
ناوچەکانی
ناوچەکە
ناوچەکەدا
ناوچەکەوە
ناوچەکەی
ناوچەکەیان
ناوچەی
ناوچەیی
ناوچەیە
ناوچەیەدا
ناوچەیەک
ناوچەیەکی
ناوچەیەکە
ناوچەیەی
ناوک
ناوکی
ناوکە
ناوی
ناویان
ناویاندا
ناویدا
ناوین
ناویندا
ناویەوە
ناوێ
ناوێت
ناوێک
ناوێکی
ناوێکە
ناوە
ناوەخۆ
ناوەخۆی
ناوەراست
ناوەراستی
ناوەرۆک
ناوەرۆکی
ناوەند
ناوەندی
ناوەندیدا
ناوەندیی
ناوەندییە
ناوەندییەکان
ناوەندێک
ناوەندێکی
ناوەندە
ناوەندەکانی
ناوەندەکەی
ناوەوە
ناوەوەی
ناوەڕاست
ناوەڕاستدا
ناوەڕاستی
ناوەڕاستە
ناوەڕاستەوە
ناوەڕۆک
ناوەڕۆکی
ناوەڕۆکە
ناوەڕۆکەکان
ناوەڕۆکەکەی
ناوەکان
ناوەکانی
ناوەکانیان
ناوەکی
ناوەکیی
ناوەکییەکان
ناوەکە
ناوەکەی
ناوەکەیان
ناوەی
ناوەیان
ناي
ناپاکی
ناپلیۆن
ناپۆلی
ناپۆلیۆن
ناپێویست
ناچار
ناچاربوو
ناچاربوون
ناچارکرد
ناچاری
ناچالاک
ناچێت
ناڕازی
ناڕاست
ناڕاستەوخۆ
ناڕوون
ناڕوونە
ناڕێک
ناڕێکی
ناڕەحەتی
ناڕەزایی
ناڕەزایەتی
ناڕەزایەتییەک
ناڕەزایەتییەکان
ناڕەزایەتییەکانی
ناڤ
ناکا
ناکات
ناکاتەوە
ناکاو
ناکرێ
ناکرێت
ناکرێتەوە
ناکرێن
ناکوردی
ناکۆتا
ناکۆک
ناکۆکی
ناکۆکیان
ناکۆکیی
ناکۆکییە
ناکۆکییەکان
ناکۆکییەکانی
ناکۆکییەکی
ناکەم
ناکەن
ناکەوێت
ناکەین
ناگاتۆ
ناگانۆ
ناگرێت
ناگرێتەوە
ناگونجێت
ناگڵیسمان
ناگۆرنۆ
ناگۆڕێت
ناگۆیا
ناگەیەنێت
ناڵپارێز
ناڵی
ناڵێم
ناڵەی
ناھێڵێت
نای
نایاب
نایابی
نایابە
نایاسایی
نایاسایییە
نایت
نایترۆجین
ناین
نایە
نایەت
نایەوە
نایەکسانی
نایەکسانیی
نبذة
نت
نجام
نجامی
ند
ندامی
نده
ندی
ندین
ندیه
ندێ
ندێک
ندە
نرا
نراوە
نرخ
نرخاندنی
نرخی
نرخێکی
نرخە
نرخەکان
نرخەکانی
نرخەکەی
نز
نزا
نزار
نزای
نزم
نزمبوونەوەی
نزمتر
نزمترین
نزمترە
نزمی
نزمە
نزمەکان
نزمەکانی
نزیک
نزیکبوونەوە
نزیکبوونەوەی
نزیکتر
نزیکترین
نزیکن
نزیکی
نزیکیان
نزیکە
نزیکەوە
نزیکەکانی
نزیکەی
نزیکەیی
نشر
نشین
نشینی
نشینەکان
نشیو
نف
نقوم
نك
نم
نما
نمایش
نمایشکاری
نمایشکرا
نمایشکراوە
نمایشکردن
نمایشکردنی
نمایشی
نمایشیان
نمایشێکی
نمایشە
نمایشەکانی
نمایشەکە
نمایشەکەی
نمرەی
نمونه
نمونە
نمونەی
نمونەیی
نمونەیەک
نمونەیەکی
نموونە
نموونەکان
نموونەکانی
نموونەی
نموونەیی
نموونەیە
نموونەیەک
نموونەیەکی
نموونەیەکە
نه
نها
نهێنی
نو
نوار
نواند
نواندن
نواندنی
نواندنەکەی
نوح
نور
نوری
نورەدین
نوسخەی
نوسراو
نوسراون
نوسراوی
نوسراوە
نوسراوەتەوە
نوسراوەکانی
نوسرەت
نوسی
نوسین
نوسینگەی
نوسینی
نوسینەوەی
نوسیویەتی
نوسیوە
نوسەر
نوسەران
نوسەرانی
نوسەری
نوشانا
نوشته
نوفمبر
نوقم
نونێز
نونێس
نوو
نووح
نوور
نوورسی
نووری
نووس
نووسرا
نووسرابوو
نووسرابێت
نووسراو
نووسراون
نووسراونەتەوە
نووسراوی
نووسراوێکی
نووسراوە
نووسراوەتەوە
نووسراوەکان
نووسراوەکانی
نووسراوەکە
نووسراوەی
نووسه
نووسی
نووسیبوو
نووسیبووی
نووسین
نووسیندا
نووسینگە
نووسینگەی
نووسینی
نووسینێک
نووسینێکی
نووسینە
نووسینەوە
نووسینەوەی
نووسینەکان
نووسینەکانی
نووسینەکە
نووسیویەتی
نووسیوە
نووسیوەتەوە
نووسییەوە
نووسە
نووسەر
نووسەران
نووسەرانی
نووسەری
نووسەرێک
نووسەرێکی
نووسەرە
نووسەرەکان
نووسەرەکانی
نووسەی
نوی
نوێ
نوێتر
نوێترین
نوێخوازی
نوێدا
نوێنه
نوێنەر
نوێنەران
نوێنەرانی
نوێنەرایەتی
نوێنەرایەتیی
نوێنەری
نوێنەرێکی
نوێوە
نوێژ
نوێژکردن
نوێژی
نوێژە
نوێکاری
نوێکان
نوێکانی
نوێکراوەتەوە
نوێکرایەوە
نوێکردنەوە
نوێکردنەوەی
نوێکردەوە
نوێکە
نوێکەی
نوێی
نوێیان
نوێیە
نوێیەکان
نوێیەکانی
نوێیەکە
نوێیەکەی
نژیاروانانی
نژیاروانی
نژیاروانیی
نکۆڵی
نگ
نگلیزی
نگه
نگی
نھۆم
نھۆمی
نھێنی
نھێنیی
نھێنییە
نھێنییەکانی
نۆ
نۆبڵ
نۆبڵی
نۆبێل
نۆبێلی
نۆت
نۆتی
نۆتەکانی
نۆتەی
نۆد
نۆدێ
نۆرس
نۆرفۆلک
نۆرمان
نۆرماڵ
نۆرویچ
نۆرویژ
نۆرەی
نۆزدە
نۆزدەدا
نۆزدەهەم
نۆزدەھەم
نۆزدەھەمدا
نۆزدەیەم
نۆزدەیەمی
نۆزل
نۆزڵ
نۆزڵی
نۆزڵەکە
نۆسەد
نۆلان
نۆوا
نۆژەن
نۆژەنکردنەوە
نۆژەنکردنەوەی
نۆڤا
نۆڤەمبەری
نۆک
نۆکیا
نۆکەندی
نۆکەندەکە
نۆگا
نۆی
نۆیەم
نۆیەمی
نۆیەمین
نۆێڵ
نی
نیا
نیاز
نیازپاکی
نیازی
نیان
نیاوەن
نیت
نیجەر
نیرۆ
نیزام
نیزامی
نیزامەدین
نیزیک
نیس
نیسا
نیسان
نیساندا
نیسانی
نیسک
نیشان
نیشانانە
نیشانانەی
نیشاندا
نیشاندان
نیشاندانی
نیشاندرا
نیشاندراوە
نیشاندەدات
نیشاندەری
نیشانه
نیشانی
نیشانە
نیشانەکان
نیشانەکانی
نیشانەی
نیشانەیە
نیشانەیەک
نیشانەیەکی
نیشتمان
نیشتمانپەروەری
نیشتمانی
نیشتمانیی
نیشتمانییە
نیشتمانییەکان
نیشتمانییەکانی
نیشتنگە
نیشتنی
نیشتنەوە
نیشتنەوەی
نیشتیمان
نیشتیمانی
نیشتیمانیی
نیشتە
نیشتەجێ
نیشتەجێبوون
نیشتەجێبوونی
نیشتەجێن
نیشتەجێی
نیشتەجێیە
نیشتەنی
نیشتەوە
نیعمەتاوای
نیل
نیلس
نیلی
نیم
نیما
نیمچە
نیمچەدوورگەی
نین
نینا
نینتێندۆ
نینجا
نینجایەکی
نینگبۆ
نینۆک
نیه
نیو
نیوان
نیوترۆن
نیوتن
نیوتنی
نیوتۆن
نیوجێرزی
نیوجێرسی
نیوز
نیوزلاند
نیوزلەندا
نیوزیلاند
نیوکاسڵ
نیوی
نیویۆرک
نیویۆرکدا
نیویۆرکی
نیویۆرکە
نیویۆڕک
نیوێک
نیوە
نیوەتیرەی
نیوەڕۆ
نیوەڕۆی
نیوەگۆی
نیوەی
نیپال
نیپالی
نیپاڵ
نیپۆن
نیچە
نیڤادا
نیک
نیکاراگوا
نیکسۆن
نیکڵسۆن
نیکۆلا
نیکۆلاس
نیکۆلای
نیکۆڵ
نیکۆڵاس
نیکی
نیکیتا
نیگا
نیگارکێش
نیگارکێشانی
نیگارکێشی
نیگاری
نیگای
نیگەران
نیگەرانی
نیڵ
نیۆ
نیۆرک
نیۆیۆرک
نیین
نییه
نییە
نیە
نێت
نێتفلیکس
نێتفلیکسی
نێتفلێکس
نێجیریا
نێر
نێردرا
نێردراو
نێردراوی
نێردراوە
نێردراوەکان
نێرگز
نێری
نێرینە
نێرینەکانی
نێرینەی
نێرە
نێرەکان
نێرەکانی
نێزیک
نێزیکەی
نێو
نێوان
نێوانویکی
نێوانی
نێوانیان
نێوانیاندا
نێوخۆیی
نێوده
نێودەولەتی
نێودەوڵەتی
نێودەوڵەتیدا
نێودەوڵەتیی
نێودەوڵەتییە
نێودەوڵەتییەوە
نێودەوڵەتییەکان
نێودەوڵەتییەکانی
نێودەوڵەتیەکان
نێونەتەوەیی
نێونەتەوەییی
نێونەتەوەیییە
نێونەتەوەیییەکان
نێونەتەوەیییەکانی
نێوی
نێویاندا
نێوەندی
نێوەندەدا
نێوەڕاستی
نێي
نێچیرڤان
نێژرا
نێژراوان
نێژراوە
نێکسس
نێگەتیڤ
نە
نەبتییەکان
نەبرد
نەبم
نەبن
نەبوایە
نەبونی
نەبوو
نەبووبێت
نەبووم
نەبوون
نەبوونی
نەبووە
نەبووەت
نەبی
نەبیت
نەبینیوە
نەبێ
نەبێت
نەبێتە
نەبێتەوە
نەبەز
نەبەي
نەتوانرا
نەتوانن
نەتوانین
نەتوانێ
نەتوانێت
نەتەوایەتی
نەتەوە
نەتەوەکان
نەتەوەکانی
نەتەوەکەی
نەتەوەی
نەتەوەیی
نەتەوەییی
نەتەوەیییە
نەتەوەیییەکان
نەتەوەیییەکانی
نەتەوەییە
نەتەوەییەکان
نەتەوەییەکانی
نەتەوەیەک
نەتەوەیەکگرتووەکان
نەتەوەیەکی
نەجات
نەجار
نەجاشی
نەجم
نەجمەددین
نەجمەدین
نەجیب
نەجەف
نەجەفاوا
نەجەفی
نەحل
نەحو
نەخایاند
نەخش
نەخشاندنی
نەخشی
نەخشە
نەخشەسازی
نەخشەکان
نەخشەکانی
نەخشەکە
نەخشەی
نەخشەیەک
نەخشەیەکی
نەخوازراو
نەخوێندەوار
نەخوێندەواری
نەخچیڤان
نەخچیڤانی
نەخۆش
نەخۆشانی
نەخۆشانەی
نەخۆشخانە
نەخۆشخانەکان
نەخۆشخانەکانی
نەخۆشخانەکە
نەخۆشخانەی
نەخۆشخانەیە
نەخۆشخانەیەکی
نەخۆشی
نەخۆشیی
نەخۆشییە
نەخۆشییەوە
نەخۆشییەک
نەخۆشییەکان
نەخۆشییەکانی
نەخۆشییەکی
نەخۆشییەکە
نەخۆشییەکەی
نەخۆشیە
نەخۆشیەکانی
نەخۆشیەکی
نەخۆشیەکە
نەخۆشە
نەخۆشەکان
نەخۆشەکانی
نەخۆشەکە
نەخێر
نەدا
نەدات
نەدانی
نەداوە
نەدرا
نەدراوە
نەدەبوو
نەدەدا
نەدەزانی
نەدەکرا
نەدەکرد
نەرم
نەرمامێر
نەرمامێری
نەرمامێرە
نەرمامێرەکانی
نەرمی
نەرمە
نەرمەواڵەی
نەرمەکالا
نەرمەکالای
نەرمەکاڵا
نەرمەکاڵای
نەرویج
نەرویجی
نەرویژ
نەرویژی
نەریت
نەریتی
نەریتێکی
نەریتە
نەریمان
نەرێنی
نەزان
نەزانراو
نەزانراوە
نەزانی
نەزەر
نەزەراوا
نەسر
نەشتەرگەرى
نەشتەرگەری
نەشتەرگەریی
نەشتەرگەرییە
نەشتەرگەرییەکی
نەشتەرگەرییەکە
نەشیاو
نەغەدە
نەغەدەوە
نەفرەت
نەفەر
نەقشبەندی
نەقیب
نەما
نەمابوو
نەمان
نەمانی
نەماون
نەماوە
نەمایەوە
نەمر
نەمرود
نەمروود
نەمری
نەمسا
نەمساوی
نەمسایی
نەمل
نەمەشیر
نەناسراو
نەناسراوە
نەناسراوەکان
نەنۆر
نەهرۆ
نەهێشتنی
نەوا
نەواب
نەوابی
نەواز
نەوت
نەوتی
نەوتییەکانی
نەوجول
نەورۆز
نەورۆزی
نەوزاد
نەوشیروان
نەوید
نەویست
نەوە
نەوەد
نەوەدەکان
نەوەک
نەوەکان
نەوەکانی
نەوەکەی
نەوەی
نەوەیەکی
نەي
نەچوو
نەچووە
نەچێت
نەژاد
نەژادی
نەک
نەکا
نەکات
نەکرا
نەکرابوو
نەکراو
نەکراون
نەکراوە
نەکراوەتەوە
نەکرد
نەکردبوو
نەکردن
نەکردنی
نەکردووە
نەکردەوە
نەکرێت
نەکەن
نەکەوت
نەکەی
نەکەین
نەگرت
نەگونجاو
نەگۆر
نەگۆری
نەگۆڕ
نەگۆڕی
نەگۆڕە
نەڵێن
نەھات
نەھاتووە
نەھرۆ
نەھری
نەھێشتنی
نەھێنا
نەھێناوە
نەی
نەیارانی
نەیان
نەیانتوانی
نەیانتوانیوە
نەیاندەتوانی
نەیتوانی
نەیتوانیوە
نەیجیریا
نەیدەتوانی
نەیدەزانی
نەینەوا
ه
ها
هاباد
هات
هاتبوو
هاتن
هاتنی
هاتنە
هاتوون
هاتووه
هاتووچۆ
هاتووە
هاتوە
هاتە
هاری
هاریس
هان
هاندانی
هاندەر
هاندەرانی
هاندەری
هانس
هانگۆل
هانی
هاو
هاوبەش
هاوبەشی
هاوتای
هاوسنورە
هاوسنوورە
هاوسەرگیری
هاوسەری
هاوسەرەکەی
هاوسەنگی
هاوشێوە
هاوشێوەی
هاوپەیمانی
هاوچەرخ
هاوڕێ
هاوڕێنامە
هاوڕێکانی
هاوڕێی
هاوڕێیان
هاوکات
هاوکاری
هاوڵاتی
هاوڵاتیان
هاوڵاتیانی
هاوین
هاوینی
هاوینە
هاوینەی
هاوەڵانی
هاوەڵەکانی
های
هتد
هر
هـ
هم
هه
هونه
هونەر
هونەرمەند
هونەرمەندی
هونەری
هونەرە
هووڤەر
هوی
هۆتێل
هۆزی
هۆزە
هۆزەکانی
هۆشدار
هۆنراوەی
هۆنگ
هۆى
هۆکار
هۆکاری
هۆکارێک
هۆکارێکی
هۆکارە
هۆکارەکانی
هۆکارەکەی
هۆکی
هۆڵی
هۆڵە
هۆڵەندا
هۆڵەندی
هۆی
هۆیەوە
هی
هیت
هیتلەر
هیلاری
هیند
هیندستان
هیندۆسی
هیندی
هیوا
هیوادارم
هیوای
هیچ
هیچی
هێرش
هێرشی
هێرشیان
هێرشێکی
هێز
هێزه
هێزی
هێزێکی
هێزە
هێزەکانی
هێشت
هێشتا
هێما
هێمای
هێمن
هێنا
هێنان
هێنانی
هێناوە
هێندە
هێنراوە
هێنری
هێڵ
هێڵی
هەبوو
هەبوون
هەبوونی
هەبووە
هەبێ
هەبێت
هەتا
هەتاوی
هەتاوەکوو
هەر
هەربۆیە
هەردوو
هەردووکیان
هەرزەکار
هەرزەکاری
هەروا
هەروەك
هەروەها
هەروەک
هەرچۆنێک
هەرچی
هەرچەند
هەرچەندە
هەرگیز
هەریەک
هەریەکە
هەریەکەیان
هەرێم
هەرێمی
هەرێمە
هەرێمەکانی
هەرە
هەزار
هەزاران
هەسارە
هەسارەکان
هەسارەی
هەست
هەستا
هەستی
هەشت
هەشتا
هەشتەم
هەفتە
هەفتەی
هەم
هەمان
هەموو
هەمووان
هەمووی
هەموویان
هەمیشە
هەمیشەیی
هەمین
هەن
هەنتینگتۆن
هەندێ
هەندێك
هەندێک
هەندێکی
هەندێکیان
هەنگاریا
هەنگاو
هەنگاوی
هەوا
هەواى
هەواڵ
هەواڵگری
هەواڵی
هەوای
هەورامان
هەورامانی
هەولێر
هەوکردنی
هەوڵ
هەوڵدەدات
هەوڵی
هەوڵەکانی
هەيە
هەڕەشە
هەڕەشەی
هەژار
هەژاری
هەژمار
هەژماری
هەڵبژارد
هەڵبژاردن
هەڵبژاردنی
هەڵبژاردنەکان
هەڵبژاردنەکانی
هەڵبژاردە
هەڵبژاردەکەی
هەڵبژاردەی
هەڵبژێردرا
هەڵبژێردراو
هەڵدا
هەڵدانی
هەڵدەستێت
هەڵسا
هەڵمکراو
هەڵمەتی
هەڵوەشاندنەوەی
هەڵکەوتووە
هەڵگرتنی
هەڵگری
هەڵە
هەڵەبجە
هەڵەی
هەینی
هەییە
هەیە
و
وء
وا
وابزانم
وابوو
وابووە
وابێت
وات
واتا
واتاکەی
واتای
واتایی
واتایە
واتایەکی
واتسن
واتسۆن
واتفۆرد
واتنی
واته
واتە
واجب
وادي
وادی
وادیارە
وادەکات
وادەی
وار
وارانی
وارد
وارساو
وارماوا
وارن
وارنەر
واز
وازھێنان
وازھێنانی
وازی
وازیان
واسیت
واش
واشنتن
واشنتۆن
واشینگتن
واشینگتۆن
واقعە
واقیع
واقیعی
والا
والعلم
والکۆت
والی
وام
وان
واندا
وانه
وانگ
وانی
وانییە
وانە
وانەبێژ
وانەوتنەوە
وانەکانی
وانەی
وانەیەک
واو
واوی
واي
واڕنەر
واژوو
واژوونەکراوە
واژووکرد
واژووکردنی
واژووی
واژووەکەت
واژۆ
واژە
واکەر
واڵ
واڵا
واڵاس
واڵایی
واڵت
واڵتەر
واڵس
وای
وایان
وایت
وایند
وایه
وایکرد
وایکردووە
وایڵد
وایە
وب
وبه
وبونتو
وبە
وت
وتار
وتارانە
وتارانەی
وتاردا
وتارنووس
وتارنووسانی
وتارنووسەکانی
وتاری
وتارێ
وتارێک
وتارێکدا
وتارێکی
وتارە
وتارەکان
وتارەکاندا
وتارەکانی
وتارەکانیش
وتارەکە
وتارەکەت
وتارەکەدا
وتارەکەی
وتارەی
وتبووی
وتت
وترا
وتراوە
وتم
وتن
وتنه
وتنی
وتنەوە
وتنەوەی
وته
وتومبێل
وتوو
وتوویانە
وتوویەتی
وتووێژ
وتووێژی
وتووێژە
وتووێژەکان
وتووە
وتووەتەوە
وتویەتی
وتۆمبێل
وتی
وتیان
وتیشی
وتە
وتەبێژی
وتەکانی
وتەی
وتەیە
وتەیەک
وتەیەکی
وح
ود
ور
ورارتوو
ورد
وردبین
وردبینی
وردتر
وردن
وردنی
وردو
وردوو
وردی
وردە
وردەن
وردەوردە
وردەکاری
وردەکاریی
وردەکارییەکانی
ورشەلیم
ورفا
ورمێ
ورمێدا
ورمێوە
ورمێی
ورمێیان
ورمێیە
وره
وروپا
وروژاندنی
وروژێنەر
وروگوای
ورچ
ورچی
وری
وریا
ورە
ورەی
وزارة
وزە
وزەی
وزەیە
وزەیەکی
وزەیەی
وس
وسالی
وسامە
وسترالی
وسترالیا
وسترالیای
وسترالیایە
وسترالییەکانی
وستراڵیا
وستڕالیا
وسلم
وشانی
وشانە
وشانەی
وشتر
وشه
وشک
وشکانی
وشکایی
وشکی
وشکە
وشکەساڵی
وشکەمرۆی
وشە
وشەدا
وشەناسی
وشەڕەتناسی
وشەکان
وشەکانی
وشەکە
وشەکەی
وشەی
وشەیە
وشەیەک
وشەیەکی
وشەیەکە
وصل
وط
وع
وف
وق
وقاسلی
وقیانووسی
وقیانووسیا
وك
ول
ولا
ولات
ولاتانی
ولاتی
ولاتە
ولاتەکەیان
ولایەتی
ولایەتە
ولى
ولی
ولیام
ولیانی
ولیەم
ولێر
ولە
وم
وما
ومێد
ومێدی
ون
ونبوو
ونبوونی
ونبووەکان
وه
وو
ووت
ووتاری
ووتی
ووتە
وورد
ووزە
ووزەی
ووشە
ووشەی
ووف
وون
ووگاندا
ووڵات
ووڵاتانی
ووڵاتی
ووڵاتە
ووھان
وي
ويكي
وپ
وچ
وک
وکراینا
وکراینی
وڵ
وڵات
وڵاتان
وڵاتاندا
وڵاتانی
وڵاتانە
وڵاتانەدا
وڵاتانەی
وڵاتدا
وڵاته
وڵاتی
وڵاتیان
وڵاتیش
وڵاتیی
وڵاتێک
وڵاتێکدا
وڵاتێکی
وڵاتێکە
وڵاتە
وڵاتەدا
وڵاتەوە
وڵاتەکان
وڵاتەکانی
وڵاتەکە
وڵاتەکەدا
وڵاتەکەی
وڵاتەکەیان
وڵاتەکەیدا
وڵاتەی
وڵاتەیە
وڵه
وڵڵا
وۆردپرێس
وۆرکس
وۆن
وۆنگ
وی
ویست
ویستت
ویستم
ویستوویەتی
ویستووە
ویستویەتی
ویستی
ویستیان
ویش
ویل
ویلایەت
ویلایەتی
ویلایەتیی
ویلایەتێکی
ویلایەتە
ویلایەتەکان
ویلایەتەکانی
ویلایەتەکە
ویلایەتەیەکگرتوەکانی
ویلسۆن
ویلی
ویلیام
ویلیامز
ویلیەم
وینتەر
ویندۆز
ویندۆزی
وینستۆن
وینۆنا
ویژدان
ویکی
ویکیدراوە
ویکیفەرھەنگ
ویکیمیدیا
ویکیپدیای
ویکیپرۆژەی
ویکیپیدیا
ویکیپیدیادا
ویکیپیدیاوە
ویکیپیدیاکان
ویکیپیدیاکانی
ویکیپیدیای
ویکیپیدیایە
ویکیپێدیای
ویکیی
ویکییە
ویکییەکان
ویکییەکانی
ویڵ
ویڵسن
ویڵیام
ویڵەر
وێ
وێب
وێبسایتی
وێبسایتەکە
وێبگە
وێبگەڕ
وێبگەڕی
وێبگەڕەکان
وێبگەکان
وێبگەکانی
وێبگەکە
وێبگەی
وێبی
وێت
وێدۆن
وێران
وێرانکاری
وێرانکردنی
وێرانەکانی
وێرای
وێرنەر
وێست
وێستفالیا
وێستمینستەر
وێستگە
وێستگەکان
وێستگەکانی
وێستگەکە
وێستگەی
وێستگەیەکی
وێلز
وێمبلی
وێن
وێنا
وێنانە
وێنانەی
وێناکردنی
وێنای
وێنه
وێنۆچکە
وێنۆک
وێنە
وێنەدا
وێنەکان
وێنەکانی
وێنەکێش
وێنەکێشان
وێنەکێشانی
وێنەکێشی
وێنەکێشێکی
وێنەکێشە
وێنەکێشەکان
وێنەکێشەکانی
وێنەکە
وێنەکەدا
وێنەکەی
وێنەگر
وێنەگرتن
وێنەگرتنی
وێنەگرتنەکە
وێنەگری
وێنەگرێکی
وێنەگیراون
وێنەی
وێنەیان
وێنەیگیراون
وێنەیی
وێنەیە
وێنەیەک
وێنەیەکی
وێنەیەی
وێڕای
وێژ
وێژە
وێژەدا
وێژەی
وێژەیی
وێڵز
وێڵسۆن
وێی
وە
وەبەرھێنان
وەبەرھێنانی
وەتەن
وەحی
وەختی
وەدی
وەدەست
وەر
وەربگرن
وەربگریت
وەربگرین
وەربگرێ
وەربگرێت
وەربگیرێت
وەرتێ
وەردەگرت
وەردەگرن
وەردەگرین
وەردەگرێ
وەردەگرێت
وەردەگیرێ
وەردەگیرێت
وەرز
وەرزدا
وەرزش
وەرزشدا
وەرزشوان
وەرزشوانان
وەرزشوانانی
وەرزشوانی
وەرزشوانێکی
وەرزشوانە
وەرزشکاران
وەرزشکارانی
وەرزشی
وەرزشیانەی
وەرزشیدا
وەرزشیی
وەرزشییە
وەرزشییەکان
وەرزشییەکانی
وەرزشیەکان
وەرزشە
وەرزشەکانی
وەرزی
وەرزیدا
وەرزێری
وەرزێک
وەرزێکی
وەرزە
وەرزەدا
وەرزەکان
وەرزەکانی
وەرزەکە
وەرزەکەدا
وەرزەکەی
وەرنەگرت
وەرنەگرتووە
وەري
وەرگر
وەرگرانی
وەرگرت
وەرگرتبوو
وەرگرتبێت
وەرگرتن
وەرگرتنی
وەرگرتنەوەی
وەرگرتووە
وەرگرتوە
وەرگرتەوە
وەرگرن
وەرگری
وەرگرێت
وەرگرەکان
وەرگرەکانی
وەرگیرا
وەرگیرابوو
وەرگیراو
وەرگیراون
وەرگیراوە
وەرگێران
وەرگێرانی
وەرگێڕ
وەرگێڕا
وەرگێڕان
وەرگێڕانی
وەرگێڕانە
وەرگێڕانەکان
وەرگێڕانەکانی
وەرگێڕاوە
وەرگێڕاوەتە
وەرگێڕدرا
وەرگێڕدراون
وەرگێڕدراوی
وەرگێڕدراوە
وەرگێڕدراوەتە
وەرگێڕی
وەرگێڕێکی
وەرگێڕە
وەرگێڕەکان
وەرگێڕەکانی
وەری
وەریگێڕاوەتە
وەرە
وەرەقە
وەرەمی
وەزارەت
وەزارەتی
وەزارەتە
وەزارەتەکانی
وەزنێ
وەزنێی
وەزیر
وەزیران
وەزیرانی
وەزیری
وەزیرەکانی
وەزیرەکەی
وەستا
وەستان
وەستاندنی
وەستانی
وەستانەوە
وەستاو
وەستاون
وەستاوە
وەستێنرا
وەسف
وەسفکراوی
وەسفکرد
وەسفکردنی
وەسفی
وەسیەتی
وەشان
وەشانخانەی
وەشانی
وەشانێکی
وەشانە
وەشانەکانی
وەفا
وەفات
وەفاتی
وەفایی
وەك
وەكو
وەلی
وەلید
وەلیدی
وەلێندەری
وەلە
وەن
وەنەوشەیی
وەها
وەهەروەها
وەوە
وەي
وەچە
وەچەی
وەک
وەکالەت
وەکو
وەکوو
وەکی
وەڵام
وەڵامدا
وەڵامدانەوە
وەڵامدانەوەی
وەڵامی
وەڵامیان
وەڵامێک
وەڵامێکی
وەھا
وەھاب
وەھای
وەھبی
وەھەروەھا
وەی
وەیس
وەیسی
وەیسە
وەین
وەیڵز
ى
ي
يان
يب
ية
يت
يث
يح
يد
ير
يز
يس
يع
يف
يق
يك
يل
يلا
يم
ين
يه
يوسف
يەك
ً
ٌ
ٍ
َ
ُ
ِ
ّ
ْ
ٓ
ٔ
ٕ
٘
ٚ
ٛ
٠
٠٠
٠٠٠
٠١
٠٢
٠٣
٠٤
٠٥
٠٦
٠٧
٠٨
٠٩
١
١٠
١٠٠
١٠٠٠
١٠٠٠٠
١٠٠٩
١٠١
١٠١٠
١٠١٥
١٠٢
١٠٢٠
١٠٣
١٠٣٠
١٠٣١
١٠٤
١٠٤٠
١٠٤٦
١٠٥
١٠٥٠
١٠٥٤
١٠٥٥
١٠٦
١٠٦٠
١٠٦٣
١٠٦٦
١٠٧
١٠٧٠
١٠٧١
١٠٨
١٠٨٠
١٠٩
١٠٩٠
١٠٩٤
١٠٩٦
١٠٩٩
١١
١١٠
١١٠٠
١١١
١١١٠
١١٢
١١٢٠
١١٢٧
١١٣
١١٣٠
١١٤
١١٤٠
١١٤٧
١١٥
١١٥٠
١١٦
١١٦٠
١١٦٥
١١٦٩
١١٧
١١٧٠
١١٧١
١١٧٤
١١٧٥
١١٧٩
١١٨
١١٨٠
١١٨٢
١١٨٣
١١٨٥
١١٨٦
١١٨٧
١١٩
١١٩٠
١١٩١
١١٩٢
١١٩٣
١١٩٤
١١٩٧
١١٩٨
١١٩٩
١٢
١٢٠
١٢٠٠
١٢٠٠٠
١٢٠٢
١٢٠٦
١٢١
١٢١٠
١٢١٢
١٢١٣
١٢٢
١٢٢٠
١٢٢١
١٢٢٤
١٢٢٥
١٢٢٦
١٢٢٧
١٢٢٨
١٢٢٩
١٢٣
١٢٣٠
١٢٣١
١٢٣٢
١٢٣٣
١٢٣٤
١٢٣٦
١٢٤
١٢٤٠
١٢٤٢
١٢٤٤
١٢٤٦
١٢٥
١٢٥٠
١٢٥٤
١٢٥٨
١٢٦
١٢٦٠
١٢٦١
١٢٦٢
١٢٦٥
١٢٦٦
١٢٦٩
١٢٧
١٢٧٠
١٢٧٤
١٢٧٧
١٢٨
١٢٨٠
١٢٨٧
١٢٩
١٢٩٠
١٢٩١
١٢٩٦
١٢٩٧
١٢٩٩
١٣
١٣٠
١٣٠٠
١٣٠٣
١٣٠٤
١٣٠٥
١٣٠٦
١٣٠٧
١٣٠٨
١٣١
١٣١٠
١٣١١
١٣١٣
١٣١٥
١٣١٦
١٣١٧
١٣٢
١٣٢٠
١٣٢١
١٣٢٤
١٣٢٥
١٣٢٦
١٣٢٧
١٣٣
١٣٣٠
١٣٣٢
١٣٣٣
١٣٣٤
١٣٣٥
١٣٣٦
١٣٣٧
١٣٤
١٣٤٠
١٣٤١
١٣٤٢
١٣٤٣
١٣٤٥
١٣٤٧
١٣٤٨
١٣٤٩
١٣٥
١٣٥٠
١٣٥١
١٣٥٢
١٣٥٣
١٣٥٤
١٣٥٥
١٣٥٦
١٣٥٧
١٣٥٨
١٣٥٩
١٣٦
١٣٦٠
١٣٦١
١٣٦٢
١٣٦٣
١٣٦٤
١٣٦٥
١٣٦٦
١٣٦٧
١٣٦٨
١٣٦٩
١٣٧
١٣٧٠
١٣٧١
١٣٧٢
١٣٧٣
١٣٧٤
١٣٧٥
١٣٧٦
١٣٧٧
١٣٧٨
١٣٧٩
١٣٨
١٣٨٠
١٣٨١
١٣٨٢
١٣٨٣
١٣٨٤
١٣٨٥
١٣٨٦
١٣٨٧
١٣٨٨
١٣٨٩
١٣٩
١٣٩٠
١٣٩١
١٣٩٢
١٣٩٣
١٣٩٤
١٣٩٥
١٣٩٦
١٣٩٧
١٣٩٨
١٣٩٩
١٤
١٤٠
١٤٠٠
١٤٠١
١٤٠٣
١٤٠٥
١٤١
١٤١٠
١٤١٢
١٤١٤
١٤٢
١٤٢٠
١٤٢١
١٤٣
١٤٣٠
١٤٣١
١٤٣٥
١٤٤
١٤٤٠
١٤٥
١٤٥٠
١٤٥١
١٤٥٢
١٤٥٣
١٤٥٧
١٤٦
١٤٦٠
١٤٦٦
١٤٦٨
١٤٧
١٤٧٠
١٤٧٦
١٤٨
١٤٨٠
١٤٨١
١٤٨٣
١٤٩
١٤٩٠
١٤٩٢
١٤٩٤
١٤٩٥
١٤٩٩
١٥
١٥٠
١٥٠٠
١٥٠١
١٥٠٢
١٥٠٣
١٥٠٥
١٥٠٦
١٥٠٧
١٥٠٨
١٥٠٩
١٥١
١٥١٠
١٥١٢
١٥١٣
١٥١٤
١٥١٥
١٥١٦
١٥١٧
١٥١٩
١٥٢
١٥٢٠
١٥٢١
١٥٢٤
١٥٢٥
١٥٢٦
١٥٣
١٥٣٠
١٥٣١
١٥٣٢
١٥٣٣
١٥٣٤
١٥٣٥
١٥٣٦
١٥٣٧
١٥٣٨
١٥٣٩
١٥٤
١٥٤٠
١٥٤٢
١٥٤٣
١٥٤٤
١٥٤٥
١٥٤٦
١٥٤٨
١٥٤٩
١٥٥
١٥٥٠
١٥٥٢
١٥٥٣
١٥٥٤
١٥٥٥
١٥٥٦
١٥٥٨
١٥٦
١٥٦٠
١٥٦٤
١٥٦٥
١٥٦٦
١٥٦٧
١٥٦٩
١٥٧
١٥٧٠
١٥٧١
١٥٧٢
١٥٧٣
١٥٧٤
١٥٧٥
١٥٧٦
١٥٧٧
١٥٧٨
١٥٧٩
١٥٨
١٥٨٠
١٥٨١
١٥٨٢
١٥٨٣
١٥٨٥
١٥٨٧
١٥٨٨
١٥٨٩
١٥٩
١٥٩٠
١٥٩١
١٥٩٢
١٥٩٣
١٥٩٥
١٥٩٦
١٥٩٧
١٥٩٨
١٥٩٩
١٦
١٦٠
١٦٠٠
١٦٠١
١٦٠٢
١٦٠٣
١٦٠٤
١٦٠٥
١٦٠٦
١٦٠٧
١٦٠٨
١٦٠٩
١٦١
١٦١٠
١٦١١
١٦١٢
١٦١٣
١٦١٤
١٦١٥
١٦١٦
١٦١٧
١٦١٨
١٦١٩
١٦٢
١٦٢٠
١٦٢١
١٦٢٢
١٦٢٣
١٦٢٤
١٦٢٥
١٦٢٦
١٦٢٧
١٦٢٨
١٦٢٩
١٦٣
١٦٣٠
١٦٣١
١٦٣٢
١٦٣٥
١٦٣٦
١٦٣٨
١٦٣٩
١٦٤
١٦٤٠
١٦٤١
١٦٤٢
١٦٤٣
١٦٤٤
١٦٤٥
١٦٤٦
١٦٤٧
١٦٤٨
١٦٥
١٦٥٠
١٦٥١
١٦٥٤
١٦٥٥
١٦٥٨
١٦٥٩
١٦٦
١٦٦٠
١٦٦١
١٦٦٢
١٦٦٣
١٦٦٥
١٦٦٦
١٦٦٨
١٦٦٩
١٦٧
١٦٧٠
١٦٧٢
١٦٧٣
١٦٧٤
١٦٧٥
١٦٧٧
١٦٨
١٦٨٠
١٦٨١
١٦٨٣
١٦٨٤
١٦٨٥
١٦٨٧
١٦٨٨
١٦٨٩
١٦٩
١٦٩٠
١٦٩١
١٦٩٤
١٦٩٦
١٦٩٧
١٦٩٩
١٧
١٧٠
١٧٠٠
١٧٠١
١٧٠٢
١٧٠٣
١٧٠٤
١٧٠٧
١٧٠٩
١٧١
١٧١٠
١٧١١
١٧١٢
١٧١٣
١٧١٤
١٧١٥
١٧١٦
١٧١٧
١٧١٨
١٧١٩
١٧٢
١٧٢٠
١٧٢١
١٧٢٢
١٧٢٣
١٧٢٤
١٧٢٥
١٧٢٦
١٧٢٧
١٧٢٨
١٧٣
١٧٣٠
١٧٣١
١٧٣٢
١٧٣٤
١٧٣٥
١٧٣٦
١٧٣٧
١٧٤
١٧٤٠
١٧٤١
١٧٤٢
١٧٤٣
١٧٤٦
١٧٤٧
١٧٤٨
١٧٤٩
١٧٥
١٧٥٠
١٧٥١
١٧٥٢
١٧٥٣
١٧٥٤
١٧٥٥
١٧٥٦
١٧٥٧
١٧٥٨
١٧٥٩
١٧٦
١٧٦٠
١٧٦١
١٧٦٢
١٧٦٣
١٧٦٤
١٧٦٥
١٧٦٦
١٧٦٧
١٧٦٨
١٧٦٩
١٧٧
١٧٧٠
١٧٧١
١٧٧٢
١٧٧٣
١٧٧٤
١٧٧٥
١٧٧٦
١٧٧٧
١٧٧٨
١٧٧٩
١٧٨
١٧٨٠
١٧٨١
١٧٨٢
١٧٨٣
١٧٨٤
١٧٨٥
١٧٨٦
١٧٨٧
١٧٨٨
١٧٨٩
١٧٩
١٧٩٠
١٧٩١
١٧٩٢
١٧٩٣
١٧٩٤
١٧٩٥
١٧٩٦
١٧٩٧
١٧٩٨
١٧٩٩
١٨
١٨٠
١٨٠٠
١٨٠١
١٨٠٢
١٨٠٣
١٨٠٤
١٨٠٥
١٨٠٦
١٨٠٧
١٨٠٨
١٨٠٩
١٨١
١٨١٠
١٨١١
١٨١٢
١٨١٣
١٨١٤
١٨١٥
١٨١٦
١٨١٧
١٨١٨
١٨١٩
١٨٢
١٨٢٠
١٨٢١
١٨٢٢
١٨٢٣
١٨٢٤
١٨٢٥
١٨٢٦
١٨٢٧
١٨٢٨
١٨٢٩
١٨٣
١٨٣٠
١٨٣١
١٨٣٢
١٨٣٣
١٨٣٤
١٨٣٥
١٨٣٦
١٨٣٧
١٨٣٨
١٨٣٩
١٨٤
١٨٤٠
١٨٤١
١٨٤٢
١٨٤٣
١٨٤٤
١٨٤٥
١٨٤٦
١٨٤٧
١٨٤٨
١٨٤٩
١٨٥
١٨٥٠
١٨٥١
١٨٥٢
١٨٥٣
١٨٥٤
١٨٥٥
١٨٥٦
١٨٥٧
١٨٥٨
١٨٥٩
١٨٦
١٨٦٠
١٨٦١
١٨٦٢
١٨٦٣
١٨٦٤
١٨٦٥
١٨٦٦
١٨٦٧
١٨٦٨
١٨٦٩
١٨٧
١٨٧٠
١٨٧١
١٨٧٢
١٨٧٣
١٨٧٤
١٨٧٥
١٨٧٦
١٨٧٧
١٨٧٨
١٨٧٩
١٨٨
١٨٨٠
١٨٨١
١٨٨٢
١٨٨٣
١٨٨٤
١٨٨٥
١٨٨٦
١٨٨٧
١٨٨٨
١٨٨٩
١٨٩
١٨٩٠
١٨٩١
١٨٩٢
١٨٩٣
١٨٩٤
١٨٩٥
١٨٩٦
١٨٩٧
١٨٩٨
١٨٩٩
١٩
١٩٠
١٩٠٠
١٩٠١
١٩٠٢
١٩٠٣
١٩٠٤
١٩٠٥
١٩٠٦
١٩٠٧
١٩٠٨
١٩٠٩
١٩١
١٩١٠
١٩١١
١٩١٢
١٩١٣
١٩١٤
١٩١٥
١٩١٦
١٩١٧
١٩١٨
١٩١٩
١٩٢
١٩٢٠
١٩٢١
١٩٢٢
١٩٢٣
١٩٢٤
١٩٢٥
١٩٢٦
١٩٢٧
١٩٢٨
١٩٢٩
١٩٣
١٩٣٠
١٩٣١
١٩٣٢
١٩٣٣
١٩٣٤
١٩٣٥
١٩٣٦
١٩٣٧
١٩٣٨
١٩٣٩
١٩٤
١٩٤٠
١٩٤١
١٩٤٢
١٩٤٣
١٩٤٤
١٩٤٥
١٩٤٦
١٩٤٧
١٩٤٨
١٩٤٩
١٩٥
١٩٥٠
١٩٥١
١٩٥٢
١٩٥٣
١٩٥٤
١٩٥٥
١٩٥٦
١٩٥٧
١٩٥٨
١٩٥٩
١٩٦
١٩٦٠
١٩٦١
١٩٦٢
١٩٦٣
١٩٦٤
١٩٦٥
١٩٦٦
١٩٦٧
١٩٦٨
١٩٦٩
١٩٧
١٩٧٠
١٩٧١
١٩٧٢
١٩٧٣
١٩٧٤
١٩٧٥
١٩٧٦
١٩٧٧
١٩٧٨
١٩٧٩
١٩٨
١٩٨٠
١٩٨١
١٩٨٢
١٩٨٣
١٩٨٤
١٩٨٥
١٩٨٦
١٩٨٧
١٩٨٨
١٩٨٩
١٩٩
١٩٩٠
١٩٩١
١٩٩٢
١٩٩٣
١٩٩٤
١٩٩٥
١٩٩٦
١٩٩٧
١٩٩٨
١٩٩٩
٢
٢٠
٢٠٠
٢٠٠٠
٢٠٠١
٢٠٠٢
٢٠٠٣
٢٠٠٤
٢٠٠٥
٢٠٠٦
٢٠٠٧
٢٠٠٨
٢٠٠٩
٢٠١
٢٠١٠
٢٠١١
٢٠١٢
٢٠١٣
٢٠١٤
٢٠١٥
٢٠١٦
٢٠١٧
٢٠١٨
٢٠١٩
٢٠٢
٢٠٢٠
٢٠٢١
٢٠٢٢
٢٠٢٣
٢٠٢٤
٢٠٢٦
٢٠٢٧
٢٠٢٨
٢٠٣
٢٠٣٠
٢٠٤
٢٠٥
٢٠٥٠
٢٠٦
٢٠٧
٢٠٨
٢٠٩
٢١
٢١٠
٢١١
٢١٢
٢١٣
٢١٤
٢١٥
٢١٦
٢١٧
٢١٨
٢١٩
٢٢
٢٢٠
٢٢١
٢٢٢
٢٢٣
٢٢٤
٢٢٥
٢٢٦
٢٢٧
٢٢٨
٢٢٩
٢٣
٢٣٠
٢٣١
٢٣٢
٢٣٣
٢٣٤
٢٣٥
٢٣٦
٢٣٧
٢٣٨
٢٣٩
٢٤
٢٤٠
٢٤١
٢٤٢
٢٤٣
٢٤٤
٢٤٥
٢٤٦
٢٤٧
٢٤٨
٢٤٩
٢٥
٢٥٠
٢٥٠٠
٢٥١
٢٥٢
٢٥٣
٢٥٤
٢٥٥
٢٥٦
٢٥٧
٢٥٨
٢٥٩
٢٦
٢٦٠
٢٦١
٢٦٢
٢٦٣
٢٦٤
٢٦٥
٢٦٦
٢٦٧
٢٦٨
٢٦٩
٢٧
٢٧٠
٢٧١
٢٧١٢
٢٧١٣
٢٧١٤
٢٧٢
٢٧٣
٢٧٤
٢٧٥
٢٧٦
٢٧٧
٢٧٨
٢٧٩
٢٨
٢٨٠
٢٨١
٢٨٢
٢٨٣
٢٨٤
٢٨٥
٢٨٦
٢٨٧
٢٨٨
٢٨٩
٢٩
٢٩٠
٢٩١
٢٩٢
٢٩٣
٢٩٤
٢٩٥
٢٩٦
٢٩٨
٢٩٩
٣
٣٠
٣٠٠
٣٠٠٠
٣٠٠٠٠
٣٠١
٣٠٢
٣٠٣
٣٠٤
٣٠٥
٣٠٦
٣٠٧
٣٠٨
٣٠٩
٣١
٣١٠
٣١١
٣١٢
٣١٣
٣١٤
٣١٥
٣١٦
٣١٧
٣١٨
٣١٩
٣٢
٣٢٠
٣٢١
٣٢٢
٣٢٣
٣٢٤
٣٢٥
٣٢٦
٣٢٧
٣٢٨
٣٢٩
٣٣
٣٣٠
٣٣١
٣٣٢
٣٣٣
٣٣٤
٣٣٥
٣٣٦
٣٣٧
٣٣٨
٣٣٩
٣٤
٣٤٠
٣٤١
٣٤٢
٣٤٣
٣٤٤
٣٤٥
٣٤٦
٣٤٧
٣٤٨
٣٤٩
٣٥
٣٥٠
٣٥٠٠
٣٥١
٣٥٢
٣٥٣
٣٥٤
٣٥٥
٣٥٦
٣٥٧
٣٥٨
٣٦
٣٦٠
٣٦١
٣٦٢
٣٦٣
٣٦٤
٣٦٥
٣٦٦
٣٦٧
٣٦٨
٣٦٩
٣٧
٣٧٠
٣٧١
٣٧٢
٣٧٣
٣٧٤
٣٧٥
٣٧٦
٣٧٧
٣٧٨
٣٧٩
٣٨
٣٨٠
٣٨١
٣٨٢
٣٨٣
٣٨٤
٣٨٥
٣٨٦
٣٨٧
٣٨٨
٣٨٩
٣٩
٣٩٠
٣٩١
٣٩٢
٣٩٣
٣٩٤
٣٩٥
٣٩٧
٣٩٨
٣٩٩
٤
٤٠
٤٠٠
٤٠٠٠
٤٠١
٤٠٢
٤٠٣
٤٠٤
٤٠٥
٤٠٦
٤٠٧
٤٠٨
٤٠٩
٤١
٤١٠
٤١١
٤١٢
٤١٣
٤١٤
٤١٥
٤١٦
٤١٧
٤١٨
٤١٩
٤٢
٤٢٠
٤٢١
٤٢٢
٤٢٣
٤٢٤
٤٢٥
٤٢٦
٤٢٧
٤٢٨
٤٢٩
٤٣
٤٣٠
٤٣١
٤٣٢
٤٣٣
٤٣٤
٤٣٥
٤٣٧
٤٣٨
٤٣٩
٤٤
٤٤٠
٤٤١
٤٤٢
٤٤٣
٤٤٤
٤٤٥
٤٤٦
٤٤٧
٤٤٨
٤٤٩
٤٥
٤٥٠
٤٥١
٤٥٣
٤٥٤
٤٥٥
٤٥٦
٤٥٨
٤٦
٤٦٠
٤٦١
٤٦٢
٤٦٣
٤٦٤
٤٦٥
٤٦٦
٤٦٧
٤٦٩
٤٧
٤٧٠
٤٧٢
٤٧٣
٤٧٤
٤٧٥
٤٧٦
٤٧٧
٤٧٨
٤٧٩
٤٨
٤٨٠
٤٨٢
٤٨٣
٤٨٤
٤٨٥
٤٨٦
٤٨٧
٤٨٨
٤٩
٤٩٠
٤٩١
٤٩٢
٤٩٣
٤٩٤
٤٩٥
٤٩٦
٤٩٧
٤٩٨
٤٩٩
٥
٥٠
٥٠٠
٥٠٠٠
٥٠١
٥٠٣
٥٠٤
٥٠٥
٥٠٨
٥٠٩
٥١
٥١٠
٥١١
٥١٢
٥١٣
٥١٤
٥١٦
٥١٧
٥١٨
٥١٩
٥٢
٥٢٠
٥٢١
٥٢٢
٥٢٣
٥٢٤
٥٢٥
٥٢٦
٥٢٧
٥٢٨
٥٢٩
٥٣
٥٣٠
٥٣١
٥٣٢
٥٣٣
٥٣٤
٥٣٥
٥٣٦
٥٣٧
٥٣٨
٥٣٩
٥٤
٥٤٠
٥٤١
٥٤٢
٥٤٣
٥٤٤
٥٤٥
٥٤٦
٥٤٧
٥٤٨
٥٤٩
٥٥
٥٥٠
٥٥١
٥٥٢
٥٥٣
٥٥٤
٥٥٥
٥٥٧
٥٥٨
٥٥٩
٥٦
٥٦٠
٥٦١
٥٦٢
٥٦٣
٥٦٤
٥٦٥
٥٦٦
٥٦٧
٥٦٨
٥٧
٥٧٠
٥٧١
٥٧٢
٥٧٣
٥٧٤
٥٧٥
٥٧٦
٥٧٧
٥٧٨
٥٧٩
٥٨
٥٨٠
٥٨١
٥٨٢
٥٨٤
٥٨٥
٥٨٧
٥٨٨
٥٨٩
٥٩
٥٩٠
٥٩١
٥٩٢
٥٩٣
٥٩٤
٥٩٥
٥٩٦
٥٩٧
٥٩٨
٥٩٩
٦
٦٠
٦٠٠
٦٠٠٠
٦٠١
٦٠٢
٦٠٣
٦٠٤
٦٠٥
٦٠٦
٦٠٧
٦٠٨
٦٠٩
٦١
٦١٠
٦١١
٦١٢
٦١٣
٦١٤
٦١٥
٦١٦
٦١٧
٦١٨
٦١٩
٦٢
٦٢٠
٦٢١
٦٢٢
٦٢٣
٦٢٤
٦٢٥
٦٢٦
٦٢٧
٦٢٨
٦٢٩
٦٣
٦٣٠
٦٣١
٦٣٢
٦٣٣
٦٣٤
٦٣٥
٦٣٦
٦٣٧
٦٣٨
٦٣٩
٦٤
٦٤٠
٦٤١
٦٤٢
٦٤٣
٦٤٤
٦٤٥
٦٤٦
٦٤٧
٦٤٨
٦٤٩
٦٥
٦٥٠
٦٥١
٦٥٢
٦٥٣
٦٥٤
٦٥٥
٦٥٦
٦٥٧
٦٥٨
٦٥٩
٦٦
٦٦٠
٦٦١
٦٦٢
٦٦٣
٦٦٤
٦٦٥
٦٦٦
٦٦٧
٦٦٨
٦٧
٦٧٠
٦٧٢
٦٧٣
٦٧٤
٦٧٥
٦٧٦
٦٧٨
٦٧٩
٦٨
٦٨٠
٦٨١
٦٨٢
٦٨٣
٦٨٤
٦٨٥
٦٨٦
٦٨٧
٦٨٨
٦٩
٦٩٠
٦٩١
٦٩٢
٦٩٣
٦٩٤
٦٩٥
٦٩٦
٦٩٧
٦٩٩
٧
٧٠
٧٠٠
٧٠٠٠
٧٠١
٧٠٢
٧٠٣
٧٠٤
٧٠٥
٧٠٦
٧٠٧
٧٠٨
٧٠٩
٧١
٧١٠
٧١١
٧١٢
٧١٣
٧١٤
٧١٥
٧١٦
٧١٧
٧١٨
٧١٩
٧٢
٧٢٠
٧٢١
٧٢٢
٧٢٣
٧٢٤
٧٢٥
٧٢٦
٧٢٧
٧٢٨
٧٢٩
٧٣
٧٣٠
٧٣١
٧٣٢
٧٣٥
٧٣٧
٧٣٩
٧٤
٧٤٠
٧٤١
٧٤٢
٧٤٣
٧٤٤
٧٤٥
٧٤٧
٧٤٨
٧٤٩
٧٥
٧٥٠
٧٥١
٧٥٢
٧٥٤
٧٥٥
٧٥٦
٧٥٧
٧٥٨
٧٥٩
٧٦
٧٦٠
٧٦٢
٧٦٣
٧٦٥
٧٦٧
٧٦٨
٧٧
٧٧٠
٧٧١
٧٧٢
٧٧٤
٧٧٥
٧٧٦
٧٧٧
٧٧٩
٧٨
٧٨٠
٧٨١
٧٨٢
٧٨٤
٧٨٥
٧٨٦
٧٨٧
٧٨٨
٧٨٩
٧٩
٧٩٠
٧٩٢
٧٩٣
٧٩٤
٧٩٥
٧٩٦
٧٩٧
٧٩٩
٨
٨٠
٨٠٠
٨٠٠٠
٨٠٢
٨٠٣
٨٠٤
٨٠٥
٨٠٦
٨٠٩
٨١
٨١٠
٨١٢
٨١٣
٨١٤
٨١٧
٨١٩
٨٢
٨٢٠
٨٢١
٨٢٢
٨٢٣
٨٢٤
٨٢٥
٨٢٦
٨٢٨
٨٢٩
٨٣
٨٣٠
٨٣٢
٨٣٣
٨٣٤
٨٣٥
٨٣٧
٨٣٨
٨٣٩
٨٤
٨٤٠
٨٤٢
٨٤٤
٨٤٥
٨٤٧
٨٤٨
٨٥
٨٥٠
٨٥٢
٨٥٥
٨٥٧
٨٥٨
٨٦
٨٦٠
٨٦٢
٨٦٥
٨٦٦
٨٦٨
٨٦٩
٨٧
٨٧٠
٨٧١
٨٧٢
٨٧٣
٨٧٥
٨٧٨
٨٨
٨٨٠
٨٨٤
٨٨٥
٨٨٦
٨٨٧
٨٨٨
٨٩
٨٩٠
٨٩١
٨٩٢
٨٩٣
٨٩٤
٨٩٧
٩
٩٠
٩٠٠
٩٠٢
٩٠٣
٩٠٧
٩٠٨
٩٠٩
٩١
٩١٠
٩١١
٩١٣
٩١٤
٩١٥
٩١٦
٩١٨
٩٢
٩٢٠
٩٢١
٩٢٣
٩٢٥
٩٢٦
٩٢٧
٩٢٨
٩٢٩
٩٣
٩٣٠
٩٣١
٩٣٤
٩٣٥
٩٣٦
٩٣٧
٩٤
٩٤٠
٩٤٢
٩٤٣
٩٤٤
٩٤٥
٩٤٦
٩٤٨
٩٥
٩٥٠
٩٥١
٩٥٢
٩٥٣
٩٥٥
٩٥٦
٩٥٧
٩٥٩
٩٦
٩٦٠
٩٦١
٩٦٢
٩٦٣
٩٦٤
٩٦٥
٩٦٦
٩٦٧
٩٦٨
٩٦٩
٩٧
٩٧٠
٩٧٢
٩٧٣
٩٧٤
٩٧٥
٩٧٦
٩٧٨
٩٧٩
٩٨
٩٨٠
٩٨٢
٩٨٤
٩٨٥
٩٨٦
٩٨٧
٩٨٨
٩٨٩
٩٩
٩٩٠
٩٩١
٩٩٤
٩٩٩
٪
٫
٬
٭
ٰ
ٱل
پ
پابلۆ
پابەند
پابەندبوون
پابەندبوونی
پابەندی
پات
پاتری
پاتریک
پاتریۆت
پاداشت
پاداشتی
پادشا
پادشای
پادشایی
پادشایەتی
پار
پارا
پاراست
پاراستن
پاراستنی
پاراستنیان
پاراستووە
پارالمپیکی
پاراماونت
پارامەتر
پارامەتری
پارامەترەکان
پاراو
پاراگوای
پارت
پارتی
پارتێکی
پارتە
پارتەکە
پارتەکەی
پارس
پارسی
پارما
پارچە
پارچەکان
پارچەکانی
پارچەی
پارچەیەک
پارچەیەکی
پارک
پارکس
پارکی
پارکینسۆن
پارکێکی
پارکە
پارکەر
پارکەکە
پاریس
پاریسی
پارێز
پارێزراو
پارێزراون
پارێزراوی
پارێزراوە
پارێزراوەکان
پارێزگا
پارێزگار
پارێزگاران
پارێزگاری
پارێزگاریکردن
پارێزگارەکانی
پارێزگاى
پارێزگاکان
پارێزگاکانی
پارێزگاکە
پارێزگاکەدا
پارێزگاکەی
پارێزگای
پارێزگاییەکە
پارێزگایە
پارێزگایەک
پارێزگایەکی
پارێزگایەکە
پارێزگەی
پارێزی
پارێزەر
پارێزەرانی
پارێزەری
پارێزەرێکی
پارێزەرە
پارێزەرەکانی
پارە
پارەدان
پارەکە
پارەکەی
پارەی
پارەیان
پارەیە
پارەیەکی
پارەیەی
پازدە
پازدەھەم
پاس
پاسادان
پاسادانی
پاساو
پاساوی
پاسداران
پاسدارانی
پاسدانی
پاسدەر
پاسدەری
پاسپۆرتی
پاسکال
پاسکاڵ
پاسکیل
پاسی
پاسێکی
پاسەوان
پاسەوانانی
پاسەوانی
پاسەوانەکانی
پاسەکان
پاسەکانی
پاسەکە
پاش
پاشا
پاشان
پاشاندا
پاشانیش
پاشاوە
پاشاکان
پاشاکانی
پاشاکە
پاشای
پاشایی
پاشایە
پاشایەتی
پاشایەتیدا
پاشایەتیی
پاشایەتییە
پاشایەکی
پاشتر
پاشماوە
پاشماوەکانی
پاشماوەی
پاشکۆ
پاشکۆکانی
پاشکۆی
پاشگری
پاشگەز
پاشی
پاشیەکی
پاشیەکیی
پاشەڕۆی
پاشەکشێ
پاشەکشە
پاشەکشەی
پاشەکشەیان
پاشەکەوت
پاشەکەوتکردنی
پاشەکەوتی
پالاوانێتی
پاموک
پان
پانایی
پانتایی
پانتاییە
پانزە
پانسەد
پانکە
پانکەی
پانی
پانیی
پانییەکەی
پانە
پاوان
پاوانی
پاوانە
پاول
پاولۆ
پاوڵ
پاوڵی
پاوە
پاوەر
پاوەند
پاوەندی
پاپ
پاپا
پاپای
پاپوا
پاچینۆ
پاڕک
پاک
پاکتاوکردنی
پاکسازی
پاکستان
پاکستانی
پاککردنەوە
پاککردنەوەی
پاکی
پاکیزە
پاگەنینی
پاڵ
پاڵاوانێتی
پاڵاوت
پاڵاوتن
پاڵاوتنی
پاڵاوتنەکان
پاڵاوتنەکانی
پاڵمەر
پاڵنان
پاڵنانی
پاڵنەر
پاڵنەری
پاڵهێز
پاڵپشت
پاڵپشتی
پاڵپشتیکردنی
پاڵپشتیی
پاڵھێز
پاڵھێزی
پاڵی
پاڵیان
پاڵێورا
پاڵێوراو
پاڵێوراوانی
پاڵێوراوکرا
پاڵێوراوی
پاڵێوراوە
پاڵێوراوەکان
پاڵەوان
پاڵەوانانی
پاڵەوانی
پاڵەوانیتییەکە
پاڵەوانییەتی
پاڵەوانییەتییە
پاڵەوانییەتییەکە
پاڵەوانیەتی
پاڵەوانیەتییەکانی
پاڵەوانیەتییەکە
پاڵەوانیەتیەکە
پاڵەوانێتی
پاڵەوانێتییە
پاڵەوانێتییەکانی
پاڵەوانێتییەکی
پاڵەوانێتییەکە
پاڵەوانێتییەکەدا
پاڵەوانێتییەکەی
پاڵەوانێتیەکە
پاڵەوانێکی
پاڵەوانە
پاڵەوانەکان
پاڵەوانەکانی
پاڵەوی
پاڵەپەستۆی
پای
پایتەخت
پایتەختی
پایتەختە
پایتەختەکانی
پایتەختەکەی
پایز
پایزی
پایکسانگ
پاییز
پاییزی
پایە
پایەبەرز
پایەکانی
پایەی
پتر
پتەو
پتەوی
پر
پرادێش
پراکتیکی
پراگ
پرایم
پرتووگالی
پرتوگال
پرتەقاڵ
پرتەقاڵی
پرد
پردی
پردێک
پردێکی
پردە
پردەکە
پرس
پرسگا
پرسی
پرسیار
پرسیارکردن
پرسیاری
پرسیاریان
پرسیارێک
پرسیارێکت
پرسیارێکی
پرسیارە
پرسیارەکان
پرسیارەکانی
پرسیارەکەت
پرسە
پرسەکانی
پرسەی
پروسیا
پرۆ
پرۆتۆن
پرۆتۆکۆلی
پرۆتین
پرۆتینی
پرۆتینەکان
پرۆستات
پرۆسێسەر
پرۆسە
پرۆسەکە
پرۆسەی
پرۆسەیە
پرۆسەیەکی
پرۆفیسۆر
پرۆفیسۆری
پرۆفیشناڵ
پرۆپاگەندە
پرۆژە
پرۆژەکانی
پرۆژەکە
پرۆژەی
پرۆژەیە
پرۆژەیەک
پرۆژەیەکی
پرۆگرام
پرۆگرامی
پرۆگرامێکی
پرۆگرامەکانی
پریانکا
پریانکای
پریتزکێر
پریتزکەر
پریتی
پریمەرلیگ
پرینستۆن
پرینسیپی
پرێس
پرێمیەرلیگ
پرێمەر
پرەنسیپی
پزیشک
پزیشکان
پزیشکانی
پزیشکی
پزیشکیدا
پزیشکیی
پزیشکییە
پزیشکییەکان
پزیشکییەکانی
پزیشکێک
پزیشکێکی
پزیشکە
پزیشکەکان
پزیشکەکانی
پس
پستن
پستنی
پستنەکان
پستنەکە
پستۆن
پستۆنی
پستۆنەکە
پسپۆر
پسپۆری
پسپۆڕ
پسپۆڕانی
پسپۆڕى
پسپۆڕی
پشان
پشت
پشتبەستن
پشتي
پشتڕاست
پشتڕاستکرایەوە
پشتڕاستکردنەوەی
پشتڕاستکردەوە
پشتگریکەر
پشتگوێ
پشتگوێخستنی
پشتگیری
پشتگیریان
پشتگیریکردن
پشتگیریکردنی
پشتگیریی
پشتی
پشتیان
پشتیوان
پشتیوانی
پشتیوانیی
پشتێنی
پشتێنە
پشتێنەی
پشتە
پشتەوە
پشتەوەی
پشدەر
پشوو
پشوودان
پشووی
پشک
پشکنین
پشکنینی
پشکنینیان
پشکنینێکی
پشکنینە
پشکنینەکان
پشکنینەکانی
پشکنەر
پشکنەری
پشکی
پشکەکان
پشکەکانی
پشیلە
پشیلەکان
پشیلەی
پشێوی
پل
پلاتفۆرمی
پلاتۆ
پلاتینی
پلازما
پلازمای
پلاستیک
پلاستیکی
پلان
پلاندانان
پلاندانانی
پلانک
پلانی
پلانیان
پلانێک
پلانێکی
پلانە
پلانەکانی
پلانەکە
پلانەکەی
پلاک
پلاکی
پلاکەکە
پله
پلۆتۆ
پلۆڤدیڤ
پلێتی
پلێڤێن
پلە
پلەبەندی
پلەى
پلەکانی
پلەکەی
پلەی
پلەیستەیشن
پلەیە
پلەیەک
پلەیەکی
په
پوتین
پوخت
پوختی
پوختە
پوختەی
پورتوگال
پورتوگالی
پوری
پول
پوور
پووشپەڕ
پووشپەڕی
پووچەڵ
پووک
پى
پچڕ
پچڕان
پچڕانی
پڕ
پڕایم
پڕبینەرترین
پڕدا
پڕداھاتترین
پڕفرۆشترین
پڕي
پڕکردنەوەی
پڕۆتین
پڕۆتینی
پڕۆجێستۆجینەکان
پڕۆسە
پڕۆسەکە
پڕۆسەی
پڕۆسەیە
پڕۆسەیەکی
پڕۆفایلی
پڕۆفیسۆر
پڕۆفیسۆری
پڕۆژە
پڕۆژەکان
پڕۆژەکانی
پڕۆژەکە
پڕۆژەکەی
پڕۆژەی
پڕۆژەیە
پڕۆژەیەک
پڕۆژەیەکی
پڕۆگرام
پڕۆگرامی
پڕۆگرامێکی
پڕی
پڕێگنانێکان
پڕە
پژاک
پڵنگ
پڵنگی
پڵەس
پۆ
پۆتاسیۆم
پۆتانانەی
پۆتانی
پۆتانەکان
پۆتەر
پۆرت
پۆرترەیتی
پۆرتوگال
پۆرتوگالی
پۆرتۆ
پۆرناک
پۆرنۆگرافی
پۆزەتیڤ
پۆست
پۆستی
پۆستێکی
پۆستە
پۆستەر
پۆستەری
پۆستەکەی
پۆستەی
پۆشاک
پۆشاکی
پۆشی
پۆشینی
پۆل
پۆلدەشت
پۆلۆ
پۆلی
پۆلیتەکنیکی
پۆلیس
پۆلیسی
پۆلیسێکی
پۆلیسەوە
پۆلیسەکان
پۆلینی
پۆلێن
پۆلێنکردن
پۆلێنکردنی
پۆلێنی
پۆلێک
پۆلێکی
پۆلە
پۆلەدا
پۆلەندا
پۆلەکان
پۆلەکانی
پۆپ
پۆپی
پۆپەر
پۆپەکانی
پۆکەر
پۆکەری
پۆڵ
پۆڵا
پۆڵای
پۆڵس
پۆڵێن
پۆڵەندا
پۆڵەندی
پۆینت
پی
پیا
پیادە
پیادەی
پیاز
پیانۆ
پیانۆژەن
پیانۆژەنێکی
پیانۆکانی
پیانۆی
پیاو
پیاوان
پیاواندا
پیاوانی
پیاوانە
پیاوانەی
پیاوسالاری
پیاوی
پیاوێک
پیاوێکی
پیاوە
پیاوەکان
پیاوەکانی
پیاوەکە
پیاوەی
پیت
پیتاگۆرس
پیتی
پیتێکی
پیتە
پیتەر
پیتەرزبورگ
پیتەکان
پیتەکانی
پیدیا
پیر
پیران
پیرانشار
پیرانی
پیرباڵ
پیرتاج
پیرس
پیروەلی
پیرۆ
پیرۆز
پیرۆزبایی
پیرۆزدا
پیرۆزکردنی
پیرۆزی
پیرۆزە
پیرۆزەکان
پیرۆزەکانی
پیری
پیرە
پیرەمێرد
پیرەمەگرون
پیرەھەڵۆ
پیس
پیسایی
پیسبوون
پیسبوونی
پیستنەکە
پیسی
پیش
پیشان
پیشاندا
پیشاندانی
پیشاندەدات
پیشاندەری
پیشانی
پیشە
پیشەسازی
پیشەسازیدا
پیشەسازیی
پیشەسازییە
پیشەسازییەکان
پیشەسازییەکانی
پیشەکان
پیشەکەی
پیشەگەر
پیشەگەری
پیشەگەرە
پیشەی
پیشەیی
پیشەیەکی
پیلان
پیلانگێڕی
پیلانی
پیم
پینکەر
پیک
پیکاسۆ
پیکسار
پیکسڵ
پیکچەرز
پیکەی
پیی
پیێر
پیەر
پێ
پێباز
پێبدات
پێبدرێت
پێبکات
پێبکرێت
پێبەخشرا
پێبەخشراوە
پێبەخشی
پێت
پێتان
پێترا
پێتەختی
پێدا
پێدان
پێدانی
پێداویستی
پێداویستییە
پێداویستییەکانی
پێداویستیەکانی
پێداوە
پێداچوونەوە
پێداچوونەوەی
پێداچوونەوەیەکی
پێداگری
پێدرا
پێدرابوو
پێدراو
پێدراوی
پێدراوە
پێدراوەکان
پێدرۆ
پێدێت
پێدەدات
پێدەدرێت
پێدەچێت
پێدەکات
پێدەکرا
پێدەکرد
پێدەکرێ
پێدەکرێت
پێدەکەن
پێدەگات
پێر
پێرس
پێرست
پێرستی
پێرستیی
پێرستەکانی
پێرسن
پێرسی
پێروو
پێرڵ
پێرۆ
پێری
پێزانین
پێست
پێستی
پێستیان
پێستە
پێستەکان
پێش
پێشان
پێشاندانی
پێشانگا
پێشانگای
پێشانگایەکی
پێشبردنی
پێشبرکێی
پێشبڕکێ
پێشبڕکێکار
پێشبڕکێکانی
پێشبڕکێکە
پێشبڕکێی
پێشبڕکێیە
پێشبڕکێیەکی
پێشبینی
پێشبینیی
پێشتر
پێشتری
پێشتریش
پێشخستن
پێشخستنی
پێشدا
پێشكه
پێشمەرگایەتی
پێشمەرگە
پێشمەرگەکان
پێشمەرگەکانی
پێشمەرگەی
پێشنوێژی
پێشنیار
پێشنیارکراو
پێشنیارکردنی
پێشنیاری
پێشنیاریان
پێشنیارێک
پێشنیارێکی
پێشنیارە
پێشنیارەکان
پێشنیارەکانی
پێشنیارەکەی
پێشنیارەی
پێشنیاز
پێشنیازی
پێشوازی
پێشوازیکردن
پێشوازییەکی
پێشوو
پێشووتر
پێشووتری
پێشوودا
پێشووی
پێشوویان
پێشووەکان
پێشووەکانی
پێشوی
پێشوەختە
پێشچوون
پێشچوونی
پێشڕەو
پێشڕەوی
پێشکەش
پێشکەشکارانی
پێشکەشکاری
پێشکەشکارەکانی
پێشکەشکرا
پێشکەشکرد
پێشکەشکردن
پێشکەشکردنی
پێشکەشی
پێشکەوت
پێشکەوتن
پێشکەوتنی
پێشکەوتنێکی
پێشکەوتنە
پێشکەوتوو
پێشکەوتووی
پێشکەوتووە
پێشکەوتووەکان
پێشگر
پێشگری
پێشی
پێشیان
پێشینان
پێشینە
پێشینەی
پێشێل
پێشێلکاری
پێشێلکردنی
پێشێلی
پێشەنگ
پێشەنگی
پێشەنگەکانی
پێشەوا
پێشەوای
پێشەوایەتی
پێشەوە
پێشەوەی
پێشەکی
پێشەکیی
پێغه
پێغە
پێغەمبەر
پێغەمبەران
پێغەمبەرانی
پێغەمبەرایەتی
پێغەمبەردا
پێغەمبەری
پێغەمبەرێکی
پێغەمبەرە
پێغەمبەرەوە
پێغەمبەرەکانی
پێك
پێلێ
پێم
پێمان
پێموایە
پێن
پێناسی
پێناسە
پێناسەکراوە
پێناسەکردنی
پێناسەی
پێناسەیە
پێناسەیەکی
پێناو
پێناوی
پێنج
پێنجشەممە
پێنجوێن
پێنجوێنی
پێنجی
پێنجەم
پێنجەمدا
پێنجەمی
پێنجەمین
پێندرۆ
پێنسیلڤانیا
پێنچ
پێنی
پێنەدرا
پێوان
پێوانی
پێوانە
پێوانەکردن
پێوانەکردنی
پێوانەی
پێوانەیی
پێوه
پێويست
پێویست
پێویستت
پێویستم
پێویستمان
پێویستن
پێویسته
پێویستی
پێویستیان
پێویستیش
پێویستیی
پێویستییان
پێویستییەکانی
پێویستییەکی
پێویستە
پێویستەکان
پێوە
پێوەر
پێوەری
پێوەرێکی
پێوەرە
پێوەرەکانی
پێوەنان
پێوەندی
پێوەندیدار
پێوەندیی
پێوەندییەکی
پێوەی
پێوەیە
پێچ
پێچەوانە
پێچەوانەشەوە
پێچەوانەوە
پێچەوانەی
پێڕست
پێڕستی
پێڕستە
پێڕستەکانی
پێڕەوی
پێک
پێکان
پێکانی
پێکدادان
پێکدادانی
پێکدادانەکان
پێکدادانەکانی
پێکدێ
پێکدێت
پێکدێن
پێکدێنن
پێکدێنێت
پێکدەھێنن
پێکدەھێنێت
پێکرا
پێکراوە
پێکرد
پێکردبوو
پێکردن
پێکردنی
پێکردووە
پێکردەوە
پێکهاتوون
پێکهاتووە
پێکهاتە
پێکهاتەی
پێکهێنانی
پێکھات
پێکھاتبوو
پێکھاتبوون
پێکھاتن
پێکھاتنی
پێکھاتوو
پێکھاتوون
پێکھاتووە
پێکھاتوە
پێکھاتە
پێکھاتەکان
پێکھاتەکانی
پێکھاتەکە
پێکھاتەکەی
پێکھاتەی
پێکھاتەیی
پێکھاتەیە
پێکھاتەیەکی
پێکھێنا
پێکھێنانی
پێکھێناوە
پێکھێنرا
پێکھێنراوە
پێکھێنەری
پێکی
پێکەنین
پێکەوە
پێکەوەنووساوەکان
پێگە
پێگەکانی
پێگەکەت
پێگەی
پێگەیاندنی
پێگەیشت
پێگەیشتن
پێگەیشتنی
پێگەیشتوو
پێگەیشتووە
پێگەیشتووەکان
پێگەیەکی
پێڵاو
پێڵاوی
پێھات
پێھێنا
پێی
پێیان
پێیانوایە
پێیدا
پێیوابوو
پێیوایە
پێیە
پێیەتی
پێیەوە
پێیەکانی
پێیەی
پە
پەتا
پەتاتە
پەتای
پەتی
پەخش
پەخشان
پەخشانگەی
پەخشانی
پەخشکرا
پەخشکراوە
پەخشکردن
پەخشکردنی
پەخشی
پەراوێز
پەراوێزی
پەراوێزەکان
پەرتووک
پەرتووکی
پەرتووکێکی
پەرتووکە
پەرتووکەکانی
پەرتوکی
پەردە
پەردەکانی
پەردەی
پەرستاری
پەرستن
پەرستنی
پەرستگا
پەرستگاکان
پەرستگاکە
پەرستگای
پەرستی
پەرش
پەرلەمان
پەرلەمانتار
پەرلەمانتاری
پەرلەمانی
پەروانە
پەروانەی
پەرویز
پەروەر
پەروەردگار
پەروەردگاری
پەروەردە
پەروەردەکردنی
پەروەردەی
پەروەردەیی
پەروەردەییەکان
پەرۆشی
پەری
پەرە
پەرەسەندن
پەرەسەندنی
پەرەسەندوو
پەرەپێدا
پەرەپێدان
پەرەپێدانی
پەرەپێدراون
پەرەی
پەرەیان
پەستان
پەستانی
پەستانێکی
پەستانە
پەستانەکە
پەستانەی
پەستاوتن
پەستاوتنی
پەستێنەر
پەسند
پەسندکرا
پەسەند
پەسەندکرا
پەسەندکراو
پەسەندکراوی
پەسەندکراوە
پەسەندکراوەکان
پەسەندکردن
پەسەندکردنی
پەسەندی
پەسەندە
پەشتۆ
پەشیمان
پەشێو
پەشێوی
پەل
پەلاماری
پەلکەزێرینە
پەلکەزێڕینە
پەلی
پەلە
پەلەوەر
پەلەوەران
پەمپ
پەمپی
پەمەیی
پەنا
پەنابەر
پەنابەران
پەنابەرانی
پەنابەری
پەنابەرە
پەناگەی
پەنای
پەنایان
پەنجا
پەنجاب
پەنجابی
پەنجابییەکان
پەنجاکان
پەنجاکانی
پەنجە
پەنجەرەی
پەنجەکان
پەنجەکانی
پەنجەی
پەند
پەندی
پەنکریاس
پەنگوین
پەنیر
پەنیری
پەنەما
پەپوولە
پەپوولەکان
پەپوولەی
پەڕ
پەڕانە
پەڕانەی
پەڕاوێز
پەڕاوێزەکان
پەڕتووکی
پەڕلەمانی
پەڕگە
پەڕگەکان
پەڕگەکانی
پەڕگەکە
پەڕگەی
پەڕگەیەک
پەڕگەیەکی
پەڕی
پەڕینەوە
پەڕە
پەڕەدا
پەڕەکان
پەڕەکانی
پەڕەکە
پەڕەکەی
پەڕەی
پەڕەیە
پەڕەیەدا
پەڕەیەک
پەڕەیەکی
پەژراندنی
پەکین
پەکەکە
پەڵەی
پەھلەوی
پەی
پەیام
پەیامبەری
پەیامنێر
پەیامنێری
پەیامی
پەیامێک
پەیامێکی
پەیامە
پەیامەکان
پەیامەکانی
پەیامەکە
پەیتا
پەیج
پەیدا
پەیدابوو
پەیدابوون
پەیدابوونی
پەیدادەبێت
پەیداکرد
پەیداکردنی
پەیرەو
پەیرەوی
پەیمان
پەیمانبەست
پەیماننامە
پەیماننامەکان
پەیماننامەکانی
پەیماننامەکە
پەیماننامەی
پەیماننامەیە
پەیمانگا
پەیمانگاکان
پەیمانگاکە
پەیمانگای
پەیمانگەی
پەیمانی
پەیمانێکی
پەیمانە
پەین
پەینی
پەیوەست
پەیوەستن
پەیوەستی
پەیوەستە
پەیوەند
پەیوەندی
پەیوەندیان
پەیوەندیدا
پەیوەندیدار
پەیوەندیدارن
پەیوەندیدارە
پەیوەندیدارەکان
پەیوەندیدارەکانی
پەیوەندیکردن
پەیوەندیی
پەیوەندییان
پەیوەندییە
پەیوەندییەک
پەیوەندییەکان
پەیوەندییەکانی
پەیوەندییەکی
پەیوەندییەکەی
پەیوەندییەکەیان
پەیوەندیە
پەیوەندیەکانی
پەیوەندیەکی
پەیپاڵ
پەیڕەو
پەیڕەوانی
پەیڕەوکردنی
پەیڕەوی
پەیژە
پەیژەکە
پەیژەی
پەیژەیە
پەیژەیەکی
پەیکەر
پەیکەرتاش
پەیکەرتاشی
پەیکەرسازی
پەیکەری
پەیکەرێکی
پەیکەرە
پەیکەرەکانی
پەیکەرەکە
پەیکەرەی
چ
چا
چات
چاخی
چاد
چار
چارلز
چارلس
چارلی
چاره
چارڵز
چارڵزی
چارڵس
چارە
چارەسەر
چارەسەرکردن
چارەسەرکردنی
چارەسەری
چارەسەریی
چارەسەرێک
چارەسەرێکی
چارەسەرە
چارەنووس
چارەنووسی
چارەکی
چارەگی
چارەی
چالاک
چالاکانی
چالاکانە
چالاکترین
چالاکن
چالاکوان
چالاکوانانی
چالاکوانی
چالاکوانێکی
چالاکوانە
چالاکوانەکانی
چالاکوتووێژ
چالاکی
چالاکیان
چالاکیی
چالاکییە
چالاکییەکان
چالاکییەکانی
چالاکییەکانیان
چالاکییەکی
چالاکیە
چالاکیەکانی
چالاکە
چالاکەکان
چامپیۆنس
چامپیۆنشیپ
چان
چاند
چاندلەر
چاندن
چاندنی
چاندی
چانسی
چانگ
چاو
چاوبکە
چاوت
چاودێر
چاودێرانی
چاودێری
چاودێریکردنی
چاودێریی
چاوشێسکوو
چاوم
چاوپۆشی
چاوپێکەوتن
چاوپێکەوتنی
چاوپێکەوتنێک
چاوپێکەوتنێکدا
چاوپێکەوتنێکی
چاوپێکەوتنەکە
چاوگ
چاوگی
چاوۆ
چاوی
چاویان
چاویلکە
چاوێک
چاوێکی
چاوە
چاوەدێری
چاوەڕوان
چاوەڕواننەکراو
چاوەڕوانی
چاوەڕێ
چاوەڕێی
چاوەکان
چاوەکانی
چاپ
چاپخانە
چاپخانەی
چاپلین
چاپکرا
چاپکراو
چاپکراوی
چاپکراوە
چاپکراوەکان
چاپکردن
چاپکردنی
چاپی
چاپە
چاپەمەنی
چاپەمەنیی
چاڤێز
چاک
چاکبوونەوە
چاکبوونەوەی
چاکتر
چاکترە
چاکسازی
چاکسازیی
چاکسازییەکانی
چاککردن
چاککردنی
چاککردنەوە
چاککردنەوەی
چاکی
چاکە
چاکەکارانی
چاکەکاری
چاکەی
چاڵ
چاڵاک
چاڵاکی
چاڵدێران
چاڵگە
چاڵی
چاڵە
چای
چایخانەکە
چایخانەی
چایپاساری
چایچی
چرا
چراغ
چرای
چرکە
چرکەدا
چرکەیەک
چرکەیەکدا
چری
چریکەکانی
چل
چلچەمە
چلەکانی
چلەی
چنار
چنارشاھیجان
چنارە
چنارەی
چنگ
چنین
چه
چوار
چوارتا
چواردە
چواردەور
چواردەوری
چواردەھەم
چوارسەد
چوارشەممە
چوارقوڕنە
چوارمەحاڵ
چوارچێوە
چوارچێوەی
چوارچێوەیەکی
چوارگۆشە
چوارگۆشەی
چوارگۆشەیی
چوارگۆشەیە
چواری
چواریان
چوارەم
چوارەمدا
چوارەمی
چوارەمین
چوان
چوستی
چون
چونكه
چونكە
چونکه
چونکوو
چونکە
چونگ
چونە
چونەدەر
چوو
چووستی
چوومە
چوون
چوونکە
چوونی
چوونە
چوونەتە
چوونەژوورەوە
چوونەژوورەوەی
چووە
چووەتە
چوە
چڕ
چڕترین
چڕی
چڕیی
چکۆلە
چڵک
چۆ
چۆتە
چۆم
چۆمان
چۆمی
چۆن
چۆنییەتی
چۆنیەتی
چۆنیەتیی
چۆنێتی
چۆنێتیی
چۆنە
چۆو
چۆپرا
چۆپی
چۆڵ
چۆی
چی
چیا
چیاسەوز
چیان
چیاکان
چیاکانی
چیاکە
چیای
چیایە
چیایەکی
چیایەکە
چیبا
چیت
چیتا
چیتر
چیرۆک
چیرۆکی
چیرۆکێک
چیرۆکێکی
چیرۆکە
چیرۆکەکان
چیرۆکەکانی
چیرۆکەکە
چیرۆکەکەدا
چیرۆکەکەی
چیلی
چیمەنتۆ
چین
چینایەتی
چیندا
چینگ
چینی
چینیی
چینییە
چینییەکان
چینییەکانی
چینیەکان
چینێک
چینێکی
چینە
چینەوە
چینەکانی
چیچان
چیچەکلی
چیڕۆک
چیڕۆکی
چیڕۆکە
چیڕۆکەکە
چیڕۆکەکەی
چیک
چیکۆسلۆڤاکیا
چیکی
چییە
چیە
چێ
چێرنۆبڵ
چێشت
چێشتخانە
چێشتلێنان
چێشتی
چێن
چێنگ
چێو
چێوە
چێوەی
چێژ
چێژبەخشی
چێژبەخشیانەی
چێژی
چێکۆسلۆڤاکیا
چێڵسی
چە
چەتە
چەتەکان
چەتەکانی
چەتەی
چەخماقلوی
چەرخ
چەرخی
چەرداوڕۆ
چەرداوڕۆکانن
چەرداوڕۆی
چەرم
چەرموو
چەرمۆ
چەسپاند
چەسپاندنی
چەشمە
چەشن
چەشنی
چەشنێک
چەشنێکی
چەشنە
چەشنەکانی
چەق
چەقۆ
چەقۆی
چەقی
چەلەبی
چەم
چەماوە
چەماوەکە
چەماوەی
چەمچەماڵ
چەمک
چەمکی
چەمکێکی
چەمکە
چەمکەکان
چەمکەکانی
چەمی
چەمێ
چەمە
چەمەن
چەمەنلو
چەن
چەند
چەندان
چەندانی
چەندجارێک
چەندی
چەندین
چەندینی
چەندێتی
چەندە
چەندەها
چەندەھا
چەنگ
چەنەھا
چەور
چەوری
چەوساندنەوە
چەوساندنەوەی
چەپ
چەپی
چەپە
چەپەوە
چەک
چەکدار
چەکدارانی
چەکدارانە
چەکداری
چەکداریی
چەکدارە
چەکدارەکان
چەکدارەکانی
چەکی
چەکێکی
چەکە
چەکەکان
چەکەکانی
چەکەکە
چەیس
ڎ
ڕ
ڕا
ڕابردوو
ڕابردوودا
ڕابردووی
ڕابواردن
ڕابکێشێت
ڕابگرن
ڕابگرێت
ڕابی
ڕابەر
ڕابەرایەتی
ڕابەری
ڕاتن
ڕاج
ڕاجستان
ڕادار
ڕادیۆ
ڕادیۆی
ڕادیۆیی
ڕادە
ڕادەبەدەر
ڕادەربڕین
ڕادەست
ڕادەستی
ڕادەکات
ڕادەکێشێت
ڕادەگرێت
ڕادەگەیەنێت
ڕادەی
ڕادەیە
ڕادەیەک
ڕادەیەکی
ڕادەیەی
ڕاز
ڕازاندنەوەی
ڕازی
ڕازیا
ڕازیبوون
ڕازیکردنی
ڕازییە
ڕاسان
ڕاست
ڕاسته
ڕاستکردنەوەی
ڕاستگۆ
ڕاستگۆیی
ڕاستی
ڕاستیدا
ڕاستیی
ڕاستییە
ڕاستییەکان
ڕاستییەکی
ڕاستییەکەی
ڕاستییەی
ڕاستە
ڕاستەخۆ
ڕاستەقینە
ڕاستەقینەدا
ڕاستەقینەکان
ڕاستەقینەکانی
ڕاستەقینەکەی
ڕاستەقینەی
ڕاستەقینەیە
ڕاستەوخۆ
ڕاستەوخۆی
ڕاستەوە
ڕاسپارد
ڕاسپاردەی
ڕاسپبێری
ڕاسکۆڵنیکۆڤ
ڕاشدین
ڕاشکاوانە
ڕام
ڕامان
ڕامجێت
ڕامسدەیڵ
ڕامۆس
ڕامیاری
ڕامیاریه
ڕامیاریی
ڕان
ڕانبیر
ڕانچۆ
ڕانڤیر
ڕانکن
ڕانی
ڕانیە
ڕاهێنان
ڕاهێنانی
ڕاهێنەر
ڕاهێنەرایەتی
ڕاهێنەری
ڕاو
ڕاوچی
ڕاوکردن
ڕاوکردنی
ڕاوی
ڕاوێژ
ڕاوێژکار
ڕاوێژکاری
ڕاوێژی
ڕاوە
ڕاوەماسی
ڕاي
ڕاپ
ڕاپرسی
ڕاپرسییەک
ڕاپرسییەکی
ڕاپۆرت
ڕاپۆرتی
ڕاپۆرتێک
ڕاپۆرتێکی
ڕاپۆرتە
ڕاپۆرتەکان
ڕاپۆرتەکانی
ڕاپەر
ڕاپەرین
ڕاپەرینی
ڕاپەرە
ڕاپەڕاندنی
ڕاپەڕین
ڕاپەڕینی
ڕاپەڕینێکی
ڕاپەڕینە
ڕاژە
ڕاژەکار
ڕاژەکاری
ڕاژەی
ڕاڤە
ڕاڤەی
ڕاکردن
ڕاکردنی
ڕاکێش
ڕاکێشا
ڕاکێشان
ڕاکێشانی
ڕاکێشاوە
ڕاکێشی
ڕاگرت
ڕاگرتن
ڕاگرتنی
ڕاگری
ڕاگواستن
ڕاگواستنی
ڕاگیرا
ڕاگیراوە
ڕاگەیاند
ڕاگەیاندبوو
ڕاگەیاندرا
ڕاگەیاندن
ڕاگەیاندنی
ڕاگەیاندنە
ڕاگەیاندنەکان
ڕاگەیاندووە
ڕاگەیێنی
ڕاگەیەندرا
ڕاگەیەندراوی
ڕاگەیەنرا
ڕاڵف
ڕاھێنان
ڕاھێنانی
ڕاھێنانیان
ڕاھێنەر
ڕاھێنەرانی
ڕاھێنەرایەتی
ڕاھێنەری
ڕای
ڕایا
ڕایان
ڕایانگەیاند
ڕایت
ڕایدەر
ڕاین
ڕاینی
ڕایکرد
ڕایگەیاند
ڕایگەیاندووە
ڕایە
ڕحا
ڕخنەگرە
ڕزگار
ڕزگاربوون
ڕزگاربوونی
ڕزگارکرد
ڕزگارکردنی
ڕزگاری
ڕزگاریان
ڕزگاریخوازی
ڕزگاریی
ڕستە
ڕستەدا
ڕستەی
ڕستەیەک
ڕستەیەکی
ڕشانەوە
ڕشتە
ڕشتەکانی
ڕشتەی
ڕفاندن
ڕفاندنی
ڕق
ڕقی
ڕم
ڕند
ڕه
ڕو
ڕواندا
ڕوانسەر
ڕوانگە
ڕوانگەکان
ڕوانگەی
ڕوانگەیە
ڕوانگەیەک
ڕوانگەیەکی
ڕوانین
ڕوانینی
ڕواڵەت
ڕواڵەتی
ڕوباری
ڕوبەڕوی
ڕوت
ڕوحی
ڕوخانی
ڕوخسار
ڕوخساری
ڕودانی
ڕوداوە
ڕودەدات
ڕوس
ڕوسۆ
ڕوسی
ڕوسیا
ڕوسێ
ڕوشد
ڕوشدی
ڕوناکی
ڕونی
ڕوو
ڕووبار
ڕووباری
ڕووبارێک
ڕووبارێکی
ڕووبارە
ڕووبارەکان
ڕووبارەکانی
ڕووبارەکە
ڕووبدات
ڕووبەر
ڕووبەرووی
ڕووبەری
ڕووبەرێکی
ڕووبەرە
ڕووبەرەوە
ڕووبەرەکەی
ڕووبەڕوو
ڕووبەڕووبونەوەی
ڕووبەڕووبوونەوەی
ڕووبەڕووی
ڕووبەڕوویان
ڕووبەڕوی
ڕووت
ڕووتی
ڕووتەختی
ڕووحوڵڵا
ڕووخا
ڕووخاند
ڕووخاندنی
ڕووخانی
ڕووخسار
ڕووخساری
ڕوودانی
ڕووداو
ڕووداوانە
ڕووداوانەی
ڕووداوی
ڕووداوێک
ڕووداوێکی
ڕووداوە
ڕووداوەکان
ڕووداوەکانی
ڕووداوەکە
ڕووداوەکەی
ڕووداوەی
ڕوودەدات
ڕوودەدەن
ڕووس
ڕووسی
ڕووسیا
ڕووسیادا
ڕووسیاش
ڕووسیاوە
ڕووسیای
ڕووسیایە
ڕووسییە
ڕووسییەوە
ڕووسییەکان
ڕووسەکان
ڕووماڵی
ڕوون
ڕووناک
ڕووناکبیری
ڕووناکبیریی
ڕووناکی
ڕووناکیی
ڕووناکییە
ڕوونتر
ڕوونکردنەوە
ڕوونکردنەوەی
ڕوونکردنەوەیەکی
ڕوونکردەوە
ڕوونی
ڕوونیکردەوە
ڕوونە
ڕووپۆش
ڕووپییە
ڕووپێوی
ڕووکار
ڕووکاری
ڕووکەشی
ڕووی
ڕوویان
ڕوویاندا
ڕوویانداوە
ڕوویدا
ڕوویداوە
ڕوویکردە
ڕوویی
ڕوویەکی
ڕووە
ڕووەوە
ڕووەک
ڕووەکانی
ڕووەکناسی
ڕووەکی
ڕووەکە
ڕووەکەکان
ڕوی
ڕویدا
ڕوەک
ڕوەکناسی
ڕوەکی
ڕوەکە
ڕوەکەکان
ڕژانی
ڕژانە
ڕژیمی
ڕژێم
ڕژێمی
ڕژێمێکی
ڕژێمە
ڕژێنی
ڕکابەر
ڕکابەری
ڕکابەرە
ڕکابەرەکانی
ڕکابەرەکەی
ڕکێفی
ڕۆ
ڕۆب
ڕۆبن
ڕۆبنسن
ڕۆبۆت
ڕۆبۆتی
ڕۆبی
ڕۆبێرت
ڕۆبێرتس
ڕۆبێرتۆ
ڕۆبەرت
ڕۆت
ڕۆجەر
ڕۆجەرز
ڕۆح
ڕۆحانی
ڕۆحی
ڕۆخی
ڕۆد
ڕۆدریگێز
ڕۆدیسیا
ڕۆز
ڕۆزا
ڕۆزی
ڕۆس
ڕۆستەم
ڕۆستەمی
ڕۆسۆ
ڕۆشان
ڕۆشت
ڕۆشتن
ڕۆشتنی
ڕۆشتووە
ڕۆشنایی
ڕۆشنبیر
ڕۆشنبیران
ڕۆشنبیرانی
ڕۆشنبیری
ڕۆشنبیریی
ڕۆشنگەری
ڕۆشەنبیری
ڕۆغزایی
ڕۆل
ڕۆلگێران
ڕۆلی
ڕۆلێت
ڕۆلێکی
ڕۆلەکانی
ڕۆم
ڕۆما
ڕۆماتیزم
ڕۆماجی
ڕۆمان
ڕۆمانانەی
ڕۆمانتیک
ڕۆمانتیکی
ڕۆمانس
ڕۆمانسی
ڕۆماننووس
ڕۆماننووسانی
ڕۆماننووسی
ڕۆمانووسە
ڕۆمانی
ڕۆمانیا
ڕۆمانییەکان
ڕۆمانیەکانی
ڕۆمانێک
ڕۆمانێکی
ڕۆمانێکە
ڕۆمانە
ڕۆمانەکان
ڕۆمانەکانی
ڕۆمانەکە
ڕۆمانەکەدا
ڕۆمانەکەی
ڕۆمای
ڕۆمی
ڕۆمیۆ
ڕۆمییەکان
ڕۆمەکان
ڕۆن
ڕۆناڵد
ڕۆناڵدۆ
ڕۆناڵدینھۆ
ڕۆنی
ڕۆنەکە
ڕۆژ
ڕۆژان
ڕۆژانی
ڕۆژانە
ڕۆژانەدا
ڕۆژانەی
ڕۆژاوا
ڕۆژاوادا
ڕۆژاواوە
ڕۆژاوای
ڕۆژاوایی
ڕۆژاوایە
ڕۆژبەیانی
ڕۆژدا
ڕۆژمێری
ڕۆژنامە
ڕۆژنامەنووس
ڕۆژنامەنووسان
ڕۆژنامەنووسانی
ڕۆژنامەنووسی
ڕۆژنامەنووسێکی
ڕۆژنامەنووسە
ڕۆژنامەوان
ڕۆژنامەوانان
ڕۆژنامەوانانی
ڕۆژنامەوانی
ڕۆژنامەکان
ڕۆژنامەکانی
ڕۆژنامەکە
ڕۆژنامەگەری
ڕۆژنامەی
ڕۆژنامەیە
ڕۆژنامەیەکی
ڕۆژنیوز
ڕۆژهەڵات
ڕۆژهەڵاتی
ڕۆژهەڵاتەوە
ڕۆژوو
ڕۆژووی
ڕۆژي
ڕۆژژمێر
ڕۆژژمێری
ڕۆژژمێرە
ڕۆژگاری
ڕۆژگیران
ڕۆژھەلات
ڕۆژھەلاتی
ڕۆژھەڵات
ڕۆژھەڵاتدا
ڕۆژھەڵاتی
ڕۆژھەڵاتە
ڕۆژھەڵاتەوە
ڕۆژی
ڕۆژێ
ڕۆژێک
ڕۆژێکدا
ڕۆژێکی
ڕۆژێکیان
ڕۆژە
ڕۆژەدا
ڕۆژەوە
ڕۆژەکان
ڕۆژەکانی
ڕۆژەی
ڕۆک
ڕۆکستار
ڕۆکی
ڕۆکێت
ڕۆکە
ڕۆڵ
ڕۆڵگێڕان
ڕۆڵگێڕانی
ڕۆڵی
ڕۆڵیان
ڕۆڵێکی
ڕۆڵە
ڕۆڵەکان
ڕۆڵەکانی
ڕۆڵەکانیان
ڕۆڵەکە
ڕۆڵەکەی
ڕۆڵەی
ڕۆی
ڕۆیال
ڕۆیاڵ
ڕۆیشت
ڕۆیشتن
ڕۆیشتنی
ڕۆیشتوون
ڕۆیشتووە
ڕی
ڕیا
ڕیاز
ڕیال
ڕیالیزم
ڕیالیزمی
ڕیاڵ
ڕیتا
ڕیتم
ڕیخۆڵە
ڕید
ڕیز
ڕیزبەند
ڕیزبەندی
ڕیزبەندیی
ڕیزبەندییەکە
ڕیزکراون
ڕیزکردنی
ڕیزی
ڕیزێک
ڕیزە
ڕیزەکانی
ڕیس
ڕیش
ڕیشی
ڕیشە
ڕیشەی
ڕیف
ڕیمان
ڕیوایەتی
ڕیپۆرتەر
ڕیچارد
ڕیژەی
ڕیڤاڵدۆ
ڕیڤەر
ڕیک
ڕیکاردۆ
ڕیکخراوی
ڕیکلام
ڕیکلامی
ڕیکۆرد
ڕیکۆردی
ڕیکۆردێکی
ڕیگای
ڕیگەی
ڕیۆ
ڕێ
ڕێباز
ڕێبازی
ڕێبازێکی
ڕێبازە
ڕێبازەکانی
ڕێبوار
ڕێبین
ڕێبەر
ڕێبەرانی
ڕێبەرایەتی
ڕێبەرایەتیی
ڕێبەری
ڕێبەندان
ڕێبەندانی
ڕێته
ڕێختەر
ڕێخۆشکەر
ڕێد
ڕێرەوی
ڕێز
ڕێزان
ڕێزبەندی
ڕێزدار
ڕێزدێنت
ڕێزلێنان
ڕێزلێنانی
ڕێزلێنانێک
ڕێزم
ڕێزمان
ڕێزمانی
ڕێزگرتن
ڕێزی
ڕێزیان
ڕێزێک
ڕێزێکی
ڕێسا
ڕێساکان
ڕێساکانی
ڕێسای
ڕێنمای
ڕێنمایی
ڕێنمایییەکانی
ڕێنووس
ڕێنووسی
ڕێنوێنی
ڕێنێ
ڕێنێسانس
ڕێوشوێنی
ڕێوه
ڕێوڕەسمی
ڕێوی
ڕێوە
ڕێپێوان
ڕێپێوانێکی
ڕێچکەی
ڕێڕەوی
ڕێڕەوێکی
ڕێژیمی
ڕێژیمەکان
ڕێژە
ڕێژەى
ڕێژەکە
ڕێژەکەی
ڕێژەی
ڕێژەیی
ڕێژەیە
ڕێژەیەکی
ڕێک
ڕێکاری
ڕێکارە
ڕێکارەکان
ڕێکارەکانی
ڕێکبخات
ڕێکخرا
ڕێکخرابوو
ڕێکخراو
ڕێکخراوانەی
ڕێکخراون
ڕێکخراوی
ڕێکخراوێک
ڕێکخراوێکی
ڕێکخراوە
ڕێکخراوەکان
ڕێکخراوەکانی
ڕێکخراوەکە
ڕێکخراوەکەی
ڕێکخراوەی
ڕێکخراوەیی
ڕێکخراوەیە
ڕێکخراوەیەکی
ڕێکخست
ڕێکخستن
ڕێکخستنی
ڕێکخستنە
ڕێکخستنەوە
ڕێکخستنەوەی
ڕێکخستنەکانی
ڕێکخەری
ڕێکدەخات
ڕێکدەخرێت
ڕێکلام
ڕێکلامی
ڕێکوپێک
ڕێکوپێکی
ڕێککەوت
ڕێککەوتن
ڕێککەوتنامەی
ڕێککەوتننامەی
ڕێککەوتنی
ڕێککەوتنێک
ڕێککەوتنێکی
ڕێککەوتنە
ڕێکی
ڕێکیان
ڕێکە
ڕێکەوت
ڕێکەوتن
ڕێکەوتنامەی
ڕێکەوتننامەی
ڕێکەوتنی
ڕێکەوتنێک
ڕێکەوتنێکی
ڕێکەوتنە
ڕێکەوتنەکە
ڕێکەوتی
ڕێکەوتە
ڕێگا
ڕێگادا
ڕێگاوبان
ڕێگاوبانی
ڕێگاوە
ڕێگاکان
ڕێگاکانی
ڕێگاکە
ڕێگای
ڕێگایان
ڕێگایە
ڕێگایەوە
ڕێگایەک
ڕێگایەکی
ڕێگر
ڕێگرتن
ڕێگری
ڕێگریان
ڕێگریکردن
ڕێگریی
ڕێگە
ڕێگەدان
ڕێگەپێدانی
ڕێگەپێدراو
ڕێگەپێدراوە
ڕێگەکان
ڕێگەکانی
ڕێگەگرتن
ڕێگەی
ڕێگەیان
ڕێگەیە
ڕێگەیەوە
ڕێگەیەک
ڕێگەیەکی
ڕێی
ڕێیگن
ڕە
ڕەبات
ڕەبیعی
ڕەبیعە
ڕەبەت
ڕەت
ڕەتکرایەوە
ڕەتکردنەوەی
ڕەتکردووەتەوە
ڕەتکردەوە
ڕەتی
ڕەتیان
ڕەتیکردەوە
ڕەجەب
ڕەحمان
ڕەحمانی
ڕەحیم
ڕەحیمی
ڕەخنە
ڕەخنەت
ڕەخنەکان
ڕەخنەکانی
ڕەخنەگر
ڕەخنەگران
ڕەخنەگرانی
ڕەخنەگرانە
ڕەخنەگرانەوە
ڕەخنەگرانەی
ڕەخنەگرتن
ڕەخنەگری
ڕەخنەگرێکی
ڕەخنەی
ڕەخنەیان
ڕەخنەیی
ڕەخنەیەکی
ڕەزا
ڕەزازی
ڕەزامەندی
ڕەزامەندیی
ڕەزان
ڕەزای
ڕەزایی
ڕەزبەر
ڕەزبەری
ڕەزەوی
ڕەسمی
ڕەسمیی
ڕەسووڵ
ڕەسوڵ
ڕەسڵ
ڕەسیا
ڕەسەن
ڕەسەنایەتی
ڕەسەنی
ڕەسەنەکان
ڕەسەنەکانی
ڕەسەنەکە
ڕەسەنەکەی
ڕەش
ڕەشت
ڕەشدا
ڕەشنووسی
ڕەشی
ڕەشید
ڕەشیدی
ڕەشە
ڕەشەمە
ڕەشەمەی
ڕەشەوە
ڕەشەکان
ڕەشەکە
ڕەعد
ڕەفتار
ڕەفتاری
ڕەفیق
ڕەق
ڕەققە
ڕەقی
ڕەقیەتی
ڕەقە
ڕەقەکان
ڕەمزی
ڕەمەزان
ڕەمەزاندا
ڕەمەزانی
ڕەنج
ڕەنجدەران
ڕەنجدەرانی
ڕەنگ
ڕەنگاوڕەنگ
ڕەنگدانەوەی
ڕەنگی
ڕەنگیان
ڕەنگێکی
ڕەنگە
ڕەنگەکان
ڕەنگەکانی
ڕەها
ڕەوا
ڕەوان
ڕەوانبێژی
ڕەواندز
ڕەواندوز
ڕەوانی
ڕەوانە
ڕەوانەکەر
ڕەوانەکەرەکان
ڕەوانەی
ڕەوای
ڕەوتی
ڕەوتێکی
ڕەوتە
ڕەوزە
ڕەوشت
ڕەوشتی
ڕەوشتە
ڕەوشی
ڕەوشەن
ڕەوەندی
ڕەي
ڕەچاو
ڕەچاوکردنی
ڕەچاوی
ڕەچەڵەک
ڕەچەڵەکی
ڕەگ
ڕەگبی
ڕەگی
ڕەگەز
ڕەگەزنامەی
ڕەگەزپەرستی
ڕەگەزی
ڕەگەزیی
ڕەگەزییەکان
ڕەگەزییەکانی
ڕەگەزێکی
ڕەگەزە
ڕەگەزەکان
ڕەگەزەکانی
ڕەگەکان
ڕەگەکانی
ڕەھا
ڕەھای
ڕەھەند
ڕەھەندی
ڕەھەندییە
ڕەھەندییەکانی
ڕەی
ژ
ژاراوە
ژان
ژانویەی
ژانگ
ژانی
ژانێرۆ
ژانەری
ژاوۆ
ژاپۆن
ژاپۆندا
ژاپۆنی
ژاپۆنیی
ژاپۆنییە
ژاپۆنییەکان
ژاپۆنییەکانی
ژاپۆنیە
ژاپۆنە
ژاک
ژاڵە
ژاڵەی
ژاۆ
ژریژە
ژمارانە
ژماردن
ژماردنی
ژماره
ژماری
ژمارە
ژمارەکان
ژمارەکانی
ژمارەکە
ژمارەی
ژمارەیان
ژمارەیی
ژمارەیە
ژمارەیەک
ژمارەیەکی
ژمێریاری
ژمێرە
ژمێرەی
ژن
ژنان
ژناندا
ژنانی
ژنانە
ژنانەی
ژنی
ژنێک
ژنێکی
ژنە
ژنەکان
ژنەکانی
ژنەکە
ژنەکەی
ژه
ژو
ژوری
ژوو
ژوور
ژووروو
ژوورى
ژووری
ژوورێک
ژوورێکی
ژوورە
ژوورەوە
ژوورەوەی
ژوورەکە
ژوورەکەی
ژوول
ژپنک
ژۆرژ
ژۆرژو
ژۆزێف
ژۆل
ژۆو
ژی
ژیا
ژیار
ژیاری
ژیان
ژیاندا
ژیانم
ژیاننامە
ژیاننامەی
ژیاننامەیی
ژیانی
ژیانیان
ژیانیاندا
ژیانیدا
ژیانێکی
ژیانە
ژیانەوە
ژیانەوەی
ژیاون
ژیاوە
ژیر
ژیرانە
ژیربێژی
ژیری
ژیریی
ژیـار
ژیلا
ژین
ژینا
ژینناسی
ژینگە
ژینگەی
ژینگەیی
ژینگەیەکی
ژینی
ژێ
ژێجیانگ
ژێدارەکان
ژێدەر
ژێدەری
ژێدەرەکان
ژێر
ژێرخان
ژێرخانی
ژێرخانەکان
ژێردەستی
ژێرزەمینی
ژێرزەوی
ژێرناوی
ژێري
ژێری
ژێرەوە
ژێرەوەی
ژێڕ
ژەمی
ژەمە
ژەنیار
ژەنیاران
ژەنیارانی
ژەنیاری
ژەنینی
ژەنەڕال
ژەنەڕالەکانی
ژەنەڕاڵ
ژەنەڕاڵی
ژەنەڕاڵێکی
ژەنەڕاڵەکانی
ژەھر
ژەھراوی
ژەھری
ڤ
ڤاتیکان
ڤارنا
ڤالێری
ڤالێنسیا
ڤان
ڤانکۆڤەر
ڤاکسینی
ڤاڵڤ
ڤایرۆس
ڤایرۆسی
ڤایرۆسە
ڤایرۆسەکان
ڤایرۆسەکە
ڤایکۆدین
ڤایکینگ
ڤلادیمیر
ڤلادیمێر
ڤلادیڤۆستۆک
ڤویرتمبێرگ
ڤۆن
ڤۆڵت
ڤۆڵتیە
ڤۆڵتێر
ڤۆڵدمۆرت
ڤۆڵفگانگ
ڤۆڵگا
ڤۆیڤۆدینا
ڤی
ڤیا
ڤیان
ڤیاڕیاڵ
ڤیتامین
ڤیتامینە
ڤیتۆ
ڤیتۆریا
ڤیجای
ڤیدین
ڤیدیۆ
ڤیدیۆکانی
ڤیدیۆکە
ڤیدیۆی
ڤیدیۆیانەی
ڤیدیۆیی
ڤیدیۆییانەی
ڤیدیۆییی
ڤیدیۆیییە
ڤیدیۆیییەکان
ڤیدیۆیییەکانی
ڤیدیۆییە
ڤیدیۆییەکان
ڤیدیۆییەکانی
ڤیدیۆیە
ڤیدیۆیەکان
ڤیدیۆیەکی
ڤیرجینیا
ڤیز
ڤیستیڤاڵی
ڤین
ڤینس
ڤینسنت
ڤینسێنت
ڤینسەنت
ڤینوس
ڤینچی
ڤیکتۆر
ڤیکتۆریا
ڤیکرام
ڤیگن
ڤیگنی
ڤیگنیزم
ڤیگنەکان
ڤییەنا
ڤییەننا
ڤیێتنام
ڤیێتنامی
ڤیێنا
ڤیەتنام
ڤیەننا
ڤێبەر
ڤێتنام
ڤێرا
ڤێرجینیا
ڤێرسای
ڤێرژنی
ڤێلا
ڤێلیکۆ
ڤێنیز
ڤێنیزوێلا
ڤێگا
ڤێگاس
ڤەنزوێلا
ڤەژین
ک
کا
کابان
کابرێتەر
کابول
کابینەکەی
کابینەی
کات
کاتارینا
کاتانە
کاتانەدا
کاتانەی
کاتدا
کاترین
کاترینا
کاتنامەی
کاته
کاتژمێر
کاتژمێردا
کاتژمێری
کاتژمێرێک
کاتژمێرێکدا
کاتژمێرە
کاتژمێرەکانی
کاتۆلیک
کاتۆلیکی
کاتۆلیکەکان
کاتی
کاتیش
کاتیشدا
کاتیک
کاتیی
کاتییە
کاتێ
کاتێك
کاتێک
کاتێکا
کاتێکدا
کاتێکدایە
کاتێکی
کاتێکیش
کاتە
کاتەدا
کاتەش
کاتەشدا
کاتەوە
کاتەوەی
کاتەکان
کاتەکانی
کاتەکە
کاتەکەی
کاتەی
کادی
کار
کارا
کاراتێ
کارامە
کارامەیی
کاران
کارانە
کارانەی
کاراکتەری
کارای
کارایی
کاربکات
کاربکەن
کاربۆن
کاربۆنی
کاربەدەستان
کاربەدەستانی
کارت
کارتۆن
کارتۆنی
کارتی
کارتەر
کارخانەی
کارد
کاردا
کاردانەوە
کاردانەوەکان
کاردانەوەکانی
کاردانەوەی
کاردانەوەیەکی
کاردۆ
کاردی
کاردیف
کاردیناڵ
کاردیناڵی
کاردێت
کاردەکات
کاردەکاتە
کاردەکەن
کارزان
کارسۆن
کارل
کارلۆ
کارلۆس
کارلێک
کارلێکی
کارلێکە
کارم
کارمەند
کارمەندان
کارمەندانی
کارمەندی
کارمەندێکی
کارمەندەکانی
کارن
کاره
کارو
کاروان
کاروانسەرا
کاروانی
کاروانە
کاروبار
کاروباری
کاروبارە
کاروبارەکانی
کارووباری
کاري
کارپێکراو
کارپێکردن
کارپێکردنی
کارپێکەری
کارڤەر
کارکردن
کارکردندا
کارکردنی
کارکردنیان
کارکردنیدا
کارکردنە
کارگێری
کارگێڕی
کارگێڕیی
کارگێڕییەوە
کارگێڕییەکان
کارگێڕییەکانی
کارگە
کارگەکان
کارگەکانی
کارگەی
کارگەیەکی
کارڵ
کارھێنانی
کارۆ
کارۆخ
کارۆلین
کارۆلینای
کارۆموگناتیسی
کاری
کاریا
کاریان
کاریبی
کاریدەکرد
کارین
کارینا
کاریکردووە
کاریگه
کاریگە
کاریگەر
کاریگەرتر
کاریگەرترین
کاریگەری
کاریگەریان
کاریگەریی
کاریگەرییان
کاریگەرییە
کاریگەرییەکانی
کاریگەرییەکی
کاریگەرییەکەی
کاریگەریە
کاریگەریەکانی
کاریگەریەکی
کاریگەرە
کارێز
کارێزی
کارێزە
کارێزەی
کارێک
کارێکی
کارە
کارەبا
کارەبای
کارەبایی
کارەبایییەکان
کارەباییەکان
کارەبایە
کارەدا
کارەسات
کارەساتی
کارەساتێکی
کارەساتە
کارەساتەکە
کارەش
کارەوە
کارەکان
کارەکانی
کارەکانیان
کارەکانیدا
کارەکانییەوە
کارەکتەر
کارەکتەری
کارەکتەرێکی
کارەکتەرە
کارەکتەرەکان
کارەکتەرەکانی
کارەکتەرەکە
کارەکە
کارەکەی
کارەکەیان
کارەی
کارەیان
کازاخ
کازاخستان
کازاخستانی
کازاخی
کازاخەکان
کازان
کازرون
کازم
کازمی
کازیرون
کازیرۆن
کاسا
کاسبی
کاست
کاسترۆ
کاستی
کاسپیەن
کاسۆد
کاسۆلیک
کاسۆلیکی
کاسۆلیکە
کاسی
کاسێتی
کاش
کاشان
کاشی
کاغەز
کاغەزی
کاغەزەکانی
کاف
کافر
کافور
کافکا
کالاس
کالسیۆم
کالۆ
کالی
کالیسیۆم
کالیفۆرنیا
کالیفۆرنیای
کالیفۆڕنیا
کالێ
کام
کاماکورا
کامبریج
کامشەفت
کامل
کامپ
کامپی
کامکار
کامکاران
کامڵ
کامۆ
کامیاران
کامیان
کامیروون
کامیرۆن
کامیل
کامیلا
کامێرا
کامێرای
کامێرایەکی
کامێڕای
کامە
کامەران
کامەیان
کان
کانادا
کاناگاوا
کانت
کانتۆر
کانتۆنی
کانجی
کاندا
کاندید
کاندیدا
کاندیدی
کانزا
کانزاناسی
کانزاکان
کانزاکانی
کانزای
کانزایی
کانونی
کانوون
کانوونی
کانگ
کانگای
کانۆ
کانی
کانیان
کانیاوی
کانییە
کانە
کانەوە
کانەکان
کاولان
کاونتی
کاوە
کاپتن
کاپتنی
کاپوور
کاڕڵ
کاژێر
کاک
کاکا
کاکاشی
کاکۆڵی
کاکی
کاکە
کاکەمەند
کاکەی
کاکەیی
کاگویا
کاڵ
کاڵا
کاڵاکان
کاڵای
کاڵی
کای
کایا
کایڵ
کایە
کایەوە
کایەکانی
کایەکلێکانی
کایەکە
کایەی
کایەیەکی
کتاب
کتوپڕ
کتێب
کتێبانەی
کتێبخانە
کتێبخانەکان
کتێبخانەکانی
کتێبخانەی
کتێبخانەیەکی
کتێبناسی
کتێبی
کتێبێک
کتێبێکدا
کتێبێکی
کتێبێکە
کتێبە
کتێبەدا
کتێبەکان
کتێبەکانی
کتێبەکە
کتێبەکەدا
کتێبەکەی
کتێبەکەیدا
کتێبەی
کحول
کرا
کرابوو
کرابوون
کرابێت
کران
کرانک
کرانکشەفت
کرانە
کرانەوە
کرانەوەی
کراو
کراون
کراونەتە
کراونەتەوە
کراوه
کراوی
کراوە
کراوەتە
کراوەتەوە
کراوەدا
کراوەن
کراوەکان
کراوەکە
کراوەی
کراوەیی
کراوەیە
کرای
کرایە
کرایەوە
کرتە
کرتەکردن
کرد
کردار
کرداری
کردارێک
کردارێکی
کردارە
کردارەکان
کردارەکانی
کردارەکە
کردبوو
کردبوون
کردبووە
کردبووەوە
کردبۆوە
کردبێ
کردبێت
کردستان
کردم
کردن
کردندا
کردنه
کردنی
کردنیان
کردنێکی
کردنە
کردنەوە
کردنەوەی
کردنەیەک
کرده
کردو
کردوو
کردووتە
کردوون
کردووه
کردوویەتی
کردووە
کردووەتە
کردووەتەوە
کردووەو
کردوە
کردۆتە
کردۆتەوە
کردی
کردیان
کردییە
کردیە
کردە
کردەوە
کردەوەکانی
کردەوەی
کردەوەیەکی
کردەی
کردەیی
کردەیەکی
کرستی
کرم
کرماشان
کرماشاندا
کرماشانی
کرماشانە
کرمان
کرمانج
کرمانجی
کرمی
کرواتی
کرواتیا
کرواتیایە
کروز
کرپچنە
کرۆر
کرۆس
کرۆم
کرۆمۆسۆمی
کرۆکی
کرۆیف
کریت
کریس
کریستاڵ
کریستاڵی
کریستن
کریستۆف
کریستۆفەر
کریستۆڤەر
کریستی
کریستیان
کریستیانۆ
کریستیانی
کریستین
کریستینا
کریستینسن
کریسمس
کریسمەس
کریشنا
کریم
کریمیا
کریکێت
کرێ
کرێت
کرێکار
کرێکاران
کرێکارانی
کرێکاری
کرێکارە
کرێی
کرەیگ
کز
کش
کشان
کشاندەوە
کشانی
کشانەوە
کشانەوەی
کشاوەرز
کشایەوە
کشت
کشتووکاڵ
کشتوکاڵ
کشتوکاڵی
کشتوکاڵییەکان
کشور
کشوری
کفری
کلارا
کلارک
کلاریسا
کلاس
کلاسیزم
کلاسیک
کلاسیکدا
کلاسیکۆ
کلاسیکی
کلاسیکیی
کلاسیکییەکانی
کلاسیکەکان
کلای
کلتور
کلتوری
کلتوور
کلتووری
کلدان
کلدانی
کلک
کلکی
کلۆد
کلۆر
کلیل
کلیلی
کلیلە
کلیلەکانی
کلینت
کلینتۆن
کلینیکی
کلیپ
کلیپی
کلیپەکان
کلیک
کلیۆپاترا
کلێر
کلێسای
کلێسەی
کم
کنچێرتۆی
که
کو
کوالیتی
کوالێتی
کوانتەم
کوبا
کوت
کوتان
کوتانی
کودۆ
کودۆیە
کودەتا
کودەتاکە
کودەتای
کودەتایەکی
کور
کورت
کورتتر
کورتخایەن
کورتدا
کورتن
کورتکراوە
کورتکراوەی
کورتی
کورتە
کورتەچیرۆک
کورتەچیرۆکی
کورتەکان
کورتەی
کورتەیەک
کورتەیەکی
کورد
کوردان
کوردانی
کوردانە
کوردایەتی
کورددا
کوردسات
کوردستان
کوردستاندا
کوردستانن
کوردستانی
کوردستانیان
کوردستانیش
کوردستانە
کوردستانەوە
کوردن
کوردنشینەکان
کوردنشینەکانی
کوردپرێس
کوردۆ
کوردی
کوردیان
کوردیدا
کوردیش
کوردیشدا
کوردین
کوردیپێدیا
کوردیی
کوردییان
کوردییە
کوردییەوە
کوردییەکان
کوردییەکاندا
کوردییەکانی
کوردیە
کوردیەکان
کوردێک
کوردێکی
کوردە
کوردەمیری
کوردەواری
کوردەواریدا
کوردەوە
کوردەکان
کوردەکانن
کوردەکانی
کورستان
کورسی
کورسیی
کورسییەکانی
کورمانجی
کورووش
کوری
کورە
کورەسوننی
کورەسوننییەکان
کورەکەی
کوشت
کوشتار
کوشتاری
کوشتن
کوشتنی
کوشتنیان
کوشتووە
کوشتی
کوشتیان
کوشندە
کوفە
کولتوری
کولتوور
کولتووری
کولوسێڤسکی
کولیایی
کولیکی
کومار
کومیتەی
کون
کوندەکانی
کونسوڵخانەی
کونگرە
کونگرەی
کونی
کونێکی
کونە
کونەکۆتر
کوو
کووبا
کووت
کوودەتای
کوورا
کووشتنی
کووفە
کووپەر
کووڕی
کووژران
کووەیت
کوپا
کوچی
کوڕ
کوڕان
کوڕانی
کوڕم
کوڕی
کوڕیان
کوڕێک
کوڕێکی
کوڕێکیان
کوڕە
کوڕەزای
کوڕەکان
کوڕەکانی
کوڕەکە
کوڕەکەی
کوڕەکەیان
کوڕەی
کوژرا
کوژران
کوژرانی
کوژراو
کوژراوان
کوژراون
کوژراوی
کوژراوە
کوژراوەکان
کوک
کوڵاو
کوڵتەپە
کوھلی
کوی
کوین
کوینزلەند
کوینچ
کوێ
کوێت
کوێخا
کوێر
کوێری
کوێرە
کوێستان
کوێستانی
کوێستانەکانی
کوێوە
کوەیت
کپ
کچ
کچان
کچانی
کچانەی
کچی
کچیان
کچێنی
کچێک
کچێکی
کچێکیان
کچە
کچەي
کچەکان
کچەکانی
کچەکانیان
کچەکە
کچەکەی
کڕانک
کڕاکۆف
کڕواتیا
کڕکڕە
کڕۆواتیا
کڕۆکی
کڕی
کڕیار
کڕیاران
کڕیاری
کڕیارەکان
کڕین
کڕینی
کڕینەوەی
کڕیوە
کڕییەوە
کگم
کڵابی
کڵاش
کڵاو
کڵاوی
کڵێسا
کڵێساکان
کڵێساکانی
کڵێساکە
کڵێسای
کڵێسایەکی
کڵێسەی
کۆ
کۆب
کۆبانی
کۆبانێ
کۆبونەوە
کۆبونەوەی
کۆبوونەوە
کۆبوونەوەکان
کۆبوونەوەکانی
کۆبوونەوەکە
کۆبوونەوەی
کۆبوونەوەیەک
کۆبوونەوەیەکی
کۆبووەوە
کۆبکاتەوە
کۆبکەنەوە
کۆت
کۆتا
کۆتای
کۆتایدا
کۆتایی
کۆتاییان
کۆتاییدا
کۆتاییھاتنی
کۆتاییھێنان
کۆتاییی
کۆتایییەکانی
کۆتاییەکانی
کۆتدیڤوار
کۆتر
کۆترە
کۆتۆل
کۆخ
کۆد
کۆدی
کۆدێکی
کۆدە
کۆدەبنەوە
کۆدەبێتەوە
کۆدەنگی
کۆدەکاتەوە
کۆدەکان
کۆدەکانی
کۆدەکەنەوە
کۆرد
کۆردۆبا
کۆرس
کۆرسی
کۆرلیۆن
کۆرپەلە
کۆرۆنا
کۆرۆنای
کۆری
کۆریا
کۆریای
کۆریایی
کۆرییەکان
کۆرییەکانی
کۆست
کۆستاریکا
کۆسرەت
کۆسل
کۆسپ
کۆسۆڤۆ
کۆسە
کۆسەی
کۆشش
کۆششی
کۆشک
کۆشکی
کۆشکێکی
کۆشکە
کۆشکەکانی
کۆشکەکە
کۆشی
کۆفی
کۆلارە
کۆلن
کۆلومبیا
کۆلکە
کۆلکەوتارەکان
کۆلکەوتارەکانی
کۆلۆرادۆ
کۆلۆمبیا
کۆلی
کۆلیژی
کۆلێت
کۆلێجی
کۆلێرا
کۆلێژ
کۆلێژی
کۆلێژە
کۆلێژەکان
کۆلێژەکانی
کۆلێژەکە
کۆم
کۆما
کۆمار
کۆماری
کۆماریی
کۆمارییەکان
کۆمارێکی
کۆمارە
کۆمارەکان
کۆمارەکانی
کۆمبات
کۆمسیۆنی
کۆمنز
کۆمه
کۆمپانیا
کۆمپانیانەی
کۆمپانیاکان
کۆمپانیاکانی
کۆمپانیاکە
کۆمپانیاکەی
کۆمپانیای
کۆمپانیایانەی
کۆمپانیایی
کۆمپانیایە
کۆمپانیایەک
کۆمپانیایەکی
کۆمپانیایەکە
کۆمپیوتەر
کۆمپیوتەردا
کۆمپیوتەری
کۆمپیوتەرە
کۆمپیوتەرەکان
کۆمکاری
کۆمکاریەکە
کۆمۆدۆ
کۆمۆنوێلت
کۆمۆنیزم
کۆمۆنیست
کۆمۆنیستی
کۆمۆنیستە
کۆمۆنیستەکان
کۆمیتەکە
کۆمیتەی
کۆمیدی
کۆمیدیا
کۆمیدیاکارە
کۆمیدیای
کۆمیدیی
کۆمیدییە
کۆمیدییەکانی
کۆمیسیۆن
کۆمیسیۆنی
کۆمیک
کۆمیکس
کۆمیکی
کۆمیکە
کۆمیکەکان
کۆمیکەکانی
کۆمێدی
کۆمێدیای
کۆمێدیی
کۆمێدییە
کۆمە
کۆمەلێک
کۆمەک
کۆمەکی
کۆمەڵ
کۆمەڵانی
کۆمەڵایەتی
کۆمەڵایەتیدا
کۆمەڵایەتیی
کۆمەڵایەتییە
کۆمەڵایەتییەوە
کۆمەڵایەتییەکان
کۆمەڵایەتییەکاندا
کۆمەڵایەتییەکانی
کۆمەڵایەتیەکان
کۆمەڵناسی
کۆمەڵکوژ
کۆمەڵکوژی
کۆمەڵکوژیی
کۆمەڵگا
کۆمەڵگادا
کۆمەڵگاکانی
کۆمەڵگاکە
کۆمەڵگای
کۆمەڵگایە
کۆمەڵگایەک
کۆمەڵگایەکی
کۆمەڵگە
کۆمەڵگەدا
کۆمەڵگەی
کۆمەڵگەیەکی
کۆمەڵی
کۆمەڵیک
کۆمەڵێ
کۆمەڵێک
کۆمەڵێکی
کۆمەڵە
کۆمەڵەدا
کۆمەڵەکان
کۆمەڵەکانی
کۆمەڵەکە
کۆمەڵەکەی
کۆمەڵەی
کۆمەڵەیە
کۆمەڵەیەک
کۆمەڵەیەکی
کۆن
کۆنان
کۆنانی
کۆنت
کۆنترۆل
کۆنترۆلی
کۆنترۆڵ
کۆنترۆڵکردنی
کۆنترۆڵی
کۆنترین
کۆنتڕۆل
کۆنتڕۆلی
کۆنتڕۆڵ
کۆنتڕۆڵکردنی
کۆنتڕۆڵی
کۆندا
کۆندۆم
کۆنراد
کۆنستانتین
کۆنسڵی
کۆنسۆلی
کۆنسێرت
کۆنسێرتی
کۆنسێرتێک
کۆنسێرتێکی
کۆنسێرتەکانی
کۆنفرانس
کۆنفرانسی
کۆنفرانسێکی
کۆنفلیکت
کۆنفڕانسی
کۆنفیدراڵی
کۆنن
کۆنکاکاف
کۆنکریت
کۆنگ
کۆنگرێس
کۆنگرێسی
کۆنگرە
کۆنگرەکانی
کۆنگرەکە
کۆنگرەی
کۆنگرەیە
کۆنگرەیەدا
کۆنگرەیەکی
کۆنگۆ
کۆنۆھا
کۆنی
کۆنیشانی
کۆنیشانەکانی
کۆنە
کۆنەوە
کۆنەکان
کۆنەکانی
کۆنەکە
کۆنەکەی
کۆهگیلوویە
کۆون
کۆي
کۆپا
کۆپنھاگن
کۆپۆلا
کۆپی
کۆپییەکی
کۆپەرنیکۆس
کۆچ
کۆچبەران
کۆچبەرانی
کۆچبەری
کۆچبەرە
کۆچکردن
کۆچکردنی
کۆچکردوو
کۆچکردووی
کۆچی
کۆچیان
کۆچیدا
کۆچیی
کۆچەر
کۆچەرانی
کۆچەری
کۆڕ
کۆڕبەندی
کۆڕۆنا
کۆڕی
کۆڕەک
کۆڤید
کۆک
کۆکراونەتەوە
کۆکراوە
کۆکراوەتەوە
کۆکراوەی
کۆکراوەیەکی
کۆکردنەوە
کۆکردنەوەی
کۆکردووەتەوە
کۆکردۆتەوە
کۆکردەوە
کۆکس
کۆکن
کۆکۆیی
کۆکە
کۆکەرەوەی
کۆگا
کۆگای
کۆگایەکی
کۆگۆرۆ
کۆڵ
کۆڵان
کۆڵن
کۆڵومبس
کۆڵۆمبی
کۆڵۆمبیا
کۆڵۆن
کۆڵی
کۆڵەسە
کۆڵەکە
کۆڵەکەی
کۆھگیلوویە
کۆی
کۆیان
کۆیلایەتی
کۆیلی
کۆیلە
کۆیلەکان
کۆیلەی
کۆیک
کۆیی
کۆیە
کی
کیا
کیبۆرد
کیبیک
کیتس
کید
کیس
کیسی
کیسێ
کیش
کیشلۆڤسکی
کیشوەر
کیشوەری
کیشوەرە
کیشوەرەکان
کیشوەرەکانی
کیشیمۆتۆ
کیلۆ
کیلۆمیتری
کیلۆمەتر
کیلۆمەتری
کیلۆمەترێکی
کیلۆمەترە
کیلۆگرام
کیلۆگرامی
کیلیان
کیم
کیمیا
کیمیاباران
کیمیابارانی
کیمیادا
کیمیازانی
کیمیاوی
کیمیای
کیمیایی
کیمیاییی
کیمیایییە
کیمیایییەکان
کیمیاییە
کیمیاییەکان
کین
کینگ
کینگز
کینیا
کینە
کیو
کیونگ
کیپ
کیۆتۆ
کیێڤ
کێ
کێبڕکێ
کێبڕکێی
کێبێک
کێر
کێری
کێش
کێشا
کێشان
کێشانی
کێشانە
کێشانەوەی
کێشانەی
کێشاوە
کێشایەوە
کێشراوە
کێشه
کێشکردن
کێشکردنی
کێشی
کێشیان
کێشێکی
کێشە
کێشەکان
کێشەکانی
کێشەکە
کێشەکەی
کێشەی
کێشەیان
کێشەیە
کێشەیەک
کێشەیەکی
کێف
کێلی
کێلەسپی
کێلەشین
کێم
کێن
کێنت
کێنز
کێنی
کێنیدی
کێو
کێوی
کێوە
کێوەکان
کێوەکانی
کێپلەر
کێڤن
کێڤین
کێک
کێڵگە
کێڵگەکانی
کێڵگەی
کێڵگەیەکی
کێڵی
کێیە
کە
کەبیر
کەبە
کەتیایدا
کەتیبەی
کەتێیدا
کەتەلۆنیا
کەدواتر
کەدەکاتە
کەدەکەوێتە
کەر
کەراچی
کەربەلا
کەرت
کەرتی
کەرتەکانی
کەروێشک
کەرکووک
کەرکووکی
کەرکوک
کەری
کەریم
کەریماوا
کەریمی
کەرە
کەرەج
کەرەستە
کەرەستەکان
کەرەستەکانی
کەرەستەی
کەرەفتو
کەرەم
کەرەنتین
کەرەنتینە
کەرەوە
کەس
کەسان
کەسانی
کەسانێک
کەسانێکی
کەسانە
کەسانەی
کەسایەتی
کەسایەتیی
کەسایەتییە
کەسایەتییەک
کەسایەتییەکان
کەسایەتییەکانی
کەسایەتییەکی
کەسایەتییەکە
کەسایەتییەکەی
کەسایەتیە
کەسایەتیەکی
کەسدا
کەسن
کەسنەزان
کەسنەزانی
کەسوکاری
کەسی
کەسیان
کەسیر
کەسیش
کەسیی
کەسییەکان
کەسێ
کەسێتی
کەسێتیی
کەسێک
کەسێکدا
کەسێکی
کەسێکیش
کەسێکە
کەسێکەوە
کەسە
کەسەوە
کەسەکان
کەسەکە
کەسەی
کەسەیە
کەش
کەشتی
کەشتیوانی
کەشتیگەلی
کەشتیی
کەشتییە
کەشتییەک
کەشتییەکان
کەشتییەکانی
کەشتییەکی
کەشتییەکە
کەشتییەکەی
کەشتیە
کەشتیەکی
کەشتیەکە
کەشمیر
کەشناسی
کەشوھەوا
کەشوھەوای
کەشی
کەشێکی
کەشە
کەعبە
کەل
کەلار
کەلام
کەلان
کەلاوەکانی
کەلتور
کەلتوری
کەلتوور
کەلتووری
کەلسیۆم
کەلوپەل
کەلوپەلی
کەلوپەلە
کەلک
کەلھوڕی
کەلێنی
کەلە
کەلەساڵی
کەلەسەر
کەلەلایەن
کەلەپووری
کەم
کەمال
کەمان
کەمانچە
کەمانچەژەن
کەماڵ
کەمایەتی
کەمایەتییە
کەمایەتییەکان
کەمبوونی
کەمبوونەوە
کەمبوونەوەی
کەمبۆدیا
کەمبەرباچ
کەمتر
کەمتری
کەمترین
کەمترە
کەمخوێنی
کەمدا
کەمدەکاتەوە
کەمن
کەموکوڕی
کەمي
کەمپی
کەمپینی
کەمپێکی
کەمپەینی
کەمکرایەوە
کەمکردنەوە
کەمکردنەوەی
کەمکردەوە
کەمی
کەمیان
کەمیش
کەمینە
کەمینەکان
کەمینەکانی
کەمینەی
کەمینەیەک
کەمینەیەکی
کەمیی
کەمێک
کەمە
کەمەر
کەمەرەیی
کەمەندی
کەمەوە
کەن
کەنار
کەناراوی
کەناراویەکانی
کەناراوەکانی
کەناری
کەنارەکانی
کەناوی
کەناڵ
کەناڵی
کەناڵێکی
کەناڵە
کەناڵەکانی
کەناڵەکە
کەند
کەنداو
کەنداوی
کەنداوە
کەندی
کەنعان
کەنیسە
کەنیسەی
کەنەدا
کەنەدای
کەنەدایە
کەنەدی
کەنەدییە
کەنەدییەکان
کەنەدییەکانی
کەو
کەوا
کەوابوو
کەواتە
کەوانە
کەوانەی
کەوایە
کەوت
کەوتبوو
کەوتبووە
کەوتن
کەوتنی
کەوتنە
کەوتنەوە
کەوتونەتە
کەوتوو
کەوتوون
کەوتوونەتە
کەوتووە
کەوتووەتە
کەوتووەتەناحیەی
کەوتۆتە
کەوتە
کەوتەوە
کەوسەر
کەونار
کەوی
کەوە
کەوەی
کەي
کەپێشتر
کەچ
کەچی
کەڕ
کەڕوو
کەڕووە
کەڕەت
کەژاڵ
کەڵاتەرزان
کەڵک
کەڵکی
کەڵکیان
کەڵھور
کەڵھوڕ
کەڵھوڕی
کەڵەکە
کەھف
کەی
کەیت
کەیتی
کەیج
کەیخەسرەو
کەیس
کەیسی
کەیسەکە
کەیفی
کەین
کەیوان
کەیپ
کەیپڤەرد
کەیھان
گ
گا
گابریل
گابریێل
گابۆن
گاتس
گارد
گاردیان
گارسیا
گاری
گاز
گازى
گازۆلین
گازی
گازینۆ
گازینۆکانی
گازینۆی
گازێکی
گازە
گازەکان
گازەکانی
گازەکە
گالاکسی
گالیسکە
گالیسکەی
گالیلۆ
گالیلێو
گالیلەی
گالێری
گالەری
گاما
گامبیا
گانا
گاندۆڵفینی
گاندی
گاپیڵۆن
گاڵتە
گاڵتەی
گای
گایا
گراف
گرافی
گرافیت
گرافیک
گرافیکی
گرام
گرامی
گران
گرانت
گرانترین
گراند
گرانی
گرانە
گراھام
گرت
گرتبوو
گرتن
گرتنی
گرتنیان
گرتنە
گرتنەوەی
گرتووخانەی
گرتووە
گرتووەتەوە
گرتوە
گرتۆتە
گرتۆتەوە
گرتە
گرتەبەر
گرتەوە
گرتەی
گرتەیەکی
گرد
گردبوونەوە
گردبوونەوەیەکی
گردی
گردە
گردەکانی
گرفت
گرفتی
گرفتەکانی
گرنگ
گرنگتر
گرنگترین
گرنگترینیان
گرنگترە
گرنگن
گرنگی
گرنگیان
گرنگیدان
گرنگیی
گرنگییان
گرنگییەکی
گرنگیەکی
گرنگە
گرنگەکان
گرنگەکانی
گرووپ
گرووپی
گرووپێک
گرووپێکی
گرووپە
گرووپەکان
گرووپەکانی
گرووپەکە
گرووپەکەی
گروپ
گروپی
گروپێک
گروپێکی
گروپە
گروپەکە
گرژبوونی
گرژی
گرک
گری
گریان
گریمانە
گریمانەی
گریمانەیی
گرین
گرینادا
گرینلەند
گرینگ
گرینگترین
گرینگترینیان
گرینگی
گرینگییەکی
گرینگە
گرینگەکان
گرینگەکانی
گریک
گریکی
گریگۆری
گرێ
گرێبەست
گرێبەستی
گرێبەستێک
گرێبەستێکی
گرێبەستەکە
گرێبەستەکەی
گرێت
گرێتا
گرێدان
گرێدانی
گرێگ
گرێی
گرەو
گرەوکردن
گرەوی
گرەی
گرەیس
گشت
گشتى
گشتپرسی
گشتگر
گشتگیر
گشتگیری
گشتی
گشتیان
گشتیدا
گشتیی
گشتییە
گشتییەوە
گشتییەکان
گشتییەکانی
گشتیەکان
گفتووگۆ
گفتووگۆی
گفتوگۆ
گفتوگۆکردن
گفتوگۆی
گفتوگۆیەکی
گل
گلاس
گلاسگۆ
گلوکۆز
گلگامێش
[...]
