!
"
#
##0
##1
##10
##11
##12
##13
##14
##15
##16
##17
##18
##19
##2
##20
##21
##22
##23
##24
##25
##26
##27
##28
##29
##3
##30
##31
##32
##33
##34
##35
##36
##37
##38
##39
##4
##40
##41
##42
##43
##44
##45
##46
##47
##48
##49
##5
##50
##51
##52
##53
##54
##55
##56
##57
##58
##59
##6
##60
##61
##62
##63
##64
##65
##66
##67
##68
##69
##7
##70
##71
##72
##73
##74
##75
##76
##77
##78
##79
##8
##80
##81
##82
##83
##84
##85
##86
##87
##88
##89
##9
##90
##91
##92
##93
##94
##95
##96
##97
##98
##99
$
%
&
'
(
)
*
+
,
-
.
/
0
00
000
0001
0002
0003
0004
0006
001
0019
002
0021
0022
0027
0028
003
0031
0032
0035
0036
004
005
006
007
0076
008
009
01
010
011
012
013
014
0140
015
016
017
018
019
0196
02
020
021
0210
0214
022
023
024
025
0253
026
0261
027
028
029
03
030
031
032
033
034
035
036
0362
037
038
039
04
040
041
042
043
044
045
046
047
048
049
05
050
051
052
053
0530
0538
054
055
056
057
058
059
06
060
061
062
063
064
065
066
067
068
069
07
070
071
072
073
074
075
076
077
078
079
08
080
081
082
083
0836
084
085
086
0865
087
088
089
09
090
091
092
093
094
095
096
097
098
099
1
10
100
1000
1001
1002
1006
1007
101
1010
1016
1017
102
1021
1023
1024
1025
1029
103
1035
1037
1038
104
1040
1046
105
1050
1051
106
1063
107
1073
1075
1076
108
1080
1085
1086
1088
109
1090
1093
1095
1097
1098
1099
11
110
1100
1101
1103
1104
1109
111
1110
1111
1119
112
1126
113
1130
1131
1134
1136
1137
114
1145
1146
115
1150
116
1160
117
1170
1177
118
1180
1185
1186
119
1194
1198
1199
12
120
1200
12000
1204
121
1215
122
1220
1226
1227
123
1234
1235
124
1240
125
1250
1253
1254
1256
1257
1258
126
1260
1264
1266
1268
127
1270
1274
1275
1276
128
1280
1285
129
1290
1295
13
130
1300
1305
1307
131
1310
1315
1316
1318
1319
132
1320
1322
1325
1328
133
1330
1332
1336
134
1340
1348
1349
135
1350
1351
1352
1353
1355
1356
1358
136
1360
1364
1365
1366
1368
1369
137
1370
13700
1371
1377
1378
1379
138
1380
1385
1386
1387
139
1390
1397
14
140
1400
1402
141
1410
1412
1413
1415
142
1420
1425
1427
143
1430
1432
144
1440
145
1450
1452
1453
1455
146
1460
1461
1462
1464
1467
1468
1469
147
1470
1471
1472
1474
1475
1476
1477
1478
1479
148
1480
1483
1485
1489
149
1490
1492
1493
1494
1495
1497
1498
1499
15
150
1500
1501
1502
1503
1504
1505
1506
1507
1508
1509
151
1510
1511
1512
1513
1514
1515
1516
1517
1518
1519
152
1520
1521
1522
1523
1524
15240
1525
1526
1527
1528
1529
153
1530
1531
1532
1533
1534
1535
1536
1537
1538
1539
154
1540
1541
1542
1543
1544
1545
1546
1547
1548
1549
155
1550
1551
1552
1553
1554
1555
1556
1557
1558
1559
156
1560
1561
1562
1563
1564
1565
1566
1567
1568
1569
157
1570
1571
1572
1573
1574
1575
1576
1577
1578
1579
158
1580
1581
1582
1583
1584
1585
1586
1587
1588
1589
159
1590
1591
1592
1593
1594
1595
1596
1597
1598
1599
16
160
1600
1601
1602
1603
1604
1605
1606
1607
1608
1609
161
1610
1611
1612
1613
1614
1615
1616
1617
1618
1619
162
1620
1621
1622
1623
1624
1625
1626
1627
1628
1629
163
1630
1631
1632
1633
1634
1635
1636
1637
1638
1639
164
1640
1641
1642
1643
1644
1645
1646
1647
1648
1649
165
1650
1651
1652
1653
1654
1655
1656
1657
1658
1659
166
1660
1661
1662
1663
1664
1665
1666
1667
1668
1669
167
1670
1671
1672
1673
1674
1675
1676
1677
1678
1679
168
1680
1681
1682
1683
1684
1685
1686
1687
1688
1689
169
1690
1691
1692
1693
1694
1695
1696
1697
1698
1699
17
170
1700
1701
1702
1703
1704
1705
1706
1707
1708
1709
171
1710
1711
1712
1713
1714
1715
1716
1717
1718
1719
172
1720
1721
1722
1723
1724
1725
1726
1727
1728
1729
173
1730
1731
1732
1733
1734
1735
1736
1737
1738
1739
174
1740
1741
1742
1743
1744
1745
1746
1747
1748
1749
175
1750
1751
1752
1753
1754
1755
1756
1757
1758
1759
17590
176
1760
1761
1762
1763
1764
1765
1766
1767
1768
1769
177
1770
1771
1772
1773
1774
1775
1776
1777
1778
1779
178
1780
1781
1782
1783
1784
1785
1786
1787
1788
1789
179
1790
1791
1792
1793
1794
1795
1796
1797
1798
1799
18
180
1800
1801
1802
1803
1804
1805
1806
1807
1808
1809
181
1810
1811
1812
1813
1814
1815
1816
1817
1818
1819
182
1820
1821
1822
1823
1824
1825
1826
1827
1828
1829
183
1830
1831
1832
1833
1834
1835
1836
1837
1838
1839
184
1840
1841
1842
1843
1844
1845
1846
1847
1848
1849
185
1850
1851
1852
1853
1854
1855
1856
1857
1858
1859
186
1860
1861
1862
1863
1864
1865
1866
1867
1868
1869
187
1870
1871
1872
1873
1874
1875
1876
1877
1878
1879
188
1880
1881
1882
1883
1884
1885
1886
1887
1888
1889
189
1890
1891
1892
1893
1894
1895
1896
1897
1898
1899
19
190
1900
1901
1902
1903
1904
1905
1906
1907
1908
1909
191
1910
1911
1912
1913
1914
1915
1916
1917
1918
1919
192
1920
1921
1922
1923
1924
1925
1926
1927
1928
1929
193
1930
1931
1932
1933
1934
1935
1936
1937
1938
1939
194
1940
1941
1942
1943
1944
1945
1946
1947
1948
1949
195
1950
1951
1952
1953
1954
1955
1956
1957
1958
1959
196
1960
1961
1962
1963
1964
1965
1966
1967
1968
1969
197
1970
1971
1972
1973
1974
1975
1976
1977
1978
1979
198
1980
1981
1982
1983
1984
1985
1986
1987
1988
1989
199
1990
1991
1992
1993
1994
1995
1996
1997
1998
1999
2
20
200
2000
2000000
2001
2002
2003
2004
2005
2006
2007
2008
2009
201
2010
2011
2012
2013
2014
2015
2016
2017
2018
2019
202
2020
2021
2022
2023
2024
2025
203
2030
204
205
206
207
208
209
21
210
211
212
213
214
215
216
217
218
219
22
220
221
222
223
224
225
226
227
228
229
23
230
2307
231
232
233
234
235
236
237
238
239
24
240
241
242
243
244
245
246
247
248
249
25
250
2500
251
252
253
254
255
256
257
258
259
26
260
261
262
263
264
265
266
267
268
269
27
270
271
272
273
274
275
276
277
278
279
28
280
281
282
283
284
285
286
287
288
289
29
290
291
292
293
294
295
296
297
298
299
3
30
300
3000
301
302
303
304
305
306
307
3077
308
309
31
310
311
312
313
314
315
316
317
318
319
32
320
321
322
323
324
325
326
327
328
329
33
330
331
332
333
334
335
336
337
338
339
34
340
341
342
343
344
345
346
347
348
349
35
350
3500
351
352
353
354
355
356
357
358
359
36
360
361
362
363
364
365
366
367
368
369
37
370
371
372
373
374
375
376
377
378
379
38
380
381
382
383
384
385
386
387
388
389
39
390
391
392
393
394
395
396
397
398
399
4
40
400
4000
401
402
403
404
405
406
407
408
409
41
410
411
412
413
414
415
416
417
418
419
42
420
421
422
423
424
425
426
427
428
429
43
430
431
432
433
4331
434
435
436
437
438
439
44
440
441
442
443
444
445
446
447
448
449
45
450
451
452
453
454
455
456
457
4572
458
459
46
460
461
462
463
464
465
466
467
468
4687
469
47
470
471
472
473
474
475
476
477
478
479
48
480
481
482
483
484
485
486
487
488
489
49
490
491
492
493
494
495
496
497
498
499
5
50
500
5000
501
502
503
504
505
506
507
508
509
51
510
511
512
513
514
515
516
517
518
519
52
520
521
522
523
524
525
526
527
528
529
53
530
531
532
533
534
535
536
537
538
539
54
540
541
542
543
544
545
546
547
54713
548
549
55
550
551
552
553
554
555
556
557
558
559
56
560
561
562
563
564
565
566
567
568
569
57
570
571
572
573
574
575
576
577
578
579
58
580
581
582
583
584
585
586
587
588
589
59
590
591
592
593
594
595
596
597
598
599
6
60
600
6000
601
602
603
604
605
606
607
608
609
61
610
611
612
613
614
615
616
617
618
619
62
620
621
622
623
624
625
626
627
628
629
63
630
631
632
633
634
635
636
6361
637
638
639
64
640
641
642
643
644
645
646
647
648
649
65
650
651
652
653
654
655
656
657
658
6582
659
66
660
661
662
663
664
665
666
667
668
669
67
670
671
672
673
674
675
676
677
678
679
68
680
681
682
683
684
685
686
687
688
689
69
690
691
692
693
694
695
696
697
698
699
7
70
700
701
702
703
704
705
706
707
708
709
71
710
711
712
713
714
715
716
717
7173
718
719
72
720
721
722
723
724
725
726
727
728
729
73
730
731
732
733
734
735
736
737
738
739
74
740
741
742
743
744
745
746
747
748
749
75
750
751
752
753
754
755
756
757
758
759
75900
76
760
761
762
763
764
765
766
767
768
7681
769
77
770
771
772
773
774
775
776
777
778
779
78
780
781
782
783
784
785
786
787
788
789
79
790
791
792
793
794
795
796
797
798
799
8
80
800
801
802
803
804
805
806
807
8075
808
809
81
810
811
812
813
814
815
816
817
818
819
82
820
821
822
823
824
825
826
827
828
829
83
830
831
832
833
834
835
836
837
838
839
84
840
841
842
8424
843
8438
844
845
846
847
848
849
85
850
850215
851
852
853
854
855
856
857
858
859
86
860
861
862
863
864
865
866
867
868
869
87
870
871
8711
872
873
874
875
876
877
878
879
88
880
881
882
883
884
885
886
887
888
889
89
890
891
892
893
894
895
896
897
898
899
9
90
900
901
902
903
904
905
906
907
908
909
91
910
911
911388951
912
913
914
915
916
917
918
919
92
920
921
922
923
924
925
926
927
928
929
93
930
931
932
933
934
935
936
937
938
939
94
940
941
942
943
944
945
946
947
948
949
95
950
951
952
953
954
955
956
957
958
959
96
960
961
962
963
964
965
966
967
968
969
97
970
971
972
973
974
975
976
977
978
979
98
980
981
982
983
984
985
986
9860
987
988
989
99
990
991
992
993
994
995
996
997
998
999
:
;
<
=
>
?
@
[
\
]
^
_
`
a
aa
aaron
aaronek
ab
abad
abade
abadea
abadeak
abadia
abadiaren
abadin
abajo
abando
abandoko
abandonatu
abangoardia
abangoardiako
abantaila
abantailak
abanto
abar
abardura
abarren
abarretan
abaurrea
abbadia
abbas
abbaye
abbe
abbey
abbott
abc
abd
abdikatu
abdomeneko
abdu
abdul
abdullah
abe
abel
abeltzaintza
abendua
abenduak
abenduan
abenduaren
abendura
abendutik
abentura
abenturak
abenturazale
abenturazalea
abenturazko
abera
aberastasun
aberastasuna
aberastasunak
aberastasunaren
aberasten
aberastu
aberats
aberatsa
aberatsak
aberatsek
aberatsen
aberatsena
aberdeen
aberdeenshire
abere
abereak
abereen
aberri
aberria
aberriaren
abertzale
abertzalea
abertzaleak
abertzalearen
abertzaleek
abertzaleen
abertzaleko
abertzaletasuna
abertzaletasunaren
abesbatza
abeslari
abeslaria
abeslariak
abeslariaren
abesteko
abesten
abesti
abestia
abestiak
abestian
abestiarekin
abestiaren
abestien
abestietan
abestirik
abestu
abestutako
abestuz
abi
abia
abiada
abiadura
abiadurak
abiaduran
abiaduraren
abian
abiapuntu
abiapuntua
abiapuntura
abiarazi
abiatu
abiatuko
abiatuta
abiatutako
abiatuz
abiatzeko
abiatzen
abigail
abilezia
abizen
abizena
abizenak
abizenaren
ablatibo
abokatu
abokatua
abokatuak
abokatuen
abortua
about
abraham
abre
abril
abruzzo
abside
absidea
absolutibo
absolutoa
absolutu
absolutua
absolutuan
absolutuaren
abstentzioa
abstraktu
abstraktua
abstraktuak
abstrakzio
abu
aburuz
abusu
abuztu
abuztua
abuztuak
abuztuan
abuztuaren
abuztuko
ac
acad
acade
academia
academic
academy
acanthodactylus
acanthuridae
acanthurus
acb
acceso
access
accessed
accio
accipiter
accipitridae
account
ace
acer
acerca
acid
acipenser
acm
acosta
acrocephalus
across
act
acta
actas
actes
actinopterygii
action
active
activity
acto
actor
actriz
actual
actualidad
actuelle
acun
ad
ada
adam
adams
adan
adar
adarra
adarrak
adarraren
adarren
adarretan
adda
addams
addison
ade
adela
adelaida
adelaide
adi
adib
adibide
adibidea
adibideak
adibidean
adibiderik
adibidez
adiera
adieraz
adierazgarri
adierazgarria
adierazgarriak
adierazi
adierazia
adieraziko
adierazita
adierazitako
adieraziz
adierazle
adierazlea
adierazpen
adierazpena
adierazpenak
adierazpenaren
adierazpide
adieraztea
adierazteko
adierazten
adif
adigai
adigaia
adigaiak
adigaien
adige
adimen
adimena
adimenak
adimenaren
adin
adina
adinako
adinarekin
adinaren
adinean
adineko
adio
adiskide
adiskidea
adiskideak
adiskideen
adiskidetasun
adiskidetasuna
adiskidetu
aditu
aditua
adituak
adituek
adituen
adituk
aditz
aditza
aditzak
aditzaren
aditzen
aditzera
adizki
adjektibo
adjektiboaren
adlatibo
adler
administrador
administraiboki
administratibo
administratiboa
administratiboak
administratiboan
administratiboki
administration
administratzaile
administratzen
administrazio
administrazioa
administrazioak
administrazioan
administrazioaren
administrazioari
administrazioko
adn
ado
adolf
adolfo
adolphe
adoptatu
adore
adorea
ados
adostasun
adostasuna
adostasunik
adostu
adostutako
adour
adreilu
adreiluz
adreiluzko
adria
adrian
adriana
adrien
aduana
advanced
advances
adventure
adventures
ae
aeb
aebek
aeben
aebetako
aebetan
aebetara
aebk
aebko
aebn
aebtako
aek
aezkoa
aezkoako
af
afari
afaria
afera
affair
affaire
affairs
affinis
afganistan
afganistanen
afganistango
afghanistan
afiliatu
africa
african
africanus
afrika
afrikako
afrikan
afrikar
afrikara
afrikaren
afrikatik
afrique
afro
afroamerikar
afroamerikarrak
afrodita
after
ag
aga
again
against
agama
agamidae
agata
agatha
age
ageda
agencia
agency
agenda
agente
agentea
agenteak
agentzia
agentziak
agentziaren
ager
ageri
agerian
ageriko
agerikoa
agerpen
agerpena
agerpenak
agerpenen
agerraldi
agerraldia
agerre
agertoki
agertu
agertuko
agertutako
agertuz
agertzea
agertzeko
agertzen
ages
agian
agin
aginaga
agindu
agindua
aginduak
aginduetara
agindupean
agindupeko
aginduta
agindutako
aginduz
aginpide
aginpidea
agintaldi
agintaldia
agintaldian
agintaldiaren
agintari
agintaria
agintariak
agintariei
agintariek
agintarien
agintaritza
agintaritzaren
aginte
agintea
agintean
agintearen
agintepean
agintzen
agiri
agiria
agiriak
agirian
agirietan
agirre
agirrek
agirreren
agne
agnes
ago
agoitz
agortu
agortzen
agosto
agreement
agreg
agricoles
agriculture
agrupacio
agu
agua
aguas
aguilar
aguirre
agulhasko
agur
agurain
aguraingo
agure
agurea
agurra
agurtu
agusti
agustin
agustina
ah
ahaide
ahal
ahala
ahalbideratzen
ahalbidetu
ahalbidetuko
ahalbidetuz
ahalbidetzeko
ahalbidetzen
ahaldun
ahalegin
ahalegina
ahaleginak
ahalegindu
ahaleginean
ahaleginetan
ahalegintzen
ahalgarri
ahalgarria
ahalguztiduna
ahalguztidunak
ahalik
ahalko
ahalmen
ahalmena
ahalmenak
ahalmenaren
ahaltsua
ahari
ahate
ahaztu
ahizpa
ahizpak
ahizparekin
ahmad
ahmed
aho
ahoa
ahoak
ahoan
ahoaren
ahoko
aholkatu
aholkatzen
aholku
aholkua
aholkuak
aholkulari
aholkularia
aholkularitza
aholkurik
ahora
ahorros
ahoskatua
ahoskatzen
ahoskera
ahotik
ahots
ahotsa
ahotsak
ahotsaren
ahoz
ahozko
ahul
ahula
ahulak
ahuldu
ahulezia
ahultzen
ahuntz
ai
aia
aiako
aiarako
aiaraldea
aida
aids
aiestaran
aiete
aignan
aigues
ailegatu
ailegatzen
aimar
aime
ain
ainara
aingeru
aingerua
aingeruak
aingura
ainhoa
aintza
aintzakotzat
aintzane
aintzat
aintzinako
aintzira
aintzirak
aintzirako
aintziran
aintziraren
aintziren
aipa
aipagarri
aipagarria
aipagarriak
aipagarriena
aipagarrienak
aipamen
aipamena
aipamenak
aipatu
aipatua
aipatuko
aipaturiko
aipatutako
aipatuz
aipatzea
aipatzeko
aipatzekoa
aipatzekoak
aipatzen
aipu
aipua
aipuaren
air
airbus
aire
airea
aireak
airean
airearen
aireko
aireportu
aireportua
aireportuak
aireportuan
aireportuaren
aireportuen
aireportuko
aireratu
aireratzen
aires
aireseko
airesen
airesera
airesko
airetik
airez
airlines
airport
ais
aise
aisialdi
aisialdirako
aisne
aita
aitaginarreba
aitak
aitarekin
aitaren
aitarengandik
aitari
aitatzat
aiton
aitona
aitonak
aitonaren
aitor
aitoren
aitorpen
aitorpena
aitortu
aitortuz
aitortza
aitortzeko
aitortzen
aitzakia
aitziber
aitzin
aitzina
aitzindari
aitzindaria
aitzindariak
aitzindarietako
aitzindaritzat
aitzinean
aitzitik
aitzol
aix
aizkolari
aizkora
aizkorri
aizpuru
aizpurua
aj
ajax
ajul
ak
aka
akabatu
akad
akademia
akademiak
akademiako
akademian
akademiaren
akademiko
akademikoa
akademikoak
akademikoan
akal
akaso
akats
akatsa
akatsak
akatsen
akelarre
akemenestar
aki
akira
akitania
akitaniako
ako
akodon
akordio
akordioa
akordioak
akordioaren
akordiorik
akronimoa
akta
aktibatu
aktibatzen
aktibista
aktibitate
aktibitatea
aktibo
aktiboa
aktiboak
aktiboan
aktiboaren
aktiboen
aktiboetatik
aktiboki
aktore
aktorea
aktoreak
aktorearekin
aktorearen
aktoreek
aktoreekin
aktoreen
akusatu
akustikoa
akutua
akzio
akzioak
akziodun
akzioen
akziozko
al
ala
alaba
alabaina
alabak
alabama
alabamako
alabarekin
alabaren
alabari
alabarik
alabei
alabek
alabekin
alaben
alacant
alacanteko
alacantiko
alagoas
alai
alaia
alain
alaitz
alan
alarco
alargun
alarguna
alargunak
alarma
alaska
alaskako
alaudidae
alava
alave
alavesa
alba
albacete
albaceteko
albaitaria
albaitariak
albako
alban
albania
albaniako
albaniar
albany
albe
alberdania
alberdi
albert
alberta
alberti
alberto
albin
albirex
albiste
albistea
albisteak
albo
alboan
alboetako
alboetan
alboka
alboko
alboratu
albornoz
albotik
albrecht
album
albuma
albumak
albumaren
albumean
albumeko
albums
alca
alcala
alcalde
alcaldes
alcedinidae
alda
aldaera
aldaerak
aldagai
aldagaia
aldagaiak
aldagaien
aldaketa
aldaketak
aldaketaren
aldaketari
aldaketarik
aldaketek
aldaketen
aldakor
aldakorra
aldakorrak
aldakuntza
aldamenean
aldameneko
aldapa
aldare
aldarea
aldarrikapen
aldarrikapena
aldarrikapenak
aldarrikatu
aldarrikatuz
aldarrikatzeko
aldarrikatzen
aldatu
aldatua
aldatuko
aldatuta
aldatuz
aldatzea
aldatzeko
aldatzen
alde
aldea
aldeak
aldean
aldearekin
aldearen
aldeek
aldeen
aldeetako
aldeetan
aldeko
aldekoa
aldekoak
aldekoek
aldekoen
aldendu
aldenduta
aldentzen
aldera
alderako
alderantziz
alderantzizko
alderantzizkoa
alderatu
alderatuta
alderatuz
alderatzen
alderdi
alderdia
alderdiak
alderdian
alderdiarekin
alderdiaren
alderdiek
alderdien
alderdietako
alderdiko
alderdirik
alderditik
alderik
aldetik
aldez
aldezten
aldi
aldia
aldiak
aldian
aldietan
aldiko
aldiri
aldiriak
aldirien
aldirietako
aldiriko
aldiro
alditan
aldiz
aldizka
aldizkako
aldizkakoa
aldizkari
aldizkaria
aldizkariak
aldizkarian
aldizkariaren
aldizkarien
aldizkarietan
aldizkariko
aldizkarirako
aldizkaritan
aldo
aldundia
aldundiak
aldundiaren
aldundiko
ale
alea
aleak
aleazio
alec
alegia
alegiazko
alegoria
alegre
alegri
alegria
alejandra
alejandro
aleksandr
alelo
aleman
alemana
alemanak
alemanek
alemanen
alemanez
alemanezko
alemania
alemaniak
alemaniako
alemanian
alemaniar
alemaniara
alemaniaren
alemaniari
alemaniarra
alemaniarrak
alemaniarraren
alemaniarrek
alemaniarren
alemaniatik
alemanieraz
alepocephalidae
alergia
alerta
alessandriako
alessandro
alestidae
alex
alexander
alexandra
alexandre
alexandria
alexandriako
alexandro
alexei
alexis
alfa
alfabetatze
alfabeto
alfabetoa
alfaguara
alfaro
alferrik
alferrikako
alfonso
alfontso
alfred
alfredo
alga
algak
alge
algo
algoritmo
algoritmoa
algoritmoak
algorta
algun
alguna
algunas
algunos
ali
aliantza
aliantzak
alianza
aliatu
aliatua
aliatuak
aliatuek
aliatuen
alicante
alice
alicia
alien
aligned
alison
alive
aljazeera
aljebra
aljeria
aljeriako
aljerian
aljeriar
alkandora
alkar
alkartasuna
alkate
alkatea
alkateak
alkatearen
alkatetza
alkiza
alkizako
alkohol
alkohola
alkoholaren
alkorta
all
alla
allah
allan
alle
allegheny
allen
allende
alli
alliance
allier
allison
allmusic
allobates
alma
almeida
almendra
almeri
almeriako
almirante
almirantea
almodo
almudena
aloe
alokairu
alokairuak
alokairuan
alokatu
alone
alonso
alor
alorra
alorrean
alorreko
alorretan
alpe
alpeak
alpeetako
alpeetan
alpes
alpetar
alpha
alphonse
alpine
alpinista
als
alsazia
also
alt
alta
altai
altamira
alte
alter
alternatiba
alternatibo
alternatiboa
alternatiboak
alternative
altitude
alto
altsasu
altsasuko
altsasun
altu
altua
altuagoa
altuagoak
altuak
altuena
altuenak
altuera
altuerako
altueran
altuerara
altueraren
altuetan
altuko
altuna
altura
altxa
altxamendu
altxamendua
altxamenduaren
altxatu
altxatutako
altxatzea
altxatzeko
altxatzen
altxor
altxorra
altxorrak
altxorraren
altza
altzairu
altzairua
altzairuzko
altzari
altzariak
aluminio
aluminioa
aluminiozko
alvarez
alvaro
alves
always
am
ama
amadeo
amadeus
amaia
amaiera
amaierako
amaieran
amaierara
amaierarako
amaieraren
amaieratik
amaigabea
amairu
amaitu
amaitua
amaituko
amaituta
amaitutakoan
amaitutzat
amaituz
amaitzea
amaitzean
amaitzeko
amaitzen
amaiur
amaiurko
amak
amalia
amama
amand
amanda
amanita
amar
amara
amaral
amarekin
amaren
amari
amatasun
amateur
amateurra
amaya
amazing
amazon
amazona
amazonas
amazoniako
amb
amber
ambiente
ame
amelia
amen
amendi
amenofis
america
american
americana
americans
amerika
amerikako
amerikan
amerikar
amerikara
amerikaren
amerikarra
amerikarrak
amerikarraren
amerikarrek
amerikarren
ameriketako
ameriketan
ameriketara
amerindiar
ames
amets
ametsa
ametsak
ametsetan
amezaga
ami
amigo
amigos
amildegi
amina
aminoazido
ammonite
amnesty
amnistia
amnistiaren
amo
amodio
amodioa
amodiozko
amolops
amon
amona
amonak
amonaren
amonen
among
amonio
amor
amore
amorebieta
amores
amorratua
amorrua
amos
amour
amparo
amphiesma
amphiglossus
amphiliidae
amphiprion
amphisbaena
amphisbaenidae
amsterdam
amsterdamen
amsterdamgo
amuarrain
amuriza
amurrio
amy
an
ana
anablepsoides
anagrama
anai
anaia
anaiak
anaiarekin
anaiaren
anaiari
anaiek
anaiekin
anaien
anaitasuna
anako
anales
analisi
analisia
analisiak
analisian
analisiaren
analista
analitikoa
analogia
analysis
anarkia
anarkista
anarkistak
anas
anastasia
anastasio
anatidae
anatolia
anatoliako
anatomi
anatomia
anatomy
anaya
anberes
anberesko
anboto
anbulantzia
ancient
ancistrus
and
anda
andaluci
andaluzia
andaluziako
andaluzian
andaluziar
andaluziarra
andana
andatza
ande
andeetako
ander
andere
anderea
andereinoa
anderen
anders
andersen
anderson
andersson
andi
andia
andima
andoain
andoaingo
andoni
andorra
andorrako
andra
andrade
andre
andrea
andreak
andrearen
andreas
andrei
andrena
andres
andreu
andrew
andrews
android
andromeda
andy
ane
anemia
anen
anestesia
anexionatu
anezka
anfibio
anfibioen
ange
angel
angela
angeles
angeleseko
angelesen
angelesko
angelina
angelo
angels
angelu
angelua
angeluak
angeluarra
angeluko
angeluzuzen
angeluzuzena
angle
angles
anglo
angola
anguidae
angulo
angus
anhitz
ani
anima
animal
animales
animali
animalia
animaliak
animaliaren
animaliek
animaliekin
animalien
animalietan
animals
animation
animatu
animazio
animazioa
animaziozko
anime
anita
anitz
anitza
anitzak
anitzeko
anitzen
anitzetan
aniversario
aniztasun
aniztasuna
aniztasunaren
anjel
anjou
anker
ann
anna
annales
annals
anne
annette
anni
annie
anniversary
anno
announces
annual
annurev
ano
anoeta
anoetako
anolis
anomalia
anonimo
anonimoa
anos
anostomidae
another
ans
anselmo
ansorena
ant
anta
antartika
antartikako
antartikan
ante
antena
antes
anthology
anthony
anthropology
anthus
anti
antibiotiko
antigeno
antigorputz
antigorputzak
antigu
antigua
antiguo
antioko
antiquado
antiquity
anto
antoine
antoinette
antolaketa
antolaketan
antolakuntza
antolamendu
antolamendua
antolatu
antolatua
antolatuak
antolatuko
antolaturik
antolaturiko
antolatuta
antolatutako
antolatuz
antolatzaile
antolatzailea
antolatzaileek
antolatzea
antolatzeko
antolatzen
antologi
antologia
anton
antoni
antonia
antonin
antonio
antoniok
antonioren
antonov
antony
antrim
antropologi
antropologia
antropologo
antropologoa
antsietatea
antso
antton
antxoa
antxon
antz
antza
antzara
antzeko
antzekoa
antzekoak
antzekotasun
antzekotasuna
antzekotasunak
antzeman
antzemateko
antzematen
antzera
antzerako
antzerakoa
antzerki
antzerkia
antzerkiak
antzerkian
antzerkiaren
antzerkigile
antzerkigilea
antzerkiko
antzerkirako
antzerti
antzezlan
antzezlana
antzezlanak
antzezlanean
antzezle
antzezlea
antzezpen
antzezpena
antzezteagatik
antzezten
antzeztu
antzeztua
antzeztutako
antzeztuz
antzina
antzinako
antzinakoa
antzinakoena
antzinaroan
antzinaroko
antzinate
antzinatean
antzinateko
antzinatik
antzinean
antzoki
antzokia
antzokiak
antzokian
antzokiaren
antzokiko
anuario
anura
any
anza
ao
aorta
ap
apache
apain
apaindegia
apaindegiak
apaindu
apaindua
apainduak
apaindura
apainduriko
apainduta
apaindutako
apaingarri
apaingarriak
apainketa
apaintzeko
apaintzen
apaiz
apaiza
apaizak
apaizaren
apaizek
apaizen
apaiztu
apal
apala
apalagoa
apalak
apalategi
apaolaza
aparatu
aparatua
aparatuaren
aparkaleku
aparkalekua
aparta
apartamentu
apartamentuak
aparte
aparteko
apellaniz
apenas
apes
apezpiku
apezpikua
apezpikuak
apezpikuaren
aphyosemion
api
apiril
apirila
apirilak
apirilaren
apirilean
apirileko
apirilera
apiriletik
apistogramma
aplidium
aplika
aplikatu
aplikatua
aplikatuko
aplikatutako
aplikatuz
aplikatzea
aplikatzeko
aplikatzen
aplikazio
aplikazioa
aplikazioak
aplikazioaren
aplikazioen
aplikazioetan
apo
apodidae
apogon
apogonidae
apollo
apolo
apostolu
apostoluak
apostoluaren
apostoluen
app
appalaches
apple
application
applications
applied
approach
approx
apraiz
apre
aprendizaje
april
apriorizko
apristurus
aprobetxatu
aprobetxatuz
aprobetxatzeko
aprobetxatzen
aproposa
aproximacio
apteronotidae
apud
apulia
apuntes
apur
apurka
apurtu
apurtzeko
apurtzen
apus
apustu
apustua
aq
aqua
aquarius
aque
aquel
aquellos
aqui
aquila
ar
ara
arab
araba
arabako
araban
arabar
arabarra
arabera
araberako
araberakoa
araberakoak
arabia
arabiako
arabian
arabiar
arabiarra
arabiarrak
arabiarrek
arabiarren
arabiera
arabieraz
arabierazko
arago
aragoi
aragoiar
aragoieraz
aragoiko
aragoikoa
aragoin
aragon
aragone
aragonesa
arakatu
arakil
aralar
aralarko
aramaio
aramaioko
aran
arana
aranak
aranaren
aranatz
aranburu
aranda
arango
aranguren
arantxa
arantza
arantzazu
arantzazuko
aranzadi
aratz
arau
araua
arauak
araubide
araudi
araudia
arauen
arautu
arautzeko
arautzen
arazi
arazo
arazoa
arazoak
arazoaren
arazoari
arazoei
arazoek
arazoen
arazoengatik
arazoetako
arazoetan
arazoetarako
arazorik
arbaso
arbasoa
arbasoak
arbasoek
arbasoen
arbelaitz
arbola
arbor
arbuiatu
arbuiatzen
arc
arce
arch
archaeological
archaeology
arche
archer
archibald
architecture
archive
archived
archives
archivo
arco
arcos
arctic
ard
ardatz
ardatza
ardatzak
ardatzaren
ardatzean
arde
ardeche
ardenak
ardi
ardiak
ardija
ardo
ardoa
ardoak
ardoaren
arduino
ardura
arduradun
arduraduna
arduradunak
arduradunek
ardurak
ardurapean
arduratu
arduratuko
arduratzen
are
area
areago
areagotu
areagotuz
areagotzea
areagotzeko
areagotzen
arekin
arellano
aren
arena
arenas
arerio
ares
aresti
arestian
areta
areto
aretoa
aretoak
aretoan
aretoetan
aretxabaleta
aretxabaletako
arg
arga
argazki
argazkia
argazkiak
argazkien
argazkietan
argazkigintza
argazkilari
argazkilaria
argazkilaritza
argentina
argentinak
argentinako
argentinan
argentinar
argentinara
argentinaren
argentinarra
argentino
argi
argia
argiago
argiagoa
argiak
argian
argiaren
argibide
argibideak
argien
argiketaria
argiketariak
argin
argipena
argirik
argit
argitaletxe
argitaletxea
argitaletxeak
argitaletxean
argitaletxearen
argitalpen
argitalpena
argitalpenak
argitalpenaren
argitalpenean
argitalpenen
argitalpenetan
argitan
argitara
argitaraldia
argitaratu
argitaratua
argitaratuak
argitaratuko
argitaraturiko
argitaratuta
argitaratutako
argitaratutakoa
argitaratuz
argitaratzaile
argitaratzailea
argitaratze
argitaratzea
argitaratzeko
argitaratzen
argitasun
argitasuna
argitu
argitzeko
argitzen
argizari
argiztapen
argonne
argovia
argt
argudiatu
argudiatuz
argudiatzen
argudio
argudioa
argudioak
argumentu
argumentua
argyll
arhynchobatidae
ari
aria
arian
arias
aribe
arie
ariel
aries
ariidae
ariketa
ariketak
arima
arimak
arimaren
arin
arina
arinago
arinagoa
arinagoak
arinak
arindu
arintzeko
arintzen
aristokrata
aristokrazia
aristokraziaren
aristoteles
aristotelesek
aristotelesen
aritmetika
aritmetiko
aritu
aritua
arituko
aritutako
aritutakoa
aritz
aritzea
aritzeko
aritzen
arizmendi
arizona
arizonako
ark
arkaitz
arkansas
arkansasko
arkeologia
arkeologiko
arkeologikoa
arkeologikoak
arkeologikoek
arkeologo
arkeologoa
arkeologoek
arkitekto
arkitektoa
arkitektoak
arkitektoaren
arkitektoek
arkitektoen
arkitektoniko
arkitektura
arkitekturak
arkitekturako
arkitekturan
arkitekturaren
arkitekturari
arku
arkua
arkuak
arkuaren
arkuen
arkume
arkupe
arlo
arloa
arloak
arloan
arloetan
arloko
arlotan
arm
arma
armada
armadak
armadako
armadan
armadarekin
armadaren
armadari
armadek
armaden
armadura
armagnac
armak
arman
armand
armando
armarik
armarri
armarria
armarriak
armarrian
armarriaren
armas
armatu
armatua
armatuak
armatuaren
armatuek
armatuen
arme
armen
armenia
armeniako
armenian
armeniar
armenieraz
armiarma
armin
armor
arms
armstrong
army
arn
arnaldo
arnas
arnasa
arnasketa
arnaud
arne
arno
arnold
aro
aroa
aroan
aroaren
aroko
arokoa
aromobatidae
arotik
around
arozena
arpilatu
arqueolo
arqueologi
arquitecto
arquitectos
arquitectura
arra
arraia
arrain
arraina
arrainak
arraindegi
arraindegiak
arrainen
arrak
arrakala
arrakasta
arrakastak
arrakastaren
arrakastarik
arrakastatsu
arrakastatsua
arrakastatsuak
arrakastatsuena
arrakastaz
arran
arrano
arranoa
arrantza
arrantzale
arrantzaleak
arrantzaleek
arrantzaleen
arrantzan
arrantzaren
arrapala
arraro
arraroa
arraroak
arras
arrasate
arrasateko
arrasaten
arrastaka
arrasto
arrastoa
arrastoak
arrastorik
arrate
arratia
arratoi
arratsalde
arratsaldean
arratsaldeko
arraun
arraunketa
arraunlari
arraunlaria
arraunlariak
arrautza
arrautzak
array
arraza
arrazak
arrazakeria
arrazako
arrazaren
arrazari
arrazen
arrazional
arrazionala
arrazoi
arrazoia
arrazoiak
arrazoiaren
arrazoibide
arrazoiengatik
arrazoietako
arrazoiketa
arrazoimen
arrazoimena
arrazoimenak
arrazoimenaren
arrazoirengatik
arrazoirik
arrazoizko
arrazola
arre
arrea
arreak
arreba
arrebak
arrebaren
arreben
arregi
arrek
arren
arrese
arrestek
arreta
arretaz
arri
arriaga
arriasgoiti
arriba
arrieta
arrillaga
arriola
arrisku
arriskua
arriskuak
arriskuan
arriskuaren
arriskurik
arriskutsu
arriskutsua
arriskutsuak
arrizabalaga
arro
arroa
arroak
arroan
arroaren
arroila
arroka
arrokak
arroken
arroko
arrondissement
arropa
arropak
arrosa
arrosak
arrosarioko
arrotz
arrotza
arrotzak
arroyo
arroz
arroza
arrue
arrunkeria
arrunt
arrunta
arruntak
arruntaren
arruntean
arrunten
arruntena
arruntenak
arruti
ars
arsenal
art
arte
artea
arteaga
arteak
artean
artearen
arteari
arteen
artehistoria
arteko
artekoa
artekoak
artelan
artelana
artelanak
artelanen
artemisia
artera
arteria
arteriak
artes
arteta
artetik
artetxe
arthroleptidae
arthroleptis
arthur
arti
artibai
article
articles
articulo
artieda
artificial
artifizial
artifiziala
artifizialak
artifizialaren
artifizialki
artikoa
artikoan
artikoaren
artikoko
artikulazio
artikulu
artikulua
artikuluak
artikuluan
artikuluaren
artikuluen
artikuluetan
artikulutik
artilea
artilleria
artiodaktiloen
artisau
artisauak
artisautza
artist
artista
artistak
artistaren
artistas
artistek
artistekin
artisten
artistiko
artistikoa
artistikoak
artistikoan
artistikoaren
artistikoaz
artists
artium
artizarra
artizarraren
arto
artoa
artois
artola
arts
artu
artur
arturo
artxibatua
artxibatze
artxibo
artxiboa
artxiboak
artzain
artzaina
artzainak
artzapezpiku
artzapezpikua
artze
artzibar
artzibarko
arxiv
arzak
arzallus
as
asa
asaldatu
asaldura
asanblada
ase
asegarce
aseguru
asensio
asentamendu
aseraggodes
asetzeko
asetzen
ash
ashikaga
ashley
asi
asia
asiako
asian
asiar
asiarrak
asier
asimetrikoa
asiriako
asiriar
asistentzia
aska
askapen
askapena
askapenaren
askapenerako
askatasun
askatasuna
askatasunak
askatasunaren
askatasunean
askatasunerako
askatasunez
askatu
askatuko
askatutako
askatuz
askatzea
askatzeko
askatzen
aske
askea
askeak
askean
askearen
askeen
askeko
aski
asko
askoan
askok
askoko
askorekin
askoren
askorentzat
askori
askorik
askotako
askotakoak
askotan
askotara
askotarako
askotariko
askotarikoa
askotarikoak
askotatik
askoz
asma
asmakizun
asmakizuna
asmakuntza
asmatu
asmatua
asmatutako
asmatzaile
asmatzailea
asmatzen
asmo
asmoa
asmoak
asmoarekin
asmorik
asmotan
asmoz
asnie
aso
asociacio
asp
aspaldi
aspaldian
aspaldidanik
aspaldiko
aspalditik
aspe
aspects
aspektu
aspidoscelis
aspx
assembly
assessment
associated
associates
association
aste
astea
astean
asteasu
astebete
asteburu
asteburuan
asteetan
astekari
astekaria
astekarian
asteko
astelehen
astelehenetik
aster
asterix
astero
asteroide
asteroidea
asteroideak
asteroidearen
asteroideen
astez
asti
astigarraga
astindu
astintzen
astiro
astiz
asto
astoa
astrid
astro
astroblepus
astrofisika
astrologia
astronauta
astronesthes
astronomia
astronomiako
astronomian
astronomiaren
astronomical
astronomiko
astronomo
astronomoa
astronomoak
astronomoek
astronomy
astrophoto
astrophysical
astrophysics
astun
astuna
astunak
asturiar
asturias
asturiasen
asturiasko
asturieraz
astyanax
asun
asuncio
at
ata
ataka
atal
atala
atalak
atalaren
atalean
ataleko
atalen
ataletan
atari
ataria
atariak
atarian
atariaren
atariko
atarrabia
ataun
ataza
ate
atea
ateak
atean
atearen
ateen
ateetan
ateko
atelopus
atenas
atenasen
atenasko
atenastar
atenea
ateneo
atentatu
atentatua
atentatuak
atentzioa
atera
aterako
aterata
ateratako
ateratzea
ateratzean
ateratzeko
ateratzen
ateraz
aterpe
aterpea
aterpetxea
atetik
atezain
atezaina
athens
atherinopsidae
athlete
athletic
athleticek
athleticeko
athleticen
athletics
ati
atik
atiko
atin
ations
atla
atlanta
atlantic
atlantiko
atlantikoa
atlantikoak
atlantikoan
atlantikoaren
atlantikoetako
atlantikoko
atlantiques
atlas
atlasa
atle
atleta
atletico
atletismo
atletismoko
atm
atmosfera
atmosferako
atmosferan
atmosferara
atmosferaren
atmosferikoa
atmospheric
atomiko
atomikoa
atomikoaren
atomo
atomoak
atomoaren
atomoen
atp
atque
atra
atractus
atributu
atseden
atsedena
atsegin
atsegina
atseginak
atseginez
atsekabea
attack
aturri
atutxa
atxaga
atxiki
atxikia
atxikimendu
atxikimendua
atxikita
atxikitako
atxikitzeko
atxikitzen
atxilo
atxiloketa
atxilotu
atxilotua
atxilotuak
atxilotuta
atxilotzeko
atze
atzealdea
atzealdean
atzealdeko
atzean
atzeko
atzelari
atzeman
atzemateko
atzematen
atzera
atzerakada
atzerantz
atzerapen
atzerapena
atzeratu
atzeratzen
atzerri
atzerrian
atzerriko
atzerrira
atzerritar
atzerritarrak
atzerritarren
atzetik
atzizki
atzizkia
atzo
au
aube
aubigny
aubin
auchenipteridae
auckland
aude
audientzia
audio
audioa
audrey
auf
auge
august
augusta
auguste
augustin
augusto
augustok
augustoren
augustus
aukera
aukerak
aukeraketa
aukeran
aukerarik
aukeratu
aukeratua
aukeratuak
aukeratuko
aukeratutako
aukeratzea
aukeratzeko
aukeratzen
aukeren
aula
aulki
aulkia
aumont
aun
aunamendi
aunque
aur
aura
aure
aurelio
aureus
auritz
aurka
aurkako
aurkakoa
aurkakoak
aurkari
aurkaria
aurkariak
aurkenerena
aurkezle
aurkezlea
aurkezleak
aurkezpen
aurkezpena
aurkezpenean
aurkeztea
aurkezteko
aurkezten
aurkeztu
aurkeztua
aurkeztuko
aurkeztutako
aurkeztuz
aurki
aurkibidea
aurkikuntza
aurkikuntzak
aurkikuntzaren
aurkitu
aurkitua
aurkituko
aurkituriko
aurkitutako
aurkituz
aurkitzea
aurkitzeko
aurkitzen
aurora
aurpegi
aurpegia
aurpegiak
aurpegian
aurpegiaren
aurpegiko
aurre
aurrea
aurrealde
aurrealdea
aurrealdean
aurrealdeko
aurrean
aurreikusi
aurreikusita
aurreikusitako
aurreikuspen
aurreikusten
aurrekari
aurrekaria
aurrekariak
aurrekaririk
aurreko
aurrekoa
aurrekoak
aurrekoaren
aurrekoen
aurrekontu
aurrekontua
aurrekontuak
aurrelari
aurrelaria
aurrena
aurreneko
aurrera
aurrerago
aurrerako
aurrerantz
aurrerantzean
aurrerapauso
aurrerapen
aurrerapena
aurrerapenak
aurreratu
aurreratua
aurreratuak
aurretiaz
aurretik
aurretiko
aurrez
aurrezki
aurrizki
aurrizkia
aurten
aurtenetxe
aus
ausardia
ausart
ausarta
ausartak
ausartu
ausartzen
ausaz
ausazko
auschwitz
auspoa
austen
austin
australia
australiako
australian
australiar
australiara
australiaren
australiarra
australis
austria
austriak
austriako
austriakoa
austrian
austriar
austriaren
austriarra
austriarrak
austriatik
austro
austrolebias
aut
auteur
author
authority
auto
autoa
autoak
autoan
autoaren
autobia
autobide
autobidea
autobidearen
autobiografia
autobiografikoa
autobiography
autobus
autobusa
autobusak
autodeterminazio
autodidakta
autoekoizpena
autoen
autoeskola
autoeskolak
automatiko
automatikoa
automatikoak
automatikoki
automobil
autonomi
autonomia
autonomo
autonomoa
autonomoak
autonomoan
autonomoaren
autonomoko
autor
autore
autorea
autoreak
autorearen
autores
autoritate
autoritatea
autoz
autre
autres
auvernia
aux
auzapeza
auzi
auzia
auziak
auzian
auziaren
auzitan
auzitara
auzitegi
auzitegia
auzitegiak
auzitegiaren
auzitegiko
auzo
auzoa
auzoak
auzoan
auzoaren
auzoari
auzoen
auzoetako
auzoetan
auzoko
auzora
auzotik
auzune
auzunea
av
ava
available
avant
ave
avec
avengers
aventura
aventuras
avenue
average
averages
aves
aveyron
avignon
avignongo
avila
avile
aviron
avispa
avit
aviv
avon
avre
avril
award
awards
away
ax
axel
axioma
axola
axular
ay
ayala
ayer
ayrshire
ayuntamiento
az
aza
azal
azala
azalak
azalaren
azaldu
azalduko
azaldutako
azalduz
azalean
azaleko
azalera
azaleran
azaleraren
azaleratu
azaleratzen
azaletik
azalpen
azalpena
azalpenak
azaltzea
azaltzeko
azaltzen
azaro
azaroa
azaroak
azaroan
azaroaren
azaroko
azarotik
azelerazio
azelerazioa
azen
azenarioa
azentua
azerbaijan
azerbaijango
azeri
azido
azidoa
azidoak
azienda
azkar
azkarate
azkarra
azkarrago
azkarragoa
azkarrak
azkarreko
azkarren
azkarrena
azkartu
azken
azkena
azkenak
azkenaldian
azkenean
azkeneko
azkenengo
azkenik
azkoien
azkoitia
azkoitiko
azkue
azkuek
aznar
azoka
azokan
azpeitia
azpeitian
azpeitiko
azpi
azpialdean
azpian
azpiazu
azpiegitura
azpiegiturak
azpiegituren
azpiespezie
azpifamilia
azpigenero
azpiko
azpimarratu
azpimarratuz
azpimarratzekoa
azpimarratzekoak
azpimarratzen
azpimediterraneoa
azpimultzo
azpiordena
azpitik
azpitituluak
aztarna
aztarnak
aztarnarik
aztarnategi
aztarnategia
aztarnategian
aztarnen
azter
aztergai
azterketa
azterketak
azterketan
azterketaren
azterketek
azterlan
aztertu
aztertuko
aztertuta
aztertutako
aztertuz
aztertzea
aztertzean
aztertzeko
aztertzen
azti
aztia
aztura
azukre
azukrea
azul
azurmendi
azurmendik
aſsi
b
ba
bab
baba
babel
babes
babesa
babesarekin
babesaren
babesean
babeserako
babesik
babesle
babeslea
babesleku
babeslekua
babespean
babestea
babesteko
babesten
babestu
babestua
babestuak
babestuko
babesturik
babestuta
babestutako
babestuz
babilonia
babiloniako
baby
bac
baca
bach
back
bacon
bad
bada
badago
badaiteke
badajoz
badajozko
badaki
badakigu
badakit
badator
badaude
badauka
badela
baden
badia
badiako
badian
badiaren
badio
badiogu
badiola
badira
badirela
badirudi
baditu
baditugu
badituzte
badok
badu
badugu
badut
badute
baduzu
baduzue
bafta
baga
bagara
bagdad
bagenu
bagina
bagridae
baha
bahi
bahia
bahiako
bahiketa
bahitu
bai
baia
baietz
baiezko
baiezkoa
baiezta
baieztapen
baieztapena
baieztatu
baieztatzeko
baieztatzen
baigorri
baigorriko
bailara
bailarako
bailaran
baile
bailey
bailiran
bailitzan
bailitzateke
bailleul
bailly
baimen
baimena
baimenak
baimendu
baimendutako
baimenik
baimentzen
bain
baina
bainan
baino
bains
bainu
bainuetxe
bainuetxea
baiona
baionako
baionan
baird
bait
baita
baitago
baitaiteke
baitaitezke
baitako
baitan
baitaude
baitio
baitira
baititu
baitituzte
baitu
baitugu
baitut
baitute
baitzaio
baitzegoen
baitzen
baitzeuden
baitzien
baitzion
baitzioten
baitziren
baitzituen
baitzituzten
baitzitzaion
baitzuen
baitzuten
baix
baixa
baizen
baizik
baja
bajo
bakailao
bakailaoa
bakan
bakanak
bakar
bakardadea
bakarka
bakarkako
bakarlari
bakarra
bakarrak
bakarrarekin
bakarraren
bakarrean
bakarreko
bakarrekoa
bakarrekoak
bakarrik
bakarrizketa
bakarti
bakartia
bakartzat
bake
bakea
bakeak
bakean
bakearen
baker
baketsu
baketsua
bakezalea
bakoi
bakoitza
bakoitzak
bakoitzarekin
bakoitzaren
bakoitzarentzat
bakoitzari
bakoitzean
bakoitzeko
bakoitzerako
bakoitzetik
bakterio
bakterioa
bakterioak
bakterioaren
bakterioek
bakterioen
bakun
bakuna
bakunak
bal
bala
balada
baladak
balantza
balazta
balbula
baldin
baldintza
baldintzak
baldintzarik
baldintzatu
baldintzatzen
baldintzen
baldintzetan
baldwin
bale
balea
baleak
balear
balearen
balego
balentria
balentzia
balerdi
balia
baliabide
baliabideak
baliabideen
baliagarri
baliagarria
baliagarriak
baliatu
baliatuko
baliatuta
baliatuz
baliatzeko
baliatzen
balio
balioa
balioak
balioaren
balioen
baliogabeko
baliogabetu
baliokide
baliokidea
baliokideak
baliokidetasun
balioko
baliorik
baliotsua
baliozko
baliozkoa
balira
baliteke
balitoridae
balitu
balitz
balizko
balkanetako
balkanetan
balkoi
ball
ballet
balleta
balmaseda
baloi
baloia
baloncesto
baloratu
baloratzen
balorazio
balorazioa
balore
baloreak
baltasar
baltikoko
baltimore
balu
balute
ban
bana
banaka
banakako
banaketa
banaketak
banaketan
banaketaren
banaketari
banako
banakoen
banan
banana
banandu
banandua
bananduak
bananduta
banatan
banatu
banatua
banatuak
banatuko
banaturik
banatuta
banatutako
banatuz
banatzea
banatzeko
banatzen
banco
band
banda
bandak
bandako
bandan
bandaren
bandera
banderak
banderan
banderapean
banderaren
banderas
bando
bang
bangladesh
bank
bankari
bankaria
banks
banku
bankua
bankuak
bankuan
bankuaren
bankuko
banpiro
banu
bao
baoak
bapatean
baptiste
bar
bara
barack
baraila
barakaldo
barakaldoko
barakaldon
baran
baranda
barandiaran
barandiaranek
barasoain
baratxuri
baratxuria
baratze
barazki
barazkia
barazkiak
barbara
barber
barbus
barc
barca
barcelona
barclay
barco
bard
bare
barea
barean
barearen
bareko
baretu
bari
bariantza
barietate
barik
barka
barkamen
barkamena
barkatu
barker
barna
barne
barnealdea
barnealdean
barnealdeko
barnean
barnebiltzen
barneko
barnera
barneratu
barneratzen
barnes
barnetik
barney
baro
baroia
baroja
barojak
baron
barr
barra
barrak
barral
barre
barregarri
barreiatutako
barreiatzen
barren
barrena
barrenean
barrenetxea
barrera
barrett
barrio
barrios
barro
barroko
barrokoa
barrokoak
barrokoan
barrokoaren
barrokoko
barros
barrow
barru
barrualdea
barrualdean
barrualdeko
barruan
barruko
barrunbe
barrura
barruti
barrutia
barrutiak
barrutian
barrutiaren
barrutiekin
barrutietako
barrutietan
barrutik
barrutiko
barrutitan
barry
bart
barthe
bartolome
bartolomeo
barton
bartzelona
bartzelonako
bartzelonan
bartzelonara
bas
basa
basamortu
basamortua
basamortuan
basamortuaren
basamortuko
basati
basatia
basatiak
basatiaren
basatien
basauri
basauriko
base
basea
baseak
basean
basearen
based
baseliza
baselizaren
baserri
baserria
baserriak
baserrian
baserriaren
baserriko
baserritar
baserritarra
baserritarren
basic
basil
basilea
basilicata
basilika
basilikan
basilikaren
basilio
basin
basket
basketball
baskoi
baskoiak
baskoien
baskonia
baskoniako
baskonian
baso
basoa
basoak
basoan
basoaren
basoek
basoen
basoetako
basoetan
basogintza
basoko
basque
basques
bass
basse
basterretxea
bastida
bastide
bastien
bastogne
basurde
bat
bata
bataia
bataiatu
bataiatua
bataiatzailearen
bataila
batailan
bataille
batailoi
batailoia
bataio
bataioa
batak
batalla
bataren
batasun
batasuna
batasunak
batasunarekin
batasunaren
batasunari
batasunean
batasuneko
batasunera
batasunetik
bataz
bate
batean
bategatik
batek
batekiko
batekin
bateko
batekoa
batekoak
batel
baten
batena
batenak
batengandik
batengatik
batentzako
batentzat
batera
bateragarria
bateragarriak
bateraino
baterako
baterantz
bateratu
bateratua
bateratze
bateratzea
bateratzeko
bateratzen
batere
bateria
bateriak
bates
batetako
batetan
batetara
batetatik
batetik
batez
batezbeste
batezbesteko
batezbestekoa
batezbestekoaren
batgarren
bath
bathyraja
bati
batik
batista
batman
batrachoididae
battista
battle
batu
batua
batuak
batuan
batuaren
batuek
batuekin
batuen
batuetako
batuetan
batuetara
batuetatik
batuketa
batuko
batukoa
batura
baturako
batuta
batuz
batxilergoa
batxilergoko
batzar
batzarkide
batzarra
batzarrak
batzarraren
batzarrean
batzarreko
batzea
batzeko
batzen
batzorde
batzordea
batzordeak
batzordean
batzordearen
batzordeko
batzuei
batzuek
batzuekiko
batzuekin
batzuen
batzuengatik
batzuentzat
batzuetako
batzuetan
batzuetara
batzuetarako
batzuetatik
batzuez
batzuk
batzutan
bauer
baume
bautista
bavaria
bavariako
baxenafar
baxter
baxu
baxua
baxuagoa
baxuak
baxuan
baxuena
baxuetan
baxuko
bay
bayer
bayern
bayonnais
bayonne
baz
baza
bazabiltza
bazaio
bazara
bazegoen
bazekien
bazela
bazen
bazeuden
bazion
baziren
bazituen
bazituzten
bazka
bazkari
bazkide
baztan
baztango
bazter
bazterketa
bazterrak
bazterrean
bazterretan
baztertu
baztertua
baztertuak
baztertuta
baztertuz
baztertzea
baztertzeko
baztertzen
bazuen
bazuten
baſ
baſcongada
baſcuence
bb
bbc
bbk
bc
bd
bdb
be
bea
beach
bean
bear
bearno
bearnoko
beasain
beasainen
beasaingo
beast
beat
beatles
beatrice
beatriz
beau
beauce
beaufort
beaulieu
beaumont
beaune
beauregard
beautiful
beauty
beauvoir
beaux
beaver
bec
beck
becker
bedeinkatu
bederatzi
bederatzigarren
bederen
bedford
bedi
bee
been
beer
beethoven
before
begi
begia
begiak
begiaren
begien
begiespen
begiespenaren
begietan
begiko
begin
beginning
begira
begirada
begirako
begiratu
begiratua
begiratuta
begiratuz
begiratzeko
begiratzen
begirune
begirunea
begiz
begizta
bego
begon
beha
behaketa
behaketak
behar
beharbada
beharko
beharra
beharrak
beharraren
beharraz
beharrean
beharrei
beharreko
beharrekoa
beharrekoak
beharren
beharretara
beharrez
beharrezko
beharrezkoa
beharrezkoak
beharrik
behartu
behartua
behartuak
beharturik
behartuta
behartutako
behartuz
behartzen
behatoki
behatokia
behatokian
behatokiko
behatokitik
behatu
behatutako
behatz
behatzaile
behatzeko
behatzen
behavior
behaviour
behazun
behe
behealdean
behealdeko
behean
beheko
behekoa
behera
beherago
beherakada
beherako
beherakoa
beherakoak
beherantz
beheranzko
beherea
beherean
behereko
behetik
behi
behia
behiak
behien
behin
behind
behinean
behineko
behinola
behintzat
behor
bei
beijing
bein
being
beira
beirazko
beirut
beisbol
beitia
beka
bekatu
bekatua
bekatuak
bekhatu
bektore
bektorea
bel
bela
belaki
belar
belardi
belarkara
belarra
belarrak
belarri
belarria
belarriak
belatz
belaunaldi
belaunaldia
belaunaldien
belaunaldiko
belaunaldiz
beldur
beldurgarri
beldurgarria
beldurra
beldurrak
beldurrez
beldurrezko
beldurrik
bele
belen
belfast
belfort
belgika
belgikako
belgikan
belgikar
belgikarra
belgrad
bell
bella
bellas
belle
bellegarde
belles
belleville
bellevue
bellmare
bello
belmont
belmonte
beloki
belousov
belt
beltra
beltran
beltxarga
beltz
beltza
beltzak
beltzaren
beltzean
beltzek
beltzeko
beltzen
beltzez
beltzezko
belve
ben
bend
bene
benedetto
benedict
benedikto
beneditar
benes
benetako
benetakoa
benetan
benetazko
bengala
bengalako
bengoa
bengoetxea
beni
benin
benito
benjamin
bennett
benny
benoi
benson
benta
benton
benz
ber
bera
beragatik
beraiei
beraiek
beraiekin
beraien
berak
beran
berandu
beranduago
berantiar
berantiarra
berantiarrean
berantiarreko
berarekin
beraren
berarentzat
berari
berariaz
berariazko
berasategi
berastegi
berau
berauek
berauen
beraz
berba
berbaitango
berbera
berberak
berde
berdea
berdeak
berdearen
berdexka
berdin
berdina
berdinak
berdinarekin
berdindu
berdinduta
berdinean
berdineko
berdinetan
berdinketa
berdintasun
berdintasuna
berdintasunaren
berdintasunerako
bere
berea
bereak
berean
berebiziko
beregan
bereganatu
bereganatuz
bereganatzea
bereganatzeko
bereganatzen
berehala
berehalako
berehalakoan
bereiz
bereizgarri
bereizgarria
bereizgarriak
bereizi
bereizia
bereiziak
bereizita
bereizitako
bereiziz
bereizkeria
bereizketa
bereizketarik
bereizmen
bereiztea
bereizteko
bereizten
bereiztu
berek
berekin
bereko
berekoa
berekoak
beren
berenices
berera
beretik
beretu
beretzat
berez
berezi
berezia
bereziak
berezian
bereziaren
berezien
berezietan
bereziki
bereziko
berezirik
berezitasun
berezitasuna
berezitasunak
berezko
berezkoa
berg
bergamoko
bergara
bergarako
bergaran
berge
bergen
berger
bergman
beriain
berkeley
berlin
berlinen
berlinera
berlingo
bermatu
bermatuko
bermatuta
bermatzea
bermatzeko
bermatzen
berme
bermea
bermeo
bermeoko
bermeon
bern
berna
bernabe
bernako
bernal
bernard
bernardino
bernardo
bernat
bernhard
bernie
bernstein
bero
beroa
beroak
beroan
beroaren
beronen
berorren
berotegi
berotu
berotze
berotzeko
berotzen
berpizkunde
berpizten
berpiztu
berrantolaketa
berrantolatu
berrargitaratu
berregin
berregokitzapena
berrehun
berreraiki
berreraikia
berreraikitzeko
berreraikuntza
berreskuratu
berreskuratua
berreskuratzea
berreskuratzeko
berreskuratzen
berresten
berretsi
berrezarri
berrezartzeko
berri
berria
berriak
berrian
berriarekin
berriaren
berriari
berriatik
berriei
berriek
berriekin
berriemaile
berrien
berriena
berrietan
berrietara
berriki
berriko
berrikun
berrikuntza
berrikuntzak
berrikusi
berrikusketen
berrikuspen
berrira
berrirako
berririk
berriro
berritan
berritik
berritu
berritua
berritzaile
berritzailea
berritzaileak
berritze
berritzea
berritzeko
berritzen
berriz
berriztagarriak
berriztu
berrogei
berrogeita
berry
bert
berta
bertako
bertakoa
bertakoak
bertakoek
bertakoen
bertan
bertara
bertaratu
bertatik
bertha
bertikal
bertikala
bertikalak
bertikalean
bertikalki
bertoko
bertrand
bertsio
bertsioa
bertsioak
bertsioan
bertsioaren
bertso
bertsoa
bertsoak
bertsolari
bertsolaria
bertsolariak
bertsolaritza
bertsolaritzaren
bertsotan
bertsozale
bertute
bertutea
bertuteak
bertutearen
bertze
berun
beruna
berunezko
beso
besoa
besoak
besoetan
besse
bessin
best
bestalde
bestaldean
bestaldeko
beste
bestea
besteak
bestean
bestearekin
bestearen
besteari
besteei
besteek
besteekin
besteen
besteetan
besteko
bestekoa
bestela
bestelako
bestelakoa
bestelakoak
bestera
besteren
besterik
bestetan
bestetik
bet
beta
bete
betea
beteak
betean
betearazlea
betebehar
betebeharra
betebeharrak
beteko
betelu
beteranoa
beterik
beteriko
beteta
betetako
betetzea
betetzean
betetzeko
betetzen
betetzera
betez
beth
bethi
beti
betidanik
betiere
betiereko
betiko
betikoa
betirako
betizu
betta
better
betty
between
beverly
beyond
beza
bezain
bezala
bezalako
bezalakoa
bezalakoak
bezalaxe
bezela
bezero
bezeroa
bezeroak
bezeroaren
bezeroei
bezeroen
bezperan
bf
bhi
bi
bia
biak
biar
biarritz
biarritzeko
biarritzen
bibcode
bible
biblia
bibliako
biblian
bibliaren
bibliografia
biblioteca
bibliotecas
biblioteka
bibliothe
bibron
bicolor
bidai
bidaia
bidaiak
bidaian
bidaiaren
bidaiari
bidaiaria
bidaiariak
bidaiarien
bidaiarientzako
bidaiatu
bidaiatzea
bidaiatzeko
bidaiatzen
bidaien
bidaietan
bidal
bidali
bidalia
bidaliko
bidalitako
bidaliz
bidaltzea
bidaltzeko
bidaltzen
bidasoa
bidasoko
bide
bidea
bideak
bidean
bidearekin
bidearen
bideari
bideen
bideetan
bidegabekeria
bidegain
bidegileak
bidegurutze
bidegurutzean
bideko
bideo
bideoa
bideoak
bideoan
bideoklip
bideoklipa
bider
bidera
bideratu
bideratua
bideratuko
bideratuta
bideratutako
bideratzea
bideratzeko
bideratzen
biderik
biderkadura
biderkatu
biderketa
bidetik
bidexka
bidez
bidezidor
bidezko
bidezkoa
bie
biek
bielorrusia
bielorrusiako
bielorrusiera
bielorrusieraz
bien
bietako
bietan
big
biga
bigarren
bigarrena
bigarrenak
bigarrenaren
bigarrenean
bigarrenez
bigarrenik
bigg
bigun
biguna
bigunak
bigundu
bihar
biharamunean
bihotz
bihotza
bihotzak
bihotzaren
bihotzean
bihotzeko
bihotzekoak
bihotzez
bihur
bihurgune
bihurtu
bihurtua
bihurtuko
bihurturik
bihurtuta
bihurtuz
bihurtzea
bihurtzeko
bihurtzen
bik
bikain
bikaina
bikainak
bikario
biki
bikia
bikiak
bikingoen
biko
bikoitia
bikoitz
bikoitza
bikoitzak
bikoitzaren
bikoitzeko
bikoizketa
bikoiztu
bikote
bikotea
bikoteak
bikotearen
bikotekide
bikotekidea
biktima
biktimak
biktimei
biktimen
bil
bila
bilakaera
bilakaeran
bilakaeraren
bilakatu
bilakatuko
bilakatuz
bilakatzea
bilakatzeko
bilakatzen
bilaketa
bilaketan
bilatu
bilatuko
bilatuz
bilatzea
bilatzeko
bilatzen
bilbao
bilbo
bilbok
bilboko
bilbon
bilbora
bilbotar
bilbotik
bildu
bildua
bilduak
bilduk
bilduko
bilduma
bildumak
bildumako
bilduman
bildumaren
bilduren
bildurik
bilduta
bildutako
bilduz
bilera
bilerak
bileran
bileraren
bileretan
bilgune
bilioi
bilketa
bilkura
bilkuran
bill
billboard
billie
billy
bilo
biloba
biltegi
biltegia
biltegiak
biltegiratze
biltegiratzeko
biltzaile
biltzar
biltzarra
biltzarrak
biltzarraren
biltzarrean
biltzarreko
biltzea
biltzeko
biltzen
biluzi
biluzia
biluziak
biluzik
bin
bina
binaka
binakako
bing
bingen
bio
biogra
biografi
biografia
biografiak
biographical
biography
biok
biokimikaria
biol
biolentzia
biolin
biolina
biolinista
biologia
biologian
biologiaren
biological
biologiko
biologikoa
biologikoak
biologo
biologoa
biology
biolontxelo
bion
biosfera
bir
bira
birak
biraka
biraketa
biran
biratu
biratzen
birbiloba
bird
birdlife
birds
biren
biribil
biribila
biribilak
biribildua
birika
birikak
biriketako
birjina
birjinak
birjinaren
birlandaturiko
birlandatutako
birmingham
birraitona
birrindu
birrindua
birritan
birsortu
birth
birthday
birtual
birtuala
birus
birusa
birusak
birusaren
birusen
bis
bishop
bisigodoen
bisita
bisitak
bisitan
bisitari
bisitariak
bisitatu
bisitatzeko
bisitatzen
bisitatzera
bismarck
bison
bisonte
bisontea
bista
bistakoa
bistan
bisuala
bisurteetan
bit
bitamina
bitan
bitar
bitarra
bitarte
bitartean
bitartekari
bitartekaritza
bitarteko
bitartekoa
bitartekoak
bitartekorik
bitartez
bitburg
biteko
bitez
bittor
bitxi
bitxia
bitxiak
bitxikeria
bixente
biz
bizantziar
bizantzioko
bizar
bizarra
bizente
bizi
bizia
biziak
bizian
biziaren
bizidun
bizidunak
bizidunen
bizidunetako
bizien
biziki
bizikleta
bizikletak
bizikletan
bizikletaz
biziko
bizilagun
bizilagunak
bizilagunek
bizilagunen
bizileku
bizilekua
bizimodu
bizimodua
bizimoduaren
bizipen
bizipenak
biziraun
biziraupen
biziraupena
bizirauteko
bizirik
bizitako
bizitasun
bizitegi
bizitoki
bizitokia
bizitu
bizitza
bizitzak
bizitzako
bizitzan
bizitzarako
bizitzarekin
bizitzaren
bizitzari
bizitzaz
bizitzea
bizitzeko
bizitzen
bizitzera
biziz
bizkai
bizkaia
bizkaian
bizkaibus
bizkaieraz
bizkaiko
bizkaitar
bizkaitarra
bizkaitarrak
bizkar
bizkarra
bizkarrean
bizkarreko
bizkarrezur
bizkondea
bizkor
bizkorra
bizkortu
bizpahiru
bizt
biztanle
biztanleak
biztanleei
biztanleek
biztanleen
biztanleko
biztanlerekin
biztanleri
biztanleria
biztanleriak
biztanleriaren
biztanlerik
biztanletik
bjo
bl
bla
black
blackwell
blade
blair
blaise
blake
blanc
blanca
blanchard
blanche
blanco
blas
blasco
blasoi
ble
bleeker
blenniidae
bleu
blica
blico
blind
bloch
block
blog
bloga
blogak
blogean
blogs
blogspot
bloke
blokea
blokeak
blokeatu
blokeo
blokeoa
blood
bloom
blu
blue
blues
bmatrix
bmx
bo
boa
board
bob
bobby
boca
bocage
bodianus
body
boe
boeing
bogota
bohemia
bohemiako
bohr
boiga
bois
boissie
boissy
bokal
bokalean
bokazioa
bol
bola
bolada
bolak
bolbora
boldsymbol
boleibol
boleibolean
boleti
boletus
boli
bolitoglossa
bolivar
bolivia
boliviako
bolivian
bolkaniko
bolkanikoa
bologna
bolonia
boloniako
boltxebike
boltxebikea
boltxebikeak
boltxebikeek
boltxebikeen
bolumen
bolumena
bolumenak
bolumenaren
boluntario
boluntarioak
boluntarioen
bom
bomb
bombus
bon
bona
bonaparte
bonapartek
bonaparteren
bonba
bonbak
bonbardaketa
bonbardaketak
bonbardatu
bond
bone
bones
bonet
bonifazio
bonn
bonnet
bonneville
bonnie
bono
boo
book
books
boom
boone
boophis
booth
bor
borato
borboi
borboien
borboikoa
borda
bordeaux
bordele
bordeleko
bordelen
border
borders
bordes
borealis
borg
borges
borgia
borgo
borgoina
borgoinako
boris
borja
born
borobila
borondate
borondatea
borondatearen
borondatez
borondatezko
borough
borra
borroka
borrokak
borrokalari
borrokalaria
borrokalariak
borrokaldi
borrokan
borrokarako
borrokaren
borrokari
borrokatu
borrokatzea
borrokatzeko
borrokatzen
borrokatzera
borroken
borroketan
bortitz
bortitza
bortitzak
bortizkeria
bortizki
bortxaketa
bortxatu
bos
bosc
bosch
bosco
bose
bosgarren
bosgarrena
bosnia
bosniako
bosque
bost
bostak
bostehun
bosten
bostgarren
boston
bostonen
bostongo
bot
bota
botako
botanical
botanika
botanikoa
botatako
botatzea
botatzeko
botatzen
botaz
botere
boterea
botereak
boterean
boterearen
boterera
boteretik
boteretsu
boteretsua
boteretsuena
bothidae
bothrops
botika
botikak
botila
botniako
boto
botoa
botoak
botoen
botoi
boulenger
boulengeri
boulevard
boulogne
bourbon
bourg
bovidae
bow
bowell
bowie
bowl
box
boxeo
boxeolari
boxeolaria
boy
boyd
boyer
boyle
boys
boz
bozen
bozeramaile
bozeramailea
bozka
bozkatu
bozkatzeko
bozketa
bpg
br
bra
brabante
brad
bradford
bradley
braga
brain
bram
branch
branco
brand
brandenburgo
brandon
brandt
branka
bras
brasil
brasildar
brasildarra
brasilen
brasilgo
brasiliensis
braun
brave
bravo
bray
brazil
bre
brea
break
breaking
brecht
breeds
bremen
brenda
brendan
brennan
brent
bresciako
bresse
brest
bretagne
bretainia
bretainiako
bretainiar
bretainieraz
breton
brett
breuil
breuning
breve
breviceps
brevirostris
brian
brica
brice
bride
bridge
bridges
bridget
brie
brief
brien
brigada
briggs
bright
brigitte
brikolaje
brill
brion
bristol
britain
britainia
britainiar
britainiarra
britainiarrak
britainiarraren
britainiarrek
britainiarren
britania
britaniar
britannica
british
brittany
brno
bro
broad
broadcasting
broadway
brock
broken
bron
bronte
brontze
brontzea
brontzezko
brontzezkoa
bronze
brook
brooke
brookesia
brooklyn
brooks
bros
brother
brothers
brown
browne
bru
bruce
brujas
brun
brunei
bruno
brunswick
brusela
bruselako
bruselan
bruye
bryan
bryant
brycon
bryconamericus
bsd
bu
bubo
buchanan
buck
buda
budapest
budapesteko
budaren
buddy
bude
budismoa
budismoaren
budista
budistak
buelta
bueltan
bueltatu
bueltatzen
buen
buena
bueno
buenos
buffalo
bufo
bufonidae
build
building
buka
bukaera
bukaerako
bukaeran
bukaeratik
bukatu
bukatuko
bukatuta
bukatzean
bukatzeko
bukatzen
bul
bular
bularra
bularrak
bularrean
bularreko
bulego
bulegoa
bulegoak
bulegoan
bulegoaren
bulegoko
bulgaria
bulgariako
bulgarian
bulgariar
bulgariera
bulgarieraz
bulkada
bull
bulletin
bultza
bultzada
bultzatu
bultzatuko
bultzaturik
bultzatuta
bultzatutako
bultzatuz
bultzatzaile
bultzatzailea
bultzatzea
bultzatzeko
bultzatzen
bun
burbuila
burdin
burdina
burdinaren
burdinazko
burdinbide
burdinbidea
burdinbideak
burdinbidearen
burdinezko
burdinola
bureau
burges
burgesia
burgesiak
burgesiaren
burgess
burgo
burgos
burgosen
burgosko
burgu
burke
burkina
burlata
burmuin
burmuina
burmuinaren
burmuineko
burns
burt
burton
burtsa
burtsako
burtsan
buru
burua
buruak
burual
burualde
burualdea
buruan
buruarekin
buruaren
buruari
buruaz
buruen
burujabe
burujabea
burujabetasuna
burujabetza
buruko
burura
bururatu
burutik
burutu
burutua
burutugabea
burutuko
burututako
burutzea
burutzeko
burutzen
buruz
buruzagi
buruzagia
buruzagiak
buruzagiaren
buruzagiek
buruzagien
buruzagietako
buruzagitza
buruzko
buruzkoa
buruzkoak
buruzkoaren
bus
busca
bush
business
bussie
bussy
busti
busto
but
bute
buteo
butler
butterfly
buztan
buztana
buztin
buztina
buztinezko
by
byrne
byron
byte
bythitidae
bz
c
ca
caballero
caballo
caban
cabeza
cabo
cabrera
cache
cacia
cada
cadena
cadizko
caesar
caf
cafe
cage
cahiers
cai
caine
caja
cal
calabria
calabriako
calahorra
calahorrako
calais
calamaria
calatrava
caldero
caldwell
calhoun
california
call
calle
called
calles
callicebus
callichthyidae
callionymidae
callionymus
calpe
calumma
calvados
calvin
calvo
calzada
cam
camacho
cambio
cambre
cambridge
cambridgeko
camden
came
camera
cameron
cameros
camila
camille
camilo
camino
caminos
camp
campagne
campaign
campan
campania
campbell
campephagidae
campo
campos
camps
campus
campusean
camus
can
canada
canadian
canal
canales
canaria
canarias
canavese
canc
cancer
cancio
canciones
candy
canes
canis
cannes
canneseko
cannesko
cannon
cannot
cano
canon
canta
cantabria
cantal
canthigaster
canto
canton
cantor
canyon
cao
cap
capa
cape
capelle
capensis
capi
capita
capital
capitol
capo
capra
caprimulgidae
caprimulgus
captain
car
cara
caracas
caracasko
caracteri
carangidae
caras
carbon
carcharhinus
card
cardiff
carduelis
care
career
careproctus
carey
caribbean
carl
carla
carles
carlia
carlo
carlos
carlota
carlton
carmarthenshire
carme
carmelo
carmen
carmona
carnaval
carne
carnegie
caro
carol
carole
carolina
carolinako
caroline
carolyn
carpenter
carr
carranza
carrasco
carre
carren
carrera
carrero
carrie
carrillo
carrio
carroll
cars
carson
carta
cartagena
cartas
carte
carter
carthage
cartier
carvalho
cary
cas
casa
casablanca
casado
casal
casanova
casares
casas
case
cases
casey
cash
casi
casino
caso
cass
cassini
cast
castan
caste
castejo
castejon
castel
castell
castellana
castellano
castello
castelnau
castelnuovo
castelo
castiglione
castilla
castillo
castillon
casting
castle
castro
cat
cata
catala
catalana
catalans
catalina
catalog
catalogue
catalun
catalunya
catania
catarina
cate
catedral
caterina
cathe
cathedral
catherine
catholic
cato
cats
caudata
caumont
causa
cause
causes
caux
cava
cave
cavendish
caza
cb
cbc
cbs
cc
cd
cdc
cdot
cdots
ce
ceara
cecil
cecilia
cela
celia
cell
celle
celles
cells
celtic
cen
censo
censos
census
centaurea
centauri
centaurus
centenario
center
central
centralbyra
centre
centro
centrolene
centrolenidae
centropus
centropyge
centuries
century
cephalopodes
cer
cera
cerca
cercopithecus
cerda
ceredigion
ceres
ceresko
cerezo
cero
cerro
cervantes
cervera
ces
cesar
cesare
cetto
cetus
cf
cgi
ch
cha
chaco
chad
chaenopsidae
chaetodon
chaetodontidae
chaetostoma
chain
chalcides
challenge
chamaeleonidae
chamberlain
chamberlin
chambers
chambon
champ
champagne
champigny
champion
champions
championship
championships
champs
chan
chance
chandler
chandra
chang
change
changes
changing
channa
channel
chanson
chao
chapelle
chaplin
chapman
chapter
characidae
characidium
charadrius
charente
charentes
charles
charlie
charlotte
charlton
charly
charmes
chart
charts
chase
chaudie
chaumont
chausse
chaux
che
checklist
chef
cheiracanthium
chelsea
chemical
chemin
chemistry
chen
cher
chernykh
cherokee
cherry
ches
chester
chet
chez
chi
chiapas
chiba
chica
chicago
chicagoko
chicagon
chico
chief
chihuahua
child
children
chile
chilena
chiloglanis
chin
china
chinensis
chinese
chiropteraren
chit
chloe
cho
chocolate
choice
chomsky
chongqing
choose
chre
chris
christ
christian
christie
christina
christine
christmas
christoph
christophe
christopher
chromis
chronicle
chronicles
chrysichthys
chrysiptera
chu
chuck
chueca
chung
church
churchill
churchillek
ci
cia
ciako
cichlidae
cid
cie
ciel
cielo
cien
ciencia
ciencias
cienti
cil
cile
cill
cincinnati
cinco
cindy
cine
cinema
cinereus
cinnyris
cio
cion
cipriano
circ
circle
circuit
circus
cirrhilabrus
cis
cisneros
cisticola
cisticolidae
cit
cita
cite
cities
citizen
citta
city
citypopulation
ciu
ciudad
ciudadanos
ciudades
ciutat
civil
civilization
ck
cl
cla
claims
clair
claire
clan
clara
clare
clarence
clarendon
clari
clarias
clariidae
clark
clarke
claro
claroteidae
clash
class
classic
classical
classics
classification
claude
claudia
claudio
claudius
claus
clave
claves
clay
clayton
cle
clement
clemente
clermont
cleveland
cli
cliff
clifford
climate
climatological
clinical
clinidae
clint
clinton
clio
clive
close
cloud
club
clubeko
clupeidae
clyde
cm
cn
cnemaspis
cnica
cnn
cnt
co
coa
coast
cobb
cobitidae
cobitis
coca
cochrane
cocina
cockerell
coco
code
codex
coe
coelorinchus
cognitive
cohen
col
cola
cold
cole
coleccio
colegio
coleman
coli
colin
coll
collado
colle
collected
collection
collections
college
collegen
collier
collins
colo
coloma
colombe
colombia
colombier
colon
colonia
colonial
color
colorado
coloradoko
colubridae
columba
columbia
columbiako
columbidae
columbus
com
coma
comarca
come
comedia
comedy
comercio
comes
comet
comics
coming
comisio
comite
comme
commerce
comminges
commission
committee
common
commons
commonwealth
commune
communication
communications
community
como
comoko
compan
companion
company
comparative
competition
completa
completas
complete
complex
complutense
composition
compostela
compostelako
computational
computer
computing
comte
comu
comune
comunicacio
comunidad
comunista
con
conan
concejales
concepcio
concept
concepts
concert
concerto
concha
conchita
concierto
concise
concolor
concordia
condado
conde
conditions
conference
confidencial
conflans
conflent
conflict
congo
congreso
congress
congridae
connecticut
connecticuteko
connell
connery
connolly
connor
conomique
conquest
conquista
conrad
consadole
consejo
conservation
constance
constant
constantin
constitution
construccio
construction
consuelo
consultado
consumer
contact
conte
contempora
contemporary
contenidos
content
contes
contest
context
continental
contra
contre
contreras
contribucio
contribution
control
convention
conway
cook
cool
coop
cooper
coordinates
cop
copa
cope
cophixalus
copy
copyright
copyrightaren
cor
cora
coracina
coral
corazo
corbie
core
coregonus
corella
corey
cork
cornelis
cornelius
cornell
corner
cornwall
corona
coronavirus
coronel
corpora
corporation
corpore
corps
corpus
corpusa
corral
corre
correo
corta
corte
cortes
cortina
corun
corvidae
corvus
corydoras
coryphaenoides
cos
cosa
cosas
cosme
cosmic
cosmos
costa
cotingidae
cottidae
cotton
cottus
coudray
could
council
count
countries
country
county
coupe
cour
courcelles
cours
course
court
cover
covid
cowboy
cox
coſa
cp
cr
craig
crane
crash
crater
craugastor
craugastoridae
crawford
crazy
crc
cre
creacio
creagrutus
creation
creative
creed
creek
crenicichla
crenuchidae
crespo
creuse
cri
cricetidae
crime
crimen
crimes
criminal
crisis
cristal
cristiano
cristina
cristo
cristobal
crithagra
critical
critics
critique
cro
crocidura
crocidurinae
croix
cromarty
cromwell
crosby
cross
crotalus
crow
crown
cruise
cruz
cry
cryptoblepharus
cryptotis
crystal
cs
cseligman
csic
ct
ctenomyidae
ctenomys
ctenotus
ctica
ctimas
ctor
cu
cua
cuadernos
cuando
cuarto
cuatro
cuba
cuculidae
cue
cuenca
cuencako
cuenta
cuento
cuentos
cuerpo
cuesta
cueva
cuevas
cui
cula
culas
culo
culos
cultura
cultural
culture
cultures
cum
cumberland
cumple
cuneoko
cunningham
cup
cura
cure
curie
curimatidae
current
curriculum
curry
curso
curtis
cusack
cut
cuvier
cv
cy
cycle
cycling
cyclosa
cygnus
cymru
cynoglossidae
cynoglossus
cynthia
cyphocharax
cyprinidae
cyprinodon
cyprinodontidae
cyprus
cyr
cyril
cyrtodactylus
cyrus
cz
cœur
d
da
dabil
dabilen
dabilena
dabiltza
dabiltzan
dactyloidae
dade
dadila
dadin
dado
dadotan
dago
dagoela
dagoelako
dagoelarik
dagoen
dagoena
dagoenak
dagoenaren
dagoenean
dagoeneko
dagoenez
dagoenik
dagokie
dagokien
dagokienez
dagokio
dagokiola
dagokion
dagokiona
dagokionean
dagokionez
dagoz
dagozkie
dagozkien
dagozkio
dagozkion
dagozkionak
dahl
dai
daily
daisy
daiteke
daitekeela
daitekeelako
daitekeelarik
daitekeen
daitekeena
daitekeenez
daitez
daitezela
daitezen
daitezke
daitezkeela
daitezkeelako
daitezkeen
daitezkeenak
dakar
dakarren
dakartza
dakartzan
daketa
daki
dakien
dakigu
dakigun
dakioke
dakit
dakite
dakota
dakotako
dal
dala
dalai
dale
dali
dallas
dalton
dam
dama
dame
dames
damian
damon
dampierre
dan
dana
danbor
danborra
dance
dancing
dane
dangerous
dani
daniar
daniel
daniela
danielle
daniels
danieraz
danimarka
danimarkako
danimarkakoa
danimarkan
danny
dans
dante
dantza
dantzak
dantzan
dantzaren
dantzari
dantzaria
dantzariak
dantzatu
dantzatzen
danubio
danza
dar
darabil
darama
daraman
daramana
daramate
daramaten
daramatza
dard
dardara
dare
dari
daria
dario
dark
darkness
darling
darren
darth
darwin
darwinek
darwinen
das
dasyatidae
dasyatis
data
database
datak
datarik
datatua
datatuak
date
datibo
dator
datorkio
datorrela
datorren
datorrena
datos
datoz
datozen
datozenak
datu
datua
datuak
datubasea
datubasean
datuek
datuekin
datuen
datuetan
daturen
daturik
datutegia
datza
datzan
dau
daude
daudela
daudelako
daudelarik
dauden
daudenak
daudenean
daudenez
daughter
dauka
daukagu
daukala
daukan
daukana
daukat
daukate
daukaten
dauphine
dauzka
dauzkan
dauzkate
dauzkaten
davant
dave
david
davidek
daviden
davidi
davidson
davies
davis
dawn
dawson
day
days
db
dc
de
dea
deabru
deabrua
deabruak
deabruaren
dead
deadline
deal
dean
death
deba
debagoiena
debako
debate
debbie
debekatu
debekatua
debekatuta
debekatzen
debeku
debekua
deborah
debut
debuta
debutatu
dec
december
decreto
dedikatu
dee
deep
default
defendatu
defendatzaile
defendatzailea
defendatzea
defendatzeko
defendatzen
defensa
defense
defentsa
defentsak
defentsako
defentsan
defentsarako
defentsaren
defined
defini
definicio
definition
definitu
definitua
definituta
definitutako
definitzea
definitzeko
definitzen
definizio
definizioa
definizioak
definizioz
deformazio
degli
dei
deia
deiak
deialdia
deigarria
deitu
deitua
deituak
deituko
deitura
deiturak
deituraz
deituriko
deiturikoa
deiturikoak
deituta
deitutako
deituz
deitzea
deitzeko
deitzen
deja
dek
dekalb
deklaratu
deklarazio
deklarazioa
deklinabide
deklinabidea
deko
dekorazio
dekorazioa
dekretu
dekretua
dekretuak
dekretuaren
dekurrenteak
del
dela
delako
delakoa
delakoak
delakoan
delakoarekin
delakoaren
delarik
delaware
delgado
delhi
delimitation
delitu
delitua
delituak
dell
della
delle
dels
delta
dem
dema
demagun
demanda
demetrio
demo
democra
democracia
democracy
democratic
demografi
demografia
demografiko
demografikoa
demokrata
demokratiko
demokratikoa
demokratikoak
demokratikoan
demokratikoaren
demokratikoen
demokratikoetan
demokratikoki
demokratikoko
demokrazia
demokraziaren
den
dena
denak
denaren
denari
denaz
denbora
denborak
denboraldi
denboraldia
denboraldiak
denboraldian
denboraldiaren
denboraldietan
denboraldiko
denboraldirako
denboralditan
denboralditik
denboraldiz
denboran
denborarekin
denboraren
denborarik
denboraz
denda
dendak
dendrelaphis
dendrobatidae
dendropsophus
denean
denek
deneko
denen
denera
denetan
denetik
denez
denik
denis
denise
dennis
denok
dentro
dentsitate
dentsitatea
denver
deo
departamendu
departamendua
departamenduak
departamenduan
departamenduaren
departamenduko
departamento
departamentu
departamentua
departamentuan
departamentuko
department
dependentzia
deportatu
deporte
deportes
deportiva
deportivo
depresio
depresioa
depuis
der
dera
derecho
derechos
derek
deribatu
deribatua
deribatuak
deritze
deritzen
deritzo
deritzon
deritzona
deritzonaren
derrigorrez
derrigorrezko
derrigorrezkoa
derry
des
desabantaila
desadostasun
desadostasunak
desagerpena
desagerrarazi
desagertu
desagertua
desagertuko
desagertuta
desagertutako
desagertzea
desagertzeko
desagertzen
desarrollo
desberdin
desberdina
desberdinak
desberdinei
desberdinek
desberdinekin
desberdineko
desberdinen
desberdinetako
desberdinetan
desberdinetara
desberdinetatik
desberdinez
desberdintasun
desberdintasuna
desberdintasunak
desberdintzen
desbideratu
desbideratze
descartes
descartesek
description
descriptiva
desde
desegin
desegitea
desegiteko
desegiten
desegokia
deseo
desert
desgaitasuna
design
desio
desira
desiratzen
desire
deskarga
deskargatzeko
deskriba
deskribapen
deskribapena
deskribapenak
deskribatu
deskribatutako
deskribatzeko
deskribatzen
deskubritu
desmond
desnibela
desobedientzia
desoreka
desplazamendu
desplazamendua
despopulatu
despue
dessus
destinatibo
destino
det
detektatu
detektatzeko
detektatzen
detektibe
detektibea
determinatu
determinatzen
determinazio
detik
detroit
deu
deuna
deunaren
deus
deuseztatu
deusto
deustu
deustuko
deutsche
deux
devant
development
devil
devon
dewey
dexter
dezagun
dezake
dezakeela
dezakeen
dezakeena
dezakegu
dezakegun
dezaket
dezakete
dezaketela
dezaketen
dezakezu
dezala
dezan
dezatela
dezaten
dezente
di
dia
diabetes
diabetesa
diablo
diafragma
diagnostikatu
diagnostiko
diagnostikoa
diagonal
diagrama
diagramak
dialectes
dialectos
dialektika
dialekto
dialektoa
dialnet
diamante
diametro
diametroa
diametroko
diametrokoa
diamond
dian
diana
diane
diaphus
diario
diariodenavarra
diariovasco
diary
dias
diaspora
diaz
dibertsitate
dibisa
dibisio
dibisioa
dibisioak
dibisioan
dibisioko
dibortziatu
dibortzioa
dibulgazio
dica
dicaeum
diccionario
dice
diciembre
dick
dickens
dickinson
dico
dicroglossidae
dictionary
dictionnaire
did
didaktikoa
didazu
didelphidae
didier
die
diego
diegu
diela
dien
diena
dies
diesel
diet
dieta
dietan
dietaren
diete
dieten
dietrich
dieu
diez
diezaioke
diferentzia
diferentzial
diferentziala
different
difusio
digestio
digital
digitala
digitalak
digitalaren
digitalean
digitaleko
digitalen
digo
digu
digun
digute
diguten
dihardu
diharduen
dihardute
diharduten
dijon
dik
diko
diktadore
diktadorea
diktadorearen
diktadura
diktaduraren
dillon
dimentsio
dimentsioak
dimentsioko
dimisioa
dimititu
dimitri
din
dina
dinamika
dinamiko
dinamikoa
dinamikoak
dinamo
dinastia
dinastiak
dinastiako
dinastian
dinastiaren
dino
dinosaur
dinosauro
dinosaurs
dio
diodoro
dioen
dioena
dioenez
diogenes
diogu
diogun
diois
diola
dion
diona
dionean
dionisio
dionisiok
dios
diot
diote
diotela
dioten
diotenak
diotenez
dioxido
dioxidoa
diozu
diplodactylidae
diploma
diplomatiko
diplomatikoa
diplomatikoak
diplomazia
diplomazialari
diplomazialaria
dipodidae
dipolo
dipsadidae
dipsas
dipturus
diputacio
diputacion
diputatu
diputatua
diputatuak
diputatuen
dir
dira
diran
dirau
dirauen
diraute
dire
direccio
direct
direction
director
directora
direla
direlako
direlarik
diren
direnak
direnean
direnei
direnek
direnen
direnez
direnik
dirk
dirty
diru
dirua
diruak
diruarekin
diruaren
dirudi
dirudien
dirudienez
dirudite
diruditen
dirurik
dirutza
diruz
dis
disco
discogs
discos
discovery
discurso
disease
diseases
diseinatu
diseinatua
diseinaturiko
diseinatuta
diseinatutako
diseinatzaile
diseinatzailea
diseinatzeko
diseinatzen
diseinu
diseinua
diseinuak
diseinuan
diseinuaren
disen
disfrutando
diska
diskak
disko
diskoa
diskoak
diskoan
diskoarekin
diskoaren
diskoetan
diskoetxe
diskoetxeak
diskoetxearekin
diskoetxearen
diskografia
diskoko
diskorik
diskriminazio
diskriminazioa
diskurtso
diskurtsoa
disney
disolbatu
disolbatzaile
disolbatzen
disoluzio
disorders
displaystyle
distantzia
distantziak
distantzian
distantziara
distantziaren
distichodontidae
distira
distiratsu
distiratsua
distiratsuak
distiratsuena
distribution
district
distrito
dit
dition
ditions
ditu
ditudan
dituela
dituelako
dituelarik
dituen
dituena
dituenak
dituenean
dituenez
ditugu
ditugula
ditugun
ditut
dituzte
dituztela
dituztelako
dituztelarik
dituzten
dituztenak
dituztenean
dituztenek
dituztenen
dituztenez
dituzu
dituzue
ditzagun
ditzake
ditzakeela
ditzakeen
ditzakegu
ditzakete
ditzaketen
ditzan
ditzaten
diversity
division
divisions
dix
dixo
dixon
diz
diziplina
dizkie
dizkiete
dizkigu
dizkio
dizkion
dizkiote
dizko
dizu
dizuet
dizut
dj
djvu
dl
dmitri
dn
dna
dnaren
do
doa
doako
doakoa
doala
doan
doana
doaz
doazen
doazenak
doc
docs
doctor
document
documentacio
documental
documentary
documentos
documents
dodge
dodo
does
dog
dogma
dogs
dohain
dohainik
dohaintza
doi
doinu
doinua
doinuak
dok
doktoratu
doktore
doktorea
doktoreak
doktorearen
doktorego
doktoregoa
doktoretza
doktrina
doktrinaren
dokumental
dokumentala
dokumentalak
dokumentalaren
dokumentalean
dokumentatu
dokumentatua
dokumentatuta
dokumentazio
dokumentazioa
dokumentu
dokumentua
dokumentuak
dokumentuan
dokumentuen
dokumentuetan
dolar
dolarreko
dolarren
dolly
dolor
dolores
dolu
dom
domaine
dome
domeinu
domeinua
domenico
domi
domina
dominak
domingo
dominic
dominikar
dominique
dommartin
dompierre
domus
don
dona
donald
donapaleu
donato
donde
done
donegal
donejakue
donemiliaga
donemiliagako
dones
donetsk
donetskeko
doneztebe
dong
donibane
donibaneko
donna
donne
donnell
donostia
donostiak
donostiako
donostian
donostiar
donostiara
donostiaren
donostiarra
donostiarrak
donostiatik
donovan
door
doors
dora
doradidae
dorado
dordogne
dordoina
dore
doris
dorothea
dorothy
dorre
dorrea
dorreak
dorrean
dorrearen
dorreen
dorretxe
dorretxea
dorsalis
dortoka
dortsala
dos
dosi
dot
dotore
dotorea
dotrina
douard
double
doubs
doug
douglas
dover
down
download
doyle
dozena
dozenaka
dozu
dq
dr
dra
draco
dracula
draft
drag
dragoi
dragon
drainatze
drainatzen
drake
drakula
drale
drama
dramatiko
dramatikoa
dre
dream
dreams
dresden
drew
dreyfus
drive
driver
dro
droga
drogak
drogen
drogeria
droit
drosera
drug
drugs
drummond
dryopteris
ds
dss
dt
du
dua
duarte
dub
dubai
dublin
dublinen
dubliners
dublingo
dubois
duc
ducula
duda
dudala
dudan
dudana
dudarik
dudley
due
duela
duelako
duelarik
duen
duena
duenak
duenaren
duenari
duenean
duenez
duenik
duero
dugu
dugula
dugun
duguna
dugunean
dugunez
duin
duintasuna
duk
dukat
duke
dukea
dukeak
dukearen
dukerri
dukerria
dukesa
dulce
dum
dumas
dume
dumfries
dun
duna
dunak
duncan
dundee
dunlopek
dunn
duo
dupont
duque
dura
duran
durangaldea
durangaldeko
durango
durangoko
durangon
durante
duras
durham
during
duro
dus
dust
dut
dutch
dute
dutela
dutelako
dutelarik
duten
dutena
dutenak
dutenaren
dutenean
dutenei
dutenek
dutenen
dutenentzat
dutenez
duval
duzu
duzue
duzuen
duzula
duzun
dvd
dw
dwarf
dwight
dx
dy
dylan
dynamics
dynasty
dz
e
ea
eae
eaeko
eaen
eagle
eaj
eajk
eajko
eajren
eak
eako
ean
earl
earliest
early
earth
easo
east
eastern
eastwood
easy
eau
eaux
eb
eba
ebaketa
ebaki
ebakidura
ebakitzen
ebakuntza
ebaluatu
ebaluatzeko
ebaluazio
ebaluazioa
eban
ebanjelio
ebanjelioa
ebanjelioaren
ebatzi
ebazan
ebazpen
ebazpena
ebazteko
ebazten
eben
ebi
ebidentzia
ebidentziak
ebko
ebola
eboluzio
eboluzioa
eboluzioan
eboluzioaren
eboluzionatu
eboluzionatzen
ebro
ebroko
ebroren
ec
ecen
echeverri
echimyidae
echo
eckernfo
eclipse
eco
ecology
econo
economi
economic
economics
economy
ecsenius
ecured
ed
eda
edad
edalontzi
edan
edari
edaria
edariak
edateko
edaten
edda
eddie
eddy
eden
eder
ederki
ederra
ederrak
ederraren
ederren
ederrena
ederretako
ederretan
edertasun
edertasuna
edertasunaren
edgar
edge
edicio
ediciones
edicions
edinburgh
edinburgheko
edison
editatu
edited
edith
edition
editions
editor
editora
editore
editorea
editoreak
editores
editorial
editors
edizio
edizioa
edizioak
edizioan
edizioaren
edizioetan
edizioko
edmond
edmund
edo
edonola
edonon
edonor
edonork
edorta
edota
edozein
edozer
eds
edu
eduard
eduardo
educacio
education
educational
eduki
edukia
edukiak
edukiaren
edukien
edukiera
edukiko
edukiontzi
edukita
edukitzea
edukitzeko
edukitzen
edukiz
edurne
edward
edwards
edwin
ee
eek
ef
efe
efektu
efektua
efektuak
efektuaren
efektuko
effect
effects
efizientzia
ega
egan
egeo
egi
egia
egiak
egiaren
egiaz
egiazki
egiazko
egiazkoa
egiazkoak
egiaztatu
egiaztatzeko
egiaztatzen
egile
egilea
egileak
egilearen
egileari
egileek
egileen
egin
egina
eginak
eginarazi
eginda
egindako
egindakoa
egindakoak
eginen
eginez
egingo
eginik
eginiko
eginikoa
eginkizun
eginkizuna
eginkizunak
egintza
egintzak
egipto
egiptoar
egiptoarra
egiptoarrak
egiptoarrek
egiptok
egiptoko
egipton
egiptora
egiptoren
egiptotik
egitasmo
egitasmoa
egitasmoak
egitasmoaren
egitate
egite
egitea
egiteagatik
egiteak
egitean
egitearen
egiteari
egiteaz
egiteko
egitekoa
egiten
egitera
egiterakoan
egiterik
egitura
egiturak
egituran
egituraren
egiturari
egituratu
egituratzen
egituraz
egiturazko
egituren
egituretan
egizu
ego
egoera
egoerak
egoeran
egoerara
egoeraren
egoerari
egoeratan
egoeraz
egoeren
egoeretan
egoitz
egoitza
egoitzak
egoitzan
egoitzaren
egoki
egokia
egokiagoa
egokiak
egokian
egokiena
egokienak
egokitu
egokitua
egokituko
egokituta
egokitutako
egokituz
egokitzapen
egokitzapena
egokitzapenak
egokitzea
egokitzeko
egokitzen
egon
egonaldi
egonaldia
egonda
egondako
egonez
egongo
egonik
egonkor
egonkorra
egonkorrak
egonkortasun
egonkortasuna
egonkortu
egosi
egosia
egosita
egosteko
egosten
egotea
egoteagatik
egoteak
egotearen
egoteaz
egoteko
egoten
egotera
egotzi
egotzita
egozten
eguberri
eguerdian
eguin
egun
eguna
egunak
egunaren
egundaino
egundoko
egunean
eguneko
egunekoa
egunen
egunera
eguneratu
eguneratua
egunero
eguneroko
egunerokoa
egunerokoan
egunetako
egunetan
egunetara
egunetik
egunez
egungo
egungoa
egunkari
egunkaria
egunkariak
egunkarian
egunkariaren
egunkarien
egunkarietako
egunkarietan
egunkariko
egunsentia
egunsentian
egur
eguraldi
eguraldia
eguraldiaren
egurra
egurrez
egurrezko
egutegi
egutegia
egutegian
egutegiaren
egutegiko
eguzki
eguzkia
eguzkiak
eguzkiarekiko
eguzkiaren
eguzkiarena
eguzkitik
egypt
egyptian
eh
ehaan
ehf
ehiza
ehizan
ehizarako
ehizaren
ehizatu
ehizatzeko
ehizatzen
ehiztari
ehiztaria
ehiztariak
ehortzi
ehorzketa
ehu
ehuko
ehun
ehuna
ehunak
ehundaka
ehuneko
ehunekoa
ehunen
ehunetan
ehungintza
ehunka
ei
eibar
eibarko
eibarren
eider
eifel
eiffel
eight
eileen
eima
ein
eine
einstein
einsteinek
einsteinen
eitb
eitbko
eius
eizagirre
eizie
eizmendi
ej
eje
ek
ekain
ekaina
ekainak
ekainaren
ekainean
ekaineko
ekainera
ekainetik
ekaitz
ekaitza
ekaitzak
ekar
ekarpen
ekarpena
ekarpenak
ekarpenengatik
ekarri
ekarria
ekarriak
ekarriko
ekarritako
ekarriz
ekartzea
ekartzeko
ekartzen
eki
ekialde
ekialdea
ekialdean
ekialdeko
ekialdekoa
ekialdera
ekialderantz
ekialdetik
ekidin
ekiditeko
ekiditen
ekilore
ekimen
ekimena
ekimenak
ekimenaren
ekimenez
ekin
ekingo
ekintza
ekintzaile
ekintzailea
ekintzak
ekintzaren
ekintzen
ekintzetan
ekipamendu
ekipamendua
ekipamenduak
ekipo
ekitaldi
ekitaldia
ekitaldiak
ekitaldian
ekitaldiaren
ekitaldietan
ekitaldiko
ekiteko
ekiten
eklipse
eko
ekoa
ekoak
ekoitzi
ekoitzia
ekoitzitako
ekoizle
ekoizlea
ekoizleak
ekoizleek
ekoizpen
ekoizpena
ekoizpenak
ekoizpenaren
ekoizpenean
ekoiztea
ekoizteko
ekoizten
ekoiztu
ekoiztua
ekoiztutako
ekologia
ekologiko
ekologikoa
ekologikoak
ekologista
ekologistak
ekonomia
ekonomiak
ekonomiako
ekonomialari
ekonomialaria
ekonomian
ekonomiaren
ekonomiari
ekonomiko
ekonomikoa
ekonomikoak
ekonomikoan
ekonomikoaren
ekonomikoari
ekonomikoek
ekonomikoen
ekonomikoki
ekonomikorik
ekonomista
ekosistema
ekuador
ekuadorko
ekuadorren
ekuatore
ekuazio
ekuazioa
ekuazioak
ekuazioaren
el
ela
elaine
elapidae
elastiko
elastikoa
elba
elcorreo
elder
eldiario
ele
eleanor
eleberri
eleberria
eleberriak
eleberrian
eleberriarekin
eleberriaren
eleberrien
eleberrietan
eleberrigile
eleberrigilea
eleberriko
elebiduna
elecciones
election
electoral
electric
electro
electronic
elefante
elegans
elektra
elektriko
elektrikoa
elektrikoak
elektrikoaren
elektrikoen
elektrizitate
elektrizitatea
elektrizitatearen
elektrodo
elektroi
elektroiak
elektroiaren
elektroien
elektromagnetiko
elektromagnetikoa
elektromagnetikoak
elektromagnetikoaren
elektronika
elektroniko
elektronikoa
elektronikoak
elektronikoaren
elektronikoen
elektrotresna
elements
elementu
elementua
elementuak
elementuek
elementuekin
elementuen
elementurik
elena
eleotridae
eleutherodactylidae
eleutherodactylus
elexalde
elezahar
elezaharrak
elgeta
elgoibar
elgoibarko
elhuyar
eli
elia
elias
elikadura
elikagai
elikagaia
elikagaiak
elikagaien
elikatu
elikatze
elikatzeko
elikatzen
eliot
elisa
elisabet
elisabeth
eliseo
elite
eliteko
elixabete
eliz
eliza
elizabeth
elizak
elizako
elizalde
elizan
elizara
elizaren
elizari
elizatik
elizbarrutiaren
elizbarrutiko
elizegi
elizen
elizetako
elizetan
elizgizon
elizgizona
elizondo
elkano
elkanoren
elkar
elkarbizitza
elkargo
elkargoa
elkargoaren
elkargunean
elkarketa
elkarlan
elkarlana
elkarlanean
elkarlotzen
elkarrekiko
elkarrekin
elkarrekintza
elkarrekintzak
elkarren
elkarrengandik
elkarri
elkarrizketa
elkarrizketak
elkarrizketan
elkarrizketaren
elkarrizketatu
elkarrizketetan
elkartasun
elkartasuna
elkarte
elkartea
elkarteak
elkartean
elkartearekin
elkartearen
elkarteari
elkarteek
elkarteen
elkarteko
elkartu
elkartua
elkartuko
elkarturik
elkartuta
elkartuz
elkartze
elkartzea
elkartzean
elkartzeko
elkartzen
ell
ella
ellas
elle
ellen
elliot
elliott
ellis
ellos
elmer
elmundo
elo
elongatus
elorriaga
elorrio
elorrioko
elorrion
elortza
elorza
elosegi
eloy
elpais
elperiodico
els
elsa
else
elsevier
elton
elur
elurra
elustondo
elvira
elvis
em
emai
emaile
emailea
emaiten
emaitza
emaitzak
emaitzarekin
emaitzarik
emaitzaz
emaitzek
emaitzen
emakida
emakume
emakumea
emakumeak
emakumearen
emakumeari
emakumeei
emakumeek
emakumeekin
emakumeen
emakumeena
emakumeentzako
emakumeentzat
emakumeetako
emakumek
emakumerik
emakumezko
emakumezkoa
emakumezkoak
emakumezkoek
emakumezkoen
emakumezkoena
emakumezkoetan
emakunde
eman
emana
emanak
emanaldi
emanaldia
emanaldiak
emanaldietan
emanaz
emanda
emandako
emandakoa
emanen
emanez
emango
emanik
emaniko
emankizun
emankizunak
emankor
emankorra
emankorrak
emankortasun
emanuel
emari
emaria
emate
ematea
emateagatik
ematean
ematearen
emateari
emateaz
emateko
ematen
ematera
emazte
emaztea
emazteak
emaztearekin
emaztearen
emazteari
emazteek
emazteen
emberiza
emberizidae
eme
emea
emeak
emearen
emeek
emeen
emeki
emen
emerson
emery
emi
emigratu
emil
emile
emilia
emiliano
emilio
emily
emirerri
emisio
emisioa
emisioak
emititu
emititzen
emma
emmanuel
emmanuelle
emmy
emoia
emozio
emozioak
emozionala
emperor
empire
emploi
emporda
emporis
empresa
empresas
en
ena
enara
enbata
enbaxada
enbaxadore
enbaxadorea
enbeita
enblematikoa
enbor
enborra
enborrak
enborraren
enbrioi
enciclope
enciclopedia
encuentro
encuestas
encyclopaedia
encyclope
encyclopedia
encyclopædia
end
endemikoa
ene
enea
eneko
enekoitz
enemy
energetikoa
energi
energia
energiak
energiaren
energy
eneritz
enero
enfant
enfants
enfermedad
engainatu
engan
engatik
engels
engine
engineering
england
english
engraulidae
eni
enigma
enim
enkargatu
enkargua
enkarguz
enneapterygius
enontekio
enparantza
enparantzan
enpatia
enperadore
enperadorea
enperadoreak
enperadorearen
enperadoreari
enperadoreen
enperatriza
enpiriko
enpirikoa
enplegatu
enplegatzen
enplegu
enplegua
enpresa
enpresaburu
enpresaburua
enpresak
enpresako
enpresan
enpresarekin
enpresaren
enpresari
enpresaria
enpresei
enpresek
enpresen
enpresenak
enpresetan
enric
enrico
enrike
enrique
ensayo
ensayos
ensembl
ensemble
ensen
enterprise
entertainment
entitate
entre
entrega
entregatu
entrenamendu
entrenatu
entrenatzaile
entrenatzailea
entrenatzaileak
entrenatzen
entretenimendu
entrevista
entropia
entsalada
entsegu
entzat
entziklopedia
entziklopedian
entziklopedietatik
entziklopedikoa
entziklopedikotik
entzima
entzimak
entzule
entzuleen
entzumen
entzun
entzunezko
entzungai
entzungo
entzute
entzutea
entzutean
entzuteko
entzuten
environment
environmental
enz
eo
eoda
eolikoa
eos
eosentomon
ep
epa
epai
epaia
epaiak
epaiketa
epaiketan
epaiketaren
epaile
epailea
epaileak
epailearen
epaileek
epaileen
epaimahai
epaimahaiak
epaimahaiaren
epaitegi
epaitegia
epaitegiak
epaitu
epaitzeko
epaitzen
epe
epea
epean
epel
epela
epelak
epeletan
epic
epidemia
epiko
epikoa
epinephelus
epiplatys
episode
epistolaren
epitetoa
epsilon
epstein
eptatretus
equipo
equiv
equus
er
era
erabaki
erabakia
erabakiak
erabakiaren
erabakien
erabakigarria
erabakigarriak
erabakiko
erabakita
erabakitzea
erabakitzeko
erabakitzen
erabakiz
erabat
erabateko
erabatekoa
eraberritu
eraberritze
erabil
erabilera
erabilerak
erabileran
erabilerarako
erabileraren
erabilerari
erabilgarri
erabilgarria
erabilgarriak
erabilgarritasuna
erabili
erabilia
erabiliak
erabiliena
erabilienak
erabiliko
erabilita
erabilitako
erabiliz
erabilpen
erabilpena
erabiltzaile
erabiltzailea
erabiltzaileak
erabiltzailearen
erabiltzaileari
erabiltzaileei
erabiltzaileek
erabiltzaileen
erabiltzea
erabiltzeagatik
erabiltzeak
erabiltzean
erabiltzearen
erabiltzeari
erabiltzeko
erabiltzen
erabiltzera
eragiketa
eragiketak
eragile
eragilea
eragileak
eragilearen
eragileen
eragin
eragina
eraginagatik
eraginak
eraginaren
eraginari
eraginda
eragindako
eragindakoa
eraginez
eragingo
eraginik
eraginkor
eraginkorra
eraginkorragoa
eraginkorrak
eraginkorrean
eraginkorrena
eraginkortasun
eraginkortasuna
eraginpean
eragitea
eragiteko
eragiten
eragotzi
eragozpen
eragozpenak
eragozteko
eragozten
eraiki
eraikia
eraikiak
eraikiarazi
eraikiko
eraikin
eraikina
eraikinak
eraikinaren
eraikinari
eraikinean
eraikinek
eraikineko
eraikinen
eraikinetan
eraikinik
eraikita
eraikitako
eraikitakoa
eraikitzaile
eraikitze
eraikitzea
eraikitzeko
eraikitzen
eraikiz
eraikun
eraikuntza
eraikuntzak
eraikuntzako
eraikuntzan
eraikuntzarako
eraikuntzaren
erail
eraila
erailketa
eraitsi
erakargarri
erakargarria
erakarpen
erakarpena
erakarri
erakarrita
erakartzeko
erakartzen
eraketa
eraketan
erako
erakunde
erakundea
erakundeak
erakundean
erakundearen
erakundeei
erakundeek
erakundeekin
erakundeen
erakundeetan
erakundek
erakundeko
erakusgai
erakusgarri
erakusketa
erakusketak
erakusketan
erakusketaren
erakusketetan
erakusle
erakustaldi
erakustea
erakusteko
erakusten
erakutsi
erakutsiko
erakutsitako
erakutsiz
eraldaketa
eraldatu
eraldatutako
eraldatzeko
eraldatzen
eramaile
eraman
eramana
eramanak
eramandako
eramanez
eramango
eramatea
eramateko
eramaten
eran
erandio
erandioko
eranskin
eransten
erantsi
erantsita
erantsitako
erantzukizun
erantzukizuna
erantzule
erantzun
erantzuna
erantzunak
erantzunez
erantzungo
erantzunik
erantzuteko
erantzuten
erara
eraso
erasoa
erasoak
erasoaldi
erasoaldia
erasoan
erasoaren
erasoari
erasoei
erasoen
erasoetatik
erasoko
erasotu
erasotzaileak
erasotzea
erasotzeko
erasotzen
erat
eratara
eratorri
eratorria
eratorriak
eratorritako
eratortzen
eratu
eratua
eratuko
eratuta
eratutako
eratuz
eratzea
eratzeko
eratzen
erauzi
erauzketa
erauzte
erauzteko
erauzten
eraztun
eraztuna
eraztunak
eraztunaren
eraztunen
erbestean
erbesteko
erbestera
erbesteratu
erbesteratua
erbestetik
erbi
erc
erdal
erdaraz
erdi
erdia
erdiak
erdial
erdialde
erdialdea
erdialdean
erdialdeko
erdialdekoa
erdialdera
erdialdetik
erdian
erdietsi
erdigune
erdigunea
erdigunean
erdiguneko
erdigunera
erdigunetik
erdiko
erdikoa
erdilari
erdira
erditik
erditu
erditze
erdiz
ere
eredu
eredua
ereduak
ereduan
ereduaren
ereduari
ereduen
eredutzat
erein
eremias
eremu
eremua
eremuak
eremuan
eremuaren
eremuari
eremuen
eremuetako
eremuetan
eremuko
eremura
eremutan
eremutik
eren
eres
ereserki
ereserkia
ergatibo
eri
eric
erica
erich
eridanus
erie
erik
erika
erin
eritasun
eritrea
erizain
erizaina
erkidego
erkidegoa
erkidegoak
erkidegoan
erkidegoaren
erkidegoko
erlaitz
erlatibitate
erlatibitatearen
erlatibo
erlatiboa
erlatiboak
erlatiboki
erlazio
erlazioa
erlazioak
erlazioaren
erlazionatu
erlazionaturik
erlazionatuta
erlazionatutako
erlazionatzen
erle
erliebe
erliebea
erliebeak
erlijio
erlijioa
erlijioak
erlijioan
erlijioaren
erlijioari
erlijioen
erlijioso
erlijiosoa
erlijiosoak
erlijiosoaren
erlijiosoen
erlijioz
erlijiozko
erlikia
erlikiak
erloju
erlojua
erlojuak
erlojuaren
erlojupeko
erlojupekoa
ermita
ermitaren
ermua
ermuko
ernalketa
erne
ernest
ernesto
ernst
ero
eroa
eroale
eroankortasun
eror
erori
eroriko
eroritako
erorketa
erortzea
erortzean
erortzeko
erortzen
eros
erosi
erositako
erosketa
erosketak
eroso
erosoa
erostea
erosteko
erosten
erotikoa
erpin
erra
erradiazio
erradiazioa
erradiazioaren
erradikal
erradikala
erradikalak
erradio
erradioa
errai
erraiten
erraketista
erraketistak
erraldoi
erraldoia
erraldoiak
erraldoian
erraldoiaren
erraldoien
erramun
erran
errausketa
errauts
errautsak
erraz
erraza
errazago
errazagoa
errazak
errazena
erraztasun
erraztasuna
erraztasunak
errazteko
errazten
erraztu
erraztuz
erre
errea
erreaktibo
erreaktore
erreakzio
erreakzioa
erreakzioak
erreakzioaren
erreakzionatzen
erreal
erreala
errealak
errealaren
errealean
errealeko
errealen
errealismo
errealismoa
errealismoaren
errealista
errealistak
errealitate
errealitatea
errealitatean
errealitatearen
errebote
erredaktore
erredakzio
erreferendum
erreferenduma
erreferendumean
erreferente
erreferentea
erreferentzia
erreferentziak
erreferentziarako
erreferentziazko
erreforma
erreformak
erreformaren
errefrakzio
errefusatu
errefuxiatu
errefuxiatuak
errefuxiatuen
erregai
erregaia
errege
erregea
erregeak
erregealdi
erregealdia
erregealdian
erregealdiaren
erregealdiko
erregearekin
erregearen
erregeari
erregeek
erregeen
erregela
erregeorde
erregeordea
erregeordeak
erregeren
erregetza
erregimen
erregimena
erregimenak
erregimenaren
erregina
erreginak
erreginaren
erreginen
erregional
erregistratu
erregistratutako
erregistratzen
erregistro
erregistroa
erregistroak
erregistroan
erregosi
erregular
erregularra
erregularrak
erregulatzeko
erregulatzen
erregulazio
errehabilitazio
erreinu
erreinua
erreinuaren
erreinuko
erreka
errekak
errekalde
errekaren
errekopa
errekor
errekorra
errektore
errektorea
errekuntza
errekurtso
errelebo
erreleboa
errementari
erreminta
erremintak
errenazentista
errenazimentu
errenazimentuko
errendimendu
errendimendua
errenditu
errenkada
errenta
errentak
errentaren
errenteria
errenteriako
errenterian
erreparatu
erreparatuz
erreparatzen
errepertorio
errepide
errepidea
errepideak
errepidean
errepidearen
errepideen
errepideko
errepidera
errepidetik
errepika
errepikatu
errepikatzen
erreplika
erreportaje
erreportajea
errepresentatzen
errepresentazio
errepresentazioa
errepresio
errepresioa
errepresioaren
erreprodukzio
errepublika
errepublikak
errepublikako
errepublikan
errepublikano
errepublikanoa
errepublikanoak
errepublikar
errepublikaren
errepublikari
errepublikarra
errepublikarrak
erreserba
erreserbak
erreserban
erresidentzia
erresistentea
erresistentzia
erresistentziak
erresistentziako
erresistentzian
erresistentziaren
erreskatatu
erreskate
erresonantzia
errespetatu
errespetatuz
errespetatzen
errespetu
errespetua
erresuma
erresumak
erresumako
erresuman
erresumaren
erresumen
erret
erreta
erretako
erretaula
erretaulak
erretaulan
erretaularen
erretilu
erretiratu
erretiratua
erretiraturik
erretiratzea
erretiroa
erretorika
erretratu
erretratua
erretratuak
erretxina
erretzea
erretzeko
erretzen
errez
errezeta
erri
erria
erribera
erriberako
erriberan
erriberri
erriberriko
erriko
errima
errioxa
errioxako
errioxan
errioxar
erritmikoa
erritmo
erritmoa
erritu
erritual
erro
erroa
erroak
errobi
erroibar
errolda
erroldak
erroldan
erroldaren
erroldatutako
erroma
erromak
erromako
erroman
erromaniko
erromanikoa
erromanikoak
erromanikoan
erromanikoaren
erromanista
erromantiko
erromantikoa
erromantikoak
erromantizismo
erromantizismoaren
erromantzatua
erromantze
erromantzez
erromara
erromaren
erromatar
erromatarra
erromatarrak
erromatarraren
erromatarrean
erromatarrek
erromatarren
erromatik
erromeria
erromes
erromesak
erromesen
erronda
erronka
erronkak
erronkari
erronkaribar
erronkariko
error
errore
errorea
erroreak
errota
errotak
errotaren
errotazio
errotazioa
errotik
errua
errudun
erruduna
erruduntzat
errugbi
errugbia
errugbilari
errugbilaria
erruki
errukia
errumania
errumaniako
errumanian
errumaniar
errumanieraz
errusia
errusiak
errusiako
errusiakoa
errusian
errusiar
errusiara
errusiarekin
errusiaren
errusiari
errusiarra
errusiarrak
errusiarraren
errusiarrek
errusiarren
errusiera
errusieraz
erruten
erruz
ertain
ertaina
ertainak
ertainean
ertaineko
ertilari
ertilariak
ertz
ertza
ertzak
ertzaren
ertzean
ertzeko
ertzetan
ertzetik
erupzio
erupzioa
erupzioak
erwin
erythrolamprus
es
esa
esaera
esakune
esakunea
esaldi
esaldia
esaldiak
esaldiaren
esamoldea
esan
esana
esanahi
esanahia
esanahiak
esanahietarako
esanda
esandako
esandakoa
esanetan
esanetara
esanez
esango
esangura
esanguratsu
esanguratsua
esanguratsuak
esanguratsuena
esanguratsuenak
esanik
esatari
esataria
esate
esatea
esatean
esateko
esaten
esatera
esaterako
escape
escobar
escritoras
escritores
escudero
escuela
escultura
ese
esentzia
eseri
eserita
eserleku
eserlekua
eserlekuak
esfera
esferikoa
esfortzu
eska
eskaera
eskaerak
eskailera
eskailerak
eskain
eskaini
eskainia
eskainiko
eskainita
eskainitako
eskainiz
eskaintza
eskaintzak
eskaintzea
eskaintzeko
eskaintzen
eskakizun
eskakizunak
eskala
eskalada
eskalan
eskalaren
eskalatzaile
eskandalu
eskandalua
eskandinaviako
eskandinaviar
eskari
eskaria
eskariak
eskariaren
eskarmentu
eskas
eskasa
eskasak
eskasera
eskasia
eskatu
eskatuko
eskatuta
eskatutako
eskatuz
eskatzea
eskatzeko
eskatzen
eske
eskeini
eskeintzen
eskema
esker
eskerrak
eskerrik
eski
eskia
eskiatzaile
eskiatzailea
eskifaia
eskisabel
eskizofrenia
esklabo
esklaboak
esklaboen
esklabotza
esklabotzaren
esklabu
eskola
eskolak
eskolako
eskolan
eskolara
eskolaren
eskolarteko
eskolatik
eskolen
eskoletako
eskoletan
eskoriatza
eskoriatzako
eskozia
eskoziako
eskoziakoa
eskozian
eskoziar
eskoziarra
eskoziarrak
eskozieraz
eskrima
esku
eskua
eskuak
eskual
eskualde
eskualdea
eskualdeak
eskualdean
eskualdearen
eskualdeari
eskualdeen
eskualdeetako
eskualdeetan
eskualdeko
eskualdekoa
eskualdetan
eskualdetik
eskuan
eskuarekin
eskuaren
eskuarki
eskubaloi
eskubaloian
eskubide
eskubidea
eskubideak
eskubidearen
eskubideei
eskubideen
eskubiderik
eskuekin
eskuen
eskuetan
eskuetara
eskuetatik
eskuin
eskuinaldea
eskuinaldean
eskuinaldeko
eskuinaldetik
eskuindar
eskuinean
eskuineko
eskuinera
eskuinetara
eskuinetik
eskuizkribu
eskuizkribua
eskuizkribuak
eskuko
eskulan
eskuliburua
eskultore
eskultorea
eskultoreak
eskultorearen
eskultura
eskulturagile
eskulturak
eskulturan
eskulturaren
eskulturen
eskumako
eskumen
eskumena
eskumenak
eskura
eskuragarri
eskuratu
eskuratua
eskuratuko
eskuratutako
eskuratuz
eskuratzea
eskuratzeko
eskuratzen
eskutan
eskutik
eskutitz
eskuz
eskuzko
eslalom
eslalomean
eslaviar
esleitu
esleitutako
esleitzen
eslovakia
eslovakiako
eslovakiar
eslovakieraz
eslovenia
esloveniako
esloveniar
eslovenieraz
esmeralda
esnal
esnaola
esnatu
esne
esnea
esnearen
eso
esp
espacio
espagne
espainia
espainiak
espainiako
espainiakoa
espainiakoak
espainiakoaren
espainian
espainiar
espainiara
espainiaren
espainiari
espainiarra
espainiarrak
espainiarraren
espainiarrek
espainiarren
espainiatik
espainieraz
espan
espana
esparru
esparrua
esparruak
esparruan
esparruetan
esparruko
esparrura
espartza
esparza
espasa
espazial
espaziala
espazio
espazioa
espazioak
espazioan
espazioaren
espazioko
espaziora
espe
especial
especies
espedizio
espedizioa
espedizioak
espedizioan
espedizioaren
espedizioko
espejo
espektro
espektroa
espektroskopia
espekulazio
espeleologia
esperanto
esperantza
esperanza
esperientzia
esperientziak
esperientzian
esperientziaren
esperientziatik
esperimental
esperimentala
esperimentatu
esperimentatzen
esperimentu
esperimentua
esperimentuak
espero
espetxe
espetxea
espetxean
espetxeko
espetxera
espetxeratu
espetxeratua
espetxetik
espezia
espeziak
espezialista
espezialitate
espezializatu
espezializatua
espezializatuak
espezializatuta
espezializatutako
espezie
espeziea
espezieak
espeziearen
espezieari
espezieen
espezieko
espezien
espezierik
espezifiko
espezifikoa
espezifikoak
espi
espinosa
espioi
espioia
espioitza
espiral
espiritu
espiritua
espirituak
espiritual
espirituala
espirituaren
esplizituki
esploratu
esploratzaile
esploratzailea
esplorazio
esplotazio
espn
esporak
esportatu
esportatzen
esportazio
esportazioak
espresio
espresionismo
espresionista
espresuki
esprit
essai
essay
essays
esse
essential
essex
essonne
est
esta
establezimendu
estacio
estadi
estadio
estadioa
estadioan
estadioaren
estado
estados
estal
estaldura
estali
estalia
estaliak
estaliko
estalirik
estalita
estalitako
estaliz
estalki
estalkia
estaltzeko
estaltzen
estandar
estandarra
estandarrak
estandarraren
estanislao
estatikoa
estatistika
estatistikak
estatistikan
estatistikaria
estatistiken
estatistiko
estatistikoa
estatistikoak
estatistikoen
estatu
estatua
estatuak
estatuan
estatuaren
estatuari
estatubatuar
estatubatuarra
estatubatuarrak
estatubatuarraren
estatubatuarrek
estatubatuarren
estatuburu
estatuburua
estatuek
estatuen
estatuetako
estatuetan
estatuko
estaturik
estatus
estatusa
estatutan
estatutu
estatutua
estatutuak
estatutuaren
estazio
estazioa
estazioak
estazioko
este
esteban
esteka
estela
estella
estelle
estepa
ester
esteribar
esteribarko
estetika
estetikaren
estetiko
estetikoa
esther
estibalitz
estilo
estiloa
estiloak
estiloan
estiloaren
estiloari
estiloko
estilokoa
estimada
estimatu
estimatua
estimatzen
estimazio
estimazioen
estimulu
estitxu
esto
estonia
estoniako
estoniar
estornes
estos
estrabon
estrada
estralurtar
estrasburgo
estrasburgoko
estrategia
estrategiak
estrategiko
estrategikoa
estrategikoak
estre
estreinako
estreinaldia
estreinatu
estreinatua
estreinatuko
estrella
estrellas
estres
estresa
estrildidae
estropada
estropadak
estropadan
estruktura
estu
estua
estuagoa
estuak
estuan
estudiantes
estudio
estudioa
estudioak
estudioan
estudioetan
estudioko
estudios
estudis
estuki
estutu
estutzen
eszena
eszenak
eszenan
eszenatoki
eszentrikotasuna
et
eta
etab
etak
etakide
etakidea
etako
etan
etapa
etapak
etapan
etapatan
etara
etaren
etatik
etb
etbko
etc
ete
etekin
etekina
etekinak
eten
etena
etenaldi
etengabe
etengabea
etengabeak
etengabeko
etenik
eter
etetea
eteteko
eteten
ethan
ethel
etheostoma
ethics
ethnologue
etiam
etienne
etik
etika
etiketa
etiketak
etiko
etikoa
etikoak
etimologia
etiopia
etiopiako
etiopian
etmopterus
etnia
etniak
etniako
etniko
etnikoa
etnografia
etor
etorbide
etorbidea
etorbidean
etorbidearen
etorkin
etorkinak
etorkinen
etorkizun
etorkizuna
etorkizunari
etorkizunean
etorkizuneko
etorkizunerako
etorrera
etorrerarekin
etorri
etorria
etorriak
etorriko
etorritako
etorriz
etortzea
etortzeko
etortzen
etsai
etsaia
etsaiak
etsaiaren
etsaiek
etsaien
etsi
etxabe
etxahun
etxalde
etxaldea
etxaniz
etxarri
etxe
etxea
etxeak
etxean
etxearekin
etxearen
etxeari
etxebarri
etxebarria
etxeberri
etxeberria
etxebeste
etxebizitza
etxebizitzak
etxebizitzek
etxebizitzen
etxeen
etxeetako
etxeetan
etxegarai
etxek
etxeko
etxekotu
etxepare
etxera
etxerako
etxerik
etxetan
etxetik
etxetresna
etxez
etxezarreta
etxola
etzan
etzanda
eu
eucera
eufrates
euge
eugene
eugenia
eugenio
eugi
euki
eulalia
eulalie
euler
euli
eurak
eurasia
eurasiako
eurasian
eure
eurek
eurekin
euren
euri
euria
euriak
euritsuak
euro
euroferroviarios
euroko
eurokoa
europa
europak
europako
europan
europapress
europar
europara
europaren
europarra
europarrak
europarrek
europarren
europatik
europe
europea
european
europeo
eurovision
eus
euscara
eusebio
eusk
euskadi
euskadiko
euskadin
euskal
euskalaria
euskaldun
euskalduna
euskaldunak
euskaldunek
euskalduneko
euskaldunen
euskaldunon
euskalerria
euskalerriaren
euskalki
euskalkiak
euskalkian
euskalkien
euskalnatura
euskaltegia
euskaltel
euskalterm
euskaltzain
euskaltzaina
euskaltzaindia
euskaltzaindiak
euskaltzaindiaren
euskaltzaindiko
euskaltzale
euskaltzalea
euskara
euskarabidea
euskarak
euskaran
euskarara
euskararen
euskarari
euskaratu
euskaratua
euskaraz
euskarazko
euskarri
euskarria
euskarriak
euskera
eusko
euskomedia
euskonews
euskotren
euskotrenen
eustat
eustea
eusteko
eusten
eustomias
eutropis
eutsi
eutsiko
eutsiz
euzkadi
euzko
ev
eva
evaluation
evan
evans
evaristo
eve
evelyn
even
evening
event
events
ever
everest
everett
every
everything
evic
evidence
evil
eviota
evolucio
evolution
evolutionary
ex
exchange
exe
exekutatu
exekutatzeko
exekutatzen
exekutibo
exekutiboa
exekuzio
exekuzioa
exhibition
exilio
exist
existentzia
existentziaren
existitu
existitzen
exp
expedition
experience
experiencia
experiment
experimental
exploitations
exploration
explorer
expo
exposicio
express
extinction
extra
extremadura
extremadurako
eye
eyes
ez
eza
ezabatu
ezabatuz
ezabatzea
ezabatzeko
ezabatzen
ezagu
ezaguera
ezagun
ezaguna
ezagunagoa
ezagunak
ezagunaren
ezagunen
ezagunena
ezagunenak
ezagunenen
ezagunenetako
ezagunenetakoa
ezagut
ezagutarazi
ezagutarazteko
ezagutu
ezagutua
ezagutuko
ezagututa
ezagututako
ezagutza
ezagutzak
ezagutzaren
ezagutzea
ezagutzeko
ezagutzen
ezagutzera
ezak
ezar
ezaren
ezarpen
ezarpena
ezarri
ezarria
ezarriak
ezarriko
ezarrita
ezarritako
ezarriz
ezartzea
ezartzeko
ezartzen
ezaugarri
ezaugarria
ezaugarriak
ezaugarriekin
ezaugarrien
ezaugarriengatik
ezaugarrietako
ezaugarririk
ezaugarritzen
ezazu
ezazue
ezbehar
ezberdin
ezberdina
ezberdinak
ezberdinei
ezberdinek
ezberdinekin
ezberdineko
ezberdinen
ezberdinetako
ezberdinetan
ezberdinetara
ezberdinetatik
ezberdinez
ezberdintasun
ezberdintasuna
ezberdintasunak
ezberdintzen
ezean
ezegonkorra
ezegonkortasun
ezein
ezen
ezer
ezerk
ezertarako
ezetz
ezezagun
ezezaguna
ezezagunak
ezezkoa
ezeztatu
ezik
ezin
ezina
ezinbestean
ezinbesteko
ezinbestekoa
ezinbestekoak
ezinezko
ezinezkoa
ezingo
ezinik
ezintasuna
ezizen
ezizena
ezizenarekin
ezizenaz
ezizenez
ezkata
ezker
ezkero
ezkerra
ezkerraldea
ezkerraldean
ezkerraldeko
ezkerraldetik
ezkerraren
ezkerrean
ezkerreko
ezkerrekoa
ezkerrera
ezkerretara
ezkerretik
ezkertiar
ezkertiarra
ezkon
ezkondu
ezkondua
ezkonduko
ezkonduta
ezkongabe
ezkontidea
ezkontza
ezkontzak
ezkontzaren
ezkontzaz
ezkontzea
ezkontzeko
ezkontzen
ezkurra
ezkutatu
ezkutatuta
ezkutatzeko
ezkutatzen
ezkutu
ezkutua
ezkutuak
ezkutuan
ezkutuko
ezohiko
ezohikoa
ezpain
ezpata
ezpataz
ezpeleta
ezponda
ezra
ezta
eztabaida
eztabaidagai
eztabaidagarria
eztabaidak
eztabaidan
eztabaidatu
eztabaidatua
eztabaidatzeko
eztabaidatzen
eztabaidetan
eztanda
eztebe
eztei
ezti
eztia
eztu
eztula
ezustean
ezusteko
eſpecie
eſt
eſta
eſte
f
fa
faber
fabio
fabra
fabrika
fabrikak
fabrikan
fabrikatu
fabrikatzaile
fabrikatzeko
fabrikatzen
fabrikazio
fabrikazioa
fabrikazioan
fabrikazioko
face
facebook
faces
fact
factbook
facto
factor
factory
facts
factsheet
facultad
fagor
faila
fair
fairfield
fait
faith
faktore
faktorea
faktoreak
faktoreen
faktoria
fakultate
fakultatea
fakultatean
fakultateko
falange
falco
falcon
fall
fallece
falls
false
falta
faltagatik
faltak
faltan
faltsu
faltsua
faltsuak
fama
famatu
famatua
famatuak
famatuena
fame
familia
familiak
familiako
familiakoa
familiakoak
familian
familiar
familiarekin
familiaren
familiari
familiek
familien
families
famille
family
famous
fan
fanny
fantasia
fantasiazko
fantasy
fao
far
faraday
faraoi
faraoia
faraoiak
faraoiaren
farm
farmako
farmazia
faro
farrell
fasciatus
fase
fasea
faseak
fasean
faseko
fasetan
fashion
fast
fat
fate
father
fatxada
fatxadak
fatxadako
fatxadan
fatxadaren
fauna
faure
faustino
fausto
faverolles
favor
faxismoaren
faxista
fay
fayard
faye
fayette
fbiko
fc
fe
fear
feature
features
febrero
february
fede
fedea
fedearen
fededun
federacio
federal
federala
federalak
federalaren
federalean
federaleko
federation
federazio
federazioa
federazioak
federazioaren
federazioko
federico
federiko
felice
felipe
felix
feliz
female
femenina
femenino
femeninoa
feminismo
feminismoa
feminismoaren
feminist
feminista
feministak
feministaren
femme
femmes
feniziar
fenomeno
fenomenoa
fenomenoak
fense
fer
ferdinand
ferguson
feria
fermi
fermin
ferna
fernand
fernanda
fernandez
fernando
fernandoko
ferra
ferran
ferrara
ferrari
ferre
ferreira
ferrer
ferri
ferrie
ferro
ferrocarril
ferrocarriles
ferrol
ferroviarias
ferry
ferte
festa
festak
festival
festuca
feu
feve
fever
ff
fhisbase
fi
fiat
fiba
fica
ficas
ficha
fico
ficos
fiction
fidagarria
fidagarriak
fidantza
fidel
field
fields
fierro
fiesta
fifa
fifaren
fife
fifth
figaro
fight
fighting
figura
figure
figures
fihsbase
fiji
fijiko
fikzio
fikzioa
fikzioan
fikziozko
filadelfia
filantropoa
file
files
filipe
filipinak
filipinar
filipinetako
filipinetan
filipo
filippo
fille
film
filma
filmagatik
filmak
filman
filmarekin
filmaren
filmari
filmategia
filmatu
filmatzen
filme
filmean
filmeko
filmen
filmerako
filmetako
filmetan
films
filo
filologia
filologian
filologo
filologoa
filosofi
filosofia
filosofiak
filosofiako
filosofian
filosofiaren
filosofiari
filosofiko
filosofikoa
filosofikoak
filosofo
filosofoa
filosofoak
filosofoaren
filosofoek
filosofoen
fils
filum
fin
fina
finak
final
finala
finalean
finalera
finalerako
finalerdiak
finalista
financial
finantza
finantzaketa
finantzatu
finantzatzeko
finantzatzen
finantziazio
find
fine
finean
finiste
finka
finkatu
finkatuta
finkatutako
finkatzea
finkatzeko
finkatzen
finko
finkoa
finkoak
finland
finlandia
finlandiak
finlandiako
finlandian
finlandiar
finlandiaren
finlandiarrak
finlandiera
finlandieraz
finn
fiona
fire
firefox
firmin
first
fis
fiscaux
fischer
fish
fishbase
fisher
fishes
fisika
fisikako
fisikan
fisikaren
fisikari
fisikaria
fisiko
fisikoa
fisikoak
fisikoan
fisikoaren
fisikoen
fisikoki
fisio
fisiologia
fisioterapia
fiskal
fiskala
fiskalak
fiskalaren
fiskaltzak
fit
fitxa
fitxategi
fitxategia
fitxategiak
fitxatu
fitzgerald
fitzinger
five
fk
fl
flag
flags
flamenko
flammarion
flandria
flandriako
flandrian
flandriar
flash
flat
flauta
flavio
fle
fleming
flensburg
fletcher
fleury
flight
flo
flor
flora
florence
florencio
florent
florentzia
florentziako
florentzian
flores
florete
florian
florida
floridako
flota
flotatzen
flower
flowers
floyd
flu
fluido
fluidoaren
fluidoen
fluxu
fluxua
fluxuaren
fly
flying
flynn
fm
fo
focus
foix
foixkoa
foku
folk
folklore
folkma
fomento
fonda
fondo
fonema
font
fontaine
fontaines
fontana
fontenay
fontes
food
foot
football
for
foral
forall
forbes
force
forces
ford
fore
foreign
forest
forever
forges
forgotten
form
forma
formacio
formak
formako
formakoa
formakoak
formakuntza
formakuntzako
formal
formala
formalak
formalki
forman
formaren
formari
formarik
format
formation
formatstatements
formatu
formatua
formatuan
formazio
formazioa
formen
former
formosa
formula
formulak
formulako
formulatu
foro
foroa
forrest
forster
fort
forte
fortuna
fortune
foru
forua
foruak
foruen
forum
fosfato
fosforo
fosforoa
fosil
fosila
fosilak
fosilen
fosse
fossil
foster
foto
fotografi
fotografica
fotoi
fotosintesia
foucault
found
foundation
four
fourier
fournier
fourth
fowler
fox
foy
fr
fra
frac
fragata
frai
fraide
fraidea
fraile
fran
franc
franca
france
frances
francesc
francesca
francesco
franche
francia
francis
francisca
francisco
franck
franco
francok
francoren
frank
frankenstein
frankfurt
frankfurteko
frankismo
frankismoaren
frankista
frankistak
frankistaren
frankistek
frankisten
franklin
franko
frankoen
franquismo
frans
frantses
frantsesa
frantsesak
frantsesaren
frantsesek
frantseseko
frantsesen
frantsesera
frantsesetik
frantsesez
frantsesezko
frantzia
frantziak
frantziako
frantziakoa
frantziakoak
frantziakoaren
frantzian
frantziar
frantziara
frantziarekin
frantziaren
frantziari
frantziarra
frantziarrak
frantziarraren
frantziarrek
frantziarren
frantziatik
frantzisko
frantziskoko
frantziskotar
frantziskotarra
frantziskotarren
franz
fraser
fray
fre
fred
freddie
freddy
frederic
frederick
frederik
frederiko
free
freedom
freeman
freestyle
freire
frekuentzia
french
frente
fresko
freskoa
freskoak
fresne
fresnes
fresno
fresnoy
freud
freudek
fri
friburgo
frica
frida
friday
friedrich
friend
friends
friese
frijitu
frijitua
frijitzeko
fringillidae
fritz
friuli
fro
froese
froga
frogak
frogarik
frogatu
frogatuta
frogatzea
frogatzeko
frogatzen
from
front
frontale
fronte
frontea
frontean
frontera
frontier
frontoi
frontoia
frontoian
frost
fruitu
fruitua
fruituak
fruta
fry
ft
fu
fue
fuego
fuente
fuentes
fuera
fuerte
fuerza
fuga
fuji
fukuoka
fukushima
full
fuller
fulton
fun
funcio
function
fund
fundacio
fundamental
fundatu
fundatzailea
fundazio
fundazioa
fundazioak
fundazioan
fundazioaren
fundazioko
fundulus
funeraria
funerariak
funes
funikularra
funk
funts
funtsa
funtsak
funtsean
funtsezko
funtsezkoa
funtsezkoak
funtzio
funtzioa
funtzioak
funtzioan
funtzioaren
funtzioen
funtzional
funtzionala
funtzionalak
funtzionamendu
funtzionamendua
funtzionamenduan
funtzionario
funtzionarioa
funtzionarioak
funtzionarioek
funtzionatu
funtzionatzeko
funtzionatzen
furnariidae
fury
fusca
fuscus
fusil
fusilatu
fusilatua
fusio
fusioa
futbol
futbola
futbolaren
futbolari
futbolaria
futbolean
futboleko
future
futuro
g
ga
gaa
gabe
gabea
gabeak
gabeko
gabekoa
gabekoak
gabezia
gabeziak
gabilondo
gabon
gabonetako
gabonetan
gabriel
gabriela
gabriele
gabrielle
gaceta
gael
gaelera
gaeleraz
gaeltacht
gaga
gai
gaia
gaiak
gaiaren
gaiari
gaiei
gaien
gaietako
gaietan
gaietarako
gailendu
gailentzen
gailu
gailua
gailuak
gailuaren
gailuen
gailur
gailurra
gailurrak
gailurraren
gailurrean
gailurrera
gailurretik
gailurrik
gain
gaina
gainak
gainaldean
gainazal
gainazala
gainazalaren
gainazalean
gainazaleko
gainbegiratu
gainbehera
gainbeheran
gainbeheraren
gaindi
gaindiko
gainditu
gaindituta
gaindituz
gainditzea
gainditzeko
gainditzen
gainean
gaineko
gainekoa
gainera
gainerako
gainerakoa
gainerakoak
gainerakoan
gaineratu
gaineratzen
gainetan
gainetik
gainezka
gainontzeko
gainontzekoak
gainsbourg
gaio
gaita
gaitasun
gaitasuna
gaitasunak
gaitasunaren
gaitasunik
gaitezen
gaitezke
gaitu
gaituen
gaituzte
gaitz
gaitza
gaitzak
gaitzaren
gaitzat
gaitzesten
gaitzetsi
gaixo
gaixoa
gaixoak
gaixoaren
gaixoen
gaixorik
gaixotasun
gaixotasuna
gaixotasunak
gaixotasunaren
gaixotasunen
gaixotu
gaizka
gaizki
gaizkia
gaizkiaren
gaizkile
gaiztakeria
gaizto
gaiztoa
gaiztoak
gako
gakoa
gakoak
gal
gala
galanta
galar
galarazi
galarazten
galarraga
galaxia
galaxiak
galaxiaren
galaxias
galaxien
galaxies
galaxy
galdakao
galdakaoko
galdara
galde
galdegin
galdeketa
galdera
galderak
galderari
galdetu
galdetzen
galdu
galdua
galduak
galduko
galdurik
galduta
galdutako
galduz
gale
galega
galego
galera
galerak
galeraren
galeri
galeria
galeriak
galerian
galerie
gales
galesen
galeseraz
galesez
galesko
galestar
galex
galia
galiako
galiar
galicia
galileo
galindo
galizia
galiziako
galizian
galiziar
galiziera
galizieraz
gallagher
gallardo
gallastegi
gallego
gallen
gallery
gallica
gallimard
gallo
galloway
galtza
galtzada
galtzagorri
galtzaile
galtzea
galtzeko
galtzen
galtzerdi
galway
gama
gamba
gambusia
game
games
gamma
gan
gana
ganbara
ganbera
ganberak
ganberako
ganberan
ganberaren
ganbila
ganboa
gandhi
gandor
gang
ganga
gangak
gangaz
gante
gantz
gantza
gap
gar
gara
garagar
garagardo
garagardoa
garagarra
garai
garaia
garaiak
garaian
garaiaren
garaiari
garaien
garaiena
garaienak
garaienen
garaiera
garaieran
garaietako
garaietan
garaietatik
garaikide
garaikidea
garaikideak
garaikidean
garaikidearen
garaikideen
garaikideko
garaiko
garaikoa
garaikoak
garaikurra
garaile
garailea
garaileak
garaipen
garaipena
garaipenak
garaipenaren
garaipenik
garaira
garairik
garaitik
garaitu
garaitua
garaituak
garaituz
garaitzeko
garaitzen
garaiz
garan
garapen
garapena
garapenak
garapenarekin
garapenaren
garapenari
garapenean
garapenerako
garat
garate
garatu
garatua
garatuak
garatuko
garatuta
garatutako
garatuz
garatzea
garatzeko
garatzen
garay
garazi
garaziko
garbi
garbia
garbiak
garbiaren
garbiketa
garbin
garbitasun
garbitasuna
garbitu
garbitzea
garbitzeko
garbitzen
garci
garcia
gard
garda
garde
garden
gardena
gardens
gardner
gare
garela
garen
garenean
gares
garesti
garestia
garestiak
garfield
gari
garia
garibaldi
garikoitz
garland
garmendia
garo
garona
garonne
garra
garraiatu
garraiatzeko
garraiatzen
garraio
garraioa
garraioak
garraioan
garraioaren
garraiobide
garraiorako
garralda
garran
garrantzi
garrantzia
garrantziaren
garrantziaz
garrantzirik
garrantzitsu
garrantzitsua
garrantzitsuagoa
garrantzitsuak
garrantzitsuen
garrantzitsuena
garrantzitsuenak
garrantzitsuenen
garrantzitsuenetako
garrantzitsuenetakoa
garrantzitsuenetariko
garrantzitsuenetarikoa
garrantzitsuetan
garrantzitsutzat
garrantzizko
garratza
garren
garrena
garrett
garrido
garro
garrulax
gartzea
gartzia
garun
garuna
garunaren
garuneko
gary
gas
gasa
gasak
gasaren
gasen
gasolina
gaspar
gastatu
gasteiz
gasteizen
gasteizko
gasteiztar
gasteiztik
gaston
gastronomia
gastrotheca
gastu
gastua
gastuak
gatazka
gatazkak
gatazkan
gatazkaren
gatazkari
gatazken
gate
gates
gateway
gatibu
gatik
gato
gatz
gatza
gatzaga
gatzak
gatzarekin
gatzaren
gau
gaua
gauak
gauaren
gaude
gaudela
gauden
gaudi
gauean
gaueko
gauetan
gauez
gaulle
gaur
gaurdaino
gaurko
gaurkotu
gauss
gauthier
gauza
gauzak
gauzaren
gauzarik
gauzatu
gauzatuko
gauzatzea
gauzatzeko
gauzatzen
gauzei
gauzen
gauzetan
gavin
gay
gaya
gaza
gazako
gazette
gazetteer
gazi
gazia
gaziko
gazta
gaztaina
gaztan
gaztaroa
gaztaroan
gaztaroko
gazte
gaztea
gazteagoa
gazteak
gaztearen
gaztedi
gazteei
gazteek
gazteen
gazteena
gazteentzako
gaztela
gaztelako
gaztelakoa
gaztelakoak
gaztelakoaren
gaztelan
gaztelania
gaztelaniara
gaztelaniaren
gaztelaniaz
gaztelaniazko
gaztelar
gaztelaren
gaztelera
gazteleraz
gaztelerazko
gaztelu
gaztelua
gazteluak
gazteluan
gazteluaren
gazteluko
gaztelupeko
gaztelura
gazteria
gazteriaren
gazterik
gaztetan
gaztetatik
gaztetxea
gaztezulo
gb
gc
ge
gebara
gehi
gehiago
gehiagok
gehiagoko
gehiagokoa
gehiagora
gehiagorekin
gehiagoren
gehiagorik
gehiagotan
gehiagoz
gehiegi
gehiegikeria
gehiegikeriak
gehiegizko
gehiegizkoa
gehien
gehiena
gehienak
gehienbat
gehienean
gehienek
gehieneko
gehienen
gehienetan
gehienez
gehienezko
gehiengo
gehiengoa
gehiengoak
gehiengoaren
gehigarri
gehigarria
gehigarriak
gehikuntza
gehitu
gehituko
gehituta
gehituz
gehitzea
gehitzeko
gehitzen
gehyra
geiago
gekko
gekkonidae
gel
gela
gelak
gelako
gelan
gelatina
gelaxka
geldi
geldialdi
geldialdia
geldiarazi
geldiarazteko
geldiarazten
geldirik
gelditu
geldituko
geldituz
gelditzea
gelditzeko
gelditzen
gelechiidae
geltoki
geltokia
geltokiak
geltokian
geltokiaren
geltokien
geltokietan
geltokiko
geltokira
geltokitik
gema
gemini
gemma
gemme
gen
gender
gene
genea
geneak
genealogia
geneen
genera
generacio
general
generales
generalitat
generalitateak
generalitatearen
generalitateko
generation
generikoa
genero
generoa
generoak
generoan
generoaren
generoari
generoen
generoetako
generoko
generokoa
generotan
genes
genesis
genest
genetic
genetics
genetika
genetiko
genetikoa
genetikoak
genetikoaren
genetikoki
geneva
genevako
genevan
genevie
genezake
genie
genitibo
genituen
genius
genocide
genoma
genome
genova
genovako
genozidioa
gens
gente
gentiana
genuen
genuke
genus
geo
geoemydidae
geoffrey
geoffroy
geogra
geografi
geografia
geografiko
geografikoa
geografikoak
geografikoki
geografo
geographic
geography
geolo
geologia
geologian
geological
geologiko
geologikoa
geologo
geologoa
geology
geometria
geometrian
geometriko
geometrikoa
geometrikoak
geophis
geophysical
georg
george
georges
georgetown
georgi
georgia
georgiako
georgian
georgiar
georgieraz
gephyromantis
geq
ger
gera
gerais
gerald
geraldine
geraleku
geralekua
gerard
gerardo
geratu
geratuko
geratuz
geratzea
geratzeko
geratzen
gerbillus
gere
gerediaga
geren
gerhard
gerlari
germa
germain
germaine
german
germania
germaniako
germaniar
germaniarrak
germaniarren
germany
gernika
gernikako
gernikan
gernu
gero
geroa
geroago
geroagoko
geroko
gerora
geroxeago
geroz
geroztik
gerra
gerrak
gerrako
gerran
gerraosteko
gerrara
gerrarako
gerrarekin
gerraren
gerrari
gerratik
gerraz
gerrek
gerren
gerretan
gerriko
gerrikoa
gerrikoan
gerrilla
gerrillari
gerry
gers
gerta
gertaera
gertaerak
gertaeren
gertakari
gertakaria
gertakariak
gertakarien
gertakizun
gertakizunak
gertatu
gertatua
gertatuko
gertaturiko
gertatutako
gertatutakoa
gertatuz
gertatzea
gertatzeko
gertatzen
gertrude
gertsch
gertu
gertuago
gertuen
gertuko
gerturatu
gerturatzen
gertutik
gerundioa
geruza
geruzak
geruzan
geruzaren
geruzen
gervais
ges
geschichte
gestio
get
getaria
getariako
gets
getxo
getxoko
getxon
geu
geure
geza
gezako
gezi
geziak
gezur
gezurra
gezurrak
gezurrezko
gfdl
ghana
ghanako
ghost
gi
giacomo
gian
gianni
giant
gib
gibel
gibela
gibelean
gibeleko
gibraltar
gibson
gica
gicas
gico
gicos
gida
gidari
gidaria
gidariak
gidaritza
gidaritzapean
gidatu
gidatua
gidatutako
gidatzeko
gidatzen
gidoi
gidoia
gidoiak
gidoigile
gidoigilea
gidoigileak
gidoilari
gidoilaria
gie
gifu
gigas
gihar
giharrak
gijo
gijon
gil
gila
gilbert
gilen
giles
gill
gilles
giltza
giltzadura
giltzak
giltzarri
giltzurrun
gime
gimnasia
gimnasta
gimnastika
gin
gina
ginea
gineako
ginen
giorgio
giovanni
gipuz
gipuzkoa
gipuzkoako
gipuzkoan
gipuzkoar
gipuzkoarra
gipuzkoarrak
gira
girard
girl
girls
giro
giroa
giroan
giroko
girolamo
girona
gironako
gironda
gironde
girotua
girotuta
girotutako
gisa
gisako
gisan
gisara
gitarra
gitarrista
giuliano
giulio
giuseppe
give
giza
gizabanako
gizabanakoak
gizabanakoaren
gizabanakoek
gizabanakoen
gizadiaren
gizaki
gizakia
gizakiak
gizakiaren
gizakiarentzat
gizakiari
gizakiei
gizakiek
gizakien
gizakiengan
gizakietan
gizakiok
gizakion
gizapedian
gizarte
gizartea
gizarteak
gizartean
gizartearen
gizarteari
gizarteko
gizaseme
gizatalde
gizateria
gizateriaren
gizon
gizona
gizonak
gizonaren
gizonari
gizonei
gizonek
gizonekin
gizonen
gizonena
gizonez
gizonezko
gizonezkoa
gizonezkoak
gizonezkoek
gizonezkoen
gizonezkoena
gizonezkoetan
gizonik
gks
gladiolus
gladys
glasgow
glasgowko
glass
glaucidium
glaziar
glaziarra
glaziarrak
gle
glen
glenea
glenn
gli
glise
global
globala
globalaren
globe
globo
globulu
gloria
glory
glover
glu
glukosa
glyptothorax
gm
gmbh
gmina
gnome
gnu
go
goa
goardia
goazen
gob
gobernadore
gobernadorea
gobernadoreak
gobernadorearen
gobernari
gobernaria
gobernariak
gobernatu
gobernatzeko
gobernatzen
gobernu
gobernua
gobernuak
gobernuan
gobernuarekin
gobernuaren
gobernuari
gobernuburu
gobernuburua
gobernuek
gobernuen
gobernuko
gobernutik
gobernuz
gobierno
gobiesocidae
gobiidae
god
gods
goenaga
goenkale
goes
goethe
gogh
gogo
gogoa
gogoak
gogoan
gogoaren
gogoeta
gogoetak
gogoko
gogokoena
gogor
gogora
gogorarazten
gogoratu
gogoratuz
gogoratzeko
gogoratzen
gogorra
gogorragoa
gogorrak
gogorraren
gogorren
gogorrena
gogortasuna
gogortasunaren
gogortu
gogotsu
gogoz
gohan
goi
goia
goialdea
goialdean
goialdeko
goian
goiburu
goiburua
goiena
goieneko
goienetxe
goierri
goierriko
goiko
goikoa
goikoetxea
going
goire
goiri
goiti
goitia
goitik
goitizena
goiz
goizaldean
goizean
goizeko
goiztiar
goiztiarra
goiztiarrak
goiztiarrean
goizueta
goku
gokuk
gol
gola
gold
goldberg
golden
goldman
goldwyn
goleatzaile
golf
golkoa
golkoan
golkoaren
golkoko
golpe
goma
gomazko
gomendagarria
gomendatu
gomendatzen
gomendio
gomendioak
gomez
gon
gona
gonbidapena
gonbidatu
gonbidatua
gonbidatuak
gonbidatzen
gonbita
gonc
goncourt
gondorreko
gone
gongoil
gontzal
gonza
gonzalez
gonzalo
good
goodbye
goodman
google
gor
gora
gorabehera
gorabeherak
gorabeherako
gorago
goragoko
goraipatu
goraipatzen
goraka
gorakada
gorako
gorakoa
gorakoak
gorantz
goranzko
goratu
goratzen
gorbeia
gorbeiako
gordailu
gordailua
gorde
gordea
gordeko
gordeta
gordetako
gordetzea
gordetzeko
gordetzen
gordin
gordina
gordinaren
gordinik
gordon
gore
goren
gorena
gorenak
gorenaren
gorenean
goreneko
gorenera
gorengo
goretsi
gori
gorka
gorostiaga
gorpu
gorpua
gorpuak
gorputz
gorputza
gorputzak
gorputzarekin
gorputzaren
gorputzari
gorputzean
gorputzek
gorputzeko
gorputzen
gorputzetik
gorpuzkiak
gorri
gorria
gorriak
gorrian
gorriaren
gorriek
gorrien
gorriko
gorriranzko
gorriti
gorrixka
gorriz
gorrotatzen
gorroto
gorrotoa
gorrotxategi
gorte
gortea
gorteak
gortean
gortearen
gorteek
gorteen
gorteetako
gorteetan
gorteko
gortera
gose
gosea
goseak
gosete
gosetea
gosez
gospel
got
gotiko
gotikoa
gotikoak
gotikoan
gotikoaren
gotikoko
gotorleku
gotorlekua
gotorlekuak
gotorlekuan
gotorlekuaren
gotortu
gottfried
gotzain
gotzaina
gotzainak
gotzon
gould
gouv
gov
government
goxo
goya
goza
gozamen
gozamena
gozatu
gozatzeko
gozatzen
gozo
gozoa
gozoak
gp
gps
gr
gra
grabaketa
grabatu
grabatua
grabatuak
grabatuta
grabatutako
grabatzaile
grabatzailea
grabatzeko
grabatzen
grabazio
grabazioa
grabazioak
grabitate
grabitatearen
grabitazio
grace
gracia
gracias
gracilis
gradu
gradua
graduatu
graduko
graduondoko
graf
grafia
grafikak
grafiko
grafikoa
grafikoak
grafikoan
grafikoen
grafo
graham
grallaria
gram
grama
gramatika
grammar
grammy
gramo
grampus
gran
granada
granadako
granadan
grand
grande
grandes
grandis
grands
grange
granges
granito
granitozko
granja
grant
grass
grasset
grau
grave
graves
gravity
gray
grazia
gre
great
greater
greatest
greba
grebak
greban
greco
greece
greek
green
greenberg
greene
greenwich
greenwood
greer
greg
gregorio
gregoriotar
gregory
greko
grekoa
grekoak
grekoaren
grekotik
grekoz
grenoble
greta
grey
grezia
greziak
greziako
grezian
greziar
greziaren
greziarra
greziarrak
greziarrek
greziarren
greziera
grezieratik
grezieraz
grezierazko
griffin
griffith
grimm
grin
grina
grinak
gripearen
gris
grisa
grisak
grisaxka
grisonia
gro
groenlandia
gros
grosso
ground
group
groups
grove
growth
gru
grupo
grus
gs
gt
gu
gua
guadalajara
guadalajarako
guadalupe
guangzhou
guarda
guardia
guardiako
guardian
guatemala
guatemalako
guatemalan
guda
gudan
gudari
gudaria
gudariak
gudarien
gudaroste
gudarostea
gudarosteak
gudarostearen
gudarosteko
gudu
gudua
guduak
guduan
guduaren
guduetan
gue
guen
guentheri
guernica
guerra
guerre
guerrero
guevara
guez
guggenheim
gui
guia
guide
guido
guillaume
guille
guillermo
guimara
guinea
guinness
guipu
guipuzcoa
guitar
guk
gulf
gun
gune
gunea
guneak
gunean
gunearen
guneen
guneetan
guneko
gunera
gunerik
gunetan
gunnar
guns
guo
gur
gura
guraso
gurasoak
gurasoei
gurasoek
gurasoekin
gurasoen
gurdi
gurdia
gure
gurea
gurean
gurekin
guretzat
guri
guridi
gurin
gurina
gurpil
gurpila
gurpilak
gurrutxaga
gurtu
gurtza
gurtzen
guru
guruin
guruinak
gurutzada
gurutzadura
gurutzatu
gurutzatzen
gurutze
gurutzea
gurutzearen
gus
gustatu
gustatzen
gustav
gustave
gustavo
gustu
gustua
gustuko
gustukoa
gustura
gut
gutenberg
guti
gutie
gutierrez
gutun
gutuna
gutunak
gutunaren
gutunean
gutxi
gutxiago
gutxiagoko
gutxiagokoa
gutxiagorekin
gutxiagotan
gutxian
gutxien
gutxieneko
gutxienez
gutxiengo
gutxietsi
gutxik
gutxiko
gutxikoa
gutxinaka
gutxira
gutxirekin
gutxiren
gutxitan
gutxitu
gutxituz
gutxitzea
gutxitzeko
gutxitzen
guy
guyana
guziak
guzma
guzti
guztia
guztiak
guztian
guztiarekin
guztiaren
guztiari
guztiaz
guztiei
guztiek
guztiekin
guztien
guztientzako
guztientzat
guztietako
guztietan
guztietara
guztietarako
guztietatik
guztiez
guztiko
guztiok
guztion
guztira
guztiz
guztizko
gwynedd
gy
gymnastics
gymnophiona
gymnophthalmidae
gymnothorax
gyo
h
ha
haas
haatik
habana
habanako
habanan
habe
habeak
habearte
habeartea
habearteak
habeartearen
habi
habia
habiak
habitat
habitata
habla
habsburgotarren
hace
hacer
hacia
had
hadi
haec
haemulidae
haga
hagako
hagen
hagin
hague
hahn
hai
haiei
haiek
haiekin
haien
haientzat
haietako
haietan
haietatik
hain
haina
hainbat
hainbatek
hainbatetan
hainbeste
hainbesteko
haiti
haitiko
haitz
haitza
haitzulo
haitzuloa
haize
haizea
haizeak
haizearen
hal
hala
halabeharrez
halaber
halako
halakoa
halakoak
halakorik
halakoxe
halatan
halaxe
hale
halere
half
halichoeres
hall
halle
haluro
ham
hamabi
hamabigarren
hamabosgarren
hamabost
hamahiru
hamahirugarren
hamaika
hamaikagarren
hamalau
hamalaugarren
hamar
hamargarren
hamarkada
hamarkadak
hamarkadako
hamarkadan
hamarkadara
hamarkadaren
hamarkadatan
hamarkadatik
hamarkadaz
hamarkadetako
hamarkadetan
hamarraldian
hamarraldiaren
hamarreko
hamarren
hamasei
hamaseigarren
hamazazpi
hamazazpigarren
hamazortzi
hamburg
hamilton
hamlet
hammer
hammond
hampshire
hampton
han
hanbat
hanburgo
hancock
hand
handbook
handi
handia
handiagatik
handiago
handiagoa
handiagoak
handiagoan
handiagoarekin
handiagoko
handiagoz
handiak
handian
handiarekin
handiaren
handiari
handiaz
handiegia
handiei
handiek
handiekin
handien
handiena
handienak
handienaren
handienean
handieneko
handienen
handienetako
handienetakoa
handienetan
handienetariko
handienetarikoa
handietako
handietan
handik
handika
handiko
handikoa
handikoak
handira
handirik
handitan
handitasun
handitasuna
handitik
handitu
handituko
handituz
handitze
handitzea
handitzeak
handitzeko
handitzen
handiz
hands
hango
hangul
hank
hanka
hankak
hankaz
hanken
hanketan
hanks
hanna
hannah
hannibal
hannon
hannover
hanover
hans
hansen
hantura
hantxe
haplochromis
happened
happy
har
hara
haragi
haragia
haragiak
haragiaren
harago
haraindiko
harald
haran
harana
haranak
haranaren
haranburu
haranean
haraneko
harat
haratago
harategi
harategia
harategiak
harbor
harbour
harcourt
hard
hardcore
hardin
harding
hardware
hardy
hare
harea
hareazko
hareharrizko
harekin
haren
harengan
harengandik
harentzat
hargatik
hargin
hari
haria
hariak
harik
harira
haririk
haritz
haritza
haritzak
harizko
harizpi
hark
harkaitz
harlandu
harlanduz
harlanduzko
harlem
harluxet
harmaila
harmonia
harmoniko
haro
haroko
harokoa
harold
harpa
harper
harpercollins
harpidetza
harrapa
harrapaketa
harrapakin
harrapakina
harrapakinak
harrapari
harrapariak
harrapatu
harrapatua
harrapatuta
harrapatutako
harrapatzea
harrapatzeko
harrapatzen
harreman
harremana
harremanak
harremanaren
harremanean
harremanei
harremanen
harremanetan
harremanetarako
harremanik
harrera
harresi
harresia
harresiak
harresiaren
harresien
harresiz
harrespila
harrezkero
harri
harria
harriak
harrian
harriaren
harribitxi
harridura
harrien
harriet
harrigarri
harrigarria
harrigarriak
harris
harrison
harritu
harrituta
harritzekoa
harriz
harrizko
harro
harrobi
harrobia
harrobian
harrotu
harry
hart
hartako
hartan
hartara
hartarako
hartatik
hartaz
hartu
hartua
hartuak
hartuko
harturik
harturiko
hartuta
hartutako
hartuz
hartz
hartza
hartzaile
hartzailea
hartzaileak
hartzailearen
hartzaileek
hartzaileen
hartze
hartzea
hartzeagatik
hartzeak
hartzean
hartzearekin
hartzearen
hartzeari
hartzeko
hartzen
hartzera
hartzidura
harvard
harvardeko
harvey
has
hasan
haserre
haserrea
haserretu
hash
hasi
hasia
hasiak
hasiera
hasierako
hasierakoa
hasieran
hasierara
hasieratik
hasiko
hasita
hasitako
hasitakoan
hasiz
hassan
hasta
hastapenak
hastapenetan
hastea
hastean
hasteko
hasten
hastings
hat
hatz
hatzak
hau
hauei
hauek
hauekin
hauen
hauengatik
hauetako
hauetan
hauetara
hauetariko
hauetatik
hauetaz
hauexek
hauez
haur
haurdun
haurdunaldi
haurdunaldia
haurdunaldian
haurdunaldiaren
haurra
haurrak
haurraren
haurrari
haurrei
haurrek
haurrekin
haurren
haurrentzako
haurrentzat
haurtzaro
haurtzaroa
haurtzaroan
haurtzaroko
hauskorra
hausnarketa
haustea
hausteko
hausten
haustura
hausturak
haut
hautagai
hautagaia
hautagaiak
hautagaien
hautagaitza
hautaketa
hautatu
hautatua
hautatuak
hautatuko
hautatutako
hautatzeko
hautatzen
haute
hauteman
hautemateko
hautematen
hautes
hauteskunde
hauteskundeak
hauteskundeen
hauteskundeetako
hauteskundeetan
hauteskundeetara
hauteskundeetarako
hauteskundetan
hautesle
hautespen
hautetsi
hauteville
hauts
hautsa
hautsak
hautsi
hautsia
hautsitako
hautsiz
hautua
hauxe
have
haven
havli
hawaii
hawaiiko
hawk
hawkins
hay
hayashi
haye
hayes
hayward
haz
hazbete
haze
hazer
hazi
hazia
haziak
hazitako
haziz
hazkunde
hazkundea
hazkundeak
hazkundearen
hazkuntza
haztea
hazteko
hazten
hb
hbar
hbo
hc
hcl
hd
he
head
health
heart
hearts
heat
heath
heather
heaven
heavy
hebrear
hebreera
hebreeraz
hebridetan
hecho
hector
heda
hedabide
hedabideak
hedabideek
hedabideen
hedabideetan
hedadura
hedaduraz
hedapen
hedapena
hedapenak
hedapenaren
hedatu
hedatua
hedatuena
hedatuko
hedaturik
hedatuta
hedatuz
hedatzea
hedatzeko
hedatzen
hedges
hegal
hegala
hegalak
hegalari
hegaldi
hegaldia
hegaldiak
hegalean
hegaleko
hegaletan
hegan
hegats
hegazkin
hegazkina
hegazkinak
hegazkinaren
hegazkinek
hegazkinen
hegazti
hegaztia
hegaztiak
hegaztien
hego
hegoa
hegoafrika
hegoafrikako
hegoafrikan
hegoafrikar
hegoak
hegoal
hegoalde
hegoaldea
hegoaldean
hegoaldeko
hegoaldekoa
hegoaldera
hegoalderago
hegoalderantz
hegoaldetik
heidelberg
heidelbergeko
heidelbergetik
heights
hein
heinean
heinrich
heinz
hek
hektarea
hektareako
hel
helarazi
helbide
helbidea
helbideak
helburu
helburua
helburuak
helburuarekin
helburuaren
helburuen
helburutzat
helburuz
helcogramma
heldu
heldua
helduak
helduaroan
helduek
helduen
helduentzako
helduko
helduta
heldutasun
heldutasuna
helduz
helen
helena
helene
helikoptero
helio
helioa
helios
helize
hell
heller
hello
helmuga
helmugara
helmut
help
helsinki
helsinkiko
heltzea
heltzean
heltzeko
heltzen
hemen
hemendik
hemengo
hemeretzi
hemeretzigarren
hemeroteca
hemeroteka
hemezortzi
hemezortzigarren
hemibagrus
hemidactylus
hemigrammus
hemingway
hemiphractidae
hemisferioan
hemisferioko
hendaia
hendaiako
hendaian
henderson
hendrik
henri
henrik
henrike
henry
hepburn
heptapteridae
her
hera
heracleum
herald
heraldica
heraldo
herbehereak
herbehereen
herbehereetako
herbehereetan
herbehereetar
herbeheretar
herbert
hercules
here
heredia
heren
herena
herenak
herenean
herensuge
herensugea
herentzia
herge
herio
heriotz
heriotza
heriotzak
heriotzara
heriotzarekin
heriotzaren
heriotzari
heritage
herkules
herman
hermann
hermano
hermanos
hermes
hermitage
herna
hernandez
hernando
hernani
hernaniko
hernanin
hernia
hero
herodoto
heroes
heroi
heroia
heroiak
heroien
heroina
herrera
herrero
herri
herria
herriak
herrialde
herrialdea
herrialdeak
herrialdean
herrialdearen
herrialdeek
herrialdeekin
herrialdeen
herrialdeentzako
herrialdeetako
herrialdeetan
herrialdeetara
herrialdek
herrialdeko
herrialdera
herrialderik
herrialdetako
herrialdetan
herrialdetik
herrialdez
herrian
herriarekin
herriaren
herriarentzat
herriari
herriburua
herriei
herriek
herriekin
herrien
herrietako
herrietan
herrietara
herrietatik
herrigune
herrigunea
herrigunean
herrigunearen
herrigunetik
herrik
herriko
herrikoa
herrikoi
herrikoia
herrikoiak
herrikoiaren
herrira
herririk
herritan
herritar
herritarra
herritarrak
herritarrei
herritarrek
herritarren
herritartasuna
herritik
herrixka
herrixkak
herrixkan
herriz
herschel
herschelek
hertsia
hertsian
hertsiki
herzegovina
herzegovinako
hesi
hesia
hesiak
hesse
hessen
heste
hesteetako
het
heteromyidae
heuren
hexagonalaren
heze
hezea
hezeak
hezeetan
hezegune
hezetasun
hezetasuna
hezi
hezia
heziketa
hezitzaile
hezitzailea
hezkuntza
hezkuntzak
hezkuntzako
hezkuntzan
hezkuntzarako
hezkuntzaren
hezkuntzari
hezur
hezurdura
hezurra
hezurrak
hezurraren
hezurren
hg
hi
hibrido
hic
hidalgo
hidden
hidrauliko
hidraulikoa
hidrogeno
hidrogenoa
hidrogenoaren
hidrokarburo
hiena
hierarkia
hierro
hiesa
hiesaren
higadura
higgins
high
higher
highland
higidura
higiene
higiezinen
higikunde
higitzen
hija
hijo
hijos
hik
hika
hil
hila
hilabete
hilabetea
hilabeteak
hilabetean
hilabeteetan
hilabeteko
hilabetera
hilabetetan
hilabetez
hilaire
hilak
hilarazi
hilaren
hilario
hilarri
hilda
hildako
hildakoa
hildakoak
hildakoaren
hildakoen
hilean
hileko
hilen
hilero
hilerri
hilerria
hilerrian
hilerriko
hileta
hiletan
hilez
hilgarria
hilik
hilketa
hilketak
hilketaren
hilko
hilkortasun
hill
hillary
hills
hilobi
hilobia
hilobiak
hilobian
hilobiaren
hilobietan
hilton
hiltzaile
hiltzailea
hiltzaileak
hiltzea
hiltzean
hiltzeko
hiltzen
hiltzera
hilzorian
himalaia
himno
hindu
hip
hipermerkatu
hipermerkatuetako
hipo
hipotesi
hipotesia
hipotesiak
hipotesiaren
hippocampus
hippolyte
hipposideros
hiri
hiria
hiriak
hirian
hiriarekin
hiriaren
hiriari
hiriarteko
hiriberri
hiribidea
hiribil
hiribildu
hiribildua
hiribilduak
hiribilduaren
hiriburu
hiriburua
hiriburuak
hiriburuan
hiriburuaren
hiriburuko
hiriburura
hiriburutik
hiriek
hiriekin
hirien
hirietako
hirietan
hirietara
hirigintza
hirigintzako
hirigune
hirigunea
hirigunean
hirigunearen
hirigunetik
hiriko
hirikoa
hirira
hiririk
hiritan
hiritar
hiritarrak
hiritarrek
hiritarren
hiritartasuna
hiritartasunez
hiritik
hiroshi
hiroshima
hiru
hirugarren
hirugarrena
hirugarrenak
hirugarrenean
hiruki
hiruko
hirukoitz
hirukoitza
hirukote
hirukotea
hirumilako
hirumilakoen
hirundinidae
hirurak
hirurehun
hirurek
hirurogei
hirurogeiko
hirurogeita
hirutan
his
hispa
hispania
hispaniako
hispaniar
hispano
hispanoak
hist
histo
histoire
historia
historiak
historiako
historialari
historialaria
historialariak
historialariaren
historialariek
historialarien
historian
historiarekin
historiaren
historiari
historias
historiaurreko
historiaz
historic
historical
historiko
historikoa
historikoak
historikoan
historikoaren
historikoen
historikoetan
historikoki
historikoko
historique
history
hit
hitchcock
hitler
hitlerrek
hitlerren
hits
hitu
hitz
hitza
hitzak
hitzaldi
hitzaldia
hitzaldiak
hitzaldian
hitzarekin
hitzaren
hitzarmen
hitzarmena
hitzarmenak
hitzarmenaren
hitzarmenean
hitzartu
hitzaurrea
hitzaurrean
hitzek
hitzekin
hitzen
hitzetan
hitzetatik
hitzetik
hitzez
hitzezko
hitzik
hiz
hizkera
hizkerak
hizkeran
hizketa
hizketan
hizki
hizkia
hizkiak
hizkuntz
hizkuntza
hizkuntzak
hizkuntzako
hizkuntzalari
hizkuntzalaria
hizkuntzalaritza
hizkuntzalaritzan
hizkuntzan
hizkuntzaren
hizkuntzari
hizkuntzatan
hizkuntzatara
hizkuntzaz
hizkuntzen
hizkuntzetako
hizkuntzetan
hizlari
hizlaria
hizpide
hiztegi
hiztegia
hiztegiak
hiztegian
hiztegiaren
hiztun
hiztuna
hiztunak
hiztunek
hiztunen
hiztunik
hl
hler
hm
hms
ho
hobbes
hobe
hobea
hobeak
hobeki
hobekien
hobekuntza
hobekuntzak
hobera
hoberena
hoberenak
hoberenetakoa
hobesten
hobeto
hobetsi
hobetu
hobetuz
hobetzea
hobetzeko
hobetzen
hobi
hobia
hobiak
hoc
hockey
hockeya
hockeyan
hodei
hodeia
hodeiak
hodi
hodia
hodiak
hodiaren
hodien
hoffman
hoffmann
hogei
hogeigarren
hogeita
hokkaido
hola
holanda
holandako
holandar
hold
holden
hole
holiday
holland
holly
hollyhock
hollywood
hollywoodeko
hollywooden
holm
holmes
holocentridae
holstein
holt
holy
hombre
hombres
home
homenaje
homer
homero
homeroren
homme
hommes
homo
homogeneoa
homosexual
homosexuala
hon
hona
honako
honakoa
honakoak
honda
hondakin
hondakinak
hondakinen
hondamen
hondamena
hondamendi
hondamendia
hondamendiaren
hondar
hondarra
hondarrak
hondarribia
hondarribian
hondarribiko
hondartza
hondartzak
hondartzako
hondartzan
hondartzaren
hondatu
hondatuta
hondatzen
hondo
hondoa
hondoan
hondoko
hondoratu
honduras
hondurasko
honegatik
honek
honekin
honela
honelako
honelaxe
honen
honenbestez
honengatik
honetako
honetakoa
honetakoak
honetan
honetara
honetarako
honetatik
honetaz
honey
honez
hong
hongos
honi
honolulu
honor
honore
honoris
honshu
hontan
hontz
hood
hook
hop
hope
hopkins
hoplia
hoplostethus
hopper
hor
hora
horace
horacio
horas
hordago
hori
horia
horiak
horiei
horiek
horiekin
horien
horietako
horietan
horietara
horietarako
horietatik
horietaz
horiez
horixe
horixka
horixkak
horizontal
horizontala
horizontalean
horizonte
horma
hormak
horman
hormaren
hormen
hormetako
hormetan
hormigoi
hormigoia
hormigoizko
hormona
hormonak
horn
horni
hornidura
hornigai
hornikuntza
hornitu
hornitua
hornituta
hornitutako
hornitzaile
hornitzeko
hornitzen
hornos
horra
horregatik
horrek
horrekin
horrela
horrelako
horrelakoa
horrelakoak
horrelakorik
horrelaxe
horren
horrenbeste
horrenbestez
horrengatik
horretako
horretakoa
horretakoak
horretan
horretara
horretarako
horretatik
horretaz
horrexegatik
horrez
horrezaz
horri
horror
horse
horses
horst
horta
hortan
hortaz
hortik
hortxe
hortz
hortzak
horus
hospital
host
hosto
hostoak
hostoen
hot
hotel
hotela
hotelak
hotelaren
hotelean
hoteleko
hots
hotsa
hotsak
hotz
hotza
hotzak
hotzaren
hotzean
hotzetan
houghton
hour
hours
house
houston
houten
how
howard
hoy
hoya
hoz
hozte
hozten
hoztu
hp
hr
hradec
hradis
htm
html
http
https
hu
hua
huang
huarte
hub
hubble
hubert
hudson
hue
huelva
huelvako
huerta
huesca
huescako
hugh
hughes
hugo
hui
human
humana
humanista
humanitate
humano
humanos
humans
humberto
humboldt
hume
humor
humphrey
hundred
hungaria
hungariako
hungarian
hungariar
hungarieraz
hunger
hunsru
hunt
hunter
hur
hura
huraxe
hurbil
hurbila
hurbilago
hurbildu
hurbilduz
hurbilean
hurbileko
hurbilen
hurbiletik
hurbilketa
hurbiltze
hurbiltzea
hurbiltzeko
hurbiltzen
hurren
hurrenez
hurrengo
hurrengoa
hurrengoak
hurricane
hurruntze
hurt
hurtado
huskako
hussein
huston
hustu
hustua
hutchinson
huts
hutsa
hutsak
hutsaren
hutsean
hutsegite
hutsetik
hutsez
hutsezko
hutsik
hutsune
hutsunea
hutsuneak
huxley
hyde
hydra
hydrogen
hydrolagus
hydrophis
hygrocybe
hygrophorus
hylarana
hylidae
hyloxalus
hyo
hyperoliidae
hyperolius
hyphessobrycon
hypostomus
hypsiboas
hz
i
ia
iaaf
iainkoak
iainkoaren
iakiteko
iam
ian
ianaren
ias
iau
ib
iba
ibai
ibaia
ibaiadar
ibaiadarra
ibaiak
ibaian
ibaiarekin
ibaiaren
ibaiari
ibaiek
ibaien
ibaietako
ibaietan
ibaiko
ibaira
ibairik
ibaitik
ibaizabal
iban
ibar
ibargoiti
ibarguren
ibarra
ibarrak
ibarran
ibarraren
ibarrean
ibarrekin
ibarreko
ibarretan
ibarretik
ibarretxe
ibarrola
ibaxako
ibe
iberdrola
iberduero
iberia
iberian
iberiar
ibericas
ibero
ibi
ibid
ibidem
ibil
ibilaldi
ibilaldia
ibilbide
ibilbidea
ibilbideak
ibilbidean
ibilbidearekin
ibilbidearen
ibilbideari
ibilbideko
ibilgailu
ibilgailua
ibilgailuak
ibilgailuen
ibili
ibilia
ibiliko
ibilitako
ibilitakoa
ibiliz
ibilli
ibiltari
ibiltaria
ibiltzea
ibiltzeko
ibiltzen
ibm
ibn
ibon
ibrahim
ic
icarus
ice
ich
ichthyophis
icteridae
id
ida
idaho
idahoko
idatz
idatzi
idatzia
idatziak
idatzietan
idatziko
idatzirik
idatziriko
idatzita
idatzitako
idatzitakoa
idatziz
idatzizko
idaz
idazkari
idazkaria
idazkariak
idazkaritza
idazkera
idazketa
idazki
idazkiak
idazkietan
idazkun
idazkunak
idazkuntza
idazlan
idazlana
idazlanak
idazle
idazlea
idazleak
idazlearekin
idazlearen
idazleari
idazleek
idazleen
idazlerik
idaztea
idazteari
idazteko
idazten
ide
idea
ideal
ideala
idealak
idealismo
ideas
ideia
ideiak
ideiarekin
ideiaren
ideien
idem
identidad
identification
identifika
identifikatu
identifikatzea
identifikatzeko
identifikatzen
identifikazio
identifikazioa
identitate
identitatea
identitatearen
identity
ideologia
ideologiko
ideologikoa
ideologikoki
idi
idiakez
idiazabal
idioma
ido
idoia
idolo
ie
iec
ieee
if
ig
iga
igande
igandea
igandean
igaraba
igaro
igarobide
igarobidea
igaroko
igarota
igarotako
igarotze
igarotzea
igarotzean
igarotzeko
igarotzen
igaroz
igartza
igel
igela
igeltseroa
igeltseroak
igeri
igerian
igeriketa
igerilari
igerilaria
igerileku
igitur
iglesia
iglesias
ignacio
ignazio
igo
igoera
igoerak
igoeran
igoeraren
igogailu
igogailua
igoko
igor
igorle
igorpen
igorri
igorritako
igortzeko
igortzen
igotzea
igotzeko
igotzen
igoz
igualdad
ihes
ihesa
ihesaldi
ihesean
ihesi
iheslari
ii
iii
ij
ijito
ijitoak
ijitoen
ik
ika
ikara
ikaragarri
ikaragarria
ikaragarriak
ikaragarrizko
ikas
ikasgai
ikasi
ikasia
ikasiko
ikasitako
ikasketa
ikasketak
ikasketen
ikasketetan
ikaskuntza
ikaskuntzako
ikaskuntzaren
ikasle
ikaslea
ikasleak
ikaslearen
ikasleei
ikasleek
ikasleekin
ikasleen
ikaslekin
ikastaro
ikastaroa
ikastaroak
ikaste
ikastea
ikasteko
ikasten
ikastera
ikastetxe
ikastetxea
ikastetxeak
ikastetxean
ikastetxeetan
ikastetxeko
ikastola
ikastolak
ikastolako
ikastolan
ikastolaren
ikastolen
ikasturte
ikasturtean
ikatz
ikatza
ikatzaren
iker
ikergazte
ikerketa
ikerketak
ikerketan
ikerketarako
ikerketaren
ikerketek
ikerketen
ikerketetan
ikerkuntza
ikerlan
ikerlari
ikerlaria
ikerlariak
ikerlariek
ikertu
ikertzaile
ikertzailea
ikertzaileak
ikertzaileek
ikertzea
ikertzeko
ikertzen
ikono
ikonografia
ikur
ikurra
ikurrak
ikurrin
ikurrina
ikus
ikusezina
ikusgai
ikusgarri
ikusgarria
ikusgarriak
ikusi
ikusia
ikusiko
ikusirik
ikusita
ikusitako
ikusiz
ikusizko
ikuskaritza
ikuskera
ikuskizun
ikuskizuna
ikuskizunak
ikusle
ikusleak
ikuslearen
ikusleek
ikusleen
ikusleentzako
ikusmen
ikusmena
ikusmolde
ikuspegi
ikuspegia
ikuspegiak
ikuspegitik
ikuspuntu
ikuspuntua
ikuspuntutik
ikustea
ikustean
ikusteko
ikusten
ikustera
il
ilara
ilaran
ilargi
ilargia
ilargiak
ilargian
ilargiaren
ilargiko
ilargira
ildaskatua
ildo
ildoa
ildoak
ildotik
ile
ilea
ileak
ilex
ill
illa
ille
illinois
illinoiseko
illinoisko
illustrated
iloba
iltze
ilun
iluna
ilunabarrean
ilunagoa
ilunak
ilunaren
ilundu
iluneko
iluntasuna
ilusio
ilusioa
ilustrada
ilustratu
ilustratua
ilustratzaile
ilustratzailea
ilustrazio
ilustrazioa
ilustrazioak
ilustrazioaren
im
ima
image
imagen
images
iman
imanol
imaz
imdb
imdbko
imitatu
imitatzen
immanuel
immunitate
impact
imperf
imperial
imperio
implications
imposible
impossible
imprenta
in
ina
inaktibo
inaktiboak
inaktiboetatik
inari
inariko
inauguratu
inauguratua
inaugurazio
inaugurazioa
inauteriak
inazio
inbaditu
inbaditzeko
inbasio
inbasioa
inbasioak
inbasioan
inbasioaren
inbertitu
inbertsio
inbertsioa
inbertsioak
inc
incilius
including
indalecio
indar
indargabetu
indarkeria
indarkeriaren
indarkeriarik
indarra
indarrak
indarraren
indarrean
indarrek
indarren
indarrez
indarrik
indartsu
indartsua
indartsuago
indartsuagoa
indartsuak
indartsuena
indartu
indartuz
indartzea
indartzeko
indartzen
indautxu
inde
independence
independencia
independent
independente
independentea
independenteak
independentean
independenteen
independentista
independentzia
independentziaren
independentziari
independiente
independizatu
index
indi
india
indiak
indiako
indian
indiana
indianako
indiar
indiara
indiaren
indiarra
indiarrak
indiarren
indibidualak
indibiduo
indica
indicus
indie
indietako
indigena
indigenak
indigenek
indigenen
individual
indize
indizea
indo
indoeuropar
indonesia
indonesiako
indonesian
indre
indukzio
indurain
indus
indusketa
indusketak
indusketetan
industri
industria
industriak
industriako
industrial
industriala
industrialak
industrialaren
industrialdea
industrialen
industrializazio
industrializazioa
industrializazioaren
industrian
industriaren
industriari
industry
ine
inertzia
ines
inesibo
infanta
infante
infantea
infanteria
infanteriako
infantil
infektatzen
infekzio
infekzioa
infekzioak
inferentzia
infernuko
infierno
infinitu
infinitua
inflazio
inflazioa
inflexio
influence
influentzia
info
informa
informacio
informatika
informatikako
informatikan
informatikaren
informatikari
informatikaria
informatiko
informatikoa
informatikoak
information
informazio
informazioa
informazioak
informazioaren
informaziorik
informe
infotaula
infraestructuras
infragorri
infty
ingalaterra
ingalaterrak
ingalaterrako
ingalaterrakoa
ingalaterrakoaren
ingalaterran
ingalaterrara
ingalaterraren
inge
ingeleraz
ingeles
ingelesa
ingelesak
ingelesaren
ingelesek
ingeleseko
ingelesen
ingelesera
ingelesetik
ingelesez
ingelesezko
ingeniari
ingeniaria
ingeniariak
ingeniariek
ingeniarien
ingeniaritza
ingeniaritzako
ingeniaritzan
ingeniaritzaren
ingenieritza
ingle
ingraham
ingrid
inguma
inguratu
inguratua
inguraturik
inguratuta
inguratutako
inguratuz
inguratzen
inguru
ingurua
inguruak
inguruan
inguruaren
inguruetako
inguruetan
ingurugiro
inguruk
inguruko
ingurukoa
ingurukoak
ingurumen
ingurumena
ingurumenaren
ingurumenean
ingurune
ingurunea
inguruneak
ingurunean
ingurunearen
inguruneetan
inguruneko
ingurura
ingurutik
inhibitzen
inka
inken
inkesta
inkisizioak
inkisizioaren
inkorporatutako
inma
inmaculada
inn
innovation
inocybe
inoiz
inoizko
inola
inolako
inolaz
inon
inondik
inongo
inor
inoren
inori
inork
inozentzio
inpaktu
inpedantzia
inperial
inperiala
inperialak
inperialaren
inperio
inperioa
inperioak
inperioan
inperioaren
inperioari
inperioko
inplikatzen
inportantea
inportatu
inportatzen
inposatu
inposta
inprenta
inpresionista
inprimatu
inprimatutako
inprimatzeko
insausti
inscriptions
insectivora
insee
inseen
inseeren
inside
insider
inskripzio
inskripzioa
inskripzioak
inspektorea
inspiratu
inspiratuta
inspirazio
inspirazioa
instagram
instalatu
instalazio
instalazioa
instalazioak
instalazioen
institucio
institut
institute
institution
instituto
institutu
institutua
institutuak
institutuan
institutuaren
institutuko
instituzio
instrukzio
instrumental
instrumentala
instrumentu
instrumentua
instrumentuak
int
inte
integral
integrala
integrated
integratu
integratua
integratuta
integratzeko
integratzen
integrazio
integrazioa
intel
intelektual
intelektuala
intelektualak
intelektualaren
intelektualen
intelektualik
inteligentzia
intelligence
intentsitate
intentsitatea
inter
interakzio
intere
interes
interesa
interesak
interesatu
interesatzen
intereseko
interesen
interesgarri
interesgarria
interesgarriak
interesik
interfaze
interfazea
interferentzia
interior
intermedia
intermedius
internacional
international
internationale
internazional
internazionala
internazionalaren
internet
interneteko
interneten
interpretatu
interpretatuz
interpretatzeko
interpretatzen
interpretazio
interpretazioa
interpretazioak
interprete
interview
into
introduccio
introduction
intsektu
intsektuak
intsektuen
intxaur
intxaurrondo
intxausti
intzidentzia
invalid
invasion
inverness
investigacio
investigaciones
invierno
invisible
io
ioan
ioc
ioi
ioiak
ioien
ion
ios
iowa
iowako
ip
ipa
ipar
iparragirre
iparral
iparralde
iparraldea
iparraldean
iparraldeko
iparraldera
iparralderago
iparralderantz
iparraldetik
iparreko
ipin
ipini
ipintzen
ipuin
ipuina
ipuinak
ipuinen
ir
ira
irabazi
irabazia
irabaziak
irabazien
irabaziko
irabazita
irabazitako
irabaziz
irabazle
irabazlea
irabazleak
irabaztea
irabazteko
irabazten
irabiatu
iradoki
iradokitzen
iragan
iragana
iraganean
iraganeko
iragarki
iragarkia
iragarkiak
iragarpen
iragarpena
iragarri
iragartzen
iragazi
iragazki
irail
iraila
irailak
irailaren
irailean
iraileko
irailera
irailetik
irain
irainak
irak
irakasgai
irakaskuntza
irakaskuntzan
irakaskuntzaren
irakasle
irakaslea
irakasleak
irakaslearekin
irakaslearen
irakasleek
irakasleen
irakaspen
irakaspenak
irakastea
irakasteko
irakasten
irakatsi
irakeko
iraken
irakin
irakite
irakiten
irakur
irakurgai
irakurketa
irakurle
irakurlea
irakurleak
irakurleari
irakurleen
irakurri
irakurtzea
irakurtzeko
irakurtzen
iran
irandar
iranen
irango
irantzu
iraola
iraq
iras
irati
iratiko
iratxe
irauli
iraultza
iraultzaile
iraultzailea
iraultzaileak
iraultzailearen
iraultzaileen
iraultzak
iraultzako
iraultzan
iraultzarekin
iraultzaren
iraun
iraungi
iraungo
iraunkor
iraunkorra
iraunkorrak
iraunkorrean
iraunkorreko
iraunkortasuna
iraupen
iraupena
iraute
irautea
irauteko
irauten
irazustabarrena
ire
ireann
ireki
irekia
irekiak
irekian
irekidura
irekiera
irekiko
irekita
irekitako
irekitzea
irekitzeko
irekitzen
irekiz
ireland
irene
irensten
irentsi
iri
iriarte
iribarren
irigarai
irigoien
irin
irina
iriondo
iris
irisgarritasun
irisgarritasuna
irish
iristea
iristean
iristeko
iristen
irits
iritsi
iritsiko
iritsita
iritsitako
iritsiz
iritzi
iritzia
iritziak
iritziz
irizar
irizpide
irizpidea
irizpideak
irizten
irla
irlan
irlanda
irlandako
irlandan
irlandar
irlandaren
irlandarra
irlandarrak
irlandera
irlanderaz
irlanderazko
irletako
irma
irmo
irmoa
iron
ironia
irrati
irratia
irratiak
irratian
irratiaren
irratiko
irregular
irregularra
irregularrak
irri
irrika
irteera
irteerak
irteerako
irteeran
irten
irtenbide
irtenbidea
irtengo
irtetea
irteteko
irteten
iru
irudi
irudia
irudiak
irudian
irudiarekin
irudiaren
irudiek
irudiekin
irudien
irudietan
irudika
irudikapen
irudikapena
irudikapenak
irudikatu
irudikatua
irudikatuta
irudikatuz
irudikatzeko
irudikatzen
irudiko
irudimen
irudimena
irudirik
iruditu
iruditzen
irudiz
irudizko
iruindar
irujo
irulegiko
irun
irunberri
irunberriko
irunen
irungo
irureta
iruretagoiena
irurtzun
irutxuloko
iruzkin
iruzkinak
iruzur
iruzurra
irvine
irving
irwin
is
isa
isaac
isaak
isabel
isabella
isabelle
isasi
isats
isatsa
isbn
ise
iseka
isidoro
isidro
isil
isila
isilik
isilpean
isilpeko
isiltasuna
isis
iskanbila
isla
islam
islama
islamaren
islamiar
islamic
islamikoa
islamikoaren
island
islandia
islandiako
islandian
islandiar
islands
islas
islatu
islatzen
isle
isles
ismael
ismail
iso
isola
isolamendu
isolamendua
isolatu
isolatua
isolatuta
isolatzaile
isotes
isotopo
ispilu
israel
israeldar
israeldarrak
israeldarrei
israeldarrek
israeldarren
israelek
israelen
israelgo
israeli
issn
issue
issues
issuu
ist
istanbul
istilu
istiluak
istiluen
istorio
istorioa
istorioak
istorioan
istorioaren
istripu
istripua
istripuak
istripuan
istripuaren
istripuz
isuna
isuri
isurialde
isurialdean
isuriko
isurkari
isurketa
isurkiko
isurtzen
it
ita
italia
italiak
italiako
italian
italiana
italiano
italiar
italiara
italiaren
italiarra
italiarrak
italiarraren
italiarrek
italiarren
italiatik
italiera
italieraz
italierazko
italo
italy
item
itis
ito
itoiz
itota
its
itsa
itsas
itsasadarra
itsasadarraren
itsasadarrean
itsasargi
itsasargia
itsasartea
itsasarteak
itsasartean
itsasartearen
itsasertzean
itsasertzeko
itsasgizon
itsasgizona
itsaslasterra
itsaslasterran
itsaso
itsasoa
itsasoak
itsasoan
itsasoarekin
itsasoaren
itsasoari
itsasoetan
itsasoko
itsason
itsasontzi
itsasontzia
itsasontziak
itsasontzian
itsasontziaren
itsasontziek
itsasontzien
itsasontziko
itsasora
itsasoratu
itsasoratzen
itsasotik
itsasoz
itsaspeko
itsasten
itsatsi
itsatsita
itsu
itsua
itsuak
itu
itun
ituna
itunak
itunaren
itunean
iturbe
iturburu
iturburua
iturgina
iturginak
iturralde
iturri
iturria
iturriaga
iturriak
iturriaren
iturriek
iturrien
iturrietan
itxaro
itxaron
itxaropen
itxaropena
itxaropenak
itxaroten
itxaso
itxi
itxia
itxiak
itxiera
itxiko
itxita
itxitura
itxura
itxurak
itxurako
itxurakoa
itxurakoak
itxuran
itxuraz
itxurazko
itz
itza
itzagaondoa
itzal
itzala
itzalak
itzalean
itzali
itzalpean
itzaltzen
itzazu
itzela
itziar
itzul
itzulera
itzulerako
itzuli
itzulia
itzuliak
itzulian
itzuliko
itzulirik
itzulita
itzulitako
itzuliz
itzulpen
itzulpena
itzulpenak
itzulpenarekin
itzulpenaren
itzulpengintza
itzultzaile
itzultzailea
itzultzaileak
itzultzea
itzultzean
itzultzeko
itzultzen
iu
iucn
iucnredlist
iupac
iurreta
ius
iv
iva
ivan
iwata
ix
ixa
ixabel
ixtea
ixteko
ixten
iz
iza
izaba
izadi
izadiaren
izaera
izaerak
izaeraren
izaerari
izaeraz
izagirre
izaki
izakia
izakiak
izakien
izan
izana
izanagatik
izanak
izanaren
izanaz
izanda
izandako
izandakoa
izandakoak
izanen
izanez
izango
izanik
izar
izaro
izarra
izarrak
izarraren
izarrarteko
izarrek
izarren
izarretako
izarrik
izaskun
izate
izatea
izateagatik
izateak
izatean
izatearen
izateari
izateaz
izateko
izatekoa
izatekotan
izaten
izatera
izateraino
izatetik
izatez
izeba
izeko
izen
izena
izenak
izenarekin
izenaren
izenari
izenaz
izenburu
izenburua
izenburuak
izenburuarekin
izenburuko
izenburupean
izenda
izendapen
izendapena
izendapenak
izendatu
izendatua
izendatuak
izendatuko
izendaturik
izendatuta
izendatutako
izendatuz
izendatzea
izendatzeko
izendatzen
izendegia
izenean
izenek
izenekin
izeneko
izenekoa
izenekoak
izenekoan
izenen
izenetik
izenez
izengoitia
izengoitiz
izenik
izenpean
izenpetu
izerdi
izkina
izkinan
izko
izokin
izotz
izotza
izotzaren
izotzezko
izozte
izoztu
izoztua
izpi
izpiak
izpien
izpiritu
izpiritua
izpirituak
izpirituaren
izquierda
iztueta
izu
izua
izugarri
izugarria
izugarriak
izugarrizko
izurde
izurri
izurria
izurrite
izurritea
j
ja
jabari
jabe
jabea
jabeak
jabearen
jabeek
jabeen
jabego
jabegoa
jabetu
jabetuko
jabetza
jabetzak
jabetzako
jabetzakoa
jabetzaren
jabetzeko
jabetzen
jabier
jaca
jacinto
jack
jackie
jackson
jacksonek
jacob
jacobs
jacobsen
jacopo
jacqueline
jacques
jada
jadanik
jade
jae
jaguar
jai
jaia
jaiak
jaialdi
jaialdia
jaialdiak
jaialdian
jaialdiaren
jaialdiko
jaieguna
jaien
jaietako
jaietan
jaiki
jaime
jainko
jainkoa
jainkoak
jainkoarekin
jainkoaren
jainkoari
jainkoei
jainkoek
jainkoen
jainkosa
jainkosak
jainkosaren
jainkotiar
jainkozko
jaio
jaioa
jaioak
jaiotako
jaioterria
jaioterrian
jaioterriko
jaioterrira
jaiotza
jaiotzaren
jaiotzaz
jaiotze
jaiotzean
jaiotzen
jaiotzez
jaistea
jaisteko
jaisten
jaitsi
jaitsia
jaitsiera
jaitsieran
jaitsiko
jaitsiz
jaizkibel
jaka
jake
jakes
jaki
jakiak
jakin
jakina
jakinarazi
jakinarazten
jakinaren
jakinda
jakinduria
jakinduriaren
jakingo
jakinik
jakintsu
jakintsua
jakintsuak
jakintza
jakintzaren
jakitea
jakitean
jakiteko
jakiten
jakitera
jakitun
jakituna
jakob
jakoben
jakue
jalisco
jam
jama
jamaika
jamaikako
james
jamie
jan
jana
janari
janaria
janariak
jane
janeiro
janeiroko
janeiron
janet
janez
jangarri
jangarria
jango
jantzi
jantzia
jantziak
jantzien
jantzirik
jantzita
jantzitako
januari
january
janzkera
janzten
japan
japanese
japonia
japoniak
japoniako
japonian
japoniar
japoniara
japoniaren
japoniarra
japoniarrak
japoniarrek
japoniarren
japonica
japonicus
japonieraz
jar
jara
jaramon
jaramonik
jarauntsi
jardi
jardin
jarduera
jarduerak
jardueran
jardueraren
jardueren
jardueretan
jarduketa
jardun
jarduna
jardunaldi
jardunaldia
jardunaldiak
jardunaldian
jardunean
jarduneko
jardungo
jardutea
jarduteko
jarduten
jared
jariatzen
jario
jarioa
jarrai
jarraia
jarraian
jarraibide
jarraibideak
jarraiki
jarraikiz
jarraipen
jarraipena
jarraitu
jarraitua
jarraituak
jarraituko
jarraituta
jarraituz
jarraitzaile
jarraitzailea
jarraitzaileak
jarraitzaileek
jarraitzaileen
jarraitzea
jarraitzeko
jarraitzen
jarrera
jarrerak
jarreran
jarri
jarria
jarriak
jarriko
jarrita
jarritako
jarriz
jartzea
jartzean
jartzeko
jartzen
jartzera
jasan
jasandako
jasango
jasateko
jasaten
jaso
jasoa
jasoak
jasoko
jasokundearen
jasokundeko
jason
jasota
jasotako
jasotzea
jasotzeko
jasotzen
jasoz
jasper
jatea
jateko
jaten
jatetxe
jatetxea
jatetxeak
jatorri
jatorria
jatorrian
jatorriaren
jatorriari
jatorriko
jatorrikoa
jatorrikoak
jatorriz
jatorrizko
jatorrizkoa
jatorrizkotik
jaume
jaun
jauna
jaunak
jaunaren
jaunari
jaunen
jaungoikoaren
jauntxo
jauregi
jauregia
jauregiak
jauregian
jauregiaren
jauregiko
jauregira
jaurerri
jaurerria
jaurlaritza
jaurlaritzak
jaurlaritzako
jaurlaritzaren
jaurti
jaurtiketa
jaurtiketak
jaurtiketan
jaurtitako
jaurtitzeko
jaurtitzen
jausi
jausten
jauzi
jauzia
jauziak
jauzian
java
javako
javascript
javi
javier
jay
jazarpen
jazarpena
jazarri
jazo
jazotako
jazotzen
jazz
je
jean
jeanne
jeannel
jedi
jef
jeff
jefferson
jeffrey
jeisten
jeitsi
jelena
jeltzalea
jendarmeria
jendartean
jendaurrean
jendaurreko
jende
jendea
jendeak
jendearekin
jendearen
jendearentzat
jendeari
jendetsuena
jendetza
jendez
jeneral
jenerala
jeneralak
jeneralaren
jeneralean
jenkins
jennifer
jennings
jenny
jens
jensen
jentil
jentilen
jeremy
jerez
jero
jerome
jeronimo
jerry
jersey
jerseyko
jerusalem
jerusalemen
jerusalemera
jerusalemgo
jesse
jessica
jessie
jesu
jesuita
jesuiten
jesukristoren
jesus
jesusek
jesusen
jesusi
jet
jeu
jeune
jewish
ji
jia
jiang
jic
jill
jim
jime
jimenez
jimeno
jimmy
jin
jirafa
jo
joa
joachim
joakin
joan
joana
joanak
joanda
joandako
joanen
joanes
joanez
joango
joanna
joanne
joaqui
joaquim
joaquin
joatea
joateko
joaten
job
joe
joel
joera
joerak
joey
johan
johann
johanna
johannes
johansson
john
johnny
johns
johnson
johnsonek
johnsonen
johnston
joint
joka
jokabide
jokabidea
jokabideak
jokaera
jokalari
jokalaria
jokalariak
jokalariaren
jokalariek
jokalarien
jokalaririk
jokalekua
jokatu
jokatuko
jokaturiko
jokatutako
jokatuz
jokatzea
jokatzeko
jokatzen
jokatzera
jokin
joko
jokoa
jokoak
jokoan
jokoaren
jokoen
jokoetako
jokoetan
jokoetarako
jokotan
joku
jolas
jolasa
jolasak
jolasean
jolasteko
jolasten
jolastu
jole
jolea
jomuga
jon
jonas
jonathan
jone
jones
jong
joniar
jordan
jordania
jordaniako
jordi
jorge
jornada
jornadas
jorratu
jorratzen
jos
jose
joseba
josef
josefa
josefina
josep
joseph
josephine
joseren
josetxo
josh
joshua
josi
josita
jositako
jostailu
jostailuak
jostun
jostuna
josu
josune
jota
jotako
jotzaile
jotzailea
jotzaileak
jotzea
jotzeko
jotzen
joule
jour
journal
journey
jours
jouy
joven
joxe
joxean
joy
joyce
joz
jp
jpg
jpl
jr
jstor
ju
jua
juan
juana
juanita
juanjo
juanma
juaristi
juda
judako
judas
jude
judi
judith
judizial
judiziala
judizialaren
judizio
judo
judoa
judu
judua
juduak
juduei
juduek
juduen
judutar
judy
juego
juegos
jugoslavia
jugoslaviako
jugoslaviar
juicio
juin
jul
julen
jules
julia
julian
juliana
julie
julien
juliet
julieta
juliette
julio
julius
july
jump
jun
june
jung
jungle
junio
junior
juno
junta
juntaren
junto
junts
jupiter
jupiterren
jura
jurassic
jurgi
juri
juridiko
juridikoa
juridikoak
jurio
jurisdikzio
just
justice
justicia
justifikatu
justifikatzeko
justifikatzen
justin
justiniano
justizia
justiziaren
justo
justu
juventud
juventus
jɛ
k
ka
kabina
kable
kableak
kabul
kabuz
kae
kafe
kafea
kafetegi
kafetegia
kafka
kai
kaia
kaiak
kaian
kaiera
kaiko
kaiku
kaio
kairo
kairoko
kaiser
kaixo
kaka
kakalardo
kakao
kakaoa
kako
kal
kale
kalea
kaleak
kalean
kalearen
kaleen
kaleetan
kaleko
kalera
kaleratu
kaleratua
kaleratutako
kaleratzen
kaletik
kalifa
kalifikazio
kalifornia
kaliforniako
kalifornian
kalitate
kalitatea
kalitatearen
kalitatezko
kaliza
kalkula
kalkulatu
kalkulatzea
kalkulatzeko
kalkulatzen
kalkulu
kalkulua
kalkuluak
kalkuluen
kalte
kaltea
kalteak
kaltegarri
kaltegarria
kaltegarriak
kalterako
kalterik
kaltetan
kaltetu
kaltetua
kaltetuta
kaltetutako
kaltetzen
kaltzio
kaltzioa
kameoa
kamera
kamerak
kamerun
kamerungo
kamioi
kamiseta
kampong
kan
kanabera
kanada
kanadako
kanadan
kanadar
kanadarra
kanal
kanala
kanalak
kanalaren
kanalean
kanaria
kanariar
kanarietako
kanbo
kandela
kane
kanela
kanoi
kanoiak
kanon
kanpai
kanpaiak
kanpaina
kanpainak
kanpainan
kanpainaren
kanpainetan
kanpandorrea
kanpo
kanpoaldea
kanpoaldean
kanpoaldeko
kanpoaldera
kanpoaldetik
kanpoan
kanpoko
kanpokoa
kanpokoak
kanpora
kanporaketa
kanporatu
kanporatua
kanporatuak
kanporatzea
kanporatzeko
kanporatzen
kanpotik
kansas
kansasko
kant
kanta
kantabria
kantabriako
kantabrian
kantabriar
kantagintzaren
kantak
kantaren
kantari
kantaria
kantariak
kantatu
kantatzeko
kantatzen
kantauri
kantauriar
kantauriko
kantautore
kantautorea
kantek
kanten
kantitate
kantitatea
kantitateak
kantitatearen
kantonamendu
kantonamendua
kantonamenduan
kantonamenduko
kantu
kantua
kantuak
kantuan
kantuaren
kantuen
kantuz
kantziler
kantzilerra
kap
kapa
kapela
kapelaren
kapera
kaperak
kaperako
kaperan
kaperaren
kapitain
kapitaina
kapitainak
kapitainaren
kapital
kapitala
kapitalaren
kapitalismo
kapitalismoa
kapitalismoaren
kapitalista
kapitalistaren
kapitel
kapitelak
kapitulu
kapitulua
kapituluak
kapituluan
kaplan
kapsula
kar
kara
karabana
karaktere
karate
karbonato
karbono
karbonoa
karbonoaren
kardinal
kardinala
kardinalak
kardinalaren
kare
kareharri
kareharria
kareharrizko
karel
karen
karga
kargak
kargaren
kargatu
kargatutako
kargatzeko
kargatzen
kargu
kargua
karguak
karguan
karguen
kargutik
karibe
karibeko
karin
karl
karlista
karlistak
karlistaldian
karlistek
karlisten
karlomagnoren
karlos
karlosek
karmel
karmele
karmelo
karmen
karolina
karolingiar
karpatoetako
karrantza
karraskarien
karratu
karratua
karratuak
karratuko
karrera
karrerako
karreran
karreraren
karrika
karst
karta
kartago
kartagok
kartagoko
kartagoren
kartagotar
kartagotarrak
kartagotarrek
kartagotarren
kartak
kartel
kartela
kartelak
kartografia
kartzela
kartzelan
kartzelara
kartzelatik
kas
kasa
kaserna
kashima
kashiwa
kasik
kasko
kaskoa
kaspiar
kasta
kastroa
kasu
kasua
kasuak
kasualitatez
kasuan
kasuaren
kasuen
kasuetan
kasuko
kasurako
kasurik
kasutan
katalan
katalana
katalanak
katalanaren
katalanez
katalanezko
katalina
katalizatzaile
katalogo
katalogoa
katalogoan
katalunia
kataluniako
katalunian
kataluniar
kataluniaren
kataluniarra
katari
kate
katea
kateak
katean
katearen
katedra
katedradun
katedraduna
katedral
katedrala
katedralaren
katedralean
katedraleko
kateen
kateetan
kategoria
kategoriak
kategoriako
kategorian
kategoriatan
kategorietan
kateko
katharina
katharine
katherine
kathleen
kathryn
kathy
katie
katilu
kato
katoliko
katolikoa
katolikoak
katolikoan
katolikoaren
katolikoek
katolikoen
katolikoko
katu
katua
katuak
katuen
kaufman
kaukaso
kaukasoko
kausa
kausak
kausaren
kawasaki
kaxa
kay
kazakhstan
kazakhstango
kazan
kazeta
kazetari
kazetaria
kazetariak
kazetariaren
kazetarien
kazetaritza
kazetaritzan
kazola
kb
ke
kea
keeffe
keen
keep
keinu
keinua
keith
keko
keller
kelly
kelsey
kelvin
kemena
kemi
kemija
kemiko
ken
kendall
kendu
kenduko
kenduta
kenduz
kennedy
kenneth
kenny
kensington
kent
kentucky
kentuckyko
kentzea
kentzeko
kentzen
kenya
kenyako
kepa
kepler
kerexeta
kern
kerr
kerry
keta
kevin
kexu
key
kezka
kezkak
kezkatu
kezkatuta
kezkatzen
kg
khan
kharkiv
kherson
khmer
ki
kia
kid
kide
kidea
kideak
kideei
kideek
kideekin
kideen
kideetako
kidek
kidekoen
kids
kiev
kieveko
kieven
kike
kikun
kill
killed
killer
killing
kilo
kilogramo
kiloko
kilometro
kilometroak
kilometroan
kilometroko
kilometrokoa
kilometrora
kilometrotako
kilometrotan
kilometrotara
kim
kimika
kimikako
kimikan
kimikaren
kimikari
kimikaria
kimiko
kimikoa
kimikoak
kimikoaren
kimikoen
kimikoki
kimu
kin
kind
king
kingdom
kings
kingsley
kingston
kinka
kinross
kintana
kio
kion
kirby
kiribil
kirk
kirmen
kirol
kirola
kirolak
kirolaren
kirolari
kirolaria
kirolariak
kirolariek
kiroldegia
kirolean
kirolen
kiroletan
kirurgia
kiss
kit
kita
kitchen
kitek
kittila
kitty
kitu
kitxua
kj
klan
klana
klanaren
klaneko
klara
klase
klasea
klaseak
klasean
klasearen
klaseen
klaseko
klasika
klasiko
klasikoa
klasikoak
klasikoan
klasikoaren
klasikoen
klasikoko
klaudio
klaus
klaustro
klaustroa
klein
klemente
kleopatra
klima
klimak
klimaren
klimatologikoak
klinika
klinikoa
klon
kloro
kloruroa
klub
kluba
klubak
klubaren
klubean
klubeko
kluben
km
knight
kno
know
knowledge
known
knox
ko
koa
koadro
koadroa
koadroak
koadroko
koadrotan
koak
koako
koalizio
koalizioa
koalizioak
koalizioan
koalizioaren
koalizioko
koan
koarekin
koba
kobazulo
kobazuloa
kobazuloan
kobazuloetan
kobe
kobie
kobratzen
kobre
kobrea
kobrezko
koch
kode
kodea
kodeak
kodearen
kodetzen
koefiziente
koefizientea
kofradia
kofu
kognitibo
kognitiboa
koherentzia
koilara
koilarakada
koipe
koipea
koka
kokagune
kokaina
kokaleku
kokalekua
kokapen
kokapena
kokapenaren
kokatu
kokatua
kokatuak
kokatuko
kokaturik
kokaturiko
kokatuta
kokatutako
kokatutakoa
kokatuz
kokatzea
kokatzeko
kokatzen
koko
kola
kolaboratu
kolaboratzaile
kolaboratzailea
kolaboratzen
kolaborazio
kolaborazioak
koldo
kolegio
kolektibo
kolektiboa
kolektiboak
kolektiboaren
kolera
kolokan
kolon
kolonbia
kolonbiako
kolonbian
kolonbiar
kolonek
kolonela
kolonia
koloniak
koloniako
kolonial
koloniala
kolonian
koloniaren
kolonien
kolonietako
kolonietan
kolonizatu
kolonizazio
kolonizazioa
kolono
kolonoak
kolonoek
kolonoen
kolore
kolorea
koloreak
kolorearen
koloreen
koloreko
kolorekoa
kolorekoak
koloretako
kolorez
kolorezko
kolpatu
kolpe
kolpea
kolpeak
kolpearen
koma
komandante
komandantea
komandanteak
komando
komedia
komediak
komeni
komenigarria
komentu
komentua
komentuan
komentuko
komertzial
komertziala
komertzialak
komertzialetatik
komertzioetatik
kometa
kometak
kometaren
komiki
komikia
komikiak
komikian
komikiaren
komikigilea
komiko
komikoa
komisario
komisarioa
komite
komiteak
kommunarealer
kommuner
komun
komuna
komunak
komunaren
komunean
komunen
komunikabide
komunikabideak
komunikabideek
komunikabideen
komunikabideetan
komunikatu
komunikatzeko
komunikatzen
komunikazio
komunikazioa
komunikazioak
komunikazioan
komunikazioaren
komunikaziorako
komunismoa
komunismoaren
komunista
komunistak
komunistako
komunistan
komunistaren
komunistek
komunisten
komunitate
komunitatea
komunitateak
komunitatean
komunitatearen
komunitateen
komunitateko
kon
konbentzio
konbentzioa
konbentzioak
konbentzioaren
konbentzitu
konbentzitzen
konbergentzia
konbinatu
konbinatua
konbinatuta
konbinatuz
konbinatzen
konbinazio
konbinazioa
konbinazioak
kondaira
kondairak
kondairaren
konde
kondea
kondeak
kondearen
kondeen
kondena
kondenatu
kondenatua
konderri
konderria
konderriak
konderrian
konderriaren
konderrietako
konderriko
kondesa
konektatu
konektatuta
konektatzeko
konektatzen
konexio
konexioa
konexioak
konfederazio
konfederazioa
konfederazioaren
konferentzia
konferentziako
konferentzian
konfiantza
konfigurazio
konfigurazioa
konfiskatu
kong
kongeko
kongelatu
kongen
kongo
kongoko
kongresu
kongresua
kongresuak
kongresuan
kongresuaren
kongresuko
koniferoen
konikoa
konkista
konkistan
konkistaren
konkistatu
konkistatzaile
konkistatzailea
konkistatzeko
konkretu
kono
konpainia
konpainiak
konpainiako
konpainian
konpainiarekin
konpainiaren
konpainiek
konparatiboa
konparatu
konparatuta
konparatuz
konparatzen
konparazio
konpartsa
konpentsazio
konpetentzia
konplexu
konplexua
konplexuagoa
konplexuagoak
konplexuak
konplexuaren
konplexuen
konplexutasun
konplexutasuna
konpon
konponbide
konponbidea
konpondu
konponketa
konpontze
konpontzea
konpontzeko
konpontzen
konposaketa
konposatu
konposatua
konposatuak
konposatutako
konposatzaile
konposatzailea
konposatzen
konpositore
konpositorea
konposizio
konposizioa
konposizioak
konposizioaren
konpresio
konpromiso
konpromisoa
konputagailu
konputagailuen
konputazio
konputazionala
konrad
konspirazio
konstante
konstantea
konstanteak
konstantin
konstantino
konstantinopla
konstantinoplako
konstelazio
konstelazioa
konstelazioan
konstelazioko
konstituzio
konstituzioa
konstituzioak
konstituzioan
konstituzioaren
konstituzionala
konstituzionalak
konta
kontabilitate
kontaketa
kontakizun
kontakizuna
kontakizunak
kontakizunaren
kontakizunean
kontaktu
kontaktua
kontaktuan
kontalari
kontalaria
kontatu
kontatzeko
kontatzen
kontinental
kontinentala
kontinentalak
kontinentalaren
kontinente
kontinentea
kontinentean
kontinentearen
kontinenteen
kontinenteko
kontra
kontraesan
kontraesanak
kontrajarriak
kontrajartzen
kontrako
kontrakoa
kontrakoak
kontraste
kontrastea
kontratatu
kontratatzen
kontratu
kontratua
kontratuak
kontratuaren
kontrol
kontrola
kontrolak
kontrolaren
kontrolatu
kontrolatutako
kontrolatzea
kontrolatzeko
kontrolatzen
kontrolerako
kontrolik
kontrolpean
kontseilari
kontseilaria
kontseilu
kontseilua
kontseiluak
kontseiluan
kontseiluaren
kontseiluko
kontserbadore
kontserbadorea
kontserbadoreak
kontserbadoreen
kontserbatorioan
kontserbatorioko
kontserbatu
kontserbatzeko
kontserbatzen
kontserbazio
kontserbazioa
kontsidera
kontsideratu
kontsideratzen
kontsola
kontsonante
kontsul
kontsula
kontsulta
kontsultatu
kontsultatua
kontsultaturik
kontsumitu
kontsumitzaile
kontsumitzaileak
kontsumitzaileen
kontsumitzeko
kontsumitzen
kontsumo
kontsumoa
kontsumoak
kontsumoaren
kontsumorako
kontu
kontua
kontuak
kontuan
kontuen
kontuetan
kontura
konturatu
konturatzen
kontutan
kontuz
kontxa
kontxako
kontzeju
kontzejua
kontzejuak
kontzejuan
kontzejura
kontzentrazio
kontzentrazioa
kontzentrazioak
kontzeptu
kontzeptua
kontzeptuak
kontzeptuaren
kontzeptuen
kontzepzio
kontzertu
kontzertua
kontzertuak
kontzertuan
kontzertuetan
kontziente
kontzientzia
kontzientziaren
kontzilio
kontzilioa
kontzilioan
kooperatiba
kooperatibak
kooperatiben
koord
koordenatu
koordenatuak
koordinatu
koordinatzaile
koordinatzailea
koordinatzen
koordinazio
koordinazioa
kopa
kopak
kopako
kopan
koparen
kopenhage
kopenhageko
kopia
kopiak
kopiatu
kopla
kopuru
kopurua
kopuruak
kopuruan
kopuruaren
kopuruari
koral
koralezko
korapilo
kordoba
kordobako
kordoi
korea
koreako
korean
korear
koreeraz
koreografia
koreografo
koreografoa
kornelio
kornualles
kornubieraz
koro
koroa
koroak
koroaren
koroari
koroatu
koroatua
koronel
koronela
koronelak
koronelaren
korporazio
korrelazio
korrespondentzia
korridore
korridorea
korrika
korrikalari
korronte
korrontea
korronteak
korrontearen
korronteen
korsika
korsikako
korsikeraz
korta
kortazar
koru
korua
koruak
koruko
kos
kosmologia
kosmonauta
kosovo
kosovoko
kosta
kostako
kostalde
kostaldea
kostaldeak
kostaldean
kostaldearen
kostaldeko
kostaldera
kostaldetik
kostan
kostatik
kostatu
kostu
kostua
kostuak
kota
kotoi
kotoia
kottelat
kotxe
kov
kova
kr
kra
krakovia
kramer
krater
kraterra
kreditu
kredituetan
krediturik
kreis
krema
kretazeo
kretazeoan
krimea
krimeako
krimen
krimena
krimenak
kriminal
kriminala
kripta
kriptografia
krisi
krisia
krisiak
krisialdi
krisialdia
krisian
krisiaren
kristal
kristalak
kristalezko
kristau
kristaua
kristauak
kristauaren
kristauek
kristauen
kristautasun
kristautasuna
kristautasunak
kristautasunaren
kristautasunean
kristen
kristian
kristiau
kristin
kristina
kristo
kristobal
kristoren
kriterio
kritika
kritikak
kritikaren
kritikari
kritikaria
kritikariak
kritikariek
kritikarien
kritikatu
kritikatua
kritikatzen
kritiken
kritiko
kritikoa
kritikoak
kritikoaren
kro
kroazia
kroaziako
kroaziar
kroazieraz
krokodilo
kromo
kromosoma
kronika
kronikak
kronikoa
kronologia
kronologikoki
kros
krustazeo
kruz
ku
kuadrilla
kuantiko
kuantikoa
kuantikoaren
kuartel
kuartzo
kuba
kubako
kuban
kubara
kubatar
kubiko
kubo
kudeaketa
kudeaketan
kudeaketaren
kudeatu
kudeatutako
kudeatzaile
kudeatzailea
kudeatzeko
kudeatzen
kuia
kuiper
kultu
kultua
kultur
kultura
kulturak
kulturako
kultural
kulturala
kulturalak
kulturalaren
kulturalen
kulturalki
kulturan
kulturarekin
kulturaren
kulturari
kulturaz
kulturen
kulturklik
kultuzko
kumamoto
kumar
kume
kumeak
kumulu
kun
kuota
kupula
kurba
kurbadura
kurbak
kurt
kutsadura
kutsatu
kutsatuta
kutsatutako
kutsatzen
kutsu
kutsua
kutxa
kutxak
kutxaren
kv
ky
kyiv
kyle
kyo
kyoto
l
la
lab
laba
labaien
labana
labar
labastide
labayru
labe
labea
labean
labeko
label
labeo
labetik
laboa
labor
laboral
laborantza
laborari
laborategi
laborategia
laborategian
laborategietan
laborategiko
laboratory
labore
laborea
laboreak
laborearen
laborista
labour
labrador
labridae
labrisomidae
labur
laburbilduz
laburbiltzen
laburdura
laburki
laburmetraia
laburpen
laburpena
laburra
laburragoa
laburragoak
laburrak
laburrean
laburreko
laburren
laburretan
laburretarako
laburrez
laburtu
laburtua
lac
lacertidae
lachapelle
lactarius
ladies
ladislao
lado
lady
lafayette
lafitte
laga
lagako
lagarde
lagata
lagin
lagina
laginak
laginketa
lago
lagos
lagrange
lagun
laguna
lagunak
lagunarekin
lagunaren
lagunari
lagunarteko
lagundu
lagunduko
lagundurik
lagunduta
lagundutako
lagunduz
lagunei
lagunek
lagunekin
laguneko
lagunen
lagunentzako
lagungarri
lagungarria
lagunik
laguntza
laguntzaile
laguntzailea
laguntzaileak
laguntzak
laguntzarekin
laguntzaren
laguntzari
laguntzarik
laguntzaz
laguntzea
laguntzeko
laguntzen
laguntzera
lahn
lai
laia
laino
lainoa
laister
laka
lakarra
lake
lakes
laku
lakua
lakuak
lakuaren
lama
lamb
lambda
lambert
lamina
lamothe
lamprophiidae
lan
lana
lanagatik
lanak
lanaldi
lanarekin
lanaren
lanarengatik
lanari
lanarkshire
lanaz
lanbide
lanbidea
lanbideak
lanbidez
lancaster
lance
land
landa
landak
landako
landan
landare
landarea
landareak
landarearen
landaredi
landaredia
landareek
landareen
landareetan
landaretza
landatu
landatzen
landau
lande
lander
landes
landetako
landetan
landetxe
landscape
landu
landua
landuak
landuko
landutako
landuz
lane
lanean
lanei
lanek
lanekin
laneko
lanen
lanengatik
lanera
lanerako
lanetako
lanetan
lanetarako
lanetatik
lanetik
lanez
lang
langa
langabezia
langabezian
lange
langile
langilea
langileak
langilearen
langileei
langileek
langileen
language
languages
langue
languedoc
lanik
lanius
lanka
lanketa
lankide
lankidea
lankidetza
lankidetzan
lanpara
lanpostu
lanpostua
lantegi
lantegia
lantegiak
lantegian
lantegiaren
lantegietan
lantegiko
lantokia
lantokiak
lantza
lantzea
lantzeko
lantzen
lanza
laos
lapiko
lapin
laplace
laponiako
lappi
lappiko
lapur
lapurdi
lapurdiko
lapurdin
lapurra
lapurrak
lapurreta
lapurtar
lapurtera
lapurtu
lapurtzen
lar
lara
laranja
larba
larbak
larga
large
largest
largo
laridae
larousse
larrai
larralde
larramendi
larran
larraun
larre
larrea
larreak
larri
larria
larriak
larrialdi
larrian
larriena
larriki
larrinaga
larritasun
larritasuna
larriz
larru
larrua
larruak
larruazala
larruazalaren
larruazalean
larruazaleko
larruzko
larry
lars
larsen
larson
larunbat
larunbata
larunbatean
larus
las
lasa
lasai
lasaia
lasaitasun
lasaitasuna
lasarte
laser
lasioglossum
last
laster
lasterka
lasterketa
lasterketak
lasterketako
lasterketan
lasterketaren
lasterketetan
lasto
lat
late
later
latest
latex
latin
latina
latinaren
latindar
latindarra
latineko
latinetik
latinez
latinezko
latino
latinoamerikako
latinoamerikan
latitude
latitudea
latz
latza
latzak
lau
laua
lauak
lauaxeta
laudio
laudioko
lauenburg
laugarren
laugarrena
lauki
laukizuzen
laukizuzena
lauko
laura
lauragais
laurak
laurden
laurdena
laurdenak
laurdenean
laurdenetan
laurehun
laurel
lauren
laurence
laurent
laurie
laurogei
laurogeiko
laurogeita
lautada
lautadak
lautadako
lautadan
lautadaren
lautrec
lava
laval
lavanguardia
law
lawrence
laws
lawson
lay
lazarraga
lazio
lazkano
lazkao
lazkaoko
ld
ldots
le
lea
lead
leader
league
leagueko
leal
leandro
learn
learning
leary
leavenworthek
leb
lebanon
leccinum
lectura
lecture
led
lee
leeds
leer
left
legacy
legal
legala
legamia
legarra
legazpi
lege
legea
legeak
legean
legearen
legeari
legebiltzarkide
legebiltzarkidea
legebiltzarra
legebiltzarrak
legebiltzarraren
legebiltzarrean
legebiltzarreko
legebiltzarrerako
legedia
legeek
legeen
legeetan
legegile
legegilea
legegintza
legeko
legelari
legelaria
legend
legenda
legendarium
legends
legeria
legez
legezko
legezkoa
legeztatu
legio
legioa
legioaren
lego
legoke
legrand
lehen
lehena
lehenago
lehenagoko
lehenagokoa
lehenagotik
lehenak
lehenaldia
lehenaldiko
lehenbailehen
lehenbizi
lehenbiziko
lehenbizikoa
lehenbizikoz
lehendabizi
lehendabiziko
lehendabizikoa
lehendabizikoz
lehendakari
lehendakaria
lehendakariak
lehendakariaren
lehendakariorde
lehendakariordea
lehendakaritza
lehendakaritzarako
lehendik
lehenen
lehenengo
lehenengoa
lehenengoak
lehenengoan
lehenengoaren
lehenengoz
lehenesten
lehengai
lehengaiak
lehengaien
lehengo
lehengusina
lehengusu
lehengusua
lehenik
lehentasun
lehentasuna
lehentasunak
lehentasunezko
lehentxeago
lehergailu
leherketa
leherketak
lehertu
lehia
lehiaketa
lehiaketak
lehiaketako
lehiaketan
lehiaketaren
lehiaketetan
lehiakide
lehian
lehiatu
lehiatzeko
lehiatzen
lehoi
lehoia
lehoiak
lehor
lehorra
lehorrak
lehorrean
lehorreko
lehorreratu
lehorretan
lehorte
lehortu
lehortzen
lei
leial
leiala
leialtasun
leialtasuna
leibniz
leiden
leigh
leiho
leihoa
leihoak
leihotik
leintz
leinu
leinua
leinuak
leinuaren
leinuen
leinuko
leinukoa
leioa
leioako
leiothrichidae
leipzig
leire
leireko
leitza
leitzaran
leizaola
leize
leizea
leizeak
leizean
lekeitio
lekeitioko
lekeition
lekoa
leku
lekua
lekuak
lekualdatu
lekuan
lekuaren
lekuetan
lekuko
lekukoa
lekukoak
lekukotasuna
lekunberri
lekuona
lekura
lekurik
lekutan
lekutik
lekuz
lelo
leloa
lema
lemy
len
lena
lengoaia
lengoaiak
lengoaian
lengoaiaren
lengua
lenguaje
lenguas
lenin
leninek
leninen
lennon
lens
lente
leo
leon
leona
leonard
leonardo
leone
leonen
leongo
leonid
leonor
leopold
leopoldo
leotz
lepidodactylus
lepidotrigla
lepo
lepoa
lepoan
lepoaren
lepoko
lepora
leporatu
leporatuta
leporatzen
leporinus
lepotik
leptodactylidae
leptodactylus
leptopelis
leptotyphlopidae
lepus
leq
lera
leringo
lerista
leroy
lerrakuntza
lerratu
lerro
lerroa
lerroak
lerroan
lerroaren
lerroen
lerroetan
lerrokatuta
lerroko
lerrotan
lerrotik
lertxundi
les
lesaka
lesbiana
lesio
lesioa
lesioak
leslie
lester
let
lete
letonia
letoniako
letonieraz
letra
letrak
letras
letren
letretako
letretan
letter
letters
lettre
lettres
leturia
leun
leuna
leunak
leundu
lev
levante
level
levi
levy
lewis
lex
lexiko
lexikoa
lexington
ley
leyenda
leyendas
lez
lezake
lezama
lezo
lezoko
lgbt
li
lia
liam
lib
libano
libanoko
libe
liber
libera
liberal
liberala
liberalak
liberalaren
liberalek
liberalen
liberalismo
liberation
liberia
liberiako
libertad
liberte
liberty
libia
libiako
libk
libra
library
libratu
libre
librea
libreak
librean
librearen
libreki
libreko
libres
libretoa
librezale
libri
libro
libros
liburu
liburua
liburuak
liburuan
liburuarekin
liburuaren
liburuari
liburuek
liburuen
liburuetako
liburuetan
liburuki
liburukia
liburukitan
liburuko
libururik
liburutan
liburutegi
liburutegia
liburutegiak
liburutegian
liburutegiaren
liburutegien
liburutegiko
liburutik
liburuxka
lica
lico
lider
lidergoa
liderra
liderrak
lidia
lie
lieja
lienhardt
lies
lieu
life
liga
ligak
ligako
ligan
ligara
ligaren
light
lights
ligne
lignie
ligny
ligure
liguria
likatsua
like
likido
likidoa
likidoak
likidoaren
lila
lili
lille
lilly
lilura
liluratu
lily
lim
lima
limako
limerick
limite
limited
limits
limnonectes
limoi
lin
lina
linares
lincoln
linda
lindsay
line
linea
lineak
lineako
lineal
lineala
linealak
linean
linearekin
linearen
lineatus
lineek
lineen
lineko
lines
linfa
ling
lingu
lingua
linguae
linguistics
linguistiko
linguistikoa
link
linkedin
linn
linnaeus
lino
linux
lio
lioke
liolaemidae
liolaemus
lion
lionel
lions
liparidae
liparis
lipido
lipotyphla
lira
lirateke
liratekeen
lirika
liriko
lirikoa
lis
lisa
lisboa
lisboako
lisboan
lise
lisis
liskar
liskarra
liskarrak
list
lista
lit
liteke
litekeen
litekeena
literalki
literaria
literario
literarioa
literarioak
literary
literatur
literatura
literaturak
literaturako
literaturan
literaturaren
literaturari
literature
litezke
litezkeen
lithobates
litio
lito
litoria
litosfera
litro
litte
little
lituania
lituaniako
lituaniar
liturgia
lituzke
lituzkeen
lituzkete
litzake
litzateke
litzatekeela
litzatekeen
litzatekeena
liu
live
liverpool
lives
living
livingston
livingstone
livio
livre
lix
liz
liza
lizardi
lizarra
lizarraga
lizarrako
lizarralde
lizarran
lizentzia
lizentziaduna
lizentziak
lizentziapean
lizentziarekin
lizentziatu
lizentziatua
lizentziatura
lizentziekin
lizeo
lizeoa
lizeoabigarren
lizeoan
lizeoetan
lizoainibar
ll
lla
llama
llano
llanos
llave
lle
llega
lleida
lleidako
ller
llobregat
llorente
lloyd
llui
ln
lo
loa
lobo
lobulu
loca
local
localities
loch
locke
loco
locus
lodge
lodi
lodia
lodiagoa
lodiak
lodiera
lodiko
lodzeko
log
logan
logela
logement
logements
loges
loggia
logia
logic
logika
logikaren
logiko
logikoa
logikoak
logo
logos
logron
lohizune
lohizuneko
lohizunen
loi
loinaz
loing
loiola
loiolako
loir
loira
loire
loirerria
loiret
lois
lokal
lokala
lokalak
lokalean
lokarri
loki
lola
lolita
lombardia
lombardiako
lon
lonchura
lond
london
londres
londreseko
londresen
londresera
londresko
lonely
long
longida
longirostris
longrightarrow
longueville
lons
look
looking
lope
lopes
lopez
lor
lorategi
lorategia
lorategiak
lorategian
lorategietan
loratu
loratzen
lorca
lord
lore
lorea
loreak
loreen
loren
lorena
lorentzo
lorenzo
loreto
lori
loria
loricariidae
lorpen
lorpenak
lorraine
lortu
lortua
lortuko
lorturiko
lortuta
lortutako
lortuz
lortzea
lortzeko
lortzen
los
losada
lost
lot
lotailu
lotan
lothian
lotina
lotsa
lotu
lotua
lotuak
lotuko
lotunea
lotura
loturak
loturaren
loturarik
loturen
loturik
loturiko
lotus
lotuta
lotutako
lotuz
lotzea
lotzeko
lotzen
lou
louis
louisa
louise
louisiana
louisianaeko
loup
lourdes
louvre
love
low
lowe
lowell
lower
loyola
loza
lozano
loze
lp
ls
lt
ltd
ltima
ltimas
ltimo
ltimos
lu
lua
lubaki
luberri
lublingo
luc
luca
lucas
luce
lucha
luci
lucia
luciano
lucie
lucien
lucio
lucius
lucky
lucy
ludwig
lugar
lugo
lugoko
luhansk
lui
luigi
luis
luisa
luisen
lujanbio
luka
lukas
luke
lukeela
lukeen
lukeena
lukete
luketen
lulu
luma
lumak
lumen
lumie
luna
lunar
lune
lupus
lur
lurjabe
lurmutur
lurmuturra
lurmuturraren
lurmuturrean
lurmuturreko
lurpean
lurpeko
lurperatu
lurperatua
lurperatuta
lurra
lurrak
lurralde
lurraldea
lurraldeak
lurraldean
lurraldearen
lurraldeari
lurraldeen
lurraldeetako
lurraldeetan
lurraldeetara
lurraldeko
lurraldera
lurraldetan
lurraldetik
lurraren
lurrari
lurrazal
lurrazala
lurrazalaren
lurrazalean
lurrazaleko
lurrazpiko
lurrean
lurreko
lurren
lurrera
lurreratu
lurretan
lurretatik
lurretik
lurrez
lurrezko
lurrik
lurrikara
lurrikarak
lurrikararen
lurrin
lurrun
lurruna
lurrunezko
lursail
lursailak
lursailetan
lurzoru
lurzorua
lurzoruan
lurzoruaren
lus
luther
lutjanidae
lutjanus
lutxana
lutz
lux
luxenburgo
luxenburgoko
luxuzko
luz
luza
luzaide
luzanga
luzapen
luzapena
luzaro
luzaroan
luzatu
luzatuko
luzatuz
luzatzea
luzatzeko
luzatzen
luze
luzea
luzeago
luzeagoa
luzeagoak
luzeak
luzean
luzearen
luzeen
luzeena
luzeetan
luzeetarako
luzeko
luzera
luzerako
luzeran
luzerarekin
luzeraren
luzerna
luzetarako
luzez
luzia
luziano
luzio
lvarez
lvaro
lvez
ly
lycenchelys
lycodes
lycodon
lycosa
lydia
lygodactylus
lygosoma
lymantria
lynch
lynn
lynx
lyon
lyongo
lyons
lys
m
ma
mac
macaca
macbeth
macdonald
machado
machine
mack
mackenzie
macmillan
macrouridae
maculata
maculatus
mad
madagascariensis
madagaskar
madagaskarren
madalena
madame
madariaga
maddalen
maddi
made
madeleine
madera
madina
madison
madonna
madre
madrid
madril
madrila
madrildar
madrilek
madrileko
madrilen
madrilera
madrilgo
mae
maestro
maeztu
mafia
mag
magalean
magallanes
magazine
magdalena
maggie
maggiore
magia
magic
magiko
magikoa
magikoak
magis
magistratu
magma
magna
magnesio
magnetic
magnetiko
magnetikoa
magnetikoak
magnetikoaren
magnitude
magnitudea
magnitudeko
magnolia
magnum
magnus
magny
mago
mahai
mahaia
mahaiak
mahaian
mahaikideak
mahasti
mahastiak
mahats
mahatsa
mahoma
mahomaren
mai
maia
maialen
maiatz
maiatza
maiatzak
maiatzaren
maiatzean
maiatzeko
maiatzera
maiatzetik
maider
maien
mail
maila
mailak
mailako
mailakoa
mailakoak
mailan
mailara
mailaren
mailari
mailarik
mailatan
mailatik
mailaz
mailegu
mailegua
maileguak
mailen
mailetan
maillot
mailu
main
maine
mainz
maionesa
maior
maiorra
maire
maison
maisons
maistra
maisu
maisua
maisuak
maisuaren
maisuen
maitale
maitalea
maitasun
maitasuna
maitasunaren
maitatu
maite
maitea
maitemindu
maiteminduko
maiteminduta
maitemintzen
maiz
maizago
maiztasun
maiztasuna
maiztasunak
maiztasunaren
major
make
makes
maketa
makil
makila
makilak
makina
makinak
makinaren
makinen
makineria
making
makurdura
makurtu
mal
mala
malaga
malagako
malaria
malaysia
malaysiako
malcolm
malda
maldan
maldonado
male
malgua
malguki
malgutasun
malgutasuna
mali
malik
maliko
malkartsua
malko
mallorca
mallorcako
malo
malone
malta
maltako
mama
mame
mames
mami
mamia
mammal
mammalia
mammals
mamu
mamua
mamuak
man
management
mancha
manche
manchester
mandela
mando
mane
manera
manex
manfred
manga
manhattan
manierista
manifestazio
manifestazioa
manifestazioak
manifestu
manifestua
manila
maniobra
mankomunitatea
mann
manning
mano
manolo
manos
mans
mantellidae
mantendu
mantenduko
mantenduz
mantentze
mantentzea
mantentzeko
mantentzen
manterola
mantu
mantua
mantxa
mantxako
manu
manual
manuel
manuela
manx
many
mao
map
mapa
mapagintza
mapak
mapan
maps
mar
mara
marais
maran
maranha
marathon
maratoi
maratoia
marc
marca
marcel
marcelino
marcello
marcelo
march
marcha
marche
marcia
marcial
marcilly
marco
marcos
marcus
mard
mare
marea
mareuil
margaret
margarita
margo
margoak
margolan
margolana
margolanak
margolanaren
margolanen
margolanetan
margolari
margolaria
margolariak
margolariaren
margolarien
margolaritza
margolaritzan
margot
margotu
margotua
margotuak
margotuta
margotutako
margotzeko
margotzen
marguerite
mari
maria
mariak
marian
mariana
marianne
mariano
mariaren
mariari
mariasun
maribel
marie
marigny
marihuana
marilyn
marin
marina
marine
marinel
marinelak
marinelek
marinelen
marino
marinos
mario
marion
mariren
marisa
mariskal
mariskala
maritime
maritxu
mariupol
marius
mark
marka
markak
markako
markaren
markarik
markatu
markatuta
markatutako
markatzeko
markatzen
markel
marken
markes
markesa
markesak
markesaren
market
marketin
marketing
markina
markinez
marko
markos
marly
marmol
marmolezko
marmoratus
marne
maroko
marokoar
marokoko
marokon
marolles
marque
marra
marrak
marraz
marrazketa
marrazki
marrazkia
marrazkiak
marrazkilari
marrazkilaria
marrazo
marrazteko
marrazten
marraztu
marriage
marroi
marroia
marroiak
marruskadura
mars
marseilla
marseille
marsh
marshall
marta
marte
marteko
martel
marten
marteren
martes
martha
marthek
marti
martial
martian
martin
martina
martinek
martinen
martinez
martingo
martini
martino
martins
martiri
martxa
martxan
martxo
martxoa
martxoak
martxoan
martxoaren
martxoko
martxora
martxotik
marty
martzial
marvel
marvin
marx
marxek
marxen
marxismo
marxista
mary
maryland
marzo
mas
masa
masak
masaren
masen
masibo
masiboa
masiboak
mask
maskara
maskarak
maskor
maskorra
maskota
maskulino
maskulinoa
mason
mass
massa
massachusetts
massachusettseko
massimo
masson
masta
mastacembelidae
mastacembelus
master
masterra
masters
mata
match
mate
matema
matematika
matematikak
matematikako
matematikan
matematikaren
matematikari
matematikaria
matematikariak
matematiko
matematikoa
matematikoak
matematikoki
mateo
mater
materia
material
materiala
materialak
materialaren
materialen
materialez
materialismo
materials
materiaren
math
mathbb
mathbf
mathcal
mathematical
mathematics
mathieu
mathrm
mathworld
mati
matias
matiko
matilda
matilde
mato
matrikula
matrikulatu
matrimonio
matrix
matrize
matrizea
matsumoto
matt
matteo
matter
matthew
matthews
matthias
mattin
matxin
matxinada
matxinadak
matxinadan
matxinadaren
matxinatu
matxinatuek
matxinatuen
matxino
matxinoak
matxinoek
matxinoen
maud
mauges
maule
mauleko
maura
maureen
maurice
mauricio
maurizio
mauro
mausoleoa
max
maxim
maxima
maxime
maximilian
maximiliano
maximo
maximoa
maximus
maxwell
may
maya
mayenne
mayer
mayo
mayor
mays
maza
maze
mazedonia
mazedoniako
mazedoniar
mazo
mazoviako
mb
mbox
mc
mccarthy
mcdonald
mcgill
mcgraw
mclean
mcleod
md
me
mea
mean
meaning
means
meategi
meategiak
meatzari
meatzaritza
meatze
meatzeak
mechanics
mecklenburg
med
medal
medalla
medea
media
mediana
medical
medici
medicina
medicine
medieval
mediko
medikoa
mediku
medikua
medikuak
medikuaren
medikuek
medikuen
medikuntza
medikuntzako
medikuntzan
medikuntzaren
medina
medio
medios
mediterra
mediterranean
mediterranear
mediterraneo
mediterraneoa
mediterraneoan
mediterraneoaren
mediterraneoko
medium
medlineplus
meet
meeting
meg
mega
megachile
megalitiko
megalitikoa
megan
megophryidae
mehatxatu
mehatxatzen
mehatxu
mehatxua
mehatxuak
mehatxupean
mehatz
mehe
mehea
meheak
meiji
mejor
mejores
mekanika
mekaniko
mekanikoa
mekanikoak
mekanismo
mekanismoa
mekanismoak
mel
melanie
melanotaenia
melbourne
melchor
melilla
meliphagidae
melissa
mello
melo
melodia
melville
member
memo
memoir
memoirs
memoria
memoriak
memorial
memoriala
memorian
memoriaren
memorias
memories
memory
memphis
men
mena
mendate
mendatea
mendatean
mendatetik
mendaza
mende
mendea
mendeak
mendean
mendearen
mendeaz
mendebal
mendebalde
mendebaldea
mendebaldean
mendebaldeko
mendebaldekoa
mendebaldera
mendebalderantz
mendebaldetik
mendebalean
mendebaleko
mendeen
mendeetako
mendeetan
mendekatzeko
mendeko
mendekoa
mendekoak
mendekotasun
mendekotasuna
mendeku
mendekua
mendera
menderako
menderarte
menderatu
menderatzeko
menderatzen
mendes
mendetan
mendetik
mendeurrena
mendez
mendi
mendia
mendiak
mendialdea
mendialdean
mendialdeko
mendian
mendiaren
mendiari
mendibil
mendiburu
mendiek
mendien
mendieta
mendietako
mendietan
mendietara
mendietatik
mendigune
mendigunea
mendigunean
mendiguren
mendikat
mendikate
mendikatea
mendikatean
mendikatearen
mendiko
mendilerro
mendilerroa
mendilerroak
mendilerroan
mendilerroaren
mendilerroari
mendilerroen
mendilerroko
mendiola
mendira
mendirik
menditik
menditsu
menditsua
menditsuenetan
mendixka
mendizabal
mendizale
mendizalea
mendoza
mene
menes
menor
menos
menpe
menpean
menpeko
menpekoa
menpekotasun
menpekotasuna
menperatu
menperatzen
mensajero
ment
mental
mentala
mentalak
mente
menu
mer
mercado
merce
merced
mercedes
mercer
mercury
mercy
meredith
merezi
merindad
merindadea
merindadean
merindadearen
merindadeko
merino
meritu
merituaren
merkantzia
merkantziak
merkantzien
merkatal
merkatari
merkataria
merkatariak
merkatariek
merkatarien
merkataritza
merkataritzak
merkataritzako
merkataritzan
merkataritzarako
merkataritzaren
merkataritzari
merkatu
merkatua
merkatuak
merkatuan
merkatuaren
merkatuetan
merkatuko
merkatura
merkaturatu
merkaturatzen
merke
merkea
merkeagoa
merkeagoak
merkeak
merkurio
mero
merops
merriam
merrill
merry
mertxe
mertzenario
mertzenarioak
mes
mesa
mesede
mesedetan
mesfidantza
mesias
meskita
mesnil
mesopotamia
mesopotamiako
mesopotamian
messier
messina
messinako
met
meta
metabolismoa
metafisika
metafora
metak
metaketa
metal
metala
metalak
metalaren
metalen
metalezko
metaliko
metalikoa
metalikoak
metalurgia
metatu
metatutako
metatzen
meteo
meteoeu
meteorito
meteorologia
meteorological
meteorologiko
meteorologikoa
method
methods
metodo
metodoa
metodoak
metodoaren
metodoen
metodologia
metrika
metro
metroa
metroak
metroan
metroaren
metroko
metrokoa
metropoli
metropolitan
metropolitanoan
metropolitar
metropolitarra
metrora
metrorekin
metrotako
metrotan
metrotara
metrotik
metz
meurthe
meuse
mexicana
mexicanus
mexico
mexikar
mexikarra
mexiko
mexikoko
mexikon
mexikora
meyer
mez
meza
mezenas
mezu
mezua
mezuak
mezuaren
mezulari
mezularia
mezulariak
mg
mgm
mhz
mi
mia
miaketa
miami
mic
mica
micaela
micas
michael
michel
michelangelo
michelangeloren
michele
michelin
michelle
michigan
michigango
michoaca
mick
mickey
mico
micos
microbiology
microdesmidae
microhylidae
microlepis
microsoft
microtus
micrurus
mid
middle
middlesex
midi
midnight
mie
miedo
miel
mifflin
migel
migelen
migratu
migratzen
migrazio
migrazioa
miguel
mihi
mihia
mika
mike
mikel
mikhail
mikrobio
mikroorganismo
mikroorganismoen
mikroskopio
mikrouhin
mil
mila
milagro
milagros
milaka
milan
milanen
milango
milano
mildred
mile
miles
milia
milimetro
milioi
milioika
milioiko
militante
militantea
militantzia
militar
militarki
militarra
militarrak
militarraren
militarrean
militarrek
militarreko
militarren
militarretan
military
milizia
miliziano
milk
mill
milla
mille
millennium
miller
million
millones
mills
milly
milo
miloi
milos
milton
milurteko
milurtekoan
milurtekoaren
milwaukee
mimi
min
mina
minak
minamoto
minaren
minas
minbizi
minbizia
minbiziak
minbiziaren
mind
mindat
mine
mineral
minerala
mineralak
mineralaren
mineralen
minerva
mines
ming
mingotsa
mini
minik
minimo
minimoa
mining
minister
ministerio
ministerioa
ministerioak
ministerioan
ministerioaren
ministerioko
ministro
ministroa
ministroak
ministroaren
ministroen
ministry
minneapolis
minnesota
minnesotako
minor
minsk
minskeko
mintegi
mintegia
mintz
mintza
mintzaira
mintzaren
mintzatu
mintzatzen
mintzean
mintzo
minus
minutes
minutos
minutu
minutuan
minutuko
minutukoa
minutura
minutus
minututan
minutuz
mio
miquel
mir
mira
miracle
mirada
miramar
miranda
mirande
mirari
mirariak
mireia
miren
miresmena
miresten
miriam
miro
mirror
mis
mise
miseria
misil
misio
misioa
misioak
misioan
misioaren
misiolari
misiolaria
mismo
miss
missing
mission
mississippi
mississippiko
missouri
missourieko
missouriko
misterio
misterioa
misteriotsu
misteriotsua
mistikoa
misto
mistoa
mistoak
mistoan
mistral
mit
mitchell
mitiko
mitikoa
mito
mitoa
mitoak
mitologia
mitologiako
mitologian
mitologiaren
mitologiko
mitologikoak
mitos
mitridates
mitxelena
mitxelenak
mix
mixed
mixel
miſmo
mk
ml
mlada
mm
mme
mn
mnras
mo
mobile
mobilite
mobilizatu
mobilizazio
mochokidae
mod
moda
modalitate
modalitatean
modan
modaren
mode
model
modelo
modeloa
modeloak
models
modena
moder
moderatua
modern
moderna
moderne
modernista
modernitatearen
moderno
modernoa
modernoak
modernoan
modernoaren
modernoek
modernoen
modernoetan
modernoko
modo
modu
modua
moduak
moduan
moduaren
moduari
moduko
modukoa
modukoak
modulu
modulua
moduluak
modura
modurik
modutan
moe
moenkhausia
mogel
mohamed
mohammad
mohammed
mohs
moi
moire
moires
moises
moisesek
moisesen
moisesi
moja
moko
mokoa
mol
mola
moldaketa
moldaketak
moldatu
moldatua
moldatzeko
moldatzen
moldavia
moldaviako
molde
moldea
moldeak
moldez
mole
molecular
molekula
molekulak
molekular
molekularen
molekularra
molekulen
molie
molina
molise
molly
molossidae
molotov
molusku
moment
momentu
momentua
momentuan
momentuko
momentuz
momia
mon
mona
monacanthidae
monako
monarchidae
monarka
monarkia
monarkiaren
monasterio
monasterioa
monasterioak
monasterioan
monasterioaren
monasterioari
monasterioko
mondadori
monde
mondo
mondragon
monet
moneta
money
monferrato
mongolen
mongolia
mongoliako
mongoliar
monica
monique
monje
monkey
monmouthshire
mono
monografia
monoklinikoaren
monopolio
monopolioa
monotipikoa
monreal
monroe
mons
monsieur
monster
mont
montagne
montagny
montaigne
montaigu
montan
montana
montanako
montanus
monte
montenegro
montenegroko
montero
montes
montesquieu
montevideo
montfort
montgomery
monthly
monticola
montigny
montjui
montoya
montpellier
montrant
montre
montreal
montrealgo
montreuil
monts
montse
montserrat
monty
monumental
monumentala
monumento
monumentos
monumentu
monumentua
monumentuak
monumentuaren
monzo
moody
moon
moore
mora
moral
morala
moralak
moralaren
morales
moran
morbihan
mordo
mordoa
more
morea
moreau
moreno
morfologia
morgan
mori
moridae
morin
morir
moritz
mormyridae
morning
moro
morris
morrison
morroi
morroia
morrow
morse
mort
mortadelo
mortagne
morte
morton
morvan
mos
mosaiko
moscow
mosela
moselle
moses
mosku
moskuko
moskun
moskura
moss
most
mota
motak
motako
motakoa
motakoak
motaren
motatako
motatakoak
motel
motela
moteldu
motelean
moten
mother
motibatibo
motibazio
motibazioa
motibo
motion
moto
motor
motore
motorra
motorrak
motorraren
motte
motz
motza
motzak
moulin
moulins
mount
mountain
mountains
moutiers
mouvement
movement
movie
movies
movimiento
moving
movistar
moyen
mozambikeko
mozart
mozarten
mozilla
mozioa
mozketa
moztea
mozteko
mozten
moztu
moztuta
moztutako
mp
mpicos
mptfp
mr
mrs
ms
mt
mtv
mu
much
mucho
muere
muerte
muerto
muertos
muga
mugagabea
mugak
mugakide
mugakideak
mugako
mugan
mugara
mugaren
mugarik
mugarri
mugarria
mugatik
mugatu
mugatua
mugatuak
mugatuko
mugatuta
mugatutako
mugatzea
mugatzeko
mugatzen
mugaz
mugen
mugetan
mugetatik
mugi
mugikor
mugikorra
mugikorrak
mugikorreko
mugikorren
mugikortasun
mugikortasuna
mugimendu
mugimendua
mugimenduak
mugimenduan
mugimenduarekin
mugimenduaren
mugimenduari
mugimenduek
mugimenduen
mugimenduetan
mugimenduko
mugitu
mugituko
mugituz
mugitzea
mugitzeko
mugitzen
muguruza
muhammad
muin
muina
muinean
muino
muinoa
muinoak
muinoan
muinoaren
muinoetan
mujer
mujeres
mujika
mukim
mul
muller
mullidae
multa
multi
multimedia
multinazional
multiple
multzo
multzoa
multzoak
multzoan
multzoaren
multzoari
multzoen
multzoko
multzotan
mun
mundaka
mundi
mundial
mundo
mundu
mundua
munduak
munduan
munduarekin
munduaren
munduari
munduko
mundura
mundutik
mungia
muniain
munibe
munich
municheko
munichen
municipal
municipality
munizio
munro
munster
munstro
muntaia
mur
muraenidae
mural
murat
murcia
murder
murelu
mures
murgildu
murgilduta
murgiltzen
muridae
muriel
murillo
murinae
muro
murphy
murray
murrizketa
murrizketak
murriztea
murrizteko
murrizten
murriztu
murriztua
murriztuko
murriztuz
murtzia
murtziako
muru
murua
mus
musa
muscicapidae
muse
museo
museoa
museoak
museoan
museoaren
museoen
museoko
museum
music
musica
musical
musika
musikagile
musikagilea
musikagileak
musikak
musikako
musikal
musikala
musikalak
musikalean
musikan
musikarekin
musikaren
musikari
musikaria
musikariak
musikariaren
musikariek
musikariekin
musikarien
musikaz
musique
muskiz
muskulu
muskuluak
muskuluen
muslim
mussolini
mussoliniren
must
mustafa
mustelus
musu
musulman
musulmana
musulmanak
musulmanek
musulmanen
mutazio
mutazioak
mutiko
mutikoa
mutil
mutila
mutilak
mutilen
mutriku
mutrikuko
mutua
mutur
muturra
muturrak
muturrean
muturreko
muturretan
muturretik
muxika
muxikako
muy
muzin
mv
mvp
mw
mx
my
myanmar
myctophidae
myers
myobatrachidae
myotis
myspace
mystery
mystus
myth
mythology
n
na
nabari
nabaria
nabariak
nabaritu
nabaritzen
nabarmen
nabarmena
nabarmenagoa
nabarmenak
nabarmendu
nabarmenduz
nabarmenen
nabarmenena
nabarmenenak
nabarmenetako
nabarmenik
nabarmenki
nabarmentzeko
nabarmentzekoa
nabarmentzekoak
nabarmentzen
nabarra
nabarralde
nabarreria
nabaskoze
nabe
nabea
nabigatu
nabigatzaile
nabigatzailea
nabigatzen
nabigazio
nabigazioa
nabla
nac
nach
nacho
nacimiento
nacio
nacional
nacionales
nacionalismo
nacionalista
naciones
nad
nada
nadal
nadia
nadie
nafar
nafarra
nafarrak
nafarrek
nafarren
nafarrera
nafarroa
nafarroak
nafarroako
nafarroakoa
nafarroakoak
nafarroakoaren
nafarroan
nafarroara
nafarroaren
nafarroatik
nagasaki
nage
nages
nago
nagore
nagoya
nagusi
nagusia
nagusiak
nagusian
nagusiarekin
nagusiaren
nagusiari
nagusiei
nagusiek
nagusiekin
nagusien
nagusiena
nagusienak
nagusienetako
nagusienetakoa
nagusienetariko
nagusietako
nagusietakoa
nagusietan
nagusietatik
nagusiki
nagusiko
nagusira
nagusitan
nagusitasun
nagusitasuna
nagusitik
nagusitu
nagusitzat
nagusitzen
nahas
nahasi
nahasia
nahasiak
nahasketa
nahasketak
nahasmena
nahasmendu
nahasmendua
nahaste
nahastea
nahasteko
nahasten
nahastu
nahasturik
nahastuta
nahastuz
nahi
nahia
nahiago
nahiak
nahian
nahiaren
nahiko
nahikoa
nahikoak
nahikorik
nahimenaren
nahirik
nahita
nahitaez
nahitaezko
nahitaezkoa
nahiz
nai
naiara
naiarako
naiz
naizela
naizen
naja
nakamura
naked
nam
name
named
names
namibia
nan
nana
nancy
nando
nano
nanoak
nantes
nao
naomi
napoleon
napoleondar
napoleonek
napoleonen
napoli
napoliko
napolin
nara
nard
narrasti
narrastien
narratiba
narratzaile
narratzailea
narrazio
narrazioa
narrazioak
nas
nasa
nasak
nasako
nasaren
nash
naso
nassau
nat
natalia
natalie
natasha
nathalie
nathan
natiboak
nation
national
nationale
nationalism
nations
native
nato
natoko
natoren
natricidae
natur
natura
naturae
naturak
naturako
natural
naturala
naturalak
naturalaren
naturalean
naturaleko
naturalen
naturales
naturaletan
naturaleza
naturalista
naturalki
naturan
naturarekin
naturaren
naturari
naturaz
nature
natxo
nau
nauchnij
naute
nauzu
nava
naval
navarra
navarre
navarro
navarros
navas
nave
navy
nazaire
nazazu
naze
nazi
nazia
naziak
naziaren
naziek
nazien
nazio
nazioa
nazioak
nazioaren
nazioarte
nazioartean
nazioarteko
nazioen
nazioko
nazional
nazionala
nazionalak
nazionalarekin
nazionalaren
nazionalari
nazionale
nazionalean
nazionalek
nazionaleko
nazionalen
nazionalera
nazionalerako
nazionalismo
nazionalismoa
nazionalismoaren
nazionalista
nazionalistak
nazionalistek
nazionalisten
nazionalitate
nazionalitatea
nazionalizatu
nb
nba
nbako
nbc
nbe
nbek
nbeko
nberen
nc
ncaa
ncbi
nchen
nchez
ncia
ncipe
nd
nde
ndez
ndia
ne
nea
neal
near
neas
neba
nebraska
nebraskako
nebula
nebulosa
nec
nectariniidae
ned
nederlanderaz
nederlanderazko
need
negar
negarrez
negatibo
negatiboa
negatiboak
negoziatu
negoziatzeko
negoziatzen
negoziazio
negoziazioak
negozio
negozioa
negozioak
negozioaren
negozioen
negra
negro
negu
negua
neguak
neguan
neguko
neighborhood
neil
neill
nek
nekane
nekazal
nekazari
nekazaria
nekazariak
nekazariek
nekazarien
nekazaritza
nekazaritzak
nekazaritzako
nekazaritzan
nekazaritzarako
nekazaritzaren
nekazaritzari
neke
nekea
nekez
nekin
neko
nekropoli
nekropolia
nel
nell
nella
nelson
nemacheilidae
nemacheilus
nemesio
nen
neo
neobythites
neoklasiko
neoklasikoa
neolamprologus
neolito
neolitoko
nepal
nepalgo
neptune
neptuno
neptunoren
neq
neque
nerabe
nerabea
nerabeak
nerabeen
nerabezaroan
nerbio
nerbioa
nerbioak
nerbioi
nere
nerea
neri
nero
neron
neruda
nes
neska
neskak
neskalaguna
neskame
neskamea
neskaren
neskatila
neskato
neskatoa
neskatxa
neskek
nesken
nesomyidae
ness
nestor
net
netflix
netherlands
network
networks
neu
neucha
neue
neuf
neuilly
neuk
neumann
neur
neural
neure
neurketa
neurketak
neurona
neurri
neurria
neurriak
neurrian
neurrien
neurriz
neurtu
neurtua
neurtutako
neurtzea
neurtzeko
neurtzen
neustadt
neutral
neutrala
neutro
neutroa
neutroi
neuve
neuville
neuvy
nevada
nevadako
nevado
never
neville
nevis
new
newcastle
newman
newport
news
newton
newtonek
newtonen
next
nez
nezumia
ng
nga
ngc
ngd
ngel
ngela
ngeles
ngo
nguez
nh
ni
nia
nic
nica
nicas
nice
nicholas
nichols
nicholson
nick
nico
nicola
nicolas
nicole
nicos
nie
niels
nielsen
nieto
nietzsche
nieves
nigel
niger
nigeria
nigeriako
nigerian
night
nightmare
nights
nigra
nigricans
nih
niigata
nik
nikaragua
nikaraguako
nikel
nikita
niko
nikola
nikolai
nikolas
nil
nilo
niloren
nils
nima
nimo
nin
nina
ninduen
nine
nineteenth
ninfa
ninja
nino
nintendo
nintzen
nio
nion
nire
nirekin
niretzat
niri
niro
nis
nisi
nitrogeno
nitrogenoa
nituen
nixon
niz
niza
nizako
nizan
nk
nl
nm
no
noa
noaa
noah
noain
noam
nobel
nobela
nobelak
nobis
noble
noblea
nobleak
nobleek
nobleen
noblezia
nobleziaren
noche
nodo
noe
noel
nogent
noir
noire
noiz
noizbait
noizbehinka
noizbehinkako
noizean
nola
nolabait
nolabaiteko
nolako
nolakoa
nolakoak
nolan
nolanahi
nom
noma
nomada
nomadak
nombre
nombres
nome
nomenclature
nomenklatura
non
nonahi
nonbait
nondik
nor
nora
norabide
norabidea
norabidean
noraezean
norakoak
norantza
norantzan
noranzko
noranzkoa
noranzkoan
norbait
norbaitek
norbaiten
norbaiti
norbanako
norbanakoaren
norbanakoentzako
norbanakoentzat
norbera
norberak
norberaren
norbere
norbert
nord
nordanor
norekin
norfolk
norgehiagoka
nori
nork
norma
normal
normala
normalak
normalean
normalki
normals
norman
normandia
normandiako
normandiar
norops
norris
nortasun
nortasuna
nortasunaren
norte
norteko
north
northern
norton
nortzuk
norvegia
norvegiako
norvegian
norvegiar
norvegieraz
norway
nos
noski
nosotros
nostalgia
nostra
not
nota
notak
notas
notazio
notazioa
note
notes
nothing
nothobranchiidae
nothobranchius
notice
notices
noticia
noticias
noticiasdegipuzkoa
noticiasdenavarra
notre
notropis
nou
nous
nouveau
nouvelle
nouvelles
nov
nova
novas
nove
novel
novela
november
novi
novia
noviembre
novo
now
noyelles
noyers
nozio
nozioa
nozitu
np
npr
nr
ns
nster
nsula
nt
nter
nther
ntico
nu
nuclear
nuen
nuestra
nuestro
nuestros
nueva
nuevas
nuevo
nuevos
nuit
nuke
nuklear
nuklearra
nuklearrak
nuklearraren
nuklearren
nukleo
nukleoa
nukleoak
nukleoan
nukleoaren
nulua
nuluak
num
number
numbers
numero
nun
nunc
nunca
nuovo
nur
nuria
nus
nutrition
nutrizio
ny
nytimes
nz
o
oa
oak
oakland
oaxaca
ob
obama
oberea
obi
obispo
object
objects
objektibo
objektiboa
objektu
objektua
objektuak
objektuaren
objektuei
objektuek
objektuen
objetu
oblast
oblasta
oblasteko
obra
obrak
obran
obraren
obrarik
obras
obren
obretan
observations
observatory
oc
oca
ocampo
ocan
occidental
occidentalis
occupation
oce
ocean
oceanic
ocellatus
och
ocho
ochoa
ochotona
oclc
octavio
october
octubre
oda
oder
odisea
odol
odola
odolaren
odolean
odoleko
odolez
odoltsua
odon
odore
odorrana
odriozola
odyssey
oe
oeh
oenanthe
oeste
of
ofentsiba
off
offensive
office
official
oficial
ofizial
ofiziala
ofizialak
ofizialaren
ofizialean
ofizialek
ofizialeko
ofizialen
ofizialetan
ofizialik
ofizialki
ofizialtzat
og
ogasun
ogi
ogia
ogibidez
oh
ohar
oharkabean
oharra
oharrak
ohartarazi
ohartarazten
ohartu
ohartuko
ohartzen
ohe
ohean
ohi
[...]
