!
"
#
##0
##1
##10
##11
##12
##13
##14
##15
##16
##17
##18
##19
##2
##20
##21
##22
##23
##24
##25
##26
##27
##28
##29
##3
##30
##31
##32
##33
##34
##35
##36
##37
##38
##39
##4
##40
##41
##42
##43
##44
##45
##46
##47
##48
##49
##5
##50
##51
##52
##53
##54
##55
##56
##57
##58
##59
##6
##60
##61
##62
##63
##64
##65
##66
##67
##68
##69
##7
##70
##71
##72
##73
##74
##75
##76
##77
##78
##79
##8
##80
##81
##82
##83
##84
##85
##86
##87
##88
##89
##9
##90
##91
##92
##93
##94
##95
##96
##97
##98
##99
$
%
&
'
(
)
*
+
,
-
.
/
0
00
000
001
002
003
004
005
006
007
008
009
01
010
011
0117
012
013
014
015
016
017
018
019
02
020
021
022
023
024
025
026
027
028
029
03
030
031
032
033
034
035
036
037
038
039
04
040
041
042
043
044
045
046
047
048
049
05
050
051
052
053
054
055
056
057
058
059
06
060
061
062
063
064
065
066
067
068
069
07
070
071
072
073
074
075
076
077
078
079
08
080
081
082
083
084
085
086
087
088
089
09
090
091
092
093
094
095
096
097
098
099
1
10
100
1000
10000
1001
1002
1007
101
1010
1014
1016
1017
102
1020
1024
1025
1027
103
1035
1038
104
1040
105
1050
1054
106
1060
1066
107
1070
1075
1076
108
1080
1085
1086
109
1090
1093
11
110
1100
111
1110
1113
112
113
1130
1131
1134
1135
1137
114
1140
115
1150
116
1160
117
1170
118
1180
1185
119
1190
1194
1198
1199
12
120
1200
1201
1204
1209
121
1212
122
1220
1226
1227
123
1230
1234
1235
1237
124
1240
125
1250
1253
1254
1256
1257
1258
126
1260
1264
1266
1268
127
1270
1271
1274
1275
1276
128
1280
1282
1284
129
1290
1295
13
130
1300
1304
1305
1307
131
1310
1314
1315
1316
1318
1319
132
1320
1322
1328
133
1330
1332
134
1340
1341
1347
1348
1349
135
1350
1352
1356
1358
136
1360
1361
1364
1365
1366
1368
1369
137
1370
1371
1378
1379
138
1380
1384
1385
1387
139
1390
1391
1394
1397
14
140
1400
1402
141
1410
1412
1415
142
1420
1425
1427
143
1430
1434
144
1440
1449
145
1450
1452
1453
1457
146
1460
1461
1462
1464
147
1470
1471
1472
1474
1475
1476
1478
1479
148
1480
1483
1485
1488
149
1490
1492
1493
1494
1495
1497
1498
1499
15
150
1500
1501
1502
1503
1504
1505
1506
1507
1508
1509
151
1510
1511
1512
1513
1514
1515
1516
1517
1518
1519
152
1520
1521
1522
1523
1524
1525
1526
1527
1528
1529
153
1530
1531
1532
1533
1534
1535
1536
1537
1538
1539
154
1540
1541
1542
1543
1544
1545
1546
1547
1548
1549
155
1550
1551
1552
1553
1554
1555
1556
1557
1558
1559
156
1560
1561
1562
1563
1564
1565
1566
1567
1568
1569
157
1570
1571
1572
1573
1574
1575
1576
1577
1578
1579
158
1580
1581
1582
1583
1584
1585
1586
1587
1588
1589
159
1590
1591
1592
1593
1594
1595
1596
1597
1598
1599
16
160
1600
1601
1602
1603
1604
1605
1606
1607
1608
1609
161
1610
1611
1612
1613
1614
1615
1616
1617
1618
1619
162
1620
1621
1622
1623
1624
1625
1626
1627
1628
1629
163
1630
1631
1632
1633
1634
1635
1636
1637
1638
1639
164
1640
1641
1642
1643
1644
1645
1646
1647
1648
1649
165
1650
1651
1652
1653
1654
1655
1656
1657
1658
1659
166
1660
1661
1662
1663
1664
1665
1666
1667
1668
1669
167
1670
1671
1672
1673
1674
1675
1676
1677
1678
1679
168
1680
1681
1682
1683
1684
1685
1686
1687
1688
1689
169
1690
1691
1692
1693
1694
1695
1696
1697
1698
1699
17
170
1700
1701
1702
1703
1704
1705
1706
1707
1708
1709
171
1710
1711
1712
1713
1714
1715
1716
1717
1718
1719
172
1720
1721
1722
1723
1724
1725
1726
1727
1728
1729
173
1730
1731
1732
1733
1734
1735
1736
1737
1738
1739
174
1740
1741
1742
1743
1744
1745
1746
1747
1748
1749
175
1750
1751
1752
1753
1754
1755
1756
1757
1758
1759
176
1760
1761
1762
1763
1764
1765
1766
1767
1768
1769
177
1770
1771
1772
1773
1774
1775
1776
1777
1778
1779
178
1780
1781
1782
1783
1784
1785
1786
1787
1788
1789
179
1790
1791
1792
1793
1794
1795
1796
1797
1798
1799
18
180
1800
1801
1802
1803
1804
1805
1806
1807
1808
1809
181
1810
1811
1812
1813
1814
1815
1816
1817
1818
1819
182
1820
1821
1822
1823
1824
1825
1826
1827
1828
1829
183
1830
1831
1832
1833
1834
1835
1836
1837
1838
1839
184
1840
1841
1842
1843
1844
1845
1846
1847
1848
1849
185
1850
1851
1852
1853
1854
1855
1856
1857
1858
1859
186
1860
1861
1862
1863
1864
1865
1866
1867
1868
1869
187
1870
1871
1872
1873
1874
1875
1876
1877
1878
1879
188
1880
1881
1882
1883
1884
1885
1886
1887
1888
1889
189
1890
1891
1892
1893
1894
1895
1896
1897
1898
1899
19
190
1900
1901
1902
1903
1904
1905
1906
1907
1908
1909
191
1910
1911
1912
1913
1914
1915
1916
1917
1918
1919
192
1920
1921
1922
1923
1924
1925
1926
1927
1928
1929
193
1930
1931
1932
1933
1934
1935
1936
1937
1938
1939
194
1940
1941
1942
1943
1944
1945
1946
1947
1948
1949
195
1950
1951
1952
1953
1954
1955
1956
1957
1958
1959
196
1960
1961
1962
1963
1964
1965
1966
1967
1968
1969
197
1970
1971
1972
1973
1974
1975
1976
1977
1978
1979
198
1980
1981
1982
1983
1984
1985
1986
1987
1988
1989
199
1990
1991
1992
1993
1994
1995
1996
1997
1998
1999
2
20
200
2000
2001
2002
2003
2004
2005
2006
2007
2008
2009
201
2010
2011
2012
2013
2014
2015
2016
2017
2018
2019
202
2020
2021
2022
2023
2024
203
2030
204
205
206
207
208
209
21
210
211
212
213
214
215
216
217
218
219
22
220
221
222
223
224
225
226
227
228
229
23
230
231
232
233
234
235
236
237
238
239
24
240
241
242
243
244
245
246
247
248
249
25
250
2500
25000
251
252
253
254
255
256
257
258
259
26
260
261
262
263
264
265
266
267
268
269
27
270
271
272
273
274
275
276
277
278
279
28
280
281
282
283
284
285
286
287
288
289
29
290
291
292
293
294
295
296
297
298
299
3
30
300
3000
301
302
303
304
305
306
307
308
309
31
310
311
312
313
314
315
316
317
318
319
32
320
3200
321
322
323
324
325
326
327
328
329
33
330
331
332
333
334
335
336
337
338
339
34
340
341
342
343
344
345
346
347
348
349
35
350
3500
351
352
353
354
355
356
357
358
359
36
360
361
362
363
364
365
366
367
368
369
37
370
371
372
373
374
375
376
377
378
379
38
380
381
382
383
384
385
386
387
388
389
39
390
391
392
393
394
395
396
397
398
399
4
40
400
4000
401
402
403
404
405
406
407
408
409
41
410
411
412
413
414
415
416
417
418
419
42
420
421
422
423
424
425
426
427
428
429
43
430
431
432
433
434
435
436
437
438
439
44
440
441
442
443
444
445
446
447
448
449
45
450
451
452
453
454
455
456
457
458
459
46
460
461
462
463
464
465
466
467
468
469
47
470
471
472
473
474
475
476
477
478
479
48
480
481
482
483
484
485
486
487
488
489
49
490
491
492
493
494
495
496
497
498
499
5
50
500
5000
50000
501
502
503
504
505
506
507
508
509
51
510
511
512
513
514
515
516
517
518
519
52
520
521
522
523
524
525
526
527
528
529
53
530
531
532
533
534
535
536
537
538
539
54
540
541
542
543
544
545
546
547
548
549
55
550
551
552
553
554
555
556
557
558
559
56
560
561
562
563
564
565
566
567
568
569
57
570
571
572
573
574
575
576
577
578
579
58
580
581
582
583
584
585
586
587
588
589
59
590
591
592
593
594
595
596
597
598
599
6
60
600
6000
601
602
603
604
605
606
607
608
609
61
610
611
612
613
614
615
616
617
618
619
62
620
621
622
623
624
625
626
627
628
629
63
630
631
632
633
634
635
636
637
638
639
64
640
641
642
643
644
645
646
647
648
649
65
650
651
652
653
654
655
656
657
658
659
66
660
661
662
663
664
665
666
667
668
669
67
670
671
672
673
674
675
676
677
678
679
68
680
681
682
683
684
685
686
687
688
689
69
690
691
692
693
694
695
696
697
698
699
7
70
700
7000
701
702
703
704
705
706
707
708
709
71
710
711
712
713
714
715
716
717
718
719
72
720
721
722
723
724
725
726
727
728
729
73
730
731
732
733
734
735
736
737
738
739
74
740
741
742
743
744
745
746
747
748
749
75
750
751
752
753
754
755
756
757
758
759
76
760
761
762
763
764
765
766
767
768
769
77
770
771
772
773
774
775
776
777
778
779
78
780
781
782
783
784
785
786
787
788
789
79
790
791
792
793
794
795
796
797
798
799
8
80
800
801
802
803
804
805
806
807
808
809
81
810
811
812
813
814
815
816
817
818
819
82
820
821
822
823
824
825
826
827
828
829
83
830
831
832
833
834
835
836
837
838
839
84
840
841
842
843
844
845
846
847
848
849
85
850
850215
851
852
853
854
855
856
857
858
859
86
860
861
862
863
864
865
866
867
868
869
87
870
871
872
873
874
875
876
877
878
879
88
880
881
882
883
884
885
886
887
888
889
89
890
891
892
893
894
895
896
897
898
899
9
90
900
901
902
903
904
905
906
907
908
909
91
910
911
912
913
914
915
916
917
918
919
92
920
921
922
923
924
925
926
927
928
929
93
930
931
932
933
934
935
936
937
938
939
94
940
941
942
943
944
945
946
947
948
949
95
950
951
952
953
954
955
956
957
958
959
96
960
961
962
963
964
965
966
967
968
969
97
970
971
972
973
974
975
976
977
978
979
98
980
981
982
983
984
985
986
987
988
989
99
990
991
992
993
994
995
996
997
998
999
999999
:
;
<
=
>
?
@
\
^
_
`
a
aa
aaron
ab
abad
abade
abadea
abadeak
abadia
abadin
abando
abandoko
abandonatu
abangoardia
abangoardiako
abantaila
abantailak
abar
abardura
abarren
abarretan
abbas
abbaye
abbe
abbey
abbott
abc
abd
abdikatu
abdomeneko
abdu
abdul
abdullah
abe
abel
abeltzaintza
abendua
abenduak
abenduan
abenduaren
abenduko
abendura
abendutik
abentura
abenturak
abenturazale
abenturazalea
abenturazko
abera
aberastasun
aberastasuna
aberastasunak
aberastasunaren
aberastu
aberats
aberatsa
aberatsak
aberatsek
aberatsen
aberatsena
aberdeen
aberdeenshire
aberdeenshireko
abere
abereak
abereen
aberri
aberria
aberriaren
abertzale
abertzalea
abertzaleak
abertzalearen
abertzaleek
abertzaleen
abertzaleko
abertzaletasuna
abertzaletasunaren
abesbatza
abeslari
abeslaria
abeslariak
abeslariarekin
abeslariaren
abesteko
abesten
abesti
abestia
abestiak
abestian
abestiarekin
abestiaren
abestien
abestietan
abestirik
abestu
abestuz
abiadura
abiadurak
abiaduran
abiaduraren
abian
abiapuntu
abiapuntua
abiapuntuak
abiarazi
abiatu
abiatuko
abiatuta
abiatutako
abiatuz
abiatzen
abilezia
abizen
abizena
abizenak
abokatu
abokatua
abokatuak
abokatuen
abortu
abortua
about
abraham
abril
abruzzo
abside
absidea
absolutoa
absolutu
absolutua
absolutuan
absolutuaren
abstentzioa
abstraktu
abstraktua
abstraktuak
abstraktuaren
abstrakzio
abu
aburuz
abusu
abuztua
abuztuak
abuztuan
abuztuaren
abuztuko
ac
acade
academia
academic
academy
acanthuridae
acb
access
accessed
accio
accipiter
accipitridae
ace
acosta
act
actas
actinopterygii
action
active
activitats
actual
actualidad
actuelle
ad
ada
adam
adams
adan
adar
adarra
adarrak
adarraren
adarrek
adarren
adarretako
adarretan
adb
ade
adela
adelaida
adelaide
adi
adib
adibide
adibidea
adibideak
adibidean
adibiderik
adibidez
adiera
adieraz
adierazgarri
adierazgarria
adierazgarriak
adierazgarriena
adierazi
adierazia
adieraziko
adierazita
adierazitako
adieraziz
adierazle
adierazlea
adierazleak
adierazpen
adierazpena
adierazpenak
adierazpenaren
adierazpenean
adierazpide
adieraztea
adierazteko
adierazten
adif
adigai
adigaia
adigaiak
adigaien
adige
adimen
adimena
adimenak
adimenaren
adin
adina
adinako
adinarekin
adinaren
adinean
adineko
adingabeen
adio
adiskide
adiskidea
adiskideak
adiskideen
adiskidetasun
adiskidetasuna
adiskidetu
aditu
aditua
adituak
adituek
adituen
adituk
aditz
aditza
aditzak
aditzaren
aditzen
aditzera
adizki
administrador
administratibo
administratiboa
administratiboak
administratiboan
administratiboki
administratzaile
administratzen
administrazio
administrazioa
administrazioak
administrazioan
administrazioaren
administrazioari
administrazioko
adn
adolf
adolfo
adolphe
ados
adostasun
adostasuna
adostasunik
adosten
adostu
adostutako
adour
adreilu
adreiluz
adreiluzko
adria
adrian
adriana
adrien
aduana
aduanak
adventure
adventures
ae
aeb
aebak
aebek
aeben
aebetako
aebetan
aebetara
aebk
aebko
aebn
aebtako
aek
aezkoa
aezkoako
af
afari
afaria
afera
afganistan
afganistanen
afganistango
afiliatu
africa
african
afrika
afrikako
afrikan
afrikar
afrikara
afrikaren
afrikarrak
afrikatik
afro
afroamerikar
afroamerikarrak
afrodita
after
ag
aga
again
against
agamidae
agata
agatha
age
ageda
agenda
agente
agentea
agenteak
agenteek
agentzia
agentziak
agentziaren
ager
ageri
agerian
ageriko
agerikoa
agerpen
agerpena
agerpenak
agerpenaren
agerpenean
agerpenen
agerraldi
agerraldia
agerraldiak
agertoki
agertu
agertuko
agertutako
agertuz
agertzea
agertzeko
agertzen
agian
agin
aginaga
agindu
agindua
aginduak
aginduen
aginduetara
agindupean
agindupeko
aginduta
agindutako
aginduz
aginpide
aginpidea
agintaldi
agintaldia
agintaldian
agintaldiaren
agintari
agintaria
agintariak
agintariei
agintariek
agintarien
agintaritza
agintaritzaren
aginte
agintea
agintean
agintearen
agintepean
agintzen
agiri
agiria
agiriak
agirian
agirietan
agirre
agirrek
agirreren
agne
agnes
agoitz
agora
agortu
agortzen
agosto
agreg
agricoles
agrupacio
agu
agua
aguas
aguilar
aguirre
agulhasko
agur
agurain
aguraingo
agure
agurra
agurtu
agusti
agustin
agustina
ah
ahaide
ahal
ahala
ahalbideratzen
ahalbidetu
ahalbidetuko
ahalbidetuz
ahalbidetzeko
ahalbidetzen
ahaldun
ahalegin
ahalegina
ahaleginak
ahalegindu
ahaleginean
ahaleginetan
ahalegintzen
ahalgarri
ahalgarria
ahalgarritasuna
ahalgarritasunaren
ahalik
ahalko
ahalmen
ahalmena
ahalmenak
ahalmenaren
ahari
ahate
ahaztu
ahizpa
ahizpak
ahizparekin
ahmad
ahmed
aho
ahoa
ahoak
ahoan
ahoaren
ahoko
aholkatu
aholku
aholkua
aholkuak
aholkulari
aholkularia
aholkularitza
ahora
ahoskatua
ahoskatzen
ahoskera
ahotik
ahots
ahotsa
ahotsak
ahotsaren
ahoz
ahozko
ahul
ahula
ahulagoa
ahulak
ahuldu
ahulezia
ahultasuna
ahultzen
ahuntz
ahuntzak
ai
aia
aiako
aierbe
ailegatu
ailegatzen
aime
ain
ainara
aingeru
aingerua
aingeruak
aingo
ainhoa
aintzat
aintzatespenak
aintzinako
aintzira
aintzirak
aintzirako
aintziran
aintziraren
aipa
aipagarri
aipagarria
aipagarriak
aipagarriena
aipagarrienak
aipamen
aipamena
aipamenak
aipatu
aipatua
aipatuko
aipaturiko
aipatutako
aipatuz
aipatzea
aipatzeko
aipatzekoa
aipatzekoak
aipatzen
aipu
air
airbus
aire
airea
aireak
airean
airearen
aireko
aireportu
aireportua
aireportuak
aireportuan
aireportuaren
aireportuko
aireratu
aireratzen
aires
aireseko
airesen
airesera
airesko
airetik
airez
airlines
airport
ais
aise
aisialdi
aisialdirako
aisne
aisneko
aita
aitak
aitarekin
aitaren
aitarengandik
aitari
aitatzat
aitona
aitonak
aitonaren
aitor
aitoren
aitorpen
aitorpena
aitortu
aitortuz
aitortza
aitortzak
aitortzeko
aitortzen
aitzakia
aitziber
aitzina
aitzindari
aitzindaria
aitzindariak
aitzindarietako
aitzindaritzat
aitzitik
aitzol
aix
aizkora
aizkorri
aizpuru
aizpurua
ajax
ajul
ak
aka
akabatu
akademia
akademiak
akademiako
akademian
akademiaren
akademiko
akademikoa
akademikoak
akademikoan
akats
akatsa
akatsak
akatsen
akelarre
akemenestar
aki
akira
akitania
akitaniako
ako
akodon
akordio
akordioa
akordioak
akordioaren
akordiorik
akronimoa
akta
aktibatu
aktibatzen
aktibismo
aktibismoa
aktibista
aktibistak
aktibitate
aktibitatea
aktibo
aktiboa
aktiboak
aktiboan
aktiboaren
aktiboen
aktiboetatik
aktiboki
aktore
aktorea
aktoreak
aktorearekin
aktorearen
aktoreek
aktoreekin
aktoreen
akuarela
akusatu
akustikoa
akutua
akzio
akzioak
akziodun
akzioen
al
ala
alaba
alabaina
alabak
alabama
alabamako
alabarekin
alabaren
alabari
alabarik
alabei
alabek
alabekin
alaben
alacant
alacanteko
alacantiko
alagoas
alai
alaia
alain
alaitz
alan
alarco
alargun
alarguna
alargunak
alarma
alaska
alaskako
alaudidae
alava
alave
alaveseko
alba
albacete
albaceteko
albaitaria
albaitariak
albako
albania
albaniako
albaniar
albany
alberdania
alberdi
albert
alberti
alberto
albin
albiste
albistea
albisteak
albo
alboan
alboetako
alboetan
alboko
alboratu
album
albuma
albumak
albumaren
albumean
albumeko
alca
alcala
alcedinidae
alda
aldaera
aldaerak
aldagai
aldagaia
aldagaiak
aldagaien
aldaketa
aldaketak
aldaketan
aldaketaren
aldaketari
aldaketarik
aldaketek
aldaketen
aldakor
aldakorra
aldakorrak
aldakortasun
aldakortasuna
aldakuntza
aldamenean
aldameneko
aldapa
aldare
aldarea
aldarrikapen
aldarrikapena
aldarrikapenak
aldarrikatu
aldarrikatuz
aldarrikatzeko
aldarrikatzen
aldatu
aldatua
aldatuko
aldatuta
aldatuz
aldatzea
aldatzean
aldatzeko
aldatzen
alde
aldea
aldeak
aldean
aldearekin
aldearen
aldeek
aldeen
aldeetako
aldeetan
aldeko
aldekoa
aldekoak
aldekoek
aldekoen
aldendu
aldenduta
aldentzen
aldera
alderako
alderantziz
alderantzizko
alderantzizkoa
alderatu
alderatuta
alderatuz
alderatzen
alderdi
alderdia
alderdiak
alderdian
alderdiarekin
alderdiaren
alderdiari
alderdiei
alderdiek
alderdien
alderdietako
alderdiko
alderdirik
alderditik
alderik
aldetik
aldez
aldezten
aldi
aldia
aldiak
aldian
aldietan
aldiko
aldiriak
aldirien
aldirietako
aldiriko
aldiro
alditan
aldiuneko
aldiz
aldizka
aldizkako
aldizkari
aldizkaria
aldizkariak
aldizkarian
aldizkariaren
aldizkarien
aldizkarietan
aldizkariko
aldizkaritan
aldo
aldundia
aldundiak
aldundiaren
aldundiko
ale
alea
aleak
aleazio
alec
aleen
alegia
alegiazko
alegoria
alegre
alegria
alejandro
aleksandr
aleksei
alelo
aleman
alemana
alemanak
alemanek
alemanen
alemanez
alemanezko
alemania
alemaniak
alemaniako
alemanian
alemaniar
alemaniara
alemaniaren
alemaniari
alemaniarra
alemaniarrak
alemaniarraren
alemaniarrek
alemaniarren
alemaniatik
alemanieraz
alepocephalidae
alergia
alerta
alessandriako
alessandro
alestidae
alex
alexander
alexandra
alexandre
alexandria
alexandriako
alexandro
alexis
alfa
alfabetatutako
alfabetatze
alfabeto
alfabetoa
alfaguara
alfaro
alferrik
alferrikako
alfonso
alfontso
alfred
alfredo
alga
algak
algoritmo
algoritmoa
algoritmoak
algorta
ali
aliantza
aliantzak
alianza
aliatu
aliatua
aliatuak
aliatuek
aliatuen
alice
alicia
align
alignbars
alison
alive
aljebra
aljeria
aljeriako
aljerian
aljeriar
alkandora
alkartasuna
alkate
alkatea
alkateak
alkatearen
alkateen
alkatetza
alkizako
alkohol
alkohola
alkoholaren
alkorta
all
alla
allah
allan
alle
allegheny
allegro
allen
allende
allenek
alliance
allier
allierreko
allison
alma
almeida
almeri
almeriako
almirante
almirantea
aloe
alokairu
alokairuak
alokairuan
alokatu
alone
alonso
alor
alorra
alorrean
alorreko
alorretan
alpe
alpeak
alpeetako
alpeetan
alpetar
alpha
alphonse
alpinista
alpinistak
als
alsazia
also
alt
alta
altamira
alternatiba
alternatibak
alternatibo
alternatiboa
alternatiboak
alternative
altitude
alto
altsasu
altsasuko
altsasun
altu
altua
altuago
altuagoa
altuagoak
altuak
altuan
altuena
altuenak
altuera
altuerako
altueran
altueraren
altuetan
altuko
altuna
altura
altxa
altxamendu
altxamendua
altxamenduak
altxamenduaren
altxatu
altxatutako
altxatzea
altxatzeko
altxatzen
altxor
altxorra
altxorraren
altza
altzaga
altzairu
altzairua
altzairuzko
altzari
altzariak
altzibiades
aluminio
aluminioa
aluminiodun
aluminiozko
alvarez
alvaro
alves
am
ama
amadeo
amadeus
amai
amaia
amaiera
amaierako
amaieran
amaierara
amaierarako
amaieraren
amaieratik
amaigabea
amairu
amaitu
amaitua
amaituko
amaituta
amaitutako
amaitutakoan
amaitutzat
amaituz
amaitzea
amaitzean
amaitzeko
amaitzen
amaiur
amaiurko
amak
amalia
amanda
amanita
amar
amara
amarekin
amaren
amari
amatasun
amateur
amateurra
amaya
amazon
amazona
amazonas
amazonaseko
amazonasko
amazoniako
ame
amelia
amen
amendi
amenofis
america
american
americana
amerika
amerikako
amerikan
amerikar
amerikara
amerikaren
amerikarra
amerikarrak
amerikarraren
amerikarrek
amerikarren
ameriketako
ameriketan
ameriketara
amerindiar
amets
ametsa
ametsak
ami
amigos
amildegi
amina
aminoazido
aminoazidoak
ammonite
ammoniteak
amnistia
amnistiaren
amo
amodio
amodioa
amodiozko
amon
amona
amonak
amonaren
amonen
amonio
amor
amore
amorebieta
amorratua
amorrua
amos
amour
amparo
amphiliidae
amphisbaena
amphisbaenidae
amsterdam
amsterdamen
amsterdamgo
amuarrain
amurrio
amy
an
ana
anagrama
anai
anaia
anaiak
anaiarekin
anaiaren
anaiek
anaiekin
anaien
anaitasuna
anako
analisi
analisia
analisiak
analisian
analisiaren
analista
analitikoa
analogia
analogiko
analysis
anarkia
anarkismoa
anarkismoaren
anarkista
anarkistak
anarkistek
anas
anastasia
anastasio
anatidae
anatolia
anatoliako
anatomia
anberes
anberesko
anboto
anbulantzia
anchor
ancient
and
andaluzia
andaluziako
andaluzian
andaluziar
andana
andatza
andeetako
ander
andere
anderea
anderen
anders
andersen
anderson
andia
andoain
andoaingo
andoni
andorra
andorrako
andra
andrade
andre
andrea
andreak
andrearen
andreas
andrei
andres
andresen
andreu
andrew
andrews
android
andromeda
andy
ane
anemia
anestesia
anexionatu
anezka
anfibio
anfibioak
anfibioen
anfiteatroa
ange
angel
angela
angeles
angeleseko
angelesen
angelesko
angelina
angelo
angels
angelu
angelua
angeluak
angeluaren
angeluarra
angeluko
angeluzuzen
angeluzuzena
angeluzuzeneko
angle
anglikanoak
anglo
angola
angolako
anguidae
angulo
angus
ani
animal
animali
animalia
animaliak
animaliaren
animaliei
animaliek
animaliekin
animalien
animalietan
animals
animation
animatu
animazio
animazioa
animaziozko
anime
anita
anitz
anitza
anitzak
anitzeko
anitzen
anitzetan
anizkunkiaren
aniztasun
aniztasuna
aniztasunaren
anjel
anjou
ann
anna
annales
anne
anni
annie
anno
annual
ano
anoeta
anoetako
anolis
anomalia
anonimo
anonimoa
anonimoak
anostomidae
another
ans
anselmo
ansorena
antartika
antartikako
antartikan
ante
antena
antes
anthology
anthony
anthus
anti
antibiotiko
antibiotikoak
antigeno
antigorputz
antigorputzak
antigua
antiguako
antiguo
antikomunistak
antimoniodun
antioko
anto
antoine
antoinette
antolaketa
antolaketan
antolakuntza
antolamendu
antolamendua
antolatu
antolatua
antolatuak
antolatuko
antolaturik
antolaturiko
antolatuta
antolatutako
antolatuz
antolatzaile
antolatzailea
antolatzaileek
antolatzea
antolatzeko
antolatzen
antologi
antologia
anton
antoni
antonia
antonio
antoniok
antonioren
antony
antrim
antropologia
antropologo
antropologoa
antropologoak
antsietatea
antso
antton
antxon
antz
antza
antzara
antzeko
antzekoa
antzekoak
antzekotasun
antzekotasuna
antzekotasunak
antzeman
antzemateko
antzematen
antzera
antzerako
antzerki
antzerkia
antzerkiak
antzerkian
antzerkiaren
antzerkigile
antzerkigilea
antzerkigileak
antzerkiko
antzerkirako
antzezlan
antzezlana
antzezlanak
antzezlanean
antzezlanetan
antzezle
antzezlea
antzezpen
antzezpena
antzezteagatik
antzezten
antzeztu
antzeztua
antzeztutako
antzeztuz
antzina
antzinako
antzinakoena
antzinaroa
antzinaroan
antzinaroko
antzinate
antzinatean
antzinateko
antzinatik
antzinean
antzoki
antzokia
antzokiak
antzokian
antzokiaren
antzokiko
anura
any
anza
ao
aorta
aostako
aou
ap
apache
apain
apaindegia
apaindegiak
apaindu
apaindua
apainduak
apaindura
apainduriko
apainduta
apaindutako
apaingarri
apaingarriak
apainketa
apaintzeko
apaintzen
apaiz
apaiza
apaizak
apaizaren
apaizek
apaizen
apaiztu
apal
apala
apalagoa
apalak
apalategi
aparatu
aparatua
aparatuak
aparatuaren
aparkaleku
aparkalekua
aparta
apartamentu
apartamentuak
aparte
aparteko
apartheid
apartheidaren
apellaniz
apenas
apes
apezpiku
apezpikua
apezpikuak
apezpikuaren
aphyosemion
api
apirila
apirilak
apirilaren
apirilean
apirileko
apirilera
apiriletik
apistogramma
aplika
aplikatu
aplikatua
aplikatuko
aplikatutako
aplikatuz
aplikatzea
aplikatzeko
aplikatzen
aplikazio
aplikazioa
aplikazioak
aplikazioaren
aplikazioen
aplikazioetan
apo
apodidae
apogon
apogonidae
apollo
apolo
apostolu
apostoluak
apostoluen
app
apple
approach
approx
apraiz
apre
april
apriorizko
aprobetxatu
aprobetxatuz
aprobetxatzeko
aprobetxatzen
aproposa
aproposak
apteronotidae
apud
apulia
apur
apurka
apurketa
apurtu
apurtzeko
apurtzen
apustu
apustua
aq
aquarius
aqui
aquila
aquilako
ar
ara
araba
arabako
araban
arabar
arabarra
arabera
araberako
araberakoa
araberakoak
arabia
arabiako
arabian
arabiar
arabiarra
arabiarrak
arabiarrek
arabiarren
arabiera
arabieraz
arabierazko
arago
aragoi
aragoiar
aragoieraz
aragoiko
aragoikoa
aragoin
aragon
arakil
aralar
aralarko
aramaio
aramaioko
aran
arana
aranak
aranaren
aranatz
aranburu
aranda
arango
aranguren
arantxa
arantza
arantzazu
arantzazuko
aranzadi
arau
araua
arauak
araubide
araudi
araudia
arauek
arauen
arautu
arautzeko
arautzen
arazi
arazo
arazoa
arazoak
arazoaren
arazoari
arazoei
arazoek
arazoen
arazoengatik
arazoetako
arazoetan
arazoetarako
arazorik
arbaso
arbasoa
arbasoak
arbasoen
arbola
arbuiatu
arbuiatzen
arc
archibald
architecture
archive
archived
archives
archivo
arco
arcos
ardatz
ardatza
ardatzak
ardatzaren
ardatzean
ardatzeko
ardatzen
arde
ardeche
ardeidae
ardenak
ardenetako
ardi
ardiak
ardo
ardoa
ardoak
ardoaren
arduino
ardura
arduradun
arduraduna
arduradunak
arduradunek
ardurak
ardurapean
arduratu
arduratuko
arduratzen
are
area
areago
areagotu
areagotuz
areagotzea
areagotzeko
areagotzen
areeta
arekin
arellano
aren
arena
arenas
arerio
ares
arespakotxaga
aresti
arestian
areta
areto
aretoa
aretoak
aretoan
aretoetan
aretxabaleta
aretxabaletako
arg
arga
argazki
argazkia
argazkiak
argazkian
argazkien
argazkietan
argazkigintza
argazkilari
argazkilaria
argazkilariak
argazkilaritza
argentina
argentinak
argentinako
argentinan
argentinar
argentinara
argentinarra
argentinarrak
argentino
argi
argia
argiago
argiagoa
argiak
argian
argiaren
argibide
argibideak
argien
argiketaria
argiketariak
argin
argipena
argirik
argit
argitaletxe
argitaletxea
argitaletxeak
argitaletxean
argitaletxearen
argitalpen
argitalpena
argitalpenak
argitalpenaren
argitalpenen
argitalpenetan
argitan
argitara
argitaratu
argitaratua
argitaratuak
argitaratuko
argitaraturiko
argitaratuta
argitaratutako
argitaratutakoa
argitaratuz
argitaratzaile
argitaratzailea
argitaratzea
argitaratzeko
argitaratzen
argitasun
argitasuna
argitu
argitzeko
argitzen
argiz
argizari
argizaria
argiztapen
argiztapena
argovia
argoviako
argudiatu
argudiatuta
argudiatuz
argudiatzen
argudio
argudioa
argudioak
argumentu
argumentua
argumentuak
argyll
arhynchobatidae
ari
aria
arian
arias
arie
ariel
aries
ariidae
ariketa
ariketak
arima
arimak
arimaren
arin
arina
arinago
arinagoa
arinagoak
arinak
arindu
arintzeko
arintzen
aristokrata
aristokrazia
aristokraziaren
aristoteles
aristotelesek
aristotelesen
aritmetika
aritu
aritua
arituko
aritutako
aritutakoa
aritz
aritzea
aritzeko
aritzen
arizmendi
arizona
arizonako
ark
arkaitz
arkansas
arkansasko
arkeologia
arkeologiko
arkeologikoa
arkeologikoak
arkeologikoek
arkeologo
arkeologoa
arkeologoak
arkeologoek
arkimedesen
arkitekto
arkitektoa
arkitektoak
arkitektoaren
arkitektoek
arkitektoen
arkitektoniko
arkitektura
arkitekturak
arkitekturako
arkitekturan
arkitekturaren
arkitekturari
arku
arkua
arkuak
arkuaren
arkuen
arkume
arkupe
arlo
arloa
arloak
arloan
arloetan
arloko
arlotan
arm
arma
armada
armadak
armadako
armadan
armadarekin
armadaren
armadari
armadek
armaden
armadura
armagh
armak
armand
armando
armarik
armarri
armarria
armarriak
armarrian
armarriaren
armas
armatu
armatua
armatuak
armatuaren
armatuek
armatuen
armen
armenia
armeniako
armeniar
armiarma
armin
armor
armorko
arms
armstrong
army
arn
arnaldo
arnas
arnasa
arnasketa
arnaud
arne
arnold
aro
aroa
aroan
aroaren
aroko
arokoa
aromobatidae
arotik
around
arozena
arp
arpilatu
arqueolo
arqueologi
arquitectura
arra
arraia
arrain
arraina
arrainak
arraindegi
arraindegiak
arrainen
arrak
arrakala
arrakasta
arrakastak
arrakastaren
arrakastarik
arrakastatsu
arrakastatsua
arrakastatsuak
arrakastatsuena
arrakastaz
arrano
arranoa
arrantza
arrantzale
arrantzaleak
arrantzaleek
arrantzaleen
arrantzan
arrantzaren
arrapala
arraro
arraroa
arraroak
arras
arrasate
arrasateko
arrasaten
arrasto
arrastoa
arrastoak
arrastorik
arrate
arratia
arratoi
arratsalde
arratsaldean
arratsaldeko
arraun
arraunketa
arraunlari
arraunlaria
arraunlariak
arrautza
arrautzak
array
arraza
arrazak
arrazakeria
arrazako
arrazaren
arrazari
arrazen
arrazional
arrazionala
arrazionalak
arrazionalista
arrazoi
arrazoia
arrazoiak
arrazoiaren
arrazoibide
arrazoien
arrazoiengatik
arrazoietako
arrazoiketa
arrazoimen
arrazoimena
arrazoimenak
arrazoimenaren
arrazoirengatik
arrazoirik
arrazoizko
arre
arrea
arreak
arreba
arrebak
arrebaren
arreben
arregi
arrek
arren
arrestek
arreta
arretaz
arriaga
arriasgoiti
arriba
arrieta
arrillaga
arriola
arrisku
arriskua
arriskuak
arriskuan
arriskuaren
arriskuen
arriskurik
arriskutsu
arriskutsua
arriskutsuak
arrizabalaga
arro
arroa
arroak
arroan
arroaren
arroila
arroka
arrokak
arroken
arroko
arropa
arropak
arrosa
arrosak
arrosarioko
arrotz
arrotza
arrotzak
arroyo
arroz
arroza
arrue
arrunt
arrunta
arruntak
arruntaren
arruntean
arrunten
arruntena
arruntenak
ars
arsenal
art
arte
artea
arteaga
arteak
artean
artearekin
artearen
arteari
arteen
arteetako
arteko
artekoa
artekoak
artelan
artelana
artelanak
artelanen
artemisia
arteria
arteriak
arteriaren
artes
arteta
artetik
artetxe
arthroleptidae
arthur
arti
artibai
article
articles
artieda
artifizial
artifiziala
artifizialak
artifizialaren
artifizialki
artikoa
artikoan
artikoaren
artikoko
artikulazio
artikulu
artikulua
artikuluak
artikuluan
artikuluaren
artikuluen
artikuluetan
artikuluko
artilea
artilleria
artiodaktiloen
artisau
artisauak
artisautza
artist
artista
artistak
artistaren
artistas
artistek
artistekin
artisten
artistiko
artistikoa
artistikoak
artistikoan
artistikoaren
artists
artizarra
artizarraren
arto
artoa
artola
arts
artsenikodun
artu
artur
arturo
artxibatua
artxibo
artxiboa
artxiboak
artzain
artzaina
artzainak
artzapezpiku
artzapezpikua
artzapezpikuak
artze
artzibar
artzibarko
arvicolinae
arzallus
as
asaldura
asaldurak
asanblada
ase
aseguru
asentamendu
asetzeko
asetzen
ashikaga
ashley
asi
asia
asiako
asian
asiar
asiarrak
asier
asimetrikoa
asiriako
asiriar
asistentzia
aska
askapen
askapena
askapenaren
askapenerako
askatasun
askatasuna
askatasunak
askatasunaren
askatasunean
askatasunerako
askatasunez
askatu
askatuko
askatutako
askatuz
askatzea
askatzeko
askatzen
aske
askea
askeak
askean
askearen
askeen
askeko
aski
asko
askoan
askok
askoko
askorekin
askoren
askorentzat
askori
askorik
askotako
askotakoak
askotan
askotara
askotarako
askotariko
askotarikoa
askotarikoak
askotatik
askoz
asma
asmakizun
asmakizuna
asmakizunak
asmakuntza
asmatu
asmatua
asmatutako
asmatzaile
asmatzailea
asmatzaileak
asmatzen
asmo
asmoa
asmoak
asmoarekin
asmorik
asmotan
asmoz
aso
asociacio
asp
aspaldi
aspaldian
aspaldidanik
aspaldiko
aspalditik
aspe
aspektu
aspx
assassin
association
aste
astea
astean
astebete
asteburuan
asteetan
astekari
astekaria
astekarian
asteko
astelehenetik
aster
asterix
astero
asteroide
asteroidea
asteroideak
asteroidearen
asteroideen
asteroko
astetan
astez
astigarraga
astiko
astindu
astintzen
astiro
asto
astoa
astrid
astroblepus
astrofisika
astrofisikaria
astronauta
astronautak
astronomia
astronomiako
astronomian
astronomiaren
astronomical
astronomiko
astronomikoa
astronomikoak
astronomo
astronomoa
astronomoak
astronomoek
astronomy
astun
astuna
astunak
asturiar
asturias
asturiasen
asturiasko
astyanax
asun
asuncio
at
ataka
atal
atala
atalak
atalaren
atalean
ataleko
atalen
ataletan
atanasio
atari
ataria
atariak
atarian
atariaren
atariko
atarrabia
ataun
ataza
ate
atea
ateak
atean
atearen
ateen
ateko
atenas
atenasek
atenasen
atenasko
atenastar
atenea
ateneo
atentatu
atentatua
atentatuak
atentatuan
atentatuaren
atentzioa
ateoak
atera
aterako
aterata
ateratako
ateratzea
ateratzeko
ateratzen
ateraz
aterpe
aterpea
atetik
atez
atezain
atezaina
atezainak
atherinopsidae
athletic
athleticek
athleticeko
athleticen
ati
atik
atiko
atin
ations
atlanta
atlantako
atlantic
atlantiko
atlantikoa
atlantikoak
atlantikoan
atlantikoaren
atlantikoetako
atlantikoko
atlas
atle
atleta
atletak
atletico
atletismo
atletismoa
atletismoan
atletismoko
atm
atmosfera
atmosferako
atmosferan
atmosferara
atmosferaren
atmosferikoa
atomiko
atomikoa
atomikoak
atomikoaren
atomo
atomoak
atomoaren
atomoen
atp
atque
atractus
atributu
atseden
atsedena
atsegin
atsegina
atseginak
atsekabea
aturri
atxaga
atxiki
atxikia
atxikimendu
atxikimendua
atxikita
atxikitako
atxikitzeko
atxikitzen
atxilo
atxiloketa
atxiloketak
atxilotu
atxilotua
atxilotuak
atxilotuta
atxilotzeko
atze
atzealde
atzealdea
atzealdean
atzealdeko
atzean
atzeko
atzelari
atzeman
atzemateko
atzematen
atzera
atzerakada
atzerantz
atzerapen
atzerapena
atzeratu
atzeratzen
atzerri
atzerrian
atzerriko
atzerrira
atzerritar
atzerritarrak
atzerritarren
atzetik
atzizki
atzizkia
atzizkiak
atzo
au
aube
aubeko
aubin
auchenipteridae
aude
audeko
audientzia
audio
audioa
audrey
auf
auge
august
augusta
auguste
augustin
augusto
augustok
augustoren
augustus
aukera
aukerak
aukeraketa
aukeran
aukerarik
aukeratu
aukeratua
aukeratuak
aukeratuko
aukeratutako
aukeratzea
aukeratzeko
aukeratzen
aukeren
aul
aulki
aulkia
aun
aunamendi
aur
aura
aurelio
auritz
aurka
aurkako
aurkakoa
aurkakoak
aurkari
aurkaria
aurkariak
aurkariaren
aurkenerena
aurkezle
aurkezlea
aurkezleak
aurkezpen
aurkezpena
aurkezpenean
aurkeztea
aurkezteko
aurkezten
aurkeztu
aurkeztua
aurkeztuko
aurkeztutako
aurkeztuz
aurki
aurkikuntza
aurkikuntzak
aurkikuntzaren
aurkikuntzen
aurkitu
aurkitua
aurkituko
aurkituriko
aurkitutako
aurkituz
aurkitzailea
aurkitzea
aurkitzeko
aurkitzen
aurora
aurpegi
aurpegia
aurpegiak
aurpegian
aurpegiaren
aurpegiko
aurre
aurrea
aurrealde
aurrealdea
aurrealdean
aurrealdeko
aurrean
aurreikusi
aurreikusita
aurreikusitako
aurreikuspen
aurreikuspenak
aurreikusten
aurrekari
aurrekaria
aurrekariak
aurrekaririk
aurreko
aurrekoa
aurrekoak
aurrekoan
aurrekoaren
aurrekoen
aurrekontu
aurrekontua
aurrekontuak
aurrelari
aurrena
aurreneko
aurrera
aurrerago
aurrerako
aurrerantz
aurrerantzean
aurrerapauso
aurrerapen
aurrerapena
aurrerapenak
aurreratu
aurreratua
aurreratuak
aurreratzen
aurresuposatzen
aurretiaz
aurretiazko
aurretik
aurretiko
aurrez
aurrezki
aurrizkia
aus
ausardia
ausart
ausarta
ausartu
ausartzen
ausaz
ausazko
auschwitz
auspoa
austen
austin
australia
australiako
australian
australiar
australiara
australiaren
australiarra
australiarrak
australis
austria
austriak
austriako
austriakoa
austrian
austriar
austriaren
austriarra
austriarrak
austriatik
austro
aut
auto
autoa
autoak
autoan
autoaren
autobia
autobide
autobidea
autobideak
autobidearen
autobiografia
autobiografikoa
autobus
autobusa
autobusak
autodeterminazio
autodidakta
autoekoizpena
autoen
autoeskola
autoeskolak
automatiko
automatikoa
automatikoak
automatikoki
automobil
autonomi
autonomia
autonomo
autonomoa
autonomoak
autonomoan
autonomoaren
autonomoko
autor
autore
autorea
autoreak
autorearen
autoritate
autoritatea
autoz
autre
autres
autry
auvernia
aux
auzapeza
auzi
auzia
auziak
auzian
auziaren
auzitan
auzitara
auzitegi
auzitegia
auzitegiak
auzitegiaren
auzitegiko
auzo
auzoa
auzoak
auzoan
auzoaren
auzoen
auzoetako
auzoetan
auzoko
auzora
auzotik
auzune
auzunea
ava
avant
ave
avec
avellinoko
avenue
aveyron
aveyrongo
avignon
avignongo
avile
aviron
avispa
avr
avril
award
awards
away
ax
axel
axioma
axola
axular
ay
ayala
ayer
ayrshire
ayuntamiento
az
aza
azal
azala
azalak
azalaren
azaldu
azalduko
azaldutako
azalduz
azalean
azaleko
azalera
azaleran
azaleraren
azaleratu
azaleratzen
azaletik
azalpen
azalpena
azalpenak
azaltzea
azaltzeko
azaltzen
azaroa
azaroak
azaroan
azaroaren
azaroko
azarotik
azelerazio
azelerazioa
azen
azerbaijan
azerbaijango
azeri
azido
azidoa
azidoak
azienda
azkar
azkarate
azkarra
azkarrago
azkarragoa
azkarrak
azkarreko
azkarren
azkarrena
azkartu
azken
azkena
azkenak
azkenaldian
azkenean
azkeneko
azkenengo
azkenik
azkoien
azkoitia
azkoitiko
azkue
azkuek
aznar
azoka
azokak
azokan
azpeitia
azpeitian
azpeitiko
azpi
azpialdean
azpian
azpiegitura
azpiegiturak
azpiegituren
azpiespezie
azpiespezieak
azpieuskalkian
azpifamilia
azpigenero
azpiko
azpimarratu
azpimarratuz
azpimarratzekoa
azpimarratzekoak
azpimarratzen
azpimediterraneoa
azpimultzo
azpiordena
azpitik
aztarna
aztarnak
aztarnarik
aztarnategi
aztarnategia
aztarnategiak
aztarnategian
aztarnen
azter
aztergai
azterketa
azterketak
azterketan
azterketaren
azterketek
azterlan
aztertu
aztertuko
aztertuta
aztertutako
aztertuz
aztertzea
aztertzean
aztertzeko
aztertzen
azti
aztia
aztura
azukre
azukrea
azul
azurmendi
azurmendik
b
ba
bab
baba
babes
babesa
babesarekin
babesaren
babesean
babeserako
babesik
babesle
babeslea
babesleak
babesleku
babespean
babestea
babesteko
babesten
babestu
babestua
babestuak
babestuko
babesturik
babestuta
babestutako
babestuz
babilonia
babiloniako
baby
baca
bach
back
backgroundcolors
bacon
bad
bada
badago
badagokio
badaiteke
badajoz
badajozko
badaki
badakigu
badaude
badauka
badela
baden
badia
badiak
badiako
badian
badiaren
badio
badiogu
badiola
badira
badirela
badirudi
baditu
baditugu
badituzte
badu
badugu
badut
badute
baduzu
bafta
baga
bagara
bagdad
bagenu
bagina
baginako
baginaren
bagridae
baha
bahiako
bahiketa
bahitu
bai
baia
baietz
baiezko
baiezkoa
baiezta
baieztapen
baieztapena
baieztapenak
baieztatu
baieztatzeko
baieztatzen
baigorri
baigorriko
baik
baiko
bailara
bailarako
bailaran
baile
bailey
bailitzan
bailitzateke
baimen
baimena
baimenak
baimendu
baimenduta
baimendutako
baimenik
baimentzen
bain
baina
baino
bains
bainu
bainuetxe
bainuetxea
baiona
baionako
baionan
baionarrak
baionatik
bait
baita
baitago
baitaiteke
baitaitezke
baitako
baitan
baitaude
baitio
baitira
baititu
baitituzte
baitu
baitugu
baitute
baitzaio
baitzegoen
baitzen
baitzeuden
baitzien
baitzion
baitzioten
baitziren
baitzituen
baitzituzten
baitzitzaion
baitzuen
baitzuten
baix
baizik
baja
bajo
bakailao
bakan
bakanak
bakar
bakardadea
bakarka
bakarkako
bakarlari
bakarra
bakarrak
bakarrarekin
bakarraren
bakarrean
bakarreko
bakarrekoa
bakarrekoak
bakarrik
bakarrizketa
bakarti
bakartia
bakartzat
bake
bakea
bakean
bakearen
baker
bakerako
baketsu
baketsua
bakezalea
bakoi
bakoitza
bakoitzak
bakoitzarekin
bakoitzaren
bakoitzarentzat
bakoitzari
bakoitzean
bakoitzeko
bakoitzerako
bakoitzetik
bakterio
bakterioa
bakterioak
bakterioek
bakterioen
bakun
bakuna
bakunak
bal
bala
balada
balantza
balazta
balba
balbula
balbulak
baldin
baldintza
baldintzak
baldintzapean
baldintzarik
baldintzatu
baldintzatzen
baldintzen
baldintzetan
baldwin
bale
balea
baleak
balear
balego
balentria
balentzia
balerdi
balet
balia
baliabide
baliabideak
baliabideen
baliabiderik
baliagarri
baliagarria
baliagarriak
baliatu
baliatuta
baliatuz
baliatzeko
baliatzen
balio
balioa
balioak
balioaren
balioen
baliogabeko
baliogabetu
baliokide
baliokidea
baliokideak
baliokidetasun
balioko
baliorik
baliotsua
baliozko
baliozkoa
balira
baliteke
balitoridae
balitz
balizko
balkanetako
balkanetan
balkoi
ball
ballet
balleta
balmaseda
balmasedako
baloi
baloia
baloratu
baloratzen
balorazio
balorazioa
balore
baloreak
baltasar
baltikoko
baltimore
balu
balute
ban
bana
banaka
banakako
banakakoa
banaketa
banaketak
banaketan
banaketaren
banaketari
banako
banakoen
banan
banana
banandu
banandua
bananduta
banatan
banatu
banatua
banatuak
banatuko
banaturik
banatuta
banatutako
banatuz
banatzea
banatzeko
banatzen
banco
band
banda
bandadun
bandak
bandako
bandan
bandaren
bandera
banderak
banderan
banderaren
banderas
bando
bang
bangladesh
bangladeshko
bank
bankari
bankaria
banks
banku
bankua
bankuak
bankuan
bankuaren
bankuko
bantu
banu
bao
baoak
bapatean
baptiste
bar
barack
baraila
barakaldo
barakaldoko
barakaldon
baran
baranda
barandiaran
barandiaranek
barasoain
baratze
barazki
barazkiak
barbara
barbaroen
barbera
barbinae
barbus
barca
barcelona
barclay
barco
bardata
bare
barea
barean
barearen
bareko
baretu
barietate
barietatea
barietateak
barik
bariodun
barka
barkamena
barkatu
barker
barna
barne
barnealdea
barnealdean
barnealdeko
barnean
barnebiltzen
barneko
barnekoa
barnera
barneratu
barneratzen
barnes
barnetik
barney
baroia
baroja
barojak
baron
barra
barradunak
barrak
barral
barran
barre
barreiatutako
barren
barrena
barrenean
barrenetxea
barrett
barrio
barrios
barroko
barrokoa
barrokoak
barrokoan
barrokoaren
barrokoko
barru
barrualdea
barrualdean
barrualdeko
barruan
barruko
barrunbe
barrura
barruti
barrutia
barrutiak
barrutian
barrutiaren
barrutiekin
barrutietako
barrutietan
barrutik
barrutiko
barrutitan
barry
bart
barthe
bartolome
barton
bartzelona
bartzelonako
bartzelonan
bartzelonara
bartzelonarrak
bas
basa
basamortu
basamortua
basamortuak
basamortuan
basamortuaren
basamortuko
basati
basatia
basatiak
basatiaren
basatien
basauri
basauriko
base
basea
baseak
basean
basearen
based
baseliza
baselizak
baselizaren
baserri
baserria
baserriak
baserrian
baserriaren
baserriko
baserritar
baserritarra
baserritarren
basic
basil
basilea
basilika
basilikan
basilikaren
basilio
basket
basketball
baskoi
baskoiak
baskoien
baskonia
baskoniako
baskonian
baso
basoa
basoak
basoan
basoaren
basoek
basoen
basoetako
basoetan
basogintza
basoko
basque
basques
bass
basse
basterretxea
bastida
bastien
bat
bata
bataia
bataiatu
bataiatzailearen
bataila
batailan
batailoi
batailoia
bataio
bataioa
batak
batalla
bataren
batasun
batasuna
batasunak
batasunarekin
batasunaren
batasunari
batasunean
batasuneko
batasunera
batasunetik
bataz
batean
bategatik
batek
batekiko
batekin
bateko
batekoa
batekoak
batel
baten
batena
batenak
batengan
batengandik
batengatik
batentzako
batentzat
batera
bateragarria
bateragarriak
bateraino
baterako
baterantz
bateratu
bateratua
bateratuak
bateratze
bateratzea
bateratzeko
bateratzen
batere
bateria
bateriak
bates
batetako
batetan
batetara
batetik
batez
batezbeste
batezbesteko
batezbestekoa
batezbestekoaren
bath
bati
batik
batista
batman
batrachoididae
battista
battle
batu
batua
batuak
batuan
batuaren
batuek
batuekin
batuen
batuetako
batuetan
batuetara
batuetatik
batuketa
batuko
batukoa
batura
baturako
batuta
batuz
batxilergoa
batxilergoko
batzar
batzarkide
batzarra
batzarrak
batzarraren
batzarrean
batzarreko
batzea
batzeko
batzen
batzorde
batzordea
batzordeak
batzordean
batzordearen
batzordeko
batzuei
batzuek
batzuekiko
batzuekin
batzuen
batzuengatik
batzuentzat
batzuetako
batzuetan
batzuetara
batzuetarako
batzuetatik
batzuez
batzuk
batzutan
bauer
bautista
bavaria
bavariako
baxenafar
baxu
baxua
baxuagoa
baxuagoak
baxuak
baxuan
baxuena
baxuetan
baxuko
bay
bayer
bayern
bayonnais
bayonne
baz
bazaio
bazegoen
bazekien
bazekiten
bazela
bazen
bazeuden
bazion
baziren
bazituen
bazituzten
bazka
bazkaria
bazkide
bazkideak
bazkideen
baztan
baztango
bazter
bazterketa
bazterrean
bazterretan
baztertu
baztertua
baztertuak
baztertuta
baztertuz
baztertzea
baztertzeko
baztertzen
bazuen
bazuten
bbc
bbk
bc
be
beach
bean
bear
bearno
bearnoko
beasain
beasainen
beasaingo
beat
beatles
beatrice
beatriz
beau
beaufort
beaumont
beautiful
beauty
beauvoir
beaux
bec
beck
becker
bederatzi
bederatzigarren
bederen
bedi
been
beethoven
before
begi
begia
begiak
begiaren
begien
begiespen
begiespenaren
begietan
begiko
begin
begira
begirada
begirako
begiratu
begiratua
begiratuta
begiratuz
begiratzeko
begiratzen
begirunea
begizta
begon
beha
behaketa
behaketak
behar
beharbada
beharko
beharra
beharrak
beharraren
beharraz
beharrean
beharrei
beharreko
beharrekoa
beharrekoak
beharren
beharretara
beharrez
beharrezko
beharrezkoa
beharrezkoak
beharrezkotzat
beharrik
behartu
behartua
behartuak
beharturik
behartuta
behartutako
behartuz
behartzen
behatoki
behatokia
behatokian
behatokiko
behatokitik
behatu
behatutako
behatz
behatzaile
behatzaileak
behatzeko
behatzen
behazun
behe
behealdean
behealdeko
behean
beheko
behekoa
behera
beherago
beherakada
beherako
beherakoa
beherakoak
beherantz
beheranzko
beherea
beherean
behereko
behetik
behi
behia
behiak
behien
behin
behind
behinean
behineko
behinola
behinolako
behintzat
bei
beijing
being
beira
beirazko
beisbol
beitia
beka
bekak
bekatu
bekhatu
bekoki
bektore
bektorea
bektoreak
bektoriala
bel
bela
belaki
belar
belardi
belarkara
belarra
belarrak
belarri
belarria
belarriak
belatz
belaunaldi
belaunaldia
belaunaldiko
belaunaldiz
beldur
beldurgarria
beldurra
beldurrak
beldurrez
beldurrezko
beldurrik
bele
belfast
belfasteko
belfort
belgika
belgikako
belgikan
belgikar
belgikarra
bell
bella
bellas
belle
bellmare
bello
belmont
beloki
beltra
beltran
beltz
beltza
beltzak
beltzaren
beltzean
beltzek
beltzeko
beltzen
beltzez
beltzezko
ben
bena
benedict
benedikto
beneditar
benes
benetako
benetakoa
benetan
benetazko
bengalako
bengelako
bengoa
bengoetxea
beni
beningo
benito
benjamin
bennett
benny
benoi
benson
benta
benton
benz
ber
bera
beragatik
beraiei
beraiek
beraiekin
beraien
berak
beran
berandu
beranduago
berantiar
berantiarra
berantiarrean
berantiarreko
berarekin
beraren
berarentzat
berari
berariaz
berariazko
berasategi
berastegi
berau
berauen
beraz
berba
berbaitango
berbera
berberak
berde
berdea
berdeak
berdearen
berdexka
berdez
berdin
berdina
berdinak
berdinarekin
berdindu
berdinduak
berdinduta
berdinean
berdineko
berdinen
berdinetan
berdinketa
berdintasun
berdintasuna
berdintasunaren
berdintasunerako
bere
berea
bereak
berean
berebiziko
beregan
bereganatu
bereganatuz
bereganatzea
bereganatzeko
bereganatzen
berehala
berehalako
berehalakoan
bereiz
bereizgarri
bereizgarria
bereizgarriak
bereizi
bereizia
bereiziak
bereizirik
bereizita
bereizitako
bereiziz
bereizkeria
bereizketa
bereizketarik
bereizmen
bereiztea
bereizteko
bereizten
bereiztu
berek
berekin
bereko
berekoa
berekoak
beren
berenices
berera
beretik
beretu
beretzat
berez
berezi
berezia
bereziak
berezian
bereziaren
berezien
berezietan
bereziki
bereziko
berezirik
berezitasun
berezitasuna
berezitasunak
berezko
berezkoa
berg
bergamoko
bergara
bergarako
bergaran
berge
bergen
berger
bergman
beriain
bering
berkeley
berlin
berlinen
berlinera
berlingo
bermatu
bermatuko
bermatuta
bermatzea
bermatzeko
bermatzen
berme
bermea
bermeo
bermeoko
bermeon
berna
bernako
bernard
bernardino
bernardo
bernhard
bernie
bernstein
bero
beroa
beroak
beroaren
beronen
berorren
berotegi
berotu
berotze
berotzeko
berotzen
berpizkunde
berpizkundea
berpiztea
berpizteko
berpiztu
berrantolaketa
berrantolatu
berrargitaratu
berregin
berregokitzapen
berregokitzapena
berrehun
berreraiki
berreraikia
berreraikitzea
berreraikitzeko
berreraikuntza
berreskuratu
berreskuratua
berreskuratze
berreskuratzea
berreskuratzeko
berreskuratzen
berresten
berretsi
berrezarri
berrezartzeko
berri
berria
berriak
berrian
berriarekin
berriaren
berriari
berriei
berriek
berriekin
berrien
berriena
berrietan
berrietara
berriki
berriko
berrikun
berrikuntza
berrikuntzak
berrikusi
berrikuspen
berrira
berrirako
berririk
berriro
berritan
berritik
berritu
berritua
berritzaile
berritzailea
berritzaileak
berritze
berritzea
berritzeko
berritzen
berriz
berriztagarriak
berriztu
berrogei
berrogeita
berry
bert
berta
bertako
bertakoa
bertakoak
bertakoek
bertakoen
bertan
bertara
bertaratu
bertatik
bertikal
bertikala
bertikalak
bertikalean
bertikalki
bertoko
bertrand
bertsio
bertsioa
bertsioak
bertsioan
bertsioaren
bertso
bertsoa
bertsoak
bertsolari
bertsolaria
bertsolariak
bertsolaritza
bertsolaritzaren
bertsotan
bertsozale
bertute
bertutea
bertuteak
bertze
berun
beruna
berundun
berunezko
bes
beso
besoa
besoak
besoetan
best
bestalde
bestaldean
beste
bestea
besteak
bestean
bestearekin
bestearen
besteari
besteei
besteek
besteekin
besteen
besteetan
besteko
bestekoa
bestela
bestelako
bestelakoa
bestelakoak
bestera
besteren
besterik
bestetan
bestetik
beta
bete
betea
beteak
betean
betearazlea
betearazteko
betebehar
betebeharra
betebeharrak
beteko
betelu
beteranoa
beterik
beteriko
beteta
betetako
betetzea
betetzean
betetzeko
betetzen
betetzera
betez
beth
beti
betidanik
betiere
betiereko
betiko
betirako
betizu
betta
betty
between
beverly
beyond
bezain
bezainbeste
bezala
bezalako
bezalakoa
bezalakoak
bezalaxe
bezela
bezero
bezeroa
bezeroak
bezeroaren
bezeroei
bezeroek
bezeroen
bezperan
bi
biak
biar
biarritz
biarritzeko
biarritzen
biarrizko
bibcode
biblia
bibliako
biblian
bibliaren
bibliografia
biblioteca
biblioteka
bibliothe
bibrazio
bidai
bidaia
bidaiak
bidaian
bidaiaren
bidaiari
bidaiaria
bidaiariak
bidaiarien
bidaiarientzako
bidaiatu
bidaiatzea
bidaiatzeko
bidaiatzen
bidaien
bidaietan
bidali
bidalia
bidaliko
bidalitako
bidaliz
bidaltzea
bidaltzeko
bidaltzen
bidasoa
bide
bidea
bideak
bidean
bidearen
bideari
bideen
bideetan
bidegileak
bidegurutze
bidegurutzean
bideko
bideo
bideoa
bideoak
bideoan
bideoklipa
bider
bidera
bideratu
bideratua
bideratuko
bideratuta
bideratutako
bideratzea
bideratzeko
bideratzen
biderik
biderkadura
biderkatu
biderketa
bidetik
bidez
bidezidor
bidezko
bidezkoa
biek
bielorrusia
bielorrusiako
bien
bietako
bietan
big
biga
bigarren
bigarrena
bigarrenak
bigarrenaren
bigarrenean
bigarrenez
bigarrenik
bigg
bigun
biguna
bigunak
bihar
biharamunean
bihotz
bihotza
bihotzak
bihotzaren
bihotzean
bihotzeko
bihotzekoak
bihur
bihurgune
bihurtu
bihurtua
bihurtuko
bihurtuta
bihurtuz
bihurtzea
bihurtzeko
bihurtzen
bik
bikain
bikaina
bikainak
bikario
biki
bikia
bikiak
bikingoak
bikingoen
biko
bikoitia
bikoitz
bikoitza
bikoitzak
bikoitzaren
bikoitzeko
bikoizketa
bikoiztaileak
bikoiztu
bikote
bikotea
bikoteak
bikotearen
bikoteen
bikotekide
bikotekidea
biktima
biktimak
biktimaren
biktimei
biktimen
bil
bila
bilakaera
bilakaeran
bilakaeraren
bilakatu
bilakatuko
bilakatuz
bilakatzea
bilakatzeko
bilakatzen
bilaketa
bilaketak
bilaketan
bilatu
bilatuko
bilatuz
bilatzea
bilatzeko
bilatzen
bilbao
bilbo
bilbok
bilboko
bilbon
bilbora
bilbotar
bilbotarrak
bilbotik
bildu
bildua
bilduak
bilduk
bilduko
bilduma
bildumak
bildumako
bilduman
bildumaren
bilduren
bildurik
bilduta
bildutako
bilduz
bilera
bilerak
bileran
bileraren
bileretan
bilgune
bilioi
bilketa
bilkura
bilkuran
bill
billboard
billie
billy
biloba
biltegi
biltegia
biltegiak
biltegiratze
biltegiratzea
biltegiratzeko
biltzaile
biltzaileak
biltzar
biltzarra
biltzarrak
biltzarraren
biltzarrean
biltzarreko
biltzea
biltzeko
biltzen
biluzi
biluzia
biluziak
biluzik
bin
bina
binaka
binakako
bingen
bio
biografi
biografia
biografiak
biography
biok
biokimika
biokimikaria
biolentzia
biolin
biolina
biolinista
biologia
biologian
biologiaren
biologiko
biologikoa
biologikoak
biologo
biologoa
biologoak
biology
biolontxelo
biomasa
biosfera
bira
birak
biraka
biraketa
biran
biratu
biratzen
bird
birds
biren
biribil
biribila
biribilak
birika
birikak
biriketako
birjina
birjinak
birjinaren
birlandaturiko
birlandatutako
birmingham
birmoldaketa
birrindu
birritan
birsortu
birtual
birtuala
birus
birusa
birusak
birusaren
birusen
bis
bishop
bisigodoak
bisigodoen
bisita
bisitak
bisitan
bisitari
bisitariak
bisitatu
bisitatzeko
bisitatzen
bisitatzera
bismutodun
bison
bisonte
bisontea
bista
bistakoa
bistan
bisuala
bisurteetan
bit
bitamina
bitaminaren
bitan
bitar
bitarra
bitarte
bitartean
bitartekari
bitartekaritza
bitarteko
bitartekoa
bitartekoak
bitartekorik
bitartez
biteko
bitez
bittor
bitxi
bitxia
bitxiak
bitxikeria
bitxikeriak
bixente
biz
bizantziar
bizantzioko
bizar
bizarra
bizente
bizi
bizia
biziak
bizian
biziaren
bizidun
bizidunak
bizidunen
bizidunetako
bizien
biziki
bizikleta
bizikletak
bizikletan
bizikletaren
bizikletaz
biziko
bizilagun
bizilagunak
bizilagunek
bizilagunen
bizileku
bizilekua
bizimodu
bizimodua
bizimoduaren
bizipen
bizipenak
biziraun
biziraupen
biziraupena
bizirauteko
bizirik
bizitako
bizitasun
bizitegi
bizitoki
bizitokia
bizitu
bizitza
bizitzak
bizitzako
bizitzan
bizitzarako
bizitzaren
bizitzari
bizitzaz
bizitzea
bizitzeko
bizitzen
bizitzera
biziz
bizkai
bizkaia
bizkaian
bizkaibus
bizkaiko
bizkaitar
bizkaitarra
bizkaitarrak
bizkar
bizkarra
bizkarrean
bizkarreko
bizkarrezur
bizkarrezurra
bizkondea
bizkor
bizkorra
bizkortu
bizpahiru
bizt
biztanle
biztanleak
biztanleei
biztanleek
biztanleen
biztanleko
biztanleri
biztanleria
biztanleriak
biztanleriaren
biztanlerik
biztanletik
bjo
bl
bla
black
blackwell
blair
blaise
blake
blanc
blanca
blanche
blanco
blanskoko
blas
blasco
blasoi
ble
blenniidae
bleu
blica
blico
blind
bloch
block
blog
bloga
blogak
blogean
blogspot
bloke
blokea
blokeak
blokeatu
blokeatzen
blokeo
blokeoa
blood
bloom
blu
blue
blues
bmatrix
bmg
bmx
bo
board
bob
bobby
boca
body
boe
boeing
bogota
bohemia
bohemiako
bohr
boikota
bois
bokal
bokala
bokalak
bokalean
bokazioa
bol
bola
bolada
bolak
bolbora
boldsymbol
boleibol
boleibolean
boleslaveko
boleti
boletus
boli
bolivar
bolivia
boliviako
bolivian
bolkaniko
bolkanikoa
bolkanikoak
bolonia
boloniako
boltxebike
boltxebikea
boltxebikeak
boltxebikeek
boltxebikeen
bolumen
bolumena
bolumenak
bolumenaren
boluntario
boluntarioak
boluntarioen
bombus
bon
bonaparte
bonapartek
bonaparteren
bonba
bonbak
bonbardaketa
bonbardaketak
bonbardatu
bond
bonifazio
bonnet
bonnie
boo
book
books
boom
boone
borato
borboi
borboien
borboikoa
borda
bordeaux
bordele
bordeleko
bordelen
border
borders
borges
borgia
borgoina
borgoinako
boris
borja
borko
born
borobila
borondate
borondatea
borondatearen
borondatez
borondatezko
borough
borroka
borrokak
borrokalari
borrokalaria
borrokalariak
borrokaldi
borrokan
borrokarako
borrokaren
borrokari
borrokatu
borrokatzea
borrokatzeko
borrokatzen
borrokatzera
borrokek
borroken
borroketan
bortitz
bortitza
bortitzak
bortizkeria
bortizki
bortxaketa
bortxatu
bos
bosch
bose
bosgarren
bosgarrena
bosnia
bosniako
bosniar
bosque
bost
bostak
bosten
bostgarren
boston
bostonen
bostongo
bot
bota
botanika
botanikaria
botanikoa
botata
botatako
botatzea
botatzeko
botatzen
botaz
botere
boterea
botereak
boterean
boterearen
botereen
boterera
boteretik
boteretsu
boteretsua
boteretsuena
bothidae
botika
botikak
botila
botniako
boto
botoa
botoak
botoen
botoi
botswanako
bottom
bouguereau
boulenger
boulevard
boulogne
bourg
bovidae
bowell
bowie
box
boxeo
boxeolari
boxeolaria
boxeolariak
boy
boyd
boyle
boys
boz
boza
bozen
bozeramaile
bozeramailea
bozeramaileak
bozka
bozkatu
bozkatuena
bozkatzeko
bozketa
bozketan
bpg
br
bra
brabante
brabanteko
brad
bradford
bradley
brain
bramgo
brandenburgo
brandenburgoko
brandon
brandt
bras
brasil
brasildar
brasilen
brasilgo
bravo
bray
bre
break
brecht
breeds
bremen
brendan
bresciako
brest
bretagne
bretainia
bretainiako
bretainiar
bretainieraz
breton
breuil
breuning
breve
brian
brica
bride
bridge
bridges
brie
brien
brigada
brigitte
brikolaje
brill
bristol
britain
britainia
britainiar
britainiarra
britainiarrak
britainiarraren
britainiarrek
britainiarren
britania
britaniar
britannica
british
brittany
brno
bro
broadcasting
broadway
broadwayko
brock
brodeko
bron
bronkio
bronte
brontze
brontzea
brontzezko
brontzezkoa
brooklyn
brooks
bros
brother
brothers
brown
bru
bruce
brujas
brun
bruno
brunswick
brusela
bruselako
bruselan
bryan
bryconamericus
bsd
bt
bu
buchanan
buck
buda
budapest
budapesteko
budaren
buddy
bude
budismoa
budismoaren
budista
budistak
buelta
bueltan
bueltatu
bueltatzen
buen
buena
bueno
buenos
buenosairestarrak
buffalo
bufonidae
building
buka
bukaera
bukaerako
bukaeran
bukaeratik
bukatu
bukatuko
bukatuta
bukatzean
bukatzeko
bukatzen
bul
bular
bularra
bularrak
bularrean
bularreko
bulego
bulegoa
bulegoak
bulegoan
bulegoaren
bulegoko
bulgaria
bulgariako
bulgarian
bulgariar
bulkada
bull
bulletin
bultzada
bultzatu
bultzatuko
bultzaturik
bultzatuta
bultzatutako
bultzatuz
bultzatzaile
bultzatzailea
bultzatzea
bultzatzeko
bultzatzen
bun
bundesliga
burbuila
burdin
burdina
burdinadun
burdinaren
burdinazko
burdinbide
burdinbidea
burdinbideak
burdinbidearen
burdinezko
burdinola
bureau
burges
burgesia
burgesiak
burgesiaren
burgess
burgos
burgosen
burgosko
burgu
burke
burkina
burlata
burmuin
burmuina
burmuinaren
burmuineko
burns
burokrazia
burt
burton
burtsa
burtsako
burtsan
buru
burua
buruak
burual
burualde
burualdea
buruan
buruarekin
buruaren
buruari
buruaz
buruen
burujabe
burujabea
burujabetasuna
burujabetza
buruko
burundiko
burura
bururatu
burutik
burutu
burutua
burutuko
burututako
burutzea
burutzeko
burutzen
buruz
buruzagi
buruzagia
buruzagiak
buruzagiaren
buruzagiek
buruzagien
buruzagietako
buruzagitza
buruzko
buruzkoa
buruzkoak
bus
busa
bush
business
busti
busto
bustoa
but
bute
butler
buztan
buztana
buztin
buztina
buztinezko
by
byrne
byron
byte
bythitidae
bz
c
ca
caballero
cabeza
cabo
cabrera
cache
cacia
cada
cadena
cadizko
caesar
caf
cafe
cage
cai
caine
caja
cal
calabria
calabriako
calahorra
calahorrako
calais
calaisko
caldero
caldwell
calhoun
california
call
calle
callichthyidae
callionymidae
callionymus
calpe
calvados
calvadosko
calvin
calvo
camacho
cambio
cambridge
cambridgeko
camden
came
camera
cameron
camille
camilo
camino
caminos
camp
campagne
campania
campbell
campephagidae
campo
campos
campus
campusa
campusean
camus
can
canada
canadian
canal
canarias
cancer
cancio
canciones
candy
canes
canis
canneseko
cannesko
cano
canta
cantabria
cantal
cantalgo
canto
canvas
canyon
cap
cape
capensis
capita
capital
capitol
capra
caprimulgidae
captain
car
cara
caracas
caracasen
caracasko
carangidae
caras
card
cardiff
carduelis
care
careproctus
carey
carl
carla
carles
carlo
carlos
carlota
carmarthenshire
carme
carmelo
carmen
carnegie
caro
carol
carolina
carolinako
caroline
carpenter
carr
carranza
carrasco
carre
carrera
carrie
carrillo
carroll
carson
carta
cartagena
cartas
carte
carter
carthage
cartier
carvalho
cary
cas
casa
casablanca
casado
casal
casanova
casares
casas
case
casertako
cases
casey
cash
casino
caso
cass
cassini
castan
castejo
castel
castell
castellano
castello
castelnau
castelo
castilla
castillo
casting
castle
castro
castrok
cat
cata
catala
catalana
catalina
catalogue
catalunya
catania
cataniako
catarina
catedral
category
cathedral
catherine
catholic
cato
catostomidae
caudata
causa
cava
cave
cavendish
cb
cbs
cc
cd
cdot
cdots
ce
ceara
cecil
cecilia
celebesko
celia
cell
celta
celtic
census
centauri
centaurus
center
central
centre
centro
centrolenidae
century
ceratobatrachidae
cercopithecidae
cerda
ceredigion
ceres
ceresko
cerezo
cero
cerro
cervantes
cervera
ces
cesar
cesare
cetus
cf
cfrac
ch
cha
chaco
chaenopsidae
chaetodon
chaetodontidae
challenge
chamaeleonidae
chamberlain
chambers
champagne
champion
champions
championship
champs
chan
chance
chandler
chang
change
channel
chapelle
chaplin
chapman
chapter
characidae
charente
charenteko
charentes
charles
charlie
charlotte
charlton
chase
che
checklist
cheiracanthium
cheko
chelsea
chemical
chemistry
chen
cher
cherko
chernykh
cherokee
cherreko
cherry
chester
chez
chi
chiapas
chiba
chicago
chicagoko
chicagon
chico
chihuahua
child
children
chile
china
chinese
chiropteraren
chloe
cho
choice
chomsky
chongqing
chorus
chris
christ
christian
christie
christina
christine
christmas
christoph
christophe
christopher
chromis
chrudim
chu
chuck
chueca
church
churchill
churchillek
ci
cia
cichlidae
cid
cie
cielo
cien
ciencia
ciencias
cienti
cil
cile
cinco
cine
cinema
circ
circle
circus
cis
cisneros
cisticolidae
cit
cite
cities
citta
city
ciudad
ciutat
civil
ck
cl
cla
clair
claire
clara
clare
clarence
clariidae
clark
clarke
claroteidae
clash
class
classic
classical
claude
claudia
claudio
claus
clay
clayton
cle
clement
clemente
clermont
cleveland
cliff
clifford
climate
clinidae
clint
clinton
clive
close
cloud
club
clubeko
clupeidae
clyde
cm
cn
cnemaspis
cnt
co
coast
cobitidae
cobitis
coca
cocina
coco
code
codex
coelorinchus
cohen
col
cola
cold
cole
coleccio
colegio
coleman
colin
coll
colle
collected
collection
college
collegen
collins
colo
colombe
colombia
colon
colonia
color
colorado
coloradoko
colors
colubridae
colubrinae
columba
columbia
columbiako
columbidae
columbus
com
coma
comarca
come
comedy
comes
comics
coming
comme
commerce
commission
committee
common
commons
commonwealth
commune
communication
community
como
comoko
compan
company
completa
completas
complete
complutense
compostela
compostelako
computer
comte
comune
comunicacio
comunidad
con
conan
concepcio
concert
concerto
concha
conchita
concordia
conde
conference
congreso
congridae
connecticut
connecticuteko
connell
connemara
connery
connor
conrad
consejo
constance
constant
construccio
construction
consuelo
consultado
conte
contempora
contemporary
content
contes
contra
contre
control
conway
cook
cooper
cop
copa
cope
copley
copyright
coque
coral
corazo
cordylidae
core
coregonus
corella
cork
cornelius
cornell
corona
corporation
corpore
corps
corpus
corpusa
corre
correo
corta
corte
cortes
corun
corvidae
corvus
corydoras
cos
cosas
cosenzako
costa
cotingidae
cottidae
cottus
council
country
county
courcelles
court
cover
covid
cox
cp
cr
craig
craugastor
craugastoridae
crawford
crazy
cre
creative
creed
creek
cremonako
crenicichla
crenuchidae
crespo
creuse
creuseko
cri
cricetidae
crime
crimen
crisis
cristina
cristo
cristobal
critical
critique
cro
crocidura
croix
cromarty
cromwell
cropped
cross
crotalinae
crown
cruz
cry
crystal
cs
csic
ct
ctenomyidae
ctenomys
ctenotus
ctica
ctor
cu
cuadernos
cuando
cuatro
cuba
cuculidae
cue
cuenca
cuencako
cuentos
cuerpo
cuesta
cueva
cuevas
culo
cultura
cultural
culture
cum
cumberland
cuneoko
cunningham
cup
cura
curie
curimatidae
curriculum
curry
curtis
cut
cuvier
cy
cygnus
cymru
cynoglossidae
cynon
cynthia
cyprinidae
cyprinodontidae
cyprus
cyr
cyril
cyrtodactylus
cœur
d
da
dabil
dabilen
dabiltza
dabiltzan
dactyloidae
dade
dadila
dadin
dado
dago
dagoela
dagoelako
dagoelarik
dagoen
dagoena
dagoenak
dagoenaren
dagoenean
dagoeneko
dagoenez
dagoenik
dagokie
dagokien
dagokienez
dagokio
dagokiola
dagokion
dagokiona
dagokionean
dagokionez
dagoz
dagozkie
dagozkien
dagozkio
dagozkion
dagozkionak
dai
daily
daiteke
daitekeela
daitekeelako
daitekeelarik
daitekeen
daitekeena
daitekeenez
daitez
daitezen
daitezke
daitezkeela
daitezkeelako
daitezkeen
daitezkeenak
daitezken
dakar
dakarren
dakarte
dakartza
dakartzan
daketa
daki
dakigu
dakigun
dakioke
dakit
dakite
dakota
dakotako
dal
dala
dalai
dale
dali
dallas
dalton
dama
damammals
dame
damon
dan
dana
danbor
danborrada
dance
dancing
dani
daniar
daniel
danielle
daniels
danimarka
danimarkako
danimarkakoa
danimarkan
danioninae
danny
dans
dante
dantza
dantzak
dantzan
dantzaren
dantzari
dantzaria
dantzariak
dantzatu
dantzatzen
danubio
dar
darabil
darama
daraman
daramana
daramate
daramaten
daramatza
dare
dari
dario
dark
darkgrey
darwin
darwinek
darwinen
das
dasyatidae
dasyuridae
data
database
datak
datatua
date
dateformat
dator
datorkio
datorrela
datorren
datorrena
datos
datoz
datozen
datozenak
datu
datua
datuak
datubasea
datubasean
datuek
datuekin
datuen
datuetan
daturik
datutegia
datza
datzan
dau
daude
daudela
daudelako
daudelarik
dauden
daudenak
daudenean
daudenez
daughter
dauka
daukagu
daukala
daukan
daukana
daukate
daukaten
dauphine
dauzka
dauzkan
dauzkate
dauzkaten
dave
david
daviden
davidson
davies
davis
dawn
dawson
day
days
db
dbh
dc
dd
de
dea
deabru
deabrua
deabruak
deabruaren
dead
dean
death
deba
debako
deban
debate
debekatu
debekatua
debekatuta
debekatzeko
debekatzen
debeku
debekua
deborah
debut
debuta
debutatu
december
dedikatu
dee
deep
defendatu
defendatzaile
defendatzailea
defendatzaileak
defendatzea
defendatzeko
defendatzen
defensa
defentsa
defentsak
defentsako
defentsan
defentsarako
defentsaren
defini
definitu
definitua
definituta
definitutako
definitzea
definitzeko
definitzen
definizio
definizioa
definizioak
definizioan
definizioaren
definizioz
defizit
defizita
deformazio
degas
degli
degradazioa
dei
deia
deiak
deialdia
deialdiak
deigarria
deigarriak
deitu
deitua
deituak
deituko
deitura
deituraz
deituriko
deiturikoa
deiturikoak
deituta
deitutako
deitutakoa
deituz
deitzea
deitzeko
deitzen
dek
deklaratu
deklarazio
deklarazioa
deko
dekorazio
dekorazioa
dekretu
dekretua
dekretuak
dekretuaren
dekurrenteak
del
dela
delako
delakoa
delakoak
delakoan
delakoarekin
delakoaren
delarik
delaware
delgado
delhi
delimitation
delitu
delitua
delituak
dell
della
delle
dels
delta
dem
demagun
demanda
demetrio
demo
democra
democracia
democracy
demografi
demografia
demografiko
demografikoa
demokrata
demokratak
demokratiko
demokratikoa
demokratikoak
demokratikoan
demokratikoaren
demokratikoen
demokratikoetan
demokratikoki
demokratikoko
demokrazia
demokraziaren
den
dena
denak
denaren
denari
denbora
denborak
denboraldi
denboraldia
denboraldiak
denboraldian
denboraldiaren
denboraldietan
denboraldiko
denboraldirako
denboralditan
denboralditik
denboraldiz
denboran
denborarekiko
denborarekin
denboraren
denborarik
denboraz
denborazko
denda
dendak
dendetan
dendrobatidae
denean
denek
deneko
denen
denera
denetan
denetik
denez
denik
denis
denise
dennis
denok
dentsitate
dentsitatea
dentsitatearen
denver
deo
departamendu
departamendua
departamenduak
departamenduan
departamenduaren
departamenduko
departamentu
departamentua
departamentuak
departamentuan
departamentuko
department
dependentzia
deportatu
deportiva
deportivo
depresio
depresioa
depuis
der
dera
derako
derecho
derechos
derek
deribatu
deribatua
deribatuak
deritze
deritzen
deritzenak
deritzo
deritzogu
deritzon
deritzona
deritzonaren
derrigorrez
derrigorrezko
derrigorrezkoa
derry
des
desabantaila
desabantailak
desadostasun
desadostasuna
desadostasunak
desagerpena
desagerrarazi
desagertu
desagertua
desagertuak
desagertuko
desagertuta
desagertutako
desagertzea
desagertzeko
desagertzen
desarrollo
desberdin
desberdina
desberdinak
desberdinean
desberdinek
desberdinekin
desberdineko
desberdinen
desberdinetako
desberdinetan
desberdinetara
desberdinetatik
desberdinez
desberdintasun
desberdintasuna
desberdintasunak
desberdintzen
desbideratu
desbideratze
desbideratzen
descartes
descartesek
descartesen
description
desde
desegin
desegitea
desegiteko
desegiten
desegokia
desegokiak
desert
desgaitasuna
design
desintegrazio
desio
desira
desiratzen
deskarga
deskargatzeko
deskriba
deskribapen
deskribapena
deskribapenak
deskribatu
deskribatutako
deskribatzeko
deskribatzen
deskubritu
desmond
desnibela
desobedientzia
desoreka
desplazamendu
desplazamendua
despopulatu
despue
destino
det
detektatu
detektatzeko
detektatzen
detektibe
detektibea
determinatu
determinatzen
determinazio
detik
detroit
deuna
deunaren
deus
deuseztatu
deuseztatzeko
deuseztatzen
deustu
deustuko
deutsche
deux
development
devil
dewey
dezagun
dezake
dezakeela
dezakeen
dezakeena
dezakegu
dezakegun
dezakete
dezaketela
dezaketen
dezaketenak
dezakezu
dezala
dezan
dezaten
dezente
di
dia
diabetes
diabetesa
diafragma
diagnostikatu
diagnostiko
diagnostikoa
diagonal
diagrama
diagramak
dialectes
dialectos
dialektika
dialekto
dialektoa
dialektoak
diamante
diametro
diametroa
diametroko
diametrokoa
diamond
dian
diana
diane
diaphus
diario
diariovasco
diary
diaspora
diaz
dibertsitate
dibisa
dibisio
dibisioa
dibisioak
dibisioan
dibisioko
dibortziatu
dibortzio
dibortzioa
dibulgazio
diccionario
diciembre
dick
dickens
dickinson
dico
dicroglossidae
dictionary
dictionnaire
didaktika
didaktikoa
didelphidae
didier
die
diego
diegu
diela
dien
diena
dies
diesel
dieta
dietan
dietaren
diete
dieten
dietrich
dieu
diez
diezaioke
diferentzia
diferentzial
diferentziala
difusio
digestio
digital
digitala
digitalak
digitalaren
digitalean
digitaleko
digitalen
digu
digun
digute
dihardu
diharduen
dihardute
diharduten
dik
diko
diktadore
diktadorea
diktadoreak
diktadorearen
diktadura
diktadurak
diktaduraren
dimentsio
dimentsioak
dimentsioko
dimentsiotan
dimisioa
dimititu
din
dina
dinamika
dinamiko
dinamikoa
dinamikoak
dinamo
dinastia
dinastiak
dinastiako
dinastian
dinastiaren
dino
dinosauro
dinosauroak
dinosauroen
dio
diodoro
dioen
dioena
dioenez
diogenes
diogu
diogun
diola
dion
diona
dionean
dionisio
dionisiok
dionisioren
dios
diot
diote
diotela
dioten
diotenak
diotenez
dioxido
dioxidoa
dioxidoaren
diplodactylidae
diploma
diplomatiko
diplomatikoa
diplomatikoak
diplomazia
diplomazialari
diplomazialaria
diplomazialariak
dipolo
dipsadidae
diputacio
diputatu
diputatua
diputatuak
diputatuen
dir
dira
diran
dirau
dirauen
diraute
dire
direla
direlako
direlarik
diren
direnak
direnean
direnei
direnek
direnen
direnez
direnik
dirty
diru
dirua
diruak
diruarekin
diruaren
dirudi
dirudien
dirudienez
dirudite
diruditen
dirurik
dirutza
diruz
disco
discos
discovery
diseinatu
diseinatua
diseinaturiko
diseinatuta
diseinatutako
diseinatzaile
diseinatzailea
diseinatzaileak
diseinatzeko
diseinatzen
diseinu
diseinua
diseinuak
diseinuan
diseinuaren
diska
diskak
disko
diskoa
diskoak
diskoan
diskoarekin
diskoaren
diskoen
diskoetan
diskoetxe
diskoetxeak
diskoetxearekin
diskografia
diskoko
diskorik
diskriminazio
diskriminazioa
diskurtso
diskurtsoa
disney
disneyren
disolbatu
disolbatzaile
disolbatzen
disoluzio
disoluzioa
disonantzia
displaystyle
distantzia
distantziak
distantzian
distantziara
distantziaren
distichodontidae
distira
distiratsu
distiratsua
distiratsuak
distiratsuena
distribution
dit
dition
ditions
ditu
ditudan
dituela
dituelako
dituelarik
dituen
dituena
dituenak
dituenean
dituenez
ditugu
ditugula
ditugun
ditugunak
ditut
dituzte
dituztela
dituztelako
dituztelarik
dituzten
dituztenak
dituztenean
dituztenek
dituztenen
dituztenez
dituzu
ditzagun
ditzake
ditzakeela
ditzakeen
ditzakegu
ditzakete
ditzaketen
ditzan
ditzaten
division
divisions
diz
diziplina
dizkie
dizkiete
dizkigu
dizkio
dizkion
dizkiote
dizko
dizu
dizut
dj
dmitri
dna
dnaren
do
doa
doako
doakoa
doala
doan
doana
doaz
doazen
doc
doctor
dodge
dog
dogma
dogs
dohain
dohainik
dohaintza
doi
doinu
doinua
doinuak
dok
doktoratu
doktore
doktorea
doktoreak
doktorearen
doktorego
doktoregoa
doktoretza
doktrina
doktrinaren
dokumental
dokumentala
dokumentalak
dokumentalean
dokumentatu
dokumentatua
dokumentatuta
dokumentazio
dokumentazioa
dokumentu
dokumentua
dokumentuak
dokumentuan
dokumentuaren
dokumentuen
dokumentuetan
dolar
dolarreko
dolarren
dolly
dolores
dom
domaine
dome
domeinu
domeinua
domeinuak
domenico
domi
domina
dominadunak
dominak
dominaren
domingo
domingotar
dominic
dominikar
dominique
domus
don
dona
donald
donapaleu
donato
donde
done
donegal
donejakue
donemiliaga
donemiliagako
dones
donetsk
donetskeko
doneztebe
dong
donibane
donibaneko
donna
donne
donostia
donostiak
donostiako
donostian
donostiar
donostiara
donostiaren
donostiarra
donostiarrak
donostiatik
door
doors
dora
doradidae
dorado
dordoina
dordoinako
doriar
doris
dorothy
dorre
dorrea
dorreak
dorrean
dorrearen
dorreen
dorretxe
dorretxea
dorretxeak
dortoka
dortsala
dos
dosi
dot
dotore
dotorea
dotrina
douard
double
doubs
doubseko
doug
douglas
dover
down
doyle
dozena
dozenaka
dozu
dq
dr
draco
dragoi
dragon
drainatze
drainatzen
drake
drama
dramatiko
dramatikoa
dramatikoak
draper
dream
dreams
dresden
drew
dreyfus
drive
driver
dro
droga
drogak
drogen
drogeria
ds
dsc
dt
du
duala
duarte
dub
dubai
dublin
dublinen
dubliners
dublingo
duc
duda
dudala
dudan
dudarik
due
duela
duelako
duelarik
duen
duena
duenak
duenaren
duenari
duenean
duenez
duenik
duero
dugu
dugula
dugun
duguna
dugunean
dugunez
duintasuna
duk
duke
dukea
dukeak
dukearen
dukerri
dukerria
dukerriaren
dukesa
dukesak
dulce
dumas
dume
dumfries
dun
duna
dunak
duncan
dundee
dunn
duque
dura
duran
durangaldea
durango
durangoko
durangon
durante
during
dut
dute
dutela
dutelako
dutelarik
duten
dutena
dutenak
dutenaren
dutenean
dutenei
dutenek
dutenen
dutenentzat
dutenez
duzu
duzue
duzula
duzun
dvd
dwight
dx
dy
dylan
dz
e
ea
eae
eaeko
eaen
eagle
eaj
eajk
eajko
eajren
eak
eako
ean
earl
early
earth
east
eastern
eastwood
easy
eb
ebaketa
ebaki
ebakidura
ebakitzen
ebakuatu
ebakuntza
ebaluatu
ebaluatzeko
ebaluatzen
ebaluazio
ebaluazioa
eban
ebanjelio
ebanjelioa
ebanjelioaren
ebatzi
ebazan
ebazpen
ebazpena
ebazteko
ebazten
eben
ebi
ebidentzia
ebidentziak
ebidentziarik
ebk
ebko
ebola
ebolutiboa
eboluzio
eboluzioa
eboluzioan
eboluzioaren
eboluzionatu
eboluzionatzen
ebro
ebroko
ebroren
ec
echeverri
echimyidae
echo
eco
ecomo
econo
economi
economic
economics
economy
ed
edad
edalontzi
edan
edari
edaria
edariak
edateko
edaten
eddie
eddy
eden
eder
ederki
ederra
ederrak
ederren
ederrena
ederretako
edertasun
edertasuna
edertasunaren
edgar
edge
edicio
ediciones
edicions
edinburgh
edinburgheko
edinburgoko
editatu
edited
edith
edition
editions
editor
editore
editorea
editoreak
editores
editorial
editoriala
edizio
edizioa
edizioak
edizioan
edizioaren
edizioetan
edmond
edmund
edo
edonola
edonon
edonor
edonork
edorta
edota
edouard
edozein
edozer
eds
edu
eduard
eduardo
educacio
education
eduki
edukia
edukiak
edukiaren
edukien
edukiera
edukiko
edukiontzi
edukita
edukitzea
edukitzeko
edukitzen
edukiz
edurne
edward
edwards
edwin
ee
eek
eeko
efektu
efektua
efektuak
efektuaren
efektuko
efizientzia
ega
egan
egeo
egeoko
egi
egia
egiak
egiaren
egiaz
egiazki
egiazko
egiazkoa
egiazkoak
egiaztatu
egiaztatzeko
egiaztatzen
egikaritze
egikaritzeko
egile
egilea
egileak
egilearen
egileek
egileen
egin
egina
eginak
eginaz
eginda
egindako
egindakoa
egindakoak
eginen
eginez
egingo
eginik
eginiko
eginikoa
eginkizun
eginkizuna
eginkizunak
egintza
egipto
egiptoar
egiptoarra
egiptoarrek
egiptok
egiptoko
egipton
egiptora
egiptoren
egitasmo
egitasmoa
egitasmoak
egitasmoaren
egitate
egite
egitea
egiteagatik
egiteak
egitean
egitearen
egiteari
egiteaz
egiteko
egitekoa
egiten
egitera
egiterakoan
egiterik
egitura
egiturak
egituraketa
egituran
egituraren
egiturari
egituratu
egituratzen
egituraz
egiturazko
egituren
egituretan
egizu
eglise
ego
egoera
egoerak
egoeran
egoerara
egoeraren
egoerari
egoeratan
egoeraz
egoeren
egoeretan
egoitza
egoitzak
egoitzan
egoitzaren
egoki
egokia
egokiagoa
egokiak
egokian
egokiena
egokienak
egokirik
egokitu
egokitua
egokituko
egokituta
egokitutako
egokituz
egokitzapen
egokitzapena
egokitzapenak
egokitzea
egokitzeko
egokitzen
egon
egonaldi
egonaldia
egonda
egondako
egonez
egongo
egonik
egonkor
egonkorra
egonkorrak
egonkortasun
egonkortasuna
egonkortu
egosi
egosten
egotea
egoteagatik
egoteak
egotearen
egoteaz
egoteko
egoten
egotera
egotzi
egotzita
egozten
egu
eguberri
eguerdian
eguesibar
egun
eguna
egunak
egunaren
egundaino
egundoko
egunean
eguneko
egunekoa
egunen
egunera
eguneratu
eguneratua
egunero
eguneroko
egunerokoa
egunerokoan
egunetako
egunetan
egunetara
egunetik
egunez
egungo
egungoa
egunkari
egunkaria
egunkariak
egunkarian
egunkariaren
egunkarien
egunkarietako
egunkarietan
egunkariko
egunsentia
egunsentian
egur
eguraldi
eguraldia
eguraldiaren
egurra
egurrez
egurrezko
egutegi
egutegia
egutegiaren
egutegiko
eguzki
eguzkia
eguzkiak
eguzkiarekiko
eguzkiaren
eguzkiarena
eguzkitik
egypt
eh
ehaan
ehf
ehime
ehiza
ehizan
ehizarako
ehizaren
ehizatu
ehizatzeko
ehizatzen
ehiztari
ehiztaria
ehiztariak
ehortzi
ehorzketa
ehu
ehuko
ehun
ehuna
ehunak
ehundaka
ehundura
ehuneko
ehunekoa
ehunen
ehunetan
ehungintza
ehunka
ei
eibar
eibarko
eibarren
eibartarrak
eider
eiffel
eight
ein
eine
einstein
einsteinek
einsteinen
eitb
eius
eizagirre
eizmendi
ej
ek
ekai
ekain
ekaina
ekainak
ekainaren
ekainean
ekaineko
ekainera
ekainetik
ekaitz
ekaitza
ekaitzak
ekar
ekarpen
ekarpena
ekarpenak
ekarpenengatik
ekarri
ekarria
ekarriak
ekarriko
ekarritako
ekarriz
ekartzea
ekartzeko
ekartzen
eki
ekialde
ekialdea
ekialdean
ekialdeko
ekialdekoa
ekialdera
ekialderago
ekialderantz
ekialdetik
ekidin
ekiditeko
ekiditen
ekimen
ekimena
ekimenak
ekimenaren
ekimenez
ekin
ekingo
ekintza
ekintzaile
ekintzailea
ekintzaileak
ekintzak
ekintzaren
ekintzen
ekintzetan
ekipamendu
ekipamendua
ekipamenduak
ekipo
ekipoak
ekitaldi
ekitaldia
ekitaldiak
ekitaldian
ekitaldiaren
ekitaldietan
ekitaldiko
ekiteko
ekiten
eklipse
eko
ekoa
ekoak
ekoitzi
ekoitzia
ekoitzitako
ekoizle
ekoizlea
ekoizleak
ekoizleek
ekoizpen
ekoizpena
ekoizpenak
ekoizpenaren
ekoizpenean
ekoiztea
ekoizteko
ekoizten
ekoiztu
ekoiztua
ekoiztutako
ekologia
ekologiko
ekologikoa
ekologikoak
ekologista
ekologistak
ekonomi
ekonomia
ekonomiak
ekonomiako
ekonomialari
ekonomialaria
ekonomialariak
ekonomian
ekonomiaren
ekonomiari
ekonomiko
ekonomikoa
ekonomikoak
ekonomikoan
ekonomikoaren
ekonomikoari
ekonomikoek
ekonomikoen
ekonomikoki
ekonomikorik
ekonomista
ekosistema
ekuador
ekuadorko
ekuadorren
ekuatore
ekuazio
ekuazioa
ekuazioak
ekuazioaren
ekuazioen
el
ela
elapidae
elastiko
elastikoa
elba
ele
eleanor
eleberri
eleberria
eleberriak
eleberrian
eleberriarekin
eleberriaren
eleberrien
eleberrietan
eleberrigile
eleberrigilea
eleberrigileak
eleberriko
elebidun
elebiduna
electric
electronic
elefante
elegans
elektriko
elektrikoa
elektrikoak
elektrikoaren
elektrikoen
elektrizitate
elektrizitatea
elektrizitatearen
elektrodo
elektroi
elektroiak
elektroiaren
elektroiek
elektroien
elektromagnetiko
elektromagnetikoa
elektromagnetikoak
elektromagnetikoaren
elektronika
elektroniko
elektronikoa
elektronikoak
elektronikoaren
elektronikoen
elektronikoko
elektrotresna
elementu
elementua
elementuak
elementuaren
elementuek
elementuekin
elementuen
elementurik
elena
eleotridae
eleutherodactylidae
eleutherodactylus
elexalde
elezahar
elezaharrak
elgeta
elgoibar
elgoibarko
elhuyar
eli
elia
elias
elikadura
elikagai
elikagaia
elikagaiak
elikagaien
elikatu
elikatze
elikatzeko
elikatzen
eliot
eliptikoak
elisa
elisabet
elisabeth
elite
eliteko
eliz
eliza
elizabeth
elizak
elizako
elizalde
elizan
elizara
elizaren
elizari
elizatik
elizbarrutiaren
elizbarrutiko
elizen
elizetako
elizetan
elizgizon
elizgizona
elizondo
elkano
elkanoren
elkar
elkarbizitza
elkargo
elkargoa
elkargoak
elkargoaren
elkargunean
elkarketa
elkarlan
elkarlana
elkarlanean
elkarlotzen
elkarrekiko
elkarrekin
elkarrekintza
elkarrekintzak
elkarren
elkarrengandik
elkarri
elkarrizketa
elkarrizketak
elkarrizketan
elkarrizketaren
elkarrizketatu
elkarrizketetan
elkartasun
elkartasuna
elkarte
elkartea
elkarteak
elkartean
elkartearekin
elkartearen
elkarteek
elkarteen
elkarteko
elkartu
elkartua
elkartuak
elkartuko
elkarturik
elkartuta
elkartutako
elkartuz
elkartze
elkartzea
elkartzean
elkartzeko
elkartzen
ell
ella
elle
ellen
elliot
elliott
ellis
elmer
elmundo
elo
elorriaga
elorrio
elorrioko
elorrion
elortza
elorza
elosegi
eloy
elpais
els
elsa
else
elton
elur
elurra
elvira
elvis
em
emai
emaile
emailea
emaileak
emaiten
emaitza
emaitzak
emaitzarekin
emaitzarik
emaitzaz
emaitzek
emaitzen
emakida
emakume
emakumea
emakumeak
emakumearen
emakumeari
emakumeei
emakumeek
emakumeekin
emakumeen
emakumeena
emakumeentzako
emakumeentzat
emakumeetako
emakumek
emakumezko
emakumezkoa
emakumezkoak
emakumezkoek
emakumezkoen
emakumezkoena
emakumezkoetan
eman
emana
emanak
emanaldi
emanaldia
emanaldiak
emanaldietan
emanaz
emanda
emandako
emandakoa
emanen
emanez
emango
emanik
emaniko
emankizun
emankizunak
emankor
emankorra
emankorrak
emankortasun
emanuel
emari
emaria
ematea
emateagatik
ematean
ematearen
emateari
emateaz
emateko
ematen
ematera
emazte
emaztea
emazteak
emaztearekin
emaztearen
emazteari
emazteek
emazteen
emberizidae
eme
emea
emeak
emearen
emeek
emeen
emeki
emen
emerson
emi
emigratu
emigrazio
emil
emile
emilia
emiliano
emilio
emily
emirerri
emisio
emisioa
emisioak
emititu
emititutako
emititzen
emma
emmanuel
emmanuelle
emmy
emoia
emozio
emozioak
emozionala
empire
emploi
emporda
en
ena
enara
enbata
enbaxada
enbaxadore
enbaxadorea
enbaxadoreak
enbeita
enbor
enborra
enborrak
enborraren
enbrioi
enciclopedia
encyclopedia
encyclopædia
end
endemikoa
ene
enea
eneko
energetikoa
energi
energia
energiak
energiaren
energy
enero
enfant
enfants
engels
engineering
england
english
engraulidae
enigma
enim
enkargatu
enkargua
enkarguz
enllac
enontekio
enparantza
enparantzan
enpatia
enperadore
enperadorea
enperadoreak
enperadorearen
enperadoreari
enperadoreen
enperatriz
enperatriza
enpiriko
enpirikoa
enpirikoak
enpirikoaren
enpirikoki
enplegatu
enplegatzen
enplegu
enplegua
enpresa
enpresaburu
enpresaburua
enpresaburuak
enpresak
enpresako
enpresan
enpresarekin
enpresaren
enpresari
enpresaria
enpresariak
enpresei
enpresek
enpresen
enpresenak
enpresetan
enric
enrico
enrike
enrique
ensayo
ensayos
ensen
entertainment
entitate
entre
entregatu
entrenamendu
entrenamendua
entrenatu
entrenatzaile
entrenatzailea
entrenatzaileak
entrenatzen
entretenimendu
entrevista
entropia
entsegu
entseguak
entzat
entziklopedia
entziklopedian
entziklopedikoa
entzima
entzimak
entzule
entzumen
entzun
entzunezko
entzungai
entzute
entzutea
entzuteko
entzuten
environment
enz
eo
eocene
eolikoa
eosentomon
ep
epa
epai
epaia
epaiak
epaiaren
epaiketa
epaiketak
epaiketan
epaiketaren
epaile
epailea
epaileak
epailearen
epaileek
epaileen
epaimahai
epaimahaiak
epaimahaiaren
epaitegi
epaitegia
epaitegiak
epaitu
epaitzeko
epaitzen
epe
epea
epean
epel
epela
epelak
epeletan
epic
epidemia
epika
epiko
epikoa
epinephelus
episode
epistemologia
epistolaren
epitelio
epitetoa
epsilon
epstein
equiv
equus
er
era
erabaki
erabakia
erabakiak
erabakiaren
erabakien
erabakigarria
erabakigarriak
erabakiko
erabakita
erabakitzea
erabakitzeko
erabakitzen
erabakiz
erabat
erabateko
erabatekoa
eraberritu
eraberritze
erabil
erabilera
erabilerak
erabileran
erabilerarako
erabilerarekin
erabileraren
erabilerari
erabilgarri
erabilgarria
erabilgarriak
erabilgarritasun
erabilgarritasuna
erabili
erabilia
erabiliak
erabiliena
erabilienak
erabiliko
erabilita
erabilitako
erabiliz
erabilpen
erabilpena
erabiltzaile
erabiltzailea
erabiltzaileak
erabiltzailearen
erabiltzaileari
erabiltzaileei
erabiltzaileek
erabiltzaileen
erabiltzea
erabiltzeagatik
erabiltzeak
erabiltzean
erabiltzearen
erabiltzeari
erabiltzeko
erabiltzen
erabiltzera
eragiketa
eragiketak
eragile
eragilea
eragileak
eragilearen
eragileen
eragin
eragina
eraginagatik
eraginak
eraginaren
eraginari
eraginda
eragindako
eragindakoa
eragindakoak
eraginez
eragingo
eraginik
eraginkor
eraginkorra
eraginkorragoa
eraginkorrak
eraginkorrean
eraginkorrena
eraginkortasun
eraginkortasuna
eraginpean
eragitea
eragiteko
eragiten
eragotzi
eragozpen
eragozpenak
eragozteko
eragozten
eraiki
eraikia
eraikiak
eraikiarazi
eraikiko
eraikin
eraikina
eraikinak
eraikinaren
eraikinari
eraikinean
eraikinek
eraikineko
eraikinen
eraikinetan
eraikinik
eraikita
eraikitako
eraikitakoa
eraikitzaile
eraikitze
eraikitzea
eraikitzeko
eraikitzen
eraikiz
eraikun
eraikuntza
eraikuntzak
eraikuntzako
eraikuntzan
eraikuntzarako
eraikuntzaren
eraikuntzari
eraikuntzen
erail
eraila
eraildako
erailketa
eraistea
eraitsi
erak
erakargarri
erakargarria
erakarpen
erakarpena
erakarri
erakarrita
erakartzeko
erakartzen
eraketa
eraketan
erako
erakunde
erakundea
erakundeak
erakundean
erakundearen
erakundeei
erakundeek
erakundeekin
erakundeen
erakundeetan
erakundek
erakundeko
erakusgai
erakusgarri
erakusketa
erakusketak
erakusketan
erakusketaren
erakusketetan
erakusle
erakustaldi
erakustea
erakusteko
erakusten
erakutsi
erakutsiko
erakutsitako
erakutsiz
eraldaketa
eraldatu
eraldatutako
eraldatzeko
eraldatzen
eramaile
eraman
eramana
eramandako
eramanez
eramango
eramatea
eramateko
eramaten
eran
erandio
erandioko
eranskin
eransten
erantsi
erantsita
erantsitako
erantzukizun
erantzukizuna
erantzule
erantzun
erantzuna
erantzunak
erantzunez
erantzungo
erantzunik
erantzuteko
erantzuten
erara
eraso
erasoa
erasoak
erasoaldi
erasoaldia
erasoan
erasoaren
erasoari
erasoei
erasoek
erasoen
erasoetatik
erasoko
erasotu
erasotzaileak
erasotzea
erasotzeko
erasotzen
eratara
eratorri
eratorria
eratorriak
eratorritako
eratortzen
eratu
eratua
eratuko
eratuta
eratutako
eratuz
eratzea
eratzeko
eratzen
erauzi
erauzketa
erauzte
erauzteko
erauzten
eraztun
eraztuna
eraztunak
eraztunaren
eraztunen
erbestea
erbestean
erbesteko
erbestera
erbesteratu
erbesteratua
erbesteratuak
erc
erdal
erdi
erdia
erdiak
erdial
erdialde
erdialdea
erdialdean
erdialdeko
erdialdera
erdialdetik
erdian
erdibideko
erdieroale
erdietsi
erdigune
erdigunea
erdigunean
erdiguneko
erdigunera
erdigunetik
erdiko
erdikoa
erdilari
erdira
erditik
erditu
erditze
erdiz
ere
eredu
eredua
ereduak
ereduan
ereduaren
ereduari
ereduen
eredutzat
erein
eremu
eremua
eremuak
eremuan
eremuaren
eremuari
eremuen
eremuetako
eremuetan
eremuko
eremura
eremutan
eremutik
eren
ereserki
ereserkia
ereserkiak
eri
eric
erica
erich
eridanus
erie
erik
erika
eritasun
eritreako
erizain
erizaina
erkidego
erkidegoa
erkidegoak
erkidegoan
erkidegoaren
erkidegoko
erlaitz
erlatibitate
erlatibitatearen
erlatibo
erlatiboa
erlatiboak
erlatiboki
erlazio
erlazioa
erlazioak
erlazioaren
erlazionatu
erlazionaturik
erlazionaturiko
erlazionatuta
erlazionatutako
erlazionatzen
erle
erliebe
erliebea
erliebeak
erlijio
erlijioa
erlijioak
erlijioan
erlijioaren
erlijioari
erlijioen
erlijioso
erlijiosoa
erlijiosoak
erlijiosoaren
erlijiosoen
erlijioz
erlijiozko
erlikia
erlikiak
erloju
erlojua
erlojuak
erlojuaren
erlojupeko
erlojupekoa
ermita
ermua
ermuko
ernalketa
erne
ernest
ernesto
ernst
ero
eroa
eroale
eroankortasun
eror
erori
eroriko
eroritako
erorketa
erortzea
erortzean
erortzeko
erortzen
eros
erosi
erositako
erosketa
erosketak
eroso
erosoa
erostea
erosteko
erosten
erotikoa
erotikoak
erov
erpin
erradiazio
erradiazioa
erradiazioak
erradiazioaren
erradikal
erradikala
erradikalak
erradio
erradioa
errai
erraiten
erraketista
erraketistak
erraldoi
erraldoia
erraldoiak
erraldoian
erraldoiaren
erraldoien
erramun
erran
errausketa
errauts
errautsak
erraz
erraza
errazago
errazagoa
errazak
errazena
erraztasun
erraztasuna
erraztasunak
errazteko
errazten
erraztu
erraztuz
erre
errea
erreaktibo
erreaktiboak
erreaktore
erreakzio
erreakzioa
erreakzioak
erreakzioaren
erreakzionatu
erreakzionatzen
erreal
erreala
errealak
errealaren
errealean
errealeko
errealen
errealismo
errealismoa
errealismoaren
errealista
errealistak
errealitate
errealitatea
errealitatean
errealitatearen
errebaleko
errebelazio
errebolta
errebote
erredaktore
erredakzio
erreferendum
erreferenduma
erreferendumaren
erreferendumean
erreferente
erreferentea
erreferentzia
erreferentziak
erreferentziazko
erreforma
erreformak
erreformaren
errefrakzio
errefusatu
errefuxiatu
errefuxiatuak
errefuxiatuen
erregai
erregaia
erregaiak
errege
erregea
erregeak
erregealdi
erregealdia
erregealdian
erregealdiaren
erregealdiko
erregearekin
erregearen
erregeari
erregeek
erregeen
erregela
erregelak
erregeorde
erregeordea
erregeordeak
erregeren
erregetza
erregimen
erregimena
erregimenak
erregimenaren
erregina
erreginak
erreginaren
erreginen
erregional
erregistratu
erregistratutako
erregistratzen
erregistro
erregistroa
erregistroak
erregistroan
erregular
erregularra
erregularrak
erregulatzeko
erregulatzen
erregulazio
erregulazioa
errehabilitazio
erreinu
erreinua
erreinuaren
erreinuko
erreka
errekak
errekalde
errekaren
errekonozimendu
errekonozimendua
errekonozimenduak
errekopa
errekor
errekorra
errekorrak
errektore
errektorea
errekuntza
errekurtso
errelebo
erreminta
erremintak
errenazentista
errenazimentu
errenazimentuko
errendimendu
errendimendua
errenditu
errenkada
errenta
errentak
errentaren
errenteria
errenteriako
errenterian
erreparatu
erreparatuz
erreparatzen
errepertorio
errepide
errepidea
errepideak
errepidean
errepidearen
errepideen
errepideko
errepidetik
errepika
errepikapen
errepikatu
errepikatuz
errepikatzen
erreplika
erreportaje
erreportajea
errepresentatzen
errepresentazio
errepresentazioa
errepresentazioak
errepresio
errepresioa
errepresioaren
erreprodukzio
errepublika
errepublikak
errepublikako
errepublikan
errepublikano
errepublikanoa
errepublikanoak
errepublikar
errepublikaren
errepublikarra
errepublikarrak
erreserba
erreserbak
erreserban
erresidentzia
erresistentea
erresistenteak
erresistentzia
erresistentziak
erresistentziako
erresistentzian
erresistentziaren
erreskatatu
erreskate
erresonantzia
errespetatu
errespetatuz
errespetatzen
errespetu
errespetua
erresuma
erresumak
erresumako
erresuman
erresumaren
erresumen
erret
erreta
erretaula
erretaulak
erretaulako
erretaulan
erretaularen
erretikulu
erretiratu
erretiratua
erretiraturik
erretiratzea
erretiratzeko
erretiratzen
erretiroa
erretorika
erretratu
erretratua
erretratuak
erretxina
erretzea
erretzeko
erretzen
errez
errezeta
erri
erria
erribera
erriberako
erriberan
erriberri
erriberriko
erriko
errioxa
errioxako
errioxan
errioxar
erritmikoa
erritmo
erritmoa
erritu
errituak
erritual
erro
erroa
erroak
errobi
erroibar
erroibarko
errolda
erroldak
erroldan
erroldaren
erroldatutako
erroma
erromak
erromako
erroman
erromaniko
erromanikoa
erromanikoak
erromanikoan
erromanikoaren
erromanista
erromantiko
erromantikoa
erromantikoak
erromantikoaren
erromantizismoaren
erromantzatua
erromantze
erromantzez
erromara
erromaren
erromatar
erromatarra
erromatarrak
erromatarraren
erromatarrean
erromatarrek
erromatarren
erromatik
erromeria
erromes
erromesak
erromesen
erronda
erronka
erronkak
erronkari
erronkaribar
erronkariko
errore
errorea
erroreak
errota
errotak
errotaren
errotazio
errotazioa
errotik
errua
errubi
errudun
erruduna
erruduntzat
errugbi
errugbia
errugbian
errugbilari
errugbilaria
errugbilariak
erruki
errukia
errumania
errumaniako
errumanian
errumaniar
errumaniaren
errusia
errusiak
errusiako
errusiakoa
errusian
errusiar
errusiara
errusiarekin
errusiaren
errusiari
errusiarra
errusiarrak
errusiarraren
errusiarrek
errusiarren
errusiatik
errusiera
errusieraz
errusierazko
erruten
erruz
ertain
ertaina
ertainak
ertainean
ertaineko
ertamerikako
ertilari
ertilariak
ertz
ertza
ertzaintzak
ertzaintzaren
ertzak
ertzaren
ertzean
ertzeko
ertzetan
ertzetik
erupzio
erupzioa
erupzioak
erwin
es
esa
esaera
esakune
esakunea
esakuneak
esaldi
esaldia
esaldiak
esaldiaren
esamoldea
esan
esana
esanahi
esanahia
esanahiak
esanda
esandako
esandakoa
esanetan
esanetara
esanez
esango
esangura
esanguratsu
esanguratsua
esanguratsuak
esanguratsuena
esanguratsuenak
esatari
esataria
esatariak
esate
esatea
esatean
esateko
esaten
esaterako
escape
escobar
escudero
escuela
escultura
esentzia
eseri
eserita
eserleku
eserlekua
eserlekuak
esfera
esferaren
esferiko
esferikoa
esferikoak
esfortzu
eska
eskaera
eskaerak
eskailera
eskailerak
eskain
eskaini
eskainia
eskainiko
eskainita
eskainitako
eskainiz
eskaintza
eskaintzak
eskaintzea
eskaintzeko
eskaintzen
eskakizun
eskakizunak
eskala
eskalada
eskalan
eskalaren
eskalatzaile
eskalatzailea
eskandalu
eskandalua
eskandinaviako
eskandinaviar
eskari
eskaria
eskariak
eskariaren
eskarmentu
eskas
eskasa
eskasak
eskasera
eskasia
eskatu
eskatuko
eskatuta
eskatutako
eskatuz
eskatzea
eskatzeko
eskatzen
eske
eskeini
eskeintzen
eskeleto
eskema
eskemak
esker
eskerrak
eski
eskia
eskiatzaile
eskiatzailea
eskiatzaileak
eskifaia
eskizofrenia
esklabo
esklaboak
esklaboen
esklabotza
esklabotzaren
esklabu
eskola
eskolak
eskolako
eskolan
eskolara
eskolaren
eskolarteko
eskolatik
eskolen
eskoletako
eskoletan
eskoriatza
eskoriatzako
eskozia
eskoziako
eskoziakoa
eskozian
eskoziar
eskoziarra
eskoziarrak
eskrima
eskrimalariak
esku
eskua
eskuak
eskual
eskualde
eskualdea
eskualdeak
eskualdean
eskualdearen
eskualdeari
eskualdeen
eskualdeetako
eskualdeetan
eskualdeko
eskualdekoa
eskualdetan
eskualdetik
eskuan
eskuaren
eskuarki
eskubaloi
eskubaloian
eskubaloilariak
eskubide
eskubidea
eskubideak
eskubidearen
eskubideei
eskubideen
eskubiderik
eskuekin
eskuetan
eskuetara
eskuetatik
eskuin
eskuinaldea
eskuinaldean
eskuinaldeko
eskuindar
eskuinean
eskuineko
eskuinera
eskuinetik
eskuizkribu
eskuizkribua
eskuizkribuak
eskuko
eskulan
eskuliburua
eskultore
eskultorea
eskultoreak
eskultura
eskulturagile
eskulturak
eskulturan
eskulturaren
eskulturen
eskumako
eskumen
eskumena
eskumenak
eskura
eskuragarri
eskuratu
eskuratuko
eskuratuta
eskuratutako
eskuratuz
eskuratzea
eskuratzeko
eskuratzen
eskutan
eskutik
eskutitz
eskuz
eskuzko
eslalom
eslalomean
eslaviar
esleitu
esleitutako
esleitzen
eslovakia
eslovakiako
eslovakiar
eslovenia
esloveniako
esloveniar
esmeralda
esnaola
esnatu
esne
esnea
esnearen
esp
espacio
espagne
espainia
espainiak
espainiako
espainiakoa
espainiakoak
espainiakoaren
espainian
espainiar
espainiara
espainiaren
espainiari
espainiarra
espainiarrak
espainiarraren
espainiarrek
espainiarren
espainiatik
espainieraz
espan
espana
esparru
esparrua
esparruak
esparruan
esparruaren
esparruetan
esparruko
esparrura
esparza
espasa
espazial
espaziala
espazio
espazioa
espazioak
espazioan
espazioaren
espazioen
espazioko
espaziora
espe
especial
espedizio
espedizioa
espedizioak
espedizioan
espedizioaren
espedizioko
espejo
espektro
espektroa
espektroskopia
espekulazio
espeleologia
esperantza
esperanza
esperientzia
esperientziak
esperientzian
esperientziaren
esperientziatik
esperimental
esperimentala
esperimentalak
esperimentatu
esperimentatzen
esperimentazio
esperimentu
esperimentua
esperimentuak
espermatozoideak
espero
espetxe
espetxea
espetxean
espetxeko
espetxera
espetxeratu
espetxeratua
espetxetik
espezia
espeziak
espezialista
espezialitate
espezializatu
espezializatua
espezializatuak
espezializatutako
espezie
espeziea
espezieak
espeziearen
espezieari
espezieen
espezieko
espezien
espezierik
espezifiko
espezifikoa
espezifikoak
espi
espinosa
espioi
espioia
espioitza
espiral
espiralak
espiritu
espiritua
espiritual
espirituala
esplizituki
esploratu
esploratzaile
esploratzailea
esploratzaileak
esplorazio
esplorazioa
esplotazio
esporak
esportatu
esportatzen
esportazio
esportazioak
espresio
espresioa
espresionismo
espresionista
espresuki
essai
essay
essays
esse
essex
essonne
est
esta
establezimendu
estacio
estadi
estadio
estadioa
estadioak
estadioan
estadioaren
estado
estal
estaldura
estali
estalia
estaliak
estaliko
estalirik
estalita
estalitako
estalki
estalkia
estaltzeko
estaltzen
estandar
estandarra
estandarrak
estandarraren
estandarrean
estanislao
estatikoa
estatistika
estatistikak
estatistikan
estatistikaria
estatistiken
estatistiko
estatistikoa
estatistikoak
estatistikoen
estatu
estatua
estatuak
estatuan
estatuarekin
estatuaren
estatuari
estatubatuar
estatubatuarra
estatubatuarrak
estatubatuarraren
estatubatuarrek
estatubatuarren
estatuburu
estatuburua
estatuek
estatuen
estatuetako
estatuetan
estatuko
estaturik
estatus
estatusa
estatutan
estatutik
estatutu
estatutua
estatutuak
estatutuaren
estazio
estazioa
estazioak
este
esteban
esteka
estekak
estela
esteribar
esteribarko
estetika
estetiko
estetikoa
esther
estilo
estiloa
estiloak
estiloan
estiloaren
estiloari
estiloko
estilokoa
estimatu
estimatua
estimatzen
estimazio
estimazioen
estimulu
estitxu
esto
estonia
estoniako
estoniar
estrada
estralurtar
estrasburgoko
estrategia
estrategiak
estrategiko
estrategikoa
estrategikoak
estreinako
estreinaldia
estreinatu
estrella
estres
estresa
estrildidae
estropada
estropadak
estropadan
estruktura
estu
estua
estuagoa
estuak
estudio
estudioa
estudioak
estudioan
estudioetan
estudioko
estudios
estuki
estutu
estutzen
eszena
eszenak
eszenan
eszenatoki
eszentrikotasuna
et
eta
etab
etak
etakide
etakidea
etako
etan
etapa
etapak
etapan
etapatan
etapetan
etara
etarekin
etaren
etari
etatik
etb
etbko
etc
ete
etekin
etekina
etekinak
eten
etena
etenaldi
etengabe
etengabea
etengabeak
etengabeko
etenik
eter
etetea
eteteko
eteten
ethan
etheostoma
etiam
etienne
etik
etika
etiketa
etiketak
etiko
etikoa
etikoak
etimologia
etiologia
etiopia
etiopiako
etiopian
etnia
etniak
etniako
etniko
etnikoa
etnikoak
etnografia
etnografoa
etor
etorbide
etorbidea
etorbidean
etorbidearen
etorkin
etorkinak
etorkinen
etorkizun
etorkizuna
etorkizunari
etorkizunean
etorkizuneko
etorkizunerako
etorrera
etorrerarekin
etorri
etorria
etorriak
etorriko
etorritako
etorriz
etortzea
etortzen
etsai
etsaia
etsaiak
etsaiaren
etsaien
etsi
etxabe
etxahun
etxalde
etxaldea
etxaniz
etxarri
etxe
etxea
etxeak
etxean
etxearen
etxeari
etxebarri
etxebarria
etxeberri
etxeberria
etxebeste
etxebizitza
etxebizitzak
etxebizitzaren
etxebizitzek
etxebizitzen
etxeen
etxeetako
etxeetan
etxegarai
etxek
etxeko
etxekotu
etxepare
etxera
etxerako
etxerik
etxetan
etxetik
etxetresna
etxez
etxola
etzanda
eu
eucera
eufrates
euge
eugene
eugenia
eugenio
eugi
eugongylinae
eulalia
euler
euli
eurak
eurasia
eurasiako
eurasian
eure
eurek
eurekin
eureko
euren
euri
euria
euriak
euritsua
euritsuak
euro
euroko
eurokoa
europa
europak
europako
europan
europar
europara
europaren
europarra
europarrak
europarrek
europarren
europatik
europe
european
eurovision
eus
euscara
eusebio
eusk
euskadi
euskadiko
euskadin
euskal
euskalaria
euskaldun
euskalduna
euskaldunak
euskaldunek
euskalduneko
euskaldunen
euskaldunon
euskalerri
euskalerria
euskalerriaren
euskalki
euskalkia
euskalkiak
euskalkian
euskalkien
euskaltel
euskalterm
euskaltzain
euskaltzaina
euskaltzaindia
euskaltzaindiak
euskaltzaindiaren
euskaltzale
euskaltzalea
euskara
euskarak
euskaran
euskarara
euskararen
euskarari
euskaratu
euskaratua
euskaratutako
euskaraz
euskarazko
euskarri
euskarria
euskarriak
euskera
eusko
euskomedia
euskonews
euskotren
euskotrenen
eustea
eusteko
eusten
eustomias
eutsi
eutsiko
eutsiz
euzkadi
euzko
ev
eva
evan
evans
evaristo
eve
evelyn
evening
ever
everest
everett
every
everything
evic
evidence
evil
eviota
evolucio
evolution
ex
exekutatu
exekutatutako
exekutatzeko
exekutatzen
exekutibo
exekutiboa
exekuzio
exekuzioa
exhibition
exilio
existentzia
existentziaren
existitu
existitzen
experience
exploitations
expo
express
extra
extremadura
extremadurako
eye
eyes
ez
eza
ezabatu
ezabatuz
ezabatzea
ezabatzeko
ezabatzen
ezagu
ezaguera
ezagun
ezaguna
ezagunagoa
ezagunak
ezagunaren
ezagunen
ezagunena
ezagunenak
ezagunenen
ezagunenetako
ezagunenetakoa
ezagut
ezagutarazi
ezagutarazteko
ezagutu
ezagutua
ezagutuko
ezagututa
ezagututako
ezagutza
ezagutzak
ezagutzan
ezagutzaren
ezagutzea
ezagutzeko
ezagutzen
ezagutzera
ezak
ezar
ezaren
ezarpen
ezarpena
ezarri
ezarria
ezarriak
ezarriko
ezarrita
ezarritako
ezarriz
ezartzea
ezartzeko
ezartzen
ezaugarri
ezaugarria
ezaugarriak
ezaugarriekin
ezaugarrien
ezaugarriengatik
ezaugarrietako
ezaugarririk
ezaugarritzen
ezazu
ezberdin
ezberdina
ezberdinak
ezberdinei
ezberdinek
ezberdinekin
ezberdineko
ezberdinen
ezberdinetako
ezberdinetan
ezberdinetara
ezberdinetatik
ezberdinez
ezberdintasun
ezberdintasuna
ezberdintasunak
ezberdintzen
ezean
ezegonkorra
ezegonkortasun
ezein
ezen
ezer
ezerk
ezetz
ezezagun
ezezaguna
ezezagunak
ezezkoa
ezeztatu
ezeztatzen
ezik
ezin
ezina
ezinbestean
ezinbesteko
ezinbestekoa
ezinbestekoak
ezinezko
ezinezkoa
ezingo
ezinik
ezintasuna
ezizen
ezizena
ezizenarekin
ezizenaz
ezizenez
ezjakintasuna
ezkata
ezker
ezkero
ezkerra
ezkerrak
ezkerraldea
ezkerraldean
ezkerraldeko
ezkerraren
ezkerrean
ezkerreko
ezkerrekoa
ezkerrera
ezkerretara
ezkerretik
ezkertiar
ezkertiarra
ezkon
ezkondu
ezkondua
ezkonduko
ezkonduta
ezkongabe
ezkontidea
ezkontideak
ezkontza
ezkontzak
ezkontzaren
ezkontzaz
ezkontzea
ezkontzeko
ezkontzen
ezkurra
ezkutatu
ezkutatuta
ezkutatzeko
ezkutatzen
ezkutu
ezkutua
ezkutuak
ezkutuan
ezkutuko
ezohiko
ezohikoa
ezpain
ezpata
ezpeleta
ezponda
ezta
eztabaida
eztabaidagai
eztabaidagarria
eztabaidak
eztabaidan
eztabaidaren
eztabaidatu
eztabaidatua
eztabaidatzeko
eztabaidatzen
eztabaidetan
eztanda
eztebe
eztei
ezti
eztia
eztu
ezustean
ezusteko
f
fa
faber
fabio
fabra
fabrika
fabrikak
fabrikan
fabrikatu
fabrikatzaile
fabrikatzeko
fabrikatzen
fabrikazio
fabrikazioa
fabrikazioan
fabrikazioko
face
facebook
facto
fagoaga
fagor
faila
fair
faith
faktore
faktorea
faktoreak
faktoreen
fakultate
fakultatea
fakultateak
fakultatean
fakultateko
falange
falazia
falco
falcon
fall
falls
false
falta
faltagatik
faltak
faltan
faltsu
faltsua
faltsuak
fama
famatu
famatua
famatuak
famatuena
fame
familia
familiak
familiako
familiakoa
familiakoak
familian
familiarekin
familiaren
familiari
familiei
familiek
familien
famille
family
fan
fanny
fantasia
fantasiazko
fantasy
far
faraday
faraoi
faraoia
faraoiak
faraoiaren
faraoien
farmako
farmakoak
farmazia
faro
farrell
fase
fasea
faseak
fasean
faseko
fasetan
fasoko
fast
fat
father
fatxada
fatxadak
fatxadako
fatxadan
fatxadaren
fauna
faustino
fausto
faxismoaren
faxista
faxistak
fay
fayard
faye
fayette
fbiko
fc
fceko
fe
fear
febrero
february
fede
fedea
fedearen
federacio
federal
federala
federalak
federalaren
federalean
federaleko
federation
federazio
federazioa
federazioak
federazioaren
federazioko
federico
federiko
felipe
felix
female
femenino
femeninoa
feminismo
feminismoa
feminismoaren
feminist
feminista
feministak
feministaren
feministen
femme
femmes
feniziar
fenomeno
fenomenoa
fenomenoak
fense
fer
ferdinand
ferguson
feria
fermi
fermin
ferna
fernand
fernanda
fernandez
fernando
fernandoko
ferra
ferrari
ferreira
ferrer
ferrie
ferrocarril
ferrocarriles
ferroviarias
ferry
festa
festak
festival
feve
fhisbase
fi
fiat
fiba
fica
ficas
ficha
fico
fiction
fidagarria
fidagarriak
fidagarritasuna
fidantza
fidel
field
fields
fiesta
fifa
fifaren
fife
figura
figurak
fihsbase
fiji
fijiko
fikzio
fikzioa
fikzioan
fikziozko
filadelfia
filantropoa
file
files
filipe
filipinak
filipinar
filipinetako
filipinetan
filipo
filippo
fille
film
filma
filmak
filman
filmarekin
filmaren
filmari
filmatu
filme
filmeak
filmean
filmeko
filmen
filmerako
filmetako
filmetan
filmografia
films
filo
filologia
filologian
filologo
filologoa
filosofi
filosofia
filosofiak
filosofiako
filosofian
filosofiaren
filosofiko
filosofikoa
filosofikoak
filosofo
filosofoa
filosofoak
filosofoaren
filosofoek
filosofoen
fin
fina
finak
final
finala
finalak
finalaurrekoa
finalaurrekoak
finalean
finalera
finalerako
finalerdia
finalerdiak
finalerdietan
finalista
finantza
finantzak
finantzaketa
finantzatu
finantzatzeko
finantzatzen
finantziazio
fine
finean
finiste
finitua
finka
finkatu
finkatuta
finkatutako
finkatzea
finkatzeko
finkatzen
finko
finkoa
finkoak
finkorik
finlandia
finlandiak
finlandiako
finlandian
finlandiar
finlandiaren
finlandiarrak
finlandieraz
finn
fire
firefox
first
fis
fiscaux
fischer
fish
fishbase
fisher
fisika
fisikako
fisikan
fisikaren
fisikari
fisikaria
fisikariak
fisiko
fisikoa
fisikoak
fisikoan
fisikoaren
fisikoen
fisikoki
fisio
fisiologia
fisiologoa
fisioterapia
fiskal
fiskala
fiskalak
fiskalaren
fiskaltzak
fit
fitxa
fitxategi
fitxategia
fitxategiak
fitxatu
fitzgerald
five
fk
fl
flag
flamenko
flammarion
flandria
flandriako
flandriar
flash
flauta
flavio
fle
fleming
fletcher
fleury
flickr
flight
flor
flora
florence
florencio
florentzia
florentziako
florentzian
flores
florete
florida
floridako
floridan
flota
flotatzen
flowers
floyd
fluido
fluidoaren
fluidoen
fluordun
fluxu
fluxua
fluxuak
fluxuaren
flying
flynn
fm
fo
foix
foku
folk
folklore
folklorea
fonda
fondo
fonema
font
fontaine
fontana
fontenay
fontsize
food
foot
football
for
foral
forala
forall
forbes
force
ford
fore
foreign
forest
forever
forges
forma
formak
formako
formakoa
formakoak
formakuntza
formakuntzako
formal
formala
formalak
formalki
forman
formaren
formari
formarik
formatu
formatua
formatuak
formatuan
formazio
formazioa
formen
formula
formulak
formulako
formulan
formularen
formulatu
formulazio
foro
foroa
fort
forte
fortuna
foru
forua
foruak
foruen
forum
fosfato
fosfatodun
fosforo
fosforoa
fosil
fosila
fosilak
fosilen
fosse
foster
foto
fotoi
fotoiak
fotosintesia
foucault
foundation
four
fourier
fournier
fowler
fox
foy
fr
fra
frac
frai
fraide
fraidea
frame
frameless
fran
franc
france
frances
francesc
francesca
francesco
franche
francia
francis
francisca
francisco
franck
franco
francok
francoren
frank
frankenstein
frankfurt
frankfurteko
frankismo
frankismoa
frankismoak
frankismoaren
frankista
frankistak
frankistaren
frankistek
frankisten
franklin
franklinen
franko
frankoak
frankoek
frankoen
frankotiratzaile
frans
frantses
frantsesa
frantsesak
frantsesaren
frantsesek
frantseseko
frantsesen
frantsesera
frantsesetik
frantsesez
frantsesezko
frantzia
frantziak
frantziako
frantziakoa
frantziakoak
frantziakoaren
frantzian
frantziar
frantziara
frantziarekin
frantziaren
frantziari
frantziarra
frantziarrak
frantziarraren
frantziarrek
frantziarren
frantziatik
frantzisko
frantziskoko
frantziskon
frantziskotar
frantziskotarra
frantziskotarren
franz
fraser
fray
fre
fred
freddie
frederic
frederick
frederik
frederiko
free
freedom
freeman
fregesiak
freire
frekuentzia
french
frente
fresko
freskoa
freskoak
fresno
freud
freudek
fri
friburgo
frida
friedrich
friend
friends
fringillidae
fritz
friuli
froga
frogak
frogarik
frogatu
frogatuta
frogatzea
frogatzeko
frogatzen
from
front
fronte
frontea
frontean
frontearen
fronteko
frontera
frontoi
frontoia
frontoian
frost
fruitu
fruitua
fruituak
fruta
fry
ft
fu
fue
fuego
fuente
fuentes
fuera
fuga
fuji
fukuoka
fukushima
full
fulton
fun
fundacio
fundatu
fundatzailea
fundazio
fundazioa
fundazioak
fundazioaren
fundazioko
funeraria
funerariak
funikularra
funk
funts
funtsa
funtsak
funtsatzen
funtsean
funtsezko
funtsezkoa
funtsezkoak
funtzio
funtzioa
funtzioak
funtzioan
funtzioaren
funtzioen
funtzional
funtzionala
funtzionalak
funtzionamendu
funtzionamendua
funtzionamenduan
funtzionamenduaren
funtzionario
funtzionarioa
funtzionarioak
funtzionarioek
funtzionarioen
funtzionatu
funtzionatzeko
funtzionatzen
furnariidae
fusil
fusilatu
fusilatua
fusio
fusioa
fusionatu
futbol
futbola
futbolaren
futbolari
futbolaria
futbolariak
futbolean
futboleko
future
futuro
g
ga
gaa
gabe
gabea
gabeak
gabeko
gabekoa
gabekoak
gaberik
gabezia
gabeziak
gabilondo
gabon
gabonetako
gabonetan
gabongo
gabriel
gabriela
gabrielle
gaceta
gaeleraz
gaeltacht
gai
gaia
gaiak
gaiaren
gaiari
gaiei
gaien
gaietako
gaietan
gaietarako
gaiez
gailendu
gailentzen
gailu
gailua
gailuak
gailuaren
gailuen
gailur
gailurra
gailurrak
gailurraren
gailurrean
gailurrera
gailurretik
gailurrik
gain
gaina
gainak
gainaldean
gainazal
gainazala
gainazalak
gainazalaren
gainazalean
gainazaleko
gainazaletik
gainbegiratu
gainbehera
gainbeheran
gainbeheraren
gaindi
gaindiko
gainditu
gaindituta
gaindituz
gainditzea
gainditzeko
gainditzen
gainean
gaineko
gainekoa
gainera
gainerako
gainerakoa
gainerakoak
gainerakoan
gaineratu
gainetan
gainetik
gainezka
gainontzeko
gainontzekoak
gaio
gaita
gaitasun
gaitasuna
gaitasunak
gaitasunaren
gaitasunik
gaitezen
gaitezke
gaitu
gaituen
gaituzte
gaitz
gaitza
gaitzak
gaitzaren
gaitzat
gaitzesten
gaitzetsi
gaixo
gaixoa
gaixoak
gaixoaren
gaixoen
gaixorik
gaixotasun
gaixotasuna
gaixotasunak
gaixotasunaren
gaixotasunen
gaixotu
gaizka
gaizki
gaizkia
gaizkiaren
gaizkile
gaizto
gaiztoa
gaiztoak
gako
gakoa
gakoak
gal
gala
galar
galarazi
galarazten
galaxia
galaxiak
galaxiaren
galaxien
galaxy
galdakao
galdakaoko
galdara
galde
galdeketa
galdera
galderak
galderari
galdetu
galdetzen
galdu
galdua
galduak
galduko
galdurik
galduta
galdutako
galduz
gale
galega
galego
galera
galerak
galeraren
galeri
galeria
galeriak
galerian
gales
galesen
galesko
galestar
galia
galiako
galiar
galicia
galileo
galileok
galileoren
galindo
galizia
galiziako
galizian
galiziar
galiziera
galizieraz
galizierazko
gallagher
gallastegi
gallego
gallen
gallery
gallimard
gallo
galloway
galtza
galtzada
galtzaile
galtzea
galtzeagatik
galtzeko
galtzen
galway
gama
gamba
game
games
gamma
gan
ganbara
ganbera
ganberak
ganberako
ganberan
ganberaren
ganbila
ganboa
gandhi
gandhik
gandhiren
gandor
ganga
gangak
gangaz
gante
gantz
gantza
gar
gara
garagar
garagardo
garagardoa
garagardoaren
garagarra
garai
garaia
garaiak
garaian
garaiaren
garaiari
garaien
garaiena
garaienak
garaienen
garaiera
garaieran
garaietako
garaietan
garaietatik
garaikide
garaikidea
garaikideak
garaikidean
garaikidearen
garaikideen
garaikideko
garaiko
garaikoa
garaikoak
garaikurra
garaile
garailea
garaileak
garaipen
garaipena
garaipenak
garaipenaren
garaipenean
garaipenik
garaira
garairik
garaitik
garaitu
garaitua
garaituak
garaituz
garaitzea
garaitzeko
garaitzen
garaiz
garan
garapen
garapena
garapenak
garapenarekin
garapenaren
garapenari
garapenean
garapenerako
garat
garate
garatu
garatua
garatuak
garatuetan
garatuko
garatuta
garatutako
garatuz
garatzea
garatzeko
garatzen
garay
garazi
garaziko
garbi
garbia
garbiak
garbiaren
garbiketa
garbin
garbitasun
garbitasuna
garbitu
garbitzeko
garbitzen
garci
garcia
gard
garde
gardeko
garden
gardena
gardens
gardner
gare
garela
garen
garenean
gares
garestia
garestiak
garezur
garezurra
garfield
gari
garia
garibaldi
garland
garmendia
garona
garonako
garonne
garra
garraiatu
garraiatzeko
garraiatzen
garraio
garraioa
garraioak
garraioan
garraioaren
garraiobide
garraiobideak
garraiorako
garralda
garran
garrantzi
garrantzia
garrantziaren
garrantziaz
garrantzirik
garrantzitsu
garrantzitsua
garrantzitsuagoa
garrantzitsuak
garrantzitsuen
garrantzitsuena
garrantzitsuenak
garrantzitsuenen
garrantzitsuenetako
garrantzitsuenetakoa
garrantzitsuenetariko
garrantzitsuenetarikoa
garrantzitsuetan
garrantzitsutzat
garrantzizko
garratza
garren
garrett
garrido
garrinae
garro
gartzea
gartzia
garun
garuna
garunaren
garuneko
gary
gas
gasa
gasak
gasaren
gasen
gasolina
gaspar
gastatu
gasteiz
gasteizen
gasteizko
gasteiztar
gasteiztarrak
gasteiztik
gaston
gastronomia
gastu
gastua
gastuak
gatazka
gatazkak
gatazkan
gatazkaren
gatazkari
gatazken
gate
gates
gatibu
gatik
gato
gatz
gatza
gatzaga
gatzak
gatzaren
gau
gaua
gauak
gauaren
gaude
gaudi
gauean
gaueko
gauetan
gauez
gaulle
gaur
gaurdaino
gaurko
gauss
gauza
gauzak
gauzaren
gauzarik
gauzatu
gauzatuko
gauzatzea
gauzatzeko
gauzatzen
gauzei
gauzen
gauzetan
gay
gaza
gazako
gazan
gazi
gazia
gaziko
gazta
gaztaina
gaztak
gaztan
gaztaroa
gaztaroan
gaztaroko
gazte
gaztea
gazteagoa
gazteak
gaztearen
gazteei
gazteek
gazteen
gazteena
gazteentzako
gaztela
gaztelak
gaztelako
gaztelakoa
gaztelakoak
gaztelakoaren
gaztelan
gaztelania
gaztelaniara
gaztelaniaren
gaztelaniaz
gaztelaniazko
gaztelar
gaztelaren
gazteleraz
gaztelerazko
gaztelu
gaztelua
gazteluak
gazteluan
gazteluaren
gazteluko
gaztelupeko
gazteria
gazteriaren
gazterik
gaztetan
gaztetatik
gaztetxea
gb
ge
gehi
gehiago
gehiagok
gehiagoko
gehiagora
gehiagorekin
gehiagoren
gehiagori
gehiagorik
gehiagotan
gehiagoz
gehiegi
gehiegikeria
gehiegikeriak
gehiegizko
gehiegizkoa
gehien
gehiena
gehienak
gehienbat
gehienean
gehienek
gehieneko
gehienen
gehienetan
gehienez
gehienezko
gehiengo
gehiengoa
gehiengoak
gehiengoaren
gehigarri
gehigarria
gehigarriak
gehikuntza
gehitu
gehituko
gehituta
gehituz
gehitzea
gehitzeko
gehitzen
gekkonidae
geko
gel
gela
gelak
gelako
gelan
gelaxka
geldi
geldialdi
geldialdia
geldialdiak
geldiarazi
geldiarazteko
geldiarazten
geldirik
gelditu
geldituko
geldituz
gelditzea
gelditzeko
gelditzen
gelechiidae
geltoki
geltokia
geltokiak
geltokian
geltokiaren
geltokien
geltokietan
geltokiko
geltokira
geltokitik
gema
gemini
gemma
gen
gender
gene
genea
geneak
genealogia
genearen
geneen
general
generalitateak
generalitatearen
generalitateko
generation
genero
generoa
generoak
generoan
generoaren
generoen
generoetako
generoko
generotan
genes
genetika
genetiko
genetikoa
genetikoak
genetikoaren
genetikoki
geneva
genevako
genevan
genevie
genezake
genitalen
genituen
genituzke
genoma
genova
genovako
genozidio
genozidioa
gente
genuen
genuke
geoemydidae
geoffrey
geografi
geografia
geografiaren
geografiko
geografikoa
geografikoak
geografikoki
geografo
geografoa
geograph
geographic
geologia
geologian
geologiko
geologikoa
geologikoak
geologo
geologoa
geometria
geometrian
geometriko
geometrikoa
geometrikoak
georg
george
georges
georgi
georgia
georgiako
georgian
georgiar
geq
ger
gera
gerais
gerald
geraleku
geralekua
gerard
gerardo
geratu
geratuko
geratuz
geratzea
geratzeko
geratzen
geren
gerhard
gerlari
gerlariak
germa
germain
german
germania
germaniako
germaniar
germaniarrak
germaniarren
germany
gernika
gernikako
gernikan
gernu
gernua
gero
geroa
geroago
geroagoko
geroko
gerora
geroxeago
geroz
geroztik
gerra
gerrak
gerrako
gerran
gerraosteko
gerrara
gerrarako
gerrarekin
gerraren
gerrari
gerratik
gerrek
gerren
gerretako
gerretan
gerriko
gerrikoa
gerrikoan
gerrilla
gerrillari
gerrillariak
gerry
gers
gerseko
gerta
gertaera
gertaerak
gertaeren
gertaeretan
gertakari
gertakaria
gertakariak
gertakarien
gertakizun
gertakizunak
gertatu
gertatuko
gertaturiko
gertatutako
gertatutakoa
gertatuz
gertatzea
gertatzeko
gertatzen
gertrude
gertu
gertuago
gertuen
gertuko
gerturatu
gerturatzen
gertutik
geruza
geruzak
geruzan
geruzaren
geruzen
geruzetan
ges
geschichte
gestio
get
getaria
getariako
getxo
getxoko
getxon
geu
geure
geza
gezako
gezi
geziak
gezurra
gezurrezko
ghana
ghanako
ghost
ghz
gi
giacomo
gian
gianni
gib
gibel
gibela
gibelaren
gibelean
gibeleko
gibraltar
gibson
gica
gicas
gico
gida
gidari
gidaria
gidariak
gidaritza
gidaritzapean
gidatu
gidatuta
gidatutako
gidatzeko
gidatzen
gidoi
gidoia
gidoiak
gidoigile
gidoigilea
gidoilari
gidoilaria
gidoilariak
gie
gif
gifu
gihar
giharrak
gijo
gil
gila
gilbert
gilen
giles
gill
gilles
giltza
giltzadura
giltzak
giltzarri
giltzurrun
gime
gimnasia
gimnasta
gimnastak
gimnastika
gimnastikan
gin
gina
ginea
gineako
ginen
giorgio
giovanni
gipuz
gipuzkoa
gipuzkoako
gipuzkoan
gipuzkoar
gipuzkoarra
gipuzkoarrak
gira
girl
girls
giro
giroa
giroan
giroaren
giroko
girolamo
girona
gironako
gironda
girondako
girotua
girotuta
girotutako
gisa
gisako
gisan
gisara
gitarra
gitarrista
giulio
giuseppe
give
giza
gizabanako
gizabanakoak
gizabanakoaren
gizabanakoek
gizabanakoen
gizadiaren
gizaki
gizakia
gizakiak
gizakiaren
gizakiarentzat
gizakiari
gizakiei
gizakiek
gizakien
gizakiengan
gizakietan
gizakiok
gizakion
gizarte
gizartea
gizarteak
gizartean
gizartearen
gizarteari
gizarteko
gizaseme
gizatalde
gizateria
gizateriaren
gizon
gizona
gizonak
gizonaren
gizonei
gizonek
gizonekin
gizonen
gizonena
gizonez
gizonezko
gizonezkoa
gizonezkoak
gizonezkoek
gizonezkoen
gizonezkoena
gizonezkoetan
gizonik
gje
gks
gladiolus
gladys
glasgow
glasgowko
glass
glaziar
glaziarra
glaziarrak
glen
glenea
glenn
gli
glise
global
globala
globalaren
globe
globo
globulu
gloria
glory
glover
glu
glukosa
glyptothorax
gm
gnome
gnu
go
goardia
gob
gobernadore
gobernadorea
gobernadoreak
gobernadorearen
gobernari
gobernaria
gobernatu
gobernatura
gobernatzeko
gobernatzen
gobernu
gobernua
gobernuak
gobernuan
gobernuarekin
gobernuaren
gobernuari
gobernuburu
gobernuburua
gobernuek
gobernuen
gobernuko
gobernutik
gobernuz
gobierno
gobiesocidae
gobiidae
gobiinae
god
goenaga
goenkale
goes
goethe
gogamenaren
gogh
gogo
gogoa
gogoak
gogoan
gogoaren
gogoeta
gogoetak
gogoko
gogokoena
gogor
gogora
gogorarazten
gogoratu
gogoratuz
gogoratzeko
gogoratzen
gogorra
gogorragoa
gogorrak
gogorraren
gogorren
gogorrena
gogortasuna
gogortasunaren
gogortu
gogotsu
gogoz
gohan
goi
goia
goialdea
goialdean
goialdeko
goian
goiburu
goiburua
goiena
goieneko
goierri
goierriko
goiko
goikoa
goikoetxea
going
goiri
goiti
goitia
goitik
goitizena
goiz
goizaldean
goizean
goizeko
goiztiar
goiztiarra
goiztiarrak
goiztiarrean
goizueta
goku
gokuk
gokuren
gol
gola
golak
gold
golden
goldman
goleatzaile
goleatzaileak
golf
golkoa
golkoan
golkoaren
golkoko
goma
gomazko
gomendagarria
gomendatu
gomendatzen
gomendio
gomendioak
gomez
gon
gona
gonbidapena
gonbidatu
gonbidatua
gonbidatuak
gonbidatzen
gonbita
goncourt
gone
gongoil
gonza
gonzalez
gonzalo
good
goodman
google
gor
gora
gorabehera
gorabeherak
gorabeherako
gorago
goragoko
goraipatu
goraipatzen
goraka
gorakada
gorako
gorakoa
gorakoak
gorantz
goranzko
goratu
gorbeia
gorbeiako
gordailu
gordailua
gorde
gordeko
gordeta
gordetako
gordetzea
gordetzeko
gordetzen
gordin
gordina
gordinaren
gordinik
gordon
gore
goren
gorena
gorenak
gorenaren
gorenean
goreneko
gorenera
gorengo
gori
gorka
gorpu
gorpua
gorpuak
gorputz
gorputza
gorputzak
gorputzarekin
gorputzaren
gorputzari
gorputzean
gorputzek
gorputzeko
gorputzen
gorputzetik
gorpuzkiak
gorri
gorria
gorriak
gorrian
gorriaren
gorriek
gorrien
gorriko
gorriranzko
gorriti
gorrixka
gorriz
gorroto
gorrotoa
gorrotxategi
gorte
gortea
gorteak
gortean
gortearen
gorteek
gorteen
gorteetako
gorteetan
gorteko
gortera
gose
gosea
goseak
gosete
gosetea
gosez
gospel
got
gotiko
gotikoa
gotikoak
gotikoan
gotikoaren
gotikoko
gotorleku
gotorlekua
gotorlekuak
gotorlekuan
gotorlekuaren
gotortu
gottfried
gotzain
gotzaina
gotzainak
gotzon
gould
gov
government
goya
gozamen
gozatu
gozatzeko
gozatzen
gozo
gozoa
gozoak
goǃazen
gps
gr
gra
grabaketa
grabatu
grabatua
grabatuak
grabatuta
grabatutako
grabatzaile
grabatzailea
grabatzeko
grabatzen
grabazio
grabazioa
grabazioak
grabitate
grabitatea
grabitatearen
grabitatorioa
grabitazio
grace
gracia
gracilis
gradiente
gradu
gradua
graduatu
graduko
gradukoa
graduondoko
graf
grafia
grafiko
grafikoa
grafikoak
grafikoan
grafikoen
grafo
graham
grahamek
gram
gramatika
grammy
gramo
grampus
gran
granada
granadako
granadan
grand
grande
grandes
granito
granitozko
grant
grasset
grave
graves
gray
grazia
gre
great
greatest
greba
grebak
greban
grebaren
greco
greece
greek
green
greenberg
greene
greenwich
greenwood
greg
gregorio
gregoriotar
gregory
greko
grekoa
grekoak
grekoaren
grekotik
greta
grey
grezia
greziak
greziako
grezian
greziar
greziaren
greziarra
greziarrak
greziarrek
greziarren
greziera
grezieratik
grezieraz
grezierazko
gridcolor
grievous
griffin
griffith
grimm
grina
grinak
gripe
gripearen
gris
grisa
grisak
grisaxka
groenlandia
groenlandiako
gros
grosso
ground
group
grove
grupo
gs
gt
gu
guadalajara
guadalajarako
guadalupe
guangzhou
guarda
guardia
guardiako
guardian
guatemala
guatemalako
guatemalan
guda
gudan
gudaren
gudari
gudaria
gudariak
gudarien
gudaroste
gudarostea
gudarosteak
gudarostearen
gudarosteko
gudu
gudua
guduak
guduan
guduaren
guduetan
gue
guen
guernica
guerra
guerre
guerrero
guevara
guez
gugandik
guggenheim
gui
guianetako
guide
guido
guillaume
guille
guillermo
guinness
guipu
guitar
guk
gun
gune
gunea
guneak
gunean
gunearen
guneen
guneetan
guneko
gunera
gunerik
gunetan
gunetik
gunma
guns
gur
gura
guraso
gurasoak
gurasoei
gurasoek
gurasoekin
gurasoen
gurdi
gure
gurea
gurean
guretzat
guri
guridi
gurina
gurpil
gurpila
gurpilak
gurrutxaga
gurtza
gurtzen
guru
guruin
guruinak
gurutzada
gurutzadura
gurutzatu
gurutzatzen
gurutze
gurutzea
gurutzeak
gurutzearen
gustatu
gustatzen
gustav
gustave
gustavo
gustu
gustua
gustuko
gustukoa
gustura
gutenberg
gutie
gutierrez
gutun
gutuna
gutunak
gutunaren
gutunean
gutxi
gutxiago
gutxiagoko
gutxiagorekin
gutxiagotan
gutxian
gutxien
gutxieneko
gutxienez
gutxiengo
gutxik
gutxiko
gutxikoa
gutxinaka
gutxira
gutxirekin
gutxiren
gutxitan
gutxitu
gutxituz
gutxitzea
gutxitzeko
gutxitzen
guy
guyana
guyanako
guzma
guzti
guztia
guztiak
guztian
guztiarekin
guztiaren
guztiari
guztiei
guztiek
guztiekin
guztien
guztientzako
guztientzat
guztietako
guztietan
guztietara
guztietarako
guztietatik
guztiez
guztiko
guztiok
guztion
guztira
guztiz
guztizko
gwynedd
gymnophthalmidae
gymnothorax
gyo
h
ha
haatik
habana
habanako
habanan
habe
habearte
habeartea
habearteak
habeartearen
habia
habiak
habitat
habitata
habsburgotarren
hace
hacer
hacia
had
haec
haemulidae
haga
hagako
hagen
hagin
hague
hai
haiei
haiek
haiekin
haien
haientzat
haietako
haietan
haietatik
hain
haina
hainbat
hainbatek
hainbatetan
hainbeste
hainbesteko
hainbestez
haitiko
haitz
haitza
haitzulo
haize
haizea
haizeak
haizearen
hal
hala
halabeharrez
halaber
halako
halakoa
halakoak
halakorik
halakoxe
halatan
halaxe
hale
halere
half
halichoeres
hall
halley
haluro
haluroak
ham
hamabi
hamabigarren
hamabost
hamahiru
hamaika
hamaikagarren
hamalau
hamar
hamargarren
hamarkada
hamarkadak
hamarkadako
hamarkadan
hamarkadara
hamarkadaren
hamarkadatan
hamarkadatik
hamarkadaz
hamarkadetako
hamarkadetan
hamarraldian
hamarraldiaren
hamarreko
hamarren
hamasei
hamazazpi
hamazortzi
hamilton
hamlet
hammer
hampshire
hampshireko
han
hanburgo
hancock
hand
handbook
handi
handia
handiagatik
handiago
handiagoa
handiagoak
handiagoan
handiagoarekin
handiagoko
handiagotu
handiagoz
handiak
handian
handiarekin
handiaren
handiari
handiegia
handiei
handiek
handiekin
handien
handiena
handienak
handienaren
handienean
handieneko
handienen
handienetako
handienetakoa
handienetan
handienetariko
handienetarikoa
handietako
handietan
handik
handika
handiko
handikoa
handikoak
handira
handirik
handitan
handitasun
handitasuna
handitik
handitu
handituko
handituz
handitze
handitzea
handitzeak
handitzean
handitzeko
handitzen
handiz
hango
hank
hanka
hankak
hanken
hanketan
hanna
hannah
hannibal
hans
hansen
hantura
hantxe
haplochromis
happy
har
hara
haragi
haragia
haragiak
haragiaren
harago
haraindiko
harald
haran
harana
haranak
haranaren
haranean
haraneko
haratago
harategi
harategia
harategiak
harbor
harbour
hard
hardcore
hardware
hardwarea
hardy
hare
harea
hareazko
hareharrizko
harekin
haren
harengandik
harentzat
hargin
hari
haria
hariak
harik
harira
haririk
haritz
haritza
haritzak
harizko
harizpi
hark
harkaitz
harlandu
harlanduz
harlanduzko
harlem
harluxet
harmaila
harmonia
harmoniko
haro
haroko
harokoa
harold
harpa
harper
harpidetza
harrapaketa
harrapakin
harrapakina
harrapakinak
harrapari
harrapariak
harrapatu
harrapatuta
harrapatutako
harrapatzea
harrapatzeko
harrapatzen
harreman
harremana
harremanak
harremanaren
harremanean
harremanei
harremanek
harremanen
harremanetan
harremanetarako
harremanik
harrera
harresi
harresia
harresiak
harresiaren
harresien
harresiz
harrespila
harrezkero
harrezko
harri
harria
harriak
harrian
harriaren
harribitxi
harridura
harrien
harriet
harrigarri
harrigarria
harrigarriak
harris
harrison
harritu
harrituta
harritzekoa
harriz
harrizko
harro
harrobi
harrobia
harrobian
harrotu
harry
hart
hartako
hartan
hartara
hartarako
hartatik
hartaz
hartu
hartua
hartuak
hartuko
harturik
harturiko
hartuta
hartutako
hartuz
hartz
hartza
hartzaile
hartzailea
hartzaileak
hartzailearen
hartzaileek
hartzaileen
hartze
hartzea
hartzeagatik
hartzeak
hartzean
hartzearekin
hartzearen
hartzeari
hartzeaz
hartzeko
hartzen
hartzera
hartzidura
harvard
harvardeko
harvey
has
haserre
haserrea
haserretu
hash
hasi
hasia
hasiak
hasiera
hasierak
hasierako
hasierakoa
hasieran
hasierara
hasieratik
hasiko
hasita
hasitako
hasiz
hassan
hasta
hastapen
hastapena
hastapenak
hastapenean
hastapenetan
hastea
hastean
hasteko
hasten
hastings
hat
hatz
hatzak
hau
hauei
hauek
hauekin
hauen
hauengatik
hauetako
hauetan
hauetara
hauetariko
hauetatik
hauetaz
hauexek
hauez
haur
haurdun
haurdunaldi
haurdunaldia
haurdunaldian
haurdunaldiaren
haurra
haurrak
haurraren
haurrari
haurrei
haurrek
haurrekin
haurren
haurrentzako
haurrentzat
haurtzaro
haurtzaroa
haurtzaroan
haurtzaroko
hauskorra
hausnarketa
hauste
haustea
hausteko
hausten
haustura
hausturak
haut
hautagai
hautagaia
hautagaiak
hautagaien
hautagaitza
hautaketa
hautapen
hautatu
hautatua
hautatuak
hautatuko
hautatutako
hautatzea
hautatzeko
hautatzen
haute
hauteman
hautemateko
hautematen
hautes
hauteskunde
hauteskundeak
hauteskundeen
hauteskundeetako
hauteskundeetan
hauteskundeetara
hauteskundeetarako
hauteskundetan
hautesle
hautespen
hautetsi
hauts
hautsa
hautsak
hautsi
hautsia
hautsiz
hautua
hauxe
have
haven
havli
hawaii
hawaiiko
hawkins
hay
hayes
haz
hazbete
hazi
hazia
haziak
hazitako
haziz
hazkunde
hazkundea
hazkundeak
hazkundearen
hazkuntza
haztea
hazteko
hazten
hb
hbar
hc
hd
he
head
health
heart
hearts
heat
heath
heather
heaven
heavy
hebrear
hebreeraz
hector
heda
hedabide
hedabideak
hedabideek
hedabideen
hedabideetan
hedadura
hedaduraz
hedapen
hedapena
hedapenak
hedapenaren
hedatu
hedatua
hedatuena
hedatuko
hedaturik
hedatuta
hedatuz
hedatzea
hedatzeko
hedatzen
hegal
hegala
hegalak
hegaldi
hegaldia
hegaldiak
hegalean
hegaleko
hegaletan
hegan
hegazkin
hegazkina
hegazkinak
hegazkinaren
hegazkinek
hegazkinen
hegazkinlaria
hegazti
hegaztia
hegaztiak
hegaztien
hego
hegoa
hegoafrika
hegoafrikako
hegoafrikan
hegoafrikar
hegoak
hegoal
hegoalde
hegoaldea
hegoaldean
hegoaldearen
hegoaldeko
hegoaldekoa
hegoaldera
hegoalderago
hegoalderantz
hegoaldetik
hegoekialdeko
hegokorear
heidelberg
heidelbergeko
heidelbergetik
height
heights
hein
heinean
heinrich
heinz
hek
hektarea
hektareako
hel
helarazi
helbide
helbidea
helbideak
helburu
helburua
helburuak
helburuarekin
helburuaren
helburuen
helburuetarako
helburutzat
helburuz
heldu
heldua
helduak
helduaroan
helduek
helduen
helduentzako
helduetan
helduko
helduta
heldutasun
heldutasuna
helduz
helegitea
helen
helena
helikoptero
helio
helioa
helize
hell
helmuga
helmugara
helmut
helsinki
helsinkiko
heltzea
heltzean
heltzeko
heltzen
hemen
hemendik
hemengo
hemeretzi
hemezortzi
hemidactylus
hemingway
hemiphractidae
hemisferioan
hemisferioko
hendaia
hendaiako
hendaian
henderson
hendrik
henri
henrik
henrike
henry
hepburn
heptapteridae
her
hera
herbehereak
herbehereetako
herbehereetan
herbehereetar
herbeheretar
herbert
hercules
here
heredia
heren
herena
herenak
herenean
herensugea
herentzia
herio
heriotz
heriotza
heriotzak
heriotzara
heriotzarekin
heriotzaren
heriotzari
heritage
herman
hermann
hermanos
hermes
herna
hernandez
hernando
hernani
hernaniko
hernanin
hero
herodoto
heroes
heroi
heroia
heroiak
heroiaren
heroien
heroina
herrera
herrero
herri
herria
herriak
herrialde
herrialdea
herrialdeak
herrialdean
herrialdearen
herrialdeek
herrialdeekin
herrialdeen
herrialdeentzako
herrialdeetako
herrialdeetan
herrialdeetara
herrialdek
herrialdeka
herrialdeko
herrialdera
herrialdetako
herrialdetan
herrialdetik
herrian
herriarekin
herriaren
herriarentzat
herriari
herriburua
herriei
herriek
herriekin
herrien
herrietako
herrietan
herrietara
herrietatik
herrigune
herrigunea
herrigunean
herrigunearen
herrigunetik
herrik
herriko
herrikoa
herrikoak
herrikoi
herrikoia
herrikoiak
herrikoiaren
herrira
herririk
herritan
herritar
herritarra
herritarrak
herritarrei
herritarrek
herritarren
herritartasuna
herritik
herrixka
herrixkak
herrixkan
herrixkaren
herriz
herschelek
hertsian
hertsiki
herzegovina
herzegovinako
hesi
hesia
hesiak
hesse
hessen
hessengo
heste
hesteetako
het
heuren
hexagonalak
hexagonalaren
heze
hezea
hezeak
hezeetan
hezeguneak
hezetasun
hezetasuna
hezi
hezia
heziketa
hezitzaile
hezitzailea
hezkuntza
hezkuntzak
hezkuntzako
hezkuntzan
hezkuntzarako
hezkuntzaren
hezkuntzari
hezur
hezurdura
hezurra
hezurrak
hezurraren
hezurren
hi
hibrido
hibridoak
hidalgo
hidratodun
hidraulikoa
hidrogeno
hidrogenoa
hidrogenoaren
hidrogenodun
hidrografia
hidrokarburo
hidroxidodun
hierarkia
hierro
hiesa
hiesaren
higadura
higgins
high
highland
higidura
higiduraren
higiene
higiezinen
higikunde
higitzen
hijo
hijos
hika
hil
hila
hilabete
hilabetea
hilabeteak
hilabetean
hilabeteetan
hilabeteko
hilabetera
hilabetetan
hilabetez
hilaire
hilak
hilarazi
hilaren
hilario
hilarri
hilarria
hilarriak
hilda
hildako
hildakoa
hildakoak
hildakoaren
hildakoen
hilean
hileko
hilekoaren
hilen
hilero
hilerri
hilerria
hilerrian
hilerriko
hileta
hiletan
hilez
hilgarria
hilik
hilketa
hilketak
hilketaren
hilko
hilkortasun
hill
hills
hilobi
hilobia
hilobiak
hilobian
hilobiaren
hilobietan
hiltzaile
hiltzailea
hiltzaileak
hiltzea
hiltzean
hiltzeko
hiltzen
hiltzera
hilzorian
himalaia
himalaiako
himilkonek
himno
hindu
hip
hipermerkatu
hipermerkatuak
hipotesi
hipotesia
hipotesiak
hipotesiaren
hippocampus
hipposideridae
hipposideros
hire
hiri
hiria
hiriak
hirian
hiriarekin
hiriaren
hiriari
hiriarteko
hiriberri
hiribidea
hiribil
hiribildu
hiribildua
hiribilduak
hiribilduaren
hiriburu
hiriburua
hiriburuak
hiriburuan
hiriburuaren
hiriburuetan
hiriburuko
hiriburura
hiriburutik
hiriek
hiriekin
hirien
hirietako
hirietan
hirietara
hirigintza
hirigintzako
hirigintzaren
hirigune
hirigunea
hirigunearen
hirigunetik
hiriko
hirikoa
hirira
hiririk
hiritan
hiritar
hiritarrak
hiritarrek
hiritarren
hiritartasuna
hiritik
hiroshima
hiru
hirugarren
hirugarrena
hirugarrenak
hirugarrenean
hiruki
hiruko
hirukoitz
hirukoitza
hirukote
hirukotea
hirundinidae
hirurak
hirurehun
hirurek
hirurogei
hirurogeiko
hirurogeita
hirutan
his
hispania
hispaniako
hispaniar
hispano
hispanoak
histo
histoire
historia
historiak
historiako
historialari
historialaria
historialariak
historialariaren
historialariek
historialarien
historian
historiarekin
historiaren
historiari
historias
historiaurrea
historiaurrean
historiaurreko
historiaz
historical
historiko
historikoa
historikoak
historikoan
historikoaren
historikoen
historikoetan
historikoki
historikoko
historiografia
history
hit
hitchcock
hitler
hitlerrek
hitlerren
hits
hitu
hitz
hitza
hitzak
hitzaldi
hitzaldia
hitzaldiak
hitzaldian
hitzarekin
hitzaren
hitzarmen
hitzarmena
hitzarmenak
hitzarmenaren
hitzarmenean
hitzartu
hitzaurrea
hitzaurrean
hitzek
hitzekin
hitzen
hitzetan
hitzetatik
hitzetik
hitzez
hitzezko
hitzik
hiz
hizkera
hizkerak
hizkeran
hizketa
hizketan
hizki
hizkia
hizkiak
hizkuntz
hizkuntza
hizkuntzak
hizkuntzako
hizkuntzalari
hizkuntzalaria
hizkuntzalariak
hizkuntzalaritza
hizkuntzalaritzan
hizkuntzan
hizkuntzaren
hizkuntzari
hizkuntzatan
hizkuntzatara
hizkuntzaz
hizkuntzen
hizkuntzetako
hizkuntzetan
hizlari
hizlaria
hizpide
hiztegi
hiztegia
hiztegiak
hiztegian
hiztegiaren
hiztun
hiztuna
hiztunak
hiztunek
hiztunen
hiztunik
hl
hm
hms
ho
hobbes
hobe
hobea
hobeak
hobeki
hobekien
hobekuntza
hobekuntzak
hobera
hoberena
hoberenak
hoberenetakoa
hobesten
hobeto
hobetu
hobetuz
hobetzea
hobetzeko
hobetzen
hobi
hobia
hobiak
hoc
hockey
hockeya
hockeyan
hodei
hodeia
hodeiak
hodeien
hodi
hodia
hodiak
hodiaren
hodien
hoffman
hoffmann
hogei
hogeita
hokkaido
hokkaidoko
hola
holanda
holandako
holandar
holiday
holland
holly
hollyhock
hollywood
hollywoodeko
hollywooden
holm
holmes
holocene
holocentridae
holokaustoaren
holstein
holsteingo
holt
holy
hombre
hombres
home
homenaje
homer
homero
homeroren
homme
hommes
homo
homogeneoa
homosexualak
homosexualitatea
hona
honako
honakoa
honakoak
honda
hondakin
hondakinak
hondakinen
hondamena
hondamendi
hondamendia
hondamendiaren
hondar
hondarra
hondarrak
hondarribia
hondarribian
hondarribiko
hondartza
hondartzak
hondartzako
hondartzan
hondartzaren
hondatu
hondatuta
hondatzen
hondo
hondoa
hondoan
hondoko
hondoratu
hondoratzen
honduras
hondurasko
honegatik
honek
honekiko
honekin
honela
honelako
honelaxe
honen
honenbestez
honengatik
honetako
honetakoa
honetakoak
honetan
honetara
honetarako
honetatik
honetaz
honez
hong
honi
honolulu
honor
honore
honoris
honshu
hontan
hood
hook
hop
hope
hopkins
hopper
hor
hora
horace
horacio
horas
hordago
hori
horia
horiak
horiei
horiek
horiekin
horien
horietako
horietan
horietara
horietarako
horietatik
horietaz
horiez
horiko
horixe
horixka
horixkak
horiz
horizontal
horizontala
horizontalak
horizontalean
horizontalki
horma
hormak
horman
hormaren
hormen
hormetako
hormetan
hormigoi
hormigoizko
hormona
hormonak
horn
hornidura
hornidurak
hornikuntza
hornitu
hornitua
hornituta
hornitutako
hornitzaile
hornitzeko
hornitzen
horra
horregatik
horrek
horrekiko
horrekin
horrela
horrelako
horrelakoak
horrelakorik
horrelaxe
horren
horrenbeste
horrenbestez
horrengatik
horretako
horretakoa
horretakoak
horretan
horretara
horretarako
horretatik
horretaz
horrexegatik
horrez
horrezaz
horri
horror
horse
horta
hortan
hortaz
hortik
hortxe
hortz
hortzak
hortzetako
hospital
host
hosto
hostoak
hostoen
hot
hotel
hotela
hotelak
hotelaren
hotelean
hoteleko
hots
hotsa
hotsak
hotz
hotza
hotzak
hotzaren
hotzean
hotzetan
hour
house
houston
houten
how
howard
hoy
hoya
hozte
hozten
hoztu
hp
hr
hradec
hradis
hrc
htm
html
http
https
hu
hua
huang
huarte
hubble
hubert
hudson
huelva
huelvako
huesca
huescako
hugh
hughes
hugo
hui
human
humanista
humanitarioa
humberto
humboldt
hume
humek
humphrey
hungaria
hungariak
hungariako
hungarian
hungariar
hunt
hunter
hur
hura
hurbil
hurbila
hurbilago
hurbildu
hurbilduz
hurbilean
hurbileko
hurbilen
hurbiletik
hurbilketa
hurbiltzea
hurbiltzeko
hurbiltzen
hurling
hurren
hurrenez
hurrengo
hurrengoa
hurrengoak
hurrenkera
hurruntze
hurt
hurtado
huskako
hussein
huston
hustu
hustua
hustuak
huts
hutsa
hutsak
hutsaren
hutsean
hutsegite
hutsetik
hutsez
hutsezko
hutsik
hutsune
hutsunea
hutsuneak
hyde
hydra
hygrocybe
hygrophorus
hylidae
hyo
hyogo
hyperoliidae
hyperolius
hyphessobrycon
hypostomus
hz
i
ia
iainkoak
iakiteko
iam
ian
ianaren
ias
ib
iba
ibai
ibaia
ibaiadar
ibaiadarra
ibaiadarrak
ibaiak
ibaian
ibaiarekin
ibaiaren
ibaiek
ibaien
ibaietan
ibaiko
ibaira
ibairik
ibaitik
ibaizabal
iban
ibar
ibargoiti
ibarguren
ibarra
ibarrak
ibarran
ibarraren
ibarrean
ibarrekin
ibarreko
ibarretan
ibarretik
ibarretxe
ibarrola
ibaxako
ibe
iberdrola
iberia
iberiar
ibero
ibi
ibid
ibidem
ibil
ibilaldi
ibilaldia
ibilaldiak
ibilbide
ibilbidea
ibilbideak
ibilbidean
ibilbidearen
ibilbideari
ibilbideko
ibilgailu
ibilgailua
ibilgailuak
ibilgailuen
ibili
ibilia
ibiliko
ibilitako
ibilitakoa
ibiltari
ibiltaria
ibiltzea
ibiltzeko
ibiltzen
ibm
ibn
ibon
ibrahim
ic
ice
iceko
ich
ichu
icteridae
id
ida
idaho
idahoko
idatz
idatzi
idatzia
idatziak
idatzietan
idatziko
idatzirik
idatziriko
idatzita
idatzitako
idatzitakoa
idatziz
idatzizko
idaz
idazkari
idazkaria
idazkariak
idazkaritza
idazkera
idazketa
idazki
idazkiak
idazkietan
idazkun
idazkunak
idazkuntza
idazlan
idazlana
idazlanak
idazlanetan
idazle
idazlea
idazleak
idazlearekin
idazlearen
idazleek
idazleen
idaztea
idazteari
idazteko
idazten
ide
idea
ideal
ideala
idealak
idealen
idealismo
ideas
ideia
ideiak
ideian
ideiarekin
ideiaren
ideien
idem
identifika
identifikatu
identifikatzea
identifikatzeko
identifikatzen
identifikazio
identifikazioa
identitate
identitatea
identitatearen
identity
ideologia
ideologiko
ideologikoa
ideologikoki
idi
idiazabal
idiazabalgo
idoia
idolo
ie
iec
ieee
if
ig
iga
igande
igandea
igandean
igaro
igarobide
igarobidea
igaroko
igarota
igarotako
igarotze
igarotzea
igarotzean
igarotzeko
igarotzen
igaroz
igel
igela
igelak
igeltseroa
igeltseroak
igeri
igeriketa
igeriketan
igerilari
igerilaria
igerilariak
igerileku
igitur
iglesia
iglesias
ignacio
ignazio
igo
igoera
igoerak
igoeran
igoeraren
igogailu
igogailua
igoko
igor
igorle
igorpen
igorri
igorritako
igortzen
igotzea
igotzeko
igotzen
igoz
igurzkari
ihes
ihesa
ihesaldi
ihesean
ihesi
iheslari
iheslariak
iheslarien
ii
iii
ij
ijito
ijitoak
ijitoen
ik
ika
ikaragarri
ikaragarria
ikaragarriak
ikaragarrizko
ikas
ikasgai
ikasi
ikasia
ikasiko
ikasitako
ikasketa
ikasketak
ikasketen
ikasketetan
ikaskuntza
ikaskuntzako
ikaskuntzaren
ikasle
ikaslea
ikasleak
ikaslearen
ikasleei
ikasleek
ikasleekin
ikasleen
ikaslekin
ikastaro
ikastaroa
ikastaroak
ikaste
ikastea
ikasteko
ikasten
ikastera
ikastetxe
ikastetxea
ikastetxeak
ikastetxean
ikastetxeetan
ikastetxeko
ikastola
ikastolak
ikastolako
ikastolan
ikastolaren
ikastolen
ikasturte
ikasturtean
ikatz
ikatza
ikatzaren
iker
ikerketa
ikerketak
ikerketan
ikerketarako
ikerketaren
ikerketek
ikerketen
ikerketetan
ikerkuntza
ikerlari
ikerlaria
ikerlariak
ikerlariek
ikertu
ikertzaile
ikertzailea
ikertzaileak
ikertzaileek
ikertzea
ikertzeko
ikertzen
ikono
ikonografia
ikur
ikurra
ikurrak
ikurrin
ikurrina
ikus
ikusezina
ikusgai
ikusgarri
ikusgarria
ikusgarriak
ikusi
ikusia
ikusiko
ikusirik
ikusita
ikusitako
ikusiz
ikusizko
ikuskaritza
ikuskera
ikuskizun
ikuskizuna
ikuskizunak
ikusle
ikusleak
ikuslearen
ikusleek
ikusleen
ikusleentzako
ikusmen
ikusmena
ikusmolde
ikuspegi
ikuspegia
ikuspegiak
ikuspegitik
ikuspuntu
ikuspuntua
ikuspuntutik
ikustea
ikustean
ikusteko
ikusten
ikustera
il
ilara
ilaran
ilargi
ilargia
ilargiak
ilargian
ilargiaren
ilargiko
ilargira
ilargiratze
ildaskatua
ildo
ildoa
ildoak
ildotik
ile
ilea
ileak
ilex
illa
ille
illinois
illinoiseko
illinoisko
illustrated
iloba
ilun
iluna
ilunabarrean
ilunagoa
ilunak
ilunaren
iluneko
iluntasuna
ilusio
ilusioa
ilustratu
ilustratua
ilustratzaile
ilustratzailea
ilustratzaileak
ilustrazio
ilustrazioa
ilustrazioak
ilustrazioaren
im
image
images
imagesize
iman
imanol
imaz
imdb
imdbko
img
imin
imitatu
imitatzen
immanuel
immigrazio
immunitate
imoveko
imperial
imperio
in
ina
inaktibo
inaktiboak
inaktiboetatik
inari
inariko
inauguratu
inauguratua
inaugurazio
inaugurazioa
inauteriak
inazio
inbaditu
inbaditzaileak
inbaditzeko
inbasio
inbasioa
inbasioak
inbasioan
inbasioaren
inbertitu
inbertsio
inbertsioa
inbertsioak
inc
increment
indalecio
indar
indargabetu
indarkeria
indarkeriaren
indarkeriarik
indarra
indarrak
indarraren
indarrean
indarrek
indarren
indarrez
indarrik
indartsu
indartsua
indartsuago
indartsuagoa
indartsuagoak
indartsuak
indartsuena
indartu
indartuz
indartzea
indartzeko
indartzen
indautxu
inde
independent
independente
independentea
independenteak
independentean
independenteen
independentista
independentistak
independentzia
independentziaren
independentziari
independiente
independizatu
index
india
indiak
indiako
indian
indiana
indianako
indiar
indiara
indiaren
indiarra
indiarrak
indiarren
indibidual
indibiduala
indibidualak
indibiduo
indie
indietako
indigena
indigenak
indigenek
indigenen
indize
indizea
indizeak
indo
indoeuropar
indonesia
indonesiako
indonesian
indre
indreko
indukzio
indurain
indus
indusketa
indusketak
indusketetan
industri
industria
industriak
industriako
industrial
industriala
industrialak
industrialaren
industrialdea
industrialen
industrializazio
industrializazioa
industrializazioaren
industrian
industriaren
industriari
ine
inerbazio
inertzia
ines
infanta
infante
infantea
infanteria
infanteriako
infantil
infekzio
infekzioa
infekzioak
inferentzia
infernuko
infinitu
infinitua
inflazio
inflazioa
inflexio
influentzia
info
informacio
informatika
informatikako
informatikan
informatikaren
informatikari
informatikaria
informatikariak
informatiko
informatikoa
informatikoak
information
informazio
informazioa
informazioak
informazioaren
informaziorik
informe
infraestructuras
infragorri
infty
ingalaterra
ingalaterrak
ingalaterrako
ingalaterrakoa
ingalaterran
ingalaterrara
ingalaterraren
ingeles
ingelesa
ingelesak
ingelesaren
ingelesek
ingeleseko
ingelesen
ingelesera
ingelesetik
ingelesez
ingelesezko
ingeniari
ingeniaria
ingeniariak
ingeniariek
ingeniarien
ingeniaritza
ingeniaritzako
ingeniaritzan
ingeniaritzaren
ingle
ingrid
inguma
inguratu
inguratua
inguraturik
inguratuta
inguratutako
inguratuz
inguratzen
inguru
ingurua
inguruak
inguruan
inguruaren
inguruetako
inguruetan
ingurugiro
inguruk
inguruko
ingurukoa
ingurukoak
ingurumen
ingurumena
ingurumenaren
ingurumenean
ingurune
ingurunea
inguruneak
ingurunean
ingurunearen
inguruneetan
inguruneko
ingurura
ingurutik
inhibitzen
inka
inken
inkesta
inkisizioak
inkisizioaren
inkorporatutako
inn
inocybe
inoiz
inoizko
inola
inolako
inolaz
inon
inondik
inongo
inor
inoren
inori
inork
inozentzio
inpaktu
inpedantzia
inperial
inperiala
inperialak
inperialaren
inperialeko
inperio
inperioa
inperioak
inperioan
inperioaren
inperioari
inperioko
inplikatzen
inplikazio
inportantea
inportatu
inportatzen
inposatu
inposta
inprenta
inpresionista
inprimatu
inprimatutako
inprimatzeko
insectivora
inseen
inseeren
inside
inskripzio
inskripzioa
inskripzioak
inspektorea
inspiratu
inspiratuta
inspiratutako
inspirazio
inspirazioa
instagram
instalatu
instalazio
instalazioa
instalazioak
instalazioen
institut
institute
instituto
institutu
institutua
institutuak
institutuan
institutuaren
institutuko
instituzio
instituzioak
instituzionala
instrukzio
instrumentala
instrumentu
instrumentua
instrumentuak
int
inte
integral
integrala
integratu
integratua
integratuta
integratzea
integratzeko
integratzen
integrazio
integrazioa
intel
intelektual
intelektuala
intelektualak
intelektualaren
intelektualen
inteligentzia
intelligence
intentsitate
intentsitatea
inter
interakzio
interes
interesa
interesak
interesatu
interesatzen
intereseko
interesen
interesgarri
interesgarria
interesgarriak
interesik
interfaze
interfazea
interferentzia
interior
internacional
international
internationale
internazional
internazionala
internazionalak
internazionalaren
internet
interneteko
interneten
interpretatu
interpretatuz
interpretatzeko
interpretatzen
interpretazio
interpretazioa
interpretazioak
interprete
intertoto
interview
into
introduccio
introduction
intsektu
intsektuak
intsektuen
intsulina
intxaur
intxaurrondo
intzidentzia
inverness
investigacio
investigaciones
invisible
io
ioi
ioiak
ioien
ion
ionizazio
ios
iowa
iowako
ip
ipar
iparragirre
iparral
iparralde
iparraldea
iparraldean
iparraldearen
iparraldeko
iparraldera
iparralderago
iparralderantz
iparraldetik
iparreko
ipini
ipintzen
ipuin
ipuina
ipuinak
ipuinen
ipuingileak
ir
ira
irabazi
irabazia
irabaziak
irabazien
irabaziko
irabazita
irabazitako
irabaziz
irabazle
irabazlea
irabazleak
irabaztea
irabazteko
irabazten
iradoki
iradokitzen
iragan
iragana
iraganean
iraganeko
iragarki
iragarkia
iragarkiak
iragarpen
iragarpena
iragarri
iragartzen
iragazki
iraila
irailak
irailaren
irailean
iraileko
irailera
irailetik
irain
irak
irakasgai
irakaskuntza
irakaskuntzan
irakaskuntzaren
irakasle
irakaslea
irakasleak
irakaslearekin
irakaslearen
irakasleek
irakasleen
irakaspen
irakastea
irakasteko
irakasten
irakatsi
irakeko
iraken
irakite
irakiten
irakur
irakurgai
irakurketa
irakurle
irakurlea
irakurleak
irakurleen
irakurri
irakurtzea
irakurtzeko
irakurtzen
iran
irandar
iranen
irango
iraola
iraq
irati
iratiko
iratxe
irauli
iraultza
iraultzaile
iraultzailea
iraultzaileak
iraultzailearen
iraultzaileek
iraultzaileen
iraultzak
iraultzako
iraultzan
iraultzarekin
iraultzaren
iraun
iraungi
iraungo
iraunkor
iraunkorra
iraunkorrak
iraunkorrean
iraunkorreko
iraunkortasuna
iraupen
iraupena
irautea
irauteko
irauten
ire
ireki
irekia
irekiak
irekian
irekidura
irekiera
irekiko
irekita
irekitako
irekitzea
irekitzeko
irekitzen
irekiz
ireland
irene
irensten
irentsi
iri
iriarte
iribarren
irigarai
irigoien
irin
irina
iriondo
iris
irisgarria
irisgarritasun
irisgarritasuna
irish
irismen
iristea
iristean
iristeko
iristen
irits
iritsi
iritsiko
iritsita
iritsitako
iritsiz
iritzi
iritzia
iritziak
iritziz
irizar
irizpide
irizpidea
irizpideak
irizten
irla
irlan
irlanda
irlandako
irlandan
irlandar
irlandaren
irlandarra
irlandarrak
irlandera
irlanderaz
irlanderazko
irletako
irma
irmo
irmoa
iron
ironia
irrati
irratia
irratiak
irratian
irratiaren
irratiko
irregularra
irregularrak
irrika
irteera
irteerak
irteerako
irteeran
irten
irtenbide
irtenbidea
irtetea
irteteko
irteten
iru
irudi
irudia
irudiak
irudian
irudiarekin
irudiaren
irudiek
irudiekin
irudien
irudietan
irudika
irudikapen
irudikapena
irudikapenak
irudikatu
irudikatua
irudikatuta
irudikatutako
irudikatuz
irudikatzea
irudikatzeko
irudikatzen
irudiko
irudimen
irudimena
irudimenaren
irudirik
iruditegia
iruditu
iruditzen
irudiz
irudizko
iruindar
iruindarrak
irujo
irun
irunberri
irunberriko
irunen
irungo
irurtzun
iruzkin
iruzkinak
iruzur
iruzurra
irving
is
isa
isaac
isaak
isabel
isabella
isabelle
isats
isatsa
isbn
ise
iseka
isidoro
isidro
isila
isilik
isilpean
isilpeko
isiltasuna
isis
isla
islam
islama
islamaren
islamiar
islamikoa
islamikoak
islamikoaren
island
islandia
islandiako
islandian
islandiar
islands
islatu
islatzeko
islatzen
isle
ismael
iso
isolamendu
isolamendua
isolatu
isolatua
isolatuak
isolatuta
isolatzaile
isotopo
ispilu
israel
israeldar
israeldarren
israelek
israelen
israelgo
issn
issue
istanbul
istilu
istiluak
istiluen
istorio
istorioa
istorioak
istorioan
istorioaren
istripu
istripua
istripuak
istripuan
istripuaren
isuna
isuri
isurialde
isurialdean
isurialdeko
isurketa
isurtzen
it
ita
italia
italiak
italiako
italian
italiana
italiar
italiara
italiaren
italiarra
italiarrak
italiarraren
italiarrek
italiarren
italiatik
italiera
italieraz
italierazko
italo
italy
item
itis
ito
itoiz
itota
its
itsa
itsas
itsasadarra
itsasadarraren
itsasadarrean
itsasargia
itsasartea
itsasarteak
itsasartean
itsasartearen
itsasertzean
itsasertzeko
itsasgizon
itsasgizona
itsaslasterreko
itsaso
itsasoa
itsasoak
itsasoan
itsasoarekin
itsasoaren
itsasoari
itsasoko
itsasontzi
itsasontzia
itsasontziak
itsasontzian
itsasontziaren
itsasontziek
itsasontzien
itsasontzietan
itsasora
itsasoratu
itsasoratzen
itsasotik
itsasoz
itsaspeko
itsasten
itsatsita
itsu
itsua
itsuak
itu
itun
ituna
itunak
itunaren
itunean
iturbe
iturburu
iturburua
iturgina
iturginak
iturralde
iturri
iturria
iturriaga
iturriak
iturriaren
iturriek
iturrien
iturrietan
itxaron
itxaropen
itxaropena
itxaropenak
itxaroten
itxi
itxia
itxiak
itxiera
itxiko
itxita
itxitura
itxiz
itxura
itxurak
itxurako
itxurakoa
itxurakoak
itxuran
itxurarekin
itxuraz
itxurazko
itz
itza
itzagaondoa
itzal
itzala
itzalak
itzalean
itzali
itzalpean
itzela
itziar
itzul
itzulera
itzuleran
itzuli
itzulia
itzuliak
itzulian
itzuliko
itzulita
itzulitako
itzuliz
itzulpen
itzulpena
itzulpenak
itzulpenaren
itzulpengintza
itzultzaile
itzultzailea
itzultzaileak
itzultzea
itzultzean
itzultzeko
itzultzen
iu
iucn
iv
iva
ivan
ix
ixa
ixtea
ixteko
ixten
iz
iza
izaba
izadi
izadia
izadiaren
izaera
izaerak
izaeraren
izaerari
izaeraz
izagirre
izaki
izakia
izakiak
izakien
izan
izana
izanagatik
izanak
izanaren
izanaz
izanda
izandako
izandakoa
izandakoak
izanen
izanez
izango
izanik
izar
izarbeibar
izaro
izarra
izarrak
izarraren
izarrarteko
izarrek
izarren
izarretako
izarrik
izaskun
izate
izatea
izateagatik
izateak
izatean
izatearen
izateari
izateaz
izateko
izatekoa
izatekotan
izaten
izatera
izateraino
izatetik
izatez
izeba
izen
izena
izenak
izenarekin
izenaren
izenari
izenaz
izenburu
izenburua
izenburuak
izenburuarekin
izenburuaz
izenburuko
izenburupean
izenda
izendapen
izendapena
izendapenak
izendapenaren
izendatu
izendatua
izendatuak
izendatuko
izendaturik
izendatuta
izendatutako
izendatuz
izendatzea
izendatzeko
izendatzen
izendegia
izendun
izenean
izenek
izenekin
izeneko
izenekoa
izenekoak
izenekoan
izenen
izenetik
izenez
izengoitia
izengoitiz
izenik
izenordain
izenpean
izenpetu
izerdi
izkina
izkinan
izokin
izotz
izotza
izotzaren
izotzezko
izozte
izoztu
izoztua
izpi
izpiak
izpien
izpiritu
izpiritua
izpirituaren
izquierda
iztueta
izu
izua
izugarri
izugarria
izugarriak
izugarrizko
izurri
izurria
izurrite
izurritea
izurriteak
j
ja
jabe
jabea
jabeak
jabearen
jabeek
jabeen
jabego
jabegoa
jabetu
jabetuko
jabetza
jabetzak
jabetzako
jabetzakoa
jabetzaren
jabetzen
jabier
jacinto
jack
jackie
jackson
jacksonek
jacob
jacobs
jacqueline
jacques
jada
jadanik
jade
jae
jaguar
jai
jaia
jaiak
jaialdi
jaialdia
jaialdiak
jaialdian
jaialdiaren
jaieguna
jaiegunak
jaietako
jaietan
jaime
jainko
jainkoa
jainkoak
jainkoarekin
jainkoaren
jainkoari
jainkoei
jainkoek
jainkoen
jainkosa
jainkosak
jainkosaren
jainkotiar
jainkozko
jaio
jaioa
jaiotako
jaioterria
jaioterrian
jaioterriko
jaioterrira
jaiotza
jaiotzak
jaiotzaren
jaiotze
jaiotzean
jaiotzen
jaiotzez
jaistea
jaisteko
jaisten
jaitsi
jaitsiera
jaitsieran
jaitsiz
jaizkibel
jaka
jakako
jake
jaki
jakiak
jakin
jakina
jakinarazi
jakinarazten
jakinaren
jakinda
jakinduria
jakingo
jakinik
jakintsu
jakintsua
jakintsuak
jakintza
jakintzaren
jakitea
jakitean
jakiteko
jakiten
jakitera
jakitun
jakituna
jakob
jakue
jalisco
jam
jamaikako
jamaikar
james
jamie
jan
jana
janari
janaria
janariak
jane
janeiro
janeiroko
janeiron
janet
jangarria
jangarriak
jangarritasuna
jantzi
jantzia
jantziak
jantzien
jantzita
jantzitako
january
janzkera
janzten
japan
japonia
japoniak
japoniako
japonian
japoniar
japoniara
japoniaren
japoniarra
japoniarrak
japoniarrek
japoniarren
japonieraz
japonierazko
jar
jara
jaramonik
jardi
jardin
jarduera
jarduerak
jardueran
jardueraren
jardueren
jardueretan
jarduketa
jardun
jarduna
jardunaldi
jardunaldia
jardunaldiak
jardunaldian
jardunean
jarduneko
jardungo
jardutea
jarduteko
jarduten
jared
jariatzen
jario
jarioa
jarrai
jarraia
jarraian
jarraibide
jarraibideak
jarraiki
jarraikiz
jarraipen
jarraipena
jarraitu
jarraitua
jarraituak
jarraituko
jarraituta
jarraituz
jarraitzaile
jarraitzailea
jarraitzaileak
jarraitzaileek
jarraitzaileen
jarraitzea
jarraitzeko
jarraitzen
jarrera
jarrerak
jarreran
jarri
jarria
jarriak
jarriko
jarririk
jarrita
jarritako
jarriz
jartzea
jartzean
jartzeko
jartzen
jartzera
jasan
jasandako
jasango
jasateko
jasaten
jaso
jasoa
jasoak
jasoko
jasokundearen
jasokundeko
jason
jasota
jasotako
jasotzailea
jasotzea
jasotzeko
jasotzen
jasoz
jasper
jatea
jateko
jaten
jatetxe
jatetxea
jatetxeak
jatorri
jatorria
jatorriak
jatorrian
jatorriaren
jatorriari
jatorriko
jatorrikoa
jatorrikoak
jatorriz
jatorrizko
jatorrizkoa
jaume
jaun
jauna
jaunak
jaunaren
jaunari
jaunen
jaungoikoaren
jauntxo
jauregi
jauregia
jauregiak
jauregian
jauregiaren
jauregiko
jauregira
jaurerri
jaurerria
jaurlaritza
jaurlaritzak
jaurlaritzako
jaurlaritzaren
jaurti
jaurtiketa
jaurtiketak
jaurtiketan
jaurtitako
jaurtitzeko
jaurtitzen
jausi
jausten
jauzi
jauzia
jauziak
jauzian
java
javako
javascript
javi
javier
jay
jazarpen
jazarpena
jazarpenaren
jazarri
jazo
jazotako
jazotzen
jazz
je
jean
jeanne
jeannel
jedi
jef
jeff
jefferson
jeffrey
jeisten
jeitsi
jeitsiera
jelena
jelkideak
jeltzalea
jeltzaleak
jendarmeria
jendaurrean
jendaurreko
jende
jendea
jendeak
jendearekin
jendearen
jendearentzat
jendeari
jendetsuena
jendetza
jendez
jeneral
jenerala
jeneralak
jeneralaren
jenkins
jennifer
jenny
jens
jeremy
jerez
jero
jerome
jeronimo
jerry
jersey
jerseyko
jerusalem
jerusalemen
jerusalemgo
jesse
jessica
jessie
jesu
jesuita
jesuitak
jesuiten
jesukristoren
jesus
jesusek
jesusen
jet
jeune
ji
jic
jihlavako
jill
jim
jime
jimenez
jimeno
jimmy
jin
jindr
jo
joa
joachim
joakin
joan
joana
joanak
joanda
joandako
joanen
joanes
joanez
joango
joanna
joaqui
joaquim
joaquin
joatea
joateko
joaten
job
joe
joel
joera
joerak
joey
johan
johann
johannes
johansson
john
johnny
johns
johnson
johnsonen
johnston
joka
jokabide
jokabidea
jokabideak
jokaera
jokalari
jokalaria
jokalariak
jokalariaren
jokalariek
jokalarien
jokalaririk
jokalekua
jokatu
jokatuak
jokatuko
jokaturiko
jokatutako
jokatuz
jokatzea
jokatzeko
jokatzen
jokatzera
jokin
joko
jokoa
jokoak
jokoan
jokoaren
jokoen
jokoetako
jokoetan
jokoetarako
jokotan
joku
jolas
jolasa
jolasak
jolasean
jolasteko
jolasten
jolastu
jole
jolea
jomuga
jon
jonas
jonathan
jone
jones
joniar
jordan
jordaniako
jordi
jorge
jorratu
jorratzen
jose
joseba
josef
josefa
josefina
josep
joseph
josephine
josetxo
josh
joshua
josi
josita
jositako
jostailu
jostailuak
josten
jostun
jostuna
josu
jota
jotako
jotzaile
jotzailea
jotzaileak
jotzea
jotzeko
jotzen
joule
jour
journal
journey
jours
joven
joviceko
joxe
joxean
joy
joyce
joz
jpeg
jpg
jr
ju
jua
juan
juana
juanen
juanjo
juaristi
judith
judizial
judiziala
judizialak
judizialaren
judizio
judu
judua
juduak
juduek
juduen
judutar
judy
juego
jugoslavia
jugoslaviako
jugoslaviar
jul
julen
jules
julia
julian
juliana
julie
julien
julieta
juliette
julio
julius
july
jump
jun
june
jung
jungle
junio
junior
juno
junta
juntaren
jupiter
jupiterren
jura
jurako
jurgi
juri
juridiko
juridikoa
juridikoak
juridikoaren
jurio
jurisdikzio
juss
just
justice
justicia
justifikatu
justifikatzeko
justifikatzen
justify
justin
justiniano
justizia
justiziaren
justo
justu
juventud
juventus
k
ka
kaba
kabina
kable
kableak
kabuz
kae
kafe
kafea
kafetegi
kafetegia
kai
kaia
kaiak
kaian
kaiko
kaiku
kaio
kairo
kairoko
kaiser
kaixo
kakalardo
kakao
kakaoa
kako
kale
kalea
kaleak
kalean
kalearen
kaledonia
kaleen
kaleetan
kaleko
kalera
kaleratu
kaleratua
kaleratutako
kaleratzen
kaletik
kalifa
kalifikazio
kalifikazioa
kalifornia
kaliforniako
kalifornian
kaliforniarrak
kaligrafia
kalitate
kalitatea
kalitatearen
kalitatezko
kaliza
kalkula
kalkulagailu
kalkulatu
kalkulatzea
kalkulatzeko
kalkulatzen
kalkulu
kalkulua
kalkuluak
kalkuluen
kaloria
kalte
kaltea
kalteak
kaltegarri
kaltegarria
kaltegarriak
kalterik
kaltetan
kaltetu
kaltetua
kaltetuak
kaltetuta
kaltetutako
kaltetzen
kaltzio
kaltzioa
kaltziodun
kamara
kamera
kamerak
kamerun
kamerungo
kamioi
kamiseta
kampong
kan
kanabera
kanada
kanadako
kanadan
kanadar
kanadarra
kanagawa
kanal
kanala
kanalak
kanalaren
kanalean
kanalen
kanaria
kanariar
kanarietako
kanbio
kanbo
kanbodiako
kandela
kane
kanoi
kanoiak
kanon
kanpai
kanpaiak
kanpaina
kanpainak
kanpainan
kanpainaren
kanpainetan
kanpandorrea
kanpo
kanpoal
kanpoaldea
kanpoaldean
kanpoaldeko
kanpoaldera
kanpoaldetik
kanpoan
kanpoko
kanpokoa
kanpokoak
kanpora
kanporaketa
kanporantz
kanporatu
kanporatua
kanporatuak
kanporatzea
kanporatzeko
kanporatzen
kanpotik
kansas
kansasko
kant
kanta
kantabria
kantabriako
kantabrian
kantabriar
kantak
kantaren
kantari
kantaria
kantariak
kantatu
kantatzeko
kantatzen
kantauri
kantauriar
kantauriko
kantautore
kantautorea
kantautoreak
kantek
kanten
kantitate
kantitatea
kantitateak
kantitatearen
kantonamendu
kantonamendua
kantonamenduak
kantonamenduan
kantonamenduko
kantu
kantua
kantuak
kantuan
kantuaren
kantuen
kantuz
kantziler
kantzilerra
kaos
kap
kapa
kapela
kapelaren
kapera
kaperak
kaperako
kaperan
kaperaren
kapitain
kapitaina
kapitainak
kapitainaren
kapital
kapitala
kapitalaren
kapitalismo
kapitalismoa
kapitalismoaren
kapitalista
kapitalistaren
kapitel
kapitelak
kapiteletan
kapitulu
kapitulua
kapituluak
kapituluan
kapsula
kar
kara
karabana
karaktere
karaktereak
karate
karbonato
karbonatoak
karbonatodun
karbono
karbonoa
karbonoaren
kardinal
kardinala
kardinalak
kardinalaren
kare
kareharri
kareharria
kareharrizko
karel
karen
karga
kargak
kargaren
kargatu
kargatutako
kargatzeko
kargatzen
kargu
kargua
karguak
karguan
karguen
kargutik
karibe
karibeko
karikatura
karl
karlista
karlistak
karlistaldia
karlistaldian
karlistaldiko
karlistek
karlisten
karlomagno
karlomagnoren
karlos
karlosek
karmel
karmele
karmelo
karmen
karolingiar
karpatoetako
karrantza
karraskarien
karratu
karratua
karratuak
karratuaren
karratuko
karrera
karrerako
karreran
karreraren
karrika
karta
kartago
kartagok
kartagoko
kartagoren
kartagotar
kartagotarrak
kartagotarrek
kartagotarren
kartak
kartel
kartela
kartelak
kartelaren
kartografia
kartzela
kartzelan
kartzelara
kartzelatik
kas
kasa
kaserna
kashima
kasko
kaskoa
kaspiar
kasta
kasu
kasua
kasuak
kasualitatez
kasuan
kasuaren
kasuen
kasuetan
kasuko
kasurako
kasurik
kasutan
katalan
katalana
katalanak
katalanaren
katalanez
katalanezko
katalina
katalizatzaile
katalogo
katalogoa
katalogoan
katalunia
kataluniako
katalunian
kataluniar
kataluniaren
kataluniarra
katamotz
katamotza
kate
katea
kateak
katean
katearen
katedra
katedradun
katedraduna
katedral
katedrala
katedralak
katedralaren
katedralean
katedraleko
kateen
kateetan
kategoria
kategoriak
kategoriako
kategorian
kategoriatan
kategorien
kategorietan
kateko
katharine
katherine
kathleen
katie
katilu
katoliko
katolikoa
katolikoak
katolikoan
katolikoaren
katolikoek
katolikoen
katolikoko
katolizismoa
katu
katua
katuak
katuek
katuen
kaukaso
kaukasoko
kausa
kausak
kausaren
kawasaki
kaxa
kay
kazakhstan
kazakhstango
kazeta
kazetari
kazetaria
kazetariak
kazetariaren
kazetariek
kazetarien
kazetaritza
kazetaritzan
kb
ke
kea
keen
keinu
keinua
keinuak
keith
keko
keller
kelly
kelvin
kemi
kemija
kemiko
ken
kendall
kendu
kenduko
kenduta
kenduz
kenketa
kennedy
kenneth
kenny
kent
kentucky
kentuckyko
kentzea
kentzeko
kentzen
kenya
kenyako
kepa
kepler
kera
kern
kerr
kerry
keta
ketak
kevin
kexu
key
kezka
kezkak
kezkatuta
kezkatzen
kg
khan
khmer
ki
kia
kibolta
kid
kide
kidea
kideak
kideei
kideek
kideekin
kideen
kideetako
kidek
kids
kien
kiev
kieveko
kieven
kike
kikun
kill
kilo
kilogramo
kiloko
kilometro
kilometroak
kilometroan
kilometroko
kilometrokoa
kilometrora
kilometrotako
kilometrotan
kilometrotara
kim
kimika
kimikako
kimikan
kimikaren
kimikari
kimikaria
kimikariak
kimiko
kimikoa
kimikoak
kimikoaren
kimikoen
kimikoki
kin
kind
king
kingdom
kingen
kings
kinka
kintana
kio
kion
kirby
kiribil
kirk
kirol
kirola
kirolak
kirolaren
kirolari
kirolaria
kirolariak
kirolariek
kiroldegia
kiroldegian
kirolean
kirolen
kiroletan
kirurgia
kiss
kit
kitek
kittila
kitu
kituriko
kitxua
kj
klan
klanaren
klara
klase
klasea
klaseak
klasean
klasearen
klaseen
klaseko
klasika
klasiko
klasikoa
klasikoak
klasikoan
klasikoaren
klasikoen
klasikoetan
klasikoko
klaudio
klaus
klaustro
klaustroa
klaustroko
klausula
klein
klemente
kleopatra
klima
klimak
klimaren
klinika
klinikoa
klinikoak
klon
kloro
klorodun
kloruro
kloruroa
klub
kluba
klubak
klubarekin
klubaren
klubean
klubeko
kluben
klubetan
km
knight
kno
know
knowledge
knox
ko
koa
koadro
koadroa
koadroak
koadroko
koadrotan
koak
koako
koalizio
koalizioa
koalizioak
koalizioan
koalizioaren
koalizioko
koan
koba
kobazulo
kobazuloa
kobazuloak
kobazuloan
kobazuloaren
kobazuloetan
kobe
kobratzen
kobre
kobrea
kobredun
kobrezko
koch
kode
kodea
kodeak
kodean
kodearen
kodetzen
koefiziente
koefizientea
koefizienteak
koen
koena
kofradia
kofu
kognitibo
kognitiboa
kognitiboak
koherentzia
koilara
koipe
koka
kokagune
kokaina
kokaleku
kokalekua
kokalekuak
kokapen
kokapena
kokapenak
kokapenaren
kokatu
kokatua
kokatuak
kokatuko
kokaturik
kokaturiko
kokatuta
kokatutako
kokatutakoa
kokatuz
kokatzea
kokatzeko
kokatzen
koko
kola
kolaboratu
kolaboratzaile
kolaboratzailea
kolaboratzen
kolaborazio
kolaborazioak
kolapsoa
koldo
kolegio
kolektibo
kolektiboa
kolektiboak
kolektiboaren
kolera
kolibriak
kolokan
kolon
kolonbia
kolonbiako
kolonbian
kolonbiar
kolonek
kolonela
kolonia
koloniak
koloniako
kolonial
koloniala
kolonialak
kolonialismoaren
kolonian
koloniaren
kolonien
kolonietako
kolonietan
kolonizatu
kolonizazio
kolonizazioa
kolonizazioaren
kolono
kolonoak
kolonoek
kolonoen
kolore
kolorea
koloreak
kolorearen
koloreen
koloreko
kolorekoa
kolorekoak
koloretako
kolorez
kolorezko
kolpatu
kolpe
kolpea
kolpeak
kolpearen
koma
komandante
komandantea
komandanteak
komando
komedia
komeni
komenigarria
komentu
komentua
komentuan
komentuko
komertzial
komertziala
komertzialak
komertzialetatik
komertzioetatik
kometa
kometak
kometaren
kometen
komiki
komikia
komikiak
komikietan
komikigilea
komikigileak
komiko
komikoa
komisario
komisarioa
komite
komitea
komiteak
komitearen
komiteko
komun
komuna
komunak
komunaren
komunean
komunen
komunikabide
komunikabideak
komunikabideek
komunikabideen
komunikabideetan
komunikatu
komunikatzeko
komunikatzen
komunikazio
komunikazioa
komunikazioak
komunikazioan
komunikazioaren
komunikaziorako
komunismoa
komunismoaren
komunista
komunistak
komunistako
komunistan
komunistaren
komunistek
komunisten
komunitate
komunitatea
komunitateak
komunitatean
komunitatearen
komunitateen
komunitateko
kon
konbentzio
konbentzioa
konbentzioak
konbentzioaren
konbentzitu
konbentzitzen
konbergentzia
konbinatu
konbinatua
konbinatuta
konbinatuz
konbinatzen
konbinazio
konbinazioa
konbinazioak
kondaira
kondairak
kondairaren
konde
kondea
kondeak
kondearen
kondeen
kondena
kondenatu
kondenatua
kondenatuak
konderri
konderria
konderriak
konderrian
konderriaren
konderrietako
konderriko
kondesa
konekta
konektatu
konektatuta
konektatzeko
konektatzen
konexio
konexioa
konexioak
konfederazio
konfederazioa
konfederazioaren
konferentzia
konferentziak
konferentziako
konferentzian
konfiantza
konfiantzazko
konfigurazio
konfigurazioa
konfiskatu
kong
kongeko
kongelatu
kongen
kongo
kongoko
kongresu
kongresua
kongresuak
kongresuan
kongresuaren
kongresuko
konikoa
konkista
konkistak
konkistan
konkistaren
konkistatu
konkistatzaile
konkistatzailea
konkistatzea
konkistatzeko
konkistatzen
konkretu
konkretuki
kono
konpainia
konpainiak
konpainiako
konpainian
konpainiarekin
konpainiaren
konpainiari
konpainiek
konparaketa
konparatu
konparatuta
konparatuz
konparatzen
konparazio
konpartsa
konpentsazio
konpetentzia
konplexu
konplexua
konplexuagoa
konplexuagoak
konplexuak
konplexuaren
konplexuen
konplexutasun
konplexutasuna
konpon
konponbide
konponbidea
konpondu
konponketa
konpontze
konpontzea
konpontzeko
konpontzen
konposaketa
konposatu
konposatua
konposatuak
konposatutako
konposatzaile
konposatzailea
konposatzen
konpositore
konpositorea
konposizio
konposizioa
konposizioak
konposizioaren
konpresio
konpromiso
konpromisoa
konpromisoak
konputagailu
konputagailuen
konputazio
konputazionala
konrad
konspirazio
konstante
konstantea
konstanteak
konstantin
konstantino
konstantinopla
konstantinoplako
konstelazio
konstelazioa
konstelazioan
konstelazioko
konstituzio
konstituzioa
konstituzioak
konstituzioan
konstituzioaren
konstituzionala
konstituzionalak
konta
kontabilitate
kontaketa
kontakizun
kontakizuna
kontakizunak
kontaktu
kontaktua
kontaktuak
kontaktuan
kontalari
kontalaria
kontatu
kontatzeko
kontatzen
kontinental
kontinentala
kontinentalak
kontinentalaren
kontinente
kontinentea
kontinentean
kontinentearen
kontinenteen
kontinenteko
kontra
kontraeraso
kontraerasoa
kontraesan
kontraesanak
kontrajarriak
kontrajartzen
kontrako
kontrakoa
kontrakoak
kontraste
kontrastea
kontrastean
kontratatu
kontratatzen
kontratu
kontratua
kontratuak
kontratuaren
kontrol
kontrola
kontrolak
kontrolaren
kontrolatu
kontrolatutako
kontrolatzea
kontrolatzeko
kontrolatzen
kontrolerako
kontrolik
kontrolpean
kontseilari
kontseilaria
kontseilu
kontseilua
kontseiluak
kontseiluan
kontseiluaren
kontseiluko
kontserbadore
kontserbadorea
kontserbadoreak
kontserbadoreen
kontserbatorioan
kontserbatu
kontserbatzeko
kontserbatzen
kontserbazio
kontserbazioa
kontserbazioaren
kontsidera
kontsideratu
kontsideratzen
kontsola
kontsonante
kontsonanteak
kontsul
kontsula
kontsulak
kontsulta
kontsultatu
kontsultatua
kontsultaturik
kontsultatuta
kontsumitu
kontsumitzaile
kontsumitzaileak
kontsumitzaileek
kontsumitzaileen
kontsumitzeko
kontsumitzen
kontsumo
kontsumoa
kontsumoak
kontsumoaren
kontsumorako
kontu
kontua
kontuak
kontuan
kontuen
kontuetan
kontura
konturatu
konturatzen
kontutan
kontuz
kontxako
kontxan
kontzeju
kontzejua
kontzejuak
kontzejuan
kontzejuburuak
kontzentratu
kontzentratzen
kontzentrazio
kontzentrazioa
kontzentrazioak
kontzeptu
kontzeptua
kontzeptuak
kontzeptuaren
kontzeptuen
kontzepzio
kontzertu
kontzertua
kontzertuak
kontzertuan
kontzertuetan
kontziente
kontzientzia
kontzientziaren
kontzilio
kontzilioa
kontzilioan
kooperatiba
kooperatibak
kooperatiben
koord
koordenatu
koordenatuak
koordinatu
koordinatzaile
koordinatzailea
koordinatzen
koordinazio
koordinazioa
kopa
kopak
kopako
kopan
koparen
kopenhage
kopenhageko
kopia
kopiak
kopiatu
kopla
kopuru
kopurua
kopuruak
kopuruan
kopuruaren
kopuruari
kopururik
koral
koralezko
korapilo
kordoba
kordobako
kordoi
korea
koreako
korean
korear
korearen
koreografia
koreografo
koreografoa
kornelio
kornualles
kornuallesko
koro
koroa
koroak
koroaren
koroari
koroatu
koroatua
koronel
koronela
koronelak
koronelaren
korporazio
korrelazio
korrespondentzia
korridore
korridorea
korrika
korrikalari
korronte
korrontea
korronteak
korrontearen
korronteen
korsika
korsikako
korta
kortazar
kortex
koru
korua
koruak
koruko
kos
kosmologia
kosmonauta
kosovo
kosovoko
kosta
kostako
kostalde
kostaldea
kostaldeak
kostaldean
kostaldearen
kostaldeko
kostaldera
kostaldetik
kostan
kostatik
kostatu
kostu
kostua
kostuak
kota
kotoi
kotoia
kotxe
kov
kra
krater
kraterra
kraterrak
kreditu
kredituetan
krediturik
krema
kretazeo
kretazeoan
kretazeoko
krimea
krimeako
krimen
krimena
krimenak
kriminal
kriminala
kriminalak
kripta
kriptografia
krisi
krisia
krisiak
krisialdi
krisialdia
krisian
krisiaren
kristal
kristalak
kristalezko
kristalinoa
kristau
kristaua
kristauak
kristauaren
kristauek
kristauen
kristautasun
kristautasuna
kristautasunak
kristautasunaren
kristautasunean
kristautasunera
kristen
kristian
kristiau
kristina
kristo
kristobal
kristoren
kritika
kritikak
kritikaren
kritikari
kritikaria
kritikariak
kritikariek
kritikarien
kritikatu
kritikatua
kritikatzen
kritiko
kritikoa
kritikoak
kritikoaren
kritikoek
kroazia
kroaziako
kroazian
kroaziar
kromo
kromosoma
kromosomak
kronika
kronikak
kronikoa
kronologia
kronologikoki
kros
krustazeo
kruz
ku
kuadrilla
kuak
kuantiko
kuantikoa
kuantikoaren
kuartel
kuartzo
kuba
kubako
kuban
kubara
kubatar
kubiko
kubikoak
kubo
kudeaketa
kudeaketan
kudeaketaren
kudeatu
kudeatutako
kudeatzaile
kudeatzailea
kudeatzeko
kudeatzen
kuiper
kujavia
kultu
kultua
kultur
kultura
kulturak
kulturako
kultural
kulturala
kulturalak
kulturalaren
kulturalen
kulturalki
kulturan
kulturarekin
kulturaren
kulturari
kulturen
kulturetan
kultuzko
kuluerdi
kumamoto
kume
kumeak
kumulu
kumuluak
kun
kuota
kupula
kurba
kurbadura
kurbak
kurbaren
kurduen
kuroshio
kursaal
kurt
kutsadura
kutsaduraren
kutsatu
kutsatuta
kutsatutako
kutsatzen
kutsu
kutsua
kutxa
kutxak
kutxaren
kv
ky
kyle
kyo
kyoto
l
la
lab
laba
labaien
labana
labar
labayru
labe
labea
labean
labeo
laboa
labor
laboral
laborantza
laborari
laborategi
laborategia
laborategian
laborategietan
laborategiko
labore
laboreak
laborearen
laborista
labrador
labridae
labrisomidae
labur
laburbilduz
laburbiltzen
laburdura
laburki
laburmetraia
laburpen
laburpena
laburra
laburragoa
laburragoak
laburrak
laburrean
laburreko
laburren
laburretan
laburretarako
laburrez
laburtu
laburtua
laburtzen
lac
lacertidae
lactarius
ladies
ladislao
lado
lady
lafayette
lafitte
laga
lagako
lagata
lagin
lagina
laginak
laginketa
lago
lagos
lagun
laguna
lagunak
lagunarekin
lagunaren
lagunarteko
lagundu
lagunduko
lagundurik
lagunduta
lagundutako
lagunduz
lagunei
lagunek
lagunekin
laguneko
lagunen
lagunentzako
lagungarri
lagungarria
lagungarriak
lagunik
laguntza
laguntzaile
laguntzailea
laguntzaileak
laguntzak
laguntzarekin
laguntzaren
laguntzari
laguntzarik
laguntzaz
laguntzea
laguntzeko
laguntzen
laguntzera
laia
laino
lainoa
laister
laka
lake
laku
lakua
lakuak
lakuaren
lakuko
lama
lambda
lambert
lamina
lamprophiidae
lan
lana
lanabesak
lanagatik
lanak
lanaldi
lanarekin
lanaren
lanarengatik
lanari
lanarkshire
lanaz
lanbide
lanbidea
lanbideak
lanbidez
lancaster
lance
land
landa
landak
landaketa
landako
landare
landarea
landareak
landarearen
landaredi
landaredia
landareek
landareen
landareetan
landaretza
landatu
landatzeko
landatzen
lander
landes
landetako
landu
landua
landuak
landuko
landutako
landuz
lane
lanean
lanei
lanek
lanekin
laneko
lanen
lanengatik
lanera
lanerako
lanetako
lanetan
lanetarako
lanetatik
lanetik
lanez
lang
langa
langabezia
langabezian
lange
langile
langilea
langileak
langilearen
langileei
langileek
langileen
langilek
language
languages
langue
languedoc
lanik
lankako
lanketa
lankide
lankidea
lankidetza
lankidetzan
lankidetzaren
lanpara
lanpostu
lanpostua
lantegi
lantegia
lantegiak
lantegian
lantegiaren
lantegietan
lantegiko
lantokia
lantokiak
lantza
lantzea
lantzeko
lantzen
lapin
laponiako
lappi
lappiko
lapur
lapurdi
lapurdiko
lapurdin
lapurra
lapurrak
lapurreta
lapurtar
lapurtu
lapurtzen
lara
laranja
larba
larbak
large
largo
laridae
larralde
larramendi
larran
larre
larrea
larreak
larri
larria
larriak
larrialdi
larrian
larriena
larriki
larrinaga
larritasun
larritasuna
larru
larrua
larruak
larruazala
larruazalaren
larruazalean
larruazaleko
larruzko
larry
lars
larunbat
larunbata
larunbatean
larunbatetan
las
lasa
lasai
lasaia
lasaitasun
lasaitasuna
lasarte
laser
last
laster
lasterka
lasterkariak
lasterketa
lasterketak
lasterketako
lasterketan
lasterketaren
lasterketetan
late
latex
latin
latina
latindar
latindarra
latinetik
latinez
latinezko
latino
latinoamerika
latinoamerikako
latinoamerikan
latitude
latitudea
latz
latza
latzak
lau
laua
lauak
lauaxeta
laudio
laudioko
laugarren
laugarrena
lauki
laukizuzen
laukizuzena
lauko
laura
laurak
laurden
laurdena
laurdenak
laurdenean
laurdenetan
laurehun
laurel
lauren
laurence
laurent
laurie
laurogei
laurogeita
lautada
lautadak
lautadako
lautadan
lava
laval
law
lawrence
layer
lazio
lazkano
lazkao
lazkaoko
lcd
ldots
le
lea
league
leagueko
leal
leandro
learning
leavenworthek
leb
lebiasinidae
led
lee
left
legacy
legal
legala
legalak
legamia
legazpi
lege
legea
legeak
legealdian
legean
legearen
legeari
legebiltzarkide
legebiltzarkidea
legebiltzarkideak
legebiltzarra
legebiltzarrak
legebiltzarraren
legebiltzarrean
legebiltzarreko
legebiltzarrerako
legedia
legeek
legeen
legeetan
legegile
legegilea
legegintza
legegintzaldia
legegintzaldian
legegizona
legelari
legelaria
legelariak
legend
legenda
legendarium
legends
legeria
legez
legezko
legezkoa
legeztatu
legio
legioa
legioak
legioaren
legioko
lego
legoke
legrand
lehen
lehena
lehenago
lehenagoko
lehenagokoa
lehenagotik
lehenak
lehenaren
lehenbailehen
lehenbizi
lehenbiziko
lehenbizikoa
lehenbizikoz
lehendabizi
lehendabiziko
lehendabizikoa
lehendabizikoz
lehendakari
lehendakaria
lehendakariak
lehendakariaren
lehendakariorde
lehendakariordea
lehendakaritza
lehendakaritzarako
lehendik
lehenen
lehenengo
lehenengoa
lehenengoak
lehenengoan
lehenengoaren
lehenengoz
lehenesten
lehengai
lehengaiak
lehengaien
lehengo
lehengusina
lehengusu
lehengusua
lehenik
lehentasun
lehentasuna
lehentasunak
lehentasunezko
lehentxeago
lehergailu
leherketa
leherketak
lehertu
lehia
lehiaketa
lehiaketak
lehiaketako
lehiaketan
lehiaketaren
lehiaketetan
lehiakide
lehiakideak
lehiakortasuna
lehian
lehiatu
lehiatzeko
lehiatzen
lehoi
lehoia
lehoiak
lehor
lehorra
lehorrak
lehorrean
lehorreko
lehorreratu
lehorretan
lehorte
lehortu
lehortzen
lei
leial
leiala
leialtasun
leialtasuna
leibniz
leiden
leigh
leiho
leihoa
leihoak
leintz
leinu
leinua
leinuak
leinuaren
leinuen
leinuko
leioa
leioako
leiothrichidae
leipzig
leire
leireko
leitza
leizaola
leize
leizea
leizeak
leizean
lekeitio
lekeitioko
lekeition
leku
lekua
lekuak
lekualdatu
lekuan
lekuaren
lekuetan
lekuko
lekukoa
lekukoak
lekukotasuna
lekunberri
lekuona
lekura
lekurik
lekutan
lekutik
lekuz
lelo
leloa
lema
len
lena
lengoaia
lengoaiak
lengoaian
lengoaiaren
lengua
lenin
leninek
leninen
lennon
lente
lentikular
lentikularrak
leo
leon
leona
leonako
leonard
leonardo
leonen
leongo
leonid
leonor
leopold
leopoldo
leotz
lepo
lepoa
lepoan
lepoaren
lepoko
lepora
leporatu
leporatuta
leporatzen
leporinus
lepotik
leptodactylidae
leptotyphlopidae
leq
lera
leringo
lerista
leroi
lerrakuntza
lerratu
lerro
lerroa
lerroak
lerroan
lerroaren
lerroen
lerroetan
lerrokatu
lerrokatuta
lerroko
lerrotik
lertxundi
les
lesaka
lesakako
lesbiana
lesio
lesioa
lesioak
leslie
lester
let
lete
letonia
letoniako
letoniar
letra
letrak
letras
letren
letretako
letretan
letter
letters
lettres
leuciscinae
leun
leuna
leunak
lev
levante
levi
levy
lewis
lex
lexiko
lexikoa
lexus
ley
leyenda
lez
lezake
lezama
lezo
lezoko
lgbt
li
lia
liam
lib
libano
libanoko
libe
liber
libera
liberal
liberala
liberalak
liberalaren
liberalek
liberalen
liberalismo
liberalismoa
liberia
liberiako
libertad
libertarioa
liberte
liberty
libia
libiako
libk
libra
library
libratu
libre
librea
libreak
librean
librearen
libreki
libreko
libres
libretoa
libri
libro
libros
liburu
liburua
liburuak
liburuan
liburuarekin
liburuaren
liburuari
liburuek
liburuen
liburuetako
liburuetan
liburuki
liburukia
liburukitan
liburuko
libururik
liburutan
liburutegi
liburutegia
liburutegiak
liburutegian
liburutegiaren
liburutegien
liburutegiko
liburutik
liburuxka
lica
lider
lidergoa
liderra
liderrak
lidia
lie
lieja
lienhardt
life
liga
ligak
ligako
ligan
ligara
ligarako
ligaren
light
lightgrey
ligne
liguria
likatsua
like
likido
likidoa
likidoak
likidoan
likidoaren
lili
lille
lily
lim
lima
limako
liman
limerick
limite
limited
limoi
lin
lina
linares
lincoln
linda
lindsay
line
linea
lineak
lineako
lineal
lineala
linealak
linean
linearekin
linearen
lineek
lineen
lineok
lines
linfa
linfozitoak
ling
lingu
lingua
linguae
linguistics
linguistiko
linguistikoa
link
linn
linnaeus
linux
lioke
liolaemidae
liolaemus
lion
lionel
lions
liparidae
lipido
lipotyphla
lira
lirateke
liratekeen
lirika
liriko
lirikoa
lisa
lisboa
lisboako
lisboan
lise
lisis
liskar
liskarra
liskarrak
list
lista
listu
lit
liteke
litekeen
litekeena
literalki
literaria
literario
literarioa
literarioak
literary
literatur
literatura
literaturak
literaturako
literaturan
literaturaren
literaturari
literature
litezke
litezkeen
litoria
litosfera
litro
litte
little
lituania
lituaniako
lituaniar
liturgia
lituzke
lituzkeen
lituzkete
litzake
litzateke
litzatekeela
litzatekeen
litzatekeena
liu
live
liverpool
lives
living
livingston
livre
lix
lizardi
lizarra
lizarraga
lizarrako
lizarralde
lizarran
lizentzia
lizentziaduna
lizentziak
lizentziapean
lizentziatu
lizentziatua
lizentziatura
lizeo
lizeoa
lizeoabigarren
lizeoetan
lizoainibar
ljubljana
ll
lla
llano
llanos
llave
lleida
lleidako
ller
llobregat
llorente
lloyd
llui
ln
lo
loa
lobo
lobulu
local
loch
locke
loco
lodi
lodia
lodiagoa
lodiak
lodiera
lodiko
lodzeko
log
logan
logela
logement
logements
loggia
logia
logika
logikaren
logiko
logikoa
logikoak
logo
logoa
logos
logotipoa
logron
lohizune
lohizuneko
lohizunen
loi
loiola
loiolako
loir
loira
loirako
loire
loirerria
loiret
loireteko
loirreko
lois
lokal
lokala
lokalak
lokalean
lokarri
loki
lola
lombardia
lombardiako
london
londres
londreseko
londresen
londresera
londresko
londrestarrak
long
longida
longrightarrow
look
looking
lope
lopez
lor
loraldia
lorategi
lorategia
lorategiak
lorategian
lorategietan
loratu
loratzen
lorca
lord
lore
lorea
loreak
loreen
loren
lorena
lorentzo
lorenzo
loricariidae
lorpen
lorpenak
lortu
lortua
lortuko
lorturiko
lortuta
lortutako
lortuz
lortzea
lortzeko
lortzen
los
losada
lost
lot
lotailu
lotan
loteko
lotsa
lotu
lotua
lotuak
lotuko
lotunea
lotura
loturak
loturaren
loturarik
loturen
loturik
loturiko
lotus
lotuta
lotutako
lotutakoak
lotuz
lotzea
lotzeko
lotzen
lou
louis
louise
louisiana
louisianaeko
louisianako
loup
lourdes
louvre
love
low
lower
loyola
loza
lozano
loze
lp
ls
lt
ltd
ltima
ltimo
lu
lubaki
luberri
lublingo
luc
luca
lucas
luce
lucha
luci
lucia
luciano
lucien
lucio
lucky
lucy
ludwig
lugar
lugo
lugoko
luhansk
luhanskeko
lui
luigi
luis
luisa
luisen
lujanbio
lukas
luke
lukeela
lukeen
lukeena
lukete
luketen
luma
lumak
lumen
lumie
luna
lupus
lur
lurjabe
lurmutur
lurmuturra
lurmuturraren
lurmuturreko
lurpean
lurpeko
lurperatu
lurperatua
lurperatuta
lurperatutakoak
lurra
lurrak
lurralde
lurraldea
lurraldeak
lurraldean
lurraldearen
lurraldeari
lurraldeen
lurraldeetako
lurraldeetan
lurraldeetara
lurraldeko
lurraldera
lurraldetan
lurraldetik
lurrarekin
lurraren
lurrari
lurrazal
lurrazala
lurrazalaren
lurrazalean
lurrazaleko
lurrazpiko
lurrean
lurreko
lurren
lurrera
lurreratu
lurretan
lurretatik
lurretik
lurrez
lurrik
lurrikara
lurrikarak
lurrikararen
lurrin
lurrun
lurruna
lurrunezko
lursail
lursailak
lursailetan
lurzoru
lurzorua
lurzoruan
lurzoruaren
luther
lutjanidae
lutxana
luxenburgo
luxenburgoko
luxuzko
luz
luza
luzaide
luzapen
luzapena
luzapenak
luzaro
luzaroan
luzatu
luzatuko
luzatuz
luzatzea
luzatzeko
luzatzen
luze
luzea
luzeago
luzeagoa
luzeagoak
luzeak
luzean
luzearen
luzeen
luzeena
luzeera
luzeetan
luzeetarako
luzeko
luzera
luzerak
luzerako
luzeran
luzerarekin
luzeraren
luzetarako
luzez
luzia
luziano
luzio
lvarez
lvaro
ly
lycosa
lydia
lyga
lymantria
lynch
lynn
lynx
lyon
lyongo
m
ma
mabuyinae
mac
macdonald
machado
machine
mack
mackenzie
macmillan
macropodidae
macrouridae
mad
madagaskarreko
madalena
madame
madariaga
maddalen
maddi
made
madeleine
madison
madonna
madre
madrid
madrideko
madril
madrila
madrildar
madrildarrak
madrildik
madrilek
madrileko
madrilen
madrilera
madrilgo
mae
maestro
maeztu
mafia
magalean
magallaes
magazine
magdalena
maggie
magia
magic
magiko
magikoa
magikoak
magis
magistratu
magma
magna
magnesio
magnesioa
magnesiodun
magnetiko
magnetikoa
magnetikoak
magnetikoaren
magnitude
magnitudea
magnitudeko
magnus
mago
mahai
mahaia
mahaiak
mahastiak
mahats
mahatsa
mahoma
mahomaren
mai
maia
maialen
maiatz
maiatza
maiatzak
maiatzaren
maiatzean
maiatzeko
maiatzera
maiatzetik
maider
maien
mail
maila
mailak
mailako
mailakoa
mailakoak
mailan
mailara
mailaren
mailari
mailarik
mailatan
mailatik
mailaz
mailegu
mailegua
maileguak
mailen
mailetan
maillot
mailu
main
maine
maineko
maior
maiorra
mairie
maison
maistra
maisu
maisua
maisuak
maisuaren
maisuen
maitale
maitalea
maitaleak
maitasun
maitasuna
maitasunaren
maite
maitea
maitemindu
maiteminduko
maiteminduta
maiz
maizago
maiztasun
maiztasuna
maiztasunak
maiztasunaren
major
make
maketa
makil
makila
makina
makinak
makinaren
makinen
makineria
making
makurdura
mal
mala
malaga
malagako
malaria
malaysia
malaysiako
malcolm
malda
maldan
male
malgua
malguki
malgutasun
malgutasuna
mali
malik
maliko
malko
mallorca
mallorcako
malmo
malo
malta
maltako
mama
mames
mami
mamia
mammals
mamu
mamua
mamuak
man
management
mancha
manchester
mandela
mando
manet
manex
manga
manganesodun
manhattan
manhattango
manierista
manifestari
manifestazio
manifestazioa
manifestazioak
manifestu
manifestua
maniobra
mankomunitatea
mann
mano
manolo
manos
mans
mantellidae
mantendu
mantenduko
mantenduz
mantentze
mantentzea
mantentzeko
mantentzen
mantenua
manterola
mantu
mantua
mantxa
mantxako
manu
manual
manuel
manuela
manx
many
mao
map
mapa
mapagintza
mapak
mapan
mar
mara
marais
maran
maranha
maratoi
maratoia
marc
marca
marcel
marcelino
marcelo
march
marche
marco
marcos
marcus
mare
marea
margaret
margarita
margo
margoak
margogintza
margolan
margolana
margolanak
margolanaren
margolanen
margolanetan
margolari
margolaria
margolariak
margolariaren
margolarien
margolaritza
margolaritzan
margot
margotu
margotua
margotuak
margoturiko
margotutako
margotzeko
margotzen
marguerite
mari
maria
mariak
marian
mariana
marianne
mariano
mariaren
mariari
maribel
marie
marilyn
marin
marina
marine
marinel
marinelak
marino
mario
marion
mariren
marisa
mariskal
mariskala
mariskalak
maritxu
mark
marka
markak
markako
markaren
markarik
markatu
markatuta
markatutako
markatzeko
markatzen
markel
marken
markesa
markesak
markesaren
market
marketin
marketina
markina
marko
marmol
marmolezko
marne
marneko
maroko
marokoar
marokoko
marokon
marque
marra
marrak
marraz
marrazketa
marrazki
marrazkia
marrazkiak
marrazkigilea
marrazkilari
marrazkilaria
marrazo
marrazteko
marrazten
marraztu
marroi
marroia
marroiak
marruskadura
mars
marseilla
marsh
marshall
marta
marte
marteko
marten
marteren
martha
marthek
marti
martial
martin
martina
martinek
martinen
martinez
martingo
martiri
martxa
martxan
martxoa
martxoak
martxoan
martxoaren
martxoko
martxora
martxotik
martzial
martzialen
marvel
marvin
marx
marxek
marxen
marxismo
marxismoa
marxismoaren
marxista
mary
maryland
marylandeko
marzo
mas
masa
masak
masaren
masek
masen
masibo
masiboa
masiboak
mask
maskara
maskarak
maskor
maskorra
maskota
maskulinoa
mason
mass
massachusetts
massachusettseko
massimo
masta
mastacembelidae
master
masterra
masters
mata
mate
matematika
matematikak
matematikako
matematikan
matematikaren
matematikari
matematikaria
matematikariak
matematiko
matematikoa
matematikoak
matematikoki
mateo
mater
materia
material
materiala
materialak
materialaren
materialen
materialez
materialismo
materiaren
mathbb
mathbf
mathcal
mathematical
mathematics
mathieu
mathrm
mati
matiko
matilda
matilde
mato
matrikula
matrikulatu
matrix
matrize
matrizea
matt
matteo
matthew
mattin
matxinada
matxinadak
matxinadako
matxinadan
matxinadaren
matxinatu
matxinatuak
matxinatuek
matxinatuen
matxino
matxinoak
matxinoek
matxinoen
maud
maule
mauleko
maureen
maurice
mauricio
mauritaniako
maurizio
mauro
mausoleoa
max
maxima
maximiliano
maximo
maximoa
maxwell
may
maya
mayenne
mayenneko
mayer
mayo
mayor
mazedonia
mazedoniako
mazedoniar
mazoviako
mazuriako
mb
mbox
mc
mccarthy
mcdonald
mcgraw
me
mea
meategi
meategiak
meatokiak
meatzari
meatzaritza
meatze
meatzeak
mecklenburg
med
medal
media
mediana
medical
medici
medicine
medieval
mediko
medikoa
medikoak
mediku
medikua
medikuak
medikuaren
medikuek
medikuen
medikuntza
medikuntzako
medikuntzan
medikuntzaren
medina
medio
mediterranear
mediterraneo
mediterraneoa
mediterraneoan
mediterraneoaren
mediterraneoko
meet
meg
mega
megalitikoa
megalitikoak
megan
megophryidae
mehatxatu
mehatxatzen
mehatxu
mehatxua
mehatxuak
mehatxupean
mehatz
mehe
mehea
meheak
meiji
mejor
mekanika
mekaniko
mekanikoa
mekanikoak
mekanismo
mekanismoa
mekanismoak
meko
mel
melanie
melanotaeniidae
melbourne
meliphagidae
melissa
melodia
memoria
memoriak
memorial
memoriala
memorian
memoriaren
memorias
memory
men
mena
mendate
mendatea
mendateak
mendatetik
mende
mendea
mendeak
mendean
mendearen
mendeaz
mendebal
mendebalde
mendebaldea
mendebaldean
mendebaldearen
mendebaldeko
mendebaldekoa
mendebaldera
mendebalderantz
mendebaldetik
mendebalean
mendebaleko
mendeen
mendeetako
mendeetan
mendeko
mendekoa
mendekoak
mendekotasun
mendekotasuna
mendeku
mendekua
mendekuari
mendera
menderako
menderarte
menderatu
menderatzeko
menderatzen
mendetan
mendetik
mendeurrena
mendez
mendi
mendia
mendiak
mendialdea
mendialdean
mendialdeko
mendian
mendiaren
mendibil
mendiburu
mendiek
mendien
mendietako
mendietan
mendietatik
mendigune
mendigunea
mendiguren
mendikate
mendikatea
mendikateak
mendikatean
mendikatearen
mendiko
mendilerro
mendilerroa
mendilerroak
mendilerroan
mendilerroaren
mendilerroari
mendilerroen
mendilerroko
mendiola
mendira
mendirik
menditik
menditsu
menditsua
menditsuenetan
mendixka
mendizabal
mendizale
mendizalea
mendoza
mene
menor
menos
menpe
menpean
menpeko
menpekoa
menpekoak
menpekotasun
menpekotasuna
menperatu
menperatzen
mensajero
ment
mental
mentala
mentalak
menu
mer
mercado
merce
mercedes
mercer
mercury
merezi
merindadea
merindadean
merindadearen
merindadeko
merino
meritu
merituaren
merkantzia
merkantziak
merkantzien
merkatal
merkatari
merkataria
merkatariak
merkatariek
merkatarien
merkataritza
merkataritzak
merkataritzako
merkataritzan
merkataritzarako
merkataritzaren
merkataritzari
merkatu
merkatua
merkatuak
merkatuan
merkatuaren
merkatuetan
merkatuko
merkatura
merkaturatu
merkaturatzen
merke
merkea
merkeagoa
merkeagoak
merkeak
merkurio
merkurioren
mero
merry
mertzenario
mertzenarioak
mes
mesa
mesede
mesedetan
mesfidantza
mesias
meskita
mesnil
mesopotamia
mesopotamiako
mesopotamian
messier
messina
messinako
met
meta
metabolismoa
metafisika
metafora
metak
metaketa
metal
metala
metalak
metalaren
metalen
metalezko
metaliko
metalikoa
metalikoak
metallica
metalurgia
metanoa
metatu
metatutako
metatzen
meteorito
meteorologia
meteorologiko
meteorologikoa
meteorologikoak
meteorologikorik
metodo
metodoa
metodoak
metodoaren
metodoen
metodologia
metrika
metro
metroa
metroak
metroan
metroaren
metroko
metrokoa
metropoli
metropolitan
metropolitanoan
metropolitanoko
metropolitar
metropolitarra
metropolitarraren
metrora
metrorekin
metrotako
metrotan
metrotara
metrotik
meurthe
meuse
meuseko
mexico
mexikar
mexikarra
mexikarrak
mexiko
mexikoko
mexikon
mexikora
meyer
mez
meza
mezenas
mezu
mezua
mezuak
mezuaren
mezulari
mezularitza
mg
mhz
mi
mia
miaketa
miami
mica
michael
michel
michelangelo
michelangelok
michelangeloren
michele
michelin
michelle
michigan
michigango
mick
mickey
mico
microdesmidae
microhylidae
microsoft
microtus
micrurus
mid
middle
middlesex
midi
midnight
mie
miel
migel
migelen
migratu
migratzaile
migratzen
migrazio
migrazioa
migrazioak
miguel
mihailovic
mihi
mihia
mika
mike
mikel
mikhail
mikro
mikrobio
mikrobiologia
mikroorganismo
mikroorganismoen
mikroskopio
mikrouhin
mil
mila
milagro
milagros
milaka
milan
milanen
milango
milano
mile
miles
milia
milimetro
milioi
milioika
milioiko
militante
militantea
militantzia
militar
militarki
militarra
militarrak
militarraren
militarrean
militarrek
militarreko
militarren
militarretan
military
milizia
miliziano
mill
milla
mille
millennium
miller
million
mills
milo
miloi
milos
milton
milurteko
milurtekoan
milurtekoaren
mimetismo
min
mina
minak
minaren
minas
minbizi
minbizia
minbiziak
minbiziaren
mind
mindat
mineral
minerala
mineralak
mineralaren
mineralen
minerva
mines
ming
mingotsa
mini
miniatura
minik
minimo
minimoa
ministerio
ministerioa
ministerioak
ministerioan
ministerioaren
ministerioko
ministro
ministroa
ministroak
ministroaren
ministroen
minnesota
minnesotako
minor
minskeko
mintegi
mintz
mintza
mintzaira
mintzaren
mintzatu
mintzatzen
mintzean
mintzo
minus
minutu
minutuan
minutuko
minutukoa
minutura
minututan
minutuz
mio
miocene
miozeno
miquel
miques
mir
mira
miramar
miranda
mirande
mirari
miren
miresten
miriam
miro
mirovsky
mirovskyk
mirror
mis
mise
miseria
misil
misilak
misio
misioa
misioak
misioan
misioaren
misiolari
misiolaria
misiolariak
mismo
miss
mission
mississippi
mississippiko
missouri
missourieko
missouriko
misterio
misterioa
misteriotsu
misteriotsua
mistikoa
misto
mistoa
mistoak
mistoan
mistoko
mistral
mit
mitchell
mitiko
mitikoa
mito
mitoa
mitoak
mitologia
mitologiako
mitologian
mitologiaren
mitologiko
mitologikoak
mitxelena
mitxelenak
mix
mixel
mk
ml
mlada
mm
mmendikat
mn
mo
mobile
mobilite
mobilizatu
mobilizazio
mochokidae
mod
moda
modalitate
modalitatean
modan
modaren
mode
model
modelo
modeloa
modeloak
moderatua
modern
moderna
modernismo
modernismoaren
modernista
moderno
modernoa
modernoak
modernoan
modernoaren
modernoek
modernoen
modernoetan
modernoko
modo
modu
modua
moduak
moduan
moduaren
moduari
moduko
modukoa
modukoak
modulu
modulua
moduluak
moduluaren
modura
modurik
modutan
moenkhausia
mogol
mohamed
mohammed
mohs
moi
moire
moires
moises
moja
moko
mokoa
mol
mola
moldaketa
moldaketak
moldatu
moldatzeko
moldatzen
moldavia
moldaviako
molde
moldea
moldeak
moldez
molekula
molekulak
molekular
molekularen
molekularra
molekularrak
molekularraren
molekulek
molekulen
molie
molina
molly
molossidae
molusku
moluskuak
momentu
momentua
momentuan
momentuko
momentuz
momia
mon
mona
monacanthidae
monako
monakoko
monarchidae
monarka
monarkak
monarkia
monarkiak
monarkiaren
monasterio
monasterioa
monasterioak
monasterioan
monasterioaren
monasterioari
monasterioko
mondadori
monde
mondragon
moneta
money
mongolen
mongolia
mongoliako
mongoliar
monica
monje
monjeak
monmouthshire
mono
monografia
monoklinikoak
monoklinikoaren
monopolio
monopolioa
monreal
monroe
mons
monsieur
monster
mont
montagne
montan
montana
montanako
monte
montenegro
montenegroko
montero
montes
montevideo
montgomery
montigny
montjui
montparnasse
montpellier
montrant
montre
montreal
montrealgo
montreuil
montserrat
monument
monumental
monumentala
monumento
monumentu
monumentua
monumentuak
monumentuaren
monumentuen
monzo
moon
moore
mora
moral
morala
moralak
moralaren
morales
moraza
morbihan
morbihango
mordo
mordoa
more
morea
moreau
moreno
morfologia
morgan
mori
moridae
moritz
mormyridae
morning
moro
morris
morrison
morroi
morroia
mort
mortadelo
morte
morton
mos
mosaiko
mosaikoa
mosaikoak
mosela
moselako
moses
mosku
moskuko
moskun
moskura
moss
most
mota
motak
motako
motakoa
motakoak
motaren
motatako
motatakoa
motatakoak
motel
motela
moteldu
moten
mother
motibazio
motibazioa
motibo
motion
moto
motor
motore
motorra
motorrak
motorraren
motorren
motz
motza
motzak
moulin
mount
mountain
mountains
movement
movie
movimiento
mozambikeko
mozart
mozarten
mozilla
mozioa
mozketa
moztea
mozteko
mozten
moztu
moztuta
mp
mr
mrna
mrs
ms
mt
mtv
mu
much
muerte
muertos
muga
mugagabea
mugak
mugakide
mugakideak
mugako
mugan
mugara
mugaren
mugarik
mugarri
mugarria
mugatik
mugatu
mugatua
mugatuak
mugatuko
mugatuta
mugatutako
mugatuz
mugatzea
mugatzeko
mugatzen
mugaz
mugen
mugetan
mugetatik
mugi
mugikor
mugikorra
mugikorrak
mugikorraren
mugikorreko
mugikorren
mugikortasun
mugikortasuna
mugilidae
mugimendu
mugimendua
mugimenduak
mugimenduan
mugimenduarekin
mugimenduaren
mugimenduari
mugimenduek
mugimenduen
mugimenduetan
mugimenduko
mugitu
mugituko
mugituz
mugitzea
mugitzeko
mugitzen
muguruza
muhammad
muin
muina
muinean
muino
muinoa
muinoak
muinoan
muinoaren
mujer
mujeres
mujika
mukosa
mul
mullidae
multimedia
multinazional
multinazionalak
multzo
multzoa
multzoak
multzoan
multzoaren
multzoari
multzoen
multzoko
multzotan
mun
mundi
mundial
mundo
mundu
mundua
munduak
munduan
munduarekin
munduaren
munduari
munduko
mundura
mundutik
mungia
munibe
munich
municheko
munichen
municipal
munizio
munstro
muntaia
muntaketa
muntatu
mur
muraenidae
mural
murcia
murder
murelu
mures
murgildu
murgilduta
murgiltzen
muridae
murillo
murinae
muro
murphy
murray
murrizketa
murrizketak
murriztea
murrizteko
murrizten
murriztu
murriztua
murriztuko
murriztuz
murtzia
murtziako
muru
murua
mus
musa
muscicapidae
muse
museo
museoa
museoak
museoan
museoaren
museoen
museoko
museora
museum
music
musica
musical
musika
musikagile
musikagilea
musikagileak
musikak
musikako
musikal
musikala
musikalak
musikalaren
musikalean
musikan
musikarekin
musikaren
musikari
musikaria
musikariak
musikariaren
musikariek
musikarien
musikaz
musikologoa
musique
muskiz
muskulu
muskuluak
muskuluen
mussolini
mussoliniren
mustafa
musu
musulman
musulmana
musulmanak
musulmanek
musulmanen
mutazio
mutazioak
mutiko
mutikoa
mutil
mutila
mutilak
mutilen
mutriku
mutrikuko
mutua
mutuak
mutur
muturra
muturrak
muturrean
muturreko
muturretan
muturretik
muxika
muy
muzin
mv
mvp
mw
mx
my
myctophidae
myers
myobatrachidae
myotis
myspace
mystery
myxinidae
n
na
nabari
nabaria
nabariak
nabaritu
nabaritzen
nabarmen
nabarmena
nabarmenagoa
nabarmenak
nabarmendu
nabarmendua
nabarmenduz
nabarmenen
nabarmenena
nabarmenenak
nabarmenetako
nabarmenik
nabarmenki
nabarmentzeko
nabarmentzekoa
nabarmentzekoak
nabarmentzen
nabarreria
nabaskoze
nabe
nabea
nabigatu
nabigatzaile
nabigatzailea
nabigatzeko
nabigatzen
nabigazio
nabigazioa
nabla
nach
nacho
nacio
nacional
nacionalista
nad
nada
nadal
nadia
nadie
nafar
nafarra
nafarrak
nafarrek
nafarren
nafarrera
nafarroa
nafarroak
nafarroako
nafarroakoa
nafarroakoak
nafarroakoaren
nafarroan
nafarroara
nafarroaren
nafarroatik
nagasaki
nage
nages
nago
nagore
nagoya
nagusi
nagusia
nagusiak
nagusian
nagusiarekin
nagusiaren
nagusiari
nagusiei
nagusiek
nagusiekin
nagusien
nagusiena
nagusienak
nagusienetako
nagusienetakoa
nagusienetariko
nagusietako
nagusietakoa
nagusietan
nagusietatik
nagusiki
nagusiko
nagusira
nagusitan
nagusitasun
nagusitasuna
nagusitik
nagusitu
nagusitzat
nagusitzen
nahas
nahasi
nahasia
nahasiak
nahasketa
nahasketak
nahasmena
nahasmendu
nahasmendua
nahasmenduak
nahaste
nahastea
nahasteko
nahasten
nahastu
nahastuta
nahastuz
nahi
nahia
nahiago
nahiak
nahian
nahiaren
nahiko
nahikoa
nahikoak
nahikorik
nahimenaren
nahirik
nahita
nahitaez
nahitaezko
nahitaezkoa
nahiz
nai
naiara
naiarako
naiz
naizela
naizen
nak
nam
name
names
namibiako
nan
nana
nancy
nando
nano
nanoak
nantes
nantesko
naomi
napoleon
napoleondar
napoleonek
napoleonen
napoli
napoliko
napolin
nara
narrasti
narrastiak
narrastien
narratiba
narratzaile
narratzailea
narrazio
narrazioa
narrazioak
nas
nasa
nasak
nasako
nasaren
nash
nassau
nat
natalia
natalie
natasha
nathalie
nathan
natiboak
nation
national
nationale
nations
nato
natok
natoko
natoren
natricidae
natur
natura
naturak
naturako
natural
naturala
naturalak
naturalaren
naturalean
naturaleko
naturalen
naturaletan
naturaleza
naturalista
naturalki
naturan
naturarekin
naturaren
naturari
naturaz
nature
natxo
nau
nauchnij
naval
navarra
navarre
navarro
navas
navy
naze
nazi
nazia
naziak
naziaren
naziek
nazien
nazio
nazioa
nazioak
nazioaren
nazioarte
nazioartean
nazioarteko
nazioen
nazioko
nazional
nazionala
nazionalak
nazionalarekin
nazionalaren
nazionalari
nazionalean
nazionalek
nazionaleko
nazionalen
nazionalera
nazionalerako
nazionaletan
nazionalismo
nazionalismoa
nazionalismoaren
nazionalista
nazionalistak
nazionalistek
nazionalisten
nazionalitate
nazionalitatea
nazionalizatu
nazismoaren
nb
nba
nbako
nbc
nbek
nbeko
nberen
ncaa
nchen
nchez
ncia
ncipe
nd
nde
ndez
ne
nea
neal
near
neba
nebraska
nebraskako
nebulosa
neburgeko
nec
nectariniidae
ned
nederlanderaz
nederlanderazko
neg
negar
negarrez
negatibo
negatiboa
negatiboak
negoziatu
negoziatzeko
negoziatzen
negoziazio
negoziazioak
negoziazioetan
negozio
negozioa
negozioak
negozioaren
negozioen
negra
negro
negu
negua
neguak
neguan
neguko
neil
neill
nek
nekal
nekane
nekazal
nekazari
nekazaria
nekazariak
nekazariek
nekazarien
nekazaritza
nekazaritzak
nekazaritzako
nekazaritzan
nekazaritzarako
nekazaritzaren
nekazaritzari
neke
nekea
nekez
nekin
neko
nekropoli
nekropolia
nel
nell
nelson
nemacheilidae
nemesio
nen
nena
neo
neogene
neoklasiko
neoklasikoa
neolito
neolitoko
neotominae
nepal
nepalgo
neptuno
neptunoren
neq
neque
nerabe
nerabea
nerabeak
nerabeek
nerabeen
nerabezaroa
nerabezaroan
nerbio
nerbioa
nerbioak
nerbioaren
nerbioi
nere
nerea
nero
neruda
nes
neska
neskak
neskalaguna
neskaren
neskatila
neskato
neskatoa
neskek
nesken
ness
nestor
net
netflix
network
neu
neue
neuilly
neur
neure
neurketa
neurketak
neurona
neuronen
neurri
neurria
neurriak
neurrian
neurrien
neurriz
neurtu
neurtua
neurtutako
neurtzea
neurtzeko
neurtzen
neutral
neutrala
neutroa
neutroi
neuville
nevada
nevadako
never
neville
new
newcastle
newman
newport
news
newton
newtonek
newtonen
newyorkarrak
next
nez
ng
ngc
ngel
ngela
ngeles
ngo
nguez
nh
ni
nia
nica
nicas
nice
nicholas
nichols
nicholson
nick
nico
nicola
nicolas
nicole
nie
niels
nielsen
nieto
nieves
nigel
niger
nigeria
nigeriako
nigerian
nigeriar
nigerko
night
nightmare
nights
nigra
niigata
nik
nikaragua
nikaraguako
nikel
nikita
niko
nikola
nikolai
nikolas
nil
nilo
niloren
nima
nimo
nin
nina
ninfa
nino
nintendo
nintzen
nio
nire
niretzat
niri
niro
nirvana
nitrogeno
nitrogenoa
nituen
nixon
niz
niza
nizako
nk
nl
nm
no
noa
noah
noain
nobel
nobela
nobelagile
nobelak
nobis
noble
noblea
nobleak
nobleek
nobleen
noblezia
nobleziaren
noche
nodo
noe
noel
noir
noiz
noizbait
noizbehinka
noizbehinkako
noizean
nola
nolabait
nolabaiteko
nolako
nolakoa
nolakoak
nolanahi
nomada
nomadak
nombre
nomenklatura
non
nonahi
nonbait
nondik
none
nor
nora
norabide
norabidea
norabidean
noraezean
norakoak
norantza
norantzan
noranzko
noranzkoa
noranzkoan
norbait
norbaitek
norbaiten
norbanako
norbanakoaren
norbanakoentzako
norbanakoentzat
norbera
norberak
norberaren
norbere
norbert
nord
nordeko
norfolk
norgehiagoka
nori
nork
norma
normal
normala
normalak
normalean
normalki
norman
normandia
normandiako
normandiar
normandiarrak
norops
norris
nortasun
nortasuna
nortasunaren
norte
norteko
north
northern
norton
nortzuk
norvegia
norvegiako
norvegian
norvegiar
nos
noski
not
nota
notak
notas
notazio
notazioa
note
notes
nothing
nothobranchiidae
noticia
noticias
notre
notropis
nou
nous
nouveau
nouvelle
nouvelles
nov
nova
novas
nove
novel
novela
november
noviembre
novo
now
nozio
nozioa
nozitu
np
nr
ns
nt
nter
nther
nu
nuclear
nuen
nuestra
nuestro
nueva
nuevas
nuevo
nuevos
nuit
nuke
nuklear
nuklearra
nuklearrak
nuklearraren
nuklearren
nukleo
nukleoa
nukleoak
nukleoan
nukleoaren
nukleoen
nulua
nuluak
number
numero
nun
nunca
nuria
nutrizio
ny
o
oa
oak
oakland
oaxaca
ob
obama
oberea
objektibo
objektiboa
objektu
objektua
objektuak
objektuaren
objektuei
objektuek
objektuen
objekturik
objetu
oblast
oblasta
oblasteko
obra
obrak
obran
obraren
obrarik
obras
obren
obretan
ocampo
occidental
ocean
och
ochoa
oclc
oct
october
octubre
oda
oder
odisea
odol
odola
odolaren
odolean
odoleko
odolera
odolez
odoltsua
odore
odriozola
odyssey
of
ofentsiba
off
offa
offak
office
official
oficial
ofizial
ofiziala
ofizialak
ofizialaren
ofizialean
ofizialek
ofizialeko
ofizialen
ofizialetan
ofizialik
ofizialki
ofizialtzat
og
ogasun
ogcocephalidae
ogi
ogia
ogiaren
oh
ohar
oharkabean
oharra
oharrak
ohartarazi
ohartarazten
ohartu
ohartuko
ohartzen
ohe
ohean
ohi
ohia
ohiak
ohiaren
ohiko
ohikoa
ohikoagoa
ohikoagoak
ohikoak
ohikoena
ohikoenak
ohio
ohioko
ohitura
ohiturak
ohituren
ohituta
ohiz
ohol
oholak
ohore
ohorea
ohoreak
ohorez
ohorezko
oi
oiartzun
oiartzunen
oiartzungo
oibar
oier
oihal
oihala
oihalak
oihan
oihana
oihanean
oihaneko
oihartzun
oihartzuna
oihu
oihuka
oil
oilar
oilasko
oilo
oin
oina
oinak
oinaldean
oinaren
oinarri
oinarria
oinarriak
oinarrian
oinarriaren
oinarrien
oinarriko
oinarririk
oinarritu
oinarritua
oinarrituak
oinarriturik
oinarrituriko
oinarrituta
oinarritutako
oinarrituz
oinarritzat
oinarritzen
oinarrizko
oinarrizkoa
oinean
oineko
oinetako
oinetakoak
oinetan
oinez
oinezko
oinezkoentzako
oinordeko
oinordekoa
oinordekoak
oinordekotza
oinordetza
oinordetzan
oinplano
oinplanoa
ois
oise
oiseko
oita
oiz
ojos
ok
oka
okayama
okela
okendo
oker
okerra
okerrak
okerrera
okertu
okertzen
okhotskeko
okindegi
okindegia
okindegiak
oklahoma
oklahomako
oko
okolie
okre
oktogonala
okupatu
okupatua
okupaturik
okupatutako
okupatzen
okupazio
okupazioa
okupazioaren
okzitania
okzitaniako
okzitaniera
okzitanieraz
ol
ola
olaizola
olano
olaren
olas
olatu
olatuak
olatuen
olatz
olazabal
old
oldartu
ole
olentzero
olerkari
olerkaria
olerki
olerkia
olerkiak
olerkigintza
oles
olga
oliba
oligocene
oligodon
olinpiar
olinpiko
olinpikoa
olinpikoak
olinpikoetan
olio
olioa
olioak
olioaren
oliveira
oliver
olivia
olivier
olmo
oloritz
olt
olympedia
olympia
olympic
olympics
olympique
om
omango
omar
omega
omen
omenaldi
omenaldia
omenaldiak
omendu
omenez
omenezko
omentzeko
omnia
omnium
on
ona
onaindia
onak
onar
onaren
onargarria
onarpen
onarpena
onartu
onartua
onartuak
onartuko
onartuta
onartutako
onartuz
onartzea
onartzeko
onartzen
once
onda
ondare
ondarea
ondarearen
ondarroa
ondarroako
ondarroan
ondasun
ondasuna
ondasunak
ondasunen
onddo
onddoak
onddoen
ondo
ondoan
ondoen
ondoko
ondokoa
ondokoak
ondoren
ondorengo
ondorengoa
ondorengoak
ondorengoek
ondorengoen
ondorengotza
ondorio
ondorioa
ondorioak
ondorioei
ondorioen
ondorioz
ondoriozko
ondoriozta
ondorioztatu
ondorioztatzen
ondotik
ondoz
ondu
one
onean
onek
oneko
onekoa
onen
onena
onenak
onenaren
onenarena
onenari
onenean
onenen
onenetako
onenetakoa
onenetakotzat
onera
onerako
onespena
onetan
onetsi
onez
ongarri
ongi
ongia
ongizate
ongizatea
ongizatearen
onik
oniritzia
online
only
onomastika
onomastikaren
ons
ontario
ontzat
ontzi
ontzia
ontziak
ontzian
ontziaren
ontziek
ontzien
ontzietan
ontziko
ontziola
ontziolak
ontziratu
ontziteria
onura
onuragarria
onuragarriak
onurak
ook
oorten
op
opari
oparia
opariak
oparitu
oparo
oparoa
oparoak
oparotasun
oparotasuna
ope
open
opera
operacio
operadora
operadore
operak
operako
operan
operaren
operatorname
operazio
operazioa
operazioak
operazioan
operazioaren
ophichthidae
ophichthus
ophidiidae
ophrys
opio
opioa
opioaren
opistognathidae
oporrak
oporretan
oposizio
oposizioa
oposizioak
oposizioaren
oposizioko
optika
optiko
optikoa
optikoak
opus
or
ora
orai
orain
oraina
oraindik
oraingo
oraingoan
oraingoz
orange
orbaibar
orban
orbanak
orbe
orbea
orbita
orbitak
orbital
orbitala
orbitan
orbitaren
orbitatzen
orchestra
ordain
ordaina
ordainak
ordaindu
ordainduko
ordainduta
ordaindutako
ordainetan
ordainketa
ordainketak
ordaintzea
ordaintzeko
ordaintzen
ordaintzera
orde
ordea
orden
ordena
ordenagailu
ordenagailua
ordenagailuak
ordenagailuaren
ordenagailuen
ordenagailuz
ordenak
ordenako
ordenamendu
ordenan
ordenaren
ordenatu
ordenatua
ordenatuta
ordeneko
order
ordez
ordezkapen
ordezkari
ordezkaria
ordezkariak
ordezkariek
ordezkarien
ordezkaritza
ordezkatu
ordezkatua
ordezkatuko
ordezkatuz
ordezkatzea
ordezkatzeko
ordezkatzen
ordezko
ordezkoa
ordeztu
ordizia
ordiziako
ordizian
ordo
ordoki
ordokia
ordokiak
ordokian
ordon
ordu
ordua
orduak
orduan
ordubete
orduetan
orduko
ordura
ordurako
ordurarte
ordutan
ordutegi
ordutegia
ordutegiak
ordutik
orduz
ore
orea
oregon
oregongo
orein
oreina
oreinak
oreja
oreka
orekan
oren
orfeo
org
orga
organiko
organikoa
organikoak
organikoan
organikoaren
organikoen
organismo
organismoak
organismoaren
organismoen
organista
organization
organo
organoa
organoak
organoen
ori
oria
oriako
orient
oriental
orientalis
orientation
orientazio
orientazioa
origen
origin
original
originala
origins
orio
oriok
orioko
oriol
orion
orixe
orkestra
orkestrarako
orko
orlando
orleans
orlici
ormaetxea
ormazabal
orne
orneko
orno
ornodun
ornodunen
oro
orobat
orografia
orohar
oroigarri
oroigarria
oroimen
oroimena
oroimenaren
oroimenean
oroimenez
oroitarria
oroitzapen
oroitzapena
oroitzapenak
orok
orokor
orokorki
orokorra
orokorrak
orokorraren
orokorrari
orokorrean
orokorreko
orokorren
orokorretan
orokortu
ororen
orori
orotan
orotara
orotariko
orotz
oroz
orr
orratz
orratza
orratzak
orratzen
orreaga
orreagako
orri
orria
orriak
orrialde
orrialdea
orrialdeak
orrialdean
orrialdeko
orrian
orrien
orsay
orson
ortega
ortiz
ortodoxo
ortodoxoa
ortodoxoak
ortodoxoaren
ortoerronbikoaren
ortografia
ortorronbikoak
orube
oryzomys
os
osa
osaba
osabak
osaera
osagai
osagaia
osagaiak
osagaien
osagarri
osagarria
osagarriak
osaka
osaketa
osasun
osasuna
osasunako
osasunaren
osasunari
osasunean
osasunerako
osasuntsu
osatu
osatua
osatuak
osatuko
osaturik
osaturiko
osatuta
osatutako
osatutakoa
osatuz
osatzea
osatzeko
osatzen
osborne
oscar
oskar
oskol
oskola
oskorri
oslo
osloko
oso
osoa
osoak
osoan
osoarekin
osoaren
osoari
osoen
osoki
osoko
osora
osorako
osorik
osotasun
osotasuna
osotasunean
osotik
osoz
ospakizun
ospakizuna
ospakizunak
ospakizunetan
ospatu
ospatuko
ospatutako
ospatzeko
ospatzen
ospe
ospea
ospeak
ospearen
ospetsu
ospetsua
ospetsuak
ospetsuan
ospetsuaren
ospetsuen
ospetsuena
ospetsuenak
ospetsuenen
ospetsuenetako
ospetsuenetakoa
osphronemidae
ospitale
ospitalea
ospitaleak
ospitalean
ospitalearen
ospitaleko
ospitalera
ostalaritza
ostatu
ostatua
ostean
osteko
ostera
ostiral
ostiralera
oszilazio
otaegi
otamendi
otan
ote
otegi
oteiza
oteizak
oteizaren
otero
other
otis
otoitz
otoitza
otomandar
otomandarrek
otomandarren
oton
otra
otras
otro
otros
otsa
otsagabia
otsaila
otsailak
otsailaren
otsailean
otsaileko
otsailetik
otso
otsoa
otsoak
ottawa
otto
oturuntza
otxoa
ou
ouen
ouest
our
ourense
ourenseko
out
ov
oveko
over
overline
oviedo
oviedoko
owen
own
oxford
oxfordeko
oxidatzen
oxidazio
oxido
oxidoa
oxidoak
oxigeno
oxigenoa
oxigenoaren
oxigenodun
oxigenorik
oz
ozeania
ozeaniako
ozeaniko
ozeanikoa
ozeano
ozeanoa
ozeanoak
ozeanoan
ozeanoaren
ozeanoen
ozeanoko
ozen
ozenki
ozono
ozta
oztopatu
oztopatzen
oztopo
oztopoak
oztoporik
p
pa
pabiloia
pablo
pac
pace
pacheco
pacific
paco
paddy
padre
paduako
padura
pagadi
page
pages
pago
pagoa
pagoak
pagoda
pagola
pai
pailazo
pailazoa
pain
painting
pairatu
pairatzeko
pairatzen
pais
paisaia
paisaiak
paisaiaren
paisaien
pakete
paketeak
pakistan
pakistanen
pakistango
pako
pal
pala
palabra
palabras
palace
palacio
palacios
palais
palanka
palatinatua
palatinatuko
palau
palazzo
palentzia
palentziako
paleocene
paleogene
paleogeno
paleolito
paleolitoko
palermo
palermoko
palestina
palestinako
palestinar
palestinaren
palestinarren
paleta
palgrave
pallas
palm
palma
palmako
palmaresa
palmas
palmer
palo
paloma
palomar
pamela
pamiela
pamplona
pan
panama
panamako
panamerikar
pandemia
pandemiak
pandemiaren
panel
panelak
pankrea
panorama
panoramikoa
panoramio
panpina
pantaila
pantailak
pantailan
pantailaren
pantera
panthera
pantxoa
paolo
papa
papel
paper
papera
paperak
paperaren
paperean
paperekoa
paperezko
papergintza
papers
papilio
papua
par
para
parabola
parada
parade
paradigma
paradise
paradoxa
paragrafoan
paraguai
paraguaiko
parai
paralelo
paraleloa
paraleloak
paraleloan
paraleloki
paralichthyidae
paralinpiar
paraliparis
paralisia
parametro
parametroak
paramount
parana
parapercis
parc
pardo
pardubiceko
pare
parea
parean
paredes
paregabea
parekatu
parekatzen
pareko
parekoa
parentesi
pareta
paretak
pari
paris
parisa
pariseko
parisen
parisera
parisko
paristarrak
paristik
park
parke
parkea
parkeak
parkean
parkearen
parkeko
parken
parker
parking
parks
parlamentari
parlamentariak
parlamentarioa
parlamentu
parlamentua
parlamentuak
parlamentuan
parlamentuaren
parlamentuko
parlamenturako
parma
parmako
parodia
parque
parra
parrokia
parrokiak
parrokiako
parrokian
parrokiaren
pars
parsons
parsonsek
part
partaide
partaidea
partaideak
partaideen
partaidetza
parte
partea
partean
partehartzea
partekatu
partekatua
partekatzea
partekatzeko
partekatzen
parterik
partetik
partez
partial
partiar
particuliers
partida
partidak
partidako
partidan
partidaren
partidatan
partidetan
partido
partidu
partidua
partiduak
partiduan
partikula
partikulak
partikular
partikularen
partikularra
partikularrak
partikularren
partikulek
partikulen
partisanoen
partitura
party
partzial
partziala
partzialak
partzialki
partzuergo
partzuergoa
partzuergoak
partzuergoaren
parulidae
pas
pasa
pasabide
pasabidea
pasadizo
pasahitz
pasahitza
pasai
pasaia
pasaiako
pasaian
pasako
pasarte
pasarteak
pasata
pasatu
pasatuko
pasatuz
pasatzea
pasatzean
pasatzeko
pasatzen
pascal
pascual
pase
pasealekua
pasealekuan
paseo
pasibo
pasiboa
pasiboak
pasio
pasioa
paso
passage
passiflora
passion
past
pasta
pastel
pasteur
pastor
pastoral
pastorala
pat
patagoniako
patata
patatak
patentatu
patente
patentea
path
patin
patinaje
patinatzaile
patinatzaileak
patio
patioa
patogeno
patogenoak
patologia
patria
patriarka
patrice
patricia
patricio
patrick
patrimonio
patrizio
patroi
patroia
patroiak
patterson
patua
patxi
pau
paue
paueko
paul
paula
pauline
paulo
paulok
pauloko
pauloren
pauso
pausoa
pausoak
pausu
pausua
pavel
paviako
payne
pays
paz
paziente
pazienteak
pazientearen
pazifikoko
pazko
pb
pc
pce
pdf
pe
peace
peak
pean
pearl
pearson
peck
pedagogia
pedagogo
pedagogoa
pedagogoak
pedren
pedro
pedroko
pedroren
pegasus
peggy
peio
pekin
pekinen
pekingo
pelhr
peli
pelikula
pelikulak
pelikulan
pelikularen
pello
peloponesoko
pembrokeshire
pen
pena
[...]
