!
"
#
##a
##aa
##ab
##ac
##ad
##ae
##af
##ag
##ah
##ai
##aj
##ak
##al
##am
##an
##ao
##ap
##aq
##ar
##as
##at
##au
##av
##aw
##ax
##ay
##az
##b
##ba
##bb
##bc
##bd
##be
##bf
##bg
##bh
##bi
##bj
##bk
##bl
##bm
##bn
##bo
##bp
##bq
##br
##bs
##bt
##bu
##bv
##bw
##bx
##by
##bz
##c
##ca
##cb
##cc
##cd
##ce
##cf
##cg
##ch
##ci
##cj
##ck
##cl
##cm
##cn
##co
##cp
##cq
##cr
##cs
##ct
##cu
##cv
##cw
##cx
##cy
##cz
##d
##da
##db
##dc
##dd
##de
##df
##dg
##dh
##di
##dj
##dk
##dl
##dm
##dn
##do
##dp
##dq
##dr
##ds
##dt
##du
##dv
##dw
##dx
##dy
##dz
##e
##ea
##eb
##ec
##ed
##ee
##ef
##eg
##eh
##ei
##ej
##ek
##el
##em
##en
##eo
##ep
##eq
##er
##es
##et
##eu
##ev
##ew
##ex
##ey
##ez
##f
##fa
##fb
##fc
##fd
##fe
##ff
##fg
##fh
##fi
##fj
##fk
##fl
##fm
##fn
##fo
##fp
##fq
##fr
##fs
##ft
##fu
##fv
##fw
##fx
##fy
##fz
##g
##ga
##gb
##gc
##gd
##ge
##gf
##gg
##gh
##gi
##gj
##gk
##gl
##gm
##gn
##go
##gp
##gq
##gr
##gs
##gt
##gu
##gv
##gw
##gx
##gy
##gz
##h
##ha
##hb
##hc
##hd
##he
##hf
##hg
##hh
##hi
##hj
##hk
##hl
##hm
##hn
##ho
##hp
##hq
##hr
##hs
##ht
##hu
##hv
##hw
##hx
##hy
##hz
##i
##ia
##ib
##ic
##id
##ie
##if
##ig
##ih
##ii
##ij
##ik
##il
##im
##in
##io
##ip
##iq
##ir
##is
##it
##iu
##iv
##iw
##ix
##iy
##iz
##j
##ja
##jb
##jc
##jd
##je
##jf
##jg
##jh
##ji
##jj
##jk
##jl
##jm
##jn
##jo
##jp
##jq
##jr
##js
##jt
##ju
##jv
##jw
##jx
##jy
##jz
##k
##ka
##kb
##kc
##kd
##ke
##kf
##kg
##kh
##ki
##kj
##kk
##kl
##km
##kn
##ko
##kp
##kq
##kr
##ks
##kt
##ku
##kv
##kw
##kx
##ky
##kz
##l
##la
##lb
##lc
##ld
##le
##lf
##lg
##lh
##li
##lj
##lk
##ll
##lm
##ln
##lo
##lp
##lq
##lr
##ls
##lt
##lu
##lv
##lw
##lx
##ly
##lz
##m
##ma
##mb
##mc
##md
##me
##mf
##mg
##mh
##mi
##mj
##mk
##ml
##mm
##mn
##mo
##mp
##mq
##mr
##ms
##mt
##mu
##mv
##mw
##mx
##my
##mz
##n
##na
##nb
##nc
##nd
##ne
##nf
##ng
##nh
##ni
##nj
##nk
##nl
##nm
##nn
##no
##np
##nq
##nr
##ns
##nt
##nu
##nv
##nw
##nx
##ny
##nz
##o
##oa
##ob
##oc
##od
##oe
##of
##og
##oh
##oi
##oj
##ok
##ol
##om
##on
##oo
##op
##oq
##or
##os
##ot
##ou
##ov
##ow
##ox
##oy
##oz
##p
##pa
##pb
##pc
##pd
##pe
##pf
##pg
##ph
##pi
##pj
##pk
##pl
##pm
##pn
##po
##pp
##pq
##pr
##ps
##pt
##pu
##pv
##pw
##px
##py
##pz
##q
##qa
##qb
##qc
##qd
##qe
##qf
##qg
##qh
##qi
##qj
##qk
##ql
##qm
##qn
##qo
##qp
##qq
##qr
##qs
##qt
##qu
##qv
##qw
##qx
##qy
##qz
##r
##ra
##rb
##rc
##rd
##re
##rf
##rg
##rh
##ri
##rj
##rk
##rl
##rm
##rn
##ro
##rp
##rq
##rr
##rs
##rt
##ru
##rv
##rw
##rx
##ry
##rz
##s
##sa
##sb
##sc
##sd
##se
##sf
##sg
##sh
##si
##sj
##sk
##sl
##sm
##sn
##so
##sp
##sq
##sr
##ss
##st
##su
##sv
##sw
##sx
##sy
##sz
##t
##ta
##tb
##tc
##td
##te
##tf
##tg
##th
##ti
##tj
##tk
##tl
##tm
##tn
##to
##tp
##tq
##tr
##ts
##tt
##tu
##tv
##tw
##tx
##ty
##tz
##u
##ua
##ub
##uc
##ud
##ue
##uf
##ug
##uh
##ui
##uj
##uk
##ul
##um
##un
##uo
##up
##uq
##ur
##us
##ut
##uu
##uv
##uw
##ux
##uy
##uz
##v
##va
##vb
##vc
##vd
##ve
##vf
##vg
##vh
##vi
##vj
##vk
##vl
##vm
##vn
##vo
##vp
##vq
##vr
##vs
##vt
##vu
##vv
##vw
##vx
##vy
##vz
##w
##wa
##wb
##wc
##wd
##we
##wf
##wg
##wh
##wi
##wj
##wk
##wl
##wm
##wn
##wo
##wp
##wq
##wr
##ws
##wt
##wu
##wv
##ww
##wx
##wy
##wz
##x
##xa
##xb
##xc
##xd
##xe
##xf
##xg
##xh
##xi
##xj
##xk
##xl
##xm
##xn
##xo
##xp
##xq
##xr
##xs
##xt
##xu
##xv
##xw
##xx
##xy
##xz
##y
##ya
##yb
##yc
##yd
##ye
##yf
##yg
##yh
##yi
##yj
##yk
##yl
##ym
##yn
##yo
##yp
##yq
##yr
##ys
##yt
##yu
##yv
##yw
##yx
##yy
##yz
##z
##za
##zb
##zc
##zd
##ze
##zf
##zg
##zh
##zi
##zj
##zk
##zl
##zm
##zn
##zo
##zp
##zq
##zr
##zs
##zt
##zu
##zv
##zw
##zx
##zy
##zz
$
%
&
'
(
)
*
+
,
-
.
/
0
00
000
001
002
005
007
008
01
010
013
02
020
020364459
0274
03
033
0362
04
0408
05
050
06
068
07
08
083
09
097
0a
0b
0c
0d
0e
0f
0g
0h
0i
0j
0k
0l
0m
0n
0o
0p
0q
0r
0s
0t
0u
0v
0w
0x
0y
0z
1
10
100
1000
1001
1002
1007
101
1016
102
1020
102025
1021
1024
103
1038
104
105
1050
106
107
108
1080
1086
109
1093
11
110
1100
111
1111
112
1126
113
114
11402
115
116
117
118
119
12
120
1200
121
122
123
124
1246
125
1250
126
127
128
129
13
130
1300
131
132
133
134
135
136
1365
137
138
139
14
140
1400
141
142
143
144
145
146
147
148
149
1492
15
150
1500
151
1515
152
1521
1525
153
154
155
156
157
158
159
1592
1598
16
160
1600
1601
1603
161
162
163
164
165
166
1667
167
1670
1677
168
1680
1682
169
17
170
1700
171
1717
1719
172
1720
173
1730
174
1740
1745
1749
175
1750
1751
1753
1755
1756
1757
1758
176
1763
177
1770
1773
1774
1775
1778
178
1780
1783
1784
1785
1786
1787
1788
1789
179
1790
1791
1792
1793
1794
1795
1796
1797
1799
18
180
1800
1801
1802
1803
1804
1805
1806
1807
1808
1809
181
1810
1811
1812
1813
1814
1815
1816
1817
1818
1819
182
1820
1821
1822
1823
1824
1825
1826
1827
1828
1829
183
1830
1831
1832
1833
1834
1835
1836
1837
1838
1839
184
1840
1841
1842
1843
1844
1845
1846
1847
1848
1849
185
1850
1851
1852
1853
1854
1855
1856
1857
1858
1859
186
1860
1861
1862
1863
1864
1865
1866
1867
1868
1869
187
1870
1871
1872
1873
1874
1875
1876
1877
1878
1879
188
1880
1881
1882
1883
1884
1885
1886
1887
1888
1889
189
1890
1891
1892
1893
1894
1895
1896
1897
1898
1899
19
190
1900
1901
1902
1903
1904
1905
1906
1907
1908
1909
191
1910
1911
1912
1913
1914
1915
1916
1917
1918
1919
192
1920
1921
1922
1923
1924
1925
1926
1927
1928
1929
193
1930
1931
1932
1933
1934
1935
1936
1937
1938
1939
194
1940
1941
1942
1943
1944
1945
1946
1947
1948
1949
195
1950
1951
1952
1953
1954
1955
1956
1957
1958
1959
196
1960
1961
1962
1963
1964
1965
1966
1967
1968
1969
197
1970
1971
1972
1973
1974
1975
1976
1977
1978
1979
198
1980
1981
1982
1983
1984
1985
1986
1987
1988
1989
199
1990
1991
1992
1993
1994
1995
1996
1997
1998
1999
1a
1b
1c
1d
1e
1f
1g
1h
1i
1j
1k
1l
1m
1n
1o
1p
1q
1r
1s
1t
1u
1v
1w
1x
1y
1z
2
20
200
2000
2001
2002
2003
2004
2005
2006
2007
2008
2009
201
2010
2011
2012
2013
2014
2015
2016
2017
2018
2019
202
2020
2021
2022
203
204
205
206
207
208
209
21
210
211
212
213
214
215
216
217
218
219
22
220
221
222
223
224
225
226
227
228
229
23
230
2307
231
232
233
234
235
236
237
238
239
24
240
241
242
243
244
245
246
247
248
249
25
250
2500
251
252
253
254
255
256
257
258
259
26
260
261
262
263
264
265
266
267
268
269
27
270
271
272
273
274
275
276
277
278
279
28
280
281
282
283
284
285
286
287
288
289
29
290
291
292
293
294
295
296
297
298
299
2a
2b
2c
2d
2e
2f
2g
2h
2i
2j
2k
2l
2m
2n
2o
2p
2q
2r
2s
2t
2u
2v
2w
2x
2y
2z
3
30
300
3000
301
302
303
304
305
306
307
308
309
31
310
311
312
313
314
315
316
3166
317
318
319
32
320
321
322
323
324
325
326
327
328
329
33
330
331
332
333
334
335
336
337
338
339
34
340
341
342
343
345
346
347
348
349
35
350
351
352
353
354
355
356
357
358
359
36
360
361
363
365
366
367
369
37
370
372
375
376
379
38
380
382
383
384
385
386
387
388
39
390
391
392
393
394
395
396
398
399
3a
3b
3c
3d
3e
3f
3g
3h
3i
3j
3k
3l
3m
3n
3o
3p
3q
3r
3s
3t
3u
3v
3w
3x
3y
3z
4
40
400
4000
401
402
403
404
405
407
408
409
4096
41
410
411
412
413
415
416
417
418
419
42
420
422
424
425
428
43
430
432
433
4331
435
436848672
44
440
441
443
444
446
45
450
455
456
458
459
46
460
461
465
467
468
469
47
470
471
474
475
476
48
480
483
486
49
490
498
4a
4b
4c
4d
4e
4f
4g
4h
4i
4j
4k
4l
4m
4n
4o
4p
4q
4r
4s
4t
4u
4v
4w
4x
4y
4z
5
50
500
5000
501
502
503
51
510
511
515
517
52
520
521
525
527
528
53
530
5302
54
540
547
55
550
553
55750
56
560
562
565
567
57
570
574
576
579
58
580
582
583
59
590
5a
5b
5c
5d
5e
5f
5g
5h
5i
5j
5k
5l
5m
5n
5o
5p
5q
5r
5s
5t
5u
5v
5w
5x
5y
5z
6
60
600
6000
601
602
604
605
61
610
617
618
62
620
623
625
63
630
631
633
635
637
639
64
640
65
650
66
660
667
67
670
671
672
674
679
68
680
684
688
689
69
690
691
692
6a
6b
6c
6d
6e
6f
6g
6h
6i
6j
6k
6l
6m
6n
6o
6p
6q
6r
6s
6t
6u
6v
6w
6x
6y
6z
7
70
700
702
705
707
709
71
711
72
720
73
732
737
74
747
75
750
76
760
761
767
768
7698
77
770
777
78
780
787
79
794
799
7a
7b
7c
7d
7e
7f
7g
7h
7i
7j
7k
7l
7m
7n
7o
7p
7q
7r
7s
7t
7u
7v
7w
7x
7y
7z
8
80
800
8000
801
802
804
8048
81
810
8159
817
82
820
83
830
833
84
840
84596
85
850
85177
854
85409
8546
86
860
867
87
870
87021
88
880
89
893
8a
8b
8c
8d
8e
8f
8g
8h
8i
8j
8k
8l
8m
8n
8o
8p
8q
8r
8s
8t
8u
8v
8w
8x
8y
8z
9
90
900
9000
91
910
914
917
92
920
929
93
930
935
94
940
95
950
96
960
964
965
97
970
975
978
9786026250421
979
98
980
981
983
985
99
990
999
9a
9b
9c
9d
9e
9f
9g
9h
9i
9j
9k
9l
9m
9n
9o
9p
9q
9r
9s
9t
9u
9v
9w
9x
9y
9z
:
;
<
=
>
?
@
[
[CLS]
[MASK]
[PAD]
[SEP]
[UNK]
\
]
^
_
`
a
a0
a1
a2
a3
a4
a5
a6
a7
a8
a9
aa
aab
aabl
aac
aad
aadh
aadhe
aadi
aag
aaga
aagan
aagi
aah
aaj
aak
aakan
aaki
aaksa
aal
aala
aalak
aalan
aalang
aali
aalik
aalu
aalung
aam
aaman
aamb
aambang
aami
aamp
aamu
aan
aana
aanang
aanc
aand
aandh
aang
aangah
aangake
aangan
aangg
aangi
aangk
aani
aant
aanth
aany
aap
aapake
aapi
aar
aarake
aaran
aarang
aari
aaron
aas
aasi
aat
aatan
aath
aati
aaw
ab
aba
abab
abad
abadi
abah
abahan
abang
abasa
abbas
abbey
abc
abd
abdi
abdine
abdomen
abdul
abdullah
abdurrahman
abe
abel
aben
abi
abidin
abimanyu
abjad
abon
abot
abote
about
abraham
abrams
abri
abrik
abrit
abruzzo
abs
absen
absolut
abstract
abstrak
abu
abuh
abul
ac
academia
academic
academie
academy
acak
acar
acara
access
accessdate
accessed
accessyear
according
account
accrington
ace
aceh
acha
achievement
achmad
aci
acid
across
act
acting
action
active
activity
actor
actors
actress
ad
ada
adair
adalah
adam
adamel
adams
adan
adang
adaptasi
adas
adat
adate
address
ade
adeg
adegan
adelaide
adem
aden
adha
adhaptasi
adhedasar
adhedhasar
adhem
adhep
adhepan
adhi
adhik
adhine
adhon
adhonan
adhuh
adi
adicara
adik
adike
adikoesoemo
adil
adimulya
adiparwa
adipati
adit
aditif
aditya
adja
adjie
adler
admin
administrasi
administratif
administration
administrator
adnan
adobe
adobo
adoh
adohe
adol
adolf
adon
adonan
adreng
adrian
adsabs
adu
aduk
adult
adus
advanced
adventure
adventures
ae
aero
aeronautics
aevi
af
afar
afc
affair
affairs
affandi
afganistan
afghanistan
afi
africa
african
afrika
afrikaans
afs
after
ag
again
against
agam
agama
agamane
agami
agar
agatha
agawe
age
ageman
agen
agency
ageng
agengipun
agensi
agent
ager
ages
agnes
agni
agreement
agregat
agresi
agresif
agricultural
agriculture
agul
agung
agunge
agus
agustinus
agustus
ah
ahad
ahli
ahmad
ahmed
ahn
ai
aib
aichi
aid
aids
aim
ain
ainol
ainu
ainun
air
airbus
aircraft
aires
airlangga
airline
airlines
airport
airways
aisyah
aisyiyah
aix
aj
aja
ajag
ajaib
ajak
ajang
ajar
ajaran
ajax
ajeg
ajejuluk
ajek
ajeneng
ajeng
aji
ajine
ajisaka
ajrih
ajur
ak
aka
akad
akademi
akademik
akademis
akadhemi
akal
akaliyan
akan
akar
akasa
akb
akbar
ake
akeh
akehe
aken
akherat
akhir
akhirat
akhire
akhirnya
aki
akibat
akibate
aking
akir
akire
akita
akoe
akon
akrab
akreditasi
akronim
aksa
aksara
aksarane
aksen
akses
aksesoris
aksi
aktif
akting
aktinge
aktip
aktivis
aktivitas
aktor
aktris
aktuator
aku
akuarium
akuisisi
akun
akuntansi
akurat
akustik
akut
akweh
al
ala
alabama
alah
alai
alain
alam
alamanda
alamat
alami
alamiah
alamos
alan
alane
alang
alangan
alangi
alap
alas
alasan
alaska
alat
alawas
alba
albani
albania
albanian
albas
albert
alberta
alberto
albertus
albion
album
albume
albumin
albums
alcohol
alda
aldebaran
ale
alejandro
aleksander
alengka
aleppo
alergi
alesan
alessandro
alex
alexander
alexandra
alexandre
alexandria
alexis
alfa
alfabet
alfonso
alfred
alfredo
alga
algeria
algoritma
ali
aliansi
alias
alice
alicia
alien
alif
align
alih
alihan
alik
alim
aling
alip
aliran
alis
alison
alit
alitipun
aliyah
aljazair
alkali
alkaloid
alkitab
alkohol
all
alla
allah
allaha
allahe
allahi
allahu
allan
alle
allegri
allen
allergy
alliance
allison
allkpop
allmovie
allmusic
allowed
allyn
alm
almanak
almarhum
almond
almost
aln
alocasia
alon
alone
along
alonso
aloo
alor
aloysius
alpen
alpes
alpha
alpinia
alps
alpukat
als
alsace
also
alt
altar
alternatif
alternative
alto
alu
aluh
alum
aluminium
alumni
alun
alur
alus
alvarez
alvin
always
alwi
alyga
am
ama
amal
amalia
aman
amanat
amanda
amangkurat
amangsuli
amarga
amargi
amarta
amas
amatir
amazing
amazon
amba
ambal
ambalan
ambane
ambanipun
ambarawa
ambegan
ambek
ambekan
amben
amber
ambles
ambon
ambruk
ambu
ambune
amd
ameh
amen
amerga
amergi
america
american
americans
amerika
amerikah
ametung
amfibi
ami
amik
amin
amino
amir
amis
amit
among
amonia
amonium
amor
amos
amot
ampas
ampel
ampelgadhing
ampeyan
amphiprion
amplop
ampuh
ampun
amrih
ams
amsterdam
amuk
amung
amuntai
amy
an
ana
anadene
anafilaksis
anak
anakan
anake
anakipun
anakku
anakmu
anal
analisa
analisis
analog
analysis
anama
ananda
anane
anang
ananging
ananing
ananta
anas
anasir
anastasia
anatolia
anatomi
anatomy
ancaman
ancang
ancas
ancase
ancasipun
ancer
ancienne
ancient
ancol
and
anda
andadosaken
andalan
andalas
andalusia
andaman
anders
anderson
andes
andha
andhap
andharan
andhedhasar
andheng
andhika
andhra
andi
andika
andong
andorra
andra
andre
andrea
andreas
andres
andrew
andrews
andrieu
android
andy
ane
aneh
aneka
anem
anemia
anemon
aneng
ang
angandika
angel
angela
angeles
angelina
angelo
angels
angen
angene
anget
angga
anggadahi
anggara
anggaran
anggawe
anggegana
anggen
anggenipun
anggep
anggepan
angger
anggere
anggitan
anggitane
anggitanipun
anggo
anggone
anggonen
anggonku
anggonmu
anggota
anggotane
anggotanipun
anggrek
anggun
anggur
anghing
angier
angin
angine
anging
angka
angkah
angkara
angkasa
angkat
angkatan
angker
angklung
angkor
angkudan
angkutan
anglikan
angling
anglo
angola
angon
angrok
angsa
angsal
angsang
angslup
angucap
ani
animal
animals
animasi
animated
animation
anime
aningali
anise
anita
anjani
anjing
anjir
anjog
anjungan
ankara
ann
anna
annapolis
anne
anneahira
annie
annisa
anniversary
annotated
announced
announces
annual
anom
anoman
anon
anonim
anorganik
another
answers
antagonis
antar
antara
antarane
antaranews
antaraning
antareja
antariksa
antariksawan
antariksawati
antartika
antasari
antawis
antawising
antawisipun
antena
anteng
anthem
anthony
anthropological
anthropologist
anthropologists
anthropology
anti
antibiotik
antibodi
antigen
antigua
antik
anting
antioki
antioksidan
antiseptik
antistitum
antivirus
antoine
antologi
anton
antonelli
antonio
antonius
antony
antropolog
antropologi
antropologis
antuk
antv
anu
anugerah
anugrah
anumerta
anunten
anus
anusapati
anwar
any
anyaman
anyar
anyaran
anyare
anyep
ao
aomori
aos
aoyama
ap
apa
apadene
apal
apamaneh
apan
apartemen
apel
apem
apes
apg
api
apik
apike
aplikasi
apollo
apostolik
apostolo
appa
apple
appleton
application
applications
applied
approach
apr
apresiasi
apricot
april
apu
apud
apulia
apus
aq
aqsa
aquila
aquino
aquitaine
ar
ara
arab
arabia
arabic
aragon
arah
arahan
arak
arakan
aram
aran
arane
araneae
arang
araning
aransemen
aras
arc
arca
archaeological
archaeology
archdiocese
archeveques
archidioecesis
archipelago
architecture
archive
archived
archives
ardhana
ardi
are
area
areal
areas
arema
aren
arena
areng
arep
arepa
arepe
ares
arfak
arga
argentina
argo
argumen
argyle
ari
aria
arie
arief
ariel
aries
arif
arifin
arik
arimbi
aring
aris
aristoteles
arit
ariwarta
arizona
arjasa
arjuna
arjunawiwaha
arkansas
arkeolog
arkeologi
arktik
arm
armada
armand
armando
armeni
armenia
armenian
armour
arms
armstrong
army
arnada
arnold
arok
aroma
aromatik
arondisemen
around
arps
arroz
arsa
arsenal
arsip
arsitek
arsitektur
art
arta
arte
artefak
artemis
arteri
arthur
arti
article
articles
artikata
artikel
artileri
artine
artis
artist
artistik
artists
arts
arturo
aru
aruba
arum
arupa
arupi
arus
arwah
arya
as
asa
asahan
asal
asale
asalipun
asam
asap
asas
asasi
asat
asean
aseksual
asem
asemu
asep
asesirah
aset
asetat
ash
asha
ashkenazi
ashley
asi
asia
asian
asifat
asih
asil
asile
asiling
asilipun
asin
asinan
asing
asipat
asisten
asli
asline
aslinipun
asma
asmane
asmani
asmanipun
asmara
asmat
asoka
asor
asosiasi
asp
aspal
asparagus
aspek
aspx
asrama
asrep
asri
asring
assam
assembly
assessment
assist
associated
associates
association
associations
asta
astana
astane
astanipun
astari
asteroid
asti
astina
aston
astra
astragara
astrid
astro
astronaut
astronom
astronomi
astronomical
astronomiques
astronomy
astrophysics
astuti
asu
asuhan
asupan
asuransi
aswara
asy
at
ata
atap
atas
ataturk
atau
atawa
ateges
aten
atena
ateng
ater
athena
atheneum
athens
athik
athletes
athletic
ati
atiku
atimu
atine
atis
atlanta
atlantic
atlantik
atlas
atlet
atletico
atletik
atlit
atma
atmosfer
atom
atomic
atos
atp
atr
atraksi
atribut
atsiri
attack
atur
aturan
ature
atus
atusan
au
auckland
audio
audisi
auf
aug
august
auguste
augustus
auksilier
aula
aulia
aun
aura
auriga
aurora
aus
austin
australe
australia
australian
australis
austria
austronesia
authentic
author
authority
authors
auto
autobiography
autobots
autofocus
autotrof
autumn
aux
av
available
avatar
avec
avenue
avian
aviation
avila
aviv
avr
aw
awak
awake
awakipun
awakku
awakmu
awal
awale
awalipun
awam
awan
awang
awangun
award
awards
awarna
awas
awatara
away
aweh
awerna
awerni
awet
awis
awit
awoh
awon
awor
awrat
awu
awujud
ax
ay
aya
ayah
ayahan
ayam
ayang
ayat
ayem
ayer
ayo
ayu
ayub
ayun
az
azerbaijan
azeri
azhar
azhari
azis
aziz
b
b0
b1
b2
b3
b4
b5
b6
b7
b8
b9
ba
bab
baba
babad
babadan
babagan
babak
babakan
babar
babaran
babat
babel
babi
babilon
babilonia
bablas
babon
babu
baby
baca
bacaan
bachtiar
back
backeb
background
backing
bacon
bad
badai
badan
badane
badanipun
bade
baden
badhe
badiatul
badminton
badung
badut
baduy
bae
baek
bag
bagan
bagas
bagaskara
bagean
bagel
bagelen
bageyan
baghdad
bagi
bagian
bagiyo
bagong
baguette
bagus
bah
baha
bahagia
bahan
bahane
bahari
bahasa
bahaya
bahia
bahkan
bahrain
bahu
bahwa
bai
baik
bailey
baim
bait
baita
baja
bajak
bajanegara
bajang
bajing
bajra
baju
bak
baka
bakal
bakalan
bakale
bakar
bakat
bakate
bakau
bakda
baker
bakery
baki
baking
bakmi
bako
bakpia
bakrie
bakso
bakteri
bakti
baku
bakul
bakumpai
bakune
bakung
bal
bala
balada
baladewa
balado
balai
balan
balane
balangan
balap
balapan
baldwin
bale
balen
balene
baleni
balet
balfour
bali
balik
balikpapan
baline
baling
balkan
ball
balok
balon
balongpanggang
baltik
baltimore
balung
balungan
bambang
bambu
ban
banana
banarawa
band
banda
bandar
bandara
bandawasa
bandeng
bandha
bandhane
bandhang
bandhung
banding
bandjoer
bandung
bang
banget
bangga
banggai
banggala
banggaladesa
bangka
bangkalan
bangkekan
bangkit
bangkok
bangkrut
bangku
bangladesh
bangli
bango
bangsa
bangsal
bangsane
bangsaning
bangsawan
bangsri
bangun
bangunan
banh
bani
banjar
banjaran
banjaransari
banjarbaru
banjareja
banjarharja
banjarmasin
banjarnegara
banjarsari
banjir
banjur
bank
banks
bantah
bantal
bantalan
banten
banteng
banter
bantheng
bantu
bantuan
bantul
banu
banua
banyak
banyu
banyuasin
banyubiru
banyumas
banyumasan
banyune
banyuurip
banyuwangi
bao
bapa
bapak
bapake
bapakipun
bapakku
bapakmu
bapakne
bapane
bapanipun
bappeda
baptis
baptiste
bar
bara
barabudhur
barack
barak
barang
barange
barat
barata
barbados
barbara
barbecue
barcelona
barclays
bareng
barengan
barenge
bares
bari
baris
barisan
barito
barkas
barker
barley
barnabas
barnes
baro
baron
barong
barongan
barry
bartlett
baru
barung
bas
basa
basah
basan
basane
basanipun
base
baseball
based
basel
basic
basil
basilica
basilicata
basilika
basin
basis
basise
basket
basque
bass
bastian
basuki
bat
bata
batak
batal
batalyon
batam
batang
batangan
batara
batas
batavia
batawi
bates
bath
bathang
bathara
bathari
bathi
bathik
bathikan
bathok
bathuk
bati
batik
batin
batine
batman
batrene
battle
batu
batuan
batubara
batur
baturaden
bau
baurena
bausastra
bauwarna
bavaria
bawa
bawah
bawahan
bawana
bawang
bawean
bawur
bay
baya
bayam
bayan
bayang
bayangan
bayar
bayaran
bayem
bayer
bayern
bayi
bayine
bayu
baznas
bb
bbc
bbm
bc
bd
be
beach
bean
beans
bear
beasiswa
beast
beat
beatles
beato
beatrix
beautiful
beauty
beaya
bebadan
beban
bebarengan
bebas
bebasan
bebaya
bebek
beber
beberapa
bebingah
bebojoan
bebrayan
bebrayanan
bebungah
becak
became
because
becik
becike
beck
becker
beckett
beckham
become
becomes
beda
bedah
bedane
bedang
bedanipun
bedha
bedhah
bedhamen
bedhaya
bedhil
bedhug
bee
beef
been
beer
before
beg
begawan
begin
beginning
begins
begitu
begja
behind
bei
beijing
being
beirut
beja
bejen
beji
bejo
bek
bekas
bekasi
bekel
bekerja
bekicot
beksa
beksan
bekta
bekti
beku
bel
bela
beladiri
belah
belahan
belajar
belakang
belanda
belang
belarus
belas
belasting
belfast
belgi
belgia
beli
beliau
belik
beling
belitung
belize
bell
bella
belle
belo
belt
beluk
belum
ben
benang
benar
benawa
bencana
benci
benda
bendahara
bendara
bendera
bendha
bendungan
benedict
benedictii
benediktus
bener
benere
benetti
benevento
benfica
bengak
bengal
bengali
bengawan
benggala
bengi
bengkalis
bengkel
bengkok
bengkong
bengkulu
bengok
benik
benin
bening
benjamin
benjeng
benjing
bennett
benny
bensin
bentang
benten
benteng
bentenipun
benter
bento
bentuk
bentuke
bentukipun
benua
benyamin
benz
benzema
beograd
ber
beracun
berada
beralkohol
berang
berarti
beras
berasal
berat
berau
berbagai
berbagi
berbasa
berbasis
berber
bercak
berdarah
berdasarkan
berencana
berg
bergamo
bergantung
bergas
berger
bergerak
bergman
berguna
berhasil
beri
berikut
beringin
berisi
berita
berjuang
berkah
berkas
berkat
berkeley
berkembang
berkompetisi
berlian
berlin
berliner
bermain
bermuda
bern
bernama
bernard
bernardo
beroperasi
berpengaruh
berperan
berry
bersama
bersambung
bersatu
bersaudara
bersejarah
bersenjata
bersih
bertahan
bertahap
bertanggung
bertasbih
bertrand
berturut
beruang
berubah
berwarna
besar
besaran
besi
best
besuk
besut
bet
beta
betah
betahaken
betawi
beteng
beth
betlehem
beton
betta
better
betty
betula
between
betyik
beverages
beya
beyond
bf
bg
bh
bhakti
bharat
bhatara
bhayangkara
bhre
bhumi
bhutan
bi
biak
biara
biarawan
biarawati
biarkan
bias
biasa
biasane
biasanipun
biasanya
biaya
bibar
bibcode
bibi
bibir
bibit
bible
biblica
biblical
bibliographique
bibliography
bicara
bid
bidadari
bidang
bidhal
bieber
big
biggest
bihar
bihun
biji
bijian
bikin
bikini
biksu
bila
bilang
bilangan
bilih
bilik
bill
billboard
billie
billy
bima
bimasekti
bimbingan
bimbo
bimo
bin
bina
binangun
binar
binatang
biner
bing
bingung
binjai
bintang
bintara
binti
bintik
binuka
bio
biodata
biografi
biographical
biography
biokimia
biol
biologi
biological
biologis
biology
bioskop
bir
birch
bird
birdlife
birds
birmingham
biro
birth
biru
biryani
bis
bisa
bisaa
bisane
bisbol
bishop
bishops
biskop
biskuit
bisma
bisnis
bison
bissau
bistumer
bisu
bit
bitung
biyantu
biyasa
biyasane
biyen
biyene
biyoskup
biyung
biyunge
bizantium
bj
bk
bl
blabag
black
blackberry
blackburn
blackpool
blackwell
blade
blair
blak
blaka
blake
blambangan
blanc
blang
blangkon
blanja
blas
ble
bleach
bledheg
bledug
bleg
blencong
blender
bless
blethok
blimbing
blind
blink
blitar
block
blog
blogspot
blok
blood
bloody
bloom
bloomberg
bloomsbury
blora
blorong
blu
blue
blueberry
blues
bluluk
blumbang
bm
bn
bo
board
boat
bob
bobby
bobot
bobote
boca
bocah
bocahe
bocor
bodeh
bodho
bodo
body
boeing
boemi
bogor
bohemia
bohol
boja
bojanegara
bojo
bojoku
bojomu
bojone
bojonegoro
bojong
bok
bokmanawa
bokmenawa
bokong
bokor
bola
bolaang
bolah
bolak
bold
boleh
bolivia
bollywood
bologna
bolong
bolongan
bolton
bolu
bom
bombana
bombay
bon
bonang
bonaparte
bonar
bond
bondowoso
bone
boneka
bonekah
bong
bonggol
bonifatius
bonjol
bonnie
bono
bontang
boo
book
books
boom
boot
bor
bordeaux
borden
border
boris
born
borneo
borobudur
borough
borussia
borys
bos
bosch
bosen
bosni
bosnia
bosok
boss
boston
bot
botani
botanical
botany
boten
both
botol
botswana
bottom
botyah
botyahe
bourbon
bourne
bowl
box
boxofficemojo
boy
boyalali
boyband
boyd
boyle
boyolali
boys
bp
bpk
bps
bq
br
bra
brabant
brad
bradley
brady
brahala
brahma
brahmana
brahmi
brain
bram
brama
bramantyo
brambang
branch
brand
brandon
brantas
brasil
brasilia
brata
brave
brawijaya
brayat
brayate
brazil
brazilian
bread
break
breakfast
breaking
brebes
bregada
bremen
brendan
brengos
brescia
brett
brian
bridge
bridges
brie
brief
brien
brigade
brigadir
bright
brigjen
brill
brine
bring
bringin
brisbane
bristol
britain
britania
britannica
british
brittany
britton
broadcast
broadcasting
broadway
brock
brod
broken
brokoli
brol
brondong
bronx
brooklyn
brooks
bros
brosnan
brother
brothers
brown
bruce
brunei
bruno
brussels
bruwang
bryan
bs
bse
bst
bt
bts
bu
buah
buana
buang
buat
buatan
buaya
buayan
bubar
bubrah
bubuk
bubur
buck
buda
budak
budal
budapest
budaya
budayawan
buddha
buddhi
buddhist
budget
budha
budhal
budhaya
budheg
budhi
budi
budidaya
budiman
budine
buenos
buffalo
buffon
bug
bugis
building
bujana
bujang
bujur
buk
buka
bukaan
bukak
bukan
bukane
bukhari
bukit
bukittinggi
bukti
buktine
buku
bukune
bukunipun
bulakamba
bulan
bulat
bule
buleleng
buletin
bulgari
bulgaria
bull
bulletin
bullock
bulu
bulungan
bulus
bumblebee
bumbon
bumbu
bumbung
bumi
bumiayu
bumn
bun
buncis
bunda
bunder
bunderan
bundesliga
bundher
bung
bunga
bungah
bungahe
bungkus
bungsu
bungur
buntel
buntet
buntu
buntung
buntut
buntute
bunuh
bupati
bur
bureau
burger
buri
burisrawa
burke
burkina
burma
burns
buron
bursa
burton
buru
buruh
buruk
burundi
burung
bus
busa
busan
busana
bush
business
busur
but
buta
butir
butler
buton
butter
buttermilk
butuh
buwana
buwang
buwono
buyar
buyut
bv
bw
bwf
bx
by
byar
byrne
byung
byzantine
byzantium
bz
c
c0
c1
c2
c3
c4
c5
c6
c7
c8
c9
ca
cabai
cabang
cabe
cabello
cabinet
cable
cacad
cacah
cacahe
cacahing
cacahipun
cacar
cacat
cacing
cactus
cadangan
cadhangan
caesar
cafe
caffeine
cagak
cagar
cagliari
cah
cahaya
cahya
cai
cair
cairan
cairo
cak
caka
cakalang
cakar
cake
cakes
caket
caketipun
cakil
cakra
cakram
cakraningrat
cakrawala
cala
calabria
calcio
calendar
california
call
called
calon
calone
calvin
cam
camat
cambodia
camboran
cambridge
came
cameo
camera
cameron
camille
camp
campaign
campaka
campania
campbell
campo
campur
campuran
campursari
camu
can
canada
canadian
canal
canary
canavese
canberra
cancer
candhak
candhake
candhakipun
candhi
candi
candra
candu
candy
canggih
cangkang
cangkem
cangkeme
cangkir
cangkok
cangkriman
cangkring
canis
cannes
canon
canthing
cantik
canton
cantona
canyon
cao
cap
capacitive
cape
caping
capital
cappelletti
captain
car
cara
carabasa
caraka
carakan
carane
carang
caranipun
carbon
card
cardiff
cardinalium
care
career
carey
cargo
cari
caribbean
carik
carita
caritane
cariyos
cariyosipun
carkak
carl
carla
carlo
carlos
carne
carnival
carol
carolina
caroline
carolyn
carrie
carrier
carroll
cars
carta
cartagena
carter
cartoon
caruban
cas
casa
cascade
case
cases
casey
casing
casino
casserole
cast
casting
castle
castro
cat
catalan
catalog
catalogue
catalogues
catatan
catedral
category
cathedral
cathedrale
catherine
cathetan
catholic
catholica
catholicae
catur
caution
cave
cavendish
cawan
cawang
cawe
cayenne
cayman
cb
cbc
cbs
cc
cd
cdc
cdot
ce
cebol
cebu
cecak
cecek
cedera
cedhak
cedhake
cek
cekak
cekakan
cekake
cekap
cekel
cekelan
ceker
ceko
cekoslowakia
cekot
cekungan
celah
celak
celathu
celcius
celebrity
celeng
celery
cell
cells
celtic
celuk
celukan
celup
cemara
cemeng
cemerlang
cemilan
cempa
cempaka
cendekiawan
cenderung
cendhak
cendhek
cendhela
cendhok
cendhol
cendrawasih
cenenge
cenger
cengkar
cengkeh
cenil
census
centauri
centaurus
center
centers
centhini
central
centre
centuries
century
ceo
cepak
cepat
ceper
cepet
cepiring
ceplok
cepu
cerah
cerai
cerak
cerbon
cerdas
ceremony
ceres
ceri
cerita
ceritane
cerkak
cerme
cermin
cerpen
ces
cesar
cet
cetak
cetakan
cetha
cethek
cewek
ceylon
cf
cg
cgi
ch
cha
chad
chae
chain
chairil
chaiyya
chal
challenge
challenger
chamber
chambers
champagne
champion
champions
championship
championships
chan
chance
chandra
chang
change
changes
changing
channel
chao
chaplin
chapman
chapter
char
character
characters
charles
charleston
charlie
charlotte
charlton
chart
charter
charts
chase
chateau
chavacano
che
check
cheddar
cheese
chef
chefs
chelsea
cheltenham
chem
chembox
chemical
chemistry
chen
cheney
cheng
cherry
cheryl
chesneau
chester
cheung
chevrolet
chi
chiang
chiba
chicago
chicken
chief
chiesa
chiese
chieti
chihuahua
child
children
chile
chili
chin
china
chinese
chip
chisholm
chloe
cho
chocolate
choi
choice
chongqing
chorizo
chorus
chosun
chow
chowder
chris
christ
christian
christiana
christianity
christie
christina
christine
christmas
christoph
christopher
chrisye
chronicle
chronology
chu
chuck
chum
chun
chung
church
churches
churchill
chutney
ci
cia
ciamis
cianjur
cicero
cid
cidra
cif
cikal
cikampek
cikarang
cilacap
cilaka
cilantro
cilegon
cilik
cilikan
cilike
cilongok
cimahi
cina
cincang
cincin
cincinnati
cinderella
cindhe
cindy
cinema
cinemascore
cineplex
cinta
cintaku
cinten
cipta
ciptaan
circle
cirebon
ciri
cirine
cita
citation
cite
cites
cithak
cithakan
cities
citra
citrus
citta
city
ciudad
ciut
civil
civilization
ciyut
cj
ck
cl
claim
claims
claire
clana
clara
clark
clarke
class
classic
classical
classics
classification
claude
claudia
clayton
cle
clear
clemens
clement
cleopatra
cleveland
cliff
clifford
climate
clinical
clinton
clio
clock
close
cloud
club
clubs
cm
cn
cnn
co
coach
coast
coauthors
coba
coca
cocktail
coco
cocog
cocok
coconut
cod
code
codes
coen
coffee
cohen
cokelat
coklat
cokotan
col
cola
cold
coldplay
cole
coleti
coli
colin
collected
collection
collections
college
collider
collins
colombia
colombo
colong
colonial
color
colorado
columbia
columbus
com
comal
combinedfleet
come
comeback
comedy
comes
comic
comics
coming
comingsoon
commentary
commerce
commercial
commission
committee
common
commons
commonwealth
commune
communication
communications
community
como
compagnie
companion
company
comparative
compendium
competition
complete
complex
composition
comprehensive
computer
comte
comune
comuni
con
conan
concepcion
concert
concise
concordat
conference
confirmed
conflict
congo
congress
connecticut
connor
conrad
conradus
conservation
consortium
constellation
constellations
constitution
construction
contact
conte
contemporary
content
contest
context
continental
conto
contoh
contone
contract
contribution
control
convention
converse
conway
cook
cookbook
cookery
cookie
cookies
cooking
cooks
cool
cooper
cooperation
coordinates
copa
copot
coppa
copy
copyright
cor
corak
cordoba
core
corn
cornelis
cornelius
cornell
cornwall
coro
corona
coronavirus
corong
corp
corporate
corporation
cory
cos
costa
cot
cote
could
council
count
countries
country
county
coupe
course
court
courtney
cov
cover
covid
cowok
cox
cp
cq
cr
crab
craig
craken
cranberry
crash
crazy
crc
cream
creation
creative
creek
crema
creme
creole
crepe
crew
crewe
cri
crime
criminal
crisis
crita
critane
critical
critics
crj
croatia
croatian
cronquist
crops
cross
croup
crown
cruise
cruisers
crustacea
cruz
cry
crystal
cs
cstn
ct
cu
cuaca
cuba
cuban
cublak
cucak
cuci
cucu
cucuk
cucur
cuisine
cuk
cuka
cukup
cukur
culika
culinary
cultural
culture
cultures
cum
cumbana
cumi
cumin
cumplung
cundhuk
cup
cupet
cuplikan
cupu
cur
curacao
curah
curcuma
curd
cures
curie
current
curry
curtis
curug
curup
custard
customs
cut
cuvier
cuwer
cuweran
cv
cw
cx
cy
cyber
cycle
cyelin
cygnus
cynthia
cyprus
cyril
cyrus
cz
czech
d
d0
d1
d2
d3
d4
d5
d6
d7
d8
d9
da
dada
dadak
dadakan
dadar
dadekake
dadi
dadia
dadine
dados
dadosaken
dadu
dadya
dae
daendels
daeng
daerah
daftar
dagang
dagangan
daging
daginge
daha
dahana
dahat
dahi
dahlan
dahsyat
dai
daihatsu
daily
dairi
daisy
dak
dakota
daksa
dakwah
dal
dalah
dalai
dalam
dalan
dalanan
dalane
dalang
dale
dalem
daleme
dalemipun
dalil
dalla
dallas
dalle
dalton
dalu
dam
damai
damar
damaskus
dame
damel
damelan
damelanipun
damen
dami
damian
damon
dampak
dampar
dampare
dan
dana
danar
danaraja
danau
danawa
dance
dandan
dandanan
dandang
dandani
dander
dang
dangdut
dangu
dangunipun
dani
daniel
daniels
danish
daniswara
danny
dano
dans
dante
danu
danube
danureja
daop
dapat
dapur
dar
dara
darah
darat
daratan
darbe
darbeke
darbene
dari
daring
daripada
darius
dark
darma
darmawan
darul
darurat
darussalam
darwin
das
dasa
dasamuka
dasanama
dasar
dasarata
dasare
dasawarsa
dashi
dat
data
database
datan
datang
datar
dataran
datasd
date
dateng
dates
datheng
dati
datuk
daud
daughter
daun
daur
dave
daved
david
davidson
davies
davis
dawa
dawane
dawaning
dawanipun
dawe
dawet
dawn
dawson
dawud
dawuh
day
daya
dayak
dayane
dayoh
days
db
dc
dd
de
dead
deadline
deadurl
deal
dean
dear
death
debat
debu
debut
debute
dec
december
decepticons
dedagangan
deddy
dede
dedeg
dedes
dedonga
dedunung
dee
deep
default
defender
defense
definisi
definition
degan
degli
degradasi
dehidrasi
dei
dek
dekade
dekan
dekat
deklarasi
dekne
dekorasi
del
delaware
delegasi
deleng
delengen
delhi
deli
delica
delicious
delima
dell
della
delle
delokke
delonge
delphinium
delta
demak
demam
demang
demi
demit
demite
demo
democracy
democratic
demokrasi
demokrat
demokratik
demokratis
demung
den
dendam
dendy
dene
dengan
dengue
deni
dening
denira
denis
denise
denmark
dennis
denny
denpasar
denta
denver
denya
depan
departemen
departement
department
depdagri
depdikbud
depdiknas
depok
depresi
depuis
deputi
der
derajat
derby
derbyshire
derek
dereng
deres
dermaga
deryck
des
desa
desain
desainer
desaku
desane
descendants
description
desember
desert
design
deskripsi
deso
dessert
desserts
destiny
destroyers
detail
detailed
details
detective
detektif
detik
detiknews
detroit
deutsche
development
devi
devil
devin
devon
dewa
dewan
dewanagari
dewantara
dewasa
dewata
dewati
dewe
dewek
deweke
dewi
df
dfb
dg
dh
dha
dhabi
dhadha
dhadhane
dhadhap
dhadhu
dhaerah
dhaftar
dhahar
dhaharan
dhaka
dhalang
dhampar
dhana
dhandhang
dhani
dhanu
dhaptar
dhapur
dhapure
dharah
dharat
dharatan
dharma
dharmasraya
dharmawangsa
dhasar
dhasare
dhasaring
dhasaripun
dhata
dhataran
dhateng
dhaup
dhawah
dhawet
dhawuh
dhawuha
dhawuhe
dhawuhing
dhayoh
dhe
dhebat
dhebut
dhedhasar
dhefinisi
dheg
dhegan
dhek
dhele
dheleg
dhemen
dhemit
dhemokrasi
dhemokrat
dhemokratik
dhemonstrasi
dhendha
dhendheng
dhenemarken
dhengkul
dhepartemen
dhepok
dheret
dhesember
dhetik
dhewan
dhewe
dhewek
dhewekan
dheweke
dhi
dhialek
dhiameter
dhik
dhimensi
dhindhing
dhines
dhirektur
dhiri
dhirine
dhisik
dhiskusi
dhistrik
dho
dhobel
dhokter
dhoktor
dhoktrin
dhokumen
dhosen
dhu
dhudha
dhudhuk
dhuh
dhukuh
dhukun
dhukungan
dhumateng
dhusun
dhuwe
dhuweni
dhuwet
dhuwit
dhuwite
dhuwur
dhuwure
dhuwuring
dhuwuripun
di
dia
diabetes
diadani
diadaptasi
diadegake
diadhekake
diadopsi
diaduk
diagnosis
diah
diajak
diajari
diajeni
diakoni
diakses
dialami
dialek
dialog
diam
diamati
diambil
diameter
diameteripun
diamond
dian
diana
dianakake
diandharake
diane
dianggap
dianggep
dianggit
dianggo
diangkat
dianugerahi
dianut
dianyari
diapit
diapusi
diarahake
diarani
diare
diarsip
diary
diasilake
diasinake
diaspora
diatur
diawetake
diayahi
diaz
dib
dibabar
dibabarake
dibagi
dibakar
dibalekake
dibandhingake
dibandingake
dibangun
dibantu
dibaptis
dibarengi
dibatalake
dibawahi
dibayar
dibebasake
dibedakake
dibedhah
dibeleh
dibentuk
diberikan
dibiase
dibintangi
dibongkar
dibubarake
dibudidayakake
dibuka
dibukak
dibuktekake
dibumboni
dibumbui
dibungkus
dibuntel
diburu
dibusak
dibutuhake
dibuwang
dic
dicakake
dicampur
dicampuri
dicaprio
dicaritakake
dicathet
dicaturake
diced
dicekak
dicekel
diceluk
dicelup
dicelupake
dicemplungake
dicet
dicetak
dicethakake
dicincang
diciptakake
dicithak
dick
dickens
dicoba
dicokot
dicolong
dicopot
dicritakake
dictionaries
dictionary
dicukur
diculake
diculik
did
didadekake
didadekke
didadikake
didakwa
didamel
didandani
didegake
dideleh
dideleng
didelok
didh
didhahar
didhaku
didhapuk
didhasarake
didhawuhi
didhelikake
didheplok
didi
didier
didik
didokok
didokoki
didol
didominasi
didunungi
diduweni
die
died
diedol
diego
dieja
diekspor
diekstrak
dieling
diemot
dieng
dienggo
dienggoni
dienteni
dies
diesel
diet
dieter
dietokke
dietung
difermentasi
difference
different
dig
digabung
digabungake
digagas
digambar
digambarake
digandhengake
diganggu
digantekake
diganti
digantung
digarap
digaringake
digatekake
digawa
digawe
digayuh
digayutake
digdaya
digebyakake
digedhekake
digelar
digiling
digit
digital
digiyarake
digodhog
digoleki
digolongake
digoreng
digosok
digulung
digunaake
digunakake
digunakan
dihias
dihiasi
diidentifikasi
diidini
diilangi
diilhami
diiloni
diingu
diiringi
diiris
diiseni
diisi
diitung
dijadwalake
dijaga
dijak
dijaluk
dijaluki
dijangkepi
dijanji
dijenengake
dijenengi
dijlentrehake
dijuluki
dijupuk
dijurung
dik
dika
dikabarake
dikabarke
dikalahake
dikancani
dikandhakake
dikandhani
dikanggo
dikanggokke
dikantheni
dikarang
dikarepake
dikarepke
dikasilake
dikatutake
dikawruhi
dikeki
dikekke
dikelola
dikemas
dikembangake
dikenal
dikenalake
dikenali
dikepung
dikeringake
dikethok
dikira
dikirim
diklasifikasikake
diklompokake
diklumpukake
dikombinasikake
dikon
dikonfirmasi
dikongkon
dikonsumsi
dikontrak
dikontrol
dikramakake
dikritik
dikuasai
dikubur
dikukuhake
dikukus
dikum
dikumbah
dikumpulake
dikunjara
dikupas
dikurangi
dikutip
dikuwasani
dikwasani
dil
dilacak
diladeni
dilairake
dilakokake
dilakoni
dilan
dilanjutake
dilantik
dilapisi
dilaporake
dilapurake
dilarang
dilatih
dilayani
dilebokake
dilebokke
dileboni
dilengkapi
dilestarekake
dili
dililani
dilindhungi
diliwati
dill
diluncurake
dim
dimainake
dimainke
dimaksud
dimaksudake
dimanfaatake
dimangerteni
dimas
dimasak
dimenangake
dimensi
dimodifikasi
dimulai
dimupangatake
din
dina
dinamika
dinamis
dinane
dinar
dinas
dinasti
dinding
dingapura
dingerteni
dinggo
dingin
dini
dining
dinner
dino
dinobatake
dinosaurus
dinten
dintenipun
dinuga
dinyanyekake
dinyatakake
dinyawijike
diobahake
diobati
diobong
diocesan
diocese
dioceses
diocesi
dioecesis
dioksida
diolah
diombe
diomong
diomongi
diomongke
dion
dionceki
diopeni
dioperasikake
diowah
diowahi
dioyak
dip
dipacak
dipadakke
dipadhakake
dipamerake
dipanagara
dipandhegani
dipanegara
dipanen
dipangan
dipanggang
dipanggedheni
dipanggil
dipanggoni
dipara
diparagani
diparani
diparingake
diparingi
diparo
diparut
dipasang
dipasangi
dipasarake
dipasrahake
dipasrahi
dipasrahke
dipateni
dipati
dipecah
dipecat
dipegat
dipek
dipekaki
dipeksa
dipengaruhi
dipengeti
dipenging
dipengini
dipentasake
dipenteng
dipepaki
dipepe
diperagakake
diperanake
diperang
dipercaya
diperes
diperlokake
dipertal
dipigunaake
dipigunakake
dipikir
dipikolehi
dipilara
dipilih
dipimpin
dipindah
dipindhah
dipiranteni
dipisah
dipisahake
dipituturake
dipl
diploma
diplomat
diplomatik
diponegoro
dipotong
diprakirakake
diprentah
dipretyaya
dipriksa
diprodhuksi
diproduksi
dipromosikake
dipromosike
diproses
dipuja
dipuji
dipun
dipunadani
dipunadegaken
dipunagem
dipunajokaken
dipunakeni
dipunakses
dipunandharaken
dipunangge
dipunanggep
dipunanggit
dipunangkat
dipunarahaken
dipunasilaken
dipunatur
dipunbabar
dipunbangun
dipunbekta
dipunbentuk
dipunbeta
dipunbetahaken
dipunbikak
dipunbiyantu
dipuncakaken
dipuncampur
dipuncariyosaken
dipuncawisaken
dipuncekak
dipuncepeng
dipundadosaken
dipundamel
dipundhahar
dipundhirikaken
dipundhut
dipunewahi
dipungadhahi
dipungambaraken
dipungayutaken
dipunginaaken
dipunginakaken
dipungkasi
dipungodhog
dipungoreng
dipunisi
dipunjagi
dipunjangkepi
dipunkasilaken
dipunkelola
dipunkembangaken
dipunkempalaken
dipunkenal
dipunkintun
dipunkiteri
dipunlajengaken
dipunlaksanakaken
dipunlampahaken
dipunlampahi
dipunlantik
dipunlebetaken
dipunmangertosi
dipunmasak
dipunminggahi
dipunnamani
dipunolah
dipunpandhegani
dipunpanggihi
dipunparagani
dipunparingaken
dipunparingi
dipunpasang
dipunpejahi
dipunpendhet
dipunpentasaken
dipunperang
dipunpilih
dipunpimpin
dipunpindhah
dipunpirsani
dipunpitados
dipunpitadosi
dipunpracaya
dipunprakirakaken
dipunproduksi
dipunpundhut
dipunpungkasi
dipunrancang
dipunremeni
dipunrilis
dipunripta
dipunsade
dipunsajekaken
dipunsarekaken
dipunsebabaken
dipunsebat
dipunsebataken
dipunsebut
dipunsebutaken
dipunsengkuyung
dipunserat
dipunsimpen
dipunsukani
dipunsusun
dipunsutradarani
dipunsuwun
dipuntambah
dipuntambahi
dipuntampi
dipuntemtokaken
dipuntepang
dipuntepangaken
dipuntepangi
dipunterbitaken
dipunterjemahaken
dipuntetepaken
dipuntimbali
dipuntindakaken
dipuntingali
dipuntunjuk
dipuntutup
dipunundhuh
dipununduh
dipunwaos
dipunwastani
dipunwedalaken
dipunwiwiti
dipunwontenaken
dipunyasa
diputer
dir
dirajang
dirampungake
dirancang
dirasakake
dirayakake
direbut
direct
direction
director
directory
direkam
direksa
direksi
direktorat
direktori
direktur
dirembug
diremuk
direncanakake
direndhem
direnovasi
diresiki
diresmekake
diresmikake
direwangi
dirga
dirgantara
diri
dirilis
diripta
diriwayatake
dirjen
dirungokake
dirungokke
dirusak
dis
disahake
disajekake
disajeni
disajikake
disaranake
disarekake
disaring
disarujuki
disaster
disawang
discover
discovery
disease
diseases
disebabake
disebabke
disebar
disebarake
disebul
disebut
disebutake
disedhiyakake
diselehake
disenengi
disengaja
disengkuyung
diserang
diserat
disertasi
disetel
disetrap
disetujoni
disewa
dish
dishes
disiapake
disiarake
disigar
disik
disiksa
disilihake
disimpen
disinaoni
disingkat
disingkirake
disiplin
disiram
disiya
disiyapake
disiyarake
disk
diskriminasi
diskusi
disney
disneyland
displaystyle
disponsori
distances
distilasi
distribusi
distributa
distribution
distributor
district
distrik
disuguhake
disusul
disusun
disutradarai
disutradarani
disutradharani
dit
ditabuh
ditahan
ditahbisake
ditakoni
ditaleni
ditambah
ditambahake
ditambahi
ditambani
ditampa
ditampik
ditampilake
ditandangi
ditandhani
ditandur
ditanduri
ditangani
ditangekke
ditarik
ditata
ditatah
ditawakake
ditawani
ditayangake
ditayangke
ditegesi
ditekani
ditekuk
ditembak
ditembangake
ditemokake
ditemoni
ditempuh
ditemtokake
ditemu
ditengeri
ditepungake
ditepungi
diterangake
diterbitake
diterbitkan
diterbitke
diterjemahake
diterjemahkan
diterusake
ditetepake
ditimbang
ditindakake
ditindakke
ditinggal
ditinggalake
ditingkatake
ditingkatke
ditiru
dititeni
ditjen
ditliti
ditokake
ditolak
ditonton
ditransfer
ditrapake
ditrapi
ditresnani
dituduhake
ditugasake
ditujokake
dituju
dituku
ditulis
ditulungi
ditumbuk
ditumpuk
ditunjuk
diturunake
dituruti
ditutup
ditutupi
dituturake
ditya
dityawiske
dityekel
dityeluk
diubengi
diucapake
diudhunake
diuji
diukir
diukum
diukur
diuleg
diuleni
diumumake
diundang
diundhang
diundhuh
diunduh
diunekake
diunggahake
diurmati
diurus
diusir
diusulake
diutus
diva
diversity
divisi
division
diw
diwaca
diwadhahi
diwajibake
diwakili
diwalik
diwangun
diwarisake
diwarnai
diwasa
diwatesi
diwedharake
diwehi
diwek
diwenehake
diwenehi
diwengku
diweruhi
diwetokake
diwiwiti
diwujudake
diwulangi
diwulangke
diwutahake
diwuwuhi
diy
diyah
diyakini
diyan
diyasa
diœcesis
dj
djadjahan
djaka
djakarta
djambatan
djarum
djawa
djawi
djibouti
djoemeneng
djoko
dk
dki
dkj
dkk
dl
dlajah
dll
dluwang
dm
dmoz
dn
dna
do
doa
dobel
doc
doctor
document
documentary
documents
dodo
dodol
dodolan
doel
doenjang
doeroeng
does
doewe
dog
dogs
doh
dohe
doi
dokter
doktor
dokumen
dokumentasi
dokumenter
dol
dolan
dolanan
dolar
dollar
dolphin
dom
domain
domba
dome
domenico
domestic
domestik
dominan
dominasi
domingo
dominic
dominika
dominique
don
donald
donat
doncaster
dong
donga
donge
dongeng
donggala
dongxiang
donna
donnees
donny
dono
donor
dons
donya
donyane
donyaning
doo
doom
door
doors
dora
dorado
doraemon
dorothy
dorsal
dortmund
dos
dosa
dosane
dosen
dosis
dostoyevsky
double
doubleday
doug
douglas
dover
down
download
doyan
dp
dpd
dpl
dpp
dpr
dprd
dq
dr
dra
draco
draft
dragon
drajat
drake
drama
dramatis
dream
dreams
dreamworks
dreyer
driji
drink
drinks
drive
driver
driya
drona
drop
drs
drug
drugs
drum
drumblek
drummer
drupadi
dry
ds
dt
du
dua
dual
dubai
dublin
dubur
duc
duchesne
dude
dudu
duduh
duduhe
duduk
dudutan
due
duet
duga
dugi
duh
duit
duk
duka
duke
dukuh
dukun
dulce
dull
dulu
dulur
dum
dumadakan
dumadi
dumadine
dumados
dumai
dumeh
dumugi
dumunung
duncan
dune
dunia
dunn
dunung
dununge
dunungipun
dunya
duo
dupa
dur
duraka
duren
durga
duri
durian
during
durjana
durna
durung
duryudana
dusun
duta
dutch
duwe
duweke
duwene
duweni
duwit
duwite
duwur
duwure
dv
dvd
dw
dwarf
dwi
dwija
dwilingga
dx
dy
dyah
dylan
dynamic
dynamics
dynasty
dz
dzikir
e
e0
e1
e2
e3
e4
e5
e6
e7
e8
e9
ea
each
eagle
earl
earliest
early
earth
east
easter
eastern
eastwood
easy
eat
eating
eats
eb
ebchecked
ebert
ebisu
ec
eca
ecclesiae
ecclesiarum
ecclesiasticas
echo
eco
ecole
ecology
economic
economics
economist
economy
ecuador
ed
edabi
edan
eddie
eddy
eden
edgar
edge
edhisi
edi
edinburgh
edisi
edison
edited
edition
editions
editor
editorial
editors
edmund
edo
edouard
eds
edu
eduardo
education
educational
edward
edwards
edwin
ee
een
ef
efek
efektif
efese
efesus
effect
effects
effendi
efisien
efisiensi
efl
eg
egg
eggs
egipte
eglise
egypt
egyptian
eh
ei
eiffel
ein
einstein
ej
ejaan
ek
eka
ekan
eki
eko
ekologi
ekonom
ekonomi
ekonomis
ekosistem
eks
eksarkat
eksekutif
eksis
eksistensi
eksklusif
ekskresi
ekspansi
ekspedhisi
ekspedisi
eksperimen
eksperimental
eksplorasi
ekspor
ekspres
ekspresi
eksternal
ekstra
ekstrak
ekstraksi
ekstrim
ekuador
el
ela
elar
elastis
election
electric
electronic
elek
elekke
elektrik
elektro
elektromagnetik
elektron
elektronik
elektronika
elemen
elements
elena
eler
elevasi
elevations
eleven
elex
eli
elia
elias
elie
eling
elinga
elisabet
elisabeth
elit
elite
elizabeth
ellas
elle
ellen
elliot
elliott
ellis
elmiah
elmiyah
elmu
elmuwan
elok
elon
elsa
elsevier
elvis
em
ema
email
eman
emane
emas
emba
emban
embel
ember
embrio
embuh
embun
embung
emergency
emerging
emeritus
emi
emil
emile
emilia
emilio
emily
emirat
emirates
emisi
emma
emmanuel
emmy
emoh
emoji
emosi
emosional
empan
empat
empedu
emper
emperor
emping
empire
emplek
empon
emprit
empty
empu
empuk
empyak
emut
en
enak
enam
encer
encyclopaedia
encyclopedia
encyclopædia
end
endah
endahe
endahing
endang
endangered
endase
ende
endek
endemik
endha
endhas
endhase
endhek
endhog
endhoge
endi
endraswara
enem
eneng
enenge
energi
energy
enewsworld
eng
enget
engg
engga
enggal
enggar
enggon
enggonan
enggone
enggonku
enggonmu
engine
engineering
engineers
engkel
engkol
england
english
enim
enjang
enjing
enom
enrekang
enrique
ensiklopedhi
ensiklopedi
ensiklopedia
ent
entas
entek
entekane
enteke
enten
enteng
enterprises
entertainment
entha
entheng
enting
entitas
entri
entry
entuk
environment
environmental
enzim
eo
ep
eparchy
eparki
epek
epic
epidemiology
epidermis
epik
episcopat
episcopaux
episcopis
episcoporum
episkopal
episkopale
episode
epitel
epsilon
eq
er
era
eram
erang
eredivisie
ereng
eri
eric
ericsson
erik
eritrea
eritrosit
erlangga
ernest
ernesto
ernst
eropa
eropah
erosi
error
erupsi
erwin
es
esa
esai
escoffier
esei
esem
esensial
esih
eslan
esok
espana
espn
espresso
essay
essays
essential
est
estate
ester
estetika
esther
estimates
estlan
estonia
estri
estrogen
estu
esuk
esuke
et
etanol
etc
ethan
ethiopia
ethiopian
ethnic
ethnicity
ethnography
ethnologue
ethok
etienne
etika
etimologi
etiopia
etnik
etnis
etnografi
etok
etudes
etung
etymology
eu
eubel
eudicots
eugene
eukaliptus
eun
eurasia
euro
europa
europe
european
eurosport
ev
eva
evaluasi
evaluation
evan
evangelisasi
evans
eve
even
evening
event
events
eveques
ever
everton
every
everyday
everything
evidence
evil
evolusi
evolution
ew
ewa
ewadene
ewah
ewahan
ewan
ewon
ewonan
ewoning
ewu
ewuh
ewunan
ex
exact
excellence
exchange
exclusive
executive
exhibition
exo
exodus
experience
experimental
expert
explicit
exploration
exploring
expo
express
extension
external
extra
extreme
ey
eyang
eye
eyes
eyub
ez
f
f0
f1
f2
f3
f4
f5
f6
f7
f8
f9
fa
faber
fabio
face
facebook
faces
fact
factbook
facto
factor
factory
facts
faculty
faenza
fahmi
fair
faisal
faith
fajar
fakta
faktor
fakultas
falcon
fall
falls
fals
falsafah
false
fame
famili
familia
family
famous
fan
fanny
fans
fantasi
fantastic
fantasy
fao
faq
far
farid
farisi
farm
farman
farmasi
farmer
fase
fashion
fasilitas
faso
fast
fat
fatal
father
fatimah
fatwa
fauna
fauzi
favorit
favorite
faye
fb
fbi
fc
fd
fe
fear
feat
feature
features
featuring
feb
februari
february
federal
federasi
federation
fedheral
fedherasi
feed
feet
fei
felipe
felix
female
femina
fenol
fenomena
ferdinand
ferdinando
ferguson
fermentasi
fermented
fernandez
fernando
ferrara
ferrari
ferry
fest
festival
fesyen
fever
ff
ffi
fg
fh
fi
fiction
ficus
field
fifa
fifi
fifth
fight
fighter
fighters
fighting
figur
figure
figures
fiji
fiksi
filamen
file
filem
fileme
files
filipina
filipino
filipus
film
filme
filmfare
filmindonesia
filming
films
filologi
filosofi
filosofis
fils
filsafat
filsuf
filum
final
finalis
finance
financial
finansial
find
findbestscript
finding
fine
finish
finlan
finland
fiorentina
fiqh
fiqih
fir
fire
firenze
firma
firman
first
fischer
fish
fisher
fisik
fisika
fisikawan
fisiologi
fisip
fitri
fitur
fitzgerald
five
fj
fk
fl
flag
flags
flamsteed
flash
flat
flavonoid
flavor
flavors
fleet
fleksibel
fleming
fletcher
flight
flood
flora
florence
flores
florida
flour
flower
flowers
flu
fluida
fly
flying
fm
fn
fo
focus
foden
fokus
folk
folklor
folklore
fonem
fonetik
font
fontainebleau
foo
food
foods
foot
football
footballers
for
forbes
force
forces
ford
foreign
forest
forever
form
formal
formasi
format
formation
former
formula
fort
fortune
forum
forward
fosfat
fosfor
fosil
foster
foto
fotografi
foton
fotosintesis
found
foundation
founder
four
fourth
fox
fp
fq
fr
frac
fragmen
fraksi
francais
francaise
france
frances
francesco
franchise
francis
francisco
franck
franco
francois
frank
frankfurt
franklin
franky
frans
fransiskus
franz
frasa
fraser
freak
fred
freddie
freddy
frederic
frederick
free
freedom
freeman
freiburg
frekuensi
french
fresh
fric
friday
fridolin
fried
friedrich
friend
friends
friendship
friesland
fritz
from
front
frost
frozen
fruit
fruits
fruktosa
fs
ft
ftv
fu
fuad
fubuki
fuji
fujian
fujica
fukuoka
fulham
full
fun
function
fund
fungi
fungsi
fungsine
fungsinipun
fungsional
fur
furious
further
fusi
fussballdaten
futsal
future
fv
fw
fx
fy
fz
g
g0
g1
g2
g3
g4
g5
g6
g7
g8
g9
ga
gabah
gabon
gabriel
gabung
gabungan
gabus
gada
gadah
gadang
gadhah
gadhahi
gadhe
gadhing
gadho
gadhung
gading
gadis
gadjah
gado
gadung
gaga
gagah
gagak
gagal
gagang
gagange
gagap
gagasan
gage
gagrag
gai
gaib
gaillard
gajah
gajbe
gajeg
gaji
gajih
gak
gal
galak
galaksi
galang
galaxy
gale
galeri
galih
galihe
galilea
galis
gallery
gallia
gallo
galuh
galur
gaman
gambang
gambar
gambaran
gambare
gambia
gambir
gamblang
gambut
gambyong
game
gamelan
games
gamma
gampang
gampengreja
gampil
gamping
gampong
gams
gan
ganas
gancaran
ganda
gandha
gandheng
gandhengane
gandhi
gandra
gandring
gandrung
gandum
ganep
ganesha
gang
gangga
ganggang
ganggu
gangguan
gangsa
gangsal
gangsir
gangster
ganja
ganjar
ganjaran
ganjil
ganti
gantine
gantos
gantosipun
gantung
gantungan
ganyong
gao
gaon
gapeka
gapit
gapura
gara
garam
garan
garang
garap
garapan
garasi
garba
garcia
garda
garde
garden
gardens
gardner
gare
garebeg
gareng
garing
garis
garpu
garuda
garudha
garung
garut
garwa
garwane
garwanipun
gary
gas
gasherbrum
gastronomi
gate
gatel
gates
gathotkaca
gathuk
gati
gatot
gatra
gatsby
gauchat
gaul
gavin
gawa
gawan
gawang
gawat
gawe
gawean
gaweane
gawene
gaweyan
gaweyane
gay
gaya
gayam
gayane
gayo
gayuh
gayut
gayutan
gayutane
gaza
gazette
gazetteer
gb
gc
gcatholic
gd
gdansk
ge
gear
gebang
geber
gebog
gebyar
gede
gedene
gedhang
gedhe
gedheg
gedhen
gedhene
gedhi
gedhog
gedhong
gedhung
gedong
gedung
gegaman
gegambaran
gegandhengan
gegayuhan
gegayutan
gegayutane
gegayutanipun
geger
gegeran
gegere
gegodhongan
gegremet
gegremetan
geguritan
geisha
gejala
gek
gekisaka
gekko
gel
gela
gelandhang
gelang
gelap
gelar
gelaran
gelas
gelatin
gelderland
gelem
gelembung
gelis
gelombang
gelung
gelut
gema
gemak
gembel
gembong
gemeente
gemi
gemini
gempol
gemuh
gen
genah
genawati
gencatan
gender
gendera
gendheng
gendhing
gendhis
gendhong
gendul
gene
geneng
genep
genera
generaal
general
generasi
generation
genesis
genetic
genetics
genetik
genetika
geneva
geneya
geng
genggong
geni
genine
genius
genoa
genocide
genom
genre
genta
genten
genteng
genti
genting
gentos
genus
geo
geoffrey
geofisika
geografi
geografis
geographic
geographical
geography
geologi
geological
geometri
geometris
georg
george
georges
georgetown
georgia
georgian
georgii
gepeng
ger
gerah
gerak
gerakan
gerald
gerard
gerbang
gerbong
gereh
gereja
gereng
gerhana
gerhard
gerilya
germain
german
germany
gesang
gesangipun
get
getah
geter
gethuk
getih
getihe
gets
getting
getun
gf
gg
gh
ghana
ghee
ghost
ghoul
gi
giant
gianyar
gibraltar
gibran
gibson
giddens
gie
gif
giga
gigacatholic
gigi
gil
gila
gilang
gilap
gilbert
giles
gili
gilig
giling
gilingan
giliran
gill
gillingham
gim
gimbal
gin
gina
ginakaken
ginanipun
ginataang
ginawe
ginger
gingsir
ginjel
ginsburg
ginseng
ginuk
giorgio
giorni
giovanni
giri
giring
girl
girls
giro
gisik
gita
gitar
gitaris
gitik
giuseppe
give
given
gives
giyanti
giyaran
gizi
gj
gk
gkr
gl
glacier
gladhen
gladri
glagah
glandhang
glasgow
glass
gledheg
glen
glenn
glepung
gletser
glikogen
global
globalisasi
globalization
globalsecurity
globe
gloria
glory
glossary
gludhug
glugu
glukosa
gluten
gm
gn
go
goa
goal
gobis
gochujang
god
godhog
godhogan
godhok
godhong
godhonge
godong
gods
goenawan
goepermen
goes
goesti
gogh
gogrog
going
gojag
gol
gold
goldberg
golden
goldstein
golek
golekan
goleki
golf
golgi
golkar
golong
golongan
golongane
gombal
gombong
gomez
gondhang
gondhangreja
gone
gong
gonzalez
good
goodman
goodreads
google
gora
gordon
goreng
gorengan
gorky
goroh
gorokan
gorontalo
goryeo
gosip
gosling
gosong
got
gotama
gotik
gotland
gotong
gould
gourcuff
gourmet
gout
gov
government
governor
gowa
goyang
gp
gq
gr
gra
grabag
grace
grafik
grafis
graha
graham
grahana
graji
gram
gramang
gramedia
grammar
grammy
gran
grana
granada
grand
grande
granit
grant
grapyak
grasindo
grass
gratis
grave
gravitasi
gray
great
greater
greatest
grebeg
greece
greek
green
greenwich
greenwood
greg
greget
gregorian
gregorii
gregorius
gregory
greja
grejawi
grenada
grenoble
gresik
grey
gribig
griffin
grik
grikenlan
grimis
grin
griya
griyanipun
grobag
grobogan
grogol
grojogan
gronggongan
groningen
gross
ground
group
groups
grove
growing
growth
grumbul
grunlan
grup
grus
gs
gsm
gsmarena
gt
gu
gua
guacamole
guadalajara
guam
guangdong
guangzhou
guard
guardian
guardiola
guatemala
gubahan
gubeng
gubernur
gubug
guci
gudang
gudhang
gudhig
gue
guevara
gugat
gugon
gugur
gugus
gugusan
guide
guidelines
guides
guild
guilelmus
guillaume
guillermo
guinea
guinness
guitar
gujarat
guk
gul
gula
gulai
gulat
gule
gulf
gulik
guling
gulma
gulu
guluk
gulune
gulung
gulungan
gum
gumanti
gumantung
gumedhe
gumelar
gumpalan
gumujeng
gumuk
gumuling
gumun
gumuyu
gun
guna
gunakake
gunane
gunawan
gundam
gundhul
gunem
guneman
gung
gunggung
gunggunge
gunggungipun
gunting
guntur
gunung
gunungan
gunungkidul
gupak
gupta
gur
gurah
gurih
gurit
gurita
guritan
guru
guruh
gurune
gurung
gus
gusi
gustav
gustave
gusthi
gusti
gustine
gutawa
gutenberg
guwa
guy
guyana
guyon
guyonan
guyu
guyub
gv
gw
gx
gy
gyeonggi
gz
h
h0
h1
h2
h3
h4
h5
h6
h7
h8
h9
ha
haag
haas
habib
habibie
habitat
hackett
had
hades
hadi
hadiah
hadiningrat
hadis
hadist
hadits
hae
hagia
hagrid
hague
hai
haid
haifa
hainan
haiti
hajar
hajat
haji
hak
hake
hakgojae
hakim
hakka
hal
hala
halal
halaman
half
halim
hall
halloween
halmahera
halo
halte
ham
hama
hamanako
hamas
hamataliwa
hamba
hamburg
hamburger
hamengku
hamengkubuwana
hamengkubuwono
hamid
hamilton
hamka
hampir
hampshire
hamzah
han
hana
hanacaraka
hancinema
hand
handbook
hang
hangover
hangul
hanja
hanks
hanna
hannah
hannover
hanoi
hans
hansen
hansgeorg
hantu
hanung
hanya
hanyar
hanyu
hanzi
happy
hapsari
hara
harahap
harald
harapan
harbor
harbour
harcourt
hard
hardy
hare
harep
harfiah
harga
hari
harian
harimau
harley
harmony
harold
harper
harpercollins
harris
harrison
harry
harsa
harsono
hart
harta
hartono
haruhara
harun
harus
harv
harvard
harvey
harvnb
hary
haryanto
haryono
has
hasan
hasanuddin
hasil
hasnah
hassan
hasta
hasyim
hat
hati
hatta
haute
havana
have
haven
havre
hawa
hawai
hawaii
hawaiian
hawane
hay
hayam
hayati
haydn
hayes
hayu
hayuk
haywa
hazel
hb
hbo
hbs
hc
hd
hdl
he
head
headline
headphone
health
healthy
hear
heart
heat
heather
heaven
heavy
hebat
hebrew
hector
hedge
hee
heian
heidelberg
heinrich
heinz
hektar
held
helen
helena
helene
helikopter
helium
hell
hello
helm
help
helsinki
hemingway
hemoglobin
henderson
hendra
hendrik
hendy
henri
henry
hepatitis
her
hera
herakles
herald
herba
herbal
herbert
herbivor
hercules
here
heri
heritage
herman
hermann
hermes
hernandez
hero
herodes
heroes
herring
herschel
heru
herzegovina
het
heung
hewan
heyne
hf
hg
hh
hi
hias
hiasan
hibiscus
hibrida
hiburan
hidangan
hidayah
hidayat
hidayatullah
hidden
hidrogen
hidrokarbon
hidroksida
hidup
hierarchia
hierarchy
high
higher
highest
hijau
hijriyah
hikayat
hikmah
hiku
hilal
hilang
hilir
hill
hillary
hillenburg
hills
him
himalaya
himeji
himpunan
hin
hindhia
hindhu
hindi
hindia
hindu
hing
hingga
hip
hipertensi
hipotesis
hipparcos
hiragana
hiroshi
hiroshima
his
histoire
historia
historic
historical
historique
historis
history
hit
hitam
hitler
hits
hiu
hiv
hiya
hiyu
hj
hk
hkt
hl
hlm
hm
hms
hn
ho
hoa
hob
hobi
hoeve
hoffman
hogwarts
hok
hoki
hokkaido
hokkien
hold
holdings
hole
holiday
holland
hollywood
holmes
holocaust
hologram
holt
holy
home
homepage
homme
homo
hon
honda
honduras
honey
hong
honggari
hongkong
honolulu
honor
honshu
hoo
hood
hoon
hop
hope
hopkins
hoppus
hora
hordaland
horison
horisontal
hormon
horor
horror
hors
horse
hospital
host
hot
hotel
hotspur
houghton
hour
hours
house
houston
how
howard
howarth
hp
hq
hr
hs
hsu
ht
htm
html
http
https
hu
hua
huang
hub
hubert
hubungan
hubungane
huda
hudson
huffington
hugh
hughes
hugman
hugo
hui
hujan
hukum
hukuman
hull
hulu
hum
human
humaniora
humanities
humas
humboldt
humor
hun
hunan
hundred
hung
hungaria
hungarian
hungary
hunt
hunter
huntington
hurt
huruf
hurup
husada
husain
husein
husin
hussein
husserl
hut
hutan
huwus
hv
hw
hwa
hwan
hwang
hx
hy
hyang
hyderabad
hydra
hye
hyo
hyogo
hypothesis
hyuk
hyun
hz
i
i0
i1
i2
i3
i4
i5
i6
i7
i8
i9
ia
iain
ian
iast
iata
ib
iba
ibadah
ibadat
iber
iberia
iblis
ibm
ibn
ibnu
ibrahim
ibrani
ibu
ibuke
ibukota
ibuku
ibukutha
ibumu
ibune
ibunipun
ibvs
ic
ical
icao
ice
iceland
ichiro
ichtiar
icon
id
ida
idaho
idak
ide
idea
ideal
ideas
identification
identik
identitas
identity
ideologi
idhentitas
idi
idin
idiot
idol
idola
idris
idrus
idu
idul
ie
iec
if
ig
iga
ign
ignacio
ignatius
ignored
iguana
ih
iho
ihram
ihsan
ii
iii
ij
ija
ijazah
ijem
ijen
iji
ijik
ijin
ijo
ijol
ijolan
ijrah
ik
ika
ikal
ikan
ikang
ikatan
iket
iketan
ikhlas
iki
ikip
ikj
iklan
iklim
iko
ikoe
ikon
iku
ikut
il
ila
ilahi
ilang
ilange
ilat
ilate
ilbo
ile
ilegal
ilen
iles
ilham
ili
iline
ilining
ilir
illa
illinois
illustrated
ilmiah
ilmu
ilmuwan
iluminasi
ilustrasi
im
ima
image
images
imam
imame
iman
imax
imbal
imbang
imdb
imelda
imf
img
imge
imigran
imigrasi
imlek
immunology
impact
impen
imperial
impian
implications
impor
important
improvisasi
imun
in
ina
inang
inari
inc
inca
incheon
inchi
inci
include
includes
including
incorporated
incumbent
ind
indah
indeks
independen
independence
independent
index
indhi
indhia
indhiya
indhonesia
indhuk
indhustri
india
indian
indiana
indianapolis
indica
indie
indiewire
indigenous
indikasi
indis
indische
individu
individual
indo
indochina
indonesia
indonesian
indosiar
indra
indragiri
indramayu
indri
indro
induk
induksi
indus
industri
industrial
industries
industry
infanteri
infection
infeksi
inflamasi
inflasi
influence
influenza
info
infobox
informal
informasi
informatika
information
infrastruktur
ing
ingakng
ingaran
inggih
inggil
inggilipun
inggris
ingih
ingin
ingkan
ingkang
ingon
ingredients
ingsun
ini
inilah
inisial
injil
inn
inna
innotuerunt
inovasi
input
insan
insee
inside
insiden
insider
insinyur
inspektur
inspirasi
instagram
instan
instansi
institusi
institut
institute
institution
instruksi
instrumen
instrumental
insulin
int
intan
integral
integrasi
integrated
intel
intelektual
intelijen
intelligence
inten
intensif
intensitas
inter
interactive
interaksi
interaktif
interior
internal
internasional
international
internationale
internet
interpretasi
interval
interview
inti
intine
into
introduction
inval
invalid
invasi
inventarisasi
invention
invertebrata
investasi
investigasi
investment
investor
io
ioc
ion
iowa
ip
ipa
ipat
ipb
ipe
iphone
ipin
ips
ipswich
iptek
ipun
iq
ir
ira
irah
irahan
irahane
irahanipun
irak
irama
iran
iranian
iranica
iraq
irawan
ireland
irene
ireng
irfan
irian
irigasi
iring
iringan
iris
irisan
irish
irit
iritasi
irlan
irlandia
irma
iron
irung
irunge
irving
is
isa
isaac
isabeau
isabel
isabella
isabelle
isah
isak
isan
isbn
isen
isi
isih
isin
isine
isinipun
isis
iskak
iskandar
islam
islamabad
islami
islamic
islamiyah
island
islands
isle
ismail
iso
isopoda
isotop
isra
israel
israeli
israil
issn
issue
issues
ist
istana
istanbul
istat
istiadat
istilah
istimewa
istirahat
istri
isu
isuk
isyarat
it
ita
itali
italia
italiae
italian
italiana
italic
italy
itb
item
ithik
itik
ito
its
itu
itunes
itung
itungan
iu
iucn
iupac
iuris
iv
ivan
iw
iwak
iwake
iwan
iwen
ix
ixora
iy
iya
iz
izin
j
j0
j1
j2
j3
j4
j5
j6
j7
j8
j9
ja
jaba
jaban
jabang
jabar
jabatan
jabatane
jabatanipun
jabung
jacar
jack
jackie
jackson
jacob
jacobs
jacques
jadah
jade
jadi
jadwal
jae
jaetun
jaga
jagad
jagading
jagal
jagat
jagati
jaggery
jago
jagoan
jagongan
jaguar
jagung
jahat
jahe
jai
jail
jait
jaja
jajahan
jajal
jajan
jajanan
jajaran
jak
jaka
jakarta
jakat
jake
jaken
jaket
jakob
jaksa
jal
jala
jalak
jalan
jalanan
jalapeno
jalar
jalaran
jalarane
jaler
jali
jalma
jalmi
jalu
jaluk
jalur
jam
jama
jamaah
jamaica
jamaika
jamak
jamal
jaman
jamane
jamanipun
jambe
jambi
jambon
jambu
jambul
james
jami
jamie
jamil
jaminan
jampi
jamu
jamur
jan
janda
jane
janeiro
janet
jang
jangan
janganan
janger
janggut
jangka
jangkar
jangkauan
jangkep
jangkepe
jangkrik
janin
janji
janjine
janma
jantra
jantung
januari
january
janur
japa
japah
japan
japanese
jarak
jarake
jarakipun
jaran
jarang
jare
jared
jarene
jari
jaring
jaringan
jarit
jaro
jarum
jarwa
jarwane
jas
jasa
jasad
jasane
jasanipun
jasmani
jasmine
jason
jassin
jatah
jatayu
jaten
jateng
jati
jatibarang
jatim
jatinegara
jatiswara
jatuh
jauh
java
javanese
javier
jawa
jawab
jawaban
jawabe
jawah
jawane
jawara
jawatan
jawi
jay
jaya
jayabaya
jayadrata
jayakarta
jayanagara
jayapura
jayawijaya
jazirah
jazz
jb
jc
jd
je
jean
jeanne
jeblugan
jebol
jebres
jebul
jebule
jeff
jefferson
jeffrey
jejak
jejanganan
jejeg
jejer
jejere
jejibahan
jejodhoan
jeju
jejuluk
jek
jelas
jeleh
jeli
jelly
jemaat
jembar
jembare
jembatan
jember
jembrana
jemek
jemparing
jempol
jemuwah
jen
jenang
jenar
jenazah
jendela
jenderal
jendhela
jendral
jene
jeneng
jenenge
jenengku
jenengmu
jenewa
jeng
jenggala
jenggot
jengkel
jengkol
jenis
jenjang
jenkins
jennifer
jenny
jensen
jentschura
jentsura
jenuh
jeolla
jeon
jeong
jepang
jepara
jepon
jepun
jer
jeremy
jerman
jermanik
jero
jeroan
jerome
jerone
jerry
jersey
jeru
jeruk
jerusalem
jesoes
jesse
jessica
jesus
jet
jetis
jewish
jews
jf
jg
jh
ji
jiang
jihad
jika
jilbab
jilid
jim
jima
jimakir
jimat
jimmy
jin
jinah
jing
jingga
jinis
jinise
jinising
jinisipun
jinny
jinten
jipang
jisim
jiwa
jiwane
jj
jk
jkt
jl
jm
jmpl
jn
jo
joachim
joan
joao
job
jobs
jocara
jochanan
jodho
jodoh
joe
joel
joey
jog
jogan
joged
jogja
jogjakarta
joglo
johan
johann
johannes
johannesburg
johansson
johar
john
johnny
johns
johnson
johor
join
joins
joint
joko
jokowi
jombang
jomblo
jon
jonah
jonas
jonathan
jones
jong
jonggrang
jongmyo
joni
joo
joon
joongang
jordan
jorge
jorong
jose
josef
joseon
joseph
josephi
josephine
josh
joshua
journal
journey
joy
joyce
jozef
jp
jpg
jq
jr
jro
jroning
js
jstor
jt
ju
juan
juara
jubah
jubin
judheg
judhul
judhule
judith
judul
judulfilem
judy
juga
jugul
jujugan
jujur
jul
jules
juli
julia
julian
julie
juliet
julio
julius
julukan
julung
july
jum
jumadi
jumat
jumbuh
jumeneng
jumlah
jumlahe
jump
jumrah
jumuwah
jun
june
jung
jungkat
jungle
juni
junior
juniore
juniors
jupe
jupiter
jupuk
juragan
jurang
jurgen
juri
jurnal
jurnalis
jurnalisme
jurnalistik
juru
jurus
jurusan
jus
jusqu
just
justice
justin
jusuf
juta
juventus
juwana
juwara
jv
jw
jx
jy
jyp
jz
k
k0
k1
k2
k3
k4
k5
k6
k7
k8
k9
ka
kaadilan
kaagamaan
kaajaiban
kaamanan
kaamot
kaanan
kaanane
kaancam
kaanggep
kaanggit
kaanggo
kaangkat
kaarahaken
kaaran
kab
kaba
kabab
kababar
kabangsan
kabangsane
kabangun
kabar
kabare
kabat
kabawah
kabayan
kabebasan
kabecikan
kabegjan
kabeh
kabehe
kabel
kabeneran
kabentuk
kabetahan
kabetyikane
kabijakan
kabikak
kabin
kabinet
kabisan
kabiskopan
kabotan
kabudayan
kabuka
kabukak
kabukten
kabukti
kabul
kabungahan
kabungahane
kabupaten
kabupatene
kabur
kabut
kabutuhan
kabutuhane
kaca
kacamata
kacamatan
kacang
kacangan
kacarita
kacariyos
kacariyosaken
kacathet
kacepetan
kacilakan
kacipta
kacocogna
kacu
kad
kadadean
kadaden
kadadeyan
kadadosan
kadal
kadamel
kadang
kadar
kadaton
kadayan
kademangan
kader
kadhal
kadhang
kadhangkala
kadhaptar
kadhapuk
kadhapur
kadhar
kadhaton
kadhaulatan
kadhemen
kadhiri
kadhokteran
kadhuwuran
kadi
kadipaten
kadiri
kadis
kadohan
kadonyaan
kadonyan
kados
kadosdene
kadosipun
kadosta
kadung
kadunungan
kadurjanan
kady
kadya
kae
kaendahan
kaenem
kaeng
kaetung
kafe
kafein
kafir
kafka
kagabung
kagambaraken
kagandheng
kaganggu
kagawa
kagawe
kagayut
kagelar
kagem
kagero
kagesangan
kaget
kagiatan
kaginakaken
kagiyaraken
kagiyatan
kagolong
kagoshima
kagunan
kagungan
kagungane
kagunganipun
kahanan
kahanane
kahayan
kahfi
kahuripan
kahyangan
kai
kaiket
kaimaman
kain
kairing
kairo
kaisar
kaisi
kaitane
kaja
kajaba
kajang
kajarwakaken
kajawen
kajawi
kajen
kajeng
kaji
kajian
kajibah
kajoran
kajupuk
kajuwaraan
kajuwaran
kak
kaka
kakaisaran
kakak
kakalih
kakang
kakange
kakao
kakawin
kake
kakebalan
kakegawa
kakehan
kakek
kakerasan
kaki
kakiyatan
kaktus
kaku
kakung
kakunge
kakurangan
kakuwasaan
kakuwasan
kakuwatan
kal
kala
kalah
kalairan
kalajengaken
kalajengking
kalakon
kalaksanan
kalam
kalamangsa
kalampahaken
kalampahan
kalane
kalang
kalangan
kalanggengan
kalangwan
kalasan
kalau
kalawan
kalawarta
kalawarti
kalawau
kalbu
kaldhu
kaldu
kale
kalebet
kalebu
kaleh
kaleksanan
kalen
kalenan
kalender
kalendher
kaleng
kalenggahan
kalepatan
kaleresan
kali
kalian
kalibata
kalibening
kaligrafi
kalih
kalihan
kalihipun
kalijaga
kalijambe
kalima
kalimantan
kalimat
kaline
kaling
kalingga
kalinyamat
kalis
kalitengah
kalitidu
kalium
kaliwira
kaliwungu
kaliyan
kalkulus
kalkun
kalla
kalodhangan
kaloka
kalompok
kalong
kalor
kalori
kaloro
kalorone
kalsium
kalteng
kaltim
kaluhuran
kalung
kalungguhan
kaluputan
kalurahan
kaluwarga
kaluwargane
kaluwihan
kama
kamaharajan
kamajaya
kamal
kamampuan
kamangka
kamanungsan
kamar
kamardhikan
kamardikan
kamare
kambang
kambing
kamboja
kamehameha
kamen
kamenangan
kamentrian
kamera
kamerun
kami
kamil
kamis
kamolan
kamot
kamp
kampanye
kampar
kampung
kampus
kamu
kamulyan
kamungkinan
kamus
kamuswiki
kan
kana
kanaan
kanada
kanadha
kanagawa
kanak
kanal
kanan
kanca
kancah
kancaku
kancana
kancane
kancanipun
kancil
kancing
kanda
kandang
kandangan
kandel
kandele
kandha
kandhane
kandhang
kandhangan
kandheg
kandhel
kandhung
kandhungan
kandhutan
kandidat
kandung
kandungan
kane
kang
kangdjeng
kangelan
kangen
kangge
kanggo
kanggonan
kanggone
kanginan
kangjeng
kangkung
kangmas
kangmase
kango
kanigara
kanisius
kanjeng
kanji
kanker
kannada
kano
kanoman
kanopi
kanor
kansai
kansas
kanselir
kanthi
kanthil
kanthong
kanti
kantin
kanto
kanton
kantong
kantor
kantore
kantun
kantya
kantyane
kanugrahan
kanvas
kanwa
kanwil
kanyatan
kaos
kap
kapacak
kapadhetan
kapal
kapale
kapan
kapang
kapanggih
kapanggihaken
kapanlagi
kapapat
kapara
kaparingan
kapas
kapasang
kapasitas
kapasrahaken
kapat
kapatah
kapeksa
kapel
kapemimpinan
kapendhet
kapengin
kapengkar
kapengker
kapentingan
kaperang
kapercayan
kaperluan
kapernah
kapernahake
kapetung
kapi
kapiler
kapilih
kapimpin
kapindho
kapindo
kaping
kapinteran
kapinterane
kapir
kapisah
kapisan
kapisanan
kapisane
kapita
kapitadosan
kapital
kapitalisme
kapitayan
kapitu
kapitunan
kapok
kapolri
kapoor
kaprabon
kaprah
kaprenah
kapribaden
kaprigelan
kaprigelane
kaprigelanipun
kapriye
kapsul
kapten
kapuas
kapuk
kapulaga
kapulisen
kapuloan
kapundhut
kapungkasan
kapungkur
kapur
kapustakan
kaputusan
kar
kara
karachi
karadjan
karaeng
karahayon
karajan
karakter
karakteristik
karam
karamean
karamel
karan
karana
karang
karangan
karangane
karanganyar
karangasem
karangawen
karangbinangun
karanggayam
karanggeneng
karangreja
karangsambung
karangsari
karangtengah
karas
karat
karate
karaton
karawang
karawitan
karbohidrat
karbon
karbonat
karbondioksida
karcis
kardinal
kare
kareben
karel
karemenan
karen
karena
karenan
karep
karepe
karepku
karepmu
karesidenan
karesidhenan
karet
kargo
kari
karibia
karier
kariere
karieripun
karikatan
karim
karimunjawa
karir
karire
kariripun
karl
karma
karna
karnataka
karnaval
karnivora
karno
karo
karomeneh
karone
karsa
karsane
karsaning
karsanipun
karso
karst
karta
kartanagara
kartasura
kartika
kartini
kartu
kartun
karung
karusakan
karuwan
karya
karyane
karyanipun
karyawan
kas
kasampurnan
kasanga
kasangsaran
kasar
kasarasan
kasatriyan
kasebar
kasebat
kasebut
kasedhiya
kasehatan
kasekten
kasempatan
kasenengan
kasengsem
kasenian
kasep
kasepuhan
kaserat
kaset
kashmir
kasih
kasihan
kasil
kasile
kasilipun
kasim
kasiman
kasimpen
kasino
kasiyat
kaskus
kaslametan
kasmaran
kasor
kasoran
kasta
kastard
kastil
kasuburan
kasugihan
kasukman
kasuksesan
kasultanan
kasunanan
kasungsun
kasunyatan
kasunyatane
kasunyatanipun
kasur
kasus
kasusahan
kasusastran
kasusun
kat
kata
katah
katalis
katalog
katampi
katamtu
katarik
katarina
katata
kate
katedral
katedrale
kategori
katekan
katelu
katelune
katemu
katentreman
katentremane
katerangan
kateranganing
kates
katetepaken
kathah
kathahipun
katherine
kathi
kathok
kathryn
katie
katiga
katimbang
katindakake
katindakaken
katingal
katitik
kato
katolik
katon
katone
katong
katrampilan
katrangan
katresnan
katresnane
katulik
katulis
katulistiwa
katun
katup
katur
katurunan
katut
katutup
kau
kauangan
kaufman
kaukasus
kaul
kaum
kauman
kaundhuh
kaunduh
kaunggulan
kauntungan
kaur
kauripan
kauripane
kaurmatan
kaurut
kautaman
kavaleri
kaw
kawah
kawajiban
kawan
kawangun
kawanuhake
kawasa
kawasaki
kawasan
kawastanan
kawat
kawates
kawelasan
kawelasane
kawentar
kaweruh
kaweruhan
kaweruhe
kawetu
kawi
kawicaksanan
kawigaten
kawigatene
kawigatosan
kawigatosanipun
kawilujengan
kawin
kawinan
kawis
kawit
kawitan
kawitane
kawiwitan
kawoela
kawolu
kawon
kawontenan
kawontenanipun
kawruh
kawujud
kawula
kawung
kay
kaya
kayadene
kayane
kayata
kayen
kayon
kayu
kayune
kazakhstan
kb
kbbi
kbs
kc
kd
ke
keadaan
keadilan
keagamaan
keahlian
keamanan
keane
keanu
kearifan
kebab
kebacut
kebak
kebakaran
kebanggaan
kebangkitan
kebangsaan
kebanjiran
kebanjur
kebatinan
kebaya
kebayoran
kebebasan
kebek
kebeneran
kebidanan
kebijakan
keblat
kebo
kebomas
kebon
kebonagung
kebone
kebudayaan
kebul
kebumen
kebun
kebutuhan
kec
kecamatan
kecambah
kecantikan
kecap
kecapi
kecathet
kecekel
kecelakaan
kecemplung
kecepatan
kecik
kecil
kecut
kedadean
kedaden
kedadeyan
kedadosan
kedah
kedahipun
kedaulatan
kedelai
kedele
kedhaton
kedhele
kedhep
kedhiri
kedhokteran
kedhu
kedhung
kedhungadhem
kedhungpring
kediri
kedokteran
kedu
kedua
kedudukan
kedung
kedutaan
keempat
keep
kegiatan
kegiyatan
keguruan
keh
kehakiman
kehe
kehidupan
kehormatan
kehr
kehutanan
kei
keith
kejaba
kejadian
kejaksaan
kejang
kejawen
kejawi
kejayaan
kejem
keju
kejuaraan
kejuruan
kekaisaran
kekajengan
kekalahan
kekalih
kekalihipun
kekancan
kekarepan
kekarepane
kekarone
kekasih
kekayaan
kekebalan
kekerasan
keki
kekirangan
kekiyatan
kekuasaan
kekuatan
kekurangan
kekuwatan
kekuwatane
keladuk
kelahiran
kelainan
kelairan
kelairane
kelakon
kelakone
kelamin
kelangan
kelantan
kelapa
kelas
kelase
kelautan
kelawan
kelebon
kelebu
kelek
kelembapan
kelet
keli
keliling
kelima
kelinci
keling
kelingan
kelir
kelly
kelompok
kelopak
kelor
keloro
keluarga
kelud
keluk
kelumpang
kelurahan
keluwihen
kemah
kemajuan
kemal
kemampuan
kemangga
kemangi
kemangkon
kemasan
kematian
kemawon
kembali
kembang
kembangan
kembange
kembar
kembaran
kembung
kemdikbud
kemenangan
kemendagri
kementerian
kementrian
kemerdekaan
kemhan
kemih
kemiri
kemis
kemiskinan
kempalan
kempot
kempul
kemudian
kemukus
kemul
kemungkinan
kemuning
ken
kena
kenal
kenalan
kenanga
kenangan
kenapa
kenari
kencana
kenceng
kencing
kencur
kendali
kendang
kendaraan
kendari
kendel
kendhal
kendhali
kendhang
kendharaan
kendhat
kendhi
kendhil
kendho
kendi
kene
keneng
kenging
kennedy
kenneth
kenny
kenong
kent
kental
kentang
kentekan
kenthang
kenthel
kentucky
kenya
kenyal
keong
kep
kepada
kepala
kepang
kepanggih
kepanjen
kepara
kepareng
kepaten
kepati
kepausan
kepe
kepeksa
kepel
kepemilikan
kepemimpinan
kepenak
kepengen
kepengin
kepenginan
kepengker
kepentingan
keperawatan
kepercayaan
keperluan
kepet
kepethuk
kepetuk
kepil
kepilih
kepincut
keping
kepingin
kepinginan
kepithing
kepiting
kepiye
kepler
keplok
kepohbaru
keppres
keprabon
kepresidenan
kepriye
keprungu
kepuh
kepulauan
kepulisian
kepuloan
kepungkur
kepustakaan
keputusan
kera
kerabat
keracunan
kerah
kerajaan
kerajinan
kerak
kerala
keramat
keramik
kerana
kerang
kerangka
kerapu
keras
keraton
kere
kerek
kerem
keren
kerengan
kerep
kerepe
kereta
keri
kerinci
kering
keripik
keris
kerja
kerjane
kerjasama
kern
kernel
keroncong
kerr
kersa
kersane
kertajaya
kertanagara
kertas
kertek
kertu
kerucut
kerupuk
kerusakan
kes
kesadaran
kesah
kesalahan
kesamben
kesan
kesasar
kesatuan
kesed
kesehatan
keseimbangan
kesejahteraan
kesel
keselamatan
kesempatan
kesenengan
kesenengane
kesengsem
kesenian
kesepakatan
kesesi
kesetiaan
keshogunan
keslametan
kesugihan
kesultanan
kesurupan
kesusastraan
kesusu
kesuwen
ketahanan
ketaman
ketampa
ketan
ketanggungan
ketapang
ketara
ketarik
ketat
ketata
ketawang
ketel
ketela
ketelu
ketemu
ketentuan
keterangan
kethek
kethok
kethokan
kethoprak
kethuk
ketib
ketiban
ketiga
ketik
ketika
ketimbang
ketinggian
ketok
ketoke
ketoprak
ketrampilan
ketua
ketulis
ketumbar
ketung
ketupat
keturunan
keturutan
ketut
ketuwa
keuangan
keuntungan
keuskupan
kevin
kewajiban
kewala
kewan
kewarganagaraan
kewarganagaraane
kewarganegaraan
key
keyakinan
keyboard
keynes
keyong
keywords
kf
kg
kh
khaldun
khalid
khalifah
khan
khao
khas
khasiat
khatulistiwa
khmer
khusus
khususe
khususipun
ki
kiai
kiamat
kian
kiat
kick
kicker
kid
kidang
kids
kidul
kidule
kidung
kien
kiev
kijang
kiki
kilang
kilat
kilen
kill
killed
killer
killing
kilo
kilogram
kilometer
kilometres
kim
kimchi
kimi
kimia
kimiawan
kimiawi
kimono
kina
kinabalu
kinang
kinanthi
kinarya
kincir
kind
kinepyakake
kinerja
king
kingdom
kings
kingsepp
kingston
kini
kinira
kinjeng
kinon
kintamani
kinten
kintetsu
kinurmatan
kios
kipas
kiper
kippur
kira
kirab
kirana
kirang
kiri
kirik
kirim
kiriman
kirk
kisah
kisaran
kisi
kismis
kisruh
kiss
kit
kita
kitab
kitabe
kitchen
kitha
kitlv
kitty
kiwa
kiwane
kiwi
kiyai
kiyamat
kiyat
kj
kk
kl
kla
klabang
klad
klaim
klairan
klakon
klakuan
klakuane
klamben
klambi
klambu
klampis
klampok
klan
klangenan
klanjer
klapa
klas
klasa
klasemen
klasifikasi
klasik
klaten
klathen
klaus
klausa
klawan
klawu
klebu
klein
klenthing
kleru
klinik
klinis
klip
klirong
kliru
klithik
klitoris
kliwat
kliwon
klm
klompok
klopp
klorida
klorofil
klub
klumpuk
klumpukan
klungkung
kluruk
kluster
kluthuk
kluwung
km
kn
knight
knock
knopf
know
knowledge
known
ko
koajutor
koala
koalisi
kobar
kobe
kober
kobong
kobongan
kocak
kocap
kocapan
koch
kocok
kod
kodam
kode
kodhak
kodhe
kodhok
kodim
kodok
kodrat
koen
koentjaraningrat
koes
koeswoyo
koetha
kognitif
koi
koin
koinobori
koja
kojinsha
kok
koki
koko
kokoh
koktail
kol
kola
kolaborasi
kolah
kolaka
kolam
kolang
koleksi
kolektif
kolektor
kolese
kolesterol
kolkata
koln
kolom
kolombia
kolonel
koloni
kolonial
kolonialisme
koma
komandan
komando
kombang
kombinasi
kombu
komedi
komedian
komentar
komering
komersial
komersil
komet
komik
komisaris
komisi
komite
komitmen
komoditas
komodo
kompak
kompas
kompasiana
kompeni
kompetensi
kompetisi
kompi
kompilasi
komplek
kompleks
komplikasi
komplit
komponen
komponis
kompor
komposer
komposisi
komputasi
komputer
komputindo
komune
komunikasi
komunis
komunitas
komuter
kon
konang
konangan
konawe
kondhang
kondhe
kondhisi
kondisi
kondur
koneksi
konfederasi
konferensi
konfigurasi
konflik
kong
konggres
kongkon
kongkonan
kongkonane
konglomerat
kongo
kongregasi
kongres
kongsi
konjuk
kono
konon
konsentrasi
konsep
konser
konservasi
konservatif
konsili
konsisten
konsistensi
konsonan
konstantinopel
konstelasi
konstitusi
konstitusional
konstruksi
konsultan
konsultasi
konsumen
konsumsi
kontak
kontan
konteks
kontemporer
konten
kontes
kontestan
kontrak
kontraksi
kontraktor
kontras
kontribusi
kontrol
kontroversi
kontroversial
konvensi
konvensional
konversi
koordhinat
koordinasi
koordinat
koordinator
kopen
kopenhagen
koper
koperasi
kopi
kopral
koptik
kor
koran
korawa
korban
korea
korean
koreana
korem
kori
korinta
kornelius
korona
koronavirus
korps
korrie
korupsi
kosa
kosakata
kosher
kosmetik
kosmologi
kosok
kosong
kosovo
kostjuk
kostrad
kostum
kota
kotabaru
kotagede
kotak
kotamadya
kotawaringin
kothak
kothong
kotim
koto
kotor
kotoran
kovalen
kowe
kp
kpk
kpts
kpu
kq
kr
kra
krab
krabs
kradenan
kragan
krajan
krajane
krakatau
kraket
krakow
krama
kraman
kramat
krambil
krana
kranggan
kranjang
kraos
krapyak
kras
krasa
krasak
krasan
kraton
kratone
krayan
kreasi
kreatif
kreativitas
kredit
krem
kreol
kresna
kreta
kreteg
kretek
kri
krida
kridha
krikil
krim
krimea
kriminal
kringet
kripik
kris
krishna
krisis
kristal
kristen
kristiani
kristoes
kristus
kriteria
kritik
kritikus
kritis
kriya
kroasia
kroll
kromosom
kroncong
kronis
kroya
kru
krucil
krungu
krupuk
krusty
kruton
ks
ksa
ksatria
ksatriya
ksi
kt
ktt
ku
kuah
kuala
kualifikasi
kualitas
kuantan
kuantum
kuasa
kuat
kuba
kubah
kubik
kubis
kubu
kubur
kuburan
kuburane
kubus
kucai
kuchikukan
kuching
kucing
kuciwa
kuda
kudeta
kudhung
kudu
kudune
kudus
kue
kui
kuih
kuil
kuiper
kuis
kuku
kukuh
kukul
kukum
kukus
kukusan
kul
kula
kulawarga
kulawargane
kulawarganipun
kulawargi
kuldi
kuli
kuliah
kulina
kuliner
kulit
kulite
kuliyah
kulkas
kulkul
kulon
kulonan
kulone
kultivar
kultur
kum
kumala
kumambang
kuman
kumar
kumbakarna
kumbang
kumedhi
kumendane
kuminis
kuminisme
kumparan
kumpeni
kumpul
kumpulan
kumudu
kun
kuna
kunang
kunci
kuncoro
kuncung
kundur
kunduran
kung
kuning
kuningan
kunir
kunjara
kunjungan
kuno
kunthi
kuntilanak
kuntul
kuntum
kunyit
kupang
kupat
kuping
kupinge
kupiya
kupu
kur
kura
kuran
kurang
kurange
kurator
kurawa
kurban
kurbane
kurdhi
kurdhistan
kurdi
kurdish
kurdistan
kurds
kures
kurikulum
kurma
kurnia
kurniawan
kursi
kursus
kurt
kuru
kurung
kurungan
kurup
kusala
kusan
kusuma
kusus
kususe
kuta
kutai
kutbah
kutha
kuthaarja
kuthamadya
kuthane
kuthawinangun
kutipan
kutu
kutub
kutuk
kuwait
kuwajiban
kuwalik
kuwalon
kuwaos
kuwarasan
kuwasa
kuwat
kuwatir
kuwe
kuwi
kuya
kv
kw
kwalitas
kwan
kwang
kwartal
kwartir
kwasa
kwasane
kwon
kx
ky
kyai
kyle
kyo
kyoto
kyrka
kyu
kyung
kyushu
kz
l
l0
l1
l2
l3
l4
l5
l6
l7
l8
l9
la
lab
laba
label
labor
laboratorium
laboratory
labour
labu
labuan
labuh
labuhan
lacaille
lacroix
lada
ladak
ladang
laden
ladhina
ladies
lading
ladrang
lady
laga
lagerlof
laghune
lagi
lagos
lagu
laguna
lagune
lah
lahan
lahat
lahir
lai
laila
lain
lainnya
lair
lairan
laire
lajang
lajeng
laju
lajur
lak
lake
lakes
laki
lakon
lakone
lakoni
laksa
laksamana
laksana
laksmana
laksmi
laktat
laku
lakune
lakuning
laladan
laladane
laler
lali
lalu
lam
lama
laman
lamaran
lamat
lamb
lambang
lambe
lambene
lambert
lambung
lami
laminipun
lamis
lamongan
lampah
lampahan
lampahing
lampahipun
lampu
lampung
lamun
lamur
lan
lana
lanang
lanange
lancar
lancashire
lancip
land
landa
landak
landas
landasan
landep
landhak
landhep
landhesan
landmark
lands
landscape
lane
lang
langen
langganan
langgar
langgeng
langi
langit
langka
langkah
langkat
langkung
lango
langsung
language
languages
lanjaran
lanjut
lanjutan
lanka
lankan
lantai
lantaran
lante
lantip
lanzoni
lao
laos
lap
lapangan
lapis
lapisan
laporan
laptop
lapuran
lara
larahan
larane
larang
larangan
larantuka
laras
larasati
lard
lare
larenipun
large
largest
lari
larik
larikan
laris
larousse
larry
lars
larson
larung
larut
larutan
larva
las
lasarus
lasem
laser
laskar
last
lastri
lat
latar
latare
late
lateks
later
lateral
latest
latian
latih
latihan
latin
latine
latiyan
latte
latu
lau
lauk
launch
laura
laureates
lauren
laurence
laurent
laut
lautan
lava
law
lawa
lawak
lawan
lawang
lawange
lawas
lawase
lawe
lawrence
laws
lawu
lawuh
lawung
lay
layak
layanan
layang
layangan
layange
layar
layare
layon
layone
layu
layun
layung
lazare
lazio
lb
lc
lcd
ld
le
lead
leader
leaders
leadership
leading
leaf
league
leah
leak
learning
least
leaves
lebak
lebanon
lebar
lebaran
lebet
lebetipun
lebih
lebokake
lebong
lebu
lebur
lecture
led
lee
leeds
left
leg
lega
legacy
legal
legen
legend
legenda
legendaris
legendary
legendha
legends
legi
legislatif
lego
legok
legokan
leh
leicester
leiden
leigh
leila
leipzig
leitao
lek
lekas
leksana
leksikon
lelabuhane
leladi
lelagon
lelaki
lelakon
lelakone
lelaku
lelampahan
lelana
lelang
lelara
lelayaran
lele
leleh
lelembut
lelorone
leluhur
leluhure
lelungan
lelurah
lelurahing
lem
lemah
lemahe
lemak
lemari
lembab
lembaga
lembah
lembak
lembar
lembaran
lembu
lembut
lemek
lemes
lemko
lemon
lempeng
lempengan
lempitan
lempongan
lempung
lemu
lemud
lemut
len
lena
lencana
lendhut
lendir
leng
lenga
lengah
lengan
lengen
lenggah
lengkap
lengket
lengkong
lengkung
lengser
length
lennon
lenong
lens
lensa
lenteng
lentera
lentil
leo
leon
leonard
leonardo
leone
leonis
lepas
lepat
lepen
ler
leren
lereng
leres
les
lesan
leslie
lesmana
less
lessert
lestari
leste
lesung
let
letak
letake
lete
letjen
letlan
letnan
leto
letter
letters
leukemia
leukosit
leuser
levant
level
leverkusen
levi
levy
lewat
lewih
lewis
lexicon
lexus
leyeh
lf
lg
lh
lha
lho
li
lia
liam
liane
liang
liar
libanon
liberal
liberation
liberia
liberty
libr
librairie
libraria
library
libreria
libur
liburan
libya
lidah
lie
liechtenstein
life
lifestyle
lifetime
liga
light
lights
ligue
liguria
lih
lihat
lik
like
likur
lila
lilin
lille
lily
lim
lima
limalas
liman
limang
limasan
limbah
limbangan
limburg
limit
limited
limpa
limpung
limrah
limrahipun
lin
lincak
lincip
lincoln
linda
lindhu
lindsay
lindu
line
linear
lines
ling
lingga
linggih
lingira
lingkar
lingkaran
lingkungan
lingkungane
lingkup
lingsa
lingsir
linguistic
linguistics
linguistik
link
links
linnaeus
lintah
lintang
lintas
lintasan
linton
linus
linuwih
linux
lion
lionel
lionsgate
lip
lipi
lipid
liputan
liquid
lir
lirih
lirik
liring
liru
lisa
lisah
lisan
lisbon
lisensi
list
listen
listrik
lists
lit
litbang
liter
literary
literatur
literature
lithuania
lito
litowen
little
littlefield
liturgi
liu
live
liver
liverpool
lives
living
liwat
liya
liyan
liyane
lj
lk
lkis
ll
llah
llc
lll
lloyd
lm
ln
lo
loan
lobak
lobster
local
locale
located
location
lodan
lodang
loewih
log
logam
logan
logat
logika
logistik
logo
loh
loire
loji
lok
loka
lokal
lokasi
lokomotif
lola
lolos
lomba
lombardia
lombok
lon
lonceng
london
lone
lonely
long
longgar
longsor
lonjong
lontar
lonthong
lontong
look
looking
lopez
lor
lord
lore
lorentz
lorenzo
lori
loro
lorone
lorong
lorraine
los
losari
loss
losses
lost
lot
lotus
lou
louis
louise
louisiana
louvre
love
lover
lovers
low
lowe
lower
lowong
loyola
lp
lpi
lq
lr
ls
lsp
lt
ltd
lu
lua
luar
luas
lubang
luber
lubis
lublin
lubuk
lubuklinggau
luc
luca
lucas
lucia
luck
lucky
lucu
lucy
ludira
ludwig
lufthansa
lugu
luh
luhur
luigi
luis
luiz
luka
lukas
luke
lukis
lukisan
lukman
luksemburg
lula
lulang
luluh
lulus
lulusan
lulut
lumah
lumahing
lumajang
lumaku
lumakune
lumampah
lumantar
lumawan
lumayan
lumayu
lumba
lumbis
lumbu
lumbung
lumebet
lumebu
lumia
lumpang
lumpia
lumpuh
lumpur
lumrah
lumrahe
lumut
luna
lunak
lunar
lund
lung
lunga
lungguh
lungguhan
luntur
lunyu
lupa
lupus
luput
lurah
lurik
lurung
lurus
luther
lutheran
luthfi
lutung
luwak
luwang
luwangan
luwar
luwe
luweh
luwes
luwih
luwu
luwung
lux
luxembourg
luxury
luzon
lv
lw
lwir
lx
ly
lydia
lyga
lynch
lynn
lynx
lyon
lz
m
m0
m1
m2
m3
m4
m5
m6
m7
m8
m9
ma
maanyan
maatschappij
mabuk
mabul
mabur
mac
maca
macak
macam
macan
macapat
macau
macdonald
macem
maceme
macet
machine
macmillan
mad
mada
madagascar
madagaskar
madahab
madal
madame
madang
madani
made
madeg
madegaken
madege
madeira
madeleine
madep
madhang
madhangi
madhep
madhul
madhya
madinah
madison
madiun
madonna
madosi
madras
madrasah
madrid
madu
madukara
madura
madya
mae
maen
maestro
mag
magang
magazen
magazine
magelang
magepokan
magetan
maggie
maghrib
magic
magis
magister
magna
magnesium
magnet
magnetik
magnitudo
mah
maha
mahabarata
mahabharata
mahakam
mahamantri
mahaputera
mahaputra
maharaja
maharani
maharashtra
mahasiswa
mahayana
mahdi
mahesa
mahisa
mahkamah
mahkota
mahmud
mahoni
mahu
mai
maia
maido
mail
main
mainake
mainan
maine
mainke
mainstream
maint
mainz
maja
majakerta
majalah
majalengka
majapahit
majapait
majatengah
majelis
majemuk
majeng
major
maju
mak
maka
makalah
makam
makan
makanan
makaping
makarya
makasar
makassar
makaten
makau
make
makedonia
makes
makhluk
makili
makin
making
makiyyah
makkah
makkiyah
makluk
makmur
makna
maknane
makro
maksimal
maksimum
maksud
maksude
makutha
mal
mala
malabar
maladewa
malaekat
malaga
malah
malahan
malai
malaikat
malaka
malam
malang
malankara
malaria
malawi
malay
malaya
malayalam
malaysia
malaysian
malayu
malcolm
male
malebet
maleh
malem
males
mali
malih
malik
maling
malioboro
mall
malo
malt
malta
malu
maluku
mama
mamah
mamalia
maman
mamasa
mambu
mamerake
mami
mampir
mampu
mamuju
man
mana
manado
management
manager
manah
manahipun
manajemen
manajer
manak
manawa
manawi
manca
mancanagara
manchester
manchu
mancing
mancur
manda
mandailing
mandala
mandalay
mandar
mandarin
mandat
mandeg
mandek
mandeng
mandhala
mandhap
mandharin
mandheg
mandhegani
mandhek
mandhiri
mandi
mandiraja
mandiri
mandu
mane
maneh
maneka
manengah
manfaat
mang
manga
mangan
mangerteni
mangerti
mangertos
mangertosi
mangetan
mangga
manggala
manggang
manggarai
manggen
manggih
manggihaken
manggihi
manggil
manggis
manggon
manggone
manggoni
manggung
mangidul
mangka
mangkana
mangkat
mangke
mangkel
mangkene
mangkin
mangkok
mangkono
mangku
mangkubumi
mangkuk
mangkunagara
mangkunagaran
mangkunegaran
mangkurat
mango
mangro
mangrove
mangsa
mangsane
mangsi
mangsuli
mangu
mangulon
mangun
manhattan
mani
manik
manila
maning
manis
manisan
manjing
mann
manokwari
mans
mansur
mantan
manteb
mantel
manten
mantenan
mantep
manthuk
mantingan
mantra
mantri
mantu
mantuk
mantune
mantup
manu
manual
manuel
manufaktur
manuhake
manuk
manunggal
manunggaling
manungsa
manusa
manuscript
manusia
manuskrip
manut
many
manyar
manz
manzai
mao
maoe
maos
map
mapa
mapag
mapan
maple
maps
mar
mara
maradona
maragakake
maragani
marah
marahi
marai
maraja
marakake
marakke
maran
marang
marani
maranta
marapi
marc
marcel
march
marche
marco
marcos
marcus
mardawa
mardi
mardika
mare
marek
marem
mareng
marentah
maret
marga
margaret
margarin
margasatwa
margayasa
margi
mari
maria
mariana
marie
marilyn
marin
marina
marine
maring
maringaken
maringi
marinir
marino
mario
marion
marisi
marissa
maritim
maritime
mark
markas
markase
market
marketing
marks
markup
markus
marley
marmer
marne
maroko
maronit
maros
marquez
marriage
married
mars
marseille
marsekal
marsh
marsha
marshal
marshall
marshmallow
marsudi
marta
martabak
martabat
martapura
marten
martha
martin
martinez
martini
martinique
martinus
martir
marty
maru
marupakan
marvel
marx
mary
maryam
maryland
marzuki
mas
masa
masak
masakan
masala
masalah
masang
masarakat
masayu
masedonia
masehi
masih
masing
masiya
masjid
masjidil
maskape
maskot
masku
mason
masrahake
masrahaken
masrahke
mass
massa
massachusetts
massal
mastani
master
masters
masuk
masyarakat
mat
mata
matahari
matan
matane
matang
mataram
mataraman
mataun
match
mate
matematika
matematikawan
mateng
mateni
materi
material
materials
matesi
mateus
mathbf
mathematics
mathias
mathuk
mati
matine
matisse
matius
matra
matsumoto
matsuri
matt
matter
matthew
matur
maturkesuwun
matya
mau
maudy
maujud
maulana
maune
maupun
maurice
mauritania
mauritius
maut
mawa
mawar
mawarni
mawi
mawon
mawut
max
maxima
maxwell
may
maya
mayang
mayangsumirat
mayat
mayer
mayit
mayjen
mayo
mayones
mayong
mayor
mayoritas
mazda
mazmur
mb
mba
mbabar
mbabarake
mbacutake
mbagi
mbah
mbahane
mbahas
mbahe
mbak
mbaka
mbako
mbakyu
mbakyune
mbalang
mbalekake
mbalela
mbaleni
mbales
mbalik
mbanget
mbangun
mbantah
mbantu
mbaptis
mbarang
mbarep
mbatalake
mbatesi
mbayar
mbc
mbebasake
mbebayani
mbedakake
mbedhah
mbeksa
mbekta
mbela
mbelani
mbenerake
mbengi
mbengok
mbentang
mbentuk
mberkahi
mbesuk
mbeta
mbetahaken
mbikak
mbina
mbintangi
mbiwara
mbiyantu
mbiyen
mbiyene
mbl
mblayu
mbledhos
mbobot
mbok
mbokmanawa
mboten
mbr
mbrene
mbudidaya
mbuka
mbukak
mbuktekake
mbungkus
mburi
mburine
mburu
mbusak
mbutuhake
mbutuhke
mbuwang
mc
mccarthy
mcdonald
mcgrath
mcgraw
mclaren
mcnary
md
mdpl
me
mead
meal
meals
mean
meaning
means
meat
mebel
mecah
mecahake
med
medal
medalaken
medali
medalists
medan
medang
medeni
medhali
medhan
medharake
medhia
medhis
medhok
medhot
medhun
media
medical
medicine
medieval
medii
medis
mediterania
mediterranean
medium
medun
mee
meet
meeting
meets
mega
megah
megan
megang
megar
megat
megatron
megatruh
megawati
meguru
meh
mei
meiji
mein
meja
mejahi
mekah
mekanik
mekanika
mekanisme
mekar
mekarsari
mekaten
mekong
meksa
meksiko
mel
mela
melaka
melakukan
melalui
melanie
melas
melathi
melati
melawan
melayu
melbourne
melek
meleng
melik
meliputi
melissa
melkisedek
mello
melly
melodi
melody
melon
meloni
melu
meluni
memala
memang
membaca
membangun
membawa
member
members
membran
membuat
meme
memedi
memilih
memiliki
memitran
memoir
memoirs
memori
memorial
memory
mempeng
memper
memphis
memuji
memulang
men
menak
menang
menangake
menangaken
menangi
menangke
menapa
menara
menarik
menawa
menawi
mencapai
mencari
mencok
mencolot
mencret
menda
mendadak
mendel
mendem
mendhak
mendhang
mendhem
mendhet
mendhung
mendhuwur
mendut
mene
meneh
menehake
menehi
menek
meneng
menengah
meng
menga
menganggo
menganti
mengapa
mengarang
mengarep
mengaruhi
mengenai
mengenal
mengenang
mengeti
menggah
menggak
menggok
menggunakan
menging
mengisor
mengkene
mengko
mengkone
mengkono
mengku
mengo
mengsah
mengwi
menika
meninggal
menit
menjadi
menjang
menjangan
menoreh
menstruasi
mentah
mental
mentas
mentawai
mentega
menteng
menteri
menthek
mentri
mentul
menu
menuju
menulis
menurut
menyan
menyang
mepe
mer
merah
meraih
merak
meranake
merang
merangi
merapi
merasa
merauke
merbabu
mercedes
mercury
mercusuar
merdamel
merdeka
merek
mereka
merem
meres
merga
mergane
meri
meriah
meriam
meringue
merk
merlokake
mermaid
merpati
merriam
merry
mertega
meru
meruhi
merupakan
mesakake
mesem
mesin
mesir
mesjid
meski
mesopotamia
mesra
message
messagero
messaggero
messaging
messi
messier
mesthekake
mesthi
mesthine
mesti
mestine
met
meta
metabolisme
metacritic
metal
metamorfosis
metana
mete
meteng
meteor
meteorologi
meter
method
methods
methuk
metode
metodhe
metoe
metro
metropolis
metropolitan
metu
metune
metz
mewah
mexican
mexico
meyer
mf
mg
mgm
mgr
mh
mhz
mi
mia
miami
miber
micara
michael
michel
michele
michelle
michigan
mickel
mickey
microbiology
microsoft
mid
middle
middlesbrough
mider
midfielder
midhangetaken
midi
midnight
mie
mifflin
mig
migas
migran
migrasi
miguel
migunakake
migunakaken
migunani
mijen
miji
mijil
mika
mike
mikhail
mikir
mikirake
mikire
mikirke
mikro
mikroba
mikroorganisme
mikroskop
mikul
mil
mila
milai
milan
milang
milano
mile
milea
milenium
miles
mili
miliar
milih
milik
milimeter
military
militer
milk
mill
miller
millet
million
millionaire
mills
milo
milton
milu
milwaukee
milyar
mimbar
mimi
mimika
mimis
mimpang
mimpi
mimpin
min
mina
minagka
minahasa
minami
minang
minangka
minangkabau
minangkabo
minangkani
minangla
minar
minat
minato
mind
mindanao
mindha
mindhah
mineral
ming
minger
minggah
minggat
minggon
minggu
mingguan
minh
mini
miniatur
minimal
minimum
minister
ministry
minneapolis
minnesota
minor
minoritas
mint
minta
minulya
minum
minuman
minutes
minyak
mio
mir
mira
mirabilis
miracle
mirah
miranda
mirdad
mireng
miri
mirib
mirin
miring
mirip
mirit
mirong
mirror
mirsani
mirunggan
mirza
misa
misah
misahake
misahaken
misahke
misale
misalnya
misao
misaya
misi
misil
misionaris
miskin
miso
miss
missing
mission
mississippi
missouri
misteri
misterius
mistik
misuh
misuwur
mit
mitchell
mitokondria
mitologi
mitos
mitra
mitrut
mitsubishi
mitulungi
miturut
mituturi
miwah
miwiti
mix
miyos
miyosipun
mizan
mj
mk
ml
mlajar
mlaku
mlakune
mlampah
mlarat
mlathi
mlayu
mlebet
mlebu
mlebune
mlengkung
mlethek
mligi
mligine
mliginipun
mlinjo
mliwis
mls
mlumah
mlumpat
mm
mms
mn
mnc
mnet
mo
mobil
mobile
moch
mochi
mochtar
modal
mode
model
models
modem
modena
moderen
modern
modhal
modhel
modheren
modhern
modifikasi
modul
module
moelane
moeng
moenggoeh
mogha
mogok
moh
mohamad
mohamed
mohammad
mohammed
mohd
mojar
mojo
mojokerto
mok
mokal
mokta
mol
molah
molai
molase
moldova
mole
molecular
molekul
molekular
molekuler
molen
moliere
molly
moluska
momen
momo
momong
momongan
momot
momotan
mon
mona
monaco
monako
monarki
monasterii
monastery
moncer
moncong
monde
monet
moneter
money
mong
mongol
mongolia
mongondow
mongsa
monica
monitor
mono
monogatari
monokrom
monopoli
monoponik
monroe
monsieur
monster
monsters
mont
montana
monte
montenegro
montgomery
month
monthly
montor
montore
montpellier
montreal
monumen
monument
monuments
monyet
moon
moore
moral
morales
more
moreno
morfologi
morgan
mori
morning
moro
morocco
morowali
morris
morrison
morton
moscow
moses
moskow
moskwa
mosok
mosque
most
mother
motif
motion
motivasi
moto
motogp
motong
motor
motorola
motors
mount
mountain
mountains
mouse
move
movement
moves
movie
movies
moyang
moyes
moyoki
mozambik
mozzarella
mp
mph
mpr
mpu
mq
mr
mrabawani
mrambat
mrana
mranggen
mratandhani
mratelakake
mratelakaken
mremen
mrene
mrentah
mrica
mrico
mrika
mriki
mriksa
mriksani
mriku
mring
mripat
mripate
mripatku
mripatmu
mriyem
mrodhuksi
mroduksi
mrs
mrupakan
ms
msc
msn
mt
mts
mtv
mu
muammar
muara
mubarak
mubeng
mucal
much
muchlisin
muda
mudah
mudha
mudheng
mudhun
mudhunake
mudhune
mudun
mufti
muga
mugi
muhamad
muhammad
muhammadiyah
mui
muja
muji
mujijat
mujudake
mujudaken
mujur
muk
muka
mukim
mukmin
muko
muksa
mukti
mula
mulai
mulak
mulan
mulane
mulang
mulangi
mulat
mulekat
mulekate
mulia
mulih
muljana
muller
mulo
multi
multimedia
multiple
mulud
mulus
mulut
mulya
mulyadi
mulyani
mumbai
mumbul
mumet
mumi
mumpangate
mumpung
mumpuni
mun
muna
muncar
munchen
muncul
muncule
mundak
mundhak
mundhut
mundur
mung
mungel
munggah
mungguh
mungguhing
munggw
mungkasi
mungkin
mungkur
mungsuh
mungsuhe
mungsuhmu
muni
munich
municipal
municipality
munisipalitas
munjuk
munster
muntab
muntah
muntilan
mupangat
mupangate
muput
murah
murai
murang
murba
murda
murder
muri
muria
murid
muride
muridipun
muridku
murih
muring
murka
murkane
murni
murphy
murray
murub
murung
murup
mus
musa
muse
musee
museum
musi
musibah
music
musica
musical
musik
musikal
musike
musikipun
musikus
musim
musiman
musisi
musiyum
musk
muslim
muslimin
muslims
musna
muspra
must
mustafa
mustaka
mustar
musuh
musyawarah
mutah
mutasi
muter
mutiara
mutlak
mutu
mutusake
mutusaken
muwah
muwuhi
mv
mw
mwang
mx
my
myanmar
myquran
myspace
mystery
myth
mythology
myths
myung
mz
n
n0
n1
n2
n3
n4
n5
n6
n7
n8
n9
na
nabati
nabi
nabire
nabrak
nabuh
nacional
nad
nada
nadi
nadia
nadu
nadyan
nafas
nafsu
naga
nagano
nagara
nagarakretagama
nagarakrtagama
nagarane
nagarantara
nagari
nagasaki
nagasari
nagih
nagoya
nah
nahan
nahdlatul
naik
nairobi
najis
nak
nakal
nakoni
nakula
nala
nalar
naleni
nalika
nalikane
nalikanipun
nalumsari
nam
nama
namakake
namaku
naman
namanipun
namatake
nambah
nambahake
nambahaken
nambahi
nambani
name
named
names
nami
namibia
naming
nampa
nampani
nampeni
nampi
nampik
nampilake
nampilaken
nampung
namun
namung
nan
nana
nanah
nanas
nancy
nandang
nandangi
nandatangani
nandhakake
nandhang
nandhani
nandur
nanem
nang
nangani
nangeke
nanggapi
nanggepi
nanggroe
nanggulangi
nanggung
nanging
nangis
nangka
nangkep
nani
naning
nanjak
nanjing
nano
nanoteknologi
nantang
nantes
nao
naomi
napa
napak
napakasmani
napas
naples
napoleon
napoli
napsu
nara
narada
naraguna
naraka
nararya
narasi
narator
narayana
narendra
nari
narik
narima
narita
narkoba
narkotika
narpawandawa
narti
narto
naruto
nasa
nasaret
nascar
nasdem
nashville
nasi
nasib
nasibe
nasihat
nasional
nasionalis
nasionalisme
naskah
nasser
nasution
nat
nata
natal
natalie
natasha
nate
natha
nathan
nathaniel
nation
national
nationale
nationalism
nations
native
nato
natrium
natsir
natuna
natur
natural
naturalis
nature
nauru
naval
naver
navigasi
navy
nawakake
nawani
naya
nazi
nb
nba
nbc
nc
ncegah
nct
nd
ndadak
ndadekake
ndadekke
ndadikake
ndadosaken
ndak
ndalem
ndalu
ndamel
ndan
ndandani
ndang
ndarbeni
ndas
ndatan
ndawa
ndedonga
ndek
ndeleng
ndelik
ndelok
ndemek
nderek
ndh
ndhapuk
ndharat
ndhelik
ndhelikake
ndherek
ndhik
ndhisik
ndhisiki
ndhuk
ndhukung
ndhuwur
ndhuwure
ndi
ndisik
ndokoki
ndonga
ndongakke
ndtv
nduduhke
ndungkap
ndunung
ndunungi
ndunungke
nduwe
nduweni
nduwur
nduwure
ne
neal
near
nebraska
nebula
nebus
ned
nedahaken
nederlan
nederland
nederlandsch
nedha
nedya
nee
need
needed
needs
negara
negarane
negari
negatif
negeri
negesake
negosiasi
negri
negro
neher
neil
neill
nek
nekad
nekakake
nekakke
nekani
neken
nekuk
nelakake
nelakaken
nelasaken
nelayan
neliti
nelpon
nelson
nelukake
nem
nemahi
nembak
nembang
nembangake
nembe
nembelas
nembung
nembus
nemen
nemokake
nemokaken
nemoni
nempel
nemplek
nempuh
nemtokake
nemtokaken
nemu
nenek
nenem
neng
nengah
nengen
nengenaken
nengeri
nenggih
nengsemake
nentang
nentokake
neo
neon
nepal
nepangaken
nepenthes
nepsu
neptu
neptune
neptunus
nepungake
nerak
neraka
nerangake
nerangaken
nerasaken
nerbitake
nerbitaken
nerima
nerusake
neruske
nesu
net
netep
netepake
netepaken
netepi
netepke
netes
netflix
netherlands
netra
netral
network
neuron
neutron
nevada
never
nevitt
new
newcastle
newfoundland
news
newsletter
newspaper
newspapers
newton
next
neymar
nf
ng
nga
ngabari
ngabarke
ngabdi
ngabehi
ngabei
ngabekti
ngablak
ngabrah
ngacu
ngada
ngadani
ngadeg
ngadegake
ngadegaken
ngadek
ngadepi
ngadheg
ngadhep
ngadhepi
ngadiluwih
ngadireja
ngadohi
ngadol
ngadu
ngagem
ngajak
ngajar
ngajari
ngajeng
ngajengipun
ngajeni
ngaji
ngajokake
ngak
ngakeni
ngakibatake
ngakoni
ngaku
ngakune
ngalah
ngalahake
ngalahaken
ngalam
ngalami
ngalang
ngalangi
ngalap
ngalebokake
ngalem
ngalih
ngalir
ngalor
ngamanca
ngamati
ngambah
ngambang
ngambung
ngamen
ngamot
ngampel
ngamuk
ngan
nganakake
ngancam
ngancani
ngancik
ngandap
ngandarake
ngandel
ngandela
ngandhakake
ngandhani
ngandhap
ngandhaping
ngandhapipun
ngandharake
ngandharaken
ngandhut
ngandika
ngandung
ngandut
ngangge
nganggep
nganggit
nganggo
nganggokke
nganggur
ngangkat
ngangkud
ngangsu
nganiaya
nganjuk
ngantem
nganthi
nganti
ngantos
ngantuk
nganut
ngapa
ngapura
ngapusi
ngarah
ngarahake
ngarang
ngarani
ngarep
ngarepake
ngarepe
ngarsa
ngarsane
ngarsanipun
ngasah
ngasem
ngasi
ngasilake
ngasilaken
ngaso
ngasorake
ngasoraken
ngasta
ngastina
ngatasi
ngaten
ngati
ngaton
ngatonake
ngatos
ngatur
ngaturake
ngaturaken
ngaturi
ngawasi
ngawe
ngawen
ngawetake
ngawi
ngawontenaken
ngawula
ngawur
ngayahi
ngayogyakarta
ngayomi
ngc
nge
ngebaki
ngebeki
ngecakake
ngece
ngeculake
ngedab
ngedalaken
ngedegake
ngedekke
ngedhunake
ngedol
ngedum
ngedunke
ngejabat
ngejak
ngejek
ngekeki
ngeklaim
ngelak
ngelakoni
ngelampahi
ngelar
ngelawan
ngelek
ngelem
ngelih
ngeling
ngelingake
ngelingi
ngelingke
ngeliputi
ngelmiah
ngelmu
ngelu
ngelungke
ngelus
ngembang
ngembangake
ngembangaken
ngemis
ngemot
ngempalaken
ngemplak
ngemu
ngemunah
ngemut
ngenal
ngenalake
ngenali
ngenani
ngendhalekake
ngendhani
ngendhog
ngendi
ngendika
ngendikan
ngendikane
ngene
ngeneng
ngener
ngengingi
ngentekake
ngenteni
ngentukake
ngepek
ngepung
ngeraih
ngereh
ngerilis
ngerteni
ngerti
ngertia
ngertos
ngestokake
ngetan
ngeterake
ngeterke
ngethok
ngetok
ngetokake
ngetokke
ngetop
ngetrapake
ngetung
ngetutake
ngetutke
ngewahi
ngewakili
ngewangi
ngewenehi
ngewrat
ngeyel
ngg
nggabung
nggabungake
nggabungaken
nggadhahi
nggagas
nggal
nggambar
nggambarake
nggambaraken
nggambarke
nggampangake
nggandheng
ngganggu
nggantekake
ngganteni
ngganti
nggantos
nggantosaken
nggantung
nggarap
nggarwa
nggatekake
nggatekke
nggawa
nggawe
nggawekke
nggawene
nggayuh
nggedhekake
nggegem
nggegirisi
nggelar
nggelarke
nggenah
nggendhong
nggenteni
nggih
nggiling
ngginakaken
nggl
nggodha
nggodhog
nggodhok
nggolek
nggoleki
nggon
nggone
nggonku
nggonmu
nggoreng
nggosok
nggrombol
nggugah
nggugat
nggugu
nggulung
nggumun
nggumunake
nggumunke
nggunakake
ngguyu
nghing
nghulun
ngi
ngibadah
ngicalaken
ngicipi
ngidak
ngidinake
ngidini
ngidul
ngiket
ngilang
ngilangake
ngilangi
ngimbang
ngimpi
ngindari
nginep
nginfeksi
nginggil
nginggiling
nginggilipun
ngingu
ngira
ngirangi
ngiras
ngirim
ngirimake
ngirimi
ngiringi
ngiris
ngirit
ngisep
ngisi
ngisin
ngising
ngisor
ngisore
ngiteri
ngitung
ngiwa
ngk
ngl
nglabuhi
nglacak
ngladeni
nglairake
nglairaken
nglajengaken
nglakokake
nglakokke
nglakoni
nglalekake
nglalu
nglamar
nglambangake
nglambangaken
nglampahaken
nglampahi
nglancarake
nglanggar
nglangi
nglangkungi
nglaporake
nglapurake
nglarang
nglarani
nglatih
nglawan
nglayani
nglebetaken
nglebokake
ngleboni
nglegena
nglereni
nglestantunaken
nglestarekake
nglewati
nglibatake
nglilani
nglimputi
nglindhungi
nglindungi
nglipur
ngliwati
ngluhurke
nglukis
nglumpuk
nglumpukake
nglumpukke
nglumui
ngluncurake
nglungguhi
nglurug
ngluwari
ngluwihi
ngo
ngobahake
ngobati
ngobong
ngobrol
ngoceh
ngoko
ngolah
ngolehake
ngolok
ngomah
ngombe
ngombol
ngomong
ngomongi
ngomongke
ngongkon
ngono
ngonsumsi
ngontrol
ngopeni
ngoperasikake
ngowahi
ngoyak
ngr
ngraho
ngraih
ngraman
ngrambah
ngrampungake
ngrampungaken
ngrampungi
ngrampungke
ngrancang
ngranggeh
ngrangkep
ngrangkul
ngrangsang
ngraos
ngraosaken
ngrasa
ngrasakake
ngrasakke
ngrasuk
ngrawat
ngrawuhi
ngrayakake
ngrebat
ngrebut
ngreka
ngrekam
ngreksa
ngrembag
ngrembaka
ngrembakakake
ngrembakakaken
ngrembakane
ngrembug
ngremehake
ngrencanakaken
ngrengkuh
ngresiki
ngreti
ngrewangi
ngrewes
ngriki
ngriku
ngrilis
ngrintis
ngripta
ngrisak
ngritik
ngrokok
ngrujuk
ngrumat
ngrumati
ngrumusaken
ngrungokake
ngrungokke
ngrusak
ngrutu
ngruwat
ngu
nguap
nguasani
nguatake
ngubah
ngubengi
ngubungake
ngubungaken
ngubur
ngucap
ngucapake
ngudhunake
ngudi
ngugemi
nguja
nguji
ngukuhake
ngukum
ngukur
ngulama
ngumbah
ngumbar
ngumbara
ngumpul
ngumpulake
ngumumake
ngumumaken
ngundang
ngundhakake
ngundhuh
ngunekake
ngunggahake
ngungkul
ngungkuli
ngungsi
nguni
nguningani
ngunjuk
ngunjungi
nguntal
nguntungake
nguntungke
ngupadi
ngupados
ngupaya
ngupayakake
ngurah
ngurangi
nguri
nguripake
ngurmati
ngurus
ngurusi
ngusir
ngusulake
ngusung
ngutamakake
ngutus
nguwaosi
nguwasani
nguwatake
nguyen
nguyuh
ngwang
ngwasani
nh
nhk
ni
nia
niaga
niagara
nias
niat
niba
niccolo
nice
nicholas
nick
nickelodeon
nico
nicolas
nicole
nigel
niger
nigeria
night
nightingale
nih
nihon
niigata
nijhoff
nika
nikah
nikahan
nikang
nikaragua
nike
nikel
niken
niki
nikita
nikmat
nikmati
nikolas
niku
nil
nila
nilai
nilar
nilaraken
nile
niliki
nimba
nimbali
nimbang
nimbulake
nimh
nimpuna
nin
nina
nindakake
nindakaken
nindakke
nine
ning
ningali
ninggal
ninggalake
ninggalaken
ningkah
ningkatake
ningkataken
ningrat
nini
ninja
nino
nintendo
nipis
nippon
nipun
nira
nirina
niru
nis
nistha
niteni
niti
nitih
nitrat
nitrogen
niu
niwasake
niwasaken
nixon
niyaga
niyat
nj
njaba
njaban
njabane
njabat
njaga
njagakke
njagi
njagong
njajah
njajal
njalari
njalin
njaluk
njamin
njangkep
njangkepi
njawab
njawi
njeblug
njedhul
njedul
njegur
njejaluk
njelasake
njenengi
njerit
njero
njeron
njerone
njikuk
njlentrehake
njlentrehaken
njlimet
njoged
njunjung
njupuk
njur
njurung
nk
nl
nliti
nm
nmb
nn
nndb
no
noah
nobel
nobelprize
nobita
noble
noda
noel
noeli
noer
nok
nokia
nol
nolak
nolan
noleh
nom
noman
nomenclature
nomer
nominasi
nominations
nominees
nomor
non
nona
nonjol
nonton
noodles
noor
nopember
nora
nord
nordic
nordik
nordland
nori
norma
normal
norman
normandia
norris
north
northampton
northern
northwest
norton
norway
norwegia
norwich
nos
nossa
nostalgia
nostri
not
notasi
note
notes
nothing
notice
notification
noto
notre
nov
nova
novel
novele
novelis
november
novi
novita
novo
now
noyo
np
npr
nq
nr
nrajang
nresnani
nrima
nrpati
nrpatmaja
ns
nt
nth
ntt
nu
nuansa
nuclear
nuduhake
nuevo
nugel
nugini
nugraha
nugroho
nuh
nuju
nukleat
nukleotida
nukleus
nuklir
nuku
nulak
nular
nuli
nulis
nulisake
nulung
nulungi
number
numbers
numeric
numfor
numpak
numpang
numpes
numpuk
nun
nunggak
nunggal
nunggang
nunggu
nungkul
nunjang
nunjuk
nunjukake
nuntun
nuntut
nunukan
nunut
nur
nuri
nurul
nurun
nurunake
nurut
nuruti
nurwegen
nus
nusa
nusakambangan
nusantara
nusul
nuswantara
nut
nutrisi
nutrition
nutugake
nutup
nutupi
nuturake
nututi
nuwuhake
nuwuhaken
nuwun
nv
nw
nx
ny
nya
nyabet
nyabrang
nyade
nyai
nyak
nyakup
nyalahke
nyaman
nyamar
nyambi
nyambung
nyambungake
nyambut
nyambutgawe
nyamektakaken
nyamikan
nyampur
nyamuk
nyana
nyandhak
nyandhang
nyandhet
nyang
nyangga
nyanyi
nyanyian
nyaosi
nyaranake
nyaring
nyariosaken
nyaritakake
nyariyosaken
nyarujuki
nyasarke
nyata
nyatakake
nyatane
nyathak
nyathet
nyatur
nyaur
nyauri
nyaut
nyawa
nyawane
nyawang
nyawiji
nyawisake
nyawisaken
nye
nyebabake
nyebapake
nyebapaken
nyebar
nyebarake
nyebat
nyebataken
nyebrang
nyebut
nyebutake
nyedeki
nyedhak
nyedhaki
nyedhiyakake
nyedhot
nyediakake
nyegah
nyekel
nyekeli
nyekseni
nyelaki
nyelehake
nyelenggarakake
nyeluk
nyembah
nyemplung
nyenengake
nyenengi
nyeneni
nyengkuyung
nyenyuwun
nyepakake
nyepeng
nyepetake
nyerah
nyerahake
nyerang
nyerat
nyerep
nyeret
nyeri
nyeritakake
nyetak
nyetel
nyethak
nyetrap
nyewa
nyi
nyiapake
nyiapaken
nyigar
nyilem
nyilih
nyimpang
nyimpen
nyimpulake
nyinaoni
nyinau
nyingkirake
nyingkiri
nyipta
nyiptakake
nyiptakaken
nyiram
nyirnakake
nyithak
nyiya
nyiyapake
nyl
nylametake
nylametaken
nylametke
nyo
nyoba
nyobi
nyokot
nyolok
nyolong
nyoman
nyonya
nyopot
nyritakake
nyritani
nytimes
nyu
nyuda
nyuguhake
nyukani
nyukupi
nyukur
nyulik
nyumbang
nyumurupi
nyurung
nyusoni
nyusul
nyusun
nyuwek
nyuwun
nywara
nz
o
o0
o1
o2
o3
o4
o5
o6
o7
o8
o9
oa
oak
oakland
ob
obah
obahan
obahe
obahing
obama
obat
obatan
obi
obituary
objects
objek
oblast
oblok
obong
obor
observasi
observatorium
observatory
observer
obsolete
obyek
oc
ocean
oclc
oct
octavia
october
od
ode
oder
odisha
oe
oega
oetawa
of
off
office
officer
official
og
ogan
oh
ohio
oi
oil
oj
ojoki
ok
oka
okeh
okehe
okezone
oki
okinawa
oklahoma
okra
oksida
oksidasi
oksigen
okt
oktaf
oktober
ol
olah
olahan
olahraga
old
olef
oleh
olehe
olga
olih
olimpiade
olimpiadhe
olimpus
olive
oliveira
oliver
olivia
olivier
olok
olympiade
olympic
olympics
olympique
om
omah
omahan
omahe
omahku
oman
omar
ombak
ombe
omben
ombenan
omega
omelet
omong
omongan
omongane
omonge
omongi
omongke
omongku
on
oncat
once
oncom
one
ong
oni
online
only
onna
ono
onok
ons
ontang
ontario
ontran
oo
op
opah
opak
open
opening
opera
operasi
operasional
operation
operations
operator
ophiuchus
opinion
opole
opor
oposisi
oprasi
opsional
optical
optik
optimus
opuntia
oq
or
ora
oral
orane
orang
orange
orangutan
oranye
orbit
orchestra
orde
order
ordho
ordinariat
ordinaris
ordo
ore
oreg
oregano
oregon
orek
oren
org
organ
organel
organic
organik
organisasi
organisation
organisme
organization
oricon
orient
oriental
orientasi
origin
original
originally
origine
origini
origins
orion
orkes
orkestra
orlando
orleans
ornamen
oro
orong
orthodox
ortodoks
os
osaka
oscar
oseania
oseng
oslo
ost
ostenrik
ostrali
ostralin
ot
otak
other
others
oto
otobiografi
otomatis
otomotif
otonom
otonomi
otoritas
otot
ottawa
otto
ottoman
ou
our
out
output
outside
outstanding
ov
oval
ovarium
oven
over
overview
ow
owah
owahan
owahe
owahing
owen
owens
own
ox
oxford
oxyopes
oxyopidae
oy
oyag
oyak
oyod
oyode
oyot
oyote
oz
ozon
p
p0
p1
p2
p3
p4
p5
p6
p7
p8
p9
pa
pabelan
pablo
pabrik
pabrikan
pabukon
pac
pacak
pacangan
pacar
pacaran
pacare
pace
pacelathon
pacific
pacitan
pack
package
pacoban
pacu
pacul
pad
pada
padagangan
padahal
padamelan
padamelanipun
padamu
padang
padangan
padat
padatan
padatane
padatanipun
pademawu
padesan
padha
padhalangan
padhane
padhang
padharan
padhepokan
padhet
padi
padinan
padintenan
padma
padmasusastra
padmi
padmosoekotjo
padmosoesastro
padon
pados
padu
padua
paduan
padudon
paduka
padunung
padunungan
padusan
paedah
paella
paes
paesan
pag
pagar
pagawean
pagaweane
pagaweyan
pagaweyane
page
pageblug
pagelaran
pager
pages
pagesangan
pagesanganipun
pagi
pagoda
pagunungan
paguron
paguyuban
paham
pahargyan
pahit
pahlawan
pai
pain
paing
pait
pajajaran
pajak
pajang
pajangan
pajar
pajeg
paju
pak
pakaian
pakan
pakanira
pakar
pakarangan
pakaryan
pakaryane
pakaryanipun
pakdhe
pakebonan
pakeliran
pakem
pakempalan
paket
pakewuh
pakis
pakistan
pakpak
paksa
paksi
paku
pakualaman
pakuan
pakubuwana
pakulinan
pakumpulan
pakunjaran
pakurmatan
pal
pala
palabuhan
palace
palafalan
palagan
palakarta
palakrama
palakrami
palang
palangka
palapa
palar
palastra
palawija
palem
palemahan
palembang
palermo
palestina
palestine
palestinian
palgrave
pali
palilah
paling
pallawa
palm
palma
palmer
palo
palsu
palu
palung
pam
pamaburan
pamaca
pamain
paman
pamanasan
pamane
pamanggih
pamanggihipun
pamangkune
pamaos
pamarentah
pamarentahan
pamarentahane
pamarentahanipun
pamarintah
pambabaran
pambagian
pambalap
pambangunan
pambarep
pambeksa
pambentukan
pambiji
pambiwara
pambiyantu
pambrontak
pambrontakan
pambuka
pambuluh
pambuwangan
pamekaran
pamekasan
pamela
pamenang
pamentasan
pamer
pameran
pamerangan
pametu
pametune
pamicara
pamikir
pamikiran
pamilih
pamilihan
pamimpin
pamirsa
pamisah
pamisahan
pamit
pamitan
pamong
pamotan
pamrayoga
pamrentah
pamrentahan
pamrih
pamujan
pamuji
pamukiman
pamulangan
pamundhutan
pamungkas
pamuter
pan
pana
panah
panahan
panakawan
panaliten
panaliti
panama
panambahan
panambang
panampa
panampilan
panandhang
pananggalan
panangkaran
panaraga
panas
panase
panasonic
panata
panatacara
panca
pancake
pancasila
pancawara
pancen
panci
pancing
pancur
pancuran
panda
pandamelan
pandan
pandang
pandangan
pandawa
pandeglang
pandeleng
pandelengan
pandemi
pandemic
pandhan
pandhangan
pandhawa
pandhe
pandhemen
pandhemi
pandherek
pandhidhikan
pandhidhikane
pandhita
pandhu
pandita
pandjenengane
pandji
pandonga
pandu
panduan
panduman
pane
paneer
panel
paneliten
paneliti
panelitian
panembahan
panemon
panemu
panemuan
panemune
panen
panentu
panerbit
panerus
pang
pangabekti
pangadeg
pangadilan
pangajab
pangajaran
pangaji
pangalaman
pangalembana
pangamatan
pangan
panganan
panganane
pangandaran
pangandika
pangandikane
pangandikanipun
pangane
panganggit
panganggo
panganggone
panganten
panganut
pangapunten
pangapura
pangarang
pangarep
pangaribawa
pangarsa
pangaturan
pangatusan
pangawasan
pangayom
pangayoman
pange
pangeduman
pangeling
pangembang
pangembangan
pangenalan
pangentasan
pangeran
pangerane
pangeranira
pangerten
pangertosan
pangestu
panggah
panggalih
panggang
panggangan
panggawe
panggawean
panggawene
panggedhe
panggenan
panggenanipun
panggenipun
panggilan
pangginaan
panggiyaran
panggon
panggonan
panggonane
panggone
pangguna
panggunaan
panggung
panggurit
panghargaan
panghargyaan
pangilon
panginepan
pangiriman
pangiring
pangisi
pangkah
pangkal
pangkalan
pangkat
pangkate
pangkon
pangkur
panglima
panglipur
pangobatan
pangolahan
pangon
pangowahan
pangrasa
pangreh
pangreksa
pangrembakaning
pangripta
pangrungu
pangsit
panguasa
pangucap
pangucapan
pangucape
pangudi
pangukuran
pangulu
panguripan
panguripane
pangurus
pangusaha
panguwaos
panguwasa
panguwasane
pangwasa
pangwasane
pangyasa
paniai
paningal
paningalan
paninggalan
paningkatan
panitia
panitya
panjaga
panjajahan
panjaluk
panjaluke
panjang
panjangipun
panjebar
panjenengan
panjenengane
panjenenganipun
panjenengngan
panjer
panji
panjupukan
panjurung
pankreas
panlasang
panliten
panliti
panlitian
panorama
pantai
pantes
pantheon
panti
pantun
pantura
pantyen
panulis
panulisan
panulise
panumpang
panumpes
panuntun
panutan
panutup
panutur
panuwun
panyarta
panyaruwe
panyatur
panyawis
panyebab
panyebaran
panyengkuyung
panyerang
panyerat
panyeratan
panyimpenan
panyusun
panyuwun
panyuwunan
pao
paolo
papa
papak
papan
papane
papanipun
papar
paparan
papat
paper
paperangan
paperback
papers
paprangan
paprentahan
paprika
papua
par
para
parade
paradise
paraga
paragane
paragraf
paraguay
parah
parahyangan
parakan
paralayang
paralel
parama
paramasastra
parameter
paramita
paramitha
paramount
paran
parana
parang
paranormal
pararaton
parashah
parasit
paratha
parcel
pare
pareng
parent
parentah
pari
pariaman
parian
paribasa
paribasan
parigi
parikesit
paring
paringi
paringin
paripurna
paris
parit
pariwara
pariwisata
park
parker
parkir
parks
parlemen
parliament
parma
parmesan
paroki
parsley
parsyah
part
partai
parte
partikel
partisipasi
partner
partners
partnership
parts
party
paru
paruh
paruk
parusahan
parut
parutan
pas
pasa
pasagi
pasal
pasaman
pasamoean
pasamuan
pasamuane
pasamuwan
pasang
pasangan
pasangane
pasanggiri
pasanggrahan
pasar
pasaran
pasarean
pasareyan
pasarta
pasca
pascal
pascasarjana
pase
paseban
paseduluran
pasemon
pasetujon
pasha
pasi
pasien
pasif
pasifik
pasinaon
pasinaonan
pasir
pasisir
paskah
pasokan
paspor
pasrah
pass
passes
past
pasta
paste
pastel
pasteur
pasti
pastor
pastoral
pastry
pasugatan
pasukan
pasulayan
pasundan
pasuruan
pasuryan
pat
patah
patamanan
patang
patapan
patavii
patbelas
pate
patean
patebon
patel
patemon
paten
pateni
pater
path
pathet
pathi
pathok
pathokan
pati
patia
patih
patik
patikraja
patilasan
patine
pating
patiya
patogen
patologi
patos
patra
patrap
patria
patriark
patriarkat
patrice
patricia
patrick
patriot
patritius
patterns
patty
patung
patut
patutan
paugeran
paukuman
paul
paula
paulo
paulownia
paulus
paus
pavel
pavia
pawadan
pawadonan
pawakan
pawarta
pawartos
pawatesan
paweh
pawehe
pawestri
paweweh
pawiwahan
pawiyatan
pawon
pawongan
pay
paya
payon
pays
payu
payudara
payung
paz
pb
pbb
pbs
pc
pd
pdb
pdf
pdi
pdkjateng
pe
peace
peak
pearce
pearl
pearson
pebruari
pecah
pecahan
pecan
pecel
peci
pecinta
pecorino
pecut
pedagang
pedalaman
pedamelan
pedang
pedas
pedes
pedesaan
pedhalangan
pedhang
pedhes
pedhet
pedhot
pedhut
pedoman
pedro
peduli
pedunung
pegasus
pegat
pegatan
pegawai
pegawe
pegel
peggy
pegon
pegulat
pegunungan
pehak
pejabat
pejah
pejawaran
pejuang
pek
pekalongan
pekan
pekanbaru
pekarangan
peken
pekerja
pekerjaan
pekerti
peking
peksa
peksi
pelabuhan
peladen
peladene
pelajar
pelajaran
pelaksana
pelaksanaan
pelaku
pelanggan
pelanggaran
pelangi
pelarut
pelataran
pelatih
pelatihan
pelaut
pelawak
pelayan
pelayanan
pelayaran
pelem
pelestarian
pelindung
pelita
pelog
pelopor
peluang
pelukis
peluncuran
peluru
pemahaman
pemain
pemakaman
pemalang
pemanasan
pemandangan
pemanis
pemasaran
pematang
pembagian
pembakaran
pembalap
pembangkit
pembangunan
pembantaian
pembantu
pembaptis
pembaruan
pembawa
pembebasan
pembelajaran
pembentukan
pemberdayaan
pemberontakan
pembina
pembinaan
pembuatan
pembuka
pembukaan
pembuluh
pemburu
pemda
pemeliharaan
pemenang
pementasan
pemeran
pemeriksaan
pemerintah
pemerintahan
pemetaan
pemikiran
pemilihan
pemilik
pemilu
pemimpin
pemkab
pemko
pemuda
pemudha
pemukiman
pen
pena
penak
penalti
penambahan
penampilan
penampilane
penang
penanganan
penanggulangan
penangsang
penari
penasaran
penasehat
penasihat
penataran
penawangan
pencak
pencakar
pencarian
pencernaan
pencetak
pendaki
pendakian
pendamelan
pendanaan
pendapatan
pendatang
pendek
pendekar
pendekatan
penderita
pendeta
pendhak
pendhapa
pendhapat
pendhem
pendhidhikan
pendhita
pendhudhuk
pendhukung
pendidikan
pendiri
pendopo
penduduk
pendudukan
pendukung
peneliti
penelitian
penemu
penemuan
pener
penerangan
penerbangan
penerbit
penerbitan
penerjemah
penerus
peng
pengabdian
pengacara
pengadilan
pengajar
pengajaran
pengakuan
pengalaman
pengalamane
pengamat
pengamatan
pengandel
pengandele
pengandelmu
pengantar
penganten
pengantin
penganut
pengarang
pengarep
pengarepe
pengaruh
pengaruhe
pengaturan
pengawal
pengawas
pengawasan
pengawet
pengelola
pengelolaan
pengembangan
pengen
pengenalan
pengendalian
pengertian
pengetahuan
pengetan
penggabungan
pengganti
penggawa
penggawe
penggawean
penggaweane
penggawene
penggedene
penggemar
pengging
pengguna
penggunaan
penghargaan
penghasilan
penghulu
pengin
pengisi
pengkajian
pengobatan
pengolahan
pengrajin
penguasa
penguin
pengumuman
pengungsi
pengunjung
pengurus
pengusaha
peni
penida
penilaian
peninggalan
peningkatan
peninsula
penjaga
penjajah
penjajahan
penjalin
penjara
penjelasan
penjualan
penn
pennsylvania
penonton
pensiun
pensiyun
pentas
pentengan
penting
penuh
penulis
penulisan
penumpang
penuntun
penuntune
penutup
penutur
penyair
penyakit
penyanyi
penyebab
penyebaran
penyelenggara
penyelenggaraan
penyerang
penyet
penyiar
penyiaran
penyihir
penyu
penyunting
people
peoples
pepadang
pepadhan
pepadhang
pepak
pepanggihan
pepanthan
peparab
pepati
pepatih
pepe
pepeling
pepenginan
peperangan
pepes
pepet
pepeteng
pepindhan
pepisahan
pepper
peputra
per
peradaban
perahu
perairan
perak
peralatan
peran
peranakan
peranan
perancang
perancangan
perancis
perane
perang
perangan
perangane
peranganing
perange
perangkat
perasaan
peraturan
perawan
perawat
perawatan
perayaan
perbaikan
perbandingan
perbankan
perbedaan
perbukitan
perbukuan
percaya
percepatan
percetakan
percobaan
percy
perdagangan
perdamaian
perdana
perdhana
perdu
perduli
pere
peredaran
perekonomian
perempat
perempuan
perencanaan
pereng
peres
peresan
peresmian
perez
perfect
perfileman
performance
pergerakan
pergi
perguruan
perhatian
perhiasan
perhimpunan
perhubungan
peri
perih
perikanan
perilaku
peringatan
peringkat
perintah
perintis
period
periode
periodhe
periodik
perisai
peristiwa
perjalanan
perjanjen
perjanjian
perjuangan
perkakas
perkara
perkasa
perkawinan
perkawis
perkebunan
perkemahan
perkembangan
perkeretaapian
perkumpulan
perkusi
perlawanan
perlengkapan
perlindhungan
perlindungan
perlu
permainan
permaisuri
permanen
permata
permen
permendagri
permukaan
pernah
pernahe
pernapasan
pernatan
pernatane
pernikahan
pernikahane
pernyataan
perobahan
peron
perpanjangan
perpustakaan
perry
pers
persahabatan
persaingan
persamaan
persatuan
persebaya
persegi
persekuthuan
persemakmuran
persembahan
persen
persepolis
perserikatan
persero
persetujuan
perseus
persi
persia
persian
persiapan
persib
persija
persik
persimpangan
persipura
persis
persise
persiyapan
person
personal
personel
personil
perspective
perspectives
perspektif
pertahanan
pertalan
pertama
pertamane
pertambangan
pertami
pertamina
pertanahan
pertandhingan
pertandingan
pertanian
pertapaan
pertapan
pertempuran
pertemuan
pertengahan
perth
pertimbangan
pertiwi
pertukaran
pertumbuhan
pertunjukan
peru
perubahan
perum
perumahan
perundang
perundhang
perunggu
perusahaan
perut
perwakilan
perwira
pesagi
pesan
pesanggrahan
pesantren
pesat
pesawat
pescara
pesen
pesenan
peserta
pesisir
peso
pesona
pesta
pesthi
pestisida
pet
peta
petak
petanahan
petang
petani
petarukan
pete
peteng
petenis
peter
peterborough
peternakan
peterpan
petersburg
peterseli
peterson
pethak
pethel
pethi
pethikan
peti
petir
petis
petit
petra
petro
petrokimia
petroleum
petruk
petrus
petualangan
petugas
petung
petungan
petunjuk
peucetia
pewaris
pewarna
pewayangan
peyek
pf
pfa
pg
pgri
ph
phantom
phat
phd
phil
philadelphia
philip
philippe
philippine
philippines
phillip
phillips
philosophy
pho
phoenix
phone
photo
photographs
photography
photos
php
phylogeny
physical
physics
physiology
phytophthora
pi
pia
piagam
piala
piano
picard
picasso
pickled
picture
pictures
pidana
pidato
pidhato
pie
piece
pieces
piedmont
piemonte
pierce
piero
pierre
piet
pieta
pieter
pietro
pig
pigeaud
pigmen
piguna
pigunane
pihak
pii
pijer
pijet
pikantuk
pikatan
pikir
pikiran
pikirane
pikiranku
pikire
pikoleh
pikolehan
piksel
pil
pilah
pilar
pilatus
pilih
pilihan
pilipina
pilkada
pilot
pimpinan
pin
pinang
pinanganten
pinanggih
pinarak
pinaringan
pincang
pindah
pindang
pindha
pindhah
pindhang
pindho
pindo
pine
ping
pinggang
pinggir
pinggiran
pinggire
pinggiring
pinggul
pinguin
pinilih
pinitados
pinituwa
pinituwane
pink
pinoy
pinrang
pintar
pinten
pinter
pinto
pintu
pinuju
pinunjul
pinus
pinyin
pioneer
pipa
piper
pipi
pipih
pir
pira
piramida
pirang
piranti
pirantos
pirembagan
piring
piringan
pirminus
pirngon
pirsa
pirsani
pisa
pisah
pisahan
pisan
pisanan
pisanane
pisang
pisau
piso
pista
pistachio
pistol
piston
pistul
pisumbangan
pisungsung
pit
pita
pitados
pitaken
pitakenan
pitakon
pitakonan
pitakone
pitaya
pitedah
pitembungan
pitik
pitoe
pitt
pittsburgh
pitu
pituduh
pitulas
pitulung
pitulungan
pitulungane
pitung
pituruh
pitutur
pituture
pituturku
pius
piwulang
piwulange
pixar
piyala
piyambak
piyambakan
piyambake
piyambakipun
piyantun
piye
piyul
pizza
pj
pk
pki
pks
pl
pla
plabuhan
place
places
plain
plak
plan
plancong
plane
planet
planets
planit
plankton
planning
plant
plantain
plants
plasa
plasma
plasmodium
plastik
plat
plata
plataran
plate
platform
platini
platinum
platnick
plato
play
playboy
player
players
playing
plaza
please
pleret
plesir
plesiran
plot
plum
plumpungan
plupuh
pluru
plus
pluto
plutonium
plymouth
pm
pmc
pmid
pn
pnas
png
pnri
pns
po
pocapan
pocapane
pocaping
poci
pocket
pocong
podhang
poelo
poems
poerbatjaraka
poerwadarminta
poet
poetra
poetrane
poetry
pohan
pohon
pohung
poin
point
poirot
pojok
pokal
pokemon
poker
pokok
pokoke
pol
pola
polah
polahe
poland
polandia
polar
polda
pole
polen
polewali
police
policy
polifenol
polimer
polinesia
poliponik
polisakarida
polish
polisi
politeknik
political
politics
politik
politikus
politisi
poll
polo
polong
polos
polri
polusi
polynesian
poma
pomahan
pomerania
pompa
pon
poncol
pondasi
pondhok
pondok
pong
ponggok
ponorogo
pont
pontianak
pontificatu
pontificatum
pontificia
pontificum
pony
pop
popcorn
pope
poppy
popular
popularitas
popularity
populasi
populasine
population
populer
por
pori
pork
porno
poros
porsi
port
portal
portegis
porter
portland
porto
portrait
portsmouth
portugal
portugis
portuguese
pos
poseidon
posisi
posisine
positif
position
poso
possible
post
poster
posterior
pot
potato
potelod
potensi
potensial
potential
potlot
poto
potong
potongan
potret
potter
pour
powder
powell
power
powerful
powers
powershell
powiat
poznan
pp
ppp
pq
pr
pra
prabalingga
prabawa
prabedan
prabhu
praboe
prabot
prabowo
prabu
pracaya
practical
practice
prada
pradesh
pradjoerit
praen
praga
praha
prahara
prahu
praja
prajanjen
prajanjian
prajurit
prakara
prakasa
prakawis
prakiraan
prakiran
prakosa
praktek
praktik
praktis
pralambang
pram
pramastuti
prambanan
prambors
prameswari
pramila
pramoedya
pramuka
prana
pranala
pranata
pranatan
prancis
prang
prangkat
prangko
pranyata
pranyatan
praoe
prapanca
prapat
prapatan
prapta
prapti
prapto
prasaja
prasajarah
prasarana
prasasat
prasasti
prasetya
prasetyo
prastawa
pratama
pratamane
pratandha
pratelan
pratelane
pratingkah
pratiwi
pratt
prau
praune
praupan
prawan
prawira
prayer
prayitna
prayoga
prayogane
prayogi
pre
precaya
predator
predikat
preduli
prefecture
prefektur
prei
preinan
prejanjian
prejanjiane
prekara
prekawis
prelatur
prelu
preman
prembun
premier
premiere
premierleague
premium
prenah
prenahe
prentah
prentice
preparation
pres
present
presentasi
presentation
presenter
preservation
presiden
president
presidents
presidhen
press
pressure
prestasi
prestasine
preston
pretty
pretyaya
prevention
preview
pria
pribadhi
pribadi
pribadine
pribumi
price
priest
prigel
prihatin
priksa
prilaku
prima
primary
primata
primbon
prime
primer
primitif
primus
prince
princess
princeton
principe
principles
pring
pringsewu
prinsip
print
printer
pripun
prisma
private
prix
priya
priyantun
priyayi
priye
prize
prizes
pro
problem
problems
probolinggo
proceedings
process
processing
prodhuk
prodhuksi
prodhusen
prodhuser
produced
producer
product
production
productions
products
produk
produksi
produktif
produsen
produser
prof
profesi
profesional
profesor
professional
professor
profil
profile
profiles
progo
program
programme
programming
progresif
progress
project
proklamasi
prometheus
promosi
pronounced
pronunciation
propaganda
properti
properties
property
propinsi
proporsi
proposal
proppo
prosa
prosea
prosedur
proses
prosesi
prosesor
prost
prostat
protagonis
protection
protein
protes
protestan
protista
proto
protokol
proton
protozoa
provence
province
provinces
provincia
provincial
provincias
provinsi
proxima
proyek
proyeksi
prunggu
prusahaan
prusia
ps
psg
psi
psikolog
psikologi
psikologis
pssi
psychology
pt
ptolemeus
ptolemy
pu
puas
puasa
pub
public
publication
publications
publik
publikasi
published
publisher
publishers
publishing
pucakwangi
pucet
pucuk
pucuke
pucuking
pucukipun
pucung
pudak
pudding
puding
puerto
puff
puger
puisi
puja
pujangga
puji
pujian
pukul
pukulun
pula
pulang
pulau
pulih
pulisi
pulitik
pulitikus
pulitisi
pulitzer
pulo
pulosari
pulp
puluh
puluhan
pulut
pumpung
pun
punah
punakawan
punapa
puncak
puncake
punch
punctuation
pundhak
pundhi
pundi
pung
punggawa
punggung
pungkas
pungkasan
pungkasane
pungkasaning
pungkasanipun
punika
puniki
puniku
punjab
punjabi
punjer
punjere
punjering
punjul
punk
punsel
puntadewa
punya
pupu
pupuh
pupuk
pupus
puput
pura
purana
purba
purbakala
purbalingga
purbo
pure
puri
puring
purn
purna
purnama
purnomo
purple
puru
purun
purusa
purut
purwa
purwaasri
purwadadi
purwadi
purwakarta
purwakerta
purwane
purwaning
purwareja
purwasari
purwodadi
purwokerto
purworejo
purwosari
pusaka
pusat
pusate
puser
puspa
pustaka
put
putaran
puter
putera
puteran
puteri
putih
putik
puto
putra
putrane
putranipun
putri
putrine
putrinipun
putu
putune
putung
putus
putusan
puyuh
pv
pw
pwa
px
py
pz
q
q0
q1
q2
q3
q4
q5
q6
q7
q8
q9
qa
qaddafi
qajar
qatar
qb
qc
qd
qe
qf
qg
qh
qi
qin
qing
qiyamat
qj
qk
ql
qm
qn
qo
qp
qq
qr
qs
qt
qu
quality
quarter
quarterly
que
quebec
queen
queens
queensland
queso
quest
question
questions
quezon
qui
quick
quinn
quotquot
qur
quran
qv
qw
qwerty
qx
qy
qz
r
r0
r1
r2
r3
r4
r5
r6
r7
r8
r9
ra
rab
rabbi
rabi
rabu
rabuk
racak
racake
racana
race
rachel
rachman
rachmat
racing
racun
rad
rada
radang
radar
radcliffe
raden
radha
radhang
radhiasi
radhio
radi
radiasi
radikal
radio
radioaktif
raditya
radius
radja
radya
rafael
raffi
raffles
rag
raga
ragad
ragam
ragi
ragil
ragu
rah
rahaden
rahang
rahardjo
raharja
rahasia
rahayu
rahib
rahim
rahman
rahmat
rahwana
rai
raih
rail
railroad
railway
rain
rainbow
raine
rais
raj
raja
rajakaya
rajangan
rajapati
rajasa
rajawali
rajawangsa
rak
raka
rakai
rakangat
rake
raket
rakete
rakit
rakryan
raksasa
rakwa
rakyat
rakyate
ralph
ram
rama
ramadan
ramadhan
ramah
ramalan
ramane
ramanipun
ramawijaya
ramayana
rambah
rambat
rambut
rambutan
rambute
rame
ramelan
ramen
rami
ramirez
ramon
ramos
rampan
rampe
ramping
rampung
rampunge
ramuan
ramya
ran
rana
ranah
rancage
rancang
rancangan
randa
randai
randha
randhu
random
randublatung
randy
rang
range
ranger
rangers
rangga
ranggawarsita
rangka
rangkah
rangkaian
rangkasbitung
rangkean
rangkep
rangking
rangsang
rangsangan
rangu
rani
ranjang
ranking
rantai
rantaman
rantau
rante
ranting
ranu
rao
raos
raosipun
rap
rapat
rapet
raphael
rapi
rapid
rapids
rapper
rapuh
rara
raras
rare
ras
rasa
rasane
rasaning
raseksa
rasi
rasio
rasmi
raspberry
rasukan
rasul
rasule
rasulullah
rasyid
rat
rata
ratan
ratha
rathu
ratih
rating
ratings
ratisbon
ratna
ratoe
ratri
ratu
ratune
ratuning
raul
raup
raw
rawa
rawan
rawas
rawasari
rawaseneng
rawat
rawit
rawuh
rawuhipun
ray
raya
rayap
rayat
rayi
rayinipun
raymond
rb
rba
rc
rcti
rd
re
read
reader
reading
ready
reaksi
real
realisme
realitas
reality
really
realme
reason
rebab
rebecca
rebo
rebus
rebusan
rebut
rebutan
reca
recent
recentioris
recentis
recipe
recipes
recognized
recognizedhidden
reconstruction
record
recording
records
red
redaksi
redaktur
redhaksi
redhaktur
redi
reed
reeves
ref
reference
references
referendum
referensi
refleksi
reform
reformasi
refs
rega
regane
reged
regency
regeng
regensbergiana
regensburgiana
reggae
reggio
regi
regia
regina
reginipun
region
regional
regione
regions
register
registered
registrasi
regu
regulasi
reguler
reh
rehabilitasi
reid
reilly
reims
reja
rejang
rejeki
rek
reka
rekaman
rekan
rekasa
rekayasa
rekonstruksi
rekor
rekreasi
rektor
rel
related
relatif
relations
release
released
releases
reliable
relief
religi
religion
religions
religious
religius
rem
remaco
remah
remains
remaja
rematik
rembag
rembang
rembug
rembugan
rembulan
remeh
remember
remen
remi
remigius
remo
rempah
remuk
ren
rena
renaisans
renaissance
renang
renault
rencana
rencanane
rencang
rencangipun
renda
rendah
rendheng
rendra
rendy
rene
rengganis
renner
rennes
renovasi
rentang
renteng
renyah
reog
replika
report
reporter
reports
repot
reprint
reprinted
reprodhuksi
reproduksi
reptil
republic
republik
republika
reputasi
requires
rerangken
rereged
rerembugan
rerenggan
reresik
res
research
resensi
resep
resepsi
reseptor
reserve
resi
residhen
resik
resiko
resimen
resin
resistance
resistive
resmi
resmine
resolusi
resolution
resor
resort
resource
resources
respon
response
restaurant
restaurants
restoran
restorasi
restu
results
retained
retak
retina
retna
retno
retrieved
return
returns
reunion
reuters
rev
revealed
reveals
revenge
review
reviews
revised
revisi
revolusi
revolusioner
revolution
revolutionary
revue
rewang
rex
rey
reynolds
reyog
reza
rezim
rf
rg
rga
rh
rhine
rhino
rhinoceros
rhode
rhodes
rhone
rhythm
ri
ria
riam
riau
ribery
ribut
rica
ricardo
rice
rich
richard
richards
richardson
richmond
richter
ricikan
rick
ricklefs
ricky
rico
ricotta
ride
rider
ridho
ridpath
ridwan
right
rights
rih
rijkevorsel
rika
rikala
rikat
rikma
riko
ril
riley
rilis
rim
rima
rimba
rimbaud
rimpang
rin
rina
rinci
rindu
ring
ringan
ringgit
ringin
ringkes
ringkesan
ringkih
rings
ringtone
rini
rintisan
rio
ris
risak
risalah
rise
rises
riset
risiko
rising
risk
rita
rite
ritual
ritus
ritzler
river
rivers
riwayat
riyadh
riyadi
riyaya
riza
rizal
rizki
rizky
rj
rk
rka
rl
rm
rms
rn
rna
ro
road
rob
robayan
robbie
robby
robert
roberto
roberts
robertson
robin
robinson
robot
rochdale
rochester
rock
rocket
rocks
rocky
roda
rodha
rodin
rodok
rodrigo
rodriguez
roem
roger
rogers
roh
rohani
rohe
rohingya
rohman
rohmat
roi
rok
roket
rokok
roland
rolas
role
roll
roller
rollin
rolling
rolls
rom
roma
romagna
roman
romance
romanesque
romani
romania
romanian
romano
romantis
romawi
rombongan
rome
romeo
romero
romo
ron
ronald
ronaldo
ronan
roncen
rondha
rong
rongga
ronggeng
ronipun
rontok
rookie
room
rooney
roosevelt
root
roots
roro
ros
rosa
rosan
rosario
rose
rosemary
roso
ross
rossi
rotan
rotasi
rotation
rote
roti
rotine
rotten
rotterdam
rouen
rouge
rough
round
route
routledge
roux
rovers
row
rowa
rowang
rowman
roy
royal
royale
royo
royong
rp
rpm
rq
rr
rrc
rri
rs
rsa
rsi
rsssf
rsu
rsud
rt
rta
ru
ruang
ruangan
ruas
rubah
ruben
rubrik
rubuh
ruby
ruci
rudal
rudi
rudolf
rudy
rue
ruf
rugby
rugi
ruh
rujak
rujuk
rujukan
rukun
rule
rules
rum
rumah
rumaja
rumaket
rumangsa
rumania
rumaos
rumeksa
rumeni
rumit
rumiyin
rumpun
rumput
rumus
rumusan
run
rungokake
rungokna
runner
runners
running
runtuh
runtut
rupa
rupane
rupert
rupi
rupiah
rupiyah
rural
rus
rusa
rusak
rusake
rusaking
rush
rusia
ruslan
russell
russia
russian
rusuh
rusuk
rusyn
rute
ruth
rutin
ruwang
ruwangan
ruwatan
ruwet
rv
rw
rwa
rwanda
rx
ry
ryan
rye
ryukyu
rz
s
s0
s1
s2
s3
s4
s5
s6
s7
s8
s9
sa
saat
saba
sabab
sabagean
sabah
sabanjure
sabar
sabarang
sabat
sabawa
sabda
saben
sabenere
sabha
sabibaripun
sabil
sabin
sabit
sabrang
sabtu
sabu
sabubare
sabuk
sabun
saburine
sacara
sacedhake
sacra
sacred
sacukupe
sad
sada
sadanguning
sadangunipun
sadar
sadawane
sadawaning
sadaya
sadayanipun
sade
saderengipun
sadewa
sadhar
sadhela
sadhengah
sadherek
sadherekipun
sadhuwure
sadhuwuring
sadina
sadinten
sadono
sadonya
sadulur
sadulure
sadurunge
sae
saem
saemper
saengga
saenggon
saenipun
saens
saestu
safari
safety
saga
saganten
sagara
sage
saged
saget
sago
sagu
saguh
sagung
sah
saha
sahabat
sahadat
saham
sahana
sahara
sahengga
sahur
sai
said
saigon
saiki
saikine
sailor
saindenging
saindhenging
saingan
saingga
sains
saint
sainte
saints
saitama
saja
sajabane
sajabaning
sajak
sajake
sajarah
sajarahe
sajarawan
sajati
sajatine
sajatosipun
sajen
sajerone
sajeroning
saji
sajian
sajinis
sajrone
sajroning
sajumlah
sak
saka
sakabat
sakabehane
sakabehe
sakabehing
sakai
sakala
sakalangkung
sakarepe
sakarias
sakathahing
sakawan
sakawit
sakbare
sakbenere
sakdawane
sakderenge
sakdurunge
sake
sakedhik
sakehe
sakehing
sakeng
saking
sakit
sakitar
sakitere
sakitering
sakiteripun
sakiwa
sakjane
sakjerone
sakkehe
sakliyane
saklompok
sakloron
sakmenika
sakniki
sakpada
sakral
saksampune
saksampunipun
saksat
saksi
sakti
sakupenge
sakura
sakuthu
sakwat
sakweh
sakwene
sakwijine
sakwise
sal
sala
salad
salah
salahe
salahsijine
salajengipun
salak
salaka
salam
salaman
salami
salaminipun
salang
salanjute
salat
salatiga
salawas
salawase
sale
salebeting
salebetipun
saleh
salem
sales
salib
salihara
salim
salin
salinan
saline
saling
salira
salisbury
saliyane
salju
sally
salma
salman
salmon
saloka
salon
salsa
salt
saluran
salvador
salya
salzburg
sam
sama
samak
saman
samana
samangke
samangsa
samanten
samantha
samar
samaria
samarinda
samba
sambal
sambas
sambat
sambel
sambeng
sambi
sambu
sambung
sambungan
same
samekta
samengko
samenika
sami
samin
samoa
samodra
samono
samosir
sampah
sampai
sampang
sampanye
samparan
sampdoria
sampe
sampek
sampel
sampeyan
samping
sampingan
sampul
sampun
sampur
sampurna
samsaya
samsung
samu
samubarang
samudera
samudra
samuel
samukawis
samun
samurai
samus
san
sana
sanad
sanadyan
sanajan
sanak
sanalika
sanchez
sancti
sandang
sander
sanders
sandhal
sandhang
sandhangan
sandhi
sandhiwara
sandhuwure
sandi
sandika
sandiwara
sandra
sandwich
sandwiches
sandy
sanepa
sanes
sanesipun
sang
sanga
sangalas
sangandhaping
sangandhapipun
sangang
sangarepe
sangat
sanget
sangga
sanggan
sanggar
sanggup
sanghyang
sangihe
sanginggilipun
sangiran
sangisore
sangisoring
sangka
sangkala
sangkan
sangking
sangsara
sangsaya
sangsekerta
sangskreta
sangu
sani
sanja
sanjabane
sanjata
sanjaya
sans
sansaya
sansekerta
sanskerta
sanskrit
sant
santa
santai
santana
santen
santi
santiago
santo
santos
santosa
santoso
santri
santun
sao
saora
saos
sap
sapa
sapadha
sapala
sapanunggalane
sapanunggalanipun
sapanunggale
sapanunggalipun
saparan
saparo
sapasang
saperang
saperangan
saperlu
sapi
sapisan
sapisanan
sapiturute
saponin
sapporo
saprene
sapta
sapu
sapunika
saputra
sar
sara
saradhadhu
saraf
sarah
sarajevo
sarak
saran
sarana
sarang
sarap
sarapan
saraswati
sarat
sarawak
sardi
sardinia
sare
sareh
sarehne
sarehning
sarekat
sarem
sareng
sarengat
sargon
sari
sariawan
saridin
saring
saringan
sarira
sarjana
sarmi
saron
sars
sarta
saru
sarujuk
sarung
sarupa
sarupane
sarwa
sarwi
sas
sasak
sasampuning
sasampunipun
sasana
sasanesipun
sasaran
sasebo
sasi
sasmita
sastra
sastrawan
sasuwene
sat
sata
satama
sataun
sate
satekane
satelit
satellite
satemah
satemene
satengah
satengahing
sateruse
sathithik
satiti
sato
satria
satriya
satriyo
satru
satu
satunggal
satunggaling
satunggalipun
satunggil
satunggiling
saturday
saturnus
satus
satwa
satya
satyalancana
saubenge
sauce
saud
saudara
saudi
sauerkraut
saulus
sauntara
sauntawis
saupama
saur
saurane
saus
sausage
saut
savage
save
saving
savoy
saw
sawah
sawahlunto
sawan
sawang
sawangan
sawatara
sawatawis
saweg
saweneh
sawengi
sawentara
sawer
sawetara
sawetawis
sawi
sawiji
sawijine
sawijing
sawijining
sawise
sawit
sawo
sawoese
sawuse
saxon
say
saya
sayah
sayang
sayap
sayekti
sayembara
sayid
says
sayuk
sayung
sayur
sayuran
sayuta
sb
sbs
sby
sc
scbd
scene
scenes
schalke
schedule
scheduling
schmidt
schneider
school
schools
schumacher
schuster
schwartz
sci
science
sciences
scientific
scientist
scientists
score
scotland
scott
scottish
scout
screen
scribner
script
scripts
sctv
sd
sdm
sdn
sdt
se
sea
seafood
sean
search
season
seattle
seba
sebab
sebabe
sebagai
sebagian
sebaran
sebastian
sebastianum
sebatan
sebelah
sebelas
sebelum
sebelumnya
sebenere
seberang
seblang
sebrang
sebuah
sebut
sebutan
sec
secang
secara
secolo
second
secondary
seconds
secret
secretary
secrets
section
sections
security
seda
sedan
sedane
sedang
sedangkan
sedanipun
sedasa
sedaya
sedayanipun
sedayu
sede
sedekah
sedeng
sederhana
sedhela
sedheng
sedhengan
sedhep
sedherek
sedherekipun
sedhih
sedi
sedih
sedilut
sedina
sedulur
sedulure
sedulurku
sedulurmu
sedurunge
sedya
see
seed
sefer
sefrin
sega
segala
seganten
segara
segawon
segel
seger
segera
segi
segitiga
segmen
sehat
sehingga
sei
seimbang
seine
sejahtera
sejajar
sejak
sejarah
sejarawan
sejati
sejatine
sejatosipun
seje
sejen
sejene
sejenis
sejinis
sejumlah
sejuta
sek
seka
sekabehane
sekali
sekang
sekar
sekaran
sekarang
sekaten
sekaut
sekawan
sekedhik
seket
sekien
sekitar
sekitare
sekjen
seko
sekolah
sekolahan
sekolahe
sekotlan
sekoyah
sekresi
sekretariat
sekretaris
seks
seksi
seksual
sekte
sekti
sektor
sekuel
sekuens
sekul
sekunder
sekundher
sekuthu
sekutu
sel
sela
selai
selain
selak
selalu
selam
selama
selamat
selamerta
selan
selandia
selang
selangor
selaput
selaras
selasa
selat
selatan
selawase
selayang
selayar
sele
selebriti
selected
selection
seleh
seleksi
selemadeg
selena
selera
self
seling
selir
selling
selo
selot
seluler
selulosa
seluma
seluruh
semadi
semah
semahipun
semak
semana
semang
semangat
semanggi
semangka
semaput
semar
semarang
semaur
sembada
sembah
sembahyang
sembarang
sembilan
sembrana
sembung
semedi
semen
semenanjung
semene
sementara
semeru
semesta
semester
semi
semifinal
semifinalis
semikonduktor
seminar
seminari
seminggu
semlorot
semolina
semono
sempat
sempet
sempit
semplak
sempor
sempu
semu
semua
semunggone
semur
semusim
semut
sen
sena
senadyan
senajan
senajana
senam
senapan
senapati
senar
senat
senate
senator
senayan
sendang
sendhang
sendhi
sendhok
sendi
sendiri
sendok
sendratari
senegal
senen
seneng
senengane
senenge
seng
sengaja
senggol
sengit
sengkalan
sengketa
sengon
sengsara
seni
seniman
senin
senior
seniore
senja
senjata
senna
seno
senopati
sensasi
sense
sensitif
sensor
sensus
sentai
sentana
senthir
senthong
sentimeter
sentosa
sentra
sentral
senyawa
seo
seok
seon
seong
seorang
seoul
sep
sepak
sepakbola
sepalih
sepanjang
sepanyol
separation
separo
separone
sepasang
sepat
sepatu
sepeda
sepedha
sepele
seperti
sepet
sepi
sepindhah
sepira
sepisan
sepisanan
seprene
september
sepuh
sepuhipun
sepuluh
sepur
seputar
sequel
ser
sera
seragam
seram
serambi
serang
serangan
serangga
serat
seratan
seratanipun
serayu
serba
serbi
serbia
serbian
serbiya
serbuk
serdang
sere
sereal
serealia
sereh
sereng
seret
sergio
seri
serial
seribu
serie
series
serik
serikat
sering
serious
seririt
serius
sero
serpens
serpihan
sersan
serta
sertifikasi
sertifikat
seru
serum
seruyan
server
service
services
serviks
ses
sesajen
sesaji
sesak
sesambat
sesambetan
sesambungan
sesambungane
sesampunipun
sesanti
sesarea
sesarengan
sesasi
sesawangan
sesebatan
sesebutan
sesek
sesembahan
sesepuh
seseratan
seserepan
sesi
sesilia
sesinglon
sesirah
sesirahe
sesorah
sesrawungan
sesuai
sesuatu
sesuguh
sesuk
sesukan
sesulih
set
seta
setahun
setan
setara
setatsiyun
setaun
setelah
setelan
setengah
seth
sethithik
setia
setiap
setiawan
setingkat
setiono
setitik
seto
setrapan
setrapane
sets
setting
setu
setuju
setunggal
setunggaling
setunggalipun
setya
seung
seven
sevilla
sewa
sewalike
sewan
sewelas
sewengi
sewu
sewulan
sex
sexual
seymour
sf
sfnp
sg
sh
sha
shabu
shadily
shadow
shah
shahab
shahih
shakespeare
shan
shane
shanghai
shannon
shape
share
shared
shark
sharma
sharon
sharp
shaw
she
shea
sheet
sheffield
sheikh
sheila
shell
shen
sherina
shi
shibuya
shield
shimbun
shin
shinjuku
shinkansen
shinto
shio
ship
ships
shirt
shizuoka
shogakukan
sholat
shooting
shop
shopping
short
should
show
showing
shows
shrewsbury
shrimp
shu
shvoong
si
sia
siak
siam
siang
siantar
siap
siapa
siaran
siberia
siberut
siblings
sibolga
sibuk
sichuan
sida
sidaharja
sidamulya
sidang
sidareja
sidayu
siddham
side
sidempuan
sidenreng
sidhang
sidik
sidji
sidney
sidoarjo
sidorejo
siecle
siegel
siemens
siena
sierra
sifat
sifate
sigar
sigaran
sigeg
sigit
sign
signal
signature
significance
signifikan
signs
sih
sihir
siji
sijia
sijine
sijining
sik
sikap
sikat
sikep
siki
sikil
sikile
sikilku
sikir
sikka
siklus
siksa
siku
sil
sila
silang
silas
silat
silem
silesia
silicon
silih
silihan
silikon
silinder
siliwangi
silk
silla
silsilah
siluman
silva
silver
sim
sima
simalungun
simbad
simbah
simbahe
simbiosis
simbok
simbol
simbolis
simbul
simeon
simetris
simeulue
simfoni
simmons
simon
simone
simpang
simpen
simpenan
simple
simplified
simpson
simpul
sin
sina
sinaga
sinaguk
sinai
sinambi
sinambung
sinaosa
sinar
sinau
since
sinclair
sindhen
sindrom
sinebat
sinebut
sinema
sinematografi
sinerat
sinetron
sing
singa
singah
singapore
singapura
singaraja
singasari
singel
singer
singgasana
singgih
singh
singhasari
singi
singkat
singkatan
singkil
singkong
single
singles
singorojo
sinhala
sini
sinjai
sino
sinom
sinonim
sinopsis
sint
sinta
sintaksis
sintang
sinten
sintesis
sintetik
sintetis
sinuhun
sinuwun
sinyal
sipat
sipate
sipatipun
sipi
sipil
siprus
siput
sir
sira
sirah
sirahe
siram
siraman
siregar
sirep
siria
sirih
sirilik
sirip
sirius
sirkuit
sirkulasi
sirna
siro
sirup
sirusa
sis
sisa
sisah
sisan
sisane
sisi
sisih
sisihan
sisihane
sisihe
sisik
sisilia
sisir
sistem
sistematis
sister
sisters
sistim
siswa
sita
site
sites
sithik
siti
sitik
sitiran
sitok
sitoplasma
sitrat
situ
situasi
situs
siu
sive
siwa
siwah
siwalan
siwi
six
siya
siyang
siyap
siyung
size
sj
sk
ska
skala
skandinavia
ske
skema
skenario
sketsa
ski
skin
skor
skotlandia
skrip
skripsi
skuad
skuat
sky
sl
sla
slaf
slafe
slaka
slam
slamet
slametan
slamete
slank
slavery
slavia
slavik
slawas
slawase
sle
sledri
sleman
slendro
slide
slira
sliramu
slogan
slot
slow
slowak
slowen
sltp
slumdog
sm
sma
smackdown
small
sman
smart
smith
smithsonian
smk
smp
smpn
sms
smu
sn
snake
snakes
sncf
sniper
snk
snouck
snow
so
soal
soba
soc
soca
soccer
soccerbase
soccerway
social
societe
societies
society
sociology
soda
sodium
soe
soedirman
soegija
soeharto
soekarno
soekarnoputri
soeltan
soenan
soepaja
soerakarta
soetji
soewe
sofia
soft
software
sofyan
sogok
sok
soka
sokaraja
soke
soklat
soko
sol
solah
solar
soldat
soldier
solid
solo
solok
solomon
solopos
solor
solusi
som
soma
somali
somalia
sombong
some
something
son
sonata
song
songket
songs
sonia
sons
sonten
sony
soo
soon
sop
sopan
sophia
sophie
sopir
sor
sora
soraya
sorbonne
sore
sorghum
sorong
sorot
sosial
sosialis
sosialisasi
sosiologi
sosis
sosok
soto
sotomayor
soul
sound
sounds
soundtrack
soup
sour
source
sources
sous
south
southampton
southeast
southern
southgate
souza
soviet
sovyet
sowan
soy
sp
spa
space
spacefacts
spaghetti
spain
span
spanish
spanyol
sparrow
sparta
speaker
speaking
special
species
specifications
speech
speed
spektrum
spekulasi
spencer
sperma
spesial
spesialis
spesialisasi
spesies
spesifik
spesifikasi
spesimen
spice
spices
spicy
spider
spielberg
spies
spin
spiral
spirit
spirited
spiritual
spirulina
split
spongebob
spons
sponsor
spontan
spora
sport
sporting
sports
spot
spp
spread
spring
springer
springfield
springs
spurs
sq
squad
squads
square
squarepants
squidward
sr
sra
sragen
srana
srawung
sre
sregep
srengat
srengenge
srenggala
sri
srikandhi
srikandi
srikaya
srimpi
srimulat
sriwedari
sriwijaya
srpska
sru
sruweng
ss
st
sta
stabil
stabilitas
stade
stadhion
stadion
stadium
staf
staff
stage
stain
stalin
stamford
stan
stand
standar
standard
standardisasi
standards
standby
stanford
stanley
star
stark
starring
stars
start
stasiun
stasiyun
state
states
station
statistical
statistics
statistik
statistika
stats
status
statuse
stay
steak
steel
stefan
stefanus
stein
stek
stella
stem
step
stephanie
stephanus
stephen
stereo
sterling
stern
steroid
steve
steven
stevens
stevenson
stew
stewart
stie
still
stimulasi
stkip
stm
stmik
stock
stockholm
stok
stone
stones
stop
store
storia
stories
storm
story
straits
strand
strange
strasbourg
strata
strategi
strategis
strategy
strauss
strawberry
street
stres
stress
stretford
stri
striker
string
strip
stroberi
stroke
strong
structure
struggle
struktur
struktural
sts
stu
stuart
stub
student
students
studi
studies
studio
studios
study
stuff
stupa
stuttgart
style
su
suami
suara
suaramerdeka
suarane
suarez
suasana
suatu
sub
subali
subang
subclass
subjek
subkelas
submarine
submit
subordo
subroto
subspesies
subst
substansi
subtropis
subuh
subur
subway
subyek
such
suci
sud
suda
sudagar
sudah
sudan
sudarso
sudhut
sudi
sudirman
sudra
suduk
sudut
sue
suez
suffragan
sufi
sufragan
sugar
sugeng
suggested
sugih
sugihwaras
sugono
sugriwa
suguhan
suharto
suhu
sui
suicide
suite
sujana
sujarah
suji
sujud
sujut
suk
suka
sukabumi
sukadana
sukaharja
sukalila
sukamara
sukareja
sukarno
sukasewu
sukawati
sukesi
suket
sukha
sukhoi
suki
sukirman
sukma
sukoharjo
sukorejo
sukra
sukses
suksesi
suksma
suku
sukun
sukunipun
sukur
sul
sula
sulaiman
sulang
sulap
sulawesi
sulaya
sulfat
sulfur
sulih
suling
sullivan
sultan
suluk
sulung
sum
sumadya
sumahur
sumangga
sumantri
sumarah
sumare
sumatera
sumatra
sumaur
sumawana
sumba
sumbadra
sumbang
sumbangan
sumbar
sumbawa
sumber
sumbere
sumbereja
sumberejo
sumbing
sumbu
sumebar
sumedang
sumedya
sumeh
sumelang
sumeleh
sumenep
sumerep
sumilir
sumingkir
summary
summer
summit
summorum
sumorot
sumpah
sumpit
sumptibus
sumrambah
sumringah
sumunar
sumur
sumurup
sun
sunan
sunar
sunat
sunda
sundance
sundari
sunday
sunderland
sundha
sunduk
sung
sungai
sungging
sungkar
sungkawa
sungkem
sungsang
sungsum
sungsun
sungu
sungut
sunni
sunny
sunrise
sunset
sunyi
sup
supados
supangkat
suparto
supata
supaya
super
superhero
superior
superman
supermarket
supernova
superorder
supitan
suplemen
suporter
supplement
support
supporting
suprapto
supreme
sur
sura
surabaya
surah
surak
surakarta
suralaya
surapati
surasa
surasane
surat
surem
suren
surface
surga
surgery
suri
suriah
suriname
suro
suru
surud
suruh
surup
surut
survei
survey
survival
surya
suryani
susah
susan
susanti
susanto
susastra
sushi
susi
susila
susilo
suspensi
suster
susu
susuh
susuhunan
susuk
susukan
susun
susunan
susuruh
suta
sutan
sutasoma
suthik
sutra
sutradara
sutradhara
sutresna
sutrisno
sutyi
suwalike
suwanten
suwara
suwardi
suwarga
suwe
suwek
suwene
suweng
suwi
suwiwi
suwun
suwung
suzuki
sv
sw
swa
swadaya
swahili
swami
swan
swanten
swara
swarane
swaraning
swarga
swargi
swasana
swasta
swatantra
sweden
swedhen
swedia
swedish
sweet
sweets
swift
swindon
swiss
switch
switserlan
switzerland
swiwi
sx
sy
sya
syafi
syah
syahrir
syaikh
syailendra
syair
syamsuddin
syaraf
syarat
syari
syariah
syarif
sydney
syeh
syeikh
syekh
symbian
symbols
symphony
symposium
syn
syndrome
synonyms
syria
syrian
system
systematic
systems
syuhada
syukur
syuting
sz
t
t0
t1
t2
t3
t4
t5
t6
t7
t8
t9
ta
taal
tabalong
tabanan
tabel
tabi
table
tablesl
tablet
tabloid
tabrakan
tabu
tabuh
tabuk
tabukan
tabung
taco
tadhah
tae
taenia
tafsir
tag
tagalog
tahan
tahanan
tahap
tahapan
tahoen
tahta
tahu
tahun
tahunan
tai
taipei
taiwan
tajam
tajem
taji
tajik
tajikistan
tajuk
tak
takdir
take
takeda
taken
taker
takeran
takes
takhta
takon
taksaka
taksi
taksih
takson
taksonomi
taktik
takut
takwa
tal
talak
talang
talaud
tale
talent
tales
tali
taling
talk
talks
talmud
talun
tam
tama
taman
tamansari
tamara
tamat
tamba
tambah
tambahan
tambak
tambakrama
tambakreja
tambal
tamban
tambang
tambrauw
tameng
tamil
tampa
tampah
tampak
tampar
tampil
tampilan
tamtama
tamtu
tamu
tan
tana
tanah
tanaman
tanapi
tanda
tandane
tandang
tandha
tandhing
tandhuran
tanding
tanduk
tanduke
tandur
tanduran
taneman
tang
tangan
tangane
tangat
tangerang
tangga
tanggal
tanggalan
tanggamus
tanggane
tanggap
tanggapan
tanggel
tanggepan
tangguh
tanggul
tanggung
tangi
tangis
tangisan
tangkai
tangke
tangkis
tangled
tangsi
tani
tanin
tanjung
tanjungkarang
tanjungsari
tank
tanpa
tansah
tansaya
tantangan
tante
tanuki
tanya
tanzania
tanzil
taon
tap
tapa
tapak
tapanuli
tapas
tape
tapel
tapi
tapih
tapin
tapioka
tapir
tapsir
tar
tara
tarakan
tarekat
target
tari
tarian
tarif
tarik
taro
tarot
tart
tartamtu
tartemtu
tarub
taruna
tarung
tas
tasih
tasikmalaya
tasmania
taste
tasty
tasya
tata
tatacara
tatah
tatanan
tatar
tataran
tate
tato
tatu
tau
tauco
taufik
taufiq
tauhid
taun
taunan
taune
taunipun
tauris
tautan
tawa
tawanan
tawang
tawangmangu
tawangsari
tawar
tawaran
tawon
tawur
taxonomy
tayang
taylor
tayu
tayub
tb
tbk
tc
td
te
tea
teacher
team
teams
teaser
teater
tebih
tebihipun
tebing
tebu
tech
technical
techniques
technology
ted
teddy
tedhak
teen
tega
tegak
tegal
tegalan
tegalreja
tegalsari
tegangan
tegas
tegel
teges
tegese
tegesipun
teguh
teh
teheran
tehnik
tehran
teja
tejo
tek
teka
tekad
tekaku
tekan
tekanan
tekane
tekap
teken
tekeng
teki
teknik
teknis
teknisi
teknologi
teko
teks
tekstil
tekstur
teksture
tektonik
tel
tela
telaga
telah
telak
telapak
telas
telat
telegraph
telek
telekomunikasi
teleng
telepon
teles
teleskop
televisi
television
telik
telkom
tell
telpon
telu
telugu
teluk
telulas
telune
telung
telur
tema
temah
temahan
teman
temane
temanggung
temanten
tembaga
tembak
tembakan
tembako
tembang
tembangan
tembe
tembi
tembikar
tembok
temboke
tembung
tembunge
tembungku
tembus
temen
temenan
temon
tempat
tempe
tempel
temperatur
template
temple
tempo
tempointeraktif
tempuh
tempur
tempuran
temtu
temu
temuan
temulawak
temurun
ten
tenaga
tenan
tenanan
tenang
tendangan
tendha
tendhangan
teng
tengah
tengahan
tengahe
tengahing
tengahipun
tengahmu
tengara
tengen
tengene
tengenipoen
tengenipun
tenger
tenggara
tengger
tenggok
tenggorokan
tengkorak
tengku
tenimbang
tenis
tennessee
tennis
tenryu
tentang
tentara
tentrem
tenun
tenunan
teologi
teorema
teori
tepa
tepang
teparo
tepat
tepate
tepi
tepung
tepus
ter
terakhir
terakreditasi
terancam
terang
terapan
terapi
teras
teratai
teratur
terbaik
terbang
terbatas
terbesar
terbit
terbitan
terbuka
terdapat
terdiri
terengganu
teresa
terfavorit
tergantung
terhadap
terhubung
teri
terigu
terima
teritori
teritorial
terj
terjadi
terjemahan
terjun
terkadhang
terkenal
terkonfirmasi
terlalu
terlarang
terletak
term
termal
termasuk
terminal
terms
ternak
ternate
terong
teror
teroris
terorisme
terowongan
terpadu
terpilih
terpuji
terra
terre
terrestrial
territory
terry
tersana
tersebut
tertentu
tertib
tertinggi
terumbu
terus
terusan
tes
tesalonika
tesis
test
testament
testing
testis
tetandhingan
tetanduran
tetanen
tetangga
tetanggan
tetap
tetapi
tetedhan
tetela
tetembangan
tetembungan
tetenger
tetep
tetes
tetesan
tetiyang
tetulung
teturon
tetuwuhan
teuku
tewas
teweh
texas
text
textbook
texts
teyori
tf
tft
tg
th
tha
thai
thailand
thak
thalib
thames
than
thanksgiving
that
the
theater
theatre
their
them
theme
then
theo
theodor
theodore
theory
there
therese
these
thesis
thewrap
they
thi
thing
things
think
third
this
tho
thok
thokolan
thomas
thompson
thomson
thor
thorell
those
thothok
thought
thousand
threatened
three
thriller
thrones
through
thu
thukul
thukule
thumb
thunder
thursday
ti
tia
tiada
tian
tiang
tianjin
tiap
tiara
tiba
tibake
tibane
tibet
tibetan
tidak
tidore
tidung
tien
tiffany
tiga
tigan
tigang
tiger
tigris
tik
tika
tikel
tiket
tikus
tilar
tilaran
tilas
tilem
tilik
tilpun
tim
timah
timang
timbal
timbang
timbangan
timbul
time
timeline
times
timnas
timoer
timor
timothy
timotius
timun
timur
tin
tina
tinamtu
tinanggenah
tinarbuka
tindak
tindakan
tindake
tindakke
tindhih
tinemu
tinentu
ting
tingal
tinggal
tinggalan
tinggi
tingkah
tingkat
tingkir
tini
tinimbang
tinjauan
tinju
tinta
tinuku
tinulis
tio
tionghoa
tiongkok
tip
tipe
tipis
tips
tirai
tiram
tiri
tirion
tirta
tirto
tiru
tisu
titah
titan
titanic
titel
titi
titik
titikan
title
tituler
titus
tivi
tiwas
tiyang
tj
tjina
tk
tl
tla
tlaga
tlapak
tlatah
tle
tliti
tlutuh
tm
tmr
tn
tni
to
toba
tobago
tobat
toby
todanan
today
todd
toei
toemoeli
toer
toewan
toewin
together
togo
toh
tohjaya
tohoku
toi
tojo
tok
toko
tokoh
tokohindonesia
tokugawa
tokyo
tol
tolak
toledo
toleransi
toli
tolkien
tom
tomas
tomat
tomato
tomatoes
tombak
tombol
tome
tommy
tomo
tomohon
tomorrow
tomus
ton
tong
tonga
tongkat
tongkol
toni
tonight
tontonan
tony
too
top
topan
topeng
topi
topic
topics
topik
topografi
topping
tor
tora
torah
toraja
toret
torii
torino
toro
toronto
torres
tortilla
tosan
toscana
tot
total
toto
totok
tottenham
touch
touchscreen
toulouse
tour
tourism
tourist
tournament
tours
towards
tower
town
towns
toy
toya
toyama
toyanipun
toyota
tp
tpi
tq
tr
tra
trachypithecus
track
tracy
trade
tradhisi
tradhisional
tradisi
tradisional
tradition
traditional
traditions
trafford
tragedi
trah
trahing
trail
trailer
train
training
trampil
trang
trans
transaksi
transfer
transfermarkt
transformasi
transformers
transgender
transgendher
transisi
transistor
transit
transklusi
transkripsi
translated
translation
transliterasi
transmigrasi
transmisi
transparan
transport
transportasi
transportation
transylvania
trap
trasi
trauma
travel
travis
tre
treasure
treatment
treaty
tree
trees
trek
trem
tren
trends
trenggalek
trenggana
trep
tres
tresna
tresnaa
tresnane
tresnani
trevor
tri
trial
triangulum
tribun
tribune
tribunnews
trigu
trikatuka
triliun
trilogi
trim
trima
trinidad
trinity
trio
trip
triple
tripoli
trisakti
trofi
trojan
trompet
tropical
tropika
tropis
trowongan
trowulan
troyes
tru
trubus
trucuk
true
truk
truman
trump
trunajaya
trus
trust
truth
try
ts
tsamud
tsar
tsipras
tsunami
tt
tteok
tu
tua
tuan
tuane
tuban
tubuh
tudhung
tuduhan
tugas
tugase
tugasipun
tugel
tugelan
tugu
tuha
tuhan
tuhu
tuhun
tuhup
tuju
tujuan
tujuane
tujuh
tujuwan
tuk
tukang
tukar
tukaran
tukon
tuku
tukul
tula
tuladha
tuladhane
tuladhanipun
tulak
tulang
tular
tulis
tulisan
tulisane
tulung
tulungagung
tulus
tum
tuma
tumandang
tumangkar
tumapel
tumata
tumbak
tumbang
tumbar
tumbas
tumbu
tumbuh
tumbuhan
tumbuk
tumeka
tumemen
tumenggung
tumetes
tumiba
tumindak
tumindake
tumis
tumon
tumor
tumpang
tumpeng
tumpuk
tumpukan
tumrap
tumrape
tumraping
tumuju
tumuli
tumungkul
tumurun
tumut
tumuwuh
tun
tuna
tunangan
tunas
tundha
tundhone
tundhuk
tunduk
tung
tunggak
tunggal
tunggale
tunggu
tunggul
tungkak
tungku
tunisia
tunjung
tunjungan
tuntang
tuntunan
tuntutan
tur
turah
turahan
turahane
turangga
turbo
turi
turida
turin
turis
turk
turkey
turki
turkish
turkmenistan
turn
turnamen
turner
turu
turun
turunan
turunane
turune
turut
tus
tusuk
tut
tuti
tuttle
tutug
tutuk
tutul
tutup
tutur
tuturan
tuwa
tuwan
tuwane
tuwin
tuwuh
tuwuhan
tuwuhe
tuwuhing
tuwung
tv
tvone
tvri
tw
twas
twentieth
twenty
twice
twilight
twin
twins
twitter
two
tx
ty
tyampur
tyangkeme
tyara
tyarane
tyas
tycho
tyedek
tyeluk
tyempene
tyilaka
tyilik
tyler
tyonghwa
tyotyok
type
types
typis
tyson
tz
tzu
u
u0
u1
u2
u3
u4
u5
u6
u7
u8
u9
ua
uang
uap
ub
uba
ubarampe
ube
ubeng
ubengan
uber
ubi
ubisoft
ubud
ubut
uc
ucap
ucapan
uceng
uchida
uchiha
ucla
ucul
ud
udakara
udakawimba
udakawis
udan
udang
udara
udayana
udhar
udhara
udon
udud
ue
uefa
ueno
uf
ug
uga
uganda
ugel
uger
ughelli
ugi
ugm
ugo
uh
uhf
ui
uin
uj
ujar
ujare
uji
ujian
ujug
ujung
ujur
uk
ukara
ukir
ukiran
ukm
ukraina
ukraine
ukrainian
ukum
ukuman
ukur
ukuran
ukurane
ukuranipun
ul
ula
ulah
ulahraga
ulam
ulama
ulang
ulangan
ular
ulasan
ulat
uleg
uler
ules
ulet
uli
ulih
ulin
ultimate
ulu
ulujami
ulun
ulur
um
uma
umah
umar
umat
umate
umayyah
umbah
umbel
umberto
umbi
umbul
umi
ummat
umob
ump
umpak
umpamane
umpan
umpluk
umrah
umub
umuk
umum
umume
umumipun
umun
umur
umure
umuripun
un
una
und
undaan
undang
undangan
under
understanding
undha
undhak
undhakan
undhang
undhangan
undhuh
undip
undur
une
unen
unesco
ungaran
unggah
unggas
ungguh
unggul
unggulake
unggulan
ungkapan
ungkuli
ungu
uni
unicef
unicode
unik
unine
uninga
union
unit
united
unity
univ
universal
universe
universitas
universite
universiteit
university
unjal
unjuk
unjukan
unknown
unnes
uno
uns
unsupported
unsur
unta
until
untu
untuk
untukmu
untune
untung
uny
uo
up
upa
upacara
upah
upahe
upama
upamane
upaminipun
upanisad
upas
upaya
update
updated
updates
upeti
upi
upin
upon
upper
upz
uq
ur
ura
urang
uranium
uranus
urat
urban
urdu
urea
uri
urin
urip
uripe
uripku
uripmu
url
urmat
ursa
urub
uruguay
urun
urunan
urung
urup
urusan
urut
urutan
urutane
us
usa
usada
usage
usah
usaha
usahane
usap
usb
usd
usda
use
used
user
uses
usgs
usia
usil
using
uskup
usman
usque
uss
ustaz
usu
usuk
usul
usulan
usule
usum
usunganing
usus
ut
uta
utah
utama
utamane
utamanipun
utami
utaminipun
utan
utang
utange
utara
utawa
utawi
utc
utek
uthik
utomo
utrecht
utsmaniyah
uttar
utuh
utusan
utusane
uu
uud
uv
uw
uwa
uwab
uwais
uwal
uwi
uwis
uwit
uwong
uwuh
uwur
ux
uy
uya
uyah
uyuh
uyup
uz
uzbek
uzbekistan
v
v0
v1
v2
v3
v4
v5
v6
v7
v8
v9
va
vacante
vaccine
vada
vagina
vaksin
vakum
vakuola
val
valencia
valentine
valle
valley
value
values
valuta
vampir
vampire
van
vancouver
vanessa
vanila
vanilla
vanuatu
var
variabel
variable
varian
variasi
varietas
varieties
variety
various
vatican
vaticana
vatikan
vb
vc
vd
ve
vegan
vegas
vegetable
vegetables
vegetarian
vegetasi
vegetatif
vektor
vela
velvet
vena
vendor
venesia
veneto
venezia
venezuela
venice
venus
vera
verbal
verde
vered
verlag
vermont
verne
verona
veronica
versailles
versi
version
versions
versus
vertebrata
vertikal
very
vescovi
vespa
vesta
veteran
vf
vg
vga
vh
vi
via
vic
vice
vicente
vicky
victor
victoria
victory
video
videocall
videos
vidio
vie
vieira
vienna
viet
vietnam
vietnamese
view
views
vii
viii
vikariat
vikaris
viking
vila
villa
village
ville
vina
vincent
vinci
vino
vintage
violence
virgin
virginia
virgo
virtual
virus
viruses
visa
visi
vision
visit
visitor
vista
visual
vita
vital
vitamin
vitoria
vittorio
viva
vivanews
vivekananda
vj
vk
vl
vladimir
vm
vn
vo
voc
vocal
vodka
vogel
voice
voices
vojvodina
vokal
vokalis
vol
volans
volcano
voli
volkswagen
vols
volume
volumes
von
voor
voyage
vp
vq
vr
vs
vt
vu
vulkanik
vulpecula
vv
vw
vx
vy
vz
w
w0
w1
w2
w3
w4
w5
w6
w7
w8
w9
wa
waal
wabah
waca
wacaan
wacan
wacana
wadah
wadana
wade
wader
wadhah
wadhaslintang
wadhuk
wadi
waditra
wadon
wadone
waduk
wadya
wadyabala
wae
wafel
wage
wagner
wah
wahana
wahid
wahu
wahyu
waja
wajah
wajan
wajar
wajib
wajik
wajo
wakatobi
wakayama
wake
wakil
wakile
waktu
waktune
wal
wala
walanda
walandi
walang
wales
walet
wali
waligereja
waligreja
walik
walikan
walikota
walikutha
walisanga
walk
walker
wall
wallace
walnut
walsh
walt
walter
waluh
wan
wana
wanadadi
wanagiri
wanara
wanareja
wanasaba
wanasalam
wanasari
wanayasa
wanci
wanda
wandane
wanderers
wang
wangen
wangi
wangsa
wangsalan
wangsit
wangsul
wangsulan
wangsulane
wangsulanku
wangun
wangunan
wangune
wanguning
wani
wanita
wanodya
want
wanted
wanti
wants
wantun
wantyi
wantyine
war
wara
warak
waralaba
waras
warata
ward
wareg
warfare
warga
wargane
warigaluh
warihkusuma
waringin
waris
warisan
warkop
warm
warna
warnane
warner
warni
warninipun
warren
warrior
warriors
wars
warsa
warsadiningrat
warsawa
warship
warships
warta
wartawan
waru
warung
was
wasa
wasana
wasesa
washington
wasir
wasis
wasit
waspada
wastani
wastu
wat
watak
watake
watanabe
watang
watara
watawis
watch
watek
wateke
water
waterfall
waters
wates
watesan
watese
wati
waton
watson
watts
watu
watuk
wau
wave
wavuga
wawan
wawancara
wawasan
way
wayah
wayahe
wayan
wayang
wayback
wayne
ways
wb
wc
wd
we
weapons
weasley
weather
weaver
web
webelements
weber
website
webster
weda
wedana
wedang
wedding
wedharan
wedhi
wedhung
wedhus
wedi
wednesday
wedok
wedoke
wedus
weduse
wee
week
weekend
weekly
wegah
wei
wejangan
weka
wekas
wekasan
wekasane
wekdal
wekdalipun
weke
wektu
wektune
welahan
welas
welasan
welcome
weleri
weling
welirang
well
wells
welsh
welut
wen
wenang
wenara
wendy
wenehi
wengi
wer
were
werkudara
werna
wernane
wernanipun
werner
werni
weroeh
weru
weruh
wes
wesi
wesley
west
western
westminster
wet
wetan
wetanan
wetane
wetara
wete
weteng
wetenge
weton
wetune
wewadi
wewangunan
wewatesan
wewaton
weweh
wewenang
wewengkon
wewengkone
wewengkonipun
wewujudan
wf
wg
wh
what
wheel
when
where
whey
which
while
white
whitley
whitney
who
whole
why
wi
wib
wibawa
wibisana
wibowo
wicaksana
wicanten
wicara
wick
widadari
widara
widati
wide
widhi
widi
widodo
widya
wife
wigan
wigati
wigatine
wigatos
wiggins
wijaya
wijayakusuma
wijen
wiji
wijil
wijine
wiki
wikia
wikibooks
wikileaks
wikimedia
wikipedia
wikisource
wiktionary
wiku
wil
wilah
wilahan
wilangan
wilayah
wilayahe
wild
wildlife
wiley
wilhelm
wilis
wilkins
will
willem
william
williams
willis
willy
wilson
wilton
wilujeng
wimbledon
win
wina
winadi
winastan
winates
winatesan
wind
windows
windsor
windu
wine
wing
wingi
wingit
wingking
wingkingipun
wings
winih
winner
winners
winong
wins
winston
winter
wira
wiracarita
wiradesa
wirama
wirang
wiraraja
wire
wiri
wis
wisa
wisata
wisatawan
wisconsin
wisdom
wise
wisesa
wish
wiski
wisma
wisnu
wisrawa
wisuh
wit
witan
wite
with
within
without
wiwid
wiwit
wiwitan
wiwitane
wiwitanipun
wiwite
wiyar
wiyara
wiyaripun
wiyata
wiyos
wj
wk
wl
wlingi
wlirang
wlulang
wm
wn
wo
woes
woh
wohan
wohe
wohing
wol
wola
wolf
wolff
wolfgang
wolfsburg
wolu
wolulas
wolung
woman
women
won
wondene
wondening
wonder
wong
wonge
wonosari
wonosobo
wonten
wontenipun
wonton
woo
wood
woods
woodward
woody
word
wordpress
words
work
working
works
workshop
world
worldfootball
worlds
worldwide
worm
wortel
worth
wos
wosing
wosipun
wot
would
wow
wowohan
wp
wq
wr
wragad
wrap
wrata
wrestling
wright
wringin
write
writer
writers
writing
writings
written
wrocław
wruh
ws
wt
wu
wuda
wudhu
wudun
wuhan
wujud
wujude
wujuding
wujudipun
wujute
wukir
wuku
wulan
wulandari
wulang
wulangan
wulangke
wulat
wulu
wuluh
wulune
wulung
wungu
wuni
wuntu
wuragil
wuri
wuruk
wurung
wus
wusana
wusanane
wusten
wuta
wutah
wutuh
wuwuhan
wuwus
wv
ww
wwang
wwe
wwf
www
wx
wy
wyanjana
wycombe
wyoming
wz
x
x0
x1
x2
x3
x4
x5
x6
x7
x8
x9
xa
xaverius
xavier
xb
xbox
xc
xd
xe
xf
xg
xh
xi
xiao
xii
xiii
xinjiang
xiv
xix
xj
xk
xl
xm
xn
xo
xp
xperia
xpressmusic
xq
xr
xs
xt
xu
xv
xvi
xvii
xviii
xw
xx
xy
xz
y
y0
y1
y2
y3
y4
y5
y6
y7
y8
y9
ya
yadnya
yahoo
yahudi
yahya
yai
yaikoe
yaiku
yaitu
yakin
yakni
yakobus
yakub
yakuwi
yale
yam
yama
yamaha
yaman
yamato
yamin
yan
yane
yang
yani
yanti
yapen
yasa
yasadipura
yasan
yasane
yati
yatim
yatna
yayah
yayasan
yayi
yb
yc
ycat
yd
ye
year
yearbook
years
yehuda
yehuwah
yekti
yellow
yen
yenny
yeon
yerusalem
yes
yesaya
yesuit
yesus
yet
yeyasan
yf
yg
yh
yi
yiddish
yin
yj
yk
yl
ym
yn
yo
yoga
yoghurt
yogurt
yogya
yogyakarta
yohanes
yok
yokanan
yokohama
yom
yonex
yong
yoni
yonif
yoo
yoon
yordan
yordania
york
yorkshire
yosef
you
young
your
youth
youtube
yovie
yp
yq
yr
ys
yt
yu
yuan
yuda
yudas
yudea
yudha
yudhistira
yudhoyono
yuga
yugoslavia
yugumo
yuk
yuki
yun
yunani
yunior
yunnan
yunus
yupiter
yuri
yurisdiksi
yusuf
yuswa
yuswane
yuswanipun
yuta
yuyu
yv
yves
yw
yx
yy
yyyy
yz
z
z0
z1
z2
z3
z4
z5
z6
z7
z8
z9
za
zac
zack
zagreb
zaid
zain
zainal
zainuddin
zaitun
zaman
zambia
zamboanga
zaragoza
zat
zayn
zb
zc
zd
ze
zealand
zebra
zeiss
zenon
zepp
zeus
zf
zg
zh
zhang
zhou
zhu
zi
ziarah
zidane
zimbabwe
zion
zionis
zj
zk
zl
zm
zn
zo
zodiak
zoe
zoetmulder
zola
zombie
zona
zone
zoo
zoologi
zp
zq
zr
zs
zt
zu
zubir
zuid
zulkifli
zur
zurich
zv
zw
zx
zy
zz
{
|
}
~
¡
£
¥
§
©
«
¬
®
°
±
²
³
´
µ
¶
·
¹
º
»
¼
½
¾
¿
×
ß
æ
ð
ø
þ
đ
ħ
ı
ł
ŋ
œ
ƒ
ɐ
ɑ
ɒ
ɔ
ɕ
ɖ
ə
ɛ
ɜ
ɟ
ɡ
ɣ
ɥ
ɦ
ɨ
ɪ
ɫ
ɬ
ɯ
ɲ
ɳ
ɴ
ɵ
ɹ
ɾ
ʀ
ʁ
ʂ
ʃ
ʈ
ʉ
ʊ
ʋ
ʌ
ʎ
ʏ
ʐ
ʑ
ʒ
ʔ
ʕ
ʝ
ʰ
ʱ
ʲ
ʻ
ʼ
ʾ
ʿ
ˀ
ˈ
ˌ
ː
ˠ
ˤ
˥
α
β
γ
δ
ε
ζ
η
θ
ι
κ
λ
μ
ν
ξ
ο
π
ρ
ς
σ
τ
υ
φ
χ
ψ
ω
ϵ
а
б
в
г
д
е
ж
з
и
к
л
м
н
о
п
р
с
т
у
ф
х
ц
ч
ш
щ
ъ
ы
ь
э
ю
я
ђ
є
і
ј
љ
њ
ћ
қ
ү
ә
ө
ա
ե
թ
ի
կ
ղ
մ
յ
ն
ո
ր
ւ
א
ב
ג
ד
ה
ו
ז
ח
ט
י
ך
כ
ל
ם
מ
ן
נ
ס
ע
פ
ץ
צ
ק
ר
ש
ת
،
ء
ا
اء
اب
اة
ات
اج
اح
اخ
اد
ار
اس
اص
اع
اف
اق
اك
ال
الد
الر
الس
الش
الص
الل
الله
الن
ام
ان
اه
او
اي
ب
بن
ة
ت
ث
ج
ح
خ
د
ذ
ر
ز
س
ش
ص
ض
ط
ظ
ع
غ
ـ
ف
ق
ك
ل
م
ن
نت
ند
نز
نس
نف
نك
ه
و
وا
وب
ود
ور
ول
ون
وه
ى
ي
يد
ير
يع
يل
يم
ين
يه
٠
١
١٠
١١
١٢
١٣
١٤
١٥
١٦
١٧
١٨
١٩
٢
٢٠
٣
٤
٥
٦
٧
٨
٩
ٱ
ٱل
ٱلر
ٱلل
پ
چ
ڠ
ڤ
ک
ڮ
گ
ھ
ہ
ی
ێ
ە
۞
ۥ
۩
ܐ
ܝ
अ
ऋ
क
ख
ग
च
छ
ज
ट
ड
ण
त
थ
द
ध
न
प
ब
भ
म
य
र
ल
व
श
ष
स
ह
আ
ই
ও
ক
খ
গ
চ
জ
ট
ড
ত
দ
ন
প
ফ
ব
ভ
ম
য
র
ল
শ
ষ
স
হ
ৰ
ஃ
க
ச
ட
த
ன
ப
ம
ய
ர
ல
ழ
வ
ಬ
ക
ച
ട
ത
ന
പ
മ
യ
ര
സ
ก
ข
ค
ฆ
ง
จ
ช
ซ
ญ
ฑ
ณ
ด
ต
ถ
ท
ธ
น
บ
ป
ผ
พ
ฟ
ภ
ม
ย
ร
ล
ว
ศ
ษ
ส
ห
อ
ะ
า
ำ
เ
แ
โ
ใ
ไ
ກ
ຂ
ງ
ຊ
ນ
ປ
ມ
ສ
ຫ
ອ
ະ
າ
ເ
ໄ
ໝ
་
ག
ང
ད
ན
བ
མ
འ
ར
ས
က
ခ
င
စ
ဆ
ည
တ
ထ
န
ပ
ဖ
မ
ယ
ရ
လ
သ
အ
ა
ბ
ე
ვ
ზ
თ
ი
კ
ლ
მ
ნ
ო
რ
ს
უ
ხ
ᄀ
가
강
개
고
공
구
국
기
김
ᄁ
ᄂ
나
남
년
는
ᄃ
다
단
대
도
동
ᄄ
ᄅ
라
로
리
ᄆ
마
만
명
미
ᄇ
박
보
부
비
ᄈ
ᄉ
사
산
상
서
성
소
수
스
시
식
신
ᄊ
ᄋ
아
양
어
여
연
영
오
요
우
원
월
유
은
의
이
인
일
ᄌ
자
장
전
정
제
주
지
진
ᄍ
ᄎ
차
천
치
ᄏ
ᄐ
트
ᄑ
ᄒ
하
한
화
ᅡ
ᅢ
ᅣ
ᅥ
ᅦ
ᅧ
ᅨ
ᅩ
ᅪ
ᅫ
ᅬ
ᅭ
ᅮ
ᅯ
ᅰ
ᅱ
ᅲ
ᅳ
ᅴ
ᅵ
ᆨ
ᆩ
ᆫ
ᆯ
ᆰ
ᆷ
ᆸ
ᆹ
ᆺ
ᆻ
ᆼ
ᆽ
ᆾ
ᇀ
ᇁ
ᇂ
ᘔ
ក
ប
ម
យ
រ
វ
ស
ហ
អ
ᬲ
ᮔ
ᮞ
ᵻ
‐
‑
–
—
―
‖
‘
’
“
”
„
†
•
…
′
″
⁄
€
₹
℃
™
↑
→
↔
↷
∑
−
∞
∫
∼
≈
≤
⋅
③
④
⑦
│
■
▭
◌
☃
★
♠
♣
♥
♦
♭
✅
❌
⟨
⟩
⺀
⺄
⺆
⺈
⺊
⺌
⺕
⺝
⺸
⺼
⿰
⿱
⿲
⿳
⿴
⿵
⿶
⿷
⿸
⿹
⿺
⿻
、
。
々
《
》
「
」
『
』
【
】
〜
〢
あ
い
う
え
お
か
き
く
け
こ
さ
し
す
せ
そ
た
たちの
ち
っ
つ
て
と
な
に
の
は
ひ
ふ
へ
ほ
ま
み
む
め
も
ゃ
や
ゆ
ょ
よ
ら
り
る
れ
ろ
わ
を
ん
ァ
ア
ィ
イ
ウ
ェ
エ
オ
カ
キ
ク
ケ
コ
サ
シ
ス
セ
ソ
タ
チ
ッ
ツ
テ
ト
ナ
ニ
ネ
ノ
ハ
ヒ
フ
ヘ
ホ
マ
ミ
ム
メ
モ
ャ
ヤ
ュ
ユ
ョ
ヨ
ラ
リ
ル
レ
ロ
ワ
ヲ
ン
・
ー
㇁
㇂
㇄
㇇
㇈
㇉
㇓
㐁
㐄
㐅
㐌
㐫
㐬
㐭
㐮
㐱
㑒
㒵
㒸
㒼
㓁
㓞
㔾
㕛
㕣
㖾
㘝
㚅
㚇
㚔
㚘
㝉
㝡
㝴
㝵
㞋
㞢
㞷
㠩
㠭
㠯
㡀
㡭
㡿
㢲
㢴
㣇
㣺
㥯
㪅
㫄
㫐
㫒
㫺
㬅
㬎
㬥
㬰
㲋
㳄
㷠
㸒
㸚
㸦
㼌
㼲
㽞
㿟
䀠
䂞
䍃
䏍
䒑
䖍
䖒
䖝
䖵
䙴
䚻
䜌
䝿
䡛
䧹
䪞
一
丁
丂
七
丄
丅
丆
万
丈
三
上
下
丌
不
与
丏
丐
丑
专
且
丕
世
丘
丙
业
东
丞
丢
丣
两
严
並
丨
丩
个
丫
丬
中
丮
丰
丱
串
丵
丶
丷
丸
丹
为
主
丼
丽
丿
乀
乂
乃
久
乆
乇
么
义
之
乌
乍
乎
乏
乐
乑
乔
乖
乗
乘
乙
乚
乛
乜
九
乞
也
习
乡
乳
乾
亀
亅
了
亇
予
争
事
二
亍
于
亏
亐
云
互
亓
五
井
亘
亚
亜
亞
亟
亠
亡
亢
交
亥
亦
产
亨
亩
享
京
亭
亮
亯
亰
亲
亳
亶
亷
人
亻
亼
亾
仁
今
介
仌
从
仐
仑
仒
仓
仔
仕
他
付
仙
仝
代
令
以
仮
仲
件
任
企
伊
伏
伐
休
会
伝
传
伯
但
位
佐
体
何
佘
余
作
你
佥
使
來
侈
例
侌
侖
侯
侵
便
保
俞
信
修
倉
倍
候
倠
倫
做
偵
備
傳
僉
像
僕
優
儿
兀
允
兂
元
兄
充
兆
兇
先
光
兊
克
兌
免
児
兑
兒
兓
兔
党
兜
兟
入
全
兩
兪
八
公
六
兮
兰
共
关
兵
其
具
典
兹
兼
冀
冂
冃
冄
内
冈
冉
冊
冋
册
再
冎
冏
冐
冒
冓
冖
冗
冘
写
军
农
冝
冠
冡
冥
冫
冬
冷
几
凡
凢
凵
凶
凷
凸
凹
出
函
凾
刀
刁
刂
刃
刄
刅
分
切
刊
刍
刑
刕
刖
列
刘
则
初
別
利
别
到
制
刺
則
削
剌
前
剛
剡
剽
劇
劉
力
功
加
劦
助
劫
劳
劵
勃
勇
勉
勒
動
務
勝
勞
勢
勤
勹
勺
勻
勾
勿
匀
匂
包
匆
匈
匊
匋
匍
匕
化
北
匚
匝
匡
匪
匱
匸
匹
区
医
匽
匿
區
十
卂
千
卄
卅
卆
升
午
卉
半
卌
华
卑
卒
卓
協
单
卖
南
博
卜
卝
卞
占
卡
卢
卣
卤
卦
卩
卪
卬
卯
印
危
即
却
卵
卷
卸
卻
厂
厃
厄
历
厈
厉
厌
厓
厘
厚
原
厤
厥
厨
厭
厲
厶
厷
厸
去
厼
厽
叀
参
參
叅
又
叉
及
友
双
反
叐
发
叒
叔
叕
取
受
叚
叜
叟
口
古
句
另
叩
只
召
可
台
叱
史
右
叵
号
司
叹
吂
吃
各
吅
合
吉
吊
吋
同
名
后
吏
向
吕
君
吝
吞
否
含
启
吳
吴
吹
吾
呂
呆
呈
告
员
呙
周
味
呼
命
咅
和
咎
咠
咢
咨
咲
咸
咼
哀
品
哉
員
哥
哲
唐
唱
商
啇
問
啚
啬
啻
善
喜
喬
單
喰
営
喿
嗇
嘉
噩
嚴
囊
囗
囘
囙
囚
四
回
囟
因
団
囧
囬
困
囱
図
囷
固
国
图
圂
圅
國
圍
園
圓
土
圡
圣
圥
在
圭
地
圶
场
圼
坂
均
坐
坒
坚
坴
垂
型
垔
垚
埀
埋
城
域
埶
執
基
堂
堅
堆
堇
堯
報
場
塔
塞
境
増
墨
壘
士
壬
壯
声
売
壳
壴
壹
壺
壽
夂
处
夅
夆
备
変
夊
夋
夌
复
夏
夒
夕
外
夗
夘
多
夜
夢
大
夨
天
太
夫
夬
夭
央
失
夲
头
夷
夸
夹
夻
夾
奂
奄
奇
奈
奉
奎
奏
奐
契
奓
奔
奚
奞
奠
奢
奥
奭
女
奴
奻
好
如
妄
妙
妟
妥
妹
妻
妾
始
姑
委
姜
姿
威
娄
婁
婴
嬰
嬴
子
孑
孔
孕
孖
字
存
孚
孛
孝
孟
季
孤
学
孫
孱
學
宀
宁
宂
它
宅
宇
守
安
宋
完
宏
宓
宗
官
定
宛
宜
宝
実
客
宣
室
宮
宰
害
家
容
宾
宿
寄
寅
密
富
寒
察
寧
審
寫
寬
寮
寸
对
寺
寻
寽
対
寿
封
尃
射
将
將
專
尉
尊
尋
尌
對
小
少
尒
尓
尔
尖
尗
尚
尞
尢
尣
尤
尧
尨
尭
就
尸
尹
尺
尻
尼
尽
尾
尿
局
居
屈
屋
屎
屏
屑
展
屖
屚
属
屠
屡
屬
屮
屯
屰
山
屵
屾
岁
岂
岑
岡
岩
岳
岸
峯
峰
島
崇
崎
崑
崔
崖
崙
崩
嵬
嶲
巂
巛
川
州
巟
巠
巡
巢
巤
工
左
巧
巨
巩
巫
差
己
已
巳
巴
巷
巸
巻
巽
巾
巿
帀
市
布
希
帚
帛
帝
带
師
席
帯
帰
帶
常
幌
幕
干
平
年
幵
并
幷
幸
幹
幺
幻
幼
幽
幾
广
広
庄
庆
床
底
店
庚
府
度
庫
庭
庶
康
庸
廉
廌
廛
廠
廣
廩
廴
延
廷
建
廾
廿
开
弁
弃
弄
弇
弋
式
弓
弔
引
弗
弘
弜
弟
张
弥
弦
弱
張
強
强
弾
彊
彌
彎
彐
彑
当
彔
录
彖
彗
彡
形
彥
彦
彧
彩
彭
影
彳
役
彼
往
待
律
後
徐
徒
得
徙
從
御
復
微
徳
徵
德
心
忄
必
忌
忍
志
忘
忝
忠
忩
快
念
忽
忿
思
怠
急
性
怱
恆
恋
恒
恩
恭
息
悉
患
悤
悲
悶
情
惠
惡
惢
想
愁
愈
意
愛
感
慈
慧
慮
慶
憂
憲
應
戀
戈
戉
戊
戋
戌
戍
戎
成
我
戒
戔
或
戚
戠
戢
戦
截
戰
戲
戶
户
戸
戹
戼
戾
房
所
扁
扇
手
扌
才
打
托
执
承
技
折
抜
披
拉
拜
拿
指
挙
振
掌
排
探
推
提
揚
摩
支
攴
攵
收
攸
改
放
政
敄
故
敏
敕
敖
敗
教
敝
敞
敢
散
敦
敫
敬
数
敷
數
斂
文
斉
斊
斗
料
斤
斥
斩
斬
斯
新
方
於
施
斿
旁
旅
旋
族
旗
无
旡
既
旣
日
旦
旧
旨
早
旬
旱
旲
时
旾
昆
昇
昌
昍
明
昏
易
昔
昗
昜
星
映
春
昬
昭
是
昱
昴
昷
時
晃
晋
晏
普
景
晶
智
暑
暴
曆
曇
曩
曰
曲
曳
更
曷
書
曹
曼
曾
替
最
朁
會
月
有
朋
服
朔
朕
朗
望
朝
期
木
朩
未
末
本
札
朮
术
朱
朵
朶
机
朿
杀
李
杏
村
杜
束
条
来
杯
東
杲
杳
松
析
林
枚
果
枝
枲
枼
某
柔
查
柬
柰
柴
査
栗
校
株
根
桀
桂
桃
桐
桑
桜
桼
梁
梅
條
梟
梨
棘
棠
棥
森
楚
業
極
楽
概
榮
樂
樊
標
横
橋
機
欠
次
欣
欮
欲
欶
欽
款
歆
歇
歌
歛
止
正
此
步
武
歨
歩
歪
歮
歯
歰
歲
歳
歴
歷
歸
歹
歺
死
殳
段
殷
殸
殹
殺
殻
殿
毋
毌
母
毎
每
毒
比
毕
毚
毛
毳
氏
氐
民
气
気
氣
水
氵
氶
氷
永
氺
氾
汁
求
汉
汝
汞
江
池
汤
決
沃
沓
沖
沙
沝
沢
河
油
治
沿
泉
法
波
泣
泥
注
泰
洋
洛
洞
津
洪
洲
活
派
流
浜
浦
浪
浮
海
涙
涼
淡
淮
清
渋
渚
渠
渡
港
湖
湯
湾
源
準
滿
演
漢
漫
漸
潮
澤
灣
火
灬
灭
灰
灵
灷
炅
炎
炏
炒
炗
炙
炭
点
為
烈
烏
烝
焉
無
焦
焱
然
焼
煎
煞
照
熊
熏
熱
燒
燕
營
燮
爪
爫
爭
爯
爰
爱
爲
爵
父
爻
爽
爾
爿
片
版
牙
牚
牛
牜
牟
牢
牧
物
牪
特
牽
犀
犬
犭
犮
状
狂
狄
狊
独
狺
猋
猒
猪
献
獻
玄
率
玉
王
玟
玨
珂
珎
珠
班
現
球
理
琴
瑟
瑠
瑩
瓜
瓦
甘
甚
生
産
用
甫
甬
田
由
甲
申
电
甶
男
甸
甹
町
画
甾
畀
界
畏
畐
留
畜
畟
畢
略
畧
畨
番
畫
異
畱
當
畺
畾
疊
疋
疌
疑
疒
疾
病
癶
癸
癹
発
登
發
白
百
皀
皃
的
皆
皇
皋
皐
皕
皮
皷
皿
盃
盆
盇
盈
益
盍
盎
监
盒
盖
盛
盡
監
盤
盧
目
直
相
盾
省
眇
眉
看
県
眔
眞
真
眷
眼
眾
着
睘
睪
睿
瞏
瞢
瞿
矍
矛
矞
矢
矣
知
矦
短
石
研
砲
破
碎
磊
磨
示
礻
礼
社
祖
神
祟
票
祭
禀
禁
福
禸
禹
禺
离
禽
禾
禿
秀
秃
秉
秋
科
秘
秝
秦
称
移
稟
種
稲
穀
穌
穴
究
穹
空
穿
突
窄
窒
立
竒
竜
竝
竟
章
童
竹
笑
笠
第
笼
筆
等
答
箕
算
箴
節
篤
篭
籍
米
粉
粛
粟
粤
粦
粲
精
糎
糕
糞
糸
糹
系
紀
約
紅
納
純
紙
級
素
索
紫
累
細
終
組
経
結
絜
絫
統
絲
經
続
維
綿
総
線
編
縄
縣
繇
織
纍
纟
红
组
缶
网
罒
罔
罕
罗
罙
罡
罢
罪
署
罷
羅
羊
羌
羍
美
羔
羕
羗
羞
羡
羣
群
義
羲
羸
羽
翁
翏
習
翔
翕
翟
翠
翼
老
耂
考
者
耆
而
耎
耑
耒
耳
耴
耶
耷
聂
聊
聖
聚
聞
聶
聿
肀
肃
肅
肉
肖
肙
肥
肩
肯
育
肴
胃
背
胡
胥
能
脊
脩
腐
膚
臣
臤
臧
臨
自
臬
臭
臯
臱
至
致
臺
臼
臽
臾
臿
舀
舂
舄
與
興
舉
舌
舍
舛
舜
舞
舟
航
般
船
艇
艦
艮
良
色
艸
艹
艾
芒
芔
芬
芮
花
芳
芸
芺
芻
苔
苗
苟
若
苦
英
茶
茸
荅
草
荒
荣
荷
荼
莆
莉
莧
莫
莽
菆
菊
菐
菓
菜
華
萬
落
葉
著
葛
董
葵
蒙
蒦
蒲
蒼
蓋
蓬
蓮
蓺
蔑
蔡
蕉
蕭
薄
薛
薦
薰
藍
藏
藤
藥
蘇
蘭
虍
虎
虐
虒
虔
處
虖
虗
虘
虚
虛
虜
虞
號
虫
虽
蚤
蚩
蛋
蜀
蜜
蟲
蠡
血
行
衍
術
衛
衣
衤
表
衮
衰
袁
袞
裕
補
製
褭
褱
襄
襾
西
覀
要
覃
見
規
覓
覧
親
観
覽
见
角
解
言
訁
訇
計
記
設
許
試
詩
話
詹
誌
語
誩
説
調
論
諸
警
護
讠
语
谷
豆
豈
豊
豐
豕
豖
豙
象
豦
豩
豪
豸
貇
貝
貞
貟
負
貢
貧
貨
貪
貫
責
貳
貴
買
費
賀
賁
資
賈
賏
賓
賔
賛
賞
賢
賣
質
賴
贊
贝
贡
责
贯
贲
贵
赖
赞
赤
赦
走
起
超
越
足
路
蹇
身
躬
車
軍
軎
軟
転
軽
載
輝
輦
輪
车
辛
辜
辟
辣
辥
辰
辱
農
辵
辶
边
辺
达
过
近
连
迷
追
退
送
逆
逐
通
速
造
逢
連
逮
週
進
遀
遂
運
過
道
達
遠
遣
適
遷
選
遺
邊
邑
邕
那
邦
邪
郎
部
郭
都
鄉
鄭
酉
酋
配
酒
酓
酥
釆
采
里
重
野
量
金
釒
釜
鉄
銀
錢
録
鍋
钅
長
镸
长
門
閃
閉
開
閏
閑
閒
間
閔
関
閣
閵
閻
闌
门
间
闷
阑
阜
阝
阪
防
阿
降
限
陝
院
陳
陸
陽
隆
隊
隋
際
隠
隡
隨
隱
隶
隹
隺
隻
隼
隽
难
雀
雁
雄
集
雈
雋
雍
雐
雑
雔
雙
雚
雜
雝
雞
離
難
雨
雩
雪
雲
零
雷
電
需
霊
霍
霜
霝
霞
露
霸
靈
靑
青
静
非
靡
面
靣
革
韋
韓
韦
韭
韯
韱
音
頁
頃
項
順
須
頗
頡
頭
頻
顛
類
页
風
风
飛
飞
食
飠
飯
餅
養
館
饣
饼
首
香
馬
馮
駅
駦
马
骨
高
髟
鬥
鬯
鬲
鬼
魂
魔
魚
魯
鮮
鯉
鱼
鲁
鳥
鳳
鸟
鸡
鹵
鹿
麃
麗
麥
麦
麵
麺
麻
黃
黄
黍
黎
黑
黒
黨
黹
黽
黾
鼎
鼓
鼠
鼻
齊
齋
齐
齒
齿
龍
龙
龜
龟
龠
龰
龱
龴
龵
龶
龷
龸
龹
ꦄ
ꦄꦏ
ꦄꦒ
ꦄꦗ
ꦄꦝ
ꦄꦢ
ꦄꦢꦩ
ꦄꦤ
ꦄꦥ
ꦄꦧ
ꦄꦨ
ꦄꦩ
ꦄꦫ
ꦄꦭ
ꦄꦱ
ꦆ
ꦆꦤ
ꦆꦧ
ꦆꦱ
ꦆꦱꦏ
ꦈ
ꦉ
ꦉꦒ
ꦉꦒꦤ
ꦉꦗ
ꦉꦠ
ꦉꦢ
ꦉꦤ
ꦉꦤꦤ
ꦉꦥ
ꦉꦧ
ꦉꦩ
ꦉꦫ
ꦉꦱ
ꦊ
ꦊꦊꦩ
ꦊꦏ
ꦊꦒ
ꦊꦔ
ꦊꦔꦗ
ꦊꦠ
ꦊꦤ
ꦊꦥ
ꦊꦧ
ꦊꦩ
ꦊꦭ
ꦊꦭꦏ
ꦊꦭꦩ
ꦊꦱ
ꦌ
ꦌꦒ
ꦌꦤ
ꦌꦥ
ꦌꦭ
ꦌꦱ
ꦌꦱꦲ
ꦎ
ꦎꦭ
ꦏ
ꦏꦉꦥ
ꦏꦉꦧ
ꦏꦉꦩ
ꦏꦊꦧ
ꦏꦏ
ꦏꦏꦉꦥ
ꦏꦏꦏ
ꦏꦏꦭ
ꦏꦒ
ꦏꦔ
ꦏꦕ
ꦏꦕꦩꦠ
ꦏꦕꦩꦠꦤ
ꦏꦕꦫ
ꦏꦗ
ꦏꦚ
ꦏꦛ
ꦏꦝ
ꦏꦝꦠ
ꦏꦝꦮ
ꦏꦠ
ꦏꦠꦤ
ꦏꦢ
ꦏꦢꦢ
ꦏꦤ
ꦏꦥ
ꦏꦥꦏ
ꦏꦥꦔ
ꦏꦥꦠ
ꦏꦥꦤ
ꦏꦥꦫ
ꦏꦥꦭ
ꦏꦧ
ꦏꦧꦮ
ꦏꦩ
ꦏꦩꦫ
ꦏꦪ
ꦏꦪꦢ
ꦏꦪꦩ
ꦏꦪꦱ
ꦏꦫ
ꦏꦫꦠ
ꦏꦫꦤ
ꦏꦫꦥ
ꦏꦫꦩ
ꦏꦭ
ꦏꦭꦔ
ꦏꦭꦤ
ꦏꦮ
ꦏꦱ
ꦏꦱꦏ
ꦏꦱꦤ
ꦏꦱꦩ
ꦏꦱꦲ
ꦏꦲ
ꦏꦲꦏ
ꦏꦲꦠ
ꦏꦲꦤꦤ
ꦑ
ꦒ
ꦒꦏ
ꦒꦒ
ꦒꦒꦱ
ꦒꦗ
ꦒꦚ
ꦒꦝ
ꦒꦠ
ꦒꦢ
ꦒꦤ
ꦒꦥ
ꦒꦧ
ꦒꦩ
ꦒꦩꦤ
ꦒꦪ
ꦒꦫ
ꦒꦫꦤ
ꦒꦫꦥ
ꦒꦭ
ꦒꦭꦏ
ꦒꦮ
ꦒꦮꦤ
ꦒꦱ
ꦒꦲ
ꦓ
ꦓꦭ
ꦔ
ꦔꦉꦥ
ꦔꦊꦩ
ꦔꦏ
ꦔꦒ
ꦔꦔ
ꦔꦗ
ꦔꦚ
ꦔꦝ
ꦔꦠ
ꦔꦢ
ꦔꦤ
ꦔꦤꦏ
ꦔꦥ
ꦔꦧ
ꦔꦩ
ꦔꦪ
ꦔꦫ
ꦔꦫꦤ
ꦔꦭ
ꦔꦭꦩ
ꦔꦮ
ꦔꦱ
ꦔꦲ
ꦕ
ꦕꦏ
ꦕꦏꦚ
ꦕꦒꦏ
ꦕꦕ
ꦕꦛ
ꦕꦠ
ꦕꦤ
ꦕꦥ
ꦕꦩ
ꦕꦪ
ꦕꦫ
ꦕꦫꦤ
ꦕꦭ
ꦕꦮ
ꦕꦲ
ꦖ
ꦗ
ꦗꦊ
ꦗꦏ
ꦗꦒ
ꦗꦒꦏ
ꦗꦒꦠ
ꦗꦔꦤ
ꦗꦗ
ꦗꦗꦭ
ꦗꦚ
ꦗꦠ
ꦗꦤ
ꦗꦤꦤ
ꦗꦧ
ꦗꦧꦤ
ꦗꦩ
ꦗꦩꦤ
ꦗꦫ
ꦗꦫꦒ
ꦗꦫꦤ
ꦗꦭ
ꦗꦭꦤ
ꦗꦮ
ꦗꦮꦧ
ꦗꦱ
ꦗꦲ
ꦘ
ꦙ
ꦙꦆꦫ
ꦚ
ꦚꦏ
ꦚꦚ
ꦚꦠ
ꦚꦤ
ꦚꦧ
ꦚꦩ
ꦚꦭ
ꦚꦮ
ꦚꦮꦤ
ꦚꦲ
ꦛ
ꦛꦏ
ꦛꦤ
ꦝ
ꦝꦏ
ꦝꦏꦫ
ꦝꦝ
ꦝꦠ
ꦝꦤ
ꦝꦥ
ꦝꦩ
ꦝꦭ
ꦝꦮ
ꦝꦱ
ꦝꦲ
ꦟ
ꦠ
ꦠꦄꦤ
ꦠꦊ
ꦠꦌꦥ
ꦠꦏ
ꦠꦒ
ꦠꦔ
ꦠꦔꦤ
ꦠꦚ
ꦠꦟꦱꦫ
ꦠꦠ
ꦠꦠꦠꦠ
ꦠꦢ
ꦠꦤ
ꦠꦥ
ꦠꦧ
ꦠꦩ
ꦠꦩꦤ
ꦠꦪ
ꦠꦫ
ꦠꦫꦤ
ꦠꦬ
ꦠꦭ
ꦠꦭꦤ
ꦠꦮ
ꦠꦮꦤ
ꦠꦯ
ꦠꦱ
ꦠꦲ
ꦠꦲꦤ
ꦡ
ꦢ
ꦢꦊꦩ
ꦢꦏ
ꦢꦒ
ꦢꦔ
ꦢꦠ
ꦢꦠꦤ
ꦢꦢ
ꦢꦢꦏ
ꦢꦢꦫ
ꦢꦤ
ꦢꦥ
ꦢꦩ
ꦢꦪ
ꦢꦫ
ꦢꦫꦠ
ꦢꦫꦤ
ꦢꦭ
ꦢꦭꦤ
ꦢꦮ
ꦢꦮꦤ
ꦢꦱ
ꦢꦲ
ꦣ
ꦣꦮ
ꦤ
ꦤꦏ
ꦤꦒ
ꦤꦒꦫ
ꦤꦔ
ꦤꦗ
ꦤꦗꦤ
ꦤꦚ
ꦤꦛ
ꦤꦛꦢ
ꦤꦛꦲ
ꦤꦠ
ꦤꦠꦤ
ꦤꦢ
ꦤꦤ
ꦤꦥ
ꦤꦥꦠ
ꦤꦥꦲ
ꦤꦧ
ꦤꦧꦱ
ꦤꦩ
ꦤꦩꦫ
ꦤꦫ
ꦤꦭ
ꦤꦭꦤ
ꦤꦮ
ꦤꦮꦠ
ꦤꦱ
ꦤꦲ
ꦤꦲꦤ
ꦤꦲꦩꦫ
ꦥ
ꦥꦉ
ꦥꦊ
ꦥꦊꦩ
ꦥꦏ
ꦥꦏꦫ
ꦥꦒ
ꦥꦔ
ꦥꦔꦤ
ꦥꦔꦥ
ꦥꦔꦧ
ꦥꦕ
ꦥꦚ
ꦥꦛ
ꦥꦝ
ꦥꦝꦏ
ꦥꦝꦔ
ꦥꦝꦠ
ꦥꦝꦢ
ꦥꦝꦤ
ꦥꦝꦩ
ꦥꦝꦮ
ꦥꦝꦱ
ꦥꦝꦲ
ꦥꦠ
ꦥꦠꦤ
ꦥꦢ
ꦥꦢꦏ
ꦥꦢꦥꦢ
ꦥꦢꦩ
ꦥꦤ
ꦥꦤꦱ
ꦥꦥ
ꦥꦥꦠ
ꦥꦥꦤ
ꦥꦩ
ꦥꦩꦤ
ꦥꦪ
ꦥꦪꦏ
ꦥꦫ
ꦥꦫꦒ
ꦥꦫꦤ
ꦥꦫꦥ
ꦥꦫꦧ
ꦥꦫꦫꦱ
ꦥꦫꦱ
ꦥꦫꦲ
ꦥꦭ
ꦥꦮ
ꦥꦱ
ꦥꦱꦩ
ꦥꦱꦭ
ꦥꦲ
ꦥꦲꦤ
ꦦ
ꦦꦈꦭ
ꦧ
ꦧꦉ
ꦧꦉꦥ
ꦧꦊꦱ
ꦧꦏ
ꦧꦏꦭ
ꦧꦒ
ꦧꦔ
ꦧꦕ
ꦧꦚ
ꦧꦛ
ꦧꦝ
ꦧꦠ
ꦧꦢ
ꦧꦢꦤ
ꦧꦤ
ꦧꦥ
ꦧꦥꦏ
ꦧꦧ
ꦧꦧꦢ
ꦧꦪ
ꦧꦫ
ꦧꦭ
ꦧꦭꦏ
ꦧꦭꦤ
ꦧꦮ
ꦧꦮꦤ
ꦧꦱ
ꦧꦱꦤ
ꦧꦲ
ꦧꦲꦤ
ꦨ
ꦩ
ꦩꦊꦱ
ꦩꦏ
ꦩꦏꦠ
ꦩꦒ
ꦩꦔ
ꦩꦔꦤ
ꦩꦕ
ꦩꦗ
ꦩꦚ
ꦩꦝ
ꦩꦠ
ꦩꦢ
ꦩꦤ
ꦩꦤꦮ
ꦩꦤꦱ
ꦩꦧ
ꦩꦩ
ꦩꦪ
ꦩꦫ
ꦩꦫꦏ
ꦩꦫꦤ
ꦩꦭ
ꦩꦭꦲ
ꦩꦮ
ꦩꦱ
ꦩꦱꦏ
ꦩꦲ
ꦪ
ꦪꦏ
ꦪꦒ
ꦪꦗ
ꦪꦚ
ꦪꦠ
ꦪꦢ
ꦪꦤ
ꦪꦥ
ꦪꦧ
ꦪꦩ
ꦪꦪ
ꦪꦪꦏ
ꦪꦭ
ꦪꦭꦤ
ꦪꦮ
ꦪꦱ
ꦪꦲ
ꦫ
ꦫꦏ
ꦫꦒ
ꦫꦔ
ꦫꦔꦤ
ꦫꦗ
ꦫꦗꦥꦠ
ꦫꦗꦱ
ꦫꦗꦲ
ꦫꦚ
ꦫꦛ
ꦫꦠ
ꦫꦠꦤ
ꦫꦢ
ꦫꦤ
ꦫꦥ
ꦫꦧ
ꦫꦧꦏꦭ
ꦫꦩ
ꦫꦪ
ꦫꦮ
ꦫꦱ
ꦫꦱꦏ
ꦫꦱꦤ
ꦫꦲ
ꦬ
ꦭ
ꦭꦏ
ꦭꦒ
ꦭꦔ
ꦭꦗ
ꦭꦚ
ꦭꦛ
ꦭꦠ
ꦭꦢ
ꦭꦤ
ꦭꦥ
ꦭꦥꦏ
ꦭꦧ
ꦭꦧꦤ
ꦭꦩ
ꦭꦪ
ꦭꦪꦤ
ꦭꦫ
ꦭꦫꦏ
ꦭꦫꦠ
ꦭꦫꦤ
ꦭꦭ
ꦭꦭꦢ
ꦭꦮ
ꦭꦮꦤ
ꦭꦮꦱ
ꦭꦱ
ꦭꦱꦩ
ꦭꦱꦫ
ꦭꦲ
ꦭꦲꦠ
ꦭꦲꦤ
ꦮ
ꦮꦊꦱ
ꦮꦏ
ꦮꦒ
ꦮꦔ
ꦮꦗ
ꦮꦚ
ꦮꦝ
ꦮꦠ
ꦮꦢ
ꦮꦤ
ꦮꦧ
ꦮꦩ
ꦮꦪ
ꦮꦫ
ꦮꦫꦤ
ꦮꦫꦱ
ꦮꦭ
ꦮꦭꦤ
ꦮꦮ
ꦮꦱ
ꦮꦱꦤ
ꦮꦲ
ꦯ
ꦯꦏꦫ
ꦰ
ꦱ
ꦱꦉ
ꦱꦊꦧ
ꦱꦏ
ꦱꦏꦏ
ꦱꦏꦚ
ꦱꦏꦛꦲ
ꦱꦏꦠ
ꦱꦏꦥ
ꦱꦏꦭ
ꦱꦏꦮꦤ
ꦱꦏꦲ
ꦱꦒ
ꦱꦒꦤ
ꦱꦔ
ꦱꦔꦤ
ꦱꦕ
ꦱꦗ
ꦱꦚ
ꦱꦝ
ꦱꦠ
ꦱꦠꦤ
ꦱꦢ
ꦱꦢꦊꦩ
ꦱꦢꦪ
ꦱꦢꦪꦱꦩ
ꦱꦤ
ꦱꦤꦏ
ꦱꦤꦤ
ꦱꦥ
ꦱꦥꦤ
ꦱꦥꦱ
ꦱꦥꦱꦥ
ꦱꦧ
ꦱꦧꦚ
ꦱꦧꦠ
ꦱꦧꦧ
ꦱꦩ
ꦱꦩꦫ
ꦱꦪ
ꦱꦫ
ꦱꦫꦏ
ꦱꦫꦤ
ꦱꦭ
ꦱꦭꦤ
ꦱꦭꦩ
ꦱꦮ
ꦱꦱ
ꦱꦱꦠ
ꦱꦱꦩ
ꦱꦲ
ꦲ
ꦲꦉꦥ
ꦲꦏ
ꦲꦏꦭ
ꦲꦏꦱ
ꦲꦒ
ꦲꦒꦩ
ꦲꦔ
ꦲꦔꦤ
ꦲꦗ
ꦲꦗꦏ
ꦲꦚ
ꦲꦝ
ꦲꦠ
ꦲꦢ
ꦲꦢꦠ
ꦲꦤ
ꦲꦤꦏ
ꦲꦤꦔ
ꦲꦤꦮ
ꦲꦤꦲ
ꦲꦥ
ꦲꦥꦱ
ꦲꦥꦲꦥ
ꦲꦧ
ꦲꦩ
ꦲꦪ
ꦲꦪꦠ
ꦲꦫ
ꦲꦫꦏ
ꦲꦫꦤ
ꦲꦭ
ꦲꦭꦩ
ꦲꦭꦱ
ꦲꦮ
ꦲꦮꦏ
ꦲꦮꦤ
ꦲꦮꦱ
ꦲꦱ
ꦲꦱꦭ
ꦲꦲ
꧁
꧂
꧄
꧅
꧇
꧈
꧉
꧊
꧋
꧌
꧍
ꧏ
꧐
꧑
꧑꧐
꧑꧑
꧑꧒
꧑꧓
꧑꧔
꧑꧕
꧑꧖
꧑꧗
꧑꧘
꧑꧙
꧒
꧒꧐
꧒꧐꧐꧙
꧒꧑
꧒꧒
꧒꧓
꧒꧔
꧒꧕
꧒꧖
꧒꧗
꧒꧘
꧓
꧔
꧕
꧖
꧗
꧘
꧙
者
艹
﴾
﴿
ﺍ
？
￼
𠀁
𠀃
𠀆
𠀉
𠀎
𠀐
𠁁
𠁣
𠂆
𠂇
𠂈
𠂉
𠂊
𠂋
𠂎
𠂒
𠂔
𠂛
𠂡
𠂢
𠂤
𠂬
𠂭
𠂹
𠃊
𠃋
𠃌
𠃍
𠃎
𠃑
𠃓
𠃔
𠃜
𠄌
𠄎
𠄠
𠄢
𠆢
𠆥
𠇍
𠈌
𠌵
𠓜
𠔉
𠔥
𠔼
𠔽
𠔿
𠕀
𠕁
𠕋
𠘧
𠘨
𠙻
𠙼
𠚏
𠚒
𠚤
𠚪
𠣏
𠤎
𠤕
𠥓
𠦄
𠦑
𠦝
𠧒
𠧗
𠧪
𠩺
𠪚
𠫓
𠫔
𠫤
𠬛
𠬝
𠬞
𠬢
𠬤
𠬶
𠮛
𠮦
𠮷
𠯑
𠱠
𠳮
𠷎
𡈼
𡉀
𡉵
𡌥
𡍮
𡏳
𡕒
𡕩
𡕰
𡖅
𡗗
𡗜
𡘆
𡘤
𡧱
𡨄
𡩧
𡬠
𡭽
𡰣
𡰥
𡰪
𡰯
𡰱
𡷈
𡸁
𡿨
𡿩
𡿪
𡿺
𢀖
𢀛
𢀩
𢁙
𢆉
𢆰
𢆶
𢇁
𢇇
𢉖
𢌬
𢌿
𢏚
𢑑
𢑚
𢖻
𢙣
𢛳
𢦏
𢦒
𢧵
𢼄
𢾕
𣁋
𣄼
𣅀
𣅽
𣍘
𣎳
𣎵
𣏋
𣏼
𣗥
𣥂
𣥖
𣦵
𣦼
𣧄
𣪊
𣪠
𣬉
𣳾
𣶒
𤇾
𤊽
𤐫
𤓰
𤔔
𤕨
𤣩
𤰇
𤰔
𤰞
𤴓
𤴔
𤽄
𥁑
𥁕
𥃦
𥃩
𥃭
𥇡
𥑟
𥘅
𥘈
𥝢
𥫗
𥱡
𦈢
𦉪
𦉬
𦉼
𦍌
𦍒
𦎧
𦐇
𦓔
𦔮
𦘒
𦙃
𦚏
𦣝
𦣞
𦣻
𦥑
𦥔
𦥯
𦨉
𦭝
𦰩
𧆞
𧈧
𧘇
𧰨
𧴪
𧴮
𧵩
𧾷
𨸏
𨾴
𩙿
𩠐
𩫏
𩵋
𪉷
𪜀
𪟽
𪠲
𪩲
𫇦
𫔭
𫜸
𫝀
𫠣
𫠩
𫢉
𫥞
𫩏
𫩠
𫪡
𫲽
𫶧
𬀷
𬐘
𬗌
𬙙
𬛸
𬜯
𬟩
𬯁
𬴘
𬺻
𬼉
𬼖
𭀰
𭁈
𭁨
𭅰
𭑈
𭕄
𭗼
𭤨
𭥫
𭻾
𮅕
𮊿
𮍌
𮍏
𮓗
𮥼
𮧮
廾
𰀁
𰀄
𰀈
𰀉
𰀕
𰀠
𰀡
𰀢
𰀪
𰁜
𰃮
𰆊
𰆘
𰋙
𰕎
𰢴
𰧭
𰯲
0--
00--
000--
01--
02--
03--
04--
05--
06--
07--
08--
09--
1--
104--
2--
3--
36--
37--
4--
42--
43--
44--
45--
46--
47--
48--
49--
5--
50--
51--
52--
53--
54--
55--
56--
57--
58--
59--
6--
60--
61--
62--
63--
64--
65--
66--
67--
68--
69--
7--
70--
71--
72--
73--
74--
75--
76--
77--
78--
79--
8--
80--
81--
82--
83--
84--
85--
86--
87--
88--
89--
9--
90--
91--
92--
93--
94--
95--
96--
97--
978--
97803--
97805--
97808--
978979--
979--
98--
99--
aa--
aab--
aac--
aad--
aadh--
aag--
aaj--
aak--
aal--
aam--
aamb--
aamp--
aan--
aap--
aar--
aas--
aat--
aaw--
ab--
aba--
abd--
abdi--
abi--
abs--
abu--
ac--
acce--
accid--
ace--
ad--
ada--
adapt--
addit--
ade--
adhe--
adhi--
adi--
advan--
adve--
advi--
advo--
ae--
aero--
af--
afi--
afro--
ag--
agra--
agri--
ah--
ai--
air--
aj--
aja--
aji--
ak--
aka--
ake--
aki--
aku--
al--
ala--
ale--
ali--
alih--
all--
alm--
als--
alt--
am--
ama--
ami--
an--
ana--
anak--
ance--
ances--
and--
anda--
ane--
ang--
angge--
angio--
ani--
ann--
anna--
antar--
anti--
anu--
any--
ao--
ap--
apa--
api--
apoc--
appe--
apr--
apu--
aq--
aqua--
ar--
ara--
arbit--
arc--
archbis--
archi--
are--
arga--
ari--
arm--
art--
arti--
aru--
as--
asa--
ash--
asi--
asp--
assas--
astro--
asu--
asy--
at--
ata--
ati--
atma--
atr--
attract--
atur--
au--
aus--
auto--
av--
aw--
ax--
ay--
ayu--
az--
b--
ba--
bab--
bach--
bache--
back--
bact--
bad--
bag--
bah--
bai--
bak--
bal--
bala--
bale--
bali--
ban--
band--
bang--
bantar--
banyu--
bao--
bar--
bas--
basa--
bat--
batu--
bau--
bay--
bb--
be--
beau--
bebu--
beda--
bee--
beg--
bei--
bek--
bel--
bela--
ben--
benef--
bengk--
ber--
beren--
berg--
berke--
bern--
bet--
bh--
bhag--
bi--
bibl--
biblio--
bid--
bien--
big--
bin--
bina--
bio--
bir--
bis--
bit--
bk--
bl--
bland--
ble--
blu--
bn--
bo--
bob--
bok--
boli--
bom--
bon--
bong--
bonif--
bor--
bos--
bot--
boul--
bour--
box--
boy--
bp--
br--
bra--
brad--
brang--
bree--
bren--
bret--
brew--
broc--
brom--
bron--
brow--
bruns--
bu--
budi--
buk--
bulu--
bumi--
bun--
bur--
bus--
but--
bw--
by--
ca--
caer--
cai--
cak--
cakra--
cala--
calc--
cald--
cam--
camp--
can--
cangk--
cap--
car--
cara--
cas--
casa--
cat--
cauc--
cc--
ce--
ceci--
cek--
cele--
celebra--
celes--
cemp--
cend--
cendh--
cengk--
cengo--
cent--
centh--
cet--
ch--
cha--
chamae--
chan--
char--
che--
chi--
cho--
chry--
chu--
ci--
cia--
cid--
cingk--
cinn--
circ--
cite--
citeref--
citi--
cl--
cle--
clus--
cn--
co--
cock--
cod--
col--
com--
compo--
con--
confect--
const--
contr--
conve--
cor--
corn--
cos--
cot--
cour--
cous--
cr--
crac--
cran--
craw--
cres--
cri--
crist--
croc--
crusa--
cs--
cu--
cult--
cum--
cup--
cur--
cut--
cy--
cycl--
cz--
d--
da--
dae--
dai--
dak--
dal--
dam--
dan--
dana--
dang--
dar--
darma--
das--
dasa--
dat--
data--
daup--
day--
daya--
dd--
de--
dec--
dee--
defe--
defi--
dei--
dek--
del--
deli--
demi--
demons--
den--
depen--
der--
des--
deve--
develo--
dewa--
dh--
dha--
dhamp--
dhang--
dhapu--
dhe--
dhek--
dhi--
dho--
dhu--
di--
dia--
dialu--
diam--
dian--
dib--
dibeb--
dibed--
diber--
dibud--
dic--
dican--
diceb--
dicep--
dicip--
dicub--
did--
didar--
didh--
didi--
die--
diemp--
dient--
diferen--
dig--
digan--
digeg--
dihubun--
diim--
diin--
diing--
dija--
dije--
diji--
dijl--
dik--
dika--
dikeb--
dikem--
diken--
dikep--
diker--
dikom--
dikup--
dikuwa--
dil--
dilem--
diler--
dili--
dim--
din--
dino--
diom--
dios--
dip--
dipan--
dipen--
diper--
dipet--
dipir--
dipl--
dipoc--
dipop--
dipre--
dipun--
diput--
dir--
direg--
dires--
dis--
disam--
disco--
discuss--
diseb--
dised--
disel--
disem--
diseng--
disep--
diser--
diset--
disim--
dising--
disir--
disum--
disun--
dit--
ditah--
ditak--
ditam--
ditama--
ditan--
ditand--
ditang--
ditaw--
diteg--
ditem--
ditempe--
ditep--
diter--
ditet--
diton--
ditud--
ditum--
ditungg--
ditut--
diud--
dium--
diun--
diupa--
diur--
diut--
diw--
dj--
dl--
dm--
do--
doc--
dog--
dol--
dom--
don--
doo--
down--
dr--
dra--
dres--
du--
duh--
duk--
dum--
dumpl--
dur--
dw--
dwara--
dwi--
dy--
dz--
dzul--
ea--
eb--
ec--
eccle--
eco--
ed--
edi--
edu--
ee--
ef--
eg--
eh--
ei--
ein--
eisen--
ej--
ek--
eka--
eks--
el--
ela--
elec--
elep--
eli--
em--
emer--
emi--
en--
end--
endos--
eng--
ense--
ent--
enter--
eo--
ep--
epis--
eq--
equa--
er--
era--
eri--
es--
est--
estu--
et--
ethn--
eu--
euro--
ev--
eva--
ever--
ew--
ewa--
ex--
exo--
expedit--
expl--
exten--
ey--
ez--
f--
fa--
fabr--
fair--
fan--
far--
fat--
favo--
fe--
feld--
feli--
ferr--
fi--
fill--
film--
finn--
fir--
fire--
fish--
fk--
fl--
flat--
flav--
flor--
flu--
fo--
fond--
food--
foot--
for--
foto--
fox--
fp--
fr--
fram--
fran--
fred--
free--
frei--
freq--
frit--
fu--
fuji--
fuku--
fun--
fund--
fur--
furni--
fy--
ga--
gai--
gal--
gale--
gamb--
gan--
ganda--
gandu--
gang--
gard--
gas--
gay--
gb--
ge--
geby--
gege--
gel--
gemb--
gembl--
gembr--
geml--
gemp--
gemr--
gen--
geo--
ger--
get--
gh--
gi--
gian--
gil--
gim--
gin--
giov--
giri--
girl--
gl--
glem--
gliko--
glob--
glom--
glund--
glyc--
gm--
gn--
go--
god--
goen--
gol--
gomb--
gond--
gondh--
gong--
gonj--
good--
got--
gover--
gr--
gra--
green--
gren--
grif--
gril--
grim--
grom--
gron--
grow--
grum--
grund--
gu--
gua--
gue--
guil--
gul--
gum--
gun--
guna--
gur--
gus--
guy--
gw--
gy--
gyeo--
gyeong--
gymn--
ha--
had--
hadi--
hae--
hai--
hak--
hal--
ham--
han--
hand--
hang--
happ--
hard--
hari--
harj--
harm--
hart--
haru--
has--
hat--
hay--
haŋ--
he--
head--
heli--
helv--
hemb--
hend--
her--
het--
hi--
hidr--
hier--
high--
him--
hin--
hip--
hiper--
his--
hit--
hk--
hm--
ho--
hob--
hok--
home--
homo--
hon--
hoo--
hop--
hori--
hot--
how--
hr--
hs--
hu--
hua--
hub--
hum--
hun--
hut--
hwa--
hy--
hydr--
hye--
hyper--
ia--
ib--
iba--
ibu--
ic--
id--
ide--
identif--
idhe--
ie--
if--
ig--
ih--
ii--
ij--
ik--
il--
ila--
ili--
illu--
illust--
im--
ima--
impl--
implem--
in--
ina--
inc--
ind--
indo--
infe--
infi--
info--
infr--
ing--
inhi--
ini--
innov--
inov--
insi--
insp--
inst--
insta--
int--
integ--
inter--
inti--
intro--
inve--
investiga--
io--
ip--
iq--
ir--
ira--
is--
isa--
ishi--
iso--
ist--
it--
ita--
iu--
iv--
iw--
iy--
iz--
ja--
jae--
jaga--
jai--
jala--
jam--
jan--
jang--
jas--
jati--
jay--
jaya--
je--
jek--
jemba--
jen--
jeng--
jer--
jero--
jet--
jh--
ji--
jim--
jin--
jiwa--
jj--
jl--
jlam--
jo--
joe--
joglo--
jon--
jong--
jp--
jr--
jro--
ju--
juga--
jum--
jun--
jung--
juru--
jw--
jy--
k--
ka--
kab--
kabetyi--
kabud--
kaca--
kace--
kad--
kadhe--
kadi--
kae--
kai--
kaja--
kak--
kaka--
kal--
kala--
kalam--
kale--
kali--
kama--
kamb--
kami--
kamo--
kamp--
kan--
kana--
kang--
kap--
kaper--
kapi--
kapraca--
kar--
kara--
karang--
kari--
karo--
karto--
kas--
kasejah--
kat--
kata--
kate--
katuj--
kau--
kaw--
kawed--
kawen--
kawi--
kawur--
kay--
kaya--
kayu--
kb--
ke--
keben--
kebl--
kebr--
kebra--
kec--
keda--
kedha--
kedhe--
kedho--
kedung--
keh--
kei--
keje--
keju--
keke--
kela--
kelan--
kele--
keli--
kelung--
kemb--
kemen--
keml--
kemo--
kemp--
kemr--
kemu--
ken--
kena--
kent--
kep--
kepah--
kepe--
kepon--
kepri--
kera--
kerta--
kertos--
kes--
kesim--
kesuk--
kete--
kethu--
ketl--
ketu--
kewe--
key--
kg--
kh--
khaw--
ki--
kid--
kim--
kina--
kinc--
kine--
kins--
kirc--
kiri--
kit--
kita--
kk--
kl--
kla--
kled--
klem--
kleng--
klet--
klint--
klon--
kloro--
klun--
km--
kn--
ko--
kod--
kok--
kol--
komp--
kon--
kong--
konst--
kor--
koreo--
kores--
kota--
kp--
kr--
kra--
krew--
kri--
kris--
krod--
krom--
krono--
kru--
ks--
kt--
ku--
kul--
kula--
kum--
kun--
kur--
kuta--
kutha--
kuto--
kuwa--
kv--
kw--
ky--
l--
la--
lab--
lace--
lah--
lak--
lam--
lamb--
lan--
land--
lang--
lao--
lap--
las--
lat--
lau--
law--
lay--
le--
lebak--
led--
leg--
leh--
lek--
lele--
lem--
lempu--
len--
leng--
leo--
ler--
les--
let--
leuc--
leuk--
leuwi--
li--
libr--
lie--
lik--
lim--
lin--
ling--
lip--
lir--
lit--
ll--
lo--
lock--
log--
loh--
lok--
loka--
lon--
long--
los--
lot--
lou--
low--
lp--
lu--
luc--
lume--
lump--
lung--
lw--
ly--
m--
ma--
mac--
mad--
madu--
mae--
mag--
magel--
mah--
maha--
mai--
maja--
maji--
mak--
maka--
mal--
mala--
mamb--
mamm--
man--
mana--
manca--
mandra--
mane--
mang--
mangku--
mani--
manu--
map--
mar--
mara--
marga--
mari--
mas--
masa--
mat--
mata--
mate--
mathe--
matt--
mau--
maxim--
may--
maya--
mazo--
mb--
mba--
mbeb--
mbed--
mbeg--
mben--
mbeng--
mber--
mbes--
mbiya--
mbl--
mbok--
mbr--
mbuk--
mbun--
mc--
mccl--
mcfar--
mcki--
me--
measu--
med--
media--
medic--
meh--
mei--
mel--
mela--
memb--
meme--
memp--
men--
mence--
mencu--
mene--
meng--
menye--
menyu--
mer--
meri--
merk--
meso--
mess--
met--
meta--
methe--
mi--
mia--
micr--
mid--
mig--
mikro--
mil--
mili--
min--
mina--
ming--
mini--
mir--
mit--
mix--
miya--
ml--
mlan--
mlen--
mlun--
mm--
mn--
mo--
moer--
moh--
mojo--
mok--
mol--
mon--
mono--
mont--
monte--
moon--
mout--
mp--
mr--
mran--
mrat--
ms--
mu--
muk--
mula--
mull--
multi--
mump--
mun--
mung--
mus--
musa--
muti--
mw--
my--
myst--
n--
na--
naga--
nah--
nak--
nam--
nan--
nang--
nano--
nara--
nares--
narr--
nat--
nata--
navi--
naya--
nc--
nd--
ndeng--
ndh--
ndhap--
ndhod--
ndi--
ndila--
ne--
nee--
nek--
nem--
neng--
neo--
nerap--
nerjema--
net--
neur--
neut--
new--
news--
ng--
nga--
ngaju--
ngalu--
ngamb--
ngamp--
ngan--
ngarga--
nge--
ngeks--
ngemb--
ngemp--
ngenc--
ngend--
ngent--
ngerj--
ngersa--
ngg--
nggag--
nggam--
nggan--
nggeb--
ngged--
nggeg--
nggem--
ngget--
nggl--
nggol--
nggre--
nggun--
ngi--
nging--
ngint--
ngk--
ngl--
nglam--
nglan--
ngleg--
nglem--
ngleng--
nglep--
ngler--
nglirwa--
nglon--
nglun--
ngo--
ngomp--
ngonc--
ngont--
ngr--
ngrag--
ngram--
ngran--
ngreg--
ngrem--
ngren--
ngres--
ngroe--
ngrom--
ngron--
ngrumang--
ngrun--
ngu--
nguci--
ngunc--
ngund--
ngunt--
ngwu--
nh--
ni--
niko--
nil--
nin--
ning--
nira--
nis--
nita--
niti--
nj--
njan--
njang--
njeb--
njeg--
njem--
njep--
njing--
njon--
njun--
njuwa--
nk--
nl--
no--
nok--
nom--
non--
nos--
not--
noto--
nouv--
now--
nr--
ns--
nt--
nu--
nun--
nur--
nus--
nusa--
nut--
ny--
nya--
nyalu--
nyamp--
nye--
nyedhi--
nyeku--
nyemb--
nyemp--
nyengk--
nyepe--
nyi--
nyl--
nyo--
nyri--
nyu--
nyunt--
nyutra--
oa--
ob--
ober--
obi--
obro--
observa--
oc--
od--
oe--
of--
off--
og--
oh--
oi--
oj--
ok--
oka--
okt--
ol--
old--
olym--
om--
omby--
omni--
on--
oncl--
one--
ong--
oni--
oo--
op--
open--
or--
ora--
oro--
orto--
os--
ost--
osteo--
ot--
oto--
ou--
out--
ov--
over--
ow--
ox--
oy--
oz--
p--
pa--
pac--
pad--
pada--
pag--
pager--
pahe--
pai--
pain--
pak--
paku--
pal--
pala--
paleo--
pali--
pam--
pamah--
pamed--
pamri--
pan--
pana--
panca--
pance--
pane--
pang--
pange--
pangrem--
pangun--
panit--
panjl--
panon--
panungg--
panya--
panye--
panyi--
panyu--
pao--
par--
para--
pare--
pari--
part--
partic--
paru--
pas--
pasa--
pase--
pass--
pat--
pati--
pavi--
pay--
pb--
pd--
pe--
pedia--
pegan--
pek--
pela--
pelan--
pelu--
peman--
pemb--
pemba--
pember--
pemer--
pemrog--
pemu--
pen--
pena--
penet--
peng--
penya--
penye--
penyeli--
penyi--
pepun--
per--
pere--
peri--
perke--
pers--
persya--
pet--
peta--
pethe--
pg--
ph--
pho--
phylog--
phys--
pi--
pia--
pick--
pie--
pig--
pil--
pin--
pine--
ping--
pir--
pit--
piyam--
pk--
pl--
pla--
plasa--
play--
plei--
plem--
plen--
pleng--
plom--
plon--
plum--
pneu--
po--
podl--
poen--
pol--
pon--
pop--
por--
pos--
post--
pot--
pp--
pr--
pra--
pradj--
pram--
prati--
pre--
prih--
prim--
pring--
prio--
pris--
priv--
pro--
proce--
provi--
prze--
ps--
pseu--
psi--
psiko--
psyc--
psychi--
pt--
pu--
pub--
puja--
pulo--
pun--
pung--
pura--
purwa--
pusp--
put--
putu--
py--
qa--
qi--
qo--
qu--
quan--
que--
qui--
r--
ra--
rab--
raci--
rad--
radio--
raff--
rag--
raga--
rah--
rai--
rain--
raj--
raja--
rak--
ram--
rama--
ran--
rang--
rap--
ras--
rasa--
rat--
ratu--
raw--
ray--
re--
reak--
rece--
recom--
red--
reduc--
ref--
reflect--
reh--
reichs--
rein--
reja--
rejo--
rek--
reka--
rekom--
rel--
rem--
ren--
rengg--
rengk--
reper--
repos--
requi--
res--
reti--
reticu--
retri--
rev--
rey--
rh--
rhiz--
ri--
rih--
rim--
rin--
ris--
ro--
road--
rob--
rock--
roh--
rok--
rom--
ron--
rong--
ros--
row--
rs--
rt--
ru--
rubi--
rukm--
rum--
run--
rus--
ruther--
ry--
s--
sa--
saba--
sabr--
sabu--
sacha--
sad--
sae--
saff--
sago--
sah--
sai--
sak--
saka--
sake--
sakiwa--
sal--
sala--
sale--
salva--
sam--
sama--
sami--
sampl--
samu--
san--
sana--
sang--
sanya--
sao--
sap--
sapa--
sapi--
sapu--
sar--
sara--
sari--
sas--
sat--
satunga--
savan--
saw--
sawet--
sc--
scar--
scha--
sche--
schl--
schm--
scho--
sci--
scor--
scud--
scul--
sd--
se--
sea--
seba--
sec--
see--
segi--
sei--
sek--
sekre--
sel--
sela--
sele--
semb--
semba--
sembr--
semi--
semp--
sempr--
semr--
sen--
seng--
seni--
seo--
sep--
ser--
sero--
ses--
set--
seve--
sex--
seyc--
sf--
sh--
sha--
she--
shi--
show--
shu--
si--
sia--
sici--
sida--
sidd--
sidha--
sih--
sik--
sil--
sila--
sim--
sin--
sina--
sindang--
sinen--
sing--
sir--
sira--
sis--
siti--
situ--
sj--
sk--
ska--
ske--
sky--
sl--
sla--
sle--
sm--
sma--
sn--
so--
socio--
soe--
sok--
sol--
solut--
som--
some--
son--
song--
sop--
sor--
souv--
sp--
spa--
spark--
spec--
spie--
spot--
sq--
squi--
sr--
sra--
sre--
sri--
sru--
ss--
st--
sta--
star--
stea--
stim--
stre--
strept--
struct--
stu--
su--
sub--
succ--
sud--
sudi--
sugi--
sui--
suk--
suka--
sul--
sum--
sumber--
sun--
sung--
sunya--
sup--
super--
sur--
sura--
surya--
suta--
suwa--
sv--
sw--
swa--
sy--
sya--
syah--
sylv--
syn--
sz--
szcz--
t--
ta--
tae--
tag--
tai--
tak--
takah--
tal--
tali--
tam--
tan--
tang--
tap--
tapa--
tar--
tara--
taruma--
tas--
tasik--
tata--
tau--
tb--
tc--
te--
tea--
ted--
tegal--
teja--
tek--
tel--
tema--
temb--
temba--
temp--
ten--
teng--
ter--
terri--
terro--
tes--
tetra--
teyo--
th--
tha--
the--
thi--
tho--
thu--
ti--
tiga--
tik--
tim--
time--
tin--
tip--
titi--
tj--
tjah--
tl--
tla--
tlaga--
tle--
tlog--
tm--
tn--
to--
toem--
toh--
toi--
tok--
tol--
tom--
ton--
tong--
tonjo--
top--
tor--
tot--
toxi--
tr--
tra--
trans--
tre--
trem--
tri--
trigo--
trom--
trop--
trot--
trou--
tru--
try--
ts--
tsuk--
tu--
tum--
tuma--
tun--
tung--
tur--
tus--
tut--
tv--
tw--
ty--
typo--
tz--
ua--
ub--
uc--
ud--
ue--
ug--
uga--
uh--
ui--
uj--
uk--
ul--
ultra--
ulu--
um--
ump--
un--
una--
und--
under--
ungel--
ungs--
uni--
univer--
uno--
uns--
uny--
up--
upa--
ur--
ura--
us--
ut--
utili--
uw--
uwa--
uy--
uz--
va--
val--
van--
var--
varia--
ve--
vehi--
vent--
verm--
vert--
vi--
via--
vic--
vinc--
viol--
visc--
visit--
vl--
vo--
voc--
vol--
vr--
vu--
vulg--
wa--
wah--
wait--
wal--
wala--
wali--
wan--
wana--
wang--
war--
wara--
warga--
warna--
was--
wat--
water--
watu--
way--
we--
web--
weda--
wei--
weidm--
wen--
wer--
wes--
west--
wet--
wewe--
wh--
whis--
whit--
white--
wi--
widj--
wido--
wielkopol--
wiki--
wil--
wild--
win--
wira--
wis--
wit--
wl--
wn--
wo--
wol--
won--
wong--
wood--
worc--
wow--
wr--
wu--
wurt--
ww--
wy--
xa--
xe--
xh--
xi--
xu--
xx--
ya--
yaku--
yama--
yan--
ye--
yi--
yo--
yoshi--
your--
yp--
yu--
yuk--
yun--
yust--
za--
zac--
zd--
ze--
zh--
zhu--
zi--
zingi--
zo--
zoo--
zu--
zucc--
zucker--
zulk--
zw--
zy--
æ--
đ--
ł--
ŋ--
ə--
ɡ--
ʃ--
τ--
н--
י--
ا--
ال--
ب--
ح--
د--
س--
ش--
ع--
ق--
ل--
م--
مح--
ن--
و--
ي--
٢--
٣--
٤--
٥--
٦--
٧--
٨--
า--
เ--
ᄀ--
ᄂ--
ᄃ--
ᄄ--
ᄅ--
ᄆ--
ᄇ--
ᄉ--
ᄋ--
ᄌ--
ᄍ--
ᄎ--
ᄏ--
ᄐ--
ᄑ--
ᄒ--
か--
ア--
ク--
シ--
ハ--
ヘ--
ꦄ--
ꦆ--
ꦈ--
ꦉ--
ꦊ--
ꦌ--
ꦎ--
ꦏ--
ꦏꦥ--
ꦏꦪ--
ꦏꦭ--
ꦏꦲ--
ꦑ--
ꦒ--
ꦒꦮ--
ꦒꦱ--
ꦕ--
ꦗ--
ꦚ--
ꦛ--
ꦝ--
ꦟ--
ꦠ--
ꦠꦠ--
ꦠꦥ--
ꦠꦮ--
ꦡ--
ꦢ--
ꦣ--
ꦤ--
ꦤꦛ--
ꦤꦥ--
ꦥ--
ꦥꦕ--
ꦥꦝ--
ꦥꦢ--
ꦥꦤ--
ꦥꦪ--
ꦥꦫ--
ꦦ--
ꦧ--
ꦧꦱ--
ꦨ--
ꦩ--
ꦩꦲ--
ꦪ--
ꦪꦪ--
ꦫ--
ꦫꦗ--
ꦫꦲ--
ꦭ--
ꦭꦫ--
ꦮ--
ꦮꦤ--
ꦮꦫ--
ꦮꦱ--
ꦯ--
ꦱ--
ꦱꦏ--
ꦱꦔ--
ꦱꦠ--
ꦱꦤ--
ꦱꦥ--
ꦱꦩ--
ꦱꦮ--
ꦱꦲ--
ꦲ--
ꦲꦗ--
ꦲꦤ--
ꦲꦥ--
ꦲꦫ--
--0
--0
--00
--01
--04
--05
--06
--07
--08
--1
--1
--10
--11
--12
--14
--15
--16
--17
--18
--19
--2
--2
--20
--21
--22
--23
--24
--25
--28
--3
--3
--30
--32
--33
--34
--37
--39
--4
--4
--40
--41
--44
--45
--48
--49
--5
--5
--50
--51
--52
--55
--56
--59
--6
--6
--60
--61
--64
--65
--66
--67
--69
--7
--7
--71
--72
--73
--77
--78
--8
--8
--80
--82
--83
--84
--86
--88
--89
--9
--9
--90
--93
--94
--95
--a
--aa
--aake
--aan
--ab
--able
--ac
--aca
--aceae
--ach
--achi
--ack
--acy
--ad
--ada
--ade
--adi
--ado
--ae
--aen
--af
--ag
--aga
--agan
--age
--agi
--agna
--ago
--agung
--ah
--aha
--ahake
--ahan
--ahe
--ahi
--ahke
--ahu
--ai
--aian
--aih
--ail
--aine
--air
--ais
--aj
--aja
--aji
--ajut
--ak
--aka
--akake
--akan
--ake
--aken
--aki
--akke
--aku
--al
--ala
--ale
--ales
--ali
--all
--ally
--alo
--am
--ama
--amba
--ame
--ami
--ampok
--amu
--an
--ana
--anan
--anani
--ance
--and
--ane
--ang
--angan
--angi
--ani
--aning
--anipun
--anira
--anja
--anjar
--anku
--anmu
--ano
--anom
--ans
--ant
--anta
--ante
--anto
--ants
--ao
--ap
--apan
--api
--aq
--ar
--ara
--aran
--ard
--ardjo
--ari
--ario
--arja
--arjo
--ark
--aro
--aron
--ars
--aru
--aruh
--arum
--ary
--as
--asa
--asaan
--asan
--ase
--asi
--asuh
--at
--ata
--atan
--ate
--ated
--ates
--ath
--ati
--atif
--atik
--ation
--ations
--ative
--ato
--ator
--ats
--atu
--atul
--atum
--atus
--au
--aup
--aur
--aurus
--aut
--ave
--avi
--aw
--awa
--awah
--awai
--awan
--awat
--awe
--awi
--ax
--ay
--aya
--ayan
--ayu
--az
--b
--ba
--bah
--bai
--bake
--ball
--ban
--bana
--bang
--bap
--bar
--baru
--basa
--bat
--bd
--be
--bed
--beh
--bel
--ber
--berg
--bes
--bet
--bi
--bia
--bian
--bie
--bih
--bik
--bil
--bin
--biyah
--biz
--ble
--bles
--bo
--boh
--bol
--bon
--book
--box
--boy
--bre
--bro
--bruk
--bs
--bu
--bud
--buh
--bul
--bur
--burg
--bury
--bus
--busi
--but
--by
--byah
--byak
--c
--ca
--caceae
--cag
--cah
--cake
--cal
--cana
--cang
--cap
--capan
--car
--cas
--cat
--caya
--cco
--ce
--cea
--ceae
--ceb
--ced
--cel
--cem
--cen
--ceng
--cent
--cep
--cer
--ces
--ch
--cha
--che
--cher
--chi
--cht
--chy
--ci
--cia
--cial
--cies
--cik
--cil
--cin
--cine
--cing
--cino
--cio
--cion
--cir
--cis
--cit
--cius
--ck
--cki
--cks
--cla
--co
--cock
--cok
--com
--cope
--cott
--crat
--cs
--ct
--ction
--ctive
--cts
--cu
--cue
--cula
--cular
--culi
--cung
--cus
--cy
--d
--da
--daceae
--dad
--dae
--dag
--dah
--dak
--dake
--dal
--dam
--dan
--dana
--dang
--dap
--dar
--data
--dawa
--day
--daya
--ddin
--de
--dea
--ded
--deg
--del
--dem
--den
--dence
--dent
--dep
--der
--des
--det
--dez
--dh
--dha
--dhak
--dhan
--dhang
--dhap
--dhen
--dhi
--dhing
--dhu
--dhung
--dhya
--di
--dia
--die
--dier
--dih
--din
--dinata
--ding
--dio
--dis
--dix
--dja
--dji
--djo
--dle
--dler
--do
--dok
--don
--dor
--dore
--dorf
--dori
--doro
--dos
--dosi
--dou
--down
--dra
--dri
--dro
--ds
--dt
--du
--dug
--duk
--dul
--dula
--dung
--dus
--dut
--dy
--dya
--dz
--e
--ea
--eaceae
--eal
--ealis
--ean
--eas
--eau
--eb
--ebar
--ebat
--ebel
--ebes
--ebi
--ebug
--ebur
--ebus
--ebut
--ec
--eck
--ect
--ects
--ed
--eda
--edar
--edhag
--edhap
--edya
--ee
--eed
--eer
--ees
--ef
--eg
--ega
--egah
--egake
--egal
--egan
--egawa
--ege
--egem
--eger
--egi
--eh
--ehan
--ehi
--ei
--eil
--eiro
--eja
--ejar
--ejo
--ek
--ekake
--ekaken
--eke
--ekek
--eken
--eker
--ekrut
--ekta
--el
--ela
--elan
--ele
--eleh
--elen
--eleng
--elet
--ell
--ella
--elli
--ello
--elo
--els
--elung
--ely
--em
--ema
--eme
--emek
--emen
--emeni
--emi
--empel
--emuk
--en
--ena
--enah
--enan
--enburg
--ence
--ency
--end
--ene
--enet
--eng
--engan
--enge
--eni
--enik
--ening
--enne
--eno
--ens
--ense
--ensi
--ensis
--ent
--entes
--ents
--enza
--eo
--eon
--ep
--epa
--epak
--epake
--epel
--epi
--epok
--eps
--epsi
--epung
--er
--era
--eran
--ere
--ered
--ereg
--erek
--eren
--erep
--eret
--erg
--eri
--ern
--erna
--erne
--ero
--erol
--erot
--erry
--ers
--ert
--erta
--ery
--es
--esan
--ese
--esek
--esep
--eser
--esh
--esi
--esis
--ess
--est
--et
--eta
--etahui
--etak
--etake
--etan
--ete
--etek
--eter
--ethek
--ethik
--eti
--etic
--etik
--etna
--eto
--eton
--etri
--ets
--ett
--ette
--etti
--eu
--eum
--eur
--eus
--eux
--ev
--ex
--ey
--eya
--eyan
--ez
--f
--fa
--face
--fah
--fc
--fe
--feksi
--feld
--fen
--feng
--fer
--ff
--ffle
--fi
--fia
--fikasi
--fil
--fin
--final
--fit
--fly
--fo
--fon
--food
--ft
--fu
--ful
--g
--ga
--gaan
--gad
--gah
--gahan
--gahi
--gai
--gak
--gakake
--gake
--gaken
--gal
--gala
--galan
--gam
--gama
--gan
--gana
--ganan
--gane
--gang
--gani
--gap
--gar
--gara
--gari
--gat
--gata
--gate
--ge
--gean
--ged
--geg
--geh
--gek
--gel
--gem
--gen
--gep
--ger
--ges
--get
--geyan
--gg
--gga
--ggal
--gge
--ggep
--gger
--ggi
--ggih
--ggo
--ggu
--ggung
--gh
--ght
--gi
--gia
--gie
--gih
--gik
--gil
--ging
--gio
--gir
--gis
--git
--gk
--gka
--gkah
--gkak
--gkan
--gkang
--gke
--gkek
--gku
--gkut
--gla
--glang
--glung
--gna
--gne
--gni
--go
--goda
--gok
--gol
--gon
--goni
--gor
--gori
--goro
--gos
--got
--gr
--grad
--grafi
--graph
--graphic
--gre
--grok
--grong
--gs
--gsa
--gseng
--gsing
--gsung
--gu
--gua
--guh
--guhan
--guhi
--guk
--gul
--gula
--gun
--guna
--gung
--gur
--gus
--gut
--h
--ha
--hab
--hag
--hah
--hai
--hak
--hake
--hal
--ham
--han
--hane
--hani
--har
--harja
--harjo
--has
--hat
--he
--head
--hed
--heg
--heh
--heim
--hek
--hel
--heli
--hem
--hen
--heng
--her
--hes
--het
--hew
--hi
--hia
--hic
--hid
--hie
--hik
--hil
--hin
--hio
--hip
--hipun
--hir
--hira
--hiro
--hit
--hke
--hna
--ho
--hof
--hog
--hok
--hol
--holi
--hood
--hor
--hos
--hot
--hou
--hs
--ht
--hty
--hu
--hubung
--hug
--huk
--huki
--hul
--hun
--huni
--hup
--hur
--hus
--hut
--hwa
--hy
--hya
--i
--ia
--iaceae
--iae
--iah
--ial
--ian
--iana
--ias
--iat
--iate
--iau
--iaya
--ib
--ic
--ica
--ich
--ichi
--ici
--icia
--ick
--ico
--ics
--icus
--id
--ida
--idae
--ide
--idhi
--idhik
--ido
--ids
--ie
--ied
--iel
--ien
--iensis
--ier
--iers
--ies
--if
--ifah
--ifera
--ifikasi
--ig
--igi
--igo
--ih
--ihan
--ihat
--ihi
--ii
--ijn
--ik
--ika
--ikake
--ikan
--ikat
--ike
--iki
--iku
--il
--ilan
--ile
--ili
--ill
--ille
--illo
--ilo
--ils
--ilut
--im
--ima
--imi
--imo
--imus
--in
--ina
--inal
--inan
--inasi
--ine
--inem
--ing
--ingan
--inger
--ings
--ingsun
--ington
--ini
--ining
--ino
--inologi
--ins
--inson
--inus
--io
--ion
--ional
--ions
--ios
--ious
--ip
--ipu
--ipun
--iq
--ique
--ir
--ira
--iran
--ire
--iri
--irid
--irik
--irin
--iro
--iru
--is
--isa
--isasi
--ise
--ish
--isi
--ism
--isme
--isor
--ist
--ista
--ists
--it
--ita
--itake
--itan
--itas
--ite
--iti
--ities
--itis
--itra
--itusi
--ity
--itz
--ium
--iun
--ius
--iva
--ive
--ivo
--iwa
--ix
--iy
--iya
--iyah
--iyo
--iyum
--iyun
--iz
--ization
--ized
--izer
--j
--ja
--jaan
--jab
--jah
--jan
--jar
--jara
--jat
--jati
--jau
--jaya
--je
--jel
--jelajah
--jem
--jen
--jes
--ji
--jib
--jid
--jik
--jil
--jin
--jir
--jit
--jo
--jok
--jol
--jor
--jrah
--ju
--juk
--jur
--jut
--k
--ka
--kab
--kae
--kag
--kah
--kahan
--kai
--kak
--kake
--kaken
--kal
--kala
--kam
--kan
--kang
--kani
--kaning
--kap
--kar
--kara
--kas
--kat
--katan
--kaze
--ke
--kea
--keb
--ked
--keh
--kek
--kel
--kelan
--kem
--ken
--keng
--kep
--ker
--kerta
--kes
--ket
--keyan
--kh
--kha
--ki
--kia
--kid
--kie
--kih
--kik
--kil
--kin
--king
--kins
--kipun
--kir
--kis
--kit
--kke
--klak
--kle
--klek
--klik
--klok
--klong
--kluk
--kna
--kne
--ko
--koe
--kog
--kok
--kol
--kom
--kon
--kop
--kos
--kot
--kov
--kr
--krah
--krak
--krang
--krek
--kring
--krong
--krung
--ks
--ksa
--ksi
--ksin
--kt
--kta
--kti
--ktif
--ktika
--ku
--kuan
--kud
--kug
--kuh
--kuk
--kul
--kum
--kunde
--kung
--kuni
--kup
--kupi
--kur
--kus
--kut
--kuti
--kw
--kwa
--ky
--l
--la
--laceae
--lad
--lag
--lah
--lai
--lak
--lake
--lam
--lan
--land
--lang
--langan
--lar
--las
--lasan
--lasi
--lat
--lator
--law
--laya
--ld
--ldo
--le
--lebi
--lect
--led
--legi
--leh
--lek
--lela
--len
--ler
--les
--less
--let
--ley
--li
--lia
--lic
--lid
--lida
--lih
--lik
--lika
--likan
--lin
--line
--ling
--link
--lir
--lis
--lish
--list
--lit
--litas
--lity
--lka
--lke
--ll
--lla
--lle
--llen
--lles
--lli
--llo
--lls
--lly
--lman
--lo
--loco
--loe
--log
--logi
--logy
--loid
--loin
--lok
--lompok
--lon
--loo
--lor
--los
--lot
--lov
--ls
--lson
--lt
--lu
--luh
--luk
--lum
--lun
--lur
--lus
--lut
--ly
--lyn
--lz
--m
--ma
--mad
--mah
--mal
--man
--mana
--mangu
--map
--mar
--mas
--mat
--maya
--mba
--mbang
--mbar
--mbat
--mbel
--mber
--mbi
--mbil
--mbit
--mbo
--mbu
--mbuk
--mbul
--mbung
--mbus
--mbut
--me
--mek
--mel
--men
--ment
--ments
--mer
--mes
--mi
--mia
--mic
--mie
--mik
--min
--mis
--mma
--mo
--moe
--mon
--mos
--mot
--mp
--mpa
--mpak
--mpal
--mpang
--mpar
--mpe
--mpel
--mper
--mpet
--mpi
--mpil
--mpit
--mpo
--mps
--mpur
--ms
--msi
--mson
--mu
--muk
--muka
--mulya
--mulyo
--mum
--mun
--mur
--murti
--mus
--mut
--my
--myeon
--myo
--n
--na
--naceae
--nae
--nah
--nai
--nais
--nak
--nakake
--nakan
--nake
--naken
--nal
--nam
--nan
--nana
--nane
--nar
--nard
--nas
--nat
--nau
--nberg
--nca
--ncang
--nce
--nces
--nci
--ncut
--ncy
--nd
--nda
--ndah
--ndal
--ndar
--nde
--ndel
--nder
--ndha
--ndhang
--ndhing
--ndhut
--ndi
--ndo
--ndra
--ndu
--ndung
--ndur
--ndy
--ne
--nea
--negoro
--neh
--nel
--nell
--nem
--nen
--neni
--ner
--ners
--nes
--nese
--nesia
--nesie
--ness
--net
--neur
--news
--ney
--ng
--nga
--ngah
--ngake
--ngaken
--ngan
--nge
--ngen
--nget
--ngga
--nggana
--nggi
--nggil
--nggu
--ngi
--ngin
--nging
--ngipun
--ngka
--ngke
--ngku
--ngo
--ngrat
--ngs
--ngsa
--ngu
--ngun
--nha
--ni
--nia
--nian
--nic
--nica
--nicus
--nie
--nik
--ning
--ningsih
--ningsun
--nipun
--nira
--nis
--nita
--nium
--nja
--njak
--njang
--nji
--nju
--njung
--nk
--nka
--nke
--nn
--nna
--nne
--no
--nologies
--nom
--nor
--not
--nova
--now
--ns
--nse
--nsi
--nsis
--nstein
--nt
--nta
--ntah
--ntak
--ntal
--ntan
--ntang
--ntara
--ntas
--nte
--ntel
--nten
--nti
--ntin
--ntir
--nto
--nton
--nts
--ntu
--ntun
--ntut
--nty
--nu
--nuk
--num
--nung
--nus
--ny
--nya
--nyalan
--nye
--nz
--nza
--o
--oa
--ob
--oc
--oca
--ocarpus
--och
--ock
--oco
--ocok
--od
--oda
--odha
--odi
--odon
--oe
--oeh
--oek
--oel
--oen
--oeng
--oer
--oes
--oet
--of
--off
--og
--oga
--ogakake
--oge
--ogen
--ogi
--ogis
--ogok
--ografi
--ogy
--oh
--ohan
--ohi
--oi
--oid
--oir
--ois
--oja
--ojo
--ok
--oka
--okake
--okan
--oke
--oken
--oki
--okke
--oko
--okok
--oku
--ol
--ola
--olak
--olan
--ole
--oli
--olk
--olo
--ologi
--ology
--om
--oma
--ombo
--ome
--ometer
--omi
--omo
--on
--ona
--onal
--onan
--one
--oner
--ong
--ongan
--ongi
--oni
--onne
--ono
--ons
--ont
--onto
--oo
--ood
--oon
--op
--ope
--opo
--ops
--opus
--or
--ora
--orake
--orasi
--orbanan
--orca
--ord
--ori
--ork
--oro
--ors
--ort
--ory
--os
--osa
--osan
--ose
--osi
--osis
--oso
--ot
--ota
--otan
--ote
--oth
--otho
--oti
--otik
--otis
--ou
--oum
--ous
--out
--ov
--ova
--ovic
--ovich
--ovo
--ow
--owo
--ows
--ox
--oy
--oyo
--oyok
--oz
--p
--pa
--pada
--pah
--pahi
--pak
--pake
--pal
--pan
--parwa
--pat
--patan
--pati
--pe
--ped
--pedia
--pel
--pen
--per
--pes
--pet
--ph
--phe
--phia
--phic
--phie
--phies
--phy
--pi
--pid
--pih
--pik
--pinang
--pio
--pis
--pit
--pke
--pl
--ple
--plek
--ples
--plik
--plok
--pluk
--ply
--po
--pog
--poh
--pok
--pon
--por
--port
--pos
--post
--ppa
--ps
--pt
--pta
--pto
--pu
--puh
--puk
--pul
--pun
--pungan
--pur
--pura
--puro
--pus
--putra
--py
--pyuh
--pyuk
--q
--qi
--que
--r
--ra
--racaya
--rad
--raf
--rafi
--rah
--rahan
--rai
--raja
--rak
--rake
--raken
--ral
--ram
--ran
--rane
--rapan
--ras
--rat
--rata
--raya
--rayung
--raz
--rd
--rdi
--rds
--re
--rea
--reb
--red
--ree
--reen
--reg
--reh
--reja
--rejo
--rek
--ren
--reng
--rengga
--rep
--rer
--rera
--res
--ress
--ret
--rez
--rf
--rg
--ri
--ria
--rib
--ric
--rid
--rida
--ridge
--rie
--rier
--riere
--ries
--rig
--rih
--rik
--rin
--rine
--rip
--ris
--rit
--rium
--rix
--riya
--rja
--rk
--rkan
--rke
--rki
--rley
--rly
--rm
--rma
--rmal
--rman
--rn
--rna
--rno
--ro
--rod
--rog
--roh
--rok
--rol
--roli
--ron
--rone
--roni
--rop
--ror
--ros
--rot
--rpa
--rr
--rra
--rre
--rro
--rry
--rs
--rsa
--rse
--rsi
--rso
--rst
--rt
--rta
--rte
--rtha
--rti
--rto
--rty
--ru
--rud
--ruddin
--rug
--ruk
--rul
--rum
--run
--rung
--rup
--rus
--rut
--rutu
--rwa
--ry
--rya
--rz
--s
--sa
--sab
--sah
--sai
--sal
--san
--sana
--sane
--sang
--sar
--sari
--sasi
--sat
--sburg
--sch
--sche
--sco
--se
--sea
--sed
--seg
--seh
--sek
--sekake
--sel
--sem
--sen
--ser
--ses
--set
--seti
--sey
--sfer
--sh
--sha
--shi
--ship
--shire
--sho
--si
--sia
--sial
--sida
--sidi
--sie
--sier
--sif
--sih
--sik
--sikake
--sikan
--sil
--silin
--sin
--sine
--sion
--sir
--sis
--sit
--sity
--siyun
--sk
--ske
--ski
--sko
--sky
--sm
--sma
--sme
--smi
--sna
--sno
--so
--sobo
--son
--sono
--sor
--sot
--sp
--sra
--sraya
--sri
--ss
--ssa
--sse
--ssen
--sses
--sson
--ssy
--st
--sta
--stan
--ste
--sten
--ster
--stha
--sthan
--sthi
--sti
--stic
--stik
--stis
--sto
--ston
--stone
--stra
--sts
--stuti
--sty
--su
--suh
--suk
--sul
--suli
--sum
--sun
--sur
--sus
--sut
--sy
--sya
--syah
--sz
--t
--ta
--taan
--tab
--tad
--tah
--tai
--tak
--takan
--take
--tal
--tala
--tama
--tan
--tane
--tar
--tara
--tas
--tase
--tasi
--tat
--tatif
--taya
--tch
--te
--ted
--teg
--tein
--tek
--tel
--tem
--ten
--teni
--tep
--tepke
--ter
--teral
--tes
--tet
--teur
--th
--tha
--thah
--thi
--thon
--ti
--tia
--tic
--tica
--ticus
--tie
--tier
--ties
--tif
--tih
--tik
--til
--tin
--tine
--ting
--tion
--tions
--tip
--tipe
--tir
--tira
--tis
--tit
--tius
--tive
--tke
--tno
--to
--tog
--ton
--tor
--tory
--tos
--tosa
--tou
--towi
--town
--tra
--tri
--tro
--tron
--tros
--ts
--tsu
--tt
--tta
--tte
--tti
--tto
--tu
--tul
--tum
--tun
--tup
--tur
--turi
--tus
--tv
--ty
--tya
--tz
--u
--ua
--uak
--ual
--uan
--uapan
--uari
--uasi
--uat
--ub
--ubuk
--ubung
--uced
--uci
--ud
--uda
--uddin
--udha
--udhah
--udhuk
--udi
--udin
--udo
--uduh
--ue
--uel
--uen
--ues
--uet
--ug
--uga
--ugh
--ugu
--uh
--uhan
--uhi
--uhu
--uhun
--uhung
--ui
--uit
--uja
--uju
--ujuk
--ujukan
--uk
--uka
--ukake
--ukan
--ukat
--uke
--uki
--ukti
--uku
--ukung
--ul
--ula
--ulan
--ule
--uli
--ullah
--ulo
--ulon
--ult
--ulu
--ulyo
--um
--umba
--ume
--umpul
--un
--una
--unan
--une
--ung
--ungake
--ungan
--unggung
--ungi
--ungkem
--ungkus
--ungsi
--uni
--unu
--up
--upake
--upan
--upen
--upu
--ur
--ura
--uran
--ure
--ures
--urg
--uri
--uro
--uron
--urs
--uru
--uruh
--uruk
--urus
--us
--usi
--usta
--ut
--utan
--ute
--uten
--uti
--utih
--utihan
--uts
--utu
--utuk
--utus
--uw
--uwa
--uwe
--uwek
--uweni
--uwun
--ux
--uyung
--uz
--v
--va
--van
--ve
--ved
--vel
--ven
--ver
--ves
[...]
