!
"
#
##0
##1
##10
##11
##12
##13
##14
##15
##16
##17
##18
##19
##2
##20
##21
##22
##23
##24
##25
##26
##27
##28
##29
##3
##30
##31
##32
##33
##34
##35
##36
##37
##38
##39
##4
##40
##41
##42
##43
##44
##45
##46
##47
##48
##49
##5
##50
##51
##52
##53
##54
##55
##56
##57
##58
##59
##6
##60
##61
##62
##63
##64
##65
##66
##67
##68
##69
##7
##70
##71
##72
##73
##74
##75
##76
##77
##78
##79
##8
##80
##81
##82
##83
##84
##85
##86
##87
##88
##89
##9
##90
##91
##92
##93
##94
##95
##96
##97
##98
##99
$
%
&
'
(
)
*
+
,
-
.
/
0
00
000
001
002
003
004
006
007
008
009
01
010
011
012
013
017
018
02
020
022
023
024
025
026
03
030
031
033
04
040
041
047
05
050
06
060
07
070
072
08
088
09
090
091
1
10
100
1000
1001
101
1010
102
1020
1024
103
104
105
1050
106
107
108
109
11
110
1100
111
112
1122
113
1130
1135
114
115
116
117
118
119
1194
12
120
1200
121
122
1222
1227
123
124
1248
125
1250
126
1266
127
128
1280
129
1292
1293
13
130
1300
131
132
1320
1328
133
134
135
1350
1351
136
1365
137
138
1389
139
1392
14
140
1400
141
142
143
144
145
1450
1453
146
147
148
149
1492
15
150
1500
1506
1509
151
1511
1513
1515
152
1520
1521
1522
1524
1525
1526
1527
1528
153
1530
1532
1533
1534
1537
1539
154
1540
1546
1547
1549
155
1550
1552
156
1560
1564
1565
1567
1568
157
1570
1572
1575
158
1580
1582
1585
159
1590
1592
1593
1595
1596
1597
1598
1599
16
160
1600
1601
1602
1603
1604
1605
1606
1607
1608
1609
161
1610
1611
1613
1616
1618
1619
162
1620
1621
1622
1623
1626
1627
1629
163
1630
1632
1635
1636
1638
1639
164
1640
1642
1643
1644
1645
1646
1647
1648
165
1650
1651
1653
1655
166
1661
1662
1666
1667
1668
1669
167
1670
1671
1672
1674
1675
1676
1677
1678
168
1680
1682
1683
1684
1687
1688
1689
169
1690
1691
1693
1694
1695
1699
17
170
1700
1701
1703
1704
1706
1707
1709
171
1710
1711
1712
1713
1714
1715
1716
1717
1719
172
1720
1722
1723
1724
1726
1727
173
1730
1732
1733
1735
1736
1738
174
1740
1741
1742
1743
1744
1745
1746
1747
1748
1749
175
1750
1751
1752
1753
1754
1755
1756
1757
1758
1759
176
1760
1761
1762
1763
1764
1766
1767
1768
1769
177
1770
1771
1772
1773
1774
1775
1776
1777
1778
1779
178
1780
1781
1782
1783
1784
1785
1786
1787
1788
1789
179
1790
1791
1792
1793
1794
1795
1796
1797
1798
1799
18
180
1800
1801
1802
1803
1804
1805
1806
1807
1808
1809
181
1810
1811
1812
1813
1814
1815
1816
1817
1818
1819
182
1820
1821
1822
1823
1824
1825
1826
1827
1828
1829
183
1830
1831
1832
1833
1834
1835
1836
1837
1838
1839
184
1840
1841
1842
1843
1844
1845
1846
1847
1848
1849
185
1850
1851
1852
1853
1854
1855
1856
1857
1858
1859
186
1860
1861
1862
1863
1864
1865
1866
1867
1868
1869
187
1870
1871
1872
1873
1874
1875
1876
1877
1878
1879
188
1880
1881
1882
1883
1884
1885
1886
1887
1888
1889
189
1890
1891
1892
1893
1894
1895
1896
1897
1898
1899
19
190
1900
1901
1902
1903
1904
1905
1906
1907
1908
1909
191
1910
1911
1912
1913
1914
1915
1916
1917
1918
1919
192
1920
1921
1922
1923
1924
1925
1926
1927
1928
1929
193
1930
1931
1932
1933
1934
1935
1936
1937
1938
1939
194
1940
1941
1942
1943
1944
1945
1946
1947
1948
1949
195
1950
1951
1952
1953
1954
1955
1956
1957
1958
1959
196
1960
1961
1962
1963
1964
1965
1966
1967
1968
1969
197
1970
1971
1972
1973
1974
1975
1976
1977
1978
1979
198
1980
1981
1982
1983
1984
1985
1986
1987
1988
1989
199
1990
1991
1992
1993
1994
1995
1996
1997
1998
1999
2
20
200
2000
2001
2002
2003
2004
2005
2006
2007
2008
2009
201
2010
2011
2012
2013
2014
2015
2016
2017
2018
2019
202
2020
2021
2022
2023
2024
2025
203
2030
204
205
2052
206
207
208
209
21
210
211
212
213
214
215
216
217
218
219
22
220
221
222
223
224
225
226
227
228
229
23
230
231
232
233
234
235
236
237
238
239
24
240
241
242
243
244
245
246
247
248
249
25
250
2500
251
252
253
254
255
256
257
258
259
26
260
261
262
263
264
265
266
267
268
269
27
270
271
272
273
274
275
276
277
278
279
28
280
281
282
283
284
285
286
287
288
289
29
290
291
292
293
294
295
296
297
298
299
3
30
300
3000
301
302
303
304
305
306
307
308
309
31
310
311
312
313
314
315
316
3166
317
318
319
32
320
321
322
323
324
325
326
327
328
329
33
330
331
332
333
334
335
336
337
338
339
34
340
341
342
343
344
345
346
347
348
349
35
350
3500
351
352
353
354
355
356
357
358
359
36
360
361
362
363
364
365
366
367
368
369
37
370
371
372
373
374
375
376
377
378
379
38
380
381
382
383
384
385
386
387
388
389
39
390
391
392
393
394
395
396
397
398
399
4
40
400
4000
401
402
403
404
405
406
407
408
409
4096
41
410
411
412
413
414
415
416
417
418
419
42
420
421
422
423
424
425
426
427
428
429
43
430
431
432
433
435
436
437
438
439
44
440
441
442
443
444
445
446
447
448
449
45
450
451
452
453
454
455
456
457
458
46
460
461
462
463
465
467
468
469
47
470
471
472
473
474
475
476
477
479
48
480
481
482
483
484
485
486
487
488
489
49
490
491
492
493
495
496
497
498
499
5
50
500
5000
501
502
503
504
505
506
507
508
51
510
511
512
513
514
515
516
517
519
52
520
521
522
523
524
525
527
528
529
53
530
531
532
533
534
535
536
537
538
539
54
540
541
542
543
545
546
547
548
549
55
550
551
552
553
554
555
556
557
56
560
561
562
563
565
566
569
57
570
571
574
576
579
58
580
581
582
583
584
585
586
588
59
590
595
597
599
6
60
600
6000
601
602
603
604
605
606
607
608
609
61
610
611
612
613
614
615
617
618
619
62
620
621
622
623
625
626
627
628
629
63
630
631
632
634
635
636
638
639
64
640
642
644
645
648
65
650
652
654
655
657
658
66
660
661
664
665
666
668
669
67
670
671
672
673
674
675
676
677
678
679
68
680
683
684
685
686
687
688
689
69
690
691
694
695
7
70
700
7000
701
702
703
704
705
707
708
709
71
710
711
712
713
715
717
72
720
722
723
725
726
727
728
729
73
730
731
732
734
735
737
739
74
740
742
744
745
746
747
749
75
750
751
752
754
756
757
758
76
760
761
765
767
768
77
770
771
772
773
774
775
776
777
778
78
780
782
784
785
786
787
788
789
79
790
792
794
795
796
797
798
799
8
80
800
8000
801
802
804
805
807
808
809
81
810
812
814
815
816
817
82
820
821
8212
824
825
827
828
83
830
831
836
839
84
840
842
843
844
846
848
85
850
852
854
855
856
859
86
860
864
867
869
87
870
872
873
875
88
880
884
885
888
89
890
891
896
897
898
9
90
900
901
902
903
904
905
907
91
910
911
912
913
914
915
915678
918
919
92
920
922
923
924
925
928
929
93
930
931
935
936
937
94
940
942
944
945
946
947
95
950
951
952
953
954
96
960
962
964
965
968
969
97
970
971
973
975
976
978
979
98
980
981
982
983
984
985
986
987
988
989
99
990
991
992
994
995
996
997
998
999
:
;
<
=
>
?
@
\
^
_
`
a
aa
aaa
aac
aachen
aad
aam
aan
aang
aaron
ab
aba
ababa
abad
abadi
abang
abangan
abasa
abbad
abbas
abbasiyah
abbe
abbey
abc
abd
abda
abdi
abdine
abdoel
abdomen
abdul
abdullah
abdurrahman
abe
abel
abendanon
aberdeen
abg
abi
abiansemal
abidin
abidjan
abimanyu
abiotik
abiyasa
abjad
abkhazia
able
abnormal
aboh
abon
aborigin
aboriginal
aborsi
abot
abote
about
above
abraham
abrams
abri
abrit
abruzzo
abs
abse
absen
absolut
abstain
abstract
abstrak
abu
abubakar
abugida
abuh
abuja
abul
abunawas
abuntut
ac
acade
academic
academy
acak
acar
acara
acarane
access
accessed
according
account
accounts
accra
accrington
ace
aceh
acep
acha
achievement
achmad
aci
acid
acin
aconcagua
acropolis
across
act
acting
action
active
activities
activity
actor
actors
actress
acuan
ad
ada
adab
adachi
adalah
adam
adame
adamel
adams
adan
adanya
adaptasi
adapun
adas
adat
adate
adatipun
adb
add
added
addin
adding
addis
addition
additional
address
ade
adedasar
adeg
adegan
adege
adelaide
adem
aden
adha
adhaptasi
adhe
adhedasar
adhedhasar
adhem
adhep
adhepan
adhi
adhik
adhine
adhon
adhonan
adi
adicara
adidas
adige
adik
adike
adikoesoemo
adil
adimulya
adinda
adine
adinegoro
adipala
adiparwa
adipati
aditif
aditya
adityawarman
adiwerna
adiwira
adja
adjie
adler
adly
admetos
administrasi
administratif
administration
administrative
administrator
admiral
adnan
ado
adobe
adobo
adoh
adohe
adol
adolf
adolfo
adolphe
adon
adonan
adonara
adrian
adriana
adriano
adrianus
adriatik
adrien
adu
aduk
adult
adus
advance
advanced
advent
adventure
adventures
advokasi
ae
aedes
aegea
aek
aer
aerial
aero
aerosol
af
afar
afc
aff
affair
affairs
affandi
affect
affected
affinity
afganistan
afghan
afghanistan
afi
afiliasi
afr
africa
african
afrika
afrikaans
afro
after
ag
aga
again
against
agam
agama
agamane
agami
agaminipun
agar
agatha
agats
agawe
agder
age
aged
ageman
agen
agency
agenda
ageng
agengipun
agensi
agent
ager
ages
aggregate
aglomerasi
agnes
agni
ago
agoeng
agra
agre
agreement
agregat
agresi
agresif
agribisnis
agricultural
agriculture
agrigento
agronomi
agrowisata
agu
aguilar
aguirre
agul
agum
aguna
agung
agunge
agus
agustin
agustinus
agustus
ah
ahad
ahayu
ahead
ahli
ahlul
ahmad
ahmed
ahn
ai
aias
aib
aichi
aid
aida
aids
aim
ain
ainol
ainu
ainun
air
airasia
airbus
aircraft
aires
airlangga
airline
airlines
airport
airways
ais
aise
aish
aisyah
aisyiyah
aitakatta
aix
aj
aja
ajag
ajaib
ajak
ajang
ajar
ajaran
ajarane
ajax
aje
ajeg
ajejuluk
ajeneng
ajeng
aji
ajibarang
ajine
ajisaka
ajrih
ajur
ak
aka
akad
akademi
akademik
akademis
akadhemi
akadhemik
akadhemisi
akal
akaliyan
akan
akar
akarya
akasa
akasaka
akashi
akb
akbar
ake
akechi
akeh
akehe
aken
akherat
akhir
akhirat
akhire
akhirnya
akhlah
akhlak
aki
akibat
akibate
akibatipun
akimoto
aking
akir
akira
akire
akita
akkadia
akoe
akomodasi
akr
akrab
akreditasi
akronim
aks
aksa
aksara
aksarane
akse
aksen
akses
aksesoris
aksi
akson
akti
aktif
aktin
akting
aktinge
aktip
aktivis
aktivitas
aktor
aktris
aktual
aktuator
aku
akuarium
akuatik
akuisisi
akulturasi
akumulasi
akun
akuntan
akuntansi
akurat
akustik
akut
akwari
akweh
al
ala
alabama
alah
alai
alaihi
alain
alalak
alam
alamat
alamatbale
alame
alami
alamiah
alamos
alan
alane
alang
alangan
alangi
alango
alap
alas
alasan
alaska
alat
alatas
alawas
alba
albani
albania
albanian
albany
albar
albatros
albert
alberta
alberto
albertus
albino
albiol
albion
albrecht
albright
album
albume
albumin
albumipun
albums
albuquerque
alcatraz
alcohol
aldebaran
aldi
aldo
ale
alec
alegre
alejandro
aleksander
aleksandria
alel
alengka
aleppo
aleran
alergi
alesan
alesane
alessandria
alessandro
alex
alexander
alexandra
alexandre
alexandria
alexis
alfa
alfabe
alfabet
alfanumerik
alfonso
alfred
alfredo
alga
alge
algeria
algoritma
ali
alian
aliansi
alias
alice
alicia
alien
alif
align
alignbars
alignment
alih
alihaksara
alihan
alihbasa
alik
alim
aling
alip
aliran
alirane
alis
alisjahbana
alison
alit
alitipun
alive
aliyah
aljabar
aljazair
aljir
alkali
alkaloid
alkana
alkimiya
alkitab
alkmene
alkohol
all
alla
allah
allaha
allahe
allahi
allahu
allan
alle
allegri
allen
alley
alliance
allison
allium
allow
allows
alm
alma
almarhum
almaty
almond
almost
almunge
aln
alocasia
alois
alokasi
alon
alone
along
alonso
aloo
alor
alotrop
aloysius
alpen
alpes
alpha
alphabet
alphonse
alpine
alpinia
alps
alpukat
already
als
alsace
also
alt
alta
altai
altar
alter
alternatif
alternative
alto
alu
alue
aluh
alum
aluminium
alumni
alumnus
alun
alur
alus
alva
alves
alvin
always
alwi
alyssa
am
ama
amal
amalia
aman
amanah
amanat
amanda
amangkurat
amangsuli
amanis
amanojaku
amar
amara
amarga
amargi
amarta
amas
amat
amaterasu
amatir
amazing
amazon
amazonas
amba
ambal
ambalan
ambane
ambang
ambanipun
ambarawa
ambassador
ambe
ambegan
ambek
amber
ambigu
ambika
ambisi
ambisius
ambles
amblin
ambon
ambox
ambrosius
ambruk
ambu
ambune
ambunten
amd
ame
ameh
amelia
amerga
amergi
america
american
americana
americans
americas
amerika
amerikah
amerta
ametung
amfibi
ami
amien
amiens
amik
amila
amin
amina
aminah
aming
amino
amir
amis
amman
ammar
amoeba
among
amonia
amonium
amor
amos
amot
amour
ampar
ampas
ampat
ampe
ampel
ampera
ampeyan
amphiprion
ampil
ampilan
amplop
ampuh
ampun
amr
amri
amrih
ams
amsterdam
amu
amung
amunisi
amuntai
amy
an
ana
anaa
anade
anafilaksis
anak
anakan
anake
anakipun
anakku
anakmu
anaksuku
anal
analis
analisa
analisis
analog
analogi
analysis
anama
anami
anan
ananda
anane
anang
ananging
anangis
ananing
ananta
anas
anasir
anastasia
anastasius
anatole
anatolia
anatomi
anatomis
anatomy
ancak
ancaman
ancang
ancas
ancase
ancasing
ancasipun
ancelotti
anceman
ancer
anchor
anchorage
ancient
ancol
ancona
and
anda
andadosaken
andalan
andalas
andaliman
andalus
andalusia
andaman
ande
anders
anderson
andes
andha
andhahan
andhap
andharan
andharaning
andhe
andhedhasar
andheng
andhika
andhra
andhuk
andi
andika
andin
andini
andong
andorra
andra
andrade
andre
andrea
andreas
andrei
andrew
andrews
androgen
android
andromeda
andrzej
andum
andy
ane
aneh
aneka
anem
anemia
aneng
anfield
ang
anga
angabe
angan
angandika
ange
angel
angela
angeles
angelina
angelo
angelou
angels
angen
angene
anget
angga
anggadahi
anggadhahi
anggana
anggara
anggaran
anggawa
anggawe
angge
anggegana
anggen
anggenipun
anggep
anggepan
angger
anggere
anggit
anggitan
anggitane
anggitanipun
anggo
anggon
anggone
anggonira
anggonku
anggonmu
anggoro
anggota
anggotane
anggotanipun
anggre
anggrek
anggun
anggur
angguta
anghing
angier
angin
anging
angiospermae
angka
angkah
angkara
angkasa
angkat
angkatan
angker
angklung
angkor
angkringan
angkudan
angkut
angkutan
angle
anglikan
angling
anglo
angola
angon
angre
angrok
angsa
angsal
angsang
angslup
angucap
angus
anhui
ani
ania
anies
animal
animals
animasi
animated
animation
animator
anime
animisme
aning
aningali
anion
anis
anise
anissa
anita
anjani
anjar
anjasmara
anjing
anjir
anjog
anju
anjungan
ankara
ann
anna
annapurna
annatto
anne
anneahira
anneke
annelida
annie
annisa
anniversary
annotated
announced
announcement
annual
annuario
annum
anoa
anom
anoman
anon
anonim
anorganik
another
ans
anshe
answer
answers
ant
anta
antagonis
antalya
antananarivo
antang
antar
antara
antarane
antaranews
antaraning
antareja
antariksa
antariksawan
antariksawati
antarklub
antarkomune
antarktika
antarkutha
antarlintang
antarmuka
antartika
antasari
antawis
antawising
antawisipun
ante
antena
anteng
anterior
anthem
anthony
anthropological
anthropologist
anthropology
anthurium
anti
antibiotik
antibodi
antigen
antigua
antik
antillen
antilles
anting
antiokhia
antioki
antioksidan
antise
antivirus
antlers
antlia
anto
antoine
antoinette
antologi
anton
antoni
antonio
antonius
antony
antropolog
antropologi
antropologis
antuk
antv
antwerp
antya
anu
anugerah
anugrah
anuju
anumerta
anunten
anus
anusapati
anuswara
anwar
any
anya
anyak
anyaman
anyar
anyaran
anyare
anye
anyep
anything
ao
aomori
aorta
aos
aosta
aoyama
ap
apa
apabila
apache
apade
apadene
apakah
apal
apamane
apamaneh
apan
aparat
aparatur
aparteme
apartemen
apartheid
ape
apec
apel
apem
apendiks
apepoetra
apes
apg
api
apik
apikan
apike
apin
apit
aplikasi
apo
apokat
apollo
apologies
apostle
apostolic
apostolik
app
appa
appearance
appendix
apple
appleton
application
applications
applied
approach
apr
apre
apresiasi
apricot
april
apsis
apu
apulia
apus
aq
aqil
aqsa
aqua
aquanus
aquarium
aquarius
aquila
aquinas
aquino
aquitaine
ar
ara
arab
arabia
arabic
arabika
araceae
arafah
arafat
aragon
arah
arahan
arai
araipun
arak
arakan
aram
aran
arane
araneae
arang
araning
aransemen
araras
arare
aras
arat
arbitrase
arbok
arc
arca
arch
archaeological
archaeology
archdiocese
arche
archidioecesis
archipelago
architecture
archive
archived
archives
arctic
ardana
ardhana
ardi
ardina
are
area
areal
areas
arema
aren
arena
areng
arep
arepe
arequipa
ares
arezzo
arfak
arga
arge
argentina
argentine
argo
argume
argumentasi
argyle
ari
aria
arie
arief
ariel
aries
arif
arifin
arik
arimbi
aring
ario
aris
arisan
aristoteles
arit
aritmatika
ariwarta
ariwarti
arizona
arja
arjasa
arjasari
arjawinangun
arjuna
arjunawiwa
ark
arka
arkansas
arke
arkeolog
arkeologi
arktik
arles
arlington
arm
armada
armagh
armand
armando
arme
armeni
armenia
armenian
armijn
arms
armstrong
army
arn
arnada
arnhem
arnold
arok
aroma
aromatik
aron
arondisemen
arosbaya
around
arps
array
arrow
arroz
ars
arsa
arse
arsenal
arsip
arsite
arsitek
arsitektur
arsyad
art
arta
arte
artefak
artemis
arteri
artha
arthritis
arthropoda
arthur
arti
artichoke
article
articles
artikata
artikel
artikele
artileri
artine
artinya
artis
artist
artistik
artists
artocarpus
artos
artosipun
arts
arturo
aru
aruba
arubah
arum
arun
arung
arupa
arupi
arus
arut
arwah
arwana
arya
aryo
as
asa
asad
asado
asahan
asahi
asal
asale
asalipun
asam
asan
asap
asapon
asar
asas
asasi
asat
ascent
ascoli
ase
asean
asebab
aseksual
asem
asep
asesirah
aset
asetat
ash
asha
ashabul
asher
ashkenazi
ashley
asi
asia
asiah
asian
asifat
asih
asil
asile
asiling
asilipun
asimilasi
asimov
asin
asinan
asing
asipat
asiste
asisten
asiswa
ask
asli
asline
aslinipun
asma
asmane
asmani
asmanipun
asmara
asmarani
asmat
aso
asoka
asor
asosiasi
asp
aspal
asparagus
aspe
aspects
aspek
aspx
asrama
asrep
asri
asring
asringe
asrul
assam
assange
assembly
assessment
asset
assist
associated
associates
association
asta
astaman
astambul
astamiwa
astana
astane
astanipun
aste
asteraceae
asteroid
asti
astina
aston
astra
astragara
astrid
astro
astrofisika
astrologi
astrology
astronaut
astronom
astronomi
astronomical
astronomy
astronot
asturias
astuti
asu
asuhan
asumsi
asuncio
asune
asupan
asura
asuransi
aswan
aswara
aswatama
asy
asyariyyah
asyur
at
ata
atalanta
atambua
atap
atas
atase
atatu
atau
atawa
ate
ateges
atena
ateng
ater
ath
athena
athens
athi
athletic
athletics
ati
atif
atijagati
atikoe
atiku
atimu
atine
atis
atlanta
atlantic
atlantik
atlantis
atlas
atle
atlet
atletik
atlit
atm
atma
atmel
atmosfe
atmosfer
atol
atoll
atom
atomic
aton
atos
atp
atr
atraksi
atri
atribusi
atribut
atsiri
attack
atur
aturan
ature
aturi
aturipun
atus
atusan
au
auckland
audhisi
audio
audisi
auditorium
audrey
auf
aug
augsburg
august
augusta
auguste
augustin
augustine
augustinus
augusto
augustus
auksilier
aula
aulia
aun
aur
aura
aureus
auriga
aurora
aus
auschwitz
aush
austin
australasia
australe
australia
australian
australis
austria
austrian
austro
austrone
austronesia
authentic
author
authority
authors
autis
auto
autobiography
autobots
autofocus
autoklaf
automatic
automatically
autotrof
autumn
aux
auxerre
av
ava
available
avant
avatar
ave
avec
avellino
avenue
average
avertebrata
avery
avg
avian
avianca
avianto
aviation
avignon
aviv
avoid
avr
avril
aw
awa
awak
awake
awakipun
awakku
awakmu
awal
awalan
awale
awalipun
awam
awan
awang
awangun
award
awards
awarna
awarni
awas
awasta
awatara
away
awayan
awe
aweh
awerna
awerni
awet
awi
awis
awit
awitde
awoehe
awoh
awon
awor
awrat
awratipun
awu
awuh
awujud
ax
axis
ay
aya
ayah
ayahan
ayala
ayam
ayana
ayang
ayat
aye
ayem
ayer
ayo
ayodhya
ayu
ayub
ayumi
ayun
ayunda
ayushita
az
azab
azerbaijan
azhar
azhari
azis
aziz
aznavour
azores
aztec
azur
azzam
b
ba
bab
baba
babad
babadan
babagan
babak
babakan
babar
babaran
babat
babe
babel
babi
babilon
babilonia
babirik
babon
babu
baby
bac
baca
bacaan
bacan
bacem
bach
bachchan
bachelor
bachtiar
back
backbone
backeb
background
backgroundcolors
backing
bacon
bad
bada
badai
badan
badane
badanipun
badar
badawi
bade
baden
badhe
badiatul
badminton
badug
badung
badut
baduy
bae
baek
baffin
bafta
bag
bagaimana
bagan
bagareja
bagas
bagasi
bagawan
bagdad
bage
bagean
bagel
bagele
bageyan
baghdad
bagi
bagian
bagiyan
bagong
bagoong
baguette
bagus
bah
baha
bahagia
bahama
bahan
bahane
bahanipun
bahari
bahasa
bahaya
bahia
bahkan
bahrain
bahru
bahu
bahwa
bai
baik
bailey
baim
bait
baita
baitul
baja
bajaj
bajak
bajanegara
bajang
bajing
bajo
bajra
baju
bajur
bak
baka
bakal
bakalan
bakale
bakar
bakaran
bakat
bakate
bakatipun
bakau
baker
baki
baking
bakmi
bako
bakpao
bakpia
bakrie
bakso
bakte
bakteri
bakti
baku
bakul
bakumpai
bakune
bakung
bakwan
bal
bala
balada
baladewa
balado
balai
balan
balane
balangan
balanipun
balap
balapan
balapulang
balas
baldwin
bale
balen
balene
bali
balik
balikpapan
baline
baling
balistik
balitung
balkan
balkans
ball
ballon
balok
balon
balongpanggang
baltik
baltimore
balung
balungan
balunge
baluran
bamako
bambang
bambi
bambu
ban
bana
banana
banaran
banarawa
banawa
bancak
banchan
band
banda
bandai
bandar
bandara
bandawasa
bandeng
bandera
bandha
bandhane
bandhar
bandhing
bandhongan
bandhung
bandhungan
banding
bandjoer
bandung
bandungan
bang
bangalore
bange
banget
bangga
banggai
banggalade
bangil
bangilan
bangka
bangkai
bangkalan
bangke
bangkit
bangkok
bangkong
bangkrut
bangku
bangladesh
bangli
bango
bangsa
bangsal
bangsane
bangsaning
bangsawan
bangsri
bangui
bangun
bangunan
bangunkarta
banguntapan
banh
bani
banis
banja
banjar
banjaran
banjarangkan
banjaransari
banjarbaru
banjareja
banjarharja
banjarmangu
banjarmasin
banjarnegara
banjarsari
banjir
banjoe
banjur
banjure
bank
banks
banner
bansari
bantah
bantahan
bantal
bantalan
bantarbolang
bantarkawung
bante
banten
banteng
banter
bantere
banthe
bantu
bantuan
bantul
banua
banyak
banyu
banyuasin
banyuates
banyubiru
banyudana
banyumanik
banyumas
banyumasan
banyune
banyuputih
banyuurip
banyuwangi
bao
bap
bapa
bapak
bapake
bapakipun
bapakku
bapakmu
bapakne
bapane
bapang
bapanipun
bapmi
bappeda
bappenas
baptis
baptisan
baptist
baptiste
baqarah
bar
bara
barabai
barabudhur
barack
barak
barakuda
barang
barange
barat
barata
baratayuda
barbados
barbara
barbecue
barbekyu
barbera
barbie
barbuda
barcelona
bardata
bare
barel
bareng
barengan
bari
baris
barisan
barito
barkas
barker
barkley
barley
barli
barnabas
barnacle
barnes
barney
baro
baroe
barok
baron
barong
barongan
baros
barra
barre
barrier
barru
barry
bars
bart
barth
bartolome
baru
baruna
barung
barus
barwa
bas
basa
basah
basake
basaken
basan
basane
basanipun
basawidya
base
baseball
based
basel
basf
basi
basic
basil
basilica
basilicata
basilika
basin
basis
basise
baske
basket
basketball
baso
basoeki
basque
basra
basri
bass
basse
bassis
bastian
bastille
basudewa
basuki
baswedan
bat
bata
batagor
bataille
batak
batal
batalkan
batalyon
batam
batan
batang
batangan
batanghari
batara
batas
batavia
batawi
baterai
batere
baterei
bates
bath
bathang
bathara
bathari
bathi
bathik
bathok
bathuk
bathurst
bati
batik
batin
batine
batista
batistuta
batman
baton
batos
batre
battery
battista
battle
battles
batu
batuan
batubara
batujaya
batung
batuputih
batur
baturade
baturaja
baturetna
baturiti
batusangkar
bau
baud
bauer
baurena
bausastra
bautista
bautzen
bauwarna
bava
bavaria
bawa
bawah
bawahan
bawal
bawana
bawang
bawe
bawean
baxter
bay
baya
bayam
bayan
bayang
bayangan
bayar
bayaran
bayat
bayem
bayer
bayern
bayi
bayine
bayonne
bayu
baznas
bb
bbc
bbm
bc
bca
bce
bd
be
beach
bean
beans
bear
beasiswa
beast
beat
beatles
beatrice
beatrix
beau
beautiful
beauty
beauvoir
beaya
bebadan
bebaja
beban
bebarengan
bebas
bebasan
bebaya
bebek
bebendu
bebener
beber
beberapa
bebingah
bebrayan
bebrayanan
bebungah
bebuwang
bec
becak
because
becik
becike
beck
beckenbauer
beckett
beckham
become
bed
beda
bedagai
bedah
bedane
bedanipun
bedha
bedhah
bedhame
bedhaya
bedhil
bedhug
bee
beef
been
beer
beethoven
beetle
before
beg
begawan
begin
beginning
begins
begitu
begja
behavior
behind
bei
beijing
being
beira
beirut
beit
beja
bejen
bek
bekantan
bekas
bekasi
bekel
bekerja
bekicot
beksa
beksan
bekta
bekti
beku
bel
bela
beladiri
belah
belahan
belajar
belakang
belanda
belang
belanja
belarus
belas
belasting
bele
belfast
belgi
belgium
belgrade
beli
beliau
belik
belimbing
belitung
belize
bell
bella
belle
bellina
bellow
belo
below
belu
beluk
belum
ben
benang
benar
benawa
bencana
benci
bend
benda
bendahara
bendara
bendarane
bendera
bendha
bendhasari
bendhungan
bendung
bendungan
benedetto
benedict
benediktus
bener
benere
benevento
benfica
bengal
bengali
bengawan
benggala
bengi
bengkak
bengkalis
bengkel
bengkok
bengkong
bengkulu
bengok
beni
benih
benik
benin
bening
benito
benjamin
benjeng
benjing
bennett
benny
bennylin
bensin
benson
bentang
bente
benten
benteng
benter
bento
bentuk
bentuke
bentukipun
benua
benyamin
benz
benzema
beograd
beorhtric
ber
beracun
berada
beragam
beragama
berakhir
beralkohol
berang
berani
berapi
berarti
beras
berasal
berat
berau
berbagai
berbagi
berbahasa
berbasa
berbasis
berbeda
berbentuk
berber
berbicara
bercak
bercinta
berdampak
berdarah
berdasarkan
berdiri
bereaksi
berencana
berfungsi
berg
bergabung
bergamo
bergantung
bergas
bergelar
bergen
berger
bergerak
bergman
berguna
berhala
berharga
berhasil
berhenti
beri
berikan
berikut
berikutnya
beringin
berisi
berita
beritahu
berjalan
berjuang
berjudul
berkah
berkala
berkas
berkat
berkelanjutan
berkeley
berkembang
berkompetisi
berkualitas
berkuasa
berlaku
berlalu
berlangganan
berlangsung
berlian
berlin
berliner
bermain
bermarkas
bermuda
bern
bernama
bernard
bernardo
bernese
bernhard
beroperasi
berpartisipasi
berpengaruh
berperan
berprestasi
berpusat
berry
bersaing
bersama
bersambung
bersatu
bersaudara
bersejarah
bersenjata
bersifat
bersih
bert
bertahan
bertahap
bertajuk
bertanggung
bertasbih
bertemu
bertha
berthe
bertrand
bertugas
berturut
beruang
berubah
berukuran
berulang
berupa
berusaha
berusia
bervariasi
berwarna
bes
besar
besaran
besari
besi
best
besuk
besut
besutan
besutane
bet
beta
betah
betahaken
betawi
beteng
beth
bethlehem
betis
betjik
betlehem
beton
betta
better
betty
betula
betung
between
betyik
beverly
beyonce
beyond
bg
bha
bhaji
bhakti
bharat
bharata
bharatayudha
bhat
bhayangkara
bhopal
bhre
bhu
bhumi
bhutan
bhuwana
bi
biak
bial
biara
biarawan
biarawati
biarkan
bias
biasa
biasane
biasanipun
biasanya
biaya
biała
białystok
bibar
bibi
bibir
bibit
bible
biblical
bibliografi
bibliographic
bibliography
biblioteca
bicara
bid
bidadari
bidang
bidhal
bidhang
bie
bieber
bielsko
big
bih
bihar
bihi
bihun
bijeljina
biji
bijian
bika
bike
bikini
biksu
bila
bilah
bilal
bilang
bilangan
bilateral
bilbao
bilih
bilik
bill
billboard
billie
billy
bim
bima
biman
bimasekti
bimbingan
bimbo
bimo
bin
bina
binahong
binangun
binar
binatang
bincang
bine
biner
bing
bingah
bingen
bingkai
bingung
binjai
bintan
bintang
bintara
bintaro
binti
bintik
bintil
bintuni
binuka
bio
biodata
bioe
biofisika
biografi
biographical
biographies
biography
bioinformatika
biokimia
biologi
biological
biologis
biology
bioloid
bioma
biomassa
bioskop
biota
bioteknologi
bipolar
bir
birch
bird
birdlife
birds
birmingham
biro
birokrasi
birokrat
birth
birthday
births
biru
biryani
bis
bisa
bisaa
bisane
bisbol
bischo
bishop
bishops
bisikan
biskop
biskope
biskuit
bislama
bisma
bismarck
bisnis
bisnise
biso
bison
bissau
bistu
bistumer
bisu
bisul
bit
bitung
biyantu
biyasa
biyasane
biye
biyen
biyene
biyografi
biyoskup
biyung
biyunge
bizantium
bj
bk
bkkbn
bl
bla
blabag
black
blackberry
blackburn
blackpool
blackwell
blade
blado
blair
blaise
blaka
blake
blambangan
blanc
blanca
blanco
blang
blangkon
blanja
blankon
blas
blat
ble
bleach
bledhe
bledug
blega
blender
bless
blethok
bleu
blimbing
blind
blink
blitar
bloch
block
bloemfontein
blog
blogger
blogspot
blois
blok
blokir
blong
blood
bloody
bloom
blora
blorong
blu
bluberi
blue
blueberry
blues
bluluk
blumbang
bluto
bm
bmg
bmi
bms
bmw
bn
bo
boa
board
boas
boat
bob
bobby
bobo
bobot
bobote
bobotipun
bobotsari
boca
bocah
bocor
bodeh
bodhisattva
bodho
bodo
bodoh
body
boedi
boediono
boeing
boemi
boer
boewana
boga
bogor
bogota
bogowonto
bohe
bohemia
bohol
bohr
bois
boja
bojanegara
bojo
bojone
bojonegoro
bojong
bojongsari
bok
bokmanawa
bokmanawi
bokmenawa
boko
bokong
bokor
bol
bola
bolaang
bolah
bolak
bold
boleh
boli
bolivar
bolivia
bollywood
bolo
bologna
bolong
bolongan
bolt
bolton
bolu
bom
bomb
bombana
bombardier
bombay
bon
bonan
bonang
bonaparte
bonar
bond
bondan
bondowoso
bone
boneka
bones
bong
bonggol
bongko
bongkot
bonifasius
bonjol
bonn
bonnet
bonnie
bono
bonsai
bontang
bonus
boo
book
books
boom
boot
booth
boots
bor
borat
bordeaux
borden
border
borders
borealis
boris
born
borne
borneo
borobudur
borok
borough
borussia
bos
bosch
bosco
bosen
bosni
bosnia
bosniak
bosok
boss
boston
bot
botak
botani
botanical
botany
bote
boten
botenipun
both
bothering
botoh
botol
bots
botswana
bottom
botyah
botyahe
boulevard
boulogne
bounce
bourbon
bourdais
bourgeois
bourges
bourne
boven
bowl
bowo
box
boy
boyalali
boyband
boyd
boyle
boyolali
boys
bp
bpk
bppt
bps
bpupki
br
bra
brabant
brad
bradford
bradley
brady
braga
brahala
brahma
brahman
brahmana
brahmi
brain
brak
bram
brama
bramantyo
brambang
bran
branch
brand
brandenburg
brandes
brandon
brandy
brangsong
brantas
brasi
brasil
brasileiro
brata
bratasena
bratislava
braun
brave
bravo
brawijaya
brayan
brayat
brayate
brazil
brazilian
bre
bread
break
breakfast
breaking
brebes
bregada
bremen
brendan
brendi
brennan
brepols
brescia
brest
bretagne
breton
brett
brewster
brian
bridal
bride
bridge
bridges
brie
brief
brien
brigade
brigadir
bright
brigif
brigjen
brill
brine
bring
bringin
brisbane
bristol
brit
britain
britania
britannica
british
britney
brittany
britton
bro
broad
broadcast
broadcasting
broadway
brock
brod
broken
brokoli
brol
bromo
bromwich
brondong
bronkitis
bronx
brook
brooke
brooklyn
brooks
bros
brosnan
brother
brothers
brown
brownies
browser
bru
bruari
bruce
bruna
brunei
bruno
brunson
brunssum
brunswick
brussel
brussels
bruto
bruwang
bruwari
bryan
bryant
bs
bse
bst
bt
bts
bu
buah
buahan
buahe
buana
buang
buaran
buat
buatan
buaya
buayan
bubar
bubble
bubrah
bubuk
bubur
buchanan
bucharest
buck
bucket
buckwheat
bud
buda
budak
budal
budapest
budaya
budayane
budayawan
buddha
buddhi
buddhis
buddhism
buddhist
buddy
budget
budha
budhal
budhaya
budhi
budi
budidaya
budiman
budine
budjana
buenos
buffalo
buffon
bug
bugis
bugs
build
builder
building
built
bujana
bujang
bujur
buk
buka
bukaan
bukak
bukan
bukane
bukanipun
bukares
bukateja
bukhari
bukit
bukittinggi
bukti
buktine
buku
bukune
bukunipun
bula
bulakamba
bulan
bulat
bule
buleleng
buletin
bulgari
bulgaria
bulgur
bulir
bull
bulla
bulletin
bullock
bulls
bulu
buluh
bulukumba
bululawang
bulungan
bulus
bulutangkis
bumblebee
bumbon
bumbu
bumbune
bumbung
bumi
bumiayu
bumijawa
bumn
bumper
bun
bunches
buncis
bunda
bundar
bunde
bunder
bunderan
bundesliga
bundher
bung
bunga
bungah
bungahe
bungku
bungkus
bungkusan
bunglon
bungo
bungsu
bungur
bunny
buntel
buntu
buntut
buntute
buntutipun
bunuh
bunye
buol
bupati
bur
bureau
buret
burgemeester
burger
burgundi
burgundia
burhan
burhanuddin
buri
burine
burisrawa
burj
burke
burkina
burma
burneh
burning
burnley
burns
buron
bursa
burton
buru
buruan
buruh
buruk
burundi
burung
bus
busa
busak
busan
busana
bush
business
busungbiu
busur
but
buta
butan
butet
butir
butiran
butler
buton
butter
butterfly
buttermilk
button
butuh
butuhake
buwana
buwono
buxb
buyung
buyut
buyute
bv
bwf
by
byakta
bydgoszcz
byrne
byron
bytes
byun
byung
byzantine
byzantium
bœuf
c
ca
cabai
caballeros
cabang
cabange
cabe
cabello
cacad
cacah
cacahe
cacahing
cacahipun
cacar
cacat
cache
cacing
cactus
cada
cadangan
cadhangan
caelum
caen
caesar
cafe
caffe
caffeine
cagak
cagar
cagayan
cage
cagliari
cah
cahaya
cahill
cahya
cahyane
cahyanipun
cahyo
cai
cair
cairan
cairo
cajun
cak
cakalang
cakar
cake
caket
caketipun
cakil
cakra
cakram
cakraningrat
cakrawala
cakrik
cakupan
calabria
calais
calamadu
calamansi
calan
calcio
calculus
calcutta
caldwell
cale
calendar
calgary
cali
california
call
called
calon
calone
calvin
calzone
cam
camat
camatan
cambodia
camboran
cambridge
came
camelia
camelopardalis
cameo
camera
cameron
camilan
camille
camp
campaign
campaka
campania
campbell
campeonato
campina
camplong
campo
campos
campur
campuran
campursari
campus
camu
camus
can
cana
canada
canadian
canal
canary
canberra
cancer
candhake
candhakipun
candhi
candhimulya
candhirata
candhisari
candi
candra
candy
canggih
cangkang
cangkem
cangkeme
cangkir
cangkok
cangkriman
cangkring
canis
cannes
cannon
canon
canthing
cantik
canton
cantona
canvas
canyon
cao
cap
capacitive
cape
caper
caping
capital
capitol
caporiacco
capsicum
captain
car
cara
carabasa
caracas
caraka
carakan
carakiril
caramel
carane
carang
carangan
caraning
caranipun
caravaggio
caraway
carbon
card
cardamom
cardia
cardiff
cardinal
care
career
carey
cargo
cari
caribbean
carica
carik
carina
carita
caritane
cariyos
cariyosipun
carkak
carl
carla
carleton
carlo
carlos
carlton
carm
carmen
carne
carnival
carnivorous
carol
carolina
caroline
carolus
carolyn
carpenter
carrie
carrier
carroll
cars
carson
carta
cartagena
carter
cartoon
caruban
carvalho
cas
casa
casablanca
cascade
cascades
cascading
case
caserta
cases
casey
cash
casing
casino
casparis
casserole
cassiopeia
cast
castel
castello
castile
castilla
castillo
casting
castle
castro
cat
catalan
catalog
catalogue
catalonia
catania
catanzaro
catatan
catch
cate
catedral
categories
category
catetan
catethan
cathe
cathedral
catherine
cathetan
cathethan
catholic
catholichierarchy
cathy
cats
catur
caturan
causa
cause
caution
cave
cavite
cawan
cawang
cawange
cawas
cawe
caya
cayenne
cayman
cb
cbc
cbn
cbs
cc
cctv
cd
cdot
ce
cebu
cecak
cecek
cecil
cecilia
cecongkrahan
cedar
cedera
cedhak
cedhake
cek
cekak
cekakan
cekake
cekap
cekelan
ceko
cekoslowakia
cekung
cekungan
celah
celak
celakipun
celana
celathu
celcius
celebration
celebrity
celeng
celery
cell
cello
cells
celsius
celta
celtic
celukan
celup
cemara
cemburu
cemeng
cemerlang
cemetery
cemilan
cempa
cempaka
cena
cendana
cendekiawan
cenderung
cendhak
cendhe
cendhek
cendhok
cendrawasih
cenenge
cengkar
cengke
cengkeh
census
centauri
centaurus
center
centhini
central
centre
centro
centuries
century
ceo
cepaga
cepak
cepat
cepet
cepiring
ceplok
cepu
cerah
cerai
cerak
cerbon
cerbung
cerdas
ceremony
ceres
ceri
cerita
ceritane
cerkak
cerme
cermin
cerpen
cerpenipun
cerro
certain
cesar
cesena
cest
cet
cetak
cetakan
cetha
cethane
cethe
cethek
cetus
ceuta
cewek
ceylon
cf
cfc
cgi
ch
cha
chaat
chabad
chaco
chad
chae
chai
chaim
chain
chairil
chairman
chaiyya
chal
challenge
challenger
chamaeleon
chamber
chamberlain
chambers
champ
champagne
champion
champions
championship
championships
chan
chance
chanda
chandler
chandra
chanel
chang
change
changed
changes
changi
changing
changsha
channel
chanted
chao
chapati
chapel
chaplin
chapman
chapter
chapters
char
character
characters
charity
charlemagne
charles
charleston
charlie
charlotte
charlton
charmander
charon
charrie
chart
charter
charts
chase
chat
chatetan
chavacano
che
chechnya
check
cheddar
chee
cheese
chef
chelsea
cheltenham
chem
chemical
chemistry
chen
cheney
cheng
chengdu
chennai
cheol
cheon
cheong
cher
cheribon
chernobyl
cherry
cheryl
chess
chester
chestnut
cheung
chevrolet
chevron
chi
chiang
chiapas
chiba
chicago
chicha
chicken
chico
chief
chiesa
chiese
chieti
chiho
chihuahua
child
children
chile
chili
chin
china
chinensis
chinese
ching
chip
chita
chittagong
chives
chiyoda
chizu
chloe
cho
chocolate
choi
choice
chongqing
choose
chopin
chopra
chorizo
chorus
chou
chovevei
chow
chowder
chris
christ
christensen
christiaan
christian
christianity
christie
christina
christine
christmas
christoph
christophe
christopher
christy
chrisye
chromatography
chronicle
chronicles
chronology
chu
chua
chuan
chubu
chuck
chul
chum
chun
chung
chungcheong
chuo
church
churches
churchill
chutney
ci
cia
ciamis
cianjur
cicalengka
cicero
cici
cidra
cie
cif
cihna
cik
cikal
cikampek
cikarang
cilacap
cilaka
cilandak
cilantro
cile
ciledug
cilegon
cilik
cilikan
cilike
cilongok
cimahi
cimanggu
cimpa
cin
cina
cincang
cinchona
cincin
cincinnati
cinderella
cindy
cine
cinema
cinemascore
cineplex
cinta
cintaku
cinten
cio
cipanas
cipari
cipayung
cipta
ciptaan
ciptaane
ciputra
circa
circinus
circle
circuit
cirebon
ciremai
ciri
cirine
cis
cit
cita
citadis
citation
citations
cite
cites
cithak
cithakan
cities
citizen
citoid
citra
citrawati
citrus
citta
city
ciudad
ciut
civil
civilization
cixi
ciyut
cj
ck
cl
clade
claims
clair
claire
clam
clana
clara
clarendon
clark
clarke
clarkson
clash
class
classic
classical
classics
classification
classis
claude
claudia
claudio
claudius
claus
clay
clayton
cle
clean
clear
clemens
clement
cleopatra
clermont
cleveland
click
cliff
clifford
climate
clinical
clint
clinton
clip
clive
clock
close
closed
cloud
clover
club
cluj
cluster
cluwak
cm
cn
cnn
co
coach
coast
coaster
coba
cobi
cobra
coca
coco
cocog
cocok
cod
code
codes
codeshare
codex
cody
coen
coffee
cohen
cohn
coimbra
cokelat
coklat
cokotan
col
cola
cold
coldplay
cole
coleman
coli
colima
colin
coll
collaboration
collapse
colle
collected
collectie
collection
collections
college
collins
colo
cologne
colombia
colombo
colonel
colong
colonial
color
colorado
colors
colour
columba
columbia
columbus
column
columns
com
coma
comal
combat
combination
combo
come
comedy
comes
comet
comic
comics
coming
command
commander
comment
commentary
comments
commerce
commercial
commission
committee
common
commons
commonwealth
commune
communication
communications
communities
community
commuter
como
compact
compagnie
companion
company
comparative
comparison
competition
compilation
compiled
complete
completed
complex
composer
composition
compostela
comprehensive
computer
comte
comune
comuni
con
conan
concacaf
concepcio
concept
concerning
concert
concerto
concise
concorde
concordia
conduct
cone
coney
conference
conflict
congo
congress
connecticut
connection
connie
connor
conrad
conservation
conservative
considered
consortium
constant
constantine
constellations
constitution
construction
consultation
contact
containing
contains
conte
contemporary
content
contents
contest
context
conti
continental
continue
continuing
conto
contoh
contone
contonipun
contra
contribute
contributions
contributors
control
conv
convention
converse
cook
cookbook
cookery
cookie
cookies
cooking
cool
cooper
cooperation
coordinates
cop
copa
copenhagen
copot
coppa
copper
copsychus
copy
copyright
cor
corak
cordillera
cordoba
core
coreldraw
corfu
corinthians
cork
corn
cornelia
cornelis
cornelius
cornell
corner
cornish
cornwall
coro
corona
coronavirus
coronel
corong
corp
corporate
corporation
corporindo
corps
corpus
corrs
corte
corvus
cory
cos
cosenza
cosplay
cost
costa
cot
cotabato
coto
cotonou
cottage
cotton
could
council
count
countdown
counter
countries
country
county
coupe
couple
courage
course
court
courtney
coventry
cover
coverage
covid
cow
cowok
cox
cp
cpu
cr
crab
cracker
craig
crake
cranberry
crash
crater
craven
crazy
crc
cre
cream
create
created
creating
creation
creative
creator
creed
creek
crema
creme
cremona
creole
crescent
crew
crewe
cricket
crime
crimea
criminal
crisis
cristiano
cristina
cristo
crita
critane
critical
critics
criyos
crj
croatia
croatian
croats
croissant
croix
cronquist
crop
crops
crosby
cross
crouch
croup
crown
cruise
cruiser
crusade
crusades
crustacea
crux
cruyff
cruz
cry
crystal
cs
csd
csi
css
cstn
ct
ctor
cu
cuaca
cuap
cuba
cuban
cublak
cucak
cuci
cucu
cucuk
cucur
cucurbitaceae
cucut
cuenca
cuiaba
cuisine
cuk
cuka
cukup
cukur
culika
culinary
cullen
cultural
culture
cultures
cultus
cum
cuma
cumawis
cumbana
cumepak
cumi
cumin
cumplung
cuneo
cunningham
cup
cupang
cuplikan
cupu
cura
curac
curah
curam
curcuma
curd
cure
cures
curie
curiga
curitiba
curling
current
currently
curry
curse
curtis
curug
curup
custard
custom
cut
cuti
cuvier
cuwe
cv
cw
cwi
cy
cyber
cybertron
cycle
cyclocephala
cygnus
cyme
cynthia
cyprus
cyril
cyrillic
cyrus
cz
cze
czech
d
da
daai
dab
dabi
dada
dadakan
dadaku
dadar
dade
dadekake
dadi
dadia
dadine
dadiya
dados
dadosaken
dadosan
dadosipun
dadu
dadya
dae
daegu
daejeon
daendels
daeng
daerah
daftar
dag
dagang
dagangan
dagangane
daging
daginge
dah
daha
dahana
dahat
dahi
dahl
dahlan
dahlia
dahsyat
dahulu
dai
daihatsu
daily
daimyo
dairi
daisy
dak
dakake
dakaken
dakar
dakara
dakota
daksa
dakwah
dal
dalah
dalai
dalake
dalam
dalan
dalanan
dalane
dalang
dale
dalem
daleme
dalemipun
dali
dalil
dallas
dalle
dalton
dalu
dam
damai
damal
damansara
damar
damarwulan
damaskus
dame
damel
damelan
damelanipun
damelipun
damian
damien
damon
damono
dampak
dampar
dampare
dan
dana
danamulya
danaraja
danau
danawa
dance
dancing
dandan
dandang
dandani
dander
dane
dang
dangdut
danger
dango
dangu
dangunipun
dani
daniel
daniela
daniele
danielle
daniels
danipun
danish
daniswara
danny
dano
dans
dansa
dante
danu
danube
danureja
dao
daop
dap
dapat
dapur
dar
dara
darah
darajat
darat
daratan
darbe
dardanella
dare
dari
daring
daripada
darius
dark
darkgrey
darling
darlington
darma
darmagandhul
darmawan
darmo
darren
darul
darurat
darussalam
darwin
darwis
daryono
das
dasa
dasamuka
dasanama
dasar
dasarata
dasare
dasaripun
dasawarsa
dash
dashboard
dashi
dasi
dasuk
dat
data
database
databases
datan
datang
datar
dataran
datatypes
date
dated
dateformat
dateng
dates
datheng
dati
dato
datu
datuk
dau
daud
daughter
daulat
daun
dauphin
daur
davao
dave
daved
davenport
david
davidson
davies
davis
dawa
dawan
dawane
dawaning
dawanipun
dawe
dawet
dawn
dawson
dawud
day
daya
dayak
dayane
dayang
dayaning
dayeuhluhur
dayoh
days
dayung
db
dbhuta
dbz
dc
dcast
dd
de
dea
dead
deadline
deal
dean
dear
death
deaths
debat
debate
debu
debut
debute
debutipun
dec
december
decepticons
decins
deck
deco
dedagangan
deddy
dede
dedeg
dedes
dedhaharan
dedicated
dedonga
dedunung
dee
deen
deep
default
defence
defense
definisi
definition
degan
degli
degradasi
degree
dehidrasi
dei
dek
dekade
dekan
dekat
deket
dekker
deklarasi
dekorasi
dekoratif
dekrit
del
delanggu
delapan
delaware
delegasi
deleng
delenga
delengan
delengen
delete
deleted
delft
delgado
delhi
deli
delica
delima
delivered
delivery
dell
della
delle
delok
deloken
delon
delonge
delphinium
delphinus
delta
delusi
deluxe
dem
demak
demam
demand
demang
demeter
demi
demikian
demit
demite
demo
democracy
democratic
demografi
demokrasi
demokrat
demokratik
demokratis
dempo
demung
den
dendam
dendrit
dene
dengan
denganmu
dengue
dening
denis
denise
denki
denmark
dennis
denny
denpasar
density
denta
denver
denya
denyut
deok
depan
departeme
departemen
department
depdagri
depdikbud
depdiknas
dependensi
dephut
deploy
deployed
deployment
depo
depok
deportivo
depot
depp
depresi
depth
depuis
deputi
der
derajat
derawan
derby
derbyshire
derek
dereng
deres
deret
derlan
dermaga
dermayu
deryck
des
desa
desain
desainer
descendants
deschamps
description
descriptions
desember
desert
desi
design
deskripsi
desktop
deso
dessert
desta
destinasi
destination
destiny
desy
det
detail
detailed
details
detasemen
detective
deteksi
detektif
deterjen
detik
detiknews
detil
detroit
deuteronomy
deutsche
deutschen
deutschland
dev
developed
developer
developers
development
devi
devices
devil
devils
devon
dewa
dewabrata
dewan
dewanagari
dewantara
dewanto
dewasa
dewata
dewe
deweke
dewey
dewi
dewiq
df
dfb
dh
dha
dhabi
dhadha
dhadhane
dhadhap
dhae
dhaerah
dhaftar
dhagelan
dhah
dhahar
dhaharan
dhak
dhaka
dhaki
dhaksi
dhalang
dhampak
dhampar
dhampit
dhan
dhana
dhandhanggula
dhang
dhangdhut
dhani
dhaptar
dhapukan
dhapur
dhapure
dharah
dharat
dharatan
dharma
dharmasraya
dharmawan
dharmawangsa
dharurat
dhasar
dhasare
dhasaring
dhasaripun
dhata
dhatar
dhataran
dhate
dhateng
dhaup
dhawah
dhawane
dhawet
dhawuh
dhawuha
dhawuhe
dhawuhing
dhawuhipun
dhayoh
dhe
dhea
dhebut
dhedhaharan
dhedhasar
dhele
dhemen
dhemit
dhen
dhendha
dhenemarken
dhengkul
dheral
dherasi
dherek
dhesember
dhetik
dhewe
dhewek
dheweke
dhi
dhia
dhiale
dhialek
dhiame
dhiameter
dhidhik
dhien
dhigital
dhik
dhiksi
dhime
dhinasti
dhindhing
dhipa
dhire
dhirektur
dhiri
dhirine
dhirinipun
dhis
dhisambiguasi
dhisi
dhisik
dhisiplin
dhiskusi
dhistribusi
dhistrik
dhium
dhiwasa
dho
dhobel
dhodhog
dhoewit
dhoho
dhokte
dhokter
dhoktor
dhoktoral
dhoktrin
dhokume
dhome
dhose
dhosen
dhosis
dhotanipun
dhue
dhuh
dhukuh
dhukuhseti
dhukuhturi
dhukun
dhukungan
dhumateng
dhusun
dhuwe
dhuweni
dhuwet
dhuwit
dhuwite
dhuwung
dhuwur
dhuwure
dhuwuring
dhuwuripun
di
dia
diabe
diabetes
diadakan
diadani
diadaptasi
diadegake
diadhaptasi
diadhekake
diadhepi
diadili
diadopsi
diaduk
diafragma
diagem
diagnosis
diagram
diah
diajak
diajarake
diajari
diaje
diajokake
diakibatake
diakoni
diakritik
diakse
diakses
diakui
dial
dialami
diale
dialek
dialihake
dialog
dialogue
dialusake
diam
diamati
diambil
diame
diameter
diametere
diameteripun
diamond
diamot
dian
diana
dianakake
diandharake
diane
dianggap
dianggep
dianggit
dianggo
diangkah
diangkat
dianugerahake
dianugerahi
dianugrahi
dianut
dianyari
diapit
diarahake
diarani
diare
diarepake
diary
dias
diasilake
diasinake
diasingake
diaspora
diasta
diatur
diaturake
diawasi
diawetake
diayahi
diaz
dibabar
dibabarake
dibaca
dibagi
dibahas
dibakar
dibale
dibalik
dibandhingake
dibandingake
dibangun
dibantu
dibaptis
dibarengi
dibatalake
dibawahi
dibayar
dibe
dibebasake
dibedakake
dibedhah
dibentuk
diberikan
dibiase
dibintangi
dibiyantu
diblokir
dibongkar
diboyong
dibuang
dibuat
dibubarake
dibudidayakake
dibuka
dibukak
dibukte
dibuktekake
dibumboni
dibumbui
dibungkus
dibuntel
diburu
dibusak
dibutuhake
dibuwang
dicabut
dicakake
dicalonake
dicampur
dicampuri
dicaplok
dicaprio
dicaritakake
dicathet
dicaturake
dicawisake
dice
diced
dicegah
dicekak
dicekel
diceluk
dicelup
dicelupake
dicemplungake
dicepakake
dicerna
dicetak
dicethakake
dicincang
diciptakake
dicithak
dick
dickens
dickinson
dicky
dicoba
dicokot
dicolong
dicopot
dicritakake
dictionary
dictionnaire
dicukur
diculake
diculik
did
didade
didadekake
didadikake
didaftar
didakwa
didamel
didandani
didang
didarbe
dide
didedikasikake
didedikasike
didegake
dideleng
didelok
didhahar
didhapuk
didhasarake
didhawuhi
didhe
didhelikake
didheplok
didhisiki
didhukung
didi
didier
didik
didirikan
didokok
didol
didominasi
didong
didukung
didunungi
diduwe
diduweni
die
died
diego
dieja
diekspor
diekstrak
diemot
dien
dieng
dienggo
dienggoni
dientas
diente
dies
diesel
diet
dietokke
diferensial
diferensiasi
difermentasi
diff
difference
different
difoto
difraksi
difusi
digabung
digabungake
digagas
digambar
digambarake
digambarke
digandhe
digandhengake
diganggu
digante
diganti
digantikake
digantung
digarap
digaringake
digate
digawa
digawe
digayuh
digayutake
digdaya
dige
digebyakake
digedhe
digelar
digiling
digit
digital
digiyarake
diglosia
digne
digodhog
digole
digoleki
digolongake
digore
digoreng
digulung
digunaake
digunakake
digunakan
dihapus
dihias
dihiasi
dihubungake
diidentifikasi
diidinake
diidini
diikat
diikuti
diilangi
diilhami
diiloni
diimpor
diingu
diiringi
diiris
diise
diiseni
diisi
diisolasi
diitung
dijabat
dijadwalake
dijaga
dijajah
dijak
dijaluk
dijaluki
dijamin
dijangkepi
dijanji
dijarwakake
dijelasake
dijelaskan
dijenengake
dijenengi
dijle
dijlentrehake
dijon
dijuluki
dijupuk
dijurung
dik
dika
dikabarake
dikabarke
dikalahake
dikancani
dikandhakake
dikandhani
dikandung
dikanggo
dikanthe
dikarang
dikarepake
dikarepke
dikaruniai
dikasilake
dikategore
dikategorikake
dikatutake
dikawruhi
dike
dikebaki
dikelola
dikemas
dikembangake
dikembangke
dikenal
dikenalake
dikenali
dikepengini
dikepung
dikeringake
diketahui
dikethok
dikira
dikirim
dikirimake
diklaim
diklasifikasikake
diklat
diklompokake
diklumpukake
dikocok
dikombinasikake
dikon
dikonfirmasi
dikongkon
dikonsumsi
dikontrak
dikontrol
dikotil
dikramakake
dikritik
diktator
dikuasai
dikubengi
dikubur
dikukuhake
dikukus
dikum
dikumbah
dikumpulake
dikunjara
dikunjungi
dikupas
dikupengi
dikurangi
dikurmati
dikutip
dikuwasani
dikwasani
dil
dilacak
dilade
dilairake
dilakokake
dilakokno
dilakoni
dilaksanakake
dilakukan
dilambangake
dilan
dilanjutake
dilantik
dilapisi
dilaporake
dilapurake
dilarang
dilatih
dilayani
dile
dilebokake
dilebokke
dilebur
dileksanakake
dilempit
dilengkapi
dilestare
dili
dililani
dilindhungi
dilindungi
dilipat
diliwati
dill
dilukis
diluncurake
dim
dimainake
dimainke
dimakan
dimaksud
dimaksudake
dimana
dimanfaatake
dimanfaatke
dimangerte
dimangerteni
dimas
dimasak
dime
dimekarake
dimenangake
dimensi
dimodifikasi
dimot
dimuat
dimulai
dimumpangatake
dimunggahke
dimupangatake
din
dina
dinamika
dinamis
dinane
dinas
dinasti
dinda
dinding
dine
dines
ding
dingapura
dingerte
dingerteni
dingge
dinggo
dingin
dini
dinikmati
dinilai
dining
dinner
dino
dinobatake
dinosaurus
dinte
dinten
dintenipun
dinuga
dinyanye
dinyanyekake
dinyanyikake
dinyatakake
dinyawijike
dio
diobahake
diobati
diobong
dioce
diocesan
diocese
dioceses
diocesi
diode
dioecesis
dioksida
diolah
diole
diombe
diomong
diomongake
diomongi
diomongke
dion
dioperase
dioperasikake
dioperasikan
dioperasike
diorama
diosesan
diowah
diowahi
dip
dipa
dipacak
dipadakke
dipadhakake
dipae
dipahami
dipai
dipaido
dipakai
dipame
dipamerake
dipanagara
dipanasake
dipandhe
dipandhegani
dipane
dipanegara
dipanen
dipangan
dipanggang
dipanggedhe
dipanggil
dipanggoni
dipapanake
dipara
diparagakake
diparagani
diparani
diparengake
diparingake
diparingi
diparo
diparut
dipasang
dipasangake
dipasangi
dipasarake
dipasrahake
dipasrahke
dipate
dipateni
dipati
dipe
dipecah
dipecat
dipekaki
dipeksa
dipencet
dipengaruhi
dipenging
dipengini
dipentasake
dipente
dipepaki
diperagakake
diperanake
diperang
diperanke
diperbarui
dipercaya
diperes
diperlokake
dipertal
dipesen
dipesthe
dipigunaake
dipigunakake
dipikir
dipikolehi
dipilih
dipimpin
dipindah
dipindahake
dipindhah
dipindhahake
dipirante
dipirsani
dipisah
dipisahake
dipitaya
dipituturake
diploid
diploma
diplomasi
diplomat
diplomatik
dipo
dipocapake
diponegoro
dipotong
diprabawai
dipracaya
diprakirakake
diprate
diprayogakake
dipre
dipriksa
diprodhuksi
diprodhuseri
diproduksi
dipromosikake
dipromosike
diproses
dipterokarp
dipugar
dipuja
dipuji
dipun
dipunadani
dipunadegaken
dipunagem
dipunajokaken
dipunakeni
dipunakse
dipunakses
dipunandharaken
dipunangge
dipunanggep
dipunanggit
dipunangkat
dipunangsal
dipunanugrahi
dipunarahaken
dipunarani
dipunasilaken
dipunatur
dipunaturaken
dipunbabar
dipunbandingaken
dipunbangun
dipunbe
dipunbekta
dipunbentuk
dipunbeta
dipunbetahaken
dipunbikak
dipunbintangi
dipunbiwarakaken
dipunbiyantu
dipunbucal
dipuncakaken
dipuncalonaken
dipuncampur
dipuncariyosaken
dipuncathet
dipuncawisaken
dipuncekak
dipuncekel
dipuncepeng
dipuncithak
dipundadosaken
dipundamel
dipunde
dipundhahar
dipundhaptar
dipundhapuk
dipundhawuhi
dipundhirikaken
dipundhut
dipunduga
dipune
dipunewahi
dipungabung
dipungadhahi
dipungambaraken
dipungantosaken
dipungayutaken
dipungelar
dipunginaake
dipunginakaken
dipungiyaraken
dipungkasi
dipungodhog
dipungore
dipungoreng
dipuniringi
dipuniris
dipunisi
dipunjagi
dipunjalari
dipunjangkepi
dipunjuluki
dipunkalahaken
dipunkasilaken
dipunkasoraken
dipunkelola
dipunkembangaken
dipunkempalaken
dipunkenal
dipunkeparengaken
dipunkinten
dipunkintun
dipunkiteri
dipunkukus
dipunkunjara
dipunkuwaosi
dipunlairaken
dipunlajengaken
dipunlaksanakaken
dipunlampahaken
dipunlampahi
dipunlangkungi
dipunlantik
dipunlapisi
dipunlaporaken
dipunlarang
dipunlatih
dipunlayani
dipunlebetaken
dipunluncuraken
dipunmainaken
dipunmangertos
dipunmangertosi
dipunmasak
dipunmedalaken
dipunminggahi
dipunmot
dipunnamani
dipunolah
dipunoperasikaken
dipunpadosi
dipunpajang
dipunpandegani
dipunpandhegani
dipunpanggang
dipunpanggihaken
dipunpanggihi
dipunpapanaken
dipunparagani
dipunparingaken
dipunparingi
dipunpasang
dipunpe
dipunpejahi
dipunpendhet
dipunpengaruhi
dipunpentasaken
dipunperang
dipunpertal
dipunpilih
dipunpimpin
dipunpindhah
dipunpirsani
dipunpisahaken
dipunpitados
dipunpitadosi
dipunprabawai
dipunpracaya
dipunprakirakaken
dipunproduksi
dipunpromosikaken
dipunpundhut
dipunpungkasi
dipunputer
dipunrancang
dipunraosaken
dipunrawuhi
dipunre
dipunremeni
dipunrencanakaken
dipunresmikaken
dipunrilis
dipunripta
dipunsade
dipunsaje
dipunsamektakaken
dipunsare
dipunsarujuki
dipunse
dipunsebabaken
dipunsebat
dipunsebataken
dipunsebut
dipunsebutaken
dipunsembah
dipunsengkuyung
dipunserat
dipunsimpen
dipunsinaoni
dipunsukani
dipunsusul
dipunsusun
dipunsutradarai
dipunsutradarani
dipunsuwun
dipuntambah
dipuntambahaken
dipuntambahi
dipuntampi
dipuntandhani
dipuntanem
dipuntata
dipuntayangaken
dipunte
dipuntedahaken
dipuntegesi
dipuntemtokaken
dipuntemuaken
dipuntepang
dipuntepangaken
dipuntepangi
dipunterasaken
dipunterbitaken
dipunterjemahaken
dipuntetepaken
dipuntilar
dipuntimbali
dipuntindakaken
dipuntingali
dipuntugasaken
dipuntugel
dipuntumbas
dipuntunjuk
dipuntutup
dipunubengi
dipunudhak
dipunukum
dipunundhuh
dipununduh
dipununjuk
dipunutus
dipunwaos
dipunwarisaken
dipunwastani
dipunwedalaken
dipunwiwiti
dipunwiyosaken
dipunwontenaken
dipunwujudaken
dipunyasa
diputer
diputusake
dir
diraih
dirajang
dirampungake
dirancang
dirasa
dirasakake
dirawat
dirawuhi
dirayakake
dire
direbut
direct
direction
directly
director
directory
diregani
direkam
direksa
direksi
direktorat
direktori
direktur
dirembug
diremuk
direncanakake
direndhem
direnovasi
diresiki
diresme
diresmekake
diresmikake
direwangi
dirgantara
diri
dirilis
dirimu
dirinya
diripta
diriwayatake
dirjen
dirk
dirty
dirujuk
dirumat
dirungokake
dirungokke
dirusak
dis
disababake
disahake
disain
disaje
disajekake
disajeni
disajik
disajikake
disajikan
disambiguasi
disambung
disambungake
disaranake
disare
disarekake
disaring
disarujuki
disaster
disawang
disc
discography
discover
discovery
discuss
discussion
discussions
dise
disease
diseases
disebabake
disebabke
disebar
disebarake
disebat
disebut
disebutake
disedhiyakake
disediakake
diseduh
diselehake
diselenggarakake
diselenggarakan
disembah
disemprotake
disenengi
disengaja
disengkuyung
disentri
disepakati
diserahake
diserang
diserat
diserep
disertasi
disete
disetel
disetrap
disetujoni
dish
dishes
disi
disiapake
disiapkan
disiarake
disigar
disik
disiksa
disilih
disilihake
disilihke
disimpen
disinaoni
disingkat
disingkirake
disiplin
disiram
disiyapake
disiyarake
disk
diskografi
diskriminasi
diskusi
dislametake
disney
disneyland
display
disponsori
distance
distilasi
distinsif
distribusi
distributed
distribution
distributor
district
districts
distrik
disuarake
disuguhake
disunting
disusul
disusun
disutradarai
disutradarani
disutradharani
disuwun
dit
ditabuh
ditahan
ditahbisake
ditahbiske
ditaklukake
ditakoni
ditale
ditambah
ditambahake
ditambahi
ditambani
ditampa
ditampilake
ditanam
ditandai
ditandatangani
ditandhani
ditandur
ditanduri
ditangani
ditange
ditangkap
ditangkarake
ditangkep
ditarik
ditasi
ditata
ditatah
ditawakake
ditawani
ditayangake
ditayangkan
ditayangke
dite
ditegesi
ditekan
ditekani
ditekuk
diteliti
ditembak
ditembangake
ditemokake
ditemoni
ditempuh
ditemtokake
ditemu
ditemukan
ditengeri
ditentokake
ditepungake
ditepungi
diterangake
diterapake
diterbitake
diterbitkan
diterbitke
diterima
diterjemahake
diterjemahkan
diterusake
ditetepake
ditilik
ditimbali
ditimbang
ditimbulake
ditindakake
ditindakke
ditinggal
ditinggalake
ditingkatake
ditingkatke
ditions
ditiru
ditite
ditjen
ditliti
ditokake
ditolak
ditondoi
ditonton
ditor
ditransfer
ditrapake
ditrepake
ditresnani
ditrima
dituding
dituduhake
ditugasake
ditugasi
ditujokake
dituju
ditukar
dituku
ditulak
ditularake
ditulis
ditulisake
ditulisi
ditulungi
ditumbuk
ditumpaki
ditumpuk
ditunjuk
dituntut
diturunake
ditutup
ditutupi
dituturake
ditya
dityawiske
dityekel
dityeluk
diubah
diubengi
diucapake
diudheg
diudhunake
diufuk
diuji
diukir
diukum
diukur
diuleg
diuleni
dium
diumumake
diuncalake
diundang
diundhang
diundhuh
diunduh
diune
diunggah
diunggahake
diuripake
diurus
diurutake
diusir
diusulake
diutus
div
diva
divergent
diversity
divine
divisi
divisio
division
divonis
diwaca
diwadhahi
diwajibake
diwakili
diwalik
diwangun
diwarisake
diwarnai
diwasa
diwastani
diwatara
diwatesi
diwe
diwedharake
diwek
diwenehake
diwenehi
diwengku
diweruhi
diwetokake
diwiwiti
diwujudake
diwulangke
diwutahake
diwuwuhi
dixie
dixon
diy
diyakini
diyarbakır
diyasa
diœcesis
dj
djadjahan
djaka
djakarta
djalaran
djalil
djaman
djambatan
djamil
djarum
djawa
djawi
djenenge
djibouti
djoemeneng
djohan
djoko
djokovic
djorghi
djp
djuanda
dk
dki
dkj
dkk
dl
dlajah
dll
dluwang
dmitri
dna
do
doa
dobel
doc
dock
doctor
document
documentary
documentation
documents
dodge
dodo
dodol
dodolan
doedoe
doel
doenjang
doeroeng
does
doewe
dof
dog
dogs
doha
dohe
doi
doing
dok
doke
doko
dokter
doktor
doktrin
dokume
dokumen
dokumentasi
dokumenter
dol
dolalak
dolan
dolanan
dolanane
dolar
dollar
dolok
dolphin
dom
domain
domba
dome
domenico
domestic
domestik
dominan
dominasi
domingo
dominic
dominika
dominique
dompu
don
donal
donald
donat
donation
donau
doncaster
done
donetsk
dong
donga
donge
dongeng
donggala
donghae
dongxiang
donia
donna
donnie
donny
dono
donor
donovan
dons
donut
donya
donyane
donyaning
donyanipun
doo
doom
door
doors
doping
dora
dorado
doraemon
doria
doric
doris
dorongan
dorothea
dorothy
dorsal
dortmund
dos
dosa
dosane
dose
dosen
dosis
dostoyevsky
dot
douala
douard
double
doug
douglas
dove
dover
dow
down
download
dowo
doyle
doyok
dp
dpd
dpl
dpp
dpr
dprd
dq
dr
dra
draco
dracula
draft
drag
dragon
drajat
drake
drale
drama
dramatis
dramawan
drastis
drawing
dre
dream
dreams
dreamworks
dresden
dressing
drew
dreyer
dri
driji
drijine
dringu
drink
drive
driver
driyareja
drogba
drona
drop
drs
drug
drum
drumble
drummer
drums
drupada
drupadi
dry
ds
dsb
dt
du
dua
dual
duarte
dubai
dublin
dubur
duc
duck
dude
dudu
duduh
duduhe
duduk
dudutan
due
duet
duga
dugi
duh
duisternis
duit
duk
duka
dukane
duke
dukuh
dukun
dukungan
dukupuntang
dulce
dulu
dulur
dulure
dum
dumadakan
dumadi
dumadine
dumados
dumai
dumas
dumbledore
dume
dumeh
dumpling
dumugi
dumunung
dunant
duncan
dune
dungkek
dunia
dunn
dunung
dununge
dunungipun
dunya
duo
duomo
dupa
dupont
dur
duraka
durango
durasi
durban
dure
duren
durga
durgandini
durham
duri
durian
during
durjana
durkheim
durma
durna
dursasana
durung
duryudana
dus
dusun
duta
dutch
duwe
duweke
duweni
duwit
duwite
duwur
duwure
duyung
dv
dvd
dwa
dwarawati
dward
dwarf
dwarfs
dwi
dwibasa
dwight
dwija
dwiki
dwilapis
dwilingga
dwipangga
dx
dya
dyah
dyan
dylan
dynamic
dynamixel
dynasty
dz
dzikir
dztwo
dzulhijjah
e
ea
each
eagle
earl
earliest
early
earth
easier
easily
east
eastern
eastwood
easy
eat
eating
eba
ebchecked
ebert
ebiet
ebisu
ec
eca
ecclesiae
echinodermata
echo
ecology
economic
economics
economist
economy
ecuador
ed
edam
edan
eddie
eddy
eden
edgar
edge
edhisi
edi
edinburgh
edisi
edison
edit
edited
edith
editing
edition
editions
editor
editorial
editors
edits
edmond
edmonton
edmund
edo
edouard
eds
edu
eduard
eduardo
education
educational
edukasi
edvard
edward
edwards
edwin
edy
ee
een
eerdmans
efe
efek
efektif
efesus
effect
effects
effendi
effendy
efisien
efisiensi
efl
eg
egg
eggplant
egipte
egypt
egyptair
egyptian
eh
ei
eiffel
eight
eileen
ein
eindhoven
eine
eingtor
einstein
eintracht
either
ejaan
ek
eka
eko
ekologi
ekonom
ekonomi
ekonomis
ekosistem
eks
eksarkat
eksekutif
eksistensi
eksklusif
ekskresi
eksotis
ekspansi
ekspedisi
eksperimen
eksperimental
eksploitasi
eksplorasi
ekspor
ekspres
ekspresi
ekstensi
ekstensif
eksterior
eksternal
ekstra
ekstrak
ekstraksi
ekstrem
ekstrim
ekuador
el
ela
elaborazione
elang
elastis
elba
elbrus
elder
eleanor
election
elections
electric
electronic
electronics
elek
elektrik
elektro
elektroforesis
elektromagnetik
elektron
elektronik
elektronika
elemen
element
elements
elena
elephant
elevasi
eleven
elex
eli
elia
elias
elie
elijah
eliminasi
eling
elinga
elips
elisabe
elisabeth
elit
elite
elitre
eliyahu
elizabeth
ella
ellas
elle
ellen
ellie
elliot
elliott
ellis
ello
els
elsa
else
elsevier
elton
elvis
em
ema
email
emas
emban
ember
embong
embrio
embuh
embun
embung
emerald
emergency
emerging
emeritus
emerson
emes
emha
emi
emil
emile
emilia
emilio
emily
emir
emirat
emirates
emisi
emit
emma
emmanuel
emmental
emmy
emoh
emoji
emosi
emosional
empal
empat
empe
empedu
emperor
emping
empire
empon
emprit
empty
empu
empuk
emulsi
en
ena
enabled
enak
enam
encarta
enceng
encer
encore
encourage
encyclopaedia
encyclopedia
encyclopædia
end
endah
endang
endangered
endapan
endase
ende
endek
endemik
endhas
endhase
endhe
endhek
endhog
endhoge
endi
endokrin
ends
ene
enem
enemy
eneng
energi
energy
eng
engagement
engels
enggal
engge
enggon
enggonan
enggone
enggonkoe
enggonku
enggonmoe
enggonmu
engine
engineer
engineering
engineers
engkau
england
english
eniac
enim
enix
enjing
enny
enoch
enom
enome
enrekang
enrico
enrique
ensemble
ensign
ensiklopedi
ensiklopedia
entas
ente
entek
enter
enterprise
enterprises
entertainment
entheng
enting
entitas
entity
entre
entri
entry
entuk
environment
environmental
enzim
enzo
eo
eon
ep
eparchy
epark
eparki
eparsha
epe
epic
epidemi
epidermis
epik
epilepsi
epinefrin
episkopal
episkopale
episode
episodes
epsilon
equestria
er
era
erasmus
eredivisie
eri
eric
erich
erick
ericsson
eridanus
erie
erik
erika
erin
eris
eritrea
eritrosit
erlangga
ernest
ernesto
ernst
eropa
eropah
eros
erosi
error
errors
erwin
es
esa
esai
escape
escoffier
escola
esei
eselon
esensial
eshkol
esih
esino
eskimo
esok
espan
especially
esperanto
espn
espresso
essay
essays
essential
est
estadual
estate
este
esteban
ester
estetika
esther
estonia
estri
estrogen
esuk
esuke
et
etan
etanol
etc
eternal
ethan
ethics
ethiopia
ethiopian
ethnic
ethnography
ethnologue
etienne
etik
etika
etil
etimologi
etiopia
etis
etnik
etnis
etsumi
eu
eudicots
euge
eugene
eukaliptus
eun
euphorbiaceae
eurasia
euro
europa
europe
european
eusebius
eutanasia
ev
eva
evaluasi
evaluation
evan
evangelisasi
evans
eve
evelyn
even
evening
event
events
ever
everest
everton
every
everyday
everyone
everything
evic
evidence
evil
evita
evo
evolusi
evolution
ewa
ewade
ewadene
ewah
ewahan
ewahaning
ewasemono
ewonan
ewu
ewunan
ex
exact
example
examples
excel
excellence
exchange
executive
exhibition
exif
existing
exo
exocet
exodus
expedition
experience
experiment
expert
exploration
explorer
expo
export
exposure
express
expression
extended
extension
extensive
external
extra
extravaganza
extreme
ey
eyang
eye
eyed
eyes
ez
ezra
f
fa
fabaceae
faber
fabian
fabio
face
facebook
faces
fact
factbook
facto
factor
factory
facts
faculty
faenza
fahmi
fahrenheit
failure
fair
fairbanks
fairy
faisal
faith
fajar
fak
fakfak
fakta
faktor
fakultas
fakultatif
falcon
falkland
fall
fallen
falling
falls
fals
falsafah
false
fame
famili
familia
family
famous
fan
fancy
fang
fanny
fans
fantasi
fantasia
fantastic
fantasy
fao
faq
faqih
far
faraday
fardhu
farewell
farid
farida
farisi
farm
farma
farmaian
farman
farmasi
farmer
farouk
fasa
fase
fashion
fasilitas
fasis
faso
fast
fasti
fat
fatah
fatahillah
fatal
fath
father
fati
fatihah
fatima
fatimah
fatmawati
fatwa
fauna
fausto
fauzi
favorit
favorite
faye
fb
fbh
fbi
fbs
fc
fda
fe
fear
feat
feature
featured
features
featuring
feb
februari
february
federal
federasi
federated
federation
federer
federico
fedi
fee
feed
feedback
feel
feet
fei
felice
felidae
felipe
felis
felix
fellow
fellowship
female
femina
feminin
feminis
femmes
fenerbahc
feng
fenisia
fenol
fenomena
fense
fenugreek
fer
ferdinand
fere
ferensi
ferguson
feri
ferme
fermentasi
fermented
fermi
fern
ferna
fernandes
fernandez
fernando
feromon
ferrara
ferrari
ferreira
ferrer
ferry
fest
festival
fet
feta
fetal
feui
fever
few
feyenoord
ff
fff
ffi
fh
fi
fia
fiche
fiction
ficus
fidel
field
fields
fifa
fifi
fifth
fifty
fight
fighter
fighting
figo
figur
figure
figures
fiji
fikih
fikri
fiksi
fiktif
fil
filamen
file
filem
fileme
filepath
files
filipina
filipino
filippo
filipus
fill
film
filme
filmfare
filmografi
filmography
films
filologi
filosofi
filosofis
filsafat
filsuf
filter
filum
fin
final
finalis
finals
finance
financial
finansial
find
finding
fine
finger
finish
finished
finisi
fink
finlan
finland
finlandia
finnair
finnish
fiorentina
fiqh
fiqih
fir
firaun
firdaus
fire
firefox
firenze
firma
firman
firmino
first
fischer
fish
fishbed
fisher
fisi
fisie
fisik
fisika
fisikawan
fisiologi
fisiologis
fisip
fiskal
fit
fitnah
fitri
fitur
fitzgerald
fiumicino
five
fix
fixed
fixing
fk
fkip
fl
flag
flags
flame
flandria
flash
flat
flavius
flavonoid
fle
fleet
fleksibel
fleming
fletcher
flevoland
flickr
flight
float
flood
floor
flora
flore
florence
flores
florian
floriano
florida
florin
flow
flower
flowers
flowing
flu
fluid
fluida
flush
flute
fly
flyer
flying
flynn
fm
fo
focus
foden
foggia
foil
fokker
fokus
folat
folk
folklor
folklore
follow
following
fon
fondant
fone
fonem
fonetik
fonologi
font
fontaine
fontainebleau
fonte
fontsize
food
foods
foot
football
footballer
footballers
footnote
for
foraminifera
forbes
forbidden
force
forces
ford
foreign
forensik
forest
forests
forever
forget
forgotten
fork
form
formal
formaldehida
formasi
format
formation
former
formerly
formosa
forms
formula
formulasi
formulir
fornax
fort
fortaleza
fortress
fortuna
fortune
forum
forward
fosfat
fosfolipid
fosfor
fosil
foster
foto
fotografer
fotografi
fotokimia
foton
fotosintesis
found
foundation
founder
fountain
four
fourier
fourth
fox
foy
fr
fra
frac
fragaria
fragme
fragmen
fraksi
frame
frameless
framework
franc
franca
francais
france
frances
francesco
franchise
francis
francisco
franck
franco
francois
frank
frankfurt
frankfurter
frankia
franklin
franky
frans
fransisco
fransiskus
franz
frasa
frase
fraser
fre
freak
fred
freddie
freddy
frederick
frederik
free
freedom
freeman
freiburg
frekuensi
french
frequently
fresh
freud
fric
friday
fridolin
fried
friedrich
friend
friendly
friends
friendship
friesland
fritter
fritz
frog
from
front
frontie
frost
frozen
fruit
fruits
fruktosa
fry
ft
ftv
fu
fuad
fuel
fufu
fuji
fujian
fujica
fujiwara
fukuchiyama
fukui
fukuoka
fukushima
fulham
full
fuller
fumio
fun
function
fund
fundamental
funds
fungi
fungisida
fungsi
fungsine
fungsinipun
fungsional
funk
furious
furisode
furnitur
further
fury
fusi
fusion
futsal
future
fuzhou
fx
fy
fyodor
g
ga
gabah
gabon
gabriel
gabung
gabungan
gabus
gad
gada
gadah
gadang
gadget
gadgets
gadhah
gadhahanipun
gadhahi
gadhing
gadho
gadhung
gading
gadis
gadjah
gado
gadung
gae
gaga
gagah
gagak
gagal
gagang
gagange
gagasan
gage
gagrag
gagrak
gah
gai
gaib
gairah
gaja
gajah
gajahmungkur
gajahwong
gajayana
gajbe
gaji
gajih
gak
gake
gal
gala
galak
galaksi
galang
galapagos
galat
galatama
galatasaray
galati
galaxy
gale
galeri
galicia
galih
galihe
galihipun
galile
galileo
galis
gallery
gallipoli
gallo
gallus
galuh
galungan
galur
gam
gama
gaman
gamane
gambang
gambar
gambarake
gambaraken
gambaran
gambare
gambaripun
gambia
gambir
gamblang
gambringan
gambuh
gambut
gambyong
game
gamelan
games
gamma
gampang
gampange
gampengreja
gampil
gamping
gampong
gan
gana
ganas
gancaran
ganda
gandane
gandaria
gandasuli
gandha
gandhe
gandheng
gandhengane
gandhi
ganding
gandra
gandring
gandrung
gandrungmangu
gandum
gandusari
gane
ganesha
gang
gangga
ganggang
ganggu
gangguan
gangsa
gangsal
gangster
gangwon
gani
ganja
ganjang
ganjar
ganjaran
ganjil
gansu
gante
ganti
gantian
gantine
gantiwarna
gantos
gantosing
gantosipun
gantung
gantungan
ganyong
gao
gaon
gap
gapeka
gapura
gar
gara
garakr
garam
garang
garap
garapan
garapane
garasi
garba
garci
garcia
garda
garde
garden
gardens
gardner
gare
garebeg
gareng
gareth
garfield
garin
garing
garis
garner
garpu
garrett
garros
garuda
garudha
garudheya
garum
garung
garut
garwa
garwane
garwanipun
gary
gas
gasherbrum
gassen
gaston
gastronomi
gat
gata
gatak
gate
gatel
gates
gatholoco
gathotkaca
gati
gatif
gatot
gatotkaca
gatra
gatsby
gattefosse
gaul
gaulle
gaun
gauss
gautama
gavin
gawa
gawai
gawan
gawang
gawanu
gawat
gawe
gawean
gaweane
gawene
gaweyan
gaweyane
gay
gaya
gayam
gayamsari
gayane
gayo
gayuh
gayus
gayut
gayutan
gayutane
gayutanipun
gaza
gb
gcatholic
gd
gdan
gde
gdp
ge
gear
gebang
gebog
gebyagan
ged
gedang
gede
gedhang
gedhangan
gedhe
gedhene
gedhi
gedhong
gedhung
gedong
gedung
geertz
gegaman
gegambaran
gegandhe
gegandhengan
gegayuhan
gegayutan
gegayutane
gegayutanipun
geger
gegere
gegesik
gegodhongan
gegremet
gegremetan
geguritan
geguritane
geibi
geisha
gejala
gejolak
gekko
gel
gela
geladhak
gelandhang
gelang
gelanggang
gelap
gelar
gelaran
gelare
gelas
gelatin
gelderland
gelem
gelembung
gelis
gelombang
gelora
gelut
gema
gemah
gemak
gemawang
gembel
gembira
gemblong
gembong
gemeente
gemilang
gemini
gemolong
gempa
gempol
gemuh
gen
genawati
gencatan
gendari
gende
gender
gendera
gendhe
gendhing
gendhis
gending
gendul
gene
geneng
genep
genera
generaal
general
generasi
generatif
generation
generator
genesis
genetic
genetik
genetika
geneva
geng
genghis
gengsi
geni
genine
genius
genn
genoa
genocide
genom
genre
genta
gente
genteng
genti
genting
gentos
genuk
genus
geo
geodesi
geoff
geoffrey
geofisika
geografi
geografis
geographic
geographical
geography
geologi
geometri
geometris
georg
george
georges
georgetown
georgia
georgian
geospasial
gepeng
gepuk
ger
gerah
gerak
gerakan
gerakane
gerald
geraldine
gerard
gerardo
gerbang
gerbong
gere
gereja
gerejawi
gerhana
gerhard
gerilya
germ
germain
german
germany
germinal
gerokgak
gerrard
gerrit
gershwin
gesang
gesangipun
gesekan
geser
gestapo
get
getafe
getah
getaran
getas
getasan
gethuk
getih
getihe
gets
getting
getuk
getun
geun
gg
gh
ghaib
ghana
ghazali
ghee
ghil
ghita
ghost
ghoul
ghra
gi
gia
giancarlo
gianluigi
giant
gianyar
gibraltar
gibran
gibson
giddens
gie
gif
gifu
giga
gigacatholic
giggs
gigi
gih
gil
gila
gilang
gilap
gilbert
gilberto
giles
gili
gilig
giling
gilingan
giliran
gill
gilles
gillian
gillingham
gim
gimbal
gin
gina
ginakaken
ginanipun
ginataang
ginawe
ginekologi
ginelar
ginger
gingerbread
ginjel
ginsburg
ginseng
gio
giok
gion
gional
giorgio
giovanni
gippert
gipsy
giri
girimarta
giring
girisa
giriwaya
girl
girls
gisik
gisiking
gislatif
gita
gitar
gitaris
gito
giuseppe
give
given
giving
giyanti
giyaran
giyat
giza
gizi
gje
gkj
gkr
gl
glacier
gladhe
gladhen
gladhi
gladhiator
gladri
gladys
glagah
glam
glandhang
glang
glasgow
glass
gle
glen
glenn
glepung
gletser
glikogen
glikolisis
glikosida
glise
gliwice
global
globalisasi
globe
globulin
gloria
glory
glukosa
gluten
gm
gmbh
gme
gmina
gmt
gnocchi
gnome
gnu
go
goa
goal
goals
goan
gobel
gobis
goblog
gochujang
god
godhog
godhogan
godhok
godhong
godhongan
godhonge
godong
gods
goenawan
goenoeng
goeperme
goes
goeslaw
goesti
goethe
gogh
goguryeo
gohan
goia
going
goje
goku
gol
gola
golan
gold
golda
goldberg
golden
goldstein
goldwag
goldwyn
gole
golek
goleki
golf
golgi
golkar
golong
golongan
golongane
golonganing
gombal
gombong
gomes
gomez
gon
gonc
gonda
gondang
gondhang
gondhanglegi
gondhangreja
gondok
gone
gong
gonta
gontor
gonza
gonzaga
gonzalez
goo
good
goodbye
goodman
google
gora
gordon
gore
goreng
gorengan
gorge
gori
gorius
gorky
goroh
gorokan
gorontalo
goryeo
gosip
gosling
gosong
gospel
got
gotama
gothic
gotik
gotland
gotong
gottfried
gouda
gould
gourcuff
gourmet
gov
government
governor
gowa
gowina
goyang
gp
gph
gps
gr
gra
graaf
grabag
grace
gracia
grad
gradasi
graeme
graf
grafica
grafik
grafis
grafit
grafiti
graha
graham
grahana
gram
gramang
gramedia
grammar
grammy
gramsci
gran
grana
granada
granat
grand
grande
grandes
granger
granit
grant
grants
graph
graphic
graphics
graphs
grapyak
gras
grasindo
grass
gratin
gratis
grave
graves
gravitasi
gray
graz
gre
great
greater
greatest
grebeg
greece
greek
green
greene
greenwich
greenwood
greet
greg
greget
gregg
gregorian
gregorio
gregorius
gregory
greja
grejani
grejawi
grenada
grenfell
grenoble
gresik
grey
gribig
gridcolor
grieg
griffin
griffith
grikenlan
gringsing
gripen
griya
griyanipun
gro
grobogan
grogol
grojogan
grombolan
gronggongan
groningen
groovy
grosir
grossmu
ground
group
groups
grove
growing
growol
growth
gru
grujugan
grumbul
grundlegung
grunlan
grup
grus
gs
gsm
gt
gtv
gu
gua
guacamole
guadalajara
guadalupe
guadeloupe
guam
guangdong
guangxi
guangzhou
guard
guardian
guardiola
guatemala
guayaquil
gubahan
gubeng
gubernur
gubug
gubuk
guci
gudang
gudeg
gudhang
gudheg
gudo
gue
guernsey
guerra
guerrero
guest
guevara
guez
gugat
gugur
gugus
gugusan
gui
guide
guidelines
guides
guido
guild
guillaume
guillermo
guillotine
guine
guinea
guinness
guitar
guizhou
gujarat
gujarati
gujo
guk
guksu
gul
gula
gulai
gulasi
gulat
gule
gulf
guling
gulma
gulu
guluk
gulune
gulung
gulungan
gum
gumanti
gumantung
gumarang
gumathok
gume
gumedhe
gumelar
gumelem
gumo
gumpalan
gumujeng
gumuk
gumun
gumuruh
gun
guna
gunakake
gunakan
gunakna
gunane
gunawan
gundam
gundhul
gundih
gundul
gunem
guneman
gung
gunggung
gunggunge
gunggungipun
gunma
gunnar
gunting
guntur
gunung
gunungan
gunungkidul
gunungpathi
gunungsari
guo
gupe
gupta
gur
gurah
gurami
gurih
gurion
gurit
gurita
guritan
guru
guruh
gurun
gurune
gurung
gus
gusi
gustaf
gustav
gustave
gustavo
gusthi
gusti
gustine
gut
gutawa
gutenberg
gutie
guwa
guy
guyana
guyon
guyonan
guyu
guyub
gwangju
gx
gya
gyeonggi
gyeongsang
gym
gymnasium
gyo
gyu
h
ha
haag
haarlem
haas
haber
habib
habibie
habis
habitat
habitate
habsburg
hacker
had
hadar
hades
hadi
hadiah
hadiningrat
hadir
hadis
hadist
hadits
hadiwijaya
hadjar
hae
hafiz
hagia
hagrid
hague
hahn
hai
haid
haifa
hail
hainan
hair
haiti
haj
hajar
hajat
hajatan
haji
hak
hakata
hake
haken
hakikat
hakim
hakka
haku
hal
hala
halal
halaman
hale
half
halifax
halim
halimun
haliotis
hall
halle
halloween
halmahera
halo
halong
halte
haluan
ham
hama
hamamatsu
hamanako
hamas
hamataliwa
hamba
hambatan
hamburg
hamburger
hamengku
hamengkubuwana
hamengkubuwono
hamid
hamilton
hamka
hamlet
hammer
hammurabi
hampa
hampir
hampshire
hamster
hamzah
han
hana
hanacaraka
hanafi
hanan
hand
handbook
handil
handoko
hands
hane
hang
hangat
hangeul
hangover
hangul
hanifah
hanifan
hanja
hanks
hankyu
hanna
hannah
hannibal
hannover
hanoi
hanover
hans
hansen
hanshin
hanto
hantu
hanum
hanung
hanura
hanya
hanyar
hanyu
hanzi
happen
happening
happy
hapsari
hara
harahap
harald
harap
harapan
harbin
harbor
harbour
harcourt
hard
hardcover
hardi
hardware
hardy
hare
harfiah
harga
hari
harian
harimau
harina
haris
harley
harlino
harmoni
harmonis
harmony
harold
harper
harpercollins
harriet
harris
harrison
harry
hars
harsono
hart
harta
hartono
haruhara
haruka
harum
harun
harus
harvard
harvey
hary
harya
haryanto
haryo
haryono
has
hasakah
hasan
hasanuddin
hasbro
hash
hashanah
hasil
hasile
hasrat
hasri
hassan
hasta
hastinapura
hasundutan
hasyim
hat
hatan
hatchback
hate
hathaway
hati
hatiku
hatta
hau
haur
haute
havana
have
haven
havid
having
havre
hawa
hawai
hawaii
hawan
hawane
hawk
hay
hayabusa
hayam
hayati
hayden
haydn
hayes
hayu
hayuk
haywa
hazard
hazel
hb
hbo
hbs
hc
hcl
hd
he
head
header
headphone
health
healthy
hear
heart
hearts
heat
heather
heathrow
heaven
heavy
hebat
hebrew
hector
hedge
hee
heian
heidelberg
height
heights
heinrich
heinz
hektar
helai
held
helen
helena
helene
helikopter
helios
helium
hell
hello
helm
helmy
help
helsinki
helvetica
hematopoietik
hemingway
hemoglobin
hemoroid
hen
henderson
hendra
hendrickson
hendrik
hendro
hengky
heni
henk
henri
henrik
henrique
henrisusanta
henry
heo
hepatitis
her
hera
herakles
herald
herb
herba
herbal
herbarium
herbert
herbisida
hercule
hercules
here
heri
hering
heritage
herlambang
herman
hermann
hermansyah
hermes
hermione
herna
hero
herodotus
heroes
herrera
herring
herry
herschel
hertz
heru
herzegovina
herzfeld
hesse
hessen
hestia
het
heterotrof
hetu
heung
hewan
hey
heyne
hg
hi
hias
hiasan
hibah
hibari
hibiscus
hibrida
hiburan
hid
hida
hidangan
hidayah
hidayat
hidayatullah
hidden
hide
hideyoshi
hidra
hidrasi
hidrofobik
hidroge
hidrogen
hidrokarbon
hidroksida
hidrolisis
hidrologi
hidup
hierarchy
hierarki
hifa
higashi
high
higher
highest
highland
highlight
highway
hijau
hijriyah
hikari
hikayat
hikmah
hikmat
hiku
hilal
hilang
hilary
hilbert
hilir
hill
hillary
hillenburg
hills
hilton
him
himalaya
hime
himeji
himne
himpunan
himself
hin
hina
hinata
hinayah
hindhia
hindhu
hindi
hindia
hindu
hinduism
hinduisme
hing
hingga
hino
hip
hipertensi
hipote
hipotesis
hira
hiragana
hirarki
hirata
hirohito
hiroshi
hiroshima
his
histoire
histologi
historia
historic
historical
histories
historiografi
historique
historis
history
hit
hitam
hitler
hits
hiu
hiv
hiya
hiyu
hizbullah
hj
hk
hke
hkt
hl
hlist
hlm
hm
hmi
hms
hne
hnik
hning
ho
hoa
hob
hobart
hobbes
hobi
hoe
hoeve
hoffenheim
hoffman
hogkyen
hogwarts
hok
hoki
hokkaido
hokkian
hokkien
hoku
hold
holding
holdings
hole
holiday
holland
holly
hollywood
holmes
holocaust
hologram
holstein
holt
holy
home
homeland
homepage
homer
homeros
homme
homo
homogen
hon
honda
honduras
honey
hong
hongaria
honggari
hongkong
honneur
honolulu
honor
honore
honoris
honour
honshu
hoo
hood
hook
hoon
hop
hope
hopkins
hoppus
hora
hordaland
horison
horisontal
horizon
horizontal
horizonte
hormat
hormon
horn
hornet
horok
horologium
horor
horror
hors
horse
horseshoe
hospital
host
hosted
hot
hotcat
hote
hotel
hotspot
hotspur
houghton
hour
hours
house
houston
houtman
how
howard
howe
however
hoya
hp
hr
hs
hsu
ht
htm
html
htmlhttp
http
https
hu
hua
huang
hub
hubble
hubei
hubert
hubertus
hubungan
hubungane
huda
hudan
huddersfield
hudson
hue
hugh
hughes
hugo
hui
hujan
hukum
hukuman
hukume
hull
hulu
hum
human
humaniora
humanities
humanoid
humas
humbang
humboldt
humboldtforum
hume
humor
humus
hun
hunan
hundred
hung
hungaria
hungarian
hungary
hunt
hunter
huntington
hurairah
huru
huruf
hurup
husada
husain
husein
husin
hussein
husserl
hut
hutan
huwa
huwah
huwus
huygens
hwa
hwan
hwang
hyang
hybrid
hyde
hyderabad
hydra
hydrocephalus
hydrus
hye
hyeon
hymn
hyo
hyogo
hypothesis
hyuk
hyun
hyung
i
ia
iain
ian
ias
iast
iata
iba
ibadah
ibadat
iban
ibara
ibe
iberia
ibiza
iblis
ibm
ibn
ibnu
iboe
ibrahim
ibrani
ibtidaiyah
ibu
ibuke
ibukota
ibuku
ibukutha
ibumu
ibune
ibunipun
ic
ica
ical
icalipun
icao
icd
ice
iceland
ichi
ichibata
ichinomiya
ichiro
ichtiar
icmi
icon
id
ida
idaho
ide
idea
ideal
ideas
identical
identifiant
identification
identifier
identifiers
identifikasi
identik
identitas
identity
ideologi
idf
idh
idha
idhe
idi
idin
idiot
ido
idol
idola
idris
idrus
ids
idu
idul
ie
iec
ieyasu
if
iftfishing
ify
ig
iga
ign
ignacio
ignatius
igor
iguana
ih
ihram
ihsan
ii
iida
iii
iitomo
ija
ijazah
ije
ijem
ijen
iji
ijik
ijin
ijo
ijol
ijolan
ijrah
ik
ika
ikal
ikan
ikang
ikat
ikatan
ike
ikeda
iket
iketan
ikhlas
ikhtisar
iki
ikip
ikj
iklan
iklim
iko
ikoe
ikoma
ikon
iku
ikut
il
ila
ilahi
ilan
ilang
ilange
ilat
ilate
ile
ilegal
iles
ilham
ili
iliad
iline
ilining
ilir
illa
illinois
illustrated
illustration
illustrator
ilmiah
ilmu
ilmune
ilmuwan
iluminasi
ilusi
ilustrasi
ilyas
im
ima
image
images
imagesize
imagiri
imajinasi
imam
imamat
iman
imax
imbang
imbuhan
imdb
imelda
imf
img
imhoff
imigran
imigrasi
imitasi
imle
imlek
immanuel
impact
impe
impen
imperial
imperialisme
imperium
impian
implan
implications
implikasi
impor
import
important
improve
improved
improvements
improving
improvisasi
imran
imun
imunologi
in
ina
inan
inang
inari
inbox
inc
inca
inch
incheon
inchi
inci
include
includes
including
increment
incumbent
ind
indah
indahnya
inde
indeks
independen
independence
independent
indera
index
indhi
indhia
indhividhu
indhiya
indhone
indhuk
indhustri
india
indian
indiana
indianapolis
indica
indie
indies
indigenous
indigo
indikasi
indikator
indira
indis
indische
individu
individual
indiya
indjil
indo
indochina
indocina
indomaret
indomie
indone
indonesia
indonesian
indonesie
indoor
indosat
indosiar
indra
indragiri
indramayu
indri
indro
induk
induksi
indung
indus
industri
industrial
industries
industry
indy
indycar
ine
inews
inf
infanteri
infantri
infe
infection
infeksi
inferior
infinite
inflamasi
inflasi
inflorescence
influence
influenza
info
infobox
informal
informasi
informatika
information
infotainment
infra
inframerah
infrastruktur
infus
ing
ingakng
ingang
ingaran
ingatase
inge
ingenious
inggih
inggil
inggilipun
inggris
ingih
ingin
ingkag
ingkan
ingkang
ingon
ingsoen
ingsun
inhibitor
ini
inilah
inisial
inisiatif
initial
initiative
injeksi
injil
inka
inkarnasi
inn
inna
inner
inovasi
inovatif
inp
input
insan
inse
insee
insektisida
insert
inside
insiden
insights
insinyur
insomnia
inspektorat
inspektur
inspirasi
instagram
instalasi
instan
instansi
instead
institusi
institut
institute
institution
institutions
instituto
instructions
instruksi
instrume
instrumen
instrumental
insulin
insurance
int
intan
intangible
inte
integral
integrasi
integrated
integritas
intel
intele
intelektual
intelijen
intellectual
intelligence
inten
intensif
intensitas
inter
interactive
interaksi
interaktif
intercontinental
interest
interested
interface
interior
interkontinental
intermediate
internacional
internal
internasional
internasionale
international
internationale
internazionale
interne
internet
interpretasi
interpretation
interpreter
intertoto
interval
interview
interviews
interwiki
inti
intine
intip
into
intrinsik
intro
introduction
intuk
inul
inuyama
inval
invalid
invasi
invasif
invasion
inve
invention
invertebrata
investasi
investigasi
investigation
investment
investor
io
ioc
iommi
ion
ionik
ionisasi
ios
iowa
ip
ipa
ipb
ipcc
ipe
iphone
ipin
ipm
ipomoea
ips
ipswich
iptek
ipun
iqbal
ir
ira
irah
irahan
irahane
irahanipun
irak
irama
iran
iranian
iraq
iraqi
irawan
irc
ire
ireland
irene
ireng
irfan
iri
irian
irigasi
iring
iringan
iris
irisan
irish
irit
iritasi
irlan
irlandia
iron
irpino
irung
irunge
irving
irwansyah
is
isa
isaac
isabeau
isabel
isabella
isabelle
isak
isan
isbn
ise
iseh
isfahan
ishak
ishaq
isi
isian
isidore
isidro
isih
isin
isine
isining
isinipun
isis
iskak
iskandar
iskandariyah
isl
isla
islam
islamabad
islami
islamic
islamiyah
island
islands
isle
ismail
ismailiyah
ismaya
isme
iso
isoh
isolasi
isoniazid
isopoda
isor
isotop
isra
israe
israel
israeli
israil
issn
issue
issues
issun
ist
istana
istanbul
istat
istiadat
istilah
istime
istimewa
istiqlal
istirahat
istituto
istri
isu
isuzu
isya
isyana
isyarat
it
ita
itali
italia
italiae
italian
italiana
italy
itb
item
itemid
items
ithaca
itik
ito
its
itself
itsna
itu
itunes
itung
itungan
iu
iucn
iupac
iuris
iv
ivan
ivo
ivoire
iwa
iwak
iwake
iwan
iwate
iwe
iwo
ix
ixora
iya
iyeth
iz
izin
izu
izumo
j
ja
jaan
jaba
jabal
jaban
jabang
jabar
jabat
jabatan
jabatane
jabatanipun
jabir
jabrix
jabung
jabur
jacinto
jack
jackie
jackman
jackson
jacky
jacob
jacobs
jacobus
jacques
jadah
jade
jadi
jadwal
jae
jaffa
jaga
jagad
jagaddhita
jagading
jagal
jaganalan
jagat
jagati
jaggery
jago
jagoan
jaguar
jagung
jagur
jah
jaha
jahannam
jahat
jahe
jahit
jai
jaime
jait
jaja
jajahan
jajak
jajal
jajan
jajanan
jajangmyeon
jajar
jajaran
jak
jaka
jakarta
jakartajkt
jakat
jake
jaken
jakenan
jaket
jakob
jaksa
jal
jala
jalak
jalan
jalanan
jalapa
jalapen
jalar
jalaran
jalarane
jale
jaler
jali
jalisco
jalma
jalmi
jaluk
jalur
jam
jama
jamaah
jamadagni
jamaica
jamaika
jamak
jamal
jaman
jamane
jamanipun
jamban
jambe
jambi
jamblang
jambon
jambrong
jambu
jambul
james
jami
jamie
jamil
jaminan
jampi
jamu
jamur
jamus
jan
jana
janaka
janda
jane
janeiro
janet
jang
jangan
janganan
janger
janggut
jangka
jangkar
jangkauan
jangkep
jangkepe
jangkepipun
jangkrik
janin
janji
janjine
janma
jantan
jantung
jantunge
januari
january
janur
japa
japah
japan
japanese
japonica
jar
jarah
jarak
jarake
jarakipun
jaran
jaranan
jarang
jardin
jare
jared
jarene
jari
jaring
jaringan
jaro
jarum
jarwa
jarwane
jarwanipun
jas
jasa
jasad
jasane
jasanipun
jasmani
jasmine
jason
jasper
jassin
jata
jatah
jatayu
jate
jateng
jati
jatibarang
jatigede
jatijajar
jatilawang
jatiluhur
jatim
jatine
jatinegara
jatining
jatinom
jatipura
jatirata
jatisobo
jatisrana
jatiswara
jatiwangi
jatuh
jauh
jauhari
jav
java
javaansch
javaansche
javanese
javanica
javanicus
javascript
javier
jawa
jawab
jawaban
jawah
jawane
jawara
jawatan
jawi
jay
jaya
jayabaya
jayadrata
jayakarta
jayakatwang
jayanagara
jayaningrat
jayapura
jayawijaya
jaye
jazirah
jazz
jb
je
jean
jeanne
jeans
jebakan
jeblugan
jebul
jebule
jeddah
jeff
jefferson
jeffrey
jejak
jejanganan
jejaring
jejeg
jejer
jejere
jejibahan
jejodhoan
jeju
jejuluk
jek
jelai
jelajah
jelangkung
jelas
jeli
jelly
jemaah
jemaat
jembar
jembare
jembaripun
jembatan
jembawan
jember
jembrana
jemparing
jempol
jemuah
jemuwah
jen
jenang
jenar
jenazah
jendela
jenderal
jendhe
jendral
jene
jeneng
jenenge
jenengku
jenengmu
jeneponto
jenewa
jeng
jenggala
jenie
jenis
jenjang
jenkins
jennifer
jenny
jeno
jens
jensen
jenuh
jeolla
jeon
jeong
jeot
jeotgal
jepang
jepara
jepon
jer
jeram
jerami
jerapah
jerawat
jeremy
jerman
jermanik
jero
jeroan
jeroesale
jerome
jeron
jerone
jeroning
jerry
jersey
jeru
jeruk
jeruklegi
jerusalem
jesse
jessica
jesu
jesus
jet
jetis
jewish
jews
jfk
jharkhand
ji
jia
jiang
jibril
jihad
jihan
jika
jiken
jil
jilbab
jilid
jill
jim
jima
jimakir
jimat
jimmy
jin
jina
jinak
jing
jingga
jinis
jinise
jinising
jinisipun
jinja
jinny
jinten
jipang
jiraiya
jisim
jiwa
jiwane
jj
jjim
jk
jkt
jl
jm
jmpl
jn
jo
joa
joachim
joan
joanna
job
jobin
jobs
jocara
jochanan
jockie
jodi
jodoh
joe
joel
joey
jogan
joge
joged
joget
jogja
jogjakarta
joglo
joglosemar
joglosemarkerto
johan
johann
johanna
johannes
johannesburg
johansson
johar
john
johnny
johns
johnson
johnston
johor
johr
join
joint
jojo
joker
joko
jokowi
jolie
joliot
jombang
jomblo
jon
jonah
jonas
jonathan
jones
jong
jonge
jonggrang
jongmyo
joni
joo
joon
joong
jordan
jorge
jorong
jorr
jos
jose
josef
joseon
joseph
josephine
josephus
josh
joshua
jost
jourei
journal
journalist
journals
journey
jowo
joy
joyce
jp
jpeg
jpg
jps
jr
jrengik
jro
jroning
js
jstor
ju
juai
jual
juan
juanda
juara
juba
jubah
jubin
judaism
jude
judge
judhul
judhule
judi
judith
judo
judul
judule
judy
juga
jugul
jujugan
jujur
jul
jules
juli
julia
julian
juliana
julie
julien
juliet
julio
julius
julukan
july
jum
jumadil
jumapala
jumat
jumbuh
jume
jumeneng
jumenengan
jumenenge
jumenengipun
jumlah
jumlahe
jumo
jump
jumprit
jumrah
jumuah
jumuwah
jun
junaedi
june
jung
jungle
juni
junior
juniore
juniors
juniper
juno
junta
jupe
jupiter
jupuk
jur
jura
juragan
jurang
juri
jurit
jurnal
jurnalis
jurnalisme
jurnalistik
juru
jurus
jurusan
jus
just
justice
justify
justin
jusuf
juta
juventus
juwana
juwara
juwiring
juz
jv
jw
jya
jyp
k
ka
kaadilan
kaagamaan
kaajaiban
kaamanan
kaamiran
kaanan
kaanane
kaancam
kaancem
kaanggep
kaanggit
kaanggo
kaangkat
kaapunten
kaarahaken
kaaran
kab
kaba
kabab
kababar
kabangsan
kabangsane
kabangun
kabar
kabare
kabaripun
kabat
kabawah
kabayan
kabe
kabebasan
kabecikan
kabegjan
kabeh
kabehe
kabekta
kabel
kabeneran
kabentuk
kabetahan
kabetyikane
kabhi
kabiasaan
kabijakan
kabikak
kabin
kabine
kabinet
kabir
kabisan
kabiskopan
kabotan
kabudayaan
kabudayan
kabuh
kabuka
kabukak
kabukten
kabukti
kabul
kabungahan
kabungahane
kabungkar
kabupate
kabupaten
kabur
kabut
kabutuhan
kabutuhane
kaca
kacamata
kacamatan
kacampur
kacang
kacangan
kacarita
kacariyos
kacariyosaken
kacatet
kacathet
kace
kacekel
kacepatan
kacepetan
kacetha
kacilakan
kacipta
kad
kadade
kadadean
kadadeyan
kadadian
kadadosan
kadaftar
kadakwa
kadal
kadaluwarsa
kadamel
kadang
kadangkala
kadar
kadaya
kadayan
kade
kadeleng
kademangan
kader
kadesh
kadhal
kadhang
kadhangkala
kadhaptar
kadhapuk
kadhapur
kadhar
kadhaton
kadhaulatan
kadhawuhan
kadhe
kadhemen
kadhiri
kadhokteran
kadhuwuran
kadi
kadigdayan
kadipate
kadipaten
kadir
kadiri
kadis
kado
kadohan
kadol
kadonyaan
kadonyan
kados
kadosde
kadosdene
kadosipun
kadospundi
kadosta
kadung
kadunungan
kadurakan
kadurjanan
kady
kadya
kae
kaendahan
kaenem
kaeng
kafe
kafein
kafeina
kafir
kafka
kaga
kagabung
kagambaraken
kagami
kagandhe
kaganggu
kagantos
kagarwa
kagawa
kagawe
kagayuh
kagayut
kage
kagelar
kagem
kagero
kagesangan
kaget
kagiatan
kaginakaken
kagiyaraken
kagiyatan
kagiyatane
kagolong
kagoshima
kagubernuran
kagunaan
kagunakake
kagunan
kagungan
kagungane
kagunganipun
kah
kahanan
kahanane
kahananipun
kahayan
kahfi
kahitna
kahn
kahubung
kahuripan
kahyangan
kai
kaidah
kaido
kaigan
kaiket
kaimaman
kaimana
kaimanan
kain
kainfe
kainspirasi
kairing
kairo
kaisar
kaisi
kaitan
kaitane
kaja
kajaba
kajahatan
kajarwakaken
kajawe
kajawi
kaje
kajebak
kajekte
kajen
kajeng
kaji
kajian
kajibah
kajoran
kajuaraan
kajupuk
kajuwaraan
kajuwaran
kak
kaka
kakaisaran
kakak
kakalih
kakalihipun
kakamigahara
kakandhut
kakang
kakange
kakangne
kakao
kakap
kakashi
kakawin
kake
kakebalan
kakegawa
kakehan
kakek
kaken
kakerasan
kaki
kakiyatan
kakogawa
kakristenan
kaktus
kaku
kakuasaan
kakuatan
kakubur
kakung
kakunge
kakungipun
kakurangan
kakuwaosan
kakuwasaan
kakuwasan
kakuwatan
kal
kala
kalah
kalahiran
kalairan
kalajengaken
kalajengan
kalajengking
kalakon
kalaksanan
kalam
kalamangga
kalamangsa
kalampahaken
kalampahan
kalamwadi
kalane
kalang
kalangan
kalanggengan
kalangsungan
kalangwan
kalasan
kalatidha
kalau
kalawan
kalawarta
kalawarti
kalawau
kalayan
kalbu
kaldea
kaldera
kaldhu
kaldu
kale
kalebet
kalebu
kaledonia
kaleh
kaleksanan
kalem
kalembaban
kalender
kalendher
kaleng
kalengan
kalenggahan
kalepatan
kaleresan
kali
kalian
kaliangkrik
kalibagor
kalibaru
kalibat
kalibata
kalibawang
kalibening
kaligesing
kaligondhang
kaligrafi
kaligung
kalih
kalihan
kalihipun
kalijaga
kalijambe
kalikajar
kalima
kalimanah
kalimantan
kalimat
kaline
kaling
kalingga
kaliningrad
kalinyamat
kalinyamatan
kaliori
kalis
kalisat
kalitengah
kalitidu
kalium
kaliwira
kaliwungu
kaliyan
kalki
kalkulator
kalkulus
kalkun
kalla
kalodhangan
kaloka
kalompok
kalong
kalor
kaloran
kalori
kaloro
kaloron
kalorone
kalsel
kalsium
kalteng
kaltim
kaluhuran
kalung
kalungguhan
kalungguhane
kalungkung
kaluputan
kaluputane
kalurahan
kalus
kaluwarga
kaluwargane
kaluwihan
kam
kama
kamaboko
kamaharajan
kamajaya
kamakmuran
kamakura
kamal
kamampuan
kaman
kamandaka
kamangka
kamanungsan
kamar
kamardhikan
kamardikan
kamardikane
kambang
kambil
kambing
kamboja
kame
kamehameha
kamen
kamenangan
kamentrian
kamera
kamerun
kameyama
kami
kamil
kamila
kamis
kamlaratan
kamolan
kamot
kamp
kampak
kampala
kampanye
kampar
kampong
kampung
kampus
kamu
kamuflase
kamulyan
kamungkinan
kamus
kan
kana
kanaan
kanada
kanadha
kanagaran
kanagawa
kanak
kanal
kanan
kanayama
kanca
kancah
kancana
kancane
kancanipun
kancil
kancing
kanda
kandang
kandangan
kandel
kandele
kandeman
kandha
kandhane
kandhang
kandhangan
kandhel
kandhung
kandhungan
kandhutan
kandidat
kandou
kandung
kandungan
kandutan
kane
kang
kangdjeng
kange
kangean
kangelan
kangen
kangge
kanggo
kanggonan
kanggone
kangje
kangjeng
kangkung
kangmas
kangmase
kangmasipun
kango
kangri
kanguru
kani
kanigara
kanik
kanika
kanisius
kanisme
kanjeng
kanji
kanker
kannada
kano
kanoman
kanon
kanopi
kanor
kansai
kansas
kanselir
kant
kantata
kanthi
kanthil
kanthong
kanthor
kanti
kantin
kanto
kanton
kantong
kantor
kantore
kantun
kantung
kantya
kantyane
kanugrahan
kanvas
kanwil
kanyatan
kaohsiung
kaos
kap
kapacak
kapadhetan
kapak
kapal
kapale
kapan
kapane
kapanggih
kapanggihaken
kapangkatan
kapanlagi
kapapar
kapapat
kapara
kaparingake
kaparingaken
kaparingan
kapas
kapasang
kapasitas
kapasitase
kapasrahaken
kapat
kapatah
kapatihan
kapausan
kape
kapecah
kapeksa
kapel
kapemimpinan
kapendhet
kapengkar
kapengker
kapentingan
kapenuhan
kaperang
kapercayan
kaperlon
kaperluan
kapernah
kapernahake
kapi
kapiler
kapilih
kapimpin
kapindho
kapindhone
kapindo
kaping
kapinteran
kapinterane
kapir
kapisah
kapisan
kapisanan
kapisananipun
kapisane
kapita
kapitadosan
kapitadosanipun
kapital
kapitalis
kapitalisme
kapitayan
kapitu
kapitulasining
kapitulungan
kapitunan
kapok
kapolda
kapolri
kapoor
kaprabon
kapracaya
kapracayan
kaprah
kaprayogakake
kapre
kaprenah
kapribade
kapribaden
kaprigelan
kaprigelane
kaprigelanipun
kapriksa
kapriye
kapsul
kapte
kapten
kapuas
kapuk
kapulaga
kapulauan
kapulise
kapuloan
kapuloansangihe
kapundhut
kapungkasan
kapungkur
kapur
kapurih
kapustakaan
kapustakan
kaputusan
kapwa
kar
kara
karachi
karadjan
karaeng
karahayon
karajaan
karajan
karakoram
karakter
karaktere
karakteristik
karam
karame
karamel
karan
karana
karang
karangan
karangane
karanganom
karanganyar
karangasem
karangawen
karangbinangun
karangdawa
karanggayam
karanggedhe
karangkobar
karanglewas
karangmaja
karangmalang
karangnangka
karangpandhan
karangpucung
karangrayung
karangreja
karangsambung
karangsari
karangtengah
karaoke
karaos
karas
karat
karate
karaton
karau
karawang
karawitan
karbala
karbohidrat
karbon
karbonat
karbondioksida
karburator
karcis
kardinal
kardiopulmoner
kardiovaskular
kare
karebe
karel
karemenan
karen
karena
karenan
karenina
karep
karepe
karepku
karesidenan
karet
kargo
kari
karibia
karie
karier
kariere
karieripun
karies
karika
karikatan
karikatur
karim
karimun
karimunjawa
karipta
karir
karire
kariripun
karisakan
kariya
karl
karlsruhe
karma
karmel
karmila
karna
karnataka
karnaval
karnivora
karno
karo
karode
karohanen
karone
karsa
karsane
karsaning
karsanipun
karst
karta
kartanagara
kartasura
kartika
karting
kartini
kartografi
karton
kartosoewirjo
kartu
kartun
karun
karung
karunia
karusakan
karusuhan
karya
karyane
karyanipun
karyawan
kas
kasa
kasadharan
kasai
kasalahan
kasambe
kasampurnan
kasan
kasanga
kasangsaran
kasar
kasarasan
kasare
kasatriyan
kasbut
kase
kasebar
kasebat
kasebut
kasedhiya
kasedhiyan
kasehatan
kaseimbangan
kasekte
kasempatan
kasenengan
kasenengane
kasengsem
kasenian
kasepuhan
kaserang
kaserat
kaserol
kaset
kasetyan
kashima
kashmir
kasi
kasiat
kasih
kasihan
kasil
kasile
kasiling
kasilipun
kasim
kasiman
kasimpen
kasingkat
kasingkir
kasino
kasisa
kasisih
kasiyat
kaskus
kaslametan
kasmaran
kasor
kasoran
kaspia
kasta
kastanye
kastard
kastil
kasturi
kasuburan
kasugihan
kasukman
kasukse
kasuksesan
kasultanan
kasunanan
kasungsun
kasunyatan
kasunyatane
kasunyatanipun
kasur
kasus
kasusahan
kasusastran
kasusilan
kasusun
kasuwur
kat
kata
katah
katak
katakana
katalis
katalog
katambahan
katampa
katampi
katamtu
katan
katandhing
katarik
katarina
katata
kate
katedral
katedrale
kategori
katekan
katelu
katelune
katemokake
katemu
katentreman
katentuan
katerangan
kates
katetepake
katetepaken
kathah
kathahing
kathahipun
katherine
kathi
kathmandu
kathok
katholik
kathryn
katie
katiga
katimbalan
katimbang
katindakake
katindakaken
katingal
katingalipun
kation
katitik
kato
katolik
katon
katonane
katone
katong
katowice
katrampilan
katrangan
katranganipun
katre
katresnan
katrin
katsir
katsuobushi
katujokaken
katulik
katulis
katulistiwa
katun
katup
katur
katurunan
katut
katutup
katwijk
kau
kauangan
kaukasus
kaukum
kaul
kaum
kauman
kaume
kaundhuh
kaunduh
kaunggulan
kauntungan
kaur
kauripan
kauripane
kaurmatan
kaurut
kauskupan
kautaman
kautus
kavaleri
kaviar
kawa
kawaca
kawah
kawajiban
kawan
kawangun
kawanuhake
kawasa
kawasaki
kawasan
kawastanan
kawat
kawates
kawe
kawedanan
kawelasane
kawenangan
kawengku
kawentar
kaweruh
kaweruhan
kaweruhe
kawi
kawicaksanan
kawigate
kawigaten
kawigatosan
kawigatosanipun
kawilujengaken
kawilujengan
kawin
kawinan
kawis
kawit
kawitan
kawitane
kawitanipun
kawiwitan
kawoela
kawolu
kawon
kawonte
kawontenan
kawontenanipun
kawruh
kawruhe
kawujud
kawula
kawulane
kawulaningsun
kawung
kawunganten
kawuri
kay
kaya
kayade
kayadene
kayak
kayakinan
kayane
kayasa
kayata
kaye
kayon
kayu
kayune
kayuwangi
kazakhstan
kazan
kaze
kazuyoshi
kb
kbbi
kbs
kc
ke
keabasan
keadaan
keadilan
keagamaan
keagungan
keahlian
keajaiban
keamanan
keane
keanekaragaman
keanu
kearifan
kebab
kebak
kebakaran
kebanggaan
kebangkitan
kebangsaan
kebasen
kebatinan
kebaya
kebayoran
kebebasan
kebek
kebenaran
kebeneran
kebiasaan
kebidanan
kebijakan
kebo
kebomas
kebon
kebonagung
kebone
kebudayaan
kebume
kebumen
kebun
kebutuhan
kec
kecalan
kecamatan
kecambah
kecantikan
kecap
kecapi
kecathet
kecekel
kecelakaan
kecepatan
kecerdasan
kecik
kecil
kecipir
kecoklatan
kecuali
kecubung
kecut
ked
kedade
kedadean
kedaden
kedadeyan
kedadosan
kedah
kedahipun
kedai
kedamean
kedaulatan
kedawung
kedelai
kedelapan
kedele
kedhah
kedhaton
kedhawung
kedhele
kedhik
kedhiri
kedhokteran
kedhu
kedhung
kedhungadhem
kedhungbanthe
kedhungjati
kedhungpring
kedhungreja
kedhungwuni
keding
kediri
kedjaba
kedokteran
kedu
kedua
kedubes
kedudukan
kedung
kedungbante
kedungdung
kedungtuban
kedutaan
keduwuran
kee
keegan
keemasan
keempat
keep
kegagalan
keganggu
kegiatan
kegiyatan
kegolong
keguruan
kehakiman
kehidupan
kehormatan
kehr
kehutanan
kei
keindahan
keio
keistimewaan
keita
keith
kejaba
kejadian
kejahatan
kejajar
kejaksaan
kejang
kejawi
kejayaan
kejem
kejobong
kejora
keju
kejuaraan
kejuruan
kejutan
kekaisaran
kekajengan
kekalahan
kekalih
kekalihipun
kekancan
kekandelan
kekarepan
kekarepane
kekarone
kekasih
kekasihku
kekayaan
kekayi
kekayon
keke
kekebalan
kekerabatan
kekerasan
kekirangan
kekiyatan
kekristenan
kekuasaan
kekuatan
kekuningan
kekurangan
kekuwatan
kekuwatane
kelabu
kelahiran
kelainan
kelairan
kelairane
kelakon
kelakone
kelamin
kelana
kelangan
kelanjutan
kelantan
kelapa
kelarutan
kelas
kelautan
kelawan
kele
kelebu
kelemahan
kelembagaan
kelembapan
kelenjar
keliling
kelima
kelimutu
kelinci
keling
kelingan
kelir
keller
kelly
kelola
kelompok
kelopak
keloro
keluar
keluarga
keluargane
kelud
keluhan
keluk
kelumpang
kelurahan
keluwihan
kelvin
kemah
kemajuan
kemakmuran
kemal
kemalang
kemalih
kemampuan
kemampuane
kemang
kemangga
kemangi
kemangkon
kemantre
kemanusiaan
kemas
kemasan
kemasyarakatan
kematian
kemawon
kemayoran
kembali
kembang
kembangan
kembangbahu
kembange
kembar
kembaran
kemboja
kembung
kemenangan
kementerian
kementrian
kemerdekaan
kemhan
kemih
kemilau
kemiri
kemis
kemiskinan
kemitraan
kempal
kempalan
kempot
kempul
kempyang
kemranje
kemudi
kemudian
kemukus
kemul
kemungkinan
kemuning
kemusu
ken
kena
kenaikan
kenal
kenalan
kenanga
kenangan
kenapa
kenari
kencana
kenceng
kencing
kencono
kencur
kendal
kendali
kendang
kendaraan
kendaran
kendari
kendel
kendhal
kendhali
kendhang
kendharaan
kendhat
kendhi
kendi
kendrick
kene
keng
kenging
kening
kennedy
kenneth
kenny
kenong
kent
kental
kentang
kentel
kenthang
kenthel
kenthongan
kentrung
kentucky
kenya
kenyal
kenyel
keong
kep
kepada
kepadatan
kepahiang
kepahlawanan
kepala
kepanggih
kepangkatan
kepanje
kepapat
kepara
kepareng
kepausan
kepe
kepegawaian
kepeksa
kepelatihan
kepemilikan
kepemimpinan
kepenak
kependudukan
kepengin
kepenginan
kepengker
kepentingan
keperawatan
kepercayaan
keperluan
kepetuk
kepil
kepilih
kepincut
keping
kepingin
kepinginan
kepithing
kepiting
kepiye
kepler
keplok
kepohbaru
kepok
kepompong
keponakan
keppres
keprabon
kepresidenan
kepribadian
kepriye
keprok
keprungu
kepulauan
kepulisian
kepuloan
kepungkur
kepustakaan
keputihan
keputusan
ker
kera
kerabat
kerabate
keracunan
keragaman
kerajaan
kerajinan
kerak
kerala
keramat
kerambitan
keramik
kerana
kerang
kerangka
keranjang
kerapu
keras
keraton
kerbau
kerdil
kere
keren
kerep
kerepe
kereta
keri
kerikil
kerinci
kering
keripik
keris
kerja
kerjane
kerjasama
kern
kernel
keroncong
kerr
kerry
kersa
kersana
kersane
kersanipun
kerta
kertajaya
kertak
kertanagara
kertanegara
kertas
kertasana
kertek
kertosono
kertu
kerucut
kerugian
kerupuk
kerusakan
kes
kesadaran
kesah
kesalahan
kesambe
kesan
kesasar
kesatuan
kesawasidhi
kese
kesehatan
keseimbangan
kesejahteraan
kesel
keselamatan
kesemek
kesempatan
kesenengan
kesenengane
kesengsem
kesenian
kesepakatan
kesesi
kesetaraan
kesetiaan
keshogunan
kesimpulan
keslametan
kesuburan
kesugihan
kesuksesan
kesulitan
kesultanan
kesurupan
kesusastraan
kesusu
ket
ketahanan
ketaman
ketampa
ketan
ketanggungan
ketapang
ketara
ketarik
ketat
ketata
ketawang
ketchup
kete
ketegangan
ketel
ketelu
ketemoe
ketemu
ketentuan
keterampilan
keterangan
keterlibatan
kethe
kethek
kethok
kethokan
kethoprak
kethuk
ketib
ketiga
ketik
ketika
ketimbang
ketinggalan
ketinggian
ketok
ketoprak
ketrampilan
ketua
ketuhanan
ketuk
ketulis
ketumbar
ketupat
keturunan
keturunane
keturutan
ketut
ketutup
ketuwa
keuangan
keunikan
keuntungan
keuskupan
kevin
kew
kewajiban
kewala
kewan
kewarganagaraan
kewarganagaraane
kewarganegaraan
kewenangan
kewirausahaan
key
keyakinan
keyboard
keynes
keys
kfc
kg
kgpaa
kgph
kh
kha
khadijah
khaldun
khalid
khalifa
khalifah
khan
khanom
khao
kharisma
khartoum
khas
khase
khasiat
khasiyat
khat
khatib
khattab
khatulistiwa
khmer
kho
khomeini
khoo
khorasan
khotbah
khusus
khususe
khususipun
khz
ki
kia
kiai
kiamat
kian
kiasan
kiat
kiba
kicalan
kick
kid
kidal
kidang
kidoel
kids
kidul
kidule
kidulipun
kidung
kie
kien
kiev
kii
kijang
kiki
kikil
kilang
kilat
kile
kilen
kilimanjaro
kill
killer
killing
kilo
kilogram
kilome
kilometer
kim
kimchi
kimi
kimia
kimiawan
kimiawi
kimiya
kimono
kimpul
kin
kina
kinabalu
kinanthi
kinarya
kinaryosih
kincir
kind
kine
kinepyakake
kinerja
kinetik
king
kingdom
kings
kingsley
kingston
kini
kinira
kinjeng
kino
kinokuni
kinon
kinshasa
kinshi
kintamani
kinte
kinten
kintetsu
kinurmatan
kios
kipas
kiper
kippur
kiprah
kiprahipun
kipun
kira
kirab
kirana
kirang
kirangipun
kirche
kirgizstan
kiri
kiribati
kirik
kirim
kiriman
kiringipun
kirk
kis
kisah
kisaran
kisei
kishin
kisi
kismis
kiss
kista
kistan
kit
kita
kitab
kitabe
kitchen
kite
kitha
kitin
kitlv
kitsune
kitts
kitty
kiwa
kiwane
kiwi
kiyai
kiyamat
kiyat
kiye
kj
kk
kke
kl
kla
klabang
klad
klaim
klairan
klakon
klakuan
klakuane
klamben
klambi
klampis
klampok
klan
klangenan
klanjer
klapa
klarasi
klas
klasemen
klasifikasi
klasik
klaten
klathe
klaus
klausa
klawan
klawu
kle
klebu
kledung
klein
klelep
klemens
klepon
klik
klimatologi
klindamisin
klinik
klinis
klinsmann
klip
klirong
kliru
klitoris
kliwat
kliwon
klm
klompok
klopak
klopp
klorida
klorofil
klub
klube
klumpukan
klungkung
kluruk
kluster
kluthuk
kluwung
km
kmb
kn
kna
kne
knesset
knight
knik
knil
knis
knisi
kno
knock
knologi
knopf
knot
know
knowledge
known
ko
koagulasi
koajutor
koala
koalisi
kobar
kobe
kober
koboi
kobong
kobongan
kobra
kocap
koch
kochi
kock
kocok
kod
kodam
kode
kodhak
kodhe
kodhok
kodim
kodok
kodon
kodrat
koe
koedoe
koefisien
koela
koes
koeswoyo
koetha
kofi
kognitif
koh
koi
koin
koinobori
koja
kok
koki
koko
kokop
koktail
kol
kola
kolaborasi
kolagen
kolah
kolak
kolaka
kolam
kolang
kole
koleksi
kolektif
kolektor
kolera
kolese
kolesterol
kolibri
kolintang
kolkata
kolodete
kologi
kolom
kolombia
kolon
kolone
kolonel
kolong
koloni
kolonial
kolonialisme
kolonisasi
kolopaking
kolosal
kolose
koma
komaki
komandan
komandhan
komando
kombinasi
kombu
kome
komedi
komedian
komentar
komentator
komering
komersial
komersil
komet
komik
komikus
komisaris
komisi
komite
komitmen
komnas
komoditas
komodo
komoro
kompak
komparatif
kompas
kompasiana
kompeni
kompete
kompetensi
kompetisi
kompetitif
kompi
kompilasi
komple
komplek
kompleks
komplikasi
komplit
kompone
komponen
komponis
kompor
kompos
komposer
komposisi
komposit
kompre
komprehensif
kompresi
kompromi
komputasi
komputer
komputindo
komune
komuni
komunikasi
komunis
komunitas
komuter
kon
konang
konangan
konawe
kondang
kondhang
kondhisi
kondisi
konduktor
kondur
kone
koneksi
konfe
konfederasi
konfere
konferensi
konfigurasi
konfirmasi
konflik
konfrontasi
konfusianisme
konfusius
kong
konga
konggre
konggres
kongkon
kongkonan
kongkonane
konglomerat
kongo
kongre
kongregasi
kongres
kongsi
koniferus
konigreichs
konjugasi
konjuk
konnyaku
kono
konoha
konom
konomi
konomian
konomine
konon
konotasi
konrad
konse
konsekrator
konsensus
konsentrasi
konsep
konser
konservasi
konservatif
konsili
konsiste
konsisten
konsistensi
konsol
konsolidasi
konsonan
konspirasi
konstan
konstantin
konstantinopel
konstantinus
konstelasi
konstituante
konstitusi
konstitusional
konstruksi
konsul
konsulat
konsultan
konsultasi
konsume
konsumen
konsumsi
kontainer
kontak
kontaminasi
kontan
konte
konteks
kontempore
kontemporer
konten
kontes
kontestan
kontingen
kontra
kontrak
kontrake
kontraksi
kontraktor
kontras
kontribusi
kontributor
kontrol
kontrove
kontroversi
kontroversial
konve
konveksi
konvensi
konvensional
konversi
koo
koordhinat
koordinasi
koordinat
koordinator
kopassus
kopenhagen
koper
koperasi
kopi
kopral
koptik
kopyor
kor
koran
korasi
korawa
korban
kore
korea
korean
korem
koreografer
koreografi
korespondensi
kori
koridor
korinta
korn
korne
korona
koronavirus
korosi
korps
korpus
korrie
korsika
korup
korupsi
kos
kosa
kosakata
kosasih
koschitzky
kosei
kosher
kosistem
kosme
kosmetik
kosmik
kosmologi
kosok
kosong
kosovo
kosta
kostrad
kostum
kota
kotabaru
kotagede
kotak
kotamadya
kotawaringin
kothak
kothong
kotim
koto
kotor
kotoran
kovalen
kowe
koyo
koyok
kph
kpi
kpk
kpts
kpu
kr
kra
krab
krabby
krabs
krade
kradenan
kraft
kragan
kragujevac
krai
krajan
krajane
krajanipun
krakatau
krako
kram
krama
kraman
kramane
kramat
krambil
kramik
krana
kranggan
kranjang
kraos
krapyak
kras
krasa
krasak
krasan
kraton
kratone
kratoning
kray
krayan
kre
kreasi
kreatif
kreativitas
kredit
krem
kreol
kresna
kreta
kreteg
kretek
kreuz
kri
krida
kridha
kriket
krikil
krim
krime
krimea
kriminal
kringet
kripik
kris
krisdayanti
krishna
krisis
kristal
kristen
kristiani
kristin
kristina
kristoes
kristus
krite
kriteria
kritik
kritikus
kriting
kritis
kriya
krl
kroasia
kroat
kroket
krokot
krom
kromatografi
kromosom
kroncong
kronik
kronis
kronologi
kronologis
kronos
kroya
krt
kru
krucil
krungu
krupuk
krusty
kruton
ks
ksa
ksad
ksatria
ksatriya
ksda
kse
ksekusi
ksekutif
ksi
ksiko
ksis
ksiste
ksklusif
kspatriat
kspe
ksperime
kspor
kspre
ksrad
kstanzil
ksternal
kstil
kstrak
kstur
ksual
kta
ktar
kti
ktif
ktonik
ktor
ktos
ktrik
ktromagne
ktron
ktronik
ktrum
ktsp
ktt
ktu
ktual
ktur
ku
kuador
kuah
kuala
kualifikasi
kualitas
kualitase
kuan
kuantan
kuantitas
kuantitatif
kuantum
kuark
kuartal
kuas
kuasa
kuasani
kuasi
kuat
kuatir
kuba
kubah
kubik
kubis
kubra
kubu
kubur
kuburan
kuburane
kubus
kubutambahan
kucai
kuch
kuching
kucing
kuciwa
kuda
kudeta
kudo
kudu
kudune
kudus
kue
kuen
kugel
kui
kuih
kuil
kuiper
kuis
kujang
kuku
kukuban
kukuh
kukul
kukum
kukus
kukusan
kul
kula
kulawarga
kulawargane
kulawarganipun
kulawargi
kuldi
kule
kuli
kuliah
kuliahe
kulina
kuline
kuliner
kulit
kulite
kulitipun
kuliyah
kulkas
kulkul
kulo
kulon
kulonan
kulone
kultivar
kultur
kultus
kuma
kumai
kumamoto
kuman
kumandang
kumar
kumbakarna
kumbang
kume
kumedhi
kumendane
kumendhan
kuminis
kuminisme
kumis
kumisi
kumparan
kumpeni
kumpul
kumpulan
kumquat
kun
kuna
kunang
kunarpa
kunci
kuncoro
kuncup
kundang
kundhe
kundur
kunduran
kung
kungfu
kungkum
kuning
kuningan
kunir
kunjang
kunjara
kunjungan
kunming
kuno
kuntara
kunthi
kunti
kuntilanak
kuntul
kuntum
kunu
kunyit
kuo
kupang
kupat
kuping
kupinge
kupiya
kupu
kur
kura
kuran
kurang
kurange
kurator
kurawa
kurban
kurbane
kurcaci
kurdhi
kurdhistan
kurdi
kurdish
kurdistan
kure
kurikulum
kuril
kuripan
kurma
kurnia
kurniawan
kurobe
kursi
kursus
kurt
kuru
kurukshetra
kurun
kurung
kurungan
kurup
kurva
kusala
kusan
kusatsu
kuskus
kusuma
kusumo
kusus
kususe
kut
kuta
kutai
kutang
kutasari
kutbah
kutha
kuthaarja
kuthagedhe
kuthamadya
kuthane
kuthawinangun
kutikula
kutipan
kutoarjo
kutojaya
kutu
kutub
kutuk
kutukan
kuwait
kuwajiban
kuwajibanipun
kuwalik
kuwalitas
kuwalon
kuwaos
kuwarasan
kuwasa
kuwasane
kuwat
kuwate
kuwatir
kuwatos
kuwawa
kuwe
kuwera
kuwi
kuwu
kuwung
kuya
kuyawia
kw
kwalitas
kwan
kwang
kwanyar
kwartal
kwartir
kwasa
kwasane
kwee
kweh
kwetiau
kwok
kwon
ky
kyai
kyle
kyo
kyoto
kyrgyzstan
kyrka
kyu
kyuhyun
kyung
kyushu
l
la
laa
lab
laba
laban
labang
labdajiwa
labe
label
labels
labirin
labor
laboratorium
laboratory
labour
labrador
labu
labuan
labuh
labuhan
lac
lacaille
lacerta
lacroix
lada
ladang
lade
laden
ladhang
ladhi
ladhina
ladies
lading
ladrang
lady
lafayette
laga
lager
laghu
laghune
lagi
lagos
lagu
laguna
lagune
lagunipun
lah
lahan
lahat
lahei
lahir
lahore
lahu
lahum
lai
laila
lain
lainnya
lair
lairan
laire
lairipun
lajang
laje
lajeng
laju
lajur
lak
laka
lakake
lakaken
lake
lakers
lakes
lakeshore
laki
lakoe
lakon
lakone
lakoni
lakror
laks
laksa
laksamana
laksana
laksmana
laksmi
laktat
laktulosa
laku
lakum
lakune
lakuning
laladan
laladane
lalapan
laler
lali
lalu
lam
lama
laman
lamaran
lamb
lambang
lambat
lambda
lambe
lambert
lamborghini
lambung
lami
lamiaceae
laminipun
lamis
lamongan
lampah
lampahan
lampahanipun
lampahi
lampahing
lampahipun
lampard
lampihong
lampiran
lampu
lampung
lampus
lamtoro
lamun
lamuna
lamur
lan
lana
lanang
lanange
lancar
lancashire
lancaster
lance
lancip
land
landa
landak
landas
landasan
landep
landhak
landhep
landhesan
landing
landmark
lands
landscape
lane
lang
langan
lange
langen
langgam
langganan
langgar
langgeng
langi
langit
langka
langkah
langkat
langkawi
langkung
lango
langsa
langsing
langsung
language
languages
lani
laning
lanipun
lanjaran
lanjut
lanjutan
lanjutane
lanka
lantai
lantaran
lante
lantip
lanzoni
lao
laok
laos
lap
lapan
lapane
lapangan
lapis
lapisan
laporan
laptop
lapuran
lar
lara
larahan
larane
larang
larangan
larantuka
laras
larasati
lard
lare
large
largest
lari
larik
larikan
lario
laris
larousse
larry
lars
larson
larung
larus
larusia
larut
larutan
larva
las
lasagna
lasarus
lasem
laser
lasi
laskar
last
lastri
lat
latar
latare
late
lateks
later
lateral
latest
latian
latief
latif
latih
latihan
latika
latin
latine
lativi
latte
latu
lau
laude
lauk
launch
laung
laura
laureates
laurel
lauren
laurence
laurent
laurier
lausanne
laut
lautan
lava
law
lawa
lawak
lawakan
lawan
lawane
lawang
lawange
lawas
lawase
lawe
lawikri
lawrence
laws
lawu
lawuh
lay
laya
layak
layanan
layang
layangan
layange
layar
layare
layer
layon
layone
layout
layu
layun
lazare
lazim
lazio
lb
lc
lcd
ld
le
lea
lead
leader
leaders
leadership
leading
leaf
league
leah
leak
learn
learning
least
leave
leaves
lebah
lebak
lebaksiyu
lebanon
lebar
lebaran
lebet
lebetipun
lebih
lebokake
lebong
lebu
lebur
lecce
lech
leche
lecture
lectures
led
ledakan
lee
leeds
leeteuk
left
leg
lega
legacy
legal
lege
legend
legenda
legendaris
legendary
legendha
legends
legi
legislatif
legit
legitimasi
legiun
lego
legokan
legong
legum
lei
leibniz
leicester
leiden
leif
leigh
leila
leipzig
leita
lek
lekas
leksana
leksikon
lekukan
lelabuhane
leladi
lelagon
lelaki
lelakon
lelakone
lelaku
lelampahan
lelampahanipun
lelana
lelara
lelawanan
lelayaran
lele
leleh
lelembat
lelembut
lelorone
lelucon
leluhur
leluhure
lelungan
lelurahing
lem
lema
lemah
lemahabang
lemahe
lemak
lemari
lembab
lembaga
lembah
lembang
lembar
lembaran
lembata
lembu
lembut
leme
lemes
lemma
lemon
lempeng
lempir
lempitan
lempongan
lempung
lempuyang
lempuyangan
lemu
lemud
lemur
lemut
len
lena
lencana
lendhut
lendir
lenga
lengan
lengen
lenggah
lengkap
lengkara
lengket
lengkuas
lengkung
lengkungan
length
lenin
leningrad
lennon
lenny
lenong
lens
lensa
lenteng
lentera
lentho
lentil
leo
leon
leonard
leonardo
leone
leopard
leopold
lepas
lepat
lepen
lepus
ler
leres
les
lesan
lesbian
leslie
lesmana
lesotho
less
lesseps
lessert
lessons
lestari
leste
lester
lesung
let
letak
letake
lete
letjen
letkol
letnan
leto
letter
letters
letto
lettres
letusan
leukemia
leukosit
leung
leuser
leuwidamar
lev
levant
levantine
level
leverkusen
levi
levin
levine
leviticus
levy
lewat
lewih
lewis
lexeme
lexemes
lexicon
lexington
lexus
lez
lg
lgadhing
lgbt
lgi
lgia
lha
lho
lhokseumawe
li
lia
liam
liane
liang
liar
lib
libanon
libe
liber
liberal
liberalisme
liberation
liberia
libertadores
liberte
liberty
libra
libraries
library
libur
liburan
libya
lica
license
licht
licin
licorice
lid
lidah
lie
liechtenstein
liem
lies
lieutenant
life
lifestyle
lifetime
lift
liga
light
lightgrey
lights
ligier
ligius
ligue
liguria
lih
lihat
lijane
lijen
lik
likake
like
likely
likopter
likumahuwa
likur
lil
lila
lili
lilin
lilis
lille
lily
lilyana
lim
lima
limalas
liman
limang
limas
limasan
limau
limbah
limbangan
limburg
limfa
limfosit
liminasi
limit
limited
limo
limpa
limpad
limpung
limrah
limrahipun
lin
linares
lincah
lincoln
linda
lindhu
lindsay
lindu
line
linear
lines
ling
linga
lingake
lingan
linge
lingga
linggane
linggih
lingi
lingkar
lingkaran
lingke
lingkungan
lingkungane
lingkup
linglang
linglung
lingsa
lingsang
lingua
linguistic
linguistics
linguistik
lingus
lini
linier
link
linked
linkin
linking
links
linnaeus
lintah
lintang
lintas
lintasan
lintasberita
linud
linus
linuwih
linux
linz
linzer
lio
lion
lionel
lions
lip
lipat
lipatan
lipi
lipid
lipoma
lippmann
liputan
liquid
lir
lira
lirik
lirikipun
lis
lisa
lisah
lisan
lisboa
lisbon
lise
lisensi
lisieux
list
lista
liste
listed
listen
listrik
lists
lit
litbang
liter
literary
literasi
literatur
literature
lith
lithium
litowen
little
liturgi
liu
lium
live
lively
liver
liverpool
lives
living
livorno
livre
liwat
lix
liya
liyan
liyane
liyar
ljubljana
lk
lkis
ll
lla
llah
llc
ller
lll
lloyd
lm
lmiah
lmiahe
lmiyah
lmu
lmuwan
ln
lo
loa
loan
lobak
lobi
lobster
local
located
location
locaya
lock
locke
lodan
lodang
lodaya
lodhang
lodi
lodz
loe
loek
loewih
log
logam
logan
logat
logawa
logged
logic
logika
login
logis
logistik
logo
loh
loire
loji
lok
loka
lokakarya
lokal
lokasi
lokasine
lokomontip
lokomotif
lola
lollipop
lolo
lolos
lomba
lombardia
lombok
lome
lompat
lon
lonce
lonceng
london
lone
lonely
long
longer
longford
longgar
longsor
loni
lonjong
lontar
lontara
lonthong
lontong
look
looking
loop
looping
lopes
lopez
lor
lord
lore
lorentz
lorenzo
lori
loro
lorone
lorong
lorraine
los
losari
loss
lost
lot
lotus
lotz
lou
louis
louise
louisiana
louisville
lounge
lourdes
louvre
love
lover
lovers
loves
loving
low
lowano
lowe
lower
lowong
loyal
loyang
loyola
lp
lpi
lpon
lps
ls
lsi
lsm
lsp
lt
ltd
lu
lua
luanda
luang
luar
luas
lubang
lube
lubis
lublin
lubuk
lubuklinggau
lubusz
luc
luca
lucania
lucas
lucia
luciano
lucien
lucius
luck
lucknow
lucky
lucu
lucy
ludira
ludruk
ludwig
lufthansa
lugu
luh
luhur
lui
luigi
luis
luiz
luk
luka
lukar
lukas
luke
lukis
lukisan
lukisane
lukisanipun
lukman
luksemburg
lula
lulang
lule
lulu
luluh
luluk
lulus
lulusan
lulut
lumah
lumahan
lumahing
lumajang
lumaku
lumakune
lumampah
lumantar
lumawan
lumayan
lumba
lumbini
lumbis
lumbung
lume
lumebet
lumebu
lumia
lumpang
lumpia
lumpuh
lumpur
lumrah
lumrahe
lumut
lun
luna
lunak
lunar
lunch
lund
lune
lung
lunga
lungane
lungguh
lungguhan
lunyu
luo
lupa
lupus
luput
lurah
lurik
luru
lurung
lurus
lusi
luther
lutheran
lutung
luwak
luwang
luwar
luwe
luweh
luwes
luwih
luwing
luwu
luwuk
luwung
lux
luxembourg
luxemburg
luxor
luxury
luz
luzon
lv
lvarez
lviv
lwah
lwir
ly
lydia
lynch
lynn
lynx
lyon
lyonnais
lyra
lyrics
m
ma
maa
maaf
maag
maanyan
maastricht
maatschappij
mabes
mabuk
mabur
mac
maca
macak
macam
macan
macapagal
macapat
macaroni
macau
macbeth
macdonald
macedonia
macem
maceme
macet
mach
machiavelli
machine
macintosh
mackenzie
macmillan
macon
mad
mada
madagascar
madagaskar
madahab
madame
madang
madani
made
madeg
madegake
madegaken
madege
madegipun
madeira
madeleine
madep
madhagaskar
madhakake
madhang
madhangi
madhani
madhep
madhya
madigan
madina
madinah
madison
madiun
madjapait
madonna
madosi
madras
madrasah
madre
madrid
madrim
madu
madukara
madura
madya
madyaning
mae
maeda
maen
maesa
maespati
maestro
mafia
mag
magang
magazen
magazine
magdalena
magdeburg
mage
magelang
magepokan
magetan
maggie
maggiore
maghrib
magic
magical
magis
magister
magma
magna
magne
magnesium
magnet
magnetic
magnetik
magnitudo
magnoliopsida
magnus
magsaysay
maguire
mah
maha
mahabarata
mahabharata
mahaguru
mahakam
mahal
mahamantri
mahami
mahan
mahaputera
mahaputra
maharaja
maharani
maharashtra
maharesi
mahargya
mahasiswa
mahasiswi
mahayana
mahdi
mahe
mahendra
maher
mahesa
mahipun
mahisa
mahkamah
mahkota
mahler
mahligai
mahluk
mahmud
mahoni
mahu
mai
maia
maida
maido
mail
mailing
main
mainake
mainaken
maine
mainke
maint
maintenance
mainz
maison
maizuru
maja
majaagung
majagedhang
majakerta
majalaban
majalah
majalengka
majapahit
majapait
majasanga
majatengah
majawarna
majelis
majemuk
majenang
majeng
majengaken
major
maju
mak
maka
makalah
makam
makan
makanan
makaping
makara
makarya
makasar
makassar
makate
makaten
makau
makaw
make
makedonia
makes
makhluk
maki
makili
makin
making
makiyyah
makkah
makkiyah
makluk
makmur
makna
maknane
mako
makro
maksih
maksimal
maksimum
maksud
maksude
makutha
mal
mala
malabar
maladewa
malae
malaekat
malah
malahan
malai
malaikat
malaka
malam
malang
malangan
malankara
malaria
malat
malawi
malay
malaya
malayalam
malaysia
malaysian
malayu
malbork
malcolm
maldini
male
malebet
maleh
malem
males
mali
malih
malik
maliki
malin
malinau
maling
malioboro
mall
mallorca
malo
malonat
malopolskie
malouda
malpensa
malt
malta
malu
maluku
maluyakake
malvaceae
mama
mamah
mamak
mamalia
maman
mamang
mamasa
mamberamo
mambo
mambu
mame
mami
mammoth
mampir
mampu
mamuju
man
mana
manado
management
manager
manah
manahipun
manajemen
manajer
manak
manaus
manawa
manawi
manca
mancanagara
mancanegara
mancarake
manche
manchester
manchu
manchuria
mancing
mancur
manda
mandailing
mandala
mandalay
mandar
mandarin
mandat
mande
mandeg
mandek
mandela
mandhap
mandharin
mandhat
mandhe
mandheg
mandhegani
mandhek
mandhiri
mandi
manding
mandiraja
mandiri
mandra
mandraguna
mandu
mandura
mandy
mane
maneh
maneka
manengah
manfaat
manfaatake
manfaate
manfred
mang
manga
mangaka
mangalore
mangan
mangane
mangaribawani
mangaruhi
mangayubagya
mange
mangerte
mangerteni
mangerti
mangertos
mangertosi
mangetan
mangga
manggala
manggang
manggar
manggarai
mangge
manggen
manggih
manggihaken
manggihi
manggil
manggis
manggon
manggone
manggoni
manggung
mangidul
mangifera
mangisor
mangka
mangkana
mangkat
mangke
mangkene
mangkin
mangkoerat
mangkok
mangkono
mangkonoa
mangku
mangkubumi
mangkuk
mangkunagara
mangkunagaran
mangkunegara
mangkunegaran
mangkurat
mango
mangre
mangro
mangrove
mangsa
mangsan
mangsane
mangsanipun
mangsi
mangsuli
mangu
mangulon
mangun
mangunwijaya
manhattan
mani
mania
manifesto
manik
manika
manila
maning
maninjau
manipulasi
manis
manisan
manisrengga
manitoba
manjing
mann
manna
manoesa
manoet
manohara
manokwari
mans
mansur
mantan
mantangai
mante
manteb
mantel
manten
mantenan
mantep
mantingan
mantra
mantri
mantu
mantuk
mantun
mantune
mantup
mantyasih
manu
manual
manuel
manufaktur
manuhake
manuju
manuk
manunggal
manunggaling
manungsa
manus
manusa
manuscript
manuscripts
manusia
manuskrip
manut
many
manyar
manyura
manzai
manzarek
mao
maoe
maoene
maos
map
mapa
mapag
mapan
mapanake
mapanaken
mapel
mapinten
maple
mapping
maps
maputo
mar
mara
maradona
maragakake
maragani
marah
marahi
marai
marak
marakake
marakke
maramis
maran
marang
maranha
marani
marapi
marathi
marathon
maraton
marble
marc
marcel
marcell
marcella
marcello
marcelo
march
marche
marcia
marco
marconi
marcos
marcus
mardi
mardika
mare
marek
marem
marengaken
maret
marga
margareja
margaret
margarin
margasari
margasatwa
margayasa
margi
margin
margining
marginipun
marguerite
mari
maria
mariah
marian
mariana
marica
marie
marijac
marilyn
marin
marina
marinade
marine
maring
maringaken
maringi
marini
marinir
marino
mario
marion
maris
marisi
marissa
maritim
maritime
marjam
marjane
mark
markas
markase
market
marketing
markisa
marko
marks
markup
markus
marley
marlina
marma
marmer
marmut
marne
maroko
maron
maronit
maroon
maros
marriage
married
mars
marseille
marsekal
marsh
marsha
marshal
marshall
marshanda
marshmallow
marta
martabak
martabat
martapura
marten
martha
marti
martial
martin
martina
martinez
martini
martinique
martino
martins
martinus
martir
marty
maru
maruko
marupakan
marvel
marvin
marwah
marwan
marx
marxis
marxisme
mary
maryam
maryanto
maryland
marzipan
marzuki
mas
masa
masak
masakan
masal
masala
masalah
masalahe
masan
masang
masarakat
masarake
masaran
masayu
mascarpone
mase
masedonia
masehi
masha
masi
masih
masing
masiya
masjid
masjidil
mask
maskape
masker
maskot
mason
masoretic
masrahake
masrahaken
masrahke
mass
massa
massachusetts
massal
massane
massif
mast
mastani
master
masters
masuk
masukan
masyarakat
masyumi
mat
mata
matah
matahari
matan
matane
matang
matangi
mataram
mataraman
matarmaja
mataun
match
mate
matematika
matematikawan
mateng
mateni
mater
matera
materi
material
materialisme
materials
matesi
mateus
math
mathbf
mathematical
mathematics
mathias
mathieu
mathuk
mati
matik
matika
matikawan
matine
matis
matisse
matius
mato
matoa
matra
matrix
matsue
matsui
matsumoto
matsuri
matsusaka
matsya
matt
mattarella
matter
matth
matthew
matthews
matthias
matur
maturkesuwun
maturnuwun
matya
mau
maudy
maujud
maulana
mauna
maune
maupun
maurice
mauritania
mauritius
mauro
mausoleum
maut
mawa
mawar
mawarni
mawe
mawi
mawon
mawujud
max
maxim
maxima
maximilian
maximum
maxwell
may
maya
mayang
mayat
maybrat
mayer
mayit
mayjen
mayo
mayones
mayong
mayonnaise
mayor
mayoritas
mays
mayuta
mazda
mazinger
mazmur
mazowia
mazowiecki
mazuria
mb
mba
mbabar
mbabarake
mbacutake
mbag
mbagan
mbagi
mbah
mbahan
mbahane
mbahas
mbahe
mbak
mbaka
mbakan
mbakar
mbako
mbakyu
mbakyune
mbalang
mbale
mbalekake
mbaleni
mbales
mbalik
mbandhingake
mbang
mbangun
mbantah
mbantu
mbaptis
mbar
mbarang
mbarep
mbatalake
mbatesi
mbathik
mbawahi
mbayar
mbc
mbe
mbebasake
mbebayani
mbedakake
mbedhah
mbeksa
mbekta
mbela
mbendung
mbenerake
mbengi
mbengok
mbentang
mbentuk
mber
mberkahi
mbesuk
mbesut
mbeta
mbetahaken
mbiji
mbikak
mbina
mbingungake
mbintangi
mbiwara
mbiwarakaken
mbiyangun
mbiyantu
mbiye
mbiyen
mblayu
mbledhos
mbobot
mbok
mboke
mbokmanawa
mbokmenawa
mbote
mboten
mbox
mboyong
mbran
mbre
mbs
mbubarake
mbucal
mbudidaya
mbujuk
mbuka
mbukak
mbukte
mbuktekake
mbuktekaken
mbulan
mbung
mbungkus
mburi
mburine
mburu
mbusak
mbutuhake
mbutuhke
mbuwang
mc
mccarthy
mccartney
mcdermott
mcdonald
mcdonnell
mcgrath
mcgraw
mckay
mckinley
mclaren
md
mdpl
me
mead
meal
mean
meaning
means
measurement
meat
meaux
mecah
mecahake
mechon
med
medal
medalaken
medali
medalipun
medan
medang
mede
medelli
medeni
medhal
medhali
medhar
medharake
medhia
medhis
medhot
medhun
media
mediawiki
medical
medici
medicine
medieval
medika
medina
medis
meditasi
mediterania
mediterranean
medium
medun
medusa
mee
meera
meet
meeting
meetings
meets
meetup
mega
megah
megalodon
megaluh
megan
megang
megat
megatron
megawati
meguru
meh
mehmed
mehmet
mei
meiji
meiliana
mein
meiosis
meir
meitetsu
meja
mejahi
mekah
mekanik
mekanika
mekanis
mekanisme
mekar
mekarsari
mekaten
mekkah
mekong
meksa
meksiko
mel
melak
melaka
melakukan
melalui
melanie
melas
melati
melawan
melayu
melbourne
mele
melihat
melik
meliputi
melissa
melkit
mellitus
mello
melly
melo
melodi
melody
melon
melu
meluni
melville
memahami
memang
membaca
membangun
membantu
membawa
membentuk
member
memberi
memberikan
members
membran
membuat
memburi
meme
memedi
memenuhi
memilih
memiliki
meminta
memoar
memoir
memoirs
memori
memorial
memoriam
memory
memper
mempersarafi
mempertahankan
memphis
mempunyai
memuat
memuji
memulang
memungkinkan
men
menak
menampilkan
menang
menangake
menangaken
menangi
menangke
menanti
menapa
menara
menari
menarik
menawa
menawi
mencapai
mencari
mencawak
mencetak
menciptakan
menda
mendadak
mendapat
mendapatkan
mendarat
mendatang
mendel
mendem
mendes
mendhang
mendhem
mendhet
mendhung
mendhuwur
mendoza
mendukung
mendung
mendut
mene
meneh
menehake
menehi
menemukan
meneng
menengah
menengan
menerima
meng
menga
mengalahkan
mengalami
mengambil
mengandung
menganti
mengapa
mengarang
mengaruhi
mengejar
mengenai
mengenal
mengenang
mengetahui
mengeti
menggah
menggak
menggunakan
menghapus
mengikuti
menging
mengisor
mengke
mengkene
mengkilap
mengkilat
mengko
mengkone
mengkono
mengku
mengsah
mengsahipun
mengubah
mengwi
menhir
menika
meninggal
meningitis
meningkatkan
menit
menjabat
menjadi
menjang
menjangan
menko
menopause
menoreh
mensa
menstruasi
ment
mentah
mentahan
mental
mentari
mentas
mentawai
mentaya
mente
mentees
mentega
menteng
menteri
mentor
mentors
mentri
menu
menuju
menulis
menunggu
menurut
menyan
menyang
menyebabkan
menyunting
mer
mera
merah
meraih
merak
meranake
merang
merangi
merantau
meranti
merapi
merasa
merauke
merbabu
mercedes
merchant
mercia
mercury
mercusuar
mercy
merdamel
merde
merdeka
mere
merek
mereka
meres
merga
mergane
merge
merger
mergi
meriah
meriam
merica
meridian
meringue
merit
merjaya
merk
merkuri
merkurius
merlokake
mermaid
merpati
merriam
merry
mertal
mertayudan
merte
mertega
mertua
meru
meruhi
merupakan
mes
mesem
mesin
mesine
mesir
mesjid
meski
meskipun
mesopotamia
mesorah
mesra
message
messages
messaging
messi
messier
messina
mesthe
mesthekake
mesthi
mesthine
mesti
mestine
met
meta
metabolisme
metacritic
metadata
metal
metamorfosis
metana
mete
meteng
meteor
meteorologi
meter
method
methodist
methods
metode
metodhe
metodologi
metoe
metrik
metro
metropolis
metropolit
metropolitan
metrotv
metrum
metu
metune
metz
meulaboh
meursault
meutia
meutya
mewah
mexican
mexico
meyer
mez
mf
mg
mgm
mgr
mh
mhz
mi
mia
miami
mian
miangka
miao
mibara
miber
micara
michael
michaelangelo
michel
michelangelo
michele
michelle
michigan
michoaca
mick
mickey
microbiology
microscopium
microsoft
micu
mid
middle
middlesbrough
midget
midhangetaken
midi
midland
midnight
midrash
mie
mig
migas
might
mighty
migran
migrasi
migration
miguel
migunakake
migunakaken
migunani
mihak
mihardja
mihrab
mije
miji
mijil
mika
mikawa
mike
mikha
mikhail
miki
mikir
mikirake
mikirke
mikole
mikro
mikroba
mikrobiologi
mikroformat
mikronesia
mikroorganisme
mikroskop
mikul
mil
mila
milai
milan
milano
mile
milea
milenium
miles
mili
miliar
miligram
milih
milik
milimeter
militan
military
milite
militer
milk
mill
millenium
millennium
miller
millet
million
millionaire
mills
milo
milos
milton
milu
milujengaken
milwaukee
milyar
mimbar
mimi
mimihitam
mimika
mimis
mimpang
mimpi
mimpin
min
mina
minagka
minahasa
minak
minami
minamoto
minang
minangka
minangkabau
minangkabo
minangkani
minangla
minas
minat
minati
minato
mind
mindahake
mindanao
mindha
mindhah
mindhahake
mindhak
mine
mineral
ming
minggah
minggat
minggon
minggu
mingguan
minh
minho
mini
miniatur
minim
minimal
minimum
minister
ministers
ministry
minneapolis
minnesota
mino
minor
minoritas
minsk
mint
minta
minulya
minum
minuman
minute
minutes
minyak
minzy
mio
miqat
mir
mira
mirabilis
miracle
mirage
mirah
miranda
mirdad
mire
mireng
mirengaken
miri
miriam
mirib
mirin
miring
mirip
mirit
miroslav
mirror
mirsa
mirsani
mirunggan
mirza
mis
misa
misah
misahake
misahaken
misahke
misal
misale
misalnya
mise
mishnah
misi
misil
misionaris
miskin
miso
misoka
miss
missile
missing
mission
mississippi
missouri
mister
misteri
misterius
mistik
mistis
misuwur
mit
mita
mitchell
mite
mitha
mitoeroet
mitokondria
mitologi
mitos
mitra
mitrane
mitrut
mitsubishi
mitulungi
miturut
miturute
mium
miwah
miwiti
mix
miyako
miyaraken
miyarsa
miyazaki
miyazu
miyos
miyosaken
miyosipun
mizan
mizuho
mizuki
mizwar
mk
mko
ml
mlajar
mlaku
mlakune
mlampah
mlarat
mlathi
mlayu
mle
mlebet
mlebetipun
mlebu
mlebune
mlengkung
mlethe
mligane
mligi
mligine
mliginipun
mlinjo
mls
mlumpat
mlungker
mm
mms
mn
mnc
mnctv
mnet
mo
moa
mobil
mobile
moch
mochi
mochtar
mod
modal
mode
model
modeling
modelling
models
modem
modena
moderat
moderen
modern
moderne
modernisasi
modhal
modhe
modhel
modheren
modhern
modhifikasi
modifikasi
modul
module
modung
moelane
moeng
moenggoeh
moesa
moga
mogha
mogok
mografi
moh
mohamad
mohamed
mohammad
mohammed
mohd
mojar
mojo
mojokerto
mok
mokal
mokrasi
mokrat
mokratik
mokratis
mol
molah
molai
molase
moldavia
moldova
mole
molecular
molekul
molekular
molekuler
molen
molie
molina
molly
moloko
moluska
mom
mome
momen
moment
momo
momoiro
momong
momongan
momotan
mon
mona
monaco
monako
monarchie
monarki
monas
monastery
monce
moncong
monday
monde
monet
monete
moneter
money
mong
monginsidi
mongol
mongolia
mongondow
mongsa
monica
monitor
monkey
mono
monobook
monocots
monogatari
monokrom
monolog
monomer
monopoli
monoponik
monorail
monosakarida
monroe
mons
monsieur
monster
monsters
monstrasi
mont
montana
monte
montenegro
monterrey
montes
montevideo
montgomery
month
monthly
months
montor
montparnasse
montpellier
montre
montreal
montserrat
monume
monumen
monument
monumental
monuments
monyet
moo
moon
moor
moore
mora
moraceae
moral
morales
moralitas
mordechai
more
morelos
moreno
moretz
morfin
morfologi
morgan
mori
morientes
morioka
morisot
morita
morne
morning
moro
morocco
morowali
morris
morrison
morse
morton
mosaic
mosaik
moscow
moses
moshe
mosi
mosional
moskow
moskwa
mosok
mosque
moss
most
mostar
mot
mother
motif
motion
motivasi
moto
motogp
motong
motor
motorik
motorola
motors
motto
mount
mountain
mountains
moura
mourinho
mouse
mouth
moutong
move
movement
movie
movies
moving
moyang
moyes
mozambik
mozart
mozilla
mozzarella
mp
mpa
mpalan
mpe
mper
mperan
mperatur
mph
mple
mpore
mpr
mprs
mpu
mr
mrabawani
mrambat
mrana
mrangge
mratandhani
mrate
mratelakake
mratelakaken
mratobat
mre
mrebawani
mrebet
mrentah
mrica
mrico
mrih
mrika
mriki
mriksa
mriksani
mriku
mring
mrintahake
mripat
mripate
mriyang
mrodhuksi
mroduksi
mrs
mrt
mrupakan
ms
msc
msi
mss
mt
mts
mtv
mu
muammar
muara
muaro
muasal
muatan
mubarak
mubeng
mubengi
mucal
much
muchlisin
muchtar
mucuna
mud
muda
mudah
mudal
mudha
mudheng
mudhun
mudhunake
mudhune
mudik
mudo
mudun
muffin
mufti
muga
mughal
mugi
muh
muhaimin
muhamad
muhammad
muhammadiyah
mui
muis
muja
muji
mujijat
mujudake
mujudaken
mujur
muk
muka
mukaddimah
mukamad
mukha
mukim
mukjizat
mukmin
muko
mukok
mukosa
muktamar
mukti
mula
mulai
mulan
mulane
mulang
mulangi
mulat
mulawarman
mule
mulhouse
mulia
mulih
mulihake
muljana
muller
mulo
multi
multilingual
multimedia
multinasional
multiple
multivision
mulud
mulus
mulut
mulya
mulyadi
mulyani
mumbai
mumbul
mumet
mumi
mumpangat
mumpangate
mumpung
mumpuni
mun
muna
munafik
muncar
munch
munchen
muncul
muncule
mundak
mundhak
mundhake
mundhur
mundhut
mundo
mundu
mundur
mung
mungel
munggah
munggahe
mungguh
mungguhing
munggw
mungkasi
mungkid
mungkin
mungkinake
mungkur
mungsuh
mungsuhe
muni
munich
municipal
municipality
munisipal
munisipalitas
munjer
munjuk
munk
muntab
muntah
munthilan
muntilan
mupangat
mupangate
mupangati
mupangatipun
muput
mura
murah
murai
mural
murda
murder
muri
muria
murid
muride
muridipun
muridku
murih
murka
murni
muro
murphy
murray
murtidjono
murub
murugaken
murung
murup
mus
musa
musang
musca
muse
museo
museum
mush
mushaf
musi
musibah
music
musica
musical
musik
musikal
musike
musikipun
musikus
musim
musiman
musisi
musium
musiyum
musk
muslim
muslimin
muslims
musna
musnad
mussolini
must
mustafa
mustaka
mustar
mustard
mustika
musuh
musuk
musyawarah
mut
mutah
mutakhir
mutamakin
mutasi
mutawatir
muter
muteri
muththalib
mutiah
mutiara
mutlak
mutu
mutusake
mutusaken
mutyara
muwah
muzik
mv
mw
mwa
mwang
mx
my
mya
myang
myanmar
myeon
myers
myjewishlearning
myo
myquran
myra
mysore
myspace
mystery
mystical
myth
mythology
myths
myung
møre
n
na
naan
nabati
nabe
nabi
nabila
nabilah
nabire
nabrak
nabuh
nacho
nacional
nad
nada
nadha
nadi
nadia
nadiem
nadim
nadine
nadjib
nadu
nadya
nadyan
naengmyeon
nafas
nafsu
naga
nagano
nagara
nagaragawa
nagarakretagama
nagarane
nagaranipun
nagarantara
nagarawan
nagari
nagarinipun
nagasaki
nagasari
naging
nagoya
nah
naha
nahan
nahdlatul
nai
naif
naik
nairobi
najis
nak
naka
nakagawa
nakal
nake
nakhon
naklukake
nakula
nal
nala
nalar
nale
naleni
nalika
nalikane
nalikanipun
naliti
nalumsari
nam
nama
namaku
namane
namanipun
namba
nambah
nambahake
nambahaken
nambahi
nambani
name
named
names
namespace
nami
namibia
naming
namo
nampa
nampan
nampani
nampe
nampeni
nampi
nampik
nampilake
nampilaken
nampilke
nampung
namu
namun
namung
nan
nana
nanah
nanas
nancy
nand
nanda
nandang
nandatangani
nandhakake
nandhang
nandhani
nandhatangani
nandhesake
nandur
nane
nanem
nang
nanga
nangani
nange
nanggap
nanggapi
nanggel
nanggepi
nanggroe
nanggulangi
nanggung
nangin
nanging
nangis
nangka
nangkep
nani
naning
nanipun
nanjing
nankai
nano
nanote
nantang
nantes
nanti
nao
naomi
napa
napak
napakasmani
napas
napati
naples
napole
napoleon
napoli
napsu
nar
nara
narada
naragina
naraguna
naraka
narakarya
narana
narapati
narapidana
nararya
narasi
narasoma
narasumber
narator
narayana
narendra
nares
nari
narik
narima
nario
narita
narkoba
narkotika
narnia
narto
naruto
nas
nasa
nasal
nasare
nascar
nasdem
nashville
nasi
nasib
nasibe
nasihat
nasional
nasionalis
nasionalisme
nasir
naskah
naskahe
nasrani
nassau
nasser
nasti
nasution
nat
nata
natakusuma
natal
natalia
natalie
natasha
nate
natha
nathan
nathaniel
nation
national
nationale
nations
native
nato
natrium
natsir
natuna
natural
naturalis
nature
naturelle
naungan
nauru
naval
navarre
navbox
navchild
navigasi
navigator
navis
navy
nawa
nawakake
nawakaken
nawala
nawangan
nawani
nawarake
nawawi
nawi
naya
nayaka
nazar
nazi
nazionale
nba
nbc
nc
nca
ncaa
ncang
ncangipun
nce
ncegah
nchen
nchengladbach
nchez
ncia
nct
ncut
nd
nda
ndadak
ndade
ndadekake
ndadikake
ndadosaken
ndadra
ndaftar
ndah
ndahan
ndak
ndalem
ndalu
ndame
ndamel
ndan
ndandani
ndandosi
ndang
ndarbe
ndarbeni
ndas
ndawa
nde
ndedonga
ndek
ndel
ndeleng
ndelik
ndelok
ndeme
nden
nder
nderal
ndeteksi
ndez
ndha
ndhaki
ndhalang
ndhang
ndhani
ndhaptar
ndhapuk
ndharat
ndhe
ndhelik
ndhelikake
ndher
ndherek
ndhik
ndhirikaken
ndhisik
ndhisiki
ndhog
ndhok
ndhong
ndhukung
ndhuwe
ndhuwur
ndhuwure
ndi
ndia
ndisik
ndok
ndokok
ndominasi
ndonga
ndongakke
ndra
ndral
ndro
nduduhke
nduga
ndumati
ndunung
ndunungi
ndunungke
nduwe
nduweni
nduwur
nduwure
ne
neal
neapolitan
near
nebraska
nebukadnezar
nebula
nebus
necessary
ned
nedahaken
nederland
nederlands
nederlandsch
nedha
nedya
need
needed
needing
needs
negara
negarane
negari
negatif
negative
negeri
negesake
negesaken
negosiasi
negri
negro
nehru
neil
neill
neji
nek
nekakake
nekakke
nekani
nekara
nekuni
nelakake
nelakaken
nelasaken
nelayan
neliti
nelpon
nelson
nelukake
nelukaken
nem
nemahi
nemarken
nembak
nembang
nembangake
nembe
nembelas
nembus
nemen
nemo
nemokake
nemokaken
nemoni
nempel
nemplek
nempuh
nemtokake
nemtokaken
nemu
nen
nendhang
nenek
nenem
neng
nengah
nengen
nengenaken
nengeri
nengga
nenggih
nengsemake
nenikahan
nentang
nentokake
nenun
neo
neolissochilus
neon
nepal
nepali
nepangaken
nepenthes
nepsu
neptu
neptune
neptunus
nepungake
nerak
neraka
nerangake
nerangaken
nerapake
nerasaken
nerasi
nerbitake
nerbitaken
nergi
nerima
nerjemahake
neruda
nerusake
neruske
nervus
nes
nest
nestor
nesu
nesuwela
net
netep
netepake
netepaken
netepi
netes
netflix
netherlands
netivot
neto
netra
netral
network
neucha
neue
neumann
neuron
neusner
neutrofil
neutron
nevada
nevado
never
neville
nevis
new
newark
newcastle
newcomer
newcomers
newell
newest
newfoundland
newman
news
newsletter
newspaper
newton
next
neymar
nez
neza
ng
nga
ngaat
ngabari
ngabarke
ngabdi
ngabe
ngabehi
ngabekti
ngablak
ngacu
ngada
ngadahi
ngadakake
ngadani
ngade
ngadeg
ngadegake
ngadegaken
ngadege
ngadek
ngadepi
ngadheg
ngadhep
ngadhepi
ngadili
ngadiluwih
ngadiraja
ngadireja
ngadirejo
ngadohi
ngadol
ngadopsi
ngadu
ngage
ngagem
ngaglik
ngah
ngajak
ngajar
ngajarake
ngajari
ngaje
ngajeng
ngajengipun
ngaji
ngajokake
ngake
ngakeni
ngakibatake
ngakoni
ngakses
ngaktifake
ngaku
ngalah
ngalahake
ngalahaken
ngalahke
ngalam
ngalami
ngalang
ngalangi
ngalebokake
ngalengka
ngalih
ngalihake
ngalir
ngaliyan
ngalor
ngamanake
ngamanca
ngamati
ngambah
ngambakake
ngambali
ngambang
ngambung
ngamen
ngamot
ngampe
ngampel
ngampil
ngampingi
ngamuk
ngan
nganakake
nganalisis
ngancam
ngancani
ngancar
ngancem
ngancik
ngancurake
ngandap
ngandarake
ngandel
ngandela
ngandelake
ngandhakake
ngandhani
ngandhap
ngandhaping
ngandhapipun
ngandharake
ngandharaken
ngandhung
ngandhut
ngandika
ngandung
ngandut
ngane
ngangge
nganggep
nganggit
nganggo
nganggokke
nganggu
nganggur
ngangkasa
ngangkat
ngangkud
ngangkut
ngangsu
nganiaya
nganipun
nganjuk
ngantang
ngante
nganthi
nganti
ngantos
ngantuk
nganut
nganyari
ngapa
ngapura
ngapusi
ngara
ngarah
ngarahake
ngarahaken
ngarai
ngarang
ngarani
ngaranya
ngare
ngarep
ngarepake
ngarepe
ngaringan
ngarsa
ngarsane
ngarsaning
ngarsanipun
ngaruhi
ngarujuk
ngasah
ngasem
ngasi
ngasihi
ngasilake
ngasilaken
ngasilke
ngaso
ngasorake
ngasoraken
ngasta
ngastina
ngat
ngatasi
ngati
ngatonake
ngatos
ngatur
ngaturake
ngaturaken
ngaturi
ngaurip
ngawali
ngawang
ngawasi
ngawe
ngawen
ngawenehi
ngawi
ngawiti
ngawonaken
ngawontenaken
ngawula
ngawur
ngayahi
ngayogyakarta
ngayomi
ngc
ngde
nge
ngebaki
ngecakake
ngecakup
ngece
ngeculake
ngedalaken
ngedegake
ngedekke
ngedhunake
ngedohi
ngedol
ngedum
ngedunke
ngegolke
ngejabat
ngeke
ngeklaim
ngeklik
ngel
ngelajengaken
ngelak
ngelakoni
ngelawan
ngelayani
ngelem
ngelewati
ngelih
ngeling
ngelingake
ngelingi
ngelingkupi
ngeliputi
ngelmu
ngelola
ngelu
ngelungke
ngembang
ngembangake
ngembangaken
ngembangke
ngemot
ngempalaken
ngemplak
ngemu
ngemunah
ngenai
ngenal
ngenalake
ngenali
ngenang
ngenani
ngendhale
ngendhegake
ngendhog
ngendi
ngendika
ngendikan
ngendikanipun
ngene
ngener
ngengat
ngengeti
ngengingi
ngente
ngentekake
ngenteni
ngentukake
ngepang
ngepasi
ngepe
ngepung
ngeraih
ngere
ngerembag
ngerilis
ngersakaken
ngerte
ngerteni
ngerti
ngertia
ngertos
ngesot
ngestokake
nget
ngetan
ngeterake
ngethok
ngeti
ngetik
ngetokake
ngetokke
ngetop
ngetrapake
ngetung
ngetutake
ngetutke
ngewahi
ngewakili
ngewangi
ngewenehi
ngewrat
ngga
nggabung
nggabungake
nggabungaken
nggada
nggadahi
nggadhahi
nggagas
nggah
nggak
nggal
nggambar
nggambarake
nggambaraken
nggambarke
nggampangake
nggampilaken
nggandhe
ngganggo
ngganggu
nggante
nggantekake
ngganteni
ngganti
nggantikake
nggantos
nggantosaken
nggantosi
nggantung
nggarap
nggarbini
nggarwa
nggate
nggatekake
nggatosaken
nggawa
nggawakake
nggawe
nggayuh
ngge
nggedhe
nggedhekake
nggegirisi
nggelar
nggelarke
nggenteni
nggih
nggiling
nggilut
ngginakaken
nggladhi
nggo
nggodhog
nggodhok
nggok
nggole
nggolek
nggoleki
nggolongake
nggon
nggone
nggonku
nggonmu
nggore
nggoreng
nggot
nggrombol
nggugah
nggugat
nggugu
nggulawenthah
nggulingake
nggulung
nggumun
nggumunake
nggumunke
nggunakake
nggung
ngguyu
nghing
nghulun
ngi
ngibadah
ngicalaken
ngicipi
ngidinake
ngidini
ngidul
ngiket
ngilang
ngilangake
ngilangi
ngile
ngimbang
ngimbangi
ngimpi
ngin
nginan
ngindari
ngindhari
nginep
nginfe
nging
nginggil
nginggiling
nginggilipun
ngingi
ngingu
ngini
nginum
ngipun
ngira
ngirangi
ngiras
ngirim
ngirimake
ngirimi
ngiring
ngiringi
ngiris
ngirit
ngisep
ngisi
ngisolasi
ngisor
ngisore
ngiteri
ngitung
ngiwa
ngiyataken
ngka
ngkang
ngke
ngkol
ngku
nglabuhi
nglacak
nglade
ngladeni
ngladosi
nglairake
nglairaken
nglajengaken
nglakoake
nglakokake
nglakoni
nglaksanakaken
nglalu
nglamar
nglambangake
nglambangaken
nglampahaken
nglampahi
nglancarake
nglanggar
nglanggeran
nglangi
nglangkungi
nglanjutake
nglaporake
nglaporaken
nglapurake
nglarang
nglarani
nglatih
nglawan
nglayani
ngle
nglebetaken
nglebokake
ngleboni
nglegena
nglegok
nglenggahi
nglengkapi
ngleresaken
nglestantunaken
nglestare
nglestarekake
nglewati
nglibatake
nglibataken
nglilani
nglimputi
nglindhungi
nglindungi
nglingkupi
nglintas
nglintasi
nglipur
ngliputi
ngliris
ngliwati
ngluhurke
nglukis
nglumpuk
nglumpukake
nglumpukke
nglumui
ngluncurake
nglungguhi
nglurug
ngluwari
ngluwihi
ngo
ngobahake
ngobati
ngobong
ngobrol
ngoko
ngolah
ngole
ngolok
ngomah
ngombe
ngombol
ngomong
ngomongake
ngomongi
ngomongke
ngongkon
ngono
ngonsumsi
ngontrol
ngope
ngopeni
ngoperasikake
ngorbit
ngormati
ngowahi
ngoyak
ngraho
ngraih
ngramal
ngraman
ngrambah
ngrampungake
ngrampungaken
ngrampungi
ngrampungke
ngrancang
ngrangkep
ngrangsang
ngraos
ngraosaken
ngrasa
ngrasakake
ngrasakke
ngrasuk
ngrawat
ngrawuhi
ngrayakake
ngre
ngrebat
ngrebut
ngrebutake
ngrekam
ngreksa
ngrembag
ngrembaka
ngrembakakake
ngrembakakaken
ngrembakake
ngrembakane
ngrembakanipun
ngrembug
ngremenaken
ngrencanakake
ngrencanakaken
ngrengkuh
ngresep
ngresiki
ngrewangi
ngrika
ngriki
ngriku
ngrilis
ngrintis
ngripta
ngrisak
ngritik
ngroengoe
ngrokok
ngrubah
ngrujuk
ngrumat
ngrumati
ngrumusake
ngrumusaken
ngrungokake
ngrungokke
ngrungu
ngrusak
ngrutu
ngruwat
ngsa
ngsari
ngse
ngu
nguap
nguasani
nguatake
ngubah
ngubengi
ngubungake
ngubungaken
ngubur
ngucap
ngucapake
ngucapaken
nguciwani
nguculake
ngudhunake
ngudi
ngugemi
nguji
ngukir
ngukuhake
ngukum
ngukur
ngulama
ngulandara
ngulon
ngumbah
ngumbara
ngumpul
ngumpulake
ngumumake
ngumumaken
ngundang
ngundhakake
ngundhang
ngundhuh
ngunggah
ngunggahake
ngunggahke
ngungkapake
ngungkul
ngungkuli
ngungsi
nguni
nguningani
ngunjuk
ngunjungi
nguntungake
nguntungke
ngupadi
ngupados
ngupaya
ngupayakake
ngupengi
ngurah
ngurangi
nguri
nguripake
nguripi
ngurmati
ngurus
ngurusi
ngusir
ngusulake
ngusulaken
ngusung
ngutamakake
nguter
ngutip
ngutus
nguwaosi
nguwasani
nguwatake
nguye
nguyen
nguyuh
ngwang
ngwasani
nh
nha
nhk
ni
nia
niaga
niagara
nias
niat
niba
nic
nica
niccolo
nice
nicholas
nick
nickelodeon
nicky
nico
nicola
nicolas
nicolaus
nicole
nidji
nie
niels
nifas
nig
nige
nigel
niger
nigeria
night
nightingale
nightmare
nights
nigra
nigreich
nigsberg
nihan
nihon
niigata
nijhoff
nik
nika
nikah
nikahan
nikahane
nikahi
nikang
nikaragua
nike
nikel
niken
niki
nikita
nikki
nikko
nikmat
nikmati
nikola
nikolai
nikolas
nikotin
niku
nil
nila
nilai
nilam
nilar
nilaraken
nile
niliki
nimba
nimbali
nimbang
nimbulake
nimh
nimpuna
nin
nina
nindakake
nindakaken
nindakke
nine
ning
ningali
ninggal
ninggalake
ninggalaken
ningkatake
ningkataken
ningrat
nini
ninja
nino
nintendo
nio
nior
nipah
nipis
nippon
nipun
nir
nira
nire
nirina
nirkabel
nirlaba
nirmala
nirokake
niru
nirvana
nirwan
nirwana
nis
nisa
nisan
nishi
nishio
nisp
nissan
nistha
nitahake
nitahaken
nite
niti
nitih
nitrat
nitrit
nitroge
nitrogen
nitya
niu
niwasake
niwasaken
nixon
niyaga
niyat
nj
njaba
njaban
njabane
njabat
njaga
njagakke
njagi
njagong
njajah
njajal
njalari
njalin
njalma
njaluk
njamin
njang
njangkep
njangkepi
njarah
njawab
njawi
njawinipun
nje
njeblug
njedhul
njegur
njelajah
njelasake
njelasaken
njembarake
njenengake
njenengi
njero
njeron
njerone
njikuk
njing
njle
njlentrehake
njlimet
njoge
njunjung
njupuk
njurung
njuwarani
nk
nl
nliti
nm
nmb
nn
nndb
nne
no
noah
nobel
nobelprize
nobita
noble
nobunaga
noda
node
noe
noel
noeli
noer
noflip
noh
noir
nokia
nokturnal
nol
nolak
nolan
nologi
nom
noman
nome
nomenclature
nomenklatur
nomer
nominal
nominasi
nominator
nominee
nommensen
nomo
nomor
non
nona
nonbendawi
none
nonjol
nono
nonstruktural
nonton
noodle
noodles
noor
noord
nope
nopember
nor
nora
norbert
nord
nordic
nordik
nordland
norfolk
nori
norma
normal
normale
norman
normandia
normandie
norris
norte
north
northampton
northern
northwest
norton
norway
norwegian
norwich
nos
nossa
nostalgia
not
notable
notaris
notasi
note
notes
noteworthy
nothing
notice
notifications
notify
noto
notoc
notosusanto
notre
nottingham
nougat
nouvelle
nov
nova
novak
novasi
nove
novel
novele
novelipun
novelis
november
novi
novia
novita
novo
now
nowy
noya
npk
nr
nre
nresnani
nrima
nrj
ns
nsa
nsasi
nsi
nsial
nsif
nsiklope
nsin
nsine
nsitas
nsitif
nsiun
nsiyun
nsor
nstab
nster
nsus
nt
nta
ntah
ntahake
ntahan
ntahane
ntahanipun
ntal
ntar
ntara
ntas
ntasaken
ntasi
ntb
nte
nten
ntenaken
ntenipun
nter
nthe
nti
ntifikasi
ntik
ntime
ntina
ntitas
nto
ntok
ntrasi
ntre
ntt
ntu
ntuk
ntukake
ntuke
ntuki
nu
nuansa
nuclear
nudhuhake
nuduh
nuduhake
nuestra
nueva
nuevo
nugel
nugini
nugraha
nugroho
nuh
nuju
nukle
nukleat
nukleotida
nukleus
nuklir
nuku
nulak
nular
nuli
nulis
nulisake
null
nulung
nulungi
nulya
numbas
number
numbers
numerik
numfor
numpak
numpes
numpuk
nun
nunavut
nunggal
nunggang
nunggil
nunggu
nunjang
nunjuk
nunjukake
nuno
nunte
nuntun
nuntut
nunukan
nuovo
nur
nurani
nurbaya
nurdin
nuremberg
nuri
nurul
nurun
nurunake
nurut
nuruti
nurwe
nurwegen
nus
nusa
nusantara
nusawungu
nusul
nuswantara
nut
nutrien
nutrisi
nutrition
nutugake
nutup
nutupi
nuturake
nututi
nuwuhake
nuwuhaken
nuwun
nv
ny
nya
nyabang
nyabrang
nyadari
nyade
nyadiakake
nyai
nyak
nyaketi
nyakup
nyalahke
nyalin
nyalon
nyalonake
nyalurake
nyaman
nyamar
nyambi
nyambung
nyambungake
nyambut
nyambutgawe
nyamektakaken
nyamikan
nyampur
nyamuk
nyana
nyandhak
nyandhang
nyandhet
nyang
nyangga
nyangkup
nyangkut
nyanyi
nyanyian
nyaosi
nyaranake
nyaring
nyariosaken
nyaritakake
nyariyosake
nyariyosaken
nyarujuki
nyata
nyatakake
nyatakaken
nyatane
nyatet
nyathet
nyaut
nyawa
nyawane
nyawang
nyawije
nyawiji
nyawisake
nyawisaken
nye
nyebabake
nyebabkake
nyebapake
nyebapaken
nyebar
nyebarake
nyebaraken
nyebat
nyebataken
nyebrang
nyebrangi
nyebut
nyebutake
nyebutaken
nyedhaki
nyedhiyakake
nyedhot
nyediakake
nyediani
nyegah
nyegerake
nyekapi
nyekar
nyekel
nyekeli
nyekse
nyelaki
nyelametake
nyelehake
nyelenggarakake
nyelidiki
nyeluk
nyembah
nyemplung
nyemprotake
nyenengake
nyenengi
nyengkuyung
nyenyuwun
nyepakake
nyepe
nyepeng
nyepetake
nyepi
nyerah
nyerahake
nyeraki
nyerang
nyerat
nyerbu
nyerep
nyeri
nyeritakake
nyetak
nyetel
nyethak
nyetrap
nyetujoni
nyewa
nyi
nyiapake
nyiapaken
nyiarake
nyigar
nyiksa
nyilem
nyilih
nyimpang
nyimpen
nyimpulake
nyinaoni
nyinau
nyinggung
nyingkirake
nyingkiri
nyipta
nyiptaake
nyiptakake
nyiptakaken
nyiram
nyirip
nyirnakake
nyithak
nyiya
nyiyapake
nylametake
nylametaken
nylametke
nyoba
nyobi
nyokong
nyokot
nyolok
nyolong
nyoman
nyonya
nyonyah
nyopir
nyopot
nyrambahi
nyritaake
nyritakake
nyritani
nyu
nyuda
nyuguhake
nyukani
nyukupi
nyukur
nyulik
nyumbang
nyumbangake
nyumurupi
nyunting
nyurung
nyusoni
nyusul
nyusun
nyusut
nyutradarani
nyuwe
nyuwun
nz
nzim
nzowat
o
oak
oakland
oasis
oatmeal
oaxaca
ob
obah
obahan
obahe
obahing
obama
obat
obatan
obe
obesitas
obi
obituary
obje
object
objek
objektif
oblast
obligasi
oblong
obong
obor
obrolan
observasi
observatorium
observatory
observer
obsesi
obsolete
obye
obyek
oc
ocbc
occitan
oce
ocean
oceania
och
oclc
ocso
oct
octans
octavia
october
octonauts
octopus
od
oda
ode
oder
odessa
odia
odisha
odyssey
oe
oecd
oega
oendjoeke
oerip
oetawa
of
off
offa
offal
office
officer
official
ofm
often
og
ogan
ogasawara
ogoh
ografi
ografis
oh
ohio
ohr
oi
oil
ois
oise
ojek
ojo
ok
oka
okan
okayama
okazaki
oke
okezone
oki
okinawa
okky
oklahoma
okra
oksida
oksidasi
oksige
oksigen
okt
oktaf
oktober
ol
ola
olah
olahan
olahraga
old
ole
oleh
olehe
olga
oli
olih
olimpiade
olimpiadhe
olimpus
olive
oliveira
oliver
olivia
olivier
olla
olof
olog
ologi
ologis
olok
olympia
olympiade
olympic
olympics
olympique
olympus
om
omah
omaha
omahan
omahe
oman
omar
ombak
ombe
omben
ombenan
ome
omega
omelet
omnibus
omnivora
omong
omongan
omongane
omongi
omongke
on
oncat
once
oncom
onde
ondhe
ondol
one
ones
oneworld
ong
ongkos
oni
onion
onkologi
online
only
onna
ono
onok
ons
onsen
onta
ontang
ontario
ontran
oo
oort
oost
op
opah
opak
ope
open
opening
opera
operan
operasi
operasional
operating
operation
operations
operator
ophiuchus
opini
opinion
opium
opo
opole
opor
oposisi
oprasi
opsi
opsional
opsir
opt
optical
optik
optika
optimal
optimis
optimus
option
optis
opuntia
or
ora
orak
oral
orane
orang
orange
orangutan
oranye
orbit
orbital
orbite
orchestra
orde
order
ordho
ordinariat
ordinariate
ordinaris
ordo
ore
oregano
oregon
org
organ
organel
organik
organisasi
organisation
organisme
organization
organizations
orgia
ori
oricon
orie
orient
oriental
orientalis
orientasi
orientation
origin
original
originally
origine
origini
origins
orion
orke
orkes
orkestra
orlando
orle
orleans
orname
ornamen
oro
orologi
orong
ortega
orth
orthodox
ortiz
ortodhok
ortodoks
ortografi
os
osaka
osama
osasco
oscar
ose
oseania
oseng
oskar
oslo
osman
ost
ostenrik
ostenrikn
ostrali
ot
otak
ote
other
others
oto
otobiografi
otodidak
otomatis
otomotif
otonom
otonomi
otoritas
otot
ottawa
otto
ottoman
ou
ouagadougou
oud
our
out
output
outre
outside
outstanding
ova
oval
ovarium
oven
over
overview
oviedo
ovum
owah
owahan
owahe
owahing
owen
owens
owl
own
oxford
oxyopes
oxyopidae
oyod
oyode
oyot
oyote
oz
ozon
oztorah
p
pa
pabe
pabedilan
pabelan
pablo
pabrik
pabrikan
pabuaran
pabukon
pac
pacangan
pacangane
pacar
pacaran
pacare
pacarku
pace
paceklik
pacelathon
pacific
pacinan
paciran
pacitan
pack
package
packard
pacoban
pacu
pacuan
pacul
pad
pada
padagangan
padahal
padalarang
padame
padamelan
padamelanipun
padamu
padanan
padang
padangan
padat
padatan
padatane
padatanipun
padding
pade
pademawu
padesan
padet
padha
padhalangan
padhane
padhang
padharan
padhe
padhet
padhusunan
padi
padinan
padinane
padintenan
padjadjaran
padma
padmasusastra
padmi
padmosoekotjo
padoe
pados
padu
padua
paduan
padudon
paduka
padunung
padunungan
padunungane
padununge
padusan
pae
paella
paeonia
pag
pagak
pagar
pagaruyung
pagawe
pagawean
page
pageblug
pagelaran
pagentan
pager
pagerbarang
pagerruyung
pages
pagesangan
pagesanganipun
pagi
pagoda
pagunungan
paguron
paguyangan
paguyuban
pah
paha
pahala
paham
pahang
pahargyan
pahatan
paheman
pahing
pahit
pahlavi
pahlawan
pai
pain
paing
painting
pait
pajajaran
pajak
pajama
pajang
pajangan
pajeg
pajek
pak
paka
pakaian
pakan
pakanan
pakar
pakarti
pakaryan
pakaryane
pakaryanipun
pakasa
pakdhe
pake
pakebonan
pakeliran
pakem
pakempalan
paket
pakis
pakisaji
pakistan
pakoe
pakon
pakong
pakpak
paks
paksa
paksi
pakta
paku
pakualaman
pakuan
pakubuwana
pakulinan
pakumpulan
pakunjaran
pakurmatan
pal
pala
palabuhan
palace
palacio
palagan
palais
palakarta
palakrama
palakrami
palang
palangka
palangkaraya
palapa
palar
palasara
palastra
palatih
palatihan
palau
palawan
palawija
palazzo
pale
palem
palemahan
palembang
paleontologi
palermo
palestina
palestine
palestinian
palgrave
pali
palilah
palimanan
paling
pallas
pallawa
palm
palma
palmas
palmer
palo
paloh
palopo
palsu
palu
palue
palung
paluruhan
palwa
pam
pamaburan
pamaca
pamadosan
pamahaman
pamain
paman
pamanah
pamanahan
pamanasan
pamane
pamanggih
pamanggihan
pamanggihipun
pamangkune
pamangsa
pamaos
pamare
pamarentah
pamarentahanipun
pamarintah
pambabaran
pambage
pambagian
pambalap
pambale
pambangunan
pambarep
pambayaran
pambe
pambeksa
pambentukan
pamberontakan
pambesut
pambesutan
pambiji
pambiwara
pambiyantu
pamblokiran
pambrontak
pambrontakan
pambudidaya
pambuka
pambuluh
pamburu
pambuwangan
pame
pamekaran
pamekasan
pamela
pamenang
pamentasan
pameran
pamiarsa
pamicara
pamikir
pamikiran
pamilian
pamilih
pamilihan
pamilik
pamimpin
pamindhahan
paminggahan
pamireng
pamirsa
pamisah
pamisahan
pamit
pamitan
pamona
pamong
pamor
pamotan
pamplona
pamrayoga
pamre
pamrentah
pamrentahan
pamrentahane
pamriksan
pamrograman
pamudhunan
pamugaran
pamujaan
pamujan
pamuji
pamukan
pamukiman
pamulang
pamulangan
pamulihan
pamundhutan
pamungkas
pamungutan
pamuter
pan
panah
panahan
panakawan
panaklukan
panalite
panaliten
panaliti
panama
panambahan
panambang
panampa
panampi
panampilan
panampilane
panandang
panandhang
pananggalan
panangkaran
panaraga
panas
panasake
panase
panasonic
panata
panatacara
panca
pancake
pancakusuma
pancasan
pancasila
pancawara
pancawarna
pancawati
pance
pancen
panceng
pancernan
panci
pancing
pancur
pancuran
pand
panda
pandamel
pandamelan
pandan
pandang
pandangan
pandawa
pande
pandega
pandeglang
pandeleng
pandelengan
pandemi
pandemic
pandhan
pandhangan
pandhawa
pandhe
pandhemen
pandhidhikan
pandhidhikane
pandhita
pandhu
pandhuan
pandhudhuk
pandhukung
pandita
pandjenengane
pandji
pandom
pandonga
pandu
panduan
pandukung
panduman
pandunung
panduwinata
pane
paneer
panel
panelite
paneliten
paneliti
panelitian
panembahan
panembang
panemon
panemone
panemu
panemuan
panemune
panen
panentu
panerapan
panerbit
panerbitan
panerus
paneruse
panetepan
pang
pangabekti
pangacara
pangadeg
pangadegan
pangadilan
pangadolan
pangage
pangajab
pangajaran
pangajeng
pangaji
pangakuan
pangalaman
pangalembana
pangamatan
pangan
panganan
panganane
pangandaran
pangandika
pangandikan
pangandikane
pangandikaning
pangandikanipun
pangane
pangangge
panganggenipun
panganggep
panganggit
panganggo
panganggoan
panganggonan
panganggone
panganggoning
pangangkatan
pangante
panganten
panganut
pangapunten
pangapuntening
pangapura
pangarang
pangarep
pangarepan
pangaribawa
pangarsa
pangarsaning
pangarsanipun
pangaruh
pangasil
pangasilan
pangaturan
pangatusan
pangawas
pangawasan
pangayom
pangayoman
pangdam
pange
pangeboman
pangecapan
pangecualian
pangeduman
pangembang
pangembangan
pangenalan
pangentasan
pangepungan
pangeran
pangerane
pangeranira
pangeranku
pangerte
pangerten
pangertosan
pangestu
pangetahuan
panggabean
panggabungan
panggah
panggalih
panggalihe
panggalihipun
panggambaran
panggang
panggangan
pangganti
panggantos
panggawe
pangge
panggedhe
panggenan
panggih
panggil
panggilan
pangginaan
panggiyaran
panggole
panggon
panggonan
panggonane
panggone
panggul
pangguna
panggunaan
panggunaane
panggunan
panggung
panggungreja
panggurit
panghargaan
panghargian
panghargyaan
panghargyan
pangiket
pangikut
pangilon
panginepan
pangiriman
pangiring
pangisi
pangkah
pangkajene
pangkajian
pangkal
pangkalan
pangkalpinang
pangkat
pangkate
pangkon
pangkur
panglima
panglipur
panglipuran
panglompokan
pangobatan
pangobongan
pangoetjape
pangolahan
pangon
pangonan
pangope
pangowahan
pangrango
pangraos
pangrasa
pangre
pangreksa
pangreksan
pangrembakan
pangrembakaning
pangripta
pangrungu
pangrusakan
pangsit
panguasa
panguburan
pangucap
pangucapan
pangucape
pangudi
pangudine
pangukuran
pangulu
pangumuman
pangungsi
pangunjung
pangurangan
panguripan
panguripane
pangurmatan
pangurus
pangusaha
panguwaos
panguwasa
panguwasan
panguwasane
pangwasa
pangwasane
pangyasa
paniai
panicle
panil
paningal
paningalan
paninggalan
paninggaran
paningkatan
panir
panitia
panitra
panitya
panjaga
panjaitan
panjajah
panjajahan
panjaluk
panjalukan
panjaluke
panjang
panjangipun
panjat
panjatan
panje
panjebar
panjelasan
panjenengan
panjenengane
panjenenganipun
panjenengngan
panjer
panji
panjlajah
panjupukan
panjurung
pankreas
panlite
panliten
panliti
panlitian
panlitiane
panonton
panorama
panrapan
pantai
pantang
pantauan
pante
pantes
pantheon
panther
panthera
panti
pantun
pantura
pantye
panularan
panulis
panulisan
panulisane
panulise
panuluh
panumpang
panumpes
panunggalan
panunggul
panungkulan
panuntun
panutan
panutup
panutupan
panutur
panuwun
panyakit
panyangga
panyanyi
panyarta
panyaruwe
panyatur
panye
panyebab
panyebabe
panyebar
panyebaran
panyebutan
panyengkuyung
panyerang
panyerangan
panyerat
panyeratan
panyeratipun
panyerepan
panyiapan
panyimpenan
panyipta
panyithak
panyunting
panyuntingan
panyusun
panyusunan
panyuwun
panyuwunan
panyuwune
panyuwunipun
pao
paolo
paos
papa
papak
papan
papane
papanipun
papar
paparan
papat
papate
papaya
paper
paperangan
paperback
papers
papiamento
papirus
paprangan
papre
paprentahan
paprika
papua
par
para
parade
paradisaea
paradise
paraga
paragane
paragraf
paraguay
parah
parahyangan
parai
parakan
paralayang
paralel
parama
paramaribo
paramasastra
parame
parameter
paramita
paramitha
paramount
paran
parana
parang
parangtritis
paranormal
pararaton
parashah
parasit
parasurama
paratha
parc
parcel
pardes
pare
pareanom
parede
parembugan
pareng
parentah
parfum
pari
pariaman
parian
paribasa
paribasan
parigi
parijinis
parikan
parikesit
paring
paringi
paringin
paripurna
paripustaka
paris
parish
parit
pariundhagi
pariwara
pariwisata
park
parker
parkinson
parkir
parks
parleme
parlemen
parliament
parma
parmesan
parmigiano
paro
parodi
paroki
paron
parque
pars
parsi
parsial
parsley
parsyah
part
partai
parte
parteme
partement
parthenon
participate
participation
partido
partikel
partikuler
partisi
partisipan
partisipasi
partner
partners
partnership
parto
parts
party
paru
paruh
paruk
parusahaan
parusahan
parut
parutan
pas
pasa
pasagi
pasai
pasal
pasaman
pasamoean
pasamuan
pasamuane
pasamuwan
pasan
pasang
pasangan
pasangane
pasanggiri
pasanggrahan
pasar
pasaran
pasare
pasarean
pasarta
pasarturi
pasarujukan
pasca
pascal
pascasarjana
pase
pasebaran
paseduluran
pasemon
paser
paserta
paserujukan
pasetujon
pasha
pasi
pasie
pasien
pasif
pasifik
pasig
pasinaon
pasinaonan
pasir
pasisir
paskah
pasokan
paspor
pasrah
pass
passer
passes
passion
past
pasta
paste
pastel
pasteur
pasteurisasi
pasti
pastor
pastoral
pastry
pastur
pasugatan
pasukan
pasukane
pasulayan
pasundan
pasuruan
pasuryan
pasuryane
pasuta
pat
pata
patah
patamanan
patan
patang
patapan
patbelas
pate
patean
patebon
patel
patemon
paten
pater
paternakan
path
pathet
pathi
pathok
pathokan
pathuk
pati
patia
patih
patihe
patikraja
patilasan
patin
patine
pating
patitis
patiya
patogen
patologi
patos
patra
patrap
patria
patriarchia
patriark
patriarkat
patricia
patrick
patrio
patriot
patriotik
patrol
patroli
patron
pattern
patterns
pattimura
patty
patung
patungan
patut
patutan
pau
paugeran
paukuman
paul
paula
pauli
pauline
paulista
paulo
paulownia
paulus
paus
pav
pavel
pavia
paviliun
pavo
pawadonan
pawarna
pawarta
pawartos
pawatesan
pawayangan
pawe
pawiwahan
pawiyaran
pawiyatan
pawiyatane
pawon
pawongan
pawukon
pax
pay
paya
payakumbuh
payau
payne
payon
payone
pays
payu
payudara
payung
paz
pb
pbb
pbs
pbsi
pc
pd
pdb
pdf
pdi
pdt
pe
peabody
peace
peach
peak
pear
pearce
pearl
pearson
pebruari
pecah
pecahan
pecan
pecangaan
pecel
pecinan
pecinta
pecorino
pecut
pedagang
pedalaman
pedamelan
pedamelanipun
pedang
pedas
pede
pedes
pedesaan
pedhalangan
pedhang
pedhes
pedhet
pedhot
pedhut
pedoman
pedro
peduli
pedunung
pedurungan
pega
pegandon
pegantenan
pegasus
pegat
pegatan
pegawai
pegawe
pegel
peggy
pegon
pegulat
pegunungan
pei
pejabat
pejagoan
pejah
pejahipun
pejawaran
pejuang
pejuwang
peka
pekalongan
pekan
pekanbaru
pekarangan
pekat
peken
pekerja
pekerjaan
pekerti
peking
peksa
peksi
pektin
pelabuhan
pelacur
pelade
pelaihari
pelajar
pelajaran
pelakon
pelaksana
pelaksanaan
pelaku
pelancong
pelanggan
pelanggaran
pelangi
pelantikan
pelarut
pelat
pelataran
pelatih
pelatihan
pelatnas
pelaut
pelawak
pelayan
pelayanan
pelayaran
pele
pelecehan
peledak
pelem
pelengkap
pelestarian
peliharaan
pelindung
pelita
pelog
pelopor
pelosok
peluang
pelukis
pelumas
peluncuran
peluru
pemahaman
pemain
pemaine
pemakaman
pemalang
pemanas
pemanasan
pemancar
pemandangan
pemandhangan
pemandian
pemandu
pemanfaatan
pemanis
pemasaran
pemasyarakatan
pematang
pematangsiantar
pematung
pembaca
pembagian
pembaharuan
pembakaran
pembalap
pembangkit
pembangunan
pembantaian
pembantu
pembaptis
pembaruan
pembawa
pembayaran
pembebasan
pembekuan
pembela
pembelahan
pembelajaran
pembentukan
pemberantasan
pemberdayaan
pemberian
pemberontakan
pembersih
pembiayaan
pembicaraan
pembina
pembinaan
pemblokiran
pembuahan
pembuang
pembuangan
pembuat
pembuatan
pembuka
pembukaan
pembuluh
pembunuh
pembunuhan
pemburu
pemda
pemegang
pemekaran
pemeliharaan
pemenang
pementasan
pemeran
pemerentah
pemeriksaan
pemerintah
pemerintahan
pemetaan
pemikir
pemikiran
pemilih
pemilihan
pemilik
pemilu
pemimpi
pemimpin
pemindahan
pemirsa
pemisahan
pemkab
pemotong
pempek
pemrograman
pemuatan
pemuda
pemudha
pemugaran
pemukim
pemukiman
pemungutan
pemusik
pen
pena
penabur
penak
penakluk
penalti
penambahan
penampang
penampilan
penampilane
penampilanipun
penanaman
penang
penanganan
penanggalan
penanggulangan
penangsang
penari
penasaran
penase
penasehat
penasihat
penata
penataan
penataran
penawangan
penawaran
pencak
pencakar
pencalonan
pencapaian
pencari
pencarian
pencegahan
pencerahan
pencernaan
pencetak
pencipta
penciptaan
pencuri
pendaftaran
pendaki
pendakian
pendamelan
pendamping
pendanaan
pendapat
pendapatan
pendapatane
pendarahan
pendatang
pendayagunaan
pendek
pendekar
pendekatan
penderita
pendet
pendeta
pendhak
pendhapa
pendhapat
pendhe
pendhem
pendhidhikan
pendhidhikane
pendhidhikanipun
pendhiri
pendhudhuk
pendhudhukan
pendhukung
pendidik
pendidikan
pendidikanipun
pendiri
pendirian
pendopo
penduduk
pendudukan
penduduke
pendudukipun
pendukung
penebel
penegak
penegakan
peneliti
penelitian
penembak
penemu
penemuan
pener
penerangan
penerapan
penerbangan
penerbit
penerbitan
penerima
penerjemah
penerjemahan
penerus
peng
pengabdian
pengacara
pengadaan
pengadilan
pengajar
pengajaran
pengajian
pengakuan
pengalaman
pengalamane
pengalihan
pengamanan
pengamat
pengamatan
pengandel
pengandele
pengandelmu
pengangguran
pengangkatan
pengantar
pengante
penganten
pengantin
penganut
pengarang
pengarep
pengarepe
pengaruh
pengaruhe
pengasih
pengasil
pengasingan
pengasuh
pengaturan
pengawal
pengawas
pengawasan
pengawe
pengawet
pengawetan
penge
pengeboran
pengecualian
pengelola
pengelolaan
pengembang
pengembangan
pengen
pengenalan
pengendali
pengendalian
pengertian
pengetahuan
pengetan
penggabungan
penggalian
penggalih
pengganti
penggantian
penggawa
penggawe
penggede
penggemar
penggemare
penggerak
pengging
pengguna
penggunaan
penghapusan
penghargaan
penghasil
penghasilan
penghormatan
penghubung
penghulu
penghuni
pengikat
pengikut
pengin
pengiriman
pengisi
pengkajian
pengobatan
pengolahan
pengoperasian
pengrajin
penguapan
penguasa
penguin
pengukuran
pengulu
pengumuman
pengungsi
pengunjung
pengurangan
pengurus
pengusaha
penida
penilaian
pening
peninggalan
peningkatan
peninsula
penis
penisilin
penjaga
penjahat
penjajah
penjajahan
penjalin
penjara
penjelajah
penjelasan
penjenenganipun
penjor
penjualan
penjuru
penn
pennine
pennsylvania
penny
penonton
pensiun
pensiunan
pensiyun
pentakosta
pentas
pente
penting
pentinge
penuh
penulis
penulisan
penumpang
penuntun
penurunan
penutup
penutupan
penutur
penyair
penyajian
penyakit
penyakite
penyalahgunaan
penyangga
penyanyi
penyebab
penyebaran
penyelenggara
penyelenggaraan
penyelidikan
penyembuhan
penyerang
penyerapan
penyiapan
penyiar
penyiaran
penyihir
penyisihan
penyu
penyuluhan
penyunting
penyusunan
peony
people
peoples
pepadang
pepadhan
pepadhang
pepak
pepanggihan
pepanthan
peparab
peparing
peparinge
pepati
pepatih
pepaya
pepe
pepenginan
peperangan
pepet
pepeteng
pepinginan
pepisahan
pepper
pepre
pepsi
pepsodent
peptida
peputra
per
perabot
peradaban
peradangan
perahu
perairan
perak
peralatan
peralihan
peran
peranakan
peranan
perancang
perancangan
perancis
perane
perang
perangan
perangane
peranganing
perange
perangkat
peranipun
perantara
perapian
perasa
perasaan
peraturan
perawan
perawat
perawatan
perawi
perayaan
perbaikan
perbandingan
perbankan
perbatasan
perbedaan
perbendaharaan
perbincangan
perbuatan
perbukitan
perbukuan
perburuan
percakapan
percaya
percepatan
percetakan
percobaan
percy
perdagangan
perdamaian
perdana
perdanane
perdebatan
perdhagangan
perdhana
perdu
perduli
pere
perebutan
peredam
peredaran
pereira
perekonomian
perempat
perempatfinal
perempuan
perencana
perencanaan
perennial
peres
peresan
peresmian
perez
perfect
perfileman
performa
performance
performer
performing
pergantian
pergaulan
pergelangan
pergerakan
pergi
perguruan
perhatian
perhiasan
perhimpunan
perhubungan
perhutani
peri
perihal
perikanan
perilaku
perindustrian
peringatan
peringkat
perintah
perintis
period
periode
periodhe
periodic
periodik
periphery
perisai
peristiwa
perjalanan
perjanje
perjanjian
perjuangan
perjuangane
perjurit
perjuwangan
perkakas
perkampungan
perkantoran
perkapalan
perkara
perkasa
perkawinan
perkawis
perkebunan
perkedel
perkemahan
perkembangan
perkembangane
perkenalan
perkins
perkiraan
perkotaan
perkumpulan
perkusi
perlawanan
perlengkapan
perlindhungan
perlindungan
perloe
perlombaan
perlu
perluasan
perlune
permai
permainan
permaisuri
permane
permanen
permata
permatasari
perme
permen
permintaan
permohonan
permukaan
permusyawaratan
pernah
pernahe
pernapasan
pernatan
pernatane
pernikahan
pernikahane
pernyataan
pero
perobahan
peron
perpajakan
perpanjangan
perpustakaan
perry
pers
persada
persagi
persahabatan
persaingan
persak
persamaan
persatuan
persaudaraan
perse
persebaya
persefone
persegi
persekuthuan
persela
perselisihan
persema
persemakmuran
persembahan
persen
persenjataan
persentase
persepolis
persepsi
perserikatan
persero
perseroan
persetujuan
perseus
persia
persian
persiapan
persib
persiba
persija
persik
persilangan
persimpangan
persip
persipura
persis
persise
persiyapan
persoalan
person
personal
personel
personil
perspective
perspectives
perspektif
persyaratan
pertahanan
pertalan
pertama
pertamane
pertambangan
pertami
pertamina
pertanahan
pertandhingan
pertandingan
pertanian
pertanyaan
pertapa
pertapaan
pertapan
pertarungan
pertempuran
pertemuan
pertengahan
perth
pertimbangan
pertiwi
pertukaran
pertumbuhan
pertunjukan
peru
perubahan
perugia
perum
perumahan
perumus
perundang
perundhang
perunggu
perusahaan
perusahaane
perut
perwakilan
perwalian
perwara
perwira
perwujudan
pes
pesagi
pesaing
pesan
pesanggrahan
pesantre
pesantren
pesat
pesawaran
pesawat
pescara
pesen
pesenan
peserta
pesisir
peso
pesona
pesta
pesthi
pestisida
pet
peta
petak
petanahan
petang
petani
petarukan
pete
peteng
petenis
peter
peterborough
peternak
peternakan
peterongan
peterpan
peters
petersburg
peterseli
peterson
petet
pethak
pethe
pethikan
pethite
peti
petilasan
petinju
petir
petis
petisi
petit
petra
petro
petrokimia
petroleum
petronas
petruk
petrus
petty
petualang
petualangan
petugas
petung
petungan
petunjuk
peucetia
peugeot
pevita
pewaris
pewarna
pewarnaan
pewayangan
pez
peziarah
pfa
pg
pgri
ph
pha
phab
phabricator
phan
phantom
pharur
phase
phat
phd
phe
phil
philadelphia
philip
philipp
philippe
philippine
philippines
phillip
phillips
philosophie
philosophy
phnom
pho
phoenix
phone
photo
photograph
photographic
photographs
photography
photos
php
phraya
phu
phuket
phylogeny
physical
physics
physiology
phytophthora
pi
pia
piacenza
piagam
piala
pianis
piano
piatu
piazza
pic
picasso
pick
pickford
pickle
pickled
pickles
pickling
pico
pictor
picture
pictured
pictures
pidana
pidato
pidhato
pidie
pie
piece
pieces
piedmont
piek
piemonte
pierce
piero
pierre
piet
pieter
pietro
pig
pigeaud
pigme
pigmen
piguna
pigunakake
pigunane
pihak
pijar
pijer
pijet
pijin
pika
pikantuk
pikatan
pike
pikir
pikiran
pikirane
pikire
piknik
pikole
pikoleh
piksel
pil
pilaf
pilangsari
pilar
pilatus
pilek
pilih
pilihan
pilihane
pilipina
pilkada
pilot
pimpinan
pimpinane
pin
pinalti
pinang
pinangante
pinanggih
pinarak
pinaringan
pindah
pindang
pindha
pindhah
pindhang
pindho
pindhone
pindo
pine
pinercaya
ping
pinggang
pinggir
pinggiran
pinggirane
pinggire
pinggiring
pinggul
pingpong
pinguin
pinilih
pinitados
pinituwa
pinjaman
pink
pinkan
pinkie
pino
pinocchio
pinot
pinrang
pintar
pinte
pinten
pinter
pinto
pintu
pinuji
pinuju
pinunjul
pinus
pinyin
pio
pioneer
pionir
piotr
pip
pipa
piper
pipi
pipih
pipis
pir
pira
piramid
piramida
pirang
piranti
pirantine
pirantos
pirates
pirembagan
piring
piringan
pirngon
pirsa
pirsanana
pirsani
pisa
pisah
pisahan
pisan
pisanan
pisanane
pisang
pisanipun
pisau
pisces
piscis
piscopat
piso
pisode
pista
pistachio
pistol
piston
pistul
pisumbangan
pisumbangane
pisungsung
pit
pita
pitados
pitake
pitaken
pitakenan
pitakon
pitakonan
pitaloka
pitaya
pitcher
pite
pitedah
pitembungan
pithik
pitik
pitoe
pitt
pittsburgh
pitu
pituduh
pitulas
pitulung
pitulungan
pitulungane
pitung
pituruh
pitutur
pituture
pituturku
pius
piwales
piwucal
piwulang
piwulangan
piwulange
pixar
piyala
piyambak
piyambakan
piyambake
piyambakipun
piyantun
piye
piyul
pizarro
pizza
pj
pk
pkb
pki
pkl
pks
pku
pl
pla
plabuhan
place
places
plain
plains
plan
plancius
planck
plancong
plane
planet
planets
planit
plankton
planned
planning
plans
plant
plantain
plants
plantungan
plaosan
plasa
plasaklate
plasma
plasmid
plasmodium
plastic
plastik
plat
plata
plataran
plate
platform
platini
platinum
platnick
plato
play
playboy
played
playen
player
players
playing
playlist
playstation
plaza
ple
please
plesir
plesiran
plika
plikasi
pln
plo
plot
plotarea
plotdata
plovdiv
plum
plumbon
plumpungan
plupuh
pluru
plus
pluto
plutonium
plymouth
pm
pmi
pmr
pn
pneumonia
png
pni
pnri
pns
po
poaceae
pocapan
pocapane
pocari
poci
pocket
pocong
pod
podcast
podhang
podho
podium
podlachia
podo
pods
poe
poedjangga
poelo
poem
poems
poenggawa
poenika
poerbatjaraka
poerwadarminta
poesponegoro
poestaka
poet
poetra
poetrane
poetry
poets
poh
pohan
pohon
pohung
poin
point
points
poiret
poirot
pojok
pojokan
pok
pokal
pokan
poke
poker
pokok
pol
pola
polah
polahe
poland
polandia
polanharja
polar
polarisasi
polda
pole
polen
polenta
polewali
poli
police
policy
polifenol
poligami
polime
polimer
poline
polinesia
polipeptida
poliponik
polis
polisakarida
polish
polisi
polite
politeknik
political
politics
politik
politikus
politis
politisi
polity
poll
pollock
polo
polong
polongan
polonia
polos
polri
polski
polusi
pom
poma
pomahan
pomerania
pompa
pompeii
pon
ponakan
ponakane
poncol
pondasi
pondhasi
pondhok
pondok
pong
ponggok
pongo
pongol
poni
ponjong
ponorogo
ponsel
pont
pontianak
pontificia
pontificum
pony
ponytail
poo
pooh
pool
poor
pop
popaya
popcorn
pope
popor
poppy
popular
popularitas
popularity
populasi
populasine
population
popule
populer
por
porcupine
pori
pork
porno
pornografi
poros
porsi
port
portable
portal
porte
portegal
portegis
porter
portland
porto
portrait
portsmouth
portugal
portugis
portuguese
portulaca
pos
pose
poseidon
posisi
posisine
posisinipun
positif
position
positip
positive
poso
possible
post
posted
poster
posterior
posting
posts
pot
potato
pote
potelod
potensi
potensial
potential
potenza
potlot
poto
potong
potongan
potosi
potre
potret
potter
pound
poundsterling
pour
poverty
powder
powell
power
powerful
powers
powershell
powiat
poznan
pp
ppi
ppki
ppp
pr
pra
praba
prabalingga
prabawa
prabawane
prabe
prabha
prabhu
praboe
prabot
prabowo
prabu
pracaya
pracimantara
practical
practice
prada
pradesh
pradja
pradjangdjian
pradjoerit
prado
praga
pragaan
pragmatik
prague
praha
prahara
prahok
prahu
praja
prajanje
prajanjen
prajanji
prajanjian
prajurit
prajurite
prakara
prakarsa
prakasa
prakawis
prakiraan
prakiran
prakosa
prakte
praktek
praktik
praktis
praktisi
pralambang
pram
prambanan
prambors
prame
prameswari
pramila
pramoedya
pramugari
pramuka
pranala
pranata
pranatacara
pranatan
prancis
prang
prangkat
prangko
pranyata
pranyatan
praoe
prapanca
prapat
prapatan
prapta
pras
prasaja
prasajarah
prasarana
prasasat
prasasti
prasetya
prasetyo
prasmanan
prastawa
pratama
pratamane
pratanda
pratandha
prate
pratelan
pratingkah
pratiwi
pratjaja
pratt
pratuduh
prau
praune
praupan
praupane
prawan
prawata
prawira
prayaan
prayer
prayitna
prayoga
prayogane
prayogi
pre
predator
predikat
preduli
prefecture
prefek
prefektur
preferences
preferensi
prei
preinan
prejanje
prejanjian
prejanjiane
prekara
prekawis
prekursor
prelatur
prelatus
prelu
prem
preman
prembun
premier
premiere
premiership
premium
prenahe
prentah
preparasi
preparation
prepared
present
presentasi
presentation
presenter
presents
preservation
presiden
president
presidential
presidents
presidhe
presidhen
presipitasi
presley
press
pressure
prestasi
prestasine
preston
preto
pretoria
pretty
pretyaya
pretzel
prevention
preview
previously
pri
pria
priangan
pribadhi
pribadi
pribadine
pribadinipun
pribumi
price
prickly
priest
priestley
prigel
prih
prihatin
priksa
priksani
prilaku
prima
primadona
primary
primata
primavera
primbon
prime
primer
primera
primitif
primus
prince
princess
princeton
principal
principe
principio
principles
pring
pringapus
pringkuku
pringse
pringsurat
prinsip
print
printer
printing
priok
prion
prioritas
pripun
prisma
prison
prisoner
privat
private
prix
priya
priyangga
priyantun
priyayi
prize
prizes
pro
probabilitas
probe
problem
problems
probolinggo
proceedings
process
processing
prodhuk
prodhuksi
prodhuksine
prodhuktif
prodhuse
prodhuser
prodi
produce
produced
producer
product
production
productions
products
produk
produke
produksi
produktif
produse
produsen
produser
prof
profe
profesi
profesional
profesionalisme
profesor
professional
professor
profil
profile
profit
progo
program
programme
programming
programs
progre
progresif
progress
project
projects
proklamasi
proliferasi
prometheus
promise
promo
promosi
pronounced
pronunciation
proofread
proofreadpage
propaganda
properti
properties
property
propinsi
proporsi
proposal
proposals
proposed
proppo
prosa
prosciutto
prose
prosedur
proses
prosesi
prosesor
prosopographische
prospek
prosper
prost
prostat
protagonis
prote
protect
protected
protection
protein
protes
protestan
protista
proto
protocol
protokol
proton
prototipe
prototype
protozoa
proud
provenc
provence
provide
provided
providence
provider
provides
province
provincia
provincial
provinsi
proxima
proye
proyek
proyeksi
prunggu
pruriens
prusahaan
prusia
przemys
ps
pseudo
psg
psi
psikolog
psikologi
psikologis
psikopat
psikotropika
psis
psm
pss
pssi
psv
psychology
pt
pta
pte
ptember
pterois
ptik
ptil
ptolemeus
ptolemy
pts
pu
puan
puas
puasa
pub
puber
pubis
public
publication
publications
publik
publika
publikasi
published
publisher
publishers
publishing
pucakwangi
pucat
pucet
pucuk
pucuke
pucuking
pucukipun
pucung
pud
pudding
pudhing
puding
pudong
puebla
pueblo
puerto
puff
puger
puh
puing
puisi
puisine
puisinipun
puja
pujangga
puji
pujian
pujon
pukul
pukulan
pukulun
pula
pulang
pulau
pule
pulih
pulisi
pulitik
pulitike
pulitikus
pulitisi
pulitzer
pulo
pulokulon
pulosari
pulp
pulsa
pulse
puluh
puluhan
pulut
puma
pun
punah
punakawan
punan
punapa
punca
puncak
puncake
punch
pundhak
pundhi
pundi
punggawa
punggelan
punggung
pungkas
pungkasan
pungkasane
pungkasaning
pungkasanipun
punika
puniki
puniku
punjab
punjabi
punjer
punjere
punjering
punjul
punk
punse
punta
puntadewa
punung
punya
pupil
puppis
pupu
pupuan
pupuh
pupuk
pupus
puput
pura
purana
purba
purbakala
purbalingga
purbaya
purbo
pure
puree
puri
puring
purn
purna
purnama
purnomo
purple
purpose
puru
purun
purusa
purusane
purut
purwa
purwaasri
purwadadi
purwadi
purwakaning
purwakanthi
purwakarta
purwakerta
purwane
purwaning
purwanipun
purwantara
purwareja
purwasari
purwodadi
purwokerto
purworejo
purwosari
puryono
pus
pusaka
pusat
pusate
pusatipun
puser
push
pushkin
puskesmas
puspa
puspita
pusri
pustaka
put
putar
putaran
puter
putera
puteran
puteri
puthu
puti
putih
putik
putin
puto
putra
putrakusumo
putrane
putraning
putranipun
putri
putrine
putrinipun
putu
putune
putus
putusan
puyuh
pw
pwa
pwi
px
pyaar
pyongyang
pyramid
python
pywikipedia
q
qa
qadar
qaddafi
qaeda
qajar
qala
qalu
qantas
qasim
qassam
qatar
qi
qian
qin
qing
qingdao
qinghai
qiyamat
qs
qu
qua
quality
quang
quantum
quark
quarter
quarterly
que
quebec
queen
queens
queensland
quentin
queries
query
ques
queso
quest
question
questions
quezon
qui
quick
quincy
quinn
quito
qul
quo
qur
quraish
quran
qwerty
r
ra
rab
rabat
rabbah
rabbi
rabbinic
rabbishimon
rabbit
rabi
rabiul
rabu
rabuk
racake
racana
race
racer
rachel
rachman
rachmat
racing
racun
rad
rada
radang
radar
radcliffe
rade
raden
radha
radhang
radhiasi
radhio
radhioaktif
radi
radiasi
radikal
radio
radioaktif
raditya
radius
radja
radom
radya
rae
raf
rafael
raffi
raffles
rafflesia
raga
ragad
ragajampi
ragam
ragawan
raghu
ragi
ragil
ragu
ragunan
rah
rahaden
rahadi
rahang
rahardjo
raharja
raharjo
rahasia
rahayu
rahe
rahib
rahim
rahipun
rahma
rahmad
rahman
rahmat
rahmate
rahul
rahwana
rai
raid
raider
raih
raijua
rail
railroad
railway
rain
rainbow
raine
rainforest
rais
raisa
raj
raja
rajab
rajabasa
rajah
rajakaya
rajane
rajang
rajangan
rajapati
rajasa
rajasthan
rajawali
rajawangsa
rajin
rak
raka
rakai
rakangat
rake
raken
raket
rakete
rakit
rakitan
rakryan
raksa
raksasa
raksesa
rakun
rakuten
rakwa
rakyat
rakyate
ral
raleigh
ralf
ralph
ram
rama
ramadan
ramadhan
ramadhani
ramah
ramai
ramaka
ramalan
raman
ramane
ramanipun
ramawijaya
ramayana
rambah
rambak
rambat
rambut
rambutan
rambute
rame
ramelan
ramen
ramesses
rami
raminem
ramires
ramlan
ramo
ramon
ramos
rampai
rampan
rampe
ramping
rampung
rampunge
ramsay
ramuan
ramya
ramzym
ran
rana
ranah
rancage
rancang
rancangan
randa
randai
randha
randhu
randhudhongkal
random
randublatung
randy
rane
rang
rangake
rangan
rangane
ranganing
range
ranger
rangers
rangga
ranggajati
ranggawarsita
rangka
rangkah
rangkaian
rangkap
rangkasbitung
rangke
rangkep
rangking
rangsang
rangsangan
rani
ranjang
ranjau
ranking
rano
rantai
rantaman
rantau
rante
ranting
ranu
rao
raos
raosipun
raoul
rap
rapa
rapat
rapet
raphael
rapi
rapid
rapids
rappang
rapper
rapuh
rara
raras
rard
rare
ras
rasa
rasane
rasaning
rasanya
rase
raseksa
rashi
rasi
rasio
rasional
rasisme
rasmi
rasoel
raspberry
rasukan
rasul
rasule
rasulullah
rasyid
rat
rata
ratan
ratapan
rate
ratha
rather
rathu
ratifikasi
ratih
rating
ratio
ration
ratna
ratoe
ratu
ratulangi
ratune
ratuning
rau
raven
ravenna
ravi
raw
rawa
rawakele
rawan
rawas
rawasari
rawaseneng
rawat
rawi
rawit
rawoeh
rawuh
rawuhipun
ray
raya
rayap
rayi
rayinipun
raymond
rayon
razak
razi
rb
rbe
rbi
rbivor
rc
rcti
rd
rdenas
rdoba
rdu
re
rea
reach
read
reader
readers
reading
reads
ready
reagan
reaksi
reaktif
reaktor
real
realisme
realita
realitas
reality
really
realme
rear
reason
rebab
reban
rebana
rebecca
rebel
rebo
rebus
rebusan
rebut
rebutan
reca
receive
received
recent
recentchanges
recently
recife
recipe
recipes
recognition
recommended
reconstruction
reconstructionist
record
recording
records
recurrent
red
redaksi
redaktur
redhaksi
redhaktur
redi
redirect
reece
reed
reef
reer
reeves
ref
refere
reference
references
referendum
referensi
reflections
refleks
refleksi
reform
reformasi
refrensi
rega
regane
regarding
reged
regedan
regency
regesta
reget
reggae
reggiano
reggio
regi
regina
reginald
reginipun
regio
region
regional
regione
regions
register
registrasi
registration
regu
regular
regulasi
reguler
reh
rehabilitasi
rei
reich
reid
reilly
reims
reiner
reinforcement
reinkarnasi
reja
rejang
rejasari
rejeki
rejo
rek
reka
rekaman
rekan
rekasa
rekayasa
rekomendasi
rekonstruksi
rekor
rekreasi
rektor
rektum
rel
related
relatif
relations
relativitas
relay
release
released
relevan
reliable
relief
religi
religion
religions
religious
religius
relung
rem
remaco
remah
remains
remaja
remake
rematik
rembag
rembang
rembug
rembugan
rembulan
remember
remen
remi
remix
remo
remote
remove
removed
rempah
remuk
remukan
remy
ren
rena
renai
renaisans
renaissance
renang
renato
renault
rencana
rencanane
rencang
rendah
rendang
rendheng
rendra
rendy
rene
rengganis
rengipun
renner
rennes
rennet
reno
renovasi
rentan
rentang
renungan
renyah
reog
replace
replaced
replay
replika
reply
report
reporter
reports
repository
representation
reprint
reprinted
reprodhuksi
reproduksi
reptil
reptile
reptilia
republic
republican
republik
republika
reputasi
request
requests
requiem
required
requirements
rer
rerangke
rerata
rere
rerembugan
rerenggan
reresik
reronce
reruntuhan
res
rescue
rese
research
resensi
resep
resepsi
reseptor
reserve
resi
residence
residhe
residu
resik
resiki
resiko
resimen
resin
resistance
resistive
resmi
resmine
resolusi
resolution
resor
resort
resource
resources
respati
respect
respirasi
respon
response
rest
restaurant
restoran
restorasi
restu
result
results
resusitasi
retak
reticulata
retikulum
retina
retna
retno
retribusi
retrieved
return
returns
reunion
reuters
rev
revenge
review
reviews
revised
revisi
revision
revitalisasi
revo
revolusi
revolusioner
revolution
revolutionary
revue
rex
rey
reyes
reykjavi
reynolds
rez
reza
rezim
rezky
rfi
rg
rga
rgb
rgen
rgi
rhapsody
rhein
rheinland
rhine
rhino
rhinoceros
rho
rhode
rhodes
rhoma
rhythm
ri
ria
riaa
rial
riam
riana
rias
riau
ribe
ribeiro
ribosom
ribut
ric
rica
ricardo
rice
rich
richard
richards
richardson
richie
richmond
richter
ricikan
rick
ricklefs
ricky
rico
ricotta
rida
ride
rider
ridge
ridha
ridho
ridwan
rie
rieke
riemann
rieure
rifa
riga
right
rights
rihanna
rika
rikah
rikala
rikat
rikma
riko
ril
riley
rilis
rim
rima
rimba
rime
rimpang
rin
rina
rinci
rincian
rindu
rine
ring
ringan
ringen
ringgit
ringin
ringinarum
ringkasan
ringkes
ringkesan
ringkih
rings
ringtone
rini
rinjani
rintisan
rio
riode
riodhe
riodik
rip
ripta
ripun
riri
ris
risak
risalah
rise
riset
risiko
rising
risk
riskin
rita
rite
ritel
ritori
ritter
ritual
ritus
rivai
river
rivera
rivers
riwayat
riya
riyadh
riyadi
riyaya
riza
rizal
rizki
rizky
rj
rja
rk
rkc
rko
rlitz
rll
rlu
rm
rma
rman
rme
rms
rn
rna
rne
ro
road
roadshow
roald
rob
robayan
robbie
robbins
robby
robert
roberto
roberts
robertson
robin
robinson
robo
robocon
robot
robotics
robson
robusta
roc
rocca
rochdale
roche
rochefort
rochester
rock
rockefeller
rocket
rockets
rocks
rocky
rod
roda
rode
rodha
rodin
rodok
rodri
rodrigo
rodrigues
rodriguez
roe
roem
roger
rogers
roh
rohani
rohaniawan
rohaniwan
rohe
rohingya
roi
roid
rojas
rok
rokan
roke
roket
rokok
rol
roland
rolas
role
roll
roller
rolling
rolls
rom
roma
romagna
romain
romaine
roman
romana
romance
romanesque
romania
romanian
romano
romanorum
romansh
romantic
romantik
romantis
romawi
rombongan
rome
romeo
romero
romo
rompi
romsdal
ron
ronald
ronaldo
ronan
ronce
ronde
rondha
rondo
rong
rongga
rongge
ronggeng
rongpuluh
ronipun
ronnie
ronny
rontal
rontok
rookie
room
rooney
roorda
roosevelt
root
roots
ropa
ropah
roque
roris
roro
ros
rosa
rosales
rosan
rosario
rose
rosemary
roses
rosh
rosi
rosidi
roso
ross
rossa
rossi
rosso
rotan
rotary
rotasi
rotation
rote
roth
roti
rotine
rotisserie
rotten
rotterdam
rouen
rouge
rough
round
rousseau
route
router
routledge
roux
rovers
row
rowling
roxb
roy
royal
royale
royani
royce
royo
royong
rp
rpm
rquez
rr
rrc
rrez
rri
rrt
rs
rsi
rsial
rsitas
rsssf
rsu
rsud
rt
rta
rte
rtha
rti
rtikal
rto
rttemberg
ru
ruam
ruang
ruangan
ruas
rubah
rube
ruben
rubens
rubrik
rubuh
ruby
ruci
rudal
rudi
rudolf
rudolph
rudy
rue
ruf
rugbi
rugby
rugi
ruh
ruins
ruiz
rujak
rujuk
rujukan
rukun
rule
rules
rum
ruma
rumah
rumaja
rumaket
ruman
rumangsa
rumania
rumaos
rumasa
rume
rumeksa
rumeni
rumi
rumit
rumiyin
rumiyinipun
rumpun
rumput
rumus
rumusan
run
runcing
rune
rung
runner
runners
running
runs
runtuh
runtut
runway
rupa
rupane
rupee
rupert
rupi
rupiah
rupsi
ruqyah
rural
rus
rusa
rusady
rusak
rusake
rusaking
rusale
rusalem
rush
rusia
ruslan
rusli
russell
russia
russian
russo
rusuh
rusuk
rusyn
rut
rute
ruteng
ruth
rutherford
rutin
ruu
ruwah
ruwang
ruwangan
ruwatan
ruwet
rvasi
rviks
rw
rwa
rwanda
rx
ry
rya
ryan
rye
rynek
ryo
ryu
ryukyu
rz
rze
rzeszo
s
sa
saan
saat
saba
sabab
sabage
sabagean
sabah
sabak
saban
sabana
sabang
sabanjure
sabar
sabarang
sabat
sabda
sabdanipun
sabdapalon
sabdo
sabe
saben
sabenere
sabha
sabibaripun
sabin
sabine
sabisa
sabit
sable
sabrang
sabrina
sabtu
sabu
sabubare
sabuk
sabun
saburine
sacara
sacedhake
sacelakipun
sacha
sachabat
sachabate
sachiko
sachsen
sacks
sacred
sacukupe
sad
sada
sadangu
sadanguning
sadangunipun
sadar
sadat
sadawane
sadawaning
sadaya
sadayanipun
saddam
sade
saderengipun
sadewa
sadhar
sadhe
sadhengah
sadhuwure
sadhuwuring
sadikin
sadina
sadinten
sadjroning
sadoeloer
sadonya
sadulur
sadulure
sadurung
sadurunge
sae
saemper
saengga
saenggon
saestu
safari
safed
safety
safron
saga
sagah
sagante
saganten
sagara
sage
saged
sageda
saget
sagita
sagitta
sago
sagolongan
sagu
saguh
sagung
sah
saha
sahabat
sahadat
sahal
saham
sahame
sahana
sahara
sahe
sahid
sahih
sahur
sai
said
saiful
saigon
saiki
saikine
sailor
sain
saindenge
saindenging
saindhenge
saindhenging
sainer
saing
saingan
saingane
saingga
sains
saint
sainte
saints
sairib
sairing
saisine
saitama
saja
sajabane
sajabaning
sajadah
sajagad
sajajar
sajak
sajake
sajakipun
sajarah
sajarahe
sajarawan
sajati
sajatine
sajatos
sajatosipun
saje
sajen
sajenis
sajerone
sajeroning
saji
sajian
sajinis
sajinising
sajrone
sajroning
sajumlah
sak
saka
sakabat
sakabe
sakabehane
sakabehe
sakabehing
sakai
sakala
sakalangkung
sakanan
sakanca
sakancanipun
sakathahing
sakawan
sakawit
sakbanjure
sakbare
sakbenere
sakbotenipun
sakdawane
sakde
sakderenge
sakdhuwure
sakdurunge
sake
sakedhik
sakehing
sakidul
sakidule
sakiduling
saking
sakit
sakitar
sakitaripun
sakitere
sakitering
sakiteripun
sakiwa
sakiwatengene
sakjane
sakjerone
sakjeroning
sakke
saklangkung
saklar
sakliyane
saklompok
sakloron
saklorone
sakmenika
sakngisore
sakniki
sakpada
sakpe
sakral
saks
saksampune
saksampunipun
saksi
saksofon
saksuwene
sakteruse
sakti
saku
sakubenge
sakulawarga
sakulone
sakumpulan
sakupenge
sakupengipun
sakura
sakuthu
sakwat
sakwe
sakweh
sakwijine
sakwise
sal
sala
salaam
salad
salah
salahe
salahsijine
salahuddin
salaje
salajengipun
salak
salaka
salam
salaman
salamander
salami
salaminipun
salanjute
salar
salaras
salat
salatiga
salawas
salawase
salazar
sale
salebeting
salebetipun
saleh
salem
salemba
salep
saleresipun
salerno
sales
salh
salib
salihara
salim
salin
salinan
saline
saling
salira
salisbury
salisilat
saliyane
salju
sally
salma
salman
salmon
saloka
salomo
salon
salore
saloring
salsa
salt
salto
saluran
salut
salute
salvador
salvatore
salya
salzburg
sam
sama
samak
saman
samana
samangke
samangsa
samante
samanten
samantha
samar
samaran
samarang
samaratungga
samaria
samarinda
samasa
samba
sambal
sambar
sambas
sambat
sambe
sambel
sambeng
sambi
sambireja
sambong
sambu
sambung
sambungan
samburine
sambutan
same
sameach
samekta
samengko
samenika
samesthine
sami
samigaluh
samin
saminggu
sammy
samoa
samodra
samoebarang
samono
samosa
samosir
sampah
sampai
sampang
sampanye
samparan
sampdoria
sampe
sampek
sampel
sampeyan
samping
sampingan
sampit
sample
sampling
sampo
sampoen
sampoerna
sampul
sampun
sampung
sampur
sampurna
samsaya
samson
samsons
samsung
samu
samubarang
samudera
samudra
samuel
samukawis
samun
samurai
samya
san
sana
sanabudaya
sanad
sanadyan
sanajan
sanak
sanalika
sanankulon
sancaka
sanctuary
sand
sandal
sandang
sandangan
sande
sanders
sandhal
sandhang
sandhangan
sandhi
sandhinge
sandhiwara
sandhuwure
sandhuwuring
sandi
sandika
sandiwara
sandra
sandwich
sandy
sane
sanepa
sanes
sanesipun
sang
sanga
sangajengipun
sangalas
sangandhaping
sangandhapipun
sangang
sangarepe
sangat
sangay
sange
sanget
sangga
sanggar
sanggau
sanggul
sanggup
sanghyang
sangihe
sanginggiling
sanginggilipun
sangiran
sangisore
sangisoring
sangka
sangkakala
sangkan
sangkapura
sangkar
sangke
sangking
sangro
sangsara
sangsaya
sangsekerta
sangskerta
sangskreta
sangu
sanhedrin
sani
sanin
sanipun
sanitasi
sanja
sanjabane
sanjata
sanjaya
sanko
sanksi
sankt
sannita
sans
sansaya
sansekerta
sansekreta
sanskerta
sanskrit
sant
santa
santai
santan
santana
santander
santanu
sante
santen
santi
santiago
santo
santos
santosa
santoso
santri
santun
sanusi
sanyo
sanzio
sao
saora
saorane
saos
sap
sapa
sapadha
sapala
sapanunggalane
sapanunggalanipun
sapanunggale
sapanunggalipun
sapardi
saparo
saparua
sapasang
sape
saperangan
saperlu
saphira
sapi
sapiens
sapinggiring
sapira
sapisan
sapisanan
sapiturute
saponin
sapporo
saprapat
sapre
saprene
sapropirane
sapta
sapu
sapuluh
sapungkure
sapunika
sapuniki
sapuran
saputra
sar
sara
saradhadhu
saraf
sarah
sarajevo
sarak
sarampunge
saran
sarana
sarang
sarangan
sarapan
saraswati
sarat
sarawak
sardi
sardinia
sare
sarekat
sarem
sareng
saresmi
sargon
sari
sariawan
saridin
sarikat
sarinah
saring
saringan
sarira
sarirane
sariranipun
sarjana
sarmi
sarolangun
saron
saronggi
sarpakenaka
sarta
sartre
saru
sarujuk
sarung
sarupa
sarupane
sarupaning
sarwa
sarwi
sarwono
sas
sasak
sasampuning
sasampunipun
sasana
sasane
sasanesipun
sasaran
sase
sasebo
sasha
sashihara
sashimi
sasi
sasis
saskatoon
sasmita
sastra
sastradipura
sastrane
sastrawan
sastrawati
sastrowardoyo
sasuke
sasuwe
sasuwene
sat
sata
satama
satanah
sataun
sate
satekane
satelit
satellite
satemah
satemene
satengah
satengahe
satengahing
sateruse
sathithik
satingkat
satir
sativa
sato
satria
satriya
satru
satsuki
satu
satuan
satungaling
satunggal
satunggaling
satunggalipun
satunggil
satunggiling
satunggilipun
satunya
saturday
saturn
saturnus
satus
satwa
satya
satyalancana
satyawati
saubenge
saubenging
saubengipun
sauber
sauce
saud
saudagar
saudara
saudi
sauerkraut
saul
saulus
saumur
saung
sauntara
sauntawis
saupama
saupami
saur
saus
saut
sava
savage
savannah
save
saving
savoy
saw
sawah
sawahan
sawahlunto
sawal
sawalike
sawan
sawang
sawangan
sawatara
sawatawis
sawayah
sawe
saweg
sawelas
sawene
sawengi
sawentara
sawer
sawetara
sawetawis
sawi
sawiji
sawijine
sawijineng
sawijing
sawijining
sawingkingipun
sawise
sawit
sawjining
sawo
sawoese
sawu
sawunggalih
sawuse
saxon
saxony
say
saya
sayah
sayang
sayangipun
sayap
saye
sayekti
sayektos
sayembara
sayid
says
sayuk
sayung
sayur
sayuran
sayuta
sayyid
sbs
sby
sc
scale
scalemajor
scaleminor
scallion
scan
scanner
scarlett
scbd
sce
scene
schalke
schedule
schiller
schindler
schleswig
schloss
schlumbergera
schmeichel
schmidt
schneider
scho
schocken
scholes
school
schools
schott
schum
schumacher
schuster
schwartz
sci
science
sciences
scientific
scientist
scientists
score
scorer
scoring
scorpius
scotch
scotia
scotland
scott
scottish
scout
scream
screen
screenplay
screenshot
scribd
script
scripts
scripture
scrolls
scrooge
sctv
scudetto
sculptor
scutum
sd
sdit
sdk
sdm
sdn
sds
sdt
se
sea
seafood
seal
sean
search
searchable
season
seasons
seattle
sebab
sebabe
sebagai
sebagaimana
sebage
sebagean
sebagian
sebangau
sebanjure
sebaran
sebastia
sebastian
sebat
sebatan
sebelah
sebelas
sebelum
sebelumnya
sebenere
seberang
sebesar
seblak
seblang
sebrang
sebuah
sebut
sebutan
sec
secang
secara
sechan
secolo
second
secondary
secret
secretary
secrets
section
sections
security
seda
sedan
sedane
sedang
sedangkan
sedangunipun
sedanipun
sedanten
sedasa
sedaya
sedayanipun
sedayu
sede
sedekah
sedeng
sederhana
sedhe
sedhela
sedheng
sedhengan
sedhep
sedherek
sedherekipun
sedhih
sedi
sedih
sedikit
sedimen
sedina
sedna
sedo
sedulur
seduluran
sedulure
sedulurku
sedulurmu
sedunia
sedurunge
sedya
see
seed
seekor
seen
sefer
sega
segala
segalanya
seganten
segar
segara
segawon
segel
seger
segera
segi
segitelu
segitiga
segmen
sego
segovia
segunda
sehat
sehingga
sei
seibu
seimbang
seine
seishun
seiya
seiyu
sejahtera
sejajar
sejak
sejarah
sejarahe
sejarawan
sejati
sejatine
sejatosipun
seje
sejenis
sejinis
sejong
sejumlah
sejuta
sek
seka
sekabe
sekabehane
sekabehing
sekak
sekali
sekaligus
sekang
sekar
sekaran
sekarang
sekat
sekate
sekawan
sekedhap
sekedhik
sekelompok
seki
sekien
sekilas
sekitar
sekitare
sekitarnya
sekjen
seko
sekolah
sekolahan
sekolahe
sekolahipun
sekor
sekotlan
sekresi
sekretari
sekretariat
sekretaris
sekrup
seks
seksi
seksual
seksualitas
sekte
sekti
sektor
sekuel
sekuens
sekul
sekuler
sekunder
sekundhe
sekuthu
sekutu
sel
sela
selada
selai
selain
selaku
selalu
selam
selama
selamanya
selamat
selamerta
selan
selandia
selane
selang
selangor
selanjutnya
selaput
selaras
selarong
selasa
selat
selatan
selawase
selayang
selayar
sele
seleb
selebriti
selebritis
select
selected
selection
seledri
seleksi
selektif
selemadeg
selena
selendang
selera
selesai
self
seling
selingkuh
selir
selling
selo
selor
selot
seluas
selular
seluler
selulosa
seluma
seluruh
sem
semahipun
semak
semakin
semana
semangat
semanggi
semangka
semanten
semaput
semar
semarang
semaur
sembada
sembah
sembahyang
sembarang
sembarangan
sembayang
sembelit
sembilan
semboja
semboyan
sembrana
sembrani
sembung
semburan
seme
semen
semenanjung
sementara
semeru
semesta
semester
semi
semifinal
semifinalis
semikonduktor
seminar
seminari
seminary
seminggu
semolina
semono
sempat
sempet
sempit
semplak
sempoa
sempor
semprotan
sempu
sempurna
semu
semua
semunggone
semur
semusim
semut
sen
sena
senadyan
senajan
senajana
senam
senandung
senang
senapan
senapati
senar
senat
senate
senator
senayan
senbatsu
senbei
send
sendai
sendang
sendhang
sendhi
sendhok
sendi
sendiri
sendok
sendratari
sene
senegal
senen
seneng
senengane
senenge
seng
sengaja
senggol
sengit
sengkalan
sengketa
sengkuni
sengoku
sengon
sengsara
senhora
seni
seniman
senin
senior
seniore
senja
senjata
senna
seno
senopati
sensasi
sense
senshi
sensitif
sensitivitas
sensor
sensus
sent
sentai
sentana
sentani
sentanu
senthong
sentimeter
sentosa
sentra
sentral
sentuhan
senyawa
senyum
seo
seok
seon
seong
seorang
seoul
sep
sepak
sepakat
sepakbola
sepalih
sepanjang
sepanyol
separate
separatis
separo
separone
separuh
sepasang
sepat
sepatu
sepe
sepeda
seperti
sepet
sephardic
sepi
sepindhah
sepindhahan
sepira
sepisan
sepisanan
sepisane
seplawan
sepotong
seprapat
sepre
seprene
sept
september
septuaginta
sepuh
sepuhipun
sepulu
sepuluh
sepupu
sepur
seputar
sequence
ser
sera
serabut
seragam
serai
serak
seram
serama
serambi
serang
serangan
serangga
serangkaian
serapan
serat
seratan
seratanipun
serate
seratus
serawai
serayu
serba
serbaguna
serbi
serbia
serbian
serbiya
serbs
serbu
serbuk
serdang
sere
sereal
serealia
serena
sergeant
sergey
sergio
seri
serial
seribu
serie
series
serif
serigala
serikat
sering
seririt
serius
serpens
serpihan
serpong
serra
sersan
serta
sertifikasi
sertifikat
seru
serum
serupa
seruyan
serve
served
server
service
services
ses
sesaje
sesajen
sesaji
sesambetan
sesambetanipun
sesambungan
sesambungane
sesami
sesampunipun
sesanti
sesarengan
sesasi
sesat
sesawangan
sesebatan
sesebutan
sesek
seselan
sesembahan
sesepuh
seserepan
sesi
sesilia
sesinglon
sesirah
sesirahe
sesorah
sesrawungan
session
sessions
sesuai
sesuatu
sesuguh
sesukan
sesuketan
sesulih
set
seta
setahun
setaman
setan
setara
setasiyun
setatsiyun
setaun
sete
setelah
setelan
setempat
setengah
seteruse
seth
sethithik
sethitik
setia
setiap
setiawan
setingkat
setitik
setlist
seto
setrapan
setrapane
setting
setu
setuju
setunggal
setunggaling
setunggalipun
setya
setyaki
setyo
seung
sev
seven
seventh
several
sevilla
seville
sewa
sewalike
sewelas
sewengi
sewu
sewulan
sex
sexual
sexy
seychelles
seymour
sf
sfondo
sg
sh
sha
shabbat
shabu
shadow
shah
shahab
shahih
shahrukh
shakespeare
shalat
shalom
shama
shan
shandong
shandy
shane
shang
shanghai
shania
shannon
shanti
shanty
shape
shaped
sharapova
share
shared
shark
sharma
sharon
sharp
shaun
shaw
shawn
shay
she
shea
shearer
sheep
sheer
sheet
sheffield
sheikh
sheila
shek
sheldon
shell
shen
shenyang
shenzhen
sherina
sherlock
sherman
sherry
shi
shia
shibuya
shield
shift
shiga
shihab
shiitake
shikoku
shim
shima
shimane
shimbun
shimizu
shin
shindula
shingen
shinichi
shinjuku
shinkansen
shino
shinshiro
shinta
shinto
shio
ship
shipyards
shirakawa
shireen
shiso
shiur
shizuoka
shlomo
shmuel
sho
shock
shockwave
shoe
shogun
sholat
shop
shopaholic
shopping
shore
short
shot
should
show
showbiz
showcase
showing
shown
shows
shrewsbury
shrimp
shrine
shtml
shu
shushu
shuttle
shvoong
si
sia
siaga
siak
sial
siam
siamang
sian
siang
siantar
siap
siapa
siaran
siasat
siasi
sibayak
sibe
siberia
siberut
sibolga
sibuk
sic
sica
sichuan
sid
sida
sidaarja
sidaharja
sidamukti
sidamulya
sidang
sidareja
sidayu
siddha
siddham
siddhartha
side
sidempuan
sidenreng
sidhang
sidharta
sidhe
sidik
sidji
sidney
sidoarjo
sidomukti
sidomulyo
sidorejo
sie
siege
siegel
siemens
siena
sierra
sies
sif
sifat
sifate
sifik
sig
sigaluh
sigar
sigaran
sigeg
sigi
sigit
sigma
sigmund
sign
signal
signature
significance
signifikan
signpost
signs
sigra
sih
sihe
sihir
siji
sijia
sijine
sijining
sijunjung
sik
sikap
sikara
sikat
sikep
sikh
siki
sikil
sikile
sikir
sikka
siklon
siklus
siko
siksa
siku
sikut
sil
sila
silakan
silang
silas
silat
silem
silence
silent
silesia
silia
silih
silihan
silikat
silikon
silinder
silindris
siliwangi
silk
silla
silo
silsilah
siluman
silva
silver
silvia
silvio
sim
sima
simal
simalungun
simanjuntak
simatupang
simbad
simbah
simbahe
simbiosis
simbol
simbolik
simbolis
simbolisme
simbul
sime
simeon
simetris
simeulue
simfoni
similar
simmons
simo
simon
simone
simpang
simpanse
simpati
simpen
simpenan
simple
simplified
simpson
simpul
simulasi
sin
sina
sinabung
sinaga
sinaguk
sinai
sinamat
sinambi
sinambung
sinambungan
sinaosa
sinar
sinartan
sinau
since
sinclair
sindang
sindara
sindhe
sindikat
sindok
sindoro
sindrom
sine
sinebat
sinebut
sinema
sinemart
sinematografi
sinensis
sinerat
sinetron
sing
singa
singah
singapore
singapura
singaraja
singasari
singel
singer
singgalang
singgasana
singgih
singh
singhasari
singi
singing
singkarak
singkat
singkatan
singkawang
singkil
singkong
single
singles
singorojo
singosari
singular
sinhala
sini
sinjai
sinkronisasi
sino
sinode
sinom
sinonim
sinopsis
sint
sinta
sintaksis
sintang
sinte
sinten
sintena
sinterklas
sintesis
sintetik
sintetis
sintren
sinuhun
sinus
sinuwun
sinyal
sio
sion
sional
sioux
sipat
sipate
sipating
sipatipun
sipil
siprus
sipun
siput
sir
sira
sirah
sirahe
sirahipun
siram
siraman
sirampog
sire
siregar
sirep
siri
siria
sirih
sirilik
sirip
sirius
sirkuit
sirkulasi
sirna
siro
sirsat
sirup
sirusa
sis
sisa
sisah
sisan
sisane
sisi
sisifos
sisih
sisihan
sisihane
sisihe
sisihipun
sisik
sisilia
sisipan
sisir
sissy
siste
sistem
sistematis
sister
sisters
sistim
sistiserkosis
siswa
siswane
siswi
sit
sita
site
siter
sites
sithik
siti
sitik
sitiran
sitkom
sitok
sitoplasma
sitrat
situ
situasi
situation
situbanda
situbondo
situmorang
situs
siu
siung
sive
siwa
siwah
siwalan
six
sixtus
siya
siyaga
siyam
siyang
siyap
siyos
siyung
size
sizilien
sj
sjahrir
sk
ska
skala
skandal
skandinavia
ske
skema
skenario
sketch
sketsa
ski
skie
skill
skin
skins
skopje
skor
skotlandia
skrip
skripsi
sku
skuad
skuat
skull
sky
skyteam
sl
slaf
slafe
slagahima
slam
slamet
slametan
slamete
slan
slank
slasa
slave
slavery
slavia
slavik
slawas
slawase
slawi
sle
sleeping
sleman
slendro
slenthem
slide
slira
sliramu
sliyeg
slobodan
slogan
slot
slovenia
slow
slowak
slowakia
slowe
slta
sltp
sluke
slumdog
sm
sma
smackdown
small
sman
smara
smart
smi
smile
smilodon
smith
smithsonian
smk
smp
smpk
smpn
sms
smu
smurf
sn
sna
snake
snakes
snan
snane
snani
sncf
sniper
snouck
snow
snowdon
snsd
so
soal
soale
soapaja
soares
soba
soc
soca
soccer
soccerway
sochi
social
socialist
socie
sociedad
society
sociology
soda
sodium
sodom
soe
soebadio
soedirman
soegija
soegijapranata
soeharto
soekarno
soekarnoputra
soekarnoputri
soeltan
soenan
soepaja
soepaya
soeradipoera
soerakarta
soeryo
soes
soesilo
soetji
soetomo
soetrisno
soewe
sofia
soft
software
sofyan
sogok
soju
sok
soka
sokan
sokaraja
soklat
soko
sokobanah
sol
solah
solahe
solanaceae
solanum
solar
soldat
soldier
soldiers
sole
soleh
solid
solidaritas
solidarity
solo
solok
solomon
solor
solusi
solution
som
soma
somali
somalia
somaliland
sombong
some
someone
somerset
something
sometimes
son
sonansi
sonata
soncino
song
songket
songo
songs
sonia
sonic
sonora
sons
sonten
sony
sonya
soo
soon
sop
sopan
sophia
sophie
sopir
soppeng
sor
sora
soraya
sorbonne
sore
sorghum
sori
sorong
sorotan
sorry
sos
sosial
sosialis
sosialisasi
sosialisme
sosiawan
sosiolinguistik
sosiologi
sosis
sosok
soto
sotomayor
sou
soul
sound
soundtrack
soup
sour
source
sources
sous
south
southampton
southeast
southern
southgate
southwest
souvenir
souza
soviet
sovye
sovyet
sowan
sp
spa
space
spacefacts
spage
spaghetti
spain
spam
spanish
spanyol
sparkle
sparql
sparrow
sparta
spasi
spe
speak
speaker
speaking
spears
special
species
specific
specification
speech
speed
speedy
spektrum
spekulasi
spencer
sperma
spesial
spesialis
spesialisasi
spesie
spesies
spesifik
spesifikasi
spesimen
sphyraena
spice
spider
spielberg
spies
spike
spin
spinach
spiral
spirit
spiritual
spirulina
split
spon
spondhe
sponge
spongebob
spons
sponsor
spontan
spora
sport
sporting
sports
spot
spotted
spp
spring
springer
springfield
springs
sprint
sprouts
spurs
spy
spyware
sq
sqrt
squad
square
squarepants
squash
squidward
sr
srabi
sragam
srage
sragen
sragi
srana
srawung
sre
srebrenica
sreg
sregep
srengat
srenge
srengenge
srenggala
sri
srikandhi
srikandi
srikaya
srimpi
srimulat
sriwedari
sriwidjaja
sriwijaya
srpska
srumbung
sruweng
ss
ssc
sseldorf
ssp
st
sta
staatsblad
stabil
stabilitas
stade
stadhion
stadion
stadium
staf
staff
stage
stai
stain
stalin
stalingrad
stalk
stamford
stan
stand
standar
standard
standardisasi
standards
standby
stanford
stanisław
stanley
stanza
star
stark
starr
stars
starscream
start
started
starter
starting
starvision
stasi
stasiun
stasiyun
state
statement
statements
states
station
statis
statistical
statistics
statistik
statistika
stats
statue
status
statuse
statusipun
staufischen
stay
ste
steak
steam
steel
stefan
stefano
stein
stella
stem
step
stephan
stephanie
stephanus
stephen
steps
ster
sterling
stern
steroid
sterol
steve
steven
stevens
stevenson
stevie
stew
stewart
sthi
sti
stick
stie
stigasi
stik
stikes
still
stimulasi
stina
stinky
stival
stkip
stlan
stm
stmik
sto
stochowa
stock
stockholm
stok
stoke
stone
stones
stop
stor
storage
storan
storasi
store
storia
stories
storm
story
stovia
stra
strada
straight
strand
strange
strasbourg
strata
strategi
strategis
strategy
strauss
strawberry
stre
stream
streaming
street
strength
streptokokus
stres
stress
stretford
stri
strike
striker
string
strip
stroberi
stroke
strong
structure
structured
struggle
struktur
struktural
strukture
sts
stsi
stu
stuart
stub
student
students
studhi
studhio
studi
studies
studio
studios
study
stuff
stupa
stuttgart
style
styles
su
sua
suaka
suami
suara
suaramerdeka
suarane
suasana
suatu
sub
subah
subali
subang
subclass
subfamili
subje
subject
subjek
subkarpathia
subkelas
submarine
submit
subordo
subotica
subroto
subscribe
subsp
subspe
subspesies
substansi
substitusi
substrat
subtipe
subtropis
subuh
subunit
subur
subway
subye
subyek
such
suchet
suci
sucipto
sud
suda
sudagar
sudah
sudan
sudarso
sudarsono
sudhut
sudi
sudibyo
sudimara
sudirman
sudiro
sudra
sudut
sue
suez
suffragan
sufi
sufragan
sufyan
sugar
sugeng
suggested
suggestions
sugiarto
sugih
sugihwaras
sugiono
sugriwa
suguhan
suharto
suharyo
suhu
suhune
sui
suicide
suit
suite
sujana
sujarah
sujarahe
suji
sujud
suk
suka
sukabumi
sukadana
sukaharja
sukalila
sukamara
sukareja
sukarela
sukarelawan
sukarno
sukasada
sukasari
sukase
sukawana
sukawati
suke
sukesi
suket
suketan
sukha
sukhoi
suki
sukma
sukoharjo
sukorejo
sukra
sukrosa
sukse
sukses
suksesi
suksma
suku
sukuh
sukun
sukunipun
sukur
sul
sula
sulaiman
sulaman
sulang
sulap
sulastin
sulawesi
sule
sulfat
sulfida
sulfur
sulih
suling
sulit
sullivan
sultan
sulu
suluk
sulung
sulur
sum
suma
sumabita
sumac
sumadya
sumali
sumangga
sumantri
sumarah
sumare
sumatera
sumatra
sumaur
sumawana
sumba
sumbadra
sumbang
sumbangan
sumbar
sumbawa
sumber
sumberagung
sumberdaya
sumbere
sumbereja
sumberejo
sumbering
sumbermanjing
sumbersari
sumbing
sumbu
sume
sumebar
sumebare
sumedang
sumedhang
sumelang
sumenep
sumeramikoto
sumerep
sumeria
sumingkir
sumirang
summary
summer
summit
sumpah
sumpit
sumpyuh
sumrambah
sumsum
sumunar
sumur
sumurup
sumut
sun
sunan
sunar
sunat
sunda
sundance
sundari
sunday
sunderland
sundha
sunduk
sung
sungai
sungapan
sungging
sunggingan
sungguh
sungkar
sungsang
sungsum
sungsun
sungu
sungut
sunni
sunny
sunrise
sunset
sunshine
suntak
suntikan
sunting
suntingan
sunyaragi
sunyi
suona
sup
supados
supardi
suparto
supata
supaya
supe
super
supercoppa
supercup
superhero
superior
superliga
superman
supermarket
supernatural
supernova
superorder
superstar
supiori
supir
supitan
suplai
suplemen
suporter
support
supporting
suprapto
supreme
suprima
sur
sura
surabaya
surada
suradadi
surah
surak
surakarta
suralaya
suranenggala
suraosipun
surapati
surasa
surasane
surat
surau
sure
surem
surface
surfaktan
surga
surgery
suri
suriah
surimi
suriname
surosentiko
surprise
suru
surud
suruh
surup
surut
surve
survei
survey
survival
surya
suryadi
suryani
suryo
sus
susah
susan
susanti
susanto
susastra
suseno
sushi
susi
susila
susilo
suspensi
sussex
sustainable
suster
susu
susuh
susuhe
susuhunan
susuk
susukan
susun
susunan
susuruh
susut
sutan
sutanto
sutasoma
sutawijaya
sutera
suthang
sutherland
sutomo
sutra
sutradara
sutradhara
sutresna
sutrisno
sutyi
suvarnabhumi
suwakan
suwalike
suwanda
suwanten
suwara
suwardi
suwarga
suwargi
suwasana
suwe
suwene
suweng
suwi
suwita
suwiwi
suwun
suwung
suzanna
suzanne
suzuka
suzuki
suzy
sv
svalbard
svenska
svg
sw
swa
swadaya
swahili
swalayan
swami
swan
swansea
swanten
swantenipun
swantun
swapraja
swara
swarane
swaraning
swaranipun
swarga
swargi
swari
swasana
swasta
swatantra
swaziland
swe
sweat
sweden
swedhen
swedia
swedish
sweet
swift
swindon
swing
swis
swiss
switch
switserlan
switzerland
swiwi
swiwine
sword
swt
sy
sya
syafi
syafii
syah
syahadat
syahid
syahputra
syahrir
syaikh
syaile
syailendra
syair
syam
syamsuddin
syamsul
syaraf
syarat
syari
syariah
syarief
syarif
syawal
sydney
syeh
syeikh
syekh
syen
syiah
syiar
sylvia
symbian
symbol
symbols
symphony
symposium
syn
synagogue
syndrome
synonyms
syntax
syracuse
syria
syriza
syro
system
systems
syu
syuhada
syukur
syuting
syzygium
sz
szczecin
sze
szeged
t
ta
taal
tab
taba
tabalong
tabanan
tabe
tabel
tabi
table
tables
tablet
tabloid
tabloidnova
tabolisme
tabrakan
tabu
tabuh
tabuhan
tabuk
tabukan
tabung
tabungan
tabur
tac
taco
tadhah
tae
taecyeon
taek
taekwondo
taenia
tafsir
tafsiran
tag
tagalog
tagore
tah
tahan
tahanan
tahap
tahapan
tahiti
tahoen
tahta
tahtane
tahu
tahun
tahunan
tahune
tai
taiji
taiko
tail
tailed
taipei
taira
taisha
taisho
taiwan
taj
tajam
tajem
taji
tajik
tajikistan
tajuk
tak
taka
takahashi
takakura
takalar
takayama
takbir
takdir
take
takeda
taken
takeran
takerharjo
takes
takeshi
takhta
taki
taking
[...]
