!
"
#
##0
##1
##10
##11
##12
##13
##14
##15
##16
##17
##18
##19
##2
##20
##21
##22
##23
##24
##25
##26
##27
##28
##29
##3
##30
##31
##32
##33
##34
##35
##36
##37
##38
##39
##4
##40
##41
##42
##43
##44
##45
##46
##47
##48
##49
##5
##50
##51
##52
##53
##54
##55
##56
##57
##58
##59
##6
##60
##61
##62
##63
##64
##65
##66
##67
##68
##69
##7
##70
##71
##72
##73
##74
##75
##76
##77
##78
##79
##8
##80
##81
##82
##83
##84
##85
##86
##87
##88
##89
##9
##90
##91
##92
##93
##94
##95
##96
##97
##98
##99
$
%
&
'
(
)
*
+
,
-
.
/
0
00
000
001
002
005
007
008
01
010
013
017
02
020
020364459
0274
03
033
0362
04
0408
05
050
06
068
07
08
083
09
097
1
10
100
1000
1001
1002
1007
101
1016
102
1020
102025
1021
1024
103
1038
104
105
1050
106
107
108
1080
1086
109
1093
11
110
1100
111
1111
112
1126
113
114
11402
115
116
117
118
119
12
120
1200
121
122
123
124
1246
125
126
127
128
129
13
130
1300
131
132
133
134
135
136
1365
137
138
139
1392
14
140
1400
141
142
143
144
145
146
147
148
149
1492
15
150
1500
151
152
1521
1525
153
154
155
156
157
158
159
1592
1598
16
160
1600
1601
1603
161
1613
162
163
164
165
166
1667
167
1670
1677
168
1680
1682
169
17
170
1700
171
1717
1719
172
1720
173
1730
174
1740
1743
1745
1746
1749
175
1750
1751
1753
1755
1756
1757
1758
176
1763
1769
177
1770
1773
1774
1775
1778
178
1780
1783
1784
1785
1786
1787
1788
1789
179
1790
1791
1792
1793
1794
1795
1796
1797
1798
1799
18
180
1800
1801
1802
1803
1804
1805
1806
1807
1808
1809
181
1810
1811
1812
1813
1814
1815
1816
1817
1818
1819
182
1820
1821
1822
1823
1824
1825
1826
1827
1828
1829
183
1830
1831
1832
1833
1834
1835
1836
1837
1838
1839
184
1840
1841
1842
1843
1844
1845
1846
1847
1848
1849
185
1850
1851
1852
1853
1854
1855
1856
1857
1858
1859
186
1860
1861
1862
1863
1864
1865
1866
1867
1868
1869
187
1870
1871
1872
1873
1874
1875
1876
1877
1878
1879
188
1880
1881
1882
1883
1884
1885
1886
1887
1888
1889
189
1890
1891
1892
1893
1894
1895
1896
1897
1898
1899
19
190
1900
1901
1902
1903
1904
1905
1906
1907
1908
1909
191
1910
1911
1912
1913
1914
1915
1916
1917
1918
1919
192
1920
1921
1922
1923
1924
1925
1926
1927
1928
1929
193
1930
1931
1932
1933
1934
1935
1936
1937
1938
1939
194
1940
1941
1942
1943
1944
1945
1946
1947
1948
1949
195
1950
1951
1952
1953
1954
1955
1956
1957
1958
1959
196
1960
1961
1962
1963
1964
1965
1966
1967
1968
1969
197
1970
1971
1972
1973
1974
1975
1976
1977
1978
1979
198
1980
1981
1982
1983
1984
1985
1986
1987
1988
1989
199
1990
1991
1992
1993
1994
1995
1996
1997
1998
1999
2
20
200
2000
2001
2002
2003
2004
2005
2006
2007
2008
2009
201
2010
2011
2012
2013
2014
2015
2016
2017
2018
2019
202
2020
2021
2022
203
204
205
206
207
208
209
21
210
211
212
213
214
215
216
217
218
219
22
220
221
222
223
224
225
226
227
228
229
23
230
2307
231
232
233
234
235
236
237
238
239
24
240
241
242
243
244
245
246
247
248
249
25
250
2500
251
252
253
254
255
256
257
258
259
26
260
261
262
263
264
265
266
267
268
269
27
270
271
272
273
274
275
276
277
278
279
28
280
281
282
283
284
285
286
287
288
289
29
290
291
292
293
294
295
296
297
298
299
3
30
300
3000
301
302
303
304
305
306
307
308
309
31
310
311
312
313
314
315
316
3166
317
318
319
32
320
321
322
323
324
325
326
327
328
329
33
330
331
332
333
334
335
336
337
338
339
34
340
341
342
343
345
346
347
348
349
35
350
351
352
353
354
355
356
357
358
359
36
360
361
363
365
366
367
369
37
370
372
375
376
379
38
380
382
383
384
385
386
387
388
39
390
391
392
393
394
395
396
398
399
4
40
400
4000
401
402
403
404
405
407
408
409
4096
41
410
411
412
413
414
415
416
417
418
419
42
420
422
424
425
428
429
43
430
432
433
4331
435
436848672
44
440
441
443
444
446
45
450
453
455
456
458
459
46
460
461
465
467
468
469
47
470
471
474
475
476
48
480
483
486
49
490
498
5
50
500
5000
501
502
503
51
510
511
515
517
52
520
521
525
527
528
53
530
5302
533
54
540
547
55
550
553
55750
56
560
562
565
567
57
570
574
576
579
58
580
582
583
59
590
6
60
600
6000
601
602
604
605
61
610
617
618
62
620
623
625
63
630
633
635
637
639
64
640
65
650
66
660
667
67
670
671
672
674
679
68
680
683
684
688
689
69
690
691
692
7
70
700
702
705
707
709
71
72
720
73
732
733
737
74
747
75
750
76
760
761
767
768
7698
77
770
777
78
780
787
79
794
799
8
80
800
8000
801
802
804
8048
81
810
8159
817
82
820
83
830
833
84
840
84596
85
850
85177
85409
86
860
867
87
870
87021
87366
874
87687
88
880
89
893
9
90
900
9000
91
910
914
917
92
920
929
93
930
935
94
940
95
950
96
960
964
965
967
97
970
975
978
9784784071647
9786026250421
979
98
980
981
983
99
990
999
:
;
<
=
>
?
@
[
\
]
^
_
`
a
aa
aab
aabl
aac
aad
aadh
aadhe
aadi
aag
aaga
aagan
aagi
aah
aaj
aak
aakan
aaki
aaksa
aal
aala
aalak
aalan
aalang
aali
aalik
aalu
aalung
aam
aaman
aamb
aambang
aami
aamp
aamu
aan
aana
aanang
aanc
aand
aandh
aang
aangah
aangake
aangan
aangg
aangi
aangk
aani
aant
aanth
aany
aap
aapake
aapi
aar
aarake
aaran
aarang
aari
aaron
aas
aasi
aat
aatan
aath
aati
aaw
ab
aba
abab
abad
abadi
abah
abahan
abang
abasa
abbas
abbasiyah
abbe
abbey
abc
abd
abdi
abdine
abdomen
abdul
abdullah
abdurrahman
abe
abel
abi
abidin
abimanyu
abjad
abon
abot
abote
about
abraham
abrams
abri
abrik
abrit
abruzzo
abs
absolut
abstract
abstrak
abu
abuh
abul
ac
acade
academia
academic
academy
acak
acar
acara
access
accessdate
accessed
according
account
accrington
ace
aceh
acha
achievement
achmad
aci
acid
across
act
acta
acting
action
active
activity
actor
actors
actress
ad
ada
adab
adair
adalah
adam
adamel
adams
adan
adang
adaptasi
adas
adat
adate
addis
address
ade
adeg
adegan
adelaide
adem
adha
adhaptasi
adhe
adhedasar
adhedhasar
adhem
adhep
adhepan
adhi
adhik
adhiku
adhine
adhon
adhonan
adhuh
adi
adicara
adik
adike
adikoesoemo
adil
adimulya
adiparwa
adipati
adit
aditif
aditya
adja
adjie
adler
admin
administrasi
administratif
administration
administrator
adnan
adobe
adobo
adoh
adohe
adol
adolf
adon
adonan
adre
adrian
adsabs
adu
aduk
adult
adus
advanced
advent
adventure
adventures
ae
aero
aeronautics
aevi
af
afar
afc
affair
affairs
affandi
afganistan
afghanistan
afi
afiliasi
africa
african
afrika
afrikaans
afs
after
ag
aga
again
against
agam
agama
agamane
agami
agar
agatha
agawe
age
ageman
agen
agency
ageng
agengipun
agensi
agent
ager
ages
agnes
agni
agre
agreement
agresif
agricultural
agriculture
agul
agung
agunge
agunggelar
agus
agustinus
agustus
ah
ahad
ahli
ahmad
ahmed
ahn
ai
aib
aichi
aid
aids
aim
ain
ainol
ainu
ainun
air
airbus
aircraft
aires
airlangga
airline
airlines
airport
airways
ais
aise
aisyah
aisyiyah
aix
aj
aja
ajag
ajaib
ajak
ajang
ajar
ajaran
ajax
aje
ajeg
ajejuluk
ajek
ajeneng
ajeng
aji
ajine
ajisaka
ajrih
ajur
ak
aka
akad
akademi
akademik
akademis
akadhemi
akal
akaliyan
akan
akar
akarya
akasa
akb
akbar
ake
akechi
akeh
akehe
aken
akherat
akhir
akhirat
akhire
akhirnya
aki
akibat
akibate
aking
akir
akire
akita
akoe
akon
akr
akrab
akreditasi
akronim
aksa
aksara
aksarane
akse
akses
aksi
akti
aktif
akting
aktinge
aktip
aktivis
aktivitas
aktor
aktris
aktuator
aku
akuarium
akuisisi
akun
akuntansi
akurat
akustik
akut
akwari
akweh
al
ala
alabama
alah
alai
alain
alam
alamanda
alamat
alami
alamiah
alamos
alan
alane
alang
alangan
alangi
alap
alas
alasan
alaska
alat
alawas
alba
albani
albania
albanian
albas
albert
alberta
alberto
albertus
albion
album
albume
albumin
albums
alcohol
aldebaran
ale
alejandro
alengka
aleppo
alergi
alesan
alesane
alessandro
alex
alexander
alexandra
alexandre
alexandria
alexis
alfa
alfabe
alfonso
alfred
alfredo
alga
algeria
algoritma
ali
aliansi
alias
alice
alicia
alien
alif
align
alih
alihan
alik
alim
aling
alip
aliran
alis
alison
alit
alitipun
aliyah
aljazair
alkali
alkaloid
alkitab
alkohol
all
alla
allah
allaha
allahe
allahi
allahu
allan
alle
allegri
allen
allergy
alliance
allison
allkpop
allmovie
allmusic
allyn
alm
almanak
almarhum
almond
almost
aln
alocasia
alok
alon
alone
along
alonso
aloo
alor
aloysius
alpen
alpes
alpha
alpine
alpinia
alps
alpukat
als
alsace
also
alt
altar
alternatif
alternative
alto
alu
aluh
alum
aluminium
alumni
alun
alur
alus
alves
alvin
always
alyga
am
ama
amal
amalia
aman
amanah
amanat
amanda
amangkurat
amangsuli
amarga
amargi
amarta
amas
amatir
amazing
amazon
amba
ambal
ambalan
ambane
ambanipun
ambarawa
ambe
ambegan
amben
amber
ambon
ambruk
ambu
ambune
amd
ame
ameh
amerga
amergi
america
american
americans
amerika
ametung
amfibi
ami
amik
amin
aminah
amino
amir
amis
amit
among
amonia
amonium
amor
amos
amot
amp
ampas
ampe
ampel
amphiprion
amplop
ampuh
ampun
amrih
ams
amsterdam
amu
amung
amuntai
amy
an
ana
anade
anafilaksis
anak
anakan
anake
anakipun
anakku
anakmu
anal
analisa
analisis
analog
analysis
anama
anan
ananda
anane
anang
ananging
ananing
ananta
anas
anasir
anastasia
anatolia
anatomi
anatomy
ancaman
ancang
ancas
ancase
ancasipun
ancienne
ancient
ancik
ancol
and
anda
andadosaken
andalan
andalas
andalusia
andaman
ande
anders
anderson
andes
andha
andhahan
andhap
andharan
andhe
andhedhasar
andheng
andhika
andhra
andi
andika
andini
andong
andorra
andra
andre
andrea
andreas
andrew
andrews
andrieu
android
andum
andy
ane
aneh
aneka
anemia
aneng
ang
angandika
ange
angel
angela
angeles
angelina
angelo
angels
angen
angene
anget
angga
anggadahi
anggana
anggara
anggaran
anggawe
angge
anggegana
anggenipun
anggep
anggepan
angger
anggere
anggitan
anggitane
anggitanipun
anggo
anggon
anggone
anggonen
anggonku
anggonmu
anggota
anggotane
anggotanipun
anggre
anggrek
anggun
anggur
anghing
angier
angin
angine
anging
angka
angkah
angkara
angkasa
angkat
angkatan
angke
angker
angklung
angkor
angkudan
angkutan
angle
anglikan
angling
anglo
angola
angon
angre
angrok
angsa
angsal
angsang
angslup
angucap
ani
animal
animals
animasi
animated
animation
animator
anime
aning
aningali
anis
anise
anita
anjani
anjing
anjir
anjo
anjog
anjungan
ankara
ann
anna
annapolis
anne
anneahira
annie
annisa
anniversary
annotated
announced
announces
annual
annuario
anom
anoman
anon
anonim
anorganik
another
ans
answers
anta
antagonis
antar
antara
antarane
antaranews
antaraning
antareja
antariksa
antariksawan
antariksawati
antartika
antasari
antawis
antawising
antawisipun
ante
anteng
anthem
anthony
anthropological
anthropologist
anthropologists
anthropology
anti
antibiotik
antibodi
antigen
antigua
antik
anting
antiokhia
antioki
antioksidan
antistitum
antivirus
anto
antoine
antologi
anton
antonelli
antonio
antonius
antony
antropolog
antropologi
antropologis
antu
antuk
antv
anu
anugerah
anugrah
anumerta
anunten
anus
anusapati
anwar
any
anya
anyaman
anyar
anyaran
anyare
anye
anyep
ao
aomori
aos
aoyama
ap
apa
apade
apadene
apal
apamaneh
apan
ape
apel
apem
apes
apg
api
apik
apikan
apike
aplikasi
apollo
apostolic
apostolicus
apostolik
apostolo
appa
apple
appleton
application
applications
applied
approach
apr
apresiasi
apricot
april
apu
apud
apulia
apus
aqsa
aquarium
aquila
aquino
aquitaine
ar
ara
arab
arabia
arabic
aragon
arah
arahan
arai
arak
arakan
aram
aran
arane
araneae
arang
araning
aras
arat
arc
arca
archaeological
archaeology
archbishop
archdiocese
archeve
archidioecesis
archipelago
architecture
archive
archived
archives
ardhana
ardi
are
area
areas
arek
arema
aren
arena
areng
arep
arepa
arepe
ares
arfak
arga
arge
argentina
argo
argumen
argyle
ari
aria
arie
arief
ariel
aries
arif
arifin
arik
arimbi
aring
aris
arisan
aristoteles
arit
ariwarta
arizona
arjasa
arjuna
arjunawiwa
arkansas
arke
arkeolog
arktik
arm
armada
armand
armando
arme
armeni
armenia
armenian
armour
arms
armstrong
army
arnada
arnold
arok
aroma
aromatik
arondisemen
around
arps
arroz
ars
arsa
arsenal
arsip
arsite
arsitek
arsitektur
art
arta
arte
artefak
artemis
arteri
arthur
arti
article
articles
artikata
artikel
artine
artis
artist
artistik
artists
arts
arturo
aru
aruba
aruh
aruhi
arum
arupa
arupi
arus
arwah
arya
as
asa
asahan
asahi
asal
asale
asalipun
asam
asap
asar
asas
asasi
asat
ase
asean
asem
asep
asesirah
aset
asetat
ash
asha
ashkenazi
ashley
asi
asia
asian
asifat
asih
asil
asile
asiling
asilipun
asin
asinan
asing
asipat
asiste
asisten
asli
asline
aslinipun
asma
asmane
asmani
asmanipun
asmara
asmat
asor
asosiasi
asp
aspal
asparagus
aspe
aspek
aspx
asrama
asrep
asri
asring
assam
assembly
assessment
assist
associated
associates
association
associations
asta
astana
astane
astanipun
astari
asteroid
asti
astina
aston
astra
astragara
astrid
astro
astronaut
astronom
astronomi
astronomical
astronomiques
astronomy
astrophysics
astuti
asu
asuhan
asupan
asuransi
aswara
asy
at
ata
atap
atas
atase
atau
atawa
ate
ateges
ateng
ater
athena
atheneum
athens
athik
athletes
athletic
ati
atif
atiku
atimu
atine
atis
atlanta
atlantic
atlantik
atlas
atle
atlet
atletik
atlit
atmosfe
atmosfer
atom
atomic
aton
atos
atp
atr
atraksi
atribut
atsiri
attack
atur
aturan
ature
atus
atusan
au
auckland
audio
audisi
auf
aug
august
auguste
augustin
augustus
auksilier
aula
aulia
aun
aura
auriga
aurora
aus
austin
australe
australia
australian
australis
austria
austrone
austronesia
authentic
author
authority
authorlink
authors
auto
autobiography
autobots
autofocus
autotrof
autumn
aux
av
available
avatar
avec
avenue
avian
aviation
aviv
avr
aw
awa
awak
awake
awakipun
awakku
awakmu
awal
awale
awam
awan
awang
awangun
award
awards
awarna
awas
awatara
away
awe
aweh
awerna
awerni
awet
awis
awit
awoh
awon
awor
awrat
awu
awuh
awujud
ay
aya
ayah
ayahan
ayam
ayana
ayang
ayat
aye
ayem
ayo
ayu
ayub
ayumi
ayun
az
azerbaijan
azhar
azhari
azis
aziz
b
ba
bab
baba
babad
babadan
babagan
babah
babak
babakan
babar
babaran
babat
babel
babi
babilon
babilonia
bablas
babon
babu
baby
bac
baca
bacaan
bacem
bachtiar
back
backeb
background
backing
bacon
bad
badai
badan
badane
badanipun
baden
badhe
badiatul
badminton
badung
badut
baduy
bae
baek
bag
bagaimana
bagan
bagas
bagaskara
bage
bagean
bagel
bagele
bageyan
baghdad
bagi
bagian
bagiyo
bagong
baguette
bagus
bah
baha
bahagia
bahan
bahane
bahari
bahasa
bahaya
bahia
bahkan
bahrain
bahu
bahwa
bai
baik
bailey
baim
bait
baita
baja
bajak
bajanegara
bajang
bajing
bajra
baju
bak
baka
bakal
bakalan
bakale
bakar
bakat
bakate
bakau
bakda
bake
baker
bakery
baki
baking
bakmi
bako
bakpia
bakrie
bakso
bakte
bakteri
bakti
baku
bakul
bakumpai
bakune
bakung
bal
bala
balada
baladewa
balado
balai
balan
balane
balangan
balap
balapan
baldwin
bale
balfour
bali
balik
balikpapan
baline
baling
balkan
ball
balok
balon
balongpanggang
baltik
baltimore
balung
balungan
bambang
bamboo
bambu
ban
bana
banana
banarawa
band
banda
bandar
bandara
bandawasa
bandeng
bandha
bandhane
bandhang
bandhe
bandhung
banding
bandjoer
bandung
bane
bang
bange
banget
bangga
banggai
banggala
banggalade
bangka
bangkalan
bangke
bangkekan
bangkit
bangkok
bangkrut
bangku
bangladesh
bangli
bango
bangsa
bangsal
bangsane
bangsaning
bangsawan
bangsri
bangun
bangunan
banguntapan
bani
banjar
banjaran
banjaransari
banjarbaru
banjareja
banjarharja
banjarmasin
banjarnegara
banjarsari
banjir
banjur
bank
banks
bantah
bantal
bantalan
bante
banten
banteng
banter
banthe
bantu
bantuan
bantul
banu
banua
banyak
banyu
banyuasin
banyubiru
banyumas
banyumasan
banyune
banyuurip
banyuwangi
bao
bapa
bapak
bapake
bapakipun
bapakku
bapakmu
bapakne
bapane
bapanipun
bappeda
baptis
baptisan
baptiste
bar
bara
barabudhur
barack
barak
barang
barange
barat
barata
barbados
barbara
barbecue
barcelona
barclays
bare
bareng
barengan
barenge
bari
baris
barisan
barito
barkas
barker
barley
barnabas
barnes
baro
baron
barong
barongan
barry
bartlett
baru
barung
bas
basa
basah
basake
basan
basane
basanipun
base
baseball
based
basel
basi
basic
basil
basilica
basilicata
basilika
basin
basis
basise
baske
basket
basque
bass
bastian
basuki
bat
bata
batak
batal
batalyon
batam
batan
batang
batangan
batara
batas
batavia
batawi
bates
bath
bathang
bathara
bathari
bathi
bathik
bathikan
bathok
bathuk
bati
batik
batin
batine
batinku
batman
batos
batre
battle
batu
batuan
batubara
batur
bau
bauer
baurena
bausastra
bautista
bauwarna
bavaria
bawa
bawah
bawahan
bawana
bawang
bawe
bawur
bay
baya
bayam
bayan
bayang
bayangan
bayar
bayaran
bayem
bayer
bayern
bayi
bayine
bayu
baznas
bb
bbc
bbm
bc
bd
bda
be
beach
bean
beans
bear
beasiswa
beast
beat
beatles
beato
beatrix
beautiful
beauty
bebadan
beban
bebarengan
bebas
bebasan
bebaya
bebek
beberapa
bebingah
bebrayan
bebrayanan
bebungah
becak
became
because
becik
becike
beck
becker
beckett
beckham
become
becomes
beda
bedah
bedane
bedha
bedhah
bedhame
bedhaya
bedhil
bedhug
bee
beef
been
beer
before
begawan
begin
beginning
begins
begja
behind
bei
beijing
being
beirut
beja
bejen
bejo
bek
bekas
bekasi
bekerja
bekicot
beksa
beksan
bekti
beku
bel
bela
beladiri
belah
belahan
belajar
belakang
belanda
belang
belas
belasting
bele
belfast
belgium
beli
beliau
belik
belitung
belize
bell
bella
belle
belo
belt
beluk
belum
ben
benang
benar
benawa
bencana
benda
bendahara
bendara
bendera
bendha
bendungan
benedict
benedictii
benediktus
bener
benere
benetti
benevento
benfica
bengal
bengali
bengawan
benggala
bengi
bengkalis
bengkel
bengkong
bengkulu
bengok
beni
benik
benin
bening
benjamin
benjeng
benjing
bennett
benny
bentang
bente
benten
benteng
bento
bentuk
bentuke
bentukipun
benua
benyamin
benz
benzema
beograd
ber
beracun
berada
beralkohol
berang
berarti
beras
berasal
berat
berau
berbagai
berbagi
berbahasa
berbasa
berbasis
bercak
berdarah
berdasarkan
berdiri
berencana
berg
bergabung
bergamo
bergantung
bergen
berger
bergerak
bergman
berguna
berhasil
beri
berikut
beringin
berisi
berita
berjuang
berkah
berkas
berkat
berkeley
berkembang
berkompetisi
berkualitas
berlian
berlin
berliner
bermain
bermarkas
bermuda
bern
bernama
bernard
bernardo
beroperasi
berpengaruh
berperan
berpusat
berry
bersama
bersambung
bersatu
bersaudara
bersejarah
bersenjata
bersih
bertahan
bertahap
bertanggung
bertasbih
bertrand
berturut
beruang
berubah
berwarna
bes
besar
besaran
besi
best
besuk
besut
besutan
bet
beta
betah
betahaken
betawi
beteng
beth
beton
betta
better
betty
betula
between
betyik
beverages
beverly
beyond
bg
bha
bhakti
bharat
bhat
bhatara
bhayangkara
bhra
bhre
bhu
bhutan
bi
biak
biara
biarawan
biarawati
biarkan
bias
biasa
biasane
biasanipun
biasanya
biaya
bibar
bibcode
bibi
bibir
bibit
bible
biblical
bibliographique
bibliography
bicara
bid
bidadari
bidang
bidhal
bieber
big
biggest
bihar
bihun
biji
bijian
bikin
bikini
biksu
bila
bilang
bilangan
bilih
bilik
bill
billboard
billie
billy
bima
bimasekti
bimbingan
bimbo
bimo
bin
bina
binangun
binar
binatang
bing
bingah
bingung
binjai
bintang
bintara
binti
bintik
binuka
bio
biodata
biografi
biographical
biographies
biography
biokimia
biol
biologi
biological
biologis
biology
bioskop
bir
biran
birch
bird
birdlife
birds
birmingham
biro
birth
biru
biryani
bis
bisa
bisaa
bisane
bisbol
bishop
bishops
bisik
biskop
biskope
biskuit
bisma
bisnis
bison
bissau
bisu
bit
biting
bitung
biyantu
biyasa
biyasane
biye
biyen
biyene
biyoskup
biyung
biyunge
bizantium
bj
bk
bl
blabag
black
blackberry
blackburn
blackpool
blackwell
blade
blair
blak
blaka
blake
blambangan
blanc
blanco
blang
blangkon
blanja
blas
blat
ble
bleach
bledhe
bledug
blethok
blica
blimbing
blind
blink
blitar
block
blog
blogspot
blok
blood
bloody
bloom
bloomberg
bloomsbury
blora
blorong
blu
blue
blueberry
blues
bluluk
blumbang
blung
bo
board
boat
bob
bobby
bobo
bobot
bobote
boca
bocah
bocahe
bocor
bodeh
bodho
bodo
body
boeing
boemi
bog
boga
bogor
bogota
bohol
boja
bojanegara
bojo
bojoku
bojomu
bojone
bojonegoro
bojong
bok
bokake
bokmanawa
bokmenawa
bokong
bokor
boku
bol
bola
bolaang
bolah
bolak
bold
boleh
bolivia
bollettino
bollywood
bologna
bolong
bolongan
bolton
bolu
bom
bombana
bombay
bombong
bon
bonan
bonang
bonaparte
bonar
bond
bondowoso
bone
boneka
bong
bonggol
bonifatius
bonjol
bonnie
bono
bontang
bonus
boo
book
books
boom
boot
bor
bordeaux
borden
border
boris
born
borneo
borobudur
borough
borussia
borys
bos
bosch
bosen
bosni
bosnia
bosok
boss
boston
bot
botani
botanical
botany
bote
boten
both
botol
botswana
bottom
botyah
botyahe
bourbon
bourne
bowl
box
boxofficemojo
boy
boyalali
boyband
boyd
boyle
boyolali
boys
bp
bpk
bps
br
bra
brabant
brad
bradley
brady
brahala
brahma
brahmana
brahmi
brain
brak
bram
brama
bramantyo
brambang
branch
brand
brandon
brang
brantas
brasil
brata
brave
brawijaya
brayan
brayat
brayate
brazil
brazilian
bre
bread
break
breakfast
breaking
brebes
bregada
bremen
brendan
brescia
brett
bri
brian
bridge
bridges
brie
brief
brien
brigade
brigadir
bright
brigjen
brill
brine
bring
bringin
brisbane
bristol
britain
britania
britannica
british
brittany
britton
broadcast
broadcasting
broadway
brock
brod
broken
brokoli
brol
brondong
bronx
brooklyn
brooks
bros
brosnan
brother
brothers
brown
browser
bru
bruari
bruce
brug
brunei
bruno
brussels
bruwang
bryan
bs
bse
bst
bt
bts
bu
buah
buahe
buana
buang
buat
buatan
buaya
buayan
bubar
bubrah
bubuk
bubur
buck
bud
buda
budak
budal
budapest
budaya
budayane
budayawan
buddha
buddhi
buddhist
bude
budget
budha
budhal
budhaya
budhe
budhi
budi
budidaya
budiman
budine
buenos
buffalo
buffon
bug
bugis
buh
building
bujana
bujang
bujur
buk
buka
bukaan
bukak
bukan
bukane
bukhari
bukit
bukittinggi
bukti
buktine
buku
bukune
bukunipun
bul
bulakamba
bulan
bulat
bule
buleleng
buletin
bulgari
bulgaria
buli
bull
bulletin
bullock
bulu
bulungan
bulus
bumblebee
bumbon
bumbu
bumbune
bumbung
bumi
bumiayu
bumn
bun
buncis
bunda
bunde
bunder
bunderan
bundesliga
bundher
bune
bung
bunga
bungah
bungahe
bungkus
bungsu
bungur
bunte
buntu
buntung
buntut
buntute
bunuh
bupati
bur
bureau
burger
buri
burine
burisrawa
burke
burkina
burma
burnley
burns
buron
bursa
burton
buru
buruh
buruk
burundi
burung
bus
busa
busan
busana
bush
business
busur
but
buta
butan
butane
butir
butler
buton
butter
buttermilk
butuh
butuhake
butuhe
buwana
buwang
buwono
buya
buyar
buyut
buyute
bv
bwf
by
byar
byrne
byung
byur
byzantine
byzantium
c
ca
cabai
cabang
cabe
cabello
cabinet
cable
cacad
cacah
cacahe
cacahing
cacahipun
cacar
cacat
cacing
cactus
cadangan
cadhangan
cae
caesar
cafe
caffeine
cagak
cagar
cage
cagliari
cah
cahaya
cahya
cai
cair
cairan
cairo
cak
cakalang
cakar
cake
cakes
caket
caketipun
cakil
cakra
cakram
cakraningrat
cakrawala
cal
cala
calabria
calcio
calendar
california
call
called
calon
calone
calvin
cam
camat
cambah
cambodia
camboran
cambridge
came
cameo
camera
cameron
camilan
camille
camp
campaign
campaka
campania
campbell
campo
campos
campur
campuran
campursari
camu
can
cana
canada
canadian
canal
canary
canavese
canberra
cancer
candhak
candhake
candhakipun
candhi
candi
candra
candu
candy
canggih
cangkang
cangke
cangkem
cangkeme
cangkir
cangkok
cangkriman
cangkring
canis
cannes
canon
canthe
canthing
cantik
canton
cantona
canyon
cao
cap
capacitive
cape
caping
capital
cappelletti
captain
car
cara
carabasa
caraka
carakan
carane
carang
caranipun
carbon
card
cardiff
cardinalium
care
career
carey
cargo
cari
caribbean
carik
carita
caritane
cariyos
cariyosipun
carkak
carl
carla
carlo
carlos
carmen
carne
carnival
carol
carolina
caroline
carolyn
carrie
carrier
carroll
cars
carta
cartagena
carter
cartoon
caruban
cas
casa
cascade
case
cases
casey
casing
casino
casserole
cast
casting
castle
castro
cat
catalan
catalog
catalogue
catalogues
catatan
cate
catedral
category
cathe
cathedral
catherine
cathetan
catholic
catholica
catholicae
catur
caturan
caution
cave
cavendish
cawan
cawang
cawe
caya
cayenne
cayman
cb
cbc
cbs
cc
cd
cdc
cdot
ce
cebol
cebu
cecak
cedera
cedhak
cedhake
cekak
cekakan
cekake
cekap
cekelan
ceko
cekungan
celah
celak
celakipun
celathu
celathune
celcius
celebrity
celery
cell
cello
cells
celtic
celuk
celukan
celup
cemara
cemeng
cemerlang
cemilan
cempa
cempaka
cendekiawan
cenderung
cendhak
cendhe
cendhek
cendhok
cendrawasih
cengkar
cengke
cengkeh
census
centauri
centaurus
center
centers
centhini
central
centre
centuries
century
ceo
cepak
cepat
cepet
cepiring
ceplok
cepu
cerah
cerai
cerak
cerbon
cerdas
ceremony
ceres
ceri
cerita
ceritane
cerkak
cerme
cermin
cerpen
cet
cetak
cetakan
cetha
cethe
cethek
cewek
ceylon
cf
cgi
ch
cha
chacha
chaco
chad
chae
chain
chairil
chaiyya
chal
challenge
challenger
chamber
chambers
champagne
champion
champions
championship
championships
chan
chance
chandra
chanel
chang
change
changes
changing
channel
chao
chaplin
chapman
chapter
char
character
characters
charles
charleston
charlie
charlotte
charlton
chart
charter
charts
chase
chavacano
che
check
cheddar
cheese
chef
chefs
chelsea
cheltenham
chem
chembox
chemical
chemistry
chen
cheney
cheng
cher
cherry
cheryl
chesneau
chester
cheung
chevrolet
chi
chiang
chiba
chicago
chicken
chief
chiesa
chiese
chieti
chiho
chihuahua
child
children
chile
chili
chin
china
chinese
chip
chisholm
chita
chizu
chloe
cho
chocolate
choi
choice
chongqing
chorizo
chorus
chosun
chow
chowder
chris
christ
christian
christiana
christianity
christie
christina
christine
christmas
christoph
christopher
chrisye
chronicle
chronology
chu
chuck
chum
chun
chung
church
churches
churchill
chutney
ci
cia
ciamis
cianjur
cicero
cid
cidra
cif
cihna
cik
cikal
cikampek
cikarang
cil
cilacap
cilaka
cilantro
cile
cilegon
cilik
cilikan
cilike
cilongok
cimahi
cina
cincang
cincin
cincinnati
cinderella
cindhe
cindy
cine
cinema
cinemascore
cineplex
cing
cinta
cintaku
cinten
cipta
ciptaan
circle
cirebon
ciri
cirine
cis
cit
cita
citation
cite
cites
cithak
cithakan
cities
citizen
citra
citrus
citta
city
ciudad
ciut
civil
civilization
ciyut
cj
ck
cl
claim
claims
claire
clana
clara
clark
clarke
class
classic
classical
classics
classification
claude
claudia
clay
clayton
cle
clear
clemens
clement
cleopatra
cleveland
cliff
clifford
climate
clinical
clinton
clio
clock
close
closes
cloud
club
clubs
cm
cn
cnn
co
coach
coast
coauthors
coba
coca
cocktail
coco
cocog
cocok
coconut
cod
code
codes
coen
coffee
cohen
cok
coke
cokelat
coklat
cokotan
col
cola
cold
coldplay
cole
coleti
coli
colin
colle
collected
collection
collections
college
collider
collins
colombia
colombo
colong
colonial
color
colorado
columbia
columbus
com
comal
combinedfleet
come
comeback
comedy
comes
comic
comics
coming
comingsoon
commentary
commerce
commercial
commission
committee
common
commons
commonwealth
commune
communication
communications
community
como
compagnie
companion
company
comparative
competition
complete
complex
composition
comprehensive
computer
comte
comune
comuni
con
conan
concepcio
concert
concise
concordat
conference
confirmed
conflict
congo
congress
connecticut
connor
conrad
conradus
conservation
consortium
constant
constantine
constellation
constellations
constitution
construction
contact
conte
contemporary
content
contest
context
continental
conto
contoh
contone
contract
contribution
control
convention
converse
conway
cook
cookbook
cookery
cookie
cookies
cooking
cooks
cool
cooper
cooperation
coordinates
copa
copot
coppa
copy
copyright
cor
corak
core
corn
cornelis
cornelius
cornell
cornwall
coro
corona
coronavirus
corong
corp
corporate
corporation
cory
cos
costa
cot
could
council
count
countries
country
county
coupe
course
court
courtney
cov
coventry
cover
covid
cowe
cowok
cox
cr
crab
craig
crake
cranberry
crash
crazy
crc
cre
cream
creation
creative
creek
crema
creole
crew
crewe
crime
criminal
crisis
cristo
crita
critane
critical
critics
crj
croatia
cronquist
crops
cross
croup
crown
cruise
cruisers
crustacea
cruz
cry
crystal
cs
cstn
ct
ctor
cu
cuaca
cuba
cuban
cublak
cucak
cuci
cucu
cucuk
cucur
cuisine
cuk
cuka
cuke
cukup
cukur
culika
culinary
cullen
cultural
culture
cultures
cum
cuma
cumawis
cumbana
cume
cumi
cumin
cumle
cumplung
cundhuk
cungkring
cup
cupe
cuplikan
cupu
cur
curac
curah
curcuma
curd
cure
cures
curie
curiga
curlie
current
curry
curtis
curug
cus
custard
customs
cut
cuti
cuvier
cuwe
cv
cyber
cycle
cyelin
cygnus
cynthia
cyprus
cyril
cyrus
czech
d
da
dab
dada
dadak
dadakan
dadar
dade
dadekake
dadi
dadia
dadine
dadiya
dados
dadosaken
dadu
dadya
dae
daendels
daeng
daerah
daftar
dag
dagang
dagangan
dagangane
daging
daginge
dah
daha
dahana
dahat
dahi
dahlan
dahsyat
dai
daihatsu
daily
dairi
daisy
dak
daka
dakake
dakar
dake
dakota
daksa
dakwah
dal
dalah
dalai
dalam
dalan
dalanan
dalane
dalang
dale
dalem
daleme
dalemipun
dalil
dalla
dallas
dalle
dalton
dalu
dam
damai
damar
damaskus
dame
damel
damelan
damelanipun
dami
damon
dampak
dampar
dampare
dan
dana
danan
danar
danaraja
danau
danawa
dance
dandan
dandanan
dandang
dander
dane
dang
dangdut
dangu
dangunipun
dani
daniel
daniels
danipun
danish
daniswara
danny
dano
dans
dante
danu
danube
danureja
daop
dapat
dapur
dar
dara
darah
darat
daratan
darbe
dari
daring
daripada
darius
dark
darma
darman
darmawan
daru
darul
darurat
darussalam
darwin
das
dasa
dasamuka
dasanama
dasar
dasarata
dasare
dasawarsa
dashi
dasilah
dat
data
database
databook
datan
datang
datar
dataran
datasd
date
dateng
dates
datheng
dati
datuk
daud
daughter
daun
daur
dave
daved
david
davidson
davies
davis
dawa
dawan
dawane
dawaning
dawanipun
dawe
dawet
dawn
dawson
dawud
day
daya
dayak
dayane
dayoh
days
db
dc
dd
de
dea
dead
deadline
deal
dean
dear
death
debat
debu
debut
debute
dec
december
decepticons
dedagangan
deddy
dede
dedeg
dedes
dedonga
dedunung
dee
deep
default
defender
defense
definisi
definition
degan
degli
degradasi
dehidrasi
dei
dek
dekade
dekan
dekat
deklarasi
dekorasi
del
delaware
delegasi
deleng
delengen
delhi
deli
delica
delicious
delima
dell
della
delle
delokke
delonge
delphinium
delta
demak
demam
demang
demi
demikian
demit
demite
demo
democracy
democratic
demokrasi
demokrat
demokratik
demung
den
dendam
dendy
dene
dengan
dengue
dening
denira
denis
denise
denmark
dennis
denny
denpasar
denta
dentetsu
denver
denya
depan
departemen
department
depdagri
depdikbud
depdiknas
depok
depresi
depuis
deputi
der
derajat
derby
derbyshire
derek
dereng
deres
derlan
deryck
des
desa
desain
desainer
desaku
desane
descendants
description
desember
desert
desi
design
deskripsi
deso
dessert
desserts
destiny
destroyers
detail
detailed
details
detective
detektif
detik
detiknews
detroit
deutsche
development
devi
devil
devin
devon
dewa
dewan
dewanagari
dewantara
dewasa
dewata
dewe
deweke
dewi
df
dfb
dh
dha
dhabi
dhadha
dhadhane
dhadhap
dhadhu
dhae
dhaerah
dhaftar
dhag
dhah
dhahar
dhaharan
dhak
dhaka
dhaki
dhalang
dhampar
dhampit
dhan
dhana
dhandhang
dhandhanggula
dhang
dhani
dhanu
dhap
dhaptar
dhapur
dhapure
dhar
dharah
dharat
dharatan
dharma
dharmasraya
dharmawangsa
dhasar
dhasare
dhasaring
dhasaripun
dhat
dhata
dhataran
dhate
dhateng
dhaup
dhawah
dhawet
dhawuh
dhawuha
dhawuhe
dhawuhing
dhayoh
dhe
dhebut
dhedhasar
dheg
dhegan
dhek
dheleg
dhemen
dhemit
dhen
dhengkul
dheral
dherasi
dhesember
dhetik
dhewe
dhewekan
dheweke
dhi
dhia
dhiale
dhialek
dhiame
dhiameter
dhidhik
dhih
dhik
dhil
dhime
dhindhing
dhing
dhini
dhir
dhire
dhiri
dhirine
dhis
dhisi
dhisik
dhisiplin
dhiskusi
dhistrik
dhit
dho
dhobel
dhodhog
dhog
dhok
dhokte
dhokter
dhoktor
dhoktrin
dhokume
dhomain
dhompet
dhong
dhose
dhosen
dhot
dhu
dhudha
dhudhuk
dhug
dhuh
dhukuh
dhukun
dhukungan
dhul
dhumateng
dhun
dhung
dhus
dhusun
dhut
dhuwe
dhuweni
dhuwit
dhuwite
dhuwur
dhuwuran
dhuwure
dhuwuring
dhuwuripun
di
dia
diabetes
diadani
diadaptasi
diadegake
diadhekake
diadopsi
diaduk
diagnosis
diah
diajak
diajari
diaje
diakoni
diakse
diakses
dialami
diale
dialek
dialog
diam
diamati
diambil
diame
diameter
diameteripun
diamond
dian
diana
dianakake
diandharake
diane
dianggap
diangge
dianggep
dianggit
dianggo
diangkat
dianugerahi
dianut
dianyari
diapit
diapusi
diarahake
diarani
diare
diarsip
diary
diasilake
diasinake
diaspora
diatur
diayahi
dib
dibabar
dibabarake
dibage
dibagi
dibakar
dibale
dibandhingake
dibandingake
dibangun
dibantu
dibaptis
dibarengi
dibatalake
dibawahi
dibayar
dibe
dibebasake
dibedakake
dibentuk
diberikan
dibiase
dibintangi
dible
dibongkar
diboyong
dibubarake
dibudidayakake
dibuka
dibukak
dibumboni
dibumbui
dibungkus
diburu
dibusak
dibutuhake
dibuwang
dic
dicakake
dicampur
dicampuri
dicaprio
dicaritakake
dicathet
dicaturake
dice
diced
dicekak
dicekel
diceluk
dicelup
dicelupake
dicetak
dicincang
diciptakake
dicithak
dick
dickens
dicle
dicoba
dicokot
dicolong
dicopot
dicritakake
dictionaries
dictionary
dicukur
diculake
diculik
did
didade
didadekake
didadikake
didakwa
didamel
didandani
dide
didedikasike
didegake
dideleng
didelok
didh
didhahar
didhaku
didhapuk
didhasarake
didhawuhi
didhe
didhukung
didi
didier
didik
didokok
didokoki
didol
didominasi
didunungi
diduwe
diduweni
die
died
diego
dieja
diemot
dieng
dienggo
dienggoni
dies
diesel
diet
dieter
dietokke
dietung
difermentasi
difference
different
dig
digabung
digabungake
digagas
digambar
digambarake
digandhe
digandhengake
diganggu
digante
diganti
digantung
digarap
digaringake
digate
digawa
digawe
digayuh
digayutake
digdaya
dige
digebyakake
digedhe
digelar
digiling
digit
digital
digiyarake
digodhog
digole
digoleki
digolongake
digore
digoreng
digosok
digre
digulung
digunaake
digunakake
digunakan
dihias
dihiasi
diidentifikasi
diidini
diilangi
diile
diilhami
diiloni
diingu
diiringi
diiris
diise
diiseni
diisi
diitung
dijadwalake
dijaga
dijajah
dijak
dijaluk
dijaluki
dijangkepi
dijanji
dije
dijenengake
dijenengi
dijle
dijuluki
dijupuk
dijurung
dik
dika
dikabarake
dikabarke
dikalahake
dikancani
dikandhakake
dikandhani
dikanggo
dikanggokke
dikanthe
dikarang
dikare
dikarepake
dikarepke
dikasilake
dikatutake
dikawruhi
dike
dikelola
dikemas
dikembangake
dikenal
dikenalake
dikenali
dikeringake
dikethok
dikira
dikirim
diklasifikasikake
dikle
diklompokake
diklumpukake
dikombinasikake
dikon
dikonfirmasi
dikongkon
dikonsumsi
dikontrak
dikontrol
dikramakake
dikre
dikritik
dikuasai
dikubur
dikukuhake
dikukus
dikum
dikumbah
dikumpulake
dikunjara
dikupas
dikurangi
dikutip
dikuwasani
dikwasani
dil
dilacak
dilade
dilairake
dilakokake
dilakoni
dilan
dilanjutake
dilantik
dilapisi
dilaporake
dilapurake
dilarang
dilatih
dilayani
dile
dilebokake
dilebokke
dilengkapi
dili
dililani
dilindhungi
diliwati
dill
diluncurake
dim
dimainake
dimainke
dimaksud
dimaksudake
dimanfaatake
dimangerte
dimangerteni
dimas
dimasak
dime
dimenangake
dimodifikasi
dimot
dimulai
dimunggahke
dimupangatake
din
dina
dinamika
dinamis
dinane
dinar
dinas
dinasti
dinding
dine
ding
dingapura
dingerte
dingerteni
dinggo
dingin
dini
dinikmati
dining
dinner
dino
dinobatake
dinosaurus
dinte
dinten
dintenipun
dinuga
dinyana
dinyanye
dinyatakake
dinyawijike
dio
diobahake
diobati
diobong
dioce
diocesan
diocese
dioceses
diocesi
dioecesis
dioksida
diolah
diole
diombe
diomong
diomongake
diomongi
diomongke
dion
dionce
diope
dioperasikake
dioperasike
diosesan
diowah
diowahi
dioyak
dip
dipacak
dipadakke
dipadhakake
dipae
dipanagara
dipandhe
dipane
dipanegara
dipanen
dipangan
dipanggang
dipanggedhe
dipanggil
dipanggoni
dipara
diparagani
diparani
diparingake
diparingi
diparo
diparut
dipasang
dipasangi
dipasarake
dipasrahake
dipasrahi
dipasrahke
dipate
dipateni
dipati
dipe
dipecah
dipecat
dipekaki
dipeksa
dipengaruhi
dipenging
dipentasake
dipente
dipepaki
diperagakake
diperanake
diperang
dipercaya
diperes
diperlokake
dipertal
dipigunaake
dipigunakake
dipikir
dipikolehi
dipilara
dipilih
dipimpin
dipindah
dipindhah
dipirante
dipisah
dipisahake
dipituturake
dipl
diple
diploma
diplomasi
diplomat
diplomatik
diponegoro
dipotong
diprakirakake
dipre
dipretyaya
dipriksa
diprodhuksi
diproduksi
dipromosikake
dipromosike
diproses
dipuja
dipuji
dipun
dipunadani
dipunadegaken
dipunagem
dipunajokaken
dipunakse
dipunakses
dipunandharaken
dipunangge
dipunanggep
dipunanggit
dipunangkat
dipunarahaken
dipunasilaken
dipunatur
dipunbabar
dipunbangun
dipunbe
dipunbekta
dipunbentuk
dipunbeta
dipunbetahaken
dipunbikak
dipunbiyantu
dipuncakaken
dipuncampur
dipuncariyosaken
dipuncawisaken
dipuncekak
dipuncepeng
dipundadosaken
dipundamel
dipundhahar
dipundhirikaken
dipundhut
dipune
dipungadhahi
dipungambaraken
dipungayutaken
dipunginakaken
dipungkasi
dipungodhog
dipunisi
dipunjagi
dipunjangkepi
dipunkasilaken
dipunkelola
dipunkembangaken
dipunkempalaken
dipunkenal
dipunkintun
dipunkiteri
dipunlajengaken
dipunlaksanakaken
dipunlampahaken
dipunlampahi
dipunlantik
dipunlebetaken
dipunmangertosi
dipunmasak
dipunminggahi
dipunnamani
dipunolah
dipunpandhegani
dipunpanggihi
dipunparagani
dipunparingaken
dipunparingi
dipunpasang
dipunpe
dipunpejahi
dipunpendhet
dipunpilih
dipunpimpin
dipunpindhah
dipunpirsani
dipunpitados
dipunpitadosi
dipunpracaya
dipunprakirakaken
dipunproduksi
dipunpundhut
dipunpungkasi
dipunrancang
dipunremeni
dipunrilis
dipunripta
dipunsade
dipunsaje
dipunsare
dipunse
dipunsebabaken
dipunsebat
dipunsebataken
dipunsebut
dipunsebutaken
dipunsengkuyung
dipunserat
dipunsimpen
dipunsukani
dipunsusun
dipunsutradarani
dipunsuwun
dipuntambah
dipuntambahi
dipuntampi
dipunte
dipuntemtokaken
dipuntepang
dipuntepangaken
dipuntepangi
dipunterbitaken
dipunterjemahaken
dipuntetepaken
dipuntimbali
dipuntindakaken
dipuntingali
dipuntunjuk
dipuntutup
dipunundhuh
dipununduh
dipununjuk
dipunwaos
dipunwastani
dipunwedalaken
dipunwiwiti
dipunwontenaken
dipunyasa
diputer
dir
dirajang
dirampungake
dirancang
dirangke
dirasa
dirasakake
dirawat
dirayakake
dire
direbut
direct
direction
director
directory
direkam
direksa
direktorat
direktori
direktur
dirembug
diremuk
direncanakake
direndhem
direnovasi
diresiki
diresme
diresmikake
direwangi
dirga
dirgantara
diri
dirilis
diripta
diriwayatake
dirjen
dirk
dirujuk
dirumat
dirungokake
dirungokke
dirusak
dis
disahake
disaje
disajekake
disajeni
disajikake
disalini
disambiguasi
disambung
disaranake
disare
disarekake
disaring
disarujuki
disaster
disawang
discover
discovery
dise
disease
diseases
disebabake
disebabke
disebar
disebarake
disebut
disebutake
disedhiyakake
diselehake
disenengi
disengaja
disengkuyung
diserahake
diserang
diserat
disertasi
disete
disetel
disetrap
disetujoni
dish
dishes
disi
disiapake
disiarake
disigar
disik
disiksa
disilih
disilihake
disimpen
disinaoni
disingkat
disingkirake
disiplin
disiram
disiya
disiyapake
disiyarake
disk
diskriminasi
diskusi
disle
disney
disneyland
displaystyle
disponsori
disre
distances
distilasi
distribusi
distributa
distribution
distributor
district
distrik
disuguhake
disumurupi
disusul
disusun
disutradarai
disutradarani
disutradharani
disuwe
dit
ditabuh
ditahan
ditahbisake
ditakoni
ditale
ditambah
ditambahake
ditambahi
ditambani
ditampa
ditampik
ditampilake
ditandangi
ditandhani
ditandur
ditanduri
ditangani
ditange
ditarik
ditata
ditatah
ditawakake
ditawani
ditayangake
ditayangke
dite
ditegesi
ditekani
diteliti
ditembangake
ditemokake
ditemoni
ditempuh
ditemtokake
ditemu
ditemukan
ditengeri
ditepungake
ditepungi
diterangake
diterbitake
diterbitkan
diterbitke
diterjemahake
diterjemahkan
diterusake
ditetepake
ditimbali
ditimbang
ditindakake
ditindakke
ditinggal
ditinggalake
ditingkatake
ditingkatke
ditions
ditiru
ditite
ditjen
ditliti
ditokake
ditolak
ditonton
ditor
ditransfer
ditrapake
ditrapi
ditre
ditresnani
dituduhake
ditugasake
ditujokake
dituju
dituku
ditulis
ditulungi
ditumbuk
ditumpaki
ditumpuk
ditunjuk
diturunake
dituruti
ditutup
ditutupi
dituturake
ditya
dityawiske
dityekel
dityeluk
diube
diubengi
diucapake
diudhunake
diuja
diuji
diukir
diukum
diukur
diule
diuleg
diumumake
diundang
diundhang
diundhuh
diunduh
diune
diunggahake
diuripake
diurmati
diurus
diusir
diusulake
diutus
diva
diversity
divisi
divisio
division
diw
diwaca
diwadhahi
diwajibake
diwakili
diwalik
diwangun
diwarisake
diwarnai
diwasa
diwatesi
diwe
diwedharake
diwenehake
diwenehi
diwengku
diweruhi
diwetokake
diwiwiti
diwujudake
diwulang
diwulangi
diwulangke
diwutahake
diwuwuhi
diy
diyah
diyakini
diyan
diyasa
diœcesis
dj
djadjahan
djaka
djakarta
djambatan
djarum
djawa
djawi
djibouti
djoemeneng
djoko
dk
dki
dkj
dkk
dl
dlajah
dle
dll
dluwang
dm
dna
do
doa
dobel
doc
doctor
document
documentary
documents
dodo
dodol
dodolan
doel
doenjang
doeroeng
does
doewe
dog
dogs
doh
dohe
doi
dok
doke
dokter
doktor
dokume
dokumen
dokumentasi
dokumenter
dol
dolan
dolanan
dolar
dollar
dolphin
dom
domain
domba
dome
domenico
domestic
domestik
dominan
dominasi
domingo
dominic
dominika
dominique
don
donald
donat
doncaster
dong
donga
donge
dongeng
donggala
dongxiang
donna
donne
donny
dono
donor
dons
donya
donyane
donyaning
doo
doom
door
doors
dora
dorado
doraemon
dorothy
dorsal
dortmund
dos
dosa
dosane
dose
dosen
dosis
dostoyevsky
douard
double
doubleday
doug
douglas
dover
down
download
doyan
dp
dpd
dpl
dpp
dpr
dprd
dr
dra
draco
draft
dragon
drajat
drake
drale
drama
dramatis
dre
dream
dreams
dreamworks
dreyer
dri
driji
drijine
drink
drinks
drive
driver
driya
drona
drop
drs
drug
drugs
drum
drumble
drummer
drupadi
dry
ds
du
dua
dual
dubai
dublin
dubur
duc
duchesne
dude
dudu
duduh
duduhe
duduk
dudutan
due
duet
dug
duga
dugi
duh
duit
duk
duka
duke
dukuh
dukun
dul
dulce
dull
dulu
dulur
dum
dumadakan
dumadi
dumadine
dumados
dumai
dume
dumeh
dumugi
dumunung
duncan
dune
dunia
dunn
dunung
dununge
dunungipun
dunya
duo
dupa
duplicates
dur
duraka
dure
duren
durga
duri
durian
during
durjana
durna
durung
duryudana
dus
dusun
duta
dutch
duwe
duweke
duweni
duwit
duwite
duwur
duwure
dvd
dward
dwarf
dwi
dwija
dwilingga
dx
dya
dyah
dylan
dynamic
dynamics
dynasty
dz
dzikir
e
ea
each
eagle
earl
earliest
early
earth
east
easter
eastern
eastwood
easy
eat
eating
eats
ebchecked
ebert
ebisu
ec
ecclesiae
ecclesiarum
ecclesiasticas
echo
ecology
economic
economics
economist
economy
ecuador
ed
edan
eddie
eddy
eden
edgar
edge
edhisi
edi
edinburgh
edisi
edison
edited
edition
editions
editor
editorial
editors
edmund
edo
eds
edu
eduardo
education
educational
edward
edwards
edwin
ee
een
efe
efek
efektif
efesus
effect
effects
effendi
efisien
efisiensi
efl
egg
eggs
egipte
egypt
egyptian
eh
ei
eiffel
eileen
ein
einstein
ejaan
ek
eka
ekaristi
eki
eko
ekonomi
ekosistem
eks
eksarkat
eksekutif
eksistensi
eksklusif
ekspansi
ekspedisi
eksperimen
ekspor
ekspres
ekspresi
eksternal
ekstra
ekstrak
ekuador
el
elastis
election
electric
electronic
elek
elektrik
elektro
elektromagnetik
elektron
elektronik
elektronika
elemen
elements
elena
elevasi
elevations
eleven
elex
eli
elia
elias
elie
eling
elinga
elisabe
elisabeth
elite
elizabeth
ellas
elle
ellen
elliot
elliott
ellis
elok
elsa
elsevier
elvis
em
ema
email
eman
emas
emba
emban
ember
embrio
embuh
embun
embung
emergency
emerging
emeritus
emil
emile
emilia
emilio
emily
emirat
emirates
emisi
emma
emmanuel
emmy
emoh
emoji
emosi
empat
empedu
emperor
empire
empon
emprit
empty
empu
empuk
en
enak
enam
encyclopaedia
encyclopedia
encyclopædia
end
endah
endang
endangered
endase
ende
endemik
endhas
endhase
endhe
endhek
endhog
endhoge
endi
endraswara
ene
enem
eneng
energi
energy
enewsworld
eng
enggal
enggar
enggon
enggonan
enggone
enggonku
enggonmu
engine
engineering
engineers
engkol
england
english
enim
enjing
enom
enrekang
enrique
ensemble
ensiklopedi
ensiklopedia
ent
entas
ente
entek
enten
enterprises
entertainment
entha
entheng
entitas
entri
entry
entuk
environment
environmental
enzim
ep
eparchy
eparki
epic
epidemiology
epik
episcopis
episcoporum
episkopal
episkopale
episode
epsilon
er
era
eram
eredivisie
eri
eric
ericsson
erik
eritrea
eritrosit
erlangga
ernest
ernst
eropa
eropah
error
erwin
es
esa
esai
escoffier
esei
esem
esensial
esih
esok
espan
espn
espresso
essay
essays
essential
est
estate
este
ester
estetika
esther
estimates
estri
estrogen
esuk
esuke
et
etanol
etc
ethan
ethiopia
ethiopian
ethnic
ethnicity
ethnologue
ethok
etienne
etika
etimologi
etiopia
etnik
etnis
etung
etymology
eu
eubel
eudicots
euge
eugene
eukaliptus
eun
euro
europa
europe
european
eurosport
eva
evaluasi
evaluation
evan
evangelisasi
evans
eve
even
evening
event
events
ever
everton
every
everyday
everything
evidence
evil
evolusi
evolution
ewa
ewadene
ewan
ewu
ewuh
ex
exact
excellence
exchange
exclusive
executive
exhibition
exo
exodus
experience
experimental
expert
explicit
exploration
exploring
expo
exponential
express
extension
external
extra
eyang
eye
eyes
eyub
ez
f
fa
faber
fabio
face
facebook
faces
fact
factbook
facto
factor
factory
facts
faculty
faenza
fahmi
fair
faisal
faith
fajar
fak
fakta
faktor
fakultas
falcon
fall
falls
fals
falsafah
false
fame
famili
familia
family
famous
fan
fanny
fans
fantasi
fantastic
fantasy
fanus
fao
faq
far
farewell
farid
farisi
farm
farman
farmasi
farmer
fase
fashion
fasilitas
faso
fast
fat
fatal
father
fatimah
fatwa
fauna
fauzi
favorit
favorite
faye
fb
fbi
fc
fe
fear
feat
feature
features
featuring
feb
februari
february
federal
federasi
federation
feed
feet
fei
felipe
felix
female
femina
fen
fenomena
fense
ferdinand
ferdinando
fere
ferguson
fermentasi
fermented
ferna
fernandez
fernando
ferrara
ferrari
ferry
fest
festival
fever
ff
ffi
fi
fia
fiction
ficus
field
fifa
fifi
fifth
fight
fighter
fighters
fighting
figur
figure
figures
fiji
fiksi
filamen
file
filem
fileme
files
filipina
filipino
filipus
film
filme
filmfare
filmindonesia
filming
films
filologi
filosofi
filosofis
fils
filsafat
filsuf
filum
final
finalis
finance
financial
finansial
find
findbestscript
finding
fine
finish
finisi
finlan
finland
fiorentina
fiqh
fiqih
fir
fire
firefox
firenze
firma
firman
first
fiscal
fischer
fish
fisher
fisie
fisik
fisika
fisikawan
fisiologi
fisip
fitri
fitur
fitzgerald
five
fk
fl
flag
flags
flamsteed
flash
flat
flavonoid
flavor
flavors
fleet
fleksibel
fleming
fletcher
flight
flood
flora
florence
flores
florida
flour
flower
flowers
flu
fluida
fly
flying
fm
fo
focus
foden
fokus
folk
folklor
folklore
fone
fonem
font
fontainebleau
foo
food
foods
foot
football
footballers
for
forbes
force
forces
ford
foreign
forest
forever
form
formal
formasi
format
formation
former
forms
formula
fort
fortune
forum
forward
fosfat
fosfor
fosil
foster
foto
fotografi
foton
fotosintesis
found
foundation
founder
four
fourth
fox
fr
fra
frac
fragme
fragmen
fraksi
framework
franc
francais
france
frances
francesco
franchise
francis
francisco
franck
franco
frank
frankfurt
franklin
franky
frans
fransiskus
franz
frasa
fraser
fre
freak
fred
freddie
freddy
frederick
free
freedom
freeman
freiburg
frekuensi
french
fresh
fric
friday
fridolin
fried
friedrich
friend
friends
friendship
friesland
fritz
from
front
frost
frozen
fruit
fruits
fruktosa
ft
ftv
fu
fuad
fubuki
fuji
fujian
fujica
fukui
fukuoka
fukushima
fulham
full
fumio
fun
function
fund
fung
fungi
fungsi
fungsine
fungsinipun
fungsional
furious
further
fusi
fussballdaten
futsal
future
fx
g
ga
gabah
gabe
gabon
gabriel
gabung
gabungan
gabus
gad
gada
gadah
gadang
gadhah
gadhahi
gadhang
gadhe
gadhing
gadho
gadhung
gading
gadis
gadjah
gado
gae
gaga
gagah
gagak
gagal
gagang
gagange
gagap
gagasan
gagat
gage
gagrag
gah
gai
gaib
gaillard
gaisha
gajah
gajbe
gaje
gaji
gajih
gak
gake
gal
gala
galak
galaksi
galang
galaxy
gale
galeri
galicia
galih
galihe
galile
galis
gallery
gallia
gallo
galuh
galur
gama
gaman
gambang
gambar
gambaran
gambare
gambia
gambir
gamblang
gambuh
gambut
gambyong
game
gamelan
games
gamma
gampang
gampengreja
gampil
gamping
gampong
gams
gan
gana
ganas
gancaran
ganda
gandane
gandha
gandhe
gandheng
gandhengane
gandhi
gandra
gandring
gandrung
gandum
gane
ganesha
gang
gangga
ganggang
ganggu
gangguan
gangsa
gangsal
gangsir
gangster
gani
ganja
ganjaran
ganjil
ganti
gantine
gantos
gantosipun
gantung
gantungan
ganyong
gaon
gap
gapeka
gapit
gapura
gar
gara
garakr
garam
garan
garang
garap
garapan
garasi
garba
garci
garcia
garda
garde
garden
gardens
gardner
gare
garebeg
gari
garing
garis
garpu
garuda
garudha
garung
garut
garwa
garwane
garwanipun
gary
gas
gasherbrum
gastronomi
gat
gata
gate
gatel
gates
gathotkaca
gathuk
gati
gatif
gatot
gatra
gatsby
gauchat
gaul
gavin
gawa
gawan
gawang
gawat
gawe
gawean
gaweane
gawene
gaweyan
gaweyane
gay
gaya
gayam
gayane
gayo
gayuh
gayut
gayutan
gayutane
gaza
gazette
gazetteer
gb
gc
gcatholic
gd
gdan
ge
gear
gebang
gebog
gede
gedhang
gedhe
gedheg
gedhene
gedhi
gedhong
gedhung
gedung
gegaman
gegandhe
gegandhengan
gegayuhan
gegayutan
gegayutane
gegayutanipun
geger
gegere
gegodhongan
gegremet
geguritan
geisha
gejala
gek
gekisaka
gekko
gel
gela
gelandhang
gelang
gelap
gelar
gelaran
gelas
gelatin
gelderland
gelem
gelembung
gelis
gelombang
gelut
gema
gemah
gemak
gembel
gembira
gembong
gemeente
gemini
gempol
gemuh
gen
genah
genawati
gencatan
gende
gender
gendera
gendhe
gendhing
gendhis
gendra
gendul
gene
genep
genera
generaal
general
generasi
generation
generic
genesis
genetic
genetics
genetik
genetika
geneva
geneya
geng
geni
genine
genius
genoa
genocide
genre
genta
gente
genthong
genti
genus
geo
geoffrey
geofisika
geografi
geografis
geographic
geographical
geography
geological
georg
george
georges
georgetown
georgia
georgian
georgii
ger
gerah
gerak
gerakan
gerald
gerard
gerbang
gerbong
gere
gereja
gerejawi
gerhana
gerhard
gerilya
germain
german
germany
gesang
gesangipun
get
getah
geter
gethuk
getih
getihe
gets
getting
getun
gg
gh
ghana
ghee
ghost
ghoul
gi
gia
giant
gianyar
gibraltar
gibran
gibson
giddens
gie
gif
gifu
giga
gigacatholic
gigi
gil
gila
gilang
gilap
gilbert
giles
gili
gilig
giling
gilingan
giliran
gill
gillingham
gim
gimbal
gin
gina
ginakaken
ginanipun
ginataang
ginawe
ginger
gingsir
gini
ginjel
ginsburg
ginseng
ginuk
gion
giorgio
giorni
giovanni
giri
giring
girl
girls
giro
gisik
gislatif
gita
gitar
gitaris
gitik
giuseppe
give
given
gives
giyanti
giyaran
giza
gizi
gja
gjan
gkr
gl
glacier
gladhe
gladhen
gladri
glagah
glandhang
glang
glasgow
glass
gle
glen
glenn
glepung
glikogen
glise
global
globalisasi
globalization
globalsecurity
globe
gloria
glory
glossary
gludhug
glugu
glukosa
glundhung
gluten
gme
go
goa
goal
gobis
gochujang
god
godhog
godhogan
godhok
godhong
godhongan
godhonge
godong
gods
goenawan
goes
goesti
gogh
gogok
gogrog
goh
going
gojag
gok
goku
gol
gold
goldberg
golden
goldstein
gole
golek
goleki
golf
golgi
golkar
golong
golongan
golongane
golonganing
gombal
gombe
gombong
gomez
gon
gondhang
gondhangreja
gondhe
gone
gong
goni
gonza
good
goodman
goodreads
google
gor
gora
gordon
gore
goreng
gorengan
gori
gorius
gorky
goroh
gorokan
gorontalo
goryeo
gosip
gosling
gosong
got
gotama
gotik
gotland
gotong
gould
gourcuff
gourmet
gout
gov
government
governor
gowa
gowe
goyang
gp
gr
gra
grabag
grace
graf
grafik
grafis
grag
graha
graham
grahana
graji
gram
gramang
gramedia
grammar
grammy
gran
grana
granada
grand
grande
granit
grant
grapyak
grasindo
grass
gratis
grave
gravitasi
gray
gre
great
greater
greatest
grebeg
greece
greek
green
greenwich
greenwood
greg
greget
gregorii
gregorius
gregory
greja
grejawi
grenada
grenoble
gresik
grey
gribig
griffin
griffith
grik
grikenlan
grimis
grin
griya
griyanipun
gro
grobag
grobogan
grogol
grojogan
gronggongan
groningen
gross
ground
group
groups
grove
growing
growth
grumbul
grunlan
grup
grus
gs
gsm
gsmarena
gt
gu
gua
guacamole
guadalajara
guam
guangdong
guangzhou
guard
guardian
guardiola
guatemala
gubahan
gubeng
gubernur
gubug
guci
gudang
gudhang
gudhig
gue
guerra
guevara
guez
gugat
gugon
gugup
gugur
gugus
gugusan
guh
gui
guide
guidelines
guides
guild
guilelmus
guillaume
guillermo
guine
guinea
guinness
guitar
gujarat
guk
gul
gula
gulai
gulat
gule
gulf
gulik
guling
gulma
gulu
guluk
gulune
gulung
gulungan
gum
gumanti
gumantung
gumathok
gume
gumedhe
gumelar
gumle
gumo
gumpalan
gumre
gumuk
gumuling
gumun
gumuruh
gumuyu
gun
guna
gunakake
gunane
gunawan
gundam
gundhul
gune
gunem
guneman
gung
gunggung
gunggunge
gunggungipun
gunting
guntur
gunung
gunungan
gunungkidul
guo
gupak
gupe
gupta
gur
gurah
gurih
gurit
gurita
guritan
guru
guruh
gurune
gurung
gus
gusi
gustav
gustave
gusthi
gusti
gustine
gut
gutawa
gutenberg
guthe
guwa
guy
guyana
guyon
guyonan
guyu
guyub
gx
gya
gyeonggi
gyo
h
ha
haag
haas
habib
habibie
habitat
hackett
had
hades
hadi
hadiah
hadiningrat
hadis
hadist
hadits
hae
hagia
hagrid
hague
hai
haid
haifa
hainan
haiti
hajar
hajat
haji
hak
hakata
hake
haken
hakgojae
hakim
hakka
hal
hala
halal
halaman
hale
half
halim
hall
halloween
halmahera
halo
halte
ham
hama
hamamatsu
hamanako
hamas
hamataliwa
hamba
hamburg
hamburger
hamengku
hamengkubuwana
hamengkubuwono
hamid
hamilton
hamka
hampir
hampshire
hamzah
han
hana
hanacaraka
hancinema
hand
handbook
hane
hang
hangover
hangul
hanja
hanks
hankyu
hanna
hannah
hannover
hanoi
hans
hansen
hansgeorg
hanshin
hantu
hanung
hanya
hanyar
hanyu
hanzi
happy
hapsari
hara
harahap
harald
harapan
harbor
harbour
harcourt
hard
hardy
hare
harfiah
harga
hari
harian
harimau
harley
harmony
harold
harper
harpercollins
harris
harrison
harry
hars
harsono
hart
harta
hartono
haruhara
harun
harus
harv
harvard
harvey
harvnb
hary
haryanto
haryono
has
hasan
hasanuddin
hasil
hasnah
hassan
hasta
hasyim
hat
hatan
hati
hatta
haute
havana
have
haven
havre
hawa
hawai
hawaii
hawaiian
hawan
hawane
hay
hayam
hayati
haydn
hayes
hayu
hayuk
haywa
hazel
hb
hbo
hbs
hd
hdl
he
head
headline
headphone
health
healthy
hear
heart
hearts
heat
heather
heaven
heavy
hebat
hebrew
hedge
hee
heian
heidelberg
heim
heinrich
heinz
hektar
held
helen
helena
helium
hell
hello
helm
help
helsinki
hemingway
hemoglobin
hen
henderson
hendra
hendrik
hendy
henri
henry
hepatitis
her
hera
herakles
herald
herba
herbal
herbert
hercules
here
heritage
herlambang
herman
hermann
hermes
herna
hero
heroes
herring
herschel
heru
herzegovina
het
heung
hewan
hi
hias
hiasan
hibiscus
hibrida
hiburan
hid
hidangan
hidayah
hidayat
hidayatullah
hidden
hidrasi
hidrogen
hidrokarbon
hidroksida
hidup
hierarchia
hierarchy
higashi
high
higher
highest
hijau
hijriyah
hikayat
hikmah
hiku
hilal
hilang
hilir
hill
hillary
hillenburg
hills
him
himalaya
hime
himeji
himpunan
hin
hindhia
hindhu
hindi
hindia
hindu
hing
hingga
hip
hipote
hipotesis
hipparcos
hira
hiragana
hirokazu
hiroshi
hiroshima
his
histoire
historia
historic
historical
historique
historis
history
hit
hitam
hitler
hits
hiu
hiv
hiya
hiyu
hj
hk
hke
hkt
hl
hlm
hm
hms
hne
hnik
hning
ho
hob
hobi
hoe
hoeve
hoffman
hogwarts
hok
hoki
hokkaido
hokkien
hold
holdings
hole
holiday
holland
hollywood
holmes
holocaust
hologram
holt
holy
home
homepage
homme
homo
hon
honda
honduras
honey
hong
honggari
hongkong
honolulu
honor
honshu
hoo
hood
hoon
hop
hope
hopkins
hoppus
hora
hordaland
horison
horisontal
hormon
horor
horror
hors
horse
hospital
host
hot
hote
hotel
hotspur
houghton
hour
hours
house
houston
how
howard
howarth
hp
hr
hsu
htm
html
http
https
hu
hua
huang
hub
hubert
hubungan
hubungane
huda
hudson
huffington
hugh
hughes
hugman
hugo
hui
hujan
huk
hukum
hukuman
hull
hulu
hum
human
humaniora
humanities
humas
humboldt
humor
hun
hunan
hundred
hung
hungaria
hungarian
hungary
hunt
hunter
huntington
hurt
huruf
hurup
husada
husain
husein
husin
hussein
husserl
hut
hutan
huwus
hwa
hwan
hwang
hyang
hyderabad
hydra
hye
hyo
hyogo
hypothesis
hyuk
hyun
i
ia
iain
ian
iast
iata
iba
ibadah
ibadat
ibe
iberia
iblis
ibm
ibn
ibnu
ibrahim
ibrani
ibu
ibuke
ibukota
ibuku
ibukutha
ibumu
ibune
ibunipun
ibvs
ic
ical
icao
ice
iceland
ichibata
ichinomiya
ichiro
ichtiar
icon
id
ida
idaho
idak
ide
idea
ideal
ideas
identification
identik
identitas
identity
ideologi
idhe
idi
idin
idiot
idol
idola
idris
idrus
idu
idul
ie
iec
if
ifah
ig
iga
ign
ignacio
ignatius
ignored
iguana
ih
iho
ihram
ihsan
ii
iida
iii
ija
ijazah
ije
ijem
ijen
iji
ijik
ijin
ijo
ijol
ijolan
ijrah
ik
ika
ikal
ikan
ikang
ikatan
ike
iket
ikhlas
iki
ikip
ikj
iklan
iklim
iko
ikoe
ikon
iku
ikut
il
ila
ilahi
ilang
ilange
ilat
ilate
ilbo
ile
ilegal
iles
ilham
ili
iline
ilining
ilir
illa
illinois
illustrated
illustrator
ilmiah
ilmu
ilmuwan
ilok
iluminasi
ilustrasi
im
ima
image
images
imam
imame
iman
imax
imbal
imbang
imdb
imelda
imf
img
imge
imigran
imigrasi
imlek
immunology
imogiri
impact
impe
impen
imperial
impian
implications
impor
important
impossible
improvisasi
imun
in
ina
inang
inari
inc
inca
incheon
inchi
inci
include
includes
including
incorporated
incumbent
ind
indah
inde
indeks
independen
independence
independent
index
indhi
indhia
indhiya
indhone
indhuk
indhustri
india
indian
indiana
indianapolis
indica
indie
indiewire
indigenous
indikasi
indis
indische
individu
individual
indo
indochina
indone
indonesia
indonesian
indosiar
indra
indragiri
indramayu
indri
indro
induk
induksi
indus
industri
industrial
industries
industry
ine
infanteri
infe
infection
infeksi
inflamasi
inflasi
influence
influenza
info
infobox
informal
informasi
informatika
information
infrastruktur
ing
ingakng
ingaran
inge
inggih
inggil
inggilipun
inggris
ingih
ingin
ingkan
ingkang
ingon
ingredients
ingsun
ini
inilah
inisial
injil
inka
inkarnasi
inn
inna
innotuerunt
inovasi
input
insan
insee
inside
insiden
insider
insinyur
inspirasi
instagram
instan
instansi
institusi
institut
institute
institution
instruksi
instrume
instrumen
instrumental
insularum
insulin
int
intan
inte
integral
integrasi
integrated
intel
intelektual
intelijen
intellectual
intelligence
inten
intensif
inter
interactive
interaksi
interaktif
interface
interior
internal
internasional
international
internationale
internazionale
interne
internet
interpretasi
interval
interview
inti
intine
into
introduction
inuyama
inval
invalid
invasi
inve
inventarisasi
invention
invertebrata
investasi
investment
investor
io
ioc
ion
iowa
ip
ipa
ipat
ipb
ipe
iphone
ipin
ips
ipswich
iptek
ipun
iqbal
ir
ira
irah
irahan
irahane
irahanipun
irak
irama
iran
iranian
iranica
iraq
irawan
ire
ireland
irene
ireng
irfan
iri
irian
irigasi
iring
iringan
iris
irisan
irish
irit
iritasi
irlan
irlandia
irma
iron
irung
irunge
irving
is
isa
isaac
isabeau
isabel
isabella
isabelle
isah
isak
isan
isbn
ise
isi
isih
isin
isine
isinen
isining
isinipun
isis
iskak
iskandar
iskandariyah
islam
islamabad
islami
islamic
islamiyah
island
islands
isle
ismail
iso
isoh
isopoda
isotop
isra
israe
israel
israeli
issn
issue
issues
ist
istana
istanbul
istat
istiadat
istilah
istime
istimewa
istirahat
istri
isu
isuk
isyarat
it
ita
itali
italia
italiae
italian
italiana
italy
itb
ite
item
ithik
itik
ito
its
itu
itunes
itung
itungan
iucn
iupac
iuris
iv
ivan
iwa
iwak
iwake
iwan
iwe
ix
ixora
iya
iye
iz
izin
izumo
j
ja
jaan
jaba
jaban
jabang
jabar
jabat
jabatan
jabatane
jabatanipun
jabung
jacar
jack
jackie
jackson
jacob
jacobs
jacques
jadah
jade
jadi
jadwal
jae
jag
jaga
jagad
jagading
jagal
jagat
jagati
jaggery
jago
jagoan
jagongan
jaguar
jagung
jah
jaha
jahat
jahe
jai
jail
jait
jaja
jajah
jajahan
jajal
jajan
jajanan
jajar
jajaran
jak
jaka
jakarta
jakat
jake
jaken
jaket
jakob
jaksa
jal
jala
jalak
jalan
jalanan
jalapen
jalar
jalaran
jalarane
jale
jaler
jali
jalma
jalmi
jalu
jaluk
jalur
jam
jama
jamaah
jamaica
jamaika
jamak
jamal
jaman
jamane
jamanipun
jambe
jambi
jambon
jambu
jambul
james
jami
jamie
jamil
jaminan
jampi
jamu
jamur
jan
jana
janaka
janda
jane
janeiro
janet
jang
jangan
janganan
janger
janggut
jangka
jangkah
jangkar
jangkauan
jangkep
jangkepe
jangkrik
jani
janin
janji
janjine
janma
jantra
jantung
jantunge
januari
january
janur
japa
japah
japan
japanese
jar
jarak
jarake
jarakipun
jaran
jaranan
jarang
jare
jared
jarene
jari
jaring
jaringan
jarit
jaro
jarum
jarwa
jarwane
jas
jasa
jasad
jasane
jasanipun
jasmani
jasmine
jason
jassin
jata
jatah
jatayu
jate
jateng
jathilan
jati
jatibarang
jatim
jatinegara
jatiswara
jatuh
jauh
java
javanese
javier
jawa
jawab
jawaban
jawabe
jawah
jawane
jawara
jawatan
jawi
jay
jaya
jayabaya
jayadrata
jayakarta
jayanagara
jayapura
jayawijaya
jaye
jazirah
jazz
jb
je
jean
jeanne
jeblugan
jebul
jebule
jeff
jefferson
jeffrey
jejak
jejeg
jejer
jejere
jejibahan
jeju
jejuluk
jek
jelas
jeli
jelly
jemaat
jembar
jembare
jembatan
jember
jembrana
jemparing
jempol
jemuwah
jen
jenang
jenar
jenazah
jendela
jenderal
jendral
jene
jeneng
jenenge
jenengku
jenengmu
jenewa
jeng
jenggala
jenggot
jenis
jenjang
jenkins
jennifer
jenny
jensen
jentschura
jentsura
jenuh
jeolla
jeon
jeong
jepang
jepara
jepon
jer
jeremy
jerman
jermanik
jero
jeroan
jerome
jeron
jerone
jeroning
jerry
jersey
jeru
jeruk
jerusalem
jesse
jessica
jesu
jesus
jet
jetis
jewish
jews
ji
jia
jiang
jihad
jika
jil
jilbab
jilid
jim
jima
jimakir
jimat
jimmy
jin
jina
jinah
jing
jingga
jinis
jinise
jinising
jinisipun
jinja
jinny
jinten
jipang
jisim
jit
jiwa
jiwane
jj
jk
jkt
jl
jle
jm
jmpl
jo
joa
joachim
joan
job
jobs
jocara
jochanan
jodho
jodoh
joe
joel
joey
jog
jogan
joge
joged
jogi
jogja
jogjakarta
joglo
johan
johann
johannes
johannesburg
johansson
johar
john
johnny
johns
johnson
johnston
johor
join
joins
joint
joko
jokowi
jombang
jomblo
jon
jonah
jonas
jonathan
jones
jong
jonggrang
jongmyo
joni
joo
joon
joongang
jordan
jorge
jorong
jos
jose
josef
joseon
joseph
josephi
josephine
josh
joshua
journal
journey
jours
joy
joyce
jp
jpg
jr
jre
jro
jroning
jstor
ju
juan
juara
jubah
jubin
judhe
judhul
judhule
judith
judul
judulfilem
judy
juga
jugul
jujugan
jujur
jul
jules
juli
julia
julian
julie
juliet
julio
julius
julukan
julung
july
jum
jumadi
jumangkah
jumat
jumbuh
jume
jumeneng
jumlah
jumlahe
jump
jumrah
jumuwah
jun
june
jung
jungkat
jungle
juni
junior
juniore
juniors
jupe
jupiter
jupuk
jur
juragan
jurang
juri
jurnal
jurnalis
jurnalisme
jurnalistik
juru
jurus
jurusan
jus
jusqu
just
justice
justin
jusuf
juta
juventus
juwana
juwara
jv
jw
jyp
k
ka
kaadilan
kaagamaan
kaajaiban
kaamanan
kaamot
kaanan
kaanane
kaancam
kaanggep
kaanggit
kaanggo
kaangkat
kaarahaken
kaaran
kab
kaba
kabab
kababar
kabangsan
kabangsane
kabangun
kabar
kabare
kabat
kabawah
kabayan
kabe
kabecikan
kabegjan
kabeh
kabel
kabeneran
kabetahan
kabetyikane
kabijakan
kabikak
kabin
kabine
kabinet
kabisan
kabiskopan
kabotan
kabudayan
kabuka
kabukak
kabukten
kabukti
kabul
kabungahan
kabungahane
kabupate
kabupaten
kabur
kabushiki
kabut
kabutuhan
kabutuhane
kaca
kacamata
kacamatan
kacang
kacangan
kacarita
kacariyos
kacathet
kace
kacepetan
kacilakan
kacipta
kacocogna
kacu
kad
kadade
kadadean
kadadeyan
kadadosan
kadal
kadamel
kadang
kadar
kadayan
kade
kademangan
kader
kadhal
kadhang
kadhangkala
kadhaptar
kadhapuk
kadhapur
kadhar
kadhaton
kadhaulatan
kadhawuhan
kadhe
kadhemen
kadhiri
kadhokteran
kadhung
kadhuwuran
kadi
kadipate
kadipaten
kadir
kadiri
kadis
kado
kadohan
kadonyaan
kadonyan
kados
kadosdene
kadosipun
kadosta
kadung
kadunungan
kadurjanan
kady
kadya
kae
kaendahan
kaenem
kaeng
kafe
kafein
kafir
kafka
kagabung
kagambaraken
kagandhe
kaganggu
kagawa
kagawe
kagayut
kage
kagelar
kagem
kagero
kagesangan
kaget
kagiatan
kaginakaken
kagiyaraken
kagiyatan
kagolong
kagoshima
kagunan
kagungan
kagungane
kagunganipun
kah
kahanan
kahanane
kahayan
kahfi
kahuripan
kahyangan
kai
kaido
kaiket
kaimaman
kain
kairing
kairo
kaisar
kaisi
kaitane
kaja
kajaba
kajang
kajarwakaken
kajawen
kajawi
kaje
kajen
kajeng
kaji
kajian
kajibah
kajoran
kajupuk
kajuwaraan
kajuwaran
kak
kaka
kakaisaran
kakak
kakalih
kakang
kakange
kakao
kakawin
kake
kakegawa
kakehan
kakek
kaken
kakerasan
kaki
kakiyatan
kakogawa
kaktus
kaku
kakuasaan
kakung
kakunge
kakurangan
kakuwasaan
kakuwasan
kakuwatan
kal
kala
kalah
kalairan
kalajengaken
kalajengking
kalakon
kalaksanan
kalam
kalamangsa
kalampahaken
kalampahan
kalane
kalang
kalangan
kalangwan
kalasan
kalau
kalawan
kalawarta
kalawarti
kalawau
kalbu
kaldea
kaldhu
kaldu
kale
kalebet
kalebu
kaleh
kaleksanan
kalender
kalendher
kaleng
kalenggahan
kalepatan
kaleresan
kali
kalian
kalibata
kalibening
kaligrafi
kalih
kalihan
kalihipun
kalijaga
kalijambe
kalima
kalimantan
kalimat
kaline
kaling
kalingga
kalinyamat
kalis
kalitengah
kalitidu
kalium
kaliwira
kaliwungu
kaliyan
kalkulus
kalkun
kalla
kalodhangan
kaloka
kalompok
kalong
kalor
kalori
kaloro
kalorone
kalsium
kalteng
kaltim
kaluhuran
kalung
kalungguhan
kaluputan
kaluputane
kalurahan
kaluwarga
kaluwargane
kaluwihan
kam
kama
kamaharajan
kamajaya
kamal
kamampuan
kamangka
kamanungsan
kamar
kamardhikan
kamardikan
kamare
kambang
kambil
kambing
kamboja
kame
kamehameha
kamen
kamenangan
kamentrian
kamera
kamerun
kameyama
kami
kamil
kamis
kamolan
kamot
kamp
kampanye
kampar
kampong
kampung
kampus
kamu
kamulyan
kamungkinan
kamus
kamuswiki
kan
kana
kanaan
kanada
kanadha
kanagawa
kanak
kanal
kanan
kanayama
kanca
kancah
kancaku
kancana
kancane
kancanipun
kancil
kancing
kandang
kandangan
kande
kandel
kandha
kandhaku
kandhane
kandhang
kandhangan
kandhe
kandhel
kandhung
kandhungan
kandhutan
kandidat
kandung
kandungan
kane
kang
kangdjeng
kange
kangelan
kangen
kangge
kanggo
kanggonan
kanggone
kangje
kangjeng
kangkung
kangmas
kangmase
kango
kani
kanigara
kanisius
kanjeng
kanji
kanker
kannada
kano
kanoman
kanopi
kanor
kansai
kansas
kanselir
kant
kante
kanthi
kanthil
kanthong
kanti
kantin
kanto
kanton
kantong
kantor
kantore
kantun
kantya
kantyane
kanugrahan
kanvas
kanwa
kanwil
kanyatan
kaos
kap
kapacak
kapadhetan
kapal
kapale
kapan
kapang
kapanggih
kapanggihaken
kapanlagi
kapapat
kapara
kaparingan
kapas
kapasang
kapasitas
kapasrahaken
kapat
kapatah
kape
kapeksa
kapel
kapemimpinan
kapendhet
kapengkar
kapengker
kapentingan
kaperang
kapercayan
kaperluan
kapernah
kapernahake
kapi
kapilih
kapimpin
kapindho
kapindo
kaping
kapinteran
kapinterane
kapir
kapisah
kapisan
kapisanan
kapisane
kapita
kapitadosan
kapital
kapitalisme
kapitayan
kapitu
kapitunan
kapok
kapolri
kapoor
kaprabon
kaprah
kapre
kapribade
kaprigelan
kaprigelane
kaprigelanipun
kapriye
kapsul
kapte
kapten
kapu
kapuas
kapuk
kapulaga
kapulise
kapuloan
kapundhut
kapungkasan
kapungkur
kapur
kapustakan
kaputusan
kapwa
kar
kara
karachi
karadjan
karaeng
karahayon
karajan
karakter
karakteristik
karam
karame
karamel
karan
karana
karang
karangan
karangane
karanganyar
karangasem
karangbinangun
karanggayam
karanggeneng
karangkobar
karangreja
karangsambung
karangsari
karangtengah
karas
karat
karate
karaton
karawang
karawitan
karbohidrat
karbon
karbonat
karbondioksida
karcis
kardinal
kare
kareben
karel
karemenan
karen
karena
karenan
karep
karepe
karepku
karepmu
karesidenan
karet
kargo
kari
karibia
karie
karier
kariere
karieripun
karikatan
karim
karimunjawa
karir
karire
kariripun
karl
karma
karna
karnataka
karnaval
karnivora
karno
karo
karomene
karone
karsa
karsane
karsaning
karsanipun
karso
karst
karta
kartanagara
kartasura
kartika
kartini
karto
kartu
kartun
karung
karusakan
karuwan
karya
karyane
karyanipun
karyawan
kas
kasa
kasampurnan
kasan
kasanga
kasangsaran
kasar
kasarasan
kasatriyan
kase
kasebar
kasebat
kasebut
kasedhiya
kasehatan
kasekte
kasempatan
kasenengan
kasengsem
kasenian
kasepuhan
kaserat
kaset
kashima
kashmir
kasi
kasih
kasihan
kasil
kasile
kasilipun
kasim
kasiman
kasimpen
kasino
kasiyat
kaskus
kaslametan
kasmaran
kasor
kasoran
kasta
kastard
kastil
kasuburan
kasugihan
kasukman
kasukse
kasuksesan
kasultanan
kasunanan
kasungsun
kasunyatan
kasunyatane
kasunyatanipun
kasur
kasus
kasusahan
kasusastran
kasusun
kat
kata
katak
katalis
katalog
katampi
katamtu
katan
katandhing
katarina
katata
kate
katedral
katedrale
kategori
katekan
katelu
katelune
katentreman
katentremane
katerangan
katetepaken
kathah
kathahipun
kathe
katherine
kathi
kathok
kathryn
kathung
kati
katie
katiga
katimbang
katindakake
katindakaken
katingal
katitik
kato
katolik
katon
katone
katong
katrampilan
katrangan
katre
katresnan
katresnane
katulik
katulis
katulistiwa
katun
katup
katur
katurunan
katut
katutup
kau
kauangan
kaufman
kaukasus
kaul
kaum
kauman
kaundhuh
kaunduh
kaunggulan
kauntungan
kaur
kauripan
kauripane
kaurmatan
kaurut
kautaman
kavaleri
kaw
kawah
kawajiban
kawan
kawangun
kawanuhake
kawasa
kawasaki
kawasan
kawastanan
kawat
kawates
kawe
kawelasane
kawentar
kaweruh
kaweruhe
kawi
kawicaksanan
kawigate
kawigaten
kawigatosan
kawigatosanipun
kawilujengan
kawin
kawinan
kawis
kawit
kawitan
kawitane
kawiwitan
kawoela
kawolu
kawon
kawontenan
kawontenanipun
kawruh
kawujud
kawula
kawulane
kawung
kay
kaya
kayade
kayadene
kayane
kayasa
kayata
kaye
kayon
kayu
kayune
kazakhstan
kb
kbbi
kbs
kc
kd
ke
keabasan
keadaan
keadilan
keagamaan
keahlian
keamanan
keane
keanu
kearifan
kebab
kebacut
kebak
kebakaran
kebanggaan
kebangkitan
kebangsaan
kebatinan
kebaya
kebayoran
kebebasan
kebek
kebeneran
kebidanan
kebijakan
kebo
kebomas
kebon
kebonagung
kebone
kebudayaan
kebume
kebumen
kebun
kebutuhan
kec
kecamatan
kecambah
kecantikan
kecap
kecathet
kecekel
kecelakaan
kecepatan
kecil
kecut
kedade
kedadean
kedaden
kedadeyan
kedadosan
kedah
kedahipun
kedaulatan
kedelai
kedele
kedhaton
kedhele
kedhiri
kedhokteran
kedhu
kedhung
kedhungadhem
kedhungpring
kediri
kedokteran
kedu
kedua
kedudukan
kedung
kedutaan
keempat
keep
kegiatan
kegiyatan
keguruan
kehakiman
kehidupan
kehormatan
kehr
kehutanan
kei
keith
kejaba
kejadian
kejaksaan
kejang
kejawi
kejayaan
kejem
keju
kejuaraan
kejuruan
kekaisaran
kekajengan
kekalahan
kekalih
kekalihipun
kekancan
kekarepan
kekarepane
kekarone
kekasih
kekayaan
kekebalan
kekerasan
kekirangan
kekiyatan
kekuasaan
kekuatan
kekurangan
kekuwatan
kekuwatane
kelahiran
kelainan
kelairan
kelairane
kelakon
kelakone
kelamin
kelangan
kelantan
kelapa
kelas
kelase
kelautan
kelawan
kele
kelebu
kelembapan
keliling
kelima
kelinci
keling
kelingan
kelir
kelly
kelompok
kelopak
keloro
keluarga
kelud
kelumpang
kelurahan
kemah
kemajuan
kemal
kemampuan
kemangga
kemangi
kemangkon
kemasan
kematian
kemawon
kembali
kembang
kembangan
kembange
kembar
kembaran
kembung
kemdikbud
kemenangan
kemendagri
kementerian
kementrian
kemerdekaan
kemhan
kemih
kemiri
kemis
kemiskinan
kempalan
kempul
kemudian
kemukus
kemul
kemungkinan
kemuning
ken
kena
kenal
kenalan
kenanga
kenangan
kenapa
kenari
kencana
kenceng
kencing
kencur
kendali
kendang
kendaraan
kendari
kendel
kendhal
kendhali
kendhang
kendharaan
kendhat
kendi
kene
keng
kenging
kennedy
kenneth
kenny
kenong
kent
kental
kentang
kenthang
kenthel
kentucky
kenya
kenyal
keong
kep
kepada
kepala
kepang
kepanggih
kepara
kepareng
kepausan
kepe
kepeksa
kepemilikan
kepemimpinan
kepenak
kepengin
kepengker
kepentingan
keperawatan
kepercayaan
keperluan
kepethuk
kepetuk
kepil
kepilih
kepincut
keping
kepingin
kepinginan
kepiting
kepiye
kepler
keplok
kepohbaru
keppres
keprabon
kepresidenan
kepriye
keprungu
kepulauan
kepulisian
kepuloan
kepungkur
kepustakaan
keputusan
ker
kera
kerabat
keracunan
kerah
kerajaan
kerajinan
kerak
kerala
keramat
keramik
kerana
kerang
kerangka
kerapu
keras
keraton
kere
keren
kerep
kerepe
kereta
keri
kerinci
kering
keripik
keris
kerja
kerjane
kerjasama
kern
kernel
keroncong
kerr
kersa
kersane
kertajaya
kertanagara
kertas
kertek
kertu
kerucut
kerupuk
kerusakan
kes
kesadaran
kesah
kesalahan
kesan
kesasar
kesatuan
kese
kesehatan
keseimbangan
kesejahteraan
kesel
keselamatan
kesempatan
kesenengan
kesenengane
kesengsem
kesenian
kesepakatan
kesesi
kesetiaan
keshogunan
keslametan
kesugihan
kesultanan
kesurupan
kesusastraan
kesusu
ket
ketahanan
ketaman
ketampa
ketan
ketang
ketanggungan
ketapang
ketara
ketarik
ketat
ketata
ketawang
kete
ketel
ketelu
ketemu
ketentuan
keterangan
kethe
kethok
kethokan
kethoprak
kethuk
ketib
ketiga
ketik
ketika
ketimbang
ketinggian
ketok
ketoke
ketoprak
ketrampilan
ketua
ketulis
ketumbar
ketupat
keturunan
keturutan
ketut
ketuwa
keuangan
keuntungan
keuskupan
kevin
kewajiban
kewala
kewan
kewarganagaraan
kewarganagaraane
kewarganegaraan
key
keyakinan
keyboard
keynes
keyong
keywords
kg
kgpaa
kh
kha
khaldun
khalid
khalifah
khan
khao
khas
khasiat
khatulistiwa
khmer
kho
khusus
khususe
khususipun
ki
kiai
kiamat
kian
kiat
kick
kicker
kid
kidang
kids
kidul
kidule
kidung
kien
kiev
kii
kijang
kik
kike
kiki
kilang
kilat
kile
kilen
kill
killed
killer
killing
kilo
kilogram
kilome
kilometer
kilometres
kim
kimchi
kimi
kimia
kimiawan
kimiawi
kimono
kina
kinabalu
kinang
kinanthi
kinarya
kincir
kind
kine
kinepyakake
kinerja
king
kingdom
kings
kingsepp
kingston
kini
kinira
kinjeng
kinokuni
kinon
kintamani
kinten
kintetsu
kinurmatan
kios
kipas
kiper
kippur
kipun
kir
kira
kirab
kirana
kirang
kiri
kirik
kirim
kiriman
kirk
kis
kisah
kisaran
kisei
kisi
kisinan
kismis
kisruh
kiss
kit
kita
kitab
kitabe
kitchen
kite
kitha
kitlv
kitty
kiwa
kiwane
kiwi
kiyai
kiyamat
kiyat
kiye
kk
kke
kl
kla
klabang
klad
klaim
klairan
klak
klakon
klakuan
klakuane
klamben
klambi
klambine
klambu
klampis
klampok
klan
klangenan
klanjer
klapa
klas
klasa
klasemen
klasifikasi
klasik
klaten
klathe
klaus
klausa
klawan
klawu
kle
klebu
klein
kleru
klik
klinik
klinis
klip
klirong
kliru
klithik
klitoris
kliwat
kliwon
klm
klompok
klopp
klorida
klorofil
klub
kluk
klumpuk
klumpukan
klungkung
kluruk
kluster
kluthuk
kluwung
km
kn
kna
kne
knight
knik
knis
knock
knologi
knopf
know
knowledge
known
ko
koajutor
koala
koalisi
kobar
kobe
kober
kobong
kobongan
kocak
kocap
kocapan
koch
kocok
kod
kodam
kode
kodhak
kodhe
kodhok
kodim
kodok
kodrat
koentjaraningrat
koes
koeswoyo
koetha
kognitif
koh
koi
koin
koinobori
koja
kojinsha
kojur
kok
koki
koko
kokoh
koktail
kol
kola
kolaborasi
kolah
kolaka
kolam
kolang
kole
koleksi
kolektif
kolektor
kolesterol
kolip
kolkata
kologi
kolom
kolombia
kolone
kolonel
koloni
kolonial
kolonialisme
koma
komandan
komando
kombang
kombinasi
kombu
kome
komedi
komentar
komering
komersial
komersil
komet
komik
komisaris
komisi
komite
komitmen
komoditas
komodo
kompak
kompas
kompasiana
kompeni
kompetensi
kompetisi
kompi
kompilasi
komple
komplek
kompleks
komplikasi
komplit
kompone
komponen
komponis
kompor
komposer
komposisi
kompre
komputasi
komputer
komputindo
komune
komunikasi
komunis
komunitas
komuter
kon
konang
konangan
konawe
kondhang
kondhe
kondhisi
kondisi
kondur
kone
konfederasi
konfere
konferensi
konfigurasi
konflik
kong
konggre
kongkon
kongkonan
kongkonane
konglomerat
kongo
kongregasi
kongres
kongsi
konjuk
kono
konomi
konomian
konon
konse
konsentrasi
konsep
konser
konservasi
konservatif
konsili
konsisten
konsistensi
konsonan
konstantinopel
konstelasi
konstitusi
konstitusional
konstruksi
konsultan
konsultasi
konsume
konsumen
konsumsi
kontak
kontan
konte
konteks
kontemporer
konten
kontes
kontra
kontrak
kontraksi
kontraktor
kontras
kontribusi
kontrol
kontrove
kontroversi
kontroversial
konve
konvensi
konvensional
konversi
koordhinat
koordinasi
koordinat
koordinator
kopassus
kope
kopenhagen
koper
koperasi
kopi
kopral
koptik
kor
koran
korasi
korawa
korban
kore
korea
korean
koreana
korem
kori
korinta
korne
korona
koronavirus
korps
korrie
korupsi
kos
kosa
kosakata
kosher
kosistem
kosmetik
kosmologi
kosok
kosong
kosovo
kostjuk
kostrad
kostum
kot
kota
kotabaru
kotagede
kotak
kotamadya
kotawaringin
kote
kothak
kothe
kothong
kotim
koto
kotor
kotoran
kowe
koyok
kph
kpk
kpts
kpu
kr
kra
krab
krabs
krade
kragan
krajan
krajane
krakatau
krako
krama
kraman
kramat
krambil
krana
kranggan
kranjang
kraos
krapyak
kras
krasa
krasak
krasan
kraton
kratone
krayan
kre
kreasi
kreatif
kreativitas
kredit
kresek
kresna
kreta
kreteg
kretek
kri
krida
kridha
krikil
krim
kriminal
kringe
kringet
kripik
kris
krishna
krisis
kristal
kristen
kristiani
kristoes
kristus
kriteria
kritik
kritikus
kriting
kritis
kriya
kroasia
kroll
kromosom
kroncong
kronis
kroya
krt
kru
krucil
krungu
krupuk
krusty
kruton
ks
ksa
ksatria
ksatriya
kse
ksekutif
ksi
ksiko
kspe
kspor
kspre
kstil
ksual
kta
ktar
kte
kti
ktif
ktor
ktron
ktronik
ktt
ktu
ktur
ku
kuah
kuala
kualifikasi
kualitas
kuantan
kuantum
kuasa
kuat
kuba
kubah
kubik
kubis
kubu
kubur
kuburan
kuburane
kubus
kucai
kuchikukan
kuching
kucing
kuciwa
kuda
kudeta
kudhung
kudu
kudune
kudus
kue
kuh
kui
kuih
kuil
kuiper
kuis
kuk
kuku
kukuh
kukul
kukum
kukus
kukusan
kul
kula
kulawarga
kulawargane
kulawarganipun
kulawargi
kuldi
kule
kuli
kuliah
kulina
kuline
kuliner
kulit
kulite
kuliyah
kulkas
kulkul
kulon
kulonan
kulone
kulonprogo
kultivar
kultur
kum
kuma
kumala
kumambang
kuman
kumar
kumat
kumbakarna
kumbang
kume
kumendane
kuminis
kuminisme
kumle
kumparan
kumpeni
kumpul
kumpulan
kumre
kumudu
kun
kuna
kunang
kunci
kuncoro
kuncung
kundur
kunduran
kung
kuning
kuningan
kunir
kunjara
kunjungan
kuno
kunthi
kuntilanak
kuntul
kuntum
kunyit
kupang
kupat
kuping
kupinge
kupiya
kupu
kur
kura
kuran
kurang
kurange
kurator
kurawa
kurban
kurbane
kurdhi
kurdhistan
kurdi
kurdish
kurdistan
kurds
kure
kurikulum
kurma
kurnia
kurniawan
kursi
kursus
kurt
kuru
kurung
kurungan
kurup
kusala
kusan
kusuma
kusus
kususe
kut
kuta
kutai
kutbah
kutha
kuthaarja
kuthamadya
kuthane
kuthawinangun
kutipan
kutu
kutub
kutuk
kuwait
kuwajiban
kuwalik
kuwalon
kuwaos
kuwarasan
kuwasa
kuwat
kuwate
kuwatir
kuwawa
kuwe
kuwi
kuya
kw
kwalitas
kwan
kwang
kwartal
kwartir
kwasa
kwasane
kwon
ky
kyai
kyle
kyo
kyoto
kyrka
kyu
kyung
kyushu
l
la
lab
laba
labe
label
labor
laboratorium
laboratory
labour
labu
labuan
labuh
labuhan
lacaille
lacroix
lada
ladak
ladang
lade
ladhina
ladies
lading
ladrang
laduk
lady
lag
laga
lagerlo
laghune
lagi
lagos
lagu
laguna
lagune
lah
lahan
lahat
lahi
lahir
lahore
lai
laila
lain
lainnya
lair
lairan
laire
lajang
laje
lajeng
laju
lajur
lak
laka
lakake
lakaken
lake
lakes
laki
lakon
lakone
lakoni
laksa
laksamana
laksana
laksmana
laksmi
laktat
laku
lakune
lakuning
laladan
laladane
lale
laler
lali
lalu
lam
lama
laman
lamaran
lamat
lamb
lambang
lambe
lambene
lambert
lambung
lami
laminipun
lamis
lamongan
lampah
lampahan
lampahi
lampahing
lampahipun
lampu
lampung
lamun
lamur
lan
lana
lanang
lanange
lancar
lancashire
lance
lancip
land
landa
landak
landas
landasan
landhak
landhe
landhep
landhesan
landhung
landmark
lands
landscape
lane
lang
langan
lange
langganan
langgar
langgeng
langi
langit
langka
langkah
langkat
langkung
lango
langsung
language
languages
lani
laning
lanjaran
lanjut
lanjutan
lanka
lankan
lantai
lantaran
lante
lantip
lanzoni
lao
laos
lap
lapa
lapan
lapangan
lapis
lapisan
laporan
laptop
lapuran
lar
lara
larahan
laran
larane
larang
larangan
larantuka
laras
larasati
lard
lare
large
largest
lari
larik
larikan
laris
larousse
larry
lars
larson
larung
larus
larut
larutan
larva
las
lasan
lasarus
lasem
laser
lasi
laskar
last
lastauthoramp
lastri
lat
latar
latare
late
later
lateral
latest
lathi
latian
latif
latih
latihan
latin
latine
latiyan
latte
latu
lau
lauk
launch
laura
laureates
lauren
laurence
laurent
laut
lautan
lava
law
lawa
lawak
lawan
lawang
lawange
lawas
lawase
lawe
lawrence
laws
lawu
lawuh
lawuhan
lawung
lay
laya
layak
layanan
layang
layangan
layange
layar
layare
layon
layone
layu
layun
layung
lazare
lazio
lb
lc
lcd
ld
le
lead
leader
leaders
leadership
leading
leaf
league
leah
learning
least
leaves
lebak
lebanon
lebar
lebaran
lebet
lebetipun
lebih
lebokake
lebong
lebu
lebur
lecture
led
lee
leeds
left
leg
lega
legacy
legal
lege
legend
legenda
legendaris
legendary
legendha
legends
legi
legislatif
lego
leicester
leiden
leigh
leila
leipzig
leita
lek
lekas
leksikon
lelabuhane
leladi
lelagon
lelaki
lelakon
lelakone
lelaku
lelampahan
lelana
lelang
lelara
lelayaran
lele
leleh
lelembut
lelorone
leluhur
leluhure
lelungan
lelurahing
lem
lemah
lemahe
lemak
lemari
lembab
lembaga
lembah
lembar
lembaran
lembu
lembut
leme
lemes
lemon
lempeng
lempongan
lempung
lemu
lemut
len
lena
lencana
lendhut
lendir
lenga
lengah
lengan
lengen
lenggah
lengkap
lengket
length
lennon
lenong
lens
lensa
lenteng
lentera
lentho
lentil
leo
leon
leonard
leonardo
leone
leonis
lepas
lepat
lepen
ler
leren
leres
les
lesan
leslie
lesmana
less
lessert
lestari
leste
lesung
let
letak
letake
lete
letjen
letnan
leto
letter
letters
leukemia
leukosit
levant
level
leverkusen
levi
levy
lewat
lewih
lewis
lexicon
lexington
lexus
lez
lezano
lg
lgadhing
lgi
lha
lho
li
lia
liam
liane
liang
liar
libanon
liberal
liberia
liberty
libr
librairie
libraria
library
libreria
libur
liburan
libya
lid
lidah
lie
liechtenstein
life
lifestyle
lifetime
lift
liga
light
lights
ligue
liguria
lih
lihat
lik
likan
like
likur
lila
lilin
lille
lily
lim
lima
limalas
liman
limang
limasan
limbah
limbangan
limburg
lime
limit
limited
limpa
limpung
limrah
limrahipun
lin
lincak
lincip
lincoln
linda
lindhu
lindsay
lindu
line
linear
lines
ling
linga
lingake
lingan
lingga
linggih
lingi
lingira
lingkar
lingkaran
lingke
lingkungan
lingkungane
lingkup
linglung
lingsa
lingsir
linguistic
linguistics
linguistik
link
links
linnaeus
lintah
lintang
lintas
lintasan
linton
linus
linuwih
linux
lio
lion
lionel
lionsgate
lip
lipi
lipid
liputan
liquid
lir
lira
lire
lirih
lirik
liring
liru
lis
lisa
lisah
lisan
lisbon
lise
lisensi
list
listen
listrik
lists
lit
litbang
liter
literary
literasi
literatur
literature
lithuania
lito
litowen
little
littlefield
liturgi
liu
lius
live
liver
liverpool
lives
living
liwat
lix
liya
liyan
liyane
liye
lk
lkis
lkisede
ll
lla
llah
llc
ller
lll
lloyd
lm
lmiah
lmiyah
lmu
lmuwan
ln
lo
loan
lobak
lobi
lobster
local
locale
located
location
lodan
lodang
loe
loewih
log
logam
logan
logat
logika
logistik
logo
loh
loire
loji
lok
loka
lokal
lokasi
lokomotif
lola
lolos
lomba
lombardia
lombok
lon
lonce
lonceng
london
lone
lonely
long
longgar
longsor
loni
lonjong
lontar
lonthong
lontong
look
looking
loop
lopez
lor
lord
lore
lorentz
lorenzo
lori
loro
lorone
lorong
lorraine
los
losari
loss
losses
lost
lot
lotus
lou
louis
louise
louisiana
louvre
love
lover
lovers
low
lowe
lower
lowong
loyola
lp
lpi
lpon
ls
lsp
lt
ltd
lu
lua
luar
luas
lubang
lube
lubis
lublin
lubuk
lubuklinggau
luc
luca
lucas
lucia
luck
lucky
lucu
lucy
ludira
ludwig
lufthansa
lugu
luh
luhur
lui
luigi
luis
luk
luka
lukas
luke
lukis
lukisan
lukman
luksemburg
lula
lulang
lule
luluh
lulus
lulusan
lulut
lum
lumah
lumahing
lumajang
lumaku
lumakune
lumampah
lumantar
lumawan
lumayan
lumayu
lumba
lumbis
lumbu
lumbung
lume
lumebet
lumebu
lumia
lumpang
lumpia
lumpuh
lumpur
lumrah
lumrahe
lumut
lun
luna
lunak
lunar
lund
lung
lunga
lungan
lungane
lungguh
lungguhan
lungguhe
lungse
lunta
luntur
lunyu
lupa
lupus
luput
lur
lurah
lurik
luru
lurung
lurus
lus
lusi
lut
luther
lutheran
luthfi
lutung
luwak
luwang
luwangan
luwar
luwe
luweh
luwes
luwih
luwu
luwung
lux
luxembourg
luxury
luzon
lwir
lydia
lyga
lynch
lynn
lynx
lyon
m
ma
maanyan
maatschappij
mabuk
mabul
mabur
mac
maca
macak
macam
macan
macapat
macau
macdonald
mace
macem
maceme
macet
machine
macmillan
mad
mada
madagascar
madagaskar
madahab
madal
madame
madang
madani
made
madeg
madegaken
madege
madeira
madeleine
madhang
madhangi
madhani
madhe
madhep
madhul
madhya
madinah
madison
madiun
madonna
madosi
madras
madrasah
madrid
madu
madukara
madura
madya
madyaning
mae
maeda
maem
maen
maestro
mag
magang
magazen
magazine
mage
magelang
magepokan
magetan
maggie
maghrib
magic
magis
magister
magna
magne
magnesium
magnet
magnitudo
magrong
mah
maha
mahabarata
mahabharata
mahakam
mahal
mahamantri
mahan
mahaputera
mahaputra
maharaja
maharani
maharashtra
mahasiswa
mahayana
mahdi
mahe
mahipun
mahisa
mahkamah
mahkota
mahmud
mahoni
mahu
mai
maia
maido
mail
main
mainake
mainan
maine
mainichi
mainke
mainstream
maint
mainz
maizuru
maja
majakerta
majalah
majalengka
majapahit
majapait
majatengah
maje
majelis
majemuk
majeng
major
maju
mak
maka
makalah
makam
makan
makanan
makaping
makarya
makasar
makassar
makate
makaten
makau
make
makedonia
makes
makhluk
maki
makili
makin
making
makiyyah
makkah
makkiyah
makluk
makmur
makna
maknane
makro
maksimal
maksimum
maksud
maksude
makutha
mal
mala
malabar
maladewa
malae
malaekat
malah
malahan
malai
malaikat
malaka
malam
malang
malankara
malaria
malawi
malay
malaya
malayalam
malaysia
malaysian
malayu
malcolm
male
malebet
malem
males
mali
malih
malik
malin
maling
malioboro
mall
malo
malt
malta
malu
maluku
mama
mamah
mamak
mamalia
maman
mamang
mamasa
mambu
mame
mami
mampir
mampu
mamuju
man
mana
manado
management
manager
manah
manahipun
manajemen
manajer
manak
manawa
manawi
manca
mancala
mancanagara
manchester
manchu
mancing
mancur
manda
mandailing
mandala
mandalay
mandar
mandarin
mandat
mande
mandeg
mandek
mandeng
mandhala
mandhap
mandharin
mandhe
mandheg
mandhegani
mandhek
mandhiri
mandi
mandiraja
mandiri
mandu
mane
maneh
maneka
manfaat
mang
manga
mangan
mange
mangerte
mangerteni
mangerti
mangertos
mangertosi
mangga
manggala
manggang
manggarai
mangge
manggih
manggihaken
manggihi
manggil
manggis
manggon
manggone
manggoni
manggung
mangidul
mangisor
mangka
mangkana
mangkat
mangke
mangkel
mangkene
mangkin
mangkok
mangkono
mangku
mangkubumi
mangkuk
mangkunagara
mangkunagaran
mangkunegaran
mangkurat
mango
mangro
mangrove
mangsa
mangsane
mangsi
mangsuli
mangu
mangulon
mangun
manhattan
mani
mania
manik
manila
maning
manis
manisan
manjing
mann
manokwari
mans
mansur
mantan
mante
manteb
manten
mantep
manthuk
mantingan
manto
mantra
mantri
mantu
mantuk
mantune
mantup
manu
manual
manuel
manufaktur
manuhake
manuk
manunggal
manunggaling
manungsa
manusa
manuscript
manusia
manuskrip
manut
many
manyar
manz
manzai
mao
maoe
maos
map
mapa
mapag
mapan
maple
maps
mar
mara
maradona
maragakake
maragani
marah
marahi
marai
maraja
marak
marakake
marakke
maran
marang
marani
maranta
marapi
maratuwane
marc
marcel
march
marche
marco
marcos
marcus
mardi
mardika
mare
marek
marem
maret
marga
margaret
margarin
margasatwa
margayasa
margi
mari
maria
mariana
marie
marilyn
marin
marina
marine
maring
maringaken
maringi
marinir
marino
mario
marion
marisi
marissa
maritim
maritime
mark
markas
markase
market
marketing
marks
markus
marley
marma
marmer
marne
marno
maroko
maronit
maros
marriage
married
mars
marseille
marsekal
marsh
marsha
marshal
marshall
marshmallow
marsudi
marta
martabak
martabat
martapura
marten
martha
marti
martin
martini
martinique
martinus
martir
martono
marty
maru
marupakan
marvel
marx
mary
maryam
maryland
marzuki
mas
masa
masak
masakan
masala
masalah
masan
masang
masarakat
masayu
mase
masedonia
masehi
masih
masing
masiya
masjid
masjidil
maskape
masker
maskot
mason
masrahake
masrahaken
masrahke
mass
massa
massachusetts
massal
mastani
master
masters
masuk
masyarakat
mat
mata
matahari
matan
matane
matang
mataram
mataraman
mataun
match
mate
matematika
mateng
mateni
materi
material
materials
mateus
mathbf
mathematics
mathias
mathuk
mati
matika
matikawan
matine
matisse
matius
matra
matsue
matsumoto
matsuri
matt
matter
matthew
matur
maturkesuwun
maturnuwun
matya
mau
maudy
maujud
maulana
maune
maupun
maurice
mauritania
mauritius
maut
mawa
mawar
mawarni
mawe
mawi
mawon
mawut
max
maxwell
may
maya
mayang
mayangsumirat
mayat
mayer
mayit
mayjen
mayo
mayones
mayong
mayor
mayoritas
mazda
mazmur
mb
mba
mbabar
mbabarake
mbacutake
mbaga
mbage
mbagi
mbah
mbahan
mbahane
mbahas
mbahe
mbahyang
mbak
mbaka
mbako
mbakyu
mbakyune
mbalang
mbale
mbaleni
mbales
mbalik
mban
mbang
mbangan
mbanget
mbangun
mbantah
mbantu
mbaptis
mbar
mbara
mbarang
mbarep
mbat
mbatalake
mbatesi
mbayar
mbc
mbe
mbebasake
mbebayani
mbedakake
mbeksa
mbekta
mbela
mbenerake
mbengi
mbengok
mbentang
mbentuk
mber
mberkahi
mbesuk
mbeta
mbetahaken
mbikak
mbina
mbintangi
mbir
mbiwara
mbiyantu
mbiye
mbiyen
mbl
mblayu
mble
mbledhos
mbobot
mbok
mbokmanawa
mbokmenawa
mbong
mboten
mbr
mbran
mbrana
mbre
mbudidaya
mbug
mbugan
mbuh
mbuk
mbuka
mbukak
mbukte
mbuktekake
mbul
mbulan
mbun
mbung
mbungan
mbungkus
mbur
mburi
mburine
mburu
mbus
mbusak
mbut
mbutuhake
mbutuhke
mbuwang
mbyah
mc
mccarthy
mcdonald
mcgrath
mcgraw
mclaren
mcnary
md
mdpl
me
mead
meal
meals
mean
meaning
means
meat
mecah
mecahake
med
medal
medalaken
medali
medalists
medan
medang
mede
medeni
medhali
medharake
medhia
medhot
medhun
media
medical
medicine
medieval
medii
medis
mediterania
mediterranean
medium
medun
mee
meet
meeting
meets
mega
megah
megan
megang
megat
megatron
megatruh
megawati
meh
mei
meiji
mein
meitetsu
meja
mejahi
mekah
mekanik
mekanika
mekanisme
mekar
mekarsari
mekaten
mekong
meksa
meksiko
mel
melaka
melakukan
melalui
melanie
melas
melathi
melati
melawan
melayu
melbourne
mele
melik
meliputi
melissa
melkit
mello
melly
melodi
melody
melon
melu
meluni
memala
memang
membaca
membangun
membawa
membentuk
member
memberikan
members
membran
membuat
memburi
meme
memedi
memilih
memiliki
memoir
memoirs
memori
memorial
memory
memper
memphis
memuji
memulang
men
menak
menang
menangake
menangaken
menangi
menangke
menapa
menara
menarik
menawa
menawi
mencapai
mencari
mencok
mendadak
mendel
mendem
mendhang
mendhem
mendhet
mendhung
mendhuwur
mendoza
mendut
mene
meneh
menehake
menehi
meneng
menengah
meng
menga
menganti
mengapa
mengarang
mengaruhi
mengenai
mengenal
mengenang
mengeti
menggak
menggok
menggunakan
menging
mengke
mengkene
mengko
mengkone
mengkono
mengku
mengo
mengsah
mengwi
menika
meninggal
menit
menjadi
menjang
menstruasi
mentah
mental
mentas
mentawai
mente
mentega
menteri
mentri
menu
menuju
menulis
menurut
menyan
menyang
menyat
mer
merah
meraih
merak
meranake
merang
merangi
merapi
merauke
merbabu
mercedes
mercury
mercusuar
merdamel
merde
merdeka
merek
mereka
meres
merga
mergane
meriah
meriam
meringue
merlokake
mermaid
merpati
merriam
merry
meru
meruhi
merupakan
mes
mesakake
mesem
mesin
mesir
mesjid
meski
mesopotamia
mesra
message
messagero
messaggero
messaging
messi
messier
mesthe
mesthi
mesthine
mesti
mestine
met
meta
metabolisme
metacritic
metal
metana
mete
meteng
meteor
meteorologi
meter
method
methods
methuk
metode
metoe
metro
metropolitan
metu
metune
metz
mewah
mexican
mexico
meyer
mez
mg
mgm
mgr
mh
mhz
mi
mia
miami
miber
micara
michael
michel
michele
michelle
michigan
mickel
mickey
microbiology
microsoft
mid
midak
middle
middlesbrough
mide
midfielder
midhangetaken
midi
midnight
mie
mifflin
mig
migas
migran
migrasi
miguel
migunakake
migunakaken
migunani
mije
miji
mijil
mik
mika
mikawa
mike
mikhail
miki
mikir
mikirake
mikire
mikirke
mikro
mikroba
mikroorganisme
mikroskop
mikul
mil
mila
milai
milan
milang
milano
mile
milea
miles
mili
miliar
milih
milik
military
milite
militer
milk
mill
miller
millet
million
millionaire
mills
milo
milton
milu
milwaukee
milyar
mimbar
mimi
mimika
mimis
mimpang
mimpi
mimpin
min
mina
minagka
minahasa
minami
minang
minangka
minangkabau
minangkabo
minangkani
minangla
minar
minat
minato
mind
mindanao
mindha
mindhah
mine
mineral
ming
minge
minggah
minggat
minggir
minggon
minggu
mingguan
mingse
minh
mini
miniatur
minimal
minimum
minister
ministry
minneapolis
minnesota
mino
minor
minoritas
mint
minta
minul
minulya
minum
minuman
minutes
minyak
mio
mir
mira
mirabilis
miracle
mirah
miranda
mirdad
mire
mireng
mirengaken
miri
mirib
mirin
miring
mirip
miris
mirit
mirong
mirror
mirsani
mirunggan
mirza
mis
misa
misah
misahake
misahaken
misahke
misale
misalnya
misao
misaya
mise
misi
misil
misionaris
miskin
miso
miss
missing
mission
mississippi
missouri
misteri
misterius
mistik
misuh
misuwur
mit
mitchell
mite
mitokondria
mitologi
mitos
mitra
mitrane
mitrut
mitsubishi
mitulungi
miturut
mituturi
miwah
miwiti
mix
miyos
miyoshi
miyosipun
mizan
mk
ml
mlajar
mlaku
mlakune
mlampah
mlarat
mlathi
mlayu
mle
mlebet
mlebu
mlebune
mlengkung
mligi
mligine
mliginipun
mlinjo
mliwis
mls
mlumah
mlumpat
mm
mms
mnc
mnet
mo
mobil
mobile
moch
mochi
mochtar
modal
mode
model
models
modem
modena
modern
modhal
modhe
modhel
modhern
modifikasi
modul
module
moelane
moeng
moenggoeh
moga
mogha
mogok
moh
mohamad
mohamed
mohammad
mohammed
mohd
mojar
mojo
mojokerto
mok
mokal
mokrasi
mokrat
mokratik
mokratis
mokta
mol
molah
molai
molase
moldova
mole
molecular
molekul
molekular
molekuler
molen
molie
molly
moluska
moment
momo
momong
momongan
momot
momotan
mon
mona
monaco
monako
monarki
monasterii
monastery
monce
moncong
monde
mondhok
monet
moneter
money
mong
mongkog
mongol
mongolia
mongondow
mongsa
moni
monica
monitor
mono
monogatari
monokrom
monopoli
monoponik
monroe
monsieur
monster
monsters
monstrasi
mont
montana
monte
montenegro
montevideo
montgomery
month
monthly
montor
montore
montpellier
montreal
monume
monumen
monument
monuments
monyet
moon
moore
mor
moral
morales
more
moreno
morfologi
morgan
mori
morning
moro
morocco
morowali
morris
morrison
morton
mos
moscow
moses
mosi
moskow
moskwa
mosok
mosque
most
mot
mother
motif
motion
motivasi
moto
motogp
motong
motor
motore
motorola
motors
mount
mountain
mountains
mouse
move
movement
moves
movie
movies
moyang
moyes
moyoki
mozambik
mozzarella
mp
mpa
mpah
mpak
mpal
mpan
mpe
mper
mph
mpil
mping
mpis
mpit
mplah
mple
mplok
mplung
mpo
mpok
mpol
mpon
mpr
mpre
mprong
mpu
mpuh
mpuk
mpul
mpun
mpung
mpur
mpus
mpyak
mpye
mr
mrabawani
mrambat
mrana
mrangge
mratandhani
mrate
mratelakake
mratelakaken
mre
mrene
mrentah
mrica
mrico
mrih
mrika
mriki
mriksa
mriksani
mriku
mring
mripat
mripate
mripatku
mripatmu
mrodhuksi
mroduksi
mrono
mrs
mrupakan
ms
msc
msn
mt
mts
mtv
mu
muammar
muara
mubarak
mube
mubeng
mucal
much
muchlisin
mud
muda
mudah
mudha
mudheng
mudhi
mudhun
mudhunake
mudhune
mudik
mudun
mufti
muga
mughal
mugi
muhamad
muhammad
muhammadiyah
mui
muja
muji
mujijat
mujudake
mujudaken
mujur
muk
muka
mukim
mukmin
muko
mukti
mul
mula
mulai
mulak
mulan
mulane
mulang
mulangi
mulat
mule
mulia
mulih
muljana
mulo
multi
multimedia
multiple
mulud
mulus
mulut
mulya
mulyadi
mulyani
mumbai
mumbul
mumet
mumi
mumpangate
mumpung
mumpuni
mun
muna
muncar
muncul
muncule
mundak
mundhak
mundhut
mundur
mune
mung
mungel
munggah
mungguh
mungguhing
munggw
mungkasi
mungkin
mungkur
mungsuh
mungsuhe
mungsuhmu
muni
munich
municipal
municipality
munisipalitas
munjuk
muntab
muntah
muntilan
mupangat
mupangate
muput
mur
murah
murai
murang
murba
murda
murder
muri
muria
murid
muride
muridipun
muridku
murih
muring
murka
murkane
murni
murphy
murray
murub
murung
murup
mus
musa
muse
museum
musi
musibah
music
musica
musical
musik
musikal
musike
musikipun
musikus
musim
musiman
musisi
musiyum
musk
muslim
muslimin
muslims
musna
muspra
must
mustafa
mustaka
mustar
musuh
musyawarah
mut
mutah
mutasi
mute
muter
mutiara
mutlak
mutu
mutusake
mutusaken
muwah
muwuhi
mv
mw
mwang
mx
my
mya
myanmar
myquran
myspace
mystery
myth
mythology
myths
myung
n
na
naan
nabati
nabe
nabi
nabire
nabrak
nabuh
nacional
nad
nada
nadi
nadia
nadu
nadyan
nafas
nafsu
naga
nagano
nagara
nagaragawa
nagarakretagama
nagarane
nagarantara
nagari
nagasaki
nagasari
nagih
nagoya
nah
nahan
nahdlatul
nai
naik
nairobi
najan
najis
nak
naka
nakagawa
nakake
nakal
nake
nakoni
nakula
nal
nala
nalar
nale
nalika
nalikane
nalikanipun
nalumsari
nam
nama
namakake
namaku
naman
namanipun
namatake
nambah
nambahake
nambahaken
nambahi
nambani
name
named
names
nami
namibia
naming
nampa
nampani
nampe
nampi
nampik
nampilake
nampilaken
nampilke
nampung
namun
namung
nan
nana
nanah
nanas
nancy
nandang
nandangi
nandatangani
nandhakake
nandhang
nandhani
nandur
nane
nanem
nang
nanga
nangan
nangani
nange
nanggap
nanggapi
nanggepi
nanggroe
nanggulangi
nanggung
nanging
nangis
nangka
nangkep
nani
naning
nanipun
nanjak
nanjing
nano
nanote
nantang
nantes
nao
naomi
napa
napak
napakasmani
napas
napati
naples
napoleon
napoli
napsu
nar
nara
narada
naraguna
naraka
narana
nararya
narasi
narator
narayana
narendra
nares
nari
narik
narima
nario
narita
narkoba
narkotika
narpawandawa
narti
narto
naruto
nas
nasa
nasare
nascar
nasdem
nashville
nasi
nasib
nasibe
nasihat
nasional
nasionalis
nasionalisme
naskah
nassau
nasser
nastiti
nasution
nat
nata
natal
natalie
natasha
nate
natha
nathan
nathaniel
nation
national
nationale
nationalism
nations
native
nato
natrium
natsir
natuna
natur
natural
naturalis
nature
nauru
naval
naver
navigasi
navy
nawa
nawakake
nawani
nawi
naya
nayaka
nazi
nba
nbc
nc
nca
ncak
ncang
ncangipun
ncar
nce
nchen
nchez
ncing
nct
ncut
nd
nda
ndadak
ndade
ndadekake
ndadikake
ndadosaken
ndah
ndahan
ndak
ndakwa
ndalan
ndalem
ndalu
ndamel
ndan
ndandani
ndang
ndara
ndarbe
ndarbeni
ndaru
ndas
ndat
ndawa
nde
ndedonga
ndel
ndeleng
ndelik
ndelok
ndeme
nder
ndera
nderal
ndesa
ndez
ndh
ndha
ndhah
ndhak
ndhaki
ndhal
ndhalang
ndhang
ndhani
ndhapuk
ndharat
ndhas
ndhase
ndhat
ndhe
ndhelik
ndhelikake
ndher
ndherek
ndhi
ndhik
ndhil
ndhing
ndhisik
ndhisiki
ndho
ndhodhok
ndhog
ndhok
ndhol
ndhon
ndhong
ndhuk
ndhukung
ndhung
ndhungkluk
ndhut
ndhuwur
ndhuwure
ndi
ndilalah
ndir
ndisik
ndle
ndokoki
ndonga
ndongakke
ndra
ndral
ndre
ndro
ndtv
nduduhke
nduk
ndul
ndumati
ndungkap
ndunung
ndunungi
ndunungke
ndut
nduwe
nduweni
nduwur
nduwure
ne
neal
near
nebraska
nebula
nebus
ned
nedahaken
nederland
nederlandsch
nedha
nedya
need
needed
needs
negara
negarane
negari
negatif
negeri
negesake
negosiasi
negri
negro
neil
neill
nek
neka
nekad
nekakake
nekakke
nekani
neko
nelakake
nelasaken
nelayan
nelesi
neliti
nelson
nelukake
nem
nemahi
nemarken
nembak
nembang
nembangake
nembe
nembelas
nembung
nembus
nemen
nemokake
nemokaken
nemoni
nempel
nempuh
nemtokake
nemtokaken
nemu
nen
nenek
nenem
neng
nengen
nengenaken
nengga
nengsemake
neni
nentang
nentokake
neo
nepal
nepangaken
nepenthes
nepsu
neptu
neptune
neptunus
nepungake
nerak
neraka
nerangake
nerangaken
nerasaken
nerasi
nerbitake
nerbitaken
nergi
nerima
nerusake
neruske
nes
nesu
nesune
nesuwela
net
netep
netepake
netepaken
netepi
netepke
netes
netflix
netherlands
netra
netral
network
neuron
neutron
nevada
never
nevitt
new
newcastle
newfoundland
newman
news
newsletter
newspaper
newspapers
newton
next
neymar
nez
ng
nga
ngabari
ngabarke
ngabdi
ngabe
ngabehi
ngabekti
ngablak
ngabrah
ngacu
ngada
ngadani
ngade
ngadeg
ngadegake
ngadek
ngadepi
ngadhe
ngadheg
ngadhep
ngadhepi
ngadiluwih
ngadireja
ngadohi
ngadol
ngadu
ngagem
ngah
ngajak
ngajar
ngajari
ngaje
ngajeng
ngajengipun
ngaji
ngajokake
ngak
ngakake
ngake
ngakeni
ngakibatake
ngakoni
ngaku
ngakune
ngalah
ngalahake
ngalahaken
ngalam
ngalami
ngalang
ngalangi
ngalap
ngale
ngalebokake
ngalengka
ngalih
ngalir
ngalor
ngamanca
ngamati
ngambah
ngambali
ngambang
ngambung
ngame
ngamot
ngampe
ngamuk
ngan
ngana
nganakake
ngancam
ngancani
ngancik
ngandap
ngandarake
ngandel
ngandela
ngandhakake
ngandhani
ngandhap
ngandhaping
ngandhapipun
ngandharake
ngandharaken
ngandhut
ngandika
ngandung
ngandut
ngane
ngangah
ngange
ngangge
nganggep
nganggit
nganggo
nganggokke
nganggur
ngangkat
ngangkud
ngangsu
ngani
nganiaya
nganjuk
ngante
nganthe
nganthi
nganti
ngantos
ngantuk
nganut
ngapa
ngapura
ngapusi
ngar
ngara
ngarah
ngarahake
ngarang
ngarani
ngare
ngarep
ngarepake
ngarepe
ngarepku
ngarsa
ngarsane
ngarsanipun
ngaruh
ngasah
ngasem
ngasi
ngasilake
ngasilaken
ngaso
ngasorake
ngasoraken
ngasta
ngastina
ngat
ngatasi
ngate
ngaten
ngati
ngaton
ngatonake
ngatos
ngatur
ngaturake
ngaturaken
ngaturi
ngawasi
ngawe
ngawen
ngawi
ngawontenaken
ngawula
ngawur
ngayahi
ngayogyakarta
ngayomi
ngc
nge
ngebaki
ngece
ngeculake
ngedalaken
ngedegake
ngedekke
ngedhunake
ngedohi
ngedol
ngedum
ngedunke
ngejabat
ngejak
ngeje
ngeke
ngeklaim
ngelak
ngelakoni
ngelawan
ngelem
ngelih
ngeling
ngelingake
ngelingi
ngeliputi
ngelmu
ngelungke
ngelus
ngembang
ngembangake
ngembangaken
ngemot
ngempalaken
ngemplak
ngemu
ngemunah
ngenal
ngenalake
ngenali
ngenani
ngendhale
ngendhog
ngendi
ngendika
ngendikan
ngendikane
ngene
ngenge
ngengingi
ngente
ngenteni
ngepasi
ngepe
ngepung
ngeraih
ngere
ngerilis
ngerte
ngerteni
ngerti
ngertia
ngertos
nget
ngetan
ngeterake
ngeterke
ngethok
ngeti
ngetokake
ngetokke
ngetop
ngetrapake
ngetung
ngetutake
ngetutke
ngewahi
ngewakili
ngewangi
ngewenehi
ngewrat
ngg
ngga
nggabung
nggabungake
nggadhahi
nggagas
nggah
nggak
nggal
nggambar
nggambarake
nggambaraken
nggambarke
nggampangake
nggan
nggandhe
nggandheng
nggang
ngganggu
nggante
ngganteni
ngganti
nggantos
nggantosaken
nggantung
nggar
nggarap
nggarwa
nggate
nggatekake
nggawa
nggawe
nggayuh
ngge
nggedhekake
nggegirisi
nggelar
nggelarke
nggenah
nggendhong
nggi
nggih
nggik
nggiling
ngginakaken
nggl
nggladhi
nggle
nggo
nggodha
nggodhog
nggodhok
nggok
nggole
nggoleki
nggon
nggone
nggong
nggoni
nggonku
nggonmu
nggoreng
nggosok
nggre
nggring
nggrombol
nggruk
nggugah
nggugat
nggugu
ngguh
nggulung
nggumun
nggumunake
nggumunke
nggunakake
nggung
nggut
ngguyu
nghing
nghulun
ngi
ngibadah
ngicalaken
ngicipi
ngidak
ngide
ngidinake
ngidini
ngidul
ngik
ngiket
ngil
ngilang
ngilangake
ngilangi
ngile
ngilo
ngimbang
ngimbangi
ngimpi
ngin
nginan
ngindari
ngine
nginep
nging
nginge
nginggil
nginggiling
nginggilipun
ngingi
ngingu
nginum
ngipun
ngira
ngirangi
ngiras
ngirim
ngirimake
ngirimi
ngiringi
ngiris
ngirit
ngis
ngisi
ngisin
ngising
ngisor
ngisore
ngit
ngiteri
ngitung
ngiwa
ngiye
ngk
ngka
ngkah
ngkak
ngkal
ngkang
ngkar
ngkara
ngke
ngki
ngklak
ngkle
ngkling
ngko
ngkok
ngkol
ngkong
ngkono
ngkrang
ngkre
ngku
ngkuh
ngkuk
ngkul
ngkung
ngl
nglabuhi
nglacak
nglade
ngladeni
nglairake
nglairaken
nglajengaken
nglakokake
nglakokke
nglakoni
nglale
nglalu
nglamar
nglambangake
nglambangaken
nglampahaken
nglampahi
nglancarake
nglanggar
nglangi
nglangkungi
nglaporake
nglapurake
nglarang
nglarani
nglatih
nglawan
nglayang
nglayani
ngle
nglebetaken
nglebokake
ngleboni
nglegena
nglestantunaken
nglestare
nglewati
nglibatake
nglilani
nglimputi
nglindhungi
nglindungi
nglipur
ngliwati
ngluhurke
nglukis
nglumpuk
nglumpukake
nglumpukke
nglumui
ngluncurake
nglungani
nglungguhi
nglurug
ngluwari
ngluwihi
ngo
ngobahake
ngobati
ngobong
ngobrol
ngok
ngoko
ngolah
ngole
ngolok
ngomah
ngombe
ngombol
ngomong
ngomongake
ngomongi
ngomongke
ngonce
ngong
ngongkon
ngono
ngonsumsi
ngontrol
ngope
ngopeni
ngoperasikake
ngor
ngore
ngos
ngowahi
ngoyak
ngr
ngragadi
ngraho
ngraih
ngramakake
ngraman
ngrambah
ngrampungake
ngrampungaken
ngrampungi
ngrampungke
ngrancang
ngrangke
ngrangkep
ngrangkul
ngrangsang
ngraos
ngraosaken
ngrasa
ngrasakake
ngrasakke
ngrasani
ngrasuk
ngrawat
ngrawuhi
ngrayakake
ngre
ngrebat
ngrebut
ngrekam
ngreksa
ngrembag
ngrembaka
ngrembakakake
ngrembakakaken
ngrembakane
ngrembug
ngrencanakaken
ngrengkuh
ngresiki
ngrewangi
ngriki
ngriku
ngrilis
ngrintis
ngripta
ngrisak
ngritik
ngrokok
ngrubung
ngrujuk
ngrumangsani
ngrumat
ngrumati
ngrumusaken
ngrungokake
ngrungokke
ngrusak
ngrutu
ngruwat
ngs
ngsa
ngse
ngu
nguap
nguasani
nguatake
ngubah
ngube
ngubengi
ngubungake
ngubungaken
ngubur
ngucap
ngucapake
nguciwani
ngudhunake
ngudi
ngugemi
nguja
nguji
nguk
ngukuhake
ngukum
ngukur
ngulama
ngulandara
ngule
ngulon
ngulu
ngulungake
ngumbah
ngumbar
ngumbara
ngumpul
ngumpulake
ngumumake
ngumumaken
ngundang
ngundhakake
ngundhuh
ngune
ngunggahake
ngungkul
ngungkuli
ngungsi
nguni
nguningani
ngunjuk
ngunjungi
nguntal
nguntungake
nguntungke
ngupadi
ngupados
ngupaya
ngupayakake
ngur
ngurah
ngurangi
ngure
nguri
nguripake
nguripi
ngurmati
ngurus
ngurusi
ngus
ngusir
ngusulake
ngusung
ngut
ngutamakake
ngutus
nguwaosi
nguwasani
nguwatake
nguwe
nguye
nguyen
nguyuh
ngwang
ngwasani
ngwe
nh
nhk
ni
nia
niaga
niagara
nias
niat
niba
nica
niccolo
nice
nicholas
nick
nickelodeon
nico
nicola
nicolas
nicole
nie
nig
nige
nigel
niger
nigeria
night
nightingale
nih
nihon
niigata
nijhoff
nik
nika
nikah
nikahan
nikang
nikaragua
nike
niken
niki
nikita
nikmat
nikmati
nikolas
niku
nil
nila
nilai
nilar
nilaraken
nile
niliki
nimba
nimbali
nimbang
nimbulake
nimh
nimpuna
nin
nina
nindakake
nindakaken
nindakke
nine
ning
ningali
ninggal
ninggalake
ninggalaken
ningkah
ningkatake
ningkataken
ningrat
nini
ninja
nino
nintendo
nio
nior
nipis
nippon
nipun
nir
nira
nire
nirina
nirlaba
niru
nis
nishi
nisih
nistha
nita
nite
niti
nitih
nitrat
nitroge
nitrogen
niu
niwasake
niwasaken
nixon
niyaga
niyat
nj
njaba
njaban
njabane
njabat
njaga
njagakke
njagi
njagong
njah
njajah
njajal
njalari
njalin
njaluk
njamin
njang
njangkep
njangkepi
njat
njawab
njawi
nje
njeblug
njedhul
njedul
njegur
njelasake
njenengan
njenengi
njerit
njero
njeron
njerone
njikuk
njing
njle
njlentrehake
njoge
njoged
njujug
njunjung
njupuk
njur
njurung
nk
nl
nle
nliti
nm
nmb
nndb
no
noah
nobel
nobelprize
nobita
noble
noda
noe
noel
noeli
noer
nok
nokia
nol
nolak
nolan
nole
nom
noman
nome
nomenclature
nomer
nominasi
nominations
nominees
nomor
non
nona
nong
nonjol
nonton
noodles
noor
nope
nopember
nor
nora
nord
nordic
nordik
nordland
nori
norma
normal
norman
normandia
norodom
norris
norte
north
northampton
northern
northwest
norton
norway
norwich
nos
nossa
nostalgia
nostri
not
notasi
note
notes
nothing
notice
notification
noto
notosusanto
notre
nottingham
nov
nova
novasi
nove
novel
novelis
november
novi
novita
novo
now
noyo
npr
nr
nrajang
nre
nresnani
nrima
ns
nsa
nsi
nsiklope
nsin
nsis
nsiun
nster
nsus
nt
nta
ntah
ntahan
ntahane
ntahanipun
ntak
ntal
ntar
ntara
ntas
ntasi
nte
nten
ntenipun
nter
nth
nthak
nthang
nthar
nthe
nthik
nthil
nthing
nthir
nthit
nthong
nthuk
nthung
nthus
nti
ntifikasi
ntik
ntil
ntime
ntina
nting
ntitas
nto
ntol
ntrasi
ntre
ntt
ntuk
ntukake
ntul
ntus
ntut
nu
nuansa
nuclear
nuduhake
nuestra
nueva
nuevo
nugini
nugraha
nugroho
nuh
nuju
nuk
nukleat
nukleus
nuklir
nuku
nul
nulak
nular
nuli
nulis
nulisake
nulung
nulungi
number
numbers
numeric
numfor
numpak
numpang
numpes
numpuk
nun
nunan
nung
nunggak
nunggal
nunggang
nunggoni
nunggu
nungkul
nunjang
nunjuk
nunjukake
nuntun
nuntut
nunukan
nunut
nur
nuri
nurma
nurul
nurun
nurunake
nurut
nuruti
nurwe
nurwegen
nus
nusa
nusakambangan
nusantara
nusu
nusul
nuswantara
nut
nutrisi
nutrition
nutugake
nutup
nutupi
nuturake
nututi
nuwuhake
nuwuhaken
nuwun
ny
nya
nyabrang
nyade
nyai
nyak
nyakup
nyalahke
nyam
nyaman
nyamar
nyambi
nyambung
nyambungake
nyambut
nyambutgawe
nyamektakaken
nyamikan
nyampe
nyampur
nyamuk
nyan
nyana
nyandhak
nyandhang
nyang
nyangga
nyangking
nyanyi
nyanyian
nyaosi
nyapu
nyar
nyaranake
nyare
nyaring
nyariosaken
nyaritakake
nyariyosaken
nyarujuki
nyasarke
nyat
nyata
nyatakake
nyatane
nyathak
nyathet
nyatur
nyaur
nyauri
nyaut
nyawa
nyawane
nyawang
nyawiji
nyawisake
nyawisaken
nye
nyebabake
nyebapake
nyebapaken
nyebar
nyebarake
nyebat
nyebataken
nyebrang
nyebut
nyebutake
nyedeki
nyedhak
nyedhaki
nyedhiyakake
nyedhot
nyediakake
nyegah
nyekel
nyekeli
nyekse
nyelaki
nyelehake
nyelenggarakake
nyeluk
nyembah
nyemplung
nyene
nyenengake
nyenengi
nyengkuyung
nyenyuwun
nyepakake
nyepe
nyepeng
nyepetake
nyerah
nyerahake
nyerang
nyerat
nyerep
nyeri
nyeritakake
nyetak
nyetel
nyetrap
nyewa
nyi
nyiapake
nyiapaken
nyigar
nyilih
nyimpang
nyimpen
nyimpulake
nyinaoni
nyinau
nyingkirake
nyingkiri
nyipta
nyiptakake
nyiptakaken
nyiram
nyirnakake
nyithak
nyiya
nyiyapake
nyl
nylametake
nylametaken
nylametke
nyle
nyo
nyoba
nyobi
nyoh
nyok
nyokot
nyolok
nyolong
nyoman
nyonya
nyopir
nyopot
nyre
nyritakake
nyritani
nytimes
nyu
nyuda
nyuguhake
nyuk
nyukani
nyukupi
nyukur
nyulik
nyumbang
nyume
nyumurupi
nyurung
nyusoni
nyusul
nyusun
nyut
nyuwara
nyuwe
nyuwun
nywara
nz
nzim
o
oak
oakland
obah
obahan
obahe
obahing
obama
obat
obatan
obe
obi
obituary
obje
objects
objek
oblast
oblok
obong
obor
observasi
observatorium
observatory
observer
obsolete
obye
obyek
oce
ocean
oclc
oct
octavia
october
octopus
od
ode
oder
odisha
oe
oega
oetawa
of
off
office
officer
official
og
ogan
ografi
ografis
oh
ohio
oil
ois
oise
ojoki
ok
oka
okayama
okazaki
oke
okezone
oki
okinawa
oklahoma
okra
oksida
oksidasi
oksige
okt
oktaf
oktober
ol
ola
olah
olahan
olahraga
old
ole
oleh
olehe
olga
oli
olih
olimpiade
olimpiadhe
olimpus
olive
oliveira
oliver
olivia
olivier
ologi
ologis
olok
olympiade
olympic
olympics
olympique
om
omah
omahan
omahe
omahku
omahmu
oman
omar
ombak
ombe
omben
ombenan
ome
omega
omelet
omong
omongan
omongane
omonge
omongi
omongke
omongku
on
oncat
once
oncom
one
ong
ongkos
oni
online
only
onna
ono
onok
ons
onsen
ontang
ontario
ontran
oo
op
opah
opak
ope
open
opening
opera
operasi
operasional
operation
operations
operator
ophiuchus
opinion
opole
opor
oposisi
oprasi
opsional
optical
optik
optimus
opuntia
or
ora
oral
orane
orang
orange
orangutan
oranye
orbit
orchestra
orde
order
ordho
ordinariat
ordinariate
ordinaris
ordo
ore
oregano
oregon
org
organ
organel
organic
organik
organisasi
organisation
organisme
organization
orgia
ori
oricon
orient
oriental
orientasi
origin
original
originally
origine
origini
origins
orion
orkestra
orlando
orle
orleans
orname
ornamen
oro
orong
orthodox
ortodoks
os
osaka
oscar
ose
oslo
ost
ostenrik
ostrali
ostralin
ot
otak
ote
other
others
oto
otobiografi
otomatis
otomotif
otonom
otonomi
otoritas
otot
ottawa
otto
ottoman
ou
our
out
output
outside
outstanding
oval
ovarium
oven
over
overseas
overview
owah
owahan
owahe
owahing
owen
owens
own
oxford
oxyopes
oxyopidae
oyag
oyak
oyod
oyode
oyot
oyote
oz
ozon
p
pa
pabe
pablo
pabrik
pabrikan
pabukon
pac
pacak
pacangan
pacar
pacaran
pacare
pacarku
pace
pacelathon
pacific
pacitan
package
pacoban
pacu
pacul
pad
pada
padagangan
padahal
padamelan
padamelanipun
padamu
padang
padangan
padat
padatan
padatane
padatanipun
pade
pademawu
padesan
padha
padhalangan
padhane
padhang
padharan
padhe
padhet
padi
padinan
padintenan
padma
padmasusastra
padmi
padmosoekotjo
padmosoesastro
padon
pados
padu
padua
paduan
padudon
paduka
padunung
padunungan
padusan
pae
paella
pag
pagar
pagawe
pagawean
page
pageblug
pagelaran
pager
pages
pagesangan
pagesanganipun
pagi
pagoda
pagunungan
paguron
paguyuban
pah
paham
pahargyan
pahing
pahit
pahlawan
pai
pain
paing
pait
pajajaran
pajak
pajang
pajangan
pajar
paje
pajeg
paju
pak
paka
pakaian
pakan
pakanira
pakar
pakarangan
pakarti
pakaryan
pakaryane
pakaryanipun
pakdhe
pake
pakebonan
pakecapan
pakecapane
pakeliran
pakem
pakempalan
paket
pakewuh
pakis
pakistan
pakon
pakpak
paksa
paksi
pakta
paku
pakualaman
pakuan
pakubuwana
pakulinan
pakumpulan
pakunjaran
pakurmatan
pal
pala
palabuhan
palace
palafalan
palagan
palakarta
palakrama
palakrami
palanangan
palang
palangka
palapa
palar
palastra
palawija
pale
palem
palemahan
palembang
palermo
palestina
palestine
palestinian
palgrave
pali
palilah
paling
pallawa
palm
palma
palmer
palo
palsu
palu
palung
pam
pamaburan
pamaca
pamain
paman
pamanasan
pamane
pamanggih
pamanggihipun
pamangkune
pamaos
pamare
pamarentah
pamarintah
pambabaran
pambage
pambagian
pambalap
pambangunan
pambarep
pambe
pambeksa
pambentukan
pambiji
pambiwara
pambiyantu
pambrontak
pambrontakan
pambuka
pambuluh
pambuwangan
pame
pamekaran
pamekasan
pamela
pamenang
pameran
pamicara
pamikir
pamikiran
pamilih
pamilihan
pamimpin
pamirsa
pamisah
pamisahan
pamit
pamitan
pamong
pamotan
pamrayoga
pamre
pamrentah
pamrentahan
pamrih
pamujan
pamuji
pamukiman
pamulangan
pamundhutan
pamungkas
pamuter
pan
pana
panah
panahan
panakawan
panalite
panaliten
panaliti
panama
panambahan
panambang
panampa
panampilan
panandhang
pananggalan
panangkaran
panaraga
panas
panase
panasonic
panata
panatacara
panca
pancake
pancasila
pancawara
pance
pancen
panci
pancing
pancur
pancuran
pand
panda
pandamelan
pandan
pandang
pandangan
pandawa
pande
pandeglang
pandemi
pandemic
pandhan
pandhangan
pandhawa
pandhe
pandhemen
pandhidhikan
pandhidhikane
pandhita
pandhu
pandjenengane
pandji
pandom
pandonga
pandongane
pandu
panduan
panduman
pane
paneer
panel
panelite
paneliti
panelitian
panembahan
panemon
panemu
panemuan
panemune
panen
panentu
panerbit
panerus
pang
pangabekti
pangadeg
pangadilan
pangajab
pangajaran
pangaji
pangalaman
pangalembana
pangamatan
pangan
panganan
panganane
pangandaran
pangandika
pangandikan
pangandikane
pangandikanipun
pangane
pangangge
panganggit
panganggo
panganggone
pangante
panganten
panganut
pangapunten
pangapura
pangarang
pangare
pangarep
pangaribawa
pangarsa
pangaturan
pangatusan
pangawasan
pangayom
pangayoman
pange
pangeduman
pangembang
pangembangan
pangenalan
pangentasan
pangeran
pangerane
pangeranira
pangerte
pangerten
pangertosan
pangestu
panggah
panggalih
panggalihe
panggang
panggangan
panggawe
pangge
panggedhe
panggenan
panggilan
pangginaan
panggiyaran
panggole
panggon
panggonan
panggonane
panggone
pangguna
panggunaan
panggung
panggurit
panghargaan
panghargyaan
pangilon
panginepan
pangiriman
pangiring
pangisi
pangkah
pangkal
pangkalan
pangkat
pangkate
pangkon
pangkur
panglima
pangling
panglipur
pangobatan
pangolahan
pangon
pangowahan
pangrasa
pangre
pangreksa
pangrembakaning
pangripta
pangrungu
pangsit
panguasa
pangucap
pangucapan
pangucape
pangudi
pangukuran
pangulu
panguripan
panguripane
pangurus
pangusaha
panguwaos
panguwasa
panguwasane
pangwasa
pangwasane
pangyasa
paniai
paningal
paningalan
paninggalan
paningkatan
panitia
panitya
panjaga
panjajahan
panjaluk
panjaluke
panjang
panjangipun
panje
panjebar
panjenengan
panjenengane
panjenenganipun
panjenengngan
panjer
panji
panjupukan
panjurung
panlasang
panlite
panliti
panlitian
panorama
pantai
pante
pantes
panti
pantun
pantura
pantye
panulis
panulisan
panulise
panumpang
panumpes
panuntun
panutan
panutup
panutur
panuwun
panyanyi
panyarta
panyaruwe
panyatur
panye
panyebab
panyebaran
panyengkuyung
panyerang
panyerat
panyeratan
panyimpenan
panyusun
panyuwun
panyuwunan
paolo
papa
papak
papan
papane
papanipun
papar
paparan
papat
paper
paperangan
paperback
papers
paprangan
papre
paprika
papua
par
para
parade
paradise
paraga
paragane
paragraf
paraguay
parah
parahyangan
parakan
paralayang
paralel
parama
paramasastra
parame
parameter
parameters
paramita
paramitha
paramount
paran
parana
parang
parangtritis
paranormal
pararaton
parashah
parasit
paratha
paration
parcel
pare
pareng
parent
pari
pariaman
parian
paribasa
paribasan
parigi
parikan
parikesit
paring
paringi
paringin
paripurna
paris
parish
parit
pariwara
pariwisata
park
parker
parkinson
parkir
parks
parleme
parlemen
parliament
parma
parmesan
parno
paro
paroki
pars
parsley
parsyah
part
parta
partai
parte
partement
partikel
partisipasi
partner
partners
partnership
parto
parts
party
paru
paruh
paruk
parusahan
parut
parutan
pas
pasa
pasagi
pasal
pasaman
pasamoean
pasamuan
pasamuane
pasamuwan
pasan
pasang
pasangan
pasangane
pasanggiri
pasanggrahan
pasar
pasaran
pasare
pasarean
pasarta
pasca
pascal
pascasarjana
pase
paseduluran
pasemon
pasetujon
pasha
pasi
pasie
pasien
pasif
pasifik
pasinaon
pasinaonan
pasir
pasisir
paskah
pasokan
paspor
pasrah
pass
passes
past
pasta
paste
pastel
pasteur
pasti
pastor
pastoral
pastry
pastur
pasugatan
pasukan
pasulayan
pasundan
pasuruan
pasuryan
pasuryane
pat
pata
patah
patamanan
patang
patapan
patavii
patbelas
pate
patean
patel
patemon
paten
path
pathe
pathet
pathi
pathok
pathokan
pati
patia
patih
patihe
patik
patikraja
patilasan
patine
pating
patitis
patiya
patogen
patologi
patos
patra
patrap
patrape
patriarchia
patriark
patriarkat
patrice
patricia
patrick
patriot
patritius
patroli
patterns
patty
patung
patut
patutan
paugeran
paukuman
paul
paula
paulo
paulownia
paulus
paus
pavia
pawadan
pawadonan
pawakan
pawarta
pawartos
pawatesan
pawe
pawitan
pawiwahan
pawiyatan
pawon
pawongan
pay
paya
payon
pays
payu
payudara
payung
paz
pb
pbb
pbs
pc
pd
pdb
pdf
pdi
pdkjateng
pe
peace
peak
pearce
pearl
pearson
pebruari
pecah
pecahan
pecan
pecel
pecinta
pecorino
pedagang
pedalaman
pedamelan
pedang
pedas
pede
pedes
pedhalangan
pedhang
pedhes
pedhot
pedoman
pedro
peduli
pedunung
pegasus
pegat
pegatan
pegawai
pegawe
pegel
peggy
pegon
pegulat
pegunungan
pejabat
pejah
pejawaran
pejuang
pekalongan
pekan
pekanbaru
pekarangan
peken
pekerja
pekerjaan
pekerti
peking
peksa
peksi
pelabuhan
pelade
pelajar
pelajaran
pelaksana
pelaksanaan
pelaku
pelanggan
pelanggaran
pelangi
pelantikan
pelarut
pelataran
pelatih
pelatihan
pelaut
pelawak
pelayan
pelayanan
pelayaran
pele
pelem
pelestarian
pelindung
pelita
pelog
pelopor
peluang
pelukis
peluncuran
peluru
pemahaman
pemain
pemakaman
pemalang
pemanasan
pemandangan
pemanis
pemasaran
pematang
pembagian
pembakaran
pembalap
pembangkit
pembangunan
pembantaian
pembantu
pembaptis
pembaruan
pembawa
pembebasan
pembelajaran
pembentukan
pemberdayaan
pemberontakan
pembina
pembinaan
pembuatan
pembuka
pembukaan
pembuluh
pemburu
pemda
pemegang
pemeliharaan
pemenang
pementasan
pemeran
pemeriksaan
pemerintah
pemerintahan
pemetaan
pemikiran
pemilihan
pemilik
pemilu
pemimpin
pemkab
pemko
pemuda
pemudha
pemukiman
pen
pena
penak
penalti
penambahan
penampilan
penampilane
penang
penanganan
penanggulangan
penangsang
penari
penasaran
penasihat
penataran
penawangan
pencak
pencakar
pencarian
pencernaan
pencetak
pendaki
pendakian
pendamelan
pendanaan
pendapatan
pendatang
pendek
pendekar
pendekatan
penderita
pendeta
pendhak
pendhapa
pendhapat
pendhe
pendhem
pendhidhikan
pendhudhuk
pendhudhukan
pendhukung
pendidikan
pendiri
pendopo
penduduk
pendudukan
pendukung
peneliti
penelitian
penemu
penemuan
pener
penerangan
penerbangan
penerbit
penerbitan
penerjemah
penerus
peng
pengabdian
pengacara
pengadilan
pengajar
pengajaran
pengajian
pengakuan
pengalaman
pengalamane
pengamat
pengamatan
pengandel
pengandele
pengandelmu
pengantar
pengante
penganten
pengantin
penganut
pengarang
pengarep
pengarepe
pengaruh
pengaruhe
pengasih
pengaturan
pengawal
pengawas
pengawasan
penge
pengelola
pengelolaan
pengembangan
pengen
pengenalan
pengendalian
pengertian
pengetahuan
pengetan
penggabungan
penggalih
pengganti
penggawa
penggawe
penggede
penggemar
pengguna
penggunaan
penghargaan
penghasilan
penghubung
penghulu
pengin
pengisi
pengkajian
pengobatan
pengolahan
pengrajin
penguasa
penguin
pengumuman
pengungsi
pengunjung
pengurus
pengusaha
penida
penilaian
peninggalan
peningkatan
peninsula
penjaga
penjajah
penjajahan
penjara
penjelasan
penjualan
penn
pennsylvania
penonton
pensiun
pensiyun
pentas
pente
penting
penuh
penulis
penulisan
penumpang
penuntun
penuntune
penurunan
penutup
penutur
penyair
penyakit
penyanyi
penyebab
penyebaran
penyelenggara
penyelenggaraan
penyerang
penyiar
penyiaran
penyihir
penyu
penyunting
people
peoples
pepadang
pepadhan
pepadhang
pepak
pepanggihan
pepanthan
peparab
pepati
pepe
peperangan
pepet
pepeteng
pepisahan
pepper
peputra
per
peradaban
perahu
perairan
perak
peralatan
peran
peranakan
peranan
perancang
perancangan
perancis
perane
perang
perangan
peranganing
perange
perangkat
perasaan
peraturan
perawan
perawat
perawatan
perayaan
perbaikan
perbandingan
perbankan
perbedaan
perbukitan
perbukuan
percaya
percepatan
percetakan
percobaan
percy
perdagangan
perdamaian
perdana
perdhana
perdu
perduli
pere
peredaran
perekonomian
perempat
perempuan
perencanaan
peresmian
perez
perfect
perfileman
performance
pergerakan
pergi
perguruan
perhatian
perhiasan
perhimpunan
perhubungan
peri
perih
perikanan
perilaku
perindustrian
peringatan
peringkat
perintah
perintis
period
periode
periodhe
periodik
perisai
peristiwa
perjalanan
perjanje
perjanjian
perjuangan
perkakas
perkara
perkasa
perkawinan
perkawis
perkebunan
perkembangan
perkeretaapian
perkins
perkumpulan
perkusi
perlawanan
perlengkapan
perlindhungan
perlindungan
perlu
permainan
permaisuri
permane
permanen
permata
permen
permendagri
permukaan
permukiman
pernah
pernahe
pernapasan
pernatan
pernatane
pernikahan
pernikahane
pernyataan
pero
perobahan
peron
perpanjangan
perpustakaan
perry
pers
persahabatan
persaingan
persamaan
persatuan
perse
persebaya
persegi
persekuthuan
persemakmuran
persembahan
persen
persepolis
perserikatan
persero
persetujuan
perseus
persia
persian
persiapan
persib
persija
persik
persimpangan
persipura
persis
persise
persiyapan
person
personal
personel
personil
perspective
perspectives
perspektif
pertahanan
pertalan
pertama
pertamane
pertambangan
pertami
pertamina
pertanahan
pertandhingan
pertandingan
pertanian
pertapaan
pertapan
pertempuran
pertemuan
pertengahan
perth
pertimbangan
pertiwi
pertukaran
pertumbuhan
pertunjukan
peru
perubahan
perum
perumahan
perundang
perundhang
perunggu
perusahaan
perwakilan
perwira
pesagi
pesan
pesanggrahan
pesantre
pesantren
pesawat
pesen
pesenan
peserta
pesisir
peso
pesona
pesta
pesthi
pestisida
pet
peta
petak
petanahan
petang
petani
petarukan
pete
peteng
petenis
peter
peterborough
peternakan
peterpan
petersburg
peterseli
peterson
pethak
pethe
peti
petir
petis
petit
petra
petro
petrokimia
petroleum
petrus
petualangan
petugas
petung
petungan
petunjuk
peucetia
pewaris
pewarna
pewayangan
peyek
pez
pfa
pg
pgri
ph
pha
phantom
phat
phd
phe
phil
philadelphia
philip
philippe
philippine
philippines
phillip
phillips
philosophy
pho
phoenix
phone
photo
photographs
photography
photos
php
phu
phylogeny
physical
physics
physiology
phytophthora
pi
pia
piagam
piala
piano
picard
picasso
pick
pickford
pickled
pico
picture
pictures
pidak
pidana
pidato
pidhato
pie
piece
piedmont
piemonte
pierce
pierre
piet
pieter
pietro
pig
pigeaud
pigme
pigmen
piguna
pigunane
pihak
pii
pijet
pik
pikantuk
pikatan
pike
pikir
pikiran
pikirane
pikiranku
pikire
pikole
piksel
pikulan
pil
pilah
pilar
pilatus
pile
pilih
pilihan
pilihane
pilipina
pilkada
pilot
pimpinan
pin
pinang
pinangante
pinanggih
pinarak
pinaringan
pincang
pindah
pindang
pindha
pindhah
pindhan
pindhang
pindho
pindo
pine
ping
pinggang
pinggir
pinggiran
pinggire
pinggiring
pinggul
pinguin
pinilih
pinitados
pinituwa
pinituwane
pink
pinoy
pinrang
pintar
pinte
pinten
pinter
pinto
pintu
pinuju
pinunjul
pinus
pinyin
pioneer
pipa
piper
pipi
pipih
pipine
pir
pira
piramida
pirang
piranti
pirantos
pirembagan
piring
piringan
pirminus
pirngon
pirsa
pirsani
pis
pisa
pisah
pisahan
pisan
pisanan
pisanane
pisang
pisau
piscopat
piscopaux
piso
pisode
pisodhe
pista
pistachio
pistol
piston
pistul
pisumbangan
pisungsung
pit
pita
pitados
pitake
pitakon
pitakonan
pitakone
pitakonku
pitaya
pite
pitedah
pitik
pitoe
pitt
pittsburgh
pitu
pituduh
pitulas
pitulung
pitulungan
pitulungane
pitung
pituruh
pitutur
pituture
pituturku
pius
piwulang
piwulange
pixar
piyala
piyambak
piyambakan
piyambake
piyambakipun
piyantun
piye
piyul
pizza
pk
pki
pks
pl
pla
plabuhan
place
places
plain
plak
plan
plancong
plane
planet
planets
planit
plankton
planning
plant
plantain
plants
plasa
plasma
plasmodium
plastik
plat
plata
plataran
plate
platform
platini
platinum
platnick
plato
play
playboy
player
players
playing
plaza
ple
please
pleret
plesir
plesiran
plo
plok
plong
plot
pluk
plum
plumpungan
plupuh
pluru
plus
pluto
plutonium
plymouth
pm
pmc
pmid
pnas
png
pnri
pns
po
pocapan
pocapane
pocaping
poci
pocket
pocong
podhang
poe
poelo
poems
poerbatjaraka
poerwadarminta
poet
poetra
poetrane
poetry
poh
pohan
pohon
pohung
poin
point
poirot
pojok
pok
pokal
pokan
poke
poker
pokok
pokoke
pol
pola
polah
polahe
poland
polandia
polar
polda
pole
polen
polewali
police
policy
polifenol
polimer
polinesia
poliponik
polis
polisakarida
polish
polisi
polite
politeknik
political
politics
politik
politikus
politisi
poll
polo
polong
polos
polri
polusi
polynesian
poma
pomahan
pomerania
pompa
pon
ponakan
poncol
pondasi
pondhok
pondok
pong
ponggok
pongol
ponorogo
pont
pontianak
pontificatu
pontificatum
pontificia
pontificum
pony
poor
pop
popcorn
pope
poppy
popular
popularitas
popularity
populasi
populasine
population
popule
populer
por
pori
pork
porno
poros
porsi
port
portal
portegal
portegis
porter
portland
porto
portrait
portsmouth
portugal
portugis
portuguese
pos
poseidon
posisi
posisine
positif
position
poso
possible
post
poster
posterior
pot
potato
pote
potelod
potensi
potensial
potential
potlot
poto
potong
potongan
potre
potret
potter
pour
powder
powell
power
powerful
powers
powershell
powiat
poznan
pp
ppi
ppp
pr
pra
prabalingga
prabawa
prabe
prabhu
praboe
prabot
prabowo
prabu
pracaya
practical
practice
prada
pradesh
pradjoerit
prae
praga
praha
prahara
prahu
praja
prajanje
prajanjian
prajurit
prak
prakara
prakasa
prakawis
prakiraan
prakiran
prakosa
prakte
praktek
praktik
praktis
pralambang
pram
pramastuti
prambanan
prambors
prame
pramila
pramoedya
pramuka
prana
pranala
pranata
pranatacara
pranatan
prancis
prang
prangkat
prangko
pranyata
pranyatan
praoe
prapan
prapat
prapatan
prapti
prapto
pras
prasaja
prasajarah
prasarana
prasasat
prasasti
prasetya
prasetyo
prasojo
prastawa
pratama
pratamane
pratandha
prate
pratelan
pratingkah
pratiwi
pratt
prau
praune
praupan
praupane
prawan
prawira
prayer
prayitna
prayoga
prayogane
prayogi
pre
precaya
predator
predikat
preduli
prefecture
prefek
prefektur
prei
preinan
prejanjian
prejanjiane
prekara
prekawis
prelatur
prelu
prembun
premier
premiere
premierleague
premium
prenahe
prentah
prentice
preparation
present
presentasi
presentation
presenter
preservation
presiden
president
presidents
presidhe
presidhen
press
pressure
prestasi
prestasine
preston
pretty
pretyaya
prevention
preview
pri
pria
pribadhi
pribadi
pribadine
pribumi
price
priest
prigel
prihatin
priksa
prilaku
prima
primary
primata
primbon
prime
primer
primitif
primus
prince
princess
princeton
principles
pring
prinsip
print
printer
prioritas
pripun
prisma
private
prix
priya
priyantun
priyayi
priye
priyo
prize
prizes
pro
problem
problems
probolinggo
proceedings
process
processing
prodhuk
prodhuksi
prodhuse
prodhuser
produced
producer
product
production
productions
products
produk
produksi
produktif
produse
produsen
produser
prof
profe
profesi
profesional
profesor
professional
professor
profil
profile
profiles
progo
program
programme
programming
progress
project
proklamasi
prometheus
promosi
pronounced
pronunciation
propaganda
properti
properties
property
propinsi
proporsi
proposal
proppo
prosa
prose
prosea
prosedur
proses
prosesi
prost
prostat
protagonis
prote
protection
protein
protes
protista
proto
protokol
proton
protozoa
provence
province
provinces
provincia
provincial
provincias
provinsi
proxima
proye
proyek
proyeksi
pruk
prunggu
prusahaan
prusia
ps
psg
psi
psikolog
psikologi
psikologis
pssi
psu
psychology
pt
pta
pte
ptik
ptolemeus
ptolemy
pu
puas
puasa
pub
pubblico
public
publication
publications
publik
publikasi
publish
published
publisher
publishers
publishing
pucakwangi
pucet
pucuk
pucuke
pucuking
pucukipun
pucung
pudding
puding
puerto
puff
puger
puguh
puh
puisi
puja
pujangga
puji
pujian
puk
pukul
pukulun
pula
pulang
pulau
pule
pulih
pulisi
pulitik
pulitikus
pulitisi
pulitzer
pulo
pulosari
pulp
puluh
puluhan
pulut
pumpung
pun
punah
punakawan
punapa
puncak
puncake
punch
punctuation
pundhak
pundhi
pundi
pung
punggawa
punggung
pungkas
pungkasan
pungkasane
pungkasaning
pungkasanipun
pungkur
punika
puniki
puniku
punjab
punjabi
punjer
punjere
punjering
punjul
punk
punse
puntadewa
punthuk
punya
pupu
pupuh
pupuk
pupus
puput
pur
pura
purana
purba
purbakala
purbalingga
purbo
pure
puri
puring
purn
purna
purnama
purnomo
purple
puru
purun
purusa
purut
purwa
purwaasri
purwadadi
purwadi
purwaka
purwakanthi
purwakarta
purwakerta
purwane
purwaning
purwareja
purwasari
purwodadi
purwokerto
purworejo
purwosari
pus
pusaka
pusat
pusate
puse
puser
push
puskesmas
puspa
puspita
pustaka
put
putaran
pute
puter
putera
puteran
puteri
putih
putik
puto
putra
putrane
putranipun
putri
putrine
putrinipun
putu
putune
putung
putus
putusan
puyuh
pwa
px
pye
pyur
q
qaddafi
qajar
qatar
qi
qin
qing
qiyamat
qs
quality
quarter
quarterly
que
quebec
queen
queens
queensland
ques
queso
quest
question
questions
qui
quick
quinn
quotquot
qur
quran
qwerty
r
ra
rab
rabbi
rabi
rabu
rabuk
racak
racake
racana
race
rachel
rachman
rachmat
racikan
racing
racun
rad
rada
radang
radar
radcliffe
rade
raden
radha
radhang
radhiasi
radhio
radi
radiasi
radikal
radio
radioaktif
raditya
radius
radja
radya
rae
rafael
raffi
raffles
rag
raga
ragad
ragam
ragi
ragil
ragu
rah
rahaden
rahang
rahardjo
raharja
rahasia
rahayu
rahib
rahim
rahman
rahmat
rahwana
rai
raih
rail
railroad
railstation
railway
railways
rain
rainbow
raine
rais
raj
raja
rajakaya
rajangan
rajapati
rajawali
rajawangsa
rajin
rak
raka
rakai
rakangat
rake
raken
raket
rakete
rakit
rakitan
rakryan
raksasa
rakwa
rakyat
rakyate
ral
rald
ralph
ram
rama
ramadan
ramadhan
ramah
ramalan
ramane
ramanipun
ramawijaya
ramayana
rambah
ramban
rambat
rambut
rambutan
rambute
rame
ramelan
ramen
rami
ramo
ramon
ramos
rampan
rampe
ramping
rampung
rampunge
ramuan
ramya
ran
rana
ranah
rancage
rancang
rancangan
randa
randai
randha
randhu
random
randublatung
randy
rane
rang
rangake
rangan
rangane
ranganing
range
ranger
rangers
rangga
ranggawarsita
rangi
rangka
rangkah
rangkaian
rangkasbitung
rangke
rangkep
rangking
rangsang
rangsangan
rangu
rani
ranjang
ranking
rantai
rantaman
rantau
rante
ranti
ranting
ranu
rao
raos
raosipun
rap
rapat
rape
rapet
raphael
rapi
rapid
rapids
rapper
rapuh
rara
raras
rare
ras
rasa
rasah
rasan
rasane
rasaning
rase
raseksa
rasi
rasio
rasmi
raspberry
rasukan
rasul
rasule
rasulullah
rasyid
rat
rata
ratan
rate
ratha
rathu
ratih
rating
ratings
ration
ratisbon
ratmi
ratna
ratoe
ratri
ratu
ratune
ratuning
rau
raup
raw
rawa
rawan
rawas
rawasari
rawaseneng
rawat
rawe
rawit
rawuh
rawuhipun
ray
raya
rayap
rayat
rayi
rayinipun
raymond
rba
rbal
rbe
rbi
rbivor
rc
rce
rcti
rd
rdi
rdoba
rdu
re
read
reader
reading
ready
reaksi
real
realitas
reality
really
realme
reason
rebab
rebecca
rebo
rebus
rebusan
rebutan
reca
recent
recentioris
recentis
recipe
recipes
recognized
recognizedhidden
reconstruction
record
recording
records
red
redaksi
redaktur
redhaksi
redi
reed
reeves
ref
reference
references
referensi
refleksi
reform
reformasi
refs
rega
regane
reged
regency
regensbergiana
regensburgiana
reggae
reggio
regi
regia
regina
reginipun
region
regional
regione
regions
register
registered
registrasi
regol
regu
reguler
rehabilitasi
rei
reid
reilly
reims
reja
rejang
rejeki
rek
reka
rekaman
rekan
rekasa
rekayasa
rekonstruksi
rekor
rekreasi
rektor
rel
related
relatif
relations
release
released
releases
reliable
relief
religi
religion
religions
religious
religius
rem
remaco
remah
remains
remaja
remake
rematik
rembang
rembug
rembugan
rembulan
remember
remen
remigius
rempah
remuk
ren
rena
renaisans
renaissance
renang
renault
rencana
rencanane
rencang
rendah
rendheng
rendra
rendy
rene
rengganis
renner
rennes
renovasi
rentang
renyah
reog
rep
report
reporter
reports
repot
reprint
reprinted
reproduksi
reptil
republic
republik
republika
reputasi
requires
rer
rerangke
rerenggan
reresik
res
rese
research
resep
resepsi
reseptor
reserve
resi
resik
resiko
resimen
resin
resistance
resistive
resmi
resmine
resolusi
resolution
resort
resource
resources
respon
response
restaurant
restaurants
restoran
restorasi
restu
results
retain
retained
retak
retina
retna
retno
retrieved
return
returns
reuters
rev
revealed
reveals
revenge
review
reviews
revised
revisi
revolusi
revolusioner
revolution
revolutionary
revue
rewang
rex
rey
reyes
reynolds
rez
reza
rezim
rga
rge
rgen
rgi
rhine
rhino
rhinoceros
rho
rhode
rhodes
rhythm
ri
ria
rial
riam
rias
riau
ribe
ribery
ribut
ric
rica
ricardo
rice
rich
richard
richards
richardson
richmond
richter
ricikan
rick
ricklefs
ricky
rico
ricotta
rida
ride
rider
ridho
ridpath
ridwan
rie
right
rights
rih
rijkevorsel
rik
rika
rikah
rikala
rikat
rikma
riko
ril
riley
rilis
rim
rima
rimba
rimbaud
rime
rimpang
rin
rina
rinci
rindu
rine
ring
ringan
ringgit
ringin
ringkes
ringkesan
ringkih
rings
ringtone
rini
rinonce
rintisan
rio
riode
riodhe
riodik
ripta
ripun
ris
risak
risalah
rise
rises
riset
risi
risiko
rising
risk
rit
rita
rite
ritual
ritus
ritzler
river
rivers
riwayat
riyadh
riyadi
riyaya
riye
riyin
riza
rizal
rizki
rizky
rja
rk
rka
rke
rki
rlu
rm
rma
rman
rme
rms
rn
rna
rne
ro
road
rob
robayan
robbie
robby
robert
roberto
roberts
robertson
robin
robinson
robot
rochdale
rochester
rock
rocket
rocks
rocky
rod
roda
rode
rodha
rodin
rodok
rodri
rodrigo
rodriguez
roe
roger
rogers
roh
rohani
rohe
rohingya
rohman
rohmat
roi
rok
rokan
roke
roket
rokok
rol
roland
rolas
role
roll
roller
rollin
rolling
rolls
rom
roma
romagna
roman
romance
romanesque
romani
romania
romanian
romano
romantis
romawi
rombongan
rome
romeo
romero
romo
ron
ronald
ronaldo
ronan
ronce
rondha
rong
rongga
rongge
ronggeng
ronipun
rontog
rontok
rookie
room
rooney
roorda
roosevelt
root
roots
ropa
ropah
roro
ros
rosa
rosan
rosario
rose
rosemary
roso
ross
rossi
rot
rotan
rotasi
rotation
rote
roti
rotine
rotten
rotterdam
rouen
rouge
rough
round
route
routledge
roux
rovers
row
rowa
rowang
rowman
rowspan
roy
royal
royale
royo
royong
rp
rpe
rpm
rr
rrc
rri
rs
rsa
rse
rsi
rsial
rsitas
rsssf
rsu
rsud
rt
rta
rte
rtha
rti
rto
rtu
ru
ruang
ruangan
ruas
rubah
rube
rubrik
rubuh
ruby
ruci
rudal
rudi
rudolf
rudy
rue
ruf
rugby
rugi
ruh
ruiz
rujak
rujuk
rujukan
ruk
rukun
rule
rules
rum
rumah
rumaja
rumaket
rumangsa
rumania
rumaos
rume
rumeksa
rumeni
rumit
rumiyin
rumpun
rumput
rumus
rumusan
run
rung
rungokake
rungokna
runner
runners
running
runtuh
runtung
runtut
rupa
rupane
rupert
rupi
rupiah
rupiyah
rural
rus
rusa
rusak
rusake
rusaking
rusale
rush
rusia
ruslan
russell
russia
russian
rusti
rusuh
rusuk
rusyn
rut
rute
ruth
rutin
ruwang
ruwangan
ruwatan
ruwe
ruwet
rw
rwa
rwanda
ry
rya
ryan
rye
ryu
ryukyu
s
sa
saat
sab
saba
sabab
sabage
sabagean
sabah
sabanjure
sabar
sabarang
sabat
sabawa
sabda
sabe
saben
sabenere
sabha
sabibaripun
sabil
sabin
sabit
sabrang
sabrina
sabtu
sabu
sabubare
sabuk
sabun
saburine
sacara
sace
sacedhake
sacra
sacred
sacukupe
sad
sada
sadanguning
sadangunipun
sadar
sadawane
sadawaning
sadaya
sadayanipun
sade
saderengipun
sadewa
sadhar
sadhe
sadhela
sadhengah
sadhuwure
sadhuwuring
sadina
sadinten
sadono
sadonya
sadulur
sadulure
sadurunge
sae
saengga
saenggon
saestu
safari
safety
saga
sagara
sage
saged
saget
sagi
sago
sagon
sagu
saguh
sagung
sah
saha
sahabat
sahadat
saham
sahana
sahara
sahur
sai
said
saigon
saiki
saikine
sailor
sain
saindenging
saindhenging
sainer
saing
saingan
saingga
sains
saint
sainte
saints
sairib
saitama
saja
sajabane
sajabaning
sajak
sajake
sajarah
sajarahe
sajarawan
sajati
sajatine
sajatosipun
saje
sajerone
sajeroning
saji
sajian
sajinis
sajrone
sajroning
sajumlah
sak
saka
sakabat
sakabe
sakabehane
sakabehe
sakabehing
sakai
sakala
sakalangkung
sakanca
sakare
sakarias
sakathahing
sakawan
sakawit
sakbare
sakbenere
sakdawane
sakderenge
sakdurunge
sake
sakedhik
saking
sakit
sakitar
sakitere
sakitering
sakiteripun
sakiwa
sakjane
sakjerone
sakke
sakliyane
saklompok
sakloron
sakmenika
sakniki
sakpada
sakpe
sakral
saksampune
saksampunipun
saksi
sakti
saku
sakupenge
sakura
sakuthu
sakwat
sakwe
sakweh
sakwijine
sakwise
sal
sala
salad
salah
salahe
salahsijine
salajengipun
salak
salaka
salam
salaman
salami
salaminipun
salang
salanjute
salastampa
salat
salatiga
salawas
salawase
sale
salebeting
salebetipun
saleh
salem
sales
salib
salihara
salim
salin
salinan
saline
saling
salira
salisbury
saliyane
salju
sally
salma
salman
salmon
saloka
salon
salore
salsa
salt
saluran
salvador
salya
salzburg
sam
sama
samak
saman
samana
samangke
samangsa
samanten
samantha
samar
samaran
samaria
samarinda
samba
sambal
sambas
sambat
sambe
sambel
sambeng
sambi
sambu
sambung
sambungan
same
samengko
samenika
sami
samin
samoa
samodra
samono
samosir
sampah
sampai
sampang
sampanye
samparan
sampdoria
sampe
sampel
sampeyan
samping
sampingan
sampul
sampun
sampur
sampurna
samsaya
samsung
samto
samu
samubarang
samudera
samudra
samuel
samukawis
samun
samurai
samus
samya
san
sana
sanad
sanadyan
sanajan
sanak
sanalika
sancti
sand
sandang
sande
sander
sanders
sandhal
sandhang
sandhangan
sandhi
sandhinge
sandhiwara
sandhung
sandhuwure
sandi
sandika
sandiwara
sandra
sandwich
sandwiches
sandy
sane
sanepa
sanes
sanesipun
sang
sanga
sangalas
sangandhaping
sangandhapipun
sangang
sangarepe
sangat
sange
sanget
sangga
sanggan
sanggar
sanggup
sanghyang
sangihe
sanginggilipun
sangiran
sangisore
sangisoring
sangka
sangkala
sangkan
sangke
sangking
sangsara
sangsaya
sangsekerta
sangskreta
sangu
sani
sanja
sanjabane
sanjata
sanjaya
sanko
sans
sansaya
sansekerta
sanskerta
sanskrit
sant
santa
santai
santana
sante
santen
santi
santiago
santo
santos
santosa
santoso
santri
santun
sanyatane
sanyo
sao
saora
saos
sap
sapa
sapadha
sapala
sapanunggalane
sapanunggalanipun
sapanunggale
sapanunggalipun
saparan
saparo
sapasang
sape
saperangan
saperlu
sapi
sapinggiring
sapisan
sapisanan
sapiturute
sapon
saponin
sapporo
sapre
saprene
sapta
sapu
sapunika
saput
saputra
sar
sara
saradhadhu
saraf
sarah
sarajevo
sarak
sarampunge
saran
sarana
sarang
sarap
sarapan
saraswati
sarat
sarawak
sardi
sardinia
sare
sarekat
sarem
sareng
sargon
sari
sariawan
saridin
saring
saringan
sarira
sarjana
sarmi
sarno
saron
sars
sarta
saru
sarujuk
sarung
sarupa
sarupane
sarwa
sarwi
sas
sasak
sasampuning
sasampunipun
sasana
sasane
sasar
sasaran
sase
sasebo
sasi
sasmita
sastra
sastrawan
sastro
sasuwe
sasuwene
sat
sata
satama
sataun
sate
satekane
satelit
satellite
satemah
satemene
satengahe
satengahing
sateruse
sathithik
satiti
sato
satoru
satria
satriya
satriyo
satru
satu
satunggal
satunggaling
satunggalipun
satunggil
satunggiling
saturday
saturnus
satus
satwa
satya
satyalancana
saubenge
sauce
saud
saudara
saudi
sauerkraut
saulus
sauntara
sauntawis
saupama
saur
saurane
saus
sausage
saut
savage
save
saving
savoy
saw
sawah
sawahlunto
sawan
sawang
sawangan
sawatara
sawatawis
sawe
saweg
sawene
sawentara
sawer
sawetara
sawetawis
sawi
sawiji
sawijine
sawijing
sawijining
sawise
sawit
sawitri
sawo
sawoese
sawuse
saxon
say
saya
sayah
sayang
sayap
sayekti
sayembara
sayid
says
sayuk
sayung
sayur
sayuran
sayuta
sb
sbs
sby
sc
scbd
scene
scenes
schalke
schedule
scheduling
schmidt
schneider
school
schools
schumacher
schuster
schwartz
sci
science
sciences
scientific
scientist
scientists
score
scotland
scott
scottish
scout
screen
scribner
script
scripts
sctv
sd
sdm
sdn
sdt
se
sea
seafood
sean
search
season
seattle
sebab
sebabe
sebagai
sebagean
sebagian
sebaran
sebastian
sebastianum
sebatan
sebelah
sebelas
sebelum
sebelumnya
sebenere
seberang
seblang
sebrang
sebuah
sebut
sebutan
sec
secang
secara
secolo
second
secondary
seconds
secret
secretary
secrets
section
sections
security
seda
sedan
sedane
sedang
sedangkan
sedanipun
sedasa
sedaya
sedayanipun
sedayu
sede
sedekah
sedeng
sederhana
sedhe
sedhela
sedheng
sedhengan
sedhep
sedherek
sedhih
sedi
sedih
sedilut
sedina
sedulur
sedulure
sedulurku
sedulurmu
sedurunge
sedya
see
seed
sefer
sefrin
sega
segala
seganten
segara
segawon
segel
seger
segera
segi
segitiga
segmen
sehat
sehingga
sei
seimbang
seine
sejahtera
sejajar
sejak
sejarah
sejarahe
sejarawan
sejati
sejatine
sejatosipun
seje
sejenis
sejinis
sejumlah
sejuta
seka
sekabe
sekabehane
sekali
sekar
sekaran
sekarang
sekaut
sekawan
sekedhap
sekedhik
seket
sekien
sekitar
sekitare
sekjen
seko
sekolah
sekolahan
sekolahe
sekotlan
sekoyah
sekretariat
sekretaris
seks
seksi
seksual
sekti
sektor
sekuel
sekuens
sekul
sekunder
sekuthu
sekutu
sel
sela
selai
selain
selak
selalu
selam
selama
selamat
selamerta
selan
selandia
selang
selangor
selaput
selaras
selarong
selasa
selat
selatan
selawase
selayang
selayar
sele
selebriti
selected
selection
seleksi
selemadeg
selena
selera
self
seling
selir
selling
selot
seluler
selulosa
seluma
seluruh
sem
semak
semana
semangat
semanggi
semangka
semaput
semar
semarang
semaur
semaure
sembada
sembadra
sembah
sembahyang
sembarang
sembilan
sembrana
sembung
seme
semen
semenanjung
sementara
semesta
semester
semi
semifinal
semifinalis
semikonduktor
seminar
seminari
seminggu
semlorot
semolina
semono
sempat
sempet
sempit
semplak
sempor
semu
semua
semunggone
semur
semusim
semut
sen
senadyan
senajan
senajana
senam
senandung
senapan
senapati
senar
senat
senate
senator
senayan
sendai
sendang
sendhang
sendhi
sendhok
sendi
sendiri
sendok
sendratari
sene
senegal
senen
seneng
senengane
senenge
seng
sengaja
senggol
sengit
sengkalan
sengsara
senhora
seni
seniman
senin
senior
seniore
senja
senjata
senna
seno
senopati
sensasi
sense
sensitif
sensor
sensus
sentai
sentana
senthong
sentimeter
sentra
sentral
senyawa
seo
seok
seon
seong
seorang
seoul
sep
sepak
sepakbola
sepalih
sepanjang
sepanyol
separo
separone
sepasang
sepatu
sepe
sepeda
sepedha
seperti
sepi
sepindhah
sepira
sepisan
sepisanan
seprapat
sepre
seprene
september
sepuh
sepuhipun
sepuluh
sepur
seputar
sequel
ser
seragam
seram
serambi
serang
serangan
serangga
serat
seratan
seratanipun
serayu
serba
serbia
serbian
serbiya
serbuk
serdang
sere
sereal
serealia
serena
sergio
seri
serial
seribu
serie
series
serikat
sering
serious
seririt
serius
sero
serpens
serpihan
sersan
serta
sertifikasi
sertifikat
seru
serum
seruyan
server
service
services
ses
sesaje
sesaji
sesambetan
sesambungan
sesambungane
sesampunipun
sesanti
sesarengan
sesasi
sesawangan
sesebatan
sesebutan
sesembahan
sesepuh
seserepan
sesi
sesinglon
sesirah
sesirahe
sesorah
sesrawungan
sesuai
sesuatu
sesuguh
sesuk
sesukan
sesulih
set
seta
setahun
setan
setara
setasiyun
setatsiyun
setaun
sete
setelah
setengah
seth
sethithik
setia
setiadi
setiap
setiawan
setingkat
setiono
setitik
seto
setrapan
setrapane
sets
setting
setu
setuju
setunggal
setunggaling
setunggalipun
setya
seung
seven
sevilla
sewalike
sewelas
sewengi
sewu
sewulan
sex
sexual
seymour
sf
sfnp
sg
sh
sha
shabu
shadily
shadow
shah
shahab
shahih
shakespeare
shan
shane
shanghai
shannon
shape
share
shared
shark
sharma
sharon
sharp
shaun
shaw
she
shea
sheet
sheffield
sheikh
sheila
shell
shen
shi
shibuya
shield
shiga
shima
shimane
shimbun
shin
shinano
shinbun
shingu
shinjuku
shinkansen
shinto
shio
ship
ships
shirt
shizuoka
sho
shogakukan
sholat
shooting
shop
shopping
short
should
show
showing
shows
shrewsbury
shrimp
shu
shvoong
si
sia
siak
siam
sian
siang
siantar
siap
siapa
siaran
siberia
siblings
sibolga
sibuk
sichuan
sida
sidaharja
sidamulya
sidane
sidang
sidareja
sidayu
siddham
side
sidempuan
sidenreng
sidhang
sidhe
sidik
sidji
sidney
sidoarjo
sidorejo
sie
siegel
siemens
siena
sierra
sies
sif
sifat
sifate
sigar
sigaran
sigeg
sigegan
sigit
sign
signal
signature
significance
signifikan
signs
sigra
sigrak
sih
sihir
siji
sijia
sijine
sijining
sik
sikap
sikat
siki
sikil
sikile
sikilku
sikir
sikka
siklus
siko
siksa
siku
sil
sila
silang
silas
silat
silaturahmi
silem
silent
silesia
silicon
silih
silihan
silikon
silinder
siliwangi
silk
silla
silsilah
siluman
silva
silver
sim
sima
simalungun
simbad
simbah
simbahe
simbiosis
simbok
simbol
simbolis
simbul
sime
simeulue
simfoni
simmons
simon
simone
simpang
simpen
simpenan
simple
simplified
simpson
simpul
sin
sina
sinaga
sinaguk
sinai
sinambi
sinambung
sinaosa
sinar
sinau
since
sinclair
sindhe
sindrom
sine
sinebat
sinebut
sinematografi
sinerat
sinetron
sing
singa
singah
singapore
singapura
singaraja
singasari
singel
singer
singgasana
singgih
singh
singhasari
singi
singkat
singkatan
singkil
singkong
single
singles
singorojo
sinhala
sini
sinjai
sino
sinode
sinom
sinonim
sinopsis
sint
sinta
sintaksis
sintang
sinte
sinten
sintesis
sintetis
sinuhun
sinuwun
sinyal
sional
sipat
sipate
sipatipun
sipi
sipil
siprus
sipun
siput
sir
sira
sirah
sirahe
siram
siraman
sire
siregar
siria
sirih
sirilik
sirip
sirius
sirkuit
sirkulasi
sirna
siro
sirup
sirusa
sis
sisa
sisah
sisan
sisane
sisi
sisih
sisihan
sisihane
sisihe
sisik
sisilia
sisir
siste
sistem
sistematis
sister
sisters
sistim
siswa
siswi
sit
sita
site
sites
sithik
siti
sitik
sitiran
sitok
sitoplasma
sitrat
situ
situasi
situs
siu
sive
siwa
siwah
siwalan
siwi
six
siya
siyaga
siyang
siyap
siyung
size
sj
sk
ska
skala
skandinavia
ske
skema
skenario
sketsa
ski
skie
skin
skor
skotlandia
skrip
skripsi
sku
skuad
skuat
sky
sl
sla
slaf
slafe
slaka
slam
slame
slamet
slametan
slamete
slan
slank
slavery
slavia
slavik
slawas
slawase
sle
sleman
slendro
slide
slira
sliramu
slogan
slot
slow
slowak
slowe
sltp
slumdog
sm
sma
smackdown
small
sman
smara
smart
smi
smith
smithsonian
smk
smp
smpn
sms
smu
sn
sna
snake
snakes
snan
snane
snani
sncf
sniper
snk
snouck
snow
so
soal
soba
soc
soca
soccer
soccerbase
soccerway
social
socie
societies
society
sociology
soda
sodium
soe
soedirman
soegija
soeharto
soekarno
soekarnoputri
soeltan
soenan
soepaja
soerakarta
soes
soetji
soewe
sofia
soft
software
sofyan
sogok
sok
sokaraja
soke
soklat
soko
sokur
sol
solah
solar
soldat
soldier
sole
solid
solo
solok
solomon
solopos
solor
solusi
som
soma
somali
somalia
sombong
some
something
son
sonata
sone
song
songs
sonia
sons
sonten
sony
sonya
soo
soon
sop
sopan
sophia
sophie
sopir
sor
sora
soraya
sorbonne
sore
sorghum
sorong
sorot
sosial
sosialis
sosialisasi
sosiologi
sosis
sosok
sot
soto
sotomayor
soul
sound
sounds
soundtrack
soup
sour
source
sources
sous
south
southampton
southeast
southern
southgate
souza
soviet
sovye
sovyet
sowan
soy
sp
spa
space
spacefacts
spaghetti
spain
span
spanish
spanyol
sparrow
sparta
spe
speaker
speaking
special
species
specifications
speech
speed
spektrum
spencer
sperma
spesial
spesialis
spesialisasi
spesie
spesies
spesifik
spesifikasi
spice
spices
spicy
spider
spielberg
spies
spin
spiral
spirit
spirited
spiritual
spirulina
split
spongebob
spons
sponsor
spontan
spora
sport
sporting
sports
spot
spp
spread
spring
springer
springfield
springs
spurs
sq
squad
squads
square
squarepants
squidward
sr
sra
sragam
srage
sragen
srah
srana
srawung
sre
sregep
srengat
srenge
srengenge
srenggala
sri
srikandhi
srikandi
srikaya
srimpi
srimulat
sriwedari
sriwijaya
srpska
sru
sruweng
ss
st
sta
stabil
stabilitas
stade
stadhion
stadion
stadium
staf
staff
stage
stain
stalin
stamford
stan
stand
standar
standard
standardisasi
standards
standby
stanford
stanley
star
stari
stark
starring
stars
start
stasi
stasiun
stasiyun
state
states
station
stations
statistical
statistics
statistik
statistika
stats
status
statuse
stay
ste
steak
steel
stefan
stein
stella
stem
step
stephanie
stephanus
stephen
ster
sterling
stern
steroid
sterol
steve
steven
stevens
stevenson
stew
stewart
stha
sthi
sti
stie
stift
stik
still
stimulasi
stina
stival
stkip
stlan
stm
stmik
sto
stock
stockholm
stok
stone
stones
stop
storan
store
storia
stories
storm
story
stra
straits
strand
strange
strasbourg
strata
strategi
strategis
strategy
strauss
strawberry
stre
street
stres
stress
stretford
stri
striker
string
strip
stroberi
stroke
strong
structure
struggle
struktur
struktural
sts
stu
stuart
stub
student
students
studi
studies
studio
studios
study
stuff
stupa
stuttgart
style
su
sua
suami
suara
suaramerdeka
suarane
suasana
suatu
sub
subah
subali
subang
subclass
subkelas
submarine
submit
subordo
subroto
subspesies
subst
substansi
subtropis
subuh
subur
subway
subyek
such
suci
sud
suda
sudagar
sudah
sudan
sudarso
sudhut
sudi
sudirman
sudra
suduk
sudut
sue
suez
suffragan
sufi
sufragan
sugar
sugeng
suggested
sugih
sugihwaras
sugono
sugriwa
suguhan
suh
suharto
suhu
sui
suicide
suit
suite
sujana
sujarah
suji
sujud
sujut
suk
suka
sukabumi
sukadana
sukaharja
sukalila
sukamara
sukareja
sukarno
sukase
sukawati
suke
suket
sukha
sukhoi
suki
sukirman
sukma
sukoharjo
sukorejo
sukra
sukse
sukses
suksma
suku
sukun
sukunipun
sukur
sul
sula
sulaiman
sulang
sulap
sulawesi
sulaya
sule
sulfat
sulfur
sulih
suling
sullivan
sultan
sulu
suluk
sulung
sum
sumadya
sumahur
sumali
sumangga
sumantri
sumarah
sumare
sumatera
sumatra
sumaur
sumawana
sumba
sumbadra
sumbang
sumbangan
sumbar
sumbawa
sumber
sumberagung
sumbere
sumbereja
sumberejo
sumbing
sumbu
sume
sumebar
sumedang
sumejo
sumelang
sumenep
sumerep
sumeria
sumi
sumilir
sumingkir
summary
summer
summit
summorum
sumorot
sumpah
sumpit
sumptibus
sumrambah
sumre
sumringah
sumunar
sumur
sumurup
sun
sunan
sunar
sunat
sunda
sundance
sundari
sunday
sunderland
sundha
sundhul
sunduk
sung
sungai
sungging
sungkar
sungkawa
sungsang
sungsum
sungsun
sungu
sungut
sunni
sunny
sunrise
sunset
sunyi
sup
supados
supangkat
suparto
supata
supaya
supe
super
superhero
superior
superman
supermarket
supernova
superorder
supitan
suplemen
suporter
supplement
support
supporting
suprapto
supreme
sur
sura
surabaya
surah
surak
surakarta
surapati
surasa
surasane
surat
sure
surem
surface
surga
surgery
suri
suriah
suriname
surip
suro
suru
surud
suruh
surup
surut
survei
survey
survival
surya
suryani
suryo
sus
susah
susan
susanti
susanto
susastra
sushi
susi
susila
susilo
susmono
sustainable
suster
susu
susuh
susuhunan
susuk
susukan
susun
susunan
susuruh
suta
sutan
sutasoma
suthik
sutra
sutradara
sutradhara
sutresna
sutrisno
sutyi
suwalike
suwara
suwarane
suwardi
suwarga
suwe
suwene
suwi
suwiwi
suwun
suwung
suzuki
sv
swa
swadaya
swahili
swami
swan
swanten
swara
swarane
swaraning
swarga
swargi
swari
swasana
swasta
swatantra
swe
sweden
swedhen
swedish
sweet
sweets
swift
swindon
swiss
switch
switserlan
switzerland
swiwi
sy
sya
syafi
syah
syahrir
syaikh
syair
syamsuddin
syaraf
syarat
syari
syariah
syarif
sydney
syeikh
syekh
syen
symbian
symbols
symphony
symposium
syn
syndrome
synonyms
syria
syrian
system
systematic
systems
syu
syuhada
syukur
syuting
t
ta
taal
tab
tabalong
tabanan
tabe
tabel
tabi
table
tablesl
tablet
tabloid
tabrakan
tabu
tabuh
tabuhan
tabuk
tabukan
tabung
taco
tadhah
tae
taenia
tafsir
tag
tagalog
tah
tahan
tahanan
tahap
tahapan
tahoen
tahta
tahtane
tahu
tahun
tahunan
tai
tail
taipei
taisho
taiwan
tajam
tajem
taji
tajik
tajikistan
tajuk
tak
taka
takayama
takdir
take
takeda
taken
takes
takhta
taki
takon
takone
taksaka
taksi
taksih
takson
taksonomi
taktik
takut
takwa
tal
tala
talak
talang
talaud
tale
talent
tales
tali
taling
talk
talks
talmud
talun
tam
tama
tamale
taman
tamansari
tamara
tamat
tamba
tambah
tambahan
tambahen
tambak
tambakrama
tambakreja
tambal
tamban
tambang
tambe
tambrauw
tambuh
tame
tamil
tampa
tampah
tampak
tampar
tampil
tampilan
tamtama
tamtu
tamu
tamune
tan
tana
tanah
tanaman
tanan
tanapi
tanda
tandane
tandang
tandha
tandhing
tandhuran
tanding
tanduk
tanduke
tandur
tanduran
tane
taneman
tang
tangan
tangane
tanganku
tangat
tangerang
tangga
tanggal
tanggalan
tanggamus
tanggane
tanggap
tanggapan
tanggel
tanggepan
tangguh
tanggul
tanggung
tanggungan
tangi
tangis
tangisan
tangise
tangkai
tangke
tangkis
tango
tangsi
tani
tanin
taning
tanjung
tanjungkarang
tanjungpinang
tanjungsari
tank
tanol
tanpa
tansah
tansaya
tantangan
tante
tanuki
tanya
tanzania
tanzil
taon
tap
tapa
tapak
tapanuli
tapas
tape
tapel
tapi
tapih
tapin
tapioka
tapir
tapsir
tar
tara
tarakan
tare
targe
target
tari
tarian
tarif
tarik
taro
tarot
tart
tartamtu
tartemtu
taru
tarub
tarumi
taruna
tarung
tas
tasawuf
tasih
tasikmalaya
tasmania
taste
tasty
tasya
tat
tata
tatacara
tatah
tatakrama
tatanan
tatar
tataran
tate
tato
tatu
tatune
tau
tauco
taufik
taufiq
tauhid
taun
taunan
taune
taunipun
tauris
tautan
tawa
tawan
tawanan
tawang
tawangmangu
tawangsari
tawar
tawaran
tawon
tawur
taxonomy
tayang
taylor
tayu
tayub
tb
tbk
te
tea
teacher
team
teams
teaser
teater
teau
tebih
tebihipun
tebing
tebu
tech
technical
techniques
technology
ted
teddy
tedhak
teen
tega
tegak
tegal
tegalan
tegalreja
tegalsari
tegangan
tegas
teges
tegese
tegesing
tegesipun
teguh
teh
teheran
tehran
teja
tejo
tek
teka
tekad
tekaku
tekan
tekanan
tekane
teken
teki
teknik
teknis
teknologi
teko
teks
tekstil
tekstur
teksture
tel
tela
telaga
telah
telapak
telas
telat
telegraph
telekomunikasi
telepon
teles
teleskop
televisi
television
telik
telkom
tell
teller
telpon
telu
telugu
teluk
telulas
telune
telung
telur
tema
temah
temahan
temanggung
temante
tembaga
tembak
tembakan
tembakau
tembako
tembang
tembangan
tembange
tembe
tembi
tembikar
tembok
tembung
tembunge
tembungku
tembus
temen
temenan
temon
tempat
tempe
tempel
temperatur
template
temple
tempo
tempointeraktif
tempur
temtu
temu
temuan
temulawak
temurun
ten
tenaga
tenan
tenanan
tenang
tendangan
tendhangan
teng
tengah
tengahan
tengahe
tengahing
tengahipun
tengahmu
tengen
tengene
tengenipoen
tengenipun
tenger
tenggara
tengger
tenggorokan
tengkorak
tengku
tenimbang
tenis
tennessee
tennis
tenryu
tentang
tentara
tentrem
tenun
teologi
teori
tepang
teparo
tepat
tepate
tepi
tepung
tepus
ter
terada
terakhir
terakreditasi
teran
terancam
terang
terapan
terapi
teras
teratai
teratur
terbaik
terbang
terbatas
terbesar
terbit
terbitan
terbitane
terbuka
terdapat
terdiri
tere
terengganu
teresa
terfavorit
tergantung
terhadap
terhubung
teri
terigu
terima
teritori
teritorial
terj
terjadi
terjemahan
terjun
terkenal
terkonfirmasi
terlalu
terlarang
terletak
term
termal
termasuk
terminal
terminus
terms
ternak
ternate
ternyata
terong
teroris
terorisme
terowongan
terpadu
terpilih
terpuji
terra
terre
terrestrial
territory
terry
tersana
tersebut
tertentu
tertinggi
terumbu
terus
terusan
terutama
tes
test
testament
testing
testis
tetandhingan
tetanduran
tetane
tetanen
tetangga
tetap
tetapi
tete
tetedhan
tetela
tetembangan
tetembungan
tetenger
tetep
tetes
tetsudo
tetulung
tetuwuhan
teuku
tewas
teweh
texas
text
textbook
texts
tft
tg
th
tha
thai
thailand
thak
thalib
thames
than
thanksgiving
thar
tharik
that
the
theater
theatre
their
them
theme
then
theo
theodor
theodore
theory
there
these
thesis
thewrap
they
thi
thik
thil
thimik
thing
things
think
third
this
thithik
thiwul
tho
thok
thokolan
thomas
thompson
thomson
thor
thorell
those
thot
thothok
thought
thousand
threatened
three
thriller
thrones
through
thu
thuh
thuk
thukul
thukulan
thukule
thumb
thumuk
thunder
thursday
thus
thut
thuthuk
thuwe
ti
tia
tiada
tian
tiang
tiap
tiara
tiba
tibake
tiban
tibane
tibe
tibet
tibetan
tico
tidak
tidha
tidore
tidung
tidur
tie
tien
tienne
tiffany
tiga
tigan
tigang
tiger
tigris
tih
tik
tika
tike
tikel
tiket
tikus
tilar
tilaran
tilas
tilem
tilik
tilpun
tim
timah
timang
timbal
timbalan
timbang
timbangan
timbul
time
timeline
times
timetable
timnas
timo
timoer
timor
timothy
timotius
timun
timur
tin
tina
tinamtu
tinarbuka
tindak
tindakan
tindake
tindakke
tindhak
tindhih
tine
tinemu
tinentu
ting
tingal
tinggal
tinggalan
tinggalane
tinggi
tingkah
tingkahe
tingkat
tingkir
tini
tinimbang
tinjauan
tinju
tinta
tinuku
tinulis
tio
tionghoa
tiongkok
tip
tipe
tipis
tips
tir
tirai
tiram
tiri
tirion
tiron
tirta
tirto
tiru
tis
tisu
titah
titan
titanic
tite
titel
titi
titik
titikan
titis
title
tituler
titus
tivi
tiwas
tiyang
tjina
tk
tl
tla
tlaga
tlan
tlapak
tlatah
tle
tliti
tlutuh
tm
tmaja
tmr
tna
tnam
tnan
tni
tnik
tnis
tnografi
to
toba
tobago
tobat
toby
todanan
today
todd
tode
todhe
toei
toemoeli
toer
toewan
toewin
tog
together
togo
toh
tohjaya
toi
tojo
tok
tokaido
tokake
toke
tokke
toko
tokoh
tokohindonesia
tokugawa
tokyo
tol
tolak
tole
toledo
toli
tolkien
tom
toma
tomas
tomat
tomato
tomatoes
tombak
tombol
tome
tommy
tomo
tomohon
tomorrow
tomus
ton
tong
tonga
tongkat
tongkol
toni
tonight
tontonan
tony
too
top
topan
tope
topeng
topi
topic
topics
topik
topografi
topping
tor
tora
torah
toraja
tore
torii
torino
toro
toronto
torres
tortilla
tos
tosan
toscana
tot
total
toto
totok
tottenham
tottori
touch
touchscreen
toulouse
tour
tourism
tourist
tournament
tours
towards
tower
town
towns
toy
toya
toyama
toyanipun
toyohashi
toyota
tpi
tr
tra
trachypithecus
track
tracy
trade
tradhisi
tradhisional
tradisi
tradisional
tradition
traditional
traditions
trafford
tragedi
trah
trahing
trail
trailer
train
training
trains
tral
trampil
trans
transaksi
transfer
transfermarkt
transformasi
transformers
transge
transgender
transisi
transistor
transit
transklusi
transkripsi
translated
translation
transliterasi
transmigrasi
transmisi
transparan
transport
transportasi
transportation
transylvania
trap
trasi
trauma
travel
travis
tre
treasure
treatment
treaty
tree
trees
trek
trem
trends
trenggale
trenyuh
trep
tresna
tresnane
trevor
tri
trial
triangulum
tribun
tribune
tribunnews
trigu
trik
trikatuka
triliun
trilogi
trim
trima
trimo
trimurti
trinidad
trinity
trio
trip
triple
tripoli
tris
trisakti
tro
trofi
trojan
trompe
tron
tropical
tropika
tropis
trowongan
trowulan
troyes
tru
trubus
trucuk
true
trujillo
truk
truman
trump
trunajaya
trus
trust
truth
try
ts
tsai
tsamud
tsar
tsipras
tsu
tsunami
tt
tta
tteok
tu
tua
tuan
tuane
tuban
tubuh
tudes
tudhung
tuduhan
tugas
tugase
tugasipun
tugel
tugelan
tugu
tuha
tuhan
tuhon
tuhu
tuhun
tuhup
tuju
tujuan
tujuane
tujuh
tujune
tujuwan
tuk
tukang
tukar
tukaran
tukon
tuku
tukul
tula
tuladha
tuladhane
tuladhanipun
tulak
tulang
tular
tulis
tulisan
tulisane
tulung
tulungagung
tulus
tum
tuma
tumandang
tumangkar
tumapel
tumata
tumbak
tumbang
tumbar
tumbas
tumbu
tumbuh
tumbuhan
tumbuk
tume
tumeka
tumemen
tumenggung
tumiba
tumindak
tumindake
tumis
tumon
tumor
tumpang
tumpe
tumpeng
tumpuk
tumpukan
tumrap
tumrape
tumraping
tumuju
tumuli
tumungkul
tumurun
tumut
tumuwuh
tun
tuna
tunangan
tunas
tundha
tundhone
tundhuk
tune
tung
tungan
tunggak
tunggal
tunggale
tunggangan
tunggu
tunggul
tungkak
tungku
tuning
tunisia
tunjung
tunjungan
tuntang
tuntunan
tuntutan
tur
turah
turahan
turahane
turangga
turbo
turi
turida
turin
turis
turk
turkey
turki
turkish
turkmenistan
turn
turname
turnamen
turner
turon
turu
turun
turunan
turunane
turune
turut
tus
tusuk
tut
tuti
tutorial
tuttle
tutug
tutuk
tutul
tutup
tutur
tuturan
tuwa
tuwaku
tuwan
tuwane
tuwi
tuwin
tuwuh
tuwuhan
tuwuhe
tuwuhing
tuwung
tv
tvone
tvri
twas
twentieth
twenty
twice
twilight
twin
twins
twitter
two
tya
tyampur
tyangkeme
tyara
tyarane
tyas
tycho
tyedek
tyeluk
tyempe
tyilaka
tyilik
tyler
tyonghwa
tyotyok
type
types
typis
tyson
tz
tzu
u
ua
uang
uap
ub
uba
ubarampe
ube
ubengan
ubi
ubisoft
ubud
ubut
uc
ucap
ucapan
uce
uchida
uchiha
uci
ucla
ucul
ud
udakara
udakawimba
udakawis
udan
udane
udang
udara
udayana
udhar
udhara
udhe
udhu
udon
udu
udud
ue
uefa
ueno
ug
uga
uganda
uge
ugel
ughelli
ugi
ugm
ugo
uh
uhf
ui
uin
ujar
ujare
uji
ujian
ujug
ujung
ujur
uk
ukara
uke
ukir
ukiran
ukm
ukraina
ukraine
ukrainian
ukum
ukuman
ukur
ukuran
ukurane
ukuranipun
ul
ula
ulah
ulahraga
ulam
ulama
ulang
ulangan
ular
ulasan
ulat
ule
uleg
uler
uli
ulih
ulin
ultimate
ulu
ulujami
uluk
ulun
ulur
um
uma
umah
uman
umar
umat
umate
umayyah
umbah
umberto
umbi
umbul
ume
umi
umik
ummat
umob
ump
umpak
umpamane
umpan
umpe
umpluk
umrah
umub
umuk
umum
umume
umumipun
umun
umur
umure
umuripun
un
una
und
undaan
undang
undangan
under
understanding
undha
undhak
undhakan
undhang
undhangan
undhuh
undip
undur
une
unen
unesco
ung
ungaran
unggah
unggas
ungguh
unggul
unggulake
unggulan
ungkapan
ungke
ungkuli
ungse
ungu
uni
unicef
unicode
unik
unine
uninga
union
unit
unite
united
unity
univ
unive
universal
universe
universita
universitas
universite
universiteit
universities
university
unjal
unjuk
unjukan
unknown
unnes
uno
unofficial
uns
unsupported
unsur
unta
unte
until
untu
untuk
untukmu
untune
untung
uny
unye
up
upa
upacara
upah
upahe
upama
upamane
upaminipun
upanisad
upas
upaya
update
updated
updates
upe
upi
upin
upon
upper
upz
ur
ura
urang
uranium
uranus
urat
urban
urdu
ure
urea
uri
urin
urip
uripe
uripku
uripmu
url
urmat
ursa
urub
uruguay
urun
urunan
urung
urup
urusan
urusane
urut
urutan
urutane
us
usa
usada
usage
usah
usaha
usahane
usap
usb
usd
usda
use
used
user
uses
usgs
usia
usil
using
uskup
usman
usque
uss
ustaz
usu
usuk
usul
usulan
usule
usum
usung
usunganing
usus
ut
uta
utah
utama
utamane
utamanipun
utami
utaminipun
utan
utang
utangan
utange
utara
utawa
utawi
utc
utek
uthe
uthik
utomo
utrecht
utsmaniyah
uttar
utuh
utusan
utusane
uu
uud
uwa
uwab
uwais
uwal
uwe
uwi
uwis
uwit
uwong
uwuh
uwur
ux
uya
uyah
uye
uyuh
uyup
uzbe
uzbek
uzbekistan
v
va
vacante
vaccine
vada
vaksin
vakum
vakuola
val
vale
valencia
valentine
valle
valley
value
values
valuta
vampir
vampire
van
vancouver
vanessa
vanila
vanilla
vanuatu
var
variabel
variable
varian
variasi
varie
varietas
varieties
variety
various
vatican
vaticana
vatikan
ve
vega
vegan
vegas
vegetable
vegetables
vegetarian
vegetasi
vela
velvet
vena
venesia
veneto
venezia
venezuela
venice
venus
vera
verbal
verde
vered
verlag
vermont
verne
verona
veronica
versailles
versi
version
versions
versus
vertebrata
vertikal
very
vescovi
vespa
vesta
veteran
vga
vi
via
vic
vicariate
vicariatus
vice
vicente
vicky
victor
victoria
victory
vide
video
videocall
videos
vidio
vie
vieira
vienna
vietnam
vietnamese
view
views
vii
viii
vikar
vikariat
vikaris
viking
vila
villa
village
ville
vin
vina
vincent
vinci
vino
vintage
viola
violence
viral
virgin
virginia
virgo
virtual
virus
viruses
visa
visi
vision
visit
visitor
vista
visual
vita
vitamin
vito
vittorio
viva
vivanews
vivekananda
vj
vladimir
vo
voc
vocal
vodka
vogel
voice
voices
vojvodina
vokal
vokalis
vol
volans
volcano
voli
volkswagen
vols
volume
volumes
volusi
von
voor
voyage
vs
vulkanik
vulpecula
vy
w
wa
waal
wabah
waca
wacaan
wacan
wacana
wadah
wadana
wade
wadhah
wadhaslintang
wadhuk
wadi
waditra
wadon
wadone
waduk
wadwa
wadya
wadyabala
wae
wafel
wage
wagner
wah
wahan
wahana
wahi
wahid
wahing
wahu
wahyu
wai
waja
wajah
wajan
wajar
wajib
wajik
wajo
wak
waka
wakatobi
wakayama
wake
wakil
wakile
waktu
waktune
wal
wala
walah
walanda
walandi
walang
wale
wales
wali
waligereja
waligreja
walik
walikan
walikota
walikutha
walisanga
walk
walker
wall
wallace
walnut
walsh
walt
walter
waluh
wama
wan
wana
wanadadi
wanagiri
wanara
wanareja
wanasaba
wanasalam
wanasari
wanayasa
wanci
wancine
wanda
wandane
wanderers
wane
wang
wange
wangi
wangsa
wangsalan
wangsit
wangsul
wangsulan
wangsulane
wangsulanku
wangun
wangunan
wangune
wanguning
wani
waning
wanita
wanodya
want
wanted
wanti
wants
wantun
wantyi
wantyine
war
wara
warah
warak
waralaba
waras
warata
ward
ware
wareg
warfare
warga
wargane
warganing
wari
warigaluh
warihkusuma
waringin
waris
warisan
warkop
warm
warn
warna
warnane
warner
warni
warninipun
warren
warrior
warriors
wars
warsa
warsadiningrat
warsawa
warship
warships
warta
wartawan
waru
warung
warunge
was
wasa
wasana
washington
wasir
wasis
wasit
waspada
wastani
wastra
wastu
wat
wata
watak
watake
watanabe
watang
watara
watawis
watch
wate
watek
wateke
water
waterfall
waters
wates
watesan
watese
wati
waton
watson
watts
watu
watuk
wau
wave
wavuga
wawan
wawancara
wawasan
way
wayah
wayahe
wayan
wayang
wayangan
wayback
wayne
ways
wc
we
weapons
weasley
weather
weaver
web
webelements
weber
website
webster
weda
wedang
wedding
wedharan
wedhi
wedhung
wedhus
wedi
wednesday
wedok
wedus
weduse
wee
week
weekend
weekly
wegah
wei
weight
wejangan
weka
wekasan
wekasane
wekdal
wekdalipun
weke
wektu
wektune
welahan
welas
welasan
welcome
wele
weleri
weling
welirang
well
wells
welsh
welut
wen
wenang
wenara
wendy
wengi
wening
were
werkudara
werna
wernane
wernanipun
werner
werni
weroeh
weru
weruh
wes
wesi
wesley
west
western
westminster
wet
wetan
weteng
wetenge
weton
wetune
wewadi
wewangunan
wewatesan
wewaton
wewenang
wewengkon
wewengkone
wewengkonipun
what
wheel
when
where
whey
which
while
white
whitley
whitney
who
whole
why
wi
wib
wibawa
wibisana
wibowo
wicaksana
wicanten
wicara
wick
wid
widadari
widara
widati
wide
widhi
widi
widodo
width
widya
wife
wigan
wigati
wigatine
wigatos
wiggins
wijaya
wijayakusuma
wije
wijen
wiji
wijil
wijine
wiki
wikia
wikibooks
wikidata
wikileaks
wikime
wikimedia
wikipe
wikipedia
wikisource
wiktionary
wiku
wil
wilah
wilahan
wilangan
wilayah
wilayahe
wild
wildlife
wiley
wilhelm
wilis
wilkins
will
willem
william
williams
willis
willy
wilson
wilton
wilujeng
wimbledon
win
wina
winadi
winardi
winasis
winates
winatesan
wind
windows
windradi
windsor
windu
wine
wing
wingi
wingit
wingking
wingkingipun
wings
winih
winner
winners
winong
wins
winston
winter
wira
wiracarita
wirade
wirama
wirang
wiraraja
wire
wiri
wis
wisa
wisata
wisatawan
wisconsin
wisdom
wise
wisesa
wish
wiski
wisma
wisnu
wisrawa
wisuh
wit
witan
wite
with
within
without
wiwid
wiwit
wiwitan
wiwitane
wiwitaning
wiwitanipun
wiwite
wiyar
wiyara
wiyaripun
wiyata
wiyos
wl
wlingi
wlirang
wlulang
wm
wo
wod
woes
woh
wohan
wohe
wohing
wol
wola
wolf
wolff
wolfgang
wolfsburg
wolu
wolulas
wolung
woman
women
won
wonan
wonde
wondene
wonder
wong
wonge
woning
wonogiri
wonosari
wonosobo
wonte
wonten
wontenipun
wonton
woo
wood
woods
woodward
woody
wor
word
wordpress
words
work
working
works
workshop
world
worldfootball
worlds
worldwide
worm
wortel
worth
wos
wose
wosing
wosipun
wot
would
wow
wowohan
wr
wragad
wrap
wrata
wre
wrestling
wright
wringin
write
writer
writers
writing
writings
written
wrocław
wruh
wu
wuda
wudhu
wudun
wuhan
wujud
wujude
wujuding
wujudipun
wujute
wukir
wuku
wulan
wulandari
wulang
wulangan
wulangke
wulangreh
wulat
wule
wulu
wuluh
wulune
wulung
wungkuk
wungu
wuni
wuntu
wuragil
wuri
wuru
wuruk
wurung
wus
wusana
wusanane
wuste
wuta
wutah
wutuh
wuwuh
wuwuhan
wuwus
wuyung
wwang
wwe
wwf
www
wx
wya
wyanjana
wycombe
wyoming
x
xaverius
xavier
xbox
xi
xia
xiao
xico
xii
xiii
xinjiang
xiv
xix
xl
xperia
xpressmusic
xu
xv
xvi
xvii
xviii
xx
xxi
xxiii
y
ya
yadnya
yah
yahoo
yahudi
yahya
yai
yaikoe
yaiku
yaitu
yak
yakin
yakni
yakobus
yakub
yakuwi
yale
yam
yama
yamada
yamaha
yaman
yamato
yamin
yan
yane
yang
yani
yanti
yanto
yasa
yasadipura
yasan
yasane
yat
yati
yatim
yatna
yaya
yayah
yayasan
yayi
ycat
ye
year
yearbook
years
yehuda
yehuwah
yekti
yellow
yen
yenny
yeon
yerusalem
yes
yesuit
yesus
yet
yeyasan
yg
yi
yiddish
yin
yo
yog
yoga
yoghurt
yogurt
yogya
yogyakarta
yohanes
yok
yokanan
yokkaichi
yokohama
yom
yonex
yong
yoni
yonif
yoo
yoon
yordan
yordania
yori
york
yorkshire
yose
yosef
yoshikawa
you
young
your
youth
youtube
yovie
yu
yuan
yuasa
yuda
yudas
yude
yudha
yudhistira
yudhoyono
yuga
yugoslavia
yuk
yuki
yun
yunani
yung
yunior
yunnan
yunus
yupiter
yuri
yurisdiksi
yusuf
yuswa
yuswane
yuswanipun
yuta
yuyu
yves
yyyy
z
za
zac
zack
zagreb
zaid
zain
zainal
zainuddin
zaitun
zaman
zambia
zamboanga
zaragoza
zat
zayn
ze
zealand
zeiss
zenon
zepp
zero
zeus
zhang
zhou
zhu
zi
ziarah
zidane
zimbabwe
zo
zodiak
zoe
zoetmulder
zola
zombie
zona
zone
zoo
zoologi
zu
zubir
zuid
zulkifli
zur
zurich
{
|
}
~
¡
£
¥
§
©
«
¬
­
®
°
±
²
³
´
µ
¶
·
¹
º
»
¼
½
¾
¿
×
đa
đu
ı
ŋ
ƒ
ɐ
ɑ
ɔ
ɕ
ɖ
ə
ɛ
ɟ
ɡ
ɪ
ɲ
ɳ
ʂ
ʃ
ʈ
ʔ
ʰ
ʱ
ʲ
ʻ
ʼ
ʾ
ʿ
ˀ
ˈ
ˌ
ː
ˠ
ˤ
˥
̀
́
̂
̃
̄
̆
̇
̈
̉
̊
̋
̌
̍
̑
̓
̔
̛
̞
̣
̥
̦
̧
̨
̩
̪
̯
̰
̱
̲
͂
͡
α
β
γ
δ
ε
η
θ
ι
κ
λ
μ
ν
ο
π
ρ
ς
σ
υ
χ
ω
ϵ
а
в
г
е
и
к
л
м
н
о
р
с
т
у
і
ְ
ֲ
ִ
ֵ
ֶ
ַ
ָ
ֹ
ּ
ׁ
א
ב
ד
ה
ו
ח
ט
י
כ
ל
מ
נ
ס
ע
פ
ק
ר
ש
ת
،
ء
ا
اء
اب
اة
ات
اج
اح
اد
ار
اس
اص
اع
اف
اق
اك
ال
الا
الد
الر
الس
الش
الص
الل
الله
الن
ام
ان
اه
او
اي
ب
بن
ة
ت
ث
ج
ح
خ
د
ذ
ر
ز
س
ش
ص
ض
ط
ظ
ع
غ
ـ
ف
ق
ك
ل
م
ن
نت
ند
نز
نس
نف
نك
ه
و
وا
وب
ود
ور
ول
ون
وه
ى
ي
يد
ير
يع
يل
يم
ين
يه
ً
ٌ
ٍ
َ
ُ
ِ
ّ
ْ
ٓ
ٔ
ٕ
ٚ
١
١٠
١١
١٢
١٣
١٤
١٥
١٦
١٧
١٨
١٩
٢
٢٠
٣
٤
٥
٦
٧
٨
٩
ٰ
ٱل
ٱلر
ٱلل
چ
ڠ
ڤ
ک
ی
ۖ
ۗ
ۙ
ۚ
۞
ۡ
ۥ
۩
ं
क
ख
ग
च
छ
ज
ट
ड
ण
त
द
ध
न
प
ब
भ
म
य
र
ल
व
श
ष
स
ह
़
ा
ि
ी
ु
ू
ृ
े
ै
ो
्
ঁ
ং
ক
খ
গ
চ
ট
ড
ত
দ
ন
প
ব
ভ
ম
য
র
ল
শ
ষ
স
হ
়
া
ি
ী
ু
ে
্
க
த
ய
ர
ா
ி
ு
ெ
்
ಿ
ೆ
್
ം
ക
ച
ത
പ
യ
ാ
ി
ു
െ
േ
്
්
ก
ข
ง
จ
ช
ด
ต
ท
น
บ
ป
ผ
พ
ม
ร
ล
ว
ส
ห
อ
ั
า
ิ
ี
ื
ุ
ู
็
่
้
๊
๋
์
່
་
ག
ད
མ
ར
ས
ི
ུ
ོ
ྱ
က
ခ
င
စ
ဆ
တ
န
ပ
မ
ရ
လ
အ
ါ
ာ
ိ
ီ
ု
ူ
ေ
ဲ
့
း
္
်
ျ
ြ
ွ
ှ
ᘔ
ក
រ
ា
ុ
ូ
្
᭄
ᮥ
ᮨ
᮪
​
‌
‍
‎
‐
‑
–
—
―
‖
‘
’
“
”
„
†
•
…
′
″
⁄
⁡
€
₹
℃
™
↑
→
↔
↷
∑
−
∞
∫
∼
≈
≤
⋅
③
④
⑦
│
■
▭
◌
☃
★
♠
♣
♥
♦
♭
✅
❌
⟨
⟩
⺀
⺄
⺆
⺈
⺊
⺌
⺕
⺝
⺸
⺼
⿰
⿱
⿲
⿳
⿴
⿵
⿶
⿷
⿸
⿹
⿺
⿻
、
。
々
《
》
「
」
『
』
【
】
〜
〢
あ
い
う
え
お
か
き
く
け
こ
さ
し
す
せ
そ
た
ち
っ
つ
て
と
な
に
の
は
ひ
ふ
へ
ほ
ま
み
む
め
も
ゃ
や
ゆ
ょ
よ
ら
り
る
れ
ろ
わ
を
ん
゙
゚
ァ
ア
ィ
イ
ウ
ェ
エ
オ
カ
キ
ク
ケ
コ
サ
シ
ス
セ
ソ
タ
チ
ッ
ツ
テ
ト
ナ
ニ
ネ
ノ
ハ
ヒ
フ
ヘ
ホ
マ
ミ
ム
メ
モ
ャ
ヤ
ュ
ユ
ョ
ヨ
ラ
リ
ル
レ
ロ
ワ
ヲ
ン
ヶ
・
ー
㇁
㇂
㇄
㇇
㇈
㇉
㇓
㐁
㐄
㐅
㐌
㐫
㐬
㐭
㐮
㐱
㑒
㒵
㒸
㒼
㓁
㓞
㔾
㕛
㕣
㖾
㘝
㚅
㚇
㚔
㚘
㝉
㝡
㝴
㝵
㞋
㞢
㞷
㠩
㠭
㠯
㡀
㡭
㡿
㢲
㢴
㣇
㣺
㥯
㪅
㫄
㫐
㫒
㫺
㬅
㬎
㬥
㬰
㲋
㳄
㷠
㸒
㸚
㸦
㼌
㼲
㽞
㿟
䀠
䂞
䍃
䏍
䒑
䖍
䖒
䖝
䖵
䙴
䚻
䜌
䝿
䡛
䧹
䪞
一
丁
丂
七
丄
丅
丆
万
丈
三
上
下
丌
不
与
丏
丐
丑
专
且
丕
世
丘
丙
业
东
丞
丢
丣
两
严
並
丨
丩
个
丫
丬
中
丮
丰
丱
串
丵
丶
丷
丸
丹
为
主
丼
丽
丿
乀
乂
乃
久
乆
乇
么
义
之
乌
乍
乎
乏
乐
乑
乔
乖
乗
乘
乙
乚
乛
乜
九
乞
也
习
乡
乳
乾
亀
亅
了
亇
予
争
事
二
亍
于
亏
亐
云
互
亓
五
井
亘
亚
亜
亞
亟
亠
亡
亢
交
亥
亦
产
亨
亩
享
京
亭
亮
亯
亰
亲
亳
亶
亷
人
亻
亼
亾
仁
今
介
仌
从
仐
仑
仒
仓
仔
仕
他
付
仙
仝
代
令
以
仮
仲
件
任
企
伊
伏
伐
休
会
伝
传
伯
但
位
住
佐
体
何
佘
余
作
你
佥
使
來
侈
例
侌
侖
侯
侵
便
保
俞
信
修
倉
倍
候
倠
値
倫
做
偵
備
傳
僉
像
僕
優
儿
兀
允
兂
元
兄
充
兆
兇
先
光
兊
克
兌
免
児
兑
兒
兓
兔
党
兜
兟
入
全
兩
兪
八
公
六
兮
兰
共
关
兵
其
具
典
兹
兼
冀
冂
冃
冄
内
円
冈
冉
冊
冋
册
再
冎
冏
冐
冒
冓
冖
冗
冘
写
军
农
冝
冠
冡
冥
冫
冬
冷
几
凡
凢
凵
凶
凷
凸
凹
出
函
凾
刀
刁
刂
刃
刄
刅
分
切
刊
刍
刑
刕
刖
列
刘
则
初
別
利
别
到
制
刺
則
削
剌
前
剛
剡
剽
劇
劉
力
功
加
劦
助
劫
劳
劵
勃
勇
勉
勒
動
務
勝
勞
勢
勤
勹
勺
勻
勾
勿
匀
匂
包
匆
匈
匊
匋
匍
匕
化
北
匚
匝
匡
匪
匱
匸
匹
区
医
匽
匿
區
十
卂
千
卄
卅
卆
升
午
卉
半
卌
华
卑
卒
卓
協
单
卖
南
博
卜
卝
卞
占
卡
卢
卣
卤
卦
卩
卪
卬
卯
印
危
即
却
卵
卷
卸
卻
厂
厃
厄
历
厈
厉
厌
厓
厘
厚
原
厤
厥
厨
厭
厲
厶
厷
厸
去
厼
厽
叀
参
參
叅
又
叉
及
友
双
反
叐
发
叒
叔
叕
取
受
叚
叜
叟
口
古
句
另
叩
只
召
可
台
叱
史
右
叵
号
司
叹
吂
吃
各
吅
合
吉
吊
吋
同
名
后
吏
向
吕
君
吝
吞
否
含
启
吳
吴
吹
吾
呂
呆
呈
告
员
呙
周
味
呼
命
咅
和
咎
咠
咢
咨
咲
咸
咼
哀
品
哉
員
哥
哲
唐
唱
商
啇
問
啚
啬
啻
善
喜
喬
單
喰
営
喿
嗇
嘉
噩
嚴
囊
囗
囘
囙
囚
四
回
囟
因
団
囧
囬
困
囱
図
囷
固
国
图
圂
圅
國
圍
圏
園
圓
土
圡
圣
圥
在
圭
地
圶
场
圼
坂
均
坊
坐
坒
坚
坴
垂
型
垔
垚
垣
埀
埋
城
域
埶
執
基
堀
堂
堅
堆
堇
堯
報
場
塔
塚
塞
塩
境
増
墨
壘
士
壬
壯
声
売
壳
壴
壹
壺
壽
夂
处
夅
夆
备
変
夊
夋
夌
复
夏
夒
夕
外
夗
夘
多
夜
夢
大
夨
天
太
夫
夬
夭
央
失
夲
头
夷
夸
夹
夻
夾
奂
奄
奇
奈
奉
奎
奏
奐
契
奓
奔
奚
奞
奠
奢
奥
奭
女
奴
奻
好
如
妄
妙
妟
妥
妹
妻
妾
始
姑
委
姜
姫
姿
威
娄
婁
婴
嬰
嬴
子
孑
孔
孕
孖
字
存
孚
孛
孝
孟
季
孤
学
孫
孱
學
宀
宁
宂
它
宅
宇
守
安
宋
完
宏
宓
宗
官
定
宛
宜
宝
実
客
宣
室
宮
宰
害
家
容
宾
宿
寄
寅
密
富
寒
察
寧
審
寫
寬
寮
寸
对
寺
寻
寽
対
寿
封
尃
射
将
將
專
尉
尊
尋
尌
對
小
少
尒
尓
尔
尖
尗
尚
尞
尢
尣
尤
尧
尨
尭
就
尸
尹
尺
尻
尼
尽
尾
尿
局
居
屈
屋
屎
屏
屑
展
屖
屚
属
屠
屡
屬
屮
屯
屰
山
屵
屾
岁
岂
岐
岑
岡
岩
岳
岸
峯
峰
島
崇
崎
崑
崔
崖
崙
崩
嵐
嵬
嶲
巂
巛
川
州
巟
巠
巡
巢
巤
工
左
巧
巨
巩
巫
差
己
已
巳
巴
巷
巸
巻
巽
巾
巿
帀
市
布
希
帚
帛
帝
带
師
席
帯
帰
帶
常
幌
幕
幡
干
平
年
幵
并
幷
幸
幹
幺
幻
幼
幽
幾
广
庁
広
庄
庆
床
底
店
庚
府
度
庫
庭
庶
康
庸
廉
廌
廛
廠
廣
廩
廴
延
廷
建
廾
廿
开
弁
弃
弄
弇
弋
式
弓
弔
引
弗
弘
弜
弟
张
弥
弦
弱
張
強
强
弾
彊
彌
彎
彐
彑
当
彔
录
彖
彗
彡
形
彥
彦
彧
彩
彭
影
彳
役
彼
往
待
律
後
徐
徒
得
徙
從
御
復
微
徳
徵
德
心
忄
必
忌
忍
志
忘
忝
忠
忩
快
念
忽
忿
思
怠
急
性
怱
恆
恋
恒
恩
恭
息
恵
悉
悟
患
悤
悲
悶
情
惠
惡
惢
想
愁
愈
意
愛
感
慈
慧
慮
慶
憂
憲
應
戀
戈
戉
戊
戋
戌
戍
戎
成
我
戒
戔
或
戚
戠
戢
戦
截
戰
戲
戶
户
戸
戹
戼
戾
房
所
扁
扇
手
扌
才
打
托
执
承
技
投
折
抜
披
拉
拜
拿
指
挙
振
掌
排
探
推
提
揚
摩
播
支
攴
攵
收
攸
改
放
政
敄
故
敏
敕
敖
敗
教
敝
敞
敢
散
敦
敫
敬
数
敷
數
斂
文
斉
斊
斗
料
斤
斥
斩
斬
斯
新
方
於
施
斿
旁
旅
旋
族
旗
无
旡
既
旣
日
旦
旧
旨
早
旬
旱
旲
时
旾
昆
昇
昌
昍
明
昏
易
昔
昗
昜
星
映
春
昬
昭
是
昱
昴
昷
時
晃
晋
晏
普
景
晶
智
暑
暴
曆
曇
曩
曰
曲
曳
更
曷
書
曹
曼
曽
曾
替
最
朁
會
月
有
朋
服
朔
朕
朗
望
朝
期
木
朩
未
末
本
札
朮
术
朱
朵
朶
机
朿
杀
杉
李
杏
村
杜
束
条
来
杯
杰
東
杲
杳
松
析
林
枚
果
枝
枲
枼
柏
某
柔
查
柬
柰
柴
査
柿
栄
栗
校
株
根
桀
桂
桃
案
桐
桑
桜
桼
梁
梅
條
梟
梨
棘
棠
棥
森
植
楚
業
極
楽
概
榮
樂
樊
標
横
樽
橋
機
欠
次
欣
欮
欲
欶
欽
款
歆
歇
歌
歛
止
正
此
步
武
歨
歩
歪
歮
歯
歰
歲
歳
歴
歷
歸
歹
歺
死
殳
段
殷
殸
殹
殺
殻
殿
毋
毌
母
毎
每
毒
比
毕
毚
毛
毳
氏
氐
民
气
気
氣
水
氵
氶
氷
永
氺
氾
汁
求
汉
汝
汞
江
池
決
沃
沓
沖
沙
沝
沢
河
油
治
沼
沿
泉
法
波
泣
泥
注
泰
洋
洛
洞
津
洪
洲
活
派
流
浅
浜
浦
浪
浮
海
涙
涼
淡
淮
深
清
済
渋
渚
渠
渡
温
港
湖
湯
湾
満
源
準
滝
滿
演
漢
漫
漸
潮
澤
濃
瀬
灣
火
灬
灭
灰
灵
灷
炅
炎
炏
炒
炗
炙
炭
点
為
烈
烏
烝
焉
無
焦
焱
然
焼
煎
煞
照
熊
熏
熱
燒
燕
營
燮
爪
爫
爭
爯
爰
爱
爲
爵
父
爻
爽
爾
爿
片
版
牙
牚
牛
牜
牟
牢
牧
物
牪
特
牽
犀
犬
犭
犮
状
狂
狄
狊
独
狺
猋
猒
猪
献
獻
玄
率
玉
王
玟
玨
珂
珎
珠
班
現
球
理
琴
瑞
瑟
瑠
瑩
瓜
瓦
甘
甚
生
産
用
甫
甬
田
由
甲
申
电
甶
男
甸
甹
町
画
甾
畀
界
畏
畐
畑
留
畜
畟
畢
略
畧
畨
番
畫
異
畱
當
畺
畾
畿
疊
疋
疌
疑
疒
疾
病
癶
癸
癹
発
登
發
白
百
皀
皃
的
皆
皇
皋
皐
皕
皮
皷
皿
盃
盆
盇
盈
益
盍
盎
监
盒
盖
盛
盡
監
盤
盧
目
直
相
盾
省
眇
眉
看
県
眔
眞
真
眷
眼
眾
着
睘
睪
睿
瞏
瞢
瞿
矍
矛
矞
矢
矣
知
矦
短
石
研
砲
破
碎
磊
磨
示
礻
礼
社
祖
祝
神
祟
票
祭
禀
禁
福
禸
禹
禺
离
禽
禾
禿
秀
私
秃
秉
秋
科
秘
秝
秦
称
移
稟
種
稲
穀
穌
積
穴
究
穹
空
穿
突
窄
窒
立
竒
竜
竝
竟
章
童
竹
笑
笠
第
笼
筆
等
答
箕
算
箴
節
篤
篭
籍
米
粉
粛
粟
粤
粦
粲
精
糎
糕
糞
糸
糹
系
紀
約
紅
納
純
紙
級
素
索
紫
累
細
終
組
経
結
絜
絫
統
絲
經
継
続
維
網
綿
総
線
編
縄
縣
繇
織
纍
纟
红
组
缶
网
罒
罔
罕
罗
罙
罡
罢
罪
署
罷
羅
羊
羌
羍
美
羔
羕
羗
羞
羡
羣
群
義
羲
羸
羽
翁
翏
習
翔
翕
翟
翠
翼
老
耂
考
者
耆
而
耎
耑
耒
耳
耴
耶
耷
聂
聊
聖
聚
聞
聲
聶
聿
肀
肃
肅
肉
肖
肙
肥
肩
肯
育
肴
胃
背
胡
胥
能
脇
脊
脩
腐
膚
臣
臤
臧
臨
自
臬
臭
臯
臱
至
致
臺
臼
臽
臾
臿
舀
舂
舄
與
興
舉
舌
舍
舛
舜
舞
舟
航
般
船
艇
艦
艮
良
色
艸
艹
艾
芒
芔
芬
芮
花
芳
芸
芺
芻
苔
苗
苟
若
苦
英
茂
茶
茸
荅
草
荒
荣
荷
荼
莆
莉
莧
莫
莽
菆
菊
菐
菓
菜
華
菱
萬
落
葉
著
葛
董
葵
蒙
蒦
蒲
蒼
蓋
蓬
蓮
蓺
蔑
蔡
蔵
蕉
蕭
薄
薛
薦
薰
藍
藏
藤
藥
蘇
蘭
虍
虎
虐
虒
虔
處
虖
虗
虘
虚
虛
虜
虞
號
虫
虽
蚤
蚩
蛋
蜀
蜜
蟲
蠡
血
行
衍
術
衛
衣
衤
表
衮
衰
袁
袞
裕
補
製
褭
褱
襄
襾
西
覀
要
覃
見
規
覓
覧
親
観
覽
见
角
解
言
訁
訂
訇
計
記
設
許
試
詩
話
詹
誌
誕
語
誩
説
調
論
諸
警
護
讠
语
谷
豆
豈
豊
豐
豕
豖
豙
象
豦
豩
豪
豸
貇
貝
貞
貟
負
貢
貧
貨
貪
貫
責
貳
貴
買
費
賀
賁
資
賈
賏
賓
賔
賛
賞
賢
賣
質
賴
贊
贝
贡
责
贯
贲
贵
赖
赞
赤
赦
走
起
超
越
足
跡
路
蹇
身
躬
車
軍
軎
軟
転
軽
載
輝
輦
輪
輸
车
辛
辜
辟
辣
辥
辰
辱
農
辵
辶
边
辺
达
过
近
连
迷
追
退
送
逆
逐
通
速
造
逢
連
逮
週
進
遀
遂
運
過
道
達
遠
遣
適
遷
選
遺
邊
邑
邕
那
邦
邪
郎
郡
部
郭
郷
都
鄉
鄭
酉
酋
配
酒
酓
酥
釆
采
里
重
野
量
金
釒
釜
鈴
鉄
銀
錢
録
鍋
鑑
钅
長
镸
长
門
閃
閉
開
閏
閑
閒
間
閔
関
閣
閵
閻
闌
门
间
闷
阑
阜
阝
阪
防
阿
降
限
陝
院
陳
陸
陽
隆
隊
隋
際
隠
隡
隨
隱
隶
隹
隺
隻
隼
隽
难
雀
雁
雄
集
雈
雋
雍
雐
雑
雔
雙
雚
雜
雝
雞
離
難
雨
雩
雪
雲
零
雷
電
需
霊
霍
霜
霝
霞
露
霸
靈
靑
青
静
非
靡
面
靣
革
韋
韓
韦
韭
韯
韱
音
頁
頃
項
順
須
頗
頡
頭
頻
顛
類
页
風
风
飛
飞
食
飠
飯
餅
養
館
饣
饼
首
香
馬
馮
駅
駦
騨
马
骨
高
髟
鬥
鬯
鬲
鬼
魂
魔
魚
魯
鮮
鯉
鱼
鲁
鳥
鳳
鶴
鸟
鸡
鹵
鹿
麃
麗
麥
麦
麵
麺
麻
黃
黄
黍
黎
黑
黒
黨
黹
黽
黾
鼎
鼓
鼠
鼻
齊
齋
齐
齒
齿
龍
龙
龜
龟
龠
龰
龱
龴
龵
龶
龷
龸
龹
ꦁ
ꦂ
ꦃ
ꦄ
ꦆ
ꦈ
ꦉ
ꦊ
ꦌ
ꦍ
ꦎ
ꦏ
ꦑ
ꦒ
ꦓ
ꦔ
ꦕ
ꦖ
ꦗ
ꦘ
ꦙ
ꦚ
ꦛ
ꦝ
ꦟ
ꦠ
ꦡ
ꦢ
ꦣ
ꦤ
ꦥ
ꦦ
ꦧ
ꦨ
ꦩ
ꦪ
ꦫ
ꦬ
ꦭ
ꦮ
ꦯ
ꦰ
ꦱ
ꦲ
꦳
ꦴ
ꦶ
ꦷ
ꦸ
ꦹ
ꦺ
ꦻ
ꦼ
ꦽ
ꦾ
ꦿ
꧀
꧁
꧂
꧄
꧅
꧇
꧈
꧉
꧊
꧋
꧌
꧍
ꧏ
꧐
꧑
꧒
꧓
꧔
꧕
꧖
꧗
꧘
꧙
者
艹
﴾
﴿
ﺍ
﻿
！
＆
（
）
，
－
／
０
１
２
３
４
５
６
７
８
：
；
？
ａ
ｂ
ｃ
ｄ
ｇ
ｈ
ｊ
ｋ
ｌ
ｎ
ｔ
｜
～
￼
𠀁
𠀃
𠀆
𠀉
𠀎
𠀐
𠁁
𠁣
𠂆
𠂇
𠂈
𠂉
𠂊
𠂋
𠂎
𠂒
𠂔
𠂛
𠂡
𠂢
𠂤
𠂬
𠂭
𠂹
𠃊
𠃋
𠃌
𠃍
𠃎
𠃑
𠃓
𠃔
𠃜
𠄌
𠄎
𠄠
𠄢
𠆢
𠆥
𠇍
𠈌
𠌵
𠓜
𠔉
𠔥
𠔼
𠔽
𠔿
𠕀
𠕁
𠕋
𠘧
𠘨
𠙻
𠙼
𠚏
𠚒
𠚤
𠚪
𠣏
𠤎
𠤕
𠥓
𠦄
𠦑
𠦝
𠧒
𠧗
𠧪
𠩺
𠪚
𠫓
𠫔
𠫤
𠬛
𠬝
𠬞
𠬢
𠬤
𠬶
𠮛
𠮦
𠮷
𠯑
𠱠
𠳮
𠷎
𡈼
𡉀
𡉵
𡌥
𡍮
𡏳
𡕒
𡕩
𡕰
𡖅
𡗗
𡗜
𡘆
𡘤
𡧱
𡨄
𡩧
𡬠
𡭽
𡰣
𡰥
𡰪
𡰯
𡰱
𡷈
𡸁
𡿨
𡿩
𡿪
𡿺
𢀖
𢀛
𢀩
𢁙
𢆉
𢆰
𢆶
𢇁
𢇇
𢉖
𢌬
𢌿
𢏚
𢑑
𢑚
𢖻
𢙣
𢛳
𢦏
𢦒
𢧵
𢼄
𢾕
𣁋
𣄼
𣅀
𣅽
𣍘
𣎳
𣎵
𣏋
𣏼
𣗥
𣥂
𣥖
𣦵
𣦼
𣧄
𣪊
𣪠
𣬉
𣳾
𣶒
𤇾
𤊽
𤐫
𤓰
𤔔
𤕨
𤣩
𤰇
𤰔
𤰞
𤴓
𤴔
𤽄
𥁑
𥁕
𥃦
𥃩
𥃭
𥇡
𥑟
𥘅
𥘈
𥝢
𥫗
𥱡
𦈢
𦉪
𦉬
𦉼
𦍌
𦍒
𦎧
𦐇
𦓔
𦔮
𦘒
𦙃
𦚏
𦣝
𦣞
𦣻
𦥑
𦥔
𦥯
𦨉
𦭝
𦰩
𧆞
𧈧
𧘇
𧰨
𧴪
𧴮
𧵩
𧾷
𨸏
𨾴
𩙿
𩠐
𩫏
𩵋
𪉷
𪜀
𪟽
𪠲
𪩲
𫇦
𫔭
𫜸
𫝀
𫠣
𫠩
𫢉
𫥞
𫩏
𫩠
𫪡
𫲽
𫶧
𬀷
𬐘
𬗌
𬙙
𬛸
𬜯
𬟩
𬯁
𬴘
𬺻
𬼉
𬼖
𭀰
𭁈
𭁨
𭅰
𭑈
𭕄
𭗼
𭤨
𭥫
𭻾
𮅕
𮊿
𮍌
𮍏
𮓗
𮥼
𮧮
廾
𰀁
𰀄
𰀈
𰀉
𰀕
𰀠
𰀡
𰀢
𰀪
𰁜
𰃮
𰆊
𰆘
𰋙
𰕎
𰢴
𰧭
𰯲
00--
000--
01--
02--
03--
04--
05--
06--
07--
08--
09--
104--
36--
37--
42--
43--
44--
45--
46--
47--
48--
49--
50--
51--
52--
53--
54--
55--
56--
57--
58--
59--
60--
61--
62--
63--
64--
65--
66--
67--
68--
69--
70--
71--
72--
73--
74--
75--
76--
77--
78--
79--
80--
81--
82--
83--
84--
85--
86--
87--
88--
89--
90--
91--
92--
93--
94--
95--
96--
97--
978--
978979--
98--
99--
a--
aab--
aac--
aad--
aadh--
aag--
aaj--
aak--
aal--
aam--
aamb--
aamp--
aan--
aap--
aar--
aas--
aat--
aaw--
ab--
aba--
abd--
abdi--
abe--
abi--
abo--
abs--
abu--
ac--
accid--
activ--
ad--
ada--
addit--
ade--
adhi--
adi--
adria--
adverti--
advi--
advo--
ae--
aero--
af--
ag--
aga--
agra--
agri--
ah--
ai--
air--
aj--
aji--
ak--
aka--
aki--
akr--
aku--
al--
ala--
alay--
ale--
aleksa--
ali--
alih--
all--
alm--
als--
alt--
am--
ama--
amba--
ambu--
ame--
ami--
amp--
amu--
an--
ana--
anak--
ance--
and--
anda--
ane--
ang--
angio--
ani--
ann--
anna--
annou--
ans--
anta--
antar--
antho--
anti--
anu--
any--
ao--
ap--
apa--
ape--
api--
apo--
appe--
apr--
apu--
aq--
aqua--
ar--
ara--
aran--
arbit--
arc--
arche--
are--
arga--
ari--
arm--
ars--
art--
arti--
as--
asa--
ase--
ash--
asi--
asp--
assas--
asta--
astro--
asy--
at--
ata--
ati--
atmos--
atr--
attract--
atur--
au--
aus--
austral--
auto--
av--
aw--
awa--
awu--
ay--
ayo--
ayu--
az--
b--
ba--
bab--
bac--
bach--
bache--
back--
bad--
bag--
bah--
bai--
bak--
bal--
bala--
bale--
bali--
ball--
ban--
band--
bang--
bantar--
banyu--
baq--
bar--
bas--
basa--
bat--
batu--
bau--
bay--
be--
beau--
beda--
bee--
bei--
bek--
bel--
bela--
ben--
beng--
ber--
beren--
berg--
berke--
bern--
bes--
bet--
bha--
bho--
bhra--
bhu--
bi--
biblio--
bid--
bien--
bin--
bina--
bio--
bir--
bis--
bit--
bk--
bl--
bland--
ble--
blo--
blu--
bo--
bob--
bohe--
bok--
bol--
bom--
bon--
bong--
bonif--
boo--
bor--
bos--
bot--
boul--
boule--
bour--
box--
boy--
bp--
br--
bra--
brad--
bre--
bren--
bri--
bro--
brom--
bron--
bru--
bruns--
bu--
bud--
budi--
buk--
bul--
bulu--
bumi--
bun--
bur--
bus--
but--
by--
c--
ca--
cae--
cai--
cak--
cal--
cala--
calcu--
cam--
camp--
can--
cang--
cap--
car--
cara--
cas--
casa--
cassi--
cat--
cate--
cauc--
cc--
ce--
cele--
celebra--
celes--
cent--
cer--
ch--
cha--
chamae--
chan--
char--
che--
chi--
chitta--
cho--
chry--
chu--
ci--
cia--
cid--
cik--
cil--
cin--
cina--
circ--
cis--
cit--
citeref--
ck--
cl--
cle--
clus--
cn--
co--
cock--
cod--
col--
com--
compo--
con--
confect--
conve--
cor--
corn--
cos--
cot--
cout--
cow--
cr--
crac--
cre--
cresc--
cri--
crist--
cro--
crusa--
cs--
cu--
cultiv--
cum--
cuma--
cup--
cur--
cus--
cut--
cy--
cycl--
d--
da--
dab--
dae--
dag--
dah--
dai--
dak--
dal--
dam--
dan--
dang--
dar--
darma--
das--
dasa--
dat--
data--
day--
daya--
dd--
de--
dec--
dee--
defi--
dei--
dek--
del--
deli--
den--
depen--
der--
des--
descr--
deve--
develo--
dewa--
dh--
dha--
dhan--
dhe--
dhi--
dho--
dhong--
dhu--
di--
dia--
diag--
diam--
dian--
dib--
diban--
dibe--
dibo--
dibud--
dibuk--
dic--
dice--
did--
dide--
didh--
didi--
diduk--
die--
dieks--
dig--
digan--
digat--
dige--
dihub--
dii--
diim--
diing--
dija--
dije--
diji--
dik--
dika--
dikate--
dike--
diko--
dikom--
dikuwa--
dil--
dile--
dili--
dim--
dime--
din--
ding--
dino--
dio--
dip--
dipan--
dipe--
dipl--
dipo--
dipop--
dipra--
dipun--
diput--
dir--
dire--
diri--
dis--
disco--
dise--
diselengg--
disi--
disum--
disun--
dit--
ditak--
ditama--
ditan--
ditand--
ditang--
dite--
ditim--
diton--
ditud--
ditum--
ditung--
ditut--
ditye--
diu--
diud--
dium--
diun--
diung--
diupa--
diut--
dive--
diw--
diwe--
dj--
dl--
dm--
do--
doc--
dod--
dog--
dok--
dol--
dom--
don--
doo--
dr--
dra--
dre--
dri--
dro--
dru--
du--
duh--
duk--
dul--
dum--
dumpl--
dur--
dus--
dwara--
dwi--
dy--
dz--
e--
ea--
ec--
ed--
edi--
edu--
ee--
eff--
eh--
ei--
ein--
eisen--
ek--
eka--
eko--
eks--
el--
ele--
elec--
elep--
eli--
em--
emer--
en--
end--
endos--
ene--
eng--
ent--
ep--
epis--
equa--
er--
era--
eri--
es--
est--
estab--
et--
eth--
ethno--
eu--
eupho--
euro--
ewa--
ex--
exo--
explo--
expo--
exten--
ez--
f--
fa--
fair--
fak--
fan--
far--
fat--
favo--
fe--
feli--
fen--
ferr--
fi--
fill--
film--
fin--
fir--
fire--
fish--
fit--
fix--
fk--
fl--
flat--
flav--
flo--
flu--
fo--
follo--
food--
foot--
for--
foto--
fr--
fra--
fre--
fred--
free--
frit--
fu--
fuji--
fun--
fundame--
furn--
g--
ga--
gad--
gae--
gai--
gal--
gale--
gan--
ganda--
gang--
gap--
gar--
gas--
gat--
gay--
ge--
gel--
gela--
gema--
gemb--
gembl--
gen--
geng--
geo--
ger--
get--
gh--
gi--
gia--
gil--
gim--
gin--
gio--
giri--
gl--
gle--
gliko--
glo--
glon--
go--
god--
goep--
gol--
gomb--
gon--
good--
gor--
got--
gover--
gr--
gra--
gre--
green--
gril--
grim--
gro--
gromb--
gu--
gua--
gui--
gul--
gum--
gun--
guna--
gur--
gus--
gut--
guwa--
guz--
gy--
h--
ha--
had--
hadi--
hae--
hai--
hak--
hal--
ham--
han--
hand--
hang--
har--
hard--
harm--
has--
hat--
haw--
hay--
he--
hen--
her--
hey--
hi--
hid--
high--
him--
hin--
hip--
hiper--
his--
hit--
hiz--
hl--
hm--
ho--
hob--
hok--
holo--
home--
homo--
hon--
hoo--
hop--
horizo--
horti--
hot--
how--
hr--
hu--
hua--
hub--
hum--
hun--
hut--
hwa--
hy--
hydr--
hyg--
hyper--
i--
ia--
iba--
ibu--
ic--
id--
ide--
ie--
if--
ig--
ih--
ii--
ik--
ikh--
il--
ila--
ili--
illum--
illus--
im--
ima--
impl--
imple--
in--
ina--
inc--
incre--
ind--
indo--
ine--
info--
infra--
ing--
inhi--
ini--
inn--
innova--
ino--
inqui--
insi--
insp--
inspe--
insta--
int--
inter--
inti--
investi--
io--
ip--
ir--
ira--
iri--
is--
ishi--
iso--
ist--
it--
ita--
iv--
iwa--
iz--
j--
ja--
jae--
jag--
jaga--
jah--
jai--
jala--
jam--
jan--
jana--
jang--
jar--
jas--
jati--
jatm--
java--
jaya--
je--
jen--
jeng--
jer--
jet--
ji--
jia--
jim--
jin--
jina--
jing--
jiwa--
jj--
jl--
jlamp--
jle--
jo--
joa--
joe--
joglo--
jon--
jong--
jr--
jro--
ju--
jud--
jum--
jume--
jun--
jung--
juru--
jus--
jw--
k--
ka--
kab--
kaba--
kabe--
kabud--
kaca--
kace--
kad--
kade--
kadi--
kae--
kah--
kahub--
kai--
kaja--
kak--
kaka--
kake--
kaku--
kal--
kala--
kale--
kali--
kam--
kama--
kami--
kan--
kang--
kani--
kap--
kape--
kapi--
kapra--
kapu--
kar--
kara--
karang--
kare--
kari--
karo--
karta--
kas--
kasa--
kase--
kasi--
kat--
kata--
kate--
kati--
katujo--
kau--
kaw--
kawe--
kawi--
kawur--
kay--
kaya--
kayu--
kb--
ke--
keber--
kec--
kei--
kele--
kelung--
kemen--
kemp--
kemr--
ken--
kena--
kent--
kep--
kepah--
kepe--
kepon--
kepri--
ker--
kera--
kersa--
kes--
kese--
kesim--
kesuk--
ket--
kete--
keting--
key--
kg--
kh--
kha--
kho--
ki--
kid--
kik--
kim--
kin--
kina--
king--
kins--
kir--
kiri--
kis--
kit--
kita--
kk--
kl--
kla--
kle--
klint--
klo--
klon--
kloro--
klu--
klun--
kn--
ko--
kod--
koh--
kok--
kol--
kom--
koma--
komp--
kompa--
kompe--
kon--
kong--
konsti--
kop--
kor--
kos--
kot--
kota--
kr--
kra--
kre--
kri--
kris--
kro--
krom--
kron--
krono--
kru--
ks--
ksa--
ksi--
kspe--
ktro--
ku--
kuk--
kul--
kula--
kum--
kuma--
kume--
kun--
kung--
kur--
kut--
kuta--
kutha--
kuwa--
kuz--
kw--
ky--
l--
la--
lab--
lag--
lah--
lak--
lam--
lamb--
lan--
lang--
lao--
lap--
lar--
las--
lat--
lau--
law--
lay--
le--
led--
lee--
leg--
lek--
lele--
lem--
lempu--
len--
leng--
lengg--
leo--
ler--
les--
let--
ley--
lg--
li--
libr--
lice--
lid--
lie--
lik--
lim--
lin--
ling--
lip--
lit--
liv--
ll--
lo--
lock--
lod--
loe--
log--
lok--
loka--
lon--
long--
los--
lot--
lou--
low--
lp--
lu--
lua--
luc--
luh--
lum--
lun--
lung--
lus--
lut--
ly--
m--
ma--
mac--
mad--
madha--
madu--
mae--
mag--
mah--
maha--
mahe--
mai--
maja--
maje--
maji--
mak--
make--
mal--
mala--
mamm--
man--
mana--
manca--
mandra--
mane--
mang--
mangku--
mani--
manu--
map--
maq--
mar--
mara--
mare--
marga--
mari--
marjo--
mary--
mas--
masa--
mat--
mathe--
matt--
mau--
max--
maxim--
may--
maya--
mazo--
mb--
mba--
mban--
mbe--
mbiya--
mbl--
mbo--
mbok--
mbr--
mbu--
mc--
mccl--
mcfar--
me--
measu--
med--
medic--
mee--
meh--
mei--
mel--
meme--
men--
mene--
meng--
menu--
menye--
mer--
mes--
met--
meta--
metod--
metro--
mi--
mia--
micr--
mid--
mig--
mik--
mikro--
mil--
mili--
min--
mina--
ming--
mini--
mir--
mis--
mit--
mitoe--
mix--
miya--
miz--
ml--
mle--
mlo--
mo--
moer--
moh--
mojo--
mok--
mol--
mon--
mona--
mono--
mont--
moon--
mor--
mori--
mos--
mot--
mout--
mp--
mpa--
mpe--
mpr--
mr--
mrang--
mrat--
mre--
mro--
ms--
mt--
mu--
muk--
mul--
mula--
multi--
mun--
mung--
mur--
mus--
musa--
mut--
mw--
my--
mye--
n--
na--
naga--
nah--
nai--
nak--
nal--
nam--
nan--
nang--
nano--
nar--
nara--
nas--
nat--
nata--
navi--
nawa--
nay--
naya--
nc--
nce--
nd--
nda--
nde--
ndh--
ndha--
ndhi--
ndho--
ndi--
ndom--
ne--
nek--
nem--
nen--
neo--
nerap--
nerje--
nes--
net--
neur--
neut--
new--
news--
ng--
nga--
ngamb--
ngan--
ngang--
ngar--
ngat--
nge--
ngendhe--
ngersa--
ngg--
ngga--
ngge--
nggi--
nggl--
nggo--
nggula--
nggun--
ngi--
ngin--
ngk--
ngki--
ngko--
ngl--
nglak--
nglaksa--
nglam--
nglan--
ngle--
nglir--
nglo--
nglon--
ngluh--
ngo--
ngont--
ngop--
ngor--
ngr--
ngran--
ngre--
ngro--
ngroe--
ngrom--
ngron--
ngrun--
ngu--
ngunc--
ngund--
ngungka--
ngur--
ngus--
ngwu--
ni--
nica--
nie--
nig--
nik--
nil--
nila--
nin--
ning--
nir--
nis--
nita--
niti--
nj--
nje--
nji--
njo--
njon--
njong--
nju--
njung--
nk--
nl--
nle--
no--
noe--
nok--
nom--
non--
nor--
norwe--
nos--
not--
nou--
now--
nr--
nro--
ns--
nsi--
nt--
nta--
nth--
nto--
nu--
nuk--
nul--
nun--
nung--
nuo--
nur--
nus--
nusa--
nut--
ny--
nya--
nyam--
nyan--
nye--
nyi--
nyl--
nyle--
nyo--
nyri--
nyru--
nyu--
nyut--
o--
oat--
obe--
obi--
obl--
obr--
observa--
oby--
occ--
occupa--
oct--
od--
ody--
oe--
of--
off--
og--
oh--
ok--
okt--
ol--
old--
ole--
oli--
oly--
om--
omby--
omni--
on--
oncl--
one--
ong--
oni--
oo--
op--
open--
or--
ora--
ori--
oro--
ortho--
orto--
os--
ose--
ost--
ot--
oto--
ou--
out--
over--
ox--
oxi--
oz--
p--
pa--
pac--
pad--
pada--
pae--
pag--
page--
pah--
pai--
pain--
pak--
paka--
pake--
paku--
pal--
pala--
pale--
pali--
pam--
pamah--
pambe--
pame--
pamro--
pan--
pana--
panca--
pand--
pande--
pane--
pang--
pange--
pangun--
pangupa--
panjl--
panon--
panung--
panya--
panye--
panyi--
panyu--
par--
para--
pare--
pari--
partic--
paru--
pas--
pasa--
pase--
pass--
pat--
pata--
pati--
pavi--
pay--
pd--
pe--
pedia--
pegan--
pela--
pelan--
pele--
peman--
pemb--
pemba--
pembe--
pember--
pemer--
pemrog--
pen--
pena--
pence--
pene--
penet--
peng--
penge--
penya--
penye--
penyi--
penyu--
pepe--
per--
pere--
peri--
pero--
pers--
persya--
pesc--
pet--
peta--
pethi--
peti--
ph--
pha--
phe--
pho--
phy--
phylog--
physi--
pi--
pia--
pig--
pik--
pil--
pin--
pine--
ping--
pir--
pis--
pit--
pite--
pl--
pla--
plan--
play--
ple--
plo--
plum--
po--
podl--
poe--
pok--
pol--
pola--
poly--
pon--
pontif--
pop--
por--
pos--
post--
pot--
pp--
pr--
pra--
prag--
prak--
prame--
pras--
pre--
pri--
pria--
princ--
pring--
pro--
proce--
ps--
pseu--
psi--
psiko--
psy--
psychi--
pt--
pte--
pu--
pub--
pue--
puh--
puja--
pun--
pung--
pur--
pura--
purwa--
pus--
put--
putu--
py--
q--
qi--
qu--
qua--
que--
qui--
qur--
r--
ra--
rab--
rad--
radio--
rag--
raga--
rah--
rai--
rain--
raj--
raja--
rak--
ral--
ram--
rama--
ran--
rang--
rap--
ras--
rasa--
rat--
ratu--
raw--
rawa--
ray--
rba--
rc--
rd--
re--
rece--
recog--
red--
ref--
refer--
reflect--
reg--
regi--
regu--
rei--
reja--
rek--
rel--
rem--
ren--
reng--
rengg--
rep--
repos--
requi--
rer--
rere--
res--
reticu--
retri--
rev--
rey--
rga--
rha--
rhe--
rhizo--
rho--
ri--
ria--
rie--
rih--
rim--
rin--
rine--
ring--
ris--
rit--
rk--
rka--
rm--
rn--
rna--
ro--
road--
rob--
rod--
roe--
roh--
rok--
rom--
ron--
rong--
ros--
rot--
row--
rp--
rr--
rs--
rsa--
rt--
rta--
rti--
ru--
rubi--
ruh--
ruk--
rum--
run--
rus--
rut--
ruther--
rva--
rw--
rwa--
ry--
s--
sa--
sab--
saba--
sabu--
sace--
sacha--
sad--
sadoe--
sae--
saff--
saga--
sago--
sah--
sai--
sain--
sak--
saka--
sake--
sakiwa--
saku--
sal--
sala--
sale--
salva--
sam--
sama--
sami--
samu--
san--
sana--
sand--
sang--
sao--
sap--
sapa--
sape--
sapi--
sapu--
sar--
sara--
sari--
sas--
sase--
sat--
sate--
satu--
saube--
savan--
saw--
sawe--
sc--
scar--
sch--
schin--
scho--
sci--
scor--
scud--
sd--
se--
sea--
sebas--
sec--
see--
segi--
sei--
seke--
seki--
sel--
sela--
sele--
sem--
sen--
seng--
seni--
seo--
sep--
sepi--
seque--
ser--
sere--
ses--
set--
sex--
sey--
sf--
sh--
sha--
she--
shi--
sho--
show--
shu--
si--
sia--
sida--
sidd--
sie--
sig--
sih--
sik--
sil--
sila--
sim--
sin--
sina--
sindang--
sine--
sing--
sini--
sir--
sis--
sit--
siti--
situ--
sj--
sk--
ska--
sky--
sl--
sla--
sle--
sling--
slo--
sm--
smi--
sn--
so--
soe--
sok--
soko--
sol--
solut--
som--
some--
son--
song--
sop--
sor--
sot--
souve--
sp--
spa--
spark--
spe--
spect--
spie--
spot--
spy--
sq--
squi--
sr--
sra--
sre--
sri--
sro--
sru--
ss--
st--
sta--
staatss--
star--
ste--
sti--
sto--
struct--
stu--
sty--
su--
sua--
sub--
succ--
sud--
suda--
sudi--
suf--
sugi--
sugia--
suh--
suk--
suka--
sul--
sule--
sum--
sumber--
sume--
sumi--
sun--
sung--
sup--
super--
sur--
sura--
surya--
sus--
suta--
sv--
swa--
swe--
swi--
sy--
sya--
syah--
syl--
syn--
szcze--
sze--
t--
ta--
tab--
tae--
tag--
tah--
tai--
tak--
taka--
tal--
tali--
tam--
tan--
tang--
tao--
tap--
tapa--
taq--
tar--
tara--
tarbi--
taru--
tas--
tasik--
tat--
tata--
tate--
tau--
tax--
tb--
te--
tea--
teja--
tek--
tel--
tela--
tele--
tema--
temp--
ten--
teng--
ter--
tere--
teri--
terro--
tes--
th--
tha--
the--
thi--
tho--
thu--
thy--
ti--
tik--
tim--
tin--
tina--
tine--
tip--
tir--
tis--
titi--
tje--
tl--
tla--
tlaga--
tle--
tm--
to--
toem--
tog--
toh--
tok--
tol--
tom--
ton--
tong--
tonjo--
top--
tor--
tos--
toy--
tra--
trans--
tre--
tri--
tribhu--
tro--
tru--
try--
ts--
tsu--
tt--
tu--
tuk--
tum--
tuma--
tume--
tun--
tung--
tur--
tus--
tv--
twel--
ty--
tya--
tye--
tz--
u--
ub--
ube--
uc--
ud--
ue--
ug--
uga--
uh--
ui--
uk--
ul--
ultra--
ulu--
um--
ume--
ump--
un--
una--
und--
under--
ung--
uni--
uns--
up--
upa--
ur--
ura--
us--
ut--
utili--
uyg--
uzu--
v--
va--
val--
van--
var--
varia--
ve--
veget--
vehi--
vent--
ver--
verm--
verte--
vi--
via--
vic--
vin--
vo--
voc--
vol--
volut--
vul--
w--
wa--
wah--
wai--
wak--
wal--
wala--
wali--
wan--
wana--
wang--
war--
wara--
warga--
was--
wat--
watu--
we--
web--
wei--
weidm--
wen--
west--
wet--
whis--
whit--
white--
wi--
wid--
widi--
wielkopol--
wig--
wiki--
wil--
wild--
win--
wina--
wira--
wis--
wit--
wl--
wo--
wol--
won--
wong--
wood--
wor--
worce--
wow--
wr--
wre--
wu--
wy--
wya--
x--
xen--
xi--
xu--
xx--
y--
ya--
yak--
yam--
yama--
yan--
yat--
ye--
yes--
yi--
yo--
yoshi--
your--
yu--
yuk--
yulia--
yun--
yusti--
z--
za--
zac--
ze--
zhu--
zi--
zingi--
zo--
zoo--
zu--
zucc--
zucker--
zul--
đ--
ł--
ŋ--
ə--
α--
δ--
κ--
λ--
μ--
ν--
π--
ρ--
σ--
τ--
к--
н--
с--
ا--
ب--
ح--
د--
س--
ع--
ل--
م--
مح--
ن--
و--
ي--
٢--
٣--
٤--
٥--
٦--
٧--
٨--
า--
--0
--00
--06
--1
--11
--17
--2
--22
--28
--3
--33
--39
--4
--44
--5
--50
--56
--6
--61
--67
--7
--72
--73
--78
--8
--83
--89
--9
--93
--94
--a
--aan
--ab
--able
--ac
--aca
--aceae
--ach
--achi
--ack
--ad
--ada
--ade
--adi
--ado
--ae
--af
--ag
--aga
--age
--agi
--agna
--ah
--aha
--ahake
--ahan
--ahe
--ahi
--ai
--aian
--aic
--aih
--ail
--aine
--air
--aj
--aja
--aji
--ajut
--ak
--aka
--akake
--akan
--ake
--aken
--aki
--akke
--aks
--aku
--al
--ala
--ale
--ales
--ali
--all
--am
--ama
--amba
--ame
--amo
--an
--ana
--ance
--ane
--ang
--angan
--angi
--ani
--aning
--anipun
--anja
--ano
--anom
--ans
--ant
--ao
--ap
--apan
--api
--ar
--ara
--arbe
--ard
--ardjo
--are
--ari
--arja
--arjo
--ark
--arna
--arno
--aro
--aru
--arum
--ary
--aryo
--as
--asa
--asan
--ase
--asi
--ast
--asuh
--at
--ata
--atan
--ate
--ated
--ates
--ath
--athe
--ati
--atik
--ation
--ations
--atmadja
--ato
--ator
--ats
--atu
--atus
--au
--auk
--aur
--aurus
--aut
--aw
--awa
--awai
--awan
--awe
--awi
--ax
--ay
--aya
--ayan
--az
--b
--ba
--bag
--bah
--bai
--bak
--bal
--ball
--ban
--bap
--bar
--basa
--bat
--bd
--be
--bed
--ber
--berg
--bes
--bet
--bhumi
--bi
--bia
--bian
--bie
--bik
--bil
--bin
--bit
--ble
--bn
--bo
--boa
--boet
--bon
--book
--box
--bro
--bs
--bu
--bug
--buh
--buk
--bul
--bur
--buran
--burg
--bury
--bus
--but
--by
--byag
--byah
--c
--ca
--caceae
--cag
--cah
--cake
--cal
--cam
--cang
--cap
--car
--cas
--cat
--cator
--ce
--ceae
--ced
--cem
--cent
--cep
--cer
--ces
--ch
--cha
--che
--chi
--cht
--chy
--ci
--cies
--cin
--cio
--cir
--cium
--cius
--ck
--cks
--cla
--co
--cock
--coh
--com
--cope
--crat
--cs
--ct
--cted
--ction
--ctive
--cts
--cu
--cualian
--cue
--cula
--culi
--cung
--cup
--cus
--cy
--cz
--d
--da
--daceae
--dad
--dae
--dah
--dai
--dak
--dam
--dan
--dana
--dang
--dap
--dar
--dawa
--day
--daya
--ddin
--de
--ded
--del
--dem
--den
--dence
--dent
--der
--des
--det
--dge
--dh
--dha
--dhahi
--dhe
--dhet
--dhi
--dho
--dhol
--dhuk
--dhya
--di
--dia
--dier
--dih
--din
--dinata
--dis
--dium
--dix
--dja
--djan
--dji
--djo
--do
--don
--donia
--dor
--dore
--dorf
--dori
--doro
--dos
--dosi
--dot
--dou
--down
--dra
--dri
--dro
--ds
--dt
--du
--dug
--duk
--dula
--dung
--dut
--dy
--dya
--dz
--e
--ea
--eae
--eal
--ean
--eau
--eb
--eck
--ed
--ee
--ef
--eg
--eh
--ehi
--ei
--eja
--ejo
--ek
--ekake
--el
--ela
--elan
--elar
--ell
--ella
--elli
--ello
--elo
--els
--ely
--em
--eme
--en
--ena
--ence
--end
--ene
--eng
--engi
--eni
--eno
--ens
--ensis
--ent
--ents
--eo
--ep
--epe
--eps
--er
--era
--ere
--eri
--ern
--ero
--ers
--ert
--ery
--es
--ese
--ess
--est
--et
--etake
--etan
--ete
--eti
--ets
--ett
--ette
--eum
--eus
--ev
--ey
--ez
--f
--fa
--fah
--fc
--fe
--fer
--ff
--ffle
--fi
--fied
--fil
--fin
--final
--fly
--fo
--fon
--food
--ft
--ftar
--fu
--ful
--fy
--g
--ga
--gaan
--gad
--gah
--gahan
--gai
--gak
--gakake
--gake
--gal
--gam
--gan
--gane
--gang
--gani
--gar
--gara
--gas
--gat
--gate
--gati
--ge
--ged
--gel
--gem
--gen
--ger
--ges
--get
--gga
--ggah
--gge
--gger
--ggih
--ggo
--ggot
--ggu
--ggung
--gh
--ght
--gi
--gih
--gihan
--gik
--gil
--ging
--gir
--gis
--git
--gk
--gka
--gkah
--gkan
--gkang
--gke
--gku
--gkut
--gla
--gle
--gma
--gn
--gna
--gne
--gni
--go
--goda
--gok
--gol
--gon
--gor
--goro
--gos
--gr
--grafi
--graph
--graphic
--gre
--grong
--gs
--gsa
--gsang
--gse
--gsing
--gu
--guchi
--guh
--guhan
--guk
--gul
--guna
--gung
--gus
--gut
--gy
--h
--ha
--hab
--hag
--hah
--hahi
--hai
--hak
--hake
--hal
--ham
--han
--hani
--har
--harja
--harjo
--hashi
--hat
--he
--head
--hed
--hek
--her
--hes
--hi
--hia
--hic
--hih
--hik
--hil
--hing
--hio
--hip
--hipun
--hir
--hiro
--his
--hit
--hman
--hn
--ho
--hof
--hog
--hok
--hol
--hood
--hor
--hos
--hot
--hri
--hs
--ht
--hty
--hu
--hug
--huh
--huk
--hul
--hun
--huni
--hur
--hurst
--hus
--hut
--hwa
--hy
--hya
--i
--ia
--iaceae
--iah
--ial
--ian
--iana
--ias
--iat
--iaya
--ib
--ic
--ica
--ich
--ichi
--icia
--ico
--ics
--icus
--id
--ida
--idae
--idhi
--ido
--ids
--ie
--ied
--ien
--ier
--iers
--ies
--ieux
--if
--ifera
--ig
--ight
--igi
--igo
--ih
--ihan
--ihat
--ii
--ijn
--ik
--ika
--ikake
--ikasi
--ike
--iki
--iku
--il
--ilan
--ile
--ili
--ill
--ille
--illo
--ilo
--ils
--im
--ima
--ime
--imo
--imus
--in
--ina
--inal
--inan
--inasi
--ine
--ing
--ingan
--ingi
--ings
--ington
--ini
--ino
--ins
--inus
--io
--ion
--ional
--ions
--ious
--ip
--ipun
--ir
--ira
--ire
--iri
--iro
--iru
--irul
--is
--isasi
--ise
--ish
--isi
--ism
--isme
--isor
--ist
--ista
--istik
--it
--ita
--itake
--itan
--itas
--ite
--iti
--ities
--itis
--itra
--itusi
--ity
--itz
--ium
--ius
--iva
--ive
--ivo
--iwa
--ix
--iy
--iyah
--iz
--ization
--ized
--j
--ja
--jad
--jah
--jan
--jar
--jat
--jati
--jau
--jaya
--je
--jem
--ji
--jib
--jik
--jin
--jir
--jn
--jo
--jok
--jol
--jor
--ju
--juk
--jur
--jurake
--k
--ka
--kab
--kag
--kah
--kahan
--kai
--kak
--kake
--kaken
--kal
--kala
--kam
--kan
--kang
--kani
--kap
--kar
--kara
--kas
--kat
--katan
--kawa
--kaze
--ke
--kel
--kem
--ken
--kep
--ker
--kerta
--kes
--kh
--ki
--kia
--kid
--kie
--kil
--kin
--kins
--kir
--kis
--kit
--kke
--klak
--kle
--klik
--klok
--kluk
--kna
--kne
--ko
--koe
--kok
--kol
--kom
--kon
--kop
--kot
--kov
--kr
--krah
--krak
--krang
--kre
--krik
--kring
--krong
--kruk
--krung
--ks
--ksa
--ksi
--ksin
--kt
--kta
--kte
--ku
--kuan
--kud
--kug
--kuh
--kuk
--kul
--kum
--kunde
--kung
--kuni
--kup
--kupi
--kur
--kus
--kusi
--kusumo
--kut
--kwa
--ky
--l
--la
--lad
--lah
--lai
--lak
--lake
--lan
--land
--lang
--lar
--las
--lasake
--lat
--lator
--law
--ld
--le
--led
--legi
--leh
--lehem
--len
--leng
--lep
--ler
--leri
--les
--less
--let
--ley
--li
--lia
--lic
--lih
--lik
--lika
--likake
--lil
--lin
--line
--ling
--lir
--lis
--lisis
--list
--lit
--litas
--lity
--lke
--ll
--lla
--lle
--llen
--lles
--lli
--llo
--lls
--lly
--lo
--log
--logi
--logy
--loin
--lok
--lon
--lor
--lot
--ls
--lsen
--lson
--lt
--lu
--luh
--luk
--lun
--lune
--lur
--lus
--lut
--ly
--lya
--lyn
--lz
--m
--ma
--machi
--mad
--mah
--mal
--man
--mana
--mangu
--map
--mar
--mas
--mat
--matsu
--maya
--mb
--mba
--mbag
--mbah
--mbalan
--mbe
--mbi
--mbit
--mbo
--mbol
--mbon
--mbu
--me
--mek
--mel
--men
--meni
--ment
--ments
--mer
--mi
--mia
--mic
--mie
--mik
--min
--mis
--mke
--mma
--mo
--moe
--mokake
--mon
--mp
--mpa
--mpat
--mpe
--mpi
--mps
--ms
--msi
--mu
--muk
--muka
--mulya
--mulyo
--mum
--mun
--mura
--my
--myo
--n
--na
--naceae
--nae
--nah
--nai
--nak
--nake
--nal
--nam
--nan
--nana
--nane
--nas
--nat
--nau
--nc
--ncana
--nce
--nch
--nci
--ncio
--nco
--ncy
--nd
--nda
--ndi
--ndo
--ndung
--ndur
--ne
--nel
--nell
--nem
--nen
--ner
--ners
--nes
--ness
--net
--news
--ney
--ng
--nga
--ngan
--nge
--ngen
--ngga
--nggu
--ngi
--ngo
--ngu
--ngun
--nha
--ni
--nia
--nic
--nik
--ning
--ningsih
--ningsun
--nipun
--nique
--nira
--nis
--nity
--nium
--nja
--njar
--nji
--nk
--nka
--nn
--nna
--nne
--no
--nol
--nom
--not
--nova
--nox
--ns
--nse
--nsi
--nson
--nstein
--nt
--nta
--ntang
--nte
--nti
--ntia
--ntino
--nto
--ntra
--nts
--ntu
--nty
--nu
--nuhi
--num
--nus
--nut
--ny
--nya
--nye
--nz
--nza
--o
--oa
--ob
--oc
--ock
--od
--oda
--odha
--odhe
--odon
--ody
--oe
--oeh
--oek
--oel
--oen
--oeng
--oer
--oera
--oes
--of
--off
--og
--oga
--ogakake
--oge
--ogi
--ogis
--ogok
--ogy
--oh
--ohan
--ohi
--oi
--oid
--oja
--ojo
--ok
--oka
--okake
--oke
--oki
--okke
--oko
--oku
--ol
--ola
--oli
--olo
--ology
--om
--oma
--ombo
--ome
--omi
--omo
--on
--ona
--onal
--one
--oner
--ong
--ongan
--oni
--onne
--ono
--ons
--ont
--onto
--oo
--oon
--op
--opia
--ops
--or
--ora
--orca
--ord
--ori
--oro
--ors
--ort
--orum
--ory
--os
--osa
--osan
--osi
--osis
--oso
--ot
--ota
--otan
--oth
--otho
--oti
--otik
--otis
--ou
--ous
--out
--ov
--ova
--ove
--ovic
--ovo
--ow
--owed
--ows
--ox
--oy
--oya
--oyo
--p
--pa
--pah
--pak
--pake
--pan
--par
--parwa
--pat
--pati
--pe
--ped
--pel
--pen
--per
--pes
--pet
--ph
--pha
--phia
--phic
--phy
--pi
--pid
--pih
--pit
--pke
--pl
--plik
--ply
--pn
--po
--pog
--pon
--por
--pos
--post
--ppa
--ps
--psi
--pta
--pto
--pton
--pu
--puh
--pul
--pun
--pungan
--pur
--pura
--pus
--putra
--py
--pyuh
--q
--que
--r
--ra
--rad
--raf
--rafi
--rah
--rahan
--rai
--raja
--rak
--rake
--ram
--ran
--rang
--rap
--rapan
--ras
--rase
--rat
--rata
--rayung
--raz
--rbu
--rcaya
--rd
--rdi
--re
--rea
--red
--reen
--reja
--rejo
--rek
--ren
--reng
--reni
--rep
--repan
--rer
--res
--ret
--rett
--rf
--rg
--rga
--ri
--ria
--rian
--rib
--ric
--rid
--rida
--ridge
--rie
--ries
--rig
--rih
--rik
--rin
--ring
--rior
--rip
--ris
--rit
--rium
--riya
--rk
--rke
--rks
--rley
--rm
--rmis
--rn
--rna
--rnan
--rni
--rno
--ro
--rog
--rok
--rol
--ron
--roni
--rop
--ror
--ros
--rpa
--rr
--rra
--rre
--rry
--rs
--rsa
--rsi
--rso
--rson
--rt
--rta
--rti
--rto
--rty
--ru
--ruddin
--rug
--ruk
--rul
--rum
--run
--rup
--rus
--rut
--rwa
--ry
--rya
--ryo
--rz
--s
--sa
--saan
--sah
--sak
--sal
--san
--sana
--sang
--sar
--sari
--sasi
--sat
--sberg
--sburg
--sch
--sche
--sco
--se
--sea
--sed
--sek
--sel
--sem
--sen
--sena
--sep
--ser
--ses
--set
--sey
--sfer
--sh
--sha
--shi
--ship
--shire
--shiro
--si
--sia
--sida
--sidi
--sie
--sif
--sih
--sik
--sikake
--sikan
--sil
--sin
--sion
--sir
--sis
--sk
--ske
--sko
--sky
--sm
--sma
--sme
--smi
--sner
--sno
--so
--sobo
--son
--song
--sono
--sor
--sot
--sra
--ss
--ssa
--sse
--ssel
--ssen
--sses
--sson
--ssy
--st
--sta
--stan
--ste
--sti
--ston
--stone
--stro
--stuti
--su
--suk
--sul
--suli
--sum
--sun
--suo
--sur
--sut
--sy
--syah
--sz
--t
--ta
--taan
--tad
--tah
--tai
--tak
--take
--tal
--tama
--tan
--tang
--tar
--tara
--tary
--tas
--tase
--tasi
--taya
--tch
--te
--ted
--tem
--ten
--tepan
--ter
--tes
--tet
--teur
--th
--tha
--thaceae
--thah
--thak
--the
--thi
--ti
--tib
--tic
--tica
--ticus
--tida
--ties
--tif
--tih
--tihan
--tik
--til
--tin
--tion
--tions
--tip
--tir
--tis
--tit
--tius
--tive
--tke
--tney
--to
--tok
--ton
--tor
--tos
--tou
--towi
--town
--tra
--tre
--tri
--tro
--ts
--tsu
--tt
--tta
--tte
--tter
--tti
--ttle
--tto
--tu
--tue
--tul
--tum
--tun
--tup
--tur
--turi
--tus
--tv
--ty
--tya
--tz
--u
--ua
--uak
--ual
--uan
--uapan
--uari
--uat
--ub
--uble
--ubuk
--uchi
--ud
--uda
--uddin
--udha
--udhah
--udi
--udin
--ue
--uel
--uen
--ues
--ug
--ugh
--ugu
--uh
--uhan
--uhi
--uhu
--uhun
--ui
--uit
--uj
--uje
--uju
--ujuk
--ujukan
--uk
--uka
--ukake
--ukan
--ukat
--uki
--uksi
--ukte
--ukti
--uku
--ul
--ula
--ulan
--uli
--ullah
--ulon
--ult
--ulu
--ulya
--ulyo
--um
--umba
--umpul
--un
--una
--unci
--une
--ung
--ungan
--ungi
--ungsi
--uni
--unu
--up
--upake
--upan
--upu
--ur
--ura
--uran
--ure
--uri
--uron
--urs
--uru
--uruk
--urus
--us
--usi
--usta
--ut
--utake
--utan
--ute
--uti
--utihan
--uts
--utu
--utus
--uw
--uwa
--uwun
--ux
--uy
--uyung
--uz
--v
--va
--van
--vasi
--ve
--ved
--ven
--ver
--ves
--vi
--vik
--vis
--vity
--vo
--vu
--vy
--w
--wa
--wada
--wah
--wal
--wan
--wang
--war
--wara
--wardhana
--warman
--waru
--was
--wat
--wati
--way
--we
--wer
--wi
--wia
--wice
--wijk
--wik
--win
--winata
--wir
--wirya
--wis
--wit
--wn
--wo
--wok
--won
--wood
--ws
--wu
--wud
--wuh
--wuhi
--wuk
--wul
--wun
--wung
--wuni
--wur
--wut
--x
--xa
--xi
--y
--ya
--yaan
--yad
--yag
--yah
--yai
--yak
--yakake
--yaki
--yal
--yam
--yan
--yane
--yap
--yar
--yari
--yas
--yasa
--yat
--ye
--yel
--yem
--yer
--yi
--yid
--yik
--yil
--yl
--yn
--yo
--yoh
--yok
--yol
--yon
--yono
--yor
--yos
--yot
--ys
--yu
--yub
--yuda
--yuh
--yul
--yum
--yumi
--yur
--yus
--yut
--yx
--z
--za
--zan
--zar
--zawa
--ze
--zel
--zer
--zi
--zia
--zie
--zio
--zo
--zoa
--zon
--zr
--zu
--zuki
--zy
--zyn
--zz
--zza
--zzo
--ı
--ɪ
--ʊ
--α
--ι
--ν
--ς
--а
--и
--ة
--ت
--د
--ن
--ي
--٠
