!
"
#
##0
##1
##10
##11
##12
##13
##14
##15
##16
##17
##18
##19
##2
##20
##21
##22
##23
##24
##25
##26
##27
##28
##29
##3
##30
##31
##32
##33
##34
##35
##36
##37
##38
##39
##4
##40
##41
##42
##43
##44
##45
##46
##47
##48
##49
##5
##50
##51
##52
##53
##54
##55
##56
##57
##58
##59
##6
##60
##61
##62
##63
##64
##65
##66
##67
##68
##69
##7
##70
##71
##72
##73
##74
##75
##76
##77
##78
##79
##8
##80
##81
##82
##83
##84
##85
##86
##87
##88
##89
##9
##90
##91
##92
##93
##94
##95
##96
##97
##98
##99
$
%
&
'
(
)
*
+
,
-
.
/
0
00
000
0000
0001
0002
0003
0004
0006
001
002
0022
0026
003
0031
004
005
006
007
008
009
0099
01
010
011
012
013
014
0140
015
016
0169
017
018
02
020
0278
0279
03
0362
04
05
050
06
07
08
09
090
1
10
100
1000
10000
1001
1002
1003
1004
1005
1006
1007
1008
101
1010
1011
1016
1017
1018
1019
102
1021
1023
1024
1027
1029
103
1037
1038
104
1046
105
1050
1051
1055
1056
106
1066
107
1073
108
1080
1086
1088
109
1090
1093
1095
1097
1098
11
110
1100
1101
1103
1109
111
1111
112
1126
1128
113
1136
114
1145
1146
115
116
11690
117
1170
1172
1177
118
1186
119
12
120
1200
1204
1206
121
122
123
124
125
1250
126
127
128
1281
129
13
130
1300
1308
131
132
133
134
135
1350
1351
136
1365
1368
137
1371
138
1380
1388
1389
139
1390
1392
1394
1395
1397
1398
14
140
1400
1402
141
1410
1413
1415
1418
1419
142
1420
1422
143
1435
144
1440
1447
145
1450
1453
1455
1456
1457
1459
146
1460
1466
1467
1468
1469
147
1470
1471
1475
1476
148
1485
149
1492
1493
1494
1498
15
150
1500
1501
1503
1504
1506
1509
151
1510
1512
1513
1515
1516
1517
1519
152
1520
1521
1522
1523
1524
1525
1526
1527
1528
1529
153
1530
1531
1533
1534
1535
1536
1537
1538
1539
154
1540
1541
1542
1543
1544
1545
1546
1547
1548
1549
155
1550
1552
1553
1554
1555
1556
1558
1559
156
1560
1561
1562
1563
1564
1565
1566
1567
1568
1569
157
1570
1571
1572
1573
1574
1575
1576
1577
1578
1579
158
1580
1582
1583
1584
1585
1586
1587
1588
1589
159
1590
1591
1592
1593
1594
1595
1596
1597
1598
1599
16
160
1600
1601
1602
1603
1604
1605
1606
1607
1608
1609
161
1610
1611
1612
1613
1614
1615
1616
1617
1618
1619
162
1620
1621
1622
1623
1624
1625
1626
1627
1628
1629
163
1630
1631
1632
1633
1634
1635
1636
1637
1638
164
1640
1641
1642
1643
1644
1645
1646
1647
1648
1649
165
1650
1651
1652
1653
1654
1655
1656
1657
1658
1659
166
1660
1661
1662
1664
1665
1666
1667
1668
1669
167
1670
1671
1672
1673
1674
1675
1676
1677
1678
1679
168
1680
1681
1682
1683
1685
1687
1688
1689
169
1690
1694
1697
1699
17
170
1700
1701
1702
1703
1704
1705
1707
1708
1709
171
1710
1711
1712
1713
1714
1715
1717
1718
172
1720
1721
1722
1723
1724
1725
1727
1728
1729
173
1730
1732
1733
1735
1736
174
1740
1741
1742
1743
1744
1745
1746
1747
1748
1749
175
1750
1751
1752
1753
1754
1755
1756
1757
1758
1759
176
1760
1761
1762
1763
1764
1765
1766
1767
1768
1769
177
1770
1771
1772
1773
1774
1775
1776
1777
1778
1779
178
1780
1781
1782
1783
1784
1785
1786
1787
1788
1789
179
1790
1791
1792
1793
1794
1795
1796
1797
1798
1799
18
180
1800
1801
1802
1803
1804
1805
1806
1807
1808
1809
181
1810
1811
1812
1813
1814
1815
1816
1817
1818
1819
182
1820
1821
1822
1823
1824
1825
1826
1827
1828
1829
183
1830
1831
1832
1833
1834
1835
1836
1837
1838
1839
184
1840
1841
1842
1843
1844
1845
1846
1847
1848
1849
185
1850
1851
1852
1853
1854
1855
1856
1857
1858
1859
186
1860
1861
1862
1863
1864
1865
1866
1867
1868
1869
187
1870
1871
1872
1873
1874
1875
1876
1877
1878
1879
188
1880
1881
1882
1883
1884
1885
1886
1887
1888
1889
189
1890
1891
1892
1893
1894
1895
1896
1897
1898
1899
19
190
1900
1901
1902
1903
1904
1905
1906
1907
1908
1909
191
1910
1911
1912
1913
1914
1915
1916
1917
1918
1919
192
1920
1921
1922
1923
1924
1925
1926
1927
1928
1929
193
1930
1931
1932
1933
1934
1935
1936
1937
1938
1939
194
1940
1941
1942
1943
1944
1945
1946
1947
1948
1949
195
1950
1951
1952
1953
1954
1955
1956
1957
1958
1959
196
1960
1961
1962
1963
1964
1965
1966
1967
1968
1969
197
1970
1971
1972
1973
1974
1975
1976
1977
1978
1979
198
1980
1981
1982
1983
1984
1985
1986
1987
1988
1989
199
1990
1991
1992
1993
1994
1995
1996
1997
1998
1999
2
20
200
2000
2001
2002
2003
2004
2005
2006
2007
2008
2009
201
2010
2011
2012
2013
2014
2015
2016
2017
2018
2019
202
2020
2021
2022
2023
2024
2025
203
2030
204
205
2050
206
207
208
209
21
210
2100
211
212
213
214
215
216
217
218
219
22
220
2200
221
222
223
224
225
226
227
228
229
23
230
2305
2307
231
232
233
234
235
236
237
238
239
24
240
241
242
243
244
245
246
247
248
249
25
250
2500
251
252
253
254
255
256
257
258
259
26
260
2600
261
262
263
264
265
266
267
268
269
27
270
271
272
273
274
275
276
277
278
279
28
280
281
282
283
284
285
286
287
288
289
29
290
291
292
293
294
295
296
297
298
299
3
30
300
3000
301
302
303
304
305
306
307
308
309
31
310
311
312
313
314
315
316
3166
317
318
319
32
320
321
322
323
324
325
326
327
328
329
33
330
331
332
333
334
335
336
337
338
339
34
340
341
342
343
344
345
346
347
348
349
35
350
3500
351
352
353
354
355
356
357
358
359
36
360
361
362
363
364
365
366
367
368
369
37
370
371
372
373
374
375
376
377
378
379
38
380
381
382
383
384
385
386
387
388
389
39
390
391
392
393
394
395
396
397
398
399
4
40
400
4000
401
402
403
404
405
406
407
408
409
41
410
411
412
413
414
415
416
417
418
419
42
420
421
422
423
424
425
426
427
428
429
43
430
431
432
433
4331
434
435
436
437
438
439
44
440
441
442
443
444
445
446
447
448
449
45
450
451
452
453
454
455
456
457
458
459
46
460
461
462
463
464
465
466
467
468
469
47
470
471
472
473
474
475
476
477
478
479
48
480
481
482
483
484
485
486
487
488
489
49
490
491
492
493
494
495
496
497
498
499
5
50
500
5000
501
502
503
504
505
506
507
508
509
51
510
511
512
513
514
515
516
517
518
519
52
520
521
522
523
524
525
526
527
528
529
53
530
531
532
533
534
535
536
537
538
539
54
540
541
542
543
544
545
5454
546
547
548
549
55
550
551
552
553
554
555
556
55608
557
558
559
56
560
561
562
563
564
565
566
567
568
569
57
570
571
572
573
574
575
576
577
578
579
58
580
581
582
583
584
585
586
587
588
589
59
590
591
592
593
594
595
596
597
598
599
6
60
600
6000
601
602
603
604
605
606
607
608
609
61
610
611
612
613
614
615
616
617
618
619
62
620
621
622
62265494
623
624
625
626
627
628
629
63
630
631
632
633
634
635
636
6361
637
638
639
64
640
641
642
643
644
645
646
647
648
649
65
650
651
652
653
654
655
656
657
658
659
66
660
661
662
663
664
665
666
667
668
669
67
670
671
672
673
6736
674
675
676
678
679
68
680
681
682
683
684
685
686
687
688
689
69
690
691
692
694
695
696
697
698
699
7
70
700
7000
701
702
703
704
705
706
707
708
709
71
710
711
712
713
714
715
716
717
718
719
72
720
721
722
723
724
725
726
727
729
73
730
731
732
733
735
736
737
738
739
74
740
741
742
7428
743
7432
744
745
746
747
748
75
750
751
752
754
755
756
757
758
759
76
760
762
763
764
765
766
767
768
77
770
771
772
774
775
776
777
778
779
78
780
781
785
787
79
790
791
792
8
80
800
8000
801
8018
802
803
804
805
806
807
808
809
81
810
811
812
813
814
815
816
817
818
82
820
8221
825
826
827
829
83
830
831
833
836
837
838
839
84
840
843
844
845
847
848
85
850
855
857
858
86
860
863
864
865
867
869
87
870
871
873
875
876
877
878
879
88
880
882
88221
883
885
8852
887
888
89
890
893
894
897
9
90
900
9000
901
902
905
907
908
909
91
910
911
912
915
916
918
919
92
920
921
923
924
925
926
927
93
930
935
936
937
938
939
94
940
943
945
947
949
95
950
951
952
954
955
956
957
959
96
960
965
97
970
975
976
978
979
98
980
981
983
985
987
99
990
991
992
995
996
997
998
999
:
;
<
=
>
?
@
[
\
]
^
_
`
a
aa
aaa
aaron
ab
abc
able
about
above
abraham
abs
absolute
abstract
abu
abuse
ac
academic
academy
access
accessed
accident
according
account
accreditations
ace
acid
acids
acm
acoustic
across
act
acta
action
active
activities
activity
actor
actress
acts
acute
ad
adam
adams
add
addiction
addison
additional
address
adds
adele
adhd
admin
administration
adobe
adrian
ads
adult
adults
advance
advanced
advances
adventure
adventures
ae
aek
af
afc
affairs
afghanistan
afp
africa
african
after
ag
again
against
agb
age
agency
agent
ages
agm
ago
agreement
agriculture
ah
ahead
ai
aid
aids
aim
ain
air
aircraft
airlines
airport
airways
ais
aise
aj
ajax
ak
aka
akb
akira
al
alan
albert
alberto
album
albums
aleph
alessandro
alex
alexa
alexander
alexis
alfred
algebra
algebraic
ali
alice
alien
align
aligned
alive
all
allan
allen
alliance
allmusic
allocine
almanac
almost
alone
along
alpha
already
als
also
alt
alternative
although
always
am
amanda
amazing
amazon
amd
ame
america
american
americans
amid
among
amsterdam
amy
an
ana
analysis
anatomy
ancient
and
anderson
andre
andrea
andreas
andrew
andrews
android
andy
angel
angeles
angels
angiosperm
angle
anglo
anh
animal
animals
animation
anime
ann
anna
annales
annals
anne
annex
annie
anniversary
anno
announce
announced
announces
annual
annurev
another
answer
anthem
anthology
anthony
anti
antoine
anton
antonio
anxiety
any
anydecentmusic
anything
ao
ap
apache
apec
apg
api
apj
app
appear
appendix
apple
application
applications
applied
approach
approx
apps
apr
april
ar
arab
arabia
arc
arcade
arch
archaeology
archdiocese
architecture
archive
archived
archives
archiwum
are
area
areas
arena
argentina
aria
arm
armed
arms
army
arnold
around
array
ars
arsenal
art
arthur
article
articles
articleview
artiest
artificial
artist
artists
arts
arxiv
as
asia
asian
ask
asked
asp
aspects
aspx
ass
assembly
assessment
associated
association
associations
astro
astrology
astronomical
astronomy
astrophysical
astrophysics
at
atc
athens
athletic
atlanta
atlantic
atlas
atm
atmospheric
atomic
atp
attack
attacks
attention
au
audio
auf
aug
august
aurelius
aus
austin
australia
australian
austria
austrian
author
authority
autism
auto
automatic
aux
av
available
avenue
average
averages
aviation
award
awards
away
ax
ay
az
b
ba
baby
back
background
bad
bafta
bahn
bailey
baker
ball
baltimore
ban
band
bang
bank
banks
bar
barbara
barcelona
barnes
barry
base
baseball
based
basic
basis
bass
bat
bats
battle
bauer
bay
bayern
bb
bbc
bbs
bc
bd
bdfutbol
be
beach
bear
beast
beat
beatles
beats
beautiful
beauty
became
because
beck
become
becomes
bee
been
beethoven
before
begin
beginning
begins
behavior
behavioral
behind
beijing
being
belarus
belief
believe
bell
ben
benjamin
bennett
benth
ber
berg
berger
berkeley
berlin
bernard
best
beta
betancur
better
between
beyonce
beyond
bf
bgm
bh
bhikkhu
bi
bia
bibcode
bible
biblical
bid
bie
big
bigbang
biggest
bill
billboard
billie
billion
billy
bin
binary
binding
bio
biochemistry
biographical
biography
biol
biological
biology
biotechnology
bird
birds
birley
birth
birthday
bis
bishop
bit
biz
bj
bk
bl
blabbermouth
black
blackwell
blake
blender
blind
block
blog
blood
bloody
bloom
bloomberg
blu
blue
blues
bm
bmatrix
bmc
bmw
bo
board
bob
bodhi
body
boeing
boiss
boldsymbol
bomb
bon
bond
bone
bonus
book
books
boom
border
born
boss
boston
botanical
botany
both
bow
bowie
box
boy
boys
bp
bpi
br
brackett
brad
bradley
brain
branch
brand
brasil
brave
brazil
brazilian
break
breaking
breaks
brian
bridge
brief
brien
brigade
bright
brill
bring
britain
britannica
british
britney
broadcast
broadcasting
broadway
broken
brooks
bros
brother
brothers
brown
browne
browser
bruce
bruno
bryan
bs
bsd
bt
bts
bu
buddha
buddhism
buddhist
build
building
built
bukkyo
bull
bullet
bulletin
bundesamt
bureau
burlington
burn
burning
burns
bus
bush
business
but
butler
butterfly
buy
bx
by
bye
c
ca
cable
caf
cafe
california
call
called
calling
calls
calvin
cambridge
came
camera
cameron
camp
campaign
campbell
can
canada
canadian
cancer
candy
cannes
cannot
canton
cap
cape
capital
capitol
captain
car
carbon
card
care
career
caribbean
carl
carleton
carlo
carlos
carol
carolina
caroline
carpenter
carrier
carroll
carry
cars
carter
case
cases
cash
cast
castle
castro
cat
catalog
catalogue
catch
category
catherine
catholic
cats
cause
causes
cave
cb
cbc
cbe
cbeta
cbs
cc
cctv
cd
cdc
cdot
cdots
ce
cell
cells
celtic
census
center
centers
central
centre
century
ceo
ceremony
certain
certification
certifications
cf
cg
cgi
cgv
ch
cha
chain
challenge
challenges
chamber
champions
championship
chan
chance
chang
change
changed
changes
changing
channel
chaos
chapter
char
character
characteristics
characters
charge
charles
charlie
charlotte
chart
charts
chase
che
check
checklist
chelsea
chem
chemical
chemistry
chen
cherry
chf
chi
chicago
chief
child
children
chile
china
chinese
chip
chiroptera
cho
chocolate
choi
choice
chosun
chris
christ
christgau
christian
christianity
christina
christine
christmas
christopher
chronic
chronicle
chronicles
chronology
chu
chua
chuck
chung
church
ci
cia
cid
cinema
circ
circle
circuit
cit
citeref
cities
citta
cittas
city
civil
civilization
cj
ck
cl
claim
claims
claire
clancy
clark
clarke
clash
class
classic
classical
classics
classification
claude
clean
clear
click
climate
clinical
clio
clip
clock
close
closed
cloud
club
cluster
cm
cn
cnbc
cnet
cnn
co
coa
coach
coast
code
coffee
cognitive
cohen
cold
coldplay
cole
colin
collaboration
collected
collection
collective
collector
college
collins
colon
color
colors
columbia
column
com
combat
combined
come
comedy
comes
comet
comic
coming
command
commander
commentary
commerce
commercial
commission
committee
common
commons
communication
communications
communist
community
compact
companies
companion
company
comparative
comparison
competition
compilation
complete
complex
composition
comprehensive
computer
computing
con
concacaf
concentration
concept
concepts
concern
concerning
concert
concise
condition
conditions
confederation
conference
confirmed
confirms
conflict
cong
congo
congress
connected
connection
connor
consciousness
consequence
consequences
conservation
considered
consortium
constant
constitution
construction
consumer
contact
contemporary
content
contents
context
continue
contract
contributions
control
convention
cook
cool
cooper
cooperation
copa
copy
copyright
core
cornell
corner
coronavirus
corp
corporate
corporation
corps
cortex
cos
cosh
cosmic
cost
costa
could
council
count
counter
counties
countries
country
county
course
court
cov
cover
covid
cox
cp
cpu
cr
craig
crash
crazy
crc
create
created
creation
creative
credit
credits
cretaceous
crew
crime
crimes
criminal
crisis
critic
critical
critics
croat
croatia
cross
crow
crown
cruz
cry
crystal
cs
csi
css
ct
ctbuh
cts
cu
cube
cult
cultural
culture
cup
curlie
current
curtis
cut
cv
cw
cx
cycle
cz
czech
d
da
daily
dale
dame
dan
dance
dancing
dangerous
daniel
danish
danmark
danny
dans
dark
darkness
darwin
das
data
database
date
datenbank
dates
daughter
daum
dave
david
davies
davis
dawn
day
days
db
dc
dd
ddb
ddr
de
dead
deadline
deal
dean
dear
death
debate
debut
dec
decade
december
decennial
decision
declaration
deep
def
default
defence
defense
definition
definitive
deg
degree
dei
del
dell
della
delta
deluxe
dem
demand
democracy
democratic
demographic
den
dena
denis
denmark
dennis
department
deportivo
der
derek
derived
des
description
desert
design
desire
desktop
destiny
destruction
destructoid
det
detail
detailed
details
detection
detroit
deutsche
deutschen
deutscher
dev
developer
developers
development
developmental
device
devices
devil
df
dfb
dh
di
dia
diabetes
diagnosis
diamond
diana
diario
diary
dick
dictionary
did
die
died
diego
dies
difference
differences
different
differential
digital
dim
din
dinosaur
dinosaurs
dio
diocese
dir
direct
direction
director
directory
dirty
disc
disco
discography
discogs
discovered
discovery
discussion
disease
diseases
disk
disney
disorder
disorders
display
displaystyle
distance
distribution
district
div
diversity
divine
diving
division
divisions
dj
dk
dl
dm
dmb
dmhc
dmz
dna
do
doc
doctor
doctrine
document
documentary
documentation
documents
does
dog
dogs
doi
dom
domain
domainfalsefalse
domainpublic
dome
domestic
don
donald
done
dong
donga
donne
door
doors
dos
dot
dots
dotsc
double
doubt
douglas
dover
down
downarrow
download
downloaded
dp
dq
dr
draft
dragon
dragons
drake
drama
draw
dream
dreams
drive
driver
drop
drug
drugs
ds
dsm
dt
dtv
du
dual
due
duke
duncan
duo
during
dust
dutch
duty
dvd
dw
dwarf
dx
dylan
dynamic
dynamics
dynasty
e
ea
each
eagle
earl
early
earth
earthquake
east
eastern
easy
eat
eb
ebola
ebs
ec
echo
ecology
economic
economics
economist
economy
ed
eddie
edgar
edge
edinburgh
edit
edited
edition
editions
editor
editors
edmund
eds
edu
eduardo
education
educational
edward
edwards
edwin
ee
eerdmans
ef
effect
effective
effects
effort
efl
ego
egypt
ei
eight
ein
eine
einstein
either
ek
el
election
elections
electric
electron
electronic
electronics
element
elementary
elements
elite
elizabeth
elliott
ellis
else
elsevier
elton
elvis
em
embassy
emergency
emi
emily
eminem
emma
emotion
emotional
emperor
empire
emporis
en
encore
encyclopaedia
encyclopedia
encyclopædia
end
ending
endless
ends
enemy
energy
eng
engine
engineer
engineering
engl
england
english
enm
enough
enter
enterprise
entertainment
entire
entomology
entry
environment
environmental
eos
ep
epic
episode
epsilon
equiv
er
era
eric
erik
erlewine
ernest
ernst
error
es
esa
escape
espan
espn
essay
essays
essential
est
estimates
et
eta
etc
eternal
ethics
ethnic
eu
eugene
euro
eurogamer
europa
europe
european
ev
eva
evaluation
evan
evans
eve
even
evening
event
events
ever
every
everybody
everyday
everything
evidence
evil
evolution
evolutionary
ew
ex
example
except
exchange
exclusive
exe
executive
exercise
exhibition
exile
existence
exists
exit
exo
exp
expansion
experience
experiment
experimental
expert
explained
exploration
explorer
express
expression
ext
extended
extension
external
extinction
extra
extrasolar
extreme
eye
eyes
ez
f
fa
face
facebook
faces
fact
factbook
factor
factors
factory
facts
faculty
failure
fair
faith
fall
falling
falls
false
fame
families
family
famitsu
famous
fan
fangraphs
fans
fantastic
fantasy
faq
far
fashion
fast
fat
fate
father
fatty
faust
favorite
fb
fbi
fc
fda
fe
fear
feat
feature
features
featuring
feb
february
federal
federation
feel
feeling
feelings
fellowship
felt
female
ferdinand
ferna
fernando
ferrari
festival
fever
few
ff
fi
fiba
fiction
field
fields
fifa
fifth
fight
fighter
fighters
fighting
figure
figures
file
files
film
films
filtra
final
finally
finals
finance
financial
find
finds
fine
finger
finite
finland
fire
firm
first
fischer
fish
fishbase
fisher
fishes
fit
five
fixed
fk
fl
flag
flash
flat
fleet
flight
flo
floor
flora
florence
florida
flow
flower
flowering
floyd
fly
flying
fm
fn
fo
focus
folk
follow
following
font
foo
food
foot
football
footnote
for
forall
forbes
force
forces
ford
foreign
forest
forever
forgotten
form
format
formation
former
forms
formula
forstall
fort
fortune
forum
forward
fossil
foster
found
foundation
foundations
four
fourth
fox
fps
fr
frac
frame
framework
franc
france
francesco
francis
francisco
frank
frankfurt
franklin
franz
fre
fred
frederick
free
freebsd
freedom
freeman
french
frequency
fresh
friday
friedrich
friend
friends
fritz
froese
from
front
frontier
frontiers
fruit
fs
ft
fta
fu
fuel
full
fun
function
functional
functions
fund
fundamental
funk
further
future
fw
fx
g
ga
gabriel
gaga
gal
galaxy
gallery
game
gamepro
gamer
gamerankings
games
gamespot
gamespy
gamesradar
gamezone
gaming
gamma
gang
gaon
gap
garci
garcia
garden
gardner
gary
gas
gate
gay
gazette
gb
gc
gd
gdp
ge
gear
gecko
gen
gender
gene
genera
general
generation
genes
genesis
genetic
genetics
geneva
genius
genome
genus
geo
geoffrey
geographic
geography
geological
geometry
georg
george
georges
georgia
geq
ger
gerald
german
germany
geschichte
get
gets
getting
gfdl
ghost
ghz
gi
gia
giant
gibson
gift
gilbert
gill
giovanni
girl
girls
github
give
given
gives
gk
gl
glass
glenn
global
globe
gloria
glory
glossary
gm
gmbh
gn
gnu
go
goal
goals
god
gods
goes
going
gold
golden
gone
gong
good
goodbye
google
gordon
gospel
got
goud
gov
government
gp
gpl
gps
gpu
gr
grace
graduate
graham
grammar
grammy
gran
grand
grande
grant
graph
graphics
grave
gravity
gray
great
greater
greatest
greece
greek
green
greene
greenwood
greg
gregory
grey
grin
gross
ground
group
groups
grove
groves
grow
growing
growth
gru
gs
gsl
gso
gt
gu
gua
guard
guardian
gui
guide
guidelines
guinea
guinness
guitar
guld
gulf
gun
guns
guo
gutenberg
guy
gx
h
ha
hack
had
hai
hair
hal
half
hall
halo
hamilton
hammer
han
hand
handbook
hands
hans
happened
happiness
happy
harald
hard
hardware
harmony
harold
harper
harris
harrison
harry
hart
harv
harvard
harvey
harvnb
has
hat
hate
have
haven
having
hawaii
hb
hbar
hbo
hd
hdl
he
head
heading
headquarters
health
hear
heart
hearts
heat
heather
heaven
heavy
height
heinrich
held
helen
helgen
hell
hello
help
henderson
henri
henry
hep
her
herald
herbert
here
heritage
herman
hermann
hero
heroes
hey
hg
hi
hidden
hie
high
higher
highest
highly
highway
hill
hills
him
himself
hindu
hip
hipparcos
hirakawa
his
histoire
historia
historic
historical
history
hit
hitler
hits
hiv
hk
hkt
hl
hms
ho
hoa
hoard
hockey
hoffman
hold
hole
holiday
holland
hollywood
holmes
holy
hom
home
homepage
honey
hong
honor
honours
hook
hop
hope
hopkins
horizon
horse
hospital
host
hot
hotel
houghton
hour
hours
house
housing
houston
how
howard
however
hp
hpa
hr
hs
htc
htm
html
http
https
hu
hua
huang
hubble
hudson
hugh
hughes
hugo
hui
hull
human
hundred
hung
hunt
hunter
huo
hutterer
huye
hybrid
hypothesis
hz
i
ia
ian
iata
iau
ib
ibid
ibm
ibn
ic
icao
icar
icarus
icbm
ice
ich
ict
id
ida
idea
ideal
ideas
identification
identity
idol
idolm
idxno
ie
iec
ieee
if
iff
ifpi
ign
ii
iii
ij
ik
il
illinois
illusion
illustrated
im
image
images
imagine
imaging
imdb
imf
immediately
impact
imperial
implications
important
impossible
imslp
in
inc
inch
incidence
include
includes
including
ind
independence
independent
index
india
indian
indiana
individual
indo
indonesia
induced
industrial
industry
inf
infection
infectious
infinite
infinity
influence
info
infodisc
information
informer
infty
initial
initiative
injury
ink
inner
innovation
input
insee
inside
insider
insight
insights
inst
instagram
institut
institute
institution
instituto
instrumental
int
integrated
integration
intel
intellectual
intelligence
inter
interaction
interactive
interest
interface
interior
internal
international
internationale
internet
interpretation
interview
into
intro
introduction
invasion
investigation
investment
io
ioc
ios
iota
ip
ipa
ipad
iphone
ipv
iq
ir
ira
iran
iraq
ireland
irish
iron
irwin
is
isaac
isbn
isil
isis
islam
islamic
island
islands
iso
israel
issn
issue
issues
ist
isu
it
italia
italian
italy
item
itis
its
itself
itu
itunes
itv
iucn
iupac
iv
ivan
ix
iz
j
ja
jack
jackson
jacob
jacques
jake
jam
james
jamie
jan
jane
janet
january
japan
japanese
jason
java
javier
jay
jazeera
jazz
jc
jd
je
jean
jeff
jefferson
jeffrey
jenkins
jennifer
jeremy
jerry
jersey
jerusalem
jessica
jesus
jet
jewish
jews
ji
jia
jie
jim
jimmy
jin
jj
jk
jl
jm
jn
jo
joan
job
joe
joel
johann
johannes
john
johnny
johns
johnson
johnston
join
joins
joint
joker
jon
jonathan
jones
jong
jordan
jorge
jose
joseph
josh
joshua
journal
journey
joy
jp
jpg
jpl
jr
js
jsp
jstor
jtbc
ju
juan
juice
julia
julian
julie
julius
july
jump
jun
june
jung
junior
jupiter
just
justice
justification
justin
jyp
jʌ
k
ka
kadokawa
kai
kaist
kang
kansas
kappa
karen
karl
kate
katy
kb
kbc
kbo
kbs
kc
kcc
kd
kde
ke
keep
keith
kelly
ken
kennedy
kenneth
kent
ker
kernel
kespa
kevin
key
keys
kf
kg
kh
kha
khan
kho
khz
ki
kia
kick
kid
kids
kill
killed
killer
killing
kim
kind
king
kingdom
kings
kirk
kis
kiss
kit
kjʌ
klaus
km
kn
knight
knn
know
knowledge
known
knows
ko
koch
kong
korea
korean
kr
ks
kst
kt
ktf
ktx
ku
kunth
kurt
kv
kw
kwa
ky
kyiv
kyle
kʌ
l
la
lab
label
labor
laboratory
labour
ladies
lady
lake
lam
lambda
lan
lancet
land
lane
lang
langle
language
languages
lanka
large
largest
larkin
larry
las
laser
last
late
later
latest
latin
latter
launch
launches
laura
lauren
law
lawrence
laws
layer
lb
lc
lcd
lck
ld
ldots
le
lead
leader
leaders
leadership
leading
leads
leaf
league
learn
learning
least
leave
leaves
lecture
lectures
led
lee
left
leg
legacy
legal
legend
legends
leiden
length
lennon
leo
leon
leonard
leq
les
leslie
less
let
letter
letters
level
lewis
lexicon
lez
lfp
lg
lgbt
li
lia
liberal
liberation
liberty
library
license
lie
lies
life
liga
light
lights
like
lil
lim
limit
limited
limits
lin
lincoln
linda
line
linear
liner
lines
linguistics
link
links
linnean
linux
lion
lisa
list
listen
literary
literature
little
liu
live
liverpool
lives
living
ll
llc
ller
lloyd
lm
ln
lng
lo
local
location
lock
log
logic
logos
lol
london
lonely
long
longer
look
looking
looks
loop
lord
los
loss
lost
lot
louis
louise
love
lover
low
lower
lp
lpg
ls
lsd
lt
ltd
lte
lu
lucas
lucky
lucy
ludwig
luis
luke
luna
lunar
lv
ly
lynn
lyon
lyrics
m
ma
mac
macdonald
machine
macmillan
macos
mactutor
mad
made
madonna
madrid
magazine
magic
magnetic
magnitude
maha
mai
maiden
mail
main
major
make
maker
makes
making
malaysia
malcolm
male
mama
mammal
mammalia
mammalian
mammalogy
mammals
man
management
manager
manchester
mann
manual
manuel
many
map
mapping
maps
mapsto
mar
marc
marca
marcel
march
marco
marcus
margaret
margin
mari
maria
marie
marina
marine
mario
mark
market
marketing
marks
maroon
marriage
mars
marshall
marti
martin
marvel
marx
mary
mas
mason
mass
massachusetts
massacre
massive
master
masters
mat
match
matches
material
materials
math
mathbb
mathbf
mathcal
mathematical
mathematics
mathfrak
mathrm
mathsf
mathworld
matrix
matt
matter
matthew
maurice
max
maximum
may
maya
mayor
mb
mba
mbc
mbn
mbox
mbs
mc
mccartney
mcdonald
mcfarland
mcgraw
md
me
mean
meaning
means
measure
measures
mechanics
mechanism
mechanisms
med
medal
media
medical
medicine
medien
medieval
medium
meet
meeting
meets
mega
melody
member
members
memoirs
memorial
memories
memory
men
ment
mental
mephistopheles
mercury
merriam
message
met
meta
metabolism
metacritic
metal
meteorological
method
methods
metro
metropolitan
mexico
meyer
mez
mf
mg
mgm
mhz
mi
mia
michael
michel
michelle
michigan
micro
microbiology
microsoft
mid
middle
midnight
mie
mig
might
migration
miguel
mike
mil
milan
mile
miles
military
milk
mill
miller
million
mills
min
mind
mine
minh
mini
minimum
minister
ministry
minnesota
minor
minors
minute
minutes
miracle
mirror
miss
missile
missing
mission
missouri
mit
mitchell
mitochondrial
mix
mixed
mj
mjʌ
mk
ml
mlb
mls
mm
mmorpg
mn
mnet
mnras
mo
mobile
mod
mode
model
models
modern
module
mojo
mol
molecular
moment
mon
monday
money
monitor
monkey
monster
month
monthly
months
moody
moon
moore
moral
more
morgan
morning
morphology
morris
moscow
most
mother
motion
motor
mou
mount
mountain
mouse
move
movement
movements
moves
movie
movies
moving
mp
mpeg
mph
mr
mrna
mrs
ms
msl
msn
mt
mtv
mu
much
muda
muller
multi
multiple
mundo
municipal
municipality
murder
muroidea
murphy
murray
muscle
muse
museum
music
musical
muslim
musser
must
mv
mvp
mw
mx
my
mylovekbs
myself
mysql
mystery
myth
mythology
mɛ
n
na
nabla
nach
nacional
nad
nakamura
nam
name
named
names
nancy
nas
nasa
nat
natalie
nathan
nation
national
nations
native
nato
natur
natural
nature
naval
naver
navy
nazi
nba
nbc
nbgi
nc
ncbi
nct
nd
nda
ndez
ne
near
nec
need
needs
negative
neil
neither
nelson
neo
neq
nerve
net
netflix
netherlands
network
networks
neural
neuroscience
never
new
news
newspaper
newton
next
nez
nf
nfl
ng
nga
ngc
nghi
ngo
ngshi
ngu
nguye
nh
nha
nhk
nhl
nhn
nhu
ni
nia
nice
nicholas
nick
nicolas
nielsen
nienia
night
nights
nih
nine
nintendo
niosh
nj
nji
nk
nl
nlab
nm
nmb
nme
no
noaa
nobel
noble
node
noise
nomenclature
nominations
nominees
non
nor
normal
normals
norman
north
northern
norton
norway
norwegian
nos
not
note
noted
notes
nothing
notice
notices
nov
nova
novel
november
now
nowdata
np
npb
npr
nr
ns
nshi
nt
ntt
ntv
nu
nuclear
nuevo
null
num
number
numbers
nutrition
nvidia
nvpi
nwa
nws
nx
nxt
ny
nyi
nz
nɦa
o
ob
obama
obituary
object
objects
obs
observations
observatory
observer
ocean
oceanic
och
oclc
ocn
oct
october
oecd
of
off
office
officer
official
often
og
oh
ohio
oid
oil
ois
ok
ol
old
oliver
olympic
olympics
om
omega
omnibus
on
once
one
ones
online
only
ontario
oo
op
open
opening
opens
opera
operating
operation
operations
operatorname
opinion
oplus
opposition
ops
optical
or
ora
oracle
oral
orange
orbit
orchestra
ord
order
orders
org
organic
organization
oricon
oriental
origin
original
originally
originals
origins
oro
os
oscar
osen
osprey
ost
other
others
otherwise
otimes
ottawa
otto
ou
our
out
outer
outlook
output
outside
ova
over
overline
overview
owen
own
oxford
oz
p
pa
pablo
pac
pacific
package
padding
page
pages
pai
pain
pakistan
palace
palgrave
palmer
pan
pandemic
panic
papa
paper
papers
par
para
parade
paradise
parallel
paris
park
parker
parliament
part
partial
particular
parties
partners
parts
party
pas
pass
passion
past
pat
patent
path
patient
patients
patricia
patrick
pattern
patterns
paul
paulo
pauly
pay
pb
pbs
pc
pci
pcr
pd
pdf
pe
peace
peak
pearl
pearson
pedro
pen
penguin
pennsylvania
people
peoples
per
perception
perfect
performance
period
perry
person
personal
personality
persons
perspective
perspectives
peru
pet
pete
peter
peters
peterson
pez
pf
pg
ph
pha
phantom
phase
phc
pheidole
phi
phil
philadelphia
philip
philippe
philippine
philippines
phillips
philosophical
philosophy
pho
phoenix
phone
photo
photos
php
phu
phylogenetic
phylogenetics
phylogeny
phys
physical
physics
physiology
pi
pia
piano
pick
picture
pictures
piece
pierre
pink
pit
pitchfork
pixel
pj
pk
pl
place
places
plan
planck
plane
planet
planetary
planets
planning
plans
plant
plants
plastic
platform
platin
platina
platinum
play
player
players
playing
playstation
plaza
plc
please
pleasure
plos
plus
pm
pmatrix
pmc
pmid
pnas
po
pocket
poe
point
points
poke
pokemon
poland
police
policy
polish
political
politics
poll
polygon
pone
poor
pop
pope
popmatters
popular
population
por
port
portal
porter
portrait
portugal
portuguese
position
positive
possible
post
potential
potter
pour
poverty
powell
power
powers
pp
pr
practical
practice
pre
preliminary
premier
prentice
presence
present
presentation
presents
president
presidential
press
pressure
pretty
prevention
preview
price
pride
primary
prime
prince
princess
princeton
principle
principles
print
printf
printing
private
prix
prize
pro
probably
problem
problems
proc
proceedings
process
processes
processing
prod
produce
produced
producer
product
production
products
professional
professor
profile
program
programme
programming
programs
progress
progressive
project
projects
prometheus
promise
proof
properties
property
protection
protein
proteins
protests
protocol
province
provincial
przyznane
ps
psa
psi
psp
psv
psychiatry
psychological
psychology
pt
pu
pub
public
publication
publications
published
publisher
publishers
publishing
punk
pure
purple
purpose
push
put
putin
pv
px
py
python
płyty
pɛ
pʌ
q
qi
qia
qquad
qs
qu
qua
quad
quality
quantum
quarterly
que
queen
query
quest
question
questions
qui
quick
quickfacts
quite
quo
quoted
quye
r
ra
race
rachel
racing
radar
radiation
radical
radio
rafael
rage
rail
railway
rain
rainbow
rainer
ralph
ram
ran
random
range
rangle
rank
ranking
rankings
rap
rapid
rapids
rare
rat
rate
rather
ratings
ration
raw
ray
raymond
rb
rc
rca
rd
re
reach
reaction
read
reader
reading
ready
real
reality
really
reason
rebecca
rebels
recent
receptor
recognition
record
recorded
recording
recordings
records
recovery
red
reduction
reed
reeder
ref
reference
references
reform
reformed
region
regional
regions
register
regular
regulation
reich
reid
related
relation
relations
relationship
relationships
relative
release
released
releases
religion
religious
remains
remember
remix
remixes
renaissance
rene
report
reporter
reports
representation
republic
required
res
research
reserve
resident
resistance
resolution
resource
resources
response
rest
result
results
retrieved
return
returns
reuters
rev
reveal
revealed
reveals
reverse
review
reviews
revised
revision
revolution
revolutionary
rex
rey
reynolds
rez
rf
rfc
rg
rho
rhythm
ri
ria
riaa
rica
ricardo
rice
rich
richard
richardson
rick
ride
right
rightarrow
rights
rihanna
ring
rings
rio
rise
rising
risk
river
rk
rlts
rm
rn
rna
ro
road
rob
robert
robertchristgau
roberto
roberts
robertson
robin
robinson
robot
rock
rocket
roger
rogers
roku
role
roll
rolling
rom
roma
roman
romance
rome
ron
ronald
ronaldo
room
root
roots
rose
ross
rotten
rough
round
route
routledge
rovi
row
roy
royal
rp
rpg
rpm
rr
rs
rsssf
rt
ru
ruby
rudolf
rule
rules
run
running
rush
russell
russia
russian
rx
ryan
s
sa
sacred
safe
safety
saga
sage
said
saint
saints
sal
sale
sales
salt
sam
sama
same
sample
samsung
samuel
san
sanskrit
santa
santos
sao
sar
sara
sarah
sars
sas
sat
satellite
satellites
saturday
saturn
saudi
saunders
savage
save
saw
say
says
sb
sbb
sbs
sc
scale
scene
schedule
scheme
schmidt
schneider
school
schools
schuster
schwartz
schweiz
sci
science
sciences
scientific
scientist
scientists
score
scores
scotland
scott
scottish
screen
script
scriptstyle
sd
se
sea
sean
search
season
seattle
sebastian
sec
second
secondary
secret
secretary
secrets
section
security
see
seed
seem
seems
seen
sega
select
selected
selection
self
selling
semi
seminary
sen
sensation
sensations
sense
senses
seoul
sep
september
sequence
sequences
ser
serbia
serie
series
server
service
services
session
sessions
set
setminus
sets
seven
seventh
seventies
several
sex
sexual
sexy
sezione
sf
sfnp
sg
sh
sha
shadow
shake
shall
shanghai
shape
share
sharp
shaw
she
sheeran
sheet
sheffield
shell
shi
shift
shin
shine
ship
sho
shock
shooting
shop
short
shot
should
show
shows
shu
si
sica
sid
side
sie
sight
sigma
sign
signal
signature
signs
silence
silent
silva
silver
sim
simbad
similar
simmons
simon
simple
simply
simpson
sin
since
sing
singapore
singer
singh
single
singles
sinh
sir
sister
site
sites
situation
six
sixth
size
sj
sk
ska
ske
ski
skin
skt
sky
skyscraper
skyscraperpage
sl
slam
slant
sleep
slow
sm
small
smap
smart
smash
smile
smith
smithsonian
sn
snk
snl
snow
sns
so
soc
soccer
soccernet
soccerway
social
society
sociology
soft
software
sol
solar
sold
soldier
soldiers
solid
solo
solomon
solution
solutions
some
something
sometimes
son
song
songs
sonic
sons
sony
soon
soothill
sorry
sort
sos
soul
sound
sounds
soundtrack
source
sources
south
southeast
southern
soviet
sp
space
spaces
spain
span
spanish
speak
spec
special
species
specific
specification
specifications
spectrum
speech
speed
spencer
sphere
spice
spider
spin
spirit
spiritual
split
sponichi
sport
sports
spot
spring
springer
sputnikmusic
spy
sql
sqrt
squad
square
sr
sri
ss
sse
ssg
st
sta
stable
stadium
staff
stage
stand
standard
standards
standing
stanford
stanley
star
stars
start
stat
state
statement
states
static
station
stations
statistical
statistics
stats
status
stay
std
steam
steel
stefan
stellar
stem
step
stephen
ster
steve
steven
stevens
stewart
still
stock
stone
stones
stop
storage
store
stories
storm
story
straight
strange
strategic
strategy
stream
streaming
street
stress
strike
string
strong
structural
structure
structures
struggle
stuart
student
students
studies
studio
studios
study
stx
style
su
sub
subject
subset
subseteq
subsp
subway
success
such
sugar
suicide
suit
suite
sullivan
sum
summary
summer
summit
sun
sunday
sung
sunshine
sup
super
superfamily
suppl
supplement
support
supreme
sur
surface
surgery
survey
survival
susan
suv
sv
svg
svgpx
svgx
sw
sweden
swedish
sweet
swift
swiss
switch
switzerland
sword
sydney
sym
symphony
symposium
syndrome
synthesis
syria
syrian
system
systematic
systematics
systems
t
ta
tab
table
tables
tag
tai
taiwan
take
taken
takes
taking
tale
tales
talk
talking
talks
tan
tang
tank
target
task
taste
tau
tax
taxonomic
taxonomy
taylor
tb
tbc
tbn
tbol
tbs
tc
tcm
tcp
td
te
tea
teaching
team
teams
tears
tech
technical
techniques
technologies
technology
ted
teen
tel
telegraph
telescope
television
tell
temperature
temple
ten
tennis
term
terminal
terms
territory
terror
terry
test
testament
testing
tests
texas
text
texts
textstyle
tf
tfrac
tg
th
tha
thai
thailand
than
thanh
thank
that
the
theater
theatre
thee
their
them
theme
themselves
then
theodore
theological
theology
theorem
theoretical
theories
theory
therapy
there
therefore
these
theta
they
thi
thie
thing
things
think
thinking
third
this
tho
thomas
thompson
thomson
those
thou
though
thought
thoughts
thousand
threat
threatened
three
through
thu
thunder
thursday
thus
thy
ti
tia
ticknor
tico
tie
tiger
tilde
tillandsia
tim
time
timeline
times
timothy
tin
titel
title
tm
tna
tnms
tnt
to
today
todd
together
tokyo
tom
tomorrow
tonight
tony
too
took
tool
tools
top
topology
tops
tor
toronto
total
touch
tour
tourism
tournament
toward
towards
tower
town
tp
tr
tra
track
tracks
trade
tradition
traditional
traffic
trailer
train
training
trains
trans
transactions
transfer
transformation
transit
transition
translated
translation
transmission
transport
transportation
travel
tre
treasure
treatment
treaty
tree
trends
tri
trial
triangle
tribune
tribute
trick
trip
triple
tro
troops
tropical
trouble
tru
true
trump
trust
truth
try
ts
tt
ttc
tu
tube
tulo
tunnel
turkey
turkish
turn
turner
tv
tvn
twentieth
twenty
twice
twin
twitter
two
tx
tyler
type
types
typhoon
tɛ
u
ua
uae
uc
ucla
ud
uefa
ufc
ufo
ui
uk
ukraine
ukrainian
ultimate
ultra
ultratop
um
un
una
unconscious
uncut
und
under
underground
understanding
une
unesco
unicode
union
unit
united
units
unity
univ
universal
universe
universita
universities
university
unix
unknown
until
unveils
up
update
updated
updates
upon
upper
ur
urban
url
us
usa
usb
usda
use
used
user
users
uses
usgs
using
uss
ut
utc
ute
utf
uv
v
va
vaccine
val
valencia
valley
value
values
van
vancouver
var
varepsilon
variable
variations
variety
various
varnothing
varphi
vcr
vdots
ve
vec
vector
vee
vehicle
velvet
venus
ver
verge
verkehr
verlag
verse
version
versus
vert
very
vevo
vhs
vi
via
vice
victor
victoria
victory
video
videos
vie
vienna
vietnam
view
viewer
views
vii
viii
viking
villa
village
vincent
vintage
violence
vip
virgin
virginia
virtual
virus
visible
vision
visit
vista
visual
vita
vj
vladimir
vn
vo
vocal
vod
voice
voices
void
vol
volume
von
vote
voyage
vr
vs
vu
vvvf
w
wa
wagner
wake
wales
walk
walker
walking
wall
wallace
walter
wang
wanna
want
wanted
wants
war
ward
warfare
warner
warning
warren
warrior
warriors
wars
was
washington
watch
water
watson
wave
waves
way
wayne
ways
wbc
wcs
we
weapons
weather
weatherbase
web
webb
weber
website
webster
wedge
week
weekend
weekly
weeks
weight
weisstein
welcome
well
wells
went
were
werner
wesley
west
western
westminster
wg
what
whatever
wheeler
when
where
whether
which
while
white
whitney
who
whole
whose
why
wi
wide
width
wife
wii
wiki
wikidata
wikipedia
wild
wildlife
wiley
wilhelm
will
william
williams
wilson
win
wind
window
windows
wine
wing
wings
winner
winners
winning
wins
winter
wire
wired
wisdom
wish
with
within
without
wk
wkbl
wm
wo
wolf
wolfgang
wolfram
woman
women
won
wonder
wonderful
wong
woo
wood
woods
word
words
work
workers
working
works
world
worlds
worldwide
worst
worth
would
wowow
wr
wrestling
wright
write
writer
writing
written
wrong
wto
wu
wwe
wwf
www
wyro
wʌ
x
xa
xbox
xe
xi
xia
xie
xii
xiii
xiv
xl
xml
xp
xrightarrow
xu
xua
xue
xx
xxx
xy
y
ya
yahoo
yale
yang
ye
yeah
year
years
yellow
yes
yesterday
yet
yg
yi
ymca
yo
yoga
york
you
young
your
yourself
youth
youtube
ys
ytn
yu
yua
yue
z
za
zbl
zdnet
ze
zealand
zeitschrift
zero
zeta
zha
zhang
zhe
zhi
zho
zhu
zhua
zi
ziff
zip
zo
zone
zoo
zoology
zoom
zootaxa
zu
zum
zur
{
|
}
~
¡
£
¥
§
¨
©
«
¬
­
®
¯
°
±
²
³
´
µ
·
¹
º
»
¼
½
¿
×
æ
ð
÷
ø
đa
đe
đi
đo
đu
ı
ŋ
ŋd
ŋs
ŋt
ŋɦa
ɐ
ɑ
ɔ
ɕ
ɕa
ɕo
ɕʌ
ɗ
ə
ɛ
ɡ
ɡa
ɡo
ɦa
ɨ
ɪ
ɭ
ɭk
ɭs
ɭt
ɭɭa
ɯ
ɯk
ɲ
ɸ
ɹ
ɽa
ɽi
ɽida
ɽo
ɾ
ʃ
ʊ
ʌ
ʑa
ʑe
ʑi
ʑo
ʑʌ
ʒ
ʔ
ʰ
ʲ
ʷ
ʻ
ʼ
ʾ
ʿ
ˀ
ˇ
ˈ
ˊ
ˋ
ˌ
ː
˙
˚
˝
ˠ
˥
˦
˧
˨
˩
̀
́
̂
̃
̄
̆
̇
̈
̉
̊
̋
̌
̍
̏
̑
̓
̔
̚
̛
̝
̞
̟
̠
̣
̤
̥
̦
̧
̨
̩
̪
̯
̰
̱
̸
̹
̺
͂
ͅ
͈
͡
α
β
γ
δ
ε
ζ
η
θ
ι
κ
λ
μ
ν
ξ
ο
π
ρ
ς
σ
τ
υ
φ
χ
ψ
ω
ϑ
ϕ
ϵ
а
б
в
г
д
е
ж
з
и
к
л
м
н
на
не
о
п
по
р
раи
россии
с
св
т
у
ф
х
ч
ъ
ь
э
ю
я
і
ְ
ִ
ֵ
ֶ
ַ
ָ
ֹ
ּ
ׁ
א
ב
ד
ה
ו
י
ל
מ
ן
ע
ר
ש
ת
،
ا
ب
ة
ت
ج
ح
د
ر
س
ش
ص
ع
ف
ق
ك
ل
م
ن
ه
و
ي
َ
ُ
ِ
ّ
ْ
ٓ
ٔ
ٕ
ܵ
ަ
ު
ं
ः
क
ग
च
ज
ट
त
द
ध
न
प
ब
भ
म
य
र
ल
व
श
ष
स
ह
़
ा
ि
ी
ु
ू
ृ
े
ो
्
ন
ব
ম
য
র
ল
স
়
া
ি
ু
ে
্
க
ச
த
ப
ம
ர
ா
ி
ு
ே
ை
்
ර
්
ා
ි
ු
ෙ
ก
ข
ค
ง
จ
ช
ด
ต
ท
น
บ
ป
พ
ม
ย
ร
ล
ว
ศ
ส
อ
ั
า
ิ
ี
ึ
ื
ุ
ู
็
่
้
์
ັ
་
།
ག
ང
ད
ན
བ
མ
ར
ལ
ས
ི
ུ
ེ
ོ
ྒ
ྫ
ྱ
ྲ
က
ခ
င
စ
တ
န
ပ
မ
ရ
လ
သ
ာ
ိ
ီ
ု
ေ
ံ
့
း
်
ျ
ြ
ွ
가
가가
가가와
가가와현
가게
가게를
가격
가격공시
가격과
가격에
가격으로
가격은
가격을
가격의
가격이
가고
가고시마
가고시마현
가곡
가공
가공의
가공한
가구
가구가
가구는
가군
가극단
가기
가까스로
가까운
가까이
가까이에
가깝게
가깝고
가깝다
가끔
가끔씩
가나
가나가와
가나가와현
가나안
가나의
가나자와
가난한
가느다란
가는
가늘게
가늘고
가능
가능성
가능성도
가능성에
가능성은
가능성을
가능성이
가능케
가능하게
가능하고
가능하다
가능하다고
가능하다는
가능하도록
가능하며
가능하지만
가능한
가능할
가능해졌다
가능했다
가니
가다
가다가
가담하여
가담한
가던
가도
가도카와
가독을
가동
가드
가득
가득한
가든
가등기
가등기를
가등기에
가디언
가라
가라사대
가라오케
가람기획
가량
가량의
가량이
가려
가령
가로
가로되
가로로
가로지르는
가로질러
가루
가르시아
가르쳐
가르쳤다
가르치고
가르치는
가르친
가르침
가르침을
가리고
가리는
가리지
가리켜
가리키는
가리키며
가리킨다
가릴
가마
가마쿠라
가만히
가맹
가며
가면
가면라이더
가면서
가면을
가모
가목
가문
가문과
가문에
가문에서
가문은
가문을
가문의
가문이
가방
가방을
가벼운
가변
가볍게
가볍고
가봉
가브리엘
가사
가사가
가사는
가사로
가사를
가사에
가사와
가사의
가산
가산금
가산금을
가산하여
가상
가상의
가서
가석방
가선대부
가설
가설은
가설을
가설이
가셔
가속
가솔린
가수
가수가
가수다
가수로
가수상
가수의
가수이다
가수이자
가수인
가스
가스가
가스를
가스의
가슴
가슴에
가슴은
가슴을
가슴이
가시
가시가
가시마
가신
가압류
가액
가액은
가액을
가액의
가액이
가야
가야금
가에
가오슝
가옥
가온
가와사키
가요
가요제
가우스
가운데
가운데는
가운데서
가운데서도
가운데에
가운데에는
가운데에서
가위
가을
가을에
가을의
가의
가이
가이드
가이우스
가입
가입을
가입자
가입하는
가입하여
가입하였다
가입하지
가입한
가입할
가입했다
가자
가장
가장자리
가장자리가
가장자리에
가정
가정법원은
가정법원의
가정에
가정에서
가정용
가정을
가정의
가정이
가정한다
가제트
가져
가져가라고
가져갔다
가져다
가져다가
가져야
가져오게
가져오는
가져온
가져올
가져와
가져왔다
가졌고
가졌다
가졌던
가졌으며
가족
가족과
가족관계의
가족들과
가족들은
가족들을
가족들이
가족에
가족에게
가족오락관
가족은
가족을
가족의
가족이
가죽
가죽을
가중
가중처벌
가지
가지가
가지게
가지고
가지기
가지는
가지로
가지를
가지만
가지며
가지에
가지의
가지이다
가지지
가진
가진다
가진다고
가질
가짜
가창
가처분
가축
가축분뇨의
가축을
가축의
가치
가치가
가치는
가치를
가치에
가치와
가치의
가칭
가타카나
가토
가톨릭
가톨릭교회
가톨릭교회의
가파른
가평
가평군
가하고
가하는
가하여
가한
가할
가해
가해자
가했다
가혹한
가환
가환환
가히
각
각각
각각의
각국
각국에
각국에서
각국의
각급
각기
각도
각목의
각본
각본가
각본가이다
각본상
각본을
각색
각색한
각성
각을
각의
각자
각자가
각자의
각종
각종의
각지를
각지에
각지에서
각지의
각하
각호
각호에
각호와
각호외의
각호의
간
간격
간격으로
간격을
간격이
간다
간다는
간단하게
간단한
간단히
간디
간략하게
간부
간사
간사는
간사이
간선
간섭
간섭을
간신히
간에
간에이
간은
간을
간음
간의
간이
간장
간절히
간접
간접적
간접적으로
간접적인
간주되고
간주되는
간주되었다
간주된다
간주하고
간주한다
간직하고
간첩
간체
간체자
간토
간판
간행
간행되었다
간행된
간행물
간행한
간호사
간혹
갇혀
갇힌
갈
갈등
갈등과
갈등으로
갈등은
갈등을
갈등이
갈라
갈라져
갈라진
갈라진다
갈래로
갈리아
갈릴레오
갈색
갈색을
갈수록
갈아
갈아대
갈아샤대
갈아탈
갈음하는
갈음하여
갈음할
감
감각
감각을
감경
감고
감금
감당할
감독
감독과
감독상
감독에
감독으로
감독은
감독을
감독의
감독이
감독이다
감독이었던
감독이자
감독인
감독직에서
감독직을
감독하고
감독하는
감독한
감독한다
감동을
감리
감리교
감마
감면
감면한다
감면할
감명을
감사
감사가
감사는
감사를
감사에
감사원
감사원에
감사위원회
감사위원회의
감사의
감사합니다
감상
감소
감소로
감소를
감소시키는
감소하고
감소하는
감소하였다
감소한
감소한다
감소했다
감수
감시
감시를
감싸고
감안하면
감안하여
감안할
감염
감염된
감염병
감염병의
감염을
감염이
감옥
감옥에
감옥에서
감자
감정
감정에
감정은
감정을
감정의
감정이
감정인
감정평가
감정평가에
감지
감찰
감추고
감축
감축되는
감히
갑
갑니다
갑옷
갑옷을
갑은
갑이
갑자기
갑작스러운
갑작스런
갑작스럽게
값
값에
값으로
값은
값을
값의
값이
값이다
갓
갓치
갔고
갔다
갔다가
갔던
갔으며
갔을
강
강간
강과
강구하여야
강남
강남구
강당
강도
강도가
강도를
강동구
강등
강등되었다
강력
강력하게
강력한
강력히
강렬한
강령
강릉
강릉시
강명희
강북구
강사
강사로
강서구
강수량은
강수량이
강신욱
강씨
강아지
강에
강에서
강연
강연을
강요
강요하는
강원
강원도
강원도의
강원도의회
강으로
강은
강을
강의
강의를
강이
강이다
강인한
강전
강전에서
강점기
강점기의
강제
강제로
강제적으로
강제집행을
강조
강조하고
강조하는
강조하였다
강조한
강조한다
강조했다
강좌
강준만
강진
강진군
강철
강철의
강풍
강하게
강하고
강하다
강하며
강한
강해
강화
강화군
강화도
강화되었다
강화된
강화를
강화에
강화하고
강화하기
강화하는
강화하여
강희
갖가지
갖게
갖고
갖기
갖는
갖는다
갖다
갖도록
갖은
갖지
갖추게
갖추고
갖추어
갖추어야
갖추어져
갖추었다
갖추지
갖춘
갖출
같게
같고
같다
같다고
같다는
같다면
같습니다
같아
같아서
같아요
같았다
같으나
같으니
같으며
같으면
같은
같은데
같은해
같을
같음
같이
같지
같지만
개
개가
개개의
개개인의
개관
개관하였다
개교
개교식
개구리
개국
개국에
개국에서
개국의
개국이
개그
개그맨
개그콘서트
개나
개년
개념
개념과
개념에
개념으로
개념은
개념을
개념의
개념이
개념이다
개는
개량
개량한
개로
개를
개리
개막
개막식
개막전
개명
개명되었다
개명하였다
개명했다
개미
개발
개발계획
개발과
개발되고
개발되어
개발되었다
개발되었으며
개발된
개발로
개발사업
개발사업에
개발사업을
개발사업의
개발에
개발은
개발을
개발의
개발이
개발자
개발하고
개발하기
개발하는
개발하여
개발하였다
개발한
개발할
개발했다
개방
개방된
개방형
개별
개별소비세
개별적
개별적으로
개별적인
개봉
개봉되었다
개봉된
개봉하였다
개봉한
개선
개선과
개선된
개선에
개선을
개선이
개선하고
개선하기
개선하는
개설
개설되어
개설된
개설한
개성
개성을
개소
개수
개수가
개수는
개시
개시되었다
개시된
개시하는
개시하였다
개시한
개시했다
개신교
개씩
개업
개업하였다
개에
개에서
개연성이
개였다
개와
개요
개원
개월
개월간
개월만에
개월에
개월을
개월의
개월이
개의
개이다
개이며
개인
개인과
개인에
개인에게
개인에게도
개인용
개인은
개인을
개인의
개인이
개인이나
개인적
개인적으로
개인적인
개인전
개인정보
개인정보를
개인정보의
개입
개입을
개장
개장하였다
개전
개정
개정규정
개정규정에
개정규정에도
개정규정은
개정규정을
개정되고
개정되기
개정되는
개정된
개정에
개정으로
개정을
개정판
개정하여
개정한
개정한다
개정할
개조
개조를
개조한
개찰
개찰구
개찰구는
개척
개체
개체가
개체수가
개최
개최국
개최되고
개최되는
개최되었다
개최되었으며
개최된
개최된다
개최될
개최를
개최지
개최하고
개최하는
개최하여
개최하였다
개최한
개최한다
개최할
개최했다
개축
개칭
개칭되었다
개칭하였다
개통
개통과
개통되면서
개통되었다
개통된
개통에
개통으로
개통하였다
개통한
개편
개편되었다
개편에
개편으로
개편하였다
개표
개항
개헌
개혁
개혁과
개혁에
개혁은
개혁을
개혁의
개혁이
개화
객관적
객관적으로
객관적인
객실
객원
객차
객체
갤러리
갤럭시
갱
갱신
거
거기
거기서
거기에
거기에는
거기에서
거꾸로
거느렸다
거느리고
거느린
거는
거대
거대한
거두고
거두는
거두며
거두면서
거두어
거두었고
거두었다
거두었으며
거두지
거둔
거둔다
거둘
거뒀다
거듭
거라고
거란
거래
거래가
거래를
거래소
거래에
거래의
거래하는
거룩한
거리
거리가
거리는
거리다
거리로
거리를
거리에
거리에서
거리와
거리의
거문고
거미
거부
거부하거나
거부하고
거부하는
거부하였다
거부한
거부할
거부했다
거북이
거센
거소
거슬러
거시
거시니
거액의
거야
거예요
거울
거의
거인
거인의
거절
거절하고
거절하였다
거절한
거절할
거절했다
거점
거점으로
거점을
거제
거제시
거주
거주자
거주자가
거주자의
거주지
거주지를
거주하고
거주하는
거주하던
거주하며
거주한다
거지
거짓
거짓말
거짓말을
거짓으로
거짓의
거짓이나
거창
거창군
거처를
거쳐
거쳐서
거쳐야
거쳤다
거치는
거치며
거치면서
거치지
거친
거칠고
거침없이
거행
걱정
걱정을
걱정이
건
건강
건강과
건강에
건강을
건강이
건강진단을
건강하고
건강한
건국
건국대학교
건국한
건국훈장
건너
건너가
건너갔다
건너는
건너온
건달
건담
건륭
건립
건립되었다
건립된
건립한
건물
건물과
건물들이
건물로
건물에
건물에서
건물은
건물을
건물의
건물이
건물이다
건설
건설공사
건설공사의
건설과
건설교통부
건설교통부고시
건설교통부령
건설교통부장관
건설기술
건설되어
건설되었다
건설된
건설로
건설산업기본법
건설에
건설은
건설을
건설의
건설이
건설하고
건설하는
건설하였다
건설한
건설할
건설했다
건안
건에
건을
건의
건이
건전한
건조
건조물
건조한
건축
건축가
건축과
건축물
건축물에
건축물을
건축물의
건축물이
건축물이다
건축법
건축에
건축을
건축의
건축허가
건축허가를
걷고
걷기
걷는
걷다
걸
걸고
걸그룹
걸려
걸렸다
걸로
걸리는
걸리지
걸린
걸린다
걸릴
걸스
걸어
걸어서
걸었다
걸음
걸음을
걸즈
걸쳐
걸쳐서
걸치는
걸친
걸프
검
검거
검사
검사가
검사기관
검사는
검사로
검사를
검사에
검사에게
검사와
검사의
검사장
검사하게
검사하는
검사할
검색
검색시스템
검역
검열
검은
검은색
검을
검정
검정을
검증
검증을
검찰
검찰관
검찰에
검찰은
검찰의
검찰이
검찰청
검찰총장
검토
검토를
검토하고
검토하여
검토한
겁니다
겁을
겁이
것
것같이
것과
것과는
것까지
것도
것들
것들은
것들을
것들이
것들이다
것만
것만으로
것만으로는
것만은
것만이
것보다
것보다는
것부터
것에
것에는
것에서
것으로
것으로는
것으로도
것으로부터
것으로서
것으로써
것은
것을
것의
것이
것이거나
것이고
것이기
것이나
것이냐
것이니
것이니라
것이다
것이라
것이라고
것이라고는
것이라는
것이라며
것이라면
것이란
것이며
것이므로
것이어서
것이어야
것이었고
것이었다
것이었으나
것이오
것이외다
것이요
것이지
것이지만
것인
것인가
것인가를
것인가에
것인데
것인바
것인지
것인지는
것인지를
것인지에
것일
것일까
것임
것임에도
것임을
것임이
것입니다
것처럼
겉보기
겉으로
겉으로는
게
게다가
게르만
게리
게릴라
게스트
게스트로
게시
게시판
게시하여야
게오르크
게을리
게을리하지
게이
게이밍
게이세이
게이오
게이지
게이초
게이트
게이한
게이힌
게일
게임
게임과
게임보이
게임에
게임에서
게임에서는
게임으로
게임은
게임을
게임의
게임이
게임이다
게임인
게임즈
게재
게재된
게재한
겐
겐로쿠
겐지
겟
겨루는
겨우
겨울
겨울에
겨울에는
겨울은
겨울을
겨울의
겨울이
격
격렬하게
격렬한
격리
격자
격차를
격투
격파하고
격하
겪게
겪고
겪는
겪는다
겪었다
겪으면서
겪은
견
견고한
견도
견디지
견딜
견취
견해
견해가
견해는
견해도
견해를
견해에
견해이다
결
결격사유
결격사유에
결과
결과가
결과는
결과로
결과로서
결과를
결과에
결과와
결과의
결과이다
결과적으로
결국
결국에는
결국은
결론
결론에
결론은
결론을
결론이
결방
결사의
결산
결선
결성
결성되었다
결성된
결성하고
결성하여
결성하였다
결성한
결성했다
결승
결승골을
결승에
결승에서
결승전
결승전에
결승전에서
결승전은
결심을
결심하고
결심한다
결심했다
결원이
결의
결의가
결의는
결의로
결의를
결의에
결정
결정과
결정되는
결정되어
결정되었다
결정된
결정된다
결정방식
결정에
결정으로
결정은
결정을
결정의
결정이
결정적
결정적으로
결정적인
결정전
결정하고
결정하기
결정하는
결정하여
결정하여야
결정하였다
결정한
결정한다
결정할
결정했다
결제
결코
결투
결함
결함을
결함이
결합
결합되어
결합된
결합으로
결합을
결합이
결합하는
결합하여
결합한
결혼
결혼식
결혼식을
결혼에
결혼은
결혼을
결혼의
결혼하고
결혼하여
결혼하였다
결혼한
결혼한다
결혼할
결혼해
결혼했다
겸
겸임
겸임교수
겸직
겸하고
겸한
겸할
겹쳐
겹치는
경
경감
경감한다
경계
경계가
경계는
경계로
경계를
경계에
경고
경고를
경과
경과되지
경과된
경과조치
경과하면
경과하지
경과한
경관
경관을
경기
경기가
경기고등학교
경기는
경기도
경기도당
경기도립학교
경기도의
경기도의회
경기도지사
경기로
경기를
경기에
경기에서
경기에서는
경기에서도
경기였다
경기와
경기의
경기이다
경기인
경기장
경기장에서
경기장으로
경기장은
경기장을
경기장의
경기장이다
경까지
경남
경덕왕
경도
경력
경력은
경력을
경력의
경력이
경로
경로가
경로는
경로를
경료된
경료한
경매
경매절차에서
경미한
경보
경복궁
경부고속도로
경부선
경부터
경북
경북대학교
경비
경비는
경비를
경비원
경비의
경사
경사가
경산
경산시
경상
경상남도
경상남도의
경상남도지사
경상도
경상북도
경상북도의
경선
경성
경성부
경시청
경에
경연
경영
경영대학원
경영에
경영을
경영의
경영자
경영하는
경영학
경영학과
경우
경우가
경우나
경우는
경우도
경우라도
경우라면
경우로
경우로서
경우를
경우만
경우부터
경우에
경우에는
경우에도
경우에만
경우엔
경우와
경우의
경우이다
경위
경위를
경위와
경유
경유하는
경유하여
경은
경을
경의
경의를
경의선
경이
경인
경인일보
경쟁
경쟁력
경쟁력을
경쟁에
경쟁에서
경쟁을
경쟁이
경전
경전을
경전철
경정
경제
경제가
경제는
경제를
경제에
경제와
경제의
경제자유구역의
경제적
경제적으로
경제적인
경제학
경제학과
경제학자
경종
경주
경주를
경주시
경찰
경찰공무원
경찰과
경찰관
경찰관은
경찰관이
경찰서
경찰서의
경찰서장
경찰에
경찰은
경찰을
경찰의
경찰이
경찰청
경찰청장
경찰청장은
경향
경향신문
경향은
경향을
경향이
경험
경험과
경험에
경험은
경험을
경험의
경험이
경험적
경험한
경험했다
경호
경호원
경희대학교
곁에
곁에서
곁으로
곁을
계
계가
계곡
계곡에
계곡을
계곡의
계금취
계급
계급에
계급으로
계급은
계급을
계급의
계급이
계기가
계기로
계기를
계는
계단
계단을
계란
계량
계를
계모
계몽
계보
계산
계산에
계산으로
계산은
계산을
계산하는
계산하여
계산한
계산한다
계산할
계속
계속되고
계속되는
계속되어
계속되었다
계속된
계속된다
계속적
계속적으로
계속적인
계속중인
계속하고
계속하는
계속하여
계속하였다
계속한
계속할
계속해
계속해서
계속했다
계수
계승
계승하고
계승하여
계승하였다
계승한
계승했다
계신
계약
계약금
계약서
계약에
계약으로
계약은
계약을
계약의
계약이
계약했다
계양구
계에
계열
계열사
계열에서
계열의
계와
계의
계절
계절에
계절편
계정
계정을
계좌
계좌를
계주
계집
계책을
계층
계층의
계통
계통의
계획
계획과
계획된
계획에
계획으로
계획은
계획을
계획의
계획이
계획이다
계획이었다
계획하고
고
고가
고가역이다
고개
고개를
고객
고객에게
고객을
고객의
고객이
고고
고고학
고고학적
고교
고교생
고구려
고구려가
고구려는
고구려를
고구려에
고구려와
고구려의
고구마
고귀한
고급
고기
고기를
고난
고난을
고노
고다이고
고단샤
고대
고대그리스어
고대의
고도
고도가
고도는
고도로
고도의
고독한
고든
고등
고등교육
고등교육법
고등부
고등판무관
고등학교
고등학교를
고등학교에
고등학교에서
고등학교의
고등학교이다
고등학생
고딕
고라쿠엔
고래
고려
고려가
고려는
고려대
고려대학교
고려를
고려사
고려시대
고려시대에
고려시대의
고려에
고려의
고려하고
고려하면
고려하여
고려하여야
고려하지
고려한
고려할
고려해
고려해야
고령
고령군
고령자
고로
고루
고르게
고른
고를
고리
고리를
고립된
고만
고맙습니다
고모
고무
고문
고문으로
고문을
고민
고민을
고바야시
고발
고백
고베
고베시
고분
고사
고산
고생을
고성
고성군
고성능
고소
고속
고속도로
고속버스
고속철도
고수
고스란히
고스트
고시
고시가
고시된
고시엔
고시하고
고시하는
고시하여야
고시한
고시한다
고시할
고아
고안된
고안한
고양
고양시
고양이
고양이가
고양이는
고양이를
고양이의
고온
고요한
고요히
고용
고용노동부
고용노동부령으로
고용노동부장관
고용노동부장관은
고용되어
고용된
고용한
고운
고원
고위
고위공무원단
고위공무원단에
고유
고유의
고유한
고을
고의
고의로
고이즈미
고이치
고인의
고작
고장
고전
고전을
고전적
고전적인
고정
고정되어
고정된
고제
고조
고조부
고종
고종은
고종의
고종이
고지
고지를
고지에
고지하여야
고질라
고찰
고창
고창군
고체
고체연료
고쳐
고쳤다
고추
고층
고치
고치고
고치현
고타마
고토
고통
고통과
고통을
고통이
고트하르트
고합
고향
고향에
고향에서
고향으로
고향을
고향의
고향인
고현철
고흥군
곡
곡과
곡들은
곡들을
곡들이
곡물
곡선
곡선을
곡성군
곡식을
곡에
곡으로
곡은
곡을
곡의
곡이
곡이다
곡인
곤
곤도
곤란하게
곤란하다고
곤란한
곤충
곤충을
곤충의
곧
곧게
곧바로
곧이어
곧잘
곧장
골
골고루
골드
골드컵
골득실
골든
골든벨
골라
골로
골목
골은
골을
골이
골자로
골짜기
골키퍼
골키퍼로
골프
골프장
곰
곱게
곱셈
곱하기
곱하여
곱한
곳
곳곳에
곳곳에서
곳과
곳도
곳에
곳에는
곳에서
곳에서는
곳으로
곳은
곳을
곳의
곳이
곳이기도
곳이다
곳이며
곳이었다
공
공간
공간과
공간에
공간에서
공간으로
공간은
공간을
공간의
공간이
공간이다
공간적
공간정보의
공감
공개
공개됐다
공개되어
공개되었고
공개되었다
공개되었으며
공개되지
공개된
공개를
공개에
공개적으로
공개하고
공개하는
공개하여야
공개하였다
공개하지
공개한
공개할
공개했다
공격
공격과
공격수
공격수로
공격수이다
공격에
공격으로
공격은
공격을
공격의
공격이
공격적인
공격하고
공격하기
공격하는
공격하여
공격하였다
공격한
공격한다
공격할
공격해
공격했다
공격형
공고
공고가
공고를
공고의
공고하고
공고하여야
공고한
공고히
공공
공공기관
공공기관에
공공기관은
공공기관의
공공기관이
공공단체
공공시설
공공시설의
공공의
공공체육시설
공과
공과대학
공과대학교
공구
공국
공국의
공군
공군기지
공군은
공군의
공군이
공권력의
공급
공급에
공급을
공급이
공급하고
공급하기
공급하는
공급한
공급할
공기
공기가
공기를
공기업
공기의
공단
공단에
공단은
공단의
공단이
공동
공동대표
공동연출
공동으로
공동의
공동이용
공동이용을
공동제작
공동주택
공동주택의
공동체
공동체를
공동체의
공동피고
공략
공로
공로가
공로로
공로를
공로상
공룡
공룡의
공립
공명
공모
공모전
공모하여
공무상
공무원
공무원과
공무원에
공무원에게
공무원연금법
공무원으로
공무원은
공무원을
공무원의
공무원이
공무원이다
공무원인
공무원임용령
공민왕
공방전
공백
공백을
공법
공부
공부를
공부에
공부하고
공부하는
공부하였다
공부한
공부했다
공사
공사가
공사는
공사로
공사를
공사에
공사의
공산
공산당
공산당에
공산당은
공산당의
공산당이
공산주의
공산주의자
공상
공세
공세를
공소가
공소를
공소사실
공소사실에
공소사실을
공소사실의
공소외
공수
공습
공습을
공시
공시하여야
공식
공식사이트
공식을
공식적
공식적으로
공식적으로는
공식적인
공식전
공식홈페이지
공신
공안
공양왕
공업
공업이
공연
공연에
공연에서
공연은
공연을
공연의
공연이
공연한
공연했다
공연히
공영
공용
공용어로
공용에
공원
공원에서
공원으로
공원의
공유
공유물의
공유수면
공유수면관리법
공유수면매립법
공유수면의
공유자
공유자의
공유재산
공유재산의
공유하고
공유하는
공유한다
공유할
공으로
공은
공을
공의
공의회
공이
공익
공익사업을
공익사업을위한토지등의취득및보상에관한법률
공익상
공익을
공인
공인된
공자
공자의
공작
공작물
공작물의
공작은
공작을
공작의
공작이
공장
공장설립에
공장에
공장에서
공장은
공장을
공장의
공장이
공저
공적
공적으로
공적을
공적이
공적인
공전
공정
공정거래에
공정거래위원회
공정거래위원회는
공정거래위원회에
공정거래위원회의
공정성
공정성을
공정을
공정하게
공정하고
공정한
공정화에
공제
공제한
공제한다
공제회의
공조
공주
공주가
공주는
공주를
공주시
공주와
공주의
공중
공중에
공중에서
공중의
공중화장실
공지
공직선거법
공직자
공채
공천
공통
공통된
공통의
공통적으로
공통적인
공판기일에
공포
공포되었으나
공포된
공포를
공포에
공포의
공포한
공포후
공표
공표된
공표하여야
공표한
공학
공항
공항에
공항에서
공항으로
공항은
공항을
공항의
공항이
공항이다
공헌을
공헌하였다
공헌했다
공화국
공화국과
공화국에
공화국에서
공화국으로
공화국은
공화국을
공화국의
공화국이
공화당
공화정
공훈록
공훈을
공휴일
과
과거
과거를
과거에
과거에는
과거와
과거의
과격한
과는
과다한
과도
과도하게
과도한
과로
과를
과목
과목을
과반수
과반수의
과부
과세기간에
과세기간의
과세기준일
과세연도의
과세자료의
과세특례에
과세표준
과세표준과
과실
과실로
과실에
과실을
과실이
과연
과의
과이다
과일
과잉
과자
과장
과장된
과장은
과정
과정과
과정에
과정에서
과정으로
과정은
과정을
과정의
과정이
과정이다
과제
과제를
과징금
과징금을
과징금의
과태료
과태료는
과태료를
과태료에
과태료의
과테말라
과학
과학과
과학기술
과학기술기본법
과학기술부
과학기술부령
과학기술부장관
과학기술분야
과학기술의
과학기술정보통신부
과학기술정보통신부장관
과학기술정보통신부장관은
과학실
과학에
과학을
과학의
과학자
과학자들은
과학자들이
과학적
과학적으로
과학적인
과한다
곽철환
관
관객
관객을
관계
관계가
관계기관의
관계는
관계도
관계되는
관계된
관계로
관계를
관계없이
관계에
관계에서
관계와
관계의
관계이다
관계인
관계인에게
관계인의
관계있는
관계자
관계자는
관계중앙행정기관의
관계행정기관의
관광
관광객
관광객이
관광지
관광진흥법
관내
관념을
관람
관련
관련되는
관련되어
관련된
관련성이
관련을
관련이
관련자
관련하여
관련한
관련해
관련해서
관료
관료로
관료이다
관리
관리가
관리기관은
관리기관의
관리는
관리되고
관리로
관리를
관리법
관리에
관리와
관리의
관리인
관리인의
관리자
관리자가
관리자는
관리자의
관리주체는
관리청은
관리청이
관리하게
관리하고
관리하기
관리하는
관리하여야
관리한다
관리할
관목
관보
관보에
관세
관세를
관세법
관세의
관습
관습에
관심
관심과
관심은
관심을
관심이
관악구
관여
관여법관의
관여하는
관여하지
관여한
관왕
관왕을
관용구
관을
관인
관장
관장하는
관장한다
관저
관점
관점에
관점에서
관점을
관제
관중
관직
관직에
관직을
관찰
관찰된다
관찰사
관찰하는
관찰할
관청
관측
관측된
관측된다
관측을
관측한
관측할
관통하는
관하여
관하여는
관하여도
관한
관할
관할구역
관할구역에
관할로
관할법원에
관할법원은
관할에
관할이
관할하고
관할하는
관할한다
관할했다
관해
관해서
관해서는
관행을
관현악
괄호
괌
광
광경을
광고
광고가
광고는
광고를
광고성
광고에
광고의
광년
광대한
광둥
광둥성
광둥어
광명
광명시
광무
광물
광물의
광범위하게
광범위한
광복
광복군
광복절
광산
광산구
광시
광양
광양시
광업
광업법
광역
광역시
광역시의
광역시장
광우병
광장
광장에
광장에서
광저우
광주
광주광역시
광주군
광주시
광주에서
광주지방법원
광진구
광택이
광학
광해군
광화문
괜찮아
괴도
괴로운
괴로움을
괴로워
괴롭게
괴롭히는
괴물
괴산
괴산군
굉장한
굉장히
교
교감
교과
교과서
교구
교내
교단
교대로
교도소
교량
교류
교류가
교류를
교리
교리를
교명
교명을
교목
교묘하게
교부
교부를
교부받은
교부하는
교부하여야
교부한
교부할
교사
교사가
교사는
교사로
교사를
교사의
교섭
교섭단체
교섭을
교수
교수가
교수는
교수로
교수를
교수와
교수의
교수이다
교실
교양
교역
교역을
교외
교원
교원의
교육
교육감
교육감은
교육감이
교육공무원법
교육과
교육과정
교육과정을
교육과정의
교육과학기술부
교육과학기술부령
교육과학기술부장관
교육과학기술부장관은
교육과학기술부장관이
교육기관
교육대학
교육법
교육부
교육부령
교육부장관
교육부장관은
교육부장관이
교육에
교육위원회
교육은
교육을
교육의
교육이
교육인적자원부
교육인적자원부령
교육인적자원부장관
교육자
교육장
교육적
교육청
교육학
교육훈련
교육훈련을
교장
교장선생님
교재
교전
교전을
교정
교지
교직원
교차
교차로
교차로와
교차하는
교체
교체되어
교체되었다
교체로
교체를
교토
교토로
교토부
교토시
교토의
교통
교통국
교통부
교통사고
교통사고로
교통사고를
교통영향분석
교통을
교통의
교통이
교향곡
교향악단
교화
교환
교환을
교환하는
교황
교황으로
교황은
교황을
교황의
교황이
교황청
교회
교회가
교회는
교회를
교회에
교회에서
교회와
교회의
교훈을
구
구가
구간
구간과
구간에
구간에서
구간으로
구간은
구간을
구간의
구간이
구간이다
구강
구경
구글
구글의
구금
구나발타라
구내
구는
구단
구단에
구단은
구단을
구단의
구단이
구단인
구도
구독
구동
구두
구두를
구두점
구례군
구로
구로구
구로다
구류
구를
구름
구름을
구름의
구름이
구릉
구리
구리시
구마라습
구마모토
구마모토현
구매
구매할
구멍
구멍을
구멍이
구미
구미시
구별
구별되는
구별된다
구별이
구별하기
구별하는
구별하여
구별할
구분
구분되는
구분되어
구분된다
구분에
구분은
구분을
구분이
구분하고
구분하기
구분하는
구분하여
구분한다
구분할
구사론
구사하는
구상
구상권을
구상을
구석기
구석에
구성
구성과
구성되는
구성되며
구성되어
구성되어있다
구성되었다
구성된
구성된다
구성에
구성원
구성원들이
구성원으로
구성원은
구성원의
구성원이
구성으로
구성은
구성을
구성의
구성이
구성하고
구성하는
구성하되
구성하며
구성하여
구성하였다
구성하지
구성한
구성한다
구성할
구성했다
구속
구속된
구속영장을
구속을
구속의
구스타브
구스타프
구실로
구실을
구애
구어
구에
구에서
구역
구역상으로는
구역에
구역에서
구역으로
구역은
구역을
구역의
구역이
구역이다
구와
구운
구원
구원을
구원의
구월
구의
구입
구입하여
구입한
구입할
구장
구장에서
구장으로
구절을
구제
구제를
구조
구조가
구조는
구조대
구조로
구조를
구조물
구조에
구조와
구조의
구조이다
구조적
구청
구청장
구청장에게
구청장은
구청장을
구청장의
구청장이
구체적
구체적으로
구체적으로는
구체적이고
구체적인
구축
구축에
구축을
구축하고
구축하는
구축하여
구축한
구축함
구치소
구텐베르크
구토
구하고
구하기
구하는
구하여
구하지
구한
구한다
구할
구해
구현
구현하는
구형
구호
구호를
국
국가
국가가
국가간
국가공무원
국가공무원법
국가기관
국가기관의
국가기록원
국가나
국가는
국가대표
국가대표로
국가대표팀
국가대표팀에
국가대표팀에서
국가대표팀으로
국가대표팀은
국가대표팀을
국가대표팀의
국가들
국가들과
국가들은
국가들의
국가들이
국가로
국가로부터
국가를
국가문화유산포털
국가배상법
국가법령정보센터
국가보안법
국가보훈처
국가보훈처장은
국가에
국가에서
국가에서는
국가와
국가유공자
국가의
국가이다
국가인
국가재정법
국가적
국가적인
국가정보원
국가정보화
국가지원지방도
국가지정문화재
국경
국경에
국경을
국고에
국군
국군의
국기
국기는
국기를
국내
국내로
국내선
국내에
국내에서
국내에서는
국내외
국내외의
국내의
국도
국립
국립공원
국립국어원
국립대학법인
국립현대미술관
국무부
국무원
국무위원
국무조정실
국무조정실장
국무총리
국무총리가
국무총리는
국무총리실
국무총리실장
국무총리의
국무회의의
국민
국민건강보험법
국민경제의
국민과
국민기초생활
국민당
국민대학교
국민들에게
국민들은
국민들의
국민들이
국민안전처
국민안전처장관
국민안전처장관은
국민안전처장관이
국민에
국민에게
국민연금법
국민은
국민은행
국민을
국민의
국민의당
국민의힘
국민이
국민일보
국민적
국민훈장
국방
국방대학교
국방부
국방부는
국방부령
국방부장관
국방부장관은
국방부장관의
국방부장관이
국방위원회
국보
국사
국사편찬위원회
국산
국세
국세기본법
국세징수법
국세청
국세체납처분의
국소
국수
국악
국어
국에
국영
국왕
국왕으로
국왕은
국왕을
국왕의
국왕이
국외
국외로
국외에
국외에서
국유
국유림의
국유재산
국유재산법
국유재산의
국유화
국을
국의
국장
국장은
국적
국적을
국적의
국정
국정감사
국정원
국정원의
국정을
국제
국제공항
국제공항으로
국제공항을
국제공항이
국제교류
국제기구
국제법
국제사회의
국제선
국제신문
국제연합
국제자유도시
국제적
국제적으로
국제적인
국제축구연맹
국제협력
국채
국철
국토
국토교통부
국토교통부고시
국토교통부령
국토교통부령으로
국토교통부장관
국토교통부장관에게
국토교통부장관은
국토교통부장관의
국토교통부장관이
국토의
국토의계획및이용에관한법률
국토해양부
국토해양부령
국토해양부령으로
국토해양부령이
국토해양부장관
국토해양부장관에게
국토해양부장관은
국토해양부장관의
국토해양부장관이
국호를
국회
국회가
국회규칙
국회는
국회를
국회법
국회에
국회에서
국회의
국회의사당
국회의원
국회의원선거
국회의원에
국회의원으로
국회의원은
국회의원을
국회의원의
국회의원이
국회의원이다
국회의장
군
군과
군기
군단
군단은
군단을
군단의
군단이
군단장
군대
군대가
군대는
군대를
군대에
군대에서
군대와
군대의
군데
군도
군마현
군부
군사
군사가
군사기지
군사력을
군사를
군사법원법
군사시설
군사와
군사적
군사적으로
군산
군산시
군수
군수가
군수는
군수로
군수를
군수에게
군수의
군에
군에서
군용
군위군
군으로
군은
군을
군의
군이
군이다
군인
군인들이
군인으로
군인은
군인의
군인이
군인이다
군인이자
군정
군주
군주가
군주로
군주의
군중
군청
군포시
군함
군형법
굳게
굳은
굳이
굴
굴을
굴취
굵고
굵은
굽는
굿
굿모닝
굿바이
궁
궁궐
궁극적으로
궁극적인
궁수자리
궁전
궁전을
궁전의
궁정
궁중
궁지에
권
권고
권고를
권고할
권과
권력
권력과
권력에
권력은
권력을
권력의
권력이
권리
권리가
권리는
권리를
권리에
권리와
권리의
권리자가
권리자의
권세를
권에
권에서
권오민
권위
권위를
권유
권유로
권유를
권으로
권은
권을
권의
권이
권익을
권제
권총
권총을
권투
권한
권한과
권한에
권한으로
권한은
권한을
권한의
권한이
궤
궤간
궤도
궤도가
궤도는
궤도를
궤도에
궤도의
귀
귀가
귀국
귀국하여
귀국하였다
귀국한
귀국했다
귀는
귀를
귀속
귀속되는
귀속된다
귀신
귀신이
귀에
귀여운
귀인
귀족
귀족들은
귀족들의
귀족들이
귀족의
귀중한
귀한
귀향
귀환
규격
규격을
규모
규모가
규모는
규모로
규모를
규모에
규모와
규모의
규모이다
규슈
규약
규율하는
규정
규정과
규정되어
규정된
규정에
규정에도
규정에서
규정으로
규정은
규정을
규정의
규정이
규정하고
규정하는
규정하여
규정하였다
규정하지
규정한
규정한다
규정함으로써
규정함을
규제
규제가
규제를
규제에
규제의
규칙
규칙에
규칙으로
규칙은
규칙을
규칙의
규칙이
규탄
균등
균등하게
균형
균형을
균형이
그
그가
그간
그건
그걸
그것
그것과
그것도
그것들은
그것들을
그것들이
그것에
그것으로
그것은
그것을
그것의
그것이
그것이다
그게
그곳
그곳에
그곳에서
그곳은
그곳을
그곳의
그나마
그날
그냥
그녀
그녀가
그녀는
그녀를
그녀에게
그녀와
그녀의
그놈
그는
그늘
그다지
그대
그대가
그대는
그대로
그대로의
그대를
그대에게
그대의
그도
그동안
그들
그들과
그들만의
그들에게
그들은
그들을
그들의
그들이
그때
그때까지
그때는
그때부터
그때에
그때의
그라운드
그랑
그랑프리
그래
그래도
그래미
그래서
그래요
그래프
그래픽
그래픽스
그랜드
그랜트
그러
그러고
그러고나서
그러고는
그러기
그러나
그러는
그러니
그러니까
그러다
그러다가
그러던
그러면
그러면서
그러면서도
그러므로
그러자
그러지
그러하다
그러하지
그러한
그런
그런데
그런데도
그런즉
그런지
그럴
그럼
그럼에도
그렇게
그렇기
그렇다
그렇다고
그렇다면
그렇습니다
그렇지
그렇지만
그레고리
그레고리오
그레그
그레이
그레이브
그레이스
그레이엄
그레이트
그렉
그려
그려져
그려진
그렸다
그로
그로부터
그룹
그룹과
그룹에
그룹에서
그룹으로
그룹은
그룹을
그룹의
그룹이
그룹이다
그룹인
그를
그릇
그릇된
그릇을
그리
그리고
그리고는
그리는
그리로
그리며
그리스
그리스는
그리스도
그리스도가
그리스도교
그리스도를
그리스도의
그리스어
그리스어로
그리스에서
그리스와
그리스의
그리스인
그리운
그리피스
그리하면
그리하여
그린
그린다
그린란드
그릴
그림
그림과
그림에
그림에서
그림으로
그림은
그림을
그림의
그림이
그림자
그림자가
그림자를
그만
그만두고
그만큼
그만한
그밖에
그밖의
그보다
그야말로
그에
그에게
그에게는
그와
그외
그의
그저
그제야
그중
그처럼
그쳐
그쳤고
그쳤다
그치고
그치는
그치지
그친
그해
그후
극
극단
극단적으로
극단적인
극대
극도로
극도의
극동
극복하고
극복하기
극본
극심한
극에
극우
극작가
극장
극장에서
극장의
극장판
극적으로
극적인
극중
극한
극히
근
근거
근거가
근거는
근거로
근거를
근거지로
근거하여
근거한
근교
근교의
근대
근대의
근대적
근대적인
근대화
근래에
근로
근로기준법
근로시간
근로자
근로자가
근로자는
근로자를
근로자에
근로자에게
근로자의
근무
근무를
근무하고
근무하는
근무하던
근무하면서
근무하였다
근무한
근무했다
근본
근본번뇌
근본적
근본적으로
근본적인
근세
근심
근육
근육의
근육이
근저당권
근저당권을
근저당권의
근접
근접한
근처
근처에
근처에서
근처의
글
글과
글꼴
글래스
글래스고
글러브
글렌
글로
글로리아
글로벌
글로브
글리제
글쎄
글씨
글씨는
글씨로
글씨를
글에
글에서
글은
글을
글의
글이
글자
글자가
글자로
글자를
글자의
금
금강
금강산
금고
금고에
금고의
금년
금메달
금메달을
금방
금봉은
금산
금산군
금상
금색
금성
금속
금속의
금액
금액과
금액에
금액으로
금액은
금액을
금액의
금액이
금요드라마
금요일
금원을
금융
금융감독원
금융감독위원회
금융감독위원회의
금융기관
금융기관에
금융기관은
금융기관의
금융기관이
금융실명거래
금융위원회
금융위원회가
금융위원회는
금융위원회에
금융위원회의
금융투자업에
금융회사
금융회사의
금을
금이
금전
금전을
금전의
금전적
금정구
금지
금지되는
금지되어
금지되었다
금지된
금지를
금지에
금지하거나
금지하고
금지하는
금지한
금지할
금천구
금치산자
금토드라마
금품
금품을
급
급격하게
급격한
급격히
급기야
급박한
급상당
급성
급속도로
급속한
급속히
급수
급식
급식소
급식실
급여
급여를
급여의
급으로
급의
급제
급제자
급제하고
급제하여
급제하였다
급제한
급진적
급진적인
급하게
급한
급행
급히
긍정적
긍정적으로
긍정적인
긔
기
기가
기각
기각하고
기각하기로
기각하는
기각하여야
기각한
기각한다
기간
기간과
기간내에
기간동안
기간에
기간에는
기간으로
기간은
기간을
기간의
기간이
기갑
기갑사단
기계
기계가
기계를
기계의
기계적
기고
기관
기관과
기관에
기관에서
기관으로
기관으로서
기관은
기관을
기관의
기관이
기관이나
기관이다
기관인
기관지
기관차
기관총
기구
기구가
기구는
기구를
기구에
기구와
기구의
기구이다
기권
기금
기금에
기금은
기금을
기금의
기금이
기기
기기를
기기의
기꺼이
기네스
기념
기념관
기념물
기념식
기념으로
기념일
기념하기
기념하는
기념하여
기념해
기는
기능
기능과
기능도
기능에
기능으로
기능은
기능을
기능의
기능이
기능이다
기능적
기능직
기니
기다려
기다렸다
기다리고
기다리는
기다리며
기다릴
기단
기대
기대되는
기대를
기대에
기대하고
기대하기
기대할
기도
기도를
기독교
기독교가
기독교를
기독교의
기동
기동전사
기둥
기둥을
기둥이
기량을
기로
기록
기록과
기록도
기록되어
기록되었다
기록된
기록물
기록물의
기록상
기록에
기록에서
기록으로
기록은
기록을
기록의
기록이
기록이다
기록인
기록하고
기록하는
기록하며
기록하면서
기록하여
기록하여야
기록하였고
기록하였다
기록하였으며
기록하지
기록한
기록한다
기록할
기록해
기록했고
기록했는데
기록했다
기록했던
기록했으며
기록했지만
기르고
기르는
기를
기름
기름을
기리기
기리는
기린
기명날인
기묘한
기무라
기밀
기반
기반시설
기반시설의
기반으로
기반을
기반의
기반이
기반하여
기반한
기법
기법으로
기법은
기법을
기병
기보
기본
기본계획
기본계획에
기본계획에는
기본계획을
기본계획의
기본권
기본권을
기본권의
기본방향
기본법
기본으로
기본이
기본적
기본적으로
기본적으로는
기본적인
기부
기부금
기부를
기분
기분이
기쁘게
기쁜
기쁨
기쁨을
기사
기사가
기사는
기사단
기사로
기사를
기사에
기사에서
기사의
기사이다
기산한다
기상
기상청
기생
기생충
기성
기소
기소되어
기소되었다
기소된
기수
기숙사
기술
기술개발
기술과
기술기준에
기술되어
기술로
기술서기관
기술서기관으로
기술에
기술은
기술을
기술의
기술이
기술이다
기술이전
기술자
기술적
기술적으로
기술적인
기술하고
기술한
기술한다
기슭에
기습
기아
기아자동차
기어
기억
기억에
기억을
기억의
기억이
기억하고
기업
기업가
기업과
기업들이
기업소
기업에
기업으로
기업은
기업을
기업의
기업이
기업이다
기업인
기업인이다
기에
기여
기여를
기여하고
기여하는
기여하였다
기여한
기여할
기여함을
기여했다
기온
기온은
기온이
기와
기욤
기운
기운을
기운이
기울여
기울였다
기울이고
기원
기원에
기원은
기원을
기원이
기원전
기원하는
기원후
기의
기이
기이한
기인한
기인한다
기일
기일에
기일을
기자
기자가
기자는
기자로
기자의
기자회견
기자회견에서
기자회견을
기장
기장군
기재
기재가
기재는
기재되어
기재된
기재를
기재사항
기재에
기재와
기재하고
기재하여
기재하여야
기재하지
기재한
기저
기적
기적을
기적의
기점
기점으로
기존
기존에
기존의
기종
기종을
기준
기준과
기준에
기준으로
기준으로는
기준은
기준을
기준의
기준이
기준이다
기증
기지
기지가
기지로
기지를
기지에
기지에서
기질
기차
기차역이다
기체
기체가
기체는
기체를
기체의
기초
기초가
기초로
기초를
기초적인
기초하여
기초한
기침
기쿠치
기타
기타를
기타리스트
기타의
기타큐슈
기통
기틀을
기피
기피한
기하여
기하학
기하학적
기한
기한까지
기한을
기한의
기한이
기해
기행
기호
기호는
기호를
기회
기회가
기회는
기회로
기회를
기회에
기획
기획사
기획예산처
기획예산처장관
기획재정부
기획재정부령
기획재정부령으로
기획재정부장관
기획재정부장관과
기획재정부장관에게
기획재정부장관은
기획재정부장관이
기획조정실장
기획한
기후
기후가
기후는
기후를
기후변화
기후에
기후현
긴
긴급
긴급조치
긴급한
긴급히
긴밀한
긴장
긴장을
긴장이
긴키
긴테쓰
길
길거리
길게
길고
길다
길드
길러
길로
길며
길버트
길에
길에서
길은
길을
길이
길이가
길이는
길이를
길이와
길이의
김
김경호
김구
김구는
김구의
김규식
김기현
김능환
김대중
김도연
김동원
김동현
김묘주
김민정
김부식
김성수
김성태
김소영
김솔희
김수현
김신
김씨
김씨의
김영란
김영사
김영삼
김영선
김영철
김옥균
김용준
김유정
김일성
김일성은
김일성의
김일성이
김재원
김정은
김정일
김정호
김정훈
김제시
김종서
김종필
김준
김지영
김지형
김지훈
김진규
김진희
김천
김천시
김치
김태훈
김포
김포시
김해
김해시
김현수
김형선
깁슨
깃발
깃발을
깊게
깊고
깊다
깊숙이
깊은
깊이
깊이는
ᄀᆞᆯ오ᄃᆡ
까
까닭에
까닭으로
까닭은
까닭이
까닭이다
까마귀
까지
까지는
까지의
까치
깎아
깔고
깔려
깜짝
깨고
깨끗이
깨끗한
깨닫게
깨닫고
깨닫지
깨달았다
깨달은
깨달음을
깨어
깨진
깬
꺼내
꺾고
껍질
껍질을
께
께서
꼬리
꼬리가
꼬리는
꼬리를
꼬마
꼭
꼭대기에
꼭짓점
꼴로
꼴을
꼴이
꼽았다
꼽히는
꼽힌다
꽃
꽃과
꽃보다
꽃은
꽃을
꽃의
꽃이
꽉
꽤
꽤나
꾸며
꾸몄다
꾸민
꾸준한
꾸준히
꿀
꿈
꿈과
꿈꾸는
꿈에
꿈은
꿈을
꿈의
꿈이
끄는
끈
끊고
끊는
끊어
끊었다
끊이지
끊임없는
끊임없이
끌고
끌려
끌어
끌어들여
끌었다
끓는
끔찍한
끝
끝까지
끝나거나
끝나게
끝나고
끝나기
끝나는
끝나면
끝나자
끝나지
끝난
끝난다
끝날
끝났다
끝내
끝내고
끝내기
끝내는
끝낸
끝냈다
끝없는
끝없이
끝에
끝에는
끝에서
끝으로
끝은
끝을
끝의
끝이
끼고
끼어
끼워
끼쳤다
끼치는
끼친
끼칠
낀
나
나가
나가게
나가겠습니다
나가고
나가노
나가노현
나가는
나가사와
나가사키
나가사키현
나가서
나가시마
나가야
나가이
나가지
나간
나간다
나갈
나갔다
나갔다가
나게
나고
나고야
나고야시
나기
나나
나나미
나날이
나노
나누고
나누는
나누어
나누었다
나눈
나눈다
나눌
나눠
나뉘는데
나뉘며
나뉘어
나뉘었다
나뉜
나뉜다
나는
나니
나다
나도
나들목
나들목뿐만
나들목으로
나등급으로
나라
나라가
나라는
나라로
나라를
나라에
나라에서
나라에서는
나라와
나라의
나라이다
나라현
나란히
나레이션
나로
나루토
나를
나름대로
나리타
나머지
나머지는
나머지를
나며
나면
나목
나목의
나무
나무가
나무는
나무로
나무를
나무에
나무와
나무의
나미비아
나비
나쁜
나서
나서는
나서서
나서야
나선
나선다
나설
나섰다
나아가
나아가는
나아가서
나아가서는
나아갈
나에게
나열한
나열한다
나오
나오게
나오고
나오기
나오기도
나오는
나오는데
나오며
나오면
나오면서
나오미
나오지
나오코
나오키
나오토
나온
나온다
나올
나와
나와서
나왔고
나왔는데
나왔다
나왔던
나왔으며
나우
나은
나의
나이
나이가
나이는
나이로
나이를
나이아가라
나이에
나이지리아
나이지리아의
나이츠
나이토
나이트
나이트메어
나인
나일
나잇
나주
나주시
나중에
나중에는
나지
나츠미
나츠키
나치
나치의
나카가와
나카노
나카무라
나카야마
나카이
나카지마
나타나
나타나게
나타나고
나타나기
나타나는
나타나는데
나타나며
나타나서
나타나지
나타난
나타난다
나타날
나타났다
나타내고
나타내기
나타내는
나타내며
나타낸
나타낸다
나타낼
나타냈다
나타샤
나탈리
나토
나트륨
나폴레옹
나폴레옹은
나폴레옹의
나폴레옹이
나폴리
나히
낙
낙동강
낙선하였다
낙원
낙타
낙하산
낚시
난
난다
난민
난바
난부
난을
난이
난이도
난징
난카이
날
날개
날개가
날개는
날개를
날개의
날까지
날려
날로
날로부터
날리는
날마다
날부터
날씨
날씨가
날아라
날에
날에는
날은
날을
날의
날이
날이다
날인
날인하여야
날짜
날짜는
날짜를
날카로운
날카롭게
낡은
남
남게
남겨
남겨두고
남겨진
남겼다
남과
남구
남극
남기고
남기지
남긴
남녀
남녀가
남녀의
남는
남는다
남동구
남동부
남동부에
남동생
남동쪽
남동쪽으로
남동쪽으로는
남매
남면
남미
남방
남베트남
남부
남부는
남부를
남부에
남부에서
남부와
남부의
남북
남북으로
남북의
남북조
남북한
남산
남서
남서부
남서부에
남서쪽
남서쪽으로
남서쪽으로는
남성
남성과
남성은
남성을
남성의
남성이
남송
남아
남아공
남아메리카
남아메리카의
남아시아
남아있는
남아있다
남아있던
남아있었다
남아있지
남아프리카
남았다
남양
남양주시
남에게
남용
남우조연상
남우주연상
남원
남원시
남위
남으로
남은
남을
남의
남이
남인
남자
남자가
남자는
남자들
남자를
남자와
남자의
남자친구
남작
남조
남지
남쪽
남쪽과
남쪽에
남쪽에는
남쪽에서
남쪽으로
남쪽으로는
남쪽은
남쪽을
남쪽의
남코
남편
남편과
남편에게
남편은
남편을
남편의
남편이
남편인
남학생
남한
남한산성
남해
남해군
납
납부
납부기한
납부기한까지
납부하는
납부하여야
납부하지
납부한
납부할
납세의무자가
납세지
납입
납치
낫
났다
낭독
낭만주의
낮
낮게
낮고
낮다
낮아
낮에
낮에는
낮은
낯선
낯을
낱말
낱말의
낱말이다
낳게
낳고
낳는
낳는다
낳아
낳았고
낳았다
낳은
낳을
내
내가
내각
내각에
내각에서
내각은
내각을
내각의
내각이
내각총리대신
내걸고
내게
내고
내기
내기도
내내
내년
내놓고
내놓았다
내놓은
내는
내다
내란
내레이션
내려
내려가
내려가는
내려갔다
내려다
내려서
내려오는
내려온
내려와
내려왔다
내려졌다
내려진
내렸고
내렸다
내로
내륙
내리
내리게
내리고
내리는
내리지
내린
내린다
내릴
내림
내며
내면
내면서
내몽골
내무부
내버려
내보여야
내부
내부는
내부를
내부에
내부에는
내부에서
내부의
내부적으로
내사랑
내서
내세우는
내세운
내세워
내세웠다
내셔널
내셔널리그
내시
내야
내야수
내야수이다
내어
내었다
내에
내에는
내에서
내에서는
내에서도
내에서만
내에서의
내역
내역을
내외
내외의
내용
내용과
내용도
내용에
내용으로
내용은
내용을
내용의
내용이
내용이나
내용이다
내용주
내의
내일
내일은
내일을
내일의
내장
내장된
내적
내전
내전으로
내전을
내전이
내정
내주어야
내지
내지는
내포하고
낸
낸다
낸시
낼
냄새
냄새가
냄새를
냈고
냈다
냉각
냉장고
냉전
냥
너
너는
너도
너를
너머
너머로
너무
너무나
너무나도
너무도
너비
너비는
너에게
너와
너의
너희
너희가
너희게
너희는
너희를
너희에게
너희의
넉넉히
넌
널
널리
넓게
넓고
넓다
넓은
넓이는
넘게
넘겨
넘겼다
넘고
넘기고
넘기는
넘긴
넘는
넘는다
넘버
넘버스
넘버원
넘어
넘어가
넘어가는
넘어갔다
넘어서
넘어서는
넘어선
넘었다
넘었으므로
넘은
넘을
넘지
넘치는
넣고
넣는
넣는다
넣어
넣어서
넣었고
넣었다
넣으며
넣으면
넣은
넣을
넣지
네
네가
네게
네덜란드
네덜란드는
네덜란드령
네덜란드어
네덜란드에서
네덜란드와
네덜란드의
네로
네버
네번째
네오
네이버
네이버영화
네이버인물정보
네이버캐스트
네이션스리그
네이션스컵
네이처
네이트
네임
네트워크
네트워크는
네트워크를
네트워크에
네트워크에서
네트워크의
네티즌
네팔
넥서스
넥센
넥스트
넥슨
넬슨
넷
넷째
넷플릭스
녀
녀를
녀석들
년
년간
년간의
년경
년경부터
년경에
년과
년까지
년까지는
년까지의
년내에
년대
년대까지
년대는
년대를
년대부터
년대에
년대에는
년대와
년대의
년대편
년도
년도에
년동안
년마다
년만에
년만의
년말
년부터
년부터는
년사
년생
년에
년에는
년에도
년에서
년엔
년으로
년은
년을
년의
년이
년이나
년이다
년이라는
년이상
년이하의
년인
년작
년전
년제
년째
년차
년판
년형
년형을
노
노골적으로
노기자카
노는
노다
노던
노동
노동당
노동력
노동력의
노동부
노동부장관
노동부장관은
노동부장관이
노동에
노동을
노동의
노동자
노동자가
노동자들의
노동자들이
노동자를
노동자의
노동조합
노동조합의
노드
노라
노라는
노란
노란색
노랑
노래
노래가
노래는
노래로
노래를
노래에
노래와
노래의
노래이다
노래하고
노래하는
노래하다
노래한
노력
노력과
노력에
노력으로
노력은
노력을
노력의
노력이
노력하고
노력하는
노력하여야
노력하였다
노력한다
노력했다
노론
노르드어
노르망디
노르웨이
노르웨이어
노르웨이의
노릇을
노리고
노리는
노리코
노먼
노면
노무라
노무현
노바
노벨
노벨상
노부나가
노부나가의
노블
노비
노선
노선과
노선에
노선으로
노선은
노선을
노선의
노선이
노선이다
노스
노스캐롤라이나주
노아
노엘
노예
노예가
노예로
노원구
노인
노인의
노인이
노조
노조미
노출
노출되어
노출된
노컷뉴스
노태우
노트
노트르담
노트북
노하라
녹색
녹색당
녹색의
녹아
녹음
녹음되었다
녹음된
녹음을
녹음한
녹음했다
녹지
녹화
논
논란
논란에
논란을
논란의
논란이
논리
논리를
논리와
논리적
논리적으로
논문
논문에서
논문으로
논문은
논문을
논문의
논산
논산시
논스톱
논어
논의
논의가
논의를
논의하는
논쟁
논쟁은
논쟁을
논쟁의
논쟁이
논지는
논지도
논하여
놀
놀고
놀라
놀라게
놀라서
놀라운
놀란
놀랄
놀랐다
놀이
놈
놈은
놈의
놈이
농
농경지
농구
농도
농도가
농도를
농림부
농림부령
농림부장관
농림수산식품부
농림수산식품부령
농림수산식품부령으로
농림수산식품부령이
농림수산식품부장관
농림수산식품부장관은
농림수산식품부장관의
농림수산식품부장관이
농림축산식품부
농림축산식품부령
농림축산식품부령으로
농림축산식품부장관
농림축산식품부장관은
농민
농민의
농부
농사를
농산물
농산물의
농수산물
농수산물의
농심
농어업
농어촌
농어촌정비법
농업
농업과
농업에
농업을
농업의
농업이
농업인
농업협동조합법
농장
농장에서
농장을
농지
농지관리기금법
농지를
농지법
농지의
농촌
농촌의
농협
높게
높고
높기
높다
높다고
높다는
높아
높아져
높아졌다
높아지고
높아진다
높았다
높여
높였다
높으며
높은
높을
높이
높이가
높이고
높이기
높이는
높이로
높이를
높이에
높이의
높일
높지
놓고
놓는
놓는다
놓아
놓았다
놓여
놓였다
놓은
놓을
놓이게
놓인
놓지
뇌
뇌물
뇌물을
뇌샤텔
뇌의
누
누가
누계
누구
누구나
누구도
누구든지
누구를
누구보다
누구보다도
누구에게
누구에게나
누구의
누구인가
누구인지
누군가
누군가가
누나
누렸다
누르고
누르면
누릴
누명을
누설하거나
누설하여서는
누설한
누운
누워
누워서
누이
누적
눈
눈과
눈길을
눈동자
눈물
눈물을
눈물의
눈물이
눈부신
눈앞에
눈에
눈에는
눈으로
눈은
눈을
눈의
눈이
눈치를
눌러
뉘
뉘른베르크
뉴
뉴먼
뉴스
뉴스데스크
뉴스를
뉴스엔
뉴스의
뉴스특보
뉴시스
뉴욕
뉴욕에
뉴욕에서
뉴욕으로
뉴욕의
뉴욕주
뉴저지
뉴저지주
뉴질랜드
뉴질랜드의
뉴캐슬
뉴턴
뉴턴의
느껴
느꼈다
느끼게
느끼고
느끼는
느끼며
느끼지
느낀
느낀다
느낄
느낌
느낌을
느낌이
느리게
느린
느티나무
늑대
늑대의
는
늘
늘고
늘려
늘렸다
늘리고
늘리는
늘릴
늘어
늘어나
늘어나고
늘어나는
늘어난
늘어났다
늘었다
늙은
능
능력
능력과
능력에
능력으로
능력은
능력을
능력의
능력이
능히
늦게
늦어도
늦은
늪
니
니가
니가타
니가타현
니나
니라
니스
니시
니시무라
니시테쓰
니카라과
니케아
니켈
니코
니코니코
니콘
니콜
니콜라
니콜라스
니콜라이
니키
니키타
니혼
닉
닉슨
닌자
닌텐도
닐
닐스
닐슨
닐오ᄃᆡ
님
님의
닛산
닛칸
닛코
닛폰
닛폰햄
ᄂᆞᆫ
ᄂᆡ
다
다가
다가오는
다같이
다국적
다나카
다녀온
다녀왔다
다녔다
다는
다니고
다니는
다니던
다니며
다니면서
다니엘
다닌다
다닐
다득점
다들
다량의
다롄
다루고
다루기
다루는
다루었다
다룬
다룬다
다룰
다르게
다르고
다르기
다르다
다르다고
다르다는
다르며
다르지
다르지만
다른
다른데
다를
다름
다름이
다리
다리가
다리는
다리로
다리를
다리에
다리와
다리우스
다리의
다마
다만
다목
다목적
다발
다비드
다섯
다섯째
다소
다수
다수가
다수는
다수를
다수의
다수의견에
다수의견은
다수의견이
다스
다스렸다
다스리는
다시
다시금
다시는
다시보기
다양성
다양성을
다양체
다양하게
다양하고
다양하다
다양하며
다양한
다운
다운로드
다운타운
다윈
다윗의
다윗이
다음
다음과
다음날
다음날부터
다음날인
다음달
다음백과
다음에
다음에는
다음영화
다음으로
다음은
다음을
다음의
다음이
다음인물정보
다음커뮤니케이션
다음해
다음해인
다이
다이노스
다이라노
다이묘
다이묘이다
다이빙
다이쇼
다이스케
다이아몬드
다이애나
다이앤
다이어
다이어리
다이어트
다이요
다중
다진
다채로운
다카
다카라즈카
다카마쓰
다카사키
다카시
다카오
다카하시
다케다
다케시
다큐
다큐멘터리
다크
다테
다투는
다툴
다툼이
다하고
다하여
다하지
다한
다할
다항식
다해
다행히
닥터
닥터는
닥터의
닦고
닦는
닦아
단
단거리
단계
단계가
단계는
단계로
단계를
단계별
단계에
단계에서
단계에서는
단계의
단계적으로
단국대학교
단군
단기
단단한
단단히
단독
단독으로
단막극
단말기
단면
단모음
단백질
단백질은
단백질을
단백질의
단백질이
단번에
단사
단서
단서를
단서에
단서에서
단서의
단서중
단선
단속
단수
단수형
단순
단순하게
단순한
단순히
단숨에
단식
단양
단양군
단어
단어가
단어는
단어로
단어를
단어의
단어이다
단역
단원
단위
단위가
단위는
단위로
단위를
단위의
단위이다
단으로
단을
단의
단이
단일
단일한
단장
단장은
단점을
단점이
단정할
단조
단종
단종되었다
단지
단체
단체가
단체는
단체로
단체를
단체설립에
단체에
단체에서
단체와
단체의
단체이다
단체인
단체전
단축
단층
단층의
단판
단편
단행본
닫고
닫는
닫힌
달
달걀
달고
달과
달라
달라고
달라는
달라서
달라이
달라지는
달라진
달라진다
달라질
달랐다
달러
달러가
달러로
달러를
달러에
달러의
달려
달려들어
달려라
달렸다
달리
달리고
달리기
달리는
달리하는
달리하여
달린
달린다
달빛
달서구
달성
달성군
달성에
달성을
달성하기
달성하는
달성하였다
달성한
달성할
달성했다
달아
달아나
달아났다
달았다
달에
달은
달을
달의
달이
달인
달콤한
달하는
달하며
달한
달한다
달할
달했다
닭
닮았다
닮은
담
담겨
담고
담긴
담당
담당변호사
담당하게
담당하고
담당하는
담당하였다
담당한
담당한다
담당할
담당했다
담배
담배를
담보
담보권
담보로
담보를
담보에
담보의
담보하기
담아
담았다
담양
담양군
담은
담을
담임
담장
답
답변
답변을
답을
답했다
당
당과
당국에
당국은
당국의
당국이
당나귀
당나라
당나라에
당나라의
당내
당뇨병
당당한
당대
당대에
당대의
당대표
당무위원
당분간
당사국
당사국은
당사국의
당사국이
당사자
당사자가
당사자는
당사자로
당사자에게
당사자와
당사자의
당사자인
당선
당선되어
당선되었다
당선된
당선이
당선자
당수
당시
당시까지
당시는
당시로서는
당시부터
당시에
당시에는
당시에도
당시의
당신
당신에게
당신은
당신을
당신의
당신이
당에
당역
당연직
당연한
당연히
당원
당원의
당원이
당은
당을
당의
당이
당일
당장
당장에
당주
당진
당진시
당초
당초에
당초에는
당초의
당하게
당하고
당하는
당하며
당하여
당하였다
당한
당한다
당할
당해
당했고
당했다
닿는
닿지
대
대가
대가로
대가를
대감
대강
대개
대개는
대거
대검찰청
대결
대결을
대고
대공
대교
대교구
대구
대구광역시
대구시
대구에서
대구지방법원
대국민
대군
대군을
대군이
대규모
대규모로
대규모의
대극장
대금
대금을
대금의
대기
대기업
대기의
대기환경보전법
대나무
대는
대니
대니얼
대다
대다수
대다수가
대다수는
대다수의
대단한
대단히
대담
대담한
대답
대답은
대답을
대답이
대답하였다
대답했다
대대
대대는
대대로
대대장
대대적으로
대대적인
대도시
대도시권
대동
대등한
대략
대량
대량으로
대량의
대령
대로
대륙
대륙간
대륙에
대륙에서
대륙을
대륙의
대를
대리
대리권을
대리석
대리인
대리인으로
대리인을
대리인의
대리인이
대리하여
대립
대립을
대립이
대립하는
대만
대만의
대머리
대면
대명사
대모험
대문
대문을
대백과
대백과사전
대법관
대법관의
대법원
대법원규칙
대법원규칙으로
대법원에
대법원에서
대법원은
대법원의
대법원이
대법원장
대법전
대변인
대변인은
대변하는
대본
대본을
대부
대부분
대부분은
대부분을
대부분의
대부분이
대부분이다
대북
대비
대비하기
대비하여
대비한
대비해
대사
대사가
대사관
대사관을
대사관이
대사는
대사로
대사를
대사성
대사의
대사헌
대상
대상과
대상에
대상에서
대상으로
대상은
대상을
대상의
대상이
대상이다
대상인
대상자
대상자가
대상자의
대서양
대선
대선에서
대성당
대성당의
대소동
대손
대수
대수는
대수를
대수의
대수적
대승불교의
대승아비달마잡집론
대승아비달마집론
대승오온론
대승을
대신
대신에
대신하는
대신하여
대신할
대신해
대신해서
대안
대안으로
대안을
대에
대여
대여한
대역
대영
대와
대왕
대왕의
대외
대외무역법
대외적으로
대우
대우를
대웅전
대원
대원군
대원방송
대위
대위하여
대응
대응되는
대응에
대응을
대응하기
대응하는
대응하여
대응한다
대응할
대의
대의원
대인
대작전
대장
대장군
대장으로
대저
대전
대전광역시
대전에
대전에서
대전을
대전의
대전이
대전지방국토관리청공고
대전지방법원
대전차
대접을
대정신수대장경
대제학
대조
대조적으로
대조하여
대종상
대좌
대주교
대주주
대중
대중교통
대중들에게
대중에게
대중을
대중음악
대중의
대중적
대중적인
대지
대지를
대지에
대지의
대지진
대째
대차
대책
대책을
대처
대처하기
대처할
대체
대체되었다
대체로
대체적으로
대체하기
대체하는
대체하여
대체할
대출
대출금
대출을
대칭
대타로
대테러
대통령
대통령과
대통령령
대통령령으로
대통령령의
대통령령이
대통령비서실
대통령선거
대통령에
대통령에게
대통령으로
대통령은
대통령을
대통령의
대통령이
대통령인
대통령직을
대판
대포
대폭
대표
대표가
대표는
대표되는
대표로
대표를
대표부
대표와
대표의
대표이사
대표이사가
대표이사로
대표인
대표자
대표자가
대표자나
대표자는
대표자를
대표자의
대표작으로
대표적
대표적으로
대표적이다
대표적인
대표팀
대표팀에
대표팀의
대표하고
대표하는
대표하여
대표한다
대표할
대피
대하는
대하드라마
대하여
대하여는
대하여도
대하여만
대하여서는
대학
대학과
대학교
대학교가
대학교는
대학교로
대학교를
대학교에
대학교에서
대학교와
대학교의
대학로
대학생
대학에
대학에서
대학원
대학원에서
대학으로
대학은
대학을
대학의
대학이
대학이다
대한
대한민국
대한민국과
대한민국관보
대한민국에
대한민국에는
대한민국에서
대한민국에서는
대한민국으로
대한민국은
대한민국을
대한민국의
대한민국이
대한민국헌정회
대한예수교장로회
대한적십자사
대한제국
대한제국의
대한체육회
대한축구협회
대한항공
대합실
대항
대항전
대항하기
대항하는
대항하여
대항하지
대항할
대항해
대해
대해서
대해서는
대해서도
대해서만
대해선
대행
대행하게
대행하는
대행한다
대형
대화
대화가
대화를
대화의
대회
대회가
대회는
대회로
대회를
대회에
대회에서
대회에서는
대회와
대회의
대회이다
대회인
댁
댄
댄서
댄스
댄싱
댈러스
댐
댐의
댓
댓글
더
더구나
더군다나
더그
더글라스
더글러스
더니
더더욱
더라
더러
더러운
더불어
더불어민주당
더블
더블린
더비
더빙
더욱
더욱더
더욱이
더운
더이상
더티
더하여
더한
더한다
더할
더해
덕
덕분에
덕양구
덕에
덕을
덕이
덕진구
던
던전
던져
던졌다
던지고
던지는
던진
덜
덧붙여
덧붙였다
덮고
덮는
덮어
덮여
덮인
데
데가
데는
데니스
데다
데다가
데도
데드
데로
데리고
데릭
데모
데미지를
데보라
데뷔
데뷔골을
데뷔를
데뷔전을
데뷔하여
데뷔하였고
데뷔하였다
데뷔하였으며
데뷔한
데뷔했다
데뷔했으며
데비
데서
데스
데스크톱
데스티니
데어
데에
데에는
데에도
데에서
데이
데이먼
데이브
데이비드
데이비스
데이빗
데이즈
데이지
데이터
데이터가
데이터는
데이터를
데이터베이스
데이터베이스를
데이터베이스의
데이터에
데이터의
데이트
데일
데일리
데일리안
데포르티보
덴마크
덴마크어
덴마크의
덴버
덴분
덴쇼
델
델라
델리
델타
뎌희가
도
도가
도거
도검
도교
도구
도구로
도구를
도구이다
도깨비
도끼
도나
도난
도널드
도네츠크
도는
도다
도달
도달하는
도달하지
도달한
도달할
도달했다
도대체
도덕
도덕적
도도
도둑
도라
도라에몽
도래하는
도래하지
도래한
도로
도로가
도로공사
도로교통법
도로구역
도로는
도로로
도로를
도로법
도로시
도로에
도로에서
도로와
도로의
도로이다
도루
도루를
도르트문트
도를
도리
도리가
도리를
도리어
도립학교
도마뱀
도망
도망자
도망쳐
도망쳤다
도망친
도메인
도메인에
도메인으로
도메인이
도메인인
도메인입니다
도면
도모하고
도모하기
도모하는
도무지
도미니카
도미니크
도미닉
도박
도보
도보로
도봉구
도부
도사
도산
도서
도서관
도서관은
도서관의
도서관이다
도서실
도서출판
도선
도스
도승지
도시
도시가
도시개발법
도시계획
도시계획법
도시계획시설
도시공원
도시교통정비
도시는
도시로
도시를
도시에
도시에서
도시와
도시의
도시이다
도시이며
도시이자
도시인
도시철도
도시형
도시형버스
도심
도야마
도야마현
도어
도에
도에서
도에이
도와
도와주는
도와준다
도왔다
도요
도요타
도요토미
도운
도울
도움
도움말
도움으로
도움을
도움이
도읍을
도의
도이
도일
도입
도입되어
도입되었다
도입된
도입에
도입을
도입하고
도입하는
도입하여
도입하였다
도입한
도입했다
도자기
도자이
도장
도장을
도저히
도적
도적을
도적이
도전
도전을
도전자
도전하는
도제
도조
도조례로
도주
도중
도중에
도지사
도지사가
도지사는
도지사에게
도지사와
도지사의
도착
도착하여
도착하였다
도착한
도착한다
도착할
도착했다
도착했을
도청
도치기현
도카이
도카이도
도쿄
도쿄도
도쿄도도
도쿄로
도쿄에
도쿄에서
도쿄의
도쿠가와
도쿠시마
도쿠시마현
도큐
도하
도합
도호
도호쿠
독
독도
독립
독립과
독립된
독립성을
독립운동
독립운동가
독립운동가이다
독립운동에
독립운동을
독립유공자
독립을
독립의
독립적으로
독립적인
독립하여
독립한
독서
독성
독성이
독수리
독실한
독을
독음
독이
독일
독일계
독일과
독일군
독일군은
독일군의
독일군이
독일로
독일어
독일어로
독일어를
독일에
독일에서
독일에서는
독일은
독일을
독일의
독일이
독일인
독자
독자의
독자적
독자적으로
독자적인
독재
독재자
독점
독점규제
독점적
독주
독창적인
독특한
돈
돈과
돈으로
돈은
돈을
돈의
돈이
돌
돌고
돌려
돌렸다
돌로
돌리고
돌리는
돌릴
돌며
돌베개
돌보는
돌아
돌아가
돌아가게
돌아가고
돌아가기
돌아가는
돌아가서
돌아가신
돌아가지
돌아간
돌아간다
돌아갈
돌아갔다
돌아다니며
돌아오게
돌아오는
돌아오지
돌아온
돌아온다
돌아올
돌아와
돌아와서
돌아왔다
돌았다
돌연
돌연변이
돌을
돌의
돌이
돌이켜
돌입
돌파
돌파하였다
돔
돕고
돕기
돕는
돕는다
돗토리
돗토리현
동
동거
동경
동계
동계올림픽
동과
동구
동국대학교
동국역경원
동굴
동기
동기가
동기를
동남아
동남아시아
동네
동년
동대문
동대문구
동독
동독의
동등하게
동등한
동래
동래구
동력
동력을
동로마
동료
동료들과
동료인
동맹
동맹에
동맹은
동맹을
동맹의
동메달
동메달을
동면
동명
동명의
동무
동문
동물
동물과
동물로
동물에
동물원
동물은
동물을
동물의
동물이
동물이다
동반
동반한
동방
동방신기
동법
동부
동부에
동부와
동부의
동북
동북아
동사
동사의
동산
동상
동상이
동생
동생은
동생을
동생이
동생이다
동생인
동서
동서로
동성
동성애
동성애자
동시
동시대
동시대의
동시에
동시이행의
동아
동아대학교
동아리
동아시아
동아시아의
동아일보
동아일보사
동안
동안에
동안에는
동안은
동안을
동안의
동안이나
동양
동양의
동에
동영상
동영상을
동요
동원
동원하여
동원해
동위
동유럽
동으로
동은
동을
동음이의
동의
동의가
동의를
동의하는
동의하지
동의한
동의했다
동이
동이다
동인
동인도
동일
동일본
동일성을
동일하게
동일하다
동일한
동작
동작구
동작을
동작한다
동적
동전
동점골을
동정
동정을
동조
동조제
동종
동지
동진
동쪽
동쪽과
동쪽에
동쪽에는
동쪽에서
동쪽으로
동쪽으로는
동쪽은
동쪽의
동창
동치
동치이다
동티모르
동포
동학
동항
동항제
동해
동해시
동해안
동행
동향
동형
동호
동화
돼
돼지
돼지고기
됐고
됐다
되
되거나
되게
되고
되고자
되기
되기도
되기를
되나
되는
되는데
되는지
되니
되다
되던
되도록
되돌려
되려
되려는
되리라
되며
되면
되면서
되므로
되어
되어도
되어서
되어서야
되어야
되어있다
되었고
되었기
되었는데
되었다
되었다가
되었다고
되었다는
되었던
되었습니다
되었으나
되었으니
되었으며
되었으므로
되었을
되었지만
되여
되자
되지
되지만
된
된다
된다고
된다는
된다면
될
될까
됨
됨에
됨으로써
됨을
됩니다
두
두가지
두각을
두개골
두개의
두게
두고
두근두근
두꺼운
두께
두께는
두뇌
두는
두되
두드러지게
두드러진
두려운
두려움
두려움을
두려워
두려워하여
두루
두르고
두른
두며
두면
두목
두바이
두번
두번째
두번째로
두부
두산
두산백과
두산세계대백과사전
두어
두어야
두었고
두었는데
두었다
두었다가
두었던
두었으며
두지
두터운
두통
두피디아
둔
둔다
둘
둘다
둘러
둘러싸고
둘러싸여
둘러싸인
둘러싼
둘레
둘레는
둘레를
둘로
둘은
둘을
둘의
둘이
둘이서
둘째
둘째는
둘째로
둠
둥
둥근
둥글게
둥글고
둥지
둥지를
뒤
뒤늦게
뒤로
뒤로는
뒤를
뒤부터
뒤에
뒤에는
뒤에도
뒤에서
뒤에야
뒤의
뒤이어
뒤인
뒤집어
뒤쪽
뒤쪽에
뒷
뒷날
뒷면
뒷면에
뒷받침하는
듀얼
듀엣
듀오
듀크
듀티
드
드는
드디어
드라마
드라마가
드라마는
드라마로
드라마를
드라마스페셜
드라마시티
드라마에
드라마에서
드라마의
드라마이다
드라이버
드라이브
드라큘라
드래건스
드래곤
드래곤볼
드래프트
드래프트에서
드러
드러가
드러나
드러나고
드러나는
드러나지
드러난
드러난다
드러났다
드러내고
드러내는
드러낸
드러낸다
드러냈다
드러머
드럼
드레이크
드롭
드리고
드리는
드릴
드림
드립니다
드문
드물게
드물다
드미트리
드와이트
득
득점
득점왕
득점을
득점하였다
득표율
득표율로
득표율을
든
든다
듣게
듣고
듣고는
듣기
듣는
듣는다
듣지
들
들게
들고
들과
들려
들렸다
들로
들리는
들리지
들린다
들며
들면
들면서
들어
들어가
들어가게
들어가고
들어가기
들어가는
들어가면
들어가면서
들어가서
들어가지
들어간
들어간다
들어갈
들어갔고
들어갔다
들어갔으며
들어서
들어서는
들어서면서
들어선
들어섰다
들어야
들어오게
들어오는
들어오면서
들어오지
들어온
들어온다
들어올
들어와
들어와서
들어왔다
들어있는
들어있다
들었고
들었다
들었던
들었을
들에
들에게
들여
들여다
들으면
들은
들을
들의
들이
들인
들지
듯
듯고
듯이
듯하다
듯하였다
듯한
등
등각
등과
등과의
등극
등급
등급에
등급으로
등급은
등급을
등급의
등급이
등기
등기가
등기는
등기된
등기를
등기부
등기소에
등기에
등기의
등기하여야
등기한
등대
등도
등등
등록
등록금
등록기준지
등록되어
등록되었다
등록된
등록명은
등록번호
등록세
등록세를
등록신청을
등록에
등록은
등록을
등록의
등록이
등록증
등록증을
등록취소
등록하는
등록하여야
등록한
등록할
등번호
등번호는
등본
등본을
등사
등에
등에게
등에는
등에도
등에서
등에서는
등에서도
등에서의
등으로
등으로도
등으로부터
등으로서
등은
등을
등의
등이
등이다
등이며
등이었다
등장
등장으로
등장인물
등장인물이다
등장하게
등장하고
등장하기
등장하는
등장하는데
등장하며
등장하여
등장하였다
등장하지
등장한
등장한다
등장할
등장해
등장했다
등재
등재되어
등재되었다
등재된
등지로
등지에
등지에서
등지의
등판
등판하여
등판해
디
디나모
디럭스
디렉터
디렉터리
디비시온
디비전
디스
디스커버리
디스코
디스코그스
디스크
디스플레이
디어
디에고
디자이너
디자인
디자인과
디자인에
디자인으로
디자인은
디자인을
디자인의
디자인이
디자인한
디젤
디즈니
디지몬
디지털
디트로이트
딕
딘
딜런
딥
ᄃᆡ
따
따뜻한
따라
따라서
따라서는
따라야
따랐다
따로
따르게
따르고
따르는
따르며
따르면
따르지
따른
따른다
따를
따서
따온
따옴
따왔다
따위
따위가
따위를
따위의
딱
딱딱한
딱히
딴
딸
딸과
딸기
딸로
딸린
딸은
딸을
딸의
딸이
딸이다
딸이자
딸인
땀
땀을
땄다
땅
땅과
땅에
땅에서
땅으로
땅은
땅을
땅의
땅이
땅콩
때
때가
때까지
때까지는
때까지의
때나
때는
때도
때때로
때려
때로
때로는
때로부터
때를
때마다
때마침
때만
때면
때문
때문에
때문으로
때문이다
때문이라고
때문이라는
때문이며
때문이었다
때문인
때문인지
때문입니다
때보다
때부터
때에
때에는
때에도
때에만
때였다
때와
때의
때이다
때인
땐
떠
떠나
떠나게
떠나고
떠나기
떠나는
떠나면서
떠나서
떠나자
떠나지
떠난
떠난다
떠날
떠났고
떠났다
떠서
떠오르는
떠올랐다
떡
떨고
떨리는
떨어져
떨어져서
떨어졌다
떨어지게
떨어지고
떨어지는
떨어지지
떨어진
떨어진다
떨어질
떨쳤다
떴다
떼를
떼어
또
또는
또다른
또다시
또한
똑같은
똑같이
똑똑히
똑바로
뚜렷이
뚜렷하게
뚜렷한
뚝
뚫고
뛰고
뛰는
뛰어
뛰어나
뛰어나고
뛰어나다
뛰어난
뛰어났다
뛰어넘는
뛰어들어
뛰었다
뛰었던
뛴
뛸
뜨거운
뜨고
뜨는
뜬
뜬다
뜰
뜻
뜻과
뜻대로
뜻도
뜻밖의
뜻에
뜻에서
뜻으로
뜻으로는
뜻은
뜻을
뜻의
뜻이
뜻이다
뜻이며
뜻하는
뜻하며
뜻하지
뜻한다
띄게
띄고
띄는
띄어
띈다
띠
띠게
띠고
띠는
띠를
띠며
띤
띤다
라
라고
라고도
라고만
라는
라도
라디오
라디오스타
라디오에서
라라
라리가
라마
라며
라면
라몬
라벨
라스
라스트
라싱
라오스
라운드
라운드에
라운드에서
라울
라이
라이너
라이더
라이벌
라이베리아
라이브
라이브러리
라이브를
라이선스
라이선스로
라이선스를
라이센스
라이스
라이언
라이온
라이온스
라이온즈
라이온즈의
라이즈
라이징
라이트
라이프
라이프치히
라인
라인을
라인의
라인프로듀서
라일리
라임
라쿠텐
라트비아
라트비아어
라트비아의
라틴
라틴어
라틴어로
라파엘
락
란
란에
랄프
랑
래리
래퍼
랜덤
랜드
랜디
랜스
랠프
램
램프
랩
랩을
랭킹
랴오닝성
량
량이
러
러너
러닝
러브
러셀
러시
러시아
러시아가
러시아는
러시아를
러시아어
러시아에
러시아에서
러시아와
러시아의
러시아인
러일
러키
럭비
럭셔리
럭키
런
런닝맨
런던
런던에
런던에서
런던으로
런던의
런칭
레
레고
레나
레너드
레논
레논은
레니
레닌
레닌그라드
레닌은
레닌의
레닌주의
레드
레드벨벳
레몬
레미
레바논
레바논의
레베카
레벨
레볼루션
레비
레스터
레스토랑
레슬리
레슬링
레아
레알
레오
레오나르도
레오폴트
레온
레위
레이
레이건
레이나
레이놀즈
레이다
레이더
레이디
레이먼드
레이몬드
레이블
레이스
레이싱
레이싱모델
레이저
레이철
레이첼
레이코
레이크
레이트
레인
레인보우
레인저
레인저스
레일
레저
레전드
레즈비언
레지던트
레지스터
레코드
레코드가
레코드를
레코드에
레코드에서
레코드와
레코드의
레코딩
레프
렉스
렌
렌더링
렌즈
렌즈를
려
령
례
로
로건
로고
로고가
로고를
로그
로널드
로는
로니
로도
로동교화형에
로드
로드리게스
로라
로랑
로런스
로런츠
로렌
로렌스
로렌초
로리
로마
로마가
로마는
로마로
로마를
로마에
로마에서
로마와
로마의
로마자
로만
로맨스
로맨틱
로미오와
로버츠
로버트
로베르
로베르토
로베르트
로봇
로부터
로비
로빈
로빈슨
로서
로서의
로스
로스앤젤레스
로스앤젤레스에서
로스앤젤레스의
로스쿨
로스트
로시
로써
로얄
로열
로우
로의
로이
로이드
로이스
로이터
로잔
로저
로저스
로즈
로지
로컬
로켓
로켓을
로켓의
로크
로큰롤
로키
로타르
로튼
로페스
로페즈
록
록맨
록히드
론
롤
롤링
롤플레잉
롭
롯데
롯데제과
롱
료
료스케
료코
료타
루
루나
루돌프
루마니아
루마니아어
루마니아의
루비
루수
루수로
루스
루스벨트
루시
루에서
루이
루이스
루이즈
루이지
루이지애나
루체른
루카
루카스
루크
루키
루키우스
루타
루타를
루터
루트
루트비히
루팡
루프
룩셈부르크
룸
류
류큐
르
르네
르네상스
르노
르완다
를
리
리가
리고
리그
리그가
리그는
리그로
리그를
리그에
리그에서
리그에서는
리그와
리그의
리그이다
리그인
리그컵
리나
리노
리눅스
리는
리더
리더십
리드
리듬
리듬을
리라
리로
리를
리마
리만
리메이크
리메이크한
리모델링
리믹스
리버
리버스
리버티
리버풀
리베르타도레스
리본
리뷰
리브
리비아
리사
리서치
리스
리스본
리스트
리어
리얼
리얼리티
리에
리오
리오넬
리옹
리우
리우데자네이루
리의
리이다
리조트
리즈
리차드
리처드
리처드슨
리치
리카
리카르도
리코
리키
리타
리터
리턴
리턴즈
리투아니아
리투아니아어
리투아니아의
리튬
리틀
리포터
리포트
리프
리프트
리하르트
리히텐슈타인
릭
린
린다
린지
린치
릴
릴레이
릴리
릴리스
링
링고
링컨
링크
링크가
링크를
ᄅᆞᆯ
마
마가렛
마감
마감하였다
마감했다
마거릿
마구
마그네슘
마나
마녀
마녀의
마누엘
마는
마늘
마닐라
마다
마다가스카르
마담
마당
마당에
마더
마도카
마드리드
마드리드는
마드리드에서
마드리드의
마디
마땅히
마라
마라톤
마력
마련
마련되어
마련된
마련하고
마련하기
마련하는
마련하여
마련하여야
마련하였다
마련한
마련할
마련해
마련했다
마루
마루야마
마르세유
마르셀
마르코
마르쿠스
마르크
마르크스
마르크스주의
마르틴
마른
마리
마리가
마리나
마리를
마리아
마리아가
마리아는
마리아의
마리야
마리오
마리의
마리코
마린
마린스
마마
마모루
마무리
마미
마법
마법사
마법소녀
마법을
마법의
마블
마사
마사미
마사시
마사아키
마사오
마사유키
마사코
마사키
마사토
마사히로
마산
마샬
마세요
마셜
마술사
마스
마스다
마스코트
마스크
마스크를
마스터
마스터즈
마시고
마시는
마신
마실
마쓰다
마쓰다이라
마쓰모토
마쓰야마
마야
마약
마약류
마에다
마오
마오쩌둥
마왕
마우리아
마우스
마운트
마운틴
마유
마유미
마을
마을과
마을로
마을버스
마을에
마을에서
마을은
마을을
마을의
마을이
마을이다
마음
마음과
마음껏
마음대로
마음속에
마음에
마음으로
마음은
마음을
마음의
마음이
마음작용
마음작용이다
마이
마이너
마이니치
마이데일리
마이스페이스
마이애미
마이어
마이크
마이크로
마이크로소프트
마이크로소프트는
마이크로소프트의
마이클
마이티
마인
마인드
마일
마일스
마자
마저
마주
마지
마지막
마지막까지
마지막에
마지막에는
마지막으로
마찬가지로
마찬가지이다
마찰을
마천루
마쳐진
마쳤다
마츠다
마츠모토
마츠오카
마츠이
마치
마치고
마치지
마친
마칠
마침
마침내
마카오
마커스
마케도니아
마케팅
마켓
마코토
마크
마키
마키노
마트
마티
마티아스
마틴
마포구
마피아
마하
막
막강한
막고
막기
막내
막내로
막는
막는다
막대
막대한
막론하고
막부
막부는
막부의
막스
막시밀리안
막아
막았다
막은
막을
막의
막이
막지
막판
막혀
만
만기
만나
만나게
만나고
만나기
만나는
만나다
만나러
만나면
만나서
만나지
만난
만난다
만날
만남
만남을
만났고
만났다
만났을
만년
만년에
만다
만드는
만드는데
만든
만든다
만들
만들거나
만들게
만들고
만들기
만들기도
만들다
만들며
만들어
만들어내는
만들어낸
만들어냈다
만들어서
만들어야
만들어져
만들어졌고
만들어졌다
만들어졌으며
만들어지고
만들어지는
만들어진
만들어진다
만들었고
만들었는데
만들었다
만들었다고
만들었으며
만들지
만력
만료
만료되는
만료된
만루
만명
만명을
만명의
만명이
만분의
만성
만세
만약
만약에
만에
만여
만원
만원을
만원의
만원이하의
만으로
만은
만을
만의
만이
만인
만일
만장
만장일치로
만점에
만족시키는
만족을
만족하는
만족하지
만주
만주국
만주로
만주어
만찬
만큼
만큼의
만하다
만한
만화
만화가
만화가이다
만화를
만화의
만화이다
많고
많기
많다
많다고
많다는
많아
많아서
많았고
많았다
많았던
많으나
많으며
많은
많은데
많을
많이
많지
많지만
맏아들
말
말고
말과
말기
말기에
말기에는
말기의
말까지
말년에
말단
말대로
말도
말라
말라고
말라는
말레이
말레이시아
말레이시아의
말레이어
말로
말로는
말리
말린
말만
말며
말미암아
말미암은
말부터
말소
말소된
말소를
말씀
말씀을
말씀이
말씀하셨다
말씀하신
말아
말아야
말아요
말았다
말야
말없이
말에
말에는
말에서
말은
말을
말의
말이
말이나
말이냐
말이다
말이야
말이었다
말이오
말이요
말이지
말인가
말일까지
말하겠다
말하고
말하기
말하기도
말하기를
말하길
말하노라
말하는
말하는데
말하다
말하되
말하며
말하면
말하면서
말하여
말하였다
말하자면
말하지
말한
말한다
말할
말함
말해
말해서
말했고
말했다
말했다고
맑고
맑은
맘
맛
맛을
맛이
맛있는
망
망명
망명을
망명한
망원경
망원경을
망인의
맞게
맞고
맞는
맞는다
맞다
맞대고
맞도록
맞물려
맞서
맞선
맞아
맞았다
맞은
맞을
맞이하게
맞이하여
맞이하였다
맞이한
맞이했다
맞지
맞추고
맞추기
맞추는
맞추어
맞춘
맞춤형
맞춰
맡게
맡겨
맡겼다
맡고
맡기고
맡기도
맡는
맡는다
맡아
맡았고
맡았다
맡았던
맡았으며
맡으며
맡으면서
맡은
맡을
매
매각
매각할
매개
매개로
매거진
매기
매끄러운
매년
매뉴얼
매니저
매니지먼트
매달
매달려
매도
매도인은
매도인의
매도인이
매드
매디슨
매력
매력을
매력적인
매를
매립
매립면허
매립에
매매
매매계약
매매계약에
매매계약을
매매계약의
매매계약이
매매대금
매매를
매매에
매매의
매번
매사추세츠
매사추세츠주
매수
매수를
매수인에게
매수인은
매수인의
매수인이
매수하여
매수한
매슈
매스
매시간
매어
매우
매운
매월
매의
매일
매일경제
매일신문
매일신보
매입
매입한
매장
매장되었다
매장을
매주
매직
매체
매체를
매체에
매출
매출액
매치
매카트니
매킨토시
매튜
매트
매트릭스
맥
맥도날드
맥도널드
맥락에서
맥스
맥스웰
맥아더
맥주
맨
맨체스터
맨해튼
맵
맷
맹렬한
맹세
맺게
맺고
맺는
맺는다
맺어
맺었고
맺었다
맺은
머
머나먼
머니
머니투데이
머레이
머리
머리가
머리는
머리로
머리를
머리에
머리에는
머리와
머리의
머리카락을
머무는
머물게
머물고
머물러
머물렀다
머물면서
머신
머큐리
머피
먹거나
먹게
먹고
먹기
먹기도
먹는
먹는다
먹는물관리법
먹는샘물등의
먹다
먹어
먹었다
먹으며
먹으면
먹은
먹을
먹이
먹이가
먹이는
먹이를
먹지
먼
먼로
먼저
먼지
멀리
멀리서
멀지
멀티
멀티미디어
멈추고
멈추지
멋대로
멋진
메가
메건
메고
메구미
메뉴
메뉴에서
메달
메달을
메디치
메디컬
메르세데스
메리
메릴랜드
메릴랜드주
메모리
메모리를
메모리얼
메소포타미아
메시지
메시지가
메시지를
메신저
메이
메이드
메이슨
메이저
메이지
메이커
메이킹
메인
메일
메카
메커니즘을
메타
메타크리틱
메탈
메트로
메트로폴리탄
멕시코
멕시코에서
멕시코의
멘
멘트시
멜
멜로
멜로디
멜론
멜버른
멤버
멤버가
멤버는
멤버들은
멤버들의
멤버들이
멤버로
멤버를
멤버의
멤버이다
멤버인
며
며느리
며칠
면
면도
면모를
면서
면에
면에는
면에서
면에서는
면역
면으로
면은
면을
면의
면이
면이다
면적
면적은
면적을
면적의
면적이
면제
면제된
면제를
면제하고
면제한다
면제할
면직
면치
면할
면허
면허를
면허의
멸
멸망
멸망하고
멸망하였다
멸망한
멸실
멸종
멸종된
명
명곡
명과
명까지
명나라
명나라에
명나라의
명단
명단에
명단에도
명단을
명단의
명당
명도
명동
명령
명령어
명령에
명령으로
명령은
명령을
명령의
명령이
명령이나
명령할
명령했다
명만
명맥을
명명
명명되었다
명명된
명명하였다
명명했다
명목상
명목으로
명문
명백하게
명백하다
명백하므로
명백한
명백히
명부
명분으로
명사
명사에
명사의
명상
명성
명성을
명성이
명성황후
명세서
명순이는
명시
명시되어
명시된
명시적
명시적으로
명시적인
명시하고
명시하여
명시하여야
명시한
명씩
명에
명에게
명에서
명예
명예교수
명예를
명예의
명예회복
명예회복에
명예회장
명예훼손
명으로
명은
명을
명의
명의는
명의로
명의를
명의의
명이
명이고
명이나
명이다
명이며
명이었다
명인
명장
명제
명종
명지대학교
명칭
명칭과
명칭변경
명칭에
명칭으로
명칭은
명칭을
명칭의
명칭이
명칭이다
명칭인
명탐정
명품
명하거나
명하고
명하는
명하여
명하여야
명하였다
명한
명할
명확하게
명확하지
명확한
명확히
몇
몇가지
몇몇
몇몇의
모
모가
모건
모금
모기
모나코
모노레일
모니카
모니터
모니터링
모닝
모닝구무스메
모다
모던
모델
모델과
모델로
모델링
모델에
모델은
모델을
모델의
모델이
모델이다
모델인
모두
모두가
모두들
모두를
모두에
모두에게
모두에서
모두의
모듈
모드
모드가
모드는
모드로
모드를
모든
모래
모로
모로코
모로코의
모르게
모르겠다
모르고
모르나
모르는
모르지만
모른
모른다
모른다고
모른다는
모를
모리
모리스
모리슨
모리오카
모리타
모멘트
모바일
모방
모방한
모비게임스
모빌
모세가
모세에게
모세의
모션
모순
모순을
모순이
모스
모스크바
모스크바에
모스크바에서
모스크바의
모습
모습과
모습도
모습에
모습으로
모습은
모습을
모습의
모습이
모습이다
모시고
모시는
모신
모아
모아서
모았다
모양
모양과
모양에
모양으로
모양은
모양을
모양의
모양이
모양이다
모양이며
모양이었다
모양인
모에
모여
모여서
모였다
모욕을
모으고
모으는
모은
모음
모의
모이는
모인
모임
모임을
모자
모자를
모자이크
모잠비크
모조
모조리
모질라
모집
모차르트
모차르트의
모친
모친은
모터
모터사이클
모터스
모토로라
모티브로
모피
모하
모하메드
모험
모험을
모형
모형은
모형을
모호한
모후
목
목걸이
목격자
목격한
목록
목록에
목록에서
목록은
목록을
목록의
목록이다
목사
목사가
목사는
목사의
목성
목성의
목소리
목소리가
목소리는
목소리로
목소리를
목숨
목숨을
목숨이
목에
목요일
목은
목을
목의
목이
목장
목재
목적
목적과
목적물에
목적물을
목적물의
목적물이
목적에
목적으로
목적은
목적을
목적의
목적이
목적이나
목적이다
목적인
목조
목판
목포
목포시
목표
목표가
목표는
목표로
목표를
목표에
목표와
몫을
몬스터
몬져
몬테네그로
몬트리올
몰
몰고
몰도바
몰라
몰라도
몰라요
몰락
몰랐다
몰랐던
몰래
몰려
몰리
몰린
몰수
몰수할
몰아
몰아내고
몰타
몸
몸과
몸길이
몸길이가
몸길이는
몸무게
몸무게는
몸소
몸에
몸에서
몸으로
몸은
몸을
몸의
몸이
몸집이
몸통
몹시
못
못된
못말려
못말리는
못지
못하거나
못하게
못하고
못하기
못하는
못하다
못하다가
못하던
못하도록
못하리라
못하며
못하면
못하면서
못하여
못하였고
못하였다
못하였으나
못하자
못하지만
못한
못한다
못한다고
못한다는
못할
못함
못해
못해서
못했고
못했기
못했다
못했다고
못했다는
못했던
못했으나
못했으며
못했을
못했지만
몽고메리
몽골
몽골어
몽골의
몽키
묘
묘는
묘사
묘사가
묘사되어
묘사되었다
묘사된
묘사된다
묘사하고
묘사하는
묘사하였다
묘사한
묘사한다
묘사했다
묘소
묘소는
묘역
묘지
묘지에
무
무거운
무게
무게가
무게는
무게를
무고한
무과
무과에
무관
무관하게
무관한
무괴
무궁화
무궁화호
무기
무기가
무기는
무기로
무기를
무기와
무기의
무기한
무너져
무너지고
무너진
무늬
무늬가
무늬를
무단
무단으로
무대
무대가
무대는
무대로
무대를
무대에
무대에서
무덤
무덤에
무덤은
무덤을
무덤이
무라야마
무라카미
무라타
무려
무력
무력으로
무렵
무렵부터
무렵에
무렵에는
무렵의
무로마치
무료
무료로
무료보기
무릅쓰고
무릇
무릎
무릎을
무리
무리가
무리는
무리를
무리의
무리하게
무리한
무명
무비
무비스트
무사
무사시
무사히
무산되었다
무상
무상으로
무색계
무색계의
무서운
무서워
무선
무섭게
무성
무소속
무소속으로
무수한
무수히
무술
무슨
무슬림
무승부
무승부로
무승부를
무시됨
무시하고
무시하는
무시한
무시할
무신
무실점
무실점으로
무안
무안군
무어
무언가
무언가를
무얼
무엇
무엇보다
무엇보다도
무엇에
무엇으로
무엇을
무엇이
무엇이냐
무엇이든
무엇인가
무엇인지
무역
무역에
무역을
무역의
무용
무인
무인화
무작위
무작위로
무장
무장을
무장한
무제
무제한
무조건
무죄
무죄로
무죄를
무주
무주군
무지
무지개
무진
무차별
무착
무참
무척
무표기
무한
무한도전
무한한
무한히
무함마드
무형문화재
무효
무효가
무효라고
무효라는
무효로
무효를
무효의
무효인
묵묵히
묵시적
묵시적으로
묵은
묶는
묶어
묶어서
묶여
묶은
문
문경
문경시
문고
문과
문과에
문교부
문구
문구가
문구를
문단에
문득
문명
문명을
문명의
문명이
문무왕
문법
문서
문서가
문서는
문서로
문서를
문서에
문서에는
문서에서
문서에서는
문서의
문서이다
문신
문신으로
문신이다
문양이
문어
문에
문예
문으로
문은
문을
문의
문이
문인
문자
문자가
문자는
문자들을
문자로
문자를
문자열
문자와
문자의
문자입니다
문장
문장에
문장은
문장을
문장의
문장이
문재인
문제
문제가
문제는
문제도
문제들을
문제로
문제를
문제에
문제에서
문제였다
문제와
문제의
문제이다
문제점을
문제점이
문종
문하에서
문학
문학과
문학과지성사
문학관
문학동네
문학상
문학에
문학에서
문학은
문학을
문학의
문학적
문헌
문헌에
문형
문화
문화가
문화관광부
문화관광부장관
문화는
문화를
문화방송
문화부
문화어
문화에
문화에서
문화예술
문화와
문화유산
문화의
문화일보
문화재
문화재로
문화재를
문화재보호법
문화재의
문화재자료
문화재청
문화재청고시제
문화재청장
문화재청장은
문화적
문화적으로
문화적인
문화체육관광부
문화체육관광부령
문화체육관광부령으로
문화체육관광부장관
문화체육관광부장관에게
문화체육관광부장관은
문화체육관광부장관의
문화체육관광부장관이
묻고
묻는
묻는다
묻은
묻자
묻지
묻혀
묻혔다
묻힌
물
물가
물건
물건에
물건은
물건을
물건의
물건이
물결
물결이
물고
물고기
물고기를
물과
물관리
물끄러미
물러나
물러나게
물러난
물러났다
물려받았다
물려받은
물로
물론
물론이고
물류
물류시설의
물리
물리적
물리적으로
물리적인
물리쳤다
물리치고
물리학
물리학과
물리학상을
물리학의
물리학자
물망에
물양장
물어
물었다
물에
물에서
물은
물을
물의
물의를
물이
물자
물자를
물자의
물적
물질
물질과
물질로
물질에
물질은
물질을
물질의
물질이
물질이다
물질적
물체
물체가
물체는
물체를
물체에
물체의
물품
물품에
물품은
물품을
물품의
물품이
물환경보전법
뭇
뭐
뭐라고
뭔가
뭘
뮌헨
뮌헨에서
뮐러
뮤지션
뮤지컬
뮤직
뮤직뱅크
뮤직비디오
뮤직비디오는
뮤직비디오를
므
믈
미
미겔
미국
미국과
미국과의
미국산
미국에
미국에서
미국에서는
미국으로
미국은
미국을
미국의
미국이
미국인
미군
미군은
미군의
미군이
미군정
미나
미나모토노
미나미
미나토
미네소타
미네소타주
미녀
미노
미노루
미니
미니시리즈
미니앨범
미니홈피
미달하게
미달하는
미도리
미드
미드나잇
미드필더
미드필더로
미드필더이다
미디어
미디어리서치
미디어오늘
미디어의
미라
미라클
미란다
미래
미래가치
미래를
미래에
미래의
미래창조과학부
미래창조과학부령
미래창조과학부장관
미래창조과학부장관에게
미래창조과학부장관은
미래창조과학부장관이
미래통합당
미러
미로
미루어
미륵
미리
미만
미만으로
미만의
미만인
미묘한
미미
미분
미사
미사일
미사일은
미사일을
미사일의
미사키
미상
미생물
미성년자
미성년자의
미세한
미션
미셸
미소
미소녀
미소를
미수
미수범
미수범은
미술
미술관
미술의
미스
미스코리아
미스터
미스터리
미시간
미시간주
미시마
미시시피
미식축구
미쓰비시
미아
미야기
미야기현
미야모토
미야자와
미야자키
미야코
미약한
미얀마
미얀마의
미에
미에현
미오
미완성
미요시
미우라
미운
미움을
미유키
미인
미적
미정
미주
미주리
미주리주
미즈노
미즈키
미지의
미처
미첼
미쳐
미쳤다
미치게
미치고
미치는
미치지
미치코
미친
미친다
미친다고
미칠
미카
미카엘
미카와
미쿠
미키
미터
미터의
미토
미토콘드리아
미트
미하엘
미하일
미합중국
미호
미화
미확인
믹
믹스
믹싱
민
민간
민간의
민간인
민감한
민난어
민방위
민법
민법상
민법상의
민법은
민법의
민사
민사소송법
민사집행법
민선
민속
민심을
민씨
민영
민영화
민영화에
민요
민원
민음사
민족
민족과
민족문제연구소가
민족문제연구소의
민족은
민족을
민족의
민족이
민족적
민족주의
민주
민주공화당
민주노동당
민주당
민주당은
민주당의
민주당이
민주자유당
민주적
민주적인
민주정의당
민주주의
민주주의가
민주주의는
민주주의를
민주주의와
민주주의의
민주통합당
민주평화통일자문회의
민주화
민중
민중의
믿게
믿고
믿기
믿는
믿는다
믿습니다
믿어
믿었다
믿을
믿음
믿음을
믿음이
믿지
밀
밀가루
밀고
밀도
밀도가
밀도는
밀라노
밀라노의
밀란
밀러
밀레니엄
밀려
밀리미터
밀리언
밀스
밀양
밀양시
밀어
밀워키
밀접하게
밀접한
및
밑
밑에
밑에는
밑에서
밑으로
밑의
바
바가
바그너
바그다드
바깥
바깥에
바깥으로
바깥쪽
바꾸고
바꾸기
바꾸는
바꾸어
바꾸었다
바꾼
바꾼다
바꿀
바꿔
바꿨다
바뀌게
바뀌고
바뀌는
바뀌면서
바뀌어
바뀌었고
바뀌었다
바뀌었으며
바뀌지
바뀐
바뀐다
바뀔
바나나
바는
바늘
바다
바다가
바다로
바다를
바다에
바다에서
바다와
바다의
바닥
바닥에
바닥을
바닷가
바둑
바둑기사
바둑왕전
바디
바라
바라고
바라는
바라보고
바라보는
바라보며
바라보았다
바라본
바라본다
바라볼
바란다
바람
바람과
바람에
바람은
바람을
바람의
바람이
바람직한
바랍니다
바레인
바로
바로크
바르게
바르고
바르샤바
바르셀로나
바르셀로나는
바르셀로나의
바른
바른미래당
바를
바바
바바라
바보
바비
바쁜
바스크
바실리
바야흐로
바에
바오로
바와
바위
바위가
바위를
바위에
바이
바이다
바이든
바이러스
바이러스가
바이러스는
바이러스를
바이러스에
바이러스의
바이마르
바이스
바이어
바이에른
바이에른의
바이오
바이올린
바이올린을
바이킹
바이트
바입니다
바젤
바지
바쳤다
바치고
바치는
바친
바퀴
바탕
바탕에
바탕으로
바탕을
바탕이
바트
바티스타
바티칸
바흐
박
박근혜
박노식
박람회
박물관
박물관에
박물관으로
박물관은
박물관의
박물관이
박물관이다
박보영
박사
박사가
박사과정
박사는
박사를
박사와
박사의
박사학위
박사학위를
박선영
박스
박시환
박씨
박영규
박영사
박영선
박영효
박원순
박은
박자
박정환
박정희
박정희가
박정희는
박정희의
박준서
박쥐
박쥐로
박쥐의
박지원
박지훈
박진영
박차를
박해를
박헌영
박힌
밖
밖에
밖에는
밖에도
밖에서
밖으로
밖을
밖의
반
반가운
반감을
반격을
반경
반고
반군
반기를
반다이
반대
반대가
반대되는
반대로
반대를
반대에
반대의
반대의견
반대하고
반대하는
반대하여
반대하였다
반대한
반대한다
반대했다
반도
반도를
반도에
반도의
반도체
반드시
반ᄃᆞ시
반란
반란에
반란은
반란을
반란의
반란이
반면
반면에
반박했다
반발
반발로
반발을
반발이
반발하여
반복
반복되는
반복적으로
반복하는
반복하여
반사
반소원고
반소피고
반열에
반영
반영되어
반영된
반영하고
반영하는
반영하여
반영하여야
반영한
반영한다
반으로
반은
반을
반응
반응에
반응으로
반응은
반응을
반응의
반응이
반응하여
반의
반의어
반입
반장
반전
반점이
반정부
반지
반지를
반지름은
반지의
반짝반짝
반쯤
반출
반하는
반하여
반하지
반한
반한다고
반해
반향을
반환
반환을
반환하여야
반환할
받거나
받게
받고
받고도
받고자
받기
받기도
받기로
받는
받는다
받다
받던
받도록
받들고
받들어
받아
받아들여
받아들여지지
받아들였다
받아들이고
받아들이는
받아들이지
받아들인
받아들일
받아서
받아야
받았거나
받았고
받았는데
받았다
받았다고
받았다는
받았던
받았으나
받았으며
받았을
받았지만
받으려는
받으며
받으면
받으면서
받은
받을
받음
받자
받지
받지만
받침
발
발각되어
발간
발간된
발간한
발견
발견되고
발견되는
발견되며
발견되어
발견되었고
발견되었는데
발견되었다
발견되었으며
발견되지
발견된
발견된다
발견은
발견을
발견하고
발견하는
발견하여
발견하였다
발견한
발견한다
발견할
발견했다
발굴
발굴된
발급
발급받은
발급을
발급하는
발급하여야
발급한
발급할
발기인
발기인이
발달
발달과
발달되어
발달된
발달로
발달에
발달을
발달이
발달하고
발달하여
발달하였다
발달한
발달해
발달했다
발라
발라드
발레
발레리
발렌시아
발렌타인
발령
발로
발리
발매
발매가
발매됐다
발매되었고
발매되었다
발매되었으며
발매된
발매될
발매를
발매일
발매하고
발매하였다
발매한
발매한다
발매했다
발명
발명가
발명의
발명한
발목
발발
발발하자
발발한
발병
발사
발사되었다
발사된
발사하는
발사한
발사할
발사했다
발생
발생되는
발생된
발생시키는
발생시킨
발생에
발생을
발생의
발생이
발생하거나
발생하게
발생하고
발생하기
발생하는
발생하며
발생하면
발생하여
발생하였고
발생하였다
발생하였다고
발생하였을
발생하자
발생하지
발생한
발생한다
발생한다고
발생할
발생해
발생했다
발언
발언에
발언을
발언이
발에
발원하여
발은
발을
발음
발음은
발음을
발음이
발음한다
발의
발이
발자국
발전
발전과
발전된
발전소
발전시켜
발전시켰다
발전시키는
발전시킨
발전에
발전은
발전을
발전의
발전이
발전하게
발전하고
발전하는
발전하여
발전하였다
발전한
발전할
발전해
발전했다
발족
발족하였으며
발칸
발탁
발탁되어
발탁되었다
발터
발트
발표
발표되었다
발표되었으며
발표된
발표를
발표에
발표하고
발표하는
발표하며
발표하면서
발표하여
발표하였고
발표하였다
발표하였으며
발표한
발표한다
발표했고
발표했다
발표했으며
발하는
발해
발해의
발행
발행되는
발행되었다
발행된
발행에
발행을
발행의
발행인
발행일
발행주식총수의
발행하고
발행하는
발행하여
발행한
발행할
발현
발효
발휘할
밝게
밝고
밝기는
밝은
밝혀
밝혀야
밝혀져
밝혀졌다
밝혀지지
밝혀진
밝혀진다
밝혔고
밝혔다
밝혔으며
밝히고
밝히는
밝히며
밝히지
밝힌
밝힌다
밝힐
밟고
밟는
밟아
밟은
밤
밤마다
밤에
밤에는
밤은
밤을
밤의
밤이
밤중에
밥
밥상
밥을
방
방과
방과후
방글라데시
방금
방대한
방면
방면에
방면에서
방면으로
방면의
방문
방문을
방문하고
방문하는
방문하여
방문하였다
방문한
방문해
방문했다
방법
방법과
방법도
방법에
방법으로
방법으로는
방법으로든지
방법은
방법을
방법의
방법이
방법이다
방사능
방사선
방사성
방사성폐기물
방송
방송과
방송광고
방송국
방송국에서
방송국의
방송되고
방송되는
방송되었다
방송되었던
방송된
방송된다
방송법
방송분
방송분은
방송분의
방송사
방송사업자
방송에
방송에서
방송연예대상
방송위원회
방송으로
방송은
방송을
방송의
방송이
방송인
방송인이다
방송일
방송통신위원회
방송통신위원회가
방송통신위원회는
방송통신위원회에
방송통신위원회의
방송하고
방송하는
방송한
방식
방식과
방식에
방식으로
방식은
방식을
방식의
방식이
방식이다
방안
방안에
방안을
방안이
방어
방어를
방어선을
방어에
방어하기
방어하는
방언
방언을
방에
방에서
방역
방영
방영되었다
방영된
방영을
방영하였다
방영한
방영했다
방울
방위
방으로
방은
방을
방의
방이
방일
방정식
방정식은
방정식을
방정식의
방지
방지를
방지하고
방지하기
방지하는
방지할
방출
방출되는
방출된
방출하는
방침을
방콕
방탄소년단
방파제
방패
방학
방해
방해가
방해를
방해하거나
방해하는
방해하지
방해한
방해할
방향
방향과
방향에
방향에서
방향으로
방향은
방향을
방향의
방향이
방호
방화
밭
밭을
배
배가
배경
배경에
배경으로
배경은
배경을
배경이
배구
배급
배급한
배나
배는
배달
배당
배당을
배드
배드민턴
배로
배를
배리
배분
배상
배상을
배상하여야
배상할
배속
배수
배수량
배에
배에서
배역
배열
배열을
배와
배우
배우가
배우고
배우기
배우는
배우다
배우로
배우의
배우이다
배우이자
배우자
배우자가
배우자의
배운
배울
배워
배웠고
배웠다
배의
배임
배정
배제
배제하고
배제하는
배제할
배척하고
배척하였다
배척한
배출
배출되는
배출시설
배출시설의
배출하는
배출하였다
배출한
배치
배치는
배치되는
배치되어
배치되었다
배치된
배치를
배치하고
배치하는
배치하여
배치하였다
배치한
배치했다
배타적
배터리
배트맨
배틀
배포
배포됩니다
배포한
배포할
배후에
백
백과사전
백년
백두산
백만
백부
백상예술대상
백색
백성
백성들에게
백성들은
백성들을
백성들의
백성들이
백성에게
백성을
백성의
백성이
백신
백신을
백악관
백악기
백업
백여
백인
백작
백작의
백제
백제가
백제를
백제의
백조
백화점
밴
밴드
밴드가
밴드는
밴드로
밴드를
밴드에
밴드의
밴드이다
밴드인
밴쿠버
밸리
밸브
뱀
뱀파이어
뱅크
뱅크스
버그
버나드
버니
버닝
버드
버디
버라이어티
버락
버려
버려진
버렸다
버릇이
버리고
버리는
버리지
버린
버린다
버릴
버마
버밍엄
버섯
버스
버스가
버스는
버스로
버스를
버스의
버스터
버전
버전과
버전으로
버전은
버전을
버전의
버전이
버전이다
버전인
버즈
버지니아
버지니아주
버진
버추얼
버크
버클리
버터
버트
버튼
버튼을
버틀러
버티고
버펄로스
벅스
번
번가
번갈아
번개
번과
번길
번뇌
번뇌가
번뇌를
번뇌의
번대
번도
번만
번번이
번식
번씩
번에
번에서
번역
번역되어
번역물
번역을
번역자
번역하여
번역한
번영을
번으로
번은
번을
번의
번이
번이나
번이다
번주
번주이다
번지
번지에
번째
번째가
번째기사
번째는
번째로
번째의
번째이자
번쩍
번체
번호
번호가
번호는
번호를
벌
벌금
벌금에
벌금을
벌금형을
벌떡
벌레
벌써
벌어져
벌어졌다
벌어지고
벌어지는
벌어진
벌여
벌였고
벌였다
벌을
벌이고
벌이는
벌인
벌인다
벌채
벌칙
벌칙에
벌칙을
벌칙의
벌하는
벌할
범
범용
범위
범위가
범위내에서
범위는
범위로
범위를
범위안에서
범위에
범위에서
범위와
범위의
범유행
범인
범인을
범인의
범인이
범죄
범죄가
범죄로
범죄를
범죄에
범죄와
범죄의
범주
범주를
범주에
범주의
범하여
범한
범할
범행
범행을
범행의
법
법과
법과대학
법관
법관의
법관이
법령
법령과의
법령에
법령에서
법령을
법령의
법령이
법령이나
법률
법률과
법률과의
법률관계를
법률관계에
법률관계의
법률로
법률로써
법률상
법률상의
법률안
법률에
법률에서
법률은
법률을
법률의
법률이
법률적
법률조항
법률조항에
법률조항은
법률조항의
법률조항이
법률행위
법률행위를
법률행위에
법률행위의
법리
법리는
법리를
법리에
법리오해
법리오해의
법리와
법무
법무법인
법무부
법무부령
법무부령으로
법무부장관
법무부장관에게
법무부장관은
법무부장관의
법무부장관이
법안
법안은
법안을
법안이
법에
법에서
법원
법원에
법원에서
법원은
법원의
법원이
법원조직법
법으로
법은
법을
법의
법이
법이나
법이다
법인
법인격
법인세
법인세법
법인에
법인으로
법인은
법인을
법인의
법인이
법인이나
법인인
법적
법적으로
법적인
법전출판사
법정
법정대리인
법정대리인의
법정대리인이
법정동
법정동이다
법정에
법정에서
법제처
법조인
법조인이다
법중
법칙
법칙에
법칙은
법칙을
법칙이
법학
법학과
법학을
법학전문대학원
벗고
벗어
벗어나
벗어나는
벗어나지
벗어난
벗어날
벗은
벚꽃
베가
베네딕토
베네딕트
베네수엘라
베네수엘라의
베네치아
베네치아의
베넷
베니
베니스
베니토
베다
베드로
베라
베로니카
베르나르
베르너
베르사유
베른
베를린
베를린에서
베를린의
베리
베스
베스트
베스트극장
베스트셀러
베어
베어스
베어스의
베오그라드
베이
베이비
베이스
베이스로
베이스를
베이스볼
베이스타스
베이시스트
베이직
베이징
베이징시
베이징에
베이징에서
베이커
베일
베일리
베타
베테랑
베토벤
베토벤은
베토벤의
베트남
베트남어
베트남에
베트남에서
베트남의
베티
벡터
벤
벤자민
벤저민
벤처
벤츠
벤치
벨
벨기에
벨기에의
벨라
벨라루스
벨라루스어
벨라루스의
벨트
벼
벼슬
벼슬을
벼슬이
벽
벽돌
벽에
벽을
벽이
벽화
변
변경
변경과
변경되는
변경되어
변경되었고
변경되었다
변경된
변경된다
변경될
변경등록
변경등록을
변경승인을
변경신고
변경신고를
변경에
변경으로
변경은
변경을
변경의
변경이
변경하거나
변경하고
변경하고자
변경하는
변경하려는
변경하려면
변경하여
변경하였다
변경하지
변경한
변경할
변경했다
변경허가
변경허가를
변동
변동을
변동이
변론
변론을
변론의
변론종결
변수
변수가
변수를
변수의
변신
변을
변의
변이
변제
변제를
변제에
변제한
변제할
변조
변증법적
변집견
변하게
변하고
변하는
변하여
변하지
변한
변한다
변할
변함이
변해
변했다
변형
변형된
변호사
변호사가
변호사는
변호사로
변호사를
변호사법
변호사의
변호인
변호인은
변호인을
변호인의
변호인이
변화
변화가
변화는
변화로
변화를
변화에
변화와
변화의
변화하는
변화한다
변환
변환을
변환하는
별
별개로
별개의
별과
별관
별다른
별도
별도로
별도의
별들의
별들이
별로
별명
별명으로
별명은
별명을
별명이
별세
별안간
별은
별을
별의
별이
별자리
별장
별정직
별정직공무원
별정직공무원으로
별지
별칭
별칭으로
별칭을
별표
별표에
별표의
병
병과
병과로
병과할
병기
병든
병력
병력으로
병력은
병력을
병력이
병렬
병사
병사가
병사들은
병사들을
병사들의
병사들이
병사를
병상
병설
병설유치원
병에
병역
병역법
병역사항
병원
병원에
병원에서
병원으로
병원을
병원의
병으로
병은
병을
병음
병의
병이
병자호란
병장
병조판서
병합
병합하여
병행
병행하여
보
보강
보거나
보건
보건대
보건복지가족부
보건복지가족부령
보건복지가족부령으로
보건복지가족부령이
보건복지가족부장관
보건복지가족부장관은
보건복지부
보건복지부령
보건복지부령으로
보건복지부장관
보건복지부장관에게
보건복지부장관은
보건복지부장관의
보건복지부장관이
보건소
보게
보고
보고가
보고는
보고되었다
보고된
보고를
보고서
보고서는
보고서를
보고서에
보고에
보고하게
보고하고
보고하는
보고하여야
보고하였다
보고한
보고한다
보고했다
보관
보관되어
보관된
보관됨
보관하고
보관하는
보관하여야
보관할
보궐선거
보그
보급
보급에
보급을
보기
보기는
보기도
보기에
보기에는
보나
보내
보내게
보내고
보내기
보내는
보내며
보내야
보내어
보내졌다
보내지
보낸
보낸다
보낼
보냈고
보냈는데
보냈다
보냈으며
보너스
보는
보니
보다
보다가
보다는
보다도
보더니
보더라도
보던
보도
보도가
보도국
보도되었다
보도를
보도본부
보도에
보도자료
보도하였다
보도한
보도했다
보드
보라
보라색
보러
보려고
보려면
보령
보령시
보루시아
보리
보리스
보며
보면
보면서
보물
보물을
보병
보병사단
보병연대
보비
보살
보상
보상금
보상금을
보상금의
보상에
보상을
보상의
보상하여야
보상할
보석
보성
보성군
보세요
보수
보수는
보수당
보수를
보수에
보수와
보수의
보수적
보수적인
보수주의
보스
보스니아
보스턴
보시고
보아
보아도
보아라
보아서
보아야
보안
보안관
보안에
보안을
보았고
보았다
보았으나
보았을
보어
보여
보여주고
보여주기
보여주는
보여주며
보여주면서
보여주었다
보여주지
보여준
보여준다
보여줄
보여줬다
보여지는
보여진다
보였고
보였다
보였던
보였으나
보였으며
보였지만
보완
보완을
보유
보유자
보유하고
보유하는
보유한
보유할
보육시설의
보은
보은군
보이
보이게
보이고
보이기
보이기도
보이나
보이는
보이는데
보이드
보이며
보이면서
보이스
보이자
보이저
보이즈
보이지
보이지만
보인
보인다
보인다고
보일
보잉
보자
보장
보장되는
보장된
보장법
보장을
보장하고
보장하기
보장하는
보장한다
보장할
보전
보전에
보전을
보전하고
보전하기
보정
보조
보조금
보조금을
보조금의
보조기관
보조를
보조하는
보조할
보존
보존되어
보존된
보존에
보존을
보존하고
보존하는
보존하여야
보존하지
보존할
보좌
보좌관
보좌하는
보좌한다
보증
보증금
보증을
보증인이
보증하는
보지
보직
보충
보충하는
보컬
보컬로
보컬리스트
보컬을
보통
보통과
보통은
보통의
보통이다
보트
보편
보편적
보편적으로
보편적인
보하되
보한다
보할
보행자
보험
보험계약
보험계약을
보험계약의
보험계약자
보험금
보험금을
보험급여를
보험료
보험료를
보험사고가
보험업법
보험에
보험의
보험자가
보험자는
보험회사
보헤미아
보헤미아의
보호
보호가
보호관찰
보호관찰소의
보호구역
보호되는
보호를
보호법
보호에
보호와
보호의
보호자
보호조치를
보호하고
보호하기
보호하는
보호한다
보호할
복
복구
복구를
복권
복권되지
복귀
복귀를
복귀하여
복귀하였다
복귀한
복귀해
복귀했다
복도
복면가왕
복무
복무를
복무한
복무했다
복사
복선
복선화
복소
복소수
복수
복수를
복수의
복수형
복숭아
복식
복싱
복원
복을
복음
복음서
복음을
복음주의
복이
복잡하게
복잡하고
복잡한
복장을
복제
복지
복지를
복합
복합체
본
본건
본격
본격적으로
본격적인
본관
본관으로
본관은
본교
본국으로
본기
본다
본다면
본드
본디
본래
본래는
본래의
본말
본명
본명은
본명이다
본문
본문에
본문은
본문을
본문의
본문중
본법
본법에
본법은
본부
본부가
본부는
본부를
본부장
본사
본사가
본사는
본사를
본상
본선
본선과
본선에
본선에서
본선의
본연의
본원
본을
본의
본인
본인과
본인도
본인에게
본인은
본인을
본인의
본인이
본작의
본점
본조신설
본즉
본질
본질에
본질은
본질을
본질적
본질적으로
본질적인
본체
본초
본토
본토의
본편
본회의
본회의에
본회의에서
볼
볼까
볼넷
볼로냐
볼록
볼리비아
볼셰비키
볼을
볼트
볼티모어
볼프강
봄
봄에
봄의
봄이
봅니다
봅슬레이
봉
봉건
봉건적
봉구는
봉기
봉기를
봉사
봉쇄
봉인
봉인을
봉해졌다
봉화군
봐
봐도
봐서
봐야
봐요
봤다
봤을
부
부가
부가가치세
부가가치세법
부과
부과되는
부과된
부과하는
부과하지
부과한다
부과할
부관
부교수
부근
부근에
부근에서
부근의
부끄러운
부내
부는
부다페스트
부담
부담금
부담금을
부담금의
부담으로
부담을
부담이
부담하게
부담하고
부담하기로
부담하는
부담하도록
부담하여야
부담하지
부담한
부담한다
부담할
부당하게
부당하다고
부당한
부대
부대가
부대는
부대로
부대를
부대에
부대와
부대의
부도
부동산
부동산등기법
부동산에
부동산을
부동산의
부동산이
부두
부드러운
부드럽게
부드럽고
부득이
부득이한
부딪혀
부로
부록
부르게
부르고
부르고뉴
부르기
부르기도
부르는
부르는데
부르던
부르며
부르봉
부르주아
부르지
부르키나파소
부른
부른다
부를
부름
부름을
부리그
부리는
부마
부모
부모가
부모는
부모님
부모님이
부모를
부모에게
부모와
부모의
부문
부문별
부문에
부문에서
부문으로
부문은
부문을
부문의
부본을
부부
부부가
부부는
부부의
부분
부분과
부분도
부분만
부분에
부분에는
부분에서
부분으로
부분은
부분을
부분의
부분이
부분이다
부분적
부분적으로
부분적인
부사
부사관
부사장
부산
부산광역시
부산광역시의
부산대학교
부산시
부산에
부산에서
부산의
부산일보
부산지방국토관리청공고
부산지방법원
부산진구
부상
부상당한
부상으로
부상을
부상이
부상자
부서
부서의
부설
부속
부속서
부스
부시
부시장
부실
부안
부안군
부어
부엌
부에
부에노스아이레스
부에서
부여
부여군
부여된
부여받았다
부여받은
부여하고
부여하는
부여한
부여한다
부여할
부여했다
부와
부왕
부위
부위를
부위에
부위원장
부위원장은
부유한
부의
부의장
부이사관
부인
부인과
부인은
부인을
부인의
부인이
부인인
부인하고
부인하는
부인할
부임
부임하였다
부임한
부임했다
부자
부자가
부작
부작용이
부작으로
부장
부장검사
부장은
부장판사
부재
부적절한
부정
부정적
부정적으로
부정적인
부정하고
부정하는
부정한
부정할
부제
부족
부족과
부족으로
부족은
부족을
부족의
부족이
부족하고
부족하다
부족하다고
부족하다는
부족하여
부족한
부족할
부지
부지런히
부지를
부지에
부지의
부진에
부진으로
부진을
부진한
부착
부착된
부착명령
부채
부채를
부처
부처가
부처님
부처님의
부처의
부천
부천시
부총리
부치는
부칙
부친
부친은
부친의
부친이
부탁을
부탁해
부탄
부터
부터는
부통령
부파불교의
부패
부패한
부평구
부품
부품을
부품의
부피
부하
부하가
부하를
부합하는
부합하지
부호
부호를
부활
부활을
부활의
부활절
부활한
부회장
부흥
북
북경
북구
북극
북극점에서
북대서양
북동
북동부
북동부에
북동쪽
북동쪽으로
북동쪽으로는
북면
북미
북방
북부
북부를
북부에
북부에서
북부와
북부의
북서
북서부
북서부에
북서쪽
북서쪽에
북서쪽으로
북서쪽으로는
북송
북아메리카
북아메리카의
북아일랜드
북아일랜드의
북아프리카
북위
북유럽
북으로
북은
북을
북쪽
북쪽과
북쪽에
북쪽에는
북쪽에서
북쪽으로
북쪽으로는
북쪽은
북쪽을
북쪽의
북한
북한과
북한군
북한군의
북한말
북한에
북한에서
북한은
북한을
북한의
북한이
분
분간
분경
분과
분기
분기점
분까지
분노
분노를
분노의
분노한
분단
분당
분당구
분데스리가
분데스리가의
분동하였다
분량의
분량이
분류
분류가
분류는
분류되는
분류되어
분류되었다
분류된
분류된다
분류를
분류에
분류이다
분류하고
분류하기도
분류하는
분류한다
분류할
분류했다
분리
분리되어
분리되었다
분리된
분리하는
분리하여
분만에
분명
분명하게
분명하다
분명하지
분명한
분명히
분묘의
분배
분부터
분사
분사기
분산
분석
분석과
분석에
분석은
분석을
분석이
분석하고
분석하는
분석하여
분석한
분석했다
분수
분실
분야
분야가
분야는
분야로
분야를
분야별
분야에
분야에서
분야에서는
분야의
분야이다
분양
분에
분에서
분열
분열을
분위기
분위기가
분위기를
분으로
분은
분을
분의
분이
분이다
분자
분자가
분자는
분자를
분자의
분장
분장부문
분장한다
분쟁
분쟁에
분쟁은
분쟁을
분쟁의
분쟁이
분지
분포
분포는
분포되어
분포를
분포하고
분포하는
분포하며
분포한다
분할
분할에
분할을
분할하여
분해
분홍색
분화
불
불가
불가능
불가능하거나
불가능하게
불가능하다
불가능하다고
불가능하다는
불가능한
불가리아
불가리아어
불가리아의
불가피하게
불가피한
불계승
불고
불공정한
불과
불과하고
불과하다
불과하다고
불과하므로
불과하여
불과한
불과했다
불광대사전
불교
불교가
불교는
불교를
불교사전
불교에
불교에서
불교의
불구속
불구하고
불규칙
불규칙한
불꽃
불너
불량
불러
불러서
불러일으켰다
불렀고
불렀는데
불렀다
불렀으며
불려
불렸다
불렸던
불렸으며
불리게
불리고
불리기도
불리는
불리는데
불리던
불리며
불리었다
불리하게
불리한
불린
불린다
불릴
불림
불만
불만을
불만이
불멸의
불명
불문하고
불법
불법으로
불법적인
불법행위
불법행위가
불법행위로
불법행위를
불법행위에
불복이
불복하는
불분명하다
불분명한
불상
불상은
불상을
불상의
불상이다
불선
불신
불쌍한
불쌍히
불안
불안을
불안정한
불안한
불어
불에
불완료상
불완전한
불을
불의
불의의
불이
불이익을
불이익한
불참
불쾌한
불타는
불특정
불편을
불편한
불필요한
불합리한
불행한
불확실한
불후의
붉게
붉은
붉은색
붐
붓을
붕괴
붕괴를
붙는
붙는다
붙들고
붙어
붙어서
붙었다
붙여
붙여서
붙여야
붙여졌다
붙여진
붙였다
붙은
붙이고
붙이는
붙이지
붙인
붙인다
붙일
붙잡고
붙잡아
붙잡혀
뷰
뷰티
뷰티풀
브라더스
브라보
브라우저
브라운
브라운은
브라운의
브라이언
브라질
브라질레이루
브라질에서
브라질은
브라질의
브란덴부르크
브래드
브래들리
브랜드
브랜드로
브랜드를
브랜드의
브랜드이다
브레멘
브레이브
브레이크
브레인
브렛
브로드웨이
브루나이
브루노
브루스
브루클린
브룩
브룩스
브뤼셀
브르타뉴
브리지
브리태니커
브리트니
브리튼
브리티시
블라디미르
블라인드
블랙
블랙홀
블러드
블레셋
블레어
블레이드
블레이크
블로그
블록
블루
블루스
블룸
블리자드
비
비가
비고
비공개
비공식
비공식적으로
비과세
비교
비교를
비교적
비교하는
비교하면
비교하여
비교할
비교해
비교했을
비극
비극을
비극의
비극적인
비긴
비난
비난을
비난하는
비난하였다
비난했다
비너스
비누
비는
비단
비단털쥐과에
비둘기
비디오
비디오는
비디오를
비례대표
비례대표국회의원선거
비례대표의원
비례하여
비로
비로소
비록
비롯
비롯되었다
비롯된
비롯하여
비롯한
비롯해
비료
비를
비리
비밀
비밀과
비밀로
비밀리에
비밀보장에
비밀에
비밀을
비밀의
비밀이
비보호저작물로
비상
비서
비서관
비서실
비서실장
비송사건절차법
비송사건절차법에
비스듬히
비스위스계
비스타
비스트
비슷하게
비슷하다
비슷하며
비슷하지만
비슷한
비시
비싼
비어
비었음
비엔나
비영리
비영리법인
비영리법인의
비오
비옥한
비올라
비욘드
비용
비용과
비용에
비용으로
비용은
비용을
비용의
비용이
비유
비율
비율로
비율에
비율은
비율을
비율의
비율이
비의
비자
비자금
비잔티움
비잔틴
비전
비정규
비정규직
비정상적으로
비정상적인
비주얼
비준
비중
비중은
비중을
비중이
비즈니스
비참한
비추어
비축
비치
비치는
비치하여야
비키니
비타민
비토리오
비트
비트를
비틀즈
비틀즈의
비판
비판과
비판도
비판에
비판은
비판을
비판의
비판이
비판적
비판적인
비판하고
비판하는
비판하였다
비판한
비판한다
비판했다
비평
비평가
비평가들은
비하면
비하여
비해
비해서
비행
비행기
비행기가
비행기를
비행을
비행장
비회원국
빅
빅데이터
빅뱅
빅터
빅토르
빅토리아
빈
빈곤
빈번하게
빈번한
빈번히
빈센트
빈스
빈에서
빈의
빈집
빌
빌드
빌딩
빌라
빌려
빌리
빌리지
빌린
빌바오
빌보드
빌어
빌헬름
빔
빙
빙그레
빙하
빚었다
빚을
빛
빛과
빛나는
빛낸
빛에
빛은
빛을
빛의
빛이
빠르게
빠르고
빠르다
빠른
빠져
빠졌다
빠지게
빠지고
빠지는
빠지지
빠진
빠진다
빨간
빨간색
빨강
빨리
빵
빵을
빼고
빼앗고
빼앗기고
빼앗긴
빼앗아
빼앗은
뺀
뺨을
뻔
뻔한
뻗어
뻗은
뼈
뼈가
뼈를
뽑는
뽑아
뽑은
뽑혔다
뾰족한
뿌려
뿌리
뿌리가
뿌리는
뿌리를
뿐
뿐더러
뿐만
뿐만이
뿐이고
뿐이다
뿐이라고
뿐이며
뿐이었다
뿐이지
뿐인
뿔
뿔이
사
사가
사가미
사가현
사각형
사거리
사건
사건과
사건들을
사건에
사건에서
사건으로
사건은
사건을
사건의
사건이
사건이다
사격
사격을
사견
사고
사고가
사고는
사고로
사고를
사고에
사고와
사고의
사과
사과를
사관
사관학교
사극
사기
사기를
사나다
사나이
사내
사냥
사냥꾼
사냥을
사노
사는
사다
사단
사단과
사단법인
사단법인에
사단법인이다
사단은
사단을
사단의
사단이
사단장
사당
사도
사돈
사드
사라
사라져
사라졌다
사라지게
사라지고
사라지는
사라진
사라진다
사라질
사람
사람과
사람도
사람들
사람들과
사람들도
사람들로
사람들에
사람들에게
사람들은
사람들을
사람들의
사람들이
사람만
사람에
사람에게
사람에게는
사람으로
사람으로서
사람은
사람을
사람의
사람이
사람이나
사람이다
사람이라
사람이라고
사람이었다
사람인
사람처럼
사랑
사랑과
사랑스러운
사랑에
사랑으로
사랑은
사랑을
사랑의
사랑이
사랑하고
사랑하는
사랑한
사랑한다
사랑할
사랑해
사령관
사령관으로
사령관은
사령관이
사령부
사례
사례가
사례는
사례로
사례를
사례이다
사로
사로잡혀
사료
사료의
사르데냐
사를
사리
사립
사립학교
사립학교법
사립학교의
사ᄅᆞᆷ이
사ᄅᆞᆷ이니
사ᄅᆞᆷ이라
사마천
사막
사막의
사망
사망에
사망으로
사망을
사망의
사망자
사망자가
사망자는
사망하거나
사망하고
사망하는
사망하면서
사망하여
사망하였고
사망하였다
사망하자
사망한
사망한다
사망할
사망했고
사망했다
사망했다고
사망했으며
사면
사면을
사명
사명으로
사명을
사모아
사무
사무관
사무국
사무국장
사무는
사무라이
사무를
사무소
사무소를
사무소에
사무소의
사무실
사무실에서
사무실은
사무실을
사무에
사무엘
사무의
사무처
사무처장
사무총장
사무총장은
사물
사물을
사물의
사바
사바나
사방
사방사업법
사방으로
사범대학
사법
사법경찰관리의
사법경찰관은
사법시험
사법연수원
사변
사본
사본을
사사
사사키
사산
사상
사상가
사상과
사상에
사상은
사상을
사상의
사상이
사상이다
사상자가
사상자를
사상적
사생활
사생활의
사샤
사서
사설
사소한
사수
사슬
사슴
사신
사신으로
사신을
사신이
사실
사실과
사실관계를
사실관계에
사실도
사실로
사실상
사실상의
사실에
사실오인
사실은
사실을
사실의
사실이
사실이나
사실이다
사실인정과
사실적
사실적인
사십
사쓰마
사악한
사안에
사안에서
사안을
사야카
사양
사업
사업가
사업계획
사업계획서
사업계획을
사업계획의
사업과
사업법
사업부
사업비
사업소
사업시행자
사업시행자가
사업시행자는
사업시행자에게
사업시행자의
사업에
사업에서
사업연도
사업연도의
사업용
사업으로
사업으로서
사업은
사업을
사업의
사업이
사업자
사업자가
사업자는
사업자에
사업자에게
사업자의
사업장
사업장에
사업장의
사업주
사업주가
사업주는
사업화
사에
사에서
사연
사연을
사영
사오리
사옥
사와
사외이사
사용
사용과
사용금지
사용되고
사용되기
사용되기도
사용되는
사용되던
사용되며
사용되어
사용되었고
사용되었다
사용되었던
사용되었으며
사용되지
사용된
사용된다
사용될
사용됨
사용료
사용료를
사용승인
사용에
사용으로
사용은
사용을
사용의
사용이
사용인
사용자
사용자가
사용자는
사용자들은
사용자들이
사용자를
사용자에게
사용자의
사용하거나
사용하게
사용하고
사용하고자
사용하기
사용하기도
사용하는
사용하는데
사용하던
사용하도록
사용하려는
사용하며
사용하면
사용하면서
사용하십시오
사용하여
사용하여서는
사용하여야
사용하였고
사용하였다
사용하였으며
사용하지
사용하지만
사용한
사용한다
사용할
사용함
사용함으로써
사용해
사용해서
사용해야
사용했다
사용했던
사용했으며
사용허가
사용허가를
사우디
사우디아라비아
사우디아라비아의
사우스
사운드
사운드를
사운드클라우드
사운드트랙
사울이
사원
사원은
사원의
사원이
사월
사위
사유
사유가
사유는
사유로
사유를
사유리
사유없이
사유에
사유와
사유의
사육
사의
사이
사이가
사이고
사이공
사이는
사이드
사이로
사이를
사이먼
사이버
사이언스
사이에
사이에는
사이에서
사이에서는
사이에서도
사이의
사이이다
사이즈
사이클
사이클론
사이타마
사이타마현
사이토
사이트
사이트를
사이트에
사이트에서
사이트의
사인
사일런트
사임
사임을
사임하고
사임하였다
사임한
사임했다
사자
사자가
사자를
사자의
사장
사장으로
사장은
사장을
사장의
사장이
사적
사적으로
사적인
사전
사전에
사정
사정만으로
사정만으로는
사정에
사정으로
사정은
사정을
사정의
사정이
사제
사제가
사중주
사지
사직
사진
사진과
사진에
사진으로
사진은
사진을
사진의
사진이
사진집
사찰
사찰의
사채
사채를
사채의
사천
사천시
사촌
사춘기
사카모토
사카이
사커
사커베이스
사커웨이
사쿠라
사쿠라이
사키
사태
사태가
사태는
사태로
사태를
사태에
사태의
사토
사토루
사토미
사토시
사퇴
사퇴를
사퇴하였다
사투리
사표를
사하
사하구
사하라
사할린
사항
사항과
사항에
사항으로
사항으로서
사항은
사항을
사항의
사항이
사해행위
사해행위에
사헌부
사형
사형에
사형을
사형이
사회
사회가
사회과학
사회기반시설에
사회는
사회당
사회로
사회를
사회민주당
사회민주주의
사회복지
사회봉사
사회부
사회에
사회에서
사회에서는
사회와
사회의
사회인
사회자
사회적
사회적으로
사회적인
사회주의
사회주의를
사회주의의
사회주의적
사회질서에
사회통념상
사회학
사회학자
사후
사후관리
사후에
사흘
삭제
삭제되었다
삭제하고
삭제한다
산
산과
산다
산둥
산둥성
산란
산림
산림법
산림보호법
산림의
산림자원의
산림청
산림청장
산림청장은
산림청장이
산맥
산맥을
산맥의
산부인과
산불
산성
산소
산소가
산소를
산술
산스크리트어
산시
산악
산업
산업과
산업단지
산업단지의
산업발전법
산업안전보건법
산업에
산업에서
산업용
산업은
산업을
산업의
산업이
산업입지
산업자원부
산업자원부령
산업자원부장관
산업재해보상보험법
산업집적활성화
산업통상자원부
산업통상자원부령
산업통상자원부령으로
산업통상자원부장관
산업통상자원부장관에게
산업통상자원부장관은
산업통상자원부장관이
산업표준화법
산업화
산에
산에서
산요
산으로
산은
산을
산의
산이
산이다
산인
산입하지
산입한다
산정
산정에
산정의
산정한
산정한다
산정할
산조
산지
산지관리법
산지의
산지전용신고
산지전용허가
산책
산청군
산체스
산출한
산케이
산타
산투스
산티아고
산하
산하에
산하의
산화
살
살게
살고
살기
살다
살다가
살던
살려
살리기
살리는
살린
살림
살며
살면서
살아
살아가는
살아갈
살아남았다
살아남은
살아서
살아야
살아온
살아있는
살아있다
살았다
살았던
살았으며
살에
살을
살의
살이
살인
살인사건
살인을
살인의
살지
살짝
살펴
살펴보면
살펴본
살펴본다
살펴볼
살피건대
살해
살해당한
살해당했다
살해되었다
살해된
살해하고
살해한
삶
삶과
삶에
삶은
삶을
삶의
삶이
삼
삼가
삼각
삼각주
삼각형
삼각형의
삼거리
삼고
삼국
삼국사기
삼국시대
삼국시대의
삼국유사
삼국지
삼남
삼는
삼는다
삼림
삼보
삼성
삼성전자
삼십
삼아
삼았다
삼은
삼을
삼진
삼척
삼척시
삼촌
삼총사
삼층석탑
삽입
삽입곡
삿포로
샀다
상
상가
상계
상고
상고는
상고를
상고비용은
상고이유
상고이유가
상고이유는
상고이유로
상고이유를
상고이유서
상고이유에
상고이유에서
상고이유의
상고인
상과
상관
상관없이
상관이
상근
상금
상급
상기
상냥한
상단
상단에
상담
상담을
상당
상당구
상당수
상당수가
상당수는
상당수의
상당의
상당하고
상당하는
상당하다
상당하다고
상당한
상당히
상대
상대가
상대는
상대로
상대를
상대방
상대방에
상대방에게
상대방은
상대방을
상대방의
상대방이
상대성
상대식
상대에게
상대의
상대적
상대적으로
상대적인
상동
상류
상륙
상륙한
상무
상반기
상반되는
상법
상부
상부에
상사
상상
상서
상설
상세
상세하게
상세한
상세히
상소
상소를
상소의
상속
상속세
상속을
상속이
상속인
상속인의
상속인이
상속재산에
상속재산의
상수
상수도
상승
상시
상실
상실된
상실하게
상실하고
상실한
상실한다
상어
상업
상업용
상업적
상업적으로
상업적인
상에
상에서
상영
상영되었다
상용
상원
상원의원
상위
상으로
상은
상을
상응하는
상의
상이
상이다
상이한
상인
상인의
상인이
상임
상임고문
상임위원
상임위원회
상임이사
상자
상자를
상장
상점
상점가
상주
상주시
상징
상징으로
상징인
상징적
상징적인
상징하는
상징한다
상처
상처가
상처를
상태
상태가
상태는
상태다
상태로
상태를
상태에
상태에서
상태에서는
상태였다
상태와
상태의
상태이다
상태이며
상태인
상트페테르부르크
상파울루
상표
상표를
상품
상품권
상품에
상품을
상품의
상품이
상하
상하이
상하이에
상하이에서
상한
상한으로
상해
상해를
상해에
상행
상향
상호
상호간에
상호간의
상호를
상호작용
상호작용을
상환
상환을
상황
상황과
상황에
상황에서
상황에서는
상황에서도
상황으로
상황은
상황을
상황의
상황이
상황이다
상황이었다
새
새가
새겨
새겨져
새겨진
새겼다
새긴
새끼
새끼는
새끼를
새누리당
새는
새로
새로운
새로이
새롭게
새롭고
새를
새마을
새뮤얼
새벽
새벽에
새삼스럽게
새우
새의
새정치국민회의
새정치민주연합
새천년민주당
새턴
새해
색
색계
색계의
색깔
색깔은
색깔을
색깔이
색다른
색상
색상은
색상을
색소폰
색으로
색은
색을
색의
색이
색채
색채가
색채를
샌드위치
샌디
샌디에이고
샌프란시스코
샌프란시스코에서
샐리
샘
샘플
생
생각
생각과
생각도
생각되고
생각되는
생각되었다
생각된다
생각에
생각으로
생각은
생각을
생각의
생각이
생각지
생각하게
생각하고
생각하기
생각하는
생각하니
생각하며
생각하면
생각하여
생각하였다
생각하자
생각하지
생각한
생각한다
생각할
생각합니다
생각해
생각했다
생각했던
생겨
생겨나는
생겨난
생겨났다
생겨서
생겼고
생겼다
생계를
생기게
생기고
생기기
생기는
생기면
생기지
생긴
생긴다
생길
생년월일
생략
생략한
생략할
생리학
생명
생명과
생명에
생명을
생명의
생명이
생명체
생명체가
생모
생몰년
생물
생물을
생물의
생물이
생물학
생물학적
생방송
생부
생산
생산과
생산되고
생산되는
생산되었다
생산된
생산된다
생산량은
생산량이
생산성
생산에
생산은
생산을
생산의
생산이
생산하고
생산하기
생산하는
생산한
생산한다
생산할
생생토크
생생한
생선
생성
생성되는
생성된
생성된다
생성하는
생성한다
생성할
생식
생애
생애를
생애와
생원
생을
생의
생일
생일을
생전
생전에
생존
생존을
생존자
생존한
생체
생태
생태계
생태적
생활
생활과
생활에
생활에서
생활은
생활을
생활의
생활이
생활하고
생활하는
생활한다
생후
샤
샤론
샤를
샤이니
샤프
샬럿
샬롯
샬케
샷
섀넌
서
서강대학교
서거
서게
서경
서고
서곡
서구
서구의
서귀포시
서기
서기관
서기관으로
서너
서는
서대문
서대문구
서던
서독
서독의
서둘러
서로
서로가
서로를
서로마
서로에게
서로의
서류
서류는
서류를
서류에
서류와
서류의
서른
서리
서머
서면
서면에
서면으로
서면을
서면의
서명
서명을
서명하여야
서명한
서명했다
서문
서민
서바이버
서바이벌
서방
서버
서버를
서버에
서부
서부에
서부의
서브
서비스
서비스가
서비스는
서비스로
서비스를
서비스에
서비스와
서비스의
서비스이다
서사시
서산
서산시
서서
서서히
서설
서성
서술한
서술한다
서식
서식에
서식의
서식지
서식지는
서식하고
서식하는
서식하며
서식한다
서신
서신을
서아시아
서아프리카
서양
서양식
서양의
서열
서울
서울경제
서울고등법원
서울고등법원에
서울고법
서울과
서울교통공사
서울대
서울대학교
서울로
서울민사지방법원
서울시
서울시장
서울신문
서울에
서울에서
서울역
서울은
서울을
서울의
서울중앙지방법원
서울중앙지법
서울지방검찰청
서울지방법원
서울특별시
서울특별시고시
서울특별시교육청
서울특별시립학교
서울특별시에
서울특별시에서
서울특별시의
서울특별시의회
서울특별시장
서울형사지방법원
서원
서유럽
서인
서인도
서일본
서자
서장
서재필
서적
서적을
서점
서주
서지
서진
서쪽
서쪽에
서쪽에는
서쪽에서
서쪽으로
서쪽으로는
서쪽은
서쪽의
서천
서천군
서초구
서커스
서클
서태지
서프라이즈
서하
서해
석
석란은
석방
석방되었다
석방된
석방을
석사
석사과정
석사학위를
석운은
석유
석으로
석을
석의
석이
석조
석좌교수
석탄
석회암
섞어
섞어서
섞여
섞은
섞인
선
선거
선거가
선거결과를
선거관리위원회
선거관리위원회의
선거구
선거구가
선거구로
선거구를
선거구에
선거구에서
선거구의
선거구이다
선거권
선거권을
선거는
선거대책위원회
선거로
선거를
선거법
선거사무장
선거에
선거에서
선거에서는
선거와
선거운동
선거운동을
선거운동의
선거의
선거이다
선거인
선거일
선거일전
선거통계시스템
선고
선고된
선고를
선고받고
선고받았다
선고받은
선고하였다
선고한
선고할
선고했다
선과
선교
선교사
선구자
선다
선대
선덕여왕
선데이
선도
선동
선두
선뜻
선량한
선로
선로가
선로를
선명한
선물
선물로
선물을
선박
선박소유자는
선박에
선박은
선박을
선박의
선박이
선발
선발대회
선발되어
선발되었다
선발된
선발로
선발승
선발전
선배
선보였다
선보인
선비
선사
선생
선생님
선생님의
선생님이
선생은
선생을
선생의
선생이
선샤인
선서를
선수
선수가
선수권
선수권대회
선수는
선수다
선수단
선수단은
선수단이
선수단이다
선수들
선수들과
선수들은
선수들을
선수들의
선수들이
선수로
선수로는
선수로서
선수를
선수상
선수에
선수에게
선수였다
선수와
선수의
선수이다
선수이며
선수이자
선수인
선양
선언
선언을
선언하고
선언하였다
선언한
선언한다
선언했다
선에
선에서
선원
선원의
선으로
선은
선을
선의
선의의
선이
선인
선임
선임되었다
선임된
선임에
선임하여야
선임한
선임할
선장
선장은
선장이
선전
선정
선정됐다
선정되기도
선정되는
선정되어
선정되었고
선정되었다
선정되었으며
선정된
선정에
선정을
선정하는
선정하여
선정하였다
선정한
선정할
선정했다
선제
선제골을
선조
선조가
선조는
선조실록
선조의
선종
선지자
선진
선착장
선체
선출
선출되어
선출되었고
선출되었다
선출된
선출된다
선출하는
선출하였다
선출한다
선출했다
선택
선택된
선택에
선택은
선택을
선택의
선택이
선택적
선택적으로
선택하고
선택하는
선택하세요
선택하여
선택한
선택한다
선택할
선택했다
선포
선포된
선포하였다
선포했다
선한
선행
선형
선호하는
설
설계
설계가
설계는
설계되어
설계되었다
설계된
설계를
설계에
설계한
설과
설교를
설날
설도
설득하여
설령
설리번
설립
설립과
설립되는
설립되어
설립되었고
설립되었다
설립되었으며
설립된
설립등기를
설립에
설립위원은
설립위원회는
설립을
설립인가
설립인가를
설립자
설립하고
설립하는
설립하여
설립하였다
설립한
설립한다
설립할
설립해
설립했다
설마
설명
설명서
설명에
설명은
설명을
설명이
설명이다
설명하고
설명하기
설명하는
설명하였다
설명한
설명한다
설명할
설명했다
설비
설비가
설비를
설비의
설사
설은
설을
설이
설일체유부의
설정
설정되어
설정된
설정에
설정은
설정을
설정이
설정하고
설정하는
설정하여
설정한
설정할
설치
설치가
설치되는
설치되어
설치되었고
설치되었다
설치되었던
설치되지
설치된
설치류
설치류의
설치를
설치법
설치에
설치와
설치의
설치조례
설치하거나
설치하고
설치하는
설치하여
설치하여야
설치하였다
설치하지
설치한
설치한다
설치할
설치해
설치했다
설탕
설한
설화
섬
섬과
섬기는
섬세한
섬식
섬에
섬에서
섬유
섬으로
섬은
섬을
섬의
섬이
섬이다
섭씨
섭정
섭정을
섰다
섰던
성
성격
성격과
성격에
성격으로
성격은
성격을
성격의
성격이
성격이다
성경
성경에
성경을
성경의
성공
성공에
성공으로
성공은
성공을
성공적으로
성공적인
성공하고
성공하여
성공하였다
성공하지
성공한
성공한다
성공할
성공했다
성공회
성과
성과가
성과는
성과를
성과에
성관계를
성균관
성균관대학교
성기
성난
성남
성남시
성녀
성능
성능을
성능이
성당
성당의
성도
성동구
성령
성령의
성립
성립되었다
성립되지
성립된
성립에
성립을
성립하기
성립하는
성립하였다
성립하지
성립한
성립한다
성립한다고
성립할
성매매
성명
성명과
성명을
성모
성문
성문을
성범죄
성벽
성벽을
성별
성보호에
성북구
성분
성분은
성분을
성분의
성분이
성서
성소수자
성숙한
성스러운
성실하게
성실한
성실히
성씨
성씨이다
성에
성에서
성우
성우극회
성우는
성우로
성우이다
성운
성유식론
성으로
성은
성을
성읍
성의
성이
성이다
성인
성인의
성인이
성자
성장
성장과
성장에
성장을
성장이
성장하고
성장하는
성장하여
성장하였다
성장한
성장할
성장했다
성적
성적에
성적으로
성적은
성적을
성적이
성적인
성전
성종
성종의
성주
성주군
성지
성직자
성질
성질과
성질상
성질에
성질은
성질을
성질의
성질이
성체
성추행
성폭력
성폭력범죄의
성폭행
성품이
성향
성향을
성향의
성향이
성화
성희롱
세
세가
세가지
세간의
세계
세계가
세계관
세계관을
세계는
세계대백과사전
세계대백과사전의
세계대전
세계대전이
세계로
세계를
세계보건기구
세계사
세계에
세계에서
세계와
세계유산
세계의
세계일보
세계적
세계적으로
세계적인
세관
세관장은
세군다
세균
세금
세금을
세기
세기가
세기경
세기까지
세기를
세기부터
세기에
세기에는
세기에서
세기와
세기의
세까지
세네갈
세는
세대
세대가
세대는
세대로
세대를
세대에
세대의
세라
세력
세력과
세력에
세력으로
세력은
세력을
세력의
세력이
세련된
세례
세례를
세로
세로로
세르게이
세르비아
세르비아어
세르비아의
세를
세리에
세리이
세무서장에게
세무서장은
세미
세미나
세바스티안
세번째
세부
세부사항은
세부적인
세부터
세븐
세븐틴
세비야
세상
세상에
세상에서
세상은
세상을
세상의
세상이
세션
세속
세속적인
세손
세스
세실
세액
세액에
세액을
세액의
세에
세에게
세에서
세였다
세와
세우
세우게
세우고
세우기
세우는
세우며
세운
세운다
세울
세워
세워져
세워졌다
세워진
세월
세월을
세월이
세월호
세웠고
세웠다
세웠으며
세율
세율을
세의
세이
세이다
세이부
세이브
세이브를
세이지
세인
세인트
세인트루이스
세인트앤드루스
세일러
세일러문
세입
세자
세제
세조
세조의
세종
세종시
세종실록
세종의
세종특별자치시
세친
세컨드
세키
세키가하라
세토
세트
세트를
세포
세포가
세포는
세포로
세포를
세포에
세포에서
세포와
세포의
섹션
섹스
센
센고쿠
센다이
센말
센서
센스
센터
센터가
센터는
센터를
센터에
센터에서
센터의
센트
센트럴
센티미터
셀
셀레우코스
셀주크
셀프
셈이다
셋
셋째
셋째는
셔
셔로
셔틀
션
셜록
셜리
셰익스피어
셰익스피어의
셰인
셰퍼드
셸
소
소가
소개
소개글
소개글을
소개되었다
소개된
소개로
소개하고
소개하는
소개하였다
소개한
소개한다
소개했다
소관
소관사무를
소관에
소관의
소규모
소규모의
소극
소극적
소극적인
소금
소금을
소급하여
소나무
소나타
소녀
소녀가
소녀는
소녀를
소녀시대
소녀의
소년
소년은
소년을
소년의
소년이
소는
소니
소닉
소대
소동
소드
소득
소득금액을
소득세
소득세를
소득세법
소득에
소득을
소득의
소득이
소라
소련
소련과
소련군
소련군은
소련군의
소련군이
소련에
소련에서
소련은
소련을
소련의
소련이
소령
소론
소론과
소를
소리
소리가
소리는
소리도
소리로
소리를
소리에
소리와
소리의
소마
소말리아
소매
소멸
소멸되었다
소멸된
소멸시효
소멸시효가
소멸시효는
소멸시효의
소멸을
소멸하는
소멸하였다
소멸한
소멸한다
소명
소문
소문을
소문이
소박한
소방
소방공무원
소방관
소방방재청
소방방재청장
소방방재청장은
소방본부장
소방서장은
소방시설
소방청
소부
소비
소비에트
소비자
소비자가
소비자를
소비자에게
소비자의
소상공인
소생
소설
소설가
소설가이다
소설로
소설에
소설은
소설을
소설의
소설이
소설이다
소셜
소속
소속공무원으로
소속공무원을
소속기관
소속기관에
소속기관의
소속기관이다
소속되어
소속된
소속사
소속사는
소속으로
소속의
소속이
소속이다
소속하에
소송
소송대리인
소송대리인의
소송에
소송에서
소송은
소송을
소송의
소송이
소송행위를
소수
소수의
소스
소스를
소식
소식을
소식이
소실
소에
소연
소와
소외
소외인
소외인의
소외인이
소요
소요되는
소요된
소요된다
소용돌이
소용이
소울
소원
소원을
소위
소위로
소유
소유가
소유권
소유권에
소유권은
소유권을
소유권의
소유권이
소유권이전등기
소유권이전등기가
소유권이전등기를
소유권이전등기의
소유로
소유를
소유에
소유의
소유인
소유자
소유자가
소유자나
소유자는
소유자로
소유자를
소유자에
소유자에게
소유자와
소유자의
소유자인
소유하거나
소유하고
소유하는
소유한
소유할
소음
소의
소자
소장
소장되어
소장으로
소장은
소장을
소장의
소장이
소장하고
소재
소재가
소재로
소재를
소재의
소재지
소재지는
소재지를
소재지에서
소재지이다
소재하는
소재한
소정의
소중한
소중히
소지
소지가
소지하고
소지한
소집
소집된
소집을
소집하고
소집한다
소집할
소총
소치
소켓
소통
소통을
소품
소프라노
소프트
소프트뱅크
소프트웨어
소프트웨어가
소프트웨어는
소프트웨어를
소프트웨어의
소프트웨어이다
소피
소피아
소학교
소행성
소형
소홀히
소화
소환
속
속담
속도
속도가
속도는
속도로
속도를
속도에
속도와
속도의
속보
속보치
속성
속성을
속어
속에
속에는
속에서
속에서도
속여
속으로
속은
속을
속의
속이
속이다
속주
속초
속편
속하게
속하고
속하는
속하며
속하지
속한
속한다
속한다고
속할
속해
속했다
속했던
속히
손
손가락
손가락으로
손가락을
손과
손금에
손꼽히는
손꼽힌다
손녀
손님
손님을
손님이
손동권
손목을
손상
손상된
손상을
손수
손쉽게
손실
손실보상
손실을
손실의
손실이
손에
손에서
손으로
손은
손을
손의
손이
손자
손자이다
손자이자
손자인
손잡고
손톱
손해
손해가
손해는
손해를
손해배상
손해배상을
손해배상의
손해배상책임을
손해액을
손해에
손해의
솔
솔로
솔로로
솔로몬
솔로몬의
솔루션
솔리드
솟아
송
송나라
송나라의
송달
송달된
송달받은
송달을
송달하여야
송도
송부
송부받은
송부하여야
송성수
송시열
송신
송진우
송진훈
송출
송파구
쇠고기
쇼
쇼가쿠칸
쇼군
쇼난
쇼를
쇼미더머니
쇼와
쇼치쿠
쇼코
쇼크
쇼타
쇼텐
쇼트
쇼트트랙
쇼핑
쇼핑몰
쇼헤이
숀
수
수가
수감
수개의
수거
수군
수급
수급인이
수긍이
수긍하기
수긍할
수나라
수녀
수년
수년간
수는
수능
수단
수단과
수단에
수단으로
수단으로서
수단을
수단의
수단이
수당
수당을
수도
수도가
수도권
수도권제
수도는
수도로
수도를
수도법
수도원
수도원에
수도원의
수도인
수동
수량
수량을
수력
수련
수련을
수렴
수령
수령을
수령한
수로
수로조사
수록
수록곡
수록되어
수록되었다
수록된
수록예정자
수록한
수료
수를
수리
수리남
수리를
수리한
수립
수립과
수립되었다
수립된
수립에
수립을
수립하거나
수립하고
수립하는
수립하여
수립하여야
수립하였다
수립한
수립할
수립했다
수만
수많은
수면
수면을
수명
수명은
수명을
수명이
수모를
수목
수목드라마
수밖에
수반
수반되는
수반하는
수반해
수백
수백만
수번뇌
수법을
수분
수비
수비를
수비수
수비수로
수비수이다
수비형
수사
수사가
수사관
수사기관에
수사기관의
수사기관이
수사를
수사에
수사의
수산
수산물
수산업
수산업법
수상
수상을
수상자
수상자로
수상자이다
수상작
수상하는
수상하였고
수상하였다
수상한
수상했고
수상했다
수상했으며
수색
수생태계
수서
수석
수성
수성구
수소
수소를
수송
수송을
수수
수수께끼
수수께끼의
수수료
수수료는
수수료를
수수료의
수수한
수술
수술은
수술을
수술이
수습
수시로
수식
수신
수심
수십
수양
수업
수업을
수없이
수에
수여
수여되었다
수여받았다
수여하는
수여한다
수역
수열
수염
수염을
수영
수영은
수영장
수와
수요
수요가
수요를
수요에
수요일
수용
수용소
수용자의
수용체
수용하는
수용할
수원
수원시
수원지방법원
수위
수은
수의
수이다
수익
수익금
수익을
수익의
수익이
수익자
수익자의
수익하게
수인
수인의
수입
수입과
수입금
수입된
수입신고하는
수입에
수입으로
수입은
수입을
수입의
수입이
수입하는
수입하여
수입한
수있는
수있다
수자원
수잔
수장
수전
수정
수정되었다
수정된
수정을
수정이
수정하여
수정할
수주
수준
수준에
수준에서
수준으로
수준은
수준을
수준의
수준이
수준이다
수중
수중에
수지
수직
수직으로
수질
수질환경보전법
수집
수집된
수집하고
수집하는
수집하여
수집한
수차례
수처리제
수천
수첩
수출
수출은
수출을
수출의
수출입
수출하는
수치
수치가
수치는
수치를
수치이다
수컷
수컷은
수컷의
수컷이
수탁
수탁자
수탁자가
수퍼
수페르코파
수평
수평으로
수표
수표를
수표의
수필
수하
수학
수학과
수학에서
수학을
수학의
수학자
수학자이다
수학적
수학적으로
수학하였다
수학회
수행
수행에
수행을
수행하게
수행하고
수행하기
수행하는
수행하며
수행하여
수행하여야
수행하였다
수행하지
수행한
수행한다
수행할
수행함에
수행했다
수호
수호자
수혹
수화
수훈
숙련된
숙박
숙부
숙의
숙이고
숙종
숙종의
숙주
순
순간
순간에
순간을
순경
순교자
순서
순서가
순서는
순서대로
순서로
순서를
순서에
순수
순수하게
순수한
순식간에
순양함
순영은
순영의
순위
순위가
순위는
순위로
순위를
순위에
순위에서
순으로
순전히
순정
순조
순종
순차적으로
순창군
순천
순천시
순환
순회
술
술과
술에
술을
술이
술집
술탄
숨
숨겨진
숨기고
숨어
숨은
숨을
숨이
숨졌다
숨진
숫자
숫자가
숫자는
숫자로
숫자를
숫자의
숭은
숲
숲과
숲에
숲에서
숲으로
숲을
숲의
숲이
쉐보레
쉬고
쉬는
쉬운
쉬지
쉰
쉴
쉽게
쉽고
쉽다
쉽사리
쉽지
슈
슈가
슈고
슈나이더
슈미트
슈에이샤
슈투트가르트
슈트
슈팅
슈퍼
슈퍼리그
슈퍼맨
슈퍼스타
슈퍼주니어
슈퍼컵
슈퍼히어로
슌
슌스케
슛
슛을
스
스나이퍼
스노우
스님
스다
스리랑카
스릴러
스마일
스마트
스마트폰
스마트폰이다
스몰
스무
스물
스미스
스미스는
스미스의
스스로
스스로가
스스로도
스스로를
스스로의
스스무
스승
스승의
스승인
스왈로스
스웨덴
스웨덴어
스웨덴에서
스웨덴은
스웨덴의
스위스
스위스에서
스위스의
스위치
스위트
스윙
스즈미야
스즈키
스카우트
스카이
스칸디나비아
스칼라
스칼렛
스캔들
스케이트
스케이팅
스케치
스코어
스코틀랜드
스코틀랜드의
스콧
스쿨
스퀘어
스크린
스크린도어
스크린도어가
스크립트
스키
스킬
스킴
스타
스타뉴스
스타드
스타디움
스타디움에서
스타리그
스타상
스타워즈
스타의
스타일
스타일로
스타일은
스타일을
스타일의
스타일이
스타즈
스타크래프트
스타트
스타트업
스탈린
스탈린은
스탈린의
스태프
스탠
스탠더드
스탠드
스탠리
스탠퍼드
스턴트
스털링
스테레오
스테이션
스테이지
스테이트
스테파노
스테파니
스테판
스텔라
스텔스
스텝
스토리
스토리를
스토리지
스토어
스톡홀름
스톤
스톰
스튜디오
스튜디오가
스튜디오에
스튜디오에서
스튜디오의
스튜어트
스트라이커
스트라이크
스트레스
스트레스를
스트레이트
스트리밍
스트리트
스트림
스티브
스티븐
스티븐스
스틸
스파르타
스파이
스파이더맨
스파이크
스페셜
스페이스
스페인
스페인과
스페인어
스페인어로
스페인에
스페인에서
스페인은
스페인의
스페인이
스펙트럼
스펙트럼을
스펜서
스포르팅
스포츠
스포츠경향
스포츠동아
스포츠서울
스포츠월드
스포츠의
스포츠조선
스포츠한국
스포탈코리아
스폰서
스프링
스피드
스피드스케이팅
스피릿
스피커
스핀
스핀오프
슬기로운
슬라브
슬라브어
슬라브조어
슬라이드
슬램
슬로바키아
슬로바키아어
슬로바키아의
슬로베니아
슬로베니아어
슬로베니아의
슬픈
슬픔
슬픔을
슬하
슬하에
습격
습격을
습윤
습지
습한
승
승강
승강기
승강기의
승강장
승강장과
승강장에
승강장으로
승강장은
승강장을
승강장의
승강장이
승객
승객을
승객이
승격
승격되었다
승격에
승격을
승격하였다
승격해
승계
승계한
승계한다
승낙
승낙을
승낙이
승단
승단했다
승려
승려가
승률
승리
승리는
승리로
승리를
승리에
승리의
승리하며
승리하면서
승리하여
승리하였다
승리한
승리한다
승리했다
승마
승무원
승부
승부를
승부조작
승부차기
승부차기에서
승상
승소
승용차
승을
승인
승인되었다
승인된
승인받은
승인에
승인을
승인의
승인이
승인하는
승인하였다
승인한
승인할
승인했다
승자
승자가
승자승
승점
승점이
승정원일기
승지
승진
승진하여
승진하였다
승진했다
승차
승차권
시
시가
시가지
시가현
시각
시각을
시각이
시각적
시각효과
시간
시간과
시간당
시간대
시간대에
시간도
시간동안
시간에
시간으로
시간은
시간을
시간의
시간이
시간이다
시간적
시간표
시게루
시경
시계
시계를
시고
시골
시공
시공사
시국
시그마
시기
시기가
시기는
시기로
시기를
시기부터
시기에
시기에는
시기였다
시기와
시기의
시기인
시까지
시나
시나노
시나리오
시나리오를
시내
시내를
시내버스
시내에
시내에서
시내의
시네마
시노부
시는
시니
시니어
시대
시대가
시대까지
시대는
시대로
시대를
시대부터
시대에
시대에는
시대에서
시대와
시대의
시대적
시도
시도가
시도는
시도를
시도하는
시도하였다
시도한
시도했다
시도했으나
시동
시드
시드니
시라이시
시라카와
시로
시를
시리아
시리아의
시리즈
시리즈가
시리즈는
시리즈로
시리즈를
시리즈에
시리즈에서
시리즈에서는
시리즈와
시리즈의
시리즈이다
시리즈인
시립
시마
시마네현
시마다
시마즈
시멘트
시모노세키
시몬
시뮬레이션
시미즈
시민
시민권
시민권을
시민단체
시민들에게
시민들은
시민들의
시민들이
시민의
시민이
시바
시바타
시방
시범
시범학교
시베리아
시보
시부야
시부터
시비
시사
시사보도
시사저널
시사한다
시상
시상식
시상식에서
시상식이다
시선
시선을
시설
시설과
시설관리자는
시설로
시설로서
시설물
시설물을
시설물의
시설에
시설에서
시설은
시설을
시설의
시설이
시설이다
시속
시스터
시스템
시스템과
시스템에
시스템에서
시스템으로
시스템은
시스템을
시스템의
시스템이
시스템이다
시신
시신은
시신을
시신이
시안
시애틀
시야를
시어도어
시어머니
시어터
시에
시에는
시에라
시에라리온
시에서
시영
시오리
시온
시와
시외버스
시우바
시원한
시월
시위
시위가
시위는
시위를
시위에
시의
시이나
시이다
시인
시인으로
시인의
시인이다
시인이자
시작
시작과
시작됐다
시작되고
시작되기
시작되는
시작되면서
시작되어
시작되었고
시작되었다
시작되었으며
시작되자
시작된
시작된다
시작될
시작으로
시작은
시작을
시작하게
시작하고
시작하기
시작하는
시작하며
시작하면
시작하면서
시작하여
시작하였고
시작하였다
시작하였으며
시작하자
시작하지
시작한
시작한다
시작할
시작해
시작해서
시작했고
시작했는데
시작했다
시작했으나
시작했으며
시작했지만
시장
시장과
시장에
시장에서
시장으로
시장은
시장을
시장의
시장이
시절
시절부터
시절에
시절에는
시절을
시절의
시절이던
시절인
시점
시점에
시점에서
시점을
시정
시정명령
시정명령을
시정을
시정조치
시정조치를
시정촌
시제
시조
시조로
시종
시중
시즈오카
시즈오카현
시즈카
시즌
시즌과
시즌까지
시즌부터
시즌에
시즌에는
시즌에서
시즌에서는
시즌으로
시즌은
시즌을
시즌의
시즌이
시즌이다
시진
시집
시집을
시책
시책을
시책의
시청
시청률
시청률과
시청률에
시청률은
시청률을
시청자
시체
시체가
시체를
시칠리아
시카고
시카고에서
시켜
시켜서
시켰다
시코쿠
시크릿
시키고
시키는
시킨
시킨다
시킬
시트
시트콤
시티
시티즌
시편
시행
시행계획
시행계획을
시행계획의
시행과
시행규칙
시행당시
시행당시의
시행되고
시행되는
시행되었다
시행된
시행될
시행령
시행에
시행으로
시행을
시행의
시행일
시행일로부터
시행일부터
시행일에
시행일이
시행일인
시행자
시행자가
시행자는
시행자의
시행전에
시행전의
시행하고
시행하기
시행하는
시행하되
시행하여야
시행하였다
시행한
시행한다
시행할
시행후
시험
시험에
시험에서
시험은
시험을
시험의
시호
시호가
시호는
시호를
시효로
시효의
시효중단의
시흥
시흥군
시흥시
식
식당
식량
식량을
식물
식물과
식물성
식물은
식물을
식물의
식물이
식물이다
식민
식민지
식민지가
식민지로
식민지를
식민지의
식별
식별할
식사
식사를
식생활
식스
식으로
식은
식을
식의
식이
식품
식품산업
식품위생법
식품을
식품의
식품의약품안전처
식품의약품안전처장
식품의약품안전처장은
식품의약품안전청장
신
신경
신경을
신경이
신고
신고가
신고는
신고된
신고를
신고서
신고서를
신고식을
신고에
신고와
신고의
신고하고
신고하는
신고하여야
신고하지
신고한
신고할
신곡
신과
신관
신구
신궁
신규
신규취항
신기록
신기록을
신기술
신기한
신나는
신년
신념
신념을
신당
신데렐라
신도
신도비
신도시
신동
신동아
신들의
신디
신라
신라가
신라는
신라를
신라에
신라와
신라의
신뢰
신뢰를
신뢰성
신뢰성을
신뢰할
신문
신문사
신문에
신문은
신문을
신문의
신문이
신민당
신발
신발을
신부
신부가
신부는
신부의
신분
신분으로
신분을
신분이
신비
신비의
신비한
신빙성이
신사
신사의
신생
신석기
신선한
신설
신설되었다
신설되었으며
신설된
신설에
신설을
신설하였다
신설한다
신성
신성한
신세가
신세계
신세기
신세를
신속
신속하게
신속하고
신속한
신속히
신시내티
신식
신씨
신안군
신앙
신앙과
신앙에
신앙을
신앙의
신앙이
신야
신약
신에
신에게
신영철
신예
신용
신용을
신용정보의
신용카드
신원
신원을
신으로
신은
신을
신의
신의성실의
신의칙에
신이
신이치
신인
신인상
신인상을
신임
신임을
신입
신입생
신자
신자가
신작
신장
신장은
신전
신정
신조
신종
신주
신주를
신주쿠
신중하게
신중한
신지
신진
신청
신청서
신청서를
신청서에
신청에
신청은
신청을
신청의
신청이
신청인
신청인에게
신청인의
신청인이
신청하거나
신청하는
신청하여
신청하여야
신청하지
신청한
신청할
신체
신체를
신체에
신체의
신체적
신축
신칸센
신탁
신탁법
신탁업자
신하
신하가
신학
신학과
신학교
신학을
신학의
신학자
신학적
신한국당
신한은행
신형
신호
신호가
신호를
신호의
신호장
신화
신화를
신화에
신화에서
신화의
신흥
싣고
실
실권을
실내
실드
실려
실력
실력을
실력이
실렸다
실로
실록
실리콘
실린
실린더
실명
실무
실무위원회의
실버
실비
실비아
실사
실상
실상은
실수
실수로
실수를
실시
실시간
실시간으로
실시계획
실시계획을
실시계획의
실시되는
실시되었다
실시된
실시를
실시사유가
실시에
실시하게
실시하고
실시하기
실시하는
실시하여
실시하여야
실시하였다
실시하지
실시한
실시한다
실시할
실시했다
실어
실업
실업률은
실었다
실연
실용적인
실은
실을
실장
실장을
실적
실적을
실적이
실전
실점
실점으로
실점을
실정에
실정이다
실제
실제로
실제로는
실제의
실제적인
실종
실종된
실종자
실질적
실질적으로
실질적으로는
실질적인
실천
실천을
실천하는
실체
실체가
실체를
실체적
실태
실태를
실태조사
실태조사를
실패
실패로
실패를
실패하고
실패하여
실패하였다
실패한
실패한다
실패했고
실패했다
실행
실행에
실행을
실행하는
실행할
실험
실험실
실험에
실험에서
실험은
실험을
실험의
실험이
실험적
실험적인
실현
실현되지
실현을
실현하기
실현하는
실현할
실형을
실효
싫어
싫어하는
싫어한다
싫은
심
심각하게
심각한
심근
심리
심리를
심리미진
심리적
심리학
심리학자
심문
심문을
심법
심사
심사를
심사에
심사위원
심사청구
심사하여
심소
심소는
심소법
심슨
심야
심어
심에서
심왕
심은
심을
심의
심의를
심의에
심의위원회
심의위원회의
심의하기
심의한다
심의회의
심이
심장
심장마비로
심장을
심장이
심지어
심지어는
심판
심판결
심판결을
심판에
심판을
심판의
심판이
심판이나
심판청구는
심판청구를
심포니
심하게
심하다
심한
심해
심히
십
십여
십자가
십자가에
십자군
싱
싱가포르
싱가포르의
싱글
싱글로
싱글은
싱글을
싱글의
싱글이
싱글이다
싱글인
싱어
싱어송라이터
싱어송라이터이다
싶다
싶다고
싶다는
싶습니다
싶어
싶어서
싶어요
싶어하는
싶었다
싶으시면
싶은
싶지
싸고
싸여
싸우게
싸우고
싸우는
싸우다
싸우다가
싸운
싸운다
싸울
싸움
싸움에
싸움에서
싸움은
싸움을
싸움이
싸워
싸웠다
싸이월드
싸인
싹이
싼
쌀
쌀을
쌍
쌍대
쌍둥이
쌍방
쌍방울
쌍방의
쌍방이
쌍을
쌍의
쌓고
쌓아
쌓았다
쌓여
쌓은
쌓인
써
써서
써야
썩
썩은
썬
썬더
썸머
썼고
썼는데
썼다
썼던
썼으며
쏘는
쏘아
쏜
쏟아져
쑥
쓰가루
쓰게
쓰고
쓰기
쓰기도
쓰나미
쓰는
쓰다
쓰던
쓰러져
쓰러진
쓰레기
쓰리
쓰며
쓰면
쓰시마
쓰여
쓰여져
쓰여진
쓰였다
쓰였던
쓰이게
쓰이고
쓰이기도
쓰이는
쓰이던
쓰이며
쓰이지
쓰인
쓰인다
쓰일
쓰지
쓰촨
쓰촨성
쓴
쓴다
쓸
쓸데없는
쓸쓸한
씨
씨가
씨네
씨는
씨를
씨앗
씨와
씨의
씩
씻고
아
아가
아가씨
아기
아기를
아까
아끼지
아나
아나운서
아나운서가
아나운서는
아나운서로
아나운서를
아나운서의
아나운서이다
아나키스트
아날로그
아내
아내가
아내는
아내로
아내를
아내에게
아내와
아내의
아내인
아냐
아놀드
아는
아니
아니고
아니기
아니나
아니냐
아니냐는
아니니
아니다
아니더라도
아니된다
아니라
아니라고
아니라는
아니라면
아니며
아니면
아니므로
아니야
아니어서
아니었고
아니었다
아니었지만
아니오
아니요
아니지만
아니하거나
아니하게
아니하고
아니하고는
아니하기로
아니하나
아니하는
아니하다
아니하다고
아니하도록
아니하리라
아니하며
아니하면
아니하므로
아니하여
아니하여도
아니하였거나
아니하였고
아니하였다
아니하였다고
아니하였을
아니한
아니한다
아니한다고
아니한다는
아니할
아니함으로써
아닌
아닌가
아닌지
아닐
아닐까
아님
아님을
아닙니다
아다치
아담
아담스
아돌프
아동
아동복지법
아동을
아동의
아드리안
아들
아들과
아들들
아들로
아들에게
아들은
아들을
아들의
아들이
아들이다
아들이며
아들이자
아들인
아라곤
아라비아
아라이
아라카와
아라한
아랍
아랍어
아랍에미리트
아래
아래는
아래로
아래를
아래서
아래에
아래에는
아래에서
아래와
아래의
아래쪽
아래쪽에
아레나
아론
아르메니아
아르메니아어
아르메니아의
아르바이트를
아르헨티나
아르헨티나는
아르헨티나의
아름다운
아름다움을
아름다워
아름답게
아름답고
아름답다
아리
아리랑
아리마
아리스토텔레스
아리스토텔레스의
아리아
아마
아마노
아마도
아마미
아마존
아마추어
아만다
아메리카
아메리카의
아메리칸
아멘
아명은
아모
아모리
아무
아무것도
아무도
아무래도
아무런
아무리
아무튼
아미
아미노산
아바타
아버지
아버지가
아버지는
아버지로
아버지를
아버지에게
아버지와
아버지의
아버지이다
아버지인
아베
아벨
아부
아부다비
아브라함
아비
아비달마구사론
아빠
아사노
아사미
아사쿠라
아사히
아산
아산시
아서
아소
아쉽게
아쉽게도
아스널
아스카
아스팔트
아시리아
아시아
아시아경제
아시아에서
아시아와
아시아의
아시아투데이
아시안
아시안게임
아시안컵
아시카가
아씨
아아
아야
아야카
아역
아연
아열대
아예
아오모리
아오모리현
아오야마
아오이
아오키
아우
아우구스트
아우디
아우르는
아울러
아웃
아워
아유미
아이
아이가
아이고
아이구
아이는
아이다
아이돌
아이돌마스터
아이들
아이들과
아이들에게
아이들은
아이들을
아이들의
아이들이
아이디는
아이디어
아이디어는
아이디어를
아이디얼
아이를
아이리스
아이린
아이비
아이스
아이스크림
아이스하키
아이슬란드
아이슬란드어
아이슬란드의
아이언
아이오와주
아이유
아이의
아이작
아이즈
아이치
아이치현
아이콘
아이템
아이템을
아이튠즈
아이티
아이패드
아이폰
아인슈타인
아인슈타인의
아일랜드
아일랜드어
아일랜드에서
아일랜드의
아저씨
아제르바이잔
아제르바이잔의
아종으로
아종이
아주
아줌마
아즈마
아즈사
아즈치모모야마
아지
아직
아직까지
아직까지도
아직도
아직은
아처
아츠
아츠시
아츠코
아치
아침
아침드라마
아침마당
아침에
아카네
아카데미
아카데미상
아카데미의
아카리
아카시
아카이브
아케메네스
아케이드
아코
아크
아키
아키라
아키모토
아키야마
아키코
아키타
아키타현
아키텍처
아키히토
아타리
아테나
아테네
아테네에서
아테네의
아트
아틀라스
아틀레티코
아틀레틱
아티스트
아파치
아파트
아파트가
아파트를
아파트에
아파트의
아편
아폴로
아프가니스탄
아프가니스탄의
아프간
아프리카
아프리카계
아프리카에
아프리카에서
아프리카의
아픈
아픔
아픔을
아핀
아홉
악
악기
악기를
악기의
악당
악마
악마의
악몽
악보
악성
악어
악영향을
악을
악의
악장
악장으로
악장은
악한
악화되어
악화되었다
악화로
안
안개
안개가
안건
안건에
안건을
안건의
안경
안경을
안고
안과
안기부
안나
안내
안내문
안녕
안녕하세요
안녕하십니까
안녕히
안다
안달루시아
안대희
안데스
안도
안동
안동시
안돼
안되는
안된다
안될
안드레
안드레스
안드레아
안드레아스
안드레이
안드로메다
안드로이드
안무
안방
안보
안산
안산시
안성
안성시
안세이
안소니
안았다
안양
안양시
안에
안에는
안에서
안에서는
안에서의
안으로
안은
안을
안의
안이
안장
안장되었다
안전
안전과
안전관리
안전관리법
안전관리에
안전성
안전성을
안전에
안전을
안전점검
안전하게
안전하고
안전한
안전행정부
안전행정부령
안전행정부장관
안전행정부장관은
안정
안정과
안정된
안정성
안정성을
안정을
안정적
안정적으로
안정적인
안젤라
안중근
안쪽
안쪽에
안쪽으로
안창호
안철수
안타
안타까운
안타를
안테나
안토니오
안톤
안티
안해
안혜
앉아
앉아서
앉았다
앉은
않거나
않게
않겠다
않겠다고
않겠다는
않고
않고는
않고도
않기
않기로
않는
않는가
않는다
않는다고
않는다는
않는다면
않는데
않다
않다가
않다고
않다는
않더라도
않던
않도록
않습니까
않습니다
않아
않아도
않아서
않아야
않아요
않았고
않았기
않았는데
않았다
않았다고
않았다는
않았다면
않았던
않았습니다
않았으나
않았으며
않았으므로
않았을
않았음을
않았지만
않으나
않으니
않으려고
않으며
않으면
않으면서
않으므로
않은
않은가
않을
않을까
않음
않음을
않자
않지만
알
알게
알고
알고도
알고리즘
알고리즘은
알고리즘을
알기
알라
알라딘
알란
알래스카
알랭
알레르기
알레산드로
알렉산더
알렉산데르
알렉산드라
알렉산드로스
알렉산드르
알렉산드리아
알렉상드르
알렉세이
알렉스
알렌
알려
알려야
알려져
알려져있다
알려졌다
알려졌으며
알려주는
알려준다
알려지게
알려지고
알려지면서
알려지지
알려진
알렸다
알루미늄
알리
알리고
알리기
알리는
알리지
알린
알릴
알림
알맞은
알면
알면서
알면서도
알바
알바니아
알바니아어
알바니아의
알버트
알베르
알베르토
알베르트
알브레히트
알선
알수가
알아
알아보기
알아볼
알아서
알아야
알아차린다
알았거나
알았다
알았다고
알았던
알은
알을
알제리
알제리의
알지
알칼리
알코올
알토
알파
알파벳
알파인
알폰소
알프레드
알프스
앓고
앓는
암
암만
암살
암살을
암석
암스테르담
암스트롱
암시하는
암시한다
암으로
암컷
암컷은
암컷이
암호
암호화
암흑
압도적으로
압도적인
압둘
압둘라
압력
압력에
압력으로
압력을
압력이
압록강
압류
압류의
압류할
압박을
압수
압축
압헤
앗
앙골라
앙드레
앙리
앙상블
앙코르
앙투안
앙헬
앞
앞두고
앞둔
앞면
앞서
앞서서
앞선
앞세워
앞에
앞에는
앞에서
앞에서는
앞으로
앞으로도
앞으로의
앞을
앞의
앞쪽
앞쪽에
애
애가
애굽
애나
애니
애니맥스
애니멀
애니메
애니메이션
애니메이션에서는
애니메이션으로
애니메이션은
애니메이션을
애니메이션의
애니메이션이
애니메이션이다
애니박스
애니원
애덤
애덤스
애를
애리조나
애리조나주
애매한
애비
애비뉴
애슐리
애스턴
애인
애정
애정을
애정의
애초에
애칭은
애틀랜타
애틀랜틱
애프터
애플
애플리케이션
애플리케이션을
애플은
애플의
액
액세스
액션
액수를
액체
액티브
액화석유가스
액화석유가스의
앤
앤더슨
앤드
앤드루
앤드류
앤디
앤서니
앨라배마주
앨런
앨리스
앨리슨
앨버트
앨범
앨범에
앨범에서
앨범으로
앨범은
앨범을
앨범의
앨범이
앨범이다
앨범인
앨프리드
앱
앱을
앳
앵커
야
야간
야간에
야구
야구단
야구를
야구부
야구선수
야구의
야구장
야당
야당의
야드
야마가타
야마가타현
야마구치
야마구치현
야마나시현
야마다
야마모토
야마시타
야마우치
야마자키
야마토
야망
야생
야생동
야생생물
야수
야스다
야스시
야외
야요이
야인시대
야쿠르트
야행성
야후
약
약간
약간의
약관
약관의
약국
약물
약물을
약사
약사법
약속
약속어음
약속을
약속한
약속했다
약수는
약을
약자
약자이다
약점을
약정
약정에
약정을
약정이
약정한
약취
약칭
약칭은
약탈
약탈을
약하게
약하고
약하다
약한
약화되었다
얀
얇게
얇은
양
양과
양국
양국은
양국의
양궁
양대
양도
양도소득세
양도에
양도하거나
양도하는
양도한
양도할
양력
양반
양벌규정
양복
양산
양산시
양상을
양성
양성에
양성을
양성자
양성하기
양성하는
양수
양수인
양수인이
양수한
양승태
양식
양식에
양식으로
양식은
양식을
양식의
양식이
양심에
양심의
양심적
양양
양양군
양에
양육
양으로
양은
양을
양의
양이
양자
양자가
양자로
양자를
양자의
양적
양주
양주군
양주시
양지
양질의
양쪽
양쪽에
양쪽의
양천구
양측
양측의
양파
양평
양평군
양호한
얕은
얘
얘기를
어
어게인
어근
어긋나는
어기고
어깨
어깨를
어깨에
어느
어느날
어느덧
어느정도
어니스트
어도비
어두운
어둠
어둠의
어둡고
어드벤처
어디
어디까지나
어디로
어디를
어디서
어디서나
어디에
어디에도
어딘가
어떠한
어떤
어떻게
어떻게든
어려서
어려서부터
어려우므로
어려운
어려울
어려움
어려움을
어려움이
어려워
어려웠다
어렵게
어렵고
어렵다
어렵다고
어렵다는
어렵지
어렸을
어뢰
어류
어른
어른이
어리석은
어린
어린이
어린이가
어린이들이
어린이를
어린이의
어린이집
어릴
어머니
어머니가
어머니는
어머니를
어머니에게
어머니와
어머니의
어머니인
어메이징
어미
어미가
어바웃
어벤져스
어서
어선
어선의
어스
어업
어업에
어업을
어업의
어울려
어울리는
어울리지
어워드
어워드에서
어워즈
어원
어원은
어웨이
어음
어음을
어음의
어이
어제
어조로
어진
어째
어째서
어쨌든
어쩌다
어쩌면
어쩐지
어쩔
어찌
어찌하여
어찌할
어차피
어촌
어촌정주어항으로
어쿠스틱
어항이다
어휘
억
억양
억원
억원에
억원으로
억원을
억원의
억제
억제하고
억제하는
억지로
언
언급
언급되는
언급되어
언급되었다
언급된
언급된다
언급이
언급하고
언급하는
언급하며
언급하였다
언급하지
언급한
언급한다
언급했다
언니
언더
언더그라운드
언덕
언덕에
언덕을
언론
언론과
언론사
언론에
언론에서
언론은
언론을
언론의
언론인
언어
언어가
언어는
언어로
언어를
언어에
언어에서
언어와
언어의
언어이다
언어적
언어학
언제
언제나
언제든지
언젠가
얻거나
얻게
얻고
얻고자
얻기
얻는
얻는다
얻어
얻어서
얻어야
얻어지는
얻어진
얻었고
얻었다
얻었으며
얻으며
얻은
얻을
얻지
얼
얼굴
얼굴과
얼굴로
얼굴에
얼굴에는
얼굴은
얼굴을
얼굴의
얼굴이
얼른
얼마
얼마나
얼마든지
얼스터
얼음
얼음이
얼터너티브
얼티밋
얼핏
얽힌
엄격하게
엄격한
엄격히
엄마
엄마가
엄마는
엄마를
엄마와
엄마의
엄밀한
엄밀히
엄중한
엄청나게
엄청난
업
업계
업고
업그레이드
업데이트
업데이트를
업로드
업무
업무가
업무는
업무로
업무를
업무상
업무수행에
업무수행을
업무에
업무와
업무의
업무정지
업시
업으로
업을
업적은
업적을
업종
업체
업체가
업체의
업체이다
업체인
없
없거나
없게
없고
없기
없는
없는데
없다
없다고
없다는
없다며
없다면
없더라도
없던
없도록
없소
없습니다
없애고
없애기
없애는
없어
없어도
없어서
없어야
없어요
없어졌다
없어지고
없어진
없었고
없었기
없었는데
없었다
없었다고
없었다는
없었던
없었습니다
없었으나
없었으며
없었으므로
없었을
없었지만
없으나
없으니
없으며
없으면
없으므로
없을
없음
없음에도
없음을
없음이
없읍니다
없이
없이는
없이도
없지
없지만
엇디
엇지
었다
엉덩이
엉뚱한
엎드려
에
에게
에게는
에게서
에그
에너지
에너지가
에너지는
에너지로
에너지를
에너지와
에너지의
에는
에다
에도
에드
에드거
에드먼드
에드워드
에드워즈
에드윈
에든버러
에디
에디션
에런
에른스트
에리
에리카
에리코
에리크
에리히
에릭
에릭슨
에린
에마
에만
에미
에밀
에밀리
에바
에반게리온
에반스
에볼라
에브리원
에서
에서는
에서도
에서만
에서부터
에서의
에선
에세이
에스컬레이터
에스토니아
에스토니아어
에스토니아의
에스파냐
에스파냐의
에스페란토
에어
에어로
에어로시티
에어버스
에이
에이미
에이벡스
에이브러햄
에이스
에이전트
에이즈
에이지
에이프릴
에일리언
에코
에콰도르
에티오피아
에티오피아의
에피소드
에피소드가
에피소드는
에피소드를
에피소드에서
[...]
