!
"
#
##0
##1
##10
##11
##12
##13
##14
##15
##16
##17
##18
##19
##2
##20
##21
##22
##23
##24
##25
##26
##27
##28
##29
##3
##30
##31
##32
##33
##34
##35
##36
##37
##38
##39
##4
##40
##41
##42
##43
##44
##45
##46
##47
##48
##49
##5
##50
##51
##52
##53
##54
##55
##56
##57
##58
##59
##6
##60
##61
##62
##63
##64
##65
##66
##67
##68
##69
##7
##70
##71
##72
##73
##74
##75
##76
##77
##78
##79
##8
##80
##81
##82
##83
##84
##85
##86
##87
##88
##89
##9
##90
##91
##92
##93
##94
##95
##96
##97
##98
##99
$
%
&
'
(
)
*
+
,
-
.
/
0
00
000
0000
0001
0003
0004
001
002
005
006
007
01
011
02
022
024
03
033
0399
04
05
050
051
054
055
06
07
08
09
093
1
10
100
1000
1001
1005
1006
1007
1008
1009
101
1011
1012
1013
1016
1017
1018
1019
102
1020
1021
1022
1023
1024
1025
1026
1027
1028
1029
103
1030
1031
1032
1033
1034
1035
1036
1037
1038
104
1040
1042
1043
1044
1045
1046
1048
1049
105
1050
1051
1055
1056
1058
1059
106
1060
1061
1064
1066
1068
107
1070
1071
1072
1073
1077
1078
1079
108
1080
1085
1086
1087
109
1090
1091
1092
1093
1094
1095
1096
1097
11
110
1100
1102
1103
1104
1105
1108
1109
111
1111
1112
1118
112
1120
1124
1126
1127
1128
113
11322
1135
1136
1138
114
1147
115
1151
1153
1154
1155
1157
1158
116
1162
1165
1166
1169
117
1171
1176
1179
118
1180
1183
1185
1187
119
1192
1193
1194
1198
12
120
1200
1201
1203
1204
1205
1206
1207
1208
1209
121
1210
1211
1212
1213
1215
122
1220
1221
1223
1224
1227
1229
123
1230
1231
1234
1236
1237
1238
1239
124
1240
1241
1242
1243
1245
1246
125
1250
1251
1253
1255
1256
1257
1258
1259
126
1260
1261
1264
1265
1266
127
1270
1273
1274
1275
1277
1279
128
1281
1282
1283
1284
1285
1286
1287
1288
1289
129
1290
1291
1292
1294
1295
1296
1297
1298
1299
13
130
1300
1302
1303
1304
1305
1306
1307
1309
131
1310
1311
1312
1313
1315
1316
1317
1319
132
1320
1321
1325
1326
1327
1328
133
1330
1331
1332
1333
1334
1335
1336
1337
1339
134
1340
1341
1342
1343
1346
1347
1348
1349
135
1350
1351
1352
1355
1356
1358
1359
136
1360
1362
1364
1365
1366
1368
1369
137
1371
1372
1373
1374
1375
1377
138
1380
1383
1385
1386
1388
1389
139
1390
1391
1392
1393
1394
1395
1396
1398
14
140
1400
1401
1402
1403
1404
1405
1407
1408
141
1413
1414
1415
1416
1417
1418
1419
142
1420
1421
1423
1426
1428
1429
143
1431
1435
1436
1438
1439
144
1442
1443
1444
1445
1446
1447
1448
1449
145
1450
1451
1452
1453
1454
1455
1456
1458
1459
146
1460
1461
1462
1463
1464
1465
1466
1467
1468
1469
147
1470
1473
1474
1475
1476
1477
1478
1479
148
1480
1481
1483
1485
1487
1489
149
1490
1491
1492
1493
1494
1495
1496
1497
1498
1499
15
150
1500
1501
1502
1503
1504
1505
1506
1507
1508
1509
151
1510
1511
1512
1513
1514
1515
1516
1517
1518
1519
152
1520
1521
1522
1523
1525
1526
1527
1528
1529
153
1530
1531
1532
1533
1534
1535
1536
1537
1538
1539
154
1540
1541
1542
1543
1544
1545
1546
1547
1548
1549
155
1550
1552
1553
1554
1555
1556
1557
1558
156
1560
1561
1562
1564
1565
1566
1567
1569
157
1570
1571
1572
1573
1574
1575
1576
1577
1578
1579
158
1580
1581
1582
1583
1584
1585
1586
1587
1588
1589
159
1590
1591
1592
1593
1594
1595
1596
1597
1598
1599
16
160
1600
1601
1602
1603
1604
1605
1606
1607
1608
1609
161
1610
1611
1612
1613
1614
1615
1616
1617
1618
1619
162
1620
1621
1622
1623
1624
1625
1626
1627
1628
1629
163
1630
1631
1632
1633
1634
1635
1636
1637
1638
1639
164
1640
1641
1642
1643
1644
1645
1646
1647
1648
1649
165
1650
1651
1653
1654
1655
1656
1657
1658
1659
166
1660
1661
1662
1663
1664
1665
1666
1667
1668
1669
167
1670
1671
1672
1673
1674
1675
1676
1677
1678
1679
168
1680
1681
1682
1683
1684
1685
1686
1687
1688
169
1690
1691
1692
1693
1694
1695
1696
1697
1698
1699
17
170
1700
1701
1702
1703
1704
1705
1706
1707
1708
1709
171
1710
1711
1712
1713
1714
1715
1716
1717
1718
1719
172
1720
1721
1723
1724
1725
1726
1727
1728
1729
173
1730
1731
1732
17323628
1733
1734
1735
1736
1737
1738
1739
174
1740
1741
1742
1743
1744
1745
1746
1747
1748
1749
175
1750
1751
1752
1753
1754
1755
1756
1757
1758
1759
176
1760
1761
1762
1763
1764
1765
1766
1767
1768
1769
177
1770
1771
1772
1773
1774
1775
1776
1777
1778
1779
178
1780
1781
1782
1783
1784
1785
1786
1787
1788
1789
179
1790
1791
1792
1793
1794
1795
1796
1797
1798
1799
18
180
1800
1801
1802
1803
1804
1805
1806
1807
1808
1809
181
1810
1811
1812
1813
1814
1815
1816
1817
1818
1819
182
1820
1821
1822
1823
1824
1825
1826
1827
1828
1829
183
1830
1831
1832
1833
1834
1835
1836
1837
1838
1839
184
1840
1841
1842
1843
1844
1845
1846
1847
1848
1849
185
1850
1851
1852
1853
1854
1855
1856
1857
1858
1859
186
1860
1861
1862
1863
1864
1865
1866
1867
1868
1869
187
1870
1871
1872
1873
1874
1875
1876
1877
1878
1879
188
1880
1881
1882
1883
1884
1885
1886
1887
1888
1889
189
1890
1891
1892
1893
1894
1895
1896
1897
1898
1899
19
190
1900
1901
1902
1903
1904
1905
1906
1907
1908
1909
191
1910
1911
1912
1913
1914
1915
1916
1917
1918
1919
192
1920
1921
1922
1923
1924
1925
1926
1927
1928
1929
193
1930
1931
1932
1933
1934
1935
1936
1937
1938
1939
194
1940
1941
1942
1943
1944
1945
1946
1947
1948
1949
195
1950
1951
1952
1953
1954
1955
1956
1957
1958
1959
196
1960
1961
1962
1963
1964
1965
1966
1967
1968
1969
197
1970
1971
1972
1973
1974
1975
1976
1977
1978
1979
198
1980
1981
1982
1983
1984
1985
1986
1987
1988
1989
199
1990
1991
1992
1993
1994
1995
1996
1997
1998
1999
2
20
200
2000
2001
2002
2003
2004
2005
2006
2007
2008
2009
201
2010
2011
20110817121929
2012
2013
2014
2015
2016
2017
20170508180917
2018
2019
202
2020
20201031225452
2021
2022
2023
2025
203
2030
204
205
2050
206
207
2077
208
209
2095
2096
2097
2098
2099
21
210
2100
2101
2102
2103
2108
211
2110
2111
2112
2113
2114
2117
2118
2119
212
2120
2121
2122
2123
2124
2125
2126
2128
2129
213
2130
2131
2132
2133
2135
2136
2137
2138
214
2140
2141
2142
2143
2144
2145
2146
2147
2148
215
2150
2151
2158
216
2160
2163
2164
2167
217
2170
2173
218
2180
2185
219
2190
2191
2192
2195
2199
22
220
2200
2207
221
2219
222
2225
223
2233
224
2242
2243
225
2250
226
2265
2266
227
2273
2275
2276
2277
2278
2279
228
2280
2282
2283
2285
2288
2289
229
2293
2296
2298
23
230
2300
2305
2307
2308
231
2315
232
2320
2321
233
2332
2334
2337
2338
234
2342
2345
2347
2348
235
2353
2359
236
2364
2369
237
2378
238
2382597
2382613
239
24
240
2400
241
242
243
244
2442
245
2457
246
247
248
249
25
250
2500
251
252
253
254
255
2550
256
257
258
259
26
260
2600
261
262
2626
263
2630
2633
2636
264
265
266
2660
267
2670
268
269
27
270
271
272
273
274
275
2759
276
277
278
279
28
280
281
2810
2817
282
283
2838
284
285
286
287
288
2884
2885
289
2893
29
290
291
292
293
294
2940
295
296
2969
297
298
299
3
30
300
3000
3001
301
3012
302
303
3032
304
305
306
307
308
309
31
310
311
312
313
3132
314
315
316
3166
317
318
319
32
320
321
322
3224
323
324
325
326
327
328
329
33
330
3300
331
332
3329
333
334
335
3350
3355
336
337
3379
338
339
3399854
34
340
3404
341
342
343
344
3441
345
346
347
348
349
35
350
3500
351
352
3520
353
354
3541
355
356
357
358
359
36
360
3600
3602
361
362
363
364
365
366
367
368
369
3694
37
370
371
372
373
374
375
376
377
378
379
38
380
381
382
3821
383
384
385
386
387
3877
388
389
39
390
391
3911
392
393
394
3942
395
396
397
398
39816686
399
3999
4
40
400
4000
4004
401
402
4021
4027
403
404
4045
4046
4047
405
4051
406
4060
4067
407
408
409
41
410
4108
411
412
4124
4128
413
414
4145
415
4150
4152
416
417
418
4187
419
4191
4192
42
420
421
4211
4217
4219
422
423
424
425
4252
426
427
4274
4276
428
4286
4288
429
43
430
4305
431
4319
432
433
434
4346
4348
435
436
437
438
4385
439
44
440
441
442
4425
443
444
4440
445
4454
446
447
4473
448
449
4496
45
450
4500
451
452
453
4537
454
455
4557
456
4563
4567
457
458
4587
459
4593
46
460
461
462
463
4639
464
4644
465
4653
4654
466
467
468
4684
4689
469
4694
47
470
4700
471
472
4724
473
474
4745
475
476
4763
477
478
4780
479
48
480
4803
481
482
483
484
485
486
487
488
489
49
490
491
492
493
494
495
4958
496
497
498
499
5
50
500
5000
501
502
5029
503
504
505
506
5064
507
508
509
5092
51
510
511
512
513
514
515
5151
5152
5157
516
517
518
519
52
520
521
522
5235
524
5247
525
526
527
528
529
53
530
531
532
533
534
535
536
537
538
539
54
540
541
5419
542
5421
5424
543
544
545
5450
546
547
5472
548
549
5491
55
550
5500
551
5511
552
553
554
555
556
557
558
559
56
560
561
562
5625
563
5631
564
5642
565
566
5665
567
568
569
57
570
5702
571
572
5727
573
574
575
5752
576
5760
5777
578
5780
579
58
580
581
582
583
584
585
586
587
588
5880
5888
589
59
590
591
5916
592
593
594
595
596
597
5970
598
599
6
60
600
6000
601
602
603
604
6040
6041
6043
605
606
607
608
609
61
610
611
6117
612
6128
613
6131
6134
614
615
616
617
6173
618
619
62
620
621
622
623
6235
624
625
626
627
6274
6278
628
6280
629
6296
6299
63
630
6300
631
632
6325
633
634
635
6355
636
637
638
639
6398
64
640
6400
641
642
643
644
645
646
647
648
6482
649
65
650
6504
652
653
654
655
656
657
658
6582
659
66
660
661
662
6625
663
665
6657
666
667
668
669
67
670
6702
671
672
6722
673
6736
674
675
676
677
678
679
68
680
681
682
683
684
685
686
6863
6864
687
688
689
69
690
691
692
693
694
695
696
697
698
699
7
70
700
7000
7002
7007
701
702
703
704
705
706
707
708
709
7090
71
710
7102
711
712
7120
713
7139
7143
715
7156
716
717
718
719
7190
72
720
721
722
7224
723
724
725
726
7267
727
7278
728
729
73
730
731
7315
733
734
735
736
7369
737
738
739
7391
74
740
741
742
7425
743
744
745
746
747
7475
7479
748
749
75
750
751
752
753
7546
756
758
759
7599
76
760
7607
761
762
7649
765
7655
766
767
768
769
77
770
7700
771
7710
772
773
774
775
7755
776
777
778
779
7794
7795
78
780
7800
781
7818
7819
782
7820
7821
7823
783
7830
784
7840
785
786
787
788
789
79
790
791
7914
792
793
794
795
796
797
798
799
8
80
800
801
802
803
804
805
806
807
808
809
81
810
811
812
813
814
815
816
817
818
819
82
820
821
822
823
824
825
826
827
828
829
83
830
831
832
833
834
835
836
837
838
839
84
840
841
842
843
844
845
846
848
849
85
850
851
853
854
855
856
857
858
86
860
861
862
863
864
865
867
868
869
87
870
871
872
873
874
876
877
878
879
88
880
881
882
883
884
886
887
889
89
890
891
892
893
894
895
896
897
899
9
90
900
901
902
903
904
905
906
907
908
909
91
910
911
912
913
914
915
916
917
918
919
92
920
921
922
923
924
925
926
927
928
929
93
930
931
932
933
934
935
936
937
938
939
94
940
940997
941
942
942735
943
944
945
946
947
948
949
95
950
951
952
953
954
955
956
958
959
96
960
962
963
964
965
966
967
968
969
97
970
971
972
972069
973
974
975
976
977
978
979
98
980
981
982
983
984
985
986
987
988
989
99
990
991
992
994
995
996
997
998
999
99918
:
;
<
=
>
?
@
[
\
]
^
_
`
a
aa
aachen
aalborg
aarhus
aaron
aat
ab
aba
abacur
abad
abadi
abainville
aban
abas
abasan
abaucourt
abba
abbaretz
abbas
abbaye
abbe
abbey
abc
abd
abdal
abdali
abdest
abdi
abdu
abdul
abdullah
abdurrahman
abdusamet
abe
abeba
abegondo
abel
abelmoschus
aberdeen
abey
abgeordnete
abi
abidin
abiego
abiye
abizanda
able
ableuvenettes
ablon
aboncourt
abone
aboqat
about
above
abraham
abreschviller
abstract
abu
abur
abused
abıre
abıriyayo
abıriyayıs
abıriye
abırnene
abırneno
abırriya
abırriyao
abırriyay
abırriyayıs
abırriye
abırriyene
abırriyeno
abırriyo
ac
aca
academia
academic
academy
accept
acceptable
accepted
access
accessdate
accessed
according
account
accounts
accreditations
ace
acentey
acetosa
acha
achain
ache
achebe
acheminement
ackdeals
acontista
acqueville
acromantis
across
act
acta
actes
action
actions
active
activities
actor
actress
actually
acı
ad
ada
adahuesca
adakl
adako
adalet
adam
adams
adana
adanalı
adaptasyon
adaptasyonan
adaptasyoni
adaptasyono
adapte
adaptiv
adar
adare
adari
adası
adatepe
add
added
additional
address
ade
adelange
adelbertkiye
adele
adelphi
adem
ademi
ademuz
adeo
adet
adete
adey
adeyan
adeyane
adeye
adeyi
adeyo
adhe
adi
adil
adile
adir
adis
adiyaman
adları
adler
admin
administration
administrator
administrators
adnan
adnksdb
ado
adolf
adompt
ador
adresa
adrese
adrian
adriyatik
adult
adventure
adventures
adı
adıgeki
adım
adını
adır
adıre
adıri
adıro
adıyla
ae
af
afacan
afak
aferin
aferiyao
aferiyayıs
afet
afeto
affairs
affet
affiliate
affle
affracourt
afganistan
afghan
afghanistan
afis
afluents
africa
african
afrika
afrikaanki
afrikanski
afrikao
afrikay
afrikaya
afrikayıc
afriqa
afro
afs
aftab
after
afyonkarahisar
afyonkarahisaria
afzelius
ag
again
against
age
agency
agerayisi
ageyra
ageyreno
agnan
agnat
agnes
agnostik
agnostisizm
ago
agolada
agon
agree
agricola
agriculture
agro
agu
aguas
aguiar
aguilera
agusti
agutiy
ah
ahan
ahane
ahani
ahar
ahatlı
ahe
ahi
ahin
ahini
ahiyan
ahmad
ahmed
ahmet
ahname
aho
ahriye
ahu
ahuille
ahura
ai
aid
aidan
aide
aids
aielo
aignan
aigne
aigrefeuille
aigues
aiguillon
ail
aile
ailesi
ailey
aileye
aillianville
aillie
ain
aincreville
aingeray
aingeville
aini
ainiya
ainvelle
air
airan
airane
aire
aires
airi
airo
airou
airport
ais
aise
aisha
aisne
aisney
aisneya
aisneyo
ait
aitona
aix
aj
ajac
ajam
ajda
ajol
ak
aka
akademi
akademik
akademiki
akademiko
akademisyen
akademisyenan
akademisyeno
akademiya
akademiye
akadki
akal
akalın
akan
akar
akarsu
akbal
akc
akdag
akdeniz
akdog
akene
akeno
akerd
akerde
akerdene
akerdeyo
akerdo
akerdıs
akere
akero
akhisar
akhisaria
aki
akif
akkaya
akmak
akman
ako
akp
akpy
akpınar
akra
akrag
akrep
aks
aksiyon
aksoy
aksu
aktarla
aktas
akti
aktif
aktor
aktore
aktoro
aktris
aktrisa
aktrise
akustik
akyurt
akın
akır
al
ala
alabama
aladin
alaeddin
alaigne
alain
alaincourt
alairac
alakw
alamanki
alamedilla
alan
alani
alanya
alaplıya
alaqua
alar
alas
alaska
alastre
alba
albaida
albal
albalat
albalate
alban
albanchez
albany
albas
albay
albaze
albe
albelda
alberic
albero
albert
alberta
albertaya
alberto
albie
albigny
albolote
albon
albondo
alborache
alboraya
albu
album
albumane
albume
albumi
albumo
albums
albun
alca
alcala
alcampell
alcanadre
alcarra
alchemy
alco
alcofea
alcolea
alcu
alcubierre
ald
aldaia
aldeire
aldu
aldus
ale
alef
alejandro
aleksandr
alem
alembert
aleme
alemi
alessandro
alet
aletane
alete
aleto
aleutki
alev
alevi
alex
alexa
alexain
alexander
alexandre
alexi
alexis
aleyrac
alf
alfa
alfabe
alfabeo
alfabey
alfabeya
alfabeye
alfabeyo
alfacar
alfafar
alfara
alfarp
alfarrasi
alfauir
alfe
alfonso
alfred
alfredo
algemesi
alginet
alguaire
alhama
alhendi
ali
alias
alice
align
aligne
alim
aliman
alime
alins
aliquippa
alis
alive
alixan
aliya
aliye
aljarafe
alkerdıs
alkol
alkoli
all
alla
allagnon
allah
allahaısmarladık
allain
allamont
allamps
allan
allariz
allarmont
alle
allen
allentown
alles
alleux
allex
alleyras
alliance
allibaudie
allier
allieri
allieriya
allieriyo
allma
allmovie
allmusic
allondrelle
allonne
allonnes
allow
allthesky
ally
allı
alm
alma
almacelles
almak
alman
almana
almanan
almani
almanki
almankiye
almankiyo
almano
almanya
almanyao
almanyay
almanyaya
almanyayo
almaty
almisera
almoines
almost
almude
almunia
almuniente
almussafes
alone
along
alp
alpaka
alpan
alparslan
alper
alpes
alpesi
alpha
alphabet
alphonse
alpi
alpko
alpuente
alpujarra
alque
alqueria
alquife
already
als
alsace
alse
also
alsophila
alsting
alt
alta
altan
altas
altay
alternatif
although
alto
altocumulus
altostratus
altrippe
altun
altviller
altı
altın
altında
altınmes
alu
alucra
alucraya
alunc
always
alzette
alzing
alzira
alzonne
alı
alıc
alık
alım
alıme
alımi
alın
alınc
alıs
am
ama
amade
amadeus
amaene
amak
aman
amance
amand
amanda
amani
amans
amantis
amanty
amanvillers
amar
amardıs
amare
amari
amariyao
amariyayo
amariyena
amariyene
amariyeno
amaro
amasya
amasyaya
amayıs
amazing
amazon
amazoni
amba
ambacourt
ambaze
amber
ambere
amberi
ambero
ambi
ambly
ambrie
amca
ame
amel
ameles
amelot
ameo
amerdi
ameri
america
american
americans
amerigo
amerika
amerikaa
amerikae
amerikan
amerikana
amerikanan
amerikane
amerikani
amerikano
amerikao
amerikay
amerikaya
amerikaye
amerikayo
amerikayıc
amerikayıca
amerikayıco
ames
amey
ameya
ameye
ameyenda
ameyene
ameyi
ameyo
ameyıs
amezule
amfreville
amharki
ami
amia
amigny
amigos
amil
amillis
amin
amir
amirabad
amiri
amis
amiya
amiye
amlıbel
amlıdere
amlıhems
amlık
ammad
amman
amnan
amnane
amnani
amnania
amnano
amne
amnesty
amnon
amo
amoeiro
among
amont
amor
amora
amordıs
amore
amoreno
amori
amorphoscelis
amos
amour
amp
ampanya
ampiyon
ampiyone
ampiyoneya
ampiyoniya
ampiyoniye
ampoigne
amponville
amre
amsterdam
amsterdami
amu
amune
amurland
amy
amygdaloides
an
ana
anadoli
anadoliya
anadoliye
anadolu
anagrama
anak
anakc
anakkale
anakonda
anal
analitik
analiz
analize
analizo
analysis
anan
anane
anars
anatoli
anatolicus
anatoliya
anatoliye
anatomiye
anaxqele
anaxqeleya
anay
anayene
anayenı
anayi
anbe
anca
ancak
ancax
ance
ancemont
ancena
ancene
ancenis
anceno
ancerville
ancerviller
ances
anchor
anci
ancia
ancient
ancinnes
anciya
anciyao
anciyay
anciyaya
anciyayo
anciyene
ancteville
anctoville
ancy
ancılar
and
anda
andaluci
andancette
ande
andelot
anderberg
anderny
anders
andersen
anderson
andi
andilla
andilly
andin
andorra
andouille
andran
andre
andrea
andreas
andreja
andrew
andrews
andrey
andrezel
andromeda
andronikos
andrzej
andu
andy
ane
anene
aneno
aney
aneya
ang
ange
angel
angela
angeles
angelesi
angelina
angelo
angels
angers
anges
angle
anglemont
anglesola
anglo
angola
angomont
angot
angoville
angu
angus
anhalt
ani
anille
animal
animals
animasyoni
animasyonio
animasyoniye
animated
animation
anita
aniya
aniye
aniyo
anjir
anjou
anka
ankara
ankaya
ankus
anlar
anlat
anlı
anlıurfa
ann
anna
annake
anne
annem
annet
anneville
anneyron
anni
annie
announcement
announcing
annoville
annual
ano
anoia
anoiaya
another
anould
anoux
anqara
anqıriye
ans
ansauville
anselme
ansi
anso
answer
answers
ant
anta
antakya
antalya
antalyaya
antarktika
antas
ante
antella
antena
antene
antenı
anthelupt
anthemis
anthenaise
anthology
anthony
anti
antigua
antik
antikan
antike
antiki
antile
antilly
antinous
antinousi
antiques
anto
antofagasta
antoine
antoloji
antolojiye
anton
antonio
antropolociye
antugnac
antwerp
antıs
anu
anxaneya
anxaneye
anxure
any
anyan
anyani
anyone
anything
anzeling
anıka
anıkan
anıke
anıs
anıstan
anıstani
anıstanio
ao
aog
aou
aouste
aouze
ap
apa
apan
apance
apart
apartman
ape
apec
apece
apeci
apertura
apkerdis
apkerdıs
apkın
aplicacions
apo
apollo
apologies
apologize
appeville
apple
apply
appreciate
approach
apremont
april
aptal
apur
apuri
apus
apxaney
aq
aqe
aqi
aqil
aqseraiye
aqserayiya
aqserayiye
aqıl
aqıle
aqıli
ar
ara
arab
arabe
arabi
arabia
arabic
arabica
arago
aragon
aragoni
aragonki
aragorn
aragua
aral
aralıg
aralık
aram
aramaic
aramki
aran
arance
arande
arane
aranga
arano
arap
ararati
aras
arash
arasında
araules
arazi
arbigny
arbonne
arbor
arc
arcantin
arcantini
arce
arches
archettes
archimantis
architecture
archive
archived
archives
arcis
arcons
arconville
arcos
arctan
ard
arda
ardahan
arde
ardenay
ardene
ardennes
ardennesi
ardennesiya
ardenı
ardes
ardi
ardo
ardune
ardıc
ardıs
are
area
areas
arebe
arede
arekıji
arekız
arena
arenas
arente
areq
arequipa
ares
areste
aret
arete
areti
arey
areye
areyıcan
arez
areze
arezekerdıs
arezey
arezeye
arg
arganc
argancy
argas
argeliers
argentie
argenton
argentre
argonne
argos
arguman
argumano
argument
arguments
ari
aria
arica
arie
ariel
arif
aristofanes
aristoteles
aritmetik
ariya
ariyan
ariye
ariyo
arizona
arjona
ark
arka
arkadas
arkansas
arken
arkeolociye
arki
arktik
arkı
arkılar
arkıları
arkın
arkıs
arkısı
arlanc
arlempdes
arlet
armag
armainvilliers
arman
armandon
arme
armeni
armenian
armentie
armeteya
arms
armstrong
army
armıx
arn
arna
arnaene
arnage
arnao
arnaud
arnaville
arnawudiye
arnawudki
arnayenı
arnayi
arnayon
arnayıs
arne
arnene
arneno
arniyay
arno
arnoia
arnold
arnor
aro
aroffe
aron
around
arousa
arpavon
arquenay
arques
arquettes
arracourt
arraincourt
arrancy
arras
arraye
arrelles
arrente
arrentie
arresti
arriance
arroyo
arry
ars
arseme
arsenal
arsiv
arslan
arsonval
art
artaut
arte
artes
arthe
arthenay
artheze
arthur
article
articlerender
articles
artid
artificial
artigues
artins
artist
artists
artois
arts
arturo
artvin
artvini
artık
aru
arville
arwan
arwe
arwey
arya
aryan
arzens
arzobispo
arzon
arzu
arı
arıs
arıstan
arıstane
arıstani
as
asa
asaf
asan
asano
asansor
asatrian
asaye
asayene
asayıs
ase
asen
asena
asene
aseno
asfalt
asfalta
ash
asher
ashley
asi
asia
asiab
asian
asimilasyon
asimilasyoni
asimilasyono
asimile
asimilekerdıs
asistane
asiye
ask
asked
asker
askeri
askmen
asla
aslan
aslaniya
aslı
asm
asma
asme
asmen
asmi
asnaw
asnawkerdıs
asnawkeri
asnie
asp
aspa
aspach
aspar
aspare
aspx
ass
asse
assenay
assencie
assenoncourt
assisted
association
assume
ast
astana
astare
aste
astille
astor
astore
astrofoto
astrolociye
astronaut
astronom
astronoman
astronomi
astronomiye
astronomo
asu
asuman
asur
asuran
asuri
asuriyan
asurki
asya
asyao
asyay
asyaya
asyayıc
ası
asım
asın
asıne
asıni
at
ata
atak
atako
atarfe
atas
atasoy
atatu
atay
ate
ateist
ateistan
ateiste
ateisti
ateisto
ateizm
ateizmi
ates
athe
atheism
atheist
athienville
athletic
ati
atilla
atina
atlanta
atlantik
atlantiki
atlantikio
atlantikiya
atlantique
atlantis
atlas
atle
atletizm
atlı
atom
atomi
atomic
atro
atropurpurea
atsız
attack
attacks
attar
attempt
attention
attigne
attigny
attila
attilly
atton
atv
atı
atıf
atıs
au
auban
aubazat
aube
aubea
aubenasson
aubepierre
aubert
aubeterre
aubey
aubeya
aubigne
aubigny
aubin
auboue
aubre
aubres
aucelon
auckland
aude
audea
audey
audeya
audio
audouville
audun
auf
aufferville
aug
augers
augny
august
augustin
augustus
aujon
aulan
aulde
aulnay
aulnois
aulnoy
ault
aulx
aumont
aumontzey
aumur
aunat
aurac
aurec
aurel
auriac
auriples
auroure
aurouze
aus
austin
australia
australian
australya
australyaya
australyayo
austremoine
austrone
austurya
aut
autainville
auteyrac
author
authors
autigny
autise
auto
autobiography
automatically
autre
autrepierre
autreville
autrey
autumn
auve
auvergne
auverne
auvers
auville
aux
auxon
auzainvilliers
auze
auzon
av
ava
available
aval
avanki
avant
avare
ave
avenel
aver
averages
averdon
avere
averi
avers
averton
avery
avesnes
avesse
avesta
avia
avicii
avie
avijit
avillers
avio
avioth
avirey
avit
avni
avocourt
avoise
avold
avon
avrainville
avranches
avranchin
avranville
avreuil
avricourt
avril
avrupa
avs
avuc
avukat
avus
avustralya
aw
awa
awan
awane
awankerdıs
award
awards
away
awaye
awda
awdar
awe
aweno
awi
awk
awka
awke
awo
awranc
awre
awres
awrupa
awrupi
awı
awıka
awıke
awın
awıstralya
awıstırya
awıte
awıto
ax
axa
axat
axe
axi
axrete
axure
axır
axıri
ay
aya
ayak
ayakta
ayam
ayan
ayas
ayasofya
ayat
aybag
ayc
aycumaya
ayda
aydemir
aydog
aydoilles
aydın
aydıni
aydıniya
aydınlar
aye
ayene
ayerbe
ayet
ayeta
ayetan
ayete
ayeti
aygu
ayhan
ayi
ayko
ayle
aylin
ayn
ayna
aynur
aynure
aynı
ayo
ayora
ayra
ayre
ayrı
ayrılık
ays
aysel
ayten
ayvacık
ayı
ayır
ayıs
az
azad
azade
azadeo
azadi
azali
azannes
azanuy
azarpe
aze
azel
azelot
azerailles
azerbaycan
azerbaycane
azerbaycani
azeri
azerki
azeville
azi
azic
azille
aziz
azmin
azminada
azois
azoudange
azteki
b
ba
baa
bab
baba
babacan
babalar
babam
babamın
baban
babası
babay
babe
babek
babel
babet
babeta
babete
babeti
babi
babil
babili
babilonki
babo
babu
baby
bacar
bacare
bacari
bacaro
baccarat
bace
bach
bachot
bacilly
back
background
bacon
baconnie
bad
badawi
bade
baden
badens
badi
badme
bado
badonviller
badonvilliers
bae
baeza
baffe
bag
bages
bagesiya
baggins
bagh
bagimsiz
bagneaux
bagneux
bagnoles
baha
bahadır
bahama
bahar
bahc
bahde
bahdo
bahdoye
bahman
bahram
bahs
bahse
bahtiyar
baile
bailey
bailleul
baillon
baillou
bailly
bailo
bains
bainville
baiona
bais
baix
bajare
bajari
bajas
bajo
bak
bakanlıg
baker
baki
bakr
bakteriyan
bakı
bakıs
bal
bala
balabanıci
balan
balc
baldwin
bale
baleine
baleira
balf
bali
balignicourt
balina
balis
balisna
balkan
balkani
ball
balle
ballobar
ballon
ballots
balloy
bally
balnot
balta
baltiki
baltimore
baltıstan
balzac
balıkesir
balıkesiri
balıs
bamako
bambi
bambiderstroff
ban
bana
banan
banasta
banco
band
bande
bandıra
bane
bang
bangkok
bani
bank
banka
bankası
banks
bannay
banner
bannes
bannoncourt
bannost
bano
banqa
banqay
bantheville
bantia
bao
baptiste
baqıl
baqılo
baqır
bar
bara
barack
baraigne
baraj
barakovic
baralla
baran
barbada
barbados
barbaira
barbara
barbas
barbastro
barbe
barbera
barberey
barbey
barbie
barbizon
barbonville
barboure
barbue
barbuise
barca
barcelona
barchain
barco
barcy
bard
bardaji
bardakc
barde
bardoux
bare
barenton
baret
barges
bari
barisey
barker
barnardi
barnave
barneville
baro
baroches
baron
baroncourt
baronnies
baronville
baroville
barre
barret
barrio
barro
barrois
barrou
barry
barsac
barse
barselona
barst
barthe
bartomeu
bartın
bartıni
barut
barville
barx
barxeta
barzani
barıs
bas
basa
basat
base
baseball
based
basel
basic
basit
basketball
basketbol
basketboli
basketboliyo
baski
baskı
basle
baslemont
baslieux
bass
basse
basset
bassevelle
bassigny
bastien
bastille
basım
basın
bat
bates
bath
bathele
bathernay
batilly
batman
batmani
bator
battexey
battigny
battista
battle
battles
batum
batur
batı
baud
baudelaire
baudelle
baudigne
baudouin
baudre
baudrecourt
baudreville
baudricourt
bauer
baule
baulny
baume
baupte
bauptois
baussant
bauzemont
bauzy
bava
bavyera
bawer
baweri
baweriya
baweriye
bawerkerdog
bawerkerdıs
baxc
baxse
baxterki
bay
bayan
bayar
bayat
bayburt
baydar
bayecourt
bayel
bayern
bayezid
baykal
bayon
bayonville
bayram
bayramı
baz
baza
bazailles
bazar
bazare
bazari
bazaro
baze
bazegney
bazeilles
bazen
bazi
bazien
bazincourt
bazoches
bazoge
bazoges
bazoilles
bazouge
bazougers
bazouges
bazı
bb
bbc
bbco
bbcyo
bc
bcml
bd
bdp
be
beach
bear
beariz
bears
beas
beast
beat
beatles
beatport
beaubourg
beauce
beauchamps
beauche
beauchery
beauclair
beaucoudray
beaufay
beauficel
beaufort
beaufremont
beauharnais
beaulieu
beaume
beaumont
beaune
beaupre
beauregard
beaurie
beausemblant
beausite
beautheil
beautiful
beauty
beauvilliers
beauvoir
beauvoisin
beaux
beauzac
beauzire
bebek
bec
because
becerrea
becerro
beciya
beciyo
beck
becker
beckett
become
beda
bedel
bedele
bedeli
beden
bedene
bedeni
bedexs
bedford
bedi
bedirxan
bedirxani
bedmar
bedri
bedu
been
beethoven
before
beg
began
bege
begi
begin
beginning
begne
bego
begonte
begun
behai
behalf
behavior
behc
behind
behonne
behram
behramog
behren
behreyn
behs
behse
behzat
beille
being
bek
beka
bekc
beki
bekir
bekle
bektas
bekır
bel
bela
belarus
belaruski
belc
belcaire
belcastel
belde
beldey
bele
belediya
belediyane
belediyay
belediyaya
belediye
belediyesi
belediyey
belekvor
belen
belflou
belfort
belgeard
belgesel
belgrad
beli
beliefs
believe
belin
beliyo
belize
belki
belkia
bell
bella
belle
belleau
bellecombe
bellefontaine
bellegarde
belleray
belles
belleville
bellevue
belli
bellot
bellpuig
bellreguard
bellvi
belmont
belo
belpech
belrain
belrupt
beluc
belucan
beluci
belucki
belucıstan
belval
belve
belver
belvianes
belvis
belvitte
beme
ben
bena
benabarre
benage
benaguasil
benalu
benamaurel
benasque
benatae
benaudalla
benavent
bend
bende
benden
bendi
bene
benedict
benedicta
benedictus
beneixida
beneluxi
benet
benevento
beney
bengal
bengali
bengalki
benglades
beni
beniarjo
benifaio
benifairo
benifla
beniga
benim
benimodo
benin
benito
benjamin
bennett
benney
beno
benoi
benoist
benoit
benoite
benson
benth
benu
benz
beorn
ber
bera
beran
berbegal
berbena
berberi
berberki
berbezit
bercenay
berd
berda
berde
berdene
berdenı
berdi
berdo
berdus
berdıs
bere
bereket
bereketi
berenicesi
berfay
berg
berga
bergama
bergantin
berge
bergen
berger
bergir
bergman
bergondo
bergu
bergueda
beri
berkeley
berli
berlin
berlini
berliniya
bern
bernard
bernay
berne
bernhard
bernhardt
bernon
bero
berry
bersviller
bert
berthele
berthevin
bertignolles
bertin
bertolt
bertrambois
bertrand
bertrichamps
bertrimoutier
berviller
berxudar
berxwedana
berya
berz
berza
berzan
berzbiyayıs
berze
berzi
berziya
berziye
berzo
bes
bese
besene
besneville
beso
besora
bessay
besse
besseyre
bessy
best
beste
bestekar
bestekare
bestekaro
bestey
bestiyao
bestiyayo
bestiyayıs
bestiyene
bestiyeno
bestog
bet
beta
betanzos
beth
bethlehem
beton
bettainvillers
bettange
bettegney
better
betting
bettoncourt
between
beugne
beulay
beurey
beurville
beuveille
beuvezin
beuvrigny
beuvron
beux
beuzeville
bevern
beville
bewne
bewran
bexs
bexte
bextey
bextiyar
bextıyari
bey
beyan
beyanname
beyannamey
beyaz
beygi
beynelminel
beynost
beyog
beyonce
beyond
beypazarı
beyrut
beys
beyt
beyti
beytullahim
bez
beza
bezalles
bezange
bezaumont
bezole
bezonvaux
bf
bg
bi
bia
bianet
biare
biaro
bias
bibe
biber
bibi
bibiche
bible
bibliografiye
bibliography
bibliyografiye
bibliyografyası
bibo
bibsys
bic
bice
bicorp
bicqueley
bid
bide
biden
biding
bidli
bie
bieb
bien
biencourt
bienville
bierge
bierne
biescas
biez
biffontaine
big
bignon
bigot
bigottie
bigourdani
bihar
bihe
bije
bikero
bikis
bila
bilal
bilbaoyi
bilbo
bile
bilecik
bileciki
bilge
bilgi
bilgiler
bilim
bill
billboard
billboardurlbyname
billy
bilxasa
bime
bin
bina
binaced
binan
binane
binani
binas
binay
bine
bing
bingard
bingo
bingol
bingoli
bingolkenthaber
binh
bini
binie
binio
biniville
biniye
bino
bint
binti
binu
binı
bio
biografien
biografiye
biography
biol
biolib
biology
bion
bionville
bir
bira
biraye
biraz
bird
bire
biri
birinci
birkac
birkan
birles
birlig
birlikte
birmingham
biro
birol
birth
bis
bisaurri
biseksuel
bisel
bisheh
bishop
bisle
bissau
bisten
bistin
bistroff
bit
bitche
bitcoin
bitkileri
biy
biya
biyaena
biyaene
biyaina
biyaine
biyais
biyara
biyare
biyaro
biyaye
biyayen
biyayena
biyayenda
biyayene
biyayenı
biyayis
biyayıs
biye
biyene
biyi
biyo
biyog
biyografi
biyografiye
biyolociya
biyolociye
biyolog
biyu
biz
bizanet
bizans
bizansi
bize
bizi
bizim
biʝɑ
bjo
bla
black
blackberry
blackwell
blacons
blain
blaincourt
blainville
blaise
blaiseron
blaisy
blake
blanc
blanche
blancos
blancrupt
blandouet
blandy
blange
blanze
blassac
blau
blavozy
ble
blecua
blercourt
bles
blesle
bleu
bleurville
blevaincourt
blignicourt
bligny
blin
blind
block
blocked
blocking
blog
blogs
blogspot
blois
bloke
blomac
blood
blosville
blouette
bloutie
blu
blue
blues
bm
bn
bne
bnf
bni
bo
boa
board
boat
bob
bobby
bobcat
bobora
boc
bocage
boccaccio
boccoli
bocquegney
bodrum
body
boe
boeing
bog
boglan
boglani
bogota
bohon
boi
boimorto
boingt
boinville
bois
boisbena
boisdon
boiseau
boismont
boisne
boisroger
boiss
boisseau
boisset
boissie
boissise
boissy
boisyvon
boitron
boko
bol
bola
bold
bole
boli
bolivya
bolki
bolle
bolleville
bolo
bolonya
boltan
bolton
bolu
boluya
bom
bomba
bombanayıs
bombay
bombon
bomer
bon
bonan
bonchamp
boncourt
boncuk
bond
bone
boneh
bonfays
bonfosse
boni
bonifatius
bonlieu
bonn
bonne
bonnet
bonneval
bonneveau
bonneville
bonnie
bonnœuvre
bono
bonobo
bonrepo
bonu
bonviller
bonvillers
bonvillet
bonze
boo
book
bookdesign
books
booty
boqueixo
bor
bora
borau
borbe
borc
borde
bordeaux
border
bordes
bordette
bore
borges
borgore
boris
born
borne
bornm
boro
borough
borowski
borsa
borsao
borsayo
borussia
borville
bos
bosna
bosnian
bossancourt
bosse
bossenay
bossery
bostan
bostanan
bostane
bostani
boston
bot
bota
botanik
bote
both
boti
bots
botswana
bottereau
bottom
bouaye
bouchamps
boucheporn
bouchet
bouchon
bouconville
boucq
boue
bouessay
bouffry
bougligny
bouguenais
bouildroux
bouilhonnac
bouillant
bouille
bouillonville
bouilly
bouin
bouisse
boulages
boulaincourt
boulay
boulc
bouleurs
bouligny
boulogne
bouloire
boulzane
boupe
bouquemont
bouranton
bourbon
bourdeaux
bourdenay
boureuilles
bourg
bourgneuf
bourgon
bourgonce
bourguignons
bourgvalle
bourie
bourigeole
bourneau
bournoncle
bourron
boursay
bousquet
bousse
boustroff
boutenac
boutigny
boutteville
bouvante
bouvie
bouvron
bouxie
bouxurulles
bouy
bouzancourt
bouzanville
bouzemont
bouzonville
bove
bover
boviolles
bowie
box
boxofficemojo
boy
boya
boyax
boye
boyle
boys
boyut
boz
bozkurt
bozorg
bpn
br
bra
brabant
brac
brad
bradford
bradley
bradon
bragelogne
brahim
brahimi
brain
brains
brainville
bralleville
bram
branch
brandegee
brandenburg
brandenburgi
brandeville
brando
brandon
braniki
branki
brankiyo
brans
brantigny
branville
braquis
bras
brasi
bratislava
bratislawa
bratte
braults
braunschweig
brauvilliers
braux
brave
bray
braye
brazil
bre
break
brece
brechainville
brecht
breil
breisgau
bremen
bremer
bremervo
bremond
bren
brenac
brenon
brescia
bresse
brest
bretagne
bretonki
bretonnie
brette
bretteville
brettnach
breuil
breuvannes
breuville
breux
brevipennis
brexit
brezilya
brezilyayo
brezilyayıco
brian
brice
bricquebec
bricquebosq
bricqueville
bridge
brie
brief
briel
brienne
brieulles
briey
brieyiya
brighton
brigitte
brignon
brill
brillant
brillecourt
brillet
brillevast
brillon
brillouet
brin
bring
brio
briola
briosne
brioude
brisette
bristol
britannica
britanya
britanyao
britanyaya
british
brives
brivet
brix
brixey
brizeaux
brno
broadcast
broadway
brocourt
broingt
brollo
bromance
bron
bronte
bronx
bronze
brooke
brooklyn
brooklyni
brooks
brosse
brother
brothers
broto
brou
brouains
brouck
brouderdorff
brouennes
brousses
broussey
brouvelieures
brouville
brown
bru
bruce
bruche
brucheville
bruder
brue
brugairolles
bruisse
bruksel
brulange
bruley
brullo
bruney
bruni
bruno
brunswick
brunswickiya
bruville
bruye
bruyns
bryan
bryn
bs
bu
buais
buat
bubio
buc
bucak
bucey
buch
buchanan
buche
buchy
buck
buda
budapes
budapest
buddha
buddy
budizm
buenos
buffalo
buffigny
bug
bugarach
bugarra
bugey
bugu
buhari
buhl
build
building
buis
buissoncourt
bukowski
bukres
bul
bulanık
bulg
bulgne
bull
bulligny
bult
bulunmaktadır
bulus
bulut
bun
bundesrat
bundestag
bundesversammlung
bunny
bunu
bunya
burak
burcu
burcy
burdur
burduriya
bure
bureau
bures
buret
burey
burgas
buri
buriville
burke
burkina
burning
burns
buro
burro
bursa
bursaya
burt
burthecourt
burton
burun
burundi
bus
busan
bush
business
busloup
busqui
buss
bussang
bussie
bussy
buster
but
buthiers
butler
butt
buttant
buttavent
butto
button
buxeuil
buxie
buy
buyer
buyuk
buz
buzy
bvev
bwv
by
bı
bıanco
bıbe
bıbiye
bıbo
bıbırne
bıbıyaye
bıc
bıce
bıcıwo
bıda
bıde
bıdlis
bıdlisi
bıdo
bıers
bıfino
bıge
bıgire
bıgiro
bıje
bık
bıke
bıkera
bıkerde
bıkere
bıkeri
bıkerime
bıkeriyo
bıkero
bıkewe
bıkewo
bıko
bıkıri
bıkıs
bıle
bılxu
bımane
bımano
bımbarek
bımocne
bımuse
bımuso
bımıro
bın
bına
bıncınse
bınde
bındest
bındı
bıne
bınge
bıngehe
bıngehi
bıngruba
bıni
bınmıntıqay
bınus
bınuse
bınusiyo
bınusne
bınusno
bınuso
bıpawo
bıqimet
bıqu
bır
bıra
bırae
bırak
bırame
bıramo
bıray
bırayan
bırayane
bıraye
bıre
bırese
bıresno
bıreso
bırna
bırnaene
bırnaye
bırnayıs
bırne
bırnene
bırneno
bırniyeno
bırno
bıros
bırr
bırre
bırri
bırriya
bırriyayo
bırriyo
bırusne
bırıs
bıs
bıterse
bıve
bıveciyo
bıves
bıvine
bıvino
bıvurne
bıvurno
bıvıraziyo
bıvırne
bıvırno
bıvıziyo
bıwane
bıwano
bıwaze
bıwazo
bıyaye
bıyayıs
bıyo
bız
bıza
bızan
bızane
bızano
bıze
bızi
bızıke
bœuf
bɑ
c
ca
caa
cab
cabarde
cabardes
cabezas
cable
cabra
cabrerisse
cabrespine
cabu
caci
cade
cado
cadı
cae
caesar
cafer
cag
cahil
cahit
cahuzac
cailhau
cailhavel
cailla
caille
cailles
cailloux
calahorra
calais
calaisi
calaisiya
calamothespis
calan
calanor
calasanz
calatrava
calcio
caldas
caldelas
calendar
calez
cali
california
call
called
calonne
caluire
calvin
cam
camayka
cambernon
cambieure
cambil
cambre
cambridge
came
camelle
cameo
camerd
camerdi
cameron
cametours
cami
camille
camiy
camiya
camiye
camp
campagna
campagne
campbell
campbon
campillo
camplong
campo
camprond
camps
camurac
camus
can
cana
canada
canadian
canal
canals
canan
canaria
canche
candan
cande
candidates
candy
cane
caner
canet
canfranc
cani
canisy
canlı
canne
cannes
cannot
cans
cant
cantal
cantali
cantaliya
cantaliyo
cantic
canto
canville
canım
cao
cap
capavenir
cape
capela
capella
capelle
capendu
capileira
capital
capo
cappel
capreolus
captain
capua
car
carantilly
carballeda
carballedo
carballin
carballo
carcaixent
carcassonne
card
cardela
care
carelle
carelles
carentan
carey
caribbean
carissimi
carl
carlet
carling
carlipa
carlo
carlos
carmen
carmona
caro
carol
carolina
caroline
carpenter
carquebut
carquefou
carr
carral
carrie
carro
carrois
carroll
carson
cartel
cartelle
carter
carteret
carterocephalus
cartoons
casa
casas
casbas
cascastel
case
cases
casino
cassaigne
cassaignes
cassereau
cast
castejo
castelflorite
castellar
castellnou
castello
castellonet
castelmaure
castelnau
castelnaudary
castelreng
castigaleu
castille
castillo
castillonroy
castle
castrelo
castril
castro
castroverde
casus
cat
catadau
catalogue
catalunya
catarroja
catasigerpes
categories
category
catherine
catholic
cats
catteville
catz
caudebronde
caudete
caudeval
caunes
caunette
caunettes
causseville
caux
cava
cavanac
cave
caverde
caves
cavigny
cavirac
caweno
cawki
cawıtıs
cay
cayan
cayande
cayane
caye
caygehe
caygey
caygeye
cayi
cayo
cayres
caz
cazalilla
cazalla
cazalrenoux
cazi
cazorla
cb
cbr
cbs
cc
cctld
cd
cdot
cdu
ce
cea
cebreiro
ceci
ceffonds
cefo
ceheneme
ceintrey
cek
cel
celadet
celal
celali
celanova
celebrity
celebs
celil
celin
cell
celland
celle
celles
cellettes
cellier
cello
celosia
cem
cemaet
cemaete
cemaeti
cemal
cemat
cemate
cemati
cematki
cemato
ceme
cemed
cemede
cemedi
cemi
cemil
cemile
cemiyet
cemiyete
cemiyeti
cems
cen
cena
cenderme
cene
cenet
cenete
ceneti
ceng
cengan
cenge
cengi
cengiz
cengo
ceni
cenika
cenilly
ceniy
ceniya
ceniyan
ceniye
cenlle
cenne
cennet
ceno
cenova
census
censuses
cent
centelles
center
central
centralis
centre
centro
century
cenub
cenube
cenubi
cenıka
cenıke
cer
cerceda
cerda
cerdido
cerisy
cermenki
cermenkiye
cermenkiyo
cerneux
cerrebi
certification
certilleux
cervantes
cervera
cerville
cervo
cerzat
cesaret
cesse
cesson
cessoy
cesur
cesuras
cet
cetwel
cevat
cevdet
ceviz
cew
cewab
cey
ceyhan
ceylan
ceyran
ceyssac
ceza
cezais
cezay
cezaya
cezayir
cezayiri
cf
cfiv
cfm
cga
cgi
ch
cha
chabeuil
chabreuges
chabrillan
chacenay
chad
chadrac
chadron
chaffal
chah
chahaignes
chahar
chailland
chaille
chailles
chaillon
chailly
chaini
chaintreaux
chaise
chal
chalabre
chalaines
chalamera
chalancon
chalaronne
chalautre
chale
chalencon
chalette
chalifert
chaligny
challes
chalmaison
chalon
cham
chamaesyce
chamagne
chamalie
chamaloc
chamaret
chamberlain
chambley
chambon
chambord
chambres
chambry
chamigny
chammes
chamoy
champ
champagnac
champagne
champcenest
champclause
champdeuil
champdray
champe
champeaux
champenoux
champey
champfleur
champfleury
champfre
champgene
champgillon
champigneulles
champignol
champigny
champlon
champneuville
champougny
champrepus
champrond
champs
champsevraine
chan
chance
chandrexa
changchun
change
changed
changes
changing
changis
chaniat
channel
chanoines
chantada
chanteloup
chantemerle
chantenay
chanteraine
chantereine
chanteuges
chanteurs
chantraine
chantrigne
chaouilley
chaource
chapelle
chapelles
chapitre
chaplin
chapman
chappes
chapter
chapteuil
characters
charb
charbonnie
charce
charchigne
chard
chardogne
charency
charens
charensac
charey
charic
charlemagne
charles
charleville
charlie
charlotte
charly
charmentray
charmes
charmois
charmont
charmoy
charnie
charny
charols
charpentry
charpey
charpieu
charraix
chart
chartre
chartrettes
chartronges
charts
chase
chaserey
chasnais
chaspinhac
chaspuzac
chassagnes
chasseguey
chassenon
chassey
chassieu
chassille
chastel
chat
chatenay
chatonrupt
chattancourt
chatuzange
chauchigny
chauconin
chaudebonne
chaudeney
chaudie
chaudrey
chauffecourt
chauffour
chauffry
chaufour
chaulieu
chaumes
chaumesnil
chaumont
chaumousey
chausse
chaussy
chauvac
chauvency
chauvigny
chauvoncourt
chavagnes
chavaignes
chavanges
chavaniac
chavannes
chavelot
chavigny
chavoy
chazelles
chazes
che
cheb
check
chef
cheffois
chefresne
chella
chelle
chelles
chelsea
cheltenham
chelva
chemaze
chemere
chemin
chemines
cheminot
chemire
chemnitz
chenar
chenay
chengdu
chenicourt
chenie
chenime
chennegy
chenoise
cheppy
cher
chera
cherbourg
cheri
cherio
cheriya
chermisey
cherre
cherreau
chervey
cheshmeh
chesley
chesny
chessy
cheste
chester
chevaigne
chevallerais
cheverny
cheville
chevillon
chevis
chevrainvilliers
chevreuil
chevrolie
chevru
chevry
cheya
chez
chi
chicago
chicken
chicks
chiclana
chicourt
chief
chiers
chieulles
child
children
chile
chilhac
chilly
chimbote
chimeneas
chimillas
chin
china
chinese
chinua
chiov
chipotte
chitenay
chiva
chocolate
choice
choisy
choloy
chomelix
chomette
chongqing
chonville
chouboulains
choue
choussy
chouzy
chp
chpy
chris
christ
christensen
christian
christianity
christina
christine
christmas
christoph
christophe
christopher
chrshan
chrysomantis
chuck
chulilla
church
churriana
chy
ci
cia
cibrao
cibuti
cicero
cici
cicourt
cid
cidde
cie
cierges
cige
cigera
cigere
cigne
cihan
cihanan
cihane
cihangir
cihani
cihanie
cihano
cijuela
cild
cile
cilt
cimıneya
cin
cinayet
cinca
cincinnati
cine
cinema
cines
cini
cinii
cinika
cinike
cins
cira
ciran
ciranane
cirane
cirano
circle
circourt
cirey
cirfontaines
cirgues
cirrocumulus
cirrus
cisse
cistrie
citation
cite
cities
citroe
city
ciudad
cius
civak
civake
civilization
ciwi
ciya
ciye
ciyo
ck
cken
cl
claids
claims
clair
claire
clairefontaine
clance
clansayes
claon
clara
clarence
clark
clarke
class
classic
classical
classics
classification
clastre
clat
claude
claudia
claudius
claudon
clausura
claveyson
claye
clayeures
clayton
cle
clear
clefcy
clefmont
clemens
clercs
clerjus
clermont
cleurie
cleuves
cleveland
click
clifford
climate
clint
clinton
cliousclat
clisson
clitourps
clive
clocher
clonville
clos
close
cloucq
cloud
clouds
cloye
club
clubsuit
cluj
cluk
cluse
cm
cn
cnn
cnnturk
co
coach
coast
cobonne
cocherel
cocheren
coclois
cocourt
code
codmun
codmunmapa
cody
cofrentes
cog
cogners
cogollos
cohade
cohen
coiffy
coigny
coin
coinches
coincourt
coincy
coiro
coka
cokao
coke
coku
col
cola
colbegin
cold
cole
colegio
coleman
colemerge
colend
coles
colin
collat
colle
collected
collection
collections
college
colligny
collins
collonges
colmar
colmen
colmey
colmier
colmont
colo
colomban
colombe
colombey
colombia
colombiers
colomby
colomera
colonel
colonial
color
colorado
colour
colroy
columbia
columbus
column
com
comba
combault
combles
combovin
combres
combrimont
combs
come
comedy
comes
comi
comic
coming
commanderie
comment
commentary
commentator
comments
commer
commercy
commercyiya
commerveil
committee
common
commons
commonwealth
commoy
commune
communications
communities
community
como
companion
compans
company
comparative
compare
compass
competition
complete
complex
composer
compostela
comps
compsothespis
comptal
computer
comte
comtessa
comteya
comteyo
con
conan
concelles
concepcio
concerning
concerns
concert
concerto
conches
concise
concriers
conde
condillac
condorcet
conduct
confessions
confirmemail
conflans
conge
congica
congis
congress
congrier
conilhac
conlie
connangles
conne
connect
connecticut
connection
connerre
conques
conquesta
conrad
cons
consenvoye
consider
considered
conso
constant
constantine
constellations
construction
contact
contains
contensor
content
contents
contest
context
contilly
continental
continue
contra
contres
contrexe
contribute
contributions
contrie
contrisson
controis
control
controversy
conversation
conversations
conway
cook
cooking
cool
cooper
coordinate
cop
copa
copelandi
copy
coq
coquet
coquimboyi
cor
cora
corail
corbas
corbera
corbie
corbin
corbins
corcelles
corcieux
corcoue
cordemais
core
corey
corgo
cori
coristanco
cork
corleone
cormenon
cormeray
cormes
cormost
corneille
cornelius
cornell
cornella
cornillac
cornillane
cornillon
cornimont
corny
coro
corona
corpain
corpe
corporation
corps
corpus
correct
cortegada
cortes
coru
corun
corın
cos
cosdon
cosme
cosmes
cosnes
cospeito
coss
cosse
cossigny
cosson
costa
costean
costera
cot
coteaux
cotentin
cotes
cotobade
cottbus
cotton
couat
coubert
coubon
coucy
couddes
coudeville
coudons
coudrais
coudray
coudrecieux
coue
couesmes
couffe
couffoulens
couffy
couilly
couiza
coulamer
coulanges
coulans
could
coulombiers
coulombs
coulommes
coulommiers
coulonge
coulouvray
coume
coun
council
counozouls
countries
country
counts
county
couptrain
coupvray
cour
courbesseaux
courbeveille
courbouzon
courcebœufs
courcelles
courcemont
courceriers
courceroy
courchamp
courcillon
courcite
courcival
courcy
courdault
courdemanche
courel
courgains
courgenard
courmemin
courouvre
courpalay
courquetaine
cours
coursan
course
court
courtacon
courtaoult
courtauly
courte
courtenot
courteranges
courteron
courti
courtillers
courtomer
courtry
cousances
coussegrey
coussey
coustaussa
coustouge
coutais
coutances
coutenc
couteuges
coutevroult
couture
couvains
couverte
couvertpuis
couvignon
couville
couvonges
couzon
covelo
coventry
cover
covid
cox
coy
coyviller
coz
cr
craig
crainvilliers
cramayel
crancey
crannes
crantenoy
craon
craonnaise
craponne
crash
crasville
crawford
crazy
cre
cream
create
created
creating
creation
creative
crecente
credits
cremers
creney
crennes
creobroter
cresnays
crespy
crest
cretteville
creutzwald
creux
crime
crimes
criminal
crin
crion
cris
crisenoy
crisse
cristina
cristo
cristovo
critical
critique
croisances
croise
croismare
croissy
croix
croizat
crollon
cronce
cropte
crosmie
cross
crossac
crouves
crouy
crowe
crown
crozes
cruces
crucheray
crupies
cruscades
crusne
cruz
cry
crystal
cs
csc
cseligman
css
ct
cu
cualedro
cuba
cubelles
cuceyan
cucharmoy
cuche
cucumber
cuenca
cuevas
cuille
cuire
cuisy
cullera
culleredo
cully
cultural
culture
cultures
cum
cuma
cumartesi
cumhure
cumhuri
cumhuriya
cumhuriyet
cumhuriyeta
cumhuriyete
cumhuriyeti
cumhuriyeto
cumie
cumla
cumle
cumley
cummings
cumulonimbus
cumulus
cumure
cuneata
cunel
cunfin
cuntis
cup
cure
cures
curey
curie
curis
curnier
current
currently
curtis
cussac
cussangy
custines
cutry
cuves
cuvry
cuwa
cuwiyayıs
cuxac
cuya
cuzco
cv
cy
cyr
cyrus
cz
cı
cıg
cıgeyraog
cıgeyrayog
cıgeyrayıs
cıhud
cıhudan
cıhudane
cıhudano
cıhude
cıhudi
cıhudiya
cıhudiye
cıhudki
cıhudo
cıkene
cıkeno
cıkewtıs
cıl
cılan
cıle
cın
cınayenı
cınayete
cınde
cındeyan
cıne
cınene
cıneno
cıneti
cıneye
cıni
cıniya
cıniye
cıns
cınsan
cınsane
cınse
cınsi
cınsiyetan
cınsiyete
cınsiyeti
cınsiyeto
cınso
cınya
cınıs
cınıte
cıra
cırakerdıs
cırao
cırayo
cıre
cıresayıs
cıresnayıs
cırestıs
cırm
cısmane
cısme
cısım
cısımane
cısıme
cıt
cıte
cıwab
cıwame
cıwan
cıwani
cıwe
cıwiyay
cıwiyayıs
cıwiye
cıwiyena
cıwiyene
cıwiyeni
cıwiyeno
cıwiyo
cıya
cıyakerdıs
cıye
cıyi
cıyo
cœur
d
da
dabanc
dabi
dabo
daco
dad
dade
dadi
dae
daene
dag
daglar
dagne
dagny
dagonville
daha
dahfan
dahfı
dahil
dai
daily
dailymail
daim
daima
daimi
daimler
dainville
daisy
daki
dakika
dakota
dakotay
dal
dalaman
dalem
dali
dalian
dallas
dam
dama
damas
damat
damblain
dame
damelevie
dames
damla
damloup
dammarie
dammartin
damn
damon
dampierre
dampmart
dampvitoux
damvillers
dan
dana
dance
dancing
dane
danger
dangerous
dangeul
dangy
dani
daniel
daniki
danimarka
danimarkaya
danime
danis
danish
daniyeno
danki
dannevoux
danny
dano
dans
danse
dansi
danso
dante
danugı
danuria
danze
danıs
dao
daon
daqar
dar
dara
daran
darbe
darbey
darby
dard
darde
dardilly
dare
dareyan
dareye
dari
darino
darius
dariya
dariyo
dark
darkness
darling
darmont
darmstadt
darney
darnieulles
daro
darog
darreh
darro
daru
darvault
darwin
darwini
darı
darıstan
darıto
das
dasein
dasht
dasyprocta
dat
data
database
datanova
dataset
date
dates
daugavpils
daughter
davası
dave
davejean
david
davies
davis
davist
davrey
davut
davutog
dawa
daway
dawete
dawkins
dawn
dawson
day
daya
daye
dayen
dayena
dayene
dayenı
dayeye
dayi
dayis
dayiya
dayiye
dayo
days
dayı
dayıs
db
dc
dcc
dd
de
dead
deadline
dean
dear
death
debare
debarey
debi
debiyayıs
dec
dece
december
decision
ded
dede
dedeog
dedi
dedza
deep
def
defa
defansi
default
defined
definition
deftere
defteri
deg
degli
degmesi
degre
deh
deha
dehak
dehaki
dehana
dehault
dehesas
dehnow
dei
deinvillers
deist
deizm
dej
dek
deki
del
dela
delali
delame
delami
delaware
dele
delete
deleted
deletion
delg
delhi
delhiyo
deli
delil
delile
delivered
delivery
dell
della
delle
delouze
deloy
dels
delta
deltoidea
delut
delıl
dem
demane
demange
demas
demavendi
demde
deme
demet
demi
demir
demirci
demirciler
demirel
demiro
demirtas
demo
democracy
demografi
demokrasi
demokrasia
demokrasiya
demokrasiye
demokrasiyo
demokrat
demokrate
demokrati
demokratik
demokratike
demokratiki
den
denaze
dendıke
dene
deneuvre
deng
denge
dengız
denipaire
denis
deniz
denizli
denizliya
denneville
dennis
dent
dentata
denting
denver
denıs
deo
department
deployment
depo
depp
deqa
deqiqeyo
der
dera
deraz
derba
derbamont
derbı
derd
derde
dere
derece
derecey
derek
dereko
dereli
dereza
derg
derga
dergan
derge
dergi
dergisi
dergiya
dergiye
dergo
dergran
derheq
derheqa
derheqde
derheqe
deri
derje
derki
derman
dernacueillette
derneg
dero
deron
deroplatys
derrie
ders
dersa
dersane
derse
dersi
dersim
dersimi
dersimıc
dersımi
dert
dertli
deru
derval
dervis
derwe
derya
deryae
deryao
deryawan
deryay
deryaye
deryayo
des
desges
design
desire
desmala
desmale
desseling
dest
desta
destan
destana
destande
destane
destanı
deste
desteg
destege
destek
desti
destnus
desto
destord
destpe
destry
destur
destı
desına
desıne
det
detail
details
detay
detroit
deutsch
deutsche
deutschland
deux
deuxville
dev
deva
devam
devant
deve
develop
development
devil
devlet
devlete
devleti
devon
devrekiya
devrim
dew
dewa
dewam
dewame
dewan
dewande
dewane
dewar
dewari
dewda
dewe
dewi
dewizio
dewle
dewlemend
dewlet
dewleta
dewletan
dewletane
dewlete
dewleti
dewletiyo
dewleto
dewr
dewran
dewre
dewres
dewri
dewro
dewu
dewı
dewıcan
dewıce
dewıci
dewıj
dewıjan
dewıji
dewıjon
dey
deya
deycimont
deye
deyi
deyira
deyire
deyirvac
deyirvaca
deyirvaco
deylem
deylemi
deyn
deyne
deyo
deyr
deyra
deyran
deyrane
deyre
deyri
deyrnus
deyrvac
deyrvaca
deyrvaco
deyvillers
deyıre
dez
deza
dezge
dezgehe
dezgey
df
dhuisy
dhuizon
dhuys
di
dia
diagrami
dialect
dialects
dialekt
dialekte
diamond
diamonds
diana
diane
diant
dianthus
diar
diaries
diarville
diary
dicaprio
dich
dick
dicle
dicley
dictionary
did
diderot
didier
didn
didnt
die
diebling
diego
dienstag
dienville
dieppe
dierrey
dies
diesen
dieu
dieue
dieulefit
dieulouard
dieuze
diezma
diffembach
difference
different
difficult
dig
diger
digital
digne
dignonville
digosville
digulleville
dijon
dik
dike
dikenli
dikmen
diksıle
dil
dilaver
dilberay
dile
dilek
dili
diller
dilleri
dillon
dilsiz
dim
dima
dime
dimili
dimilki
dimli
din
dina
dinan
dinane
dinar
dinc
dindar
dine
ding
dini
dinio
diniyo
dinle
dino
dinoze
dinozoran
dinter
dinu
dinya
dio
diois
dion
diplomatic
diq
diqet
dir
diray
dire
direct
directed
directly
director
direk
direkt
direktor
direktore
direktoro
direnis
dirilis
dirty
dis
disco
discography
discogs
discovery
discuss
discussion
discussions
disjunctive
disk
diski
diskografiya
diskografiye
diskriminasyon
disney
disneyi
disorders
display
displaystyle
dissais
dissay
disse
distributed
distribution
district
districts
dit
ditions
diva
divajeu
divan
divatte
diversity
divri
diwan
diwane
diy
diya
diyaene
diyagrami
diyalekt
diyalektane
diyalekte
diyalekti
diyalekto
diyalog
diyanet
diyar
diyarbakir
diyarbakır
diyarbekir
diyarbekiri
diyarbekır
diyarbekıri
diyarbekıria
diyarbekırı
diyare
diyayene
diyayıs
diye
diyene
diyeno
diyine
diyo
diyojen
diz
dizayn
dizi
dizier
dizisi
dj
dki
dna
do
doc
docelles
docs
doctor
document
documentacatholicaomnia
documentary
documentation
documents
dod
dodinicourt
dodro
does
doesn
dog
dogan
dogneville
dogs
doi
doing
doix
doki
doktor
doktora
doktoran
doktore
doktoro
doktrine
dokumane
dokunma
dokuz
dol
dola
dolaincourt
dolaison
dolancourt
dolar
dolare
dolari
dolas
dolcourt
dollon
dolores
dolu
dolım
dolımi
dom
domain
domaines
domains
doman
domanan
domanane
domanano
domane
domani
domaniya
domanu
dombasle
dombras
dombrot
dome
domen
domenico
domeyrat
domfaing
domfront
domgermain
domi
dominant
domingo
dominic
dominika
dominiki
dominique
domjean
domjevin
domjulien
dommarie
dommartemont
dommartin
dommary
domnena
domone
dompaire
dompcevrin
dompierre
domprix
domptail
domre
domremy
domvallier
don
donald
donat
donation
donazac
doncie
doncourt
done
donetsk
dong
donges
doni
donna
donne
donnemarie
donnement
donnerstag
dont
dontilly
donville
donze
doo
door
dor
dora
dorat
dore
dori
dorin
dorme
dormelles
dormen
dormey
dormeye
dornot
dorothy
dortmund
dos
dosches
dosnon
dost
doste
dostlar
dosto
dosya
dosyası
dot
dota
douala
douard
douaumont
double
doubleday
doucelles
doue
doug
douglas
douillet
doulcon
doulevant
doulon
dounoux
douve
douy
douzens
dove
doville
down
download
doy
doylestown
doze
dozo
dp
dq
dr
dracula
draft
drafting
drag
dragey
dragon
drake
drama
dre
dream
dreams
drei
dresden
dreta
drew
dreyeri
drillancourt
dris
drive
driver
dro
drosera
droue
droupt
drouville
drums
ds
dsm
dss
dt
dtp
du
dua
duay
dubai
dublin
dubovik
dubra
duc
ducey
duciya
due
duet
duey
dugny
duilhac
duisburg
dukan
dukane
dukani
duke
dul
dulcis
duman
dumas
dumbri
dumili
dun
duncan
duneau
dunie
dunlop
dunlopi
dunya
dur
durak
duran
durban
durbion
dureil
duri
durin
during
dursun
duru
durumu
durupınar
dus
duste
dut
dutch
dutchcharts
duvar
duz
duzca
duzey
duzgın
duzgıni
dvd
dvdyi
dwarf
dwelling
dx
dy
dya
dyaya
dye
dyer
dying
dylan
dynamo
dz
dı
dıdane
dıde
dıdı
dıdını
dıha
dıhirı
dık
dılapa
dıleti
dılo
dılpak
dım
dıma
dımay
dıme
dımli
dımı
dımıli
dımıliyan
dımılki
dından
dındane
dındani
dınya
dınyae
dınyao
dınyay
dınyaya
dınyaye
dınyayo
dır
dırbetın
dırbetıni
dıri
dıro
dıs
dısey
dısmalı
dısme
dısmen
dısmene
dısmeni
dısmeno
dıstari
dıwe
dıwela
dıwelan
dıwelane
dıwele
dıyine
dıyın
dıyına
dıyıne
dıyıni
dıyıno
dızd
dızde
dɑ
dɛ
dɛnə
dɛs
dɪ
e
ea
each
eagle
earl
early
earth
east
eastern
easton
easy
eau
eaux
eb
eba
ebas
ebasi
ebasiyan
ebchecked
ebdullah
ebe
ebedi
ebekey
ebekeye
ebeki
ebersing
ebeyiya
ebi
ebooks
ebru
ebu
ebubekir
ec
ecce
ecco
ecderha
ece
ecevit
ecik
economic
economics
economist
economy
ectot
ed
edalet
edaleti
eddie
ede
edebi
edebiyat
edebiyate
edebiyati
eden
edene
edeneya
edet
edgar
edge
edi
edinburgh
edip
edirne
edirneya
edison
edit
edited
edith
edition
editions
editor
editorial
editors
edits
ediz
edmond
edmund
edo
edremit
eds
edu
eduard
eduardo
education
educational
edward
edwards
edwin
ee
ef
efe
efendi
efendisi
efendiye
efendiyo
efg
efi
efkan
efsane
efsaney
eg
ege
eger
egey
egi
egin
egu
egypt
egı
eh
ehar
ehare
eharın
eharına
eharıne
eharıno
ehdo
eher
eheri
eheria
ehir
ehiri
ehiria
ehl
ehle
ehmed
ehmede
ehmedi
ehov
ehr
ehre
ehri
ehzade
ehzadeleria
ei
eight
ein
eincheville
eine
einer
eines
einstein
einvaux
einville
either
eix
ejder
ek
eka
ekan
ekane
ekber
eke
ekelo
ekene
eker
ekere
ekeri
ekero
eki
ekibane
ekibe
ekim
ekime
ekkıla
ekla
ekle
ekler
ekleri
ekli
ekmek
eko
ekole
ekolociye
ekonomi
ekonomik
ekonomiki
ekonomist
ekonomiya
ekonomiye
ekran
ekrane
ekrem
eks
eksik
eksport
eku
ekur
ekuy
ekuya
ekuyan
ekuyane
ekuye
ekuyi
ekwatori
ekya
ekıl
ekıle
ekıstan
el
ela
elamudi
elan
elaqa
elaqe
elaqedar
elaqeyın
elawi
elazıg
elc
ele
eleanor
elebi
election
elections
electronic
elegans
elektrik
elektrike
elektriki
elektrikın
elektro
elektronik
element
elemente
elements
elena
eleo
eleqedar
eleqeyın
eler
elere
eles
elet
eletiye
elewi
elewiy
elewiyan
elewiyano
elewiye
elewiyo
eley
eleye
elf
elfan
elfi
eli
eliana
elif
elifba
elik
eliki
elim
elini
elisabeth
eliya
eliye
elizabeth
elker
ella
ellah
ellahi
ellay
elle
ellen
ellier
ellis
elma
elmadag
elmalı
elrond
els
elsa
else
elun
elvange
elveda
elvis
em
ema
email
emamzadeh
emanet
embaz
embazan
embazane
embaze
embazi
embaziye
embe
ember
embere
emberi
emberme
embres
eme
emeg
emege
emel
emele
emerson
emeyi
emi
emil
emily
emin
emina
emine
emir
emirane
emiye
emma
emmanuel
emmy
emo
empaze
emperor
empire
emporda
empusa
emre
emri
ems
emseddin
emser
emsettin
emsi
emır
emıri
emıs
en
ena
enabled
enam
enay
enayıs
enbare
enbaz
enbazande
enbaze
enbe
enbıryanan
enche
encina
encourage
encyclopaedia
encyclopedia
encyclopædia
end
endame
endangered
ende
ender
endi
ending
endonezki
endulus
endulusi
endustriya
endustriye
endı
ene
ener
enerciya
enerciye
energy
eneziya
enfant
enfermasyon
enfermasyoni
enflasyon
enforcement
enformasyon
eng
engagement
engay
enge
engel
engelli
engelm
engels
engente
engi
engidu
engin
engine
engineer
engizisyon
engizisyoni
england
english
enguera
engur
engure
enguri
engurı
engıs
eni
enime
enis
eniya
enki
enko
ennery
eno
enol
enough
enrico
enrique
ensest
ensesti
ensiklopediya
ensiklopediye
ensti
enstitu
enstituye
enternasyonal
enternasyonali
entertainment
entrammes
entre
entries
entry
enver
enya
enık
eo
ep
epe
epi
episode
episodes
eqi
equestria
er
era
erab
erasmus
eraziye
erb
erbauno
erbe
erbete
erbi
erbil
erbili
erbray
erc
ercan
ercaniya
erce
erci
erd
erdal
erdan
erde
erdebili
erdelan
erdem
erdemaslancan
erdes
erdi
erdis
erdlerz
erdlerze
erdlerzi
erdo
erdog
erdogan
erdre
ere
ereas
ereb
ereba
ereban
erebane
erebe
erebey
erebeya
erebi
erebki
erebkiye
erebkiyo
erebo
erebıstan
erebıstane
erebıstani
erebıstano
eref
ereflikoc
erefxan
erefxani
ereg
eremiaphila
eren
erener
erenko
erenler
ereq
erey
erez
erg
ergani
ergin
ergu
erhan
eri
eriban
eribi
eric
erich
erie
eriet
erif
erik
eril
erim
erin
erinayıs
eris
erite
eritreya
erkan
erkane
erkek
erken
erkoc
erlangen
erm
erman
erme
ermeliki
ermeni
ermeniki
ermeniy
ermeniyan
ermeniye
ermeniyo
ermenki
ermenkiye
ermenıstan
ermenıstane
ermenıstani
ermey
ermik
ermug
ermugi
ermugiya
erne
ernest
erneville
ernst
ero
erog
erol
erq
erqe
erqi
erqiya
erqiye
erqı
error
errouville
ers
ersoy
ert
ertane
ertas
erte
ertug
erve
ervy
erx
erz
erze
erzena
erzene
erzeno
erzincan
erzingan
erzingani
erziyao
erziyena
erziyeno
erzurum
erzurumi
erzıngan
erzıngani
erzıngania
es
esad
esas
esase
esasen
esasi
esbly
esc
escales
escape
esch
escles
escoulin
escouloubre
escu
escueillens
esen
esenler
esenlik
esentepe
esenyurt
eser
eseran
eserane
esere
eseri
esero
esgos
eshkaft
esi
esir
esker
eskera
eskeran
eskerane
eskere
eskeri
eskeriya
eskeriyay
eskeriyaya
eskeriye
eski
eskiko
eskis
eslamabad
esle
eslen
esley
esma
esmans
esmer
esnes
espadanedo
espagne
espalem
espaly
espan
espanyol
espar
esparbairenque
espari
espe
espeluche
espenel
esperanto
espezel
esplantas
esplu
esquerra
essarts
essay
essays
essegney
essen
esseni
essential
essey
essonne
essoyes
est
esta
estables
establet
estadi
estadilla
estamol
estamoli
estanbol
estanboli
estanbolia
estany
estanıke
estanıki
estara
estare
estarey
estareyan
estareyane
estbi
este
esteban
estelle
estemol
estepa
ester
esterıtıs
estetik
estey
esti
estibi
estissac
estivella
estiya
esto
estonki
estonya
estor
estoran
estore
estori
estorı
estrada
estrennes
estu
estubeny
estune
eswatini
eswed
esıl
et
eta
etc
ete
eternal
ethan
ethem
ethnic
ethnologue
eti
etik
etikete
etiki
etimolociya
etimolociye
etin
etiyopya
etme
etmek
etnik
etniki
etniko
etti
etymology
etymonline
etyopya
etzling
etın
eu
euchomenella
euge
eugene
eulalie
eulmont
euphe
euphorbia
euphorbiaceae
eur
euro
euroairplay
euronews
europa
europe
european
eurovision
eurre
eury
euse
euvezin
euville
ev
eva
evans
evdirehi
eve
eveknayıs
evekneno
even
evening
events
ever
everest
everly
every
everybody
everyday
everyone
everything
evet
evi
evidence
evil
eviv
evket
evlat
evler
evlilik
evo
evolusyon
evolusyonal
evolusyonale
evolusyonali
evolusyone
evolusyoni
evolusyono
evolution
evolutionary
evren
evrensel
evrim
evrimianlamak
ew
ewa
ewan
ewc
ewdır
ewdıri
ewe
ewel
ewi
ewli
ewlig
ewliya
ewlıgi
ewna
ewni
ewra
ewrasya
ewre
ewres
ewro
ewroe
ewropa
ewropaki
ewropakiyo
ewropao
ewropay
ewropaya
ewropayo
ewropayıcan
ewropayıci
ewrope
ewroy
ewroye
ews
ewt
ewtey
ewti
ewto
ewı
ewısta
ewıstki
ex
example
except
exchange
excited
exclusive
exermont
exif
exist
expand
experience
expiry
explore
explorer
express
exsi
exsiyete
extragalactic
ey
eya
eyal
eyalet
eyaletan
eyaletane
eyalete
eyaleti
eyaleto
eyali
eyan
eyane
eyda
eyde
eye
eyes
eygalayes
eygluy
eyh
eyhler
eyi
eyler
eylu
eylul
eylule
eymeux
eyn
eynac
eyni
eyniye
eyo
eyr
eyra
eyre
eyret
eyrete
eyri
eyro
eyroles
eytan
eytani
eytanın
eyu
eyvah
eywax
eyzahut
ez
eza
ezae
ezala
ezale
ezane
ezay
ezaya
ezayane
ezaye
ezbet
ezbeta
ezbete
ezgi
ezi
eziz
ezizan
ezo
ezra
ezu
f
fa
faaliyet
fabian
fabrezan
fabrikay
face
facebook
facebooki
faces
fact
factbook
factor
facts
fade
fadime
fahm
fahrettin
fahri
fahriye
failly
fains
fair
faith
faiz
fajac
faku
fakulta
fakulte
fakultey
fakulteya
fakulteyan
fakulteye
falan
falck
faliyete
fall
fallen
false
fam
fame
families
family
familya
familyay
familyaya
famous
fan
fanjas
fanjeaux
fanlo
fanny
faq
far
farabi
farah
faramir
fare
faremoutiers
faresi
fargeau
farisi
fariski
farklı
farmer
faroeki
faroese
farrar
farrell
fars
farsan
farschviller
farsi
farski
farskiye
farskiyo
farso
faruk
fas
fashion
fasi
faso
fast
fat
father
fatih
fatihi
fatma
fatos
fatık
fatıke
fatıma
faucompierre
fauconcourt
faulquemont
fault
faulx
fauna
faura
faux
favara
fave
faverolles
favie
fay
fayde
faydey
faye
fayl
faymoreau
fays
fazla
fazıl
fb
fc
fcgi
fd
fe
fealiyet
fealiyete
fear
feat
feature
featured
features
featuring
february
feda
federal
federale
federali
federasyon
federasyone
federico
feedback
feel
feeling
fehm
fehmi
feings
feins
fek
fekan
fekane
feke
feki
feko
fel
felek
felipe
felix
fellow
felsefe
felsefey
felsefeya
felsefeye
felsefeyo
felsefi
felsefiye
female
feminine
feminist
femme
fena
fendeille
fene
fenerbahc
fenomene
fenotipe
fenouillet
feqat
feqet
feqi
feqir
feqiri
feqiye
feqır
feqıre
feqıri
fer
ferat
ferati
ferce
ferde
ferdi
ferdinand
ferdrupt
ferguson
ferhat
ferheng
ferhenge
ferhunde
feri
feridun
ferit
fermane
fermi
fernando
fernsehserie
ferq
ferqe
ferqi
ferqo
ferrals
ferran
ferrand
ferrara
ferrari
ferre
ferreira
ferreux
ferrie
ferriol
ferron
ferrussac
ferte
ferxunde
ferz
ferı
festes
festival
festivale
festivali
feteline
fetelino
feth
fethi
fettis
fetwa
fetılneno
feu
feuge
feuges
feuilla
feuillie
fever
fevzi
few
fewzi
fey
feyli
feyman
feyzin
fez
feza
ff
fi
fiacre
fiat
fichfilm
fichier
fici
fiction
field
fierville
fieti
fifa
fight
figne
figure
fik
fikir
fikre
fikret
fikri
fil
filan
file
files
fili
filiz
fille
fillie
film
filman
filmane
filme
filmi
filming
filmio
filmiyo
filmo
filmografiya
filmografiye
films
filozof
filozofan
filozofane
filozofe
filozofi
filozofo
fils
filsofun
filstroff
filyos
fime
fin
fina
final
finansi
find
fine
fineno
finisterreki
finki
finlanda
finlandi
finn
fino
firar
firari
firat
firaz
firazan
firaze
firazi
firazo
fire
firma
firmin
first
firuz
firuzabad
fis
fiscal
fisch
fischer
fish
fisher
fistan
fit
fitness
fitou
fitzgerald
five
fix
fiye
fizik
fizike
fiziki
fizikwan
fla
flabas
flace
flag
flagy
flainval
flanville
flash
flassigny
flat
flavigny
flavy
fle
fleming
flesh
fleurieu
fleury
flight
flin
flirey
flo
floor
floransa
floray
flore
florejacs
florida
florine
flottemanville
floure
flower
flowers
floxel
floyd
flu
fly
flynn
fm
fn
fo
foameix
foc
focus
foios
foley
folgoso
folgueroles
folk
folkling
folklor
folklore
folklori
folligny
follow
following
folschviller
fomerey
fon
fonds
fonelas
fonetike
foni
fonksiyone
fonksiyoni
fonksiyono
fons
fonsagrada
font
fontaine
fontainebleau
fontaines
fontains
fontane
fontannes
fontcoberta
fontcouverte
fontenailles
fontenay
fontenelle
fontenoy
fonters
fontette
fontie
fontiers
fontjoncouse
fontvannes
fonz
food
foodi
foot
football
for
foradada
forbach
forbes
forcarei
force
forcelles
ford
fore
foreign
forerunner
forest
forever
forfry
forge
forges
forget
forgotten
form
format
formate
forme
former
formo
forms
formula
formule
fornelos
forssk
fort
fortaleny
fortune
forum
forveti
forward
fosforlu
fossard
fosse
fosses
foster
foto
fotog
fotograf
fotografantog
fotografi
fotraf
fouassie
foucaucourt
fouchard
fouche
foug
fouge
fougereuse
fougerolles
fouilloux
fouju
foulcrey
fouligny
foulletourte
found
foundation
four
fourches
fournes
fourth
fourtou
foussais
foville
fox
foy
foz
fr
fra
frac
frades
fraga
fragaria
fragman
fragment
fraigneau
fraimbault
fraimbois
frain
fraisnes
fraisse
fraize
fralignes
franc
france
frances
francesco
francheville
francillon
francis
francisco
franciscoy
franco
franconville
frank
frankenstein
frankfurt
frankfurte
frankfurti
franklin
frans
fransa
fransao
fransaya
fransayo
fransız
fransıza
fransızan
fransızi
fransızki
fransızkiyo
fransızo
franz
frapelle
fraser
frau
fraube
fravaux
fray
fre
frebe
fred
frederick
fredrik
free
freedom
freeman
freiburg
freila
freistroff
freitag
frekans
frekanse
fremifontaine
french
frenelle
fresnay
fresne
fresnes
fresnois
fresnoy
fresse
fresville
freud
freudi
freybouse
freycenet
freyming
friauville
fribourg
friday
friedrich
friend
friends
friendship
friol
fritz
frizkiye
frizon
fro
frodo
froid
froidmont
froidos
frolois
from
fromentie
fromere
fromezey
fromond
fromont
fromonville
front
frontera
frossay
frouard
froville
fru
frugie
ft
ftey
ftp
fu
fuat
fublaines
fuck
fuente
fuenterrobles
fuentes
fuerte
fueva
fuge
fujian
fuligny
full
fun
funchal
function
functional
funda
fundraiser
fundraising
funny
furious
further
fus
fusion
fusu
fusun
futaie
futbol
futbole
futboli
futbolie
futbolio
futboliye
futboliyo
futbolwane
futbolwano
futeau
future
futuresex
fuzelier
fwes
fy
fye
fıkiri
fıkr
fıkrane
fıkre
fıkri
fıkır
fıkıre
fıkıri
fıkıriyeno
fılan
fılipin
fılipini
fılıstin
fılıstini
fın
fına
fındıklı
fıne
fıni
fını
fıqıh
fırat
fırati
fırdewsi
fırr
fırtına
fırtınası
fıs
fızuli
g
ga
gabias
gabon
gabriel
gae
gag
gaga
gah
gaillard
gaja
gal
galadriel
galaksi
galaksiya
galaksiye
galanthus
galata
galatasaray
galatasarayi
galaure
galaxy
galba
gale
galeri
galex
gali
galic
galilei
galileo
galinagues
galip
galisyaki
galki
gallery
gallimard
galushko
galway
gam
gama
gamane
gambiya
game
games
gami
gamma
gan
gana
gandalf
gande
gandelin
gandhi
gandi
gandia
gane
ganelon
gang
gange
gani
ganie
ganio
ganiy
ganiya
ganiyan
ganiyane
ganiyano
ganiye
ganiyi
ganiyo
gao
gar
garci
garcia
garcke
garde
garden
gardie
gardner
garentreville
gareth
garip
garnier
garrafi
garrett
garry
garson
gary
gas
gast
gastines
gastins
gates
gathemo
gatteville
gau
gaucher
gaude
gaudin
gaugain
gaulois
gault
gaultier
gauthier
gavarda
gavare
gavray
gay
gaye
gayo
gayobor
gaz
gazeille
gazete
gazetesi
gazi
gaziantep
gaziler
gb
gc
gd
gdan
gdynia
ge
gec
gece
geceler
gecesi
gedik
geffosses
gegane
gel
gelal
geldi
geldin
gele
gelek
gelen
gelin
gelir
geliyor
gelucourt
gelve
gema
geme
gemi
gemiya
gemiye
gemme
gemmelaincourt
gemmes
gemo
gen
genan
genay
genc
gencat
gence
genci
genco
gender
gendreville
gene
genealogy
genel
genelkurmay
general
generale
generally
generation
generic
generville
genes
genesis
genest
geneste
geneston
genet
genetic
genetics
genevie
genevraye
geneys
geni
genil
genis
gennes
geno
genocide
genome
genove
genus
genım
geo
geoffrey
geografi
geographic
geometri
georg
george
georges
georgetown
georgi
georgia
georgian
geos
geostat
ger
gerald
gerard
gerbamont
gerbe
gerbonvaux
gerc
gercekpop
gercourt
gere
gerek
gereke
gereko
gerger
geri
geris
germ
germain
german
germany
germe
germey
germi
germigny
germiliy
germiny
germiya
germiye
germo
germonville
germın
germıne
germıno
gerrard
gers
gervais
gervanne
ges
geschichte
gesnes
gesnois
gestalgar
gesvres
get
gets
getting
geville
gewr
gewran
gewre
gewri
gewı
gey
geyan
geyi
geyo
geyra
geyrao
geyray
geyraye
geyrayog
geyrayıs
geyrena
geyrene
geyreno
geyrenıke
geyrenıko
geyssans
gezeg
gezen
gezi
gezmis
gg
ghost
gi
giang
gibeaumeix
gibi
gibson
giden
gie
gien
gies
gift
gigne
gigney
gigors
gil
gilan
gilani
gilbert
gildas
gileki
gilgit
gilles
gillis
giltigt
gime
gimenells
gimgim
gimme
gina
gincrey
gine
ginestas
gineya
gino
giovan
giovanni
gippert
giran
girancourt
girard
giraumont
girauvoisin
gircourt
gird
gire
girecourt
giremoutiers
giresun
giresuni
girewt
girewte
girewtis
girewto
giri
girik
giris
giriviller
giriye
girl
girls
girmont
girona
gironcourt
giroux
girtin
girıci
gis
git
gitar
gitme
giuseppe
give
given
givrauval
gizli
gl
glacerie
gladiator
glain
glaize
glandage
glasgow
glass
glatigny
glenn
gli
gligny
glise
glises
glo
global
glonville
gloria
glory
glu
glun
gnd
gnier
gny
go
goal
gobernador
goc
god
godbrange
godella
godelleta
godfather
godoncourt
gods
goe
goes
goethe
gogh
gogney
gogol
gohannie
goin
going
gol
gola
golan
golbey
gold
golden
gole
golf
golfeze
goli
gollancz
golleville
gollum
golme
golo
gomada
gomadapeyam
gombergean
gome
gomelange
gomesende
gon
gonais
goncourt
gonde
gondoire
gondomar
gondor
gondori
gondrecourt
gondreville
gondrexange
gondrexon
gone
gonfreville
goni
gonia
goniya
gonkuri
gonna
gonneville
gontardes
gontier
gonza
good
goodbye
google
googleyo
gor
gora
gorafe
goran
gorani
goranki
gorbac
gordon
gore
goreloslagos
gorey
goreye
gorges
gorgon
gorhey
gorilla
gorki
gorron
gorze
gos
gose
gossypina
got
gottfried
gouaix
goubet
goudarzi
goudet
goulaine
gould
gouraincourt
gourbesville
gourfaleur
gourgon
goussaincourt
gouvernes
gouvernet
gouville
gov
govend
govenda
govende
govendı
governance
government
governor
goviller
goyine
goyni
goynuki
goz
goza
goze
gozi
gra
grace
gracilis
grado
graena
graf
grafik
grafike
grafiki
graham
graignes
gram
gramazie
gramer
gramere
grameri
grammar
grammatik
grammy
gran
granada
grand
grandchamp
grandchamps
grande
grandes
grandfontaine
grandlieu
grandpuits
grandrupt
grandville
grandvillers
grane
grange
granges
granja
grant
grants
granville
granyena
grapes
graphic
gras
grasse
gratot
grau
graus
graux
grave
gravelais
gravelle
gravelotte
gray
graz
grazac
grazay
gre
great
greater
greatest
greek
green
greene
greenm
greetings
greffeil
greg
gregori
gregorius
gregoriyani
gregory
gregoryani
greki
gremilly
grenada
grenier
grenoble
gressy
gretz
greux
greville
grewto
grey
grez
gri
grie
griffin
griffith
grignan
grigny
grimaucourt
grimesnil
grimonviller
grin
gripin
gripport
griscourt
griseb
grisy
gro
gronlanda
gros
groseilles
grosrouvres
grostenquin
grosville
grot
groto
group
groups
grove
groß
gru
gruba
gruban
grubane
grube
grubi
gruene
gruey
grundgesetz
grup
gruyter
gsfc
gt
gu
gua
guadahortuna
guadalajara
guadalimar
guadasequies
guadassuar
guadix
guangxi
guangzhou
guardamar
guardian
guarroma
guatemala
guceratki
gucige
gude
gudin
gudmont
gue
guenrouet
guenviller
guercheville
guermange
guermantes
guerpont
guerstling
guerting
gues
guessling
guest
guetta
guette
gueytes
guez
gugne
gugney
guibert
guichard
guide
guidelines
guido
guierche
guignes
guilberville
guillaume
guille
guillermo
guilly
guim
guindrecourt
guinglange
guislain
guitar
guitiriz
guk
gul
gula
gulabi
gulan
gulana
gulane
gulas
gule
gulf
gulvange
gulıstan
gum
guman
gumery
gumiane
gumus
gun
guna
gundem
gune
gunilla
gunnar
gunti
gur
gurb
gurbet
gurciki
gurciyan
gurcy
gurcıstan
gurcıstani
gurcıstaniyo
gure
gurenayene
gurenayıs
gurenene
gureneno
gureniyeno
guret
gureta
gurete
guretene
gureti
gureto
gurey
gureye
gureyena
gureyeno
gurgum
gurgumi
guri
gurine
gurino
guriya
guriyao
guriyayo
guriyayıs
guriye
guriyena
guriyene
guriyeno
guriyo
gurrea
gus
gussainville
gustav
gustave
gut
gutenberg
guwerte
guy
guyana
guyo
guys
gxv
gy
gye
gyo
gı
gıcıke
gıle
gılgamıs
gılık
gımgım
gımgımi
gına
gıne
gınena
gınene
gıneno
gıno
gıra
gıran
gırane
gıraney
gırani
gıraniya
gıraniye
gırano
gırd
gırda
gırdan
gırdande
gırdane
gırdbiyayıs
gırde
gırdi
gırdio
gırdiya
gırdiye
gırdo
gıre
gıredeki
gırewt
gırewta
gırewte
gırewtena
gırewtene
gırewti
gırewto
gırewtıs
gırey
gıreya
gıreydayo
gıreye
gırot
gırota
gırote
gıroten
gırotenı
gıroti
gıroto
gırotıs
gırs
gırsa
gırsan
gırse
gırsi
gırwe
gırwenayıs
gırweneno
gırweniyeno
gırwey
gırweye
gırweynayıs
gırweynene
gırweyniyeno
gırweyo
gıs
h
ha
haania
hababam
haber
haberi
haberler
haberleri
habertu
haberturk
habes
habiby
habil
hablainville
hac
hace
hacer
hacet
hacete
hacettepe
hacı
hacıhasan
hacılar
hacımusa
hacıosmanlar
had
hadank
hadi
hadigny
hadis
hadol
hadre
hadrian
hadriani
hadrianus
hadıre
hae
haemaphysalis
hafize
haft
hafta
haftasonu
haftbefehl
hafız
hage
hagne
hagondange
hague
hai
haie
haifa
haigneville
haikou
haillainville
hain
hainan
hainneville
haironville
haiti
haize
hak
hakan
hakane
hakde
hake
haki
hakim
hakimiyete
hakkı
hakkında
hakım
hakısia
hal
hala
haldun
hale
halete
half
hali
halil
halit
halk
hall
halle
hallering
halles
halloville
halloween
halo
halt
haluk
ham
hama
hamam
hamas
hambers
hamburg
hamburgeran
hambye
hamdi
hame
hameye
hamid
hamilton
hamit
hamlet
hammer
hammeville
hamon
hamonville
hampigny
hampshire
hamzaoglu
han
hand
handbook
hande
hane
hange
hangi
hangzhou
hani
hania
hanks
hannah
hannonville
hannover
hanoi
hanover
hans
hansen
hanım
hanımın
hao
haon
haplemont
haplogruba
happy
haq
haqa
haqi
har
hara
haram
haraucourt
haraumont
harbiye
harbouey
harche
harcoue
hard
hardancourt
hardanges
harde
hardi
harding
hardinvast
hardo
hardy
hare
hareka
hareket
hareketi
hareketo
hargarten
hari
harika
haritatr
harjunpa
harmonville
harol
harold
haroue
harper
harprich
harre
harreberg
harris
harrisburg
harrison
harry
harsault
hart
hartzviller
harun
harvard
harvardi
harvey
harville
has
hasan
hasanlı
haskerdene
hasko
hasret
hassan
hasta
hat
hata
hatan
hatay
hate
hatice
hatin
hatrize
hattigny
hattoncha
hatun
hauconcourt
haucourt
haudainville
haudiomont
haudonville
haumont
haus
hausskn
haussonville
haut
haute
hautecourt
hautefeuille
hauterives
hauteville
hauts
hautteville
hava
havana
have
haven
having
havsaya
haw
hawa
hawaii
hawar
hawara
hawk
hawt
hawtemal
hay
hayal
hayat
hayata
hayati
hayatlar
hayatı
hayatım
haydar
haydn
haye
hayer
hayes
haymana
hayri
hayvan
hayır
hazar
haziran
hazır
hd
hds
he
head
healing
health
heard
heart
hearts
heartsuit
heat
heath
heather
heaven
heavy
heb
hebdo
hebdoy
hebe
hebhenar
hebi
hec
hece
hecho
heci
heciyan
hedef
hedefe
hedenius
hedi
hedis
hedisan
hedise
hedisey
hediseye
hediye
hefei
hefte
heftey
hefteye
hefteyi
hefteyiya
hega
heger
heidegger
heidelberg
heights
heillecourt
heinemann
heining
heinrich
heippes
hejmar
hekari
hekate
hekem
hel
hela
helal
helawı
helbet
heldr
hele
heleb
helebi
helen
helena
heli
hell
helleville
hellimer
hello
helme
helmut
help
helped
helping
helqa
helqe
helsinki
helstroff
helwa
hem
hema
hemcınsbaz
hemcınsbazan
hemcınsbazi
hemd
heme
hemedan
hemedani
hemge
hemi
hemo
hems
hemsworth
hemver
hemverde
hemı
hemıne
hemını
hen
henares
hend
hendaye
hende
hendi
hendı
hene
hengure
heni
henio
heniye
hennecourt
hennemont
hennezel
henri
henrik
henry
henzar
hep
hepi
hepisxane
hepsi
hepıs
hepısi
hepısxane
heq
heqa
heqan
heqane
heqaret
heqe
heqeyda
heqi
heqiqet
heqiya
heqiye
heqo
her
hera
herabiyayıs
heram
heran
herao
heray
heraye
herayo
herb
herbasse
herbault
herbe
herbert
herbeuville
herbi
herbignac
herbisse
herbiya
herblain
herc
herce
hercules
herd
herda
herdıme
here
herekate
hereket
herekete
hereketo
herey
herf
herfa
herfan
herfane
herfe
herfi
herg
hergos
hergu
hergugney
hergı
heri
herinda
herinene
herineno
heritage
herkes
herkules
herkulesi
herm
herman
hermann
herme
hermelange
hermenault
hermeni
hermes
hermine
hermitage
herne
herny
hero
heroes
herpelmont
herqueville
herr
herra
herran
herrane
herre
herri
hers
herschel
herscheli
hersek
herserange
hertz
heruna
herunda
herune
herunı
herwına
hes
hesab
hesaba
hesaban
hesabe
hesabi
hesabiyeno
hesabo
hese
hesebiyene
hesen
hesene
heseni
heskerdenı
heskerdıs
hesnayıs
hesneno
hesno
hesse
hestiasula
het
heta
hetan
hetana
hetane
hetani
hete
hetenayıs
heteneno
hetenog
hetera
heti
heto
hetta
hetı
heudicourt
heuilley
heulin
heval
hevalane
hevale
hew
hewa
hewadane
hewadano
hewae
hewao
hewara
heware
heway
hewaye
hewayo
hewe
hewese
hewl
hewla
hewlan
hewle
hewli
hewlo
hewn
hewna
hewne
hewni
hewno
hewr
hewrami
hewramki
hewre
hews
hewt
hewtay
hewte
hewtına
hewtıne
hexamenıs
hexasmal
hey
heya
heyat
heyate
heyati
heyato
heyder
heyf
heykel
heykele
heykeli
heykeltas
heys
heywan
heywana
heywanan
heywanane
heywanano
heywane
heywani
heywano
heywans
heywanweyikerdıs
hez
hezan
hezani
hezar
hezaran
hezari
hezaz
hezi
heziran
hezirane
hezirani
heziraniye
hezreti
hi
hibiscus
hic
hicret
hicri
hidayet
hide
hidrojen
hiern
hierodula
hiesville
higgins
higginsi
high
higny
higuera
hika
hikayeler
hikayesi
hikmet
hilaire
hill
hilliers
hills
hilmi
him
himi
himmet
himself
hin
hina
hind
hindi
hindistan
hindki
hindo
hinduizm
hindıstan
hindıstane
hindıstani
hindıstaniyo
hini
hint
hip
hipokrat
hipoteze
hippiy
hippiyan
hir
hira
hirao
hire
hiri
hirıne
hirını
hirıs
his
hisab
hisar
hispanic
hisse
histoire
historia
historic
historical
history
hit
hititan
hititki
hitler
hitleri
hits
hiv
hiyerars
hjalmar
hl
hln
hm
hmet
hmon
ho
hob
hobbit
hobbiti
hobbito
hoca
hochst
hockey
hocquigny
hodiernai
hoe
hof
hoffman
hoffmann
hog
hokeye
hokmat
hokmati
hol
holacourt
holanda
holandayo
holandki
hold
holdeni
holding
hole
holiday
holland
hollanda
hollandki
holle
holling
hollingdale
holly
hollywood
hollywoodreporter
holmes
holstein
holy
homa
homae
homan
homane
homao
homay
homayan
homaye
homayi
homayo
hombourg
home
homeland
homer
homeros
homete
homme
hommert
hommes
hommet
homo
homosexuality
homs
hon
hona
honcourt
honda
honde
hondevilliers
honduras
honey
hong
hongre
honolulu
honor
honorat
honore
honık
honıke
honıko
hood
hoogstraal
hook
hoover
hop
hopa
hope
hopkins
hoplocorypha
hor
hora
horace
hore
horgne
horizontal
horn
hornos
horps
horse
horst
horte
horus
horusi
horville
hos
hossein
host
hoste
hostien
hostun
hot
hotel
hotmail
hou
houdelaincourt
houdelmont
houdemont
houdle
houdreville
houe
houesville
hound
hounoux
hour
hours
house
houssay
houssaye
housse
houssie
houston
houstoni
houtteville
houx
how
howard
however
howl
howt
hoz
hr
hrer
hsan
hsanog
htm
html
http
https
httpwww
hu
huang
hubert
huberville
hucrey
hudimesnil
hudiviller
hudson
hue
huelma
huerto
huesca
huescao
huescaya
hugh
hughes
hugo
huisne
huisseau
hukmat
hukmate
hukmati
hukmato
hukme
hukuk
hukım
hukımdare
hukımdariya
hulagu
hulusi
hum
human
humanities
humanizmo
humay
humes
humeyni
humphrey
hun
hundred
huner
hunerane
hunere
huneri
hunermende
hunero
hung
hunt
hunter
huon
huonki
huqu
huquqe
huquqi
hur
hurbache
hurdeme
hurdi
hure
hurendi
hurendia
hurendname
hurmet
hurmete
hurmızgan
hurriyet
hurt
hurus
hus
huse
huseyi
huseyn
husk
huske
husseinov
hussigny
husson
huthwaite
huxley
huy
huyino
hy
hyalomma
hymont
hyry
hyssopifolia
hz
hıcri
hıdude
hıdudi
hıdır
hıkum
hıkumati
hıkumdare
hıkumet
hıkumete
hım
hıma
hına
hındi
hınge
hıni
hınzar
hıquq
hıquqe
hıquqi
hırc
hırsız
hırsızı
hırwatki
hıs
hıseyn
hızır
hɛ
i
ia
iae
ian
iana
ianridpath
ibadet
ibadete
ibareto
ibigny
ibn
ibrahim
ibros
ic
icad
icao
ice
ich
ichy
icin
icon
id
ida
idaho
idam
idare
idarekerdıs
idarey
idareye
idareyi
idareyo
idari
iddia
ide
idea
ideal
ideas
identity
ideolociya
ideolociye
idescat
idi
idol
idols
ie
if
ifada
ifade
ifadekerdene
ifadey
ifs
ift
ifte
iftlik
ig
iglesias
igney
ihtıwa
ii
iii
iir
iirande
iire
iiri
iirler
iirleri
ik
ika
ike
iki
ikina
ikinci
ikine
ikino
ikiya
ikiye
iklime
iklım
iklıme
iklımo
iktas
il
ila
ilac
ilam
ilan
ilane
ilawe
ilc
ilcesi
ilche
ildir
ile
iler
ileri
ilgaz
ilhes
ili
ilik
ilim
iliya
iliye
iliyo
iliz
ilk
ilko
ill
illa
illegal
illegalo
illinois
illon
ilm
ilman
ilmane
ilme
ilmi
ilmiyo
ilmo
ilo
ilpize
ilyurt
ilım
ilıme
im
ima
image
images
imam
imaman
iman
imbault
imdb
imdi
ime
imen
imento
imf
imi
imkan
imkane
imki
imla
impatariya
impatarore
imperatifi
imperator
imperatore
imperatoriya
imperatoriye
imperatoro
imperial
implementation
important
improve
ims
imza
in
ina
inam
inan
inana
inane
inano
inasi
inayenı
inayıs
inc
inca
ince
incio
include
includes
including
inde
independent
index
indi
india
indian
indiana
individual
indo
indonesia
indre
indus
industry
ine
inena
inene
ineno
inew
ineye
inferno
influence
info
infoboxes
information
informations
infty
ing
ingemar
ingli
ingolstadt
ingram
ini
inio
iniya
iniyao
iniyo
inkar
inki
inkiyo
inna
inno
innocence
innocentius
ino
inor
input
ins
insan
insanan
insanane
insane
insani
insee
inside
inson
instagram
instead
institut
institute
instituto
insularis
insults
int
inte
inter
interactive
interested
interface
internal
internasyonal
internasyonalo
international
internet
internete
interneti
internetia
internetio
interpoli
interpret
interpretation
interview
interwiki
into
intransitif
intro
introduction
inu
inun
invalid
invisible
invite
invited
involving
inyo
inı
inıc
inıcan
inıce
inıci
inıtena
inıtıs
io
ioannes
iog
iowa
ip
ipa
ipac
ippe
ipv
iq
iqaz
iqrari
iqtıdar
iqtısad
iqtısade
iqtısadi
iquique
ir
ira
irade
iradeo
iradey
irak
iran
irane
iranian
iranica
iranicaonline
iranischen
iranki
iraq
iraqi
iras
iraz
irazi
ire
ireland
irene
ireta
iretane
irete
iri
irigny
irin
iris
irish
irixo
irixoa
irkete
irmak
irmek
irmen
irmeni
iro
iron
iru
irving
irına
is
isa
isaac
isabel
isan
isani
isbat
isbn
isches
ise
ishaq
isherwood
isi
isigny
isim
isis
isla
islam
islamabad
islami
islamic
island
islandi
isle
isles
islettes
ismail
isn
isni
iso
ison
isone
isoni
isono
isonu
isot
isparta
israel
israeli
isse
issel
issn
issue
issues
ist
istanbul
istasyone
istatistik
istatistikiya
istıla
istıle
isyan
it
ita
italian
ite
item
itemid
iti
itim
itiqat
itiya
itli
its
itself
itunes
itıqad
itıqade
itıqadi
itıqate
iucn
iune
iv
ivan
ivar
ivars
iverny
ivi
ivlendi
ix
ixlal
ixodes
iy
iya
iyaene
iyan
iyana
iyande
iyane
iyano
iyao
iyay
iyaya
iyaye
iyayena
iyayene
iyayenı
iyayi
iyayis
iyayo
iyayıs
iye
iyen
iyena
iyene
iyeno
iyi
iyo
iyu
iz
iza
izafe
izah
ize
izenave
izm
iznalloz
iznatoraf
izne
izon
izıne
j
ja
jablines
jabron
jaca
jack
jackie
jackson
jacksoni
jacob
jacobs
jacobson
jacobsoni
jacq
jacqueline
jacques
jae
jafar
jaignes
jaille
jaillon
jainvillotte
jakarta
jake
jalais
jale
jalil
jalle
jambet
james
jametz
jamie
jamme
jan
jane
janeiro
janet
jans
jansac
januar
january
japan
japanese
japon
japoni
japonki
japono
japonya
jar
jara
jarafuel
jard
jared
jares
jari
jarme
jarnisy
jarny
jarville
jason
jasseines
jaucourt
jaudonnie
jaulnes
jaulny
jauze
javernant
javron
jax
jay
jayapuraki
jayena
jazz
jba
jdat
jde
jdi
je
jean
jeandelaincourt
jeandelize
jeanme
jeanne
jede
jeff
jefferson
jeffrey
jen
jeneriko
jenna
jennifer
jenny
jenosi
jensen
jeremy
jerome
jerry
jersey
jerusalem
jessains
jesse
jessica
jessie
jesus
jet
jete
jeugny
jeune
jeures
jeuxey
jew
jewbi
jewbinan
jewi
jewish
jewna
jews
jezainville
jgan
jganeya
jganeyda
ji
jiar
jiare
jill
jim
jimena
jimmy
jin
jk
jm
jn
jo
joachim
joan
joaquin
job
jobourg
jobs
joe
joel
joey
johan
johann
johanna
johannes
johannesburg
john
johnny
johnson
johnst
johnstown
join
joinville
joire
jolie
jolivet
jon
jonas
jonathan
jonche
jonchery
joncreuil
jones
jonquie
jonville
joppe
jordan
jores
jorge
jorquenay
jorxey
josat
jose
josef
joseph
josh
joshua
jossigny
jost
jou
jouarre
jouaville
joucou
joudreville
joue
journal
journals
journey
jouy
jowkar
joy
joyce
jp
jpbox
jpg
jr
js
jsp
jstor
jts
ju
juan
jubainville
jubini
jublains
judas
judensau
judeo
judith
juger
juhel
juice
juigne
juille
juilley
juilly
juire
jules
julia
julian
julie
julien
julius
jullianges
jullouville
jully
julve
july
jumeaux
jun
juna
june
jung
junodia
jupilles
jupiter
jure
jury
jussarupt
jussy
just
justice
justified
justin
jutigny
juvaincourt
juvanze
juvigne
juvigny
juviles
juwerı
juye
juzanvigny
jw
jx
jı
k
ka
kaan
kabaca
kabadayı
kabalar
kabare
kabe
kabil
kabili
kabloyu
kabo
kabul
kac
kadar
kader
kaderin
kadir
kadri
kadıko
kadın
kadınlar
kadınları
kadını
kadıog
kaf
kafi
kag
kahraman
kahramanlar
kahramanmaras
kainat
kainati
kak
kako
kal
kalan
kalat
kalbi
kalbim
kalbimin
kaldı
kale
kalecik
kaleke
kalifornia
kaliforniya
kaliningrad
kalite
kalmak
kalp
kalpler
kalıke
kam
kama
kamboc
kamca
kamci
kamcin
kame
kamer
kamera
kamerlengo
kamerun
kameruni
kamey
kami
kamil
kamiya
kamiye
kamo
kampe
kamıl
kamıline
kan
kanada
kanaday
kanadayo
kanadayıca
kanadayıco
kanal
kanale
kanalizasyone
kanalizasyoni
kanarya
kanca
kande
kane
kani
kanji
kanlı
kanlıg
kano
kansas
kant
kantonane
kantone
kantono
kanun
kanune
kanuni
kanuno
kanunu
kanı
kap
kapasitey
kapitalizm
kaplan
kapoor
kaptan
kapı
kapısı
kar
kara
karaag
karaahmetler
karabo
karac
karaca
karacao
karadag
karadeniz
karago
karagu
karahan
karakas
karakaya
karakoc
karakter
karakterane
karaktere
karakteri
karakteristik
karakteristike
karakteristiki
karakteristiko
karaktero
karaman
karamusa
karan
karane
karanfil
karanlık
karaog
karapınar
karardenı
karasu
karatas
karatay
karate
karayibi
karber
karberane
karbere
karberi
karde
kardelen
kardes
kardi
kardinal
kare
karen
kareno
karey
kari
karibya
karim
karin
kariyere
karker
karkeran
karkerane
karkerdıs
karkere
karkeri
karkero
karl
karlsruheyo
karnavale
karo
karolinay
karpuz
kars
kartal
kartliya
kartole
karınca
karıs
karıtenı
kas
kashmir
kassel
kastilya
kasım
kasımpas
kat
kata
katalanki
kataloge
katalogo
katalonya
katalonyay
katalonyaya
kate
katedrale
kategori
kategoriy
kategoriye
katherine
kathleen
kati
katie
katolik
katolikan
katolikano
katolike
katoliko
katy
kaufmann
kaunas
kavaklı
kavgası
kavır
kaxetiya
kay
kaya
kayabas
kayan
kayande
kayane
kaybetti
kayda
kaye
kayi
kaykene
kaykeno
kayker
kaykera
kaykeran
kaykerane
kaykerde
kaykerdenda
kaykerdene
kaykerdenı
kaykerdog
kaykerdıs
kaykere
kaykeri
kaykero
kaynag
kaynak
kayo
kaypakkaya
kayseri
kayıp
kayıt
kazablanka
kazakistan
kazan
kazım
kc
kderey
ke
keanu
keaton
keban
kebaniya
kec
keder
kedi
kedo
keep
kef
kefiye
keftar
kehan
kehanan
kehani
kehen
keith
kek
keke
kel
kelam
kelasingı
kelay
kele
kelebek
keles
kelhuri
kelhurki
kelime
kelkit
keller
kelly
kelog
kelun
keluni
kelverdane
kelıma
kem
kemal
kemali
kemalpas
keman
kemax
kemer
kemera
kemere
kemeri
kemi
kemiye
kemiyeno
kemiyo
ken
kena
kenan
kence
kendal
kendi
kendini
kene
kengeri
keni
kenime
kennedy
kenneth
kenny
keno
kent
kenter
kentucky
kenu
kenya
kepler
ker
kera
keran
kerbach
kerbela
kerber
kerd
kerda
kerdbi
kerde
kerden
kerdena
kerdenda
kerdene
kerdenı
kerdi
kerdime
kerdis
kerdo
kerdog
kerdu
kerdune
kerdı
kerdıs
kere
kerem
kerg
kerga
kergan
kerge
kergi
keri
kerim
kerime
kerimler
keriyao
keriyeno
kerku
kerkınc
kerm
kermi
kero
kerprich
kerr
kerra
kerran
kerre
kerwa
kerwade
kerway
kerwayinı
kes
kesa
kesan
kese
kesha
kesi
kesk
keski
keskin
kesmek
keso
ketab
kevin
kew
kewe
keweno
kewna
kewne
kewno
kewo
kewt
kewta
kewte
kewtene
kewti
kewtime
kewto
kewtıs
key
keyan
keyande
keyane
keybere
keyde
keye
keyepele
keyey
keyeye
keyeyi
keyeyo
keyi
keyke
keyna
keynan
keynane
keynay
keyne
keynek
keyneka
keynekan
keynekano
keyneke
keyneki
keynekı
keynes
keyney
keyo
kez
kezban
kezi
kg
kh
khal
khale
khaled
khali
khalike
khalke
khalo
khalık
khalıke
khan
khane
khaneh
khani
khano
kharkiv
khazad
khe
kheki
khela
khet
khewe
kheweo
khure
khurr
khurrmanc
khurrmanca
khurru
ki
kibar
kic
kid
kidman
kids
kiel
kiew
kigali
kil
kili
kilise
kill
killed
kilmister
kilo
kilometre
kilometrey
kim
kimdir
kimse
kimya
kin
kinci
kind
king
kingdom
kings
kingston
kino
kins
kir
kira
kiralık
kiraz
kird
kirdan
kirdaski
kirdki
kiri
kirin
kirk
kirman
kirmancki
kirmans
kirmas
kiryat
kis
kisi
kiss
kist
kit
kita
kitab
kitaban
kitabane
kitabe
kitabi
kitabo
kitabı
kitap
kitchen
kiya
kiye
kiyo
kk
kkaya
klaipe
klan
klasik
klasiki
klaus
klavye
klein
kleine
kler
klibe
klime
klokov
klotzsch
klu
klub
klubane
klube
klubi
klux
klıme
klımo
km
kn
knight
knmi
know
knowledge
known
knows
knyaciya
ko
koalisyon
koalisyone
kobani
koc
koca
kocaeli
kocalı
koch
kod
kodane
kode
kodi
koe
kofi
kofkas
kofkase
kofkasi
kofkasya
kog
kohe
kohgıluye
kohıstani
kok
koka
kokde
koke
koki
kokusu
kokım
kokıme
kokımi
kokımu
kol
kola
kolay
kolbıze
kolc
kole
koleji
koli
koloji
kolombiya
kolombiyay
koloniya
koloniye
kolonize
kolıki
kolıkia
kom
koma
komarkay
kombi
kome
komedi
komediyo
komedya
komedyen
komedyeno
komela
komele
komi
komik
komiser
komisyone
komitey
komiteye
kompitor
kompitoran
kompitori
komplekse
komputer
komputeri
koms
komu
komun
komuna
komunane
komune
komuni
komunikasyoni
komunist
komunizm
komır
kon
konak
konde
kone
konfederasyone
konferanse
konferansi
konfuc
kong
kongi
kongo
kongoy
kongoye
kongreye
kono
konsept
konsepte
konser
konsere
konseri
konseye
konsile
konstantin
konstantinopolis
konstantinos
kontrol
kontrole
kontroli
konu
konuk
konus
konvensiyone
konya
koo
kopenhag
kopernikus
kopf
kopula
kopyakerdıs
kor
kore
koreki
korfeze
korfezi
kori
korkmaz
korku
korkusuz
korkut
kormıs
korniki
koro
korta
korya
koryay
koryaya
kos
kosova
kosta
kot
kota
kote
koti
koto
kotschy
kou
kovar
kovara
kovare
kowta
kowto
kowu
koy
koyan
koyane
koye
koyi
koyleri
koyo
koyın
koyıno
koz
krako
krakowi
kral
kralic
kralı
krasnodar
kredi
kreis
kretzi
kri
kristen
kristof
kritik
kritike
krize
kru
ks
ksal
ksek
ksel
ksu
ktekke
ktu
ku
kuala
kuba
kuc
kuckuck
kudret
kuh
kul
kule
kuli
kultur
kulturan
kulturane
kulture
kulturel
kultureli
kulturi
kulturnav
kulturo
kulu
kum
kun
kuna
kune
kuno
kunth
kup
kupa
kupası
kupay
kupaya
kur
kuran
kurbanları
kurd
kurda
kurdan
kurdane
kurde
kurden
kurdi
kurdification
kurdish
kurdistan
kurdistane
kurdistani
kurdkerdıs
kurdki
kurdkiye
kurdkiyo
kurdo
kurds
kurdu
kurdıstan
kurdıstane
kurdıstani
kurij
kuritiba
kurmanc
kurmanci
kurmanciya
kurmancki
kurosawa
kurs
kurse
kursi
kurt
kurtlar
kurtulus
kuru
kurudere
kurumu
kus
kushk
kut
kutaisi
kute
kuto
kutsal
kutıbxane
kutıbxaney
kutıgo
kutık
kutıkan
kutıke
kutıki
kutıko
kuvvetleri
kuwait
kuweyt
kuy
kuye
kuyo
kuzey
kvemo
ky
kyle
kylie
kyoto
kyrgyz
kyu
kı
kıfs
kıhan
kıhana
kıhanan
kıhane
kıhani
kıhano
kıhoyo
kıl
kıla
kılam
kılama
kılaman
kılamane
kılame
kılami
kılawı
kılc
kıle
kılis
kılisa
kılisane
kılise
kılisey
kılite
kılm
kılme
kılmek
kılmeki
kılmi
kılmkerdıs
kılmo
kılıc
kım
kın
kınalı
kınare
kınari
kınc
kınce
kınci
kıneno
kınık
kınıtene
kır
kıran
kırca
kırd
kırdan
kırdas
kırdasan
kırdasi
kırdaski
kıre
kırgızistan
kırilki
kırk
kırmanc
kırmancca
kırmanci
kırmanciye
kırmancki
kırmancon
kırmızı
kırmızıgu
kırs
kırık
kırıs
kıs
kısa
kısi
kısmet
kıtab
kıtaba
kıtaban
kıtabande
kıtabane
kıtabe
kıtabey
kıtabi
kıtabo
kıtabxaneye
kıtabı
kıtav
kız
kızgın
kızlar
kızı
kızıl
kızılcahamam
kızılo
kızım
kızın
kœur
kə
kɛr
kɪ
kʊ
l
la
labastide
labe
labela
labele
labere
labeuville
laborel
labry
laby
labıre
lac
lacaillei
lacan
lacane
lace
lacek
lacekan
lacekano
laceke
laceki
laceko
lacey
lachalade
lachalm
lachambre
lachapelle
lachausse
laci
laco
lacombe
lacourt
lacroix
lada
ladern
ladies
ladino
lady
lae
laf
lafage
lafarre
lafauche
lafayette
laferte
lag
laga
lagarde
lagesse
lagin
lagney
lagny
lago
lagos
lagosi
lagrasse
lagricol
lah
lahaymeix
lahayville
laheycourt
lahiguera
lahore
lahum
lai
laigne
laignes
laik
laille
laimont
laines
lairie
laix
laj
laje
laji
lak
lake
lakin
lal
lalande
lalapas
lale
lali
laluenga
lalueza
lalı
lalœuf
lam
lama
lamak
lamarche
lamarck
lamarcki
lamath
lamb
lambert
lamberville
lameiro
lamerey
lami
lamnay
lamorville
lamothe
lamouilly
lan
lana
lancaster
lance
lanco
land
landaville
lande
landelles
landes
landivy
landon
landos
landrecourt
landremont
landres
landreville
landroff
landze
lane
lanet
laneuvelotte
laneuveville
laneuville
lanfroicourt
lang
langatte
lange
langeac
langers
langley
langon
langres
language
languages
languimberg
lanhe
lani
laning
lanjaro
lanka
lannes
lantages
lante
lanteira
lanthenay
lantriac
lao
laonnois
laos
lapenty
lapeyrouse
laposte
laprade
lapte
laqa
laqay
laquenexy
lar
lara
larchamp
larchant
lard
lardeyrol
larestani
large
lari
laris
larnage
laroque
larouco
larry
lars
ları
ların
las
lasbordes
lascasas
lascuarre
lase
laspau
lassay
lasserre
lassicourt
lassus
last
lastelle
lastours
lat
late
later
latham
lati
latin
latina
latine
latini
latinki
latinkiye
latinkiyo
latour
latrecey
latte
laubressel
laubrie
laudrefang
laulne
launay
lauquet
laura
laurabuc
laurac
lauragais
lauraguel
laure
lauren
laurence
laurent
laurie
laussonne
laux
lauzon
laval
lavalette
lavalle
lavardin
lavare
lavau
lavaudieu
laveline
lavenay
lavernat
laveyron
lavilleneuve
lavincourt
lavou
lavoye
lavranos
law
lawrence
lawık
lawıka
lawıkane
lawıke
lawıki
laxis
laxou
lay
layan
laye
layon
laz
laza
laze
lazek
lazi
lazki
lazut
lazım
lazıma
lazıme
lazımo
lbas
lbendi
lbu
lc
lccn
lcu
ld
lden
ldu
le
leach
lead
leader
leadership
league
leandri
learn
learned
learning
least
leave
leavenworthi
leba
lebanon
leben
lebeuville
lec
lecan
lece
lech
leci
leco
lecri
lecron
led
leda
ledeb
lee
leech
leeds
lefkos
lefon
lefone
lefoni
left
leg
legacy
legal
legane
lege
legend
legends
lehc
lehcey
lehki
leibniz
leiden
leigh
leintrey
leipzig
leirado
leiro
lej
leje
leji
lek
leke
lekerdenı
leki
lele
lelling
lem
lemainville
leman
lemda
leme
lemmes
lemon
lemos
lempdes
lempire
lemps
lemy
len
lencoup
lendelin
lengard
lengronne
lengua
lenin
lenini
lenoncourt
lens
lent
lentegi
lentilles
leo
leon
leonard
leonardo
leone
leopare
leopold
leqeba
leqebe
leqema
ler
lerch
lerchi
lere
leri
lerimiz
lerin
lerrain
les
lesa
lescharts
lesche
lescherolles
lesches
leslie
lesme
lesmont
lessay
lesseri
lessons
lessy
lester
lestre
let
letan
letane
lete
leteo
letey
leteyan
leteye
leteyi
leteyo
leti
letis
leto
letonki
letonya
letter
letters
lettre
lettres
letzte
letıke
leuc
leucate
leudon
lev
levant
levare
leve
level
levelay
levels
levent
leverkusen
levine
levizyon
levizyone
levizyoni
levizyonie
levizyonio
levizyoniye
levoncourt
levy
lew
lewayıs
lewe
lewis
lewiyayıs
lewo
lexy
ley
leye
leyla
leylege
leyman
leyr
leyre
leyri
leyviller
lez
lezbiyen
lezbiyenan
leze
lezgi
lfete
lfu
lgbti
lgbty
lge
lgesi
lgrafi
lgu
lh
lhak
lhami
lhan
lhazan
lhazi
lhomme
lhui
li
lia
liam
lib
libell
liberty
liberya
libiaire
library
libris
libro
libya
lic
lice
licokic
lidere
lidman
lie
liebe
liechtenstein
lieder
lien
lier
lies
liesville
lieu
lieusaint
liez
life
liffol
lig
liga
ligayo
lige
light
lightsource
ligi
lignairolles
ligne
lignie
lignol
lignon
ligny
ligron
lik
like
lille
lilıke
lim
lima
limandre
limane
limar
limburgish
limet
limey
limia
limit
limited
limoges
limone
limonest
limousis
limoux
limouzinie
lin
linares
linc
lincoln
linda
lindl
lindre
line
lines
lingeard
lingey
lingreville
lingua
linguistic
linguistics
linguistik
link
links
linnaeus
liny
lion
lionel
lions
lioure
lir
lira
lirey
lironcourt
lironville
lis
lisa
lisanse
lisanso
lise
lisesi
lisey
lisle
lissac
lissey
lissy
list
lista
liste
listed
listen
lit
litera
literary
literatu
literatur
literature
little
liturgusa
litwanki
litwanya
litwanyaya
liu
liv
livaneli
live
liverdun
liverdy
liverpool
lives
livet
living
livoye
livre
livry
lix
lixie
lixing
liya
liyan
liye
liyi
lizbon
lizines
lizy
ljubljana
ljx
lk
lke
lker
lko
lku
ll
lla
llad
llanera
llar
llarga
llauri
llego
lleida
ller
lleri
lleville
lli
llobregat
llobregatiya
lloc
llocnou
llombai
llora
llosa
lloyd
lls
llu
lluc
llutxent
lm
lme
lmek
lmeyen
lmez
lmfao
lmi
lmo
lmu
ln
lname
lni
lo
loaded
lobeira
lobocla
lobras
local
location
loches
locke
locquenay
locıne
lod
log
logan
loge
loges
logic
login
logne
lognes
logo
logoo
logos
logoya
logoye
loigne
loing
loir
loire
loirea
loireauxence
loirei
loirey
loireya
loireyo
loiron
lois
loisey
loison
loisy
loja
lokal
lokme
lola
lolan
lolif
lolıke
lolıkwerdog
lombron
lome
lon
london
londra
lone
lonely
long
longchamp
longchamps
longe
longeaux
longemer
longer
longeville
longis
longlaville
longnes
longperrier
longpre
longsols
longuefuye
longueville
longuyon
longwy
lons
look
looking
lope
lopez
lophe
loporzano
lor
lora
lorca
lord
lordi
lorenzo
loreur
lorey
lorges
lori
loriguilla
loriol
lorlanges
loromontzey
loroue
loroux
lorquin
lorraine
lorrez
lorry
los
losa
losada
lose
losque
lost
lot
lotta
lou
louailles
louan
loudes
loue
louet
louis
louise
louisfert
louisiana
loup
loupfouge
loupia
louplande
loupmont
louppy
lourenza
lousame
louvain
louvemont
louverne
louvie
louvigne
louvigny
louzes
love
loved
loves
lovesounds
loving
low
lower
loyes
lozeron
lozon
lozımo
lozıne
lp
ls
lsu
lt
ltd
ltekin
lten
ltesi
ltu
lu
lua
luan
luart
luat
lub
lubey
lubin
lublin
lubnan
lubnani
luc
luca
lucas
luce
luceau
lucerne
lucey
luche
lucia
luciano
lucius
luck
lucy
ludab
lude
ludien
ludres
ludwig
lugo
lugoo
lugoy
lugros
lui
luigi
luis
luisetaines
luk
luka
luke
luksemburg
luksemburgi
luksemburgki
lule
luli
lum
lumigny
lumine
lumpur
luna
lunain
lunay
lune
luot
lup
lupcourt
lupien
lupin
lupio
luppy
lur
luran
luri
lurki
lurıstan
lus
lusanger
lusigny
lusse
lutfi
luther
luti
luv
luwek
luxembourg
luxemburg
luy
luya
luye
luzancy
luzerne
luzy
lv
lviv
ly
lya
lyas
lyautey
lydia
lye
lynch
lynn
lynx
lyon
lyoni
lyonia
lys
lı
lıca
lıce
lıg
lıgi
lık
lıki
lım
lın
lınci
lıng
lınga
lıngan
lıngande
lıngane
lınge
lıngune
lıngı
lıs
lızge
lızgey
lızgeye
lızgeyo
lɑ
lə
lɪk
m
ma
maa
maas
maastricht
mabe
mabede
mabel
mabeyne
mac
macar
macaristan
macarki
macarıstan
macarıstani
macdonald
maceda
macellane
macera
macey
machault
machecoul
macheren
machiavelli
machine
machu
machy
mackenzie
macmillan
maconcourt
macori
mad
madagaskar
madalya
madalyaye
madame
madangki
madde
maddey
maddeye
maddie
made
madecourt
madegney
madeleine
madem
maden
madeni
madeniya
madey
madeye
madeyo
madison
madness
madon
madonna
madonne
madre
madrid
madridi
madridiyo
madt
mae
mag
magazin
magazine
magazines
magdalena
magic
magna
magnant
magneville
magnicourt
magnie
magnils
magnus
magny
magrie
mah
mahalle
mahallesi
mahir
mahkeme
mahku
mahkum
mahla
mahlay
mahley
mahmud
mahmut
mahmutog
mahone
mahsun
mahtab
mahzuni
mai
maid
maiden
maigne
mail
maille
maillezais
mailly
main
maincy
maine
maini
mainly
mainville
mainvillers
mainz
maire
mairena
mairy
maisdon
maison
maisoncelles
maisons
maixe
maixent
maizerais
maizeray
maizeroy
maizery
maizey
maizie
major
mak
makaleler
makao
make
makedonki
makedonya
makedonyay
makes
maki
makina
makinay
makiney
making
makino
maksim
mal
mala
malaha
malaincourt
malaisse
malancourt
malar
maları
malataverne
malatya
malaumont
malavillers
malawi
malayki
malcolm
maldiwi
male
malescours
malferit
malgrange
mali
malicorne
malik
malla
mallets
malmaison
malmi
malmo
malo
malras
malrevers
malroy
malta
maltepe
maltin
malumat
malumate
malves
malvie
malville
malze
malım
malıme
malımiye
mam
mama
mamaxatuna
mamaxatune
mame
mamekiya
mamekiye
mamers
mamey
mami
mamma
mamme
mamo
mamog
man
mana
management
manager
managers
manan
manas
manastır
manay
manaye
manc
mance
mancha
manchaya
manche
manchea
manchester
manchey
mancheya
mandarinki
mandela
mandelay
mandray
mandres
mane
manena
manene
maneni
maneno
maney
maneye
manga
mangiennes
mangonville
manhattan
manhattani
manheulles
mani
manila
manisa
manitobaya
maniya
manken
manlleu
mann
mannheim
manni
mano
manoncourt
manonville
manonviller
mans
manse
mansigne
mansur
manthes
mantoida
mantıq
mantıqi
manu
manual
manuel
manuscript
many
manzaneda
manı
manœuvre
mao
maoriki
map
maps
maputo
mar
mara
maracena
marainville
marainviller
marais
marange
maras
maraye
marbache
marc
marceau
marcel
marcey
march
marchal
marche
marchena
marches
marchis
marcille
marcilly
marco
marcorignan
marcouf
marcus
marcy
mard
marda
mardigny
mardin
mardini
mards
mardıs
mare
mareil
mareilles
maresche
maresmeya
mareuil
marey
margaret
marge
margerie
margueray
marguerite
margueron
mari
maria
marianne
marie
marieulles
marignac
marigne
marigny
marilyn
marin
marino
mario
mariyene
mariyeno
mark
marka
markay
marko
marksist
marles
marlon
marloth
marlotte
marly
marmalok
marmara
marmase
marnay
marne
marnea
marney
marneya
maro
marok
marolles
marollette
maron
maroncourt
marquesado
marre
marriage
marron
mars
marsa
marsac
marsais
marsanne
marsaz
marsden
marseille
marseillette
marshall
marsilly
marson
mart
marte
martha
marthemont
marthi
marti
martigne
martigny
martin
martincourt
martinvelle
martos
marty
martys
marville
marvoisin
marwan
marx
marxi
mary
maryland
mas
masal
masalı
masan
masculine
mase
masey
maseyan
maseyveroci
masi
maside
masies
maske
maskeli
maslives
mason
mass
massac
massachusetts
massachusettsi
massalave
massamagrell
massoteres
mast
master
mastering
masti
ması
mat
matador
matbaa
matbaası
matematik
matematike
matematiki
matematiksel
matematikwan
matematikwano
materials
materyale
math
mathaux
mathbb
mathematica
mathematical
matrix
matt
mattaincourt
matter
matters
mattexey
matthew
maucourt
maujouy
maulan
maumusson
maupas
maupertuis
maur
maure
maurice
mauritanica
mauvages
mauves
maves
mavi
mawr
max
maxe
maxey
maxstadt
may
maya
mayan
maybe
maye
mayen
mayenne
mayennea
mayenneya
mayet
mayfair
mayi
maykek
mayki
maykiya
maykiyan
maykiye
maynard
mayo
mayor
mayr
mayreville
mayronnes
mayıs
maz
mazange
mazaricos
mazda
maze
mazeley
mazenc
mazenderan
mazenderani
mazenderanki
mazerat
mazerolles
mazerulles
mazet
mazeyrat
mazgerd
mazgerdiya
mazgirt
mazi
mazirot
mazlum
mazra
mazuby
mb
mbox
mc
mccarthy
mccoy
mcdonald
mcduffie
mcgowan
mckellen
mcvaugh
me
mea
mean
meaning
means
meat
meauffe
meaux
mebe
mebo
mebusan
mebuse
mec
mecbur
mecburi
meclis
meclise
meclıs
meclıse
mecmua
mecnun
mecraya
med
medalist
medan
mede
medelli
meden
medeni
medeniya
medeniyetan
medeniyete
medeniyeti
media
mediawiki
medical
medici
medicine
medien
medina
medki
medo
medregnes
medrese
medresey
medya
medyay
meena
meet
meg
meh
mehabad
mehdi
mehel
meheli
mehemed
mehemede
mehkema
mehkeme
mehkemey
mehley
mehmed
mehmet
mehmu
mehmud
mehran
mehter
meigneux
meilleraie
meilleraye
mein
meira
meis
mek
meka
mekan
meke
mekere
mekero
mekka
mekke
meksika
meksikaya
meksiko
mekteb
mekteba
mekteban
mektebane
mektebe
mektebi
mektebo
mektev
mektevi
mektub
mektube
mektubi
mektup
mektuplar
mektupları
mekuye
mel
mela
melaye
melbourne
meldeuses
mele
meleg
meleh
melek
melekler
meler
meletiya
meletiye
melfang
melgac
meli
melide
melih
melik
melleray
melo
melolontha
melon
melumat
melumate
melumati
melumato
melun
melz
mem
member
members
meme
memed
memedi
memet
memleket
memnu
memo
memorial
memory
memphis
memur
memure
men
mena
menaucourt
menay
menaya
mend
menda
mende
mendeli
mendene
menderes
mendi
mendime
mendo
mendıs
mene
meneks
meng
menga
mengane
mengda
menge
mengi
menglon
mengu
meni
meno
mens
menskirch
mensuba
mensubane
mensube
ment
mental
mentıq
mentıqi
menu
menuc
meqale
meqaley
meqaleye
meqaleyi
meqaleyo
meqes
mer
mera
merainville
merakes
meral
merasime
merca
mercan
mercedes
merci
mercu
mercure
mercurol
mercy
mercœur
merd
merda
merde
merdena
merdenda
merdene
merdey
merdeyan
merdeyo
merdi
merdim
merdiman
merdime
merdimi
merdo
merdum
merduman
merdumane
merdumano
merdume
merdumi
merdumo
merdım
merdıma
merdıman
merdımande
merdımane
merdımano
merdıme
merdımeke
merdımi
merdımio
merdımo
merdıs
mere
merey
merg
merga
mergan
merge
mergey
mergi
merhaba
merheba
meri
meric
merik
mering
meriqa
merkez
merkeze
merkezi
merkeziya
merkur
merle
merlebach
merles
merli
mermaid
merre
merrey
merriam
mersin
mersini
mert
mertal
mertali
merten
mervent
merviller
merwani
merxe
mery
meryem
meryeme
mes
mesac
mesace
mesaci
mesafe
mesaj
mescide
mesdar
mesder
mesela
meselan
meselane
mesele
meselesi
meseley
meseleye
mesgrigny
mesi
mesih
mesihi
meslay
mesleg
meslege
mesmes
mesmin
mesnewi
mesnewiyo
mesnil
mesnilbus
mesnillard
meso
message
messages
messein
messier
messieri
messon
messy
meste
mestroff
mestu
mesut
met
meta
metafiziki
metal
metali
meteorolociye
meteorological
method
metin
metis
metne
metode
metre
metrey
metreya
metreyi
metreyo
metro
metropol
metropolitan
metroy
metroye
metz
metzi
metziya
meurce
meurdraquie
meurthe
meurville
meuse
meusey
meuseyi
mevez
mevsim
mevsım
mevzuat
mewlana
mewlide
mewlud
mewlıd
mewlıde
mewsım
mewzu
mewzuy
mewzuye
mexicana
mexico
mexy
mey
meya
meyda
meydan
meydanande
meydane
meydani
meydano
meye
meyer
meyi
meyle
meyman
meymanan
meymane
meymani
meymun
meymune
meyte
meyve
meywa
meywe
meywey
meyweye
meyzieu
mez
mezar
meze
mezela
mezele
mezelon
mezg
mezgde
mezge
mezgi
mezheb
mezhebe
mezhebi
mezhebo
mezopotamya
mezra
mezrası
mezraya
mezre
mezrey
mezun
mezune
mf
mfo
mg
mgp
mi
mia
miami
mice
michael
michel
michelle
michigan
michigani
mick
mickey
mickie
microsoft
middle
midi
midnight
midrevaux
mie
mierfait
might
migne
mignot
miguel
mihani
mihemmed
mihiel
mik
mikail
mikaili
mike
mikhail
mikro
mikroekonomiye
mikroskop
mil
mila
milad
miladi
milan
milano
mile
miles
milesse
milet
miletane
miletperwerey
miley
mili
milii
militane
military
milk
mill
millanc
millares
mille
millennium
miller
millery
millet
milli
millie
million
milliye
milliyet
milliyetc
millsp
milly
milne
milton
milv
milwaukee
milyar
milyon
milyona
milyonan
milyone
milyoner
milyoni
milyono
mimar
mimari
mimariye
mimbre
min
mina
minas
mind
mine
minervois
mines
ming
minh
mini
minik
minneapolis
minnesota
minor
minority
minorville
minsk
mintiqa
mintiqaya
mintiqayan
minuit
minutes
mio
miomantis
mir
mira
mirabel
miracle
miramar
miranda
miraval
miraz
mirbeau
mirc
mire
mirecourt
mireval
miri
miribel
mirmande
miro
miroirs
mirror
mirza
mirzali
mis
misal
miscon
mise
misin
misir
misiri
miss
misse
missillac
mission
mississippi
missouri
mistake
mistakes
mistefa
misy
misyoneri
mit
mitchell
mite
mithat
mitolociya
mitolociye
mitry
mitte
mittwoch
mix
miya
miyalan
miyan
miyande
miyandı
miyane
miyani
miyans
miyatro
miye
miyon
miyoni
mk
mkurey
mkz
ml
mlek
mlekc
mlerz
mlerzi
mlu
mm
mmxxii
mn
mnras
mo
mobile
moc
mocli
mocnayıs
mocne
mocnena
mocnene
mocneno
mocniyao
mocniyena
mocniyene
mocniyeno
mocno
mod
moda
modan
mode
model
modela
modele
modelo
moder
modern
modernan
moderne
moderni
moderno
modul
modules
moduse
moe
mog
mogente
mogeville
mogne
mohamed
mohammad
mohammed
moi
moiane
moines
moineville
moirey
moisdon
moise
moisenay
moissy
moisy
moitiers
moitron
moivrons
mojo
mokhtar
mol
molandier
moldova
molf
molhesabate
molie
moliere
molins
molla
mollans
mollerussa
molleville
mom
moment
momerstroff
momo
mon
mona
monachil
monadenium
monars
monastier
monay
moncada
monce
monceau
moncel
moncheux
moncourt
mondariz
monday
monde
mondeville
mondon
mondreville
monestie
money
monfero
monflorite
monforte
monhoudou
monica
monistrol
monitor
monkey
monlet
monroe
mons
monsieur
monsireigne
monster
monsters
mont
montabon
montabot
montag
montagne
montaigu
montaille
montan
montana
montanay
montauban
montaudin
montaulieu
montaulin
montauriol
montauville
montaux
montazels
montbert
montbizot
montblainville
montboucher
montbras
montbray
montbrison
montbrun
montceaux
montchaton
montchenu
montclar
montclard
montcocq
montcourt
montcuit
monte
montebourg
montederramo
montefri
monteil
monteji
montenay
montenegro
montenoy
montereau
monterrei
monterrey
monterroso
montes
montesa
montesquieu
monteux
montevideo
montfarville
montfaucon
montferrand
montfey
montfort
montgaillard
montgardon
montge
montgomery
montgon
montgradail
montguers
montgueux
month
monthairons
monthaut
monthly
monthou
months
monthuchon
monthureux
monthyon
monti
montie
montier
montiers
montigne
montigny
montillana
montils
montirat
montjardin
montjean
montjoi
montjoie
montjoux
montjoyer
montlaur
montlivault
montluc
montmachoux
montmartin
montmaur
montme
montmeyran
montmirail
montmiral
montmorency
montoir
montoire
montois
montoison
montolieu
montoliu
montolivet
montournais
montourtier
montoy
montpinc
montpinchon
montplonne
montpothier
montre
montreal
montregard
montreuil
montreux
montrichard
montrieux
montrigaud
montrouveau
montroy
montry
monts
montse
montsec
montserrat
montsu
montsurvent
montsuzain
montvendre
montze
monville
monze
monzo
moody
moon
moore
mor
mora
moral
moraleda
morales
morality
morals
moran
moranville
moras
morcela
morcele
mord
mordem
mordeme
mordemek
mordemi
mordemo
more
moreilles
morela
morelmaison
morembert
moreno
moret
morfontaine
morgan
morgemoulin
morhange
mori
moria
morin
moritanya
moriville
moriviller
morize
morley
mormant
mornans
morning
moro
morris
morrison
morsbach
mort
mortagne
mortain
mortcerf
morte
mortery
mortiers
morville
morvilliers
mory
mos
moscow
moselle
moselleo
moselley
moselleya
moselleyi
moselleyiya
moselotte
moses
moskowa
mosley
most
mostar
mot
mote
moteno
moth
mother
motki
moto
motor
motore
motori
motte
motıs
mouacourt
mouaville
mouche
moudeyres
mouilleron
mouilly
moulaine
moulainville
moulay
moulin
moulines
moulins
moulotte
mount
mountain
mouroux
mouse
moussan
mousseaux
moussey
mousson
moussoulens
moussy
mouthoumet
moutiers
moutils
moutrot
moux
mouy
mouzay
mouzeil
mouzeuil
mouzon
move
movement
movie
movies
moya
moyemont
moyen
moyenmoutier
moyeuvre
moyon
mozambik
mozart
mp
mparator
mparatoriya
mperator
mperatore
mperatoriya
mr
mrs
mru
ms
mse
msg
msm
msn
msu
mt
mtaz
mtv
mu
muammer
muazzez
mucadele
mucadeley
much
mucize
mudire
mug
mugabe
muh
muhabbet
muhammad
muhammed
muharrem
muhemmed
muhi
muhim
muhime
muhimi
muhimo
muhlis
muhsin
muhtar
muhtes
muhteway
muhımo
mui
muides
mukri
mulhouse
mulleri
mulsanne
mulsans
multi
multien
mumbai
mumkın
mun
munaqes
munda
mundo
muneville
muney
mungan
municat
municipality
munix
munixi
munster
muntanyola
munzur
munzuri
muquf
mur
murad
muradan
muradane
muradi
muras
murat
murathan
murca
murd
murder
mure
mureau
mureils
muriye
murphy
murray
murtas
murvaux
murville
mus
musa
musabeyli
musao
musay
musaya
musaye
musayene
musayi
musayo
musayog
musayıs
muschampia
muse
musene
museno
museros
museum
musewi
musewitiye
musewiy
mushemi
music
musical
musicbrainz
musik
musiyao
muslim
musnayıs
musnena
musnene
musneno
musoni
mussivand
mussolini
mussy
must
mustafa
mustasım
musıl
musıli
mutasyon
mutasyoni
mutlu
mutluluk
muxi
muxtar
muxtare
muyane
muye
muyi
muz
muza
muzaffer
muzat
muze
muzeray
muzey
muzi
muzik
muzika
muzike
muziki
muzikia
muzikio
muzikiya
muziko
muzisyen
muzisyena
muzisyenane
muzisyene
muzisyeni
muzisyeno
mw
my
myanmar
myanmari
myself
mystery
myth
mzk
mı
mıbarek
mıbarekkerdıs
mıcadele
mıde
mıdefa
mıfetıs
mıg
mıhemed
mıhemmed
mıhemmedi
mıhemmedio
mıhendis
mıhendisiya
mıj
mıkemmel
mıl
mıle
mılet
mıletan
mıletane
mılete
mıleti
mıleto
mıletı
mıli
mılke
mılletan
mıllete
mılleti
mılli
mımarine
mın
mına
mınasebete
mıne
mınete
mıno
mıntıqa
mıntıqan
mıntıqane
mıntıqao
mıntıqay
mıntıqaya
mıntıqe
mıntıqey
mıntıqeye
mır
mıra
mırc
mırd
mıre
mırena
mırene
mıreno
mıric
mıro
mırode
mıroy
mıs
mısal
mısale
mısali
mısnayenı
mısneno
mısri
mıstefa
mıstemera
mısılman
mısılmanan
mısılmanane
mısılmanano
mısılmane
mısılmani
mısılmano
mısır
mısıre
mısıri
mısırio
mısıro
mısırıcan
mıt
mıtbaxe
mıtes
mıxtelif
mıxtelıf
mıyan
mɛ
mɛɾ
mɪ
mɪt
n
na
nabe
nabi
nabor
nabord
naca
nach
naci
nacional
naciye
nacqueville
nad
nada
nadi
nadia
nadir
nadu
nae
nafa
nag
nah
nahiya
nahiye
nahiyey
nahiyeye
nai
naim
naives
naix
nak
naka
nake
naks
nal
nalan
nale
naledi
nalliers
nallıhan
nam
naman
namane
namdar
namdara
namdaran
namdare
namdari
namdaro
name
named
namede
namekerdıs
nameliststyle
nameo
names
namespace
namey
nameyan
nameyane
nameye
nameyi
nameyo
namibya
namur
namus
namusi
namzade
namzed
namzede
namık
nan
nana
nanc
nancy
nande
nane
nangis
nani
nano
nanog
nant
nanteau
nantes
nanteuil
nantillois
nantois
nantouillet
nao
napoca
napoleon
napoli
napolyon
naqas
naqi
naqki
nar
nara
narbe
narbonne
narcy
nard
nare
narmont
naro
nas
nasa
nascimento
nash
nashville
naskeno
naskerde
naskerdene
nasyonal
nasyonali
nasyonalistan
nasyonalistane
nasyonaliste
nasyonalisti
nasyonalizm
nasyonalizme
nasıl
nat
nata
natalie
natas
natasha
nate
natey
nateye
nathan
nation
national
nationalists
nations
native
nato
natoy
natu
natura
natural
naturali
nature
naturizm
naud
nauvay
navahoki
naval
navarre
navas
nave
naveil
navia
navir
navy
naw
nawa
nawıtene
nawıto
nawıtıs
naxc
naxır
naxıran
naxıre
naxıri
nay
naya
naydın
naye
nayemont
nayene
nayenı
nayey
nayi
nayis
nayiya
nayo
nayıs
naz
nazaire
nazan
nazareth
nazi
nazif
naziyan
nazlı
nazmi
nazmiya
nazmiyaya
nazım
nb
nba
nbc
nc
nca
ncan
ncara
ncbi
nce
ncey
nchen
nci
ncil
ncile
ncili
nco
ncs
ncu
nd
nda
ndar
nde
nden
nder
ndez
ndi
ndia
ndl
ndnis
ndog
ndonezki
ndonezya
ndonezyayo
ndu
ndı
ne
nea
neandertali
near
neau
nebahat
nebat
nebatan
nebati
nebato
nebeno
nebi
nebiog
nebra
nebraska
nebula
nec
necati
necdet
necessary
necip
necmettin
necmi
ned
neda
neden
nedim
nedir
need
needed
needs
nefer
nefero
nefes
nefese
nefsi
negatif
negreira
negro
nehcu
nehir
neil
neill
neja
nejat
nejdi
nejdiye
nek
neka
neke
nekeno
nekerdo
nel
nelson
nem
nemac
nemace
nemours
nen
nena
nene
neni
neno
nenu
neo
nepal
nepali
nepalki
neptun
nepvant
neq
neqareh
neqebe
neqi
ner
nere
nerede
nereye
neri
neribij
nerikiye
neril
nerimaki
neriman
neriyo
nerm
nerme
nermo
nero
neron
nes
nesah
nesin
nesle
nesles
nesrin
nesıl
nesıle
net
netanya
netflix
neti
netice
netik
netika
netike
netiki
netikio
netiko
netmen
nettancourt
network
neu
neuf
neufcha
neufmaisons
neufmesnil
neufmontiers
neufmoutiers
neufour
neuilly
neung
neunkirchen
neutral
neuve
neuves
neuveville
neuvillalais
neuville
neuviller
neuvillers
neuvillette
neuvilly
neuvy
nevada
never
nevzat
new
newa
newan
newark
neway
newcastle
newe
newedera
neweo
newepel
newes
newey
neweyan
neweye
neweyi
neweyo
newfoundland
newi
newiya
newiye
newke
newman
newos
newroz
newry
news
newsletter
newspaper
newspapers
newton
newına
next
ney
neya
neyayo
neye
neyi
neyo
neyse
neyt
nez
nezdi
nezdio
nezdiya
nezdiye
nezdiyo
nf
ng
ngc
ngcic
nge
ngero
ngi
ngili
ngiliz
ngilizce
ngilizki
ngiltere
ngo
ngu
ngus
ngıltera
ngıltere
ngıltereyo
ngılız
ngılıza
ngılızan
ngılızi
ngılızki
ngılızkiye
ngılızkiyo
ngılızo
nh
ni
nia
niada
niadana
niadano
niade
niafles
niane
niaz
nic
nica
nicaeensis
niccolo
nice
nicer
niceri
nicerya
niceryay
nicey
nicholas
nicholson
nicht
nick
nicola
nicolas
nicolaus
nicole
nicorps
nicourt
nids
nie
nied
niedervisse
niels
nielsen
nietzsche
nig
nigeria
night
nights
nigo
nigra
nigu
nih
nihal
nihat
nik
nika
nikaragua
nike
nikola
nikolai
nikolay
nil
nilgu
nili
nillot
nils
nilu
nim
nime
nimu
nin
nina
ninan
nine
ning
ninh
nino
ninon
ninu
nio
niort
nir
nira
niro
nirvana
nis
nisa
nisan
nisana
nisane
nisange
nisanyan
nisanyanmap
nisanyansozluk
nisena
niseno
nissieux
nisy
nite
nitting
nivay
niversitesi
niwersita
nix
nixe
nixon
niy
niya
niyan
niyane
niyano
niyao
niyaro
niyay
niyaya
niyayo
niyazi
niye
niyena
niyene
niyeno
niyo
niyu
nizam
nizame
nizdi
nizhny
niʝə
nj
nka
nkc
nke
nki
nl
nla
nler
nlm
nlu
nm
nmez
nn
nni
no
noaa
noalejo
nobel
nobele
nobeli
nobelia
nobetı
nobody
noch
nod
node
noe
noel
nogent
nogueira
noidant
nois
noisiel
noisseville
noisy
nokia
nokta
nom
nome
nomeny
nomexy
nompatelize
nomre
non
nona
nonains
none
nonhigny
noni
nonneuse
nonsard
nonville
nonzeville
nor
nord
norm
normal
normali
normalo
normals
norman
normandie
normandiya
norristown
norroy
nors
norsk
nort
north
northen
northern
norton
norvec
norwec
norweci
norwecki
norweckiyo
nos
nosid
noside
nosidi
nosido
nossoncourt
not
nota
note
notes
nothing
notice
notre
nottingham
nouan
nouans
noues
nouillonpont
nouilly
nourray
nous
nousseviller
nouvelle
nouvelles
nov
nova
nove
novel
novele
novels
november
novgorod
novi
noviant
noville
novo
now
nowy
noxtay
noxtaya
noyal
noyen
noyers
noyo
nozay
nr
ns
nsa
nsal
nsan
nsanan
nsani
nsanlar
nsanları
nsano
nsanın
nsson
nstab
nster
nsteri
nt
ntar
ntera
nternet
nterneti
nther
ntikam
ntikamı
ntv
ntvmsnbc
nu
nube
nubki
nuclear
nudistan
nueno
nuevo
nufuse
nufusu
nufusune
nuh
nuhi
nuille
nuisement
nuit
nuki
nukleer
numara
number
numbers
nume
numre
nun
nur
nuray
nure
nureddin
nurettin
nuri
nursi
nus
nuse
nusene
nuseni
nuseno
nusi
nusiyao
nusiyay
nusiyaya
nusiyaye
nusiyene
nusiyeno
nuskar
nuskare
nuskari
nuskaro
nusna
nusnay
nusne
nusneno
nusno
nuste
nustena
nustene
nustey
nustog
nut
nuuk
nv
nvas
ny
nya
nyası
nye
nyons
nytimes
nz
nı
nıfus
nıfusa
nıfuse
nıfusi
nık
nıka
nıkay
nıke
nıki
nımac
nımaj
nımnene
nımneno
nımuney
nımıte
nımıtenı
nımıtox
nın
nıqara
nıs
nısan
nısbete
nısbeti
nızm
nızme
nızmi
nızmo
nɑ
nə
nɪ
o
obama
oban
oberdorff
oberthu
obervisse
obispo
obje
objektif
oblak
oblast
obliquus
obsonville
oc
oca
ocag
ocak
ocalan
occidentalis
occidentaliya
occitanie
ocean
och
ochey
oclc
ocquerre
oct
octave
octeville
october
ocug
ocuk
ocuklar
ocukları
od
oda
odası
odense
oder
odessa
odontomantis
odtu
odule
odır
oe
oecd
of
off
offenbach
office
official
offroicourt
ofo
og
ogden
oge
ogi
ogne
ogy
oh
ohio
oi
oigny
ois
oisseau
oissery
oize
oja
ok
okan
okc
oklahoma
oksitanki
oktay
okulu
okyanus
okyanuse
okyanusi
okyanuso
okyanusya
okyanusyaya
ol
ola
olacak
olan
olarak
old
oldenburg
oldknow
oldu
oldug
oldum
ole
olenev
oli
olig
oligi
oligia
oligiya
oligiyo
olimpiyate
olimpiyati
olimpiyatie
oliva
oliver
olivet
olivia
olivier
oliviers
olizy
olki
ollainville
olleria
olley
ollie
ollon
olma
olmak
olmaz
olo
olocau
olonzac
olost
olpan
olsam
olsson
olsun
olur
olus
olya
olympic
olympics
olıstan
olıstani
om
omar
omble
ome
omelmont
omer
omid
omonville
omre
on
ona
onard
onay
onca
once
oncel
onceno
oncia
oncino
onciya
onciyayo
oncourt
ond
ondara
onde
one
onepage
ones
oni
onjon
online
only
ono
onore
ons
ont
ontario
ontarioya
onte
ontene
ontin
ontinyent
onto
ontologiya
ontologiye
onur
onurlu
onville
onyayıs
onzain
oo
op
opac
opel
open
opera
operasyon
operasyone
operasyoni
operation
operator
operatorname
opinion
opinions
opole
oppose
optik
option
or
ora
oradour
orak
oral
oran
orange
oray
orbay
orbiel
orbieu
orbigny
orbrie
orce
orcera
orchaise
orchestra
order
ordes
ordi
ordiye
ordu
ore
oregon
ores
org
organ
organe
organi
organizasyon
organizasyonane
organizasyone
organizasyoni
organizasyono
organization
organize
organizma
organo
orge
orglandes
orgueilleux
orhan
orhun
ori
oricinal
oricinale
oricinali
oriental
orientalis
orientaliya
origin
original
originals
origins
origne
origny
oriol
orkestra
orlando
orleans
orly
orman
ormeaux
ormes
ormesson
ormond
ormoy
ornag
ornage
ornain
ornaisons
orne
ornel
ornes
ornithodoros
ornois
orny
oro
orobanchoides
oroso
orques
ors
orsans
orta
ortac
ortako
ortega
orthe
ortigueira
ortilla
ortillon
ortodokse
ortodoksi
ortodoksiya
ortodoksiye
ortoncourt
orum
orumi
orumia
orval
orvanne
orvilliers
orvin
oryantasyonane
os
osa
osaka
oscar
oscari
osches
osetki
osetya
osiris
osirisi
oskari
oslo
osman
osmane
osmani
osmaniyan
osmaniye
osmanlı
osmanıcan
osona
osormort
osp
ossey
osso
osta
oster
ostera
osteri
osuna
ot
otaw
otel
oteli
othain
othe
other
others
otherwise
othis
oti
otoing
otomatik
otomobil
otonom
otonoma
otonome
otonomi
otoriteyi
ottawa
otto
ottoman
ottonville
otura
ou
ouchamps
oucques
oudejans
oudon
oue
ouen
ouette
ouge
ouides
oule
oullins
oulph
oup
our
ource
ourches
ourcq
ourense
ourenseo
ourensey
ourenseya
ourol
out
outeiro
outille
outremer
ouve
ouville
ouzouer
ov
ova
ovacık
over
overn
overview
oviedo
ovin
ovis
ow
owa
owe
owen
own
oxford
oxyopsis
oxyothespis
oy
oya
oyi
oyo
oyun
oyuncu
oyunu
oz
oza
ozan
ozbekistan
ozbekıstan
ozenne
ozerailles
ozeville
ozoir
ozon
ozouer
p
pa
pablo
pac
pace
pacific
padayo
padern
paderne
padi
padis
padoux
padro
padul
pae
paganizm
page
pages
pagne
pagny
pagodinho
pahlavi
pahn
pail
pain
paine
painter
paiporta
pair
paisy
paiza
paizia
pak
paka
pake
paki
pakistan
pako
pakte
pakıstan
pakıstani
pal
palace
palairac
palaja
palameix
palas
palau
palermo
palestine
palevi
paley
pali
palis
palla
pallegney
pallet
pallida
palma
palmas
palme
palmer
palo
pamela
pamfou
pamiri
pampaneira
pamuk
pamukc
pan
panama
panc
pancas
pance
panci
pancre
pancs
pancın
pancına
pancıne
pancıno
panda
pandomim
panel
pange
panges
paniai
pannece
pannes
panorama
panthera
panticosa
panto
panurgica
paolo
papa
papag
papay
papayan
papaz
papazan
pape
paper
papers
papoul
papua
papuakiyo
papuayo
par
para
parada
parade
paradela
paradise
paradokse
paraguay
parahou
paralel
parantez
paraoxypilus
parasphendale
paraza
parc
parce
pare
pareds
pareid
parennes
parey
parfondrupt
parges
pargny
pargues
pari
parigne
parinacota
paris
parisi
park
parke
parker
parko
parlamenter
parlamenteri
parlamento
parlamentoy
parlamentoye
parlementoye
parma
parne
paroches
parodi
paroisse
parole
paroy
parres
parroy
pars
parse
parsi
parsons
parsonsi
part
partan
parti
participants
participate
partisi
partiy
partiya
partiyane
partiye
partki
partners
partnerships
parts
party
parux
parva
pas
pasa
pasai
pasaporta
pasay
pasaye
pascal
pasif
pasifik
pasifiki
pasolini
pasoriya
pass
passion
passy
past
paste
pastoriza
pasur
pasurilcesi
pasxalya
pat
patara
pataveh
patene
patente
paterna
paterne
pathoschild
patriarca
patrice
patricia
patrick
patron
paty
pau
paul
paula
paulhac
paulhaguet
pauli
paulien
pauligne
paulo
paulsen
paulus
pavace
pavillon
pawe
pawena
pawene
paweni
paweno
pawıte
pawıto
pawıtıs
pax
paxia
pay
paya
payan
payane
paydas
paye
payi
payiz
payiza
payize
payizo
payne
payns
payra
payre
pays
paytaxte
paytext
paytexte
paytexti
paytexto
paytonci
payız
payıze
payızi
paz
pazanne
pazar
pazartesi
pazos
pc
pd
pdf
pdk
pe
peace
peal
pearl
pearson
pec
pech
pedagog
pede
pedi
pedilanthus
pedrafita
pedralba
pedro
pee
pegalajar
pegasus
pehlewi
pehlewki
pejic
pek
peker
peki
pekin
pekinensis
pekkan
pel
pela
pelane
pele
pelga
pelge
peli
peligros
pelin
pelitli
pellerin
peltre
pelınun
pembe
peme
pemi
pen
penc
pencabki
pencere
penchard
penede
penfao
penguin
penh
penir
penn
pennautier
penne
pennes
pennsylvania
penny
pensilvanya
pentti
people
peoples
pepper
per
pera
perac
peralta
peran
perana
perande
perane
peray
perc
perce
percey
perche
percip
percy
perde
pere
pereiro
perena
perene
perepis
pereshkaft
perestan
perestıs
perey
pereye
pereyo
perez
perfect
performed
pergel
peri
period
perkins
pernelle
pernik
pero
peroc
peroci
peroxa
perques
perr
perra
perran
perrane
perre
perriers
perron
perry
pers
persan
persane
perse
persena
persepolis
persi
persia
persian
persica
perskeno
perso
person
personal
personality
perspective
perstar
pertek
perthes
perthois
pertuis
pertusa
peru
perwer
perwerdeyi
pes
pesnel
pet
pete
peter
peters
petersburg
petersen
petersi
peti
petit
petite
petitmont
petitville
petosse
petra
petrol
petroli
petrus
pettonville
petty
peuton
peuvillers
pewciyayene
pewtene
pexine
pexiora
pexonne
pey
peya
peybend
peybende
peybendi
peyda
peyde
peydena
peydo
peydı
peye
peyen
peyg
peyhurendi
peyi
peymıtıs
peyne
peyni
peynie
peyniya
peyniye
peyra
peyrefitte
peyrens
peyrepertuse
peyriac
peyrins
peyrolles
peyrus
peys
peyser
pez
peza
peze
pezens
pezou
pg
ph
phal
phanc
phare
phase
phe
phepug
phepuge
phepugi
phes
phil
philadelphia
philbert
philip
philippe
phillip
phillips
philosophical
philosophy
phlin
phnom
phoenix
phonc
phos
photo
photography
photos
php
phthersigena
phu
phyllovates
pi
pia
piace
piais
piano
pianoforte
picanya
picassent
picasso
picauville
picchu
pickeringi
picture
pictures
pie
piece
pied
piennes
pierce
pierre
pierrefitte
pierremont
pierrepont
pierreville
pierrevillers
pieter
pietro
pieusse
pieux
piez
pigar
pil
pila
pilan
pilane
pilaqan
pilaqi
pilbiyayıs
pile
piles
pili
pilles
pillon
pilly
pilo
pilot
pilote
pilvank
pin
pinal
pinaliya
pinar
pince
pine
pinet
pineu
pineux
piney
ping
pink
pinnebergi
pinney
pino
pinols
pinonville
pinos
pinouze
pins
pintheville
pinto
pinyin
pion
piqui
pir
pira
pirace
piraeus
piramidi
piran
piraniya
pirates
pire
piri
pirmil
piro
pirou
pirtu
piruz
pirıke
pis
pisi
piskopos
pissotte
pisy
pital
pitoni
pitt
pittsburgh
pius
piy
piya
piyan
piyanist
piyano
piyasa
piyase
piyaz
piye
piyes
piyo
pize
pizey
pizieux
pizon
pizza
pjesme
pk
pkk
pl
pla
place
placy
plain
plaine
plaines
plaisians
plaj
plaje
plak
plan
plana
planchers
planciusi
plancy
plane
planet
plans
plant
planty
plappeville
plata
plate
platform
platforme
plato
platon
platoni
plavilla
play
playbill
player
playing
please
plesse
plessis
plomb
plombie
plos
plovdiv
plu
plumptre
plus
ply
pm
pmc
pmcentrez
pmid
pna
pnas
png
po
pobla
poblet
pobra
poc
podgorika
poe
poem
poems
poet
poetry
poigny
poille
poilley
poincy
poinson
point
poio
pois
poivre
poix
poke
pol
polar
polat
polatlı
pole
poleymieux
poli
police
policies
policiniye
policy
polignac
poligny
polinya
polis
polisan
polise
polisi
poliso
polisot
polisy
political
politics
politik
politika
politikan
politikay
politikaya
politike
politiki
politiko
politique
polo
polonki
polonya
polonyay
polonyaya
polycarpe
polyspilota
polytremis
pomare
pomas
pomblin
pomme
pommeraye
pommerieux
pommeuse
pompa
pompierre
pomponne
pomy
ponc
poncas
ponce
ponet
ponsas
pont
pontaix
pontaubault
pontault
pontcarre
pontcha
ponte
ponteareas
pontedeva
pontenova
pontes
pontevedra
pontevedrao
pontevedraya
ponthierry
ponthouin
pontlevoy
pontones
pontorson
pontoy
pontpierre
ponts
pontvallain
pony
pop
pope
popi
popular
populasyon
populasyone
populasyoni
population
populer
por
porcelette
pore
porn
pornic
pornografiki
pornografiya
pornografiye
pornoy
pornoya
porqueira
porqueres
porr
porrin
port
portaj
portakal
portal
portale
portali
portas
portbail
porte
portekiz
portekizi
portekiziyo
portekizki
portekizkiyo
portel
porter
portes
portieux
portland
porto
portomari
portrait
portsmouth
portu
pos
position
positive
possible
post
posta
postal
postali
postay
poste
postesuran
postesuri
postexane
postey
posti
postıke
pot
potanthus
potene
potential
pothe
potries
potter
pouan
pouange
pougy
pouille
pouilly
poulay
poulie
pound
pour
pournoy
poussay
pouxeux
pouy
pouzauges
pov
powell
power
poyols
pozena
pozeno
pozisyone
pozitif
pozo
pp
pr
pra
practice
pradelle
pradelles
prades
prag
prairie
prancher
praslin
pratik
pray
praye
pre
prefecture
preixan
premier
premiere
premio
prens
prense
prenses
prensiban
prensibe
prensibi
pres
present
presenter
presents
preserved
president
presles
presley
press
prestij
preston
pretoria
pretty
pretz
preutin
previously
prey
prez
prezervatif
price
pride
prie
priest
prima
primatan
prince
princess
princeton
principe
pringe
pringy
prinquiau
print
pris
privat
private
prix
prize
pro
probably
problem
problemane
probleme
problemi
problemo
problems
proc
proce
process
procey
proceye
proctor
producer
product
production
produksiyoni
produktor
produktore
produktoro
prof
profesor
profesoran
profesore
profesoro
professional
professor
profesyonel
profil
profile
profiles
prog
program
programane
programe
programi
programming
programnayıs
programo
progress
proje
project
projects
projey
projeye
prokh
prometheus
proof
propaganda
property
prophet
propiac
proposal
proposals
propose
proposed
prose
prosese
prosesor
protect
protein
protestan
protesto
protestoye
proto
protosinkellos
prouille
provence
provenche
proverville
provide
provided
providence
province
provinces
provincial
provins
proxram
proxrame
pru
prugny
pruille
prunay
pruniers
prusy
prusya
ps
psalaya
pseudoharpax
pseudovates
pseudoyersinia
psi
psikolocik
psikolociya
psikolociye
psychology
pt
pu
puani
pub
public
publication
publications
published
publisher
publishers
publishing
publius
pubmed
pubmedcentral
puc
pucelle
puceul
pue
puebla
puelles
puente
puerta
puerto
pueyo
puginier
puiche
puid
puig
puilaurens
puisay
puisieux
puits
puivert
puk
pule
pulianas
pulligny
pulney
pulnoy
pulsar
pulur
puluri
puluria
puluriya
punerot
punta
punxi
puppets
pur
pure
purpose
purt
purte
purullena
pus
pussy
pusula
put
puxe
puxieux
puy
puygiron
puzieux
py
pyongyang
pyrgomantis
pyrgus
pywikipedia
pı
pıhe
pılemoriya
pılemoriye
pılemuriye
pınar
pır
pıra
pırc
pırd
pırde
pırdi
pırdo
pıre
pırnıka
pırnıke
pıro
pırodayıs
pırode
pıros
pırr
pıs
pısa
pıste
pısıng
pısınga
pısıngane
pısınge
pısıngi
pıt
pıtan
pıte
pıtı
q
qa
qabul
qac
qadi
qafıka
qafıke
qahira
qahire
qai
qaide
qaji
qal
qala
qale
qaleh
qali
qalkerdog
qalkerdıs
qalın
qamis
qamıs
qan
qanalizasyoni
qanat
qande
qang
qanser
qansere
qanseri
qanu
qanun
qanunan
qanunane
qanune
qanuni
qanuno
qapan
qarar
qarliova
qars
qaryola
qas
qase
qasimlo
qasım
qat
qatar
qate
qatır
qatıre
qawaxe
qay
qayis
qayt
qayte
qayıl
qaz
qazaxki
qazaxıstan
qazaxıstani
qazi
qazianteb
qe
qebila
qebu
qebul
qec
qedafi
qede
qedena
qedenay
qedene
qedeno
qeder
qedere
qedexe
qedi
qedina
qedino
qediya
qediyayo
qediyayıs
qediye
qediyene
qediyeno
qediyo
qedre
qedri
qedır
qedıri
qefc
qefle
qefqasya
qehwe
qela
qelb
qelbe
qelbi
qele
qelecug
qelem
qelema
qeleme
qeq
qer
qerar
qerare
qeras
qerebag
qerebe
qerebuk
qerec
qereman
qeremani
qereog
qerer
qerere
qers
qerte
qertel
qes
qesa
qesane
qese
qeseo
qesey
qeseykerdene
qesi
qesideyo
qeso
qesre
qestamonu
qesu
qet
qeter
qeteri
qeti
qetliam
qetliame
qetıl
qewaxe
qeweta
qewete
qewetın
qewetıne
qewetıno
qewm
qewme
qewmi
qewt
qewul
qey
qeyd
qeyda
qeydane
qeyde
qeydey
qeydi
qeymeqamiya
qeyr
qeyseriye
qeza
qezae
qezane
qezay
qezaya
qezaye
qeze
qezenc
qezence
qezeta
qezetey
qezey
qezeyane
qi
qian
qimet
qimete
qin
qingdao
qintı
qiral
qise
qisey
qisme
qn
qo
qoc
qode
qodi
qol
qolay
qole
qom
qome
qomi
qomutane
qontrol
qonya
qonyaya
qor
qote
qral
qrale
qraliya
qtısade
qu
quad
quality
quang
quart
quarterly
quartet
quatre
qudu
qudıs
que
quebec
quechua
queen
queens
queer
queixa
quelaines
quelande
quentin
quer
quera
querqueville
quesa
quesada
quest
question
questions
quettehou
quettetot
quettreville
queurdreville
queyrie
qug
qui
quibou
quiers
quillan
quilly
quincey
quincy
quine
quint
quinte
quintela
quintet
quintillan
quirbajou
quirin
quiroga
quirze
quite
qul
qula
qule
quli
qulo
qulp
qum
qumandane
qumas
qumi
qur
quran
qurana
qurane
qurban
qurbane
qurbangah
qurbani
qurc
qureyza
qurse
qutıban
qutıbi
quweta
quwetane
quwete
quweti
quwetın
quwetıne
quwetıno
qy
qı
qıbrıs
qıbrıse
qıbrısi
qıc
qıcan
qıcane
qıce
qıci
qıckek
qıckeke
qıckeki
qıckeko
qıco
qıje
qıji
qılancıke
qıle
qılincmase
qılık
qına
qıne
qıpc
qır
qıral
qıralan
qıralane
qırale
qırali
qıralic
qıraliya
qıralo
qırg
qırnata
qırr
qırs
qırtıke
qırxlareli
qırxlareliya
qırım
qırımi
qırıxqele
qıs
qısan
qısane
qıse
qısebend
qısebende
qısebendo
qısey
qıseyan
qıseye
qıseykerdene
qıseykerdog
qıseykerdıs
qıseyo
qısle
qısme
qısıme
qısımo
qıta
qıtane
qıtay
qıtaya
qıtek
qıteka
qıtekan
qıteke
qıteki
qıteko
qıteyane
qıymete
qız
qızılbas
qɑ
r
ra
raa
rabi
rablais
rac
racan
race
rachecourt
rachel
racine
racing
rad
radagasto
radcl
radcliffe
rade
radikal
radio
radius
radon
radonvilliers
radyasyon
radyo
radyoaktif
radyoy
radyoye
rae
raf
rafael
rafe
rafelbunyol
rafelcofer
rafelguaraf
rafet
rafi
rafya
rafyay
rag
rah
rahart
rahat
rahay
rahibi
rahman
rai
raids
raif
rain
rainbow
rainer
rainforest
rainfray
rainsouin
rainville
rairiz
raissac
raival
raj
raji
rakerd
rakerde
rakerdene
rakerdo
rakerdıs
rakere
rakewno
rakhine
ral
ralph
ram
rama
ramakrishna
ramallah
ramat
ramazan
ramazanog
rambert
rambervillers
rambluzin
rambucourt
rame
ramecourt
ramena
ramene
rameno
ramerupt
ramey
rami
ramiz
ramo
ramon
ramonchamp
ramphotyphlops
rampillon
rampont
ramui
ramıt
ramıta
ramıte
ramıtene
ramıto
ran
rana
rance
rances
rancoudray
rancourt
rand
rande
randi
random
randy
rane
ranes
range
rani
ranie
ranio
raniye
raniyo
ranki
rankio
rankiyan
rankiyane
rankiyano
rankiye
rankiyo
rano
ranolociye
ranolog
rans
ranzie
ranıcan
ranıcano
ranıci
ranıco
rao
raon
raoul
rap
rapey
rapi
rapor
rappero
raq
raqi
rard
rardmer
rare
rarity
ras
rasa
raspberry
rast
rastafari
raste
rasti
rastnus
rastnustena
rat
rather
ratie
ratification
ratneyao
ratzenberger
raucoules
raucourt
raudot
rauf
rauh
raulecourt
rauville
rauvilliers
rave
ravenoville
ravenscroft
raver
raverberdene
raveri
ravers
raves
ravey
raville
ravv
rawa
rawo
rawus
ray
raya
rayan
rayber
raybere
rayda
raye
rayi
rayis
raymond
rayo
raywanan
raz
raza
raze
razi
rban
rbani
rbu
rc
rcabo
rcal
rcan
rcani
rcer
rchules
rcu
rd
rda
rdan
rdane
rde
rdek
rdekan
rdeki
rdenı
rdet
rdey
rdf
rdi
rdistan
rdo
rdoba
rdu
rdıs
re
read
reader
readers
reading
ready
reagan
reaksiyon
real
reality
really
reason
reasons
reb
rebais
rebat
rebbi
rebe
rebecca
rebenty
rebeuville
rebi
rebiyel
rec
reca
recent
recep
rech
recloses
record
recorded
recording
records
recoubeau
rectus
recım
red
redaksiyone
redir
redlach
rednex
redondela
redorte
redoux
ree
reeves
ref
referandum
referansan
referanse
referansi
reference
references
reffroy
reffuveille
refik
reform
reforme
reg
regards
regel
regia
region
regional
regions
regis
regne
regney
regnie
regı
reha
rehaincourt
rehainviller
rehat
rehaupal
reherrey
rehet
rei
reich
reichert
reigneville
reigniers
reillon
reims
reina
reine
reis
reise
reisi
reisicumhure
rejime
rek
reke
reket
rekete
reklam
rekti
rel
relanges
related
release
released
releases
relenque
relevant
reliable
religion
religious
rem
rema
remains
remao
remaudie
remauville
remaye
rembercourt
remember
remenauville
remene
remeno
remenoville
remet
remeti
remezan
remezani
remicourt
remilly
remimont
remiremont
remix
remixes
remo
remoiville
remomeix
remoncourt
remouille
removed
removille
remy
remzi
ren
rena
renaissance
renault
renauvoid
renay
renaze
renc
rencber
rence
rences
renci
rencik
rene
reng
rengan
rengane
renge
rengi
rengna
rengo
renguerville
reni
rennes
reno
repaix
repel
replace
report
reportaj
reports
repos
republic
reqabet
reqasa
reqemane
reqemi
reqibe
requeil
requena
request
requests
res
resa
resam
resamo
resao
resay
resaya
resaye
resayey
resayo
resayıs
rescuers
research
resena
resene
reseni
reseno
resi
resistance
resme
resmi
resmio
resmiy
resmiyan
resmiye
resmiyet
resmiyete
resmiyeti
resmiyetio
resmiyo
resnaye
resnayıs
resne
resnene
resneno
resno
reso
resource
resources
respect
respublika
ressam
ressamo
resson
rest
restitut
result
results
resım
resımi
ret
rethel
retim
retmen
retonfey
retournac
retrieved
rets
return
retz
reuil
reut
reuters
reux
rev
revenge
review
reviews
revigny
revised
revision
revolusyon
revolusyone
revolusyoni
revolution
rew
rewe
reweke
rewi
rews
rex
rey
reya
reyan
reyayıs
reydayıs
reyde
reye
reyhan
reyi
reykerdıs
reykjavi
reykjavik
reyna
reyno
reynolds
reyo
reyssouze
reyya
rez
reza
rezan
reze
rezewi
rezonville
rf
rfan
rfez
rga
rge
rgen
rgiva
rgu
rhe
rhein
rhin
rhini
rhiniya
rhiniyo
rhinotyphlops
rho
rhode
rhodes
rhodon
rhombodera
ri
ria
riaille
riaville
riayet
rib
riba
ribadavia
ribas
ribay
ribeaucourt
ribeira
ribera
ribes
ribouisse
riboul
ric
rica
ricardo
ricaud
riceys
rich
richard
richardme
richards
richardson
richebourg
richecourt
richeval
richter
rick
ricky
ricy
rid
rida
ride
rie
rien
riera
riers
rieulles
rieux
rig
riga
rigault
right
rights
riglos
rigne
rigny
rihanna
rika
riko
riley
rillieux
rilly
rim
rimandoule
rimay
rime
rimon
rin
rina
rind
rinde
rine
ring
ringo
rings
ringsi
rino
rio
rioms
riot
riotorto
ris
risay
rise
risey
risk
riske
rita
ritchiei
rituele
riu
rivel
river
rives
rivetina
rivie
riy
riya
riyao
riye
riyene
riyeno
riyo
riz
riza
rize
rk
rkan
rkc
rker
rki
rkiye
rkler
rkmen
rko
rku
rlanda
rlanday
rlandaya
rlandki
rler
rls
rlu
rmek
rmlv
rmu
rmug
rmuge
rmugi
rn
rna
rnberg
rne
rnene
rno
ro
road
rob
robbie
robbins
robe
robert
roberto
roberts
robertson
robin
robinson
robot
roboti
roc
roca
rocakewtena
rocakewtene
rocakewtıs
rocan
rocane
rocaney
rocawan
rocawane
rocawani
rocawanie
rocawanio
roce
rocey
roche
rochebaudin
rochebrune
rochechinard
rochefort
rochelle
roches
rochesson
rochester
rochetaille
rochette
rocheville
roci
rocio
rock
rocki
rockiya
rocks
rocky
rocname
rocnamewan
rocnamey
rocque
rocvetis
rocvetıs
roda
rodaise
rodayıs
rodeiro
rodome
rodri
roe
rog
roge
roger
rogers
rognon
rogue
rogues
rohan
rohani
rohe
rohi
rohingya
roi
roine
rois
roises
roissy
roj
roja
rojan
rojane
rojawan
rojawane
roje
rojevakurdistan
rojhilate
roji
rojname
rojnameye
rojnameyi
rojnameyo
rojı
rok
roka
roke
rokerdıs
rokkan
rokkani
rol
rolampont
roland
rolane
role
roles
rolfe
roll
rollainville
rolland
rolles
rolling
rolo
rom
roma
romaani
romagne
romagny
romain
romainvilliers
roman
romanan
romance
romane
romani
romanki
romano
romanos
romans
romantik
romanya
romanza
romay
romayo
romayıcan
rome
romenan
romeo
romeyer
romilly
romont
romorantin
romphaire
ron
rona
ronaene
ronald
ronane
ronano
ronaog
ronaye
ronayene
ronayenı
ronayeyo
ronayi
ronayog
ronayıs
roncenay
roncey
roncourt
rond
ronde
rone
roneane
ronesans
ronesansi
roneye
roni
ronis
ronne
rono
ronthon
ronvaux
ronıs
room
rooney
roosevelt
root
roportaj
roportaji
roquecourbe
roquefeuil
roquefort
roquelongue
roquetaillade
roqıla
ros
rosa
rosal
rosans
rosario
rosay
roscoe
rose
rosemallow
rosie
rosnay
ross
rossi
rostock
rostov
rot
rota
rote
rotene
rotenı
rotgla
roth
rothie
roto
rotte
rottentomatoes
rotterdam
rottes
rottier
rotıs
rouanne
rouans
roubia
roubion
roudeville
rouesse
rouez
rouffiac
rouffigny
rouge
rougeou
rouges
rough
rouhling
rouillie
rouilly
roulier
roullens
round
rouperroux
roussas
rousse
rousseau
roussel
rousset
roussieux
routier
routledge
rouvenac
rouves
rouville
rouvres
rouvrois
rouvroy
rouxelin
rouxeville
rouy
rovar
roville
roxb
roy
royal
royale
royan
royane
royans
royaumeix
roye
royen
royi
royiya
royiye
royiyo
roynac
royo
roz
roza
roze
rozel
rozelieures
rozerotte
rozi
rozie
rozu
rp
rpınar
rr
rriyet
rs
rsel
rshavn
rsi
rsim
rsimi
rsu
rsım
rsımi
rt
rta
rtaga
rtage
rtageya
rtc
rte
rteya
rth
rti
rtl
rtlyi
rtolas
rttembergi
rtu
ru
ruaudin
rubelles
rubi
rubus
ruc
rud
rudignon
rudolf
rudolph
rue
ruec
rues
ruffine
rugat
rugney
ruh
ruhe
ruhi
ruhsati
ruille
ruiz
rul
rule
rules
rulle
rum
ruman
rume
rumeli
rumenki
rumex
rumi
rumilly
rumkeg
rumont
run
runa
rune
running
runs
rupe
ruppes
rupt
rus
rusan
rusesabagina
rush
rusi
ruski
rusnena
rusneno
ruso
russell
russia
russian
rustem
rusya
rusyao
rusyaya
rusyayo
rut
rutan
ruth
rutherford
ruti
ruvigny
ruwen
rwan
rwanda
rwe
rwey
rweye
rweyene
rweyeno
rwservlet
rxe
ry
ryalizım
ryan
ryu
rz
rı
rıb
rıbe
rıbi
rıc
rıciyayıs
rıciyo
rıdvan
rıfat
rıh
rıha
rıhat
rıhaya
rıjnayenı
rıjnene
rık
rıka
rın
rınd
rında
rınde
rındek
rındeka
rındeke
rındeki
rındeko
rındi
rındiya
rındiye
rındo
rıne
rıno
rıs
rıske
rıstım
rıstıme
rıstımi
rısı
rıy
rıya
rıye
rız
rıza
rızay
rɑ
rə
s
sa
saa
saadet
saale
saan
saarbru
saat
saati
saba
sabah
sabahat
sabahattin
sabiha
sabin
sabine
sabiote
sable
sables
sablonnie
sablons
sabri
sabrina
sabırlı
sac
sace
sacey
sacred
sad
sada
sadat
sade
sadece
sadeghi
sadi
sadri
sadurni
sadurnin
sadık
sadıq
sae
saeta
saetan
saete
saeti
safewiyan
saffais
saffet
saffre
safi
safiye
sag
sagunt
sahile
sahir
sahra
sahu
sahune
sahıle
sai
said
saillans
sailly
saint
sainte
saintes
saintois
saints
saire
saissac
sait
saizerais
sak
saka
sakarya
saki
saksonya
sala
salam
salamanca
salar
salas
salbris
sale
saleki
salem
sales
salettes
sali
salih
salim
salinas
salines
salins
salinsiya
salix
salkım
salle
sallent
salles
sally
salmagne
salman
salmon
salobren
salomon
salon
salone
salsa
salsigne
salt
saltanat
saltanate
salteras
saltık
salvador
salvaterra
salvezines
salza
salzburg
salzuit
salı
salıx
sam
samba
sambin
same
sami
sammeron
samoa
samogneux
samois
samon
samoreau
samos
sampigny
samson
samstag
samsun
samsung
samsuni
samuel
san
sana
sanat
sanatkaro
sancar
sanchey
sancy
sand
sandal
sandaucourt
sanders
sandra
sane
sangarre
sanger
sani
sanie
sanij
saniji
saniya
saniye
sankt
sano
sanry
sans
sanse
sanskritki
sanssac
sansur
sant
santa
santana
santenay
santiago
santignes
santilla
santiso
santisteban
santo
santos
sanzey
sanıka
sanıke
sanıki
sanıku
sanıkune
sao
saosnes
saosnois
saou
sap
sapiens
sapois
sapt
saqaveh
sar
sara
sarac
sarah
saran
sarande
saray
sarce
sardar
sarde
sare
sarge
sargon
sari
sarin
sarmas
sarmi
sarre
sarreaus
sarrebourg
sarria
sarroca
sart
sartes
sarthe
sarthea
sartheya
sartheyi
sartilly
sartre
saruman
sarı
sarıkaya
sarıs
sarız
sas
sasani
sasaniyan
sasaniyano
sassay
sassey
sata
sate
sathonay
sati
satoli
saturday
saturn
saturnin
satılık
saudi
saudron
saudrupt
saugues
saulce
saulcy
sauldre
saules
saulges
saulmory
saulnois
saulny
saulsotte
sault
saulvaux
saulx
saulxures
sauron
sauroni
saussemesnil
saussey
sautron
sauvaux
sauveur
sauvigny
sauville
sauvoy
sauzens
sauzet
savas
savasse
save
savel
savenay
saverne
savie
savigne
savigny
savin
savine
savins
savoie
savoieya
savoieyo
savonnie
savunma
saw
sawyer
saxon
say
saya
sayd
saye
sayes
sayfa
sayfası
sayi
saying
says
sayı
sayımı
sayın
saz
sazbiyayıs
sblv
sbn
sc
scar
sceaux
scene
schischk
schleswig
schmidt
schmidti
schmitt
schneider
scho
school
schopenhauer
schoutenki
schubert
schulze
sci
science
sciences
scientific
scientificamerican
scott
scranton
scy
sd
sdss
se
sea
sean
search
season
seate
seati
seattle
seba
sebastian
sebat
sebbahi
sebeb
sebebane
sebebe
sebebi
sebebo
sebi
sebze
sec
secastilla
secde
second
secourt
secret
secretary
secrets
section
security
seda
sedan
sedat
seddam
sedeqe
seds
see
seek
seems
seen
sefer
sefere
seferi
sefid
sefidar
seg
segarra
segarraya
segre
segria
seguieriana
seguin
segura
seh
sehay
sehaya
seher
sehne
sehney
sehra
sei
seichamps
seicheprey
seid
seidi
seignalens
seigneulles
seillac
seille
sein
seine
seingbouse
seira
sek
seke
seker
seki
sekiz
seks
sekse
seksi
sekskerdıs
sekso
sektore
sekuler
sekulerizm
sel
selahattin
selaheddi
selahedi
selaincourt
selam
selanik
selawat
selc
selcan
selcani
selcuqıcan
selcuqıcano
selda
select
selected
selection
seleksiyono
selena
seler
self
seli
selim
selle
sellent
selles
sellie
selma
selommes
selve
sem
sema
semana
sembadel
sembol
sembole
seme
semed
semede
semedi
semedo
semerqand
semerville
semih
semilly
seminary
semir
semitkiyo
semra
semsu
semte
semur
sen
sena
senarist
senariste
senaristo
senaryo
senata
senate
senatkar
senatkara
senatkare
senatkari
senatkaro
senator
sencag
send
senden
sendika
sendrome
sene
seneca
senede
senegal
sengserki
seni
senier
senin
seninle
seno
senon
senoncourt
senones
senonges
senouire
sense
sensin
sensiz
sent
sentence
sentezo
senyera
senık
senıke
sep
sepete
sept
september
septsarges
sepvigny
seqet
sequence
ser
sera
seran
serande
serane
seranville
serap
seraumont
seraya
serayevo
serba
serbest
serbesta
serbestey
serbesti
serbestiya
serbestiye
serbesto
serc
sercœur
serd
serda
serdar
serdarane
serdare
serdari
serdariya
serdaro
serdarog
serde
serdeme
serdo
serdı
serdın
serdıno
sere
serede
sereine
serekcumhure
sereke
serekiya
serekwezir
serekwezire
serena
serengil
seres
serewedartis
serewedarıtıs
serewes
serey
sereye
sergey
sergio
seri
serie
series
serious
seriye
seriyo
serkewte
serla
serm
sermaye
sermonıke
sernin
sero
serocourt
serok
seroka
serokan
serokane
seroke
seroux
seroyo
serpent
serr
serra
serran
serrane
serrani
serrda
serre
serrename
serrenamey
serrenameye
serrenameyo
serres
serri
serrio
serris
serriya
serriyo
serro
serrol
serrouville
serru
serseri
sert
sertab
serte
sertines
serva
servere
servet
service
services
servie
servigny
servis
serviy
servon
serwise
serı
ses
sesa
seserra
seserran
seserrane
seserre
sesi
sesler
sessions
sessiz
set
seteriya
seth
sethi
seti
seudi
seuil
seul
seur
seuzey
sev
seva
sevan
sevda
sevdalı
sevdig
sevdim
seveknayıs
seveknene
sevekneno
seven
seventh
sever
several
severus
seveta
sevgi
sevgili
sevgilim
sevilla
sevillao
sevim
sevimli
sevinc
sevis
seviyorum
sevmek
sewe
seweta
sewitiye
sewiya
sewiyaya
sewle
sewli
sex
sexey
sexiest
sexne
sexual
sexy
sexyback
sey
seyan
seyd
seyda
seydan
seyde
seydi
seydwan
seyfi
seyhan
seyi
seyid
seyide
seyidxan
seyin
seyinli
seyit
seyr
seys
seytan
seyyed
seyyid
sezai
sezen
sezer
sezgin
sezon
sezone
sezoni
sezono
sf
sfahan
sfehan
sg
sh
sha
shabliz
shades
shadow
shadows
shafak
shaffer
shah
shahr
shahrak
shakespeare
shakira
shanghai
shape
shaq
share
sharon
shaw
shawn
she
sheikh
shelley
sherman
sherry
sheykh
shi
shire
shirin
shirley
shop
short
should
show
showinterpret
shows
shtml
si
sia
siah
siaugues
siaya
siayo
sibel
sibirya
sica
sich
sichuan
sicilya
sick
sid
sida
side
siden
sidenote
sideville
sidney
sie
sieboldiana
sienne
sierck
sierra
sies
siete
sieux
sig
sigean
sigena
sight
sigillat
sigismond
sigmund
sign
signale
signan
signets
signups
signy
sigole
sigy
sil
silah
silahdar
silahlı
sile
silence
siles
silla
sille
silleda
sillegny
silly
silmont
silva
silvange
silver
sim
sima
simat
simbadi
sime
simferopol
simon
simone
simple
simplex
simply
simpson
simurg
simya
sin
sina
sinan
sinayıs
sincan
sincar
sincari
since
sincik
sind
sindore
sine
sinema
sinematurk
sinemay
sinena
sinene
sineno
singapur
singer
singh
single
singlee
singlei
singles
sinh
sinop
sinor
sinorane
sinore
sinyali
sio
sion
sionne
sionviller
sipahiler
sipe
sir
sira
sire
sirık
sis
sistan
sistem
sistemane
sistematik
sistematiko
sisteme
sistemi
sistemo
sister
sita
sitay
site
sitercl
sites
sitesi
sitey
siteye
siteyo
situation
sivas
siverek
sivil
sivili
sivilizasyone
sivry
six
siya
siyae
siyah
siyan
siyande
siyao
siyasal
siyaset
siyasetc
siyasete
siyaseti
siyasetkar
siyasetkara
siyasetkare
siyasetkaro
siyasi
siyasiya
siyasiye
siyay
siyaye
siye
siyerı
siz
size
sj
sk
ska
skandinavya
skandinawya
skender
skendere
skenderiya
skendero
ski
skie
skin
skoc
sku
skuk
sky
skyview
sl
sla
slam
slami
slamio
slamiyet
slamiyeti
slamiyo
slamko
slamo
slanda
slandki
slawki
slawkiye
slawkiyo
slim
sloane
slogane
slovenya
slowaki
slowakya
slowenki
slowenya
slu
sm
smail
smaili
small
smart
smaug
sme
smet
smile
smith
smriti
sn
snake
sniya
snow
snu
snus
so
soba
sober
sobina
sobrado
sobrarbe
social
societies
society
sock
sockpuppet
socourt
sodır
sodıri
sofi
sofia
sofla
sofokles
software
sofular
sofya
sog
sognolles
soignolles
soings
soisy
sokag
sokak
sokrates
sol
sola
solaize
soldier
sole
soleil
solers
solesmes
solgne
solhan
soli
solignac
soligny
sollana
solo
sologne
solomon
solomoni
solomonkiye
soma
somalya
some
someone
somer
something
sometimes
somewhere
sommaire
sommaisne
sommedieue
sommeilles
sommelonne
sommer
sommermont
sommerviller
sommeval
son
sona
sonata
sonbahar
soncourt
sond
sonde
sone
soner
song
songs
songu
soni
sonntag
sonny
sono
sonra
sons
sont
sonu
sonville
sony
soon
sophia
soportu
soprano
soqi
sor
sora
soran
sorani
soranki
sorbey
sorcy
sorells
sorihuela
sorkh
sorlin
sorne
sorry
sortosville
sorts
sorunu
sorvila
sos
sosyal
sosyala
sosyalan
sosyale
sosyali
sosyalist
sosyalista
sosyalistan
sosyaliste
sosyalisti
sosyalisto
sosyalizm
sosyalizmo
sosyalo
sosyete
sosyolociye
sot
sotonera
sottevast
sotteville
soudan
souday
souge
sougraigne
souhesmes
souilhanels
souilhe
souille
souilly
soul
soulaines
soulatge
soulge
souligne
souligny
soulitre
soulles
soulosse
souls
soumazannes
sound
soupex
souppes
soupplets
source
sources
sourdeval
sourdun
sous
souspierre
sousse
south
southern
soutomaior
souvigne
souvigny
soviet
sovyet
sovyetan
sowyet
sowyetan
sowyeti
soy
soyans
soyi
soyrege
soyregı
soz
sozcu
soze
sp
spa
space
spadesuit
spain
spanish
spanya
spanyao
spanyaya
spanyayo
spanyol
spanyolan
spanyolca
spanyole
spanyoli
spanyolki
spanyolkiye
spanyolkiyo
spanyolo
spay
speak
speakers
spears
special
species
specific
specified
spencer
sphodromantis
spicheren
spielberg
spin
spincourt
spinosa
spirit
split
spoken
sponville
spoon
spor
spore
spori
sporie
sporo
sport
sporting
sports
spoy
sprache
spread
spreng
spring
springs
spurge
spy
sq
sqrt
square
sr
srail
sraili
srailiya
srev
sri
srsg
ss
sse
sseldorf
sser
ssera
ssi
ssp
st
sta
stade
stadt
stadyum
stadyume
stadyumu
staff
stage
stagmatoptera
stagmomantis
stainville
stalin
stallone
stan
stanbol
stanbul
stanbuli
stand
standard
standarde
standardi
standards
standart
standfordi
standl
stanford
stani
stanley
stanton
stapf
staples
star
staras
starr
stars
start
startales
started
starting
stat
statcan
state
statement
statements
staten
states
statilia
station
statistical
statistics
statistik
statistiques
status
statuye
stavanger
stay
ste
stefan
stein
steinbeck
steinm
stella
stenay
step
stephan
stephani
stephen
ster
sterling
stern
sternberg
steud
steve
steven
stevens
stevie
steward
stewards
stewart
steyerm
sti
stica
stiftung
stiklal
stile
still
stiring
stiyorum
sto
stockholm
stokholm
stone
stoned
stonei
stones
stop
store
stories
storm
story
stranger
strasbg
strasbourg
strategy
stratejiki
stratocumulus
strauss
stream
street
strindberg
string
striptizi
strong
structure
struvei
stu
stuart
studies
studio
studios
study
studyoy
studyoye
stuff
stuttgart
style
su
suat
subdomain
subils
subject
subjonktifi
subligny
submit
subscribe
suc
success
suce
such
sud
sudan
sudane
sudoc
sue
sueca
suffix
suicide
suisnes
suisse
suit
suize
suk
suka
sukan
sukande
sukane
suke
suki
sukı
sul
sulari
sulh
sulpice
sultan
sultane
sultani
sumaca
sumer
sumerana
sumerıcan
summary
summer
sumru
sun
sunal
sunday
sunet
sung
suni
sunni
sunniyan
sunniye
sunniyo
sunshine
super
supere
supero
suphi
supplet
support
sur
sura
suran
surance
suray
sure
surey
sureya
surfonds
surgery
surgın
surgınbiyaena
suri
suria
suriauville
surinam
suriya
suriyayo
suriye
suro
surtainville
suru
survey
surville
suryaniy
suryanki
sus
susa
susan
susi
susuz
suyu
suzanne
suze
suzhou
sv
svalbard
svec
svic
sw
swe
swec
sweci
swecki
swedish
sweet
swic
swift
swifti
sword
sy
syan
sydney
sye
syed
sykes
sylvester
sylvia
symbol
symbols
symphony
symphorien
synadenium
syndicat
syre
syria
sysop
system
systems
szczecin
szeged
sı
sıba
sıbat
sıbate
sıcak
sıdıka
sıfet
sıfete
sıfetfe
sıfre
sıfte
sıfteye
sıfteyın
sıfteyıne
sıfteyıno
sıfteyını
sıfır
sıg
sık
sıl
sıla
sılam
sıle
sıliye
sılond
sılıfka
sım
sıma
sıman
sımeno
sımer
sımi
sımnan
sımnanki
sınase
sınasnayande
sınasnaye
sınasnayenı
sınasnayey
sınasneno
sıncıkia
sıne
sınet
sınetkerdenı
sınor
sınıf
sınıfa
sınıfe
sınıfı
sıpe
sıpi
sıpiye
sır
sıra
sırbki
sırbo
sırbıstan
sırbıstani
sıre
sıreye
sırgun
sırrı
sıst
sıt
sıtar
sıte
sıtkı
sıxletiya
sıxletiye
sıye
sɛ
sɪ
t
ta
tab
tabari
tabi
tabiati
table
tablet
tablete
taboada
tabu
tac
tace
tacikan
taciki
tacikistan
tacikıstan
tacikıstani
tacitus
tadayox
tadayıs
tadeusz
tadiranscopus
tae
tag
tage
taha
tahir
tahnene
tahran
tahsin
tahya
tahyaya
tai
taigneraie
tailhac
taillancourt
taille
taillepied
tailly
tain
tainan
taine
taintrux
taipei
tairies
tak
takabeg
take
taken
taking
takip
taksonomik
tal
tala
talairan
talan
talange
talavera
talcy
tale
talebani
talebe
tales
tali
taliban
talibani
talihsiz
talin
taliye
talk
talkhab
talkheh
talking
tall
tallud
talya
talyan
talyana
talyanan
talyani
talyanki
talyano
talyao
talyaya
talyayo
talıban
talıs
tam
tamam
tamara
tamarite
tamer
tamerville
tamil
tamir
tamolanica
tampere
tan
tancrou
tane
taneo
taner
taney
tang
tango
tangs
tangson
tanju
tannie
tannois
tanpınar
tanrı
tantonville
tanu
tanzanya
tape
tar
tara
tarachina
tarachodes
taradell
tarapaca
tardie
tare
tarendol
target
tarhan
tari
tarif
tarih
tarihc
tarihi
tarihinde
tarix
tarixe
tarixi
tarixiya
tarixiye
tarixiyo
tarixo
tarixwan
tariyan
tariye
tarkan
tarla
taro
tarongers
tarquimpol
tarsus
tarsusia
tartas
tartıs
tarık
tarıxe
tarıxi
tas
tase
task
tasse
tassille
tassin
tat
tatar
tatarki
tati
tatigne
tatki
tatlı
tatlım
tatlıses
tau
taug
taulignan
taurize
taurus
tavare
tave
taverna
tavernes
tavi
tavs
taw
tawo
tawus
tawuxe
taxa
taxe
taxi
taxon
taxım
taxıman
taxımane
taxıme
taxımestare
taxımestarey
taxımestareya
taxımestareyane
taxımestareye
taxımi
taxımo
tay
taybeti
tayde
taye
tayfun
tayfur
tayi
tayin
tayinan
tayine
taylan
tayland
taylanda
taylor
tayn
taynan
tayne
taywan
tayyip
tayın
tazmanya
tazıyan
tb
tbmm
tc
tdk
te
tea
teacher
teaching
team
teamsandplayers
teau
teaubleau
teaubriant
teaudouble
teauneuf
teauvillain
teaux
teauya
tebaxa
tebaxe
teber
tebera
teberde
tebere
teberi
teberkerdıs
tebiet
tebiete
tebieti
tebii
teborg
tebriz
tecawuz
tech
technical
technik
technology
tecru
ted
tedawi
tede
tedı
teen
tegucigalpa
tehlike
tehran
tehrani
tehsil
tehsile
teil
teille
teilleul
teizm
tek
tekan
tekar
tekara
tekarane
tekare
tekari
tekaro
teke
teki
tekin
tekirdag
teklif
teklife
tekman
teknik
teknike
tekniki
teknikiyo
teknolociya
teknolociye
teknoloji
tekrar
teksas
teksti
tekwini
tel
telain
tele
teleb
teleban
telebey
telef
telefon
telefuz
telegraph
teleskop
telet
television
televizyon
televizyone
televizyoni
teli
tell
tella
telli
telliog
teloche
telot
tema
temam
temame
temamiye
temas
tembur
temel
temele
temeli
temes
temiz
temmuz
temmuze
tempeli
template
templates
temple
templiers
tempo
temps
temsil
temsıl
temuz
temuze
temuzi
ten
tena
tenan
tenay
tence
tenda
tendon
tene
tenena
tenerife
teney
teneye
teng
tenge
teni
tenis
tenisi
teniswana
teniya
tenkidi
tennessee
tennie
tennis
teno
tenois
tenore
tenoy
tenteling
tenu
tenya
tenyao
tenı
tenık
teo
teolociye
teoman
teoreme
teori
teoriya
teoriye
tepamendıs
tepe
tepey
tepeya
tepi
tepia
tepis
tepiya
teps
tepya
tepıs
teqa
teqib
teqriben
teqribi
teqwim
teqwime
teqwimi
teqwimiya
teqwimo
ter
tera
terae
terakki
teray
terazi
terbiye
terbiyet
terbiyetdayıs
terbiyete
tercan
terchen
terci
tercu
teref
terefe
terefi
terek
terence
teresa
teri
terif
terim
terime
terimi
terimo
teriqati
terk
term
terme
termene
termes
terminale
terms
tern
ternay
tero
teror
terori
terorist
teroristan
teroristi
teroristo
terorizmo
terra
terre
terregatte
terrehault
terri
territories
terroles
terror
terroux
terry
ters
tersa
tersane
tersanne
tersayıs
terse
tersen
tersene
terseno
terso
tertele
terteley
terteleye
tertib
tertre
tertres
terze
terıme
tes
tesbit
tesi
tesir
tesire
tesla
teslag
teslim
teslime
tessy
test
teste
testi
testkerdıs
tesır
tesıre
tesıri
tesıro
teting
teurthe
teux
teval
tever
tevfik
tew
tewbe
tewir
tewr
tewrane
tewrat
tewrate
tewrde
tewre
tewro
tewır
tewıre
texas
texmin
texminan
texmine
texminen
text
texte
textey
texti
texts
tey
teya
teyan
teyane
teyare
teyarey
teyareyane
teyareye
teye
teyera
teyi
teyna
teyo
teyr
teyran
teyre
teys
teyssie
teyze
tez
teza
teze
tezi
tfen
tff
tfi
tg
tgrt
th
tha
thabas
thair
thal
thales
thali
tham
than
thanjige
thank
thanks
thann
tharonne
that
the
theater
theatre
theft
theil
their
thelainville
them
thembur
themselves
then
thenay
thennelie
theodor
theodore
theological
theory
theplantlist
there
therefore
these
thesprotia
they
theyr
theyra
theyri
thiaucourt
thiaville
thibault
thicourt
thie
thieffrain
thierry
thierville
thieux
thil
thillombois
thillot
thincourt
thing
things
think
thionville
thiraucourt
third
thire
this
tho
thoigne
thoire
thol
tholy
thomas
thomery
thompson
thon
thonnance
thonne
thonnelle
thons
thonville
thoras
thore
thorey
thorigne
thorigny
thorin
thornton
thors
those
thouare
thouarsais
thought
thoughts
thoury
thousand
thousands
three
through
thu
thubœuf
thuilley
thuillie
thumere
thunb
thune
thurl
thurland
thursday
thurıki
ti
tia
tian
tianjin
tiberki
tibet
tibeti
tibetki
ticaret
ticarete
ticareti
ticari
ticariyo
tici
tico
tie
tienne
tienville
tiercelet
tif
tigeaux
tiger
tigne
tignicourt
tigran
tij
tija
tiji
tik
til
tilki
till
tillay
tilleux
tillon
tilly
tim
timbaland
timberlake
time
timeline
times
timkan
timothy
timur
timure
timuri
tin
tina
tinais
tine
tio
tip
tipe
tir
tira
tirana
tiranges
tire
tirepied
tiri
tiriye
tirkan
tirki
tirku
tirmek
tirune
tis
tithymaloides
title
tito
titus
tiva
tival
tive
tiya
tiyanan
tiyatro
tiyatrosu
tiyatroy
tiyatroye
tiyatroyo
tiye
tiyo
tkerdıs
tlu
tnus
to
tobago
tobias
toc
tocqueville
tod
today
todd
tode
toe
tofy
tog
together
togo
togoy
toile
toire
toits
tok
tokyo
tol
toledo
tolga
tolkien
tolkieni
tollaincourt
tollevast
tolstoy
tolteki
tolva
tom
toma
tombe
tombili
tomblaine
tome
tometa
tometo
tomin
tommy
tomorrow
ton
tona
tonga
tongue
toni
tonils
tonneville
tonnoy
tony
too
took
tool
tooltip
top
topa
topac
topal
topc
tope
topi
topic
topics
toplamalar
toplum
toprag
toprak
toqat
toqati
toquinho
tor
tora
torce
torcenay
torcy
tordoia
tore
torello
torey
tori
torino
torn
torne
toro
toronto
torose
torosi
torralba
torre
torreblascopedro
torredelcampo
torredonjimeno
torrefarrera
torrefeta
torregrossa
torrella
torrent
torres
torun
torune
torvilliers
torvizco
tos
toscar
tosun
tot
totainville
total
totally
touch
touche
touches
touchet
toul
toulouse
touquin
tour
tourailles
touraine
tourette
tournan
tournebut
tournissan
tourouzelle
tourreilles
tourrettes
tours
tourville
tourvy
tous
tousson
tout
tova
tower
town
township
tox
toxe
toxey
toxi
toxo
toy
toyota
toz
tpl
tr
tra
trabada
trabo
trabzon
trabzoni
track
trade
tradition
traditional
traditions
trafik
trafike
trafiki
tragedy
tragny
trai
trailer
train
training
trajedi
trakya
tramont
tramp
trampot
trancault
trange
trannes
tranqueville
trans
transfer
transfero
transformers
transgender
transit
transitif
translate
translated
translatewiki
translating
translation
translations
trassanel
travel
traversaine
traye
trb
trc
tre
treasure
tree
treffieux
treiche
trelly
trent
trente
tres
tresson
treuzy
treval
treve
trey
tri
triacastela
triaize
tribehou
tribes
tribute
triconville
tricourt
tried
trier
trigge
trilbardou
trilogy
trilport
trinidad
trinite
trio
triors
trios
tripoli
tritteling
triumph
tro
troc
trocy
trodes
trois
troisfontaines
troisgots
troit
tromborn
tronchet
trondes
tronville
troo
tropole
trouans
troussey
troy
troya
troyes
troyon
trt
true
truinas
trujillo
trump
trustees
truth
try
trying
ts
tse
tsunami
tsɑ
tt
ttingen
tu
tuba
tuc
tuchan
tucker
tucquegnieux
tudyk
tue
tuesday
tufan
tuffe
tug
tui
tuik
tuj
tukana
tuki
tul
tuli
tulıkia
tum
tun
tuna
tunan
tunc
tuncay
tunce
tunceli
tune
tunele
tuni
tunis
tunıs
tunısi
tupac
tur
tura
turan
turde
ture
turgut
turgy
turhan
turi
turin
turing
turist
turisti
turizm
turizmi
turk
turkce
turkcell
turkey
turkic
turkish
turkiye
turkmen
turks
turku
turn
turna
turne
turner
turo
turquestein
turqueville
turısmega
tus
tut
tutia
tutsi
tuvalu
tuwerzin
tux
tuya
tuye
tuz
tuzla
tv
tvguide
tville
twain
twelve
twenty
twerdog
twilight
twitter
twitteri
two
txt
ty
tyler
tyne
type
typhlops
tyson
tz
tı
tıb
tıbi
tıbo
tıfaqe
tıflis
tıg
tık
tıka
tıke
tıki
tım
tın
tına
tınan
tıne
tıni
tıno
tıp
tıqade
tır
tıra
tırak
tıraki
tırbı
tırk
tırka
tırkan
tırkane
tırke
tırki
tırkiya
tırkiyae
tırkiyao
tırkiyawo
tırkiyay
tırkiyaya
tırkiyayo
tırkiye
tırkiyo
tırkki
tırkmeni
tırkmenistan
tırkmenki
tırkmenıstan
tırkmenıstani
tırko
tırkon
tırku
tırma
tırmak
tırs
tıs
tıya
tɛ
tɛlɛ
tɛnə
u
ua
ub
ubat
ubexy
ubeye
ubov
ubuk
ubıxan
ubıxki
uc
uca
ucay
ucayi
ucoc
ud
ude
ue
uefa
uelas
ug
uganda
ugi
ugny
uib
uid
uja
uk
uki
ukrayna
ukraynki
ukur
ul
ulamki
ulan
ular
ulas
uldak
uldaki
uldakiya
ule
ulla
ulm
ulrich
ultratop
ulu
uludag
uluko
ulupınar
ulusal
uluslararası
ulya
um
uma
uman
umani
ume
umer
umeri
umraniya
umumi
umumiyo
umut
umutsuz
umıs
un
una
unblocked
unca
uncia
uncle
und
under
understand
understanding
une
unesco
unescoy
unfinished
unfortunately
uni
unienville
union
unit
united
univ
universal
universidad
universita
universite
universitey
universiteye
university
universıta
universıte
universıtey
universıteye
universıteyo
unke
unki
unknown
unlu
unn
uno
unter
until
unu
unutma
unutmaz
up
update
updated
updates
upie
upload
uploads
upon
upper
uppsala
ur
ura
ural
urali
urb
urbain
urban
urbana
urdu
urduki
urdun
urduni
ure
urfa
urgell
urgelliya
uri
urime
urki
url
urs
ursch
ursus
urtica
uruffe
uruguay
uruk
uruki
urukkaya
urville
ury
urze
urıstan
us
usa
usage
usar
usari
usatoday
use
used
useful
user
users
uses
usgs
usi
using
uskub
usman
usmani
usmaniya
usmanıcan
usmanıcanki
usmanıcano
usmanıci
usmanıcki
ussy
usta
ustos
ustose
ustıne
usul
usule
usıle
usıv
ut
utah
utahi
utc
utiel
utrera
uva
uwe
uxdigi
uxegney
uy
uyanık
uye
uyg
uygur
uyo
uz
uza
uzbeki
uzbekıstan
uze
uzemain
uzhan
uzun
uzunko
uzza
v
va
vaas
vaast
vac
vaca
vacare
vace
vache
vacherauville
vacheresse
vaci
vacime
vacina
vacino
vaciya
vaciyao
vaciyay
vaciye
vaciyena
vaciyene
vaciyeno
vaco
vacon
vacqueville
vacug
vadelaincourt
vadisi
vadonville
vagney
vahl
vahs
vaiges
vaille
vailles
vailly
vainville
vair
vairais
vaires
vaise
vaj
vaje
vaji
vajime
vajina
vajine
vajino
vajo
vake
vakti
vakure
val
vala
valadouro
valaurie
valbois
valcanville
valcle
valdaine
valde
valdeorras
valdepen
valdovin
valdro
vale
valence
valencia
valenciao
valennes
valensiya
valentine
valfroicourt
valga
valhey
vali
valie
vallada
vallant
vallbona
valldigna
valle
vallentigny
vallerange
valleroy
vallet
valley
vallie
vallier
valloire
vallois
vallon
vallons
valls
valmige
valmont
valmunster
valognes
valois
valouse
valparai
valromey
vals
value
vame
vampire
van
vana
vanatu
vance
vancouver
vandalism
vandalizm
vandele
vandie
vands
vandœuvre
vane
vanessa
vani
vank
vanlay
vanne
vannes
vano
vantoux
vanu
vanuatu
vanuatukiye
vanville
vany
vaqueros
var
vara
varan
varange
vare
varena
varenguebec
varennes
vareno
varg
vari
variable
variant
variants
variation
variety
various
varize
varlık
varna
varne
varol
varon
varouville
varreddes
varreville
varsberg
varto
vartoy
vartıs
varyant
varyante
varyanti
varyasyone
varyasyono
varıno
varıt
varıti
vas
vase
vaskovani
vasperviller
vasse
vassieux
vassincourt
vast
vasteville
vat
vata
vatan
vate
vaten
vatena
vatene
vateni
vatenı
vates
vatey
vateye
vateyi
vateyo
vathime
vati
vatikan
vatikani
vatin
vatis
vato
vatog
vatıs
vaubecourt
vaubexy
vauce
vauchassis
vauchonvilliers
vaucogne
vaucouleurs
vaucourtois
vaude
vaudemont
vaudes
vaudeville
vaudoncourt
vaudoue
vaudoy
vaudreching
vaudreville
vaudrimesnil
vaulx
vaunaveys
vaupoisson
vauquois
vautorte
vaux
vavincourt
vaxainville
vaxoncourt
vay
vaye
vayire
vayo
vaz
vazdayıs
vaze
vazeilles
vazeno
vazgec
vazo
vb
vbe
ve
veaunes
vec
vece
vecena
vecene
veceno
veci
vecina
vecine
vecini
vecino
vecio
veciy
veciya
veciyao
veciyay
veciyaya
veciyaye
veciyayo
veciyayıs
veciye
veciyena
veciyene
veciyeno
veciyi
veciyo
veco
vecoux
vector
vecœur
ved
veda
vedanta
vedat
vefa
vega
vegas
vehbi
veiga
veilleins
veje
vejene
vejeno
veji
vejina
vejine
vejino
vejiya
vejiyais
vejiyay
vejiye
vejiyo
vejo
velaine
velaines
velay
velg
velge
veli
veliko
velin
velle
velles
velluire
velosnes
velotte
velving
ven
vence
vende
vendele
vendeuvre
vendin
vendo
vendrest
vendue
vene
venedik
veneur
veneux
veney
venezuela
veng
venga
vengan
vengane
vengdayıs
venge
vengi
vengo
vengın
vennezey
venta
ventas
ventenac
venterol
venteuges
vents
venus
ver
vera
verace
veracruz
verapey
veray
verayo
verb
verba
verbe
verbend
verbende
verbendi
vercheny
verclause
vercoiran
vercors
verda
verdana
verdane
verdano
verdao
verday
verdaye
verdayo
verde
verdelot
verdenal
verdes
verdo
verdun
verduniya
verdunois
verdı
vere
verea
verek
veren
verende
veres
verg
vergan
vergane
verge
vergers
vergezac
vergi
vergo
vergoncey
vergongheon
vergonnois
verhurendi
veri
verin
verlag
vermek
vermois
vermont
vernaison
vernassal
verne
vernet
verneuil
verni
vernie
vernix
verniya
verniye
vernon
vernonvilliers
vernou
verny
vero
veroc
veroce
veroci
verocio
verociyo
verona
veronica
veror
verore
verra
verricourt
verrie
vers
versanayıs
verse
versi
version
versiyone
versus
vert
vertou
veru
verva
verve
vervezelle
very
verzeille
verıs
ves
vesaignes
vesc
vesly
vessey
vet
veta
vete
vetena
vetene
vetenı
veti
veto
vetıs
vewr
vewre
vewrı
vexaincourt
vey
veya
veyle
veys
veysel
veyvan
veyve
veyvek
veyvey
veyvi
veyvinı
veyvı
veyvıka
veyvıke
vez
veze
vezena
vezene
vezeno
vezin
vezot
vezouze
vga
vi
via
viaf
vian
viana
viandes
vibraye
vic
vice
vicel
vicenc
vicherey
vicious
vicoin
vicomte
vicomtesse
vicq
victeur
victor
victoria
vida
vidal
videcosville
video
videos
videoy
vidouville
vie
vieil
vieille
viel
vielprat
vier
vierville
vietnam
vietnami
vietnamia
vietnamio
vietnamiya
vietnamki
vieu
vieuvy
vieux
vievy
view
views
vigan
vignely
vignes
vigneul
vigneulles
vigneux
vignevieille
vignoble
vignot
vigny
vigo
vigor
vigot
vigy
vii
viii
viking
viktor
vila
viladrau
vilalba
vilamari
vilanova
vilar
vilarin
vilasantar
vilatorta
vilbert
vilcey
vilches
vili
villa
villacarrillo
villacerf
villacourt
village
villages
villaines
villalier
villalonga
villamanrique
villamena
villanie
villanova
villanu
villanueva
villar
villardebelle
villardonnel
villares
villaret
villars
villarzel
villas
villasavary
villatorres
villautou
villavard
ville
villebarou
villebazy
villecerf
villecey
villeche
villechien
villedaigne
villedieu
villedubert
villefloure
villefort
villefranche
villefrancœur
villefrouin
villegagnon
villegailhenc
villegly
villegruis
villeherviers
villei
villelongue
villemagne
villeman
villemardy
villemare
villemareuil
villemaur
villemer
villemereuil
villemoiron
villemorien
villemoustaussou
villemoyenne
villenauxe
villeneuve
villenoy
villeny
villepail
villeparisis
villeperdrix
villepinte
viller
villerable
villerbon
villereglan
villeret
villeromain
villerouge
villeroy
villers
villerupt
villery
villes
villese
villesiscle
villespy
villetritouls
villette
villettes
villevaude
villey
villiers
villiersfaux
villing
villoncourt
villotte
villuis
villy
vilniyus
vilosnes
vilıka
vilıke
vimarce
vime
vimianzo
vimpelles
vin
vina
vinantes
vinassan
vinayene
vinayıs
vincent
vincenzo
vincey
vinci
vincy
vind
vindefontaine
vindi
vine
vinena
vinene
vineno
vinets
vineuil
vineya
vini
vintage
vintrange
viocourt
violation
violin
viome
vion
vionville
vir
vira
virandeville
viras
virazi
vire
virecourt
virey
virga
virginia
viri
viridis
viro
virton
virtual
virtue
virus
viruse
vis
vision
visit
vissac
vist
vista
visualeditor
vita
vitellius
viterne
vitiazki
vitis
vito
vitrey
vitrimont
vitry
vittarville
vittel
vittoncourt
vittonville
vittorio
viva
viveiro
vives
vivien
viviers
vivo
vivoin
vix
viyale
viyana
viyarna
viyarnayıs
viyarno
viye
viyerenu
viyo
vizyon
vladimir
vm
vo
vocals
voce
vodafone
vodka
voice
voices
void
voigny
voinsles
voire
voisenon
voisins
voivre
voivres
voix
vokal
vol
voleybol
volga
volgograd
volkan
volkswagen
volnay
vologne
vols
voltaire
voltrega
volume
volumes
volunteer
volunteers
volvent
vom
vome
von
voni
vonnes
vor
vore
vorena
vorey
vorne
vosges
vosgesi
vosgesiya
vosnon
vosta
vote
voters
voting
voue
vouille
vouillon
voulangis
voulgis
voulton
voulx
voulzie
vous
voust
vouthon
voutre
vouvant
vouvray
vouxey
vouzon
voy
voyage
voyer
voyvodaya
voyvodayiye
voz
vrain
vraine
vre
vres
vreville
vron
vroncourt
vroville
vry
vs
vu
vue
vulaines
vulmont
vulpes
vun
vuni
vur
vuri
vurino
vuriyayo
vuriyayıs
vuriyena
vuriyene
vuriyeno
vuriyo
vurna
vurnayıs
vurneno
vurniyao
vurno
vurriyeno
vurriyo
vus
vy
vı
vıce
vıcyayo
vıje
vıla
vılabiyayıs
vıle
vıles
vıli
vılla
vıllıka
vıllıkı
vılık
vılıkan
vılıke
vılıki
vınde
vındena
vındene
vındeno
vınderdıs
vındere
vındero
vınderte
vınderto
vındertıs
vındi
vıne
vıni
vınibiyayıs
vır
vıradane
vıradano
vıran
vırare
vıras
vıraze
vırazena
vırazene
vırazeni
vırazeno
vıraziya
vıraziyae
vıraziyao
vıraziyay
vıraziyaya
vıraziyaye
vıraziyayi
vıraziyayo
vıraziyayıs
vıraziye
vıraziyena
vıraziyene
vıraziyeni
vıraziyeno
vıraziyo
vırazo
vırazya
vırazıyaye
vıre
vıriyayıs
vıriyene
vıriyeno
vıriyo
vırna
vırnao
vırnayenda
vırnayenı
vırnayıs
vırne
vırnene
vırneno
vırsık
vıs
vıst
vısta
vıste
vıstenı
vıstewre
vısti
vısto
vıstıs
vıze
vœlfling
vɪ
w
wa
waa
wab
wae
wagner
wahe
waht
waire
waiting
waka
wake
wakefield
wal
waldst
wales
walesa
wali
waliye
walk
walker
wall
wallace
wallis
walscheid
walsh
walt
walter
waly
wan
wande
wane
wanena
wanene
waneno
wang
wani
waniya
wanna
wano
want
wanted
wants
war
waraka
warburg
warcq
ward
ware
warey
wareye
wari
warner
waro
warren
wars
warsaw
waru
was
washington
washingtoni
waste
wastena
watch
water
waterford
waterloo
watronville
watson
waville
wavrille
wax
waxt
waxte
waxti
waxto
waxtqese
way
waya
wayback
waye
wayi
wayir
wayire
wayiri
wayne
ways
wayır
wayıre
wayıs
waz
waze
wazen
wazena
wazene
wazenime
wazeno
wazi
wazia
waziya
waziyeno
waziyet
waziyete
wazıno
wałe
we
weather
weaver
web
webcitation
weber
website
websitey
websiteye
websiteyo
webster
wec
wedaro
wedarıto
wedarıtıs
wedding
wede
wednesday
week
weekend
weekly
weeks
wehy
weight
weiye
weiyekerdene
weke
wekil
wekile
wekıli
wela
welat
welatan
welatane
welate
welati
welato
welcome
wele
welker
well
wells
wen
wena
wend
wenda
wende
wendegehe
wendekare
wenden
wendena
wendenda
wendene
wendenı
wendi
wendis
wendo
wendog
wendıs
wene
weni
weno
weqto
wer
werd
werda
werde
werdena
werdenda
werdene
werdenı
werdi
werdiyan
werdiye
werdiyo
werdo
werdog
werdı
werdıs
were
werey
wereza
weri
weriyeno
werner
werneri
werte
wertede
wertera
wertey
werteye
werze
werzene
werzeno
werzo
werıs
wes
wesa
wesar
wesare
wesari
wesaro
wesayıte
wese
wesley
weso
wesselam
west
western
westfalya
westfalyaya
wet
wete
weti
wext
wexta
wextan
wexte
wexti
wexto
wextqısan
wextqıse
wextqısey
wextqıseye
weye
weyi
weyiye
weyra
wezi
wezifa
wezife
wezifey
wezire
weziyet
weziyete
what
wheeler
when
where
whether
which
while
white
whitney
who
why
wi
wide
width
wie
wiesbaden
wife
wika
wiki
wikidata
wikimedia
wikimedians
wikipedia
wikipedias
wikipediya
wikipediyay
wikipediyaya
wikipediyayo
wikis
wikisky
wikivoyage
wiktionary
wilayeti
wild
wilde
wilder
wiley
wilhelm
wilkes
will
willd
willeroncourt
william
williams
willis
willy
wilson
wimbledon
win
wina
wind
windhoek
window
windows
windsor
wine
winner
winston
winter
wir
wis
wisconsin
wisconsini
wise
wisembach
wiseppe
wish
wissenschaft
with
within
without
wives
wiya
wiyana
wmf
wmo
wo
woe
woimbey
woippy
wolde
wolf
wolfgang
wolinski
woman
women
won
wonder
wong
woo
wood
woodrow
woods
woody
word
wordpress
words
work
working
works
world
worldcat
worlds
worte
would
wp
wrath
wreg
wrega
wrege
wregi
wregı
wrestler
wright
write
writer
writers
writing
writings
written
wrocław
wrong
wrote
wrıg
wt
wu
wuca
wucıde
wucıdi
wuhan
wuna
wunasin
wunasini
wuni
wus
wuza
www
wy
wyatt
wyoming
wı
wılayet
wılayetan
wılayetane
wılayete
wılayeti
wılayeto
wına
wınasi
wıne
wıni
wırna
wırnan
wıs
wɛ
x
xa
xac
xaffe
xaintois
xal
xaldun
xalduni
xale
xali
xalo
xalza
xalıqi
xalıt
xam
xamberi
xammes
xamontarupt
xan
xane
xanedane
xanedani
xanedaniya
xaney
xani
xanrey
xanton
xanıma
xanıme
xapneno
xaptiyo
xapıto
xariga
xaronval
xarpe
xartum
xas
xasi
xatır
xatıre
xe
xebat
xebata
xebatane
xebate
xeber
xebera
xeberan
xebere
xeberi
xeberı
xebeti
xebetiya
xebetiyeno
xebetnene
xec
xeceliyayıs
xelata
xelate
xelati
xelatı
xele
xeles
xelesneno
xelet
xeli
xelifa
xelifey
xelil
xelq
xelqe
xemılnene
xeno
xeraco
xerc
xerce
xeresa
xeri
xerita
xeritay
xermade
xermame
xertigny
xestexane
xet
xeta
xetan
xetay
xetaya
xetayi
xete
xeti
xetica
xetta
xetı
xeuilley
xevera
xeyle
xeyli
xeyr
xeyrat
xeyre
xeyri
xeyyam
xezeri
xi
xii
xiii
xinzo
xirivella
xirocourt
xiv
xivray
xivry
xiyar
xo
xoa
xoca
xoce
xode
xof
xokıs
xonc
xone
xonrupt
xonville
xora
xorasan
xorasane
xorasani
xore
xori
xoriyo
xormec
xormekan
xoro
xort
xortan
xorte
xorti
xos
xoser
xosera
xosere
xoseri
xoseriya
xoseriye
xosero
xouaxange
xousse
xover
xoverdayıs
xowo
xoya
xoye
xoyo
xoz
xoza
xozan
xozane
xozat
xozati
xozatia
xozatiya
xoze
xozi
xp
xristiyanane
xte
xu
xue
xulasa
xunqueira
xusrew
xususi
xuya
xuye
xuyo
xuzıstani
xuı
xv
xvi
xwo
xwı
xx
xy
xı
xıde
xıdude
xıdır
xıncoriye
xınıs
xırab
xırabe
xırabi
xırabiya
xırabiyayıs
xırabiye
xırabın
xırabıni
xırabıno
xıravın
xıristiyan
xıristiyanan
xıristiyanane
xıristiyanano
xıristiyani
xıristiyaniya
xıristiyaniye
xıristiyano
xırt
xırvatıstan
xırwatki
xıs
xısuse
xısusi
xısusiye
xısusiyete
xızmet
xızmeta
xızmete
xızır
xızıre
xızıri
xızıro
y
ya
yaban
yabanan
yabancı
yabani
yad
yade
yadi
yadigar
yado
yadoyi
yag
yahoo
yahs
yahudiyan
yahut
yahya
yak
yakası
yaki
yakup
yakın
yalan
yalancı
yalc
yale
yalnız
yalnızlık
yalova
yam
yamac
yaman
yan
yana
yandex
yane
yang
yangzhou
yangın
yani
yanlıs
yano
yao
yap
yapmak
yaprak
yapı
yapım
yapımcı
yaqub
yaqubi
yar
yara
yaralı
yarası
yarbas
yarbekir
yarbekiri
yardım
yardımcı
yardıme
yare
yaremetey
yari
yarim
yarmetey
yarım
yarın
yarıs
yas
yasak
yasax
yasemin
yasi
yassıo
yat
yate
yati
yavru
yavuz
yay
yaya
yayan
yaye
yayi
yayis
yayla
yayo
yayın
yayıncılık
yayınevi
yayınları
yaz
yazar
yazarlar
yazi
yazı
yazıbas
yazıcıog
yazılar
yazıları
yde
ye
year
years
yecuc
yedi
yeditepe
yeg
yehovay
yek
yeks
yeleri
yelken
yellow
yemeg
yemegi
yemek
yemen
yemeni
yemin
yemis
yen
yena
yene
yeni
yenibas
yenic
yenice
yeniden
yenidog
yeniko
yenilebilir
yenimahalle
yenis
yenisuy
yeno
yenu
yer
yere
yeri
yerre
yes
yesax
yet
yete
yeter
yeti
yetik
yew
yewa
yewbi
yewbina
yewbinan
yewbini
yewbiyaey
yewbiyaeyan
yewbiyaiyan
yewbiyayey
yewbiyayeyan
yewbiyayeyana
yewbiyayeyano
yewbiyayiya
yewbiyayiyan
yewbiyayiye
yewbiyayıs
yewca
yewe
yewi
yewin
yewina
yewine
yewiya
yewna
yewo
yewqoc
yews
yewın
yewına
yewıne
yewıno
yezdıgırd
yezg
yi
yidis
yig
yil
yilmaz
yin
yine
yinkar
yitiqate
yku
yle
ylemek
yles
ylu
yna
yni
ynu
yo
yog
yok
yokohama
yol
yolcu
yoldas
yolları
yolu
yolunda
yom
yon
yonca
yone
yonne
yor
yorgun
york
yorki
yorum
you
young
your
yours
yourself
youtube
yow
yozg
ypg
yquelon
yr
yreno
yron
ys
yssingeaux
yu
yug
yugoslavya
yukarı
yukarıc
yumurcak
yun
yunan
yunanan
yunane
yunani
yunanistan
yunanki
yunankiyo
yunano
yunanıstan
yunanıstane
yunanıstani
yunanıstaniyo
yunanıstano
yunnan
yunus
yuri
yurt
yurti
yusuf
yves
yvetot
yvre
yye
yı
yıg
yıl
yılan
yıldırım
yıldız
yıldızı
yıllar
yılmaz
yılı
yın
yına
yıne
yıni
yıno
yıs
z
za
zabierzo
zabıte
zachary
zaf
zafa
zafane
zafayona
zafe
zafer
zaferi
zafi
zafo
zafın
zag
zagon
zagone
zagreb
zahf
zaidi
zakkum
zalabi
zalim
zama
zaman
zamanlar
zamanı
zamay
zambiya
zan
zana
zanaene
zanaye
zanayenı
zanayis
zanayıs
zane
zanena
zanene
zaneno
zaney
zangers
zani
zanist
zaniyena
zaniyene
zaniyeno
zano
zanon
zanıs
zanıte
zanıtene
zanıtıs
zanıyen
zar
zara
zaragoza
zarathustra
zarches
zard
zare
zari
zas
zatay
zaten
zaudun
zav
zay
zaye
zayn
zayıf
zaza
zazaca
zazae
zazaistan
zazaistani
zazaki
zazakikozmos
zazakipediya
zazakiya
zazakiye
zazakiyo
zazalar
zazana
zazao
zazaog
zazapress
zazas
zazay
zazaya
zazayan
zazayana
zazayane
zazayano
zazaye
zazayo
zbag
zbas
zbek
zcan
zcu
zdemir
zden
zdi
zdiye
zdro
ze
zealand
zebes
zebra
zeder
zehf
zehfamar
zehfamare
zehfe
zehirli
zehmet
zehra
zeit
zekat
zeke
zeki
zekı
zel
zelal
zelanda
zeli
zelise
zelyurt
zelzeley
zeman
zemanan
zemane
zemani
zemanio
zemano
zemi
zen
zenat
zenate
zenati
zenciyan
zend
zengi
zengin
zengın
zengıno
zentaine
zeppelin
zer
zera
zeranci
zeranige
zerar
zeray
zerd
zerdus
zere
zerede
zerewes
zerey
zereye
zerfe
zeri
zerida
zerinde
zerine
zeriya
zern
zerne
zerni
zernkut
zernu
zero
zerqe
zerre
zerrek
zerreke
zerreki
zerrewes
zerrey
zerreye
zerri
zerria
zerrin
zerriya
zert
zerveti
zerville
zerzewat
zes
zeus
zew
zewac
zewbi
zewbina
zewcı
zewec
zewece
zeweci
zeweciya
zeweciyao
zeweciyaya
zeweciyaye
zeweciyayo
zey
zeyd
zeyde
zeyneb
zeynel
zeynep
zeytin
zeyıf
zga
zgar
zge
zgo
zgu
zh
zhang
zi
zie
zig
ziggurat
zignan
zihniyete
zik
zike
ziki
zil
zilayi
zilhac
zilles
ziman
zimane
zimbabwe
zimmer
zimming
zin
zincourt
zindan
ziraet
ziraeti
ziran
zisyen
ziwan
ziwanan
ziwanane
ziwane
ziwani
ziya
ziyar
ziyare
ziyaret
zkan
zkerdene
zki
zkiyo
zlanda
zledim
zlem
zler
zleri
zlerim
zlu
zmi
zmir
zmiri
zmiriya
zmit
znik
zo
zobbel
zobina
zodyak
zof
zog
zola
zon
zona
zoncourt
zondrange
zone
zonena
zonene
zoneno
zong
zonguldak
zoni
zono
zonu
zor
zora
zorbaziye
zore
zori
zorlu
zoro
zoroastrian
zovina
zpınar
ztu
zu
zuan
zuane
zuani
zuano
zubia
zuh
zuhal
zuhri
zulım
zum
zumini
zun
zur
zura
zurafa
zureno
zuri
zuwan
zuwane
zuwani
zw
zwei
zy
zya
zyas
zyayo
zyurt
zyıl
zza
zzet
zı
zıg
zılfi
zım
zıme
zımey
zımeye
zımeyi
zımeyo
zımıstan
zımıstani
zınce
zınci
zırc
zırna
zırnaya
zıwa
zıwan
zıwanan
zıwanane
zıwanano
zıwande
zıwane
zıwani
zıwanio
zıwaniyo
zıwano
zıwans
zɑ
zɛ
{
|
}
~
¡
¥
§
¨
©
«
­
®
°
±
²
³
´
·
¸
¹
º
»
½
¿
×
ß
æ
ø
đ
ħ
ı
ıbat
ıbate
ıc
ıd
ıdag
ıdan
ıde
ıdet
ıdete
ıf
ıg
ıhar
ıi
ıir
ıiran
ıirane
ıire
ıiri
ıiro
ık
ıka
ıkan
ıkane
ıke
ıkeno
ıki
ıkl
ıklar
ıkle
ıklı
ıkmazı
ıkneno
ıkno
ıko
ıku
ıkı
ıkıtene
ıl
ıla
ılagey
ılar
ılas
ıle
ıleyo
ılgın
ıli
ıliye
ılı
ılık
ım
ıma
ımal
ımale
ımali
ıman
ımane
ıme
ımene
ımeno
ımey
ımeyan
ımeyane
ımeye
ımeyo
ımi
ımiyeno
ımkerdıs
ımki
ımkı
ımo
ımu
ımune
ımı
ımıtene
ımıtenı
ımıtıs
ın
ına
ınan
ınar
ınaraltı
ınas
ınasan
ınase
ınasi
ınasiya
ınasiyane
ınasiyao
ınasiye
ınasiyena
ınasiyene
ınasiyeno
ınasiyo
ınasna
ınasnayıs
ınasne
ınasnene
ınasneno
ınasno
ınaso
ınay
ınaye
ınayo
ında
ından
ıne
ıni
ıniya
ıniyao
ıniye
ıniyo
ınka
ınke
ıno
ınu
ınya
ınyo
ını
ının
ınıtıs
ıplak
ıq
ıqa
ıqan
ıqas
ıqe
ır
ıra
ıre
ıri
ırket
ırkete
ırketi
ırketo
ırmak
ırnaq
ıro
ırog
ırpı
ırqe
ırxaney
ıs
ıstan
ıstani
ıstanıki
ısı
ıt
ıte
ıtenı
ıti
ıtme
ıtu
ıtur
ıturi
ıvan
ıwane
ıwaneyi
ıxa
ıy
ıyaka
ıyo
ıyor
ız
ızki
ızıstan
ızıstani
ł
ło
łobez
ŋ
œting
ɐ
ɑ
ɑn
ɑs
ɑw
ɑɾ
ɔ
ə
ɛ
ɛnə
ɛɾ
ɡ
ɡɑ
ɡə
ɡɪ
ɣ
ɪ
ɾɑf
ɾɛ
ɾɪ
ʁ
ʃ
ʃɑn
ʉ
ʊ
ʏ
ʒ
ʝɑ
ʝə
ʝɛnə
ʰ
ʲ
ʹ
ʻ
ʼ
ʾ
ʿ
ˁ
ˈ
ˌ
ː
ːˈ
ˑ
ˤ
˥
̀
́
̂
̃
̄
̆
̇
̈
̉
̊
̋
̌
̑
̓
̔
̛
̞
̣
̦
̧
̨
̩
̪
̮
̯
̰
̱
̲
̸
͂
ͅ
͡
΄
α
β
γ
δ
ε
η
θ
ι
λ
ν
ξ
ο
ου
π
ρ
ς
σ
σα
τ
υ
φ
χ
ω
ϑ
а
б
в
г
д
е
ж
з
и
к
л
м
н
на
о
п
р
респу
республика
с
саи
т
у
ф
х
ц
ч
ш
ъ
ьш
э
ю
я
ђ
ј
љ
њ
ћ
џ
ғ
қ
ҳ
ҷ
әр
ԝ
ա
բ
գ
դ
ե
զ
է
ը
թ
ժ
ի
լ
խ
ծ
կ
հ
ձ
ղ
ճ
մ
յ
ն
շ
ո
չ
պ
ջ
ռ
ս
վ
տ
ր
ց
ւ
փ
ք
օ
ֆ
ְ
ֲ
ִ
ֵ
ֶ
ַ
ָ
ֹ
ּ
ׁ
ׂ
א
ב
ג
ד
ה
ו
ז
ח
ט
י
כ
ל
ם
מ
ן
נ
ס
ע
פ
צ
קריית
ר
ש
ת
،
ء
ا
اء
ات
ار
استان
ال
الا
الر
الل
الله
ام
ان
اه
ایران
ب
بن
به
بو
ة
ت
ث
ج
ح
خ
د
در
ذ
ر
ز
زبان
س
سایت
سورة
ش
ص
ض
ط
ظ
ع
عبد
علي
غ
ـ
ف
ق
ك
كه
ل
لا
م
محمد
ن
نت
ه
و
وا
ولایت
ون
ى
ي
يم
ين
يه
ً
ٌ
ٍ
َ
ُ
ِ
ّ
ْ
ٓ
ٔ
ٕ
ٰ
چ
ک
گ
ہ
ی
ۡ
ܐ
ܵ
ं
अ
क
ख
ग
च
ज
ट
ढ
त
थ
द
न
भ
म
र
ल
व
श
स
ह
़
ा
ि
ी
ु
ू
ृ
ो
्
ঁ
ং
ও
ক
গ
ছ
জ
ঞ
ত
থ
দ
ধ
ন
প
ব
ভ
ম
য
র
ল
শ
ষ
স
়
া
ি
ী
ু
ূ
ে
্
ৎ
ં
ઃ
અ
આ
એ
ક
ગ
ચ
જ
ઝ
ટ
ઠ
ડ
ત
થ
દ
ધ
ન
પ
બ
મ
ય
ર
લ
વ
શ
ષ
સ
ા
િ
ી
ુ
ૂ
ૃ
ૅ
ે
ૈ
ૉ
ો
ૌ
્
૪
ி
ప
ష
ా
ಸ
ಿ
್
ച
ാ
്
ภ
ู
่
้
་
ཐ
ད
ཕ
མ
ི
ུ
ម
ᵛ
​
‌
‍
‎
‏
‐
–
—
‘
’
‚
“
”
„
†
•
…
′
″
‹
›
‿
⁡
ⁱ
€
™
→
↔
↷
⇒
∇
∈
−
∘
∞
∫
≈
≡
⋄
⋅
③
④
⑦
☃
★
☉
♠
♡
♣
⯓
ⵉ
⺀
⺄
⺆
⺈
⺊
⺌
⺕
⺝
⺸
⺼
⿰
⿱
⿲
⿳
⿴
⿵
⿶
⿷
⿸
⿹
⿺
⿻
、
。
々
『
』
〢
あ
い
う
え
か
く
し
す
た
っ
つ
て
と
な
に
の
は
ひ
ほ
ま
み
も
よ
る
を
ん
゙
゚
ア
イ
ウ
ェ
オ
カ
キ
ク
コ
シ
ス
タ
チ
ッ
ツ
ト
ニ
ネ
ハ
フ
ホ
マ
ミ
ム
ュ
ユ
ラ
ル
レ
ロ
ン
ー
㇁
㇂
㇄
㇇
㇈
㇉
㇓
㐁
㐄
㐅
㐌
㐫
㐬
㐭
㐮
㐱
㑒
㒵
㒸
㒼
㓁
㓞
㔾
㕛
㕣
㖾
㘝
㚅
㚇
㚔
㚘
㝉
㝡
㝴
㝵
㞋
㞢
㞷
㠩
㠭
㠯
㡀
㡭
㡿
㢲
㢴
㣇
㣺
㥯
㪅
㫄
㫐
㫒
㫺
㬅
㬎
㬥
㬰
㲋
㳄
㷠
㸒
㸚
㸦
㼌
㼲
㽞
㿟
䀠
䂞
䍃
䏍
䒑
䖍
䖒
䖝
䖵
䙴
䚻
䜌
䝿
䡛
䧹
䪞
一
丁
丂
七
丄
丅
丆
万
丈
三
上
下
丌
不
与
丏
丐
丑
专
且
丕
世
丘
丙
业
东
丞
丢
丣
两
严
並
丨
丩
个
丫
丬
中
丮
丰
丱
串
丵
丶
丷
丸
丹
为
主
丽
丿
乀
乂
乃
久
乆
乇
么
义
之
乌
乍
乎
乏
乐
乑
乔
乖
乗
乘
乙
乚
乛
乜
九
乞
也
习
乡
书
乳
乾
亀
亅
了
亇
予
争
事
二
亍
于
亏
亐
云
互
亓
五
井
亘
亚
亜
亞
亟
亠
亡
亢
交
亥
亦
产
亨
亩
享
京
亭
亮
亯
亰
亲
亳
亶
亷
人
亻
亼
亾
仁
今
介
仌
从
仐
仑
仒
仓
仕
他
付
仝
代
令
以
仮
任
企
伊
伏
伐
休
会
伯
但
位
何
佘
余
作
你
佥
使
來
侈
侌
侖
侯
侵
便
保
俞
信
修
倉
倍
候
倠
備
僉
僕
僮
儿
兀
允
兂
元
兄
充
兆
兇
先
光
兊
克
兌
免
兑
兒
兓
兔
党
兜
兟
入
全
兩
兪
八
公
六
兮
兰
共
关
兵
其
具
典
兹
兼
冀
冂
冃
冄
内
冈
冉
冊
冋
册
再
冎
冏
冐
冒
冓
冖
冗
冘
军
农
冝
冡
冥
冫
冬
冷
几
凡
凢
凵
凶
凷
凸
凹
出
函
凾
刀
刁
刂
刃
刄
刅
分
切
刍
刑
刕
刖
列
刘
则
初
別
利
别
到
制
刺
則
削
剌
前
剡
剽
劉
力
功
加
务
劦
动
助
劫
劳
劵
勃
勇
勉
勒
動
務
勝
勞
勤
勹
勺
勻
勾
勿
匀
匂
包
匆
匈
匊
匋
匍
匕
化
北
匚
匝
匡
匪
匱
匸
匹
区
医
匽
匿
區
十
卂
千
卄
卅
卆
升
午
卉
半
卌
华
卑
卒
卓
单
卖
南
博
卜
卝
卞
占
卡
卢
卣
卤
卦
卩
卪
卬
卯
印
危
即
却
卵
卷
卸
卻
厂
厃
厄
历
厈
厉
厌
厓
厘
厚
原
厤
厥
厨
厭
厲
厶
厷
厸
去
厼
厽
叀
参
參
叅
又
叉
及
友
双
反
叐
发
叒
叔
叕
取
受
叚
叜
叟
口
古
句
另
叩
只
召
可
台
叱
史
右
叵
号
司
叹
吂
各
吅
合
吉
吊
吋
同
名
后
吏
向
吕
君
吝
吞
否
含
启
吳
吴
吹
吾
呂
呆
呈
告
员
呙
周
命
咅
和
咎
咠
咢
咨
咸
咼
哀
品
哉
員
哥
哲
唐
商
啇
問
啚
啬
啻
善
喜
喬
單
喿
嗇
嘉
噩
嚴
囊
囗
囘
囙
囚
四
回
囟
因
团
囧
囬
困
囱
囷
固
国
圂
圅
國
圍
圓
土
圡
圣
圥
在
圭
地
圶
圼
坐
坒
坚
坦
坴
垂
垔
垚
埀
埋
埶
執
基
堂
堅
堆
堇
堯
塞
墨
壘
士
壬
壮
壯
声
壳
壴
壹
壺
壽
夂
处
夅
夆
备
夊
夋
夌
复
夏
夒
夕
外
夗
夘
多
夜
夢
大
夨
天
太
夫
夬
夭
央
失
夲
头
夷
夸
夹
夻
夾
奂
奄
奇
奈
奉
奎
奏
奐
契
奓
奔
奚
奞
奠
奢
奥
奭
女
奴
奻
好
如
妄
妙
妟
妥
妻
妾
姑
委
姜
威
娄
婁
婴
嬰
嬴
子
孑
孔
孕
孖
字
存
孚
孛
孝
孟
季
孤
学
孫
孱
學
宀
宁
宂
它
宅
宇
守
安
宋
完
宏
宓
宗
官
定
宛
宜
宝
客
宣
室
宮
宰
害
家
容
宾
宿
寄
寅
密
富
寒
察
寧
審
寫
寬
寮
寸
对
寺
寻
寽
対
寿
封
尃
射
将
將
專
尉
尊
尋
尌
對
小
少
尒
尓
尔
尖
尗
尚
尞
尢
尣
尤
尧
尨
尭
就
尸
尹
尺
尻
尼
尽
尾
尿
局
居
屈
屋
屎
屏
屑
展
屖
屚
属
屠
屡
屬
屮
屯
屰
山
屵
屾
岁
岂
岑
岡
岩
岳
岸
峯
島
崇
崑
崔
崖
崙
崩
嵬
嶲
巂
巛
川
州
巟
巠
巢
巤
工
左
巧
巨
巩
巫
差
己
已
巳
巴
巷
巸
巽
巾
巿
帀
市
布
希
帚
帛
帝
带
師
席
帶
常
干
平
年
幵
并
幷
幸
幺
幻
幼
幽
幾
广
広
庄
床
底
店
庚
府
度
庫
庭
庶
康
庸
廉
廌
廛
廣
廩
廴
延
廷
建
廾
廿
开
弁
弃
弄
弇
弋
式
弓
弔
引
弗
弘
弜
弟
弥
弦
弱
張
強
强
彊
彌
彎
彐
彑
当
彔
录
彖
彗
彡
形
彥
彦
彧
彭
彳
役
彼
往
待
律
徒
得
徙
從
復
微
徵
心
忄
必
忌
忍
志
忝
忠
忩
快
念
忽
忿
思
怠
急
怱
恆
恒
恩
恭
息
悉
患
悤
悲
悶
惠
惡
惢
愁
愈
意
愛
感
慈
慧
慮
憂
憲
應
戀
戈
戉
戊
戋
戌
戍
戎
戏
成
我
戒
戔
或
戚
戠
戢
截
戰
戲
戶
户
戹
戼
戾
房
所
扁
扇
手
扌
才
打
托
执
承
折
拉
招
拜
拿
掌
推
提
摩
支
攴
攵
收
攸
改
放
政
敄
故
敏
敕
敖
敗
教
敝
敞
敢
散
敦
敫
敬
数
敷
數
斂
文
斉
斊
斗
斤
斥
斩
斬
斯
新
方
於
施
斿
旁
旋
族
无
旡
既
旣
日
旦
旧
旨
早
旬
旱
旲
时
旾
昆
昇
昌
昍
明
昏
易
昔
昗
昜
星
春
昬
是
昱
昴
昷
時
晃
晋
晏
普
景
晶
智
暑
暴
曇
曩
曰
曲
曳
更
曷
書
曹
曼
曾
替
最
朁
會
月
有
朋
服
朔
朕
朗
望
朝
期
木
朩
未
末
本
札
朮
术
朱
朵
朶
机
朿
杀
李
杏
杜
束
条
来
杰
東
杲
杳
松
构
析
林
枚
果
枝
枲
枼
某
柔
查
柬
柰
柴
栗
株
桀
桑
桼
梁
條
梟
梨
棘
棠
棥
森
楚
業
楽
榮
樂
樊
模
欠
次
欣
欮
欲
欶
欽
款
歆
歇
歛
止
正
此
步
武
歨
歪
歮
歯
歰
歲
歴
歷
歸
歹
歺
死
殳
段
殷
殸
殹
殺
殻
殿
毋
毌
母
每
毒
比
毕
毚
毛
毳
氏
氐
民
气
氣
水
氵
氶
氷
永
氺
氾
求
汉
汝
汞
江
沃
沓
沙
沝
河
泉
法
波
泣
泥
泰
洛
洪
活
派
流
浦
浪
浮
海
淡
淮
清
渚
渠
港
游
湯
満
滿
漢
漸
澳
灣
火
灬
灭
灰
灵
灷
炅
炎
炏
炗
炙
炭
為
烈
烏
烝
焉
無
焦
焱
然
煞
熊
熏
燕
營
燮
爪
爫
爭
爯
爰
爱
爲
爵
父
爻
爽
爾
爿
片
牙
牚
牛
牜
牟
牢
牧
牪
牽
犀
犬
犭
犮
狂
狄
狊
独
狺
猋
猒
猪
猫
献
獻
玄
率
玉
王
玟
玨
珎
班
現
理
琴
瑟
瑩
璠
瓜
瓦
甘
甚
生
産
用
甫
甬
田
由
甲
申
电
甶
男
甸
甹
画
甾
畀
界
畏
畐
留
畜
畟
畢
畧
畨
番
畫
異
畱
當
畺
畾
疊
疋
疌
疑
疒
疾
癶
癸
癹
登
發
白
百
皀
皃
的
皆
皇
皋
皐
皕
皮
皷
皿
盃
盆
盇
盈
益
盍
盎
监
盒
盖
盛
盡
監
盤
盧
目
直
相
盾
省
眇
眉
看
眔
眞
真
眷
眼
眾
着
睘
睪
睿
瞏
瞢
瞿
矍
矛
矞
矢
矣
知
矦
短
石
研
破
碎
磊
磨
示
礻
礼
社
祟
票
祭
禀
禁
禸
禹
禺
离
禽
禾
禿
秀
秃
秉
秋
科
秝
秦
移
稟
稿
穀
穌
穴
究
穹
空
穿
突
窄
窒
立
竒
竜
竝
竟
章
童
竹
笑
笠
筆
等
答
箕
算
箴
節
篤
篭
米
粉
粛
粟
粤
粦
粲
糞
糸
糹
系
約
紅
納
素
索
紫
累
細
絜
絫
絲
維
綿
縄
縣
繇
纍
纟
线
络
缶
网
罒
罔
罕
罗
罙
罡
罢
罪
署
罷
羅
羊
羌
羍
美
羔
羕
羗
羞
羡
羣
群
義
羲
羸
羽
翁
翏
習
翕
翟
翠
翼
老
耂
考
者
耆
而
耎
耑
耒
耳
耴
耶
耷
聂
聊
聖
聘
聚
聶
聿
肀
肃
肅
肉
肖
肙
肥
肩
肯
育
肴
胃
背
胡
胥
能
脊
脩
膚
臣
臤
臧
自
臬
臭
臯
臱
至
致
臺
臼
臽
臾
臿
舀
舂
舄
與
興
舉
舌
舍
舛
舜
舞
舟
般
艮
良
色
艸
艹
艾
芒
芔
芬
芮
花
芳
芺
芻
苔
苗
苟
若
苦
英
茶
茸
荅
草
荒
荣
荼
莆
莧
莫
莽
菆
菊
菐
華
萄
萬
落
葉
著
葛
葡
董
葵
蒙
蒦
蒼
蓋
蓬
蓺
蔑
蔡
蕉
蕭
薄
薛
薦
薰
藍
藏
藥
蘭
虍
虎
虐
虒
虔
處
虖
虗
虘
虚
虛
虜
虞
虫
虽
蚤
蚩
蜀
蜜
蟲
蠡
血
行
衍
衛
衣
衤
表
衮
衰
袁
袞
褭
褱
襄
襾
西
覀
要
覃
見
規
覓
覧
親
覽
见
角
解
言
訁
訇
計
記
詹
語
誩
諸
讠
语
读
谷
豆
豈
豊
豐
豕
豖
豙
象
豦
豩
豪
豸
貇
貝
貞
貟
負
貢
貧
貪
貫
責
貳
貴
買
費
貽
賁
資
賈
賏
賓
賔
賛
賞
賢
賣
質
賴
贊
贝
贡
责
贯
贲
贵
赖
赞
赤
赦
走
越
足
路
蹇
身
躬
車
軍
軎
軟
輦
车
辛
辜
辟
辥
辰
辱
農
辵
辶
边
达
过
近
连
迷
追
退
送
逆
逐
通
速
造
逢
連
逮
進
遀
遂
過
道
達
遠
遣
適
遷
遺
邊
邑
邕
那
邦
邪
郎
部
郭
都
鄉
酉
酋
配
酓
酸
釆
采
里
重
野
量
金
釒
錢
钅
長
镸
长
門
閃
閉
開
閏
閑
閒
間
閔
閵
閻
闌
门
间
闷
阑
阜
阝
阿
降
陳
隆
隊
隋
隡
隨
隱
隶
隹
隺
隻
隼
隽
难
雀
雁
集
雈
雋
雍
雐
雔
雙
雚
雜
雝
離
難
雨
雩
雪
雲
零
雷
電
需
霍
霜
霝
霞
霸
靈
靑
青
非
靡
面
靣
革
韋
韦
韭
韯
韱
音
頁
頃
項
須
頗
頡
頻
顛
類
页
風
风
飛
飞
食
飠
養
饣
首
香
馬
馮
駦
驢
马
骨
高
髟
鬥
鬯
鬲
鬼
魏
魚
魯
鮮
鱼
鲁
鳥
鳳
鳶
鸟
鸢
鹵
鹿
麃
麗
麥
麦
麻
黃
黄
黍
黎
黑
黒
黨
黹
黽
黾
鼎
鼓
鼠
鼻
齊
齋
齐
齒
齿
龍
龙
龜
龟
龠
龰
龱
龴
龵
龶
龷
龸
龹
者
艹
︡
﹔
ﺎ
ﺏ
ﺑ
ﺭ
ﺷ
ﻌ
ﻟ
ﻤ
ﻨ
ﻲ
ﻳ
﻿
（
）
，
？
￼
𐬀
𐭥
𒀭
𒄀
𒈠
𒈹
🜨
𠀁
𠀃
𠀆
𠀉
𠀎
𠀐
𠁁
𠁣
𠂆
𠂇
𠂈
𠂉
𠂊
𠂋
𠂎
𠂒
𠂔
𠂛
𠂡
𠂢
𠂤
𠂬
𠂭
𠂹
𠃊
𠃋
𠃌
𠃍
𠃎
𠃑
𠃓
𠃔
𠃜
𠄌
𠄎
𠄠
𠄢
𠆢
𠆥
𠇍
𠈌
𠌵
𠓜
𠔉
𠔥
𠔼
𠔽
𠔿
𠕀
𠕁
𠕋
𠘧
𠘨
𠙻
𠙼
𠚏
𠚒
𠚤
𠚪
𠣏
𠤎
𠤕
𠥓
𠦄
𠦑
𠦝
𠧒
𠧗
𠧪
𠩺
𠪚
𠫓
𠫔
𠫤
𠬛
𠬝
𠬞
𠬢
𠬤
𠬶
𠮛
𠮦
𠮷
𠯑
𠱠
𠳮
𠷎
𡈼
𡉀
𡉵
𡌥
𡍮
𡏳
𡕒
𡕩
𡕰
𡖅
𡗗
𡗜
𡘆
𡘤
𡧱
𡨄
𡩧
𡬠
𡭽
𡰣
𡰥
𡰪
𡰯
𡰱
𡷈
𡸁
𡿨
𡿩
𡿪
𡿺
𢀖
𢀛
𢀩
𢁙
𢆉
𢆰
𢆶
𢇁
𢇇
𢉖
𢌬
𢌿
𢏚
𢑑
𢑚
𢖻
𢙣
𢛳
𢦏
𢦒
𢧵
𢼄
𢾕
𣁋
𣄼
𣅀
𣅽
𣍘
𣎳
𣎵
𣏋
𣏼
𣗥
𣥂
𣥖
𣦵
𣦼
𣧄
𣪊
𣪠
𣬉
𣳾
𣶒
𤇾
𤊽
𤐫
𤓰
𤔔
𤕨
𤣩
𤰇
𤰔
𤰞
𤴓
𤴔
𤽄
𥁑
𥁕
𥃦
𥃩
𥃭
𥇡
𥑟
𥘅
𥘈
𥝢
𥫗
𥱡
𦈢
𦉪
𦉬
𦉼
𦍌
𦍒
𦎧
𦐇
𦓔
𦔮
𦘒
𦙃
𦚏
𦣝
𦣞
𦣻
𦥑
𦥔
𦥯
𦨉
𦭝
𦰩
𧆞
𧈧
𧘇
𧰨
𧴪
𧴮
𧵩
𧾷
𨸏
𨾴
𩙿
𩠐
𩫏
𩵋
𪉷
𪜀
𪟽
𪠲
𪩲
𫇦
𫔭
𫜸
𫝀
𫠣
𫠩
𫢉
𫥞
𫩏
𫩠
𫪡
𫲽
𫶧
𬀷
𬐘
𬗌
𬙙
𬛸
𬜯
𬟩
𬯁
𬴘
𬺻
𬼉
𬼖
𭀰
𭁈
𭁨
𭅰
𭑈
𭕄
𭗼
𭤨
𭥫
𭻾
𮅕
𮊿
𮍌
𮍏
𮓗
𮥼
𮧮
廾
𰀁
𰀄
𰀈
𰀉
𰀕
𰀠
𰀡
𰀢
𰀪
𰁜
𰃮
𰆊
𰆘
𰋙
𰕎
𰢴
𰧭
𰯲
00--
01--
02--
03--
04--
06--
07--
08--
09--
52--
57--
65--
66--
71--
73--
75--
76--
a--
aa--
ab--
abdul--
abi--
abing--
abu--
abxa--
abys--
abır--
ac--
act--
acı--
ad--
ada--
add--
advo--
adı--
adır--
ae--
af--
afer--
aferi--
afro--
ag--
age--
aginc--
ago--
agu--
ah--
ahi--
ai--
ail--
air--
aj--
ak--
aks--
akti--
al--
ala--
ald--
aldat--
ale--
alf--
algorit--
ali--
all--
alm--
alp--
alt--
alter--
am--
ama--
ambass--
ame--
amu--
amy--
an--
ana--
and--
ane--
ang--
ani--
ann--
anna--
annou--
ano--
ans--
ansik--
ant--
anthrop--
anti--
antro--
any--
ao--
ap--
aplikas--
apo--
aq--
ar--
ara--
aran--
arc--
ard--
are--
arg--
argen--
ari--
arjan--
arkeo--
arn--
art--
arı--
as--
ase--
ash--
asi--
ask--
ass--
associa--
ast--
at--
ata--
atmos--
au--
auf--
aus--
aut--
av--
ava--
avo--
aw--
awa--
awı--
ax--
ay--
ayaklan--
aydın--
ayet--
az--
azerbai--
b--
ba--
bahr--
bak--
bal--
bala--
bamb--
ban--
bar--
bare--
bas--
bat--
bay--
bayın--
baz--
be--
beau--
bec--
beg--
bel--
ben--
beni--
ber--
bern--
bert--
bes--
best--
bet--
bew--
bex--
bey--
beynel--
bi--
bia--
bib--
bibli--
bic--
big--
bil--
bin--
bio--
bir--
bis--
bit--
biya--
biz--
bla--
blo--
bo--
boc--
bog--
bol--
bom--
bon--
boo--
bor--
bos--
bot--
bota--
bou--
bouc--
boule--
bour--
bous--
bout--
bow--
boy--
boz--
br--
bra--
bre--
bris--
brit--
bru--
brunn--
bu--
buc--
buff--
bug--
bul--
bun--
bundes--
bur--
burn--
bus--
but--
buz--
by--
bı--
bıc--
bıfe--
bık--
bıl--
bın--
bır--
bırr--
bıs--
bıvı--
bız--
c--
ca--
cab--
cae--
cag--
cald--
cali--
cam--
can--
cant--
cap--
car--
carne--
casa--
cast--
cat--
cauca--
cave--
cawi--
ce--
cehen--
cel--
celeb--
cem--
cen--
cer--
cerab--
cev--
ceva--
cew--
cf--
ch--
cha--
chal--
champ--
chan--
char--
che--
chi--
cho--
chœ--
ci--
cia--
cin--
citi--
civ--
ciz--
ck--
cl--
cle--
cn--
co--
cog--
col--
colla--
com--
con--
conf--
cons--
conser--
cop--
copy--
cor--
correspo--
cot--
cou--
coub--
couc--
coup--
cour--
cow--
cr--
cre--
creat--
crich--
cris--
cru--
ct--
cu--
cum--
cy--
cyr--
cz--
cı--
cıg--
cın--
cıt--
cıwy--
d--
da--
dag--
dah--
dai--
dal--
dam--
dan--
dani--
dar--
dare--
day--
de--
dec--
def--
deg--
deh--
dei--
dej--
dek--
del--
deli--
dem--
den--
deolo--
deqi--
der--
des--
descrip--
dest--
destpey--
det--
dev--
dew--
dez--
di--
dia--
diag--
dict--
die--
dik--
dil--
din--
dio--
dipl--
diplom--
dir--
dis--
disip--
diya--
diz--
dj--
dna--
do--
dokum--
dol--
dom--
don--
dor--
dos--
dost--
dow--
dox--
dr--
dre--
du--
dub--
duc--
dudak--
dul--
dun--
dur--
duy--
dx--
dy--
dz--
dı--
dır--
dıs--
e--
ea--
east--
eb--
ebdul--
ec--
ece--
ed--
edevi--
edi--
ee--
ef--
eg--
eh--
ehit--
ehr--
ei--
ein--
ek--
eko--
eks--
ekva--
ekwa--
el--
ela--
elasti--
ele--
elect--
elek--
elf--
eli--
els--
else--
em--
embar--
embir--
embır--
eme--
ems--
en--
enbır--
end--
endus--
eng--
eno--
enst--
enter--
ep--
epi--
eqı--
er--
erb--
erd--
erexi--
erg--
eri--
erm--
ers--
erz--
es--
esch--
est--
esta--
et--
ethno--
etymol--
eu--
eur--
euro--
ev--
evci--
evekn--
ever--
evi--
evlen--
ew--
ex--
expec--
experi--
exten--
ey--
eyn--
ez--
ezi--
f--
fa--
fabr--
fak--
fam--
fan--
far--
fas--
fat--
fe--
fel--
feodal--
fer--
ferman--
fetel--
feteli--
fetıln--
feu--
fex--
fey--
fi--
fik--
fil--
fili--
film--
fin--
fis--
fizy--
fizyolo--
fla--
fle--
flo--
fo--
fon--
font--
for--
fore--
foto--
four--
fr--
fra--
fre--
fred--
free--
frie--
fru--
ft--
fu--
full--
funda--
fus--
fy--
fø--
fıkr--
fıl--
fıli--
fıqa--
fır--
fıs--
fıt--
g--
ga--
gad--
gal--
gan--
gar--
gari--
gas--
gau--
gaz--
gd--
ge--
geis--
gel--
gen--
gent--
geo--
ger--
ges--
get--
gev--
gey--
gi--
gil--
gire--
gis--
git--
giyo--
gl--
glad--
glo--
go--
god--
gol--
gold--
gon--
gor--
gos--
got--
gour--
goy--
gra--
gre--
green--
gri--
gro--
grund--
gu--
gua--
gue--
guis--
gul--
gum--
gun--
gur--
gure--
gurey--
guz--
gy--
gı--
gıl--
gır--
gıre--
gırgı--
gırwe--
gırwey--
h--
ha--
haber--
habit--
hacı--
had--
hak--
hal--
halusi--
ham--
han--
hapl--
happ--
har--
hard--
hart--
has--
hat--
hav--
hava--
hay--
haz--
hazır--
he--
head--
heb--
hec--
hel--
hell--
hem--
hen--
hep--
her--
here--
heri--
hes--
hesab--
het--
hete--
hew--
hewa--
hewr--
hey--
hez--
hi--
hic--
hidro--
high--
him--
hin--
hind--
hip--
hipot--
hir--
his--
hit--
hiz--
hl--
ho--
hob--
hol--
home--
homo--
hon--
hop--
hor--
hos--
hot--
hou--
hoz--
hr--
hu--
hukum--
hum--
hun--
huner--
hur--
hus--
huy--
hy--
hın--
hıngı--
hıs--
hız--
i--
ia--
ic--
ice--
id--
idare--
ide--
if--
ift--
ig--
ignor--
ih--
ik--
il--
ile--
ilim--
ill--
illus--
im--
ima--
impara--
in--
ina--
inc--
incre--
infin--
ing--
ini--
ins--
instr--
int--
intelli--
inter--
inven--
inı--
io--
ip--
iq--
ir--
ire--
irtıb--
is--
iseng--
ispan--
ist--
istıs--
it--
ita--
itı--
iv--
ix--
iz--
j--
ja--
je--
jen--
jew--
jewjı--
jg--
ji--
jo--
jon--
ju--
k--
ka--
kaf--
kah--
kal--
kale--
kam--
kan--
kanat--
kap--
kapita--
kar--
kara--
kas--
kat--
kay--
ke--
kef--
kek--
kel--
kem--
ken--
ker--
keri--
kes--
kev--
kew--
key--
keye--
kh--
khal--
khe--
khov--
khur--
ki--
kid--
kil--
kilo--
kim--
kin--
kir--
kis--
kiz--
kk--
kla--
kle--
km--
kn--
ko--
koca--
koh--
kok--
kol--
kole--
koloni--
kom--
komi--
kompl--
kon--
koo--
kor--
koro--
kos--
kot--
koy--
koz--
kra--
kreuz--
kri--
ks--
ku--
kul--
kum--
kun--
kur--
kus--
kut--
kuy--
kuz--
ky--
kı--
kıl--
kın--
kır--
kıs--
kızıl--
l--
la--
lac--
laf--
lag--
lah--
lai--
lal--
lam--
lan--
land--
lang--
lar--
las--
lat--
law--
lay--
laz--
ld--
le--
lec--
led--
leg--
lej--
lem--
len--
leo--
ler--
les--
lete--
lew--
lexi--
ley--
lh--
li--
lib--
life--
lim--
lin--
lingu--
lis--
lit--
liv--
lk--
lke--
lli--
lm--
lme--
ln--
lo--
lock--
log--
lomb--
lomp--
lon--
long--
loq--
los--
lou--
lp--
ls--
lt--
lu--
lub--
luc--
lud--
lv--
ly--
lı--
m--
ma--
mac--
mack--
macul--
mad--
madagas--
mag--
mah--
main--
mak--
mal--
mam--
man--
mans--
map--
mar--
mari--
mark--
mas--
mash--
mass--
masum--
mat--
mater--
maup--
max--
may--
maz--
mb--
mc--
me--
mec--
med--
medie--
meg--
meh--
meill--
mek--
mel--
mem--
men--
meq--
mer--
merzi--
mes--
mesul--
met--
meta--
mev--
mew--
mewle--
mex--
mey--
mez--
mi--
mia--
micr--
mid--
mie--
migra--
mihas--
mik--
mili--
min--
mir--
mis--
mit--
mix--
mk--
mo--
moc--
moe--
mol--
mom--
mon--
monotei--
mont--
montpel--
mor--
mos--
mot--
mr--
mu--
mualu--
muh--
multi--
mun--
munic--
mur--
mus--
mut--
muz--
my--
mı--
mıl--
mılak--
mıs--
mıt--
mıx--
mɑ--
n--
na--
nag--
nah--
nai--
nal--
nam--
nan--
nar--
nas--
nat--
naw--
naz--
nc--
nce--
nd--
ne--
nec--
nef--
nel--
nem--
nen--
neo--
ner--
nes--
net--
neu--
neuf--
new--
newe--
ney--
nez--
nf--
ng--
ni--
nia--
nih--
nim--
nin--
nis--
niwer--
niya--
nm--
nn--
no--
nom--
nor--
nord--
nos--
not--
note--
notific--
nou--
now--
ns--
nt--
nter--
nu--
nuq--
nur--
nus--
ny--
nya--
nı--
nın--
o--
oak--
ob--
obc--
ober--
obs--
obser--
oc--
od--
odys--
oe--
oedi--
of--
off--
og--
oh--
ok--
oksi--
okto--
ol--
old--
olimp--
olive--
olo--
oly--
olymp--
om--
on--
ontolo--
op--
or--
ori--
orien--
ortodok--
os--
ot--
oto--
otom--
otori--
ou--
our--
out--
ov--
oy--
oz--
p--
pa--
pac--
pak--
pal--
pali--
pan--
pansi--
par--
para--
pas--
pasa--
pat--
pay--
pe--
pehl--
pel--
pen--
pente--
per--
pere--
perform--
perr--
pers--
peru--
pes--
pew--
pey--
peyg--
ph--
phono--
pi--
pia--
pil--
pin--
pir--
pis--
piya--
pl--
pla--
plan--
plu--
po--
poc--
pol--
poli--
poly--
pomor--
pont--
pop--
por--
pornog--
port--
pos--
post--
pot--
potts--
poul--
pov--
pozi--
pozisy--
pr--
pra--
pre--
pro--
ps--
pseu--
psi--
psiko--
psy--
pu--
pub--
pudi--
punc--
pur--
put--
py--
pı--
pır--
pıro--
q--
qa--
qab--
qadi--
qah--
qal--
qan--
qapt--
qara--
qas--
qat--
qay--
qayt--
qaz--
qe--
qebul--
qefel--
qehr--
qer--
qes--
qese--
qesei--
qew--
qey--
qeyd--
qi--
qo--
qol--
qom--
qu--
que--
qui--
qum--
qur--
qurul--
qı--
qır--
qırr--
qıs--
qız--
qızıl--
r--
ra--
rac--
rad--
radyo--
raf--
rag--
rahi--
rai--
ram--
rap--
ras--
rat--
ray--
rc--
rcshow--
re--
rec--
recur--
red--
ref--
reg--
reh--
rehm--
rei--
rek--
rel--
relati--
rem--
ren--
renne--
requi--
res--
resi--
rest--
ret--
rev--
rex--
rey--
rho--
ri--
ric--
rid--
rie--
rig--
rim--
rin--
ris--
rk--
ro--
rob--
roc--
roca--
rod--
rohr--
roj--
rom--
ron--
rone--
ros--
ross--
rou--
roue--
row--
roy--
rr--
rs--
rt--
rtl--
ru--
rud--
rue--
ruh--
rus--
rwey--
ry--
rz--
rı--
rıc--
rıs--
rız--
s--
sa--
saa--
sac--
sad--
sah--
sai--
sak--
salv--
sam--
san--
sand--
sap--
sar--
sarı--
sas--
saul--
saus--
sav--
say--
saz--
sc--
sch--
sche--
schl--
scho--
schu--
schwi--
schœ--
scien--
se--
sea--
seb--
sec--
seda--
see--
seg--
seh--
sek--
sel--
sem--
sen--
sent--
sep--
ser--
sere--
serehewa--
serm--
serpu--
serr--
sert--
ses--
set--
sev--
sevek--
sew--
sewi--
sex--
sey--
seyd--
seyr--
sh--
sha--
she--
sher--
shi--
si--
sidd--
sie--
sig--
sihir--
sihır--
sil--
sim--
sin--
sis--
siv--
six--
siyon--
sk--
ska--
sl--
sla--
slee--
sm--
sn--
so--
soci--
socie--
sol--
sor--
sos--
soultz--
soy--
soz--
sp--
spa--
spec--
spie--
sr--
st--
sta--
ste--
sti--
sto--
stri--
stru--
stu--
su--
sub--
subm--
sud--
sugg--
sul--
suley--
sun--
super--
sur--
sus--
sv--
sw--
swe--
sy--
symp--
sı--
sıfte--
sık--
sıl--
sım--
sınas--
sır--
sıtar--
sıwend--
sıx--
sɪ--
t--
ta--
tab--
tac--
tag--
tah--
tak--
tal--
tam--
tan--
tanzi--
tar--
tas--
tau--
taw--
tay--
tb--
te--
tea--
teau--
ted--
tedqi--
tef--
teh--
tehl--
tek--
tel--
tele--
temot--
ten--
teo--
teq--
ter--
terminolo--
tes--
tet--
tew--
tex--
text--
tey--
th--
the--
thesp--
tho--
thu--
ti--
tif--
tin--
tir--
to--
tok--
tol--
tom--
top--
tor--
tou--
tow--
tox--
toxo--
tr--
tra--
trans--
tre--
tremb--
tri--
tropi--
ts--
tt--
tu--
tuc--
tum--
tun--
tur--
turk--
tut--
tv--
ty--
tz--
tı--
tıfın--
tır--
tırk--
tıx--
u--
ub--
uc--
ud--
ue--
ug--
uk--
ul--
ule--
ulu--
um--
un--
under--
uni--
unu--
up--
ur--
ura--
urs--
us--
user--
ut--
uxuln--
uy--
uz--
uzun--
v--
va--
val--
van--
var--
vas--
vate--
vau--
vaud--
vay--
vaz--
ve--
vec--
ven--
veng--
ver--
vera--
ves--
vete--
veu--
vey--
vi--
via--
vic--
vila--
villa--
ville--
vin--
vini--
vir--
vis--
viyar--
vla--
vo--
vol--
voz--
vre--
vu--
vur--
vı--
vıcy--
vıni--
vır--
vıraz--
vıs--
w--
wa--
wahr--
wal--
wani--
war--
was--
wat--
we--
web--
weli--
wende--
weq--
wer--
weri--
wes--
west--
wet--
wex--
wext--
wey--
what--
wi--
wie--
wiki--
wil--
wilk--
win--
wis--
wit--
witt--
wo--
wu--
wus--
wy--
wı--
x--
xa--
xaf--
xal--
xam--
xap--
xapt--
xar--
xas--
xe--
xebat--
xebet--
xebit--
xey--
xeze--
xi--
xo--
xof--
xora--
xris--
xu--
xx--
xı--
xır--
xıra--
y--
ya--
yahu--
yak--
yam--
yan--
yap--
yar--
yas--
yat--
yayım--
yaz--
ye--
yehu--
yeni--
yer--
yes--
yet--
yew--
yezı--
yi--
yil--
yir--
yle--
yna--
yo--
yog--
yok--
yol--
yor--
yr--
yu--
yı--
yıl--
z--
za--
zar--
zas--
ze--
zel--
zem--
zen--
zer--
zew--
zey--
zge--
zh--
zi--
zik--
zil--
zo--
zoolo--
zor--
zu--
zuck--
zulqer--
zur--
zy--
zı--
zımıs--
zırq--
ı--
ıd--
ıf--
ıi--
ık--
ıki--
ıkı--
ıl--
ım--
ımra--
ın--
ınas--
ıne--
ıni--
ır--
ıs--
ıt--
ıy--
ł--
ɑ--
ɛ--
ɡ--
ɪ--
ɾ--
ʃ--
α--
γ--
δ--
ε--
λ--
μ--
ν--
π--
ρ--
σ--
τ--
а--
бл--
м--
ма--
об--
п--
т--
א--
ב--
י--
ר--
ש--
ا--
ب--
ت--
ج--
خ--
د--
ر--
س--
ش--
ع--
ف--
ق--
م--
مو--
ن--
ه--
و--
ي--
پ--
کو--
--0
--1
--2
--3
--4
--48
--5
--6
--66
--7
--8
--9
--a
--ab
--abad
--abi
--able
--ac
--ach
--ad
--ada
--ado
--ae
--aene
--af
--afe
--ag
--aga
--age
--agh
--ah
--ai
--aj
--aje
--aji
--ak
--aki
--aklı
--al
--ale
--ali
--altroff
--am
--amp
--amps
--an
--ana
--ance
--and
--ande
--ane
--ang
--ani
--ano
--ans
--ant
--anı
--ao
--ap
--aq
--ar
--ara
--ard
--ary
--as
--at
--ata
--ate
--ath
--ati
--ation
--ations
--ative
--ato
--ator
--au
--aux
--ax
--ay
--aya
--aye
--ayo
--ayıs
--az
--b
--ba
--bac
--bach
--bad
--bag
--ban
--bas
--be
--bed
--bel
--ber
--bey
--beyler
--beyli
--bi
--biz
--ble
--bo
--bol
--box
--bria
--bs
--bst
--bt
--bu
--bur
--burg
--burn
--by
--c
--ca
--cal
--can
--cat
--ce
--ces
--cey
--ch
--cha
--charts
--che
--chen
--cht
--ci
--cia
--cik
--ciko
--cinı
--cio
--cious
--ciy
--ck
--co
--court
--cq
--crat
--cs
--ct
--ctive
--cts
--ctus
--cu
--cular
--cus
--cy
--cı
--cık
--cıki
--cılar
--d
--da
--dae
--dag
--dais
--dal
--dan
--dao
--dar
--dare
--daro
--das
--day
--ddin
--de
--den
--der
--dere
--des
--dey
--di
--dia
--din
--dir
--dis
--disi
--do
--dog
--don
--dor
--dorf
--dox
--ds
--dt
--du
--duk
--dum
--dy
--dı
--dır
--dıs
--e
--ea
--east
--eb
--eca
--ech
--ect
--ects
--ed
--eda
--eddin
--ee
--ef
--eg
--eh
--ei
--eim
--ejo
--ek
--eki
--el
--eli
--ell
--elli
--elo
--em
--emi
--en
--ena
--enc
--ence
--endorf
--ene
--enheim
--eni
--eno
--ens
--ensis
--ent
--ente
--ento
--enz
--enı
--eo
--ep
--epe
--er
--era
--eran
--erdıs
--ere
--eri
--erki
--ers
--es
--est
--et
--ete
--eti
--eto
--ets
--ett
--ette
--eu
--eus
--eux
--ev
--evi
--evic
--ex
--ey
--eya
--eye
--eyo
--eys
--ez
--eze
--f
--fa
--fax
--fe
--fen
--fet
--fettin
--ff
--ffe
--fi
--fo
--fobi
--folia
--fon
--fond
--fs
--ft
--fu
--ful
--fum
--g
--ga
--gal
--gan
--gard
--gate
--gazi
--ge
--ged
--gee
--geh
--gen
--ger
--ggio
--gh
--ght
--gi
--gia
--gian
--gical
--gil
--gin
--ging
--gio
--gn
--gna
--gnat
--gne
--gni
--gny
--go
--gs
--gt
--gton
--gu
--gua
--gue
--gy
--gı
--h
--ha
--hal
--ham
--han
--hau
--he
--heim
--her
--hey
--hf
--hi
--hid
--hie
--hips
--hisar
--hn
--ho
--hood
--hops
--hot
--hs
--ht
--hteh
--hu
--hy
--i
--ia
--ial
--ian
--iana
--ians
--ias
--ib
--ible
--ibo
--ic
--ica
--ical
--ici
--ick
--ics
--id
--ida
--ide
--ie
--ied
--ien
--ient
--ier
--iers
--ies
--ieu
--ieux
--if
--ife
--ifolia
--ig
--igne
--igny
--ihi
--ii
--ija
--ik
--ike
--iki
--iko
--il
--iler
--ille
--illes
--illo
--im
--ime
--in
--ina
--ine
--ing
--ings
--ini
--ino
--ins
--inya
--io
--ion
--ione
--ions
--ior
--ious
--ip
--iqa
--ique
--ir
--ire
--is
--isch
--ise
--ish
--isi
--ism
--ist
--istan
--iste
--istent
--isti
--isto
--ists
--it
--ite
--ities
--itki
--ito
--itt
--ity
--iu
--ium
--ius
--iva
--ive
--ix
--iy
--iya
--iyan
--iye
--iyet
--iyete
--iyo
--iz
--izasyon
--ization
--ize
--izi
--izm
--iß
--j
--ja
--je
--ji
--jiye
--jo
--k
--ka
--kadı
--kale
--kan
--kar
--kare
--kari
--kasyon
--kaya
--kc
--ke
--ked
--kei
--ker
--kerdıs
--ket
--ki
--kiler
--kiye
--kiyo
--kki
--kko
--kli
--klı
--kne
--kno
--ko
--ks
--kte
--ku
--kul
--kus
--ky
--kya
--kı
--l
--la
--lah
--lan
--land
--lar
--ları
--las
--lata
--lay
--ld
--lde
--ldi
--le
--ler
--leri
--les
--less
--ley
--lf
--lhac
--li
--lia
--lica
--lie
--lig
--lii
--lik
--lin
--line
--lis
--list
--lize
--lizm
--lki
--ll
--lla
--llano
--llas
--lle
--lles
--llet
--lli
--llo
--lly
--lmis
--lo
--locik
--lociye
--lock
--log
--lon
--loy
--ls
--lt
--lu
--lug
--lugu
--luk
--lus
--ly
--lyn
--lı
--lıg
--lık
--lıog
--m
--ma
--mak
--man
--mantis
--mar
--maz
--mbo
--me
--med
--mek
--men
--mend
--ment
--ments
--mes
--meter
--mey
--mi
--mic
--mical
--mik
--min
--mir
--miz
--mki
--mler
--mli
--mm
--mo
--mon
--mont
--more
--motier
--ms
--mu
--mus
--mut
--my
--mı
--mız
--n
--na
--nac
--nais
--nal
--nan
--nary
--nas
--nasi
--nau
--nay
--nayıs
--nbach
--nberg
--nbul
--nc
--nce
--nche
--ncourt
--ncı
--nd
--nda
--nde
--ndi
--ne
--nek
--nen
--nene
--neno
--ner
--nes
--nese
--ness
--news
--ney
--nezya
--ng
--nge
--nheim
--nho
--ni
--nia
--nian
--niello
--nin
--nique
--nius
--nk
--nki
--nko
--nna
--nne
--nnes
--no
--nos
--noy
--ns
--nse
--nsis
--nstein
--nt
--nta
--nte
--nthal
--nti
--ntino
--nto
--nts
--nu
--num
--nun
--nus
--ny
--nya
--nz
--nza
--nı
--nın
--o
--oc
--ock
--od
--ode
--odo
--oe
--of
--og
--ogical
--ois
--oji
--ok
--oka
--oke
--oki
--ol
--ola
--ological
--ology
--ols
--om
--oma
--on
--ona
--one
--ong
--oni
--onne
--ons
--onu
--oo
--ope
--opi
--or
--ord
--ore
--orf
--ori
--ors
--ort
--os
--osi
--ot
--ote
--ott
--ou
--ourt
--ous
--oux
--ov
--ova
--ovo
--ox
--oy
--oz
--p
--pa
--pach
--page
--pas
--pc
--pe
--pf
--ph
--phi
--phie
--phy
--pi
--pid
--pin
--ple
--pler
--po
--ps
--psus
--pt
--pton
--pts
--pu
--py
--q
--qa
--qe
--qes
--qi
--qo
--que
--r
--ra
--rak
--ran
--rary
--ras
--rati
--ray
--rch
--rchen
--rd
--rda
--rde
--rdene
--rdi
--rdis
--rdo
--re
--reh
--rehman
--rek
--ren
--res
--rey
--rff
--rg
--ri
--ria
--ric
--rie
--ries
--rif
--rik
--rio
--ris
--rius
--rive
--rix
--rk
--rki
--rks
--rle
--rm
--rma
--rme
--rn
--rnay
--rne
--rno
--ro
--roff
--rol
--ros
--roux
--row
--rr
--rra
--rre
--rs
--rsheim
--rson
--rt
--ru
--rum
--ry
--rya
--rz
--rı
--s
--sa
--sal
--san
--sburg
--sca
--sch
--sche
--schen
--schwihr
--sdorf
--se
--sed
--sel
--sen
--ser
--ses
--sey
--sh
--sheim
--ship
--shire
--si
--sii
--sin
--sing
--sis
--siz
--sizm
--sk
--ski
--sles
--sm
--sno
--so
--son
--spor
--ss
--ssa
--ssar
--sse
--sson
--st
--sta
--stan
--ste
--sti
--stia
--sto
--stroff
--su
--sum
--sus
--suz
--sville
--sy
--syon
--syone
--syoni
--sı
--sın
--sız
--t
--ta
--tafa
--tal
--tan
--tance
--tas
--te
--ted
--teig
--ten
--tepe
--ter
--tes
--teur
--tey
--th
--thi
--ti
--tia
--tic
--tical
--ties
--tii
--tik
--tiki
--tiko
--tin
--tina
--tine
--ting
--tio
--tion
--tions
--tiqe
--tis
--tki
--tle
--to
--ton
--tor
--tory
--town
--try
--ts
--tt
--tta
--tte
--tti
--ttin
--tu
--tum
--tus
--ty
--tz
--tzenheim
--tzheim
--tı
--u
--ua
--ual
--uan
--uana
--uar
--uas
--ub
--uc
--uci
--ucourt
--ud
--udi
--ue
--uel
--ueli
--uen
--uer
--ues
--ug
--uh
--ui
--uil
--uis
--uk
--uke
--ul
--ula
--uli
--ult
--um
--umi
--un
--una
--une
--ung
--up
--ur
--ura
--ure
--urg
--urse
--urt
--us
--user
--usi
--usse
--ust
--ut
--uta
--ute
--uv
--uve
--ux
--uy
--uz
--v
--va
--vac
--van
--ve
--vel
--ven
--ver
--ves
--vi
--vic
--ville
--vitey
--vna
--vo
--vre
--vz
--w
--wa
--wan
--wano
--way
--we
--wi
--wich
--wick
--wiye
--wiyo
--wl
--wo
--wood
--wr
--ws
--x
--xa
--xan
--xane
--xc
--xe
--xi
--xo
--xs
--xt
--xu
--y
--ya
--yae
--yaene
--yal
--yan
--yane
--yao
--yay
--yayenı
--yayıs
--yd
--yda
--ye
--yen
--yena
--yenda
--yene
--yeno
--yenı
--yesi
--yet
--yete
--yeto
--yev
--yey
--yeya
--yhi
--yi
--yis
--yiya
--yiye
--yki
--yle
--ym
--yn
--yna
--yne
--yo
--yog
--yon
--yonan
--yone
--yoni
--yono
--yre
--yro
--ys
--yu
--yum
--yı
--yıc
--yıca
--yıci
--yıco
--yım
--yın
--yıs
--z
--za
--zade
--zal
--zan
--zane
--zasyon
--zasyone
--ze
--zeno
--zg
--zheim
--zi
--zia
--ziye
--ziyo
--zki
--zm
--zme
--zmi
--zmki
--zo
--zt
--zy
--zya
--zyn
--ı
--ıb
--ıbe
--ıbi
--ıc
--ıca
--ıcan
--ıce
--ıci
--ıco
--ıd
--ıf
--ıg
--ık
--ıkc
--ıke
--ıl
--ım
--ın
--ına
--ınca
--ınde
--ıne
--ıni
--ıno
--ıp
--ıq
--ır
--ıs
--ıt
--ıto
--ıx
--ıxe
--ıxi
--ız
--ızda
--ıze
--ła
--ɑ
--ə
--ɛ
--ɪ
--ɾ
--ʃ
--ʝ
--α
--ι
--ο
--ς
--а
--д
--да
--е
--и
--ка
--о
--т
--ב
--י
--ית
--ר
--ת
--ا
--ب
--ة
--ت
--د
--ر
--ز
--س
--سی
--ش
--ل
--م
--ن
--ه
--ى
--ي
--يت
--ی
