!
"
#
##a
##aa
##ab
##ac
##ad
##ae
##af
##ag
##ah
##ai
##aj
##ak
##al
##am
##an
##ao
##ap
##aq
##ar
##as
##at
##au
##av
##aw
##ax
##ay
##az
##b
##ba
##bb
##bc
##bd
##be
##bf
##bg
##bh
##bi
##bj
##bk
##bl
##bm
##bn
##bo
##bp
##bq
##br
##bs
##bt
##bu
##bv
##bw
##bx
##by
##bz
##c
##ca
##cb
##cc
##cd
##ce
##cf
##cg
##ch
##ci
##cj
##ck
##cl
##cm
##cn
##co
##cp
##cq
##cr
##cs
##ct
##cu
##cv
##cw
##cx
##cy
##cz
##d
##da
##db
##dc
##dd
##de
##df
##dg
##dh
##di
##dj
##dk
##dl
##dm
##dn
##do
##dp
##dq
##dr
##ds
##dt
##du
##dv
##dw
##dx
##dy
##dz
##e
##ea
##eb
##ec
##ed
##ee
##ef
##eg
##eh
##ei
##ej
##ek
##el
##em
##en
##eo
##ep
##eq
##er
##es
##et
##eu
##ev
##ew
##ex
##ey
##ez
##f
##fa
##fb
##fc
##fd
##fe
##ff
##fg
##fh
##fi
##fj
##fk
##fl
##fm
##fn
##fo
##fp
##fq
##fr
##fs
##ft
##fu
##fv
##fw
##fx
##fy
##fz
##g
##ga
##gb
##gc
##gd
##ge
##gf
##gg
##gh
##gi
##gj
##gk
##gl
##gm
##gn
##go
##gp
##gq
##gr
##gs
##gt
##gu
##gv
##gw
##gx
##gy
##gz
##h
##ha
##hb
##hc
##hd
##he
##hf
##hg
##hh
##hi
##hj
##hk
##hl
##hm
##hn
##ho
##hp
##hq
##hr
##hs
##ht
##hu
##hv
##hw
##hx
##hy
##hz
##i
##ia
##ib
##ic
##id
##ie
##if
##ig
##ih
##ii
##ij
##ik
##il
##im
##in
##io
##ip
##iq
##ir
##is
##it
##iu
##iv
##iw
##ix
##iy
##iz
##j
##ja
##jb
##jc
##jd
##je
##jf
##jg
##jh
##ji
##jj
##jk
##jl
##jm
##jn
##jo
##jp
##jq
##jr
##js
##jt
##ju
##jv
##jw
##jx
##jy
##jz
##k
##ka
##kb
##kc
##kd
##ke
##kf
##kg
##kh
##ki
##kj
##kk
##kl
##km
##kn
##ko
##kp
##kq
##kr
##ks
##kt
##ku
##kv
##kw
##kx
##ky
##kz
##l
##la
##lb
##lc
##ld
##le
##lf
##lg
##lh
##li
##lj
##lk
##ll
##lm
##ln
##lo
##lp
##lq
##lr
##ls
##lt
##lu
##lv
##lw
##lx
##ly
##lz
##m
##ma
##mb
##mc
##md
##me
##mf
##mg
##mh
##mi
##mj
##mk
##ml
##mm
##mn
##mo
##mp
##mq
##mr
##ms
##mt
##mu
##mv
##mw
##mx
##my
##mz
##n
##na
##nb
##nc
##nd
##ne
##nf
##ng
##nh
##ni
##nj
##nk
##nl
##nm
##nn
##no
##np
##nq
##nr
##ns
##nt
##nu
##nv
##nw
##nx
##ny
##nz
##o
##oa
##ob
##oc
##od
##oe
##of
##og
##oh
##oi
##oj
##ok
##ol
##om
##on
##oo
##op
##oq
##or
##os
##ot
##ou
##ov
##ow
##ox
##oy
##oz
##p
##pa
##pb
##pc
##pd
##pe
##pf
##pg
##ph
##pi
##pj
##pk
##pl
##pm
##pn
##po
##pp
##pq
##pr
##ps
##pt
##pu
##pv
##pw
##px
##py
##pz
##q
##qa
##qb
##qc
##qd
##qe
##qf
##qg
##qh
##qi
##qj
##qk
##ql
##qm
##qn
##qo
##qp
##qq
##qr
##qs
##qt
##qu
##qv
##qw
##qx
##qy
##qz
##r
##ra
##rb
##rc
##rd
##re
##rf
##rg
##rh
##ri
##rj
##rk
##rl
##rm
##rn
##ro
##rp
##rq
##rr
##rs
##rt
##ru
##rv
##rw
##rx
##ry
##rz
##s
##sa
##sb
##sc
##sd
##se
##sf
##sg
##sh
##si
##sj
##sk
##sl
##sm
##sn
##so
##sp
##sq
##sr
##ss
##st
##su
##sv
##sw
##sx
##sy
##sz
##t
##ta
##tb
##tc
##td
##te
##tf
##tg
##th
##ti
##tj
##tk
##tl
##tm
##tn
##to
##tp
##tq
##tr
##ts
##tt
##tu
##tv
##tw
##tx
##ty
##tz
##u
##ua
##ub
##uc
##ud
##ue
##uf
##ug
##uh
##ui
##uj
##uk
##ul
##um
##un
##uo
##up
##uq
##ur
##us
##ut
##uu
##uv
##uw
##ux
##uy
##uz
##v
##va
##vb
##vc
##vd
##ve
##vf
##vg
##vh
##vi
##vj
##vk
##vl
##vm
##vn
##vo
##vp
##vq
##vr
##vs
##vt
##vu
##vv
##vw
##vx
##vy
##vz
##w
##wa
##wb
##wc
##wd
##we
##wf
##wg
##wh
##wi
##wj
##wk
##wl
##wm
##wn
##wo
##wp
##wq
##wr
##ws
##wt
##wu
##wv
##ww
##wx
##wy
##wz
##x
##xa
##xb
##xc
##xd
##xe
##xf
##xg
##xh
##xi
##xj
##xk
##xl
##xm
##xn
##xo
##xp
##xq
##xr
##xs
##xt
##xu
##xv
##xw
##xx
##xy
##xz
##y
##ya
##yb
##yc
##yd
##ye
##yf
##yg
##yh
##yi
##yj
##yk
##yl
##ym
##yn
##yo
##yp
##yq
##yr
##ys
##yt
##yu
##yv
##yw
##yx
##yy
##yz
##z
##za
##zb
##zc
##zd
##ze
##zf
##zg
##zh
##zi
##zj
##zk
##zl
##zm
##zn
##zo
##zp
##zq
##zr
##zs
##zt
##zu
##zv
##zw
##zx
##zy
##zz
$
%
&
'
(
)
*
+
,
-
.
/
0
00
000
001
002
003
004
005
006
007
008
009
01
010
013
016
02
03
04
05
06
07
08
09
0a
0b
0c
0d
0e
0f
0g
0h
0i
0j
0k
0l
0m
0n
0o
0p
0q
0r
0s
0t
0u
0v
0w
0x
0y
0z
1
10
100
1000
1001
1002
1007
101
1010
1016
1017
1018
102
1020
1021
1024
103
1030
1035
1037
1038
104
1040
1046
105
1050
1054
1056
1059
106
1060
1066
107
1070
1071
1073
1076
108
1080
1086
109
1090
1093
1095
1096
1097
1098
1099
11
110
1100
1101
1103
111
1110
1111
111804439
112
1120
1125
1126
1128
113
1130
1136
114
1140
1146
1147
115
1150
1152
1154
1155
1158
116
1160
117
1170
1177
118
1180
1185
1186
1187
1189
119
1190
1191
1192
1194
1198
1199
12
120
1200
1201
1202
1204
1205
1206
1207
1208
1209
121
1210
1211
1212
1214
1215
1216
1217
1218
1219
122
1220
1221
1222
1223
1224
1225
1226
1227
1228
1229
123
1230
1231
1233
1234
1235
1236
1237
1238
1239
124
1240
1241
1242
1243
1244
1245
1246
1247
1248
1249
125
1250
1251
1252
1253
1254
1255
1256
1257
1258
1259
126
1260
1261
1262
1263
1264
1265
1266
1267
1268
127
1270
1271
1272
1273
1274
1275
1276
1277
1278
1279
128
1280
1281
1282
1283
1284
1285
1288
129
1290
1291
1294
1295
1296
1297
1298
13
130
1300
1302
1303
1304
1305
1307
1308
1309
131
1310
1312
1314
1315
1316
1317
1318
1319
132
1320
1322
1323
1325
1326
1328
1329
133
1330
1332
1333
1334
1335
1337
134
1340
1341
1342
1343
1344
1345
1346
1347
1348
1349
135
1350
1352
1353
1354
1355
1356
136
1360
1361
1362
1363
1364
1365
1367
1368
1369
137
1370
1371
1373
1374
1375
1377
1378
1379
138
1380
1381
1382
1385
1386
1387
1388
1389
139
1390
1392
1394
1395
1396
1397
1398
1399
14
140
1400
1402
1404
1405
1406
1408
1409
141
1410
1411
1412
1413
1414
1415
1416
1417
1418
1419
142
1420
1421
1422
1423
1424
1425
1426
1427
1428
1429
143
1430
1431
1432
1433
1434
1435
1436
1437
1438
1439
144
1440
1441
1442
1443
1444
1445
1446
1447
1448
1449
145
1450
1451
1452
1453
1454
1455
1456
1457
1458
1459
146
1460
1461
1462
1463
1464
1465
1466
1467
1468
1469
147
1470
1471
1472
1473
1474
1475
1476
1477
1478
1479
148
1480
1481
1482
1483
1484
1485
1486
1488
1489
149
1490
1491
1492
1493
1494
1495
1496
1497
1498
1499
15
150
1500
1501
1502
1503
1504
1505
1506
1507
1508
1509
151
1510
1511
1512
1513
1514
1515
1516
1517
1518
1519
152
1520
1521
1522
1523
1524
1525
1526
1527
1528
1529
153
1530
1531
1532
1533
1534
1535
1536
1537
1538
1539
154
1540
1541
1542
1543
1544
1545
1546
1547
1548
1549
155
1550
1551
1552
1553
1554
1555
1556
1557
1558
1559
156
1560
1561
1562
1563
1564
1565
1566
1567
1568
1569
157
1570
1571
1572
1573
1574
1575
1576
1577
1578
1579
158
1580
1581
1582
1583
1584
1585
1586
1587
1588
1589
159
1590
1591
1592
1593
1594
1595
1596
1597
1598
1599
16
160
1600
1601
1602
1603
1604
1605
1606
1607
1608
1609
161
1610
1611
1612
1613
1614
1615
1616
1617
1618
1619
162
1620
1621
1622
1623
1624
1625
1626
1627
1628
1629
163
1630
1631
1632
1633
1634
1635
1636
1637
1638
1639
164
1640
1641
1642
1643
1644
1645
1646
1647
1648
1649
165
1650
1651
1652
1653
1654
1655
1656
1657
1658
1659
166
1660
1661
1662
1663
1664
1665
1666
1667
1668
1669
167
1670
1671
1672
1673
1674
1675
1676
1677
1678
1679
168
1680
1681
1682
1683
1684
1685
1686
1687
1688
1689
169
1690
1691
1692
1693
1694
1695
1696
1697
1698
1699
17
170
1700
1701
1702
1703
1704
1705
1706
1707
1708
1709
171
1710
1711
1712
1713
1714
1715
1716
1717
1718
1719
172
1720
1721
1722
1723
1724
1725
1726
1727
1728
1729
173
1730
1731
1732
1733
1734
1735
1736
1737
1738
1739
174
1740
1741
1742
1743
1744
1745
1746
1747
1748
1749
175
1750
1751
1752
1753
1754
1755
1756
1757
1758
1759
176
1760
1761
1762
1763
1764
1765
1766
1767
1768
1769
177
1770
1771
1772
1773
1774
1775
1776
1777
1778
1779
178
1780
1781
1782
1783
1784
1785
1786
1787
1788
1789
179
1790
1791
1792
1793
1794
1795
1796
1797
1798
1799
18
180
1800
1801
1802
1803
1804
1805
1806
1807
1808
1809
181
1810
1811
1812
1813
1814
1815
1816
1817
1818
1819
182
1820
1821
1822
1823
1824
1825
1826
1827
1828
1829
183
1830
1831
1832
1833
1834
1835
1836
1837
1838
1839
184
1840
1841
1842
1843
1844
1845
1846
1847
1848
1849
185
1850
1851
1852
1853
1854
1855
1856
1857
1858
1859
186
1860
1861
1862
1863
1864
1865
1866
1867
1868
1869
187
1870
1871
1872
1873
1874
1875
1876
1877
1878
1879
188
1880
1881
1882
1883
1884
1885
1886
1887
1888
1889
189
1890
1891
1892
1893
1894
1895
1896
1897
1898
1899
19
190
1900
1901
1902
1903
1904
1905
1906
1907
1908
1909
191
1910
1911
1912
1913
1914
1915
1916
1917
1918
1919
192
1920
1921
1922
1923
1924
1925
1926
1927
1928
1929
193
1930
1931
1932
1933
1934
1935
1936
1937
1938
1939
194
1940
1941
1942
1943
1944
1945
1946
1947
1948
1949
195
1950
1951
1952
1953
1954
1955
1956
1957
1958
1959
196
1960
1961
1962
1963
1964
1965
1966
1967
1968
1969
197
1970
1971
1972
1973
1974
1975
1976
1977
1978
1979
198
1980
1981
1982
1983
1984
1985
1986
1987
1988
1989
199
1990
1991
1992
1993
1994
1995
1996
1997
1998
1999
1a
1b
1c
1d
1e
1f
1g
1h
1i
1j
1k
1l
1m
1n
1o
1p
1q
1r
1s
1t
1u
1v
1w
1x
1y
1z
2
20
200
2000
2001
2002
2003
2004
2005
2006
2007
2008
2009
201
2010
2011
2012
2013
2014
2015
2016
2017
2018
2019
202
2020
2021
2022
2023
2024
2025
203
2030
204
205
206
207
208
209
2099
21
210
2100
211
212
213
214
215
216
217
218
219
22
220
2200
221
222
223
224
225
226
227
228
229
23
230
2300
231
232
233
234
235
236
237
238
239
24
240
2400
241
242
243
244
245
246
247
248
249
25
250
2500
251
252
253
254
255
256
257
258
259
26
260
2600
261
262
263
264
265
266
267
268
269
27
270
271
272
273
274
275
276
277
278
279
28
280
2800
281
282
283
284
285
286
287
288
289
29
290
291
292
293
294
295
296
297
298
299
2a
2b
2c
2d
2e
2f
2g
2h
2i
2j
2k
2l
2m
2n
2o
2p
2q
2r
2s
2t
2u
2v
2w
2x
2y
2z
3
30
300
3000
301
302
303
304
305
306
307
308
309
31
310
311
312
313
314
315
316
3166
317
318
319
32
320
3200
321
322
323
324
325
326
327
328
329
33
330
331
332
333
334
335
336
337
338
339
34
340
341
342
343
344
345
346
347
348
349
35
350
3500
351
352
353
354
355
356
357
358
359
36
360
361
362
363
364
365
366
367
368
369
37
370
371
372
373
374
375
376
377
378
379
38
380
381
382
383
384
385
386
387
388
389
39
390
391
392
393
394
395
396
397
398
399
3a
3b
3c
3d
3e
3f
3g
3h
3i
3j
3k
3l
3m
3n
3o
3p
3q
3r
3s
3t
3u
3v
3w
3x
3y
3z
4
40
400
4000
401
402
403
404
405
406
407
408
409
41
410
411
412
413
414
415
416
417
418
419
42
420
421
422
423
424
425
426
427
428
429
43
430
431
432
433
434
435
436
437
438
439
44
440
441
442
443
444
445
446
447
448
449
45
450
4500
451
452
453
454
455
456
457
458
459
46
460
461
462
463
464
465
466
467
468
469
47
470
471
472
473
474
475
476
477
478
479
48
480
481
482
483
484
485
486
487
488
489
49
490
491
492
493
494
495
496
497
498
499
4a
4b
4c
4d
4e
4f
4g
4h
4i
4j
4k
4l
4m
4n
4o
4p
4q
4r
4s
4t
4u
4v
4w
4x
4y
4z
5
50
500
5000
501
502
503
504
505
506
507
508
509
51
510
511
512
513
514
515
516
517
518
519
52
520
521
522
523
524
525
526
527
528
529
53
530
531
532
533
534
535
536
537
538
539
54
540
541
542
543
544
545
546
547
548
549
55
550
551
552
553
554
555
556
557
558
559
56
560
561
562
563
564
565
566
567
568
569
57
570
571
572
573
574
575
576
577
578
579
58
580
581
582
583
584
585
586
587
588
589
59
590
591
592
593
595
596
597
598
599
5a
5b
5c
5d
5e
5f
5g
5h
5i
5j
5k
5l
5m
5n
5o
5p
5q
5r
5s
5t
5u
5v
5w
5x
5y
5z
6
60
600
6000
601
602
603
604
605
606
607
608
609
61
610
612
613
614
615
616
617
618
619
62
620
621
622
623
624
625
626
627
628
629
63
630
631
632
633
634
635
637
638
639
64
640
641
642
643
648
649
65
650
651
653
655
656
657
658
659
66
660
661
664
665
666
67
670
671
672
673
674
675
679
68
680
683
684
685
687
688
69
690
691
695
698
6a
6b
6c
6d
6e
6f
6g
6h
6i
6j
6k
6l
6m
6n
6o
6p
6q
6r
6s
6t
6u
6v
6w
6x
6y
6z
7
70
700
7000
701
705
707
71
710
711
713
715
717
72
720
725
73
730
737
74
740
741
745
747
75
750
757
76
760
767
768
77
770
771
775
776
777
78
780
781
785
787
79
790
7a
7b
7c
7d
7e
7f
7g
7h
7i
7j
7k
7l
7m
7n
7o
7p
7q
7r
7s
7t
7u
7v
7w
7x
7y
7z
8
80
800
8000
801
802
81
810
811
813
814
82
820
821
829
83
830
84
840
843
85
850
855
86
860
861
862
87
870
871
875
876
877
878
879
88
880
882
887
888
89
890
8a
8b
8c
8d
8e
8f
8g
8h
8i
8j
8k
8l
8m
8n
8o
8p
8q
8r
8s
8t
8u
8v
8w
8x
8y
8z
9
90
900
9000
907
91
910
911
912
92
920
925
9256
93
930
936
94
940
95
950
951
952
955
96
960
962
963
965
97
970
973
976
978
98
980
9810000201
985
99
990
9949
9984
9985
999
9a
9b
9c
9d
9e
9f
9g
9h
9i
9j
9k
9l
9m
9n
9o
9p
9q
9r
9s
9t
9u
9v
9w
9x
9y
9z
:
;
<
=
>
?
@
[
[CLS]
[MASK]
[PAD]
[SEP]
[UNK]
\
]
^
_
`
a
a0
a1
a2
a3
a4
a5
a6
a7
a8
a9
aa
aab
aabits
aachen
aacheni
aadam
aadama
aade
aadel
aadli
aadlik
aadlike
aadlikud
aadlimatriklisse
aadliseisusse
aadlisuguvosa
aadress
aadressi
aadressiga
aadressil
aadria
aadu
aafrika
aafrikas
aafrikasse
aafrikast
aafriklasi
aagaard
aakre
aal
aaloe
aalto
aamen
aan
aapo
aar
aarde
aare
aarel
aarelinnas
aares
aarest
aaria
aarma
aarmiselt
aarmuslik
aarmusliku
aarne
aaron
aas
aasa
aasia
aasias
aasiasse
aasiast
aasmae
aasovi
aaspere
aasta
aastaajad
aastad
aastaga
aastaid
aastail
aastaist
aastaks
aastakummet
aastakumne
aastakumned
aastakumneid
aastakumnete
aastakumnetel
aastal
aastale
aastalt
aastane
aastani
aastapaev
aastapaeva
aastapaevaks
aastapaeval
aastapaevale
aastapreemia
aastaraamat
aastaringselt
aastas
aastasaja
aastasajal
aastase
aastased
aastaseks
aastasel
aastasele
aastaselt
aastasena
aastasest
aastasi
aastasse
aastast
aastaste
aastastel
aastastele
aastat
aastate
aastatega
aastateks
aastatel
aastateni
aastatest
aastatuhande
aastatuhandel
aastatuhat
aatom
aatomeid
aatomi
aatomid
aatomit
aatomite
aav
aava
aavik
aaviksoo
aaviku
aavo
ab
aba
abad
abalone
abasiini
abava
abba
abbas
abbe
abbey
abbott
abc
abd
abdul
abdullah
abe
abel
abeli
abhaasi
abhaasia
abhaasias
abi
abielluda
abielludes
abielluma
abiellumist
abiellunud
abiellus
abiellusid
abielu
abielus
abielust
abies
abiesimees
abiga
abikaasa
abikaasad
abikaasade
abikaasaga
abikaasale
abikaasat
abiks
abil
abiline
abilinnapea
abina
abinou
abinoud
abinousid
abiopetaja
abistada
abistama
abistamise
abistas
abita
abja
abo
abordi
abort
aborti
about
abraham
abram
abriss
abruka
abruzzo
abs
absolute
absoluutne
absoluutse
absoluutselt
absoluutset
absorption
absorptsioon
abstract
abstraktne
abstraktse
absurdne
abt
abteilung
abti
abtiss
abu
ac
acad
academia
academic
academicum
academie
academy
access
accessed
accident
account
ace
acer
achiet
acid
acids
ackerman
across
act
acta
action
active
activities
activity
ad
ada
adalbert
adam
adams
adamsi
adamson
adamsoni
adavere
add
address
adekvaatne
adel
adelaide
adele
adelheid
adels
ader
adige
adjunktopetaja
adjutant
adler
administraator
administratiivne
administratiivselt
administration
administrativi
administratsioon
administratsiooni
admiral
admiraliteedi
ado
adobe
adogee
adolf
adolfi
adolph
adolphe
adra
adramaad
adramaid
adresse
adrian
adrianfrith
adson
adult
advanced
advances
adventure
adventures
advokaadi
advokaadiburoo
advokaadina
advokaat
advokaatide
advokatuuri
adw
ae
aed
aeda
aedades
aednik
aedniku
aeg
aega
aegade
aegadel
aegadest
aegamooda
aeglane
aeglase
aeglaselt
aeglasem
aeglasemalt
aegna
aegne
aegruumi
aegse
aegsed
aegu
aegviidu
aero
aerofoto
aet
aetakse
aeti
aetud
af
afc
affairs
afganistan
afganistani
afganistanis
afghanistan
aforisme
africa
african
afrika
afrikaani
after
ag
aga
again
against
agar
agatha
age
ageda
agedalt
agency
agenda
agent
agentura
agentuur
agentuuri
ages
agga
agnes
agnese
ago
agreement
agressiivne
agressiooni
agricola
agricultural
agriculture
agronoom
agu
agur
ah
ahead
ahel
ahela
ahelad
ahelate
ahelik
ahhaa
ahhaia
ahi
ahja
ahjo
ahju
ahjus
ahl
ahmad
ahmed
ahne
aho
ahti
ahtme
ahto
ahv
ahvardab
ahvardades
ahvardas
ahven
ahvenamaa
ai
aia
aiad
aianduse
aias
aiast
aid
aida
aidanud
aidas
aidata
aidates
aids
aidu
aig
aike
aili
aimata
aime
aimla
aimu
aimugi
ain
aina
aine
ained
ainega
aineid
aines
ainest
ainet
ainete
ainetel
ainetest
aino
ainsa
ainsad
ainsaks
ainsana
ainsatki
ainsus
ainsuse
ainsuses
ainu
ainuke
ainukese
ainukeseks
ainulaadne
ainulaadse
ainult
ainus
ainustki
ainuuksi
air
airbus
aircraft
aire
aires
aireses
airi
airlines
airlinesi
airport
airways
ais
aisch
ait
aita
aitab
aitaks
aitama
aitas
aitasid
aitavad
aivar
aivo
aix
aizkraukle
aizpute
aizsardzibas
aizsargajamam
aizsargajamo
aj
aja
ajaarvamise
ajaarvamist
ajab
ajad
ajada
ajades
ajaga
ajahetkel
ajajargu
ajajargul
ajajark
ajakava
ajakiri
ajakirja
ajakirjad
ajakirjade
ajakirjades
ajakirjale
ajakirjandus
ajakirjanduse
ajakirjanduses
ajakirjandust
ajakirjanik
ajakirjanike
ajakirjaniku
ajakirjanikud
ajakirjanikuna
ajakirjas
ajakirju
ajaks
ajal
ajale
ajalehe
ajalehed
ajalehele
ajalehes
ajaleht
ajalehte
ajalehtede
ajalehtedele
ajalehtedes
ajalehti
ajaline
ajalise
ajaliselt
ajaloo
ajalooarhiiv
ajalooarhiivi
ajalooga
ajaloolane
ajaloolase
ajaloolased
ajaloolaste
ajaloole
ajalooline
ajaloolis
ajaloolise
ajaloolised
ajaloolisel
ajalooliselt
ajaloolises
ajaloolisest
ajaloolisi
ajaloolist
ajalooliste
ajaloomuuseum
ajaloomuuseumi
ajaloos
ajaloost
ajalt
ajalugu
ajalukku
ajama
ajani
ajanud
ajapikku
ajas
ajasid
ajast
ajastu
ajastul
ajastule
ajastust
ajavad
ajavahemik
ajavahemikku
ajavahemiku
ajavahemikul
ajavahemikus
ajaveeb
ajax
ajendas
ajendiks
aju
ajus
ajuti
ajutine
ajutise
ajutised
ajutiseks
ajutiselt
ajutist
ak
akadeemia
akadeemias
akadeemiasse
akadeemik
akadeemiline
akadeemilise
akadeemiliselt
akadeemilises
akadeemilist
akademie
akadi
ake
aken
akende
akent
akiline
akitselt
akki
akna
aknad
aknaid
aknast
akord
akordi
akordion
akronuum
aksel
aksi
akt
akti
aktiivne
aktiivse
aktiivsed
aktiivseid
aktiivseks
aktiivselt
aktiivset
aktiivsete
aktiivsus
aktiivsuse
aktiivsust
aktiveeritud
aktivist
aktsepteerida
aktsepteeritud
aktsia
aktsiad
aktsiaid
aktsiaselts
aktsiaseltsi
aktsiate
aktsiatest
aktsiooni
aktuaalne
aku
akusatiiv
akustiline
akvitaania
al
ala
alabama
alad
alade
aladega
aladel
aladele
aladelt
aladest
alaealine
alaealise
alaealiste
alaga
alagrupi
alagrupimangus
alagrupis
alain
alakula
alal
alale
alaline
alalise
alaliselt
alalisvoolu
alalt
alalutlev
alam
alamad
alamate
alamjooksu
alamjooksul
alamkoda
alamkoja
alamliik
alamliiki
alampolkovnik
alamsaksa
alamsorbi
alamsugukond
alamvesikonda
alan
alandab
alandada
alandlikult
alanud
alar
alari
alas
alase
alasid
alaska
alast
alasti
alata
alatasa
alates
alati
alatiseks
alatskivi
alatu
alavere
alba
albaania
albaanias
albaanlased
albanus
albany
albert
alberta
alberti
alberto
albion
albrecht
albrechti
albu
album
albumi
albumid
albumiga
albumil
albumilt
albumit
albumite
alcohol
aldo
ale
alejandro
aleksander
aleksandr
aleksandra
aleksandri
aleksandria
aleksandrovits
aleksandrovna
aleksei
aleksejev
aleksejevits
aleksis
aleksius
alender
alessandro
aleuudi
alev
alevi
alevik
alevikku
aleviks
aleviku
alevikus
alevis
alevist
alevit
alevite
alex
alexander
alexandra
alexandre
alexios
alexis
alfa
alfons
alfonso
alfred
alfredo
alg
algab
algallikas
algama
algas
algasid
algatada
algataja
algatas
algatasid
algatati
algatatud
algatus
algatuse
algatusel
algav
algavad
alge
algebra
algebraline
alghariduse
algirdas
algkeele
algkool
algkooli
algkoolis
algne
algoritm
algoritmi
algse
algsed
algsel
algselt
algses
algsest
algset
algul
algupara
alguparane
alguparase
algus
algusaastatel
alguse
algusega
alguseks
alguseni
alguses
algusest
algust
algvorm
ali
alias
alice
alide
alina
alison
alistada
alistades
alistas
alistasid
alistati
alistuma
alistus
alistusid
alive
alkohol
alkoholi
all
alla
allah
allakaik
allan
allapoole
allar
allavoolu
alle
allee
allegro
allen
aller
alles
allesjaanud
allgemeine
alliance
allik
allika
allikad
allikaid
allikaks
allikas
allikast
allikat
allikate
allikates
allikatest
alliku
allium
allkiri
allkirja
allkirjastas
allkirjastasid
allkirjastati
allkirjastatud
allmusic
allpool
allu
allub
alluksus
alluksused
alluma
allunud
allus
allusid
allutada
allutati
allutatud
alluv
alluvad
alluvate
alluvusega
alluvuses
alluvusse
allveelaev
allveelaeva
allveelaevade
alma
alo
aloe
alois
aloja
alone
along
alonso
alpes
alpha
alphabet
alphonse
alpi
alpid
alpide
alpides
alpidest
alpina
alpinismi
alpinist
als
also
alt
alta
altai
altar
altari
altbergs
alte
alter
alternatiiv
alternatiivi
alternatiivne
alternatiivse
alternative
altkaemaksu
alto
alttoa
alu
aluksne
aluksnest
alul
aluliina
alumiinium
alumiiniumi
alumiiniumist
alumine
alumise
alumised
alumisel
alumises
alumist
alune
alus
aluse
alused
aluseid
aluseks
alusel
alusele
alusena
aluspaari
aluspohja
alust
alustab
alustada
alustades
alustama
alustamiseks
alustamist
alustanud
alustas
alustasid
alustatakse
alustati
alustatud
alustavad
aluste
alustel
alutaguse
alvar
alvarez
alvaro
alver
alveri
alvin
always
alzeeria
alzeerias
alzheimeri
am
amadeus
amalia
amalie
amand
amanda
amandus
amari
amata
amazon
amazonase
amber
ambla
amblik
amd
amedeo
ameerika
ameerikas
ameerikasse
ameerikast
ameeriklane
ameeriklased
ameeriklaste
amelia
amen
america
americal
american
amerika
amet
ameti
ametiaeg
ametiaega
ametiaja
ametiajaks
ametiajal
ametikoha
ametikohad
ametikohal
ametikohale
ametikohalt
ametikoht
ametikohtadel
ametis
ametisse
ametist
ametit
ametiuhingu
ametiuhingute
ametivande
ametlik
ametlike
ametlikel
ametlikes
ametlikke
ametlikku
ametliku
ametlikud
ametlikuks
ametlikul
ametlikule
ametlikult
ametlikus
ametnik
ametnike
ametnikke
ametniku
ametnikud
amin
aminohapete
amm
amma
ammu
ammugi
amnestia
among
amor
amore
amos
amour
amplituud
amplituudi
amsterdam
amsterdami
amsterdamis
amt
amuuri
amy
an
ana
analoog
analoogia
analoogne
analoogselt
analuus
analuusi
analuusib
analuusida
analuusides
analuusiks
analuusis
analuusitakse
analuutiline
analuutilise
analysis
anam
anarhia
anastasius
anatoli
anatomica
anatomy
anatoolia
anatoom
anatoomia
anchor
ancient
and
anda
andaluusia
andamit
andekas
andeks
anders
andersen
anderson
andersson
andes
andestada
andestus
andestuse
andestust
andev
andi
andide
andis
andja
andke
andma
andmast
andmata
andmebaas
andmebaasi
andmebaasis
andmebaasist
andmed
andmeid
andmeil
andmekogu
andmekogus
andmete
andmetega
andmetel
andmetele
andmetest
andmine
andmise
andmisega
andmiseks
andmisest
andmist
andnud
ando
andorra
andra
andras
andre
andrea
andreas
andrease
andrei
andrej
andrejev
andres
andrese
andresen
andrew
andrews
andri
andris
android
androidi
andrus
andrzej
andsid
andsin
andsiwad
andur
andy
aneemia
ang
angel
angela
angeles
angelese
angeleses
angelo
angels
angerja
angerjas
anglikaani
anglosaksi
angola
angolas
anhalt
anhalti
ani
anija
animaator
animafilm
animafilmide
animal
animals
anita
anjou
ankara
ankur
ann
anna
annab
annad
annaks
anname
annan
annavad
anne
annekteerimist
annekteeris
annekteeriti
anneli
annet
annetas
annette
anni
annie
annika
annist
anniversary
anno
announces
annual
annud
annus
anonuumne
another
ans
ansambel
ansambli
ansamblid
ansambliga
ansamblis
ansamblisse
ansamblist
ansamblite
ansamblites
anscombe
ansekula
ansip
ansipi
ansv
ant
anta
antakse
antanas
antarktika
antarktikas
antav
antava
ante
antenn
antenni
anthony
anti
antibiootikumide
antigua
antiigileksikon
antiik
antiikaja
antiikajal
antikeha
antikehade
antiookia
anto
antoine
antoinette
antoloogia
anton
antoni
antonin
antonio
antonius
antoniuse
antonov
antonuumid
antropoloog
antropoloogia
ants
antsla
antsu
antti
antu
antud
antwerpeni
anu
anvelt
any
ao
ap
apa
apache
aparaat
ape
apelsin
apertura
apg
aphrodite
api
apis
apollo
apollon
apostel
apostellik
apostli
apostlik
apostliku
apostlite
app
appi
appl
apple
application
applications
applied
approach
approaches
approx
apps
apr
april
aprill
aprilli
aprillil
aprillini
aprillis
aprillist
apteegi
apteek
apteeker
apuulia
aq
aquila
aquino
ar
ara
araabia
araabias
araablased
araablaste
arab
arabia
aragoni
arahoidmiseks
aramea
aramis
aratab
aratada
aratanud
aratas
aravete
arbusow
arc
arch
archaeological
archaeology
architecture
archiv
archive
archived
archives
archivio
archivum
arco
arctic
arder
ardo
are
area
areas
areen
aren
arena
arenal
arendab
arendada
arendaja
arendajad
arendama
arendamine
arendamise
arendamisega
arendamiseks
arendamisel
arendamisele
arendamist
arendanud
arendas
arendasid
arendatakse
arendati
arendatud
arendus
arenduse
arendustegevuse
areneb
areneda
arenedes
arenema
arenenud
arenes
arenesid
arenev
arenevad
areng
arengu
arenguga
arengukava
arengukoostoo
arenguks
arengule
arengus
arengusse
arengust
arengut
ares
aretatud
arevus
arevust
arg
argates
arge
argentina
argentinas
argo
argu
argumendi
argumendid
argument
argumente
argumenti
arhangelski
arheoloog
arheoloogia
arheoloogid
arheoloogiline
arheoloogilised
arheoloogilisi
arheoloogiliste
arhiiv
arhiivi
arhiivikoopia
arhiivimisaeg
arhiivimisurl
arhiivis
arhiiviversioon
arhitekt
arhitekti
arhitektid
arhitektide
arhitektina
arhitektuur
arhitektuuri
arhitektuuriburoo
arhitektuuriburoos
arhitektuuriga
arhitektuuris
arhitektuurist
arhitektuurivoistlus
arhivaar
arhiveeritud
arhivu
ari
ariel
arijuht
arijuhtimise
arileht
arimees
aripaev
aripaeva
ariregistri
aris
ariste
aristide
aristokraatia
aristoteles
aristotelese
aristotle
aritmeetika
arizona
arkaadia
arkab
arkadi
arkansase
arkas
arktika
arkvel
arles
arm
armand
armas
armasta
armastab
armastad
armastada
armastaja
armastama
armastame
armastan
armastanud
armastas
armastasin
armastatakse
armastatu
armastatud
armastavad
armastus
armastuse
armastusega
armastusele
armastuses
armastusest
armastust
arme
armed
armee
armeed
armeede
armeega
armeekindral
armeele
armeenia
armeenias
armeenlased
armeenlaste
armees
armeesse
armeest
armenia
armin
arms
armsad
armstrong
armu
armuke
armuline
armunud
armus
armust
army
arne
arno
arnold
aro
aron
around
arp
arra
arrak
arras
arrasi
array
arreteeriti
arro
ars
arsenal
arsenali
arseni
arst
arsti
arstiabi
arstid
arstide
arstina
arstiteadlane
arstiteaduse
arstiteaduskonna
arstiteaduskonnas
arstiteadust
art
artagnan
arte
arteria
arthur
article
articles
artificial
artikkel
artikleid
artikli
artiklid
artiklis
artiklist
artiklit
artiklite
artiklites
artist
artisti
artistid
artists
artjom
arto
artois
arts
artur
arturo
aru
aruande
aruanded
aruandes
aruanne
aruba
arukas
arukula
arula
arumae
arusaadav
arusaam
arusaama
arusaamad
arusaamatu
arusaamine
arusaamise
arusaamist
arust
arutada
arutama
arutas
arutatakse
arutati
arutelu
arutlus
arutluse
arv
arva
arvab
arvad
arvama
arvamine
arvamise
arvamus
arvamuse
arvamused
arvamusel
arvamusele
arvamusi
arvamust
arvamuste
arvan
arvanud
arvas
arvasid
arvasin
arvata
arvatakse
arvatav
arvatavalt
arvatavasti
arvate
arvates
arvati
arvatud
arvavad
arve
arved
arvel
arvele
arvelt
arvesse
arvestab
arvestada
arvestades
arvestama
arvestamata
arvestatakse
arvestati
arvestatud
arvestuses
arvestuslik
arvi
arvid
arvo
arvu
arvud
arvude
arvudes
arvuga
arvukad
arvukalt
arvukate
arvuks
arvukus
arvukuse
arvukust
arvul
arvule
arvuliselt
arvult
arvust
arvustus
arvustusi
arvutada
arvutamiseks
arvutatakse
arvutatud
arvuteid
arvuti
arvutid
arvutiga
arvutile
arvutis
arvutisse
arvutit
arvutite
arvutiteadlane
arvutites
arvutuste
arwad
arwas
arwata
arxiv
as
ase
asedirektor
aseesimees
aseesimeheks
asehaldur
asekantsler
asekuberner
asekuningas
asemel
asemele
asend
asendab
asendada
asendades
asendama
asendamine
asendas
asendatakse
asendati
asendatud
asendi
asendis
asendit
asendus
asendusliige
asepeaminister
asepresidendi
asepresidendiks
asepresident
aserbaidzaan
aserbaidzaani
aserbaidzaanis
aseri
asesona
aset
asetab
asetada
asetaitja
asetaitjaks
asetaitjana
asetas
asetatakse
asetati
asetatud
asetseb
asetses
asetsevad
asetus
asetuse
asetusega
asevalitseja
ash
ashley
ashton
asi
asia
asian
asja
asjaajaja
asjaajamise
asjad
asjade
asjadega
asjadele
asjades
asjadest
asjaga
asjal
asjale
asjaolu
asjaolud
asjaolude
asjaoludel
asjaoludest
asjaolule
asjaolusid
asjaolust
asjas
asjasse
asjast
asjata
asjatu
asjatult
asjatundja
asjatundjad
asju
asjus
asjust
ask
asko
asp
aspects
aspekt
aspekte
aspekti
aspektid
aspektist
aspirant
aspirantuuri
aspirantuuris
aspx
ass
assamblee
assembly
assessment
assessor
assistendina
assistent
associated
association
associations
assotsiatsioon
assotsiatsiooni
assuuria
ast
asta
aste
asteroid
asteroidide
astet
asti
astme
astmed
astmega
astmel
astmele
astmeline
astmes
astmete
aston
astra
astrahani
astrid
astrofuusik
astrofuusika
astroloogia
astronaut
astronomical
astronomy
astronoom
astronoomia
astu
astub
astuda
astudes
astuma
astumise
astumist
astunud
astus
astusid
astuuria
astuvad
asu
asuala
asub
asuda
asudes
asukad
asukoha
asukohad
asukohaga
asukohaks
asukohale
asukohas
asukohast
asukoht
asukohta
asula
asulad
asulaid
asulakoht
asulas
asulasse
asulast
asulat
asulate
asulates
asum
asuma
asumi
asumid
asumis
asumisele
asumist
asundus
asunduse
asundused
asunud
asupaik
asus
asusid
asustamata
asustasid
asustati
asustatud
asustus
asustuse
asustusjaotuse
asustustihedus
asutada
asutaja
asutajad
asutajaid
asutajaliige
asutajatest
asutamine
asutamise
asutamisest
asutamist
asutanud
asutas
asutasid
asutati
asutatud
asutav
asutava
asuti
asutus
asutuse
asutused
asutuses
asutusi
asutuste
asutustes
asuv
asuva
asuvad
asuvaid
asuval
asuvale
asuvas
asuvasse
asuvast
asuvat
asuvate
asuvatest
at
ata
atari
ateena
ateenas
ateljee
ateljees
athena
athletic
athos
ati
atika
atla
atlandi
atlanta
atlantas
atlantic
atlantis
atlas
atlase
atletico
atmosfaar
atmosfaari
atmosfaaris
ato
atoll
atom
atomic
atp
ats
attack
attacks
attention
attila
atu
au
auaste
auastme
auastmed
auastmes
aubin
audentese
audi
audio
audiovisuaalse
audit
audoktor
audoktoriks
audru
auf
auflage
aug
augsburg
augsburgi
augu
augud
august
augusta
augustane
auguste
augusti
augustil
augustin
augustini
augustinus
augustis
augustist
augusto
augustus
augustuse
auhind
auhinda
auhindade
auhindu
auhinna
auhinnad
auhinnaga
auhinnale
auk
auke
aukiri
aukodanik
aukonsul
auks
auku
aukude
aule
auleegioni
auliige
auliikmeks
aumark
aun
aunimetus
aunimetuse
aur
aura
aurelius
aureus
aurik
aurora
auru
aus
ausa
ausalt
ausamba
ausammas
ausf
ausgewahlten
austada
austama
austamine
austatakse
austati
austatud
austen
austerlased
austin
austraalia
austraalias
austraaliasse
austraaliast
australia
australian
austria
austrias
austriasse
austriast
austroneesia
austus
austuse
austust
ausus
autasu
autasustati
autasustatud
author
authority
authors
auto
autobiograafia
autod
autode
autoga
autojuht
automaat
automaatika
automaatne
automaatselt
automatic
automatiseeritud
autonoomia
autonoomiat
autonoomne
autonoomse
autonoomses
autoportree
autor
autoreid
autori
autorid
autoriks
autorile
autorina
autorioiguse
autorioiguste
autorit
autorite
autoriteedi
autoriteet
autoriteeti
autos
autosid
autost
autot
autotootja
autotransporta
autovoidusoitja
auu
auvaart
auvere
auvergne
aux
auxi
av
ava
avaari
avab
avada
available
avalanche
avaldab
avaldada
avaldades
avaldama
avaldamata
avaldamine
avaldamise
avaldamiseks
avaldamismarge
avaldamist
avaldanud
avaldas
avaldasid
avaldatakse
avaldati
avaldatud
avaldavad
avaldub
avalduda
avaldus
avalduse
avalduste
avalduvad
avalik
avalike
avalikel
avalikes
avalikke
avalikku
avalikkus
avalikkuse
avalikkusele
avalikkust
avaliku
avalikud
avalikuks
avalikult
avalikus
avalikust
avalikustas
avalikustati
avalikustatud
avama
avamine
avamise
avamiseks
avamisel
avamist
avanduse
avaneb
avanes
avanevad
avant
avanud
avar
avarii
avaringis
avas
avasid
avastab
avastada
avastaja
avastamine
avastamise
avastamiseks
avastamist
avastanud
avastas
avastasid
avastati
avastatud
avaste
avastus
avastuse
avastused
avatakse
avati
avatseremoonial
avatud
ave
avec
avenue
average
avesnes
aviation
avignon
avignoni
avinurme
avita
avo
aw
awaldas
award
awards
away
ax
axel
ay
ayette
az
aziz
b
b0
b1
b2
b3
b4
b5
b6
b7
b8
b9
ba
baar
baari
baas
baasi
baasil
baasis
baba
babuloonia
baby
bach
bachi
bachmann
back
background
bacon
bacteria
bad
baden
badeni
baer
baeri
bafta
bagdadi
bagdadis
bahama
bahreini
bai
baieri
baieris
baikali
bailey
bailleul
bakalaureuse
bakalaureusekraadi
bakalaureusekraadiga
bakalaureuseoppe
bakalaureusetoo
baker
bakter
baktereid
bakteri
bakterid
bakterite
bakuu
bakuus
balance
balduin
baldwin
baleriin
bali
balkaari
balkani
balkanil
ball
ballaad
balleti
balletitantsija
ballett
balta
balthasar
balti
baltic
baltica
balticu
baltika
baltikumi
baltikumis
baltimaade
baltimaades
baltimore
baltisaksa
baltisakslaste
baltische
baltischen
baltisches
balvi
ban
band
banda
bande
bandi
bandiga
bandis
bandist
bang
bangladesh
bangladeshi
bank
banks
bapaume
baptiste
baptisti
bar
barack
barbara
barbarossa
barbuda
barcelona
barcelonas
barclay
bari
bariton
barnes
barnim
barokk
barokkstiilis
baron
barre
barrett
barry
bart
bartolomeo
bas
base
based
baseerub
basel
baseli
basic
basiilika
basil
basileios
basilica
basis
basketball
baski
baskiiri
baskin
bass
bassein
basseini
bassi
basskitarr
basskitarrist
bastion
bastioni
bat
bataillon
battery
battista
battle
bauer
bauska
bautzeni
bay
bayer
bayern
baze
bb
bbc
bbld
bc
bd
be
beach
beagle
bean
bear
bearbeitet
beast
beat
beata
beatles
beatrice
beaufort
beaumetz
beautiful
beauty
beauvoir
beaux
beck
becker
become
bed
bee
beekman
been
beer
beethoven
beethoveni
befolkning
before
begin
behavior
behavioral
behaviour
behind
bei
beijing
being
beitrage
bekkeri
bel
bela
belarus
belgia
belgias
belgrad
belgradi
belgradis
believe
belize
bell
bella
belle
belli
bellini
bellonne
belt
bemoll
ben
bender
benedetto
benedict
benedictus
benevento
benfica
bengali
bengt
benini
benito
benjamin
bennett
benno
benoit
bensiini
bentheimi
bentley
benz
berend
berends
beretta
berg
bergamo
bergen
bergeni
berger
bergi
bergman
bergmann
beria
berkeley
berles
berliin
berliini
berliinis
berlin
berliner
bermuda
bern
bernard
bernardo
bernd
bernhard
berni
bernini
bernstein
berry
bert
berta
bertha
berthold
bertrand
berzaune
best
beta
betoon
betooni
betoonist
better
betti
betty
betula
between
beverly
bevolking
bey
beyond
bezirke
bf
bg
bh
bhutani
bi
bibcode
bible
bibliograaf
bibliograafia
biblioteka
biden
bienenstamm
bienenstammi
bienestamm
big
bilbao
bill
billboard
billboardi
billion
billy
biloba
bin
binding
bio
biobibliograafia
biochem
biochemistry
biograafia
biograafiad
biograafiline
biograafilise
biograafilises
biografisches
biographical
biographie
biographisches
biography
biokeemia
biokeemik
biol
biological
biology
bioloog
bioloogia
bioloogias
bioloogiline
bioloogilise
bioloogilised
bioloogiliselt
bioloogilist
bioloogiliste
biomassi
biotehnoloogia
bir
bird
birdlife
birds
birger
birgit
birgitta
birma
birmingham
birth
bis
bishop
bismarck
bissau
bit
bitcoin
biti
bitine
bitise
bitist
bitt
bitti
bizet
bj
bjorn
bk
bl
black
blackberry
blackburn
blackwell
blade
blair
blaise
blake
blanc
blanche
blast
blick
blickgem
blind
block
blog
blogi
blogspot
blokaadi
blood
bloomberg
blow
blu
blue
blues
bluetooth
bm
bmw
bn
bns
bo
board
boat
bob
bobby
boca
bock
body
boeing
bogdan
bogislaw
bohlau
boiry
bois
boisleux
bolesław
boliivia
boliivias
bologna
bolsevike
bolsevikud
bolt
bomb
bon
bonaparte
bond
bondi
bone
bonifatius
bonn
bonni
bonnie
book
books
boole
boomi
boomimaa
boot
bor
bordeaux
border
borg
borgia
boris
boriss
born
bornhohe
bors
borsi
borsil
borussia
bosch
bosnia
bosnias
boss
boston
bostoni
bostonis
bot
botaanik
botaanika
botaanikaaed
botaanikaaia
botany
both
botswana
bottom
botvinnik
boulenger
boulogne
bourgeois
bowie
box
boxrec
boy
boyle
boys
bp
bq
br
bracy
brad
bradley
bragelonne
brahe
braille
brain
branch
brand
brandenburg
brandenburgi
brandi
brandon
brandt
brasiilia
brasiilias
brasil
brasileiro
bratislava
braun
braunschweig
braunschweigi
bravo
brazil
break
breaking
breast
bremen
bremeni
brescia
breslau
brest
bresti
bretagne
breton
bretooni
breznev
brian
bridge
brief
brien
brigaad
brigaadi
brigaadikindral
brigitte
brill
bring
brisbane
bristol
britain
britannia
britannica
briti
britid
british
brittide
brjanski
brno
broad
broadcasting
broadway
broken
bronte
brooker
brooklyn
brooks
brother
brothers
brotze
brown
browne
browni
browning
browser
bruce
brugge
brunei
bruno
brussel
brusseli
brusselis
bryan
bryant
bs
bsd
bt
btr
bu
buch
buchdruckerei
buchhandlung
buck
buckley
buda
budapest
budapesti
budapestis
buddha
buddy
budism
budismi
budismis
budistlik
budistliku
buenos
buffalo
build
building
bukaresti
bukarestis
bulgaaria
bulgaarias
bulgaarlased
bull
bulla
bullas
bulletin
bundeslander
bundesliga
bunge
burchard
bureau
burg
burgen
burgermeister
burgundia
burjaadi
burke
burkina
burn
burns
burokraatia
buroo
buroohoone
burtnieki
burton
burundi
bus
busch
bush
bushi
business
buss
bussi
bussid
bussijaam
bussiliin
bussipeatus
bust
but
butler
butsants
butsantsi
butsantslased
butterfly
button
buxhoeveden
bv
bw
bwv
bx
by
bz
c
c0
c1
c2
c3
c4
c5
c6
c7
c8
c9
ca
cable
caesar
caesari
cafe
cage
cagnicourt
calabria
calais
calgary
california
californias
call
called
calls
calvin
cam
cambrai
cambridge
camera
cameron
camille
camp
campaign
campania
campanula
campbell
campeonato
campo
camus
can
canada
canadian
canal
canavese
canberra
cancer
canche
candida
canis
cannes
canon
canterbury
canto
cantus
cao
cap
cape
capelle
capital
cappella
captain
capua
car
carbon
card
cardiff
care
career
carex
carey
cargo
caribbean
carl
carlo
carlos
carmen
carnegie
carnival
carol
carolina
caroline
carpenter
carr
carrie
carrier
carroll
carson
carter
cas
casa
case
cases
cash
casino
caspar
cassini
cast
castel
castello
castle
castro
cat
catalogue
catch
caterina
catharina
catherine
catholic
cato
cauchy
cause
causes
cave
cb
cbs
cc
cd
cdc
cdot
cdu
ce
cecil
cecilia
cedric
celestino
cell
celle
cells
cellular
celtic
census
centaurea
center
central
centre
century
cepa
ces
cesar
cesare
cesise
ceske
cf
cg
cgi
ch
chain
challenge
challenges
chamber
chamorro
champagne
champions
championship
championships
chan
chance
chandler
chang
change
changes
changing
channel
chaos
chapelle
chapman
chapter
character
characteristics
characterization
charge
charles
charlesi
charlie
charlotte
chart
charts
chase
chateau
chatel
chavez
che
check
checklist
chef
chelsea
chem
chemical
chemistry
chen
cherry
chess
chi
chicago
chicagos
chief
chiesa
child
childhood
children
chile
china
chinery
chinese
chip
cho
choice
chomsky
chong
chris
christ
christensen
christian
christiani
christie
christina
christine
christmas
christoffer
christoph
christophe
christopher
chrome
chronicle
chronicon
chu
chuck
church
churchill
ci
cia
cicero
cid
cinema
cinnamomum
circ
circle
circuit
circus
cis
cit
cite
cities
citroen
citrus
citta
city
cityga
citys
civil
cj
ck
cl
claes
claims
claire
clapton
clara
clarendon
clark
clarke
clarki
class
classic
classical
classics
classification
claude
claudia
claudio
claudius
claus
clay
clean
clear
clemens
clement
clemente
clermont
cleveland
clifford
climate
clin
clinical
clinton
clive
clock
close
cloud
club
cluny
cluster
clyde
cm
cmos
cn
cnn
co
coast
coastal
coauthors
coca
code
codex
coelestinus
coffee
cognition
cognitive
cohen
cojeul
col
cola
cold
cole
coleman
coli
colin
collection
college
collins
colombia
colombias
colombo
colonna
color
colorado
colors
colour
colubridae
columbia
columbus
column
com
combat
come
comes
coming
command
commander
commercial
commission
committee
commodore
common
commons
commonsis
communes
communication
communications
communist
community
como
companion
company
comparative
comparison
competition
complete
complex
components
composition
comprehensive
computer
computing
comte
comune
comuni
con
conan
concacaf
concept
concepts
concert
concerto
concordia
conde
condita
conditions
conference
confirms
conflict
congress
conifer
connecticut
connecticuti
connor
conrad
consciousness
consequences
conservation
console
constant
constantin
constantinus
constantius
constellation
constitution
construction
consumer
contact
contemporary
content
contest
context
conti
continental
contra
contract
contre
control
controller
convention
cook
cooki
cool
coop
cooper
cooperation
copa
cope
copy
coq
cordoba
core
cornelius
cornell
cornet
corona
coronavirus
corporation
corps
corpus
cortex
coruna
corvus
cos
cosimo
cost
costa
cote
could
council
count
counter
countries
country
county
coup
coupe
courcelles
course
court
couture
cov
cover
covid
cox
cp
cpu
cq
cr
craig
crane
crash
crataegus
crawford
crazy
crc
cream
creation
creative
credit
creek
cremona
crew
crime
criminal
crisis
cristina
critical
croisilles
croix
cromwell
cross
crown
cruise
cruises
cruz
cry
crystal
cs
cska
css
ct
cu
cuba
cube
cultural
culture
cum
cup
cupi
cura
curie
current
curt
curtis
cut
cv
cw
cx
cy
cycle
cyp
cyrtodactylus
cyrus
cz
czech
d
d0
d1
d2
d3
d4
d5
d6
d7
d8
d9
da
daakia
daam
daami
daani
daativ
dabas
dag
dagestani
dagmar
dahl
daily
daimler
daisy
dakota
dal
dalai
dale
dali
dallas
dalmaatsia
dam
damaskuse
dame
dan
dana
dance
dancing
dangerous
daniae
daniel
daniil
danilo
danish
danny
dans
danske
dante
danzigi
dar
darja
dark
darmstadt
darmstadti
darwin
darwini
das
data
database
datatowel
date
dateeritud
datu
datubaze
dauersiedlungsraum
daugava
daugavpilsi
dave
david
davidi
davidjants
davidson
davies
davis
davise
dawn
day
days
db
dc
dd
ddr
de
dea
dead
deal
dean
death
debora
deborah
debuteeris
debuudi
debuut
debuutalbum
debuutalbumi
dec
december
decision
deco
dee
deemon
deep
def
default
defence
defense
defineerib
defineerida
defineeris
defineeritakse
defineeritud
definition
definitsioon
definitsiooni
degli
dei
dekaan
deklaratsioon
deklaratsiooni
dekreediga
del
delacroix
delaware
delegatsioon
delegatsiooni
delfi
delhi
dell
della
delle
delta
dem
demand
demi
demo
democracy
democratic
demokraadid
demokraatia
demokraatide
demokraatlik
demokraatlike
demokraatlikku
demokraatliku
demokraatlikus
demonstreeris
den
denis
deniss
denmark
dennis
density
departamentas
departamento
departemang
departemangu
departemangus
department
dependent
depoo
deportivo
depression
depressioon
depressiooni
der
derby
derek
des
descartes
descartesi
description
desert
design
desire
desktop
desmond
dessandi
dessant
det
detail
detaile
detailed
detaili
detailid
detailide
details
detection
detektiiv
determination
detroit
detroiti
dets
detsember
detsembri
detsembril
detsembrini
detsembris
detsembrist
deubner
deus
deutsch
deutsche
deutschen
deutscher
deutsches
deutschland
deux
dev
development
device
devices
devil
devoni
df
dfb
dg
dgs
dh
di
dia
diabetes
diagnoosi
diagnoositi
diagnoositud
diagnosis
diagnostika
diagramm
diakon
diakoniks
dialektika
dialoog
dialoogi
diameeter
diameetriga
diamond
diana
diane
diaz
dick
dickie
dickinson
dict
dictionary
dictionnaire
did
didier
die
diees
diego
dies
dieter
dietrich
difference
differences
different
differential
digar
digi
digitaalarhiivis
digitaalne
digitaalse
digitaalsed
digitaalselt
digitaalses
digitaalset
digitaalsete
digital
digiteeritud
diktaator
diktatuuri
dilemma
dimitri
din
dina
dinamo
dio
diogenes
dionysius
dipi
diplom
diplomaadi
diplomaat
diplomaatia
diplomaatide
diplomaatiline
diplomaatilise
diplomaatilised
diplomaatiliste
diplomi
diplomitoo
dir
direcija
direct
direction
director
directory
direktiiv
direktiivi
direktor
direktori
direktoriks
direktorina
direktorite
dirigeeris
dirigent
dirk
dirty
dis
disain
disainer
disaini
disainis
disainitud
disc
disco
discourse
discovery
disease
diseases
disk
diskrimineerimise
diskvalifitseeriti
disney
disorder
disorders
display
displaystyle
dissident
distants
distantsi
distantsil
distribution
district
distrikt
distsipliin
distsipliini
div
diversity
diviis
diviisi
division
divisjon
divisjoni
dizionario
dj
dk
dl
dm
dmitri
dn
dna
dnepri
dns
do
dobele
doc
docs
doctor
document
documentation
documents
does
dog
dogs
doi
doktor
doktorant
doktori
doktorikraad
doktorikraadi
doktoritoo
doktoritood
doktorivaitekirja
doktriin
doktriini
dokumendi
dokumendid
dokumendis
dokument
dokumentaalfilm
dokumentaalfilmi
dokumentatsioon
dokumente
dokumenteeritud
dokumenti
dokumentide
dokumentides
dole
dollar
dollari
dollarini
dollarit
dolly
dolores
dom
domain
domeen
domeeni
domenico
domineerib
domineeris
domineerisid
domineeriv
domineerivad
domingo
domini
dominica
dominiiklaste
dominikaani
dominique
don
donald
donbassi
donetsk
donetski
dong
doni
donizetti
donna
doonau
door
dopamiini
dorian
doris
dorothea
dorothy
dorpat
dorpater
dortmundi
dos
dostojevski
dot
dots
dotsendina
dotsent
double
douglas
douglase
dover
down
download
doyle
dp
dq
dr
draakon
draakoni
draama
draamafilm
draamastuudio
draamateater
draamateatri
draamateatris
dracaena
dracula
draft
dragon
drake
dram
drama
dramaturg
drava
draw
dream
dreams
drei
dresden
dresdeni
dresdenis
dritter
drive
driver
drop
drosophila
druck
drug
drugs
drum
dry
ds
dspace
dt
du
dual
dubai
dublin
dublini
dublinis
due
duett
duisans
duke
dumas
dumbledore
dumeril
dunaamika
dunaamiline
dunaamilise
dunamo
dunamunde
dunastia
dunastiale
dunastiast
duncan
dundaga
dunja
dunn
duo
durbe
durch
during
dusseldorf
dusseldorfi
dusseldorfis
dust
dutch
duty
duur
dv
dvd
dvi
dvinjaninov
dw
dwight
dx
dy
dylan
dynamic
dynamics
dz
dzass
dzassi
dzassmuusik
dzelzceli
dzerzinski
dzomolungma
e
e0
e1
e2
e3
e4
e5
e6
e7
e8
e9
ea
eaa
eagle
eal
eales
eaok
earl
early
earth
eas
east
eastern
easy
eau
eb
ebakindel
ebameeldiv
ebaoiglane
ebaonnestunud
ebaonnestus
ebaseaduslik
ebaseadusliku
ebaseaduslikult
ebaselge
ebastabiilne
ebatavaline
ebatavaliselt
ebatoenaoline
ebavordsus
ebba
eberhard
eberle
ebola
ebu
ec
echo
eco
ecole
ecological
ecology
economic
economics
economist
economy
ecuador
ecuadori
ecuadoris
ed
eda
edasi
edasiarendus
edasine
edasise
edasised
edasiseks
edasisest
edasist
edaspidi
edastab
edastada
edastamine
edastamise
edastamiseks
edastas
edastatakse
edastavad
edda
eddie
edela
edelaosas
edelas
edelasse
eden
edendab
edendada
edendaja
edendamine
edendamise
edendamiseks
edendas
edenes
edestades
edestas
edetabel
edetabeli
edetabelis
edetabelites
edgar
edge
edinburgh
edinburghi
edit
edited
edith
edition
editions
editor
editors
edmond
edmonton
edmund
edo
edouard
eds
edu
eduard
eduardo
education
educational
eduga
eduka
edukad
edukaim
edukaks
edukalt
edukam
edukamaid
edukas
edukat
eduskunna
edutati
edutult
edvard
edvin
edward
edwardi
edwards
edwin
ee
eek
eel
eelarvamus
eelarve
eelarvest
eeldab
eeldada
eeldades
eeldas
eeldatakse
eeldatavasti
eeldavad
eeldus
eeldused
eelduseks
eeldusel
eeldusi
eelduste
eelis
eelise
eelised
eeliseid
eeliseks
eelistab
eelistada
eelistades
eelistas
eelistasid
eelistatakse
eelistatud
eelistavad
eeljooksud
eelk
eelkaija
eelkaijad
eelkaijaks
eelkaijate
eelkoige
eelmae
eelmainitud
eelmine
eelmise
eelmisel
eelmises
eelmisest
eelmiste
eelneb
eelnenud
eelnes
eelnev
eelneva
eelnevad
eelnevalt
eelnevas
eelnevast
eelnevat
eelnevate
eelnimetatud
eelnou
eelpool
eelujumine
eelurikkus
eemal
eemaldada
eemaldamine
eemaldamiseks
eemaldamist
eemaldas
eemaldatakse
eemaldati
eemaldatud
eemale
eemalt
een
eenpalu
eepos
eepose
eerik
eero
ees
eesel
eesistuja
eeskatt
eeskiri
eeskirjad
eeskuju
eeskujuks
eeskujul
eesliide
eesliitega
eesliitest
eeslinn
eeslinna
eeslinnas
eeslinnuse
eesmaa
eesmargi
eesmargid
eesmargiga
eesmargiks
eesmargil
eesmargile
eesmargist
eesmark
eesmarke
eesmarki
eesmarkide
eesmarkideks
eesmarkidel
eesmarkidest
eesmine
eesnime
eesnimi
eesotsas
eespere
eespool
eesriie
eessona
eessonaga
eest
eesti
eestiga
eestigiid
eestikeelne
eestikeelse
eestikeelsed
eestikeelses
eestikeelset
eestikeelsete
eestil
eestile
eestimaa
eestimaal
eestimaale
eestis
eestisse
eestist
eestistamine
eestistamisel
eestit
eestkoste
eestkostja
eestlane
eestlase
eestlased
eestlasena
eestlasest
eestlasi
eestlast
eestlaste
eestlastega
eestlastel
eestlastele
eestlastest
eestluse
eestseisja
eestvedaja
eestvedamisel
eestvottel
eetika
eetiline
eetilise
eetris
eetrisse
eeva
eevi
eewa
ef
efekt
efekti
efektiivne
efektiivse
efektiivselt
efektiivsem
efektiivsus
efektiivsuse
efektiivsust
effect
effective
effects
eg
ega
egeuse
egg
egiidi
egiptus
egiptuse
egiptuses
egiptusest
egiptusse
ego
egon
egypt
eh
eha
ehala
ehasalu
ehe
ehib
ehin
ehitab
ehitada
ehitaja
ehitajate
ehitama
ehitamine
ehitamise
ehitamisega
ehitamiseks
ehitamisel
ehitamist
ehitanud
ehitas
ehitasid
ehitatakse
ehitati
ehitatud
ehitavad
ehitis
ehitise
ehitised
ehitisi
ehitist
ehitiste
ehitud
ehitus
ehituse
ehitusega
ehituseks
ehitusel
ehituselt
ehituses
ehitusest
ehitusinsener
ehitusmaterjalide
ehitusmeister
ehitust
ehitustoid
ehitustood
ehitustoode
ehk
ehkki
ehrlich
ehst
ehstland
ehte
ehted
ehteid
ehtne
ei
eichenbaum
eide
eight
eik
eila
eile
eimiski
ein
einar
einasto
eine
einem
einer
eino
einstein
einsteini
einwohnerzahl
eiran
eisen
eit
eitab
eitada
eitas
eitus
ej
ejl
ek
eka
eke
eki
ekl
ekm
eko
ekp
ekr
ekraan
ekraani
ekraanil
ekraanile
ekre
eks
eksa
eksami
eksamid
eksemplar
eksemplari
eksib
eksida
eksiili
eksiilis
eksinud
eksis
eksisteeri
eksisteerib
eksisteerida
eksisteerimise
eksisteerinud
eksisteeris
eksisteerisid
eksisteerivad
eksistentsi
eksitus
ekskommunitseeris
ekslik
ekslikult
ekspeditsioon
ekspeditsiooni
ekspeditsioonil
ekspeditsioonist
eksperdid
eksperimendi
eksperiment
eksperimentaalne
eksperimentaalse
eksperimente
ekspert
ekspertide
eksponeeriti
eksponeeritud
ekspordi
eksport
ekspositsioon
ekspress
ekspressi
ekspressiooni
ekss
eksternina
ekvaatori
ekvatoriaal
el
ela
elab
elad
elada
elades
elagu
elama
elame
elamine
elamise
elamiseks
elamisloa
elamu
elamud
elamus
elan
elanik
elanike
elanikel
elanikele
elanikest
elanikke
elanikkond
elanikkonna
elanikkonnast
elanikku
elaniku
elanikud
elanikuga
elanud
elas
elasid
elasiwad
elatakse
elati
elatist
elatud
elav
elava
elavad
elavaid
elavalt
elavat
elavate
elavatele
elavhobe
elbe
ele
eleanor
election
elections
electric
electrical
electron
electronic
electronics
elegans
elekter
elektri
elektrienergia
elektrienergiat
elektrijaam
elektrijaama
elektriline
elektrilise
elektrilised
elektriliselt
elektriliste
elektrit
elektrivalja
elektrivool
elektrivoolu
elektromagnetilise
elektron
elektrone
elektroni
elektronid
elektronide
elektroodi
elektroodide
elektroonika
elektrooniline
elektroonilise
elektroonilised
elektrooniliselt
elektroonilist
elektrooniliste
elektrotehnika
elemendi
elemendid
elemendist
element
elemente
elementi
elementide
elementidega
elementidest
elements
elena
eleonora
eleonore
elevandiluuranniku
elevant
elfriede
eli
elias
eliidi
eliisabeti
eliit
elin
elina
eliot
elisa
elisabet
elisabeth
elisabethi
elise
elistvere
elizabeth
elizabethi
elknu
ell
ella
ellamaa
elle
ellen
eller
elleri
elli
elliott
ellis
ellu
ellujaamise
ellujaanud
elluviimise
elluviimiseks
elmar
elmatar
elmo
elo
elon
elron
elroni
els
elsa
else
elsevier
elt
elton
elts
elu
eluaasta
eluaastad
eluaastal
eluaastani
eluaastast
eluaastat
eluaeg
eluaegne
eluaegse
eluajal
eluea
eluga
eluiga
elukaaslane
elukeskkonna
elukoha
elukoht
elukohta
eluks
elukutse
elukutseline
elukutselisena
elukutseliste
elul
elule
eluloo
elulood
elulugu
elumaja
elund
elundi
elundite
elupaik
elupaikade
elupaiku
elupuu
elurikkuse
eluruumid
elus
elusalt
elusse
elust
elustiili
elustik
eluta
elutoo
elutoopreemia
elutseb
elutsevad
eluviis
eluviisi
eluviisiga
elva
elvas
elvi
elvira
elvis
em
ema
emad
emaga
emajoe
emajogi
emaka
emakas
emakeel
emakeele
emakeeleks
emakeelena
emaks
emal
emale
emalt
emand
emane
emanuel
emanuele
emapoolne
emase
emased
emaslind
emast
emaste
emastel
embleem
embruo
emergency
emerging
emeriitprofessor
emerituuri
emerson
emi
emic
emigreerus
emiir
emil
emile
emilia
emilie
emilio
emily
emk
emma
emmanuel
emmaste
emmy
emotion
emotsionaalne
emotsionaalse
emotsionaalselt
emotsionaalset
emotsioon
emotsioone
emotsiooni
emotsioonid
emotsioonide
emp
empiiriline
empiirilise
empire
emta
emu
en
enam
enama
enamasti
enamat
enamik
enamikku
enamiku
enamikul
enamikule
enamikus
enamikust
enamjaolt
enamlaste
enamus
enamuse
enamusega
enamuses
enciklopedija
enciklopediju
encyclopaedia
encyclopedia
encyclopædia
encyklopedia
end
enda
endaga
endal
endale
endalt
endamisi
endas
endasse
endast
ende
endel
endi
endid
endile
endine
endisaegne
endise
endised
endisel
endisele
endiselt
endises
endisest
endisi
endist
endiste
endistest
endla
endrik
ene
energeetika
energia
energiaga
energiast
energiat
energy
enese
enesega
enesel
enesele
eneses
enesest
enesetapp
enesetapu
eneste
enestele
eng
engel
engelbert
engelbrecht
engelhardt
engine
engineering
england
english
engure
enim
enn
ennam
ennast
enne
ennegi
ennekoike
ennem
ennemini
ennetada
enno
ennustab
ennustada
ennustamine
ennustas
ennustus
eno
enough
enrico
enrique
ensemble
ensuum
ensuume
ensuumi
ensuumid
ensuumide
ensv
ent
enter
enterprise
entertainment
entomoloog
entre
entry
entsuklopeedia
entsuklopeediakirjastus
entsuklopeediakirjastuse
entsuklopeedias
environment
environmental
eo
eok
eos
ep
epa
epideemia
episood
epistemoloogia
epitsenter
epl
epmu
epner
epp
eps
epsilon
epub
eq
equipment
er
era
eradotsent
eraelu
erakond
erakonda
erakondade
erakonna
erakonnad
erakonnast
erakool
erakordne
erakordselt
erakorraline
erakorralise
eraldab
eraldada
eraldamine
eraldamiseks
eraldas
eraldatakse
eraldati
eraldatud
eraldavad
eraldi
eraldiseisev
eraldiseisva
eraldub
eraldumine
eraldunud
eraldus
eramu
erand
erandeid
erandiks
erandina
eranditult
eraoiguse
erapooletu
erasektori
erastvere
erb
erdogan
ere
erelt
ergastatud
ergli
ergma
ergo
eri
eriala
erialade
erialal
erialale
eriauhind
eric
erich
ericsson
erigeron
erik
erika
eriksson
eriline
erilise
erilised
eriliseks
eriliselt
erilisi
erilist
eriliste
erin
erine
erineb
erineda
erines
erinesid
erinev
erineva
erinevad
erinevaid
erineval
erinevalt
erinevas
erinevast
erinevat
erinevate
erinevatel
erinevatele
erinevates
erinevatesse
erinevatest
erinevus
erinevuse
erinevused
erinevusi
erinevust
erinevuste
eriolukorra
eripara
eriparaks
eripreemia
eristab
eristada
eristama
eristamine
eristamiseks
eristas
eristatakse
eristatav
eristatavad
eristatud
eristavad
eristub
eristus
eritavad
eriti
eritrea
erivajadustega
erk
erki
erkki
erm
erna
ernesaks
ernesaksa
ernest
ernesto
erni
ernits
ernst
erosiooni
err
erra
error
erru
ers
ersa
ersen
erso
ersp
erster
ertshertsog
ervin
erwin
es
esa
esbl
esc
escape
escherichia
ese
eseme
esemed
esemeid
esemete
eset
esi
esialgne
esialgse
esialgsed
esialgselt
esialgsest
esialgu
esietendus
esiettekanne
esiisa
esikoha
esikohal
esikohale
esikohta
esikolmikusse
esikuljel
esikumnesse
esile
esiliiga
esiliigas
esiliigasse
esilinastunud
esilinastus
esimees
esimehe
esimehed
esimeheks
esimehele
esimehena
esimene
esimese
esimesed
esimeseks
esimesel
esimesele
esimesena
esimeses
esimesest
esimesi
esimesse
esimest
esimeste
esimesteks
esimestel
esimestena
esimestest
esinaine
esindab
esindada
esindaja
esindajad
esindajaid
esindajaks
esindajana
esindajat
esindajate
esindajatega
esindajatekoja
esindajatest
esindama
esindanud
esindas
esindasid
esindatud
esindav
esindavad
esindus
esinduse
esinduskogu
esine
esineb
esineda
esinedes
esineja
esinejanimega
esinema
esinemine
esinemise
esinemissageduselt
esinemist
esinenud
esines
esinesid
esineti
esinev
esineva
esinevad
esinevate
esiotsa
esit
esita
esitab
esitada
esitades
esitaja
esitajad
esitama
esitamine
esitamise
esitamiseks
esitamist
esitanud
esitas
esitasid
esitatakse
esitati
esitatud
esitavad
esiteks
esiti
esitleb
esitles
esitleti
esitlus
esitus
esituse
esituses
esivanem
esivanemad
esivanemate
esko
eskola
esmajoones
esmakordselt
esmalend
esmalt
esmamainitud
esmane
esmapilgul
esmase
esmased
esmaspaev
esmaspaeval
esmast
esmatrukk
esna
esp
espana
esperanto
essay
essays
esse
essee
esseed
esseid
esseist
essen
essential
essexi
essite
est
esta
estcube
este
esteetika
esteetiline
esteetilise
ester
esther
estica
estimates
estland
estnische
estnischen
estnischer
esto
estonia
estonian
estonias
estonica
et
eta
etalon
etanooli
etapi
etapid
etapil
etapis
etapist
etapp
etappi
etappidel
etc
etendus
etenduse
etendused
etendusi
etendust
ethernet
ethics
ethnic
ethnologue
etienne
etioopia
etioopias
etis
etk
etniline
etnilise
etnograaf
etnograafia
etnoloog
ette
etteantud
ettekande
ettekanne
ettekujutus
ettekujutuse
ettenahtud
etteotsa
ettepanek
ettepaneku
ettepanekud
ettepanekuga
ettepanekuid
ettepanekul
ettepanekut
ettepanekute
ettepoole
ettevaatlik
ettevaatlikult
ettevalmistamine
ettevalmistamise
ettevalmistamisel
ettevalmistus
ettevalmistuse
ettevalmistusi
ettevote
ettevotet
ettevotete
ettevotetele
ettevotetes
ettevotja
ettevotjad
ettevotjate
ettevotlus
ettevotluse
ettevotmine
ettevotte
ettevotted
ettevottega
ettevotteid
ettevottel
ettevottele
ettevottes
ettevottest
etudes
etumoloogia
etv
eu
eucalyptus
eugen
eugene
eugenio
eugenius
eur
euraasia
euraasias
euro
euroala
euroga
euroopa
euroopas
euroopasse
euroopast
euroopat
eurooplased
eurooplaste
europa
europaea
europe
european
eurot
eurovision
eurovisiooni
eurovisioonil
eus
ev
eva
evakueeriti
evald
evaluation
evangeelium
evangeeliumi
evangeeliumis
evangeelne
evangeelse
evangelischen
evans
evar
eve
evelin
evelyn
even
evengi
event
events
ever
evert
everton
every
everything
evi
evidence
evil
evolution
evolutionary
evolutsioon
evolutsiooni
evr
evs
ew
ewald
ex
example
exchange
executive
exhibition
exp
expedition
experience
experiment
experimental
exploration
explorer
expo
exposure
express
expression
extended
extension
external
extra
extreme
ey
eye
eyes
ez
f
f0
f1
f2
f3
f4
f5
f6
f7
f8
f9
fa
faari
faas
faasi
faasis
faber
fabian
fabio
fabricius
face
facebook
facebooki
facebookis
fact
factbook
facto
factor
factors
factory
facts
faculty
fail
faile
faili
failid
failide
failure
fair
faith
faksiimileversioonis
fakt
fakte
fakti
faktid
faktide
faktiliselt
faktor
falco
falcon
falklandi
fall
falls
false
falunis
fame
family
famous
fan
fannid
fannide
fanny
fantaasia
fantasy
fao
faq
far
faraday
farm
farmaatsia
farmakoloog
farmakoloogia
farmi
fashion
faso
fassaad
fassaadi
fast
fat
father
fauna
faure
faust
fb
fbi
fc
fci
fd
fda
fe
fear
feat
feature
features
february
fed
federal
federation
federico
feel
feldmarssal
feliks
felipe
felix
fellow
female
feminism
feminist
femme
fenno
fenomen
fenomeni
ferdinand
ferdinandi
ferdinando
ferenc
ferguson
fermi
fernandez
fernando
ferrara
ferrari
fersen
festival
festivali
festivalidel
festivalil
fever
ff
fg
fh
fi
fia
fiat
fiction
fide
fideikomiss
fidzi
field
fields
fiemmes
fifa
fifth
figaro
fight
fighting
figure
figures
fikseeritud
filantroop
file
files
filharmoonia
filiaal
filiaali
filip
filipiinid
filipiinide
filipiinidel
filipp
filippo
film
filme
filmi
filmid
filmide
filmides
filmidest
filmifestival
filmifestivali
filmifestivalil
filmiga
filmikunsti
filmilavastaja
filmile
filmimuusika
filminaitleja
filmioperaator
filmiprodutsent
filmirezissoor
filmis
filmist
filmistuudio
filmiti
filmitud
filmiveeb
films
filoloog
filoloogia
filoloogiat
filosoof
filosoofi
filosoofia
filosoofiadoktori
filosoofiaentsuklopeedia
filosoofiale
filosoofias
filosoofiaseltsi
filosoofiast
filosoofiat
filosoofiateaduskonna
filosoofiateaduskonnas
filosoofid
filosoofide
filosoofiline
filosoofilise
filosoofilised
filosoofilisi
filosoofilist
filosoofiliste
filter
filtri
fin
finaal
finaali
finaalis
finaalturniiril
finaalturniirile
final
finance
financial
finants
find
finden
finder
fine
finland
finlandia
finn
finnish
finnmargi
fire
firenze
firenzes
firma
firmad
firmade
firmale
firmas
firn
first
fis
fischer
fish
fisher
five
fix
fj
fjodor
fjordi
fk
fl
flaami
flag
flags
flamengo
flandria
flash
flat
flavius
fleming
fletcher
fleur
fleury
flight
floor
floot
flora
florence
flores
florida
floridas
flos
flow
flower
floyd
fly
flying
fm
fn
fo
focus
foderaalne
foderaalse
foderatsioon
foderatsiooni
foiniikia
fokker
folk
folkloori
folklore
folklorist
folkloristika
following
fond
fondi
fondiloendis
font
fontaine
food
foogt
fookus
foorum
foot
football
footoni
for
forbes
force
forces
ford
fordi
foreign
forest
forever
forgiveness
form
formaadis
formaalne
formaalse
formaalselt
formaat
format
formation
formeeriti
former
forms
formula
forrest
forschungen
forseliuse
fort
forte
fortune
forum
forward
fosfor
fosfori
foster
foto
fotod
fotode
fotoentsuklopeedias
fotograaf
fotograafi
fotograafia
fotokogu
fotosid
fotosunteesi
fotot
foucault
found
foundation
foundations
four
fourier
fourth
fox
fp
fq
fr
fra
fraas
fraasi
fraasist
frac
fragmendid
fragment
fragmente
fraktsioon
fraktsiooni
frame
framework
fran
francais
francaise
france
frances
francesca
francesco
francis
francisco
franciscos
franciscus
franco
francois
francoise
frangi
frangid
frangimaa
frank
frankenstein
frankfurdi
frankfurdis
frankfurt
franki
frankide
frankie
franklin
franklini
frans
frantsisklaste
frantzen
franz
fraser
fraternitas
fred
freddie
frederic
frederick
frederik
fredrik
free
freedom
freeman
frege
freiburg
freiburgi
french
frequency
freud
freudi
frevent
frey
friedebert
friederike
friedman
friedrich
friedrichi
friend
friends
friisi
friisimaa
fritz
friuli
friuuli
from
fromhold
front
frontier
frost
fruit
fry
fs
fsb
ft
fu
fuel
full
fun
function
functional
functions
fund
fundamentals
funk
funktsionaalne
funktsionaalse
funktsioon
funktsioone
funktsiooni
funktsioonid
funktsioonide
funktsiooniks
fur
furstenberg
fusioloog
fusioloogia
fusion
future
fuuga
fuusik
fuusika
fuusikaauhind
fuusikaauhinna
fuusikaline
fuusikalise
fuusikalised
fuusikalisi
fuusikaliste
fuusikas
fuusikat
fuusiline
fuusilise
fuusilised
fuusiliselt
fuusilisest
fuusilisi
fuusilist
fuusiliste
fv
fw
fx
fy
fz
g
g0
g1
g2
g3
g4
g5
g6
g7
g8
g9
ga
gaas
gaasi
gaasid
gaaside
gabon
gaboni
gabor
gabriel
gabriela
gabriele
gabrieli
gaeli
gaetano
gaga
gagarini
gaia
gailit
gaius
gala
galaktika
galaktikate
galaxy
gale
galeegi
galerii
galeriis
galicia
galiitsia
galilei
galileo
galina
gallery
gallia
gallus
gama
gambia
game
games
gamma
gandhi
gang
gao
gap
garantii
garcia
garden
gardie
gardner
garmisch
garnison
garnisoni
garrett
garsnek
gary
gas
gaston
gate
gates
gattsina
gauja
gaulle
gaussi
gautengi
gay
gaz
gaza
gazeta
gazette
gazetteer
gazprom
gb
gbit
gc
gd
gdanski
gddr
ge
gear
gebietsstand
geen
geene
geeni
geenid
geenide
geenius
geforce
gegen
gegenwart
gei
gemeente
gemeinde
gemeinden
gemeindeverzeichnis
gemini
gen
gender
gene
genealogisches
genealoogia
genealoogilisest
geneetik
geneetika
geneetiline
geneetilise
geneetilised
geneetiliselt
geneetilist
geneetiliste
general
generaldirekcija
generation
generatsiooni
genes
genesis
genet
genetic
genetics
genf
genfi
genfis
geni
genitiiv
genius
gennadi
gennaio
genome
genoom
genoomi
genotsiidi
genova
gent
genus
geo
geoffrey
geograaf
geograafia
geograafiline
geograafilise
geograafilised
geograafiliselt
geograafilises
geographic
geographie
geographique
geographischer
geography
geokogude
geological
geology
geoloog
geoloogia
geoloogiline
geoloogilise
geoloogiliselt
geomeetria
geomeetriline
geomeetrilise
geonames
geoportaal
georg
george
georges
georgi
georgia
georgios
geotelpiskas
gerald
gerard
gerd
gerda
gerhard
gerli
germaani
germaanlaste
germain
german
germania
germany
gerrit
gert
gertrud
gertrude
geschichte
gesellschaft
gessner
get
gets
getter
geza
gf
gg
gh
ghana
ghanas
ghost
ghz
gi
giacomo
gian
gianni
giant
gibraltari
gibson
giclee
gideon
gil
gilbert
gildi
giles
gilles
ginkgo
giorgi
giorgio
giovanni
girard
girl
girls
girolamo
gis
github
giulia
giulio
giuseppe
give
givenchy
gj
gk
gks
gl
gland
glasgow
glass
glehni
glen
glenn
globaalne
globaalse
global
globe
glock
gloria
glory
glossary
gloucesteri
glukoosi
gm
gmbh
gn
gnaeus
gnu
go
goal
god
goes
goethe
gohelle
going
gold
golden
goldman
golf
golfi
gomes
gomez
gone
gonsiori
gonzalez
good
goodman
google
gooti
gootide
gora
goran
gorbatsov
gordon
gori
gorki
gorlitz
gosta
got
goteborg
goteborgi
goteborgis
gotha
gott
gottfried
gotthard
gottingen
gottingeni
gottlieb
gottlob
gouvernemens
gouy
gov
government
gp
gps
gpu
gq
gr
graaf
graafi
graafide
graafik
graafika
graafikat
graafiline
graafilise
grabbi
grace
graf
graham
grammar
grammatika
grammatiline
grammi
grammy
gran
granada
grand
grande
graniidist
graniit
grano
grant
granti
graphics
grass
grata
grave
gravitatsioon
gravitatsiooni
gray
great
greatest
greco
greece
greek
greeka
green
greene
greenwood
greg
gregor
gregorio
gregorius
gregoriuse
gregory
greifswaldi
grenada
grenader
grenoble
greta
grete
grey
grice
griffin
griffith
grigori
grimm
grobina
grooni
groonimaa
groonimaal
gross
ground
group
groupi
groups
grove
growth
groß
große
grunberg
grunthal
grupi
grupid
grupis
grupp
gruppe
gruppi
gruppide
gruusia
gruusias
gruyter
gs
gsm
gt
gtx
gu
guard
guardian
guatemala
guerra
guerre
guglielmo
guide
guido
guillaume
guillermo
guinea
guineas
guinnessi
guitar
gulbene
gulf
gumnaasium
gumnaasiumi
gumnaasiumile
gumnaasiumis
gun
gunnar
guns
gunter
gunther
guru
gustaf
gustav
gustave
gustavo
gustavson
gut
guy
guyana
gv
gw
gx
gy
gyorgy
gyula
gz
h
h0
h1
h2
h3
h4
h5
h6
h7
h8
h9
ha
haa
haab
haabersti
haabus
haad
haademeeste
haag
haagi
haagis
haak
haaks
haal
haaldatakse
haaldus
haale
haaled
haalega
haalekandja
haalel
haalele
haales
haaletada
haaletamise
haaletas
haaletasid
haaletuse
haaletusel
haali
haalik
haalt
haalte
haaltega
haaltest
haamer
haanja
haapsalu
haapsalus
haarab
haarama
haaranud
haaras
haarasid
haarata
haaratud
haarber
haas
haaslava
haav
haava
haavade
haavata
haavatud
habe
habemega
habet
habi
habicht
habras
habsburg
habsburgid
habsburgide
had
hada
hadaohtu
hadas
hadasti
hadavajalik
hadrianus
hagemeister
hagen
hageri
hagi
hahn
hai
haid
haige
haiged
haigekassa
haigeks
haigestumise
haigestunud
haigestus
haiget
haigete
haigla
haiglaravi
haiglas
haiglasse
haigus
haiguse
haigused
haigusega
haigusest
haigusi
haigust
haiguste
haimre
hain
hainaut
hair
haire
haired
haireid
hairete
hairida
hairitud
haiti
hajumine
hajusalt
hajutatud
hakanud
hakata
hakatakse
hakates
hakati
hakatud
hakka
hakkab
hakkad
hakkaks
hakkama
hakkame
hakkan
hakkas
hakkasid
hakkasin
hakkasiwad
hakkavad
hakkitud
hal
halastamatu
halb
halba
halbade
halbu
haldab
haldamine
haldamise
haldamiseks
haldas
haldjas
haldus
haldusalas
haldusalasse
halduse
haldusjaotus
haldusjaotuse
halduskeskus
halduskeskuseks
halduslikult
halduspiirides
halduspiirkonnas
haldusreformi
haldusreformini
haldusuksus
haldusuksuse
haldusuksused
haldusuksuste
hale
half
halinga
haljala
hall
hallap
hallas
hallata
halle
haller
hallermann
halli
hallid
hallik
hallikas
halliks
hallis
halliste
halo
halva
halvad
halvaks
halvas
halvasti
halvem
halvenes
halvustav
ham
hamarik
hamas
hamba
hambad
hambaid
hamburg
hamburgi
hamburgis
hame
hamid
hamilton
hamiltoni
hamlet
hammas
hammaste
hammastega
hammer
hampshire
hampton
han
hand
handbook
handbuch
handi
handle
hando
hands
hang
hani
hanila
hankida
hankis
hanko
hanna
hannah
hannes
hanni
hannibal
hanno
hannover
hannoveri
hannu
hans
hansa
hansen
hanso
hanson
hansson
hansu
hanto
hape
hapete
hapnik
hapnikku
hapniku
hapnikuga
happe
happeline
happy
hapu
har
hara
harald
hard
hardcore
hardi
hardo
hardware
hardy
hare
harg
harga
hargla
hargmae
hargneb
hari
harida
haridus
hariduse
haridusega
haridusele
hariduselt
haridusministeerium
haridusministeeriumi
haridusminister
haridusseltsi
haridust
haridustegelane
harilik
harilikku
hariliku
harilikul
harilikult
haripunkti
haritud
harja
harjad
harju
harjumaa
harjumaal
harjumaale
harjumus
harjunud
harjutada
harjutus
harkivi
harkovi
harku
harm
harma
harmoonia
harmooniline
harold
harper
harra
harrad
harrastas
harrastemaja
harri
harriet
harris
harrison
harry
hart
harta
hartknoch
hartmann
haru
harud
harude
haruldane
haruldase
haruldased
haruldasi
haruldaste
haruraamatukogu
harutee
harv
harva
harvard
harvardi
harvem
harvemini
harvey
harzi
has
hasan
hash
hassan
hasselblatt
hasso
hasti
hat
hau
haua
hauad
haual
hauaplats
haud
hauda
haudi
haug
haugi
hauptsturmfuhrer
haus
hauser
haut
haute
hauteville
havai
have
haven
havinenud
havines
having
havinud
havis
havisid
havitab
havitada
havitaja
havitama
havitamine
havitamise
havitamiseks
havitamist
havitanud
havitas
havitasid
havitati
havitatud
havrincourt
hawaii
haydn
hayes
hb
hc
hcl
hd
hdmi
he
hea
head
heade
headline
headus
headuse
heaks
heakskiidu
heakskiitu
heal
heale
healega
health
heameelega
heaolu
heart
heas
heast
heat
heather
heaven
heavy
hector
hedvig
hedw
hedwig
heebrea
heeliumi
hegel
hegeli
hei
heida
heidab
heidelberg
heidelbergi
heideti
heidetud
heidi
heidy
heiki
heikki
heiko
heili
heimtali
hein
heina
heinamaa
heinaste
heine
heini
heino
heinrich
heinrichi
heinrici
heinsalu
heinz
heisatakse
heisati
heita
heites
heiti
heitis
heitma
heitnud
heitsid
hektari
hektarit
held
helde
heldur
hele
heleda
heledad
heledam
heledus
heleduse
helen
helena
helene
helesinine
helga
helge
helgi
heli
helid
helide
helifailid
helikopter
helikorgus
helikorguse
helikunsti
helilooja
heliloojad
heliloojaid
heliloojate
heliloomingu
helin
helirea
helirezissoor
helirida
helisid
heliteose
helivaltus
heljo
helju
helk
hell
hella
hellamaa
hellat
helle
heller
hello
helm
helme
helmi
helmut
helmuth
help
helsingi
helsingin
helsingis
helsingisse
helsinki
heltermaa
helve
helvi
hemingway
hendecourt
henderson
hendrik
henin
henn
henning
henno
hennoste
henri
henriette
henrik
henriku
henry
henryk
her
hera
herakleitos
herakleitose
herakles
heraklese
herald
herbert
here
heritage
herlin
hermakula
herman
hermann
hermanni
hermaville
hermes
hermynia
hernandez
herne
hero
herodes
heroes
herr
herra
herschel
hertsegoviina
hertsegoviinas
hertsog
hertsogi
hertsogid
hertsogiks
hertsogile
hertsoginna
hertsogiriigi
hertsogiriik
hertsogite
hertsogkond
hertsogkonda
hertsogkonna
hertsogkonnad
hertsogkonnaks
hertsogkonnas
herzog
hess
hesse
hessen
hesseni
het
hetk
hetke
hetkega
hetkeks
hetkel
hetkest
hex
hf
hg
hh
hi
hidden
hierarhia
hieronymus
high
higher
highway
higi
hiid
hiie
hiiemae
hiiemagi
hiiglaslik
hiilgav
hiilgus
hiina
hiinas
hiinasse
hiinast
hiinlased
hiio
hiir
hiire
hiired
hiis
hiite
hiiu
hiiumaa
hiiumaal
hilaire
hilary
hilda
hildegard
hildesheimi
hiline
hilise
hilisem
hilisema
hilisemad
hilisemal
hilisemale
hilisemas
hilisemast
hilisemat
hilisemate
hilisematel
hilisemates
hilisohtul
hilja
hiljaks
hiljem
hiljemalt
hiljemini
hiljuti
hill
hillar
hillary
hille
hilli
hills
hilton
him
himaalaja
himma
himu
hind
hinda
hindab
hindade
hindama
hindamine
hindamise
hindamiseks
hindamisel
hindamist
hindas
hindasid
hindavad
hindi
hindrek
hindu
hing
hingamine
hingamise
hingamisel
hingamisteede
hingata
hinge
hinged
hingede
hingega
hingele
hinges
hingest
hinna
hinnad
hinnaga
hinnang
hinnangu
hinnangud
hinnanguid
hinnangul
hinnanguline
hinnanguliselt
hinnangut
hinnangute
hinnanud
hinnata
hinnatakse
hinnati
hinnatud
hinrikus
hint
hints
hip
hirm
hirmsa
hirmsasti
hirmu
hirmuga
hirmunud
hirmus
hirmust
hirsch
hirundo
hirv
his
hispaania
hispaaniale
hispaanias
hispaaniasse
hispaaniast
hispaaniat
hispaanlased
hispania
histoire
histoloogia
historia
historiae
historic
historical
historie
historischen
historisches
history
hit
hitler
hitleri
hits
hitt
hiv
hj
hjalmar
hk
hl
hlk
hm
hmelnotskoi
hms
hn
ho
hobe
hobeda
hobedane
hobedase
hobedast
hobedat
hobemedal
hobemedali
hobemedalit
hobemedalivoitjale
hoberubla
hobi
hobu
hobune
hobuse
hobused
hobusega
hobuseid
hobusel
hobust
hobuste
hoc
hockey
hockeydb
hof
hoffman
hoffmann
hofmann
hohenzollern
hoia
hoiab
hoiak
hoiaku
hoiakud
hoiakuid
hoiakute
hoiatas
hoiatus
hoiavad
hoida
hoides
hoidis
hoidja
hoidku
hoidma
hoidmine
hoidmise
hoidmiseks
hoidnud
hoidsid
hoiduda
hoiduma
hoim
hoimkond
hoimkonda
hoimu
hoimud
hoimude
hoitakse
hoiti
hoitud
hoiu
hoiuala
hoiule
hoivas
hoivasid
hoivata
hoivatud
hold
holders
holding
hole
holger
holland
hollandi
hollandikeelne
hollandis
hollandisse
hollandist
hollandlane
holly
hollywood
hollywoodi
holm
holma
holmab
holmas
holmasid
holmata
holmates
holmavad
holmes
holmesi
holmi
holmikpuu
holocaust
holokausti
holpsasti
holstein
holsteini
holstre
holy
home
homer
homerose
homieli
homme
hommik
hommiku
hommikuks
hommikul
hommikuse
hommikust
hommikuti
homo
honda
hondurase
hone
honey
hong
hongkong
hongkongi
hongkongis
honor
honore
honorius
hoo
hooaeg
hooaega
hooaegadel
hooaja
hooajaks
hooajal
hooajaline
hooajast
hoobi
hood
hooga
hoogu
hook
hooldaja
hooldajaopetaja
hoolde
hooldekodu
hooldus
hoole
hoolega
hooleks
hooli
hoolikalt
hoolimata
hoolinud
hoolitseb
hoolitseda
hoolitsema
hoolitses
hoolt
hoone
hooned
hooneid
hoonel
hoonele
hoones
hoonesse
hoonest
hoonestus
hoonet
hoonete
hoonetekompleks
hoonetel
hoonetes
hoonetest
hoop
hoopis
hoopiski
hoovi
hoovus
hop
hopa
hope
hopital
hopkins
hore
horeda
horedalt
horisondi
horisont
horisontaalne
horisontaalse
horisontaalselt
horizon
horn
horni
horschelmann
horse
horst
horvaadi
horvaatia
horvaatias
hospital
host
hot
hotel
hotell
hotelli
hotellis
hour
hours
house
housing
houston
how
howard
hoxha
hp
hq
hr
hradec
hrodna
hronika
hrsg
hrustsov
hs
hsbc
ht
htc
htk
htm
html
http
https
hu
huang
hub
hubble
huber
hubert
hubriid
hudroelektrijaam
hudroelektrijaama
hudson
hudsoni
huffington
hugh
hughes
hugo
hugues
hukata
hukati
hukatud
hukka
hukkasid
hukkub
hukkunud
hukkunuid
hukkunute
hukkus
hukkusid
hulga
hulgad
hulgaga
hulgal
hulgale
hulgaliselt
hulganisti
hulgas
hulgast
huljatud
hulk
hulka
hulkade
hull
hullem
hullu
hulluks
humal
humala
human
humanitaar
humanitaarabi
humanitaarteaduste
humans
humboldti
hume
hummuli
humn
humni
humorist
hundi
hundid
hungarian
hungary
hunt
hunter
hunti
hunyadi
hupata
hupe
hupel
hupotees
hupoteese
hupoteesi
huppas
huppe
hurda
hurt
hutt
huuab
huudis
huudma
huudnime
huudnimega
huudnimi
huuled
huulte
huumor
huumori
huutakse
huuti
huvasti
huve
huvi
huvid
huvide
huvidega
huvidele
huvides
huvidest
huviga
huvisid
huvita
huvitab
huvitama
huvitas
huvitatud
huvitav
huvitavad
huvitavaid
huvitavat
huvitus
hv
hw
hx
hy
hybrid
hyde
hyper
hyundai
hz
høeg
i
i0
i1
i2
i3
i4
i5
i6
i7
i8
i9
ia
iaaf
ialgi
ian
iata
ib
ibeeria
ibm
ibn
ibrahim
ibsen
ibu
ic
icao
ice
iceland
ich
id
ida
idaho
idakaldal
idamaade
idaosa
idaosas
idapoolne
idarannikul
idarindel
idas
idast
ide
idea
ideaal
ideaali
ideaalne
ideaalse
idealism
ideas
idee
ideed
ideede
ideedest
ideega
ideele
ideest
ideid
identification
identiteedi
identiteet
identiteeti
identity
identne
identsed
ideoloogia
idioot
ido
ie
iec
iedalijums
iedzivotaju
ieee
iela
if
ig
iga
igakord
igaks
igal
igale
igalt
iganes
igapaevaelu
igapaevaelus
igapaevane
igapaevase
igapaevaselt
igapaevases
igapaevast
igapidi
igas
igasse
igast
igasugu
igasugune
igasuguse
igasugused
igasuguseid
igasugust
igasuguste
igat
igatahes
igati
igatsus
igauhe
igauhel
igauhele
igauks
igav
igavene
igavese
igaveseks
igavest
igavesti
igga
igihaljas
ign
ignatius
igor
ih
iha
ihre
ihu
ii
iial
iialgi
iid
iidne
iidse
iii
iiri
iirimaa
iirimaal
iiris
iisaku
iisrael
iisraeli
iisraelis
iiveldus
ij
ik
ike
ikka
ikkagi
ikke
ikla
ikoon
ikooni
iks
ikt
il
ile
ilja
iljits
ill
illegaalse
illinois
illinoisi
illuka
illusioon
illustraator
illustrated
illustratsioonid
illustreerinud
illustreeris
illustreeritud
illuuria
ilm
ilma
ilmaga
ilmale
ilmalik
ilmalikku
ilmaliku
ilmalikud
ilmamaa
ilmar
ilmari
ilmas
ilmast
ilme
ilmet
ilmne
ilmneb
ilmnenud
ilmnes
ilmnevad
ilmselgelt
ilmselt
ilmsiks
ilmub
ilmuda
ilmuma
ilmumine
ilmumise
ilmumist
ilmunud
ilmus
ilmusid
ilmutab
ilmutas
ilmutuse
ilmuv
ilmuvad
ilo
ilona
ilse
ilt
ilu
ilukirjandus
ilukirjanduse
ilukirjandust
ilus
ilusa
ilusad
ilusaid
ilusaks
ilusal
ilusam
ilusasti
ilusat
ilusate
ilust
ilusti
iluuisutaja
ilves
ilvese
im
image
images
imaging
imavere
imbi
imdb
ime
imeks
imelik
imelikud
imelikult
imeline
imestades
imestas
imet
imetaja
imetajad
imetajate
imetajatel
imf
img
immanuel
immatrikuleeriti
immigrantide
immune
immunology
immuunsusteemi
impact
impeerium
impeeriumi
impeeriumis
imperatiiv
imperfektiivne
imperial
implications
import
importance
important
impulsi
impulss
imre
in
ina
inari
inc
including
indeks
indeksi
independence
independent
index
india
indiaani
indiaanlased
indiaanlaste
indian
indiana
indias
indiasse
indiast
indie
individuaalne
individuaalse
individuaalsed
individuaalselt
individual
indiviid
indiviidi
indiviidid
indiviidide
indiviiditi
indo
indoeuroopa
indoneesia
indoneesias
indonesia
indrek
indreku
indrekul
indrekule
indrika
induced
induktsiooni
induse
industrial
industries
industry
indutseeritud
ines
inetu
infarkti
infection
infektsiooni
inflatsioon
inflatsiooni
influence
info
infokeskus
infoleht
inforegister
informaatika
informacijas
information
informatsioon
informatsiooni
infosusteem
infosusteemi
infosusteemide
infosusteemis
infot
infotehnoloogia
infovastupanu
infrastruktuur
infrastruktuuri
infty
ing
inga
inge
ingeborg
ingel
ingeri
ingerimaa
ingerimaal
ingl
inglane
inglased
inglaste
inglid
inglise
ingliskeelne
ingliskeelse
ingliskeelses
ingliskeelsest
ingliskeelset
inglismaa
inglismaal
inglismaale
inglismaalt
inglite
ingmar
ingo
ingrid
ingusi
ingvar
inhaber
ini
inimarengu
inimelu
inimene
inimese
inimesed
inimesega
inimeseks
inimesel
inimesele
inimeselt
inimesena
inimeseni
inimeses
inimesest
inimesi
inimest
inimeste
inimestega
inimestel
inimestele
inimestelt
inimestes
inimestest
inimkeha
inimkond
inimkonna
inimlik
inimliku
inimoiguste
inimtegevuse
initiative
initsiatiivi
initsiatiivil
inna
inni
innocent
innocentius
innovation
innovatsiooni
innsbruck
innsbrucki
innsbruckis
innukalt
inquiry
inreko
ins
insener
inseneri
insenerid
inseneride
insenerina
inside
insider
inspekcija
inspektor
inspiratsiooni
inspireeris
inspireeritud
institut
institutas
institute
institution
institutsioon
institutsiooni
institutsioonid
institutsioonide
instituudi
instituudis
instituut
instituuti
instruktor
instrument
instrumentaal
instrumentide
instruments
insurance
int
integrated
integration
integratsiooni
integreeritud
intel
inteli
intellektuaalne
intellektuaalse
intelligence
intelligentne
intelligentsuse
intensiivne
intensiivse
intensiivselt
intensiivsus
intensiivsuse
intensiivsusega
intensiivsust
inter
interaction
interactions
interactive
interaktiivne
interaktsiooni
interest
interface
interjoor
interjoori
interlingua
internal
international
internationale
internatsionaali
internazionale
internet
interneti
internetis
internetist
internetti
interpretation
interstate
intervall
interview
intervjuu
intervjuud
intervjuus
into
intressi
introduction
introdutseeriti
invasioon
invasiooni
invest
investeeringud
investeeringuid
investeeringute
investigation
investor
io
ion
ioon
ioone
iooni
ioonid
ioonide
ios
iowa
ip
ipa
ipad
ipasi
iphone
ipod
ipv
iq
ir
ira
iraagi
iraagis
iraak
iraan
iraani
iraanis
iran
iraq
irboska
ird
ireland
irene
irina
iris
irish
irja
irkutski
irl
irma
iron
iroonia
iru
irv
irving
irwin
is
isa
isaac
isaak
isabel
isabella
isabelle
isad
isade
isaga
isaks
isal
isale
isalt
isamaa
isamaasoja
isand
isanda
isandad
isandate
isane
isapoolne
isased
isaslind
isast
isaste
isastel
isbn
ise
isearalikku
isearanis
iseenda
iseendaga
iseendale
iseendast
iseenese
iseeneses
iseenesest
iseennast
isegi
isekeskis
iseloom
iseloomu
iseloomuga
iseloomulik
iseloomulikke
iseloomulikku
iseloomuliku
iseloomulikud
iseloomulikuks
iseloomust
iseloomustab
iseloomustada
iseloomustas
iseloomustatakse
iseloomustav
iseloomustavad
isend
isendeid
isendi
isendid
isendit
isendite
iseseisev
iseseisva
iseseisvad
iseseisvaks
iseseisvalt
iseseisvat
iseseisvate
iseseisvumise
iseseisvumist
iseseisvus
iseseisvuse
iseseisvuspartei
iseseisvust
isi
isik
isikkoosseisu
isiklik
isiklike
isiklikke
isiklikku
isikliku
isiklikud
isiklikuks
isiklikult
isiksus
isiksuse
isiku
isikuandmete
isikud
isikuga
isikuid
isikuks
isikul
isikule
isikunaitus
isikus
isikust
isikut
isikute
isikutel
isikutele
isikutest
isis
islam
islami
islamic
islamiliikumise
islamiriik
island
islandi
islandil
islands
isle
iso
isolatsiooni
isoleeritud
israel
israeli
iss
issand
issanda
isse
issi
issn
issue
issues
ist
istet
istria
istu
istub
istuda
istudes
istuma
istun
istung
istungi
istungil
istungjark
istunud
istus
istusid
istutada
istutati
istutatud
istuvad
istvan
isu
isuri
it
ita
itaalia
itaaliale
itaalias
itaaliasse
itaaliast
itaaliat
itaallane
itaallased
italia
italian
italiana
italiane
italy
item
itemid
itis
its
itta
itunes
iu
iucn
iucni
iuris
ius
iv
iva
ivan
ivanhoe
ivanov
ivanova
ivanovits
ivanovna
ivanovo
ivar
ivari
ivask
ivergny
ivi
ivo
iw
iwan
ix
iy
iz
izel
j
j0
j1
j2
j3
j4
j5
j6
j7
j8
j9
ja
jaa
jaaaja
jaab
jaad
jaada
jaadavalt
jaades
jaadi
jaadvustada
jaadvustatud
jaager
jaago
jaagu
jaagup
jaagupi
jaahoki
jaahokikoondise
jaahokimangija
jaak
jaakaru
jaakko
jaaks
jaaksid
jaakson
jaal
jaam
jaama
jaamahoone
jaamas
jaamast
jaamist
jaan
jaana
jaani
jaanika
jaanilinna
jaanis
jaanson
jaanuar
jaanuari
jaanuaril
jaanuarini
jaanuaris
jaanuarist
jaanud
jaanus
jaanused
jaanuseid
jaapan
jaapani
jaapanis
jaapanisse
jaapanist
jaapanlased
jaapanlaste
jaatmed
jaatmeid
jaatmete
jaav
jaava
jaavad
jaavat
jaavuse
jack
jackie
jackson
jacksoni
jacob
jacques
jada
jaetakse
jaeti
jaetud
jaga
jagab
jagada
jagades
jagala
jagama
jagamine
jagamise
jagamisega
jagamisel
jagamist
jaganud
jagas
jagasid
jagatakse
jagati
jagatud
jagavad
jagu
jaguneb
jagunemine
jagunemist
jagunenud
jagunes
jagunesid
jagunevad
jah
jahe
jahho
jahi
jahil
jahimees
jahr
jahrbuch
jahre
jahrhundert
jahrhunderts
jaht
jahti
jahtklubi
jahu
jai
jaid
jaigi
jaik
jaime
jain
jaiwad
jak
jake
jakob
jakobi
jakobson
jakobsoni
jakov
jakovlev
jaksa
jakub
jakuudi
jakuutia
jala
jalad
jalaga
jalakaijate
jalakas
jalal
jalale
jalamil
jalas
jalast
jalavae
jalavaediviis
jalavaediviisi
jalavaekindral
jalavaepataljon
jalavaepataljoni
jalavaepolgu
jalavaepolk
jalavaerugemendi
jalg
jalga
jalgade
jalgadega
jalgadel
jalge
jalgedes
jalgi
jalgib
jalgida
jalgides
jalgima
jalgimine
jalgimise
jalgimiseks
jalgis
jalgitakse
jalgpall
jalgpalli
jalgpalliklubi
jalgpalliklubide
jalgpallikoondis
jalgpallikoondise
jalgpallikoondisega
jalgpallikoondisele
jalgpallikoondises
jalgpallikoondislaste
jalgpalliliidu
jalgpalliliit
jalgpallis
jalgpallistaadion
jalgpallitreener
jalgpalliturniiril
jalgpallur
jalgpalluriks
jalgratta
jalgrattur
jalgsi
jalgu
jalitama
jalitussoidus
jalje
jaljed
jaljendada
jalle
jallegi
jalule
jam
jama
jamaica
jamaja
jamburgi
jame
james
jamesi
jamie
jan
jana
janar
jane
janeda
janeiro
janeiros
janek
janes
janese
janet
janika
janis
janne
janno
jannsen
jannseni
janos
jansen
janson
janu
januar
januari
january
janus
janusz
jao
jaoks
jaolt
jaoskond
jaoskonna
jaotada
jaotamine
jaotatakse
jaotati
jaotatud
jaotub
jaotunud
jaotus
jaotuse
jaotust
jaotuvad
japan
japanese
jardi
jarel
jareldada
jareldas
jareldu
jareldub
jareldus
jarelduse
jareldused
jareldusele
jareldusi
jarele
jarelejaanud
jarelevalve
jarelevalvet
jarelikult
jarelliitega
jarelsona
jareltulija
jareltulijad
jareltulijate
jarg
jargi
jargib
jargida
jargides
jargijad
jargima
jargimine
jargis
jargivad
jarglane
jarglase
jarglased
jarglaseks
jarglasi
jarglaste
jargmine
jargmise
jargmised
jargmiseks
jargmisel
jargmisele
jargmiselt
jargmisena
jargmises
jargmisest
jargmisi
jargmist
jargmiste
jargmisteks
jargmistel
jargmistele
jargmistes
jargmistest
jargneb
jargnenud
jargnes
jargnesid
jargnev
jargneva
jargnevad
jargneval
jargnevalt
jargnevas
jargnevat
jargnevate
jargnevatel
jargselt
jargu
jargult
jari
jarjekindlalt
jarjekord
jarjekorda
jarjekordne
jarjekordse
jarjekorra
jarjekorras
jarjel
jarjenumbriga
jarjepidevalt
jarjepidevuse
jarjest
jarjestatud
jarjestikku
jarjestus
jarjestuse
jarjestuses
jarjestust
jark
jarku
jarl
jarmo
jaroslav
jaroslavli
jarrel
jarsk
jarsku
jarsu
jarsud
jarsult
jarv
jarva
jarvakandi
jarvamaa
jarvamaal
jarve
jarved
jarvede
jarvedes
jarvega
jarvel
jarvelaid
jarvele
jarves
jarvest
jarvi
jarvis
jarwe
jaska
jason
jasper
jata
jatab
jatan
jatavad
jatk
jatkab
jatkama
jatkamiseks
jatkas
jatkasid
jatkata
jatkates
jatkati
jatkavad
jatke
jatku
jatkub
jatkuks
jatkunud
jatkus
jatkusid
jatkusuutlik
jatkusuutliku
jatkuvalt
jatma
jatmine
jatmise
jatnud
jatsid
jatta
jattes
jattis
java
javier
jay
jazz
jb
jc
jd
je
jean
jeanne
jeemeni
jeesus
jeesuse
jeesust
jeff
jefferson
jeffersoni
jeffrey
jegor
jehoova
jekaterina
jelena
jelgava
jelizaveta
jeltsin
jeltsini
jena
jenissei
jennifer
jenny
jens
jensen
jeremy
jerevani
jerome
jerry
jersey
jerusalem
jeruusalemm
jeruusalemma
jeruusalemmas
jerzy
jesmin
jesper
jesse
jessica
jesuiidid
jesuiitide
jesus
jet
jevgeni
jewish
jf
jg
jh
ji
jiang
jidisi
jill
jim
jimi
jimmy
jin
jiri
jit
jj
jk
jl
jm
jms
jmt
jn
jne
jo
joa
joachim
joakim
joala
joan
joann
joanna
joao
joaquin
job
jobs
joe
joed
joega
joeks
joel
joelahtme
joele
joeni
joensuu
joereisilaev
joeruut
joes
joesaar
joest
joesuu
joesuus
joey
joge
jogede
jogedes
jogesid
jogeva
jogeval
jogevamaa
jogevamaal
jogi
jogisoo
johan
johani
johann
johanna
johannes
johannese
johanni
johansen
johanson
johansson
john
johni
johnny
johns
johnson
johnsoni
johvi
johvis
joi
join
joint
jokke
joks
jon
jonas
jonathan
jones
jonesi
jong
jonn
jonsson
joo
joob
joobnud
joodi
jooga
joogi
jook
jooke
jooki
jookide
jooks
jookse
jookseb
jooksevad
jooksid
jooksis
jooksja
jooksma
jooksnud
jooksu
jooksul
jooksus
jooma
joomine
joon
joonas
joone
jooned
joonega
joonel
joonele
jooni
joonia
joonis
joonisel
joonisfilm
joonistada
joonistamise
joonistas
joonistatud
joonistus
joonistused
joonistusi
joont
joonte
joonud
joosep
joosepi
joost
joosta
joostes
jordaania
jordan
jordani
jorg
jorge
jorma
jose
josef
joseph
josephi
josephine
josh
joshua
josip
jossif
jostson
jou
joua
jouab
jouaks
jouame
jouavad
joud
jouda
joude
joudes
joudis
joudlus
joudluse
joudlust
joudma
joudmine
joudmiseks
joudmist
joudnud
joudsalt
joudsid
joudsin
joudsiwad
joudu
joudude
joududega
jouga
joukas
jouks
joukuse
joul
joule
jouline
jouliselt
joulu
joulud
joulude
joulupuu
jour
journal
journey
jousse
joust
joustunud
joustus
joutakse
jouti
joutud
joy
joyce
joyner
jozef
jp
jpg
jpl
jpm
jpt
jq
jr
js
jstor
jt
ju
juan
juba
jube
judaismi
judith
judo
judy
juga
jugla
jugoslaavia
jugoslaavias
juh
juha
juhan
juhani
juhanson
juhatab
juhataja
juhatajaks
juhatajana
juhatanud
juhatas
juhatus
juhatuse
juhatusel
juhatuses
juhatusse
juhend
juhendaja
juhendajad
juhendamisel
juhendanud
juhendas
juhi
juhib
juhid
juhiks
juhile
juhina
juhised
juhiseid
juhitakse
juhitav
juhitava
juhitaval
juhiti
juhitud
juhivad
juhkentali
juho
juht
juhte
juhti
juhtida
juhtide
juhtides
juhtima
juhtimine
juhtimise
juhtimisega
juhtimiseks
juhtimisel
juhtimises
juhtimist
juhtinud
juhtis
juhtisid
juhtiv
juhtiva
juhtivad
juhtivaid
juhtivaks
juhtivate
juhtkond
juhtkonna
juhtu
juhtub
juhtuda
juhtudel
juhtudest
juhtum
juhtuma
juhtumeid
juhtumi
juhtumid
juhtumil
juhtumised
juhtumisi
juhtumist
juhtumit
juhtumite
juhtunud
juhtus
juhuks
juhul
juhus
juhuse
juhuslik
juhusliku
juhuslikud
juhuslikult
juice
jukka
juku
jul
jules
julge
julged
julgelt
julgenud
julgeolek
julgeoleku
julgeolekunoukogu
julgeolekupolitsei
julgeolekuteenistuse
julges
julgus
julguse
julgust
julgustas
julia
julian
juliana
juliane
julie
julien
juliette
julija
julio
julius
juliuse
julm
julma
july
jumal
jumala
jumalad
jumalaema
jumalaga
jumalaid
jumalale
jumalanna
jumalasse
jumalast
jumalat
jumalate
jumalateenistus
jumalateenistuse
jumalateenistused
jumalateenistusi
jumalatele
jumalik
jumalikku
jumaliku
jumalus
jumaluse
jumava
jump
jun
june
jung
junior
juno
juozas
jupiter
jupiteri
jure
jurgen
jurgens
jurgenson
juri
juridica
juriidiline
juriidilise
juriidiliselt
jurioo
juris
jurisalu
jurisdiktsiooni
jurisson
jurist
juristi
juristina
jurjo
jurka
juske
juss
jussi
just
justice
justiitsministeerium
justiitsministeeriumi
justiitsminister
justin
justinianus
justinianuse
justkui
justus
juta
jutlus
jutluse
jutlust
jutlustaja
jutt
jutte
juttu
jutu
jutud
jutule
jutustab
jutustada
jutustaja
jutustas
jutustus
jutustuse
jutustused
jutustusi
juua
juubel
juubeli
juubelit
juuda
juudas
juudi
juudid
juudit
juuksed
juukseid
juula
juuli
juulil
juulini
juulis
juulist
juuni
juunil
juunini
juunior
juunioride
juunis
juunist
juur
juura
juurde
juurdeehitis
juurdepaas
juurdepaasu
juurdunud
juure
juured
juures
juuresolekul
juurest
juuri
juurte
juurtega
juuru
juust
juuste
juustega
juustu
juut
juute
juuti
juutide
juutimaa
juventus
jv
jw
jx
jy
jyvaskyla
jz
k
k0
k1
k2
k3
k4
k5
k6
k7
k8
k9
ka
kaabel
kaabli
kaabus
kaader
kaadri
kaagjarve
kaal
kaalep
kaali
kaaliumi
kaalu
kaalub
kaaluda
kaaluga
kaaluma
kaalus
kaalutlustel
kaalutud
kaaluvad
kaamera
kaandes
kaane
kaapa
kaar
kaardi
kaardid
kaardil
kaardile
kaardirakendused
kaardistamine
kaardivae
kaare
kaarel
kaaren
kaarepere
kaari
kaarik
kaarina
kaarli
kaarma
kaart
kaarte
kaarti
kaartide
kaartidel
kaas
kaasa
kaasaarvatud
kaasabil
kaasaegne
kaasaegse
kaasaegsed
kaasaegses
kaasaegset
kaasaegsete
kaasaja
kaasajal
kaasamine
kaasani
kaasas
kaasasundinud
kaasasutaja
kaasata
kaasati
kaasatud
kaasautor
kaasautorid
kaasik
kaasiku
kaaslane
kaaslase
kaaslased
kaaslast
kaaslaste
kaaslastega
kaasneb
kaasneda
kaasnenud
kaasnes
kaasnev
kaasnevad
kaastood
kaastooline
kaastunnet
kaasvalitseja
kabala
kabardi
kabe
kabel
kabeli
kabelid
kabelis
kabelit
kabes
kabetaja
kabi
kabid
kabin
kabinet
kabineti
kabuli
kadaka
kadakas
kadarik
kadastik
kade
kadedus
kadi
kadri
kadrina
kadrioru
kadriorus
kadu
kaduda
kaduma
kadumine
kadumise
kadumist
kadunud
kadunuks
kadus
kadusid
kae
kaebas
kaebuse
kaebusi
kaebuste
kaed
kaega
kael
kaela
kaelas
kaelast
kaele
kaeparast
kaer
kaera
kaerdi
kaes
kaesolev
kaesoleva
kaesoleval
kaesolevas
kaest
kaetakse
kaeti
kaetud
kaev
kaevandamine
kaevandamise
kaevandatakse
kaevandus
kaevanduse
kaevata
kaevati
kaevatud
kaevu
kafka
kagu
kaguosa
kaguosas
kagus
kagusse
kah
kahala
kahaneb
kahanenud
kahanes
kahar
kahasse
kahe
kaheaastane
kaheaastase
kahekesi
kahekordne
kahekordse
kahekorruseline
kaheks
kaheksa
kaheksaks
kaheksanda
kaheksandikfinaalis
kaheksapaadil
kaheksas
kaheksast
kaheksat
kaheksateist
kahekumne
kahel
kahelda
kahele
kahepaadil
kahepaevane
kahepaevast
kahes
kahest
kaheteistkumne
kahetses
kahetsus
kahetsust
kahevoistleja
kahevoistluses
kahju
kahjuks
kahjulik
kahjulikud
kahjustab
kahjustada
kahjustatud
kahjustavad
kahjustus
kahjustused
kahjustusi
kahjustuste
kahjutuks
kahku
kahn
kaht
kahte
kahtlane
kahtlema
kahtlemata
kahtlus
kahtluse
kahtlused
kahtlusi
kahtlust
kahtlustatakse
kahtlustati
kahur
kahuri
kahuriga
kahurit
kahvatu
kai
kaia
kaiakse
kaib
kaibel
kaibele
kaid
kaidi
kaido
kaidud
kaie
kaies
kaigu
kaigud
kaigus
kaija
kaik
kaiku
kaima
kaimas
kaimine
kain
kaina
kaine
kainud
kaire
kairi
kairo
kairos
kais
kaisa
kaiser
kaisid
kaisin
kaisiwad
kaisma
kaitse
kaitseala
kaitsealade
kaitsealal
kaitsealune
kaitseb
kaitsejoudude
kaitsekategooriasse
kaitseks
kaitsel
kaitsele
kaitseliidu
kaitseliit
kaitseministeerium
kaitseministeeriumi
kaitseminister
kaitseministri
kaitseministriks
kaitsepolitsei
kaitseregistrisse
kaitses
kaitseseisukorra
kaitsesid
kaitset
kaitsev
kaitsevad
kaitsevae
kaitsevaes
kaitsevagede
kaitsevagi
kaitsja
kaitsjad
kaitsjana
kaitsjate
kaitsma
kaitsmine
kaitsmise
kaitsmiseks
kaitsmisel
kaitsmist
kaitsnud
kaitsta
kaitstakse
kaitstes
kaitstud
kaitsva
kaitub
kaituda
kaituma
kaitumine
kaitumise
kaitumisega
kaitumisele
kaitumises
kaitumisest
kaitumist
kaituvad
kaiu
kaivad
kaive
kaivitada
kaivitas
kaivitati
kaja
kajakas
kajastab
kajastas
kajastatud
kajastavad
kajastub
kaks
kaksikud
kakskummend
kakssada
kaksteist
kakumae
kala
kalad
kalade
kaladest
kalamaja
kalamees
kalapuuk
kalda
kaldad
kaldajoone
kaldal
kaldale
kaldalt
kaldoja
kaldu
kaldub
kaldus
kalduvad
kalduvus
kalender
kalendri
kalendris
kalev
kaleva
kalevala
kalevi
kalevipoeg
kalevipoja
kalevite
kali
kalifaadi
kaliibriga
kaliif
kaliningradi
kalinini
kaljo
kalju
kaljulaid
kaljundi
kaljurand
kaljuste
kalkun
kall
kalla
kallal
kallale
kallas
kallase
kallasmaa
kallast
kallaste
kallastel
kalle
kalli
kallid
kalliks
kallim
kallio
kallis
kallist
kalm
kalman
kalmari
kalme
kalmer
kalmet
kalmistu
kalmistud
kalmistul
kalmistule
kalmistut
kalmistute
kalmoki
kalmu
kalmus
kaltsiumi
kalu
kaluga
kalur
kaluri
kalurite
kalvi
kama
kamber
kambja
kambodza
kambodzas
kambri
kambris
kambrisse
kamerun
kameruni
kammerharra
kammerkoor
kammkeraamika
kampaania
kampaanias
kampaaniat
kamtsatka
kan
kana
kanaari
kanad
kanada
kanadas
kanadasse
kanal
kanaleid
kanali
kanalid
kanalil
kanalis
kanalit
kanalite
kand
kanda
kandava
kandes
kandev
kandevoime
kandidaadi
kandidaadid
kandidaadiks
kandidaadina
kandidaadivaitekirja
kandidaat
kandidaate
kandidaati
kandidaatide
kandidatuuri
kandideerib
kandideerida
kandideerinud
kandideeris
kandideerisid
kandis
kandja
kandjad
kandle
kandma
kandmine
kandmise
kandmiseks
kandnud
kandseente
kandsid
kandub
kandus
kandva
kane
kanep
kanepi
kang
kanga
kangas
kangast
kange
kangelane
kangelase
kangelased
kangelaste
kangesti
kangilaski
kangro
kangur
kann
kanna
kannab
kannada
kannata
kannatab
kannatada
kannatama
kannatanu
kannatanud
kannatas
kannatasid
kannatavad
kannatus
kannatuse
kannatused
kannatusi
kannatust
kannatuste
kannavad
kannel
kannike
kannu
kannud
kannul
kansas
kansase
kant
kantaat
kantakse
kanti
kanton
kantoni
kantonis
kantrilaulja
kants
kantsel
kantselei
kantsi
kantsler
kantsleri
kantud
kanu
kanuti
kao
kaob
kaoks
kaos
kaotab
kaotada
kaotades
kaotama
kaotamine
kaotamise
kaotamist
kaotanud
kaotas
kaotasid
kaotati
kaotatud
kaotavad
kaotsi
kaotus
kaotuse
kaotused
kaotusega
kaotusi
kaotust
kaovad
kapa
kapi
kapimaa
kapital
kapitali
kapitalismi
kaplan
kaplinski
kapp
kappa
kapten
kapteni
kapteniks
kara
karabahhi
karate
karatsai
karbes
karbeskaalus
karbseseen
karda
kardab
kardan
kardavad
kardeti
kardinal
kardinali
kardinalid
kardinalide
kardinaliks
kardinalpreester
kardla
kardlas
kare
kareda
karel
karelson
karen
karepa
kareva
karevere
kargas
kari
kariibi
karika
karikas
karikasarja
karikat
karikaturist
karikatuure
karikatuurid
karikavoistlused
karikavoistluste
karikavoistlustel
karin
karis
karistada
karistas
karistati
kariste
karistus
karistuse
karistused
karistuseks
karistust
karja
karjaar
karjaari
karjaarist
karjala
karjalas
karjamaa
karjamois
karjamoisa
karjane
karjas
karjub
karjuma
karjus
kark
karkna
karksi
karl
karla
karli
karlis
karlova
karlovy
karlsson
karm
karma
karmas
karmi
karmid
karmilt
karmo
karner
karnteni
karol
karolingide
karp
karro
kars
karsa
karstiala
karstna
kart
karta
kartaago
kartes
kartis
kartma
kartnud
kartograaf
kartsid
kartul
kartuleid
kartuli
kartus
karu
karud
karuks
karula
karuse
karusoo
karv
karva
karvad
karvadega
karvane
karvased
karvkate
kas
kasahhi
kasahstan
kasahstani
kasahstanis
kasak
kasakad
kasakate
kasari
kase
kasemaa
kasemets
kasepaa
kasi
kasib
kasiino
kasik
kasikaes
kasikiri
kasikirja
kasikirjade
kasikirjas
kasile
kasimir
kasiraamat
kasiraamatust
kasitleb
kasitleda
kasitlenud
kasitles
kasitlesid
kasitletakse
kasitleti
kasitletud
kasitlev
kasitleva
kasitlevad
kasitlus
kasitluse
kasitluses
kasitoo
kasitooliste
kasitsi
kask
kaske
kaskinud
kaskis
kaskkiri
kaskkirjaga
kasku
kaskude
kasmu
kaspar
kasper
kaspia
kass
kassari
kasse
kasseli
kassi
kassid
kasside
kast
kasta
kastani
kaste
kasti
kastiilia
kastre
kasu
kasud
kasuga
kasuisa
kasukas
kasuks
kasul
kasulik
kasulikku
kasuliku
kasulikud
kasulikuks
kasulikum
kasum
kasumi
kasumit
kasuta
kasutab
kasutada
kasutades
kasutaja
kasutajad
kasutajaid
kasutajal
kasutajale
kasutajaliides
kasutajaliidese
kasutajat
kasutajate
kasutajatel
kasutajatele
kasutama
kasutamata
kasutamine
kasutamise
kasutamisega
kasutamiseks
kasutamisel
kasutamisele
kasutamises
kasutamisest
kasutamist
kasutanud
kasutas
kasutasid
kasutata
kasutatakse
kasutatav
kasutatava
kasutatavad
kasutatavaid
kasutatavat
kasutatavate
kasutati
kasutatud
kasutav
kasutavad
kasutegur
kasutus
kasutuse
kasutusel
kasutusele
kasutuselevott
kasutuselevottu
kasutuses
kasutusest
kasutusse
kasutust
kasuubi
kasv
kasva
kasvab
kasvada
kasvades
kasvaja
kasvajad
kasvajate
kasvama
kasvamas
kasvamise
kasvanud
kasvas
kasvasid
kasvatab
kasvatada
kasvataja
kasvatama
kasvatamine
kasvatamise
kasvatamiseks
kasvatanud
kasvatas
kasvatasid
kasvatatakse
kasvatati
kasvatatud
kasvatus
kasvatuse
kasvav
kasvava
kasvavad
kasvavat
kasvavate
kasvoi
kasvu
kasvuga
kasvuks
kasvule
kat
kata
katab
katalaani
kataloog
kataloogi
kataloogis
kataloonia
katari
katariina
katarina
katastroof
katastroofi
katavad
kate
katedraal
katedraali
katedraalis
kateeder
kateedri
kateedris
katega
kategooria
kategooriad
kategoorias
kategooriasse
kategooriat
kategooriate
katel
katerina
kates
katharina
katherine
kathleen
kati
katie
katja
katk
katkeb
katkematu
katkend
katkenud
katkes
katkesid
katkestada
katkestama
katkestas
katkestati
katki
katku
katla
katlamaja
katlin
katma
katmiseks
katoliiklane
katoliiklased
katoliiklaste
katoliiklik
katoliikliku
katoliku
katre
katri
katrin
katrina
katse
katsed
katseid
katsel
katses
katset
katsetada
katsetas
katsetati
katsete
katsetes
katsetused
katsid
katsu
katsub
katsuda
katsuma
katsunud
katsus
katt
katta
katte
katteks
kattemaks
kattemaksu
kattemaksuks
kattesaadav
kattesaadavad
kattesaadavaks
kattesaadavus
kattev
kattis
kattub
kattuvad
katus
katuse
katusega
katusel
katusele
kaua
kauaaegne
kauaaegse
kauaks
kauba
kaubad
kaubamaja
kaubamargi
kaubamark
kaubandus
kaubanduse
kaubanduses
kaubanduskeskus
kaubanduskeskuse
kaubandust
kaubatee
kaubelda
kaubeldi
kaudne
kaudselt
kaudu
kauem
kauemaks
kaug
kauge
kaugel
kaugele
kaugelt
kaugeltki
kaugemal
kaugemale
kaugete
kaugoppes
kaugus
kauguse
kaugusel
kaugusele
kauguselt
kaugushuppes
kaugust
kaukaasia
kaukaasias
kauksi
kaunas
kaunase
kaunases
kauni
kaunid
kaunis
kaunist
kaunistatud
kaunistavad
kaunite
kauno
kaup
kaupa
kaupade
kauplemine
kauplemise
kauplus
kaupluse
kauplused
kaupmees
kaupmeeste
kaupmehe
kaupmehed
kaupo
kaupu
kaupunkien
kaur
kaus
kausi
kava
kaval
kavaler
kavalerid
kavaleride
kavand
kavandas
kavandati
kavandatud
kavandi
kavas
kavastu
kavatse
kavatseb
kavatses
kavatseti
kavatsus
kavatsuse
kavatsusest
kavatsust
kaver
kavilda
kay
kazimierz
kb
kc
kd
ke
keava
keda
kedagi
keeda
keedetakse
keedetud
keegi
keel
keelab
keelanud
keelas
keelata
keelati
keelatud
keeld
keelde
keeldu
keeldub
keelduda
keeldunud
keeldus
keeldusid
keele
keeled
keelega
keeleks
keelel
keelele
keeleline
keelena
keeles
keelest
keeleteadlane
keeleteadus
keeleteaduse
keeleteaduses
keeletoimetaja
keeleversioon
keeli
keelkonda
keelkonna
keelt
keelte
keeltega
keeltele
keeltes
keeltesse
keeltest
keelu
keelustas
keelustati
keema
keemia
keemias
keemiat
keemiatoostuse
keemik
keemiline
keemilise
keemilised
keemiliselt
keemilisi
keemilist
keemiliste
keenia
keenias
keenud
keep
keerab
keeras
keerata
keeruka
keerukas
keerukus
keeruline
keerulise
keerulised
keeruliseks
keerulisem
keerulisemaks
keerulisi
keeruliste
kees
keeta
keha
kehad
kehade
kehaga
kehakaalus
kehakultuuri
kehakultuuriteaduskonna
kehal
kehale
kehaline
kehalise
kehaosa
kehas
kehasse
kehast
kehastab
kehastas
kehastus
kehra
kehtestab
kehtestada
kehtestamine
kehtestamise
kehtestamist
kehtestas
kehtestati
kehtestatud
kehtetuks
kehti
kehtib
kehtima
kehtinud
kehtis
kehtiv
kehtiva
kehtivad
kehtivuse
kehtna
kehv
kehva
keik
keila
keilas
keiser
keiserlik
keiserliku
keisri
keisrid
keisriks
keisrile
keisrilt
keisrinna
keisririigi
keisririigiga
keisririigile
keisririigis
keisririik
keisririiki
keisrit
keisrite
keit
keith
keizer
kek
kekkonen
kel
kelder
keldi
keldri
keldris
kell
kella
kellad
kellatorn
kelle
kellega
kellegagi
kellegi
kelleks
kellel
kellele
kellelegi
kellelgi
kellelt
kelleltki
kellena
keller
kellest
kelli
kelly
kelm
kemikaalide
ken
kena
kenad
kenasti
kender
kennedy
kenneth
kenny
kent
kenti
kentucky
kepi
kepler
kepleri
kepp
kera
keraamik
keraamika
keraamikat
kere
kerega
kerem
keres
kerese
kerge
kerged
kergejoustik
kergejoustiklane
kergejoustiku
kergejoustikuliidu
kergejoustikus
kergekaalus
kergekeskkaalus
kergelt
kergem
kergemaks
kergemini
kergesti
kerget
kerkib
kerkinud
kerkis
kerkisid
kerli
kernu
kerry
kersti
kert
kerttu
kertu
kes
kese
keset
kesk
keskaeg
keskaegne
keskaegse
keskaegsed
keskaegses
keskaegsete
keskaja
keskajal
keskajast
keskamet
keskasula
keskasulaks
keskel
keskele
keskelt
keskendub
keskenduda
keskendudes
keskenduma
keskendunud
keskendus
keskendutakse
keskenduvad
keskerakond
keskerakonda
keskerakonna
keskhaigla
keskhariduse
keskinglise
keskjooksul
keskkaalus
keskkaitsjana
keskklassi
keskkomitee
keskkond
keskkonda
keskkonna
keskkonnaamet
keskkonnaga
keskkonnakaitse
keskkonnale
keskkonnaministeerium
keskkonnaministeeriumi
keskkonnaminister
keskkonnamoju
keskkonnaregistri
keskkonnaregistris
keskkonnas
keskkonnasonaraamat
keskkonnast
keskkool
keskkooli
keskkoolis
keskkula
keskliidu
keskliit
kesklinn
kesklinna
kesklinnas
kesklinnast
keskmes
keskmine
keskmise
keskmised
keskmisel
keskmiselt
keskmisest
keskmist
keskmiste
kesknadal
kesknarvisusteemi
keskne
kesknoukogu
keskosa
keskosas
keskpaigaks
keskpaigani
keskpaigas
keskpaigast
keskpaik
keskpaiku
keskpanga
keskpank
keskpunkt
keskpunkti
keskraamatukogu
keskrundajana
keskse
keskseks
kesksel
kesksona
kesksoost
kesktaitevkomitee
keskula
keskus
keskuse
keskused
keskusega
keskuseks
keskuses
keskusest
keskust
keskvalitsuse
keskvaljak
keskvoimu
keskvorre
kest
kesta
kestab
kestavad
kestel
kestev
kestis
kestma
kestnud
kestsid
kestus
kestuse
ketas
keti
ketlin
ketsua
kett
ketta
kettaheites
kettaheitja
kettler
kevad
kevade
kevadel
kevadeni
kevadest
kevadine
kevin
key
kf
kg
kgb
kh
khaan
khaani
khaaniriigi
khan
khk
khl
khmeeri
khz
ki
kia
kibe
kibuvits
kid
kids
kieli
kihelkond
kihelkonda
kihelkondade
kihelkondlikult
kihelkonna
kihelkonnad
kihelkonnakirik
kihelkonnakool
kihelkonnakooli
kihelkonnakoolis
kihelkonnas
kihelkonnast
kihi
kihid
kihis
kihist
kihistik
kihistiku
kihistu
kihistut
kihlus
kihnu
kiht
kihti
kihtide
kihutas
kiidab
kiideti
kiidetud
kiidjarve
kiiev
kiievi
kiievis
kiik
kiil
kiili
kiip
kiir
kiirabi
kiire
kiired
kiireim
kiireima
kiireks
kiirelt
kiirem
kiirema
kiiremaks
kiiremini
kiirendab
kiirendada
kiirendus
kiiresti
kiiret
kiirgab
kiirgus
kiirguse
kiirgust
kiirlaskumises
kiirtee
kiiruga
kiiruisutaja
kiirus
kiiruse
kiirusega
kiirusel
kiirusest
kiirust
kiisa
kiisk
kiisler
kiita
kiitis
kiitma
kiitnud
kiitsid
kiitusega
kiitust
kiiu
kiiver
kikas
kikerpuu
kilbi
kilbil
kildini
kile
kilgas
kilingi
kilk
kill
killed
killer
killing
kills
killud
kilo
kilogrammi
kilomeeter
kilomeetri
kilomeetril
kilomeetrit
kilp
kilpkonn
kilpnaarme
kiltsi
kim
kimmel
kind
kindad
kindel
kindla
kindlad
kindlaid
kindlaks
kindlaksmaaratud
kindlal
kindlale
kindlalt
kindlam
kindlas
kindlasti
kindlat
kindlate
kindlus
kindluse
kindlused
kindluses
kindlust
kindlustada
kindlustama
kindlustamine
kindlustamiseks
kindlustas
kindlustatud
kindluste
kindlustus
kindlustuse
kindlustused
kindral
kindralfeldmarssal
kindrali
kindralkuberner
kindralkuberneri
kindralleitnant
kindralmajor
kindralmajori
kindralmajoriks
kindralpolkovnik
kindralstaabi
king
kinga
kingad
kingdom
kingi
kingissepa
kingissepp
kingitud
kingitus
kingitusi
kingo
kings
kingsepp
kink
kinkida
kinkinud
kinkis
kinni
kinnine
kinnisasja
kinnise
kinnistu
kinnistute
kinnisvara
kinnitab
kinnitada
kinnitama
kinnitamata
kinnitamine
kinnitamise
kinnitamiseks
kinnitanud
kinnitas
kinnitasid
kinnitatakse
kinnitati
kinnitatud
kinnitavad
kinnitub
kinnitunud
kinnitus
kinnituse
kinnitust
kinnituvad
kino
kinodes
kinos
kippus
kipub
kipuvad
kirbla
kirche
kirchspiel
kirde
kirdeosa
kirdeosas
kirdes
kirdesse
kire
kired
kirg
kirgiisi
kirglik
kiri
kiribati
kirik
kiriku
kirikuaed
kirikud
kirikuga
kirikuhoone
kirikuid
kirikukogu
kirikukogul
kirikuks
kirikukula
kirikul
kirikule
kirikumois
kirikumoisa
kirikuopetaja
kirikuriigi
kirikus
kirikusse
kirikust
kirikut
kirikute
kirikutes
kirill
kirillitsa
kirillitsas
kirimale
kirj
kirja
kirjad
kirjade
kirjades
kirjaga
kirjakeel
kirjakeele
kirjakeeles
kirjale
kirjalik
kirjalikes
kirjaliku
kirjalikud
kirjalikult
kirjamees
kirjameeste
kirjandus
kirjandusauhind
kirjandusauhinna
kirjanduse
kirjandusele
kirjanduses
kirjandusest
kirjanduskriitik
kirjanduslik
kirjanduslikku
kirjandusliku
kirjandusmuuseum
kirjandusmuuseumi
kirjanduspreemia
kirjandust
kirjandusteadlane
kirjanik
kirjanike
kirjanikke
kirjaniku
kirjanikud
kirjanikuks
kirjanikuna
kirjas
kirjast
kirjastaja
kirjastus
kirjastuse
kirjastuses
kirjavahemargid
kirjavahetus
kirjaviis
kirje
kirjelda
kirjeldab
kirjeldada
kirjeldades
kirjeldamine
kirjeldamiseks
kirjeldamisel
kirjeldanud
kirjeldas
kirjeldasid
kirjeldatakse
kirjeldati
kirjeldatud
kirjeldav
kirjeldavad
kirjeldus
kirjelduse
kirjeldused
kirjeldusi
kirjeldust
kirju
kirjuta
kirjutab
kirjutada
kirjutades
kirjutaja
kirjutama
kirjutamata
kirjutamine
kirjutamise
kirjutamiseks
kirjutamisel
kirjutamist
kirjutan
kirjutanud
kirjutas
kirjutasid
kirjutasin
kirjutatakse
kirjutati
kirjutatud
kirjutavad
kirjutis
kirjutised
kirjutisi
kirjutistes
kirk
kirke
kirna
kirovi
kirs
kirsi
kirsipuu
kirss
kirsti
kirstu
kirurg
kirurgia
kirves
kisa
kiskja
kiskuda
kiskus
kiss
kisub
kit
kitarr
kitarri
kitarrist
kits
kitsa
kitsad
kitsaks
kitsam
kitsamas
kitsaroopmeline
kitsaroopmelise
kitsas
kitsast
kitse
kitsendatud
kitsi
kitty
kitzberg
kitzbergi
kiud
kiuste
kive
kivi
kiviaja
kivid
kivide
kividega
kividest
kivikalme
kivikas
kivil
kivile
kivim
kivimae
kivimeid
kivimi
kivimid
kivimit
kivimite
kivine
kivioli
kivirahk
kivisild
kivisilla
kivist
kivistik
kiwi
kj
kk
kl
klaar
klaas
klaasi
klaasikunstnik
klaasist
klahvpillid
klahvpillimangija
klaipeda
klara
klarnet
klas
klass
klassi
klassid
klasside
klassifikaator
klassifikatsioon
klassifikatsiooni
klassifitseeritakse
klassika
klassikakirjastus
klassikaline
klassikalise
klassikalised
klassikalises
klassikalisest
klassikalist
klassikaliste
klassikaraadio
klassikas
klassikasoidus
klassile
klassiline
klassilise
klassilises
klassis
klassist
klassitsism
klassitsismi
klassitsistlik
klaus
klaver
klaveri
klaverile
klaverit
klaviatuur
klaviatuuri
klein
kleine
kleini
kleis
kleit
kleopatra
kleve
kliendi
kliendid
kliendile
klient
kliente
klientide
klientidele
kliima
kliimaga
kliimamuutuste
kliimas
kliimat
kliinik
kliiniku
kliinikum
kliinikumi
kliiniline
kliinilise
klint
klo
klooga
kloori
klooster
kloostri
kloostrid
kloostrile
kloostris
kloostrisse
kloostrist
kloostrit
kloostrite
klubi
klubid
klubide
klubides
klubiga
klubikarjaari
klubile
klubis
klubisse
km
kn
knab
knight
know
knowledge
known
knud
knupffer
knut
ko
koa
koalitsioon
koalitsiooni
kobras
koceni
koch
koda
kodade
kodakondsus
kodakondsuse
kodakondsust
kodanik
kodanike
kodanikel
kodanikele
kodanikest
kodanikke
kodanikku
kodanikkude
kodaniku
kodanikud
kodanikuks
kodanikunimega
kodanikunimi
kodanikuoiguste
kodanikuuhiskonna
kodanliku
kodavere
kodeerib
kodeeritud
kodo
kodu
kodudes
koduks
kodulehekulg
kodulehel
koduleht
kodulennujaam
kodulink
kodulinn
kodulinna
kodulinnas
koduloomade
koduloomuuseum
kodumaa
kodumaad
kodumaal
kodumaale
kodumaalt
kodune
kodunt
koduopetaja
koduopetajana
kodus
koduse
kodusoda
kodusoja
kodusojas
kodust
kodustaadion
kodustatud
koe
koer
koera
koerad
koeratoug
koeri
koerte
koertel
koeru
koff
kogeda
kogemata
kogemus
kogemuse
kogemused
kogemusest
kogemusi
kogemust
kogemuste
kogemustest
kogenud
koger
kognitiivne
kognitiivse
kogu
koguarv
koguarvu
kogub
kogud
koguda
kogude
kogudes
kogudus
koguduse
kogudused
kogudusele
koguduses
kogudusest
kogudust
koguduste
koguja
kogukond
kogukonda
kogukondade
kogukonna
kogukonnad
kogukonnas
kogum
koguma
kogumik
kogumikku
kogumiku
kogumikus
kogumikust
kogumine
kogumise
kogumiseks
kogumist
kogumit
koguneb
kogunenud
kogunes
kogunesid
kogunevad
koguni
kogunud
kogupikkus
kogupindala
kogus
koguse
koguses
kogusid
kogusse
kogust
kogustes
kogutakse
koguteos
koguti
kogutoodang
kogutoodangust
kogutud
koguvad
koha
kohad
kohaga
kohaks
kohal
kohaldatakse
kohale
kohalik
kohalike
kohalikel
kohalikele
kohalikes
kohalikest
kohalikke
kohalikku
kohaliku
kohalikud
kohalikuks
kohalikul
kohalikule
kohalikus
kohalikust
kohaline
kohalises
kohalolu
kohalt
kohandada
kohandati
kohandatud
kohane
kohaneda
kohanime
kohanimed
kohanimede
kohanimeraamat
kohanimeraamatu
kohanimeraamatus
kohanimi
kohanud
kohapeal
kohas
kohaselt
kohast
kohastunud
kohata
kohati
kohatu
kohatud
kohe
kohelda
kohila
kohler
kohn
koht
kohta
kohtab
kohtade
kohtadel
kohtadele
kohtades
kohtadesse
kohtadest
kohtas
kohti
kohtla
kohtlemine
kohtlemise
kohtu
kohtuasi
kohtuasja
kohtuasjas
kohtub
kohtud
kohtuda
kohtudes
kohtule
kohtumine
kohtumise
kohtumised
kohtumisel
kohtumises
kohtumisi
kohtumist
kohtunik
kohtunike
kohtuniku
kohtunikud
kohtunikuks
kohtunud
kohtuotsus
kohtuotsuse
kohtuprotsess
kohtuprotsessi
kohtus
kohtusid
kohtusse
kohtute
kohtuti
kohtuvad
kohu
kohus
kohuse
kohuseid
kohusetaitja
kohusetaitjaks
kohusetaitjana
kohust
kohustas
kohustatud
kohustus
kohustuse
kohustused
kohustusi
kohustuslik
kohustusliku
kohustuslikuks
kohustust
kohustuste
kohustustest
kohut
kohutav
kohutavalt
kohv
kohvi
kohvik
kohviku
kohvikus
koide
koidet
koidu
koidula
koie
koige
koigega
koigel
koigele
koigepealt
koiges
koigest
koigi
koigil
koigile
koigilt
koigis
koigist
koigiti
koigub
koik
koike
koiki
koikide
koikidel
koikidele
koikides
koikidest
koikjal
koikjale
koiksugu
koit
koite
koites
koiv
koiva
koivu
koivupuu
koja
kojas
koju
koka
kokaiini
koki
kokk
kokko
kokku
kokkulepe
kokkulepet
kokkulepitud
kokkuleppe
kokkuleppel
kokkuleppele
kokkuporge
kokkuporgetes
kokkuporke
kokkuporked
kokkuporkes
kokkupuude
kokkupuutel
kokkuvote
kokkuvottes
kokla
koknese
koks
kola
kolab
kolar
kolas
kolasid
kolavad
kolba
kolde
kole
kolesterooli
koletis
kolga
kolhoos
kolhoosi
kolib
kolida
kolima
kolinud
kolis
kolisid
koliti
kolju
kolk
koll
kollakas
kollane
kollase
kollased
kollast
kollaste
kolle
kolledz
kolledzi
kolledzis
kolleeg
kolleegi
kolleegid
kolleegide
kolleegidega
kolleegipreemia
kolleegium
kolleegiumi
kollektiiv
kollektiivi
kollektiivne
kollektiivse
kollektsioon
kollektsiooni
kolli
kolm
kolmainu
kolmanda
kolmandad
kolmandaks
kolmandal
kolmandale
kolmandas
kolmandasse
kolmandast
kolmandat
kolmandate
kolmandik
kolmandikku
kolmandiku
kolmapaeval
kolmas
kolme
kolmeaastase
kolmekesi
kolmekordne
kolmekorruseline
kolmeks
kolmekumne
kolmekumneaastase
kolmel
kolmele
kolmepaevast
kolmes
kolmest
kolmikhuppes
kolmkummend
kolmnurga
kolmnurk
kolmnurkne
kolmsada
kolmteist
koln
kolni
kolnis
kolonel
kolonelleitnant
kolonn
kolonni
koloonia
kolooniad
kolooniaid
kolooniate
koltasaami
kolu
kolumbus
kolumbuse
koluvere
koma
komandandi
komandant
komando
komandor
komandori
komandoriks
kombe
kombed
kombeid
kombeks
kombel
kombinatsioon
kombinatsiooni
kombineerida
kombineeritud
komi
kominterni
komisjon
komisjoni
komisjonide
komisjonile
komisjonis
komissar
komissarov
komitaadis
komitee
komme
kommentaar
kommentaare
kommentaarid
kommenteerinud
kommenteeris
kommenteeritud
kommete
kommunikatsioon
kommunikatsiooni
kommunism
kommunismi
kommunist
kommunistid
kommunistide
kommunistlik
kommunistlike
kommunistlikku
kommunistliku
kommuun
kommuuni
komoodia
kompanii
kompaniid
kompassi
kompleks
kompleksi
kompleksujumises
komplekt
komplekti
komponeeris
komponendi
komponendid
komponent
komponente
komponenti
komponentide
kompositsioon
kompositsiooni
kompromiss
kompromissi
kompus
komri
komsomoli
komtuur
komtuuri
kon
kondensaatori
kondid
kondida
kondima
kondis
kone
koned
konega
konekeeles
konelda
koneldakse
koneldi
konele
koneleb
koneleja
konelejad
konelejaid
konelejat
konelejate
konelema
koneles
konelesid
konelevad
konelusi
kones
konesid
konet
koneviisi
konfiskeeriti
konflikt
konflikte
konflikti
konfliktid
konfliktide
konfliktis
konfoderatsioon
konfoderatsiooni
konfoderatsioonide
kong
kongo
kongregatsiooni
kongress
kongressi
kongressil
konguta
koni
konig
konigsberg
konigsbergi
konklaav
konklaavil
konkreetne
konkreetse
konkreetsed
konkreetseid
konkreetsele
konkreetselt
konkreetsest
konkreetset
konkreetsete
konks
konkurents
konkurentsi
konkursi
konkursil
konkurss
konn
konna
konnib
konnu
konrad
konservatiivide
konservatiivne
konservatiivse
konservatooriumi
konservatooriumis
konsistoorium
konsistooriumi
konsooli
konstant
konstantin
konstantinoopoli
konstantinoopolis
konstantinoopolisse
konstantinos
konstantne
konstanzi
konstitutsioon
konstitutsiooni
konstitutsioonikohus
konstrueerida
konstrueeris
konstrueeritud
konstruktsioon
konstruktsiooni
konsul
konsuliteks
konsultant
kont
kontakt
kontakte
kontakti
kontaktid
kontaktide
kontaktis
kontekst
konteksti
kontekstis
kontekstist
konto
kontor
kontori
kontoris
kontrabass
kontradmiral
kontroll
kontroller
kontrolli
kontrollib
kontrollida
kontrollima
kontrollimine
kontrollimise
kontrollimiseks
kontrollis
kontrollisid
kontrollitakse
kontrollitud
kontrollivad
kontrollulesanne
kontsentratsioon
kontsentratsiooni
kontsentreeritud
kontseptsioon
kontseptsiooni
kontserdi
kontserdid
kontserdil
kontserdimaja
kontserdimajas
kontserdisaalis
kontserni
kontsert
kontserte
kontserti
kontsertide
kontsertidel
kontsertmeister
konvendi
konvendihoone
konvent
konventsioon
konventsiooni
konventsiooniga
konverents
konverentse
konverentsi
konverentsil
koo
koobas
kood
koodeks
koodi
koodid
koodiga
koogi
koogis
kook
kooki
kool
koola
koole
kooli
koolibri
koolid
koolide
koolidele
koolides
kooliga
koolihoone
koolijuht
koolikott
kooliks
koolile
koolimaja
koolimajas
koolinoorte
kooliopetaja
koolis
koolist
koolitaja
koolitus
koolituse
koolitusi
koolkond
koolkonda
koolkonna
koolmeister
koomik
koomiline
koondab
koondada
koondas
koondati
koondatud
koonderakond
koondis
koondise
koondisega
koondisekarjaari
koondises
koondisse
koondunud
koondus
koonduslaager
koonduslaagri
koonga
koopa
koopad
koopas
kooperatiiv
koopia
koopiad
koopiaid
koor
kooraste
koordinaadid
koordinaatide
koordinaator
koordineerib
koordineerimine
koore
koorem
koori
kooriga
koorijuht
koorijuhtimise
koorile
koorimuusika
kooris
koorkula
koorma
koormat
koormatud
koormus
koormuse
koormusega
koort
koos
koosa
kooselu
kooskola
kooskolas
kooslus
koosneb
koosneda
koosnes
koosnesid
koosnev
koosneva
koosnevad
koosnevat
koosolek
koosoleku
koosolekud
koosolekul
koosolekut
koosolekute
koosseis
koosseisu
koosseisus
koosseisust
koost
koostab
koostada
koostaja
koostajad
koostama
koostamine
koostamise
koostamiseks
koostamisel
koostamist
koostanud
koostas
koostasid
koostatakse
koostati
koostatud
koostis
koostise
koostisega
koostises
koostisest
koostisosa
koostist
koostoo
koostood
koostoole
koostoos
koostoost
kootud
kopenhaagen
kopenhaageni
kopenhaagenis
koperniku
kopikat
kopli
kopp
koppel
kops
kopsu
kopsude
kopti
kopu
korb
korbe
korber
korbes
korboja
kord
korda
kordab
kordagi
kordamooda
kordas
kordi
kordne
kordub
kordus
kordustrukk
korduv
korduvad
korduvalt
kore
korea
korean
koreas
koreograaf
koreograafia
korg
korge
korged
korgeid
korgeim
korgeima
korgeimad
korgeimaks
korgeks
korgel
korgele
korgelt
korgem
korgema
korgemad
korgemaid
korgemaks
korgemal
korgemale
korgemalt
korgemas
korgemasse
korgemat
korgemate
korgematel
korgendatud
korgendik
korges
korgessaare
korgest
korget
korgete
korgetel
korghariduse
korghoone
korgkool
korgkooli
korgkoolide
korgkoolis
korgliiga
korgliigas
korgliigasse
korgmeister
korgozstani
korgozstanis
korgune
korgus
korguse
korgused
korgusega
korguseks
korgusel
korgusele
korguselt
korguseni
korgusest
korgushuppaja
korgust
korguste
korgustik
korgustiku
korgustikul
kori
koridori
korintose
korjandusest
korjata
korjatud
korjus
kork
korni
koroona
koroonapandeemia
koroonaviiruse
korp
korporatsioon
korporatsiooni
korpus
korpuse
korra
korraga
korraks
korral
korraldab
korraldada
korraldaja
korraldajad
korraldama
korraldamine
korraldamise
korraldamisega
korraldamiseks
korraldamisel
korraldamises
korraldamist
korraldanud
korraldas
korraldasid
korraldatakse
korraldatav
korraldati
korraldatud
korraldavad
korraldus
korralduse
korraldused
korraldusega
korraldusel
korraldusi
korraldust
korrale
korralik
korralikku
korraliku
korralikult
korraline
korraparane
korraparaselt
korras
korrast
korrastatud
korrata
korratakse
korrektne
korrektselt
korreliste
korrespondent
korrespondentliige
korruptsiooni
korruptsioonis
korrus
korruse
korrusel
korrusele
korruseline
korrust
korsika
korsten
korter
korterelamu
korteri
korteris
korterisse
korterit
kortermaja
korts
kortsi
kortsis
kortsmik
korv
korva
korvad
korvade
korval
korvaldada
korvaldamiseks
korvaldati
korvaldatud
korvale
korvalhooned
korvalmaantee
korvalmois
korvalt
korve
korvemaa
korvi
korvits
korvoieliste
korvpall
korvpalli
korvpallis
korvpallitreener
korvpallur
korvu
korvuti
korwa
korwal
korwale
kose
kosja
kosk
kosmiline
kosmilise
kosmoloogia
kosmonaut
kosmos
kosmose
kosmosejaama
kosmoselaev
kosmoselaeva
kosmoses
kosmosesond
kosmosesse
kosmosesustik
kosovo
kosovos
kostab
koster
kostis
kostivere
kostri
kostroma
koti
kotis
kotka
kotkaristi
kotkas
kotkaste
kott
kotta
kotti
kotzebue
kou
koue
kov
kova
kovaketas
kovaketta
kovasti
kove
kover
kovera
kp
kq
kr
kraad
kraadi
kraadiga
kraadise
kraam
kraater
kraatri
kraav
kraavi
krabi
kraft
krahli
krahv
krahvi
krahvid
krahvide
krahvinna
krahvkond
krahvkonna
krahvkonnas
krai
kraini
krais
krakow
krakowi
kramer
krasnaja
krasnodari
krasnojarski
kratt
kraus
krause
krediidi
kreeka
kreekale
kreekas
kreekasse
kreekast
kreeklased
kreeklaste
kreem
kreenholmi
kreeta
kreis
kreisi
kreisis
kremli
kressa
kreutzwald
kreutzwaldi
kriis
kriisa
kriisi
kriiska
kriitik
kriitika
kriitikat
kriitikud
kriitikute
kriitiline
kriitilise
kriitiliselt
kriminaalasja
kriminaalmenetluse
kriminaalpolitsei
krimm
krimmi
krimmis
krimmitatari
krimulda
kris
krista
kristalli
kristallid
kristallide
kristel
kristen
kristi
kristian
kristiina
kristiine
kristin
kristina
kristjan
kristlane
kristlased
kristlasi
kristlaste
kristlik
kristlike
kristlikku
kristliku
kristlikud
kristlikus
kristlus
kristluse
kristluses
kristo
kristus
kristuse
kristust
kriteerium
kriteeriumi
kriteeriumid
kritiseerib
kritiseerinud
kritiseeris
kritiseeriti
kritiseeritud
kromosoom
kromosoomi
kromosoomide
kronoloogia
kroon
krooni
krooniga
kroonik
kroonika
kroonikad
kroonikas
kroonile
krooniline
kroonilise
kroonis
krooniti
kroonitud
kroonlehed
kroonlinna
kroonprints
kroonu
kroot
kross
krossi
kruger
kruiisilaev
krull
krundi
kruse
krusenstern
krusten
kruus
kruusa
kruuse
kruusi
krzysztof
ks
ksenija
kt
ku
kubar
kubara
kubaratriki
kubermang
kubermangu
kubermangude
kubermangus
kubermangust
kuberneetika
kuberner
kuberneri
kuberneriks
kubernerina
kubernerkond
kubjas
kubrick
kuda
kudas
kude
kudede
kudedes
kudu
kuhn
kuhu
kuhugi
kui
kuid
kuida
kuidagi
kuidas
kuigatsi
kuigi
kuigivord
kuimetsa
kuis
kuiv
kuiva
kuivab
kuivad
kuivaks
kuival
kuivama
kuivanud
kuivas
kuivastu
kuivatatakse
kuivatatud
kuivord
kujawy
kuju
kujud
kujude
kujuga
kujul
kujule
kujuline
kujulise
kujult
kujund
kujundab
kujundada
kujundaja
kujundamine
kujundamise
kujundamisel
kujundanud
kujundas
kujundati
kujundatud
kujundavad
kujundeid
kujundid
kujundite
kujundus
kujunduse
kujundusega
kujuneb
kujuneda
kujunema
kujunemine
kujunemise
kujunemisel
kujunemist
kujunenud
kujunes
kujunesid
kujunevad
kujur
kujusid
kujust
kujuta
kujutab
kujutada
kujutama
kujutamine
kujutanud
kujutas
kujutasid
kujutatakse
kujutati
kujutatud
kujutav
kujutava
kujutavad
kujutavate
kujutis
kujutise
kujutised
kujutisi
kujutist
kujutleda
kujutlus
kujutlusvoime
kuke
kukk
kukkuda
kukkuma
kukkunud
kukkus
kukkusid
kukruse
kuku
kukub
kukul
kukutada
kukutamist
kukutas
kukutati
kukutatud
kul
kula
kulaasunduse
kulaasundust
kulad
kulade
kuladele
kulades
kuladest
kulaga
kulaks
kulale
kulaline
kulalised
kulalisena
kulalisi
kulalisprofessor
kulaliste
kulalistele
kulanoukogu
kulanoukogud
kulanoukogude
kulanoukoguga
kulanoukogus
kulanoukogust
kulas
kulasid
kulasse
kulast
kulastab
kulastada
kulastades
kulastaja
kulastajad
kulastajate
kulastajatele
kulastanud
kulastas
kulastasid
kulastatud
kulastavad
kuld
kulda
kuldar
kuldgloobuse
kuldhordi
kuldiga
kuldmedal
kuldmedali
kuldmedaliga
kuldmedalit
kuldmedalivoitjale
kuldne
kuldse
kuldsed
kuldset
kuldsete
kuldsulg
kulg
kulge
kulgeb
kulgede
kulgedel
kulges
kulgev
kulgevad
kulgi
kulgneb
kulgu
kulje
kuljed
kuljel
kuljele
kuljelt
kuljes
kuljest
kull
kulla
kullaga
kullalt
kullaltki
kullamaa
kullap
kullassepp
kullast
kullastunud
kullatud
kullerkupp
kulli
kullo
kulm
kulma
kulmad
kulmaks
kulmalt
kulmas
kulmineerus
kulmu
kulmunud
kulno
kultur
kulturas
kultus
kultuur
kultuuri
kultuuriakadeemia
kultuurid
kultuuride
kultuurides
kultuurielu
kultuuriga
kultuurikeskus
kultuurikeskuse
kultuurikeskuses
kultuurile
kultuurileht
kultuuriline
kultuurilise
kultuurilised
kultuuriliselt
kultuurilist
kultuuriliste
kultuurimaja
kultuurimalestis
kultuurimalestiseks
kultuurimalestisena
kultuurimalestiste
kultuurimalestistest
kultuuriministeerium
kultuuriministeeriumi
kultuuriminister
kultuuriparandi
kultuuripreemia
kultuuris
kultuuriselts
kultuurist
kultuuritegelane
kultuurkapital
kultuurkapitali
kulu
kulub
kulud
kulude
kulukas
kulul
kulunud
kulus
kulusid
kulutab
kulutada
kulutas
kulutused
kulutusi
kulutuste
kuma
kumar
kumari
kumb
kumba
kumbagi
kumbki
kumer
kummagi
kummalegi
kummalgi
kummaline
kummardus
kummaski
kumme
kummekond
kummet
kummi
kummuli
kumne
kumned
kumneid
kumneks
kumnendi
kumnendid
kumnendil
kumnenditel
kumnes
kumnest
kumnete
kumnevoistleja
kumoki
kumu
kun
kuna
kunagi
kunagine
kunagise
kunagisest
kunda
kung
kungas
kungla
kuni
kuninga
kuningad
kuningaga
kuningaks
kuningal
kuningale
kuningalt
kuningana
kuninganna
kuningannaks
kuningapoeg
kuningas
kuningast
kuningat
kuningate
kuninglik
kuninglike
kuninglikku
kuningliku
kuninglikud
kuninglikus
kuningriigi
kuningriigiga
kuningriigiks
kuningriigile
kuningriigis
kuningriigist
kuningriik
kuningriiki
kunka
kunkal
kunnap
kunnapuu
kunni
kuno
kunst
kunsti
kunstiajaloo
kunstiajaloolane
kunstiajalugu
kunstiakadeemia
kunstiakadeemias
kunstid
kunstide
kunstiga
kunstigalerii
kunstihoone
kunstiinstituudi
kunstiinstituudis
kunstikool
kunstikooli
kunstikoolis
kunstikriitik
kunstile
kunstileksikon
kunstiline
kunstilise
kunstimuuseum
kunstimuuseumi
kunstimuuseumis
kunstipedagoog
kunstis
kunstist
kunstiteadlane
kunstitegelane
kunstiteos
kunstlik
kunstlikult
kunstnik
kunstnike
kunstnikke
kunstnikku
kunstniku
kunstnikud
kunstnikuna
kuntien
kuopio
kupar
kuperjanovi
kupli
kuppel
kupros
kuprose
kuprosel
kups
kupseks
kupsetatud
kura
kuraator
kuradi
kuralaste
kuramaa
kuramaal
kuramaale
kurat
kurb
kurbus
kurdi
kurdistani
kure
kuremaa
kuremae
kurereha
kuresoo
kuressaare
kuressaares
kurg
kurgu
kuri
kurista
kuristik
kuristiku
kurisu
kuritegevus
kuritegevuse
kuritegu
kuritegude
kuritegusid
kuriteo
kuriteod
kuritoo
kurja
kurjad
kurjategija
kurjategijad
kurjategijate
kurjus
kurjuse
kurk
kurku
kurland
kurlands
kurna
kurnas
kurnatud
kursi
kursiiv
kursis
kurski
kursus
kursuse
kursused
kursusel
kursusi
kursust
kursustel
kurt
kurtide
kurtna
kuru
kurva
kurvits
kus
kusagil
kusagilt
kusi
kusib
kusida
kusima
kusimus
kusimuse
kusimused
kusimusega
kusimusele
kusimuses
kusimusi
kusimust
kusimuste
kusimustega
kusimustele
kusimustes
kusin
kusinud
kusis
kusisid
kusisin
kusitakse
kusitav
kusiti
kusitluse
kusjuures
kuski
kuskil
kuskile
kuskilt
kuslapuu
kust
kustas
kustunud
kustus
kustutada
kustutati
kuti
kutid
kutipolk
kutsar
kutse
kutsel
kutseline
kutsu
kutsub
kutsuda
kutsudes
kutsuma
kutsunud
kutsus
kutsusid
kutsutakse
kutsuti
kutsutud
kutsuvad
kutt
kutti
kuttide
kutus
kutuse
kutust
kuu
kuub
kuuba
kuud
kuude
kuudel
kuuditati
kuue
kuueks
kuuel
kuuenda
kuuendal
kuues
kuuest
kuuga
kuuks
kuul
kuula
kuulab
kuulaja
kuulama
kuulamine
kuulanud
kuulas
kuulata
kuulates
kuulda
kuuldes
kuuldud
kuuldus
kuule
kuuleb
kuuled
kuuleme
kuulen
kuulge
kuuli
kuulipilduja
kuulipildujat
kuulis
kuulma
kuulmine
kuulmise
kuulnud
kuulo
kuulsa
kuulsad
kuulsaid
kuulsaim
kuulsaks
kuulsam
kuulsamad
kuulsamaid
kuulsate
kuulsid
kuulsin
kuulsus
kuulsuse
kuulsust
kuulsuste
kuulu
kuulub
kuuluda
kuuludes
kuulujutud
kuuluma
kuulunud
kuulus
kuulusid
kuulutab
kuulutada
kuulutama
kuulutanud
kuulutas
kuulutasid
kuulutatakse
kuulutati
kuulutatud
kuuluv
kuuluva
kuuluvad
kuuluvaid
kuuluvaks
kuuluvas
kuuluvat
kuuluvate
kuuluvates
kuuluvuse
kuum
kuuma
kuumad
kuumus
kuumutamisel
kuunal
kuuned
kuuni
kuunla
kuunlad
kuupaev
kuupaeva
kuupaevad
kuurvurst
kuurvursti
kuus
kuusalu
kuuse
kuusi
kuusik
kuusiku
kuusk
kuuskummend
kuuslauk
kuuste
kuut
kuvada
kuvatakse
kuveidi
kuznetsov
kv
kvalifikatsioon
kvalifikatsiooni
kvalifikatsiooniga
kvalifikatsioonis
kvalifitseeritud
kvalifitseerus
kvaliteedi
kvaliteediga
kvaliteet
kvaliteeti
kvantmehaanika
kvart
kvartal
kvartali
kvartalis
kvarts
kvint
kw
kwazulu
kwh
kx
ky
kyiv
kyle
kyoto
kz
l
l0
l1
l2
l3
l4
l5
l6
l7
l8
l9
la
laad
laadi
laadida
laadimine
laadis
laadoga
laager
laagna
laagri
laagris
laagrisse
laama
laaman
laan
laande
laane
laanegootide
laanekaldal
laanekuljel
laanemaa
laanemaal
laanemere
laanemerel
laanemeres
laanemeresoome
laanemets
laanemetsa
laaneosa
laaneosas
laanepoolne
laaneranna
laanerannikul
laaneriikide
laanes
laanest
laani
laaniks
laanis
laanistas
laar
laari
laas
laasi
laasik
laastas
laastasid
laastus
laata
laatre
laats
laatse
laava
lab
labbi
label
labi
labib
labida
labides
labima
labimist
labimooduga
labimoot
labimurde
labimurre
labinud
labipaistev
labipaistvus
labiraakimised
labiraakimisi
labiraakimiste
labiraakimistel
labis
labisid
labitavus
labitud
labiv
labiva
labivad
labiviidud
labiviimine
labiviimise
labiviimiseks
labiviimisel
labiviimist
labor
laboratoorium
laboratooriumi
laboratooriumis
laboratory
labori
laboris
labour
lac
lactarius
lad
lade
lademe
ladestu
ladies
ladiini
ladina
ladinakeelne
ladinakeelse
ladinakeelsest
ladu
lady
lae
laekus
laekvere
laen
laenas
laenatud
laene
laeng
laengu
laenguga
laenu
laenud
laenude
laenul
laenule
laertios
laetud
laev
laeva
laevad
laevade
laevadega
laevadel
laevadele
laevaga
laevakompanii
laeval
laevale
laevalt
laevast
laevastik
laevastikku
laevastiku
laevatatav
laevatehas
laevatehase
laevatehases
laevauhing
laevu
laewa
laffranque
lage
lagedi
lagi
lagle
lago
lagrange
laguneb
lagunema
lagunemine
lagunemise
lagunemisel
lagunemist
lagunenud
lagunes
lagunevad
lahe
laheb
lahed
lahedal
lahedale
lahedalt
lahedane
lahedase
lahedased
lahedasi
lahedaste
lahedus
laheduses
lahedusse
lahega
laheks
lahel
lahem
lahemaa
lahemal
lahemale
lahemalt
laheme
lahen
lahend
lahendab
lahendada
lahendama
lahendamata
lahendamine
lahendamise
lahendamiseks
lahendamisel
lahendamist
lahendas
lahendati
lahendatud
lahendus
lahenduse
lahendused
lahenduseks
lahendusi
lahendust
lahenduste
laheneb
laheneda
lahenedes
lahenemine
lahenemise
lahenemist
lahenes
lahes
lahest
lahestikku
lahevad
lahhab
lahim
lahima
lahimad
lahing
lahingu
lahingud
lahinguid
lahingus
lahingusse
lahingust
lahingut
lahingute
lahingutegevuse
lahingutegevuses
lahingutes
lahinguvaljal
lahis
lahistel
lahistele
lahja
lahke
lahku
lahkub
lahkuda
lahkudes
lahkuma
lahkumine
lahkumise
lahkumiseks
lahkumisest
lahkumist
lahkunud
lahkus
lahkusid
lahkuvad
lahme
lahn
laht
lahte
lahtekoodi
lahtekoodiga
lahti
lahtine
lahtis
lahtise
lahtised
lahtiste
lahtistel
lahtub
lahtuda
lahtudes
lahtunud
lahtus
lahtutakse
lahtuv
lahtuvad
lahtuvalt
lahus
lahuse
lahuses
lahusti
lahustub
lahustunud
lahustuvad
lahutab
lahutada
lahutama
lahutamatu
lahutamine
lahutas
lahutasid
lahutati
lahutatud
lahutus
lahutust
lahutusvoime
lai
laia
laiad
laiade
laial
laialdane
laialdase
laialdaselt
laialdasemalt
laialdast
laiale
laiali
laialt
laiaroopmeline
laiaroopmelise
laias
laid
laidoner
laidoneri
laidude
laiem
laiema
laiemale
laiemalt
laiemas
laiemat
laiend
laiendab
laiendada
laiendamine
laiendamise
laiendamist
laiendas
laiendasid
laiendati
laiendatud
laiendus
laieneb
laienemine
laienemise
laienemist
laienenud
laienes
laigud
laik
laike
laikiv
laikivad
laikmaa
laimjala
laind
laine
lained
laineid
laineline
lainepikkus
lainepikkusega
lainete
lainud
laip
laisk
laitse
laiu
laiune
laius
laiuse
laiusega
laiusest
laiust
lajos
lake
laki
lakitas
lakituse
lakk
lakkab
lakkamatult
lakkas
laks
laksid
laksin
laksiwad
lam
lama
lamab
lamas
lamba
lambad
lambaid
lambakoer
lambda
lambert
lambi
lame
lameda
lammas
lammaste
lammastik
lammastikku
lammastiku
lammutada
lammutati
lammutatud
lamp
lamprophiidae
lan
lancasteri
land
landau
lander
landeswehri
landguter
landing
landscape
lane
lang
lange
langeb
langeda
langema
langemine
langemise
langemist
langenud
langenute
langes
langesid
langetada
langetas
langetatud
langev
langeva
langevad
langi
langobardid
langobardide
language
languages
languoid
langus
languse
langust
lanka
lao
laos
laose
laotud
lapi
lapin
laplace
laps
lapse
lapsed
lapsega
lapsel
lapselaps
lapsele
lapsena
lapsepolv
lapsepolve
lapsepolves
lapsepolvest
lapsest
lapsi
lara
laretei
large
largest
larissa
larka
larry
lars
larsen
larsson
larus
las
lase
laseb
laseks
lasen
laser
lasevad
lasi
lasid
laske
laskekaugus
laskemoona
laskesuusataja
laskesuusatamise
laskis
laskma
laskmine
lasknud
lasksid
lasku
laskub
laskur
laskurdiviis
laskurdiviisi
laskurkorpus
laskurkorpuse
laskus
lasnamae
lasnamael
lass
lasse
lassen
last
lasta
lastakse
laste
lasteaed
lasteaia
lasteaias
lastega
lastekirjanduse
lastekirjanik
lastekodu
lastel
lastele
lasteraamat
lastes
lastest
lasti
lastud
lasub
lasva
laszlo
late
lateraani
latest
latgale
latgali
latgalite
lati
latin
latis
latist
latlane
latlased
latlasi
latlast
latlaste
latt
latte
latti
lattik
latvia
latviesu
latvija
latvijas
laua
lauad
laual
lauale
lauapalli
lauas
laud
lauda
laude
lauenburgi
laugas
lauk
lauka
laul
laula
laulab
laulavad
laulda
lauldakse
lauldes
lauldi
lauldud
laule
laulik
laulis
laulja
lauljad
lauljana
lauljanna
lauljatar
lauljate
laulma
laulmine
laulmise
laulmist
laulnud
laulsid
laulu
laulud
laulude
lauludes
lauludest
lauluga
laulukirjutaja
laululava
laulule
laulupeo
laulupidu
laulus
laulusonad
laulusonade
laulust
lauluvaljakul
lauluvoistlus
lauluvoistluse
lauluvoistlusel
launch
launches
laupa
laupaev
laupaeva
laupaeval
laur
laura
laureaadid
laureaat
lauren
laurence
laurent
laurentsiuse
lauri
lauristin
laurits
lausa
lausanne
lause
laused
lauseid
lauses
lauset
lausete
lausunud
lausus
laut
lauta
lauter
lav
lava
lavakunstikateedri
lavakunstikooli
laval
lavale
lavamaa
lavassaare
lavastaja
lavastajana
lavastanud
lavastas
lavastatud
lavastus
lavastuse
lavastuses
lave
lavel
law
lawrence
laws
lay
layer
lazar
lazio
lb
lc
lcd
ld
ldots
le
lea
lead
leader
leaders
leadership
leaf
league
learning
least
leave
lebedev
leben
lech
lecture
led
lee
leebe
leedi
leeds
leedu
leedulased
leedulasi
leedulast
leedulaste
leedus
leedust
leegion
leegioni
leek
leelo
leena
leeri
leesi
leesment
leevendada
leevendamiseks
leevi
left
legaat
legacy
legal
legales
legend
legendaarne
legendaarse
legendi
legendid
leger
legion
lego
lehe
lehed
lehekulg
lehekulge
lehekulje
lehekuljel
lehel
lehele
lehes
lehis
lehm
lehma
lehmad
leho
lehola
leht
lehte
lehtede
lehtedega
lehtedest
lehti
lehtse
lei
leia
leiab
leiad
leiaks
leiame
leian
leiavad
leib
leiba
leibkondadest
leibkonna
leibniz
leibnizi
leicester
leid
leida
leide
leiden
leideni
leides
leidis
leidma
leidmine
leidmise
leidmiseks
leidnud
leidsid
leidsin
leidsiwad
leidu
leidub
leiduda
leidude
leidunud
leidus
leiduv
leiduvad
leiduvate
leidybos
leigatud
leigh
leika
leila
leili
leimus
lein
leina
leino
leipzig
leipzigi
leipzigis
leis
leisi
leitakse
leiti
leitnandiks
leitnant
leito
leitud
leiud
leiutaja
leiutas
leiutati
leiutatud
leiutis
leiva
leiwa
leksikon
leksikoni
leksikonis
lektor
lektorina
lelle
lember
lembit
lembitu
lemmik
lemsalu
lena
lend
lendab
lendama
lendas
lendasid
lendav
lendavad
lende
lendu
lendur
lenin
leningrad
leningradi
leningradis
lenini
lenna
lennanud
lennart
lennata
lennates
lennon
lennu
lennud
lennufirma
lennujaam
lennujaama
lennujaamade
lennujaamas
lennujaamast
lennuk
lennukeid
lennuki
lennukid
lennukiga
lennukil
lennukis
lennukit
lennukite
lennukompanii
lennul
lennunduse
lennuvae
lennuvagi
lennuvali
lennuvalja
lennuvaljade
lennuvaljal
lens
lenz
leo
leon
leonard
leonardo
leone
leonhard
leoni
leonid
leopard
leopold
lepa
lepajoe
lepatriinu
lepik
lepiku
leping
lepingu
lepingud
lepinguga
lepinguid
lepingule
lepingus
lepingust
lepingut
lepingute
lepitada
lepiti
lepitud
lepland
lepo
lepp
leppe
leppida
leppik
leppima
leppinud
leppis
leppisid
leq
leroy
les
lesbian
lese
lesgi
lesk
leslie
lesotho
less
lessons
let
letseburgi
lett
letter
letters
lettische
lettland
lettres
lev
levadia
levandi
level
levels
levi
leviala
levib
levida
levik
leviku
levikuga
levikule
levikult
levikut
levila
levima
levimise
levin
levinud
levinuim
levinum
levinumad
levinumaid
levis
levisid
levitada
levitamine
levitamise
levivad
levy
lewis
lewise
lex
lexicon
lexikon
lf
lg
lgbt
lh
lhv
li
lia
liam
lib
libahunt
libe
libeeria
liber
liberaalide
liberaalne
liberaalse
liberalismi
libertadores
liberty
libises
liblikas
liblikoielised
liblikoieliste
liblikujumises
library
libreto
libri
liczbach
lie
liebe
liechtenstein
liechtensteini
lief
liefland
liege
liepaja
lietu
lietuviu
lietuvos
life
lift
liga
ligandi
ligemale
light
lightning
ligi
ligidal
ligikaudne
ligikaudu
ligipaas
ligipaasu
ligny
ligue
liguta
liguuria
liha
lihas
lihased
lihast
lihaste
lihha
liht
lihtminevik
lihtne
lihtsa
lihtsad
lihtsaid
lihtsaim
lihtsaks
lihtsalt
lihtsam
lihtsamaks
lihtsasti
lihtsat
lihtsate
lihtsus
lihtsuse
lihtsustada
lihtsustatud
lihula
lihulas
lihvitud
liia
liialdatud
liialt
liibanon
liibanoni
liibanonis
liibua
liibuas
liidendas
liidendati
liider
liides
liidese
liidetakse
liideti
liidetud
liidia
liidri
liidrid
liidu
liiduga
liidukantsler
liidule
liidumaa
liidumaal
liidus
liidust
liiduvabariikide
liig
liiga
liigaastal
liigas
liigasse
liigast
liige
liigendatud
liiget
liigi
liigid
liigiga
liigiks
liigil
liigist
liigitada
liigitatakse
liigitatud
liigiti
liigitus
liigne
liigse
liigselt
liigset
liigu
liigub
liigutab
liigutada
liigutus
liigutused
liigutusi
liigutuste
liiguvad
liik
liike
liiki
liikide
liikidel
liikidest
liiklus
liikluse
liiklussagedus
liiklust
liikme
liikmed
liikmeid
liikmeks
liikmeline
liikmelises
liikmena
liikmeskond
liikmesriigi
liikmesriigid
liikmesriik
liikmesriiki
liikmesriikide
liikmesriikides
liikmest
liikmete
liikmetega
liikmeteks
liikmetel
liikmetele
liikmetest
liikuda
liikudes
liikuma
liikumatu
liikumatult
liikumine
liikumise
liikumised
liikumisega
liikumiseks
liikumisel
liikumisele
liikumises
liikumisest
liikumisi
liikumist
liikumiste
liikunud
liikus
liikusid
liikuv
liikuva
liikuvad
liikuvate
liilia
liim
liin
liina
liine
liini
liinid
liinil
liinile
liis
liisa
liisi
liisu
liit
liita
liitis
liitlane
liitlase
liitlased
liitlaste
liitlasvagede
liitmine
liitmise
liitmisel
liitmist
liitriigi
liitrine
liitrit
liitsona
liitu
liitub
liituda
liitude
liitudes
liituma
liitumine
liitumise
liitumisel
liitumist
liitunud
liitus
liitusid
liituvad
liitvabariigi
liiv
liiva
liivak
liivakivi
liivalaia
liivamagi
liivane
liivast
liivi
liivik
liivika
liivimaa
liivimaal
liivimaale
liivimaalt
liivlased
liivlaste
liiwi
liiwimaa
liiwimaal
liiwimaale
liiwlased
liiwlaste
like
likvideerida
likvideerimise
likvideerimist
likvideeritav
likvideeriti
likvideeritud
lil
lili
lilian
lill
lilla
lille
lilled
lillede
lillekula
lilli
lilly
lily
lim
lima
limaskesta
limbazi
limburg
limburgi
limited
limits
lin
lina
linajarv
linask
linastunud
linastus
lincoln
lincolni
lind
linda
linde
lindepuu
lindgren
lindi
lindstrom
lindu
lindude
lindudel
lindudest
line
lineaarne
lineaarse
lineaarselt
lines
ling
lingua
linguistic
linguistics
lingvistika
link
linn
linna
linnaasunduse
linnad
linnade
linnades
linnadesse
linnadest
linnaeus
linnaga
linnagalerii
linnakomitee
linnakooli
linnakoolis
linnaks
linnal
linnale
linnamae
linnamagi
linnamuur
linnamuuri
linnamuuseum
linnamuuseumi
linnaoigused
linnaosa
linnaosad
linnaosade
linnaosas
linnaossa
linnapea
linnapeaks
linnaplaneerimise
linnaraamatukogu
linnarajoon
linnaringkond
linnaringkonnas
linnart
linnas
linnast
linnastu
linnateater
linnateatri
linnateatris
linnavalitsus
linnavalitsuse
linnavolikogu
linnavolikokku
linne
linnu
linnud
linnulennult
linnuliik
linnus
linnuse
linnused
linnuseid
linnuses
linnusesse
linnusest
linnust
linnuste
linnutee
lint
linus
linux
linuxi
lion
lionel
lipnik
lipp
lippe
lippmaa
lippu
lippude
lipu
lipud
lipuga
lipuks
lipul
lisa
lisaajal
lisab
lisad
lisada
lisades
lisajoe
lisajoed
lisajogi
lisaks
lisama
lisamine
lisamisega
lisandub
lisandunud
lisandus
lisandusid
lisanduvad
lisanud
lisas
lisasid
lisatakse
lisati
lisatud
lisavad
lissaboni
lissabonis
list
literaat
literary
literatur
literature
lithuania
lito
litsents
litsentsi
little
liu
liustik
liustike
liustiku
liv
live
liverpool
liverpooli
lives
livia
living
livland
livlandischen
livlands
livonia
livoniae
livviko
lj
ljubljana
ljubov
ljudmila
lk
ll
lloyd
lm
ln
lo
loa
loal
loata
lobu
lobus
local
location
lock
locke
lockheed
lode
lodi
loe
loeb
loen
loend
loendis
loeng
loengu
loengud
loenguid
loengute
loeta
loetakse
loetav
loetelu
loeti
loetleb
loetletakse
loetletud
loetud
loevad
log
logic
logistika
logo
logos
lohe
lohk
lohki
lohkuda
lohkus
lohmus
lohmuse
lohn
lohna
lohnaga
lohnav
lohu
lohub
lohusuu
lohuti
lohutud
lohutust
loi
loid
loigata
loigatakse
loigati
loigatud
loige
loigu
loigud
loigul
loigus
loik
loikab
loikama
loikas
loike
loikes
loiku
loire
loit
loiwad
lokk
lokke
loks
loksa
loksu
lokuta
lola
loll
lollus
lombardia
lomonossovi
lomp
london
londoni
londonis
londonisse
londonist
long
longa
longus
lonicera
loo
loob
loobu
loobub
loobuda
loobuma
loobumine
loobumise
loobumist
loobunud
loobus
loobusid
loobuti
lood
loodab
loodan
loode
loodearmee
loodeosas
loodes
loodesse
loodetakse
loodeti
loodi
loodu
loodud
loodus
loodusajakiri
loodusala
looduse
loodusega
loodusele
looduses
loodusest
looduseuurijate
loodusfoto
loodusfotograaf
looduskaitse
looduskaitseala
looduskaitsealal
looduskaitsealune
looduskaitsja
looduslik
looduslike
looduslikest
looduslikke
looduslikku
loodusliku
looduslikud
looduslikult
looduspark
loodust
loodusteadlane
loodusteaduse
loodusteaduste
loodusvarade
loog
looga
loogi
loogik
loogika
loogikas
loogikat
loogiline
loogilise
loogiliselt
loogilist
looja
loojad
loojaks
look
looke
looki
looking
lookpillid
looks
loole
loom
looma
loomaaed
loomaaia
loomaaias
loomaarst
loomaarstiteadlane
loomad
loomade
loomadega
loomadel
loomadele
loomadest
loomakaitse
loomakasvatuse
loomakasvatusteadlane
loome
loomi
loomine
looming
loomingu
loominguga
loomingule
loominguline
loomingulise
loomingus
loomingust
loomingut
loomise
loomisega
loomiseks
loomisel
loomisele
loomises
loomisest
loomist
loomu
loomuga
loomulik
loomulikku
loomuliku
loomulikud
loomulikult
loomult
loomus
loomuse
loomusest
loomust
loona
loone
loonud
loop
loor
loorits
loos
loost
loota
loote
lootes
lootis
lootnud
lootsid
lootus
lootuse
lootused
lootuses
lootust
loov
loova
loovad
loovutama
loovutas
loovutati
lope
lopeb
lopetab
lopetada
lopetades
lopetajad
lopetama
lopetamata
lopetamine
lopetamise
lopetamiseks
lopetamisel
lopetamisest
lopetamist
lopetanud
lopetas
lopetasid
lopetati
lopetatud
lopevad
lopez
loplik
loplikku
lopliku
loplikult
lopmata
lopmatu
lopmatult
lopmatus
lopp
loppeb
loppeda
loppedes
loppema
loppemist
loppenud
loppes
loppesid
loppkokkuvottes
loppu
loppude
lopu
lopuks
lopul
lopule
lopuline
lopuni
lopupoole
lopus
lopust
loputoo
loputu
loputult
lord
lordi
lorenz
lorenzo
lori
lorraine
los
loss
lossenko
lossi
lossid
lossis
lossist
lost
lot
lothar
loti
lotman
lotmani
lotringi
lotta
lotte
lotus
lou
loua
louend
louendil
lougas
louis
louise
louisiana
louna
lounaeesti
lounakaldal
lounakuljel
lounaosa
lounaosas
lounapoolkeral
lounapoolne
lounapoolse
lounapoolseim
lounarannikul
lounas
lounasse
lounast
lounat
louvre
love
lovi
low
lower
lowis
lp
lpg
lq
lr
ls
lt
ltd
lu
lua
luba
lubab
lubada
lubades
lubaduse
lubage
lubama
lubanud
lubas
lubasid
lubatakse
lubatav
lubati
lubatud
lubavad
lubeck
lubecki
lubi
lubja
lubjakivi
lubjakivist
lublini
luc
luca
lucas
lucca
luce
lucia
luciano
lucius
lucy
ludmilla
ludovico
ludvig
ludwig
ludwigi
ludza
luftwaffe
luga
luganuse
lugeda
lugedes
lugeja
lugejad
lugejaid
lugejale
lugejate
lugema
lugemine
lugemise
lugemiseks
lugemisel
lugemist
lugenud
luges
lugesin
lugu
lugude
lugudest
lugupeetud
lugusid
luha
luhamaa
luhanski
luhem
luhema
luhemad
luhemalt
luhemat
luhend
luhendatud
luhendatult
luhendid
luhendina
luhiajaline
luhiajaliselt
luhidalt
luhielulood
luhifilm
luhike
luhikese
luhikesed
luhikeseks
luhikesi
luhikest
luhikeste
luhikokkuvote
luhiulevaade
luht
luid
luidja
luiga
luige
luigi
luik
luis
luisa
luise
luka
lukanud
lukas
lukata
lukatakse
lukati
lukatud
luke
luki
lukk
lukkab
lukkama
lukkas
lukkasid
lukku
luksemburg
luksemburgi
luksemburgis
luku
lukumaarat
luli
lulitada
lulitati
lulitatud
luliti
lumanda
lume
lumi
lumiste
lump
luna
lunaraha
lunastaja
lund
lundi
luneburg
luneburgi
lung
lussika
lust
lusti
lustivere
luteri
luteriusu
luterlik
luterliku
luther
lutheri
luts
lutseumi
lutsu
lutz
luu
luua
luuakse
luuasaamist
luud
luude
luues
luuk
luuka
luule
luulekogu
luuleraamat
luules
luulest
luulet
luuletaja
luuletajad
luuletajate
luuletus
luuletuse
luuletused
luuletusi
luuletust
luuletuste
luunja
luup
luura
luuraja
luure
luus
luust
luuudi
luxembourg
luxembourgi
lv
lvivi
lw
lx
ly
lydia
lyga
lynch
lynn
lynx
lyon
lyoni
lz
m
m0
m1
m2
m3
m4
m5
m6
m7
m8
m9
ma
maa
maabus
maad
maade
maadeavastaja
maadega
maadel
maadele
maades
maadest
maadeuurija
maadleja
maadlus
maadluses
maaelu
maag
maaga
maagaasi
maagia
maagiline
maailm
maailma
maailmaga
maailmale
maailmameister
maailmameistri
maailmameistriks
maailmameistrivoistlused
maailmameistrivoistlusi
maailmameistrivoistluste
maailmameistrivoistlustel
maailmameistrivoistlustelt
maailmapanga
maailmaparand
maailmaparandi
maailmarekord
maailmarekordi
maailmarekordit
maailmas
maailmasoda
maailmasoja
maailmasojani
maailmasojas
maailmasojast
maailmast
maaja
maakera
maakividest
maakohtu
maakohus
maakond
maakonda
maakondade
maakondades
maakonna
maakonnad
maakonnaga
maakonnaks
maakonnas
maakonnast
maakoore
maakrahv
maal
maale
maalehe
maaleht
maali
maalid
maalida
maalide
maalidel
maalides
maalija
maalikunst
maalikunsti
maalikunstnik
maalikunstnike
maalil
maalima
maalimise
maalimist
maalinud
maalis
maalitud
maalt
maamarssal
maameister
maandus
maani
maanoukogu
maanounik
maantee
maanteed
maanteede
maanteega
maanteel
maanteele
maanteelt
maanteest
maapaev
maapaeva
maapaeval
maaparanduse
maapealne
maapealse
maapiirkondades
maapind
maapinda
maapinna
maapinnal
maapinnale
maapinnalt
maapinnast
maar
maara
maarab
maarahva
maaraja
maarajoonide
maaral
maarama
maaramata
maaramine
maaramise
maaramiseks
maaramisel
maaramist
maaranud
maaras
maarasid
maarata
maaratakse
maarati
maaratleb
maaratleda
maaratlemata
maaratlemine
maaratles
maaratletakse
maaratletud
maaratlus
maaratluse
maaratu
maaratud
maarav
maaravad
maardla
maardu
maareformi
maari
maarja
maarjamaa
maarjamae
maarus
maaruse
maarused
maarusega
maarusele
maaruste
maas
maasi
maasik
maasika
maasikas
maasilinna
maasse
maast
maastik
maastikke
maastikku
maastiku
maastikud
maastikukaitseala
maastikukaitsealal
maastikul
maatasa
maatriks
maatriksi
maaulikool
maaulikooli
maavae
maavagede
maavalitsus
maavalitsuse
maavanem
maavanema
maavara
maavarade
maavarin
maavarina
maavarinas
maaviljeluse
maavoistlus
mac
macau
macbeth
macbook
macdonald
mach
machiavelli
machine
macmillan
mad
mada
madagaskar
madagaskari
madagaskaril
madal
madala
madalad
madalaim
madalal
madalale
madalam
madalama
madalamad
madalamal
madalamale
madalamat
madalamate
madalas
madalast
madalat
madalate
madalatel
madalik
madaliku
madalikul
madalikule
madalmaad
madalmaade
madalmaades
madame
made
madeira
madeleine
madis
madise
madison
madisoni
madisson
madli
madona
madonna
madrid
madridi
madridis
madu
madude
madudel
madusid
mae
maeahelik
maed
maekula
maekuru
mael
maele
maelt
maemari
maeots
maesalu
maest
maestik
maestiku
maestikus
maestro
maesuusataja
maesuusatamises
maetaguse
maeti
maetipp
maetippu
maetud
maffia
mag
maga
magab
magada
magama
maganud
magas
magazin
magazine
magda
magdaleena
magdalena
magdeburgi
mage
magede
magedes
magedesse
magedest
mager
magesid
maggie
maggiore
maggo
magi
magic
magine
magismaa
magister
magistri
magistrikraad
magistrikraadi
magistrikraadiga
magistrioppe
magistrioppes
magistritoo
magma
magna
magneesiumi
magnet
magnetic
magnetiline
magnetilise
magnetvali
magnetvalja
magnicourt
magnituudine
magnus
magnuse
magu
magus
magusa
magusat
maha
mahajaana
mahajaetud
mahe
mahilou
mahl
mahla
mahler
mahmud
maht
mahti
mahtra
mahtu
mahtus
mahu
mahub
mahukas
mahus
mahutab
mahutada
mahutas
mahutavus
mai
maia
maid
maiden
maidla
maie
maikuus
mail
mailis
maimets
maimu
main
maine
mainet
maini
mainib
mainida
maininud
mainis
mainitakse
mainiti
mainitud
mainz
mainzi
maire
mais
maisi
maismaa
maismaal
maist
maiste
mait
maitse
maitsega
maitset
maitsta
maja
majad
majade
majades
majaka
majakas
majakovski
majale
majamuuseum
majandamise
majandus
majandusaasta
majanduse
majandusele
majanduses
majandusharu
majanduskasvu
majanduskriis
majanduskriisi
majanduslik
majanduslike
majanduslikke
majanduslikku
majandusliku
majanduslikud
majanduslikult
majandusminister
majanduspoliitika
majandust
majandusteadlane
majandusteaduse
majandusteaduskonna
majandustegelane
majapidamise
majapidamises
majapidamist
majas
majasse
majast
majja
major
majori
maju
makarov
make
makedoonia
makedoonias
makes
making
maks
maksa
maksab
maksas
maksavad
makse
maksid
maksim
maksimaalne
maksimaalse
maksimaalselt
maksimaalset
maksimum
maksimumtemperatuur
maksis
maksma
maksmata
maksmise
maksnud
maksta
makstakse
maksti
makstud
maksu
maksud
maksude
maksudest
maksumus
mal
malaaria
malaga
malagassi
malai
malaisia
malaisias
malajalami
malawi
malaysia
malcolm
male
malemeister
malemeistriks
maleolumpial
males
malestis
malestised
malestus
malestuse
malestused
malestuseks
malestusi
malestuskivi
malestusmargi
malestusmargid
malestusmark
malestusmedal
malestuspaev
malestussamba
malestussammas
malestustahvel
malestuste
malestustes
maleta
maletab
maletad
maletaja
maletan
maletas
maletreener
malev
maleva
malevkond
malevkonna
mali
malik
malis
malk
mall
malla
malle
mallorca
mallu
malm
malmo
malta
maltswet
maltsweti
malu
malus
malust
maly
mamma
man
mana
management
manager
manche
manchester
manchesteri
mand
mandaati
mandel
mandela
mandide
mandri
mandril
mandriosa
mandzuuria
manedzer
manfred
mang
mange
mangi
mangib
mangida
mangides
mangija
mangijad
mangijaid
mangijaks
mangijal
mangijale
mangijat
mangijate
mangijatel
mangima
mangimine
mangimise
mangimiseks
mangimist
manginud
mangis
mangisid
mangitakse
mangiti
mangitud
mangivad
mango
mangu
manguaega
mangud
mangude
mangudega
mangudel
mangudes
mangudest
mangufilm
mangufilmi
manguga
mangul
mangule
mangus
mangust
manhattan
manhattani
manhattanil
mani
manifest
manifesti
manin
mann
manner
mannheimi
manni
mannid
mannik
manniku
mansi
mansiiskis
mantel
manteuffel
mantli
mantojums
mantova
manu
manual
manuel
manufacturing
manustamine
many
mao
maod
maoliigid
maoliik
maoori
maoperekond
map
maple
mapping
maps
mar
mara
maran
marat
marathi
maraton
maratoni
marburgi
marc
marcel
marcello
march
marchand
marche
marco
marcos
marcus
mardi
mardikaliste
mare
marek
maret
marg
marga
marganud
margaret
margareta
margarete
margaretha
margarethe
margarita
margata
margatav
margatavalt
margati
marge
margi
margib
margid
margiga
margiks
margis
margistatud
margit
margitakse
margiti
margitud
margivad
margo
margot
marguerite
margus
mari
maria
marian
mariana
marianne
marie
marija
marika
marilyn
marin
marina
marine
marino
mario
marion
maripuu
maris
marit
maritime
mariupoli
marius
marja
marjad
marjaks
marjamaa
marje
marju
mark
marka
markab
markamatult
markas
markasid
marke
market
marketing
marki
markida
markide
markides
markidest
markii
markimiseks
markimisvaarne
markimisvaarse
markimisvaarsed
markimisvaarseid
markimisvaarselt
markimisvaarset
markinud
markis
markkrahv
markkrahvi
markmed
markmeid
marko
marks
marksa
marksismi
marksona
marku
markus
markuse
markused
marmor
marmorist
marmortahvlil
marne
maroko
marokos
marquion
marriage
mars
marseille
marsh
marshall
marshalli
marsi
marsil
marsile
marsruudil
marsruut
marss
marssal
marssis
mart
marta
marten
marter
martha
marti
martin
martina
martine
martinez
martini
martino
martins
martinson
martinus
martna
marts
martsi
martsiks
martsil
martsini
martsis
martsist
martson
martti
maru
marx
marxi
mary
marylandi
mas
masa
mashke
masin
masina
masinad
masinaehituse
masinaid
masinat
masinate
masing
masingu
masinlik
mask
maski
mason
masoovia
mass
massa
massachusetts
massachusettsi
massajad
massajate
masse
massi
massiga
massiiv
massiivi
massiivne
massiline
massilise
massiliselt
massimorv
massist
masso
massu
massulised
massuliste
mast
master
masters
masti
masuuria
mat
mata
match
mate
mateeria
matemaatik
matemaatika
matemaatikaleksikon
matemaatikaopetaja
matemaatikas
matemaatikat
matemaatiline
matemaatilise
matemaatilised
matemaatiliselt
matemaatiliste
mater
materiaalne
materiaalse
material
materialen
materialien
materials
materjal
materjale
materjali
materjalid
materjalide
materjalidest
materjaliga
materjalis
materjalist
math
mathbb
mathbf
mathcal
mathematical
mathematics
mathias
mathiesen
mathieu
mathilde
mathrm
mati
matilda
matisse
matka
matkarada
matmispaik
matrikel
matriklisse
matrix
mats
matsalu
matsi
matt
matta
matteo
matter
matteuse
matthew
matthias
matti
mattias
mattiesen
mattis
matus
matused
matustel
matvei
maud
maurer
mauri
maurice
mauritaania
mauritiuse
maurus
mauruse
mausoleum
max
maxim
maxima
maximilian
maximus
maxwell
maxwelli
may
maya
maydell
mayer
mazarin
mazciems
mazoor
mazsalaca
mb
mbit
mc
mccartney
mcdonald
mcgraw
md
me
mean
meaning
means
measurement
mechanics
mechanism
mechanisms
mecklenburg
mecklenburgi
med
medal
medaleid
medali
medalid
medaliga
medaliheitlusest
medalit
media
mediaan
mediaanvanus
mediabank
medical
medici
medicina
medicinal
medicine
medieval
meditsiin
meditsiini
meditsiiniauhinna
meditsiinidoktor
meditsiiniline
meditsiinilise
meditsiinis
meditsiinisonastik
medium
medvedev
mee
meedia
meedias
meediumifail
meeksi
meel
meelde
meeldi
meeldib
meeldiks
meeldima
meeldinud
meeldis
meeldisid
meeldiv
meeldiva
meeldivad
meele
meeleavaldajad
meeleavaldajate
meeleavaldus
meeleavalduse
meeleavaldused
meeleavalduste
meeled
meelega
meeleheitel
meelel
meelelahutus
meeleldi
meeleolu
meeles
meelest
meelestatud
meeletu
meeli
meelis
meelitab
meelitada
meelitas
meelsasti
meelt
meelte
meeltega
meenutab
meenutada
meenutades
meenutas
meenutav
meenutavad
meenutusi
meeri
mees
meeskond
meeskonda
meeskondade
meeskondlikult
meeskonna
meeskonnad
meeskonnaga
meeskonnale
meeskonnaliiget
meeskonnas
meeskonnast
meeskonnavoistluses
meeskoor
meeskoori
meeskorvalosataitja
meesnaitleja
meespeaosataitja
meessoo
meessoost
meest
meeste
meestega
meestel
meestele
meestest
meet
meeter
meeting
meetmed
meetmeid
meetmete
meetod
meetodeid
meetodi
meetodid
meetodiga
meetodil
meetodit
meetodite
meetoditega
meetri
meetril
meetrine
meetrini
meetrise
meetrit
mega
mehaanika
mehaaniline
mehaanilise
mehaanilised
mehaaniliselt
mehaaniliste
mehe
mehed
mehega
meheks
mehel
mehele
meheline
mehelise
mehena
mehenimena
mehenimi
mehest
mehhaniseeritud
mehhanism
mehhanisme
mehhanismi
mehhanismid
mehhanismide
mehhiko
mehhikos
mehi
mehike
mehikoorma
mehis
mehitamata
mehitatud
mehmed
mei
meid
meie
meiega
meiegi
meier
meierei
meikar
meil
meile
meilt
mein
meinhard
meis
meist
meister
meistersportlane
meistri
meistrid
meistriks
meistrile
meistriliiga
meistriliigas
meistrite
meistrivoistlused
meistrivoistlusi
meistrivoistluste
meistrivoistlustel
meistrivoistlustelt
meißeni
mel
melanie
melbourne
melchior
melissa
meloodia
melville
member
members
membraani
memento
memmekene
memoriaal
memorial
memoriam
memory
memuaarid
men
menar
mendelssohn
menetlus
menetluse
menetlusse
menon
mental
menu
meos
mer
mercedes
mercia
mercury
merd
mere
mereakadeemia
merega
merejoudude
merekindluse
merekooli
merel
merele
merelt
meremaa
meremaal
meremae
meremees
meremeeste
meremehed
meremiili
mereni
merepinna
merepinnast
merepohja
meres
meresoitja
merest
mereste
merevae
merevaelane
merevaes
merevagi
merevee
merevikis
meri
merike
merikula
merila
merili
merit
merivalja
merkel
merkmalen
merkuuri
merle
merre
mes
mesi
mesilane
mesilased
mesilaste
mesopotaamia
mesopotaamias
message
messenger
messi
messier
messina
mesta
mesto
met
meta
metaani
metabolism
metabolismi
metafoor
metafuusika
metal
metall
metalle
metalli
metallica
metallid
metallide
metallikunstnik
metallist
metaphysics
meteoroloogia
method
methods
metodisti
metodoloogia
metoodika
metro
metroo
metroojaam
metropoliit
metropolitan
metropolitana
mets
metsa
metsad
metsade
metsades
metsadest
metsaga
metsakaitseala
metsakalmistul
metsakalmistule
metsamajanduse
metsandik
metsanduse
metsar
metsas
metsast
metsateadlane
metsavend
metsavendade
metsavennad
metsi
metsik
metsiku
metsikult
metskond
metskonna
metskula
metslang
metsosopran
metspalu
metsseal
mett
metz
mexico
mexicos
meyer
mf
mg
mh
mhz
mi
mia
miami
mice
michael
michaeli
michal
michał
michel
michelangelo
michele
michelle
michelson
michigan
michigani
mick
mickwitz
micro
microbiol
microbiology
microsoft
microsofti
mid
mida
midagi
middle
midi
mie
miejscowosci
mies
mieszko
mig
migracijas
migration
migratsiooni
miguel
mihail
mihhail
mihhailovits
mihkel
mihkelson
mihkli
miia
miikaeli
miili
miilits
miilitsa
miina
miinimum
miinimumtemperatuur
miinus
miitavi
mika
mikael
mike
mikelsaar
miki
mikita
mikitamae
mikiver
mikk
mikko
mikołaj
mikrobioloog
mikrobioloogia
mikrofoni
mikroneesia
mikroorganismide
miks
mikser
miku
mil
milan
milani
milano
milanos
miles
military
miljard
miljardi
miljardit
miljon
miljoneid
miljoni
miljonid
miljonile
miljonit
miljonite
milk
mill
millal
millalgi
mille
millega
millegagi
millegi
millegiparast
milleks
millekski
millel
millele
millelegi
millelt
milleni
millennium
miller
milleri
milles
milleski
millesse
millest
millestki
milleta
milli
milline
million
millise
millised
milliseid
millisel
millises
millist
milliste
mills
milne
milton
milvi
milwaukee
min
mina
minagi
minas
mind
mindi
mine
mineiro
minek
minekut
minema
mineraal
mineraali
mineraalid
mineraalide
mineral
mineraloogia
minevik
minevikku
mineviku
minevikus
minevikust
minge
mingeid
mingi
mingid
mingil
mingile
mingis
mingisse
mingist
mingisugune
mingisuguse
mingisuguseid
mingisugust
mingit
mingite
mingu
mini
minimaalne
minimaalse
minimaalselt
minimum
mining
ministeerium
ministeeriumi
minister
ministri
ministrid
ministries
ministriks
ministrite
ministry
minna
minnakse
minnes
minnesota
minoor
minor
minose
minsk
minski
minskis
minu
minuga
minul
minule
minult
minus
minusse
minust
minut
minuti
minutiga
minutil
minutis
minutit
mir
miranda
mirjam
mirko
mirna
miro
miroslav
mirror
mis
misjarel
misjonar
misjonarid
miska
miski
mismoodi
misparast
mispeale
miss
missa
missile
missing
mission
missioon
missiooni
missioonil
mississippi
misso
missouri
missugune
missuguse
missugused
missugust
mistahes
mister
mistopisny
mistottu
mit
mitau
mitchell
mitme
mitmeaastane
mitmed
mitmeid
mitmekesine
mitmekesisus
mitmekesisuse
mitmekesisust
mitmekordne
mitmeks
mitmekulgne
mitmel
mitmele
mitmes
mitmesse
mitmest
mitmesuguse
mitmesugused
mitmesuguseid
mitmesuguste
mitmesugustes
mitmetahenduslik
mitmete
mitmetel
mitmetele
mitmetes
mitmetest
mitmeti
mitmus
mitmuse
mitmuses
mitsubishi
mitt
mitte
mitteametlik
mitteametlikult
mitteavalik
mitteilungen
mittetaielik
mittetulundusuhing
mitu
mitukummend
mitusada
mitut
mix
mj
mk
ml
mln
mm
mmil
mn
mnt
mo
mobiilne
mobiiltelefoni
mobile
mobilisatsiooni
mobiliseeriti
moby
mod
mode
model
modell
modelleerimine
models
modena
modern
modernismi
modifitseeritud
module
moe
moekunstnik
moel
moelda
moeldakse
moeldav
moeldes
moeldi
moeldud
moelge
moelnud
moes
mohamed
mohammad
mohammed
mois
moisa
moisad
moisade
moisaga
moisahoone
moisakompleks
moisakompleksi
moisakula
moisal
moisale
moisamaa
moisaomanik
moisaportaalis
moisas
moisast
moisasuda
moisat
moisate
moisavald
moisavalitseja
moisavallas
moisnik
moisnike
moisnikkude
moisniku
moisnikud
moista
moistab
moistad
moistagi
moistan
moistate
moistatus
moistavad
moiste
moisted
moistega
moisteid
moistele
moistes
moistest
moistet
moistetakse
moistetav
moistete
moisteti
moistetud
moistis
moistlik
moistliku
moistma
moistmine
moistmise
moistmiseks
moistmist
moistnud
moistsid
moistsin
moistus
moistuse
moistusega
moistust
moju
mojub
mojud
mojuda
mojude
mojuga
mojuka
mojukamaid
mojukas
mojul
mojule
mojunud
mojus
mojusid
mojust
mojuta
mojutab
mojutada
mojutama
mojutanud
mojutas
mojutasid
mojutatud
mojutavad
mojutusi
mojuv
mojuvad
mojuvoimu
moksa
mokslo
mol
moldaavia
molder
moldova
moldovas
moldre
moldri
molecular
molekul
molekulaarbioloog
molekulaarbioloogia
molekule
molekuli
molekulid
molekulide
molekulis
molema
molemad
molemaid
molemal
molemale
molemalt
molemas
molemast
molemat
molemate
moliere
molina
moll
moller
molly
molotov
molotovi
moment
mon
mona
monaco
monacos
monarh
monarhi
monarhia
monchel
monchy
mond
monda
mondagi
monde
mondo
mone
moned
monede
monedel
monedes
monegi
moneks
monel
monele
mones
monest
monet
moneti
monevorra
money
mongoli
mongolid
mongolite
mongoolia
mongoolias
moni
monica
monigi
monika
monikord
monikummend
moningad
moningaid
moningate
moningatel
moniste
monitor
monitoring
monnikhusen
mono
monograafia
monroe
mont
montana
monte
montenegro
montenegros
montgomery
month
monthly
montpellier
montreal
montreali
montrealis
monts
montu
monu
monumendi
monument
monus
moobel
moobli
mooblit
mood
mooda
moodab
moodas
moode
moodetakse
moodeti
moodetud
moodetuna
moodi
moodne
moodsa
moodu
moodub
moodud
moodudes
mooduka
moodukalt
moodukas
moodul
mooduli
moodumist
moodunud
moodus
moodusid
moodusta
moodustab
moodustada
moodustades
moodustama
moodustamine
moodustamise
moodustamisega
moodustamiseks
moodustamisel
moodustamist
moodustanud
moodustas
moodustasid
moodustatakse
moodustati
moodustatud
moodustavad
moodustavate
moodustis
moodustub
moodustumine
moodustumise
moodustumist
moodustunud
moodustus
moodustuvad
mooga
moogaga
moogavendade
mook
mooka
mookadega
moon
moona
moondunud
moonika
moonutatud
moor
moora
moore
mooses
moosese
mooste
moot
moota
mootis
mootkavas
mootma
mootmed
mootmete
mootmetega
mootmine
mootmise
mootmised
mootmiseks
mootmisel
mootmisi
mootmiste
mootor
mootoreid
mootori
mootorid
mootoriga
mootorit
mootorite
mootu
mootuhik
mora
moraal
moraali
moraalne
moraalse
moraalselt
moraalset
moral
morales
morava
mordva
more
moreno
morfoloogia
morgan
mori
moritz
morning
morozov
morris
morrison
morse
morsja
mort
morton
moru
morv
morva
morvar
morvas
morvati
mos
mosambiigi
moscow
mosee
moses
moskva
moskvas
moskvasse
moskvast
moskwalase
moslemid
moslemite
moss
most
mote
motelda
motelnud
motet
motete
mother
motiiv
motiive
motiivi
motiivid
motiivide
motion
motivatsiooni
motiveeritud
motle
motleb
motled
motleja
motleks
motlema
motleme
motlemine
motlemise
motlemist
motlen
motles
motlesid
motlesin
motlevad
moto
motor
motoriseeritud
motorola
motors
motosportlane
motte
motted
mottega
motteid
mottele
motteline
motteloo
mottelugu
mottes
mottesse
mottest
mottetu
motteviis
motteviisi
mottus
mount
mountain
mountains
mouse
move
movement
movie
mozart
mozarti
mozilla
mp
mpeg
mpumalanga
mq
mr
mrna
mrs
ms
mstislav
mt
mtdna
mtu
mtv
mu
much
mucha
muda
mudel
mudeleid
mudeli
mudelid
mudeliga
mudelil
mudelis
mudelist
mudelit
mudelite
mudelitel
mugav
mugavalt
muhammad
muhlen
muhu
muia
muid
muide
muidki
muidu
muidugi
muinas
muinasaja
muinasajal
muinasjutt
muinasjutte
muinasjutud
muinaskalmed
muinaslinnus
muinsuskaitse
muinsuskaitseamet
muinsuskaitseameti
muist
muiste
muistne
muistse
muistsed
muistsete
muiza
mujal
mujale
mujalgi
mujalt
mukeene
mukoloog
mul
muld
mulda
muldade
muldadel
mulgi
mulje
muljet
mull
mulla
mullad
mullas
mullast
mulle
muller
mulleri
multi
multiple
mun
muna
munad
munade
munchen
muncheni
munchenis
mundi
mundid
mune
muneb
munga
mungad
municipal
munitsipaalrajoon
munk
munkade
munna
munster
munsteri
munsterroll
munt
munte
muntide
mura
murad
muraka
murat
murd
murda
murde
murded
murder
murdes
murdesona
murdis
murdma
murdmaa
murdmaasuusataja
murdmaasuusatamises
murdnud
murdoch
murdsid
murdumisnaitaja
murdunud
mure
mured
mures
muret
muretseda
muretsema
muretses
murgi
murgine
murgised
muri
murk
murki
murmanski
murphy
murrab
murray
murre
murret
murrete
murretes
murru
murtud
muru
mus
musa
musee
museo
museum
music
musica
musical
musicbrainz
musik
musk
muskatplomi
musketari
muslimite
mussolini
must
musta
mustad
mustade
mustafa
mustaks
mustal
mustamae
mustanahalisi
mustanahaliste
mustas
mustast
muster
musti
mustika
mustiline
mustjala
mustjarv
mustjoe
mustla
mustlased
mustlasi
mustpeade
mustreid
mustri
mustrid
mustriga
mustvee
mutatsioonid
muti
mutoloogia
mutoloogias
mutoloogiast
muts
mutsi
mutt
muu
muua
muuakse
muub
muud
muuda
muudab
muudatus
muudatused
muudatusi
muudatuste
muudatustega
muudavad
muude
muudel
muudele
muudes
muudest
muudetakse
muudeti
muudetud
muudi
muudid
muudki
muudkui
muudud
muuga
muugi
muugiga
muugiks
muugil
muugile
muugist
muuhulgas
muuja
muuk
muuki
muuks
muul
muule
muuli
muuma
muundab
muundatud
muunud
muur
muuri
muurid
muuride
muurileht
muursepp
muus
muusa
muuseas
muuseum
muuseumi
muuseumid
muuseumide
muuseumile
muuseumis
muuseumist
muusid
muusik
muusika
muusikaakadeemia
muusikaakadeemias
muusikaauhinnad
muusikaelu
muusikaga
muusikainstrumentide
muusikakeskkooli
muusikakool
muusikakooli
muusikakoolis
muusikakriitik
muusikal
muusikale
muusikali
muusikaline
muusikalis
muusikalise
muusikalisi
muusikalist
muusikaliste
muusikaopetaja
muusikapedagoog
muusikaprodutsent
muusikas
muusikasse
muusikast
muusikastiil
muusikat
muusikateadlane
muusikateose
muusikavideo
muusikazanr
muusiku
muusikud
muusikuid
muusikute
muust
muut
muuta
muutes
muutiline
muutis
muutlik
muutma
muutmalu
muutmata
muutmine
muutmise
muutmisega
muutmiseks
muutmisel
muutmist
muutnud
muutsid
muutu
muutub
muutuda
muutudes
muutuja
muutujad
muutujate
muutuks
muutuma
muutumatu
muutumine
muutumise
muutumist
muutunud
muutus
muutuse
muutused
muutusi
muutusid
muutust
muutuste
muutustega
muutustest
muutuv
muutuva
muutuvad
muuvad
mv
mw
mx
my
mycobacterium
myspace
mystery
myth
mz
n
n0
n1
n2
n3
n4
n5
n6
n7
n8
n9
na
naaber
naabervallad
naabri
naabrid
naabrite
naabruses
naad
naan
naaseb
naasid
naasis
naasmist
naasnud
naasta
naastes
nabala
nach
nachrichten
nacht
nacional
nad
nadal
nadala
nadalaga
nadalaks
nadalal
nadalaleht
nadalas
nadalat
nadalavahetusel
nadezda
nae
naeb
naed
naeks
nael
naela
naelsterlingit
naeme
naen
naene
naer
naerab
naeratades
naeratas
naeratus
naeratusega
naerda
naerdes
naeris
naerma
naersid
naeru
naete
naevad
nafta
naftat
nagel
nagema
nagemata
nagemine
nagemise
nagemist
nagemus
nagi
nagid
nagime
nagin
nagiwad
nagu
nagusid
nagy
naha
nahaga
nahakse
nahakunstnik
nahal
nahale
nahast
nahes
nahk
nahka
nahkhiir
nahkhiirte
nahkur
nahtamatu
nahtav
nahtava
nahtavad
nahtavaks
nahtavale
nahtavasti
nahti
nahtub
nahtud
nahtus
nahtuse
nahtused
nahtusi
nahtust
nahtuste
nai
naib
naidanud
naidata
naidatakse
naidates
naidati
naidatud
naide
naidend
naidendeid
naidendi
naidendid
naidendis
naidendit
naidet
naiivne
naikse
nailiselt
naine
nainud
nais
naise
naised
naisega
naiseks
naisel
naisele
naisena
naisenimi
naisest
naishinge
naisi
naisid
naiskodukaitse
naiskonna
naiskoor
naiskorvalosataitja
naisnaitleja
naispeaosataitja
naissaare
naissoo
naissoost
naissugu
naist
naiste
naistega
naistel
naistele
naistepuna
naisterahva
naisterahvas
naistest
nait
naita
naitab
naitaja
naitajad
naitama
naitamiseks
naitas
naitasid
naitavad
naite
naited
naiteid
naitekirjanik
naiteks
naitekunsti
naitel
naitena
naites
naitleja
naitlejad
naitlejaid
naitlejana
naitlejanna
naitlejate
naitus
naituse
naitused
naituseks
naitusel
naitusi
naitust
naituste
naitustel
naiv
naivad
naja
najal
nakatunud
nakatunut
nakatunute
nakku
nakkus
nakkuse
nakkushaiguste
nalg
nalga
nali
nalja
naljahada
naljakas
naljane
nam
name
named
names
namiibia
nams
nana
nancy
nano
nantes
nao
naod
naoga
naol
naole
naomi
naos
naost
napi
napilt
napoleon
napoleoni
napoli
napolis
napp
napuga
narkootikumide
narr
narva
narvas
narvast
narvisusteem
narvisusteemi
narwa
nas
nasa
nasdaq
nash
nashville
nassau
nat
natali
natalia
natalie
natalja
nathan
nation
national
nationale
nations
native
natl
nato
natsi
natside
natsionaliseeriti
nattoke
nattokesse
natuke
natukene
natukese
natur
natura
natural
nature
nauding
naudingu
naudingut
nauru
nautida
nautis
naval
navarra
navigatsioonimarkide
navy
nazionale
nb
nba
nbc
nc
ncbi
nd
ndad
ndail
ndate
ndatel
ndatest
ndebele
ne
neal
near
nebraska
nebst
ned
need
needki
needsamad
needus
neelab
neem
neeme
neenetsi
neeru
neerude
neeruti
neetud
neeva
negatiivne
negatiivse
negatiivsed
negatiivseid
negatiivselt
negatiivset
negatiivsete
negative
neggo
nehatu
nei
neid
neidu
neil
neile
neill
neilt
neis
neisse
neist
neitsi
neiu
neiud
neiule
neiuna
neiupolvenimega
neiupolvenimi
nekroloog
nektar
nekustamo
nel
nele
neli
nelikummend
nelinurkne
nelinurkse
nelipuhi
neliteist
nelja
neljakordne
neljaks
neljakumne
neljal
neljale
neljanda
neljandaks
neljandal
neljandas
neljandat
neljapaadil
neljapaev
neljapaeva
neljapaeval
neljas
neljast
nella
nelli
nelson
nemad
nemunase
nenda
nende
nendega
nendeks
nendel
nendele
nendelt
nendes
nendesse
nendest
neo
nepal
nepali
nepalis
neptune
neptuuni
nerman
nero
nerva
nestor
net
netherlands
netiviide
network
networks
neu
neue
neumann
neural
neuroloog
neuronite
neuroscience
neustadt
neutraalne
neutraalse
neuville
nevada
never
nevski
new
newcastle
newman
news
newton
newtoni
next
nf
nfsv
nft
ng
ngc
nguyen
nh
nhl
ni
nicaragua
niccolo
nice
nicholas
nicht
nick
nicola
nicolae
nicolai
nicolas
nicolaus
nicole
nie
niels
nielsen
nietzsche
nigeeria
nigeerias
nigel
niger
nigeri
night
nigol
nigra
nigul
nigula
niguliste
nih
nihe
nihkus
nii
niidu
niidumari
niigi
niihasti
niikaua
niikuinii
niiluse
niimoodi
niina
niinimetatud
niipalju
niipea
niisama
niisamuti
niisiis
niiske
niiskus
niiskuse
niiskust
niisugune
niisuguse
niisugused
niisuguseid
niisugusel
niisuguses
niisugust
niisuguste
niisuke
niit
niitudel
niiviisi
niivord
nikaia
nikephoros
nikerdatud
nikita
nikkel
niko
nikola
nikolai
nikolajev
nikolajevits
nikolaus
nikolause
nils
nilsson
nim
nime
nimed
nimede
nimedega
nimedest
nimega
nimekiri
nimekirja
nimekirjad
nimekirjas
nimekirjast
nimeks
nimekuju
nimel
nimele
nimeline
nimelise
nimeliselt
nimelises
nimelist
nimelt
nimena
nimes
nimesid
nimest
nimestik
nimeta
nimetab
nimetada
nimetades
nimetama
nimetame
nimetamine
nimetamise
nimetanud
nimetas
nimetasid
nimetatakse
nimetatav
nimetati
nimetatud
nimetav
nimetavad
nimetu
nimetus
nimetuse
nimetused
nimetusega
nimetuseks
nimetusest
nimetusi
nimetust
nimetut
nimi
nimisona
nimistu
nimistus
nimistusse
nina
ninaga
ninasarvik
ninck
nine
ning
ninja
nino
nintendo
nipernaadi
nirk
nissan
nissi
nisso
nisu
nizni
nj
nk
nkvd
nl
nlib
nlkp
nlm
nm
nn
no
noa
noaga
noah
noarootsi
nobel
nobeli
nobelprize
noble
nobu
node
noel
noela
nogu
noh
noia
noiad
noid
noiduse
noir
noise
nojah
nokaudiga
nokia
nokk
nolva
nolvadel
nolval
nomenclature
nominatsiooni
nomineeritud
nominent
nomm
nomme
nommel
nommik
nommkula
non
nonda
nondanimetatud
noo
nood
noodi
noodikirja
noodikirjas
nool
noole
noor
noore
noored
noorel
noorele
noorelt
noorem
noorema
nooremad
nooremale
nooremat
nooremate
nooremehe
nooremleitnant
nooremteadur
noorena
noores
noorest
noori
noorik
noorim
noorima
noormees
noormehe
noormets
noorsoo
noorsooteater
noorsooteatris
noorsootoo
noort
noorte
noorteakadeemiaga
noortekeskus
noorteklubis
noortel
noortele
nooruk
noorus
nooruse
nooruses
noos
noot
nor
nora
norbert
nord
nordi
nordic
nordisk
nordrhein
norga
norgad
norgaks
norgalt
norgem
nork
norka
norkus
norm
norma
normaalne
normaalse
normaalseks
normaalselt
normal
norman
normandia
normann
normanni
normannid
normannide
norme
normet
normi
normid
normide
norra
norras
norrasse
norrast
norrat
norris
norske
north
northern
norton
norway
norwegian
norwich
nos
not
notar
notari
notarite
note
noteeritud
notes
nothing
notre
nou
noua
nouab
nouandeid
nouavad
nouda
noude
nouded
noudeid
noudel
noudes
noudis
noudlik
noudlus
noudluse
noudma
noudmine
noudmise
noudmised
noudmisel
noudmisi
noudmiste
noudmistele
noudnud
noudsid
noue
nouet
nouete
nouetele
noukogu
noukogude
noukogule
noukogus
noukogusse
noukokku
nounik
nounikuna
nous
nousolek
nousoleku
nousolekul
nousolekut
nousolekuta
noustu
noustub
noustuda
noustuma
noustunud
noustus
noustusid
noutakse
noutav
nouti
noutud
nouu
nov
nova
novaator
novads
novaja
novel
novell
novelle
novelli
novellid
novellikogu
november
novembri
novembril
novembrini
novembris
novembrist
novgorod
novgorodi
novgorodis
novi
novo
novosibirski
novosti
now
nowy
noyelles
np
nq
nr
ns
nsdap
nsv
nsvl
nt
nu
nuclear
nud
nuga
nuganen
nuia
nuid
nukitsamees
nukk
nukleotiidi
nukralt
nuku
nukuteatri
nulg
nulka
null
nulli
nulliga
nullist
number
numbers
numbreid
numbri
numbrid
numbriga
numbris
numbrit
numbrite
numbritega
nunn
nupp
nuppu
nupud
nur
nurga
nurgad
nurgakivi
nurgal
nurgas
nurgast
nuri
nurjus
nurk
nurka
nurme
nurnberg
nurnbergi
nursi
nuta
nutab
nutma
nutrition
nutt
nutta
nuttes
nuttis
nuud
nuudisaegse
nuudisajal
nuudki
nuudne
nuudse
nuudseks
nuudsest
nv
nvidia
nw
nx
ny
nyman
nz
o
o0
o1
o2
o3
o4
o5
o6
o7
o8
o9
oa
oak
oandu
ob
obama
obci
obersturmfuhrer
obi
obinitsa
obj
object
objects
objekt
objekte
objekti
objektid
objektide
objektidele
objektidest
objektiga
objektiivne
objektiivse
objektiivselt
objektiks
objektile
objektina
objektist
oblast
oblasti
oblastiga
oblastikomitee
oblastis
oblastisse
oblomov
oblomovi
observatoorium
observatooriumi
observatooriumis
observer
oc
ocean
och
oclc
oct
october
od
oda
odav
odavam
odavamad
odaviskaja
ode
odede
oder
odessa
odette
odra
odysseus
odyssey
oe
oecd
oed
oega
oel
oelda
oeldakse
oeldes
oeldi
oeldud
oele
oelge
oelnud
oemees
oepoeg
oesel
of
off
office
officer
official
officinalis
ofwer
og
ogre
oh
ohio
ohk
ohkas
ohkkond
ohku
ohne
oht
ohtlik
ohtlike
ohtlikke
ohtlikud
ohtlikuks
ohtralt
ohtu
ohtude
ohtuks
ohtul
ohtuleht
ohtune
ohtuni
ohtust
ohtut
ohtuti
ohu
ohud
ohuga
ohujoud
ohujoudude
ohukaitse
ohuke
ohukese
ohukeste
ohuks
ohuniiskus
ohuruumi
ohus
ohusoiduki
ohust
ohustab
ohustatud
ohustavad
ohutas
ohutemperatuur
ohutemperatuuri
ohutorje
ohutu
ohutus
ohutuse
ohuvae
ohuvagi
ohver
ohverdati
ohvitser
ohvitsere
ohvitseri
ohvitserid
ohvitseride
ohvreid
ohvri
ohvriallikas
ohvrid
ohvrikivi
ohvriks
ohvrit
ohvrite
oi
oidermaa
oie
oied
oiete
oieti
oietolmu
oige
oigeaegselt
oiged
oigeid
oigeks
oigel
oigele
oigem
oigemini
oiges
oigesti
oiget
oigeusklikud
oigeusku
oigeusu
oiglane
oiglase
oiglus
oigluse
oiglust
oigupoolest
oigus
oigusaktid
oigusaktide
oiguse
oigused
oigusega
oiguses
oigusest
oigusi
oiguskantsler
oiguskantsleri
oiguslik
oiguslikku
oigusliku
oiguslikud
oiguslikult
oigust
oigustab
oigustada
oigustatud
oiguste
oigusteadlane
oigusteaduse
oigusteaduskonna
oigusteaduskonnas
oigusteadust
oigustega
oigustest
oigustus
oikumeenilise
oil
oilis
oinas
oine
ois
oise
oisi
oismae
oistaimede
oisu
oit
oite
oitega
oitseaeg
oitseb
oitsemise
oitseng
oitsengu
oitses
oitsev
oitsevad
oj
oja
ojakaar
ojamaa
ojasoo
ok
oka
okas
okaspuu
okeaania
okkad
oklahoma
okoloog
okoloogia
okoloogialeksikon
okoloogiline
okoloogilise
okonoomika
okosusteemi
oks
oksa
oksad
oksana
oksendamine
oksi
oksiid
oksitaani
oksjonil
okste
okt
oktav
oktavi
oktoober
oktoobri
oktoobriks
oktoobril
oktoobrini
oktoobrirevolutsiooni
oktoobris
oktoobrist
okupatsioon
okupatsiooni
okupatsioonide
okupatsioonivoimude
okupeerimist
okupeeris
okupeerisid
okupeeritud
okupetas
ol
ola
olad
olaf
olale
olari
olav
olavi
old
olda
oldenburg
oldenburgi
oldi
oldud
ole
oled
oleg
olegi
olek
oleks
oleksandr
oleksid
oleksime
oleksin
oleksite
oleksiwad
olekski
oleku
olekus
olekusse
olekust
olekut
olema
olemas
olemasolev
olemasoleva
olemasolevad
olemasolevaid
olemasolevat
olemasolevate
olemasolu
olemasolul
olemasolust
olemast
olematu
oleme
olemine
olemise
olemisest
olemist
olemus
olemuse
olemuselt
olemusest
olemuslik
olemuslikult
olemust
olen
olend
olendeid
olendi
olendid
olendite
oleneb
olenemata
olenevalt
olesk
oletada
oletame
oletas
oletatakse
oletatavasti
oletatud
olete
olev
oleva
olevad
olevaid
olevaks
oleval
olevale
olevas
olevasse
olevast
olevat
olevate
olevatele
olevatest
olevi
olevik
oleviku
olevikus
oleviste
olevus
olewat
olg
olga
olge
olgu
olgugi
oli
olid
olidki
oligi
olimaal
olime
olin
olion
oliveira
oliver
olivia
olivier
oliwad
oll
olla
ollakse
olle
ollema
olles
olli
ollino
olnd
olnud
olnudki
olnuks
olof
olovernes
olsen
olu
olud
olude
oludes
olukord
olukorda
olukordades
olukordi
olukorra
olukorraga
olukorrale
olukorras
olukorrast
oluline
olulise
olulised
oluliseks
olulisel
oluliselt
olulisem
olulisemad
olulisemaid
olulisemaks
olulisi
olulisim
olulist
oluliste
olulisust
olumpia
olumpiakomitee
olumpiakulla
olumpial
olumpiamange
olumpiamangud
olumpiamangude
olumpiamangudel
olumpiarekord
olumpiavoitja
olumpiavoitjaks
olumpiavoitjale
olustvere
olut
olympedia
olympic
olympics
olympique
om
oma
omab
omad
omada
omade
omadega
omades
omadest
omadus
omaduse
omadused
omadusi
omadussona
omadust
omaduste
omadustega
omadustele
omadustest
omaenda
omaenese
omaette
omaga
omakaitse
omakasu
omakorda
omaks
omal
omale
omalt
omama
omamine
omamoodi
omand
omandab
omandada
omandama
omandamine
omandamise
omandamiseks
omandamist
omandanud
omandas
omandasid
omandatud
omandavad
omandi
omandisse
omanduses
omandusse
omane
omanik
omanike
omanikeks
omanikele
omanikke
omanikku
omaniku
omanikud
omanikuks
omanikule
omanimelise
omanud
omapara
omaparane
omaparase
omar
omas
omase
omased
omaseid
omaselt
omasid
omast
omastav
omaste
omavad
omavahel
omavaheline
omavahelise
omavahelised
omavahelisi
omavahelist
omavaheliste
omavahelistest
omavalitsus
omavalitsuse
omavalitsused
omavalitsuseks
omavalitsuses
omavalitsusliku
omavalitsust
omavalitsuste
omavalitsustegelane
omavalitsusuksus
omavalitsusuksuse
omavalitsusuksuseks
omavalitsusuksustega
omavanuste
omega
ometi
ometigi
omi
omistab
omistada
omistatakse
omistatud
omma
omski
on
once
ondsaks
one
onepage
ongi
onion
online
only
onn
onne
onneks
onnelik
onneliku
onnelikud
onnelikuks
onnelikult
onnepalu
onnest
onnestu
onnestub
onnestunud
onnestus
onnetu
onnetus
onnetuse
onnetuses
onnetust
onnis
onnistati
onnistatud
onnistust
onomastika
ontario
onu
onupoeg
oo
ooberst
ooberstleitnant
oobik
oobiku
ood
oodanud
oodata
oodatakse
oodates
oodati
oodatud
oode
ookean
ookeani
ookeanide
ookeanis
ookull
ool
oolane
oomaja
oones
oopaev
oopaeva
oopaevaga
oopaeval
oopaevas
ooper
ooperi
ooperilaulja
ooperis
ooperit
oos
ooseks
oosel
oosi
oositi
oota
ootab
ootama
ootamata
ootamatu
ootamatult
ootan
ootas
ootasid
ootasin
ootavad
ootus
ootused
op
ope
opel
open
opera
operaator
operaatori
operation
operations
operatorname
operatsioon
operatsioone
operatsiooni
operatsioonid
operatsioonide
operatsioonisusteem
operatsioonisusteemi
opereerib
opereti
operett
opetab
opetada
opetaja
opetajad
opetajaid
opetajaks
opetajale
opetajana
opetajat
opetajate
opetajatele
opetama
opetamine
opetamise
opetamist
opetanud
opetas
opetasid
opetatakse
opetati
opetatud
opetlane
opetlased
opetus
opetuse
opetused
opetusi
opetust
opetuste
opi
opib
opik
opiku
opikuid
opilane
opilase
opilased
opilasena
opilasi
opilast
opilaste
opilastele
opilastest
opingud
opinguid
opingute
opinion
opitakse
opiti
opitud
opivad
opmann
opole
opositsioon
opositsiooni
oppe
oppeaasta
oppeaastal
oppeasutus
oppeasutuse
oppeasutuste
oppehoone
oppejou
oppejoud
oppejoudude
oppejouna
oppekava
oppekeelega
oppematerjal
opperada
oppetoo
oppetool
oppetooli
oppetoolis
oppevahendeid
oppevara
oppida
oppides
oppija
oppima
oppimine
oppimise
oppimiseks
oppimist
oppinud
oppis
oppisid
oppisin
opportunity
opposition
optical
optika
optiline
optilise
optiliste
optimaalne
option
opus
oq
or
oracle
oral
orange
oranje
oranz
oranzi
oras
oratoorium
orav
orava
orbiidi
orbiidil
orbiidile
orbiit
orbit
orchestra
orden
ordeni
ordeniga
ordenit
ordens
order
ordered
ordineeris
ordineeriti
ordo
ordoviitsiumi
ordu
orduga
ordule
ordulinnus
ordulinnuse
ordumeister
ordumeistri
ordusse
ordut
oregon
oregoni
orel
oreli
orelile
orelit
org
orgaaniline
orgaanilise
orgaanilised
orgaanilises
orgaanilisi
orgaanilist
orgaaniliste
organ
organi
organic
organisation
organisatsioon
organisatsioone
organisatsiooni
organisatsioonid
organisatsioonide
organisatsioonidega
organisatsioonides
organisatsioonile
organisatsioonis
organiseerida
organiseerimine
organiseerimise
organiseeris
organiseeriti
organiseeritud
organism
organisme
organismi
organismid
organismide
organismis
organist
organite
organization
orgu
ori
orient
orientalist
orientation
orienteeritud
orienteeruja
origin
originaal
originaali
originaalis
originaalpealkiri
originaalpealkirjaga
original
origins
orion
orissaare
orja
orjad
orjade
orjoli
orjuse
orkaan
orkester
orkestri
orkestrile
orkestris
orlando
orleans
orleansi
orlov
orn
orna
ornalt
ornitoloog
ornitoloogiauhing
oro
orsini
orthodox
orto
oru
orud
orus
orust
orville
os
osa
osad
osade
osadeks
osadel
osadele
osades
osadest
osaga
osaka
osakaal
osakaalu
osake
osakese
osakesed
osakesi
osakeste
osakond
osakonda
osakondade
osakonna
osakonnad
osakonnajuhataja
osakonnas
osaks
osal
osale
osaleb
osaleda
osaledes
osaleja
osalejad
osalejaid
osalejate
osalema
osalemine
osalemise
osalemist
osalenud
osales
osalesid
osaleti
osalevad
osaline
osalise
osalised
osaliseks
osaliselt
osalt
osalus
osaluse
osalusel
osalust
osana
osanud
osapool
osapoole
osapooled
osapoolte
osariigi
osariigis
osariigist
osariik
osariiki
osariikide
osariikides
osas
osasid
osast
osastav
osata
osatahtsus
osauhing
osav
osavalt
osavotja
osavotjaga
osavotjaid
osavotjat
osavott
osavotul
osborne
oscar
oscari
oscarile
osce
osel
osi
oska
oskab
oskad
oskaks
oskama
oskan
oskar
oskas
oskasid
oskavad
oskus
oskuse
oskused
oskusi
oskust
oskuste
oslo
oslos
osmanid
osmanite
osmaniturgi
osmussaare
osnabrucki
osprey
ossa
osseedi
osseetia
ossinovski
ost
osta
ostab
osten
osteti
ostetud
ostis
ostja
ostma
ostmiseks
ostnud
ostsee
ostseeprovinzen
ostsid
ostu
osutab
osutada
osutama
osutamine
osutamise
osutas
osutatud
osutavad
osutub
osutuda
osutunud
osutus
osutusid
osvald
oswald
ot
otava
otepaa
otepaal
other
oti
ots
otsa
otsad
otsaga
otsas
otsast
otse
otsekohe
otsekui
otsene
otsese
otsesed
otseselt
otseses
otsest
otseteed
otsetolkes
otsi
otsib
otsida
otsides
otsima
otsimas
otsimine
otsimise
otsin
otsing
otsingud
otsinud
otsis
otsisid
otsitakse
otsiti
otsitud
otsivad
otstarbe
otstarbekas
otstarbeks
otstarbel
otstarve
otsus
otsuse
otsused
otsusega
otsuseid
otsusel
otsusele
otsuses
otsusest
otsust
otsustab
otsustada
otsustades
otsustama
otsustamine
otsustanud
otsustas
otsustasid
otsustatakse
otsustati
otsustatud
otsustav
otsustava
otsustavad
otsustavalt
otsustavat
otsuste
otsustus
otsustuse
ott
ottawa
otto
ottobre
ou
oudne
oue
ouekohtu
ouel
oues
oukonda
oukonna
oukonnas
oulu
oun
ouna
ounad
ounapuu
our
out
ov
ove
over
overlay
overview
oviir
ow
owen
own
ox
oxenstierna
oxford
oxfordi
oy
oz
ozols
p
p0
p1
p2
p3
p4
p5
p6
p7
p8
p9
pa
paa
paabeli
paad
paadi
paadiga
paadis
paadrema
paal
paala
paale
paalegi
paali
paalt
paanika
paapua
paar
paari
paarid
paaride
paarikaupa
paarikumne
paaril
paarile
paaris
paarisaerulisel
paarismangus
paarisnumbrid
paaritu
paaritud
paarkummend
paarn
paarsada
paas
paase
paaseb
paaseda
paaseks
paasemiseks
paasenud
paases
paasesid
paasevad
paaskula
paast
paasta
paastab
paastetud
paastis
paastja
paastma
paastmiseks
paastnud
paasu
paasuke
paasvere
paat
paati
paavo
paavst
paavsti
paavstid
paavstiga
paavstiks
paavstile
paber
paberi
paberil
paberile
paberist
paberit
pablo
pace
pacific
packard
pada
padar
padevus
padise
padova
padrik
padrunit
pae
paekivi
paekivist
paet
paev
paeva
paevad
paevade
paevadel
paevaga
paevaks
paeval
paevalehe
paevalehes
paevaleht
paevamark
paevane
paevaraamat
paevas
paevase
paevast
paevavalgele
paevi
paevik
paevil
paew
paewa
paewad
paewal
paewaleht
pagan
pagana
paganad
paganate
pagari
pagasti
pagasts
page
pagendati
pages
pagulaste
paguluses
pah
paha
pahaks
pahameele
pahameelt
pahane
pahaselt
pahe
pahema
pahkla
pahlen
pai
paid
paide
paides
paiga
paigad
paigal
paigaldada
paigaldatakse
paigaldati
paigaldatud
paigale
paigas
paigast
paigus
paigutab
paigutada
paigutas
paigutatakse
paigutati
paigutatud
paiguti
paigutus
paik
paika
paikade
paikades
paike
paikese
paikesest
paikesesusteemi
paikest
paikkond
paikneb
paikneda
paiknedes
paiknemine
paiknemise
paiknenud
paiknes
paiknesid
paiknev
paikneva
paiknevad
paiknevat
paiknevate
paikse
paiku
paikuse
pain
paindlik
painting
pais
paisjarv
paisjarve
paista
paistab
paistavad
paistis
paistma
paistnud
paistsid
paistu
paisu
paisutatud
paja
paju
pajur
pajusalu
pajusi
pak
pakett
pakistan
pakistani
pakistanis
pakitud
pakk
pakku
pakkuda
pakkudes
pakkuma
pakkumine
pakkumise
pakkumist
pakkunud
pakkus
pakkusid
pakkuv
pakri
paks
paksem
paksu
paksud
paksuks
paksune
paksus
paksuse
paksust
pakt
pakti
paku
pakub
pakutakse
pakuti
pakutud
pakuvad
pal
pala
palace
palais
palamuse
palav
palavik
palazzo
paldiski
paldiskis
pale
palee
palees
paleontoloog
palermo
palestiina
palestiinas
palet
palga
palgata
palgati
palge
palgi
palgrave
palivere
palja
paljad
paljaks
paljalt
paljand
paljandid
paljas
paljaspea
paljassaare
paljastas
paljo
palju
paljud
paljude
paljudel
paljudele
paljudes
paljudesse
paljudest
paljuneb
paljunemine
paljunemise
paljunevad
paljusid
paljuski
palk
palka
palkas
pall
pallas
pallase
palli
pallo
palm
palma
palmer
palmi
palmse
palo
palu
palub
paluda
paludes
palukula
paluma
palun
palunud
paluoja
palupera
palus
palusalu
palusid
palustris
paluti
palve
palvega
palveid
palvel
palvela
palvemaja
palvet
palvinud
palvis
palvisid
palwe
pamiiri
pan
panama
panda
pandeemia
pandi
pandivaldus
pandivere
pandora
pandud
pandzabi
pane
paneb
paneks
panema
paneme
panemine
panen
panevad
pang
panga
pangad
pangas
pange
pani
panid
panin
paniwad
pank
panka
pankade
pankroti
pankrotti
pankur
panna
pannakse
panne
pannes
panno
pannoonia
pannud
panso
pant
panther
pantis
pantone
pantvangi
panus
panuse
panust
panustada
panzer
paola
paolo
papa
pape
paper
papers
papp
pappel
papst
par
para
parade
paradigma
paradiis
paradiisi
paradise
paradoks
paragrahv
paragrahvi
paraguay
parajasti
paraku
parale
paralepp
paralleelne
paralleelselt
paralt
parameeter
parameetreid
parameetri
parameetrid
parameetris
parameetrit
parameetrite
parand
parandab
parandada
parandaja
parandama
parandamine
parandamise
parandamiseks
parandas
parandati
parandatud
parandi
parandist
parandit
parandkultuuri
parandus
paranduse
parandusi
parandvara
paraneb
paranenud
paranes
parani
paras
parasjagu
parast
parastlounal
parastpoole
parasvootme
parasvootmes
parata
paratamatu
paratamatult
paratamatus
parda
pardal
pardale
pardi
parem
parema
paremad
paremaid
paremaks
paremal
paremale
paremalt
paremas
paremat
paremate
paremini
paremkaldal
parempoolne
parempoolse
paremuselt
parg
pargi
pargis
pari
parib
parida
pariis
pariisi
pariisis
pariisist
parija
parijad
parijaks
parijanna
parilik
parim
parima
parimad
parimaid
parimaks
parimal
parimale
parimat
parimate
parimisoigus
parimisseadus
parimus
parimuse
parimusmuusika
parineb
parineda
parines
parinesid
parinev
parineva
parinevad
parinevat
paring
parinud
paripaeva
paris
pariselt
parisid
parismaine
parisorjuse
parit
paritolu
paritoluga
paritolust
paritud
parjatud
park
parker
parki
parkides
parkinsoni
parks
parl
parlamendi
parlamendihoone
parlamendile
parlamendis
parlamendivalimised
parlamendivalimiste
parlamendivalimistel
parlament
parlamentaarne
parlamentaarse
parlamenti
parli
parliament
parma
parmas
parmi
parn
parna
parnad
parnamae
parnu
parnumaa
parnumaal
parnus
parnusse
parnust
parrast
parrot
pars
parsia
parsib
parsti
part
partei
parteid
parteide
parteiga
parteis
parteisse
parteist
partel
partelpoeg
partia
partial
parties
partii
partiid
partisanide
partner
partneri
partnerid
partners
parts
partsi
party
parun
paruness
paruni
parus
parusvaldus
parv
parvalde
parvaldibas
parve
parvlaev
pas
pasa
pascal
pass
passi
passiivne
passion
passports
past
pasta
pastor
pastoraat
pastorat
pastori
pastoriks
pasvaldibas
pat
pataljon
pataljoni
patarei
patareid
patendi
patent
patenteeris
path
pathology
patients
patkul
patoloogia
patria
patriarh
patriarhaadi
patriarhi
patricia
patrick
patroon
pats
patsi
patsiendi
patsiendid
patsient
patsienti
patsientide
patsientidel
patsientidele
patt
pattern
patterns
patterson
pattu
pattude
patu
patud
patune
pau
paucker
paul
paula
pauli
pauline
paulo
paulos
paulus
pauluse
paunkula
paus
pausi
pavel
pavia
paviljon
pavlov
pax
pay
payne
pays
pb
pc
pci
pcr
pd
pdf
pe
pea
peaaegu
peaaju
peaasi
peaasjalikult
peaassamblee
peaauhinna
peab
peace
pead
peadirektor
peadirektori
peadirigent
peaga
peagi
peahoone
peahoones
peak
peakirik
peakomitee
peakontor
peakorraldaja
peakorter
peakorteri
peakraav
peakraavi
peaks
peaksid
peaksime
peaksin
peal
peale
pealegi
pealetung
pealetungi
pealik
pealiku
pealinn
pealinna
pealinnaks
pealinnas
pealinnast
pealinnuse
pealkiri
pealkirja
pealkirjad
pealkirjaga
pealkirjana
pealt
pealtnagija
pealtnaha
pealtvaatajat
peame
peamees
peamine
peaminister
peaministri
peaministriks
peaministrile
peaministrina
peamise
peamised
peamiseks
peamiselt
peamisest
peamisi
peamist
peamiste
peamisteks
pean
peaosa
peaosades
peaosas
peapiiskop
peapiiskopi
peapiiskopiks
peapiiskopile
peapiiskopkond
peapiiskopkonda
peapiiskopkonna
peapreemia
peaprokuror
pearl
pearson
pearu
peas
peasekretar
peasekretari
peasekretariks
peast
peastaabi
peata
peatada
peatas
peatati
peate
peategelane
peategelase
peatoimetaja
peatoimetajaks
peatreener
peatreeneriks
peatselt
peatub
peatuki
peatukis
peatukk
peatuma
peatus
peatuse
peatusid
peatuvad
peavad
peavalitsus
peavalitsuse
peavalu
peawad
pectore
pedagoog
pedagoogika
pedagoogikateadlane
pedagoogikaulikooli
pedagoogiline
pedagoogilise
pedagoogilises
pedajas
pedersen
pedi
pedja
pedro
peedu
peegel
peegeldab
peegeldavad
peegeldub
peegeldunud
peegeldus
peegli
peen
peene
peened
peeneks
peenike
peep
peer
peet
peeta
peetakse
peetav
peeter
peeti
peetri
peetrus
peetruse
peetud
pegasus
pehk
pehme
pehmed
pehmeks
pehmete
peidetud
peidus
peigmees
peipsi
peipsiaare
peirce
peita
peitis
peitu
peitub
peking
pekingi
pekingis
pekka
pekki
peko
peksa
peksis
peksta
pelgalt
pelgulinna
peloponnesose
pen
penaltiseerias
penelope
penguin
penikesseks
penn
pennsylvania
penny
pensioni
pensionile
pentium
pentti
pentus
peo
peol
people
peos
per
perception
percy
pere
perede
perega
pereira
perekond
perekonda
perekondade
perekondadest
perekondi
perekonna
perekonnad
perekonnaga
perekonnale
perekonnanime
perekonnanimede
perekonnanimega
perekonnanimeks
perekonnanimi
perekonnas
perekonnast
perele
peremees
peremeest
peremehe
peremehed
peremeheks
peremehele
perenaine
perenaise
perenimi
peres
perest
perestroika
peret
perez
perfect
perfektiivne
performance
peri
period
periood
perioodi
perioodika
perioodiks
perioodil
perioodiliselt
perioodist
perkins
permi
permikomi
pernes
perroon
perry
persia
person
persona
personaalunioonis
personal
personali
personality
personvardu
perspective
perspectives
perspektiivi
perspektiivis
peru
perugia
peruu
peruus
pesa
pesad
pesapallur
pesas
pesast
pescara
pesema
pesi
pesitseb
pesitsevad
pesitsusaegne
pessa
pesta
pesti
pesu
pet
petar
pete
peter
peterburi
peterburis
peterburist
peters
petersburg
petersen
petersilli
peterson
petersone
petersoni
petis
petit
petr
petra
petri
petro
petrogradi
petrogradis
petrone
petrov
petrovits
petrovna
petrus
petseri
petserimaa
petta
pettai
petter
pettunud
pettus
pettuse
peugeot
pevkur
pf
pfaltskrahv
pfalz
pfalzi
pg
ph
phase
phd
phelps
phi
phil
philadelphia
philadelphias
philip
philipp
philippe
philippi
philippos
philips
phillips
philosophical
philosophie
philosophy
phoenix
phone
photo
photography
photos
php
phyllosticta
phys
physical
physics
physiology
pi
pia
pianist
piano
piazza
picasso
picea
pico
picture
pictures
pid
pidada
pidades
pidage
pidama
pidamata
pidamine
pidamise
pidamiseks
pidamist
pidanud
pidanuks
pidas
pidasid
pidavat
pidev
pideva
pidevad
pidevalt
pidevas
pidevat
pidi
pidid
pidin
pidiwad
pidu
pidulik
piduliku
pidulikult
pidustused
pie
piemineklu
piemonte
pierce
piero
pierre
pieter
pietro
pigem
pigment
pihku
pihkva
pihkvas
pihl
pihlak
pihlaka
pihlakas
pihlap
pihta
pihtla
pii
piia
piibe
piibel
piibeleht
piibli
piiblis
piiga
piik
piim
piima
piin
piina
piinlik
piip
piir
piirab
piirama
piiramatu
piiramine
piiramise
piiramisel
piiramist
piirang
piirangud
piiranguid
piirangute
piiranguvoond
piiranud
piiras
piirasid
piirata
piirati
piiratud
piiravad
piirdub
piirdus
piire
piires
piiresse
piiri
piirid
piiride
piirides
piiridesse
piiridest
piiriks
piiril
piirile
piirimae
piirini
piiripunkt
piirissaare
piirist
piiritletud
piirivalve
piirivalveameti
piirkond
piirkonda
piirkondade
piirkondadeks
piirkondades
piirkondadesse
piirkondadest
piirkondi
piirkondlik
piirkondlike
piirkondliku
piirkondlikud
piirkonna
piirkonnad
piirkonnaga
piirkonnaks
piirkonnale
piirkonnas
piirkonnast
piirkonnauksus
piirneb
piirnes
piirsalu
piisa
piisab
piisas
piisav
piisava
piisavalt
piiskop
piiskopi
piiskopid
piiskopiks
piiskopile
piiskopilinnus
piiskopilinnuse
piiskopkond
piiskopkonda
piiskopkonna
piiskopkonnad
piiskopkonnas
piiskopkonnast
piiskopp
piiskoppe
piiskoppi
piiskoppide
pika
pikaaegne
pikaajaline
pikaajalise
pikaajalist
pikad
pikaealine
pikaks
pikal
pikale
pikali
pikalt
pikamaajooksja
pikamae
pikas
pikast
pikem
pikema
pikemad
pikemaid
pikemaks
pikemalt
pikemat
pikendada
pikendas
pikendati
pikendatud
piki
pikihoone
pikim
pikima
pikk
pikka
pikkade
pikkamisi
pikker
pikki
pikknimy
pikkune
pikkus
pikkuse
pikkused
pikkusega
pikkuseks
pikkusel
pikkuselt
pikkuses
pikkusest
pikkust
piklik
pikliku
piksli
pikslit
pilar
pildi
pildid
pildil
pildis
pilgrim
pilgu
pilguga
pilgul
pilgust
pilistvere
pilk
pilku
pill
pille
pilli
pillid
pilliroog
piloodi
piloodid
piloot
pilot
pils
pilsonibas
pilt
pilte
piltene
pilti
piltide
piltidega
piltidel
piltlikult
pilu
pilv
pilve
pilved
pilvede
pilvelohkuja
pilvi
pilvik
pima
pime
pimeda
pimedad
pimedaks
pimedas
pimedate
pimedus
pimeduse
pimeduses
pin
pind
pinda
pindade
pindala
pindalaga
pindalalt
pindalast
pindi
pine
pinge
pinged
pingega
pingeid
pinget
pingete
pingi
pink
pinna
pinnad
pinnaga
pinnal
pinnale
pinnalt
pinnas
pinnase
pinnases
pinnast
pinus
pinyin
pio
pioneer
pioneeride
piotr
piper
pipi
pippin
pipra
piraadid
piraatide
piret
pirgu
pirita
pirnipuu
pisa
pisarad
pisaraid
pisike
pisini
pista
pistab
pistis
pistmist
pistnud
pisuhand
pisut
pitka
pittsburgh
pius
piusa
piz
pj
pjotr
pk
pka
pkr
pl
plaadi
plaadid
plaadifirma
plaadil
plaadile
plaan
plaane
plaani
plaanib
plaanid
plaanide
plaanis
plaanist
plaanitakse
plaaniti
plaanitud
plaat
plaate
plaati
plaatide
plaatina
place
places
plahvatas
plahvatus
plahvatuse
plahvatuses
plan
plancki
plane
planeedi
planeedid
planeedil
planeerimine
planeerimise
planeering
planeeringu
planeeritud
planeet
planeeti
planeetide
planet
planetary
planning
plans
plant
plants
plasma
plastist
plata
plate
platform
plato
platon
platoni
platoo
plats
platsi
platsil
platsile
platvorm
platvormi
play
playboy
player
players
playstation
plaza
plc
please
plekk
plettenberg
plettenbergi
plii
plinius
plokk
ploom
ploomipuu
plos
plus
pluss
pluto
pluuto
pm
pmatrix
pmc
pmcid
pmid
pms
pn
pnas
png
po
pod
poder
podes
podkarpacie
podlaasia
podolski
podra
poe
poeb
poed
poeem
poeemi
poeet
poeetika
poeg
poega
poegade
poegadele
poegadest
poegi
poeglaste
poes
poest
poetry
pogeneb
pogeneda
pogenema
pogenemine
pogenemise
pogenemist
pogenenud
pogenes
pogenesid
pogenevad
pogenike
pohi
pohieesmark
pohihooaja
pohikiri
pohikirja
pohikool
pohikooli
pohikoolis
pohikoosseisu
pohiline
pohilise
pohilised
pohiliseks
pohiliselt
pohilisi
pohilist
pohilisteks
pohimaarus
pohimaaruse
pohimeeskonnas
pohimote
pohimotet
pohimotete
pohimotetest
pohimotte
pohimotted
pohimotteid
pohimottel
pohimotteliselt
pohimottest
pohine
pohineb
pohines
pohinesid
pohinev
pohineva
pohinevad
pohinevaid
pohinevat
pohinevate
pohioiguste
pohiosa
pohiosas
pohiplaaniga
pohiseadus
pohiseaduse
pohiseadusega
pohiseaduses
pohiseadusliku
pohiseadust
pohja
pohjaga
pohjakaldal
pohjakuljel
pohjal
pohjala
pohjalik
pohjaliku
pohjalikult
pohjalikumalt
pohjamaa
pohjamaade
pohjamaades
pohjamere
pohjani
pohjanmaa
pohjaosa
pohjaosas
pohjapoolkeral
pohjapoolne
pohjapoolse
pohjapoolseim
pohjapoolsem
pohjarannik
pohjarannikul
pohjas
pohjasaami
pohjasoda
pohjasoja
pohjasojas
pohjast
pohjavee
pohjend
pohjendada
pohjendades
pohjendas
pohjendatud
pohjendid
pohjus
pohjuse
pohjused
pohjuseid
pohjuseks
pohjusel
pohjusena
pohjuseta
pohjusi
pohjuslik
pohjust
pohjusta
pohjustab
pohjustada
pohjustades
pohjustajaks
pohjustanud
pohjustas
pohjustasid
pohjustatud
pohjustavad
pohjuste
pohjustel
pohjustest
pohl
pohla
poial
poide
poik
poiminud
poimitud
poimunud
point
points
poisi
poisid
poisike
poisile
poiss
poisse
poissi
poiste
poistekoor
poistele
poitiers
poja
pojad
pojaga
pojal
pojale
pojana
pojapoeg
pojast
poks
poksi
poksija
poksis
poksivoistlus
poksivoistlustel
pol
polaaruurija
poland
polariseeritud
pold
polde
poldma
poldmae
poldroos
poldu
poldude
poldudel
pole
poleb
polegi
poleks
polekski
polema
polenud
poles
poletada
poletamine
poletas
poletasid
poletati
poletatud
poletik
poletiku
polev
polevad
polevat
polevkivi
polgu
polgus
poli
police
policy
poliitburoo
poliitik
poliitika
poliitikaga
poliitikale
poliitikas
poliitikasse
poliitikast
poliitikat
poliitiku
poliitikud
poliitikuid
poliitikute
poliitiline
poliitilise
poliitilised
poliitiliseks
poliitilisele
poliitiliselt
poliitilises
poliitilisest
poliitilisi
poliitilist
poliitiliste
poliitilistel
poliitilistest
poline
polish
polispuud
polisrahvaste
political
politics
politik
politisch
politischen
politoloog
politoloogia
politsei
politseile
politseinik
politseinike
politseinikku
politseinikud
politseiprefektuur
politseiprefektuuri
politseis
polk
polka
polkovnik
poll
polle
polli
pollu
pollud
pollul
pollule
pollumaa
pollumajandus
pollumajanduse
pollumajanduses
pollumajanduslik
pollumajandusliku
pollumajandusminister
pollumajandust
pollumajandusteadlane
pollumajandustegelane
pollumajandusulikool
pollumajandusulikooli
pollumees
pollumeeste
pollutoo
polnud
polnudki
polo
polotski
polska
polski
poltava
poltsamaa
poltsamaal
polu
polula
polumeeri
polumeeride
polumeraas
poluneesia
polutehnikumi
polutehniline
polutehnilise
polutehnilises
polv
polva
polvamaa
polvamaal
polvas
polve
polvest
polvili
polvkond
polvkonda
polvkondade
polvkonna
polvnes
pomises
pomm
pommeri
pommi
pommitamise
pomorze
pompeius
ponev
pont
ponte
pontificalis
pontificalise
pontus
pood
poodi
poodiumile
pool
poola
poolaga
poolakad
poolakaid
poolakas
poolakat
poolakate
poolale
poolas
poolasse
poolast
poolat
pooldab
pooldaja
pooldajad
pooldajate
pooldas
poole
pooled
poolega
poolehoidu
pooleks
poolel
pooleldi
poolele
pooleli
poolelt
pooles
poolest
poolestusaeg
poolfinaal
poolfinaali
poolfinaalid
poolfinaalis
pooli
poolkaitsja
poolkaitsjana
poolmois
poolne
poolraskekaalus
poolsaar
poolsaare
poolsaarel
poolsaarele
poolsaarest
poolsaart
poolt
poolte
poolteist
poolthaalega
poolvend
poom
poor
poora
poorab
poorama
poorane
pooranud
pooras
poorasiwad
poorata
pooratakse
poorates
poorati
pooratud
poorde
poordub
poorduda
poordudes
poorduma
poordumine
poordumise
poordunud
poordus
poordusid
poorduvad
poore
pooret
pooris
poorleb
poorlemise
poorleva
poosa
poosad
poosaid
poosas
poosaste
pop
pope
popes
poplaulja
popmuusika
popolazione
popov
popper
populaarne
populaarse
populaarsed
populaarseim
populaarseks
populaarsem
populaarsemad
populaarsemaid
populaarsemaks
populaarsus
populaarsuse
populaarsuselt
populaarsust
popular
populariseerija
populariseerimise
population
populations
populatsioon
populatsiooni
populatsioonid
por
porand
poranda
porandal
porandale
porandat
porfiri
porgu
porgupohja
porgus
porgusse
pori
porkas
porkasid
porkuni
porm
pormugi
porosamblik
porosenko
porsche
port
porta
portaal
portaali
portaalis
portal
porter
porthos
portland
porto
portrait
portree
portreed
portugal
portugali
portugalis
porvoo
positiivne
positiivse
positiivsed
positiivseid
positiivseks
positiivselt
positiivset
positiivsete
position
positive
positsioon
positsioone
positsiooni
positsioonid
positsioonide
positsioonidele
positsioonil
positsioonile
poska
possible
post
posti
postijaam
postimees
postimehe
postimehes
postkontor
postuumselt
pot
potential
potentsiaal
potentsiaali
potentsiaalne
potentsiaalselt
poti
potsdami
potter
potteri
poua
poud
poue
poues
pour
pourpre
powell
power
powers
powiat
poznani
pp
pq
pr
practical
practice
practices
prae
praegu
praegugi
praegune
praeguse
praegused
praeguseks
praegusel
praegusele
praeguseni
praeguses
praegusest
praegust
praeguste
praetud
praha
prahas
praktika
praktikas
praktikat
praktiline
praktilise
praktilised
praktiliselt
praktilisi
praktilist
praktiliste
prandi
prangli
prantslane
prantslased
prantslaste
prantsuse
prantsuskeelne
prantsuskeelset
prantsusmaa
prantsusmaad
prantsusmaaga
prantsusmaal
prantsusmaale
prantsusmaalt
praost
praostkond
praostkonda
praostkonna
pratchett
pratt
pravda
pre
prediger
predikaat
preemia
preemiat
preester
preestri
preestrid
preestriks
preestrit
preestrite
prefekt
prefektuur
prefektuuri
prefektuuris
preili
preisi
preisimaa
preisimaal
preisimaale
premier
premio
premium
prentice
pres
present
preses
presidendi
presidendid
presidendikandidaadiks
presidendikandidaat
presidendiks
presidendil
presidendile
presidendina
presidendivalimised
presidendivalimiste
presidendivalimistel
president
presidenti
presidential
presiidium
presiidiumi
presley
press
pressi
pressiesindaja
pressikonverentsil
pressiteade
pressure
pretendentide
prevention
price
pride
prii
priidu
priimagi
priit
prillid
prima
primaarne
primary
prime
primera
primo
primorje
prince
princess
princeton
princetoni
principe
principles
print
printer
prints
printsess
printsessi
printsi
printsiibi
printsiibid
printsiip
printsiipe
printsiipi
printsiipide
prior
priori
prisma
prison
prits
private
privileege
privileegid
prix
prize
pro
probe
probleem
probleeme
probleemi
probleemid
probleemide
probleemidega
probleemidele
probleemidest
probleemiga
probleemiks
probleemile
probleemist
problem
problems
proc
proceedings
process
processes
processing
processor
product
production
productions
products
produkte
produtsent
prof
professionaalse
professional
professor
professori
professorid
professoriks
professorina
profiil
profiili
profile
program
programm
programme
programmeerija
programmeerimine
programmeerimise
programmeerimiskeel
programmi
programmid
programmide
programmiga
programming
programmis
programmist
progress
progressi
progressiivne
prohvet
prohwet
project
projects
projekt
projekte
projekteerimine
projekteerimise
projekteerinud
projekteeris
projekteeritud
projekti
projektid
projektide
projektides
projektiga
projektijuht
projektijuhtimise
projektis
projektist
projektsioon
projektsiooni
projektulesanne
prokuratuur
prokuratuuri
prokuror
prokurori
prometheus
pronks
pronksi
pronksist
pronksmedal
pronksmedali
pronksmedalit
pronuncia
proosa
proosakirjanik
prootonite
proov
proovi
prooviaastal
proovid
proovida
proovide
proovile
proovima
proovis
propaganda
propageeris
properties
property
proportsioonid
propositsioon
propositsiooni
prosaist
protection
protein
proteins
protest
protestandid
protestantide
protestantlik
protestantliku
protesti
protestiks
protests
proto
protocol
protokoll
protokolli
protokollid
prototuubi
prototuup
protseduur
protseduuri
protsendi
protsendilise
protsent
protsenti
protsess
protsesse
protsessi
protsessid
protsesside
protsessides
protsessil
protsessis
protsessor
protsessoreid
protsessori
protsessorid
protsessorit
protsessorite
proua
provence
province
provints
provintsi
provintsid
provintside
provintsides
provintsiga
provintsiks
provintsis
provintsist
provinzen
prugi
prugila
prukida
prunus
pruudi
pruugi
pruuli
pruun
pruuni
pruunid
pruunikas
pruut
pruvodce
ps
pseudo
pseudomonas
pseudonuum
pseudonuumi
psi
pst
psuhhiaater
psuhhiaatria
psuhhoanaluusi
psuhholoog
psuhholoogia
psuhholoogias
psuhholoogiat
psuhholoogide
psuhholoogiline
psuhholoogilise
psuhholoogilised
psuhholoogiliste
psuuhika
psv
psychiatry
psychological
psychology
pt
ptk
ptolemaios
ptolemaiose
pu
pub
public
publica
publication
publications
publik
publiku
publikule
publikut
published
publisher
publishers
publishing
publitsist
publius
pubmed
puccini
pudel
pudeli
puerto
puges
puha
puhad
puhade
puhajarve
puhak
puhakirja
puhakoda
puhaks
puhaku
puhakuks
puhakute
puhal
puhale
puhalepa
puhamu
puhapaev
puhapaeva
puhapaeval
puhapaeviti
puhas
puhast
puhastada
puhastamine
puhastamiseks
puhastatud
puhastus
puhata
puhavaimu
puhendas
puhendatud
puhenduda
puhendunud
puhendus
puhh
puhi
puhitses
puhitseti
puhitsetud
puhja
puhk
puhkab
puhkama
puhkedes
puhkemist
puhkenud
puhkes
puhkesid
puhkis
puhkpilliorkester
puhkudel
puhkus
puhkuse
puhkust
puhta
puhtad
puhtaks
puhtalt
puhtast
puhtus
puhtuse
puhtust
puhub
puhuks
puhul
puhus
puhvel
puid
puidu
puidust
puiestee
puiesteel
puise
puistu
puit
puitu
puka
pukk
puksid
pulber
pulga
pulk
pull
pullerits
pulli
pulm
pulma
pulmad
pulmas
pulmi
pump
puna
punaarmee
punaarmees
punaarmeesse
punakas
punane
punase
punased
punaseid
punaseks
punasel
punases
punasesse
punasest
punast
punaste
punastest
pung
pungad
punk
punkt
punkte
punkti
punktid
punktide
punktidega
punktiga
punktis
punktist
punta
puramiid
puramiidi
pure
purenee
puri
purje
purjetaja
purjus
purple
purpuris
purse
purskkaev
purtse
puru
puruks
purunenud
purunes
purustada
purustas
purustasid
purustati
purustatud
purustusi
pusib
pusida
pusima
pusinud
pusis
pusisid
pusiv
pusiva
pusivad
pusivalt
pusivat
pusivus
puskin
puskini
puss
pussi
pusti
pustine
pustitada
pustitanud
pustitas
pustitati
pustitatud
pustu
put
putin
putini
putnam
putukad
putukaid
putukaliik
putukas
putukat
putukate
putukatest
puu
puua
puuab
puuan
puuavad
puud
puuda
puude
puudega
puudel
puudes
puudest
puudis
puudma
puudnud
puudsid
puudsin
puudu
puudub
puududa
puudulik
puudumine
puudumise
puudumisel
puudumist
puudunud
puudus
puuduse
puudused
puuduseks
puudusi
puudusid
puudust
puuduta
puudutab
puudutada
puudutanud
puudutas
puudutavad
puudutavate
puuduv
puuduvad
puue
puuetega
puuk
puul
puunia
puur
puura
puurauk
puuri
puurmani
puusepa
puusepp
puust
puutakse
puuti
puutu
puutub
puutud
puutuda
puutumata
puutunud
puutus
puutuvad
puuvilja
puuvilla
pv
pw
pwn
px
py
pyeongchangis
python
pz
pzkpfw
q
q0
q1
q2
q3
q4
q5
q6
q7
q8
q9
qa
qb
qc
qd
qe
qf
qg
qh
qi
qj
qk
ql
qm
qn
qo
qp
qq
qr
qs
qt
qu
quad
quality
quantum
quartal
quarter
quarterly
que
quebec
quebeci
queen
quellen
quentin
quercus
quest
question
questions
qui
quick
quijote
quine
quinn
quintus
quo
qv
qw
qx
qy
qz
r
r0
r1
r2
r3
r4
r5
r6
r7
r8
r9
ra
raad
raadi
raadik
raadio
raadioajakirjanik
raadiojaam
raadiojaama
raadios
raadioside
raadius
raag
raagi
raagib
raagid
raagime
raagin
raagitakse
raagite
raagiti
raagitud
raagivad
raagu
raakida
raakides
raakija
raakima
raakimata
raakimine
raakinud
raakis
raakisid
raakisin
raal
raam
raama
raamat
raamatu
raamatud
raamatuga
raamatuid
raamatukogu
raamatukogud
raamatukogude
raamatukoguhoidja
raamatukogunduse
raamatukogundustegelane
raamatukogus
raamatukogust
raamatukoi
raamatule
raamatuna
raamatupidaja
raamatupidamise
raamatus
raamatusari
raamatusse
raamatust
raamatut
raamatute
raamatutes
raamatutest
raamatutrukikoda
raamatuviide
raames
raami
raamistik
raamistiku
raasiku
raba
rabas
rabi
race
rachel
racing
rad
rada
radadel
radar
radari
radeon
radiation
radical
radikaalne
radio
radioaktiivse
radu
rae
raeharra
raekoda
raekoja
rafael
ragavere
ragbi
rage
ragnar
raha
rahaga
rahaline
rahalise
rahaliselt
rahalist
rahaliste
rahandus
rahanduse
rahandusministeerium
rahandusministeeriumi
rahandusminister
rahandusministri
rahast
rahastamise
rahastas
rahauhik
rahe
rahman
rahn
rahnu
rahu
rahuauhinna
rahuga
rahukogu
rahul
rahula
rahuldab
rahuldada
rahuldamata
rahuldamiseks
rahuldanud
rahuldas
rahuldatud
rahuldust
rahule
rahuleping
rahulepingu
rahulepinguga
rahulik
rahulikku
rahuliku
rahulikult
rahulolematus
rahulolematust
rahulolu
rahumae
rahus
rahutu
rahutus
rahutused
rahutuste
rahva
rahvaarv
rahvaarvu
rahvaarvult
rahvad
rahvaerakond
rahvaerakonna
rahvaga
rahvahaaletus
rahvahaaletuse
rahvahaaletusel
rahvahariduse
rahvahulk
rahvaid
rahvakalendri
rahvakirik
rahvakogu
rahvakomissar
rahvakomissari
rahvakomissariaadi
rahvakomissariaat
rahvakomissaride
rahvakultuur
rahvakultuuri
[...]
