!
"
#
##0
##1
##10
##11
##12
##13
##14
##15
##16
##17
##18
##19
##2
##20
##21
##22
##23
##24
##25
##26
##27
##28
##29
##3
##30
##31
##32
##33
##34
##35
##36
##37
##38
##39
##4
##40
##41
##42
##43
##44
##45
##46
##47
##48
##49
##5
##50
##51
##52
##53
##54
##55
##56
##57
##58
##59
##6
##60
##61
##62
##63
##64
##65
##66
##67
##68
##69
##7
##70
##71
##72
##73
##74
##75
##76
##77
##78
##79
##8
##80
##81
##82
##83
##84
##85
##86
##87
##88
##89
##9
##90
##91
##92
##93
##94
##95
##96
##97
##98
##99
$
%
&
'
(
)
*
+
,
-
.
/
0
00
000
001
002
003
004
005
006
007
008
01
010
02
03
04
05
06
07
08
09
1
10
100
1000
1001
1002
1007
101
1010
1012
1015
1016
1018
102
1020
1024
1025
103
1030
1035
1038
104
1040
105
1050
1054
1056
1059
106
1060
1061
1066
107
1070
1071
1073
1075
1076
1078
108
1080
1085
109
1090
1093
1095
1096
1097
1098
1099
11
110
1100
111
1110
1111
1118
112
1120
1125
1128
113
1130
1135
1136
1137
1138
1139
114
1140
1146
1147
115
1150
1152
1153
1154
1155
1156
1157
1158
116
1160
1167
117
1170
1171
1172
1176
1177
118
1180
1181
1184
1185
1186
1187
1189
119
1190
1191
1192
1194
1197
1198
1199
12
120
1200
1201
1202
1203
1204
1205
1206
1207
1208
1209
121
1210
1211
1212
1214
1215
1216
1217
1218
1219
122
1220
1221
1222
1223
1224
1225
1226
1227
1228
1229
123
1230
1231
1232
1233
1234
1235
1236
1237
1238
1239
124
1240
1241
1242
1243
1244
1245
1246
1247
1248
1249
125
1250
1251
1252
1253
1254
1255
1256
1257
1258
1259
126
1260
1261
1262
1263
1264
1265
1266
1267
1268
1269
127
1270
1271
1272
1273
1274
1275
1276
1277
1278
1279
128
1280
1281
1282
1283
1284
1285
1287
1288
1289
129
1290
1291
1292
1293
1294
1295
1296
1297
1298
1299
13
130
1300
1302
1303
1304
1305
1307
1308
1309
131
1310
1312
1313
1314
1315
1316
1317
1318
1319
132
1320
1321
1322
1323
1325
1326
1327
1328
1329
133
1330
1332
1333
1334
1335
1337
134
1340
1341
1342
1343
1344
1345
1346
1347
1348
1349
135
1350
1352
1353
1354
1355
1356
1358
1359
136
1360
1361
1362
1363
1364
1365
1366
1367
1368
1369
137
1370
1371
1373
1374
1375
1377
1378
1379
138
1380
1381
1382
1383
1385
1386
1387
1388
1389
139
1390
1392
1393
1394
1395
1396
1397
1398
1399
14
140
1400
1401
1402
1403
1404
1405
1406
1407
1408
1409
141
1410
1411
1412
1413
1414
1415
1416
1417
1418
1419
142
1420
1421
1422
1423
1424
1425
1426
1427
1428
1429
143
1430
1431
1432
1433
1434
1435
1436
1437
1438
1439
144
1440
1441
1442
1443
1444
1445
1446
1447
1448
1449
145
1450
1451
1452
1453
1454
1455
1456
1457
1458
1459
146
1460
1461
1462
1463
1464
1465
1466
1467
1468
1469
147
1470
1471
1472
1473
1474
1475
1476
1477
1478
1479
148
1480
1481
1482
1483
1484
1485
1486
1487
1488
1489
149
1490
1491
1492
1493
1494
1495
1496
1497
1498
1499
15
150
1500
1501
1502
1503
1504
1505
1506
1507
1508
1509
151
1510
1511
1512
1513
1514
1515
1516
1517
1518
1519
152
1520
1521
1522
1523
1524
1525
1526
1527
1528
1529
153
1530
1531
1532
1533
1534
1535
1536
1537
1538
1539
154
1540
1541
1542
1543
1544
1545
1546
1547
1548
1549
155
1550
1551
1552
1553
1554
1555
1556
1557
1558
1559
156
1560
1561
1562
1563
1564
1565
1566
1567
1568
1569
157
1570
1571
1572
1573
1574
1575
1576
1577
1578
1579
158
1580
1581
1582
1583
1584
1585
1586
1587
1588
1589
159
1590
1591
1592
1593
1594
1595
1596
1597
1598
1599
16
160
1600
1601
1602
1603
1604
1605
1606
1607
1608
1609
161
1610
1611
1612
1613
1614
1615
1616
1617
1618
1619
162
1620
1621
1622
1623
1624
1625
1626
1627
1628
1629
163
1630
1631
1632
1633
1634
1635
1636
1637
1638
1639
164
1640
1641
1642
1643
1644
1645
1646
1647
1648
1649
165
1650
1651
1652
1653
1654
1655
1656
1657
1658
1659
166
1660
1661
1662
1663
1664
1665
1666
1667
1668
1669
167
1670
1671
1672
1673
1674
1675
1676
1677
1678
1679
168
1680
1681
1682
1683
1684
1685
1686
1687
1688
1689
169
1690
1691
1692
1693
1694
1695
1696
1697
1698
1699
17
170
1700
1701
1702
1703
1704
1705
1706
1707
1708
1709
171
1710
1711
1712
1713
1714
1715
1716
1717
1718
1719
172
1720
1721
1722
1723
1724
1725
1726
1727
1728
1729
173
1730
1731
1732
1733
1734
1735
1736
1737
1738
1739
174
1740
1741
1742
1743
1744
1745
1746
1747
1748
1749
175
1750
1751
1752
1753
1754
1755
1756
1757
1758
1759
176
1760
1761
1762
1763
1764
1765
1766
1767
1768
1769
177
1770
1771
1772
1773
1774
1775
1776
1777
1778
1779
178
1780
1781
1782
1783
1784
1785
1786
1787
1788
1789
179
1790
1791
1792
1793
1794
1795
1796
1797
1798
1799
18
180
1800
1801
1802
1803
1804
1805
1806
1807
1808
1809
181
1810
1811
1812
1813
1814
1815
1816
1817
1818
1819
182
1820
1821
1822
1823
1824
1825
1826
1827
1828
1829
183
1830
1831
1832
1833
1834
1835
1836
1837
1838
1839
184
1840
1841
1842
1843
1844
1845
1846
1847
1848
1849
185
1850
1851
1852
1853
1854
1855
1856
1857
1858
1859
186
1860
1861
1862
1863
1864
1865
1866
1867
1868
1869
187
1870
1871
1872
1873
1874
1875
1876
1877
1878
1879
188
1880
1881
1882
1883
1884
1885
1886
1887
1888
1889
189
1890
1891
1892
1893
1894
1895
1896
1897
1898
1899
19
190
1900
1901
1902
1903
1904
1905
1906
1907
1908
1909
191
1910
1911
1912
1913
1914
1915
1916
1917
1918
1919
192
1920
1921
1922
1923
1924
1925
1926
1927
1928
1929
193
1930
1931
1932
1933
1934
1935
1936
1937
1938
1939
194
1940
1941
1942
1943
1944
1945
1946
1947
1948
1949
195
1950
1951
1952
1953
1954
1955
1956
1957
1958
1959
196
1960
1961
1962
1963
1964
1965
1966
1967
1968
1969
197
1970
1971
1972
1973
1974
1975
1976
1977
1978
1979
198
1980
1981
1982
1983
1984
1985
1986
1987
1988
1989
199
1990
1991
1992
1993
1994
1995
1996
1997
1998
1999
2
20
200
2000
2001
2002
2003
2004
2005
2006
2007
2008
2009
201
2010
2011
2012
2013
2014
2015
2016
2017
2018
2019
202
2020
2021
2022
2023
2024
2025
203
2030
204
205
2050
206
207
208
209
2099
21
210
2100
211
212
213
214
215
216
217
218
219
22
220
2200
221
222
223
224
225
226
227
228
229
23
230
2300
231
232
233
234
235
236
237
238
239
24
240
2400
241
242
243
244
245
246
247
248
249
25
250
2500
251
252
253
254
255
256
257
258
259
26
260
2600
261
262
263
264
265
266
267
268
269
27
270
2700
271
272
273
274
275
276
277
278
279
28
280
2800
281
282
283
284
285
286
287
288
289
29
290
291
292
293
294
295
296
297
298
299
3
30
300
3000
301
302
303
304
305
306
307
308
309
31
310
311
312
313
314
315
316
317
318
319
32
320
3200
321
322
323
324
325
326
327
328
329
33
330
331
332
333
334
335
336
337
338
339
34
340
341
342
343
344
345
346
347
348
349
35
350
3500
351
352
353
354
355
356
357
358
359
36
360
361
362
363
364
365
366
367
368
369
37
370
371
372
373
374
375
376
377
378
379
38
380
381
382
383
384
385
386
387
388
389
39
390
391
392
393
394
395
396
397
398
399
4
40
400
4000
401
402
403
404
405
406
407
408
409
41
410
411
412
413
414
415
416
417
418
419
42
420
421
422
423
424
425
426
427
428
429
43
430
431
432
433
434
435
436
437
438
439
44
440
441
442
443
444
445
446
447
448
449
45
450
4500
451
452
453
454
455
456
457
458
459
46
460
461
462
463
464
465
466
467
468
469
47
470
471
472
473
474
475
476
477
478
479
48
480
481
482
483
484
485
486
487
488
489
49
490
491
492
493
494
495
496
497
498
499
5
50
500
5000
501
502
503
504
505
506
507
508
509
51
510
511
512
513
514
515
516
517
518
519
52
520
521
522
523
524
525
526
527
528
529
53
530
531
532
533
534
535
536
537
538
539
54
540
541
542
543
544
545
546
547
548
549
55
550
5500
551
552
553
554
555
557
558
559
56
560
561
562
564
565
567
568
569
57
570
572
573
574
575
576
578
58
580
581
582
584
585
586
587
588
589
59
590
591
592
593
595
598
6
60
600
6000
601
602
603
604
605
606
608
609
61
610
612
613
615
616
617
618
619
62
620
621
622
623
625
626
627
629
63
630
631
632
633
634
638
639
64
640
641
642
65
650
6500
653
655
656
658
659
66
660
661
664
666
67
670
673
675
679
68
680
687
688
69
690
691
695
698
7
70
700
7000
701
705
71
710
711
7134
715
717
718
72
720
73
730
737
74
740
741
745
747
75
750
7500
751
752
756
757
76
760
767
768
77
770
771
774
775
776
777
78
780
785
787
79
790
8
80
800
8000
801
802
81
810
814
82
820
821
829
83
830
84
840
843
85
850
855
86
860
862
866
867
87
870
871
875
876
877
878
879
88
880
882
887
888
89
890
9
90
900
9000
907
91
910
911
912
917
92
920
925
93
930
936
94
940
945
95
950
951
952
955
96
960
962
963
965
969
97
970
972
973
976
978
98
980
983
985
99
990
9949
997
998
9984
9985
999
:
;
<
=
>
?
@
\
^
_
`
a
aa
aab
aabits
aachen
aacheni
aadam
aadama
aadel
aadi
aadli
aadlik
aadlike
aadlikke
aadlikud
aadlimatriklisse
aadliseisusse
aadlisuguvo
aadlivapp
aado
aadress
aadressi
aadressiga
aadressil
aadressile
aadria
aadu
aafrika
aafrikas
aafrikasse
aafrikast
aafriklasi
aagaard
aakre
aal
aaloe
aalto
aaltonen
aan
aani
aanis
aapo
aare
aaria
aarma
aarne
aaron
aas
aasa
aasia
aasialasi
aasias
aasiasse
aasiast
aaslav
aasma
aasovi
aaspere
aasta
aastaajad
aastad
aastaga
aastaid
aastail
aastaist
aastaka
aastaks
aastaku
aastal
aastale
aastalt
aastana
aastane
aastani
aastapa
aastapreemia
aastaraamat
aastaringselt
aastas
aastasaja
aastase
aastased
aastaseks
aastasel
aastasele
aastaselt
aastasena
aastasest
aastasi
aastasse
aastast
aastaste
aastastel
aastastele
aastat
aastate
aastatega
aastateks
aastatel
aastateni
aastatest
aastatuhande
aastatuhandel
aastatuhat
aatom
aatomeid
aatomi
aatomid
aatomit
aatomite
aatomitest
aav
aava
aavik
aaviksoo
aaviku
aavo
ab
aba
abas
abava
abba
abbey
abc
abd
abdul
abdulla
abdullah
abe
abel
abeli
abhaasi
abhaasia
abhaasias
abi
abielluda
abielludes
abielluma
abiellumist
abiellunud
abiellus
abiellusid
abielu
abielud
abielus
abielust
abieluva
abies
abiesimees
abiga
abijo
abikaasa
abikaasad
abikaasade
abikaasaga
abikaasale
abikaasat
abiks
abil
abiline
abilinnapea
abina
abino
abio
abistada
abistamise
abistamiseks
abistas
abita
abiva
abja
abordi
abort
about
abraham
abram
abriss
abruka
abruzzo
absoluutne
absoluutse
absoluutselt
absoluutset
abstraktne
abstraktse
abstraktsete
absurdne
abt
abteilung
abu
ac
acad
acade
academia
academic
academicum
academy
accademia
access
accessed
account
ace
acer
acid
act
acta
action
active
activity
ad
ada
adalbert
adam
adams
adamsi
adamson
adamsoni
adavere
adda
ade
adekvaatne
adel
adelaide
adele
adelheid
adels
ader
adi
adige
adjunkto
adjutant
adler
administraator
administratiiv
administratiivne
administratiivselt
administration
administratsioon
administratsiooni
admiral
admiraliteedi
ado
adobe
adolf
adolfi
adolph
adolphe
adra
adramaad
adramaid
adrian
adrianfrith
adson
advanced
adventure
adventures
advokaadi
advokaadibu
advokaadid
advokaadina
advokaat
advokaatide
advokatuuri
adw
adz
ae
aed
aeda
aedades
aednik
aeg
aega
aegade
aegadel
aegadest
aegamo
aegano
aeglane
aeglase
aeglaselt
aeglasem
aeglasemalt
aegna
aegne
aegruumi
aegse
aegsed
aegu
aegunud
aegviidu
aero
aerodu
aerofoto
aes
aet
aetakse
aeti
aetud
af
afa
afc
affairs
afganistan
afganistani
afganistanis
africa
african
afrikaani
after
ag
aga
agaape
again
against
agatha
age
agency
agent
agentuur
agentuuri
ages
agga
agnes
agnese
ago
agp
agressiivne
agressiooni
agricola
agronoom
agu
agur
ah
ahel
ahela
ahelad
ahelas
ahelat
ahelate
ahelik
ahh
ahhaa
ahhaia
ahi
ahja
ahjo
ahju
ahjus
ahl
ahmad
ahmed
aho
ahti
ahtme
ahto
ahven
ahvenamaa
ai
aia
aiad
aiandus
aianduse
aias
aid
aida
aidanud
aidas
aidata
aidates
aids
aidsi
aidu
aikovski
aili
aimata
aime
aimla
aimu
ain
aina
aine
ained
ainega
aineid
aines
ainest
ainet
ainete
ainetega
ainetel
ainetest
ainevahetuse
aino
ainsa
ainsad
ainsaks
ainsana
ainsus
ainsuse
ainsuses
ainuke
ainukese
ainukeseks
ainulaadne
ainulaadse
ainult
ainuo
ainus
ainustki
ainuu
ainuvo
air
airbus
aircraft
aire
aires
airese
aireses
airi
airlines
airlinesi
airport
airways
ais
aisch
aise
ait
aita
aitab
aitaks
aitama
aitas
aitasid
aitavad
aivar
aivo
aix
aizkraukle
aizpute
aizsardzi
aizsarga
aja
ajaarvamise
ajaarvamist
ajab
ajad
ajada
ajades
ajaga
ajahetkel
ajaja
ajakava
ajakiri
ajakirja
ajakirjad
ajakirjade
ajakirjades
ajakirjale
ajakirjandus
ajakirjanduse
ajakirjanduses
ajakirjandust
ajakirjanik
ajakirjanike
ajakirjaniku
ajakirjanikud
ajakirjanikuna
ajakirjas
ajakirju
ajaks
ajal
ajale
ajalehe
ajalehed
ajalehele
ajalehes
ajaleht
ajalehte
ajalehtede
ajalehtedele
ajalehtedes
ajalehti
ajaline
ajalise
ajaliselt
ajaloo
ajalooarhiiv
ajalooarhiivi
ajalooga
ajaloolane
ajaloolase
ajaloolased
ajaloolaste
ajaloole
ajalooline
ajaloolis
ajaloolise
ajaloolised
ajaloolisel
ajalooliselt
ajaloolises
ajaloolisest
ajaloolisi
ajaloolist
ajalooliste
ajalooma
ajaloomuuseum
ajaloomuuseumi
ajalooo
ajaloos
ajaloost
ajalooteaduskonna
ajalt
ajalugu
ajalukku
ajama
ajani
ajanud
ajapikku
ajara
ajas
ajasid
ajast
ajastu
ajastul
ajastust
ajau
ajavad
ajavahemik
ajavahemikku
ajavahemiku
ajavahemikul
ajavahemikus
ajavo
ajax
ajaxi
ajendas
ajendatud
ajendiks
aju
ajus
ajuti
ajutine
ajutise
ajutised
ajutiseks
ajutiselt
ajutist
ak
aka
akadeemia
akadeemias
akadeemiasse
akadeemik
akadeemiline
akadeemilise
akadeemiliselt
akadeemilises
akadeemilist
akadeemiliste
akademie
akadi
aken
akende
akent
aki
akna
aknad
aknaid
aknast
akordi
akov
akronu
akru
aks
akse
aksel
aksioom
akt
akti
aktid
aktiivne
aktiivse
aktiivsed
aktiivseid
aktiivseks
aktiivselt
aktiivset
aktiivsete
aktiivsus
aktiivsuse
aktiivsusega
aktiivsust
aktivatsiooni
aktiveerib
aktiveeritud
aktivist
aktivistid
aktsepteerida
aktsepteerimine
aktsepteeritud
aktsia
aktsiad
aktsiaid
aktsiaselts
aktsiaseltsi
aktsiate
aktsiatest
aktsiona
aktsiooni
aku
akud
akude
akustika
akustiline
akustilise
akvitaania
al
ala
alabama
alad
alade
aladega
aladel
aladele
aladelt
aladest
alaealine
alaealise
alaealiste
alaga
alagrupi
alagrupima
alagrupis
alagrupp
alain
alaja
alajo
alaku
alal
alale
alaline
alalise
alaliselt
alalist
alalisvoolu
alalo
alalt
alam
alama
alamad
alamate
alamjooksu
alamjooksul
alamkoda
alamkoja
alamliigid
alamliik
alamliiki
alampolkovnik
alamsaksa
alamsu
alamsugukond
alamvesikond
alamvesikonda
alan
alandab
alandada
alanud
alar
alari
alaru
alas
alase
alasid
alaska
alaskal
alast
alaste
alasti
alata
alatasa
alates
alati
alatiseks
alatskivi
alatu
alau
alava
alavere
alba
albaania
albaanias
albaanlased
albaanlaste
albanus
albany
albert
alberta
alberti
alberto
albion
albrecht
albrechti
albu
album
albumi
albumid
albumiga
albumil
albumilt
albumit
albumite
aldehu
aldo
ale
alehhin
alejandro
aleksander
aleksandr
aleksandra
aleksandri
aleksandria
aleksandrovits
aleksandrovna
aleksei
aleksejev
aleksejevits
aleksis
aleksius
alender
aleppo
alessandro
alev
alevi
alevid
alevik
alevikku
aleviks
aleviku
alevikud
alevikus
alevis
alevit
alex
alexander
alexandra
alexandre
alexios
alexis
alfa
alfons
alfonso
alfred
alfredo
alg
algab
algama
algas
algasid
algatada
algataja
algatas
algatasid
algatati
algatatud
algatus
algatuse
algatusel
algav
algavad
alge
algebra
alghariduse
algirdas
algkool
algkooli
algkoolis
algne
algo
algoritm
algoritme
algoritmi
algoritmid
algoritmide
algse
algsed
algsel
algselt
algses
algsest
algset
algul
algupa
algus
algusaastad
algusaastatel
alguse
algusega
alguseks
alguseni
alguses
algusest
algust
ali
alias
alice
align
alina
alis
alistada
alistades
alistas
alistasid
alistati
alistuma
alistumist
alistus
alistusid
alkohol
alkoholi
alku
all
alla
allaka
allan
allapoole
allar
allas
allavoolu
alle
allee
allen
aller
alles
allesja
allgemeine
alliance
allik
allika
allikad
allikaid
allikaks
allikana
allikas
allikast
allikat
allikate
allikates
allikatest
alliku
allium
allja
allkirja
allkirjastas
allkirjastasid
allkirjastati
allkirjastatud
allpool
alltu
allu
allub
alluma
allunud
allus
allusid
allutada
allutas
allutati
allutatud
alluv
alluvad
alluvate
alluvusega
alluvuses
alluvusse
allveelaev
allveelaeva
allveelaevad
allveelaevade
alma
almato
almoraviidide
alo
alois
aloja
alone
alonso
alpes
alpha
alphonse
alpi
alpid
alpide
alpides
alpidest
alpiklubi
alpina
alpine
alpinism
alpinist
alpinistid
alpinistide
als
alsace
also
alt
alta
altai
altar
altari
altbergs
alte
altenburgi
alternatiiv
alternatiive
alternatiivi
alternatiivide
alternatiivina
alternatiivne
alternatiivse
alternatiivsed
alternatiivseid
alternatiivsete
alternative
altka
alto
alttoa
alu
alul
aluliina
alumiinium
alumiiniumi
alumiiniumist
alumine
alumise
alumised
alumisel
alumises
alumist
alune
alus
aluse
alused
alusega
aluseid
aluseks
alusel
alusele
alusena
alusest
aluspaari
aluspo
alust
alustab
alustada
alustades
alustama
alustamiseks
alustamist
alustanud
alustas
alustasid
alustatakse
alustati
alustatud
alustavad
aluste
alustel
alutaguse
alvar
alver
alveri
alves
alvin
alz
alzheimeri
am
ama
amadeus
amalia
amalie
amanda
amandus
amata
amato
amazon
amazonase
ambla
amd
ame
amedeo
ameerika
ameerikas
ameerikasse
ameerikast
ameeriklane
ameeriklased
ameeriklaste
amelia
america
american
amerika
amet
ameti
ametiaeg
ametiaega
ametiaja
ametiajaks
ametiajal
ametiasutuste
ametid
ametiisikud
ametikoha
ametikohad
ametikohal
ametikohale
ametikohalt
ametikoht
ametikohta
ametikohtadel
ametis
ametisse
ametist
ametit
ametiu
ametivande
ametivo
ametlik
ametlike
ametlikel
ametlikes
ametlikke
ametlikku
ametliku
ametlikud
ametlikuks
ametlikul
ametlikule
ametlikult
ametlikus
ametnik
ametnike
ametnikke
ametniku
ametnikud
ametnikuna
ami
amin
aminohapete
aminohappe
aminohapped
aminohappeja
amitriptu
ammad
ammoniaagi
ammu
ammugi
amnestia
amo
among
amor
amore
amos
amour
amplituud
amplituudi
amsterdam
amsterdami
amsterdamis
amt
amu
amuuri
amy
an
ana
anaheim
analoog
analoogia
analoogne
analoogselt
analu
analysis
anarhia
anas
anastasius
anatoli
anatomica
anatomy
anatoolia
anatoolias
anatoom
anatoomia
ancient
and
anda
andaluusia
andamit
andekas
andeks
anders
andersen
anderson
andersson
andes
andestada
andestus
andestuse
andestust
andev
andi
andide
andis
andja
andjate
andke
andma
andmast
andmata
andmebaas
andmebaasi
andmebaasid
andmebaasis
andmebaasist
andmed
andmeid
andmeil
andmekogu
andmekogus
andmete
andmetega
andmetel
andmetele
andmetest
andmeto
andmetu
andmine
andmise
andmisega
andmiseks
andmisel
andmisest
andmist
andnud
ando
andorra
andra
andre
andrea
andreas
andrease
andrei
andrej
andrejev
andres
andrese
andresen
andrew
andrews
andri
andris
android
androidi
andronikos
andrus
andrzej
andsid
andsin
andsiwad
andur
andurid
andy
aneemia
anette
ange
angel
angela
angeles
angelese
angeleses
angelina
angelo
angels
angerja
anglikaani
anglosaksi
angola
angolas
anhalt
anhalti
ani
anija
anima
animaator
animafilm
animal
animals
animatsioon
animatsiooni
anime
animeeritud
anita
anja
anjou
ankara
ankur
ann
anna
annab
annad
annaks
anname
annan
annavad
anne
annekteerimist
annekteeris
annekteeriti
anneli
annet
annetas
annetatud
annette
anni
annie
annika
annist
anno
annual
annud
annus
anonu
anorgaanilised
another
anr
anri
anrid
ans
ansambel
ansambli
ansamblid
ansambliga
ansamblis
ansamblisse
ansamblist
ansamblite
ansamblites
anscombe
anseku
anselm
ansi
ansip
ansipi
ansv
ant
anta
antakse
antanas
antarktika
antarktikas
antarktise
antav
antava
ante
antenn
antenni
anthony
anthus
anti
antibiootikumid
antibiootikumide
antigeeni
antigua
antiigileksikon
antiik
antiikaja
antiikajal
antikeha
antikehad
antikehade
antioksu
antiookia
anto
antoine
antoinette
antoloogia
anton
antoni
antonio
antonius
antoniuse
antonov
antropoloog
antropoloogia
ants
antsla
antsu
antti
antud
antwerpeni
anu
anvelt
any
ao
ap
apache
aparaadi
aparaat
apenniini
apg
aphrodite
api
apis
apollo
apollon
apolloni
apoptoosi
apostel
apostellik
apostli
apostlik
apostliku
apostlite
app
appi
apple
application
applications
applied
approach
approx
apps
apr
april
aprill
aprilli
aprilliks
aprillil
aprillini
aprillis
aprillist
aprioorne
aprioorselt
aps
apteegi
apteek
apteeker
apuulia
aquila
aquileia
aquino
ar
ara
araabia
araabias
araablased
araablaste
araali
arago
aragoni
aravete
arbusow
arc
arch
archaeology
architecture
archiv
archive
archived
archives
archivio
arctic
arder
ardo
are
area
areen
aren
arena
arenal
arendab
arendada
arendaja
arendajad
arendama
arendamine
arendamise
arendamisega
arendamiseks
arendamisel
arendamisele
arendamist
arendanud
arendas
arendasid
arendatakse
arendati
arendatud
arendus
arenduse
arenduskeskus
arendustegevuse
arendusto
areneb
areneda
arenedes
arenema
arenenud
arenes
arenesid
arenev
arenevad
areng
arengu
arenguga
arenguha
arengukava
arengukoosto
arenguks
arengule
arengumaades
arengus
arengusse
arengust
arengut
aretatud
arg
argentina
argentinas
argipa
argo
argumendi
argumendid
argument
argumente
argumenti
arhangelski
arheoloog
arheoloogia
arheoloogiama
arheoloogid
arheoloogiline
arheoloogilised
arheoloogilisi
arheoloogiliste
arhiiv
arhiivi
arhiivis
arhiiviversioon
arhitekt
arhitekti
arhitektid
arhitektide
arhitektina
arhitektuur
arhitektuuri
arhitektuuribu
arhitektuuriga
arhitektuurima
arhitektuuris
arhitektuurist
arhitektuurivo
arhivaar
ari
ariel
ariste
aristide
aristokraatia
aristoteles
aristotelese
aristotle
aritmeetika
arizona
arkaadia
arkadi
arkansase
arktika
arles
arm
armand
armas
armasta
armastab
armastada
armastaja
armastama
armastame
armastamine
armastan
armastanud
armastas
armastatakse
armastatu
armastatud
armastatut
armastavad
armastus
armastuse
armastusega
armastusel
armastusele
armastuses
armastusest
armastust
arme
armee
armeed
armeede
armeega
armeegrupp
armeekindral
armeekorpus
armeekorpuse
armeele
armeenia
armeenias
armeenlased
armeenlaste
armees
armeesse
armeest
armin
arms
armstrong
armu
armuke
armuline
armunud
armus
armust
army
arne
arno
arnold
aro
aron
around
arp
arrak
arranz
array
arreteeriti
arro
ars
arsenal
arsenali
arseni
arst
arsti
arstiabi
arstid
arstide
arstina
arstiteadlane
arstiteadlased
arstiteaduse
arstiteaduskonna
arstiteaduskonnas
arstiteadust
art
arte
arteria
arthur
article
articles
artikkel
artikleid
artikli
artiklid
artiklile
artiklis
artiklist
artiklit
artiklite
artiklites
artis
artist
artisti
artistid
artistide
artists
artjom
arto
artois
arts
artur
arturo
aru
aruande
aruanded
aruandes
aruanne
aruba
aruga
arukas
aruku
arula
aruma
arus
arusaadav
arusaam
arusaama
arusaamine
arusaamise
arusaamist
arusaamu
arust
arutada
arutama
arutas
arutasid
arutatakse
arutati
arutatud
arutelu
arutlus
arutluse
arv
arva
arvab
arvad
arvama
arvamise
arvamus
arvamuse
arvamused
arvamusel
arvamusele
arvamusfestivalil
arvamusi
arvamust
arvamuste
arvan
arvanud
arvas
arvasid
arvasin
arvata
arvatakse
arvatav
arvatavalt
arvatavasti
arvate
arvates
arvati
arvatud
arvavad
arve
arved
arvel
arvele
arvelt
arvesse
arvesta
arvestab
arvestada
arvestades
arvestama
arvestamata
arvestamine
arvestatakse
arvestatav
arvestati
arvestatud
arvestuse
arvestuses
arvestuslik
arvi
arvid
arvo
arvso
arvu
arvud
arvude
arvuga
arvukad
arvukalt
arvukate
arvuks
arvukus
arvukuse
arvukust
arvul
arvule
arvuliselt
arvult
arvus
arvust
arvustus
arvustused
arvustusi
arvutada
arvutamine
arvutamise
arvutamiseks
arvutatakse
arvutatud
arvuteid
arvuti
arvutid
arvutiga
arvutil
arvutile
arvutima
arvutis
arvutisse
arvutisu
arvutit
arvutite
arvutiteadlane
arvutites
arvutivo
arvutused
arvutusi
arvutuste
arwad
arwas
arwata
as
asaamist
ase
asedirektor
aseesimees
aseesimeheks
asehaldur
asehaldurkond
asekantsler
asekuberner
asekuningas
asemel
asemele
asend
asendab
asendada
asendades
asendama
asendamine
asendas
asendasid
asendatakse
asendati
asendatud
asendavad
asendi
asendikaart
asendis
asendit
asendunud
asendus
asendusliige
asepeaminister
asepresidendi
asepresidendiks
asepresident
aserbaidz
aseri
aseso
aset
aseta
asetab
asetada
asetas
asetatakse
asetati
asetatud
asetseb
asetses
asetsevad
asetus
asetuse
asetusega
asevalitseja
ash
ashley
ashton
asi
asia
asian
asito
asja
asjaajaja
asjaajamise
asjad
asjade
asjadega
asjadel
asjadele
asjades
asjadesse
asjadest
asjaga
asjakohane
asjal
asjale
asjao
asjaolu
asjaolud
asjaolude
asjaoludel
asjaoludest
asjaoluga
asjaolule
asjaolusid
asjaolust
asjas
asjasse
asjast
asjata
asjatu
asjatundja
asjatundjad
asju
asjus
askania
asko
asp
aspects
aspekt
aspekte
aspekti
aspektid
aspektide
aspektist
aspirant
aspirantuuri
aspirantuuris
aspx
assamblee
asse
assessment
assessor
assistendina
assistent
associated
association
assotsiatsioon
assotsiatsiooni
assotsieerunud
assu
assur
ast
asta
aste
asteroid
asteroidide
astet
asti
astme
astmed
astmega
astmel
astmele
astmeline
astmes
astmete
aston
astra
astrahani
astrid
astrofu
astroloogia
astronaudid
astronaut
astronoom
astronoomia
astronoomid
astu
astub
astuda
astudes
astuma
astumise
astumist
astunud
astus
astusid
astuuria
astuvad
asu
asuala
asub
asuda
asudes
asukad
asukoha
asukohad
asukohaga
asukohaks
asukohale
asukohas
asukohast
asukoht
asukohta
asula
asulad
asulaid
asulakoht
asulas
asulasse
asulast
asulat
asulate
asulates
asum
asuma
asumi
asumid
asumis
asumisele
asumist
asundus
asunduse
asundused
asunike
asunikud
asunud
asupaik
asus
asusid
asustab
asustamata
asustasid
asustati
asustatud
asustus
asustuse
asustustihedus
asutada
asutaja
asutajad
asutajaid
asutajaliige
asutajate
asutajatest
asutamine
asutamise
asutamiseks
asutamisest
asutamist
asutanud
asutas
asutasid
asutati
asutatud
asutav
asutava
asuti
asutus
asutuse
asutused
asutuses
asutusi
asutuste
asutustes
asuv
asuva
asuvad
asuvaid
asuval
asuvale
asuvas
asuvasse
asuvast
asuvat
asuvate
asuvates
asuvatest
at
ata
atalanta
atari
ateena
ateenas
ateljee
ateljees
atentaat
ath
athena
athletic
ati
atika
atka
atla
atlandi
atlanta
atlantas
atlantic
atlantis
atlantise
atlas
atlase
atle
atmosfa
ato
atoll
atp
ats
atsetu
attack
attila
atu
au
auaste
auastme
auastmed
auastmes
audentese
audi
audio
audiovisuaalse
audit
auditi
audoktor
audoktorid
audoktoriks
audru
auf
auflage
aug
augsburg
augsburgi
augu
augud
august
augusta
auguste
augusti
augustiks
augustil
augustin
augustini
augustinus
augustinuse
augustis
augustist
augusto
augustus
augustuse
auhind
auhinda
auhindade
auhindu
auhinna
auhinnad
auhinnaga
auhinnale
auk
auke
aukiri
aukodanik
aukodanikud
aukonsul
auks
auku
aukude
aul
aule
auleegioni
auliige
auliikmed
auliikmeks
auma
aun
aunimetus
aunimetuse
aunimetused
aur
aurelius
aureus
aurik
aurora
auru
aus
ausa
ausalt
ausamba
ausammas
ausf
austada
austama
austamine
austatakse
austati
austatud
austerlased
austin
austraalia
austraalias
austraaliasse
austraaliast
australia
australian
austria
austriaga
austriale
austrias
austriasse
austriast
austriat
austroneesia
austus
austuse
austust
autasu
autasud
autasustas
autasustati
autasustatud
authority
auto
autobiograafia
autod
autode
autoga
autojuht
autol
automaatika
automaatne
automaatse
automaatselt
automatiseeritud
autona
autonoomia
autonoomiat
autonoomne
autonoomse
autonoomsed
autonoomses
autoo
autoportree
autor
autoralli
autoreid
autori
autorid
autoriks
autorina
autorio
autorit
autorite
autoriteedi
autoriteet
autoriteeti
autos
autosid
autot
autoto
autotootja
autotransporta
autovo
auu
auva
auvere
auvergne
aux
av
ava
avaarid
avaaride
avab
avad
avada
available
avalanche
avaldab
avaldada
avaldades
avaldama
avaldamata
avaldamine
avaldamise
avaldamiseks
avaldamist
avaldanud
avaldas
avaldasid
avaldatakse
avaldati
avaldatud
avaldavad
avaldub
avalduda
avaldus
avalduse
avalduste
avalduvad
avalik
avalike
avalikel
avalikes
avalikke
avalikku
avalikkus
avalikkuse
avalikkusele
avaliku
avalikud
avalikuks
avalikul
avalikult
avalikus
avalikust
avalikustas
avalikustati
avalikustatud
avama
avamine
avamise
avamiseks
avamisel
avamist
avaneb
avanes
avanevad
avanud
avar
avarii
avaringis
avas
avasid
avastab
avastada
avastaja
avastamine
avastamise
avastamiseks
avastamist
avastanud
avastas
avastasid
avastatakse
avastati
avastatud
avaste
avastus
avastuse
avastused
avastuste
avatakse
avati
avatseremoonial
avatud
ave
avenu
avenue
aviation
avignon
avignoni
avin
avinurme
avita
avo
avr
avro
award
awards
away
ax
axel
ay
ayer
az
b
ba
baar
baari
baas
baasi
baaside
baasil
baasis
babu
baby
bach
bachi
bachmann
back
bacon
bad
baden
badeni
baer
baeri
bagdadi
bagdadis
baha
bahama
bahreini
baieri
baieris
baikali
bailey
baiti
bakalaureuse
bakalaureusekraadi
bakalaureusekraadiga
bakalaureuseo
bakalaureuseto
baker
bakter
baktereid
bakteri
bakterid
bakterite
bakuu
bakuus
bal
balduin
baldwin
baleriin
bali
balkani
balkanil
ball
ballaad
balleti
balletitantsija
ballett
balta
balthasar
balti
baltic
baltica
balticu
baltika
baltikumi
baltikumis
baltimaade
baltimaades
baltimore
baltisaksa
baltisakslased
baltisakslaste
baltische
baltischen
baltisches
balvi
ban
band
banda
bang
bangladeshi
bank
banks
bantu
baptiste
baptisti
bar
bara
barack
baratriki
barbara
barbarite
barbarossa
barcelona
barcelonas
barclay
bari
bariton
barja
barnes
barnim
baro
barokk
barokkstiilis
barokne
baron
barre
barrichello
barrow
barry
bart
bartolomeo
baru
bas
base
based
baseerub
basel
baseli
basic
basiilika
basil
basileios
basilica
basketball
baski
baskin
bass
bassein
basseini
basseinis
basskitarr
basskitarrist
bastien
bastion
bastioni
bat
bataillon
battista
battle
batu
bauer
baumann
bauska
bautzeni
bay
bayer
bayern
bayerni
baz
bazni
bb
bbc
bbi
bc
bd
be
beach
beagle
bear
bearbeitet
beast
beat
beata
beatles
beatrice
beaumont
beautiful
beauty
beaux
beci
beck
becker
becki
beda
bedane
bedase
bedast
bedat
beekman
been
beeta
beethoven
beethoveni
before
begin
behavior
behaviour
behind
bei
being
beitra
bekkeri
bel
belarus
belgia
belgias
belgrad
belgradi
belgradis
believe
belize
bell
bella
belle
belli
bellini
belo
bema
bemedal
bemedali
bemedalit
bemedalivo
ben
benedetto
benedict
benedictus
benevento
benfica
bengali
bengt
beni
benini
benito
benjamin
bennett
benno
benny
benoi
bensiini
bentheimi
bentley
benz
ber
berberi
berend
berends
beretta
berg
bergamo
bergen
bergeni
berger
bergi
bergman
bergmann
beria
berkeley
berliin
berliini
berliinis
berliinist
berlin
berliner
bermuda
bern
bernard
bernardo
bernd
berneetika
bernhard
berni
bernini
berry
bert
berta
bertha
berthold
bertrand
beru
berubla
bes
bessaraabia
best
beta
betoon
betooni
betoonist
better
betti
betty
betula
between
beverly
bey
beyond
bez
bf
bha
bhutani
bi
bib
bible
bibliograafia
biblioteka
bibliotekas
bid
bida
bides
biedermann
bienenstammi
bienestamm
big
biga
bigbank
bik
bika
biks
biku
bilaskevo
bilbao
bile
bill
billboard
billboardi
billy
bilo
biloba
bima
bimine
bimiseks
bimist
bimo
bimu
bimurde
bimurre
bin
bina
bingeni
binud
bio
biobibliograafia
biofu
biograafia
biograafiad
biograafiline
biographical
biographisches
biography
biokeemia
biokeemik
biokeemiline
bioku
biol
biological
biology
bioloog
bioloogia
bioloogias
bioloogid
bioloogiline
bioloogilise
bioloogilised
bioloogiliselt
bioloogilisi
bioloogilist
bioloogiliste
biomassi
bios
biosfa
biosu
biotehnoloogia
bipa
bipaistev
bipaistva
bipaistvus
bipaistvuse
bipo
bira
bird
birds
birger
birgit
birgitta
birk
birma
birmingham
birminghamis
birth
birz
bis
biseksuaalsena
bishop
bisid
bismarck
biso
bissau
bist
bit
bitavus
biti
bitine
bitise
bitised
bitist
bitt
bitti
bitu
bitud
biv
biva
bivad
biviidud
biviimine
biviimise
biviimiseks
biviimisel
biviimist
bizet
bjo
bk
bl
bla
black
blackberry
blackburn
blackwell
blair
blaise
blake
blanc
blanche
bli
blind
blit
block
blog
blogi
blogspot
blokaadi
blokeerida
blood
blu
blue
blues
bluetooth
bluetoothi
bm
bmp
bmw
bo
board
bob
bobby
boca
bock
bodhisattva
body
boe
boeing
bogdan
bogislaw
bois
boldsymbol
bolesław
boliivia
boliivias
bologna
bols
bolt
bolton
bolzano
bon
bonaparte
bond
bondi
bone
bonifatius
bonn
bonni
bonnie
book
books
boole
bor
bordeaux
border
borg
borgia
boris
boriss
born
bornho
borussia
bosch
bosnia
bosnias
boston
bostoni
bostonis
botaanik
botaanika
botaanikaaed
botaanikaaia
botaanikud
botswana
bottom
botvinnik
boulenger
boulez
boulogne
bourbonide
bourgeois
bowie
box
boy
boyd
boyle
boys
boz
bp
br
bra
brabanti
bracy
brad
bradley
braga
brahe
braille
brain
braks
brale
bralik
braliku
bralikud
bralikult
brand
brandenburg
brandenburgi
brandon
brandt
branna
bras
brasiilia
brasiilias
brasil
brasileiro
bratislava
braun
braunschweig
braunschweigi
bravo
bre
break
brecht
bremen
bremeni
brendan
brenneri
brescia
breslau
brest
bresti
bretagne
bretooni
brez
bri
brian
bridge
brief
brien
brigaad
brigaadi
brigaadikindral
brighton
brigitte
briid
brill
brisbane
bristol
britain
britannia
britannica
briti
britid
british
britta
brittide
brjanski
brno
bro
broad
broadcasting
broadway
broken
bromwich
brooklyn
brooks
bros
brothers
brotze
brown
browne
browni
browning
bru
bruce
brugge
brun
brunei
bruno
bryan
bsd
bt
btr
bu
buch
buchdruckerei
buchhandlung
buda
budapest
budapesti
budapestis
buddha
buddy
bude
budism
budismi
budismis
budistlik
budistliku
buenos
buffalo
bugi
building
bukarest
bukaresti
bukarestis
bulgaaria
bulgaarias
bulgaarlased
bulgaarlaste
bull
bulla
bullas
bulletin
bulli
bundesliga
bunge
burchard
bureau
burg
burgundia
burke
burkina
burman
burnley
burns
burtnieki
burton
burundi
bus
busch
bush
bushi
business
buss
bussi
bussid
bussijaam
bussiliin
bussiliinid
bussipeatus
but
butler
button
butu
buxho
buxhoeveden
bwv
by
c
ca
caesar
caesari
cafe
cage
cagliari
calabria
calais
calcio
caldero
calenbergi
calgary
california
californias
call
calvin
cam
cambrai
cambridge
camera
cameron
camille
camp
campania
campanula
campbell
campeonato
campo
can
canada
canadian
canal
canberra
cancer
candida
canis
cannes
canon
canterbury
canto
cantus
cao
cap
capablanca
cape
capital
cappella
capua
car
carbon
card
cardiff
care
carex
carey
caribbean
carl
carlo
carlos
carmen
carnegie
carnival
carol
carolina
caroline
carr
carrie
carroll
carter
cas
casa
case
cases
cash
casino
caspar
cassini
castel
castello
castle
castro
cat
catalogue
catania
category
caterina
catharina
cathedral
catherine
catholic
cato
cb
cbs
cc
ccd
cd
cdc
cdk
cdma
cdot
cdots
cdu
ce
cecil
cecilia
cedric
cel
cell
celle
cells
celtic
census
center
central
centre
century
cepa
ceres
cesare
cessna
cesvaine
cev
cf
cgi
ch
cha
chain
challenge
chamorro
champagne
champions
championship
championshipi
chan
chandler
chang
change
changes
channel
chapelle
chapman
chapter
charles
charlesi
charlie
charlotte
chase
che
chef
chelsea
chem
chemical
chemistry
chen
cher
chess
chevrolet
chi
chicago
chicagos
chiesa
child
children
chile
china
chinery
chinese
chis
cho
choice
chomsky
chris
christ
christensen
christi
christian
christiani
christie
christina
christine
christmas
christoffer
christoph
christophe
christopher
chrome
chronicon
chu
chuck
church
churchill
ci
cia
cicero
cid
cie
ciems
cimbex
cio
circ
circle
cis
cities
citroe
citrus
citta
city
cityga
citys
civil
ck
cke
cken
ckeni
cker
cki
cl
claes
claire
clapton
clara
clarendon
clark
clarke
clarki
class
classic
classical
classification
claude
claudia
claudio
claudius
claus
clav
clay
cle
clemens
clement
clemente
clermont
cleveland
climate
clin
clinical
clinton
clive
close
cloud
club
clube
clubi
cluny
clyde
cm
cmos
cn
cnn
co
coast
coburg
coburgi
coca
code
codex
coelestinus
cognitive
cohen
col
cola
colbert
cold
cole
coleman
coli
colin
colle
collection
college
collins
colombia
colombias
colonna
color
colorado
colorados
colors
colubridae
columbia
columbus
com
combat
come
comes
coming
command
commission
committee
commodore
common
communication
communications
community
como
companion
company
comparative
comparison
competition
complete
complex
components
composition
computer
computing
comte
comune
con
conan
concacaf
concept
concert
concordia
condita
conference
congress
connecticuti
connor
conrad
consciousness
conservation
constant
constantin
constantinus
constantius
construction
contemporary
content
context
conti
contra
control
cook
cooki
cool
coop
cooper
copa
cope
coppa
coq
core
corinthians
cornelius
corona
coronavirus
corporation
corpus
corte
cortex
corun
cos
cosimo
costa
could
council
countries
country
county
coupe
course
court
cov
covid
cox
cp
cpu
cr
craig
crane
crawford
crazy
cre
creative
credit
creek
cremona
crime
crisis
cristina
cristo
critical
croce
croix
cromwell
cropped
cross
cruise
cruises
cruz
cruzeiro
crystal
cs
csa
csi
cska
css
ct
ctor
cu
cube
cultural
culture
cum
cup
cupi
cupil
cura
curie
current
curtis
cut
cv
cvd
cyp
cyrtodactylus
cyrus
cz
d
da
daakia
daam
daami
daani
dab
dabas
dad
dade
dades
dadest
dag
dagestani
dagmar
dahl
daily
daimler
dainiai
daisy
dakota
dal
dala
dalad
dalaga
dalai
dalaks
dalal
dalaleht
dalalo
dalane
dalas
dalase
dalased
dalast
dalaste
dalat
dalavahetusel
dale
dali
dallas
dalmaatsia
damaskuse
dame
damed
damega
dames
damesse
damest
dametunnistus
dametunnistuse
damik
damiku
dan
dana
dance
dancing
daniel
daniela
daniil
danilo
danny
dans
danske
dant
dante
danzigi
dao
dapa
dar
darja
dark
darmstadt
darmstadti
darwin
darwini
das
dast
data
database
datatowel
date
dateeritud
dati
datu
datuba
daugava
daugavgri
daugavpils
daugavpilsi
dauphine
dav
davad
davajalik
davalt
dave
david
davidi
davidson
davies
davis
davise
dawn
day
days
daz
db
dc
dd
dder
ddr
de
dea
dead
deal
dean
death
debora
debu
dec
december
ded
dede
dee
deemon
deep
def
default
defence
defense
defineerib
defineerida
defineeris
defineeritakse
defineeritud
definition
definitsioon
definitsiooni
definitsioonid
dega
degli
dehu
dei
dekaan
deklaratsioon
deklaratsiooni
dekoratiivne
dekreediga
deks
del
delacroix
delaware
delda
deldakse
deldud
dele
delegatsioon
delegatsiooni
delfi
delhi
delhis
dell
della
delle
delta
dem
demeeste
demo
democracy
democratic
demograafia
demokraadid
demokraatia
demokraatide
demokraatlik
demokraatlike
demokraatlikku
demokraatliku
demokraatlikus
demonstreeris
den
denis
deniss
dennis
departemang
departemangu
departemangud
departemangus
department
depoo
deportivo
depressioon
depressiooni
der
deraalne
deraalse
deratsioon
deratsiooni
deratsioonide
deratsioonis
derby
derek
derivaadid
derrida
des
descartes
descartesi
description
desid
design
desmond
dessandi
dessant
dessantva
dest
destilleeritud
det
detail
detaile
detaili
detailid
detailide
details
detakse
detektiiv
determinism
determinismi
deti
detroit
detroiti
dets
detsember
detsembri
detsembriks
detsembril
detsembrini
detsembris
detsembrist
detud
detuna
deubner
deutsch
deutsche
deutschen
deutscher
deutsches
deutschland
dev
deva
development
devil
devoni
devus
devuse
devusse
dewey
dfb
dharma
di
dia
diabeet
diafilm
diagnoos
diagnoosi
diagnoosimine
diagnoositi
diagnoositud
diagnostika
diagramm
diagrammi
diakon
diakoniks
dialektika
dialoog
dialoogi
dialoogis
diameeter
diameetriga
diamond
diana
diane
dias
diasarja
dick
dickinson
dict
dictionary
did
dida
didier
die
diedrich
diego
dielektriline
dies
dieter
dietrich
diferentsiaalvo
different
dig
diga
digar
diger
digi
digitaalarhiivis
digitaalne
digitaalse
digitaalsed
digitaalselt
digitaalset
digitaalsete
digital
digiteeritud
dija
dijad
dijate
dik
diktaator
diktatuuri
dile
dilemma
dima
dimetu
dimitri
dimo
din
dina
dinamo
dinud
dio
diocletianuse
diogenes
dionysios
diplom
diplomaadi
diplomaadid
diplomaat
diplomaatia
diplomaatiline
diplomaatilise
diplomaatilised
diplomaatiliste
diplomi
diplomilavastus
diplomito
dir
direcija
direct
director
directory
direktiiv
direktiivi
direktor
direktori
direktorid
direktoriks
direktorina
direktorite
dirigeeris
dirigendid
dirigendina
dirigent
dirk
dis
disaegse
disain
disainer
disaini
disainiga
disainis
disainitud
disajal
disc
discovery
disease
diseases
diskograafia
diskrimineerimine
diskrimineerimise
diskvalifitseeriti
dismuusika
disney
display
dissident
dist
distada
distades
distants
distantsi
distantsil
distas
distasid
distatakse
distatava
distati
distatud
distatuna
distribution
district
distrikt
distsipliin
distsipliini
distus
distuse
distused
distusi
distuste
ditamine
ditamise
ditati
ditatud
diversity
diviis
diviisi
divisio
division
divisjon
divisjoni
dj
dja
dk
dl
dlused
dlusi
dm
dma
dmine
dmitri
dna
dne
dnepri
dnestri
dnime
dnimega
dnimeks
dnimi
dnud
do
dobele
doc
doctor
documents
does
dog
dogs
doi
doktor
doktorant
doktori
doktorikraad
doktorikraadi
doktorio
doktorito
doktoriva
doktriin
doktriini
dokumendi
dokumendid
dokumendis
dokument
dokumentaalfilm
dokumentaalfilmi
dokumentaalfilmid
dokumentatsioon
dokumente
dokumenteeritud
dokumenti
dokumentide
dokumentides
dole
dollar
dollari
dollarini
dollarit
dolores
dom
domeen
domeeni
domenico
domineerib
domineerima
domineeris
domineerisid
domineeriv
domineerivad
domineerivaks
domingo
domini
dominica
dominiiklaste
dominikaani
dominique
don
donald
donbassi
donbassis
donetski
dong
doni
donizetti
donna
doodz
doonau
door
dopamiini
dorian
doris
dorothea
dorothy
dorpat
dorpater
dortmundi
dos
dostojevski
dot
dots
dotsendina
dotsent
douard
double
douglas
douglase
down
doyle
dp
dq
dr
dra
draakon
draakoni
draama
draamafilm
draamasarja
draamastuudio
draamateater
draamateatri
draamateatris
dracaena
dracula
draft
draftis
dragon
drake
dram
drama
dramaturg
drava
dre
dream
dreams
drei
dresden
dresdeni
dresdenis
drive
dro
drodu
droelektrijaam
droelektrijaama
droksu
droloogia
drolu
droog
droogi
droogina
dru
druck
drug
druk
drukso
druku
drukud
drukuid
drukule
drukut
drukute
drum
ds
dsc
dse
dseks
dsest
dsid
dsiwad
dt
du
dual
dub
dubai
dublin
dublini
dublinis
dud
duda
dudes
due
duett
duga
duka
dukad
dukalt
dukas
duke
dul
dumas
dume
dumist
duncan
dundaga
dunja
dunud
duo
dur
durbe
durch
dureid
duri
durid
during
durit
durite
duritele
duritest
durre
dus
dusid
dust
dutch
duur
dv
dva
dvaras
dvd
dvi
dvinjaninov
dvustada
dvustamine
dvustatud
dwight
dx
dy
dylan
dynamic
dynamics
dz
dze
dzelzcel
dzerz
e
ea
eaa
eagle
eahelik
eakadeemia
eao
earl
early
earth
eas
east
eastern
easy
eb
ebaas
ebaasi
ebakindel
ebakorrapa
ebaku
ebama
ebameeldiv
ebamo
ebao
ebapiisav
ebaseaduslik
ebaseadusliku
ebaseaduslikult
ebaselge
ebastabiilne
ebasu
ebata
ebatavaline
ebato
ebatsuuga
ebau
ebavo
ebba
eberhard
eberle
ebola
ebrigaad
ebrigaadi
ebu
ec
echo
eco
ecology
economic
economics
economy
ecuador
ecuadori
ecuadoris
ed
eda
edasi
edasiarendus
edasijo
edasilu
edasimu
edasine
edasipa
edasise
edasised
edasiseks
edasisest
edasist
edasiste
edasitungi
edaspidi
edastab
edastada
edastamine
edastamise
edastamiseks
edastas
edastatakse
edastati
edastatud
edastavad
eddie
edela
edelaosas
edelas
edelasse
edelast
eden
edendab
edendada
edendaja
edendamine
edendamise
edendamiseks
edendas
edenes
edestades
edestas
edetabel
edetabeli
edetabelid
edetabelis
edetabelites
edgar
edge
edinburgh
edinburghi
edit
edited
edith
edition
editor
ediviis
ediviisi
edler
edmond
edmonton
edmund
edo
eds
edu
eduard
eduardo
education
educational
eduga
eduka
edukad
edukaim
edukaks
edukalt
edukam
edukamad
edukamaid
edukas
edukat
edule
edusamme
eduskunna
edutati
edutult
edvard
edvin
edward
edwardi
edwards
edwin
ee
eed
eek
eel
eelarve
eelarvest
eelda
eeldab
eeldada
eeldades
eeldas
eeldatakse
eeldatavalt
eeldatavasti
eeldavad
eeldus
eeldused
eelduseks
eeldusel
eeldusest
eeldusi
eelduste
eeldustest
eelis
eelise
eelised
eeliseid
eeliseks
eelistab
eelistada
eelistades
eelistas
eelistasid
eelistatakse
eelistatud
eelistavad
eeljooksud
eelk
eelka
eelko
eellugu
eelma
eelmainitud
eelmine
eelmise
eelmisel
eelmises
eelmisest
eelmiste
eelmistest
eelne
eelneb
eelnenud
eelnes
eelnev
eelneva
eelnevad
eelnevalt
eelnevast
eelnevat
eelnevate
eelnimetatud
eelno
eelo
eelpool
eelse
eelto
eeltoodud
eelujumine
eelujumised
eelujumises
eelurikkus
eelvo
eelvoor
eemal
eemaldab
eemaldada
eemaldamine
eemaldamise
eemaldamiseks
eemaldamist
eemaldas
eemaldatakse
eemaldati
eemaldatud
eemale
eemalt
een
eeni
eenia
eenpalu
eepos
eepose
eeria
eerias
eerik
eero
ees
eesistuja
eeska
eeskiri
eeskirjad
eeskuju
eeskujuks
eeskujul
eeslinn
eeslinna
eeslinnas
eeslinnuse
eesma
eesmaa
eesmine
eesna
eesnime
eesnimi
eeso
eesotsas
eespere
eespool
eesso
eest
eesti
eestiga
eestik
eestikeelne
eestikeelse
eestikeelsed
eestikeelses
eestikeelset
eestikeelsete
eestil
eestile
eestimaa
eestimaal
eestimaale
eestipa
eestis
eestisse
eestist
eestistamine
eestistamisel
eestistatud
eestit
eestko
eestkoste
eestkostja
eestlane
eestlase
eestlased
eestlasena
eestlasest
eestlasi
eestlast
eestlaste
eestlastega
eestlastel
eestlastele
eestlastest
eestseisja
eestvedaja
eestvedamisel
eestvo
eetika
eetikas
eetiline
eetilise
eetilised
eetilisi
eetris
eetrisse
eeva
eevi
ef
efekt
efekte
efekti
efektid
efektiivne
efektiivse
efektiivsed
efektiivselt
efektiivsem
efektiivsemalt
efektiivsus
efektiivsuse
efektiivsust
effect
effects
ega
egeuse
egiidi
egiptus
egiptuse
egiptuses
egiptusest
egiptusse
egle
ego
egon
egrupi
egrupp
eha
ehala
ehhi
ehhis
ehhoslovakkia
ehhoslovakkias
ehhov
ehhovi
ehin
ehitab
ehitada
ehitaja
ehitajate
ehitama
ehitamine
ehitamise
ehitamisega
ehitamiseks
ehitamisel
ehitamist
ehitanud
ehitas
ehitasid
ehitatakse
ehitati
ehitatud
ehitis
ehitise
ehitised
ehitisi
ehitisma
ehitist
ehitiste
ehitud
ehitus
ehituse
ehitusega
ehituseks
ehitusel
ehituselt
ehituses
ehitusest
ehitusettevo
ehitusinsener
ehitusja
ehitusmaterjalide
ehitusmeister
ehituspa
ehitust
ehitusto
ehk
ehkki
ehst
ehte
ehted
ehteid
ei
eidapere
eide
eik
eile
eimiski
ein
einar
einasto
eine
einem
einer
eino
einstein
einsteini
eisen
eit
eitab
eitada
eitas
eitus
eituse
ejl
ejuhatus
ejuhatuse
ejuhi
ejuhid
ejuht
ek
eka
ekaa
ekalda
eke
eki
ekindral
ekl
ekm
eko
ekp
ekr
ekraan
ekraani
ekraaniga
ekraanil
ekraanile
ekre
eks
eksami
eksamid
eksemplari
eksiili
eksiilis
eksinud
eksis
eksisteeri
eksisteerib
eksisteerida
eksisteerimise
eksisteerinud
eksisteeris
eksisteerisid
eksisteerivad
eksistentsi
eksitav
eksitus
ekskommunitseeris
ekslik
ekslikult
ekspeditsioon
ekspeditsiooni
ekspeditsioonil
ekspeditsioonist
eksperdid
eksperimendi
eksperimendid
eksperiment
eksperimentaalne
eksperimentaalpsu
eksperimentaalse
eksperimente
ekspert
ekspertide
eksponeeritakse
eksponeeriti
eksponeeritud
ekspordi
eksporditi
eksport
ekspositsioon
ekspress
ekspressi
ekspressioon
ekspressiooni
ekss
eksternina
eku
ekuru
ekvaatori
ekvatoriaal
el
ela
elab
elad
elada
elades
elagu
elama
elame
elamine
elamise
elamiseks
elamisloa
elamisluba
elamu
elamud
elamus
elamut
elamute
elamuu
elan
elane
elanik
elanike
elanikel
elanikele
elanikest
elanikke
elanikkond
elanikkonna
elanikkonnast
elanikku
elaniku
elanikud
elanikuga
elanud
elas
elase
elased
elasi
elasid
elasiwad
elast
elaste
elastele
elatakse
elati
elatist
elatud
elav
elava
elavad
elavaid
elavalt
elavat
elavate
elavatele
elavho
elbe
elda
eldakse
eldav
eldes
eldi
eldis
eldu
eldud
ele
eleanor
electric
electronic
electronics
elegans
elekter
elektri
elektrienergia
elektrienergiat
elektrijaam
elektrijaama
elektrilaeng
elektriline
elektrilise
elektrilised
elektriliselt
elektrilisi
elektrilist
elektriliste
elektrisu
elektrit
elektriva
elektrivo
elektrivool
elektrivoolu
elektrolu
elektromagnetiline
elektromagnetilise
elektron
elektrone
elektroni
elektronid
elektronide
elektrood
elektroodi
elektroodide
elektroonika
elektrooniline
elektroonilise
elektroonilised
elektrooniliselt
elektroonilist
elektrooniliste
elektrotehnika
elemendi
elemendid
elemendiks
elemendist
element
elemente
elementi
elementide
elementidega
elementidest
elements
elena
eleonora
eleonore
elevandiluuranniku
elevant
elfriede
elge
eli
elias
eliidi
eliisabeti
eliit
elin
elina
eline
elis
elisa
elisabet
elisabeth
elisabethi
elise
elised
eliseks
eliselt
elisest
elist
eliste
elistvere
elizabeth
elizabethi
eljabinski
elknu
ell
ella
ellamaa
elle
ellen
eller
elleri
elli
elliott
ellis
ellist
ello
ellole
ellu
elluja
elluviimine
elluviimise
elluviimiseks
elmar
elmatar
elmo
elnud
elo
elon
elroni
els
elsa
else
elsevier
elt
eltl
elton
elts
elu
eluaasta
eluaastad
eluaastal
eluaastani
eluaastast
eluaastat
eluaegne
eluaegse
eluajal
eluea
eluga
eluiga
elujo
eluka
elukaaslane
elukas
elukeskkonna
elukoha
elukoht
elukohta
eluks
elukutse
elukutseline
elukutselisena
elukutseliste
elule
eluloo
elulood
elulugu
elumaja
elund
elundi
elundite
elupa
elupaiga
elupaigad
elupaigatu
elupaik
elupaikade
elupaiku
elupuu
elurikkuse
eluruumid
elus
elusalt
elust
elustiili
elustik
eluta
eluto
elutseb
elutsevad
elutsu
eluure
eluviis
eluviisi
eluviisiga
elva
elvas
elvi
elvira
elvis
em
ema
emad
emaga
emaitija
emajo
emaka
emakas
emakeel
emakeele
emakeeleks
emakeelena
emaks
emaksu
emal
emale
emalt
emand
emane
emanuel
emanuele
emaplaadi
emapoolne
emase
emased
emaslind
emast
emaste
emastel
embleem
embru
eme
emees
emeriitprofessor
emi
emic
emigreerus
emiir
emil
emilia
emilie
emilio
emily
emma
emmanuel
emmaste
emmy
emo
emotsionaalne
emotsionaalse
emotsionaalselt
emotsionaalset
emotsioon
emotsioone
emotsiooni
emotsioonid
emotsioonide
emp
empaatia
empiiriline
empiirilise
empiiriliselt
empiiriliste
empire
emta
emu
en
ena
enam
enama
enamasti
enamat
enamik
enamikku
enamiku
enamikul
enamikule
enamikus
enamikust
enamjaolt
enamlaste
enamus
enamuse
enamusega
enamuses
enamust
enciklope
enciklopedija
enciklopediju
encyclopaedia
encyclopedia
encyclopædia
encyklopedia
end
enda
endab
endada
endaga
endal
endale
endalt
endamisi
endas
endasse
endast
endatud
endavad
ende
endeid
endel
endi
endid
endile
endine
endise
endised
endisel
endisele
endiselt
endises
endisest
endisi
endist
endiste
endistele
endistest
endite
endla
endrik
endus
ene
energeetika
energia
energiaga
energiasa
energiast
energiat
energiato
energy
enese
enesega
enesel
enesele
enesema
eneses
enesest
enesestmo
enesetapp
enesetappu
enesetapu
eneseva
eneste
enestele
eng
engelbert
engelbrecht
engelhardt
engine
engineering
england
english
engure
eni
enim
enitso
enka
enko
enn
ennam
ennast
enne
ennegi
enneko
ennem
enneta
ennetada
ennetamine
ennetamiseks
enno
ennustab
ennustada
ennustamine
ennustas
ennustus
eno
enrico
enrique
ens
ensemble
enski
ensu
ensv
ent
enterprise
entertainment
entomoloog
entroopia
entsu
environment
environmental
eo
eok
eosa
eosad
eosade
eosed
eots
ep
epa
epataljon
epataljoni
epealik
epeirose
epideemia
episood
episoodiline
epistemoloogia
epitsenter
epl
eplik
epmu
epo
epoeg
epolgu
epolgus
epolk
epolku
epoolest
epp
epsilon
er
era
eradotsent
eraelu
eraettevo
eragu
erakond
erakonda
erakondade
erakonna
erakonnad
erakonnast
erakool
erakordne
erakordselt
erakorraline
erakorralise
erakorralised
eraldab
eraldada
eraldamine
eraldamise
eraldamiseks
eraldas
eraldatakse
eraldati
eraldatud
eraldavad
eraldi
eraldiseisev
eraldiseisva
eraldistardiga
eraldistardist
eraldub
eraldumine
eraldumist
eraldunud
eraldus
eraldusid
eraldusvo
eramu
erand
erandeid
erandid
erandiks
erandina
eranditult
erao
erapooletu
eras
erasektori
erasmus
erast
erastvere
erau
erdi
erdog
ere
ereisilaev
erelt
ergastatud
ergo
erhard
eri
eriala
erialade
erialal
eriauhind
eric
erich
ericsson
erigeron
erik
erika
eriksson
eriku
eriline
erilise
erilised
eriliseks
eriliselt
erilisi
erilist
eriliste
erine
erineb
erineda
erines
erinesid
erinev
erineva
erinevad
erinevaid
erineval
erinevalt
erinevas
erinevast
erinevat
erinevate
erinevatel
erinevatele
erinevates
erinevatesse
erinevatest
erinevus
erinevuse
erinevused
erinevusest
erinevusi
erinevust
erinevuste
erinevustest
eringkond
eringkonna
erino
erio
eriolukorra
erioperatsioonide
eriosakonna
eriotstarbeline
eripa
eripreemia
eristab
eristada
eristama
eristamine
eristamiseks
eristas
eristatakse
eristatav
eristatavad
eristatud
eristavad
eristub
eristus
eristuvad
eritavad
eriti
eritrea
eriu
eriva
erivajadustega
erk
erkasso
erki
erkki
erm
ermitaaz
erna
ernesaks
ernesaksa
ernest
ernesto
erni
ernits
erno
ernst
ero
erosiooni
err
erra
erru
ers
ersa
ersen
erso
ersp
erster
ertshertsog
eru
ervin
erwin
es
esa
esaar
esalu
esbl
esc
escherichia
ese
esed
eseks
eseme
esemed
esemeid
esemeks
esemete
eset
esi
esiajalugu
esialgne
esialgse
esialgsed
esialgselt
esialgsest
esialgset
esialgu
esietendus
esiettekanne
esiisa
esikoha
esikohal
esikohale
esikoht
esikohta
esikolmikusse
esiku
esile
esileto
esiliiga
esiliigas
esiliigasse
esilinastus
esimees
esimehe
esimehed
esimeheks
esimehele
esimehena
esimene
esimese
esimesed
esimeseks
esimesel
esimesele
esimesena
esimeses
esimesest
esimesi
esimesse
esimest
esimeste
esimesteks
esimestel
esimestena
esimestest
esinaine
esindab
esindada
esindades
esindaja
esindajad
esindajaid
esindajaks
esindajana
esindajat
esindajate
esindajatega
esindajatekoda
esindajatekoja
esindajatest
esindama
esindanud
esindas
esindasid
esindatud
esindav
esindavad
esindus
esinduse
esinduskogu
esine
esineb
esineda
esinedes
esinejad
esinejanimega
esinema
esinemas
esinemine
esinemise
esinemised
esinemissageduselt
esinemist
esinenud
esines
esinesid
esineti
esinev
esineva
esinevad
esinevate
esiotsa
esiplaanil
esit
esita
esitab
esitada
esitades
esitaja
esitajad
esitama
esitamine
esitamise
esitamiseks
esitamisel
esitamist
esitanud
esitas
esitasid
esitatakse
esitati
esitatud
esitavad
esiteks
esiti
esitleb
esitles
esitleti
esitlus
esitus
esituse
esituses
esivanem
esivanemad
esivanemate
eske
esko
eskola
eslav
esmaabi
esmaeeter
esmajoones
esmakordselt
esmakutsutu
esmalend
esmalt
esmamainitud
esmane
esmapilgul
esmase
esmased
esmaseid
esmaseks
esmaselt
esmaspa
esmast
esmaste
esmato
esmatru
esna
esolev
esoleva
esoleval
esolevas
esp
espan
esperanto
esporte
ess
essay
essays
esse
essee
esseed
esseid
esseist
essen
essite
essu
est
esta
estab
estada
estamiseks
estanud
estas
estatud
este
esteetika
esteetiline
esteetilise
esteks
ester
esther
esti
estica
estik
estiku
estikud
estikus
estikust
estimates
estla
estland
estnische
estnischen
esto
estonia
estonian
estonias
estonica
estus
estuse
estust
esus
esuse
esust
esuu
esuus
esuusataja
esuusatajad
esuusatamine
et
eta
etaguse
etakse
etanooli
etapi
etapid
etapil
etapis
etapist
etapivo
etapp
etappe
etappi
etappide
etappidel
etav
etava
etc
ete
eteenistus
eteenistuse
eteenistusest
eteenistusse
etendas
etendus
etenduse
etendused
etendusi
etendust
ethernet
etherneti
ethics
ethnic
ethnologue
eti
etioopia
etioopias
etipp
etippu
etis
etiste
etk
etniline
etnilise
etnograaf
etnograafia
etnoloog
etnoloogia
eto
ets
ette
etteantud
etteka
ettekande
ettekanded
ettekanne
ettekujutus
ettekujutuse
ettema
ettena
etteotsa
ettepanek
ettepaneku
ettepanekud
ettepanekuga
ettepanekuid
ettepanekul
ettepanekut
ettepanekute
ettepoole
ettevaatlik
ettevaatlikult
ettevalmistamine
ettevalmistamise
ettevalmistamiseks
ettevalmistamisel
ettevalmistus
ettevalmistuse
ettevalmistused
ettevalmistusi
ettevo
ettewo
etu
etud
etuna
etv
eu
eucalyptus
euge
eugen
eugene
eugenio
eugenius
eukalu
eukaru
eur
euraasia
euraasias
euro
euroala
euroga
eurolaul
euroopa
euroopas
euroopasse
euroopast
euroopat
eurooplased
eurooplaste
europa
europaea
europe
european
eurot
eurovisioon
eurovisiooni
eurovisioonil
euwe
ev
eva
evad
evade
evadel
evaelu
evaelus
evaga
evakorda
evaks
evakueeriti
eval
evald
evale
evalehe
evalehes
evaleht
evalgi
evaluation
evama
evana
evane
evangeelium
evangeeliumi
evangeeliumis
evangeelne
evangeelse
evangelischen
evani
evans
evas
evase
evased
evaseid
evaseks
evasel
evasele
evaselt
evases
evasest
evast
evaste
evastes
evavalgele
eve
evelin
evelyn
event
events
ever
evert
everton
everything
evi
evic
evidence
evik
evike
eviku
evikud
evil
eviti
evo
evolution
evolutsioon
evolutsiooni
evr
evs
evski
evts
ew
ewa
ewad
ewal
ewald
ewaleht
ewert
ex
exchange
exhibition
exp
experience
experimental
explorer
expo
express
expressi
extended
extra
eye
eyes
eys
ez
f
fa
faas
faasi
faasis
fabian
fabio
face
facebook
facebooki
facebookis
facto
factor
factors
factory
facts
fah
fail
faile
faili
failid
failide
failisu
fair
faith
fakt
fakte
fakti
faktid
faktide
faktiliselt
faktor
falco
falcon
falklandi
fall
false
falunis
fame
family
fan
fanny
fantaasia
fantasy
far
faraday
farm
farmaatsia
farmakoloog
farmakoloogia
fas
fashion
faso
fassaad
fassaadi
fast
fat
fatimiidide
fauna
faure
faust
fbi
fc
fci
fe
fear
feat
feature
features
february
federal
federation
federica
federico
feel
feldmarssal
feliks
felipe
felix
female
feminist
fenomen
fenomeni
fenotu
fenu
feodor
fer
ferdinand
ferdinandi
ferdinando
ferenc
ferguson
fermi
ferna
fernando
ferrara
ferrari
fersen
festival
festivali
festivalid
festivalidel
festivalil
ff
fi
fia
fiat
fiction
fid
fide
fideikomiss
fidel
fidz
field
fiemmes
fifa
fifth
figaro
fight
figuurid
fikseeritud
filantroop
filaret
file
files
filharmoonia
filiaal
filiaali
filip
filipiinid
filipiinide
filipiinidel
filipp
filippo
filis
filise
film
filme
filmi
filmid
filmide
filmides
filmidest
filmifestival
filmifestivali
filmifestivalil
filmiga
filmikunsti
filmilavastaja
filmilavastajad
filmile
filmimuusika
filmina
filmioperaator
filmiprodutsent
filmirez
filmis
filmist
filmistuudio
filmiti
filmito
filmitud
filmiveeb
filmograafia
films
filoloog
filoloogia
filoloogiat
filoloogiateaduskonna
filosoof
filosoofe
filosoofi
filosoofia
filosoofiadoktori
filosoofiaentsu
filosoofiale
filosoofias
filosoofiaseltsi
filosoofiast
filosoofiat
filosoofiateaduskonna
filosoofiateaduskonnas
filosoofiateosed
filosoofid
filosoofide
filosoofiline
filosoofilise
filosoofilised
filosoofilisi
filosoofilist
filosoofiliste
filter
filtri
filtrid
fin
finaal
finaali
finaalid
finaalis
finaalma
finaalturniiril
finaalturniirile
finaalvo
final
finalist
finance
financial
finants
fine
finis
finland
finlandia
finn
finnish
finnmargi
fiorentina
fire
firenze
firenzes
firewire
firma
firmad
firmade
firmale
firmas
first
fis
fischer
fischeri
fish
fisher
fisichella
five
fjodor
fjodorovits
fjordi
fk
fl
flaami
flag
flamengo
flandria
flash
flavius
fleming
fletcher
fleur
flight
flo
flora
florence
flores
florida
floridas
flow
flowers
floyd
fly
flying
fm
fn
fo
focus
foiniikia
fokker
folk
folkloori
folklore
folklorist
folkloristika
fond
fondi
fondid
foneetika
fonoloogia
fontaine
fontana
fontsize
food
foogt
foogtkond
fookus
foorum
foot
football
footoni
for
forall
forbes
force
forces
ford
fordi
foreign
forest
forever
forgiveness
form
formaadis
formaalne
formaalse
formaalselt
formaat
format
formation
formeeriti
formeeritud
forms
formula
forschungen
forseliuse
fort
forte
fortune
forum
fosfor
fosfori
fosforu
fossiilku
foster
foto
fotod
fotode
fotograaf
fotograafia
fotograafid
fotokogu
fotosid
fotosu
fotot
foucault
foundation
foundations
four
fourier
fox
fp
fr
fra
fraas
fraasi
frac
fragmendid
fragment
fragmente
fraktsioon
fraktsiooni
fraktsioonid
frame
fran
franc
france
frances
francesca
francesco
francis
francisco
franciscos
franciscus
franco
frangi
frangid
frangimaa
frank
frankenstein
frankfurdi
frankfurdis
frankfurt
franki
frankide
frankie
franklin
franklini
frans
frantsisklaste
frantzen
franz
franziska
fraser
fraternitas
frazioni
fre
fred
freddie
frederic
frederick
frederik
fredrik
free
freedom
freeman
frege
freiburg
freiburgi
freiwilligen
french
frequency
fresko
freud
freudi
frey
friedebert
friederike
friedman
friedrich
friedrichi
friends
friisi
friisimaa
fritz
friuli
fro
from
fromhold
front
fru
fry
fs
fsb
ft
fu
full
function
fundamentaalne
funk
funktsionaalne
funktsionaalru
funktsionaalse
funktsionaalsed
funktsioon
funktsioone
funktsiooni
funktsioonid
funktsioonide
funktsiooniga
funktsiooniks
fusion
future
fuuga
fv
fx
g
ga
gaas
gaasi
gaasid
gaaside
gaboni
gabriel
gabriela
gabriele
gabrieli
gad
gaeli
gaetano
gaga
gagarini
gagi
gaia
gailit
gaius
gal
gala
galaktika
galaktikad
galaktikate
galatasaray
galaxy
gale
galerii
galeriis
galicia
galiitsia
galilei
galileo
galina
gallery
gallia
gallus
gama
gambia
game
games
gamma
gandalf
gandhi
ganen
ganuse
gar
garaaz
garantii
garci
garcia
garden
gardie
gardner
garibaldi
garmisch
garnison
garnisoni
garrett
gars
gary
gas
gaston
gate
gates
gatts
gauja
gaulle
gaussi
gautengi
gav
gava
gavad
gaval
gavale
gavalt
gavam
gavamale
gavas
gavat
gavendade
gavere
gavus
gavuse
gavusel
gavusele
gavuses
gavust
gay
gaz
gaza
gazeta
gazprom
gb
gbit
gdan
gddr
ge
geda
gedad
gedalt
gede
gedega
gedel
gedele
gedelt
gedes
gedesse
gedest
geen
geene
geeni
geenid
geenide
geenius
geforce
gei
gel
gema
gemata
gemeinde
gemendi
gemendis
gement
gementi
gemine
gemini
gemise
gemisega
gemist
gemus
gemuse
gen
gene
genealogisches
genealoogia
genealoogilisest
geneb
geneda
geneetik
geneetika
geneetiline
geneetilise
geneetilised
geneetiliselt
geneetilist
geneetiliste
genema
genemine
genemise
genemist
genenud
general
generation
generatsioon
generatsiooni
genes
genesid
genesis
genevad
genf
genfi
genfis
geni
genike
genikke
genikud
gennadi
genoom
genoomi
genoomis
genotsiidi
genotu
genova
genti
geo
geodeesia
geoffrey
geofu
geograaf
geograafia
geograafiateaduskonna
geograafid
geograafiline
geograafilise
geograafilised
geograafiliselt
geograafilises
geographic
geographischer
geology
geoloog
geoloogia
geoloogid
geoloogiline
geoloogilise
geoloogiliselt
geomeetria
geomeetriline
geomeetrilise
geomeetrilised
geopark
georg
george
georges
georgi
georgia
georgios
ger
gerald
gerard
gerd
gerda
gerhard
gerli
germaani
germaanlaste
germain
germaini
german
germania
germany
gerrit
gert
gertrud
gertrude
ges
geschichte
gesellschaft
gesid
gessner
get
getter
gev
geva
geval
gevamaa
gevamaal
gga
ggi
ghana
ghanas
gheorghe
ghost
ghz
gi
gia
giacomo
gian
gianni
giant
giarmee
gib
gibraltari
gibson
gicle
gid
gideon
gieeni
gif
gifhorni
giga
giisu
gija
gijo
gikond
giks
gil
gila
gilbert
gildi
gile
gilles
gima
gime
gin
gina
gine
ginkgo
giorgi
giorgio
giovanni
girard
girl
girls
girolamo
gis
gise
giseks
gisel
giseni
gisest
gisi
gismaa
gisoo
gist
giste
gita
gitakse
gite
giti
gitoru
gitud
giulia
giuliano
giulio
giuseppe
givad
givald
givalda
givaldne
givalla
give
giwad
gl
gla
glasgow
glass
glehni
glen
glenn
glise
globaalne
globaalse
global
globe
glock
gloria
glory
gloucesteri
glu
gm
gmbh
gnaeus
gnu
go
god
goes
goethe
going
gold
golden
goldman
golf
golfi
golitso
gomes
gone
gonsiori
gonza
good
goodbye
goodid
goodman
google
gooti
gootide
gora
gorbats
gordon
gori
gorka
gorki
got
gotha
gottfried
gotthard
gottlieb
gottlob
gouvernemens
gov
government
gp
gps
gpu
gr
gra
graaf
graafi
graafik
graafika
graafikaprotsessor
graafikat
graafiku
graafikud
graafiline
graafilise
grabbi
grace
grad
graf
graham
grammatika
grammatiline
grammi
grammy
gran
granada
grand
grande
graniidist
graniit
grano
grant
granti
graphics
grata
grave
gravitatsioon
gravitatsiooni
gravitatsiooniva
gravu
gray
graz
grazi
gre
great
greatest
greco
greek
greeka
green
greene
greg
gregor
gregorio
gregorius
gregoriuse
gregory
greifswaldi
grenada
grenader
grenaderiru
grenoble
greta
grete
grey
gri
grice
griffin
griffith
grigori
grimm
gris
gro
grobin
groningeni
gross
ground
group
groupi
grove
growth
grozno
groß
gru
grupi
grupid
grupiga
grupina
grupis
grupp
gruppe
gruppi
gruppide
grus
gruusia
gruusias
gruyter
gs
gsm
gt
gtx
gu
gua
guardian
guatemala
gude
gue
guerra
guerre
guez
guglielmo
gui
guide
guido
guillaume
guillermo
guinea
guineas
guinnessi
guitar
gulbene
gun
gunnar
guru
gus
gusid
gustaf
gustav
gustave
gustavo
gustavson
gut
gutsgrenzen
guy
guyana
gv
gyo
gyula
h
ha
haab
haabersti
haag
haagi
haagis
haamer
haanja
haapsalu
haapsalus
haarab
haaranud
haaras
haarasid
haarata
haaratud
haas
haaslava
haav
haava
haavade
haavata
haavatud
habarovski
habe
habet
habicht
habsburg
habsburgid
habsburgide
hackett
had
hade
hadel
hadrianus
hadz
hageja
hagemeister
hagen
hageri
hagi
hahn
hai
haige
haiged
haigekassa
haigeks
haigestumise
haigestumist
haigestunud
haigestus
haiget
haigete
haigla
haiglad
haiglaravi
haiglas
haiglasse
haiglates
haigus
haiguse
haigused
haigusega
haigusest
haigusi
haiguslike
haiguslikke
haigusse
haigust
haiguste
haimre
hain
hainaut
haiti
haja
hajaku
hajo
hajumine
hajumise
hajusalt
hajutatud
hak
hakanud
hakata
hakatakse
hakati
hakatud
hakirja
hakka
hakkab
hakkaks
hakkama
hakkame
hakkan
hakkas
hakkasid
hakkasin
hakkasiwad
hakkavad
hakoda
haks
hakse
haku
hakud
hakuks
hakute
hal
halb
halba
halbade
haldab
haldamine
haldamise
haldamiseks
haldas
haldus
haldusalas
haldusalasse
halduse
halduses
haldusjaotus
haldusjaotuse
halduskeskus
halduskeskuseks
halduskogu
halduslikult
halduso
halduspiirides
halduspiirkonnas
haldusreformi
haldusreformini
haldusu
hale
halepa
half
halinga
haljala
hall
hallata
halle
haller
hallermann
halli
hallid
hallik
hallikas
hallis
halliste
halo
halva
halvad
halvaks
halvas
halvasti
halvem
halvenenud
halvenes
ham
hamba
hambad
hambaid
hamburg
hamburger
hamburgi
hamburgis
hamilton
hamiltoni
hamlet
hammaste
hammer
hampshire
hampton
hamu
han
hand
handbook
handbuch
handi
hando
handu
hani
hanila
hank
hankida
hankis
hanko
hanna
hannah
hannes
hannibal
hanno
hannover
hannoveri
hannoveris
hannu
hans
hansa
hansapa
hansen
hanso
hanson
hansson
hansu
hanto
hapa
hapaigad
hape
hapete
hapnik
hapnikku
hapniku
hapnikuga
happe
happed
happy
hapu
har
hara
harald
hard
hardcore
hardi
hardo
hardy
hare
hargla
hargneb
hargnenud
hari
harida
haridus
hariduse
haridusega
haridusele
hariduselt
hariduses
hariduska
haridusministeerium
haridusministeeriumi
haridusminister
haridusseltsi
haridussu
haridust
haridustee
haridustegelane
haridusto
harilik
harilikku
hariliku
harilikul
harilikult
haripunkti
haritud
harju
harjumaa
harjumaal
harjumaale
harjumus
harjunud
harkivi
harkovi
harku
harmoonia
harmooniline
harold
harper
harrastas
harri
harris
harrison
harry
hart
harta
hartmann
haru
harud
harude
haruldane
haruldased
haruldasi
haruldaste
haruraamatukogu
harutee
harv
harva
harvard
harvardi
harvem
harvemini
harvey
harzi
has
hasartma
hassan
hasselblatt
hasso
hast
hat
hats
hatu
haua
hauad
haual
hauamonument
hauaplats
hauata
haud
hauda
haudi
haug
haugi
hauptsturmfu
haus
haute
havaimu
have
haven
hawaii
haydn
haydni
hayes
hc
hcl
hd
hdmi
he
hea
heaastane
heaastase
head
heade
headus
headuse
heaegselt
heainsa
heaks
heakskiidu
heakskiitu
heal
heale
healega
health
heameelega
heaolu
heart
heas
heast
heat
heaven
heavy
heb
hector
hed
hedal
hedale
hedalt
hedane
hedase
hedased
hedaseks
hedases
hedasi
hedast
hedaste
hede
hedus
heduse
heduses
hedusse
hedust
hedvig
hedw
hedwig
heebrea
heeliumi
hega
hegel
hegeli
hegi
heha
hehaaval
hei
heidab
heide
heidegger
heidelberg
heidelbergi
heideti
heidetud
heidi
heidy
heike
heiki
heikki
heiko
heili
heimtali
hein
heina
heinaste
heine
heino
heinrich
heinrichi
heinrici
heinsalu
heinz
heisatakse
heisati
heita
heites
heiti
heitis
heitnud
heitsid
heke
hekojaline
hekordne
hekordse
hekorruseline
heks
heksa
heksanda
heksas
heksast
hektari
hektarit
heku
hel
hela
heldada
heldati
heldatud
helde
heldur
hele
heleda
heledad
heledam
heledus
heleduse
helegi
helen
helena
helene
helepanu
helepanuta
helepanuva
helga
helge
helgi
heli
helid
helide
heliko
helikopter
helikunsti
helilooja
heliloojad
heliloojate
helin
helina
helirez
helirida
heliro
helisid
helisignaali
helisu
helito
heliva
heljo
helju
hell
hella
hellamaa
hellat
helle
hellenurme
hello
helm
helme
helmi
helmut
helmuth
help
helsingi
helsingin
helsingis
helsingisse
helsinki
helt
heltermaa
helve
helvi
hem
hema
hemad
hemaid
hemaks
hemal
hemale
hemalt
hemast
hemat
hemate
hematki
heme
hemo
hemolu
hemus
hemuse
hemused
hemuses
hemusrahvuste
hemuste
hen
hena
hend
henda
hendab
hendada
hendades
hendaks
hendama
hendamine
hendamise
hendamisega
hendamiseks
hendamisel
hendamisest
hendamisso
hendamist
hendanud
hendas
hendasid
hendatakse
hendati
hendatud
hendatult
hendav
hendava
hendavad
hendeid
hendemiraadid
hendemiraatide
henderson
hendi
hendid
hendina
hendit
hendite
hendkuningriigi
hendkuningriigis
hendkuningriik
hendriigid
hendriikide
hendriikidele
hendriikides
hendriikidesse
hendriikidest
hendrik
henduda
hendunud
hendus
henduse
hendused
hendusega
henduseks
hendusele
henduses
hendusest
henduseta
hendusi
henduslik
hendusse
hendust
henduste
hene
heneb
heneda
henedes
henema
henemine
henemise
henemisega
henemisel
henemisest
henemist
henenud
henes
henesid
henevad
henn
henning
henno
hennoste
heno
henri
henriette
henrik
henriku
henrique
henry
henryk
hepa
hepaadil
hepatiidi
hepoolselt
her
hera
herakleitos
herakleitose
herakles
heraklese
herald
herbert
here
heritage
hermaku
herman
hermann
hermanni
hermes
herna
herne
hero
herodes
heroes
herra
herschel
hersoni
hertsegoviina
hertsegoviinas
hertsog
hertsogi
hertsogid
hertsogiks
hertsogile
hertsoginna
hertsogiriigi
hertsogiriik
hertsogite
hertsogkond
hertsogkonda
hertsogkonna
hertsogkonnad
hertsogkonnaks
hertsogkonnas
hertsogkonnast
herzog
hes
hese
hesed
heseid
hesel
heselt
heski
heskoos
heso
hess
hesse
hessen
hesseni
hest
heste
hestest
hestik
hestikku
hestiku
hestikus
hesu
hesugune
hesuguse
hesugused
hesuse
het
heta
heteistku
hetk
hetke
hetkeks
hetkel
hetkest
hetman
hetorni
hetuntud
heva
hevad
heß
hf
hg
hh
hha
hhe
hhi
hhiaater
hhiaatria
hhoanalu
hholoog
hholoogia
hholoogias
hholoogiast
hholoogiat
hholoogid
hholoogide
hholoogiline
hholoogilise
hholoogilised
hholoogiliselt
hholoogilisi
hholoogilist
hholoogiliste
hi
hiajaline
hiajalise
hiajaliselt
hiajalugu
hid
hidalt
hieesma
hielulood
hierarhia
hieroglu
hieronymus
hietaniemi
hifilm
high
highway
higi
hihooaja
hiid
hiidrahn
hiie
hiiema
hiiglaslik
hiina
hiinas
hiinasse
hiinast
hiinlased
hiir
hiire
hiired
hiirte
hiis
hiite
hiiu
hiiumaa
hiiumaal
hijutud
hik
hika
hikaha
hike
hikese
hikesed
hikeseks
hikesi
hikest
hikeste
hikiri
hikirja
hikokkuvo
hikool
hikooli
hikoolis
hikoosseisu
hiku
hikud
hikuid
hikuks
hikus
hikut
hikute
hikutes
hilary
hilda
hildebrand
hildegard
hildesheimi
hilduv
hilduvad
hilduvus
hiline
hilise
hilised
hiliseks
hiliselt
hilisem
hilisema
hilisemad
hilisemaid
hilisemal
hilisemale
hilisemas
hilisemast
hilisemat
hilisemate
hilisematel
hilisemates
hilisi
hiliso
hilissu
hilist
hiliste
hilisteks
hilja
hiljaks
hiljem
hiljemalt
hiljemini
hiljuti
hill
hillar
hillary
hille
hilli
hills
hilton
him
hima
himaalaja
himad
himeeskonnas
himma
himo
himu
hina
hind
hinda
hindab
hindade
hindama
hindamine
hindamise
hindamiseks
hindamisel
hindamist
hindas
hindasid
hindavad
hindi
hindrek
hindu
hinduism
hinduismi
hine
hineb
hineda
hinedes
hinema
hinemine
hinemise
hinemisel
hinemist
hinenud
hines
hinesid
hinev
hineva
hinevad
hinevaid
hinevat
hinevate
hing
hingamine
hingamise
hingamisel
hingamisteede
hinge
hinged
hingede
hingega
hinges
hingest
hingu
hingud
hinguid
hingus
hingusse
hingute
hinna
hinnad
hinnaga
hinnaks
hinnang
hinnangu
hinnangud
hinnanguid
hinnangul
hinnanguline
hinnanguliselt
hinnangut
hinnangute
hinnanud
hinnata
hinnatakse
hinnati
hinnatud
hinrikus
hint
hints
hio
hiob
hiosa
hiosas
hiplaan
hiplaaniga
hiraja
hirm
hirmsa
hirmsasti
hirmu
hirmuga
hirmus
hirmust
hiromaan
hirv
his
hisarja
hise
hiseadus
hiseaduse
hiseadusega
hiseadusele
hiseaduses
hiseadusliku
hiseadust
hised
hisega
hiseid
hiseks
hisel
hisele
hiselt
hiselu
hises
hisest
hisettevo
hisgu
hishaud
hiskond
hiskonda
hiskondades
hiskondlik
hiskondlike
hiskondlikke
hiskondlikku
hiskondliku
hiskondlikud
hiskonna
hiskonnale
hiskonnas
hiskonnast
hiskonnateaduste
hiskonnategelane
hisna
hiso
hispaania
hispaaniale
hispaanias
hispaaniasse
hispaaniast
hispaaniat
hispaanlased
hispaanlaste
hispania
hispank
hisstardiga
hisstardist
hist
histab
histada
histama
histamaks
histamine
histamise
histamiseks
histamist
histas
histasid
histatakse
histati
histatud
histav
histavad
histe
histel
histele
histo
histoire
histoloogia
historia
historiae
historic
historical
historie
historisches
history
histranspordi
histransport
histu
histus
histute
hisus
hisuse
hisuunad
hit
hita
hitatav
hiti
hitler
hitleri
hitlerile
hito
hits
hitses
hitseti
hitsetud
hitt
hitu
hitud
hiu
hiv
hiva
hivo
hj
hja
hjad
hjade
hjaeesti
hjaga
hjakaldal
hjaks
hjaku
hjal
hjala
hjale
hjalik
hjaliku
hjalikult
hjalikumalt
hjalmar
hjalt
hjamaa
hjamaade
hjamaades
hjamere
hjaosa
hjaosas
hjaossa
hjapo
hjapoolkeral
hjapoolne
hjapoolse
hjapoolseim
hjapoolsem
hjarannik
hjarannikul
hjas
hjaso
hjast
hjata
hjavee
hjavesi
hjend
hjendab
hjendada
hjendades
hjendas
hjendatud
hjendeid
hjendi
hjendid
hjendit
hjendite
hjendus
hjenduseks
hjus
hjuse
hjused
hjuseid
hjuseks
hjusel
hjusena
hjusest
hjuseta
hjusi
hjuslik
hjuslikku
hjuslikkus
hjuslikkuse
hjusliku
hjust
hjusta
hjustab
hjustada
hjustades
hjustajaks
hjustanud
hjustas
hjustasid
hjustatud
hjustavad
hjuste
hjusteks
hjustel
hjustest
hk
hkeaine
hkekeha
hkel
hki
hkida
hkis
hkleid
hklid
hklipuu
hkto
hku
hkuda
hkuja
hkujad
hkus
hkuto
hl
hlau
hle
hlen
hler
hlk
hm
hma
hmad
hmade
hmadega
hmades
hmaga
hmaks
hmale
hmas
hmast
hmau
hme
hmelno
hmi
hmitus
hmituse
hmitused
hmituste
hms
hmus
hmuse
hn
hna
hnaga
hne
hni
ho
hobujo
hobune
hobuse
hobused
hobusega
hobuseid
hobusel
hobust
hobuste
hoc
hockey
hockeydb
hof
hoffmann
hohenzollern
hoia
hoiab
hoiak
hoiaku
hoiakud
hoiakuid
hoiakut
hoiakute
hoiatas
hoiavad
hoida
hoides
hoidis
hoidja
hoidma
hoidmine
hoidmise
hoidmiseks
hoidnud
hoidsid
hoiduda
hoitakse
hoiti
hoitud
hoiu
hoiuala
hoiul
hoiule
hoki
hokikoondise
hokima
hokkaido
hold
holding
hole
holger
holland
hollandi
hollandikeelne
hollandis
hollandisse
hollandist
hollandit
hollandlane
holly
hollywood
hollywoodi
holm
holmes
holmesi
holmi
holocaust
holokausti
holstein
holsteini
holstre
holy
home
homer
homerose
homieli
homme
hommik
hommiku
hommikuks
hommikul
hommikuse
hommikust
homo
homogeenne
homoseksuaalsuse
honda
hondurase
hong
hongkong
hongkongi
hongkongis
honore
honorius
hoo
hooaeg
hooaega
hooaegadel
hooaja
hooajad
hooajaks
hooajal
hooajaline
hooajast
hoobi
hood
hooga
hoogu
hoogustus
hooldaja
hooldajao
hoolde
hooldekodu
hooldus
hoolduse
hoole
hoolega
hooleks
hooli
hoolikalt
hoolimata
hoolinud
hoolitseb
hoolitseda
hoolitsema
hoolitses
hoolt
hoone
hooned
hoonega
hooneid
hoonel
hoonele
hoones
hoonesse
hoonest
hoonestus
hoonet
hoonete
hoonetekompleks
hoonetel
hoonetes
hoonetest
hoop
hoopis
hoopiski
hoovi
hoovus
hop
hopa
hope
hopkins
horisondi
horisont
horisontaalne
horisontaalse
horisontaalselt
hormoon
hormooni
hormoonid
hormoonide
horn
horni
horse
horst
horvaadi
horvaadid
horvaatia
horvaatias
horvaatide
hosszu
host
hot
hotel
hotell
hotelli
hotellid
hotellis
hotspur
house
housing
houston
hove
how
howard
hoxha
hoya
hp
hr
hradec
hrer
hri
hrodna
hrsg
hrung
hrus
hs
hsbc
ht
hta
htaeg
htaega
htaegu
htaja
htajaks
htamatu
htav
htava
htavad
htavaks
htavale
htavalt
htavasti
htc
hte
htede
htedega
htedel
htedest
htegi
htekokku
htekoodi
htekoodiga
htemoodi
hti
htis
htki
htkuju
htkujus
htlane
htlase
htlaselt
htlasi
htm
htme
html
htne
htpa
htru
htsa
htsad
htsaid
htsaim
htsaimad
htsaimaks
htsaks
htsal
htsam
htsamad
htsamaid
htsamaks
htsamat
htsamate
htsat
htsate
htse
htseks
htset
htsus
htsuse
htsusega
htsusele
htsuselt
htsusest
htsuspartei
htsust
http
https
htu
htub
htud
htuda
htudes
htuid
htuks
htul
htuleht
htuni
htunud
htus
htuse
htused
htusi
htuso
htust
htuste
htut
htutakse
htuti
htuv
htuva
htuvad
htuvalt
htvere
hu
huang
hub
hubble
huber
hubert
hud
hudson
hudsoni
huga
hugh
hughes
hugo
hugues
hujo
hukaitse
hukata
hukati
hukatud
huke
hukese
hukesed
hukeste
hukka
hukkamine
hukkamist
hukkamo
hukkasid
hukkub
hukkumist
hukkunud
hukkunuid
hukkunute
hukkus
hukkusid
hul
hulahtisus
hulga
hulgad
hulgaga
hulgal
hulgale
hulgaliselt
hulganisti
hulgas
hulgast
hulgateooria
hulk
hulka
hulkade
hull
hullem
hullu
hulluks
hulo
huma
humal
humala
human
humanitaar
humanitaarabi
humanitaargu
humanitaarteaduste
humboldti
hume
hummuli
humorist
humuuseum
huna
hundi
hundid
huniiskus
hunnide
hunt
hunter
hunti
hunyadi
huo
hupel
hurda
huro
hurt
huru
huruumi
hus
husa
husaks
husalt
husam
huso
hust
husus
hususe
husust
hutab
hutada
hutades
hutanud
hutas
hutasid
hutatakse
hutati
hutatud
hutavad
hutemperatuur
hutemperatuuri
huti
huto
hutud
hutusel
huuled
huulo
huulte
huumor
huva
huve
huvi
huvid
huvide
huvidega
huvidele
huvides
huvidest
huviru
huvisid
huvitab
huvitas
huvitatud
huvitav
huvitavad
huvitavaid
huvitavat
huvitus
hvardab
hvardades
hvardas
hvardasid
hvel
hvi
hvis
hyde
hyper
hyundai
hz
i
ia
iaaf
iad
iai
iakse
ial
ialgi
ian
ias
iata
iauliai
ib
ibe
ibeeria
ibel
ibele
ibm
ibn
ibrahim
ibsen
ic
icao
ice
ich
id
ida
idab
idagootide
idaho
idakaldal
idaks
idakse
idaku
idamaade
idame
idan
idanud
idaosa
idaosas
idapiiril
idapoolne
idapoolse
idarannikul
idarindel
idas
idast
idata
idatakse
idates
idati
idatud
idavad
ide
ideaal
ideaali
ideaalne
ideaalse
idee
ideed
ideede
ideedega
ideedest
ideega
ideele
ideest
idega
ideid
idelda
ideldes
ideldi
idelnud
idend
idendeid
idendi
idendid
idendis
idendit
idendite
identifitseerida
identiteedi
identiteet
identiteeti
identity
identne
identsed
ideoloogia
ideoloogilise
ides
idesaatev
idesaatva
idet
idetakse
idetav
idetava
idetavalt
idete
idetega
ideteks
idetest
ideti
idetud
idi
idis
idla
idu
iduauto
idud
iduga
iduk
iduka
idukas
idukeid
iduki
idukid
idukit
idukite
iduks
idul
idule
iduma
idupu
idus
iduso
idust
idustused
idutee
iduva
idze
ie
iec
ied
ieee
iega
iel
iela
ielik
ielikku
ieliku
ielikuks
ielikult
ielikus
ieline
ielised
ieliste
iend
iendada
iendanud
iendas
iendati
iendatud
iendav
iendava
iendavad
iendavaid
iendavalt
iendavat
iendavate
iene
ieo
ies
iest
ieste
iesti
iete
ieti
ietolmu
ieva
ievoliline
if
ig
iga
igakord
igaks
igaku
igal
igale
igalt
igana
iganes
igapa
igas
igasse
igast
igasugune
igasuguse
igasugused
igasuguseid
igasugust
igasuguste
igat
igata
igatahes
igatakse
igates
igati
igatsus
igatud
igau
igav
igavene
igavese
igaveseks
igavest
igavesti
ige
igeaegselt
iged
igega
igeid
igeks
igel
igele
igem
igemini
igepealt
iges
igest
igesti
iget
igete
igeusk
igeusklike
igeusklikud
igeusku
igeusu
igi
igihaljas
igil
igile
igilt
igis
igist
igiti
iglane
iglase
iglaselt
iglus
igluse
iglust
ignalina
ignatius
ignoreerida
igor
igu
igub
igud
iguga
igukast
igul
igule
igupoolest
igus
igusakti
igusaktid
igusaktide
iguse
igused
igusega
igusele
igusemo
iguses
igusest
igusi
igusja
iguskantsler
iguskantsleri
iguslane
iguslik
iguslike
iguslikest
iguslikke
iguslikku
iguslikkuse
igusliku
iguslikud
iguslikult
iguspa
igusseadus
igussu
igust
igustab
igustada
igustatud
iguste
igusteadlane
igusteadlased
igusteadus
igusteaduse
igusteaduskonna
igusteaduskonnas
igusteadust
igusteaduste
igustega
igustest
igustus
igustuse
igustust
iha
ihaste
ihre
ihtu
ihu
ii
iial
iialgi
iidne
iidse
iii
iili
iilis
iim
iimi
iimiga
iimis
iiri
iirimaa
iirimaal
iiris
iisaku
iisrael
iisraeli
iisraelis
iive
iiveldus
ija
ijad
ijaks
ijate
ik
ika
ikab
ikamine
ikas
ike
iked
ikeettevo
ikega
ikeho
ikeja
ikene
ikes
ikese
ikesed
ikeseenergia
ikeseid
ikeseks
ikesel
ikesele
ikeses
ikesest
ikesesu
ikeseto
ikesi
ikest
ikeste
ikesteks
ikestel
ikestele
ikestes
ikestest
ikheinalised
iki
ikide
ikidel
ikidele
ikides
ikidest
ikistani
ikistanis
ikiv
ikjal
ikka
ikkagi
ikke
ikko
ikla
ikne
ikoon
ikooni
ikoonid
ikov
ikovi
iks
ikse
iksed
ikseid
ikseim
ikseks
iksem
iksema
iksemad
iksemaid
iksemaks
iksemas
iksemat
iksemate
iksemateks
iksemates
iksid
iksime
iksin
iksugu
iksus
iksuse
ikt
iku
ikude
ikudega
ikus
ikuse
ikvo
il
ila
ile
ilib
ilimise
ilinud
ilis
iliselt
ilisid
ilitab
ilitada
ilitades
ilitamine
ilitamise
ilitamiseks
ilitamisel
ilitamist
ilitanud
ilitas
ilitasid
ilitatakse
ilitati
ilitavad
ilivad
ilja
iljits
ill
illegaalse
illinois
illinoisi
illu
illuka
illusioon
illustraator
illustrated
illustratsioon
illustratsioonid
illustreerib
illustreerinud
illustreeris
illustreeritud
ilm
ilma
ilmaga
ilmale
ilmalik
ilmalikku
ilmaliku
ilmalikud
ilmamaa
ilmar
ilmarekordid
ilmari
ilmas
ilmast
ilme
ilmed
ilmet
ilmja
ilmne
ilmneb
ilmneda
ilmnenud
ilmnes
ilmnesid
ilmnevad
ilmselgelt
ilmselt
ilmsiks
ilmub
ilmuda
ilmuma
ilmumine
ilmumise
ilmumist
ilmunud
ilmus
ilmusid
ilmutab
ilmutas
ilmutus
ilmutuse
ilmuv
ilmuvad
ilo
ilona
ilse
ilt
ilu
ilukirjandus
ilus
ilusa
ilusad
ilusaid
ilusaks
ilusam
ilusasti
ilusat
ilust
iluuisutaja
iluuisutamise
iluvo
ilves
ilvese
im
ima
image
images
imalda
imaldab
imaldada
imaldades
imaldaks
imaldama
imaldanud
imaldas
imaldasid
imaldavad
imalik
imalike
imalikest
imalikke
imalikku
imalikkus
imalikkuse
imalikkuses
imalikkusest
imalikkust
imaliku
imalikud
imalikuks
imalikult
imalikust
imalus
imaluse
imalused
imalusega
imaluseks
imalusel
imalusest
imalusi
imalust
imaluste
imalustega
imalustele
imalustest
imas
imata
imatu
imatuks
imavere
imbi
imdb
ime
imed
imees
imega
imeid
imeks
imekus
imekuse
imekust
imela
imele
imelik
imeline
imelise
imelised
imendi
imendus
imes
imest
imestas
imet
imetaja
imetajad
imetajaid
imetajate
imetajatel
imete
imetu
imetuks
imetus
img
imine
imise
imist
imitud
imkond
imkonda
imla
imleja
imlemine
imlemise
immanuel
immatrikuleeriti
immigrantide
immigratsiooni
immuunsu
impact
impeerium
impeeriumi
impeeriumis
imperial
import
impulsi
impulss
imre
imsa
imsad
imsaim
imsam
imsamad
imsate
imsus
imsuse
imsusega
imsust
imu
imud
imude
imudega
imudele
imuga
imuks
imul
imule
imult
imunud
imus
imuses
imust
imuvo
in
ina
inad
inamere
inas
inc
ind
indeks
indeksi
independence
independent
index
india
indiaani
indiaanlased
indiaanlaste
indian
indiana
indianapolis
indias
indiasse
indiast
indie
individuaalne
individuaalse
individuaalsed
individuaalselt
individuaalset
individuaalsete
individuaalvo
indiviid
indiviidi
indiviidid
indiviidide
indiviiditi
indoeuroopa
indoneesia
indoneesias
indrek
indreku
indrekule
indrik
induktsioon
induktsiooni
induse
industrial
industry
indutseeritud
ine
inen
ines
inetu
infarkti
infektsiooni
inflatsioon
inflatsiooni
influence
info
infokeskus
infoleht
inforegister
informaatika
information
informatsioon
informatsiooni
infosu
infot
infotehnoloogia
infou
infovastupanu
infrapuna
infrastruktuur
infrastruktuuri
infty
ing
inga
inge
ingeborg
ingel
ingeri
ingerimaa
ingerimaal
ingis
ingl
inglane
inglased
inglaste
ingli
inglid
inglise
ingliskeelne
ingliskeelse
ingliskeelsed
ingliskeelses
ingliskeelsest
ingliskeelset
inglismaa
inglismaal
inglismaale
inglismaalt
inglite
ingmar
ingo
ingrid
ingus
ingvar
inhaber
inhibiitorid
ini
inimarengu
inimelu
inimene
inimese
inimesed
inimesega
inimeseks
inimesel
inimesele
inimeselt
inimesena
inimeseni
inimeses
inimesest
inimesi
inimest
inimeste
inimestega
inimestel
inimestele
inimestelt
inimestest
inimkeha
inimkond
inimkonna
inimlik
inimliku
inimloomuse
inimmo
inimo
inimtegevus
inimtegevuse
inimva
initsiatiivi
initsiatiivil
inja
inkorporeerimata
inn
inna
inni
innocent
innocentius
innovation
innovatsioon
innovatsiooni
innsbruck
innsbrucki
innsbruckis
innukalt
ino
ins
insener
inseneri
insenerid
inseneride
insenerina
inside
inski
inspekcija
inspektor
inspiratsiooni
inspireeris
inspireeritud
inspireerituna
installatsioon
institut
institutas
institute
institutsioon
institutsioone
institutsiooni
institutsioonid
institutsioonide
instituudi
instituudis
instituut
instituuti
instruktor
instrumendi
instrumendid
instrument
instrumentide
instruments
insuliini
insurance
int
integraallu
integratsiooni
integreerida
integreeritud
intel
inteli
intellekt
intellekti
intellektuaalne
intellektuaalse
intelligence
intelligentsus
intelligentsuse
intensiivne
intensiivse
intensiivselt
intensiivsus
intensiivsuse
intensiivsusega
intensiivsust
intentsiooni
inter
interaktiivne
interaktsiooni
interface
interferentsi
interior
interjo
internacional
internal
international
internationale
internationali
internatsionaali
internazionale
internet
interneti
internetis
internetist
internetiu
internetti
interpretation
interstate
intervall
interview
intervjuu
intervjuud
intervjuus
intervjuusid
into
intressi
intressima
introduction
introdutseeriti
introdutseeritud
ints
intuitsiooni
inud
inuks
invasioon
invasiooni
invest
investeeringud
investeeringuid
investeeringute
investigation
investor
io
ioannes
ion
ioon
ioone
iooni
ioonid
ioonide
ios
iowa
ip
ipa
ipad
ipadi
iphone
ipod
ips
ipv
iq
ir
ira
iraagi
iraagis
iraak
iraan
iraani
iraanis
iran
irboska
ird
ire
ired
irega
ireid
ireland
irena
irene
iret
irete
iretega
iri
irida
irina
iris
irish
iritud
irja
irkutski
irl
irma
iron
iru
irv
irving
is
isa
isaac
isaak
isaansambel
isabel
isabella
isabelle
isad
isade
isaga
isaha
isahoone
isaid
isakalmistud
isakompleks
isakompleksi
isaks
isaku
isal
isale
isalt
isamaa
isamaad
isamaaso
isana
isand
isanda
isandad
isandate
isane
isaomanik
isapoolne
isaportaalis
isas
isased
isaslind
isaso
isast
isaste
isastel
isasu
isat
isate
isavaldused
isavalitseja
isavallas
isbn
iscsi
ise
isea
isealiseks
ised
iseenda
iseendaga
iseendale
iseendast
iseenese
iseeneses
iseenesest
iseennast
isegi
isekeskis
iseloom
iseloomu
iseloomuga
iseloomulik
iseloomulike
iseloomulikke
iseloomulikku
iseloomuliku
iseloomulikud
iseloomulikuks
iseloomult
iseloomust
iseloomustab
iseloomustada
iseloomustamiseks
iseloomustas
iseloomustatakse
iseloomustav
iseloomustavad
iseloomustus
isend
isendeid
isendi
isendid
isendit
isendite
iseo
iseseisev
iseseisva
iseseisvad
iseseisvaks
iseseisvalt
iseseisvat
iseseisvate
iseseisvumise
iseseisvumist
iseseisvus
iseseisvuse
iseseisvuspa
iseseisvuspartei
iseseisvusso
iseseisvust
isha
isi
isid
isik
isikkoosseis
isikkoosseisu
isiklik
isiklike
isiklikke
isiklikku
isikliku
isiklikud
isiklikuks
isiklikult
isiklikust
isiksus
isiksuse
isiksusha
isiku
isikuandmete
isikud
isikuga
isikuid
isikuks
isikul
isikule
isikuna
isikupa
isikus
isikust
isikut
isikute
isikutega
isikutel
isikutele
isikutest
isin
isis
isiwad
iskasvanu
iskasvanud
iskasvanuks
iskasvanute
iskasvanutel
iskasvanutele
iskogu
isla
islam
islami
islamiliikumise
islamiriik
island
islandi
islandil
islands
ism
isma
ismail
ismi
isnik
isnike
isniku
isnikud
isnimega
iso
isolatsioon
isolatsiooni
isoleeritud
ispikk
israel
iss
issa
issand
issanda
isse
issn
isso
issue
issues
ist
ista
istab
istagi
istaimede
istan
istate
istatus
istavad
iste
isted
istega
isteid
istelda
isteldi
istele
istelnud
istes
istest
istet
istetakse
istetav
istete
isteti
istetud
istis
istkond
istkonda
istkondade
istkondlik
istkonna
istkonnad
istkonnaga
istkonnas
istkonnavo
istleb
istleja
istlejad
istlejat
istlema
istles
istlesid
istlevad
istlik
istliku
istlikult
istlus
istluse
istlused
istlusel
istlusele
istluses
istlusest
istlusi
istlust
istluste
istlusteks
istlustel
istlustele
istlustelt
istlustest
istlusto
istma
istmine
istmise
istmiseks
istmisel
istmist
istnud
istria
istsid
istu
istub
istuda
istudes
istuma
istung
istungi
istungil
istungja
istunud
istus
istuse
istusega
istusele
istusest
istusid
istuslik
istuspa
istust
istutati
istutatud
istuvad
istva
isu
it
ita
itaalia
itaaliaga
itaaliale
itaalias
itaaliasse
itaaliast
itaaliat
itaallane
itaallased
itab
itaja
itajad
itajaid
itajate
italia
italian
italiana
italy
itama
itamiseks
itas
itasid
itavad
ite
ited
itega
iteid
itejuht
itekiri
itekirja
itekirjaga
itekirjanik
itekirjanikud
iteks
itekunsti
itel
itele
iteline
itelise
itema
itemid
itena
ites
itest
itev
itevkomitee
itevvo
itis
itja
itjad
itjaid
itjaks
itjale
itjana
itjat
itjate
itleb
itleja
itlejad
itlejaid
itlejaks
itlejana
itlejanna
itlejat
itlejatar
itlejate
itlema
itlemine
itlemise
itlemiseks
itlemist
itles
itlesid
itlevad
itlus
itluse
itlused
itlusega
itluseks
itlusele
itluses
itlusest
itlusse
itlust
itlusvo
itma
itmata
itmine
itmise
itmisega
itmiseks
itmisel
itmisele
itmisest
itmist
itnud
its
itsa
itseaeg
itseb
itsemise
itseng
itsengu
itses
itsev
itsevad
itsid
itsiwad
itta
itu
itub
ituda
itude
ituma
itumine
itumise
itumisega
itumisele
itumises
itumisest
itumisha
itumist
itunud
itus
ituse
itused
itusega
ituseks
itusel
itusele
itusi
itust
ituste
itustel
ituvad
iu
iucn
iuris
ius
iuse
iuslik
iuslikkus
iuslikkuse
iusliku
iuslikult
iustatud
iv
iva
ivad
ivaid
ivan
ivanhoe
ivano
ivanov
ivanova
ivanovits
ivanovna
ivanovo
ivanud
ivar
ivari
ivas
ivasid
ivask
ivaste
ivat
ivata
ivate
ivati
ivatud
ive
ivi
ivitada
ivitas
ivitati
ivitus
ivo
ivu
iwad
ix
iz
iza
j
ja
jaa
jaago
jaagu
jaagup
jaagupi
jaak
jaakko
jaakobi
jaakson
jaam
jaama
jaamad
jaamahoone
jaamas
jaamast
jaan
jaana
jaani
jaanika
jaanilinna
jaanio
jaanipa
jaanis
jaanson
jaanuar
jaanuari
jaanuariks
jaanuaril
jaanuarini
jaanuaris
jaanuarist
jaanus
jaapan
jaapani
jaapanile
jaapanis
jaapanisse
jaapanist
jaapanlased
jaapanlaste
jaava
jack
jackie
jackson
jacksoni
jacob
jacobi
jacobs
jacques
jad
jada
jaemu
jaga
jagab
jagada
jagades
jagama
jagamine
jagamise
jagamisega
jagamisel
jagamist
jaganud
jagas
jagasid
jagatakse
jagatav
jagati
jagatud
jagavad
jagu
jaguar
jaguneb
jagunemine
jagunemise
jagunemist
jagunenud
jagunes
jagunesid
jagunevad
jah
jahe
jahho
jahi
jahil
jahrbuch
jahre
jahrhundert
jahrhunderts
jaht
jahti
jahtklubi
jahu
jaime
jaja
jajo
jak
jaka
jake
jakob
jakobi
jakobson
jakobsoni
jakooli
jakoolis
jakov
jakovlev
jaks
jakub
jakuudi
jakuutia
jala
jalad
jalaev
jalaeva
jalaevad
jalaevade
jalaevastiku
jalaga
jalaja
jalaka
jalakas
jalal
jalamil
jalano
jalas
jalaste
jalava
jale
jalg
jalga
jalgade
jalgadega
jalge
jalgpall
jalgpalli
jalgpalliklubi
jalgpalliklubid
jalgpalliklubide
jalgpallikoondis
jalgpallikoondise
jalgpallikoondised
jalgpallikoondisega
jalgpallikoondisele
jalgpallikoondises
jalgpallikoondislased
jalgpallikoondislaste
jalgpalliliidu
jalgpalliliit
jalgpallis
jalgpallistaadionid
jalgpallitreener
jalgpallitreenerid
jalgpalliturniiril
jalgpalliva
jalgpallur
jalgpallurid
jalgpalluriks
jalgratta
jalgrattaso
jalgrattur
jalgsi
jalgu
jaline
jalis
jalise
jalised
jaliselt
jalises
jalisi
jalist
jaliste
jalule
jalutuska
jam
jama
jamaica
jamburgi
jameeste
jamehed
james
jamesi
jamie
jaministeeriumi
jaminister
jaministri
jamo
jan
jana
janar
jandus
jane
janeiro
janeiros
janek
janet
jani
janika
janis
janne
janno
jannsen
jannseni
jano
jansen
janson
janu
january
janukovo
janus
janusz
jao
jaoks
jaolt
jaos
jaoskond
jaoskonna
jaotab
jaotada
jaotamine
jaotamise
jaotatakse
jaotati
jaotatud
jaotub
jaotunud
jaotus
jaotuse
jaotust
jaotuvad
japan
japanese
japo
jardi
jaretke
jari
jarl
jarmila
jarmo
jaroslav
jaroslavits
jaroslavli
jas
jaska
jason
jasper
jast
jate
jategevus
jategevuse
jategevuses
jategevust
jato
jaunpiebalga
java
javangi
javangide
javier
jawa
jay
jazz
jciems
je
jean
jeanette
jeanne
jeemeni
jeesus
jeesuse
jeesust
jeff
jefferson
jeffersoni
jeffrey
jegor
jegorov
jehoova
jekaterina
jelena
jelgava
jelizaveta
jeltsin
jeltsini
jena
jenissei
jennifer
jenny
jens
jensen
jeremy
jerevani
jerome
jerry
jersey
jersika
jeruusalemm
jeruusalemma
jeruusalemmas
jerzy
jesper
jesse
jessica
jesu
jesuiidid
jesuiitide
jesus
jet
jevgeni
jewish
jh
jha
ji
jiang
jidis
jim
jimi
jimmy
jin
jing
jini
jir
jj
jk
jm
jms
jmt
jna
jne
jo
joa
joachim
joakim
joala
joan
joann
joanna
joaqui
joe
joel
joensuu
joey
johan
johani
johann
johanna
johannes
johannese
johanni
johansen
johanson
johansson
john
johni
johnny
johns
johnson
johnsoni
jon
jonas
jonathan
jones
jonesi
jonis
joob
joobnud
joodi
jooga
joogi
joogid
jook
jooke
jooki
jookide
jooks
jookseb
jooksevad
jooksid
jooksis
jooksja
jooksjad
jooksma
jooksnud
jooksu
jooksul
jooksus
jooma
joon
joonas
joone
jooned
joonega
joonel
joonele
jooni
joonia
joonis
joonised
joonisel
joonisfilm
joonistada
joonistamise
joonistas
joonistatud
joonistus
joonistused
joonistusi
joonistuso
joont
joonte
joosep
joosepi
joost
joosta
joostes
joosu
jordaania
jordan
jordani
jorge
jorma
jos
jose
josef
joseph
josephi
josephine
josh
joshua
josip
jossif
jostson
journal
journey
joy
joyce
joyner
jp
jpeg
jpg
jpm
jpt
jr
js
jt
ju
juan
juani
jub
juba
jud
juda
judaism
judaismi
jude
judenits
judest
judith
juga
jugla
jugoslaavia
jugoslaavias
juh
juha
juhan
juhani
juhanson
juhatab
juhataja
juhatajad
juhatajaks
juhatajana
juhatanud
juhatas
juhatus
juhatuse
juhatusel
juhatuses
juhatusse
juhend
juhendaja
juhendajad
juhendamisel
juhendanud
juhendas
juhi
juhib
juhid
juhiks
juhile
juhina
juhised
juhiseid
juhitakse
juhitav
juhitava
juhitaval
juhiti
juhitud
juhivad
juhkentali
juho
juht
juhte
juhti
juhtida
juhtide
juhtidega
juhtidele
juhtides
juhtima
juhtimine
juhtimis
juhtimise
juhtimisega
juhtimiseks
juhtimisel
juhtimises
juhtimissu
juhtimist
juhtinud
juhtis
juhtisid
juhtiv
juhtiva
juhtivad
juhtivaid
juhtivaks
juhtivat
juhtivate
juhtkond
juhtkonda
juhtkonna
juhtno
juhtu
juhtub
juhtuda
juhtudel
juhtudest
juhtum
juhtumeid
juhtumi
juhtumid
juhtumil
juhtumisi
juhtumit
juhtumite
juhtunud
juhtus
juhuks
juhul
juhus
juhuse
juhuslik
juhuslike
juhusliku
juhuslikud
juhuslikult
juka
jukad
jukamaid
jukas
jukka
juku
jul
jule
jules
julge
julgelt
julgenud
julgeolek
julgeoleku
julgeolekujo
julgeolekuno
julgeolekupolitsei
julgeolekuteenistuse
julgus
julguse
julgust
julgustab
julgustas
julia
julian
juliana
juliane
julie
julien
juliette
julija
julio
julius
juliuse
julm
julma
july
juma
jumal
jumala
jumalad
jumalaema
jumalaga
jumalaid
jumalaks
jumalal
jumalale
jumalalt
jumalanna
jumalas
jumalasse
jumalast
jumalat
jumalate
jumalateenistuse
jumalateenistused
jumalateenistusi
jumalatele
jumalik
jumalikku
jumaliku
jumalus
jumaluse
jumava
jums
jun
june
jung
junior
juno
junud
juozas
jupiter
jupiteri
jure
juri
juridica
juriidiline
juriidilise
juriidilised
juriidiliselt
juriidiliste
juris
jurisdiktsiooni
jurist
juristi
juristid
juristide
juristina
jus
jusfa
jusid
juske
juss
jussi
just
justice
justiitsministeerium
justiitsministeeriumi
justiitsminister
justin
justinianus
justinianuse
justkui
justus
juta
jutab
jutada
jutama
jutanud
jutas
jutasid
jutatud
jutavad
jutlust
jutlustaja
jutt
jutte
juttu
jutu
jutud
jutule
jutuma
jutused
jutusi
jutustab
jutustada
jutustaja
jutustas
jutustus
jutustuse
jutustused
jutustusi
juua
juubeli
juubelit
juuda
juudas
juudi
juudid
juudit
juuksed
juukseid
juula
juuli
juuliks
juulil
juulini
juulis
juulist
juuni
juuniks
juunil
juunini
juunior
juunioride
juunipo
juunis
juunist
juur
juura
juurde
juurdeehitis
juurdekasvu
juurdepa
juurdunud
juure
juured
juures
juuresolekul
juurest
juuri
juurte
juurtega
juuru
juust
juuste
juustu
juut
juute
juuti
juutide
juv
juva
juvad
juventus
juventuse
juvo
jyva
k
ka
kaabel
kaabli
kaader
kaadri
kaadrit
kaadrite
kaagja
kaal
kaalep
kaali
kaaliumi
kaalu
kaalub
kaaluda
kaaluga
kaalus
kaaluti
kaalutlused
kaalutlustel
kaalutud
kaaluvad
kaamera
kaamerad
kaamerat
kaane
kaar
kaardi
kaardid
kaardiga
kaardil
kaardile
kaardilt
kaardima
kaardirakendused
kaardistamine
kaardiva
kaare
kaarel
kaarepere
kaari
kaarli
kaarma
kaart
kaarte
kaarti
kaartide
kaartidel
kaas
kaasa
kaasaarvatud
kaasabil
kaasaegne
kaasaegse
kaasaegsed
kaasaegses
kaasaegset
kaasaegsete
kaasaja
kaasajal
kaasamine
kaasani
kaasas
kaasasu
kaasasutaja
kaasata
kaasati
kaasatud
kaasautor
kaasautorid
kaasha
kaasik
kaasiku
kaaslane
kaaslase
kaaslased
kaaslast
kaaslaste
kaaslastega
kaasneb
kaasneda
kaasnenud
kaasnes
kaasnesid
kaasnev
kaasnevad
kaasso
kaasto
kaastunnet
kaasvalitseja
kaasvo
kabala
kabe
kabel
kabeli
kabelid
kabelis
kabelit
kabes
kabetaja
kabetajad
kabinet
kabineti
kabuli
kadak
kadaka
kadakas
kadarik
kade
kadega
kadettide
kadi
kado
kadri
kadrina
kadrioru
kadriorus
kadu
kaduda
kaduma
kadumine
kadumise
kadumist
kadunud
kadunuks
kadus
kadusid
kaebas
kaebuse
kaebusi
kaebuste
kael
kaela
kaelas
kaer
kaera
kaetakse
kaeti
kaetud
kaev
kaevandamine
kaevandamise
kaevandatakse
kaevandus
kaevanduse
kaevata
kaevati
kaevatud
kaevu
kafka
kagu
kaguosa
kaguosas
kagus
kagusse
kah
kahala
kahaneb
kahanenud
kahanes
kahasse
kahe
kaheaastane
kaheaastase
kahekesi
kaheko
kahekordne
kahekordse
kahekorruseline
kaheks
kaheksa
kaheksaks
kaheksaku
kaheksal
kaheksanda
kaheksandikfinaalis
kaheksapaadil
kaheksas
kaheksast
kaheksat
kaheku
kahel
kahelda
kahele
kahemo
kahepa
kahepaadil
kahepaiksed
kahepoolne
kahepoolsed
kahes
kahest
kaheteistku
kahetses
kahetsus
kahetsust
kahevo
kahju
kahjuks
kahjulik
kahjulikud
kahjustab
kahjustada
kahjustas
kahjustatud
kahjustavad
kahjustus
kahjustused
kahjustusi
kahjustuste
kahjutuks
kahn
kaht
kahte
kahtlane
kahtlema
kahtlemata
kahtlus
kahtluse
kahtlused
kahtlusi
kahtlust
kahtlustatakse
kahtlustati
kahur
kahuri
kahurid
kahuriga
kahurit
kahvatu
kai
kaia
kaido
kaie
kaija
kaika
kaine
kaire
kairi
kairo
kairos
kais
kaisa
kaiser
kaisma
kaitse
kaitseala
kaitsealad
kaitsealal
kaitsealune
kaitseb
kaitsejo
kaitsekategooria
kaitsekategooriasse
kaitseks
kaitsel
kaitsele
kaitseliidu
kaitseliini
kaitseliit
kaitsema
kaitseministeerium
kaitseministeeriumi
kaitseminister
kaitseministri
kaitseministrid
kaitseministriks
kaitsemu
kaitsepataljon
kaitsepolitsei
kaitsepu
kaitseregistri
kaitseregistrisse
kaitseru
kaitses
kaitseseisukorra
kaitsesid
kaitsesu
kaitset
kaitsev
kaitseva
kaitsevad
kaitsevo
kaitsja
kaitsjad
kaitsjana
kaitsjate
kaitsma
kaitsmine
kaitsmise
kaitsmiseks
kaitsmisel
kaitsmist
kaitsnud
kaitsta
kaitstakse
kaitstavad
kaitstes
kaitstud
kaitsva
kaiu
kaja
kajakas
kajar
kajastab
kajastas
kajastatud
kajastavad
kajastub
kaks
kaksikud
kaksikute
kaksikvo
kaksku
kaksteist
kakuma
kala
kalad
kalade
kaladest
kalamaja
kalamees
kalandus
kalapu
kalato
kalda
kaldad
kaldajoone
kaldal
kaldale
kaldalt
kaldu
kaldub
kaldus
kalduvad
kalduvus
kalender
kalendri
kalendris
kalev
kaleva
kalevala
kalevi
kalevipoeg
kalevipoja
kalevite
kalifaadi
kalifaat
kaliiber
kaliibriga
kaliif
kaliningradi
kalinini
kaljo
kalju
kaljulaid
kaljuma
kaljundi
kaljurand
kaljuste
kalkun
kalla
kallal
kallale
kallaletungi
kallas
kallase
kallast
kallaste
kallastel
kalle
kalli
kallid
kalliks
kallim
kallimad
kallio
kallis
kallist
kalm
kalmari
kalme
kalmer
kalmet
kalmistu
kalmistud
kalmistul
kalmistule
kalmistut
kalmistute
kalmo
kalmu
kalmus
kaltsium
kaltsiumi
kalu
kaluga
kalur
kaluri
kalurid
kalurikolhoos
kalurite
kalvi
kama
kamber
kambja
kambodz
kambri
kambris
kambrisse
kameruni
kammerha
kammerkoor
kammkeraamika
kampaania
kampaanias
kampaaniat
kamts
kan
kana
kanaari
kanad
kanada
kanadas
kanadasse
kanal
kanaleid
kanali
kanalid
kanaliga
kanalil
kanalis
kanalit
kanalite
kanda
kandava
kanderaketi
kanderakett
kandes
kandev
kandevo
kandidaadi
kandidaadid
kandidaadiks
kandidaadina
kandidaadiva
kandidaat
kandidaate
kandidaati
kandidaatide
kandidatuuri
kandideerib
kandideerida
kandideerinud
kandideeris
kandideerisid
kandis
kandja
kandjad
kandjaid
kandle
kandma
kandmine
kandmise
kandmiseks
kandnud
kandseened
kandseente
kandsid
kandub
kandus
kandva
kandvad
kane
kanep
kanepi
kang
kanga
kangas
kangast
kange
kangelane
kangelase
kangelased
kangelaste
kangesti
kangilaski
kangro
kangur
kann
kanna
kannab
kannata
kannatab
kannatada
kannatama
kannatanu
kannatanud
kannatas
kannatasid
kannatavad
kannatus
kannatuse
kannatusi
kannatust
kannatuste
kannavad
kannel
kannul
kansas
kansase
kant
kantaat
kantakse
kanter
kanti
kanton
kantoni
kantonid
kantonis
kantonite
kantrilaulja
kants
kantsel
kantselei
kantsi
kantsler
kantsleri
kantud
kanud
kanuti
kao
kaob
kaos
kaotab
kaotada
kaotades
kaotama
kaotamine
kaotamise
kaotamist
kaotanud
kaotas
kaotasid
kaotati
kaotatud
kaotavad
kaotsi
kaotus
kaotuse
kaotused
kaotusega
kaotusi
kaotust
kaotuste
kaovad
kapadookia
kapi
kapimaa
kapital
kapitali
kapitalismi
kapiteel
kapituleerus
kaplan
kaplinski
kapp
kapten
kapteni
kapteniks
kar
kara
karabahhi
karats
karboksu
karbonu
karda
kardab
kardan
kardeti
kardinal
kardinali
kardinalid
kardinalide
kardinaliks
kardinalpreester
kardiso
kare
kareda
karel
karelson
karen
karepa
kareva
kargas
kari
kariibi
karika
karikas
karikasarja
karikasarjas
karikat
karikaturist
karikaturistid
karikatuure
karikatuurid
karikatuurina
karikatuurivo
karikavo
karin
karis
karistada
karistas
karistatakse
karistatav
karistati
kariste
karistus
karistuse
karistused
karistuseks
karistuso
karistusseadustik
karistusseadustiku
karistust
karja
karjala
karjalas
karjalaste
karjamaa
karjamo
karjas
karjus
kark
karksi
karl
karla
karli
karlova
karlovy
karlson
karlsruhe
karlsson
karm
karma
karmi
karmid
karmilt
karmo
karol
karoline
karolingide
karp
karpaatide
karro
kars
karstiala
karta
kartaago
kartes
kartis
kartma
kartnud
kartograaf
kartsid
kartuli
kartus
kartuses
karu
karud
karuks
karula
karuse
karusoo
karv
karva
karvad
karvadega
karvane
karvased
karvastik
karvkate
kas
kasahhi
kasahstan
kasahstani
kasahstanis
kasakad
kasakate
kasari
kasarm
kase
kasemaa
kasepa
kasiino
kasik
kasimir
kask
kaspar
kaspia
kass
kassari
kasse
kasseli
kassi
kassid
kasside
kassidel
kast
kasta
kastani
kaste
kasti
kastiilia
kastre
kasu
kasuisa
kasuks
kasulik
kasulikku
kasuliku
kasulikud
kasulikuks
kasum
kasumi
kasumit
kasuta
kasutab
kasutada
kasutades
kasutaja
kasutajad
kasutajaid
kasutajal
kasutajale
kasutajaliides
kasutajaliidese
kasutajat
kasutajate
kasutajatel
kasutajatele
kasutama
kasutamata
kasutamine
kasutamise
kasutamisega
kasutamiseks
kasutamisel
kasutamisele
kasutamises
kasutamisest
kasutamist
kasutanud
kasutas
kasutasid
kasutata
kasutatakse
kasutatav
kasutatava
kasutatavad
kasutatavaid
kasutatavast
kasutatavat
kasutatavate
kasutati
kasutatud
kasutav
kasutavad
kasutavate
kasutegur
kasutu
kasutus
kasutusalad
kasutuse
kasutusel
kasutusele
kasutuselevo
kasutuses
kasutusest
kasutusko
kasutusse
kasutust
kasutusvo
kasv
kasva
kasvab
kasvada
kasvades
kasvaja
kasvajad
kasvajate
kasvama
kasvamas
kasvamise
kasvanud
kasvas
kasvasid
kasvatab
kasvatada
kasvatama
kasvatamine
kasvatamise
kasvatamiseks
kasvatamisel
kasvatanud
kasvatas
kasvatasid
kasvatatakse
kasvatati
kasvatatud
kasvatus
kasvatuse
kasvav
kasvava
kasvavad
kasvavat
kasvavate
kasvo
kasvu
kasvuga
kasvuhoonegaaside
kasvukohad
kasvukohatu
kasvukoht
kasvuks
kasvule
kat
kata
katab
katakse
katalaani
kataloog
kataloogi
kataloogis
kataloonia
kataloonias
katalu
katari
katariina
katarina
katastroof
katastroofi
katavad
kate
katedraal
katedraali
katedraalis
kateeder
kateedri
kateedris
kategooria
kategooriad
kategooriaid
kategoorias
kategooriasse
kategooriat
kategooriate
kategooriates
katerina
katharina
katherine
kathleen
kati
katie
katinka
katja
katk
katkeb
katkend
katkenud
katkes
katkesid
katkestada
katkestama
katkestas
katkestasid
katkestati
katki
katku
katla
katlamaja
katmiseks
kato
katoliiklane
katoliiklased
katoliiklaste
katoliiklik
katoliiklike
katoliikliku
katoliikluse
katoliku
katowice
katre
katri
katrin
katse
katsed
katseid
katsel
katses
katset
katsetada
katsetas
katsetati
katsete
katsetes
katsetused
katsid
katsu
katsub
katsuda
katsus
katta
katte
kattega
katteks
kattev
kattis
kattub
kattuvad
katud
katus
katuse
katused
katusega
katusel
katusele
kaua
kauaaegne
kauaaegse
kauaks
kauba
kaubad
kaubama
kaubamaja
kaubandus
kaubanduse
kaubanduses
kaubanduskeskus
kaubanduskeskuse
kaubandust
kaubatee
kaubelda
kaubeldi
kaudne
kaudse
kaudselt
kaudu
kauem
kaug
kauge
kaugel
kaugele
kaugelt
kaugeltki
kaugemal
kaugemale
kaugete
kaugo
kaugus
kauguse
kaugusel
kaugusele
kauguselt
kaugushu
kaugust
kaukaasia
kaukaasias
kauksi
kaunas
kaunase
kaunases
kauni
kaunid
kaunis
kaunist
kaunistatud
kaunistavad
kaunistused
kaunite
kauno
kaup
kaupa
kaupade
kauplemine
kauplemise
kauplus
kaupluse
kauplused
kaupmees
kaupmeeste
kaupmehe
kaupmehed
kaupo
kaupu
kaur
kava
kaval
kavaler
kavalerid
kavand
kavandas
kavandati
kavandatud
kavandi
kavas
kavast
kavastu
kavatse
kavatseb
kavatses
kavatseti
kavatsus
kavatsuse
kavatsused
kavatsusest
kavatsust
kaver
kavilda
kay
kazimierz
kb
kbit
kd
kda
ke
keava
keda
kedagi
keeda
keedetakse
keedetud
keegi
keel
keelab
keelanud
keelas
keelata
keelati
keelatud
keeld
keelde
keeldu
keeldub
keelduda
keeldumise
keeldunud
keeldus
keeldusid
keele
keeled
keelega
keeleks
keelel
keelele
keeleline
keelelise
keeleliselt
keelena
keeleo
keeles
keelest
keeleteadlane
keeleteadlased
keeleteadus
keeleteaduse
keeleteaduskonna
keeletoimetaja
keeleversioon
keeleversioonid
keeli
keelkonda
keelkonna
keelt
keelte
keeltega
keeltes
keeltesse
keeltest
keelu
keelustas
keelustati
keema
keemia
keemiaauhinna
keemias
keemiat
keemiateaduskonna
keemiato
keemik
keemikud
keemiline
keemilise
keemilised
keemiliselt
keemilisi
keemilist
keemiliste
keemistemperatuur
keene
keenia
keenias
keep
keerab
keerata
keeruka
keerukaid
keerukas
keerukate
keerukus
keerukuse
keeruline
keerulise
keerulised
keeruliseks
keerulisem
keerulisemaks
keerulisi
keeruliste
keeta
keevallik
keha
kehad
kehade
kehaga
kehakaalu
kehakaalus
kehakultuuri
kehakultuuriteaduskonna
kehal
kehale
kehaline
kehalise
kehaliste
kehas
kehasse
kehast
kehastab
kehastas
kehra
kehtestab
kehtestada
kehtestamine
kehtestamise
kehtestamist
kehtestanud
kehtestas
kehtestasid
kehtestati
kehtestatud
kehtetuks
kehti
kehtib
kehtima
kehtinud
kehtis
kehtiv
kehtiva
kehtivad
kehtivus
kehtivuse
kehtivust
kehtna
kehv
kehva
keik
keila
keilas
keiser
keiserlik
keiserliku
keisri
keisrid
keisriga
keisriks
keisril
keisrile
keisrilt
keisrinna
keisririigi
keisririigiga
keisririigile
keisririigis
keisririik
keisririiki
keisrit
keisrite
keit
keith
kek
kekkonen
kekkose
kel
kela
kelder
keldi
keldri
keldrima
keldris
kell
kella
kellad
kellama
kellatorn
kelle
kellega
kellegi
kelleks
kellel
kellele
kellelegi
kellelgi
kellelt
kellena
keller
kelles
kellest
kelly
kelme
kemikaalid
kemikaalide
ken
kena
kender
kene
kennedy
kenneth
kenny
kent
kenti
kentucky
kepler
kepleri
kepp
kera
keraamik
keraamika
keraamikat
kere
kerega
kerem
keres
kerese
kerge
kerged
kergejo
kergekaalus
kergekeskkaalus
kergelt
kergem
kergemad
kergemini
kergesti
kerget
kergete
kergeto
keri
kerkib
kerkinud
kerkis
kerkisid
kerli
kernu
kerry
kersee
kersna
kersti
kert
kerttu
kertu
kes
kesa
kese
keset
kesk
keskaeg
keskaegne
keskaegse
keskaegsed
keskaegses
keskaegsete
keskaja
keskajal
keskajast
keskasula
keskasulaks
keskel
keskele
keskelt
keskendub
keskenduda
keskendudes
keskenduma
keskendumine
keskendunud
keskendus
keskendusid
keskendutakse
keskenduti
keskenduvad
keskerakond
keskerakonda
keskerakonna
keskhaigla
keskhariduse
keskjooksul
keskkaalus
keskkaitsjana
keskklassi
keskkomitee
keskkond
keskkonda
keskkondades
keskkonna
keskkonnaga
keskkonnakaitse
keskkonnale
keskkonnaministeerium
keskkonnaministeeriumi
keskkonnaminister
keskkonnamo
keskkonnaregistri
keskkonnas
keskkonnaso
keskkonnast
keskkool
keskkooli
keskkooliks
keskkoolis
keskkriminaalpolitsei
keskku
keskliidu
keskliit
kesklinn
kesklinna
kesklinnas
kesklinnast
kesklo
keskma
keskmaa
keskmeks
keskmes
keskmine
keskmise
keskmised
keskmiseks
keskmisel
keskmiselt
keskmisest
keskmist
keskmiste
keskna
keskne
keskno
kesko
keskosa
keskosas
keskpa
keskpaigaks
keskpaigani
keskpaigas
keskpaigast
keskpaik
keskpaiku
keskpanga
keskpank
keskpunkt
keskpunkti
keskraamatukogu
keskru
keskse
keskseks
kesksel
keskset
keskso
keskta
kesku
keskus
keskuse
keskused
keskusega
keskuseks
keskuses
keskusest
keskusi
keskust
keskva
keskvalitsuse
keskvo
kest
kesta
kestab
kestamise
kestamiseks
kestavad
kestel
kestev
kestis
kestma
kestnud
kestsid
kestus
kestuse
kestust
ketas
keti
kets
kett
ketta
kettaheide
kettaheites
kettaheitja
kettler
kettleri
kevad
kevade
kevadel
kevadeni
kevadest
kevadine
kevin
key
kg
kgb
kha
khaan
khaani
khaaniriigi
khaaniriik
khali
khan
khk
khl
khz
ki
kia
kiai
kiarv
kib
kibe
kid
kida
kide
kides
kidest
kids
kieli
kiga
kihelkond
kihelkonda
kihelkondade
kihelkondlikult
kihelkonna
kihelkonnad
kihelkonnakirik
kihelkonnakool
kihelkonnakooli
kihelkonnakoolis
kihelkonnas
kihelkonnast
kihi
kihid
kihiga
kihis
kihist
kihistik
kihistiku
kihistu
kihistut
kihlus
kihnu
kiht
kihte
kihti
kihtide
kihutas
kiibi
kiibil
kiidab
kiideti
kiidetud
kiidja
kiiev
kiievi
kiievis
kiik
kiil
kiili
kiindumus
kiip
kiir
kiirabi
kiire
kiired
kiireim
kiireima
kiireks
kiirelt
kiirem
kiirema
kiiremaks
kiiremini
kiirendab
kiirendada
kiirendamiseks
kiirendas
kiirendatud
kiirendus
kiiresti
kiiret
kiirgab
kiirgus
kiirguse
kiirgust
kiiri
kiiritusravi
kiirlaskumine
kiirlaskumises
kiirte
kiirtee
kiiruisutaja
kiirus
kiiruse
kiirusega
kiirusel
kiirusest
kiirust
kiisa
kiisk
kiita
kiitis
kiitnud
kiitsid
kiitusega
kiitust
kiiu
kiiver
kija
kikas
kikerpuu
kikoda
kikoja
kikojas
kiks
kil
kilbi
kilbil
kile
kilgas
kiliikia
kiline
kilingi
kilk
kill
killing
kilo
kilogrammi
kilomeeter
kilomeetri
kilomeetril
kilomeetrini
kilomeetrit
kilp
kilpna
kiltsi
kim
kima
kimata
kimi
kimine
kimise
kimised
kimisi
kimiste
kimistel
kimmel
kin
kina
kind
kindad
kindel
kindla
kindlad
kindlaid
kindlaks
kindlaksma
kindlal
kindlale
kindlalt
kindlam
kindlas
kindlasti
kindlat
kindlate
kindlus
kindluse
kindlused
kindlusega
kindluses
kindlusest
kindlust
kindlustab
kindlustada
kindlustama
kindlustamine
kindlustamiseks
kindlustas
kindlustasid
kindlustati
kindlustatud
kindluste
kindlustus
kindlustuse
kindlustused
kindlustuste
kindral
kindralfeldmarssal
kindrali
kindralid
kindralkuberner
kindralkuberneri
kindralkubernerid
kindralleitnant
kindralmajor
kindralmajori
kindralmajoriks
kindralpolkovnik
kindralstaabi
king
kinga
kingdom
kingi
kingissepa
kingissepp
kingiti
kingitud
kingitus
kingitusi
kingo
kings
kingsepp
kini
kink
kinkis
kinni
kinnine
kinnisasja
kinnise
kinnistu
kinnistute
kinnisvara
kinnitab
kinnitada
kinnitades
kinnitama
kinnitamata
kinnitamine
kinnitamise
kinnitamiseks
kinnitamist
kinnitanud
kinnitas
kinnitasid
kinnitatakse
kinnitati
kinnitatud
kinnitavad
kinnitub
kinnitunud
kinnitus
kinnituse
kinnituseks
kinnitusel
kinnitust
kinnituvad
kino
kinodes
kinos
kinud
kipatarei
kippus
kipub
kipuvad
kirbla
kirby
kirche
kirchspiel
kirchspiels
kirde
kirdeosa
kirdeosas
kirdes
kirdesse
kirdest
kire
kired
kirg
kirgede
kirgiisi
kirglik
kiri
kiribati
kirik
kiriklik
kirikliku
kiriku
kirikuaed
kirikuaia
kirikud
kirikuga
kirikuhoone
kirikuid
kirikukogu
kirikukogul
kirikuks
kirikuku
kirikul
kirikule
kirikumo
kirikuo
kirikuriigi
kirikus
kirikusse
kirikust
kirikut
kirikute
kirikutes
kirikuvande
kirill
kirillitsa
kirillitsas
kirimale
kirj
kirja
kirjad
kirjade
kirjades
kirjaga
kirjakeel
kirjakeele
kirjakeeles
kirjale
kirjalik
kirjalikes
kirjaliku
kirjalikud
kirjalikult
kirjamees
kirjameeste
kirjandus
kirjandusauhind
kirjandusauhinna
kirjanduse
kirjandusele
kirjanduses
kirjandusest
kirjanduskriitik
kirjanduslik
kirjanduslikku
kirjandusliku
kirjandusmuuseum
kirjandusmuuseumi
kirjanduspreemia
kirjandust
kirjandusteadlane
kirjandusteadlased
kirjandusteosed
kirjanik
kirjanike
kirjanikke
kirjaniku
kirjanikud
kirjanikuna
kirjas
kirjast
kirjastaja
kirjastus
kirjastuse
kirjastused
kirjastuses
kirjato
kirjavahetus
kirje
kirjeldab
kirjeldada
kirjeldades
kirjeldamine
kirjeldamiseks
kirjeldamisel
kirjeldanud
kirjeldas
kirjeldasid
kirjeldatakse
kirjeldati
kirjeldatud
kirjeldav
kirjeldavad
kirjeldus
kirjelduse
kirjeldused
kirjeldusi
kirjeldust
kirjelduste
kirju
kirjuta
kirjutab
kirjutada
kirjutades
kirjutaja
kirjutama
kirjutamata
kirjutamine
kirjutamise
kirjutamiseks
kirjutamisel
kirjutamist
kirjutanud
kirjutas
kirjutasid
kirjutatakse
kirjutati
kirjutatud
kirjutavad
kirjutis
kirjutised
kirjutisi
kirjutistes
kirk
kirke
kirna
kirov
kirovi
kirs
kirsi
kirsipuu
kirss
kirsti
kirstu
kirurg
kirurgia
kirurgiline
kirves
kis
kisa
kisalmi
kise
kised
kiseid
kisid
kiskuda
kiskus
kiss
kist
kiste
kita
kitarr
kitarri
kitarrid
kitarrist
kitarristid
kitas
kiti
kito
kits
kitsa
kitsad
kitsam
kitsamas
kitsaro
kitsas
kitsast
kitse
kitselt
kitsendatud
kitud
kituse
kitzberg
kitzbergi
kitzbu
kiu
kiud
kiuste
kiva
kive
kivi
kiviaja
kivid
kivide
kividega
kividest
kiviga
kivija
kivikalme
kivikas
kiviku
kivile
kivilo
kiviloo
kivim
kivima
kivimeid
kivimi
kivimid
kivimit
kivimite
kivimitest
kivimu
kivine
kivio
kivira
kivisild
kivisilla
kiviso
kivist
kivistik
kivisu
kiwi
kj
kk
kkab
kkamine
kkas
kkasid
kke
kked
kkejooks
kkejooksus
kkel
kki
kkida
kkide
kkidega
kkideks
kkidest
kkis
kku
kl
kla
klaar
klaas
klaasi
klaasikunstnik
klaasist
klahvi
klahvpillid
klahvpillima
klaipe
klanni
klara
klarnet
klas
klass
klassi
klassid
klasside
klassifikatsioon
klassifikatsiooni
klassifitseeritakse
klassika
klassikakirjastus
klassikaline
klassikalise
klassikalised
klassikalises
klassikalisest
klassikalist
klassikaliste
klassikaraadio
klassikas
klassikaso
klassikasprindis
klassile
klassiline
klassilise
klassiliseks
klassilises
klassis
klassist
klassitsistlik
klaus
klaver
klaveri
klaverile
klaverima
klaverio
klaverit
klaviatuur
klaviatuuri
klein
kleine
kleini
kleis
klement
kleopatra
kleve
kli
klid
kliendi
kliendid
kliendile
klient
kliente
klientide
klientidele
kliima
kliimaga
kliimamuutuste
kliimas
kliimat
kliimavo
kliiniku
kliinikum
kliinikumi
kliiniline
kliinilise
kliinilised
kliiniliselt
kliiniliste
kliline
klilised
kliment
klint
klis
klit
klite
klo
klooga
kloori
klooster
kloostri
kloostrid
kloostrile
kloostrimetsa
kloostris
kloostrisse
kloostrist
kloostrit
kloostrite
klopeedia
klopeediakirjastus
klopeedias
klorofu
klubi
klubid
klubide
klubides
klubiga
klubikarja
klubil
klubile
klubis
klubisse
klubist
kluge
km
kn
knab
knight
knorring
know
knowledge
knu
knud
knut
ko
koa
koalitsioon
koalitsiooni
kobra
koce
koch
koda
kodade
kodakondsus
kodakondsuse
kodakondsusest
kodakondsust
kodanik
kodanike
kodanikel
kodanikele
kodanikest
kodanikke
kodanikku
kodanikkude
kodaniku
kodanikud
kodanikuks
kodanikunimega
kodanikunimi
kodanikuo
kodanikuu
kodanliku
kodavere
kodeerib
kodeeritud
kodeerivad
kodu
kodudes
koduka
koduks
koduleheku
kodulehel
koduleht
kodulennujaam
kodulinn
kodulinna
kodulinnas
koduloomade
koduloomuuseum
koduma
kodumaa
kodumaad
kodumaal
kodumaale
kodumaalt
kodune
kodunt
koduo
kodus
koduse
koduso
kodust
kodustaadion
kodustatud
kodutu
koduva
koe
koed
koefitsient
koer
koera
koerad
koerato
koeri
koerte
koertel
koeru
kogeb
kogeda
kogemata
kogemus
kogemuse
kogemused
kogemusega
kogemusele
kogemusest
kogemusi
kogemust
kogemuste
kogemustest
kogenud
koger
koges
kognitiivne
kognitiivse
kogu
koguarv
koguarvu
kogub
kogud
koguda
kogude
kogudes
kogudus
koguduse
kogudused
kogudusele
koguduses
kogudusest
kogudusi
kogudust
koguduste
kogukond
kogukonda
kogukondade
kogukonna
kogukonnad
kogukonnale
kogukonnas
kogum
koguma
kogumi
kogumik
kogumikku
kogumiku
kogumikud
kogumikus
kogumikust
kogumine
kogumise
kogumiseks
kogumist
kogumit
koguneb
kogunenud
kogunes
kogunesid
kogunevad
koguni
kogunud
kogupikkus
kogupindala
kogus
koguse
koguses
kogusid
kogusse
kogust
kogustes
kogutakse
koguteos
koguti
kogutoodang
kogutoodangust
kogutud
koguva
koguvad
koguvo
koha
kohad
kohaga
kohaks
kohal
kohaldada
kohaldatakse
kohale
kohalik
kohalike
kohalikel
kohalikele
kohalikes
kohalikest
kohalikke
kohalikku
kohaliku
kohalikud
kohalikuks
kohalikul
kohalikule
kohalikus
kohalikust
kohaline
kohalises
kohalolek
kohalolu
kohalt
kohandada
kohandati
kohandatud
kohane
kohaneda
kohanime
kohanimed
kohanimede
kohanimeraamat
kohanimi
kohapeal
kohas
kohaselt
kohast
kohastunud
kohata
kohati
kohatu
kohatud
kohe
kohelda
kohila
koht
kohta
kohtab
kohtade
kohtadel
kohtadele
kohtades
kohtadesse
kohtadest
kohtas
kohti
kohtla
kohtlemine
kohtlemise
kohtu
kohtuasi
kohtuasja
kohtuasjas
kohtub
kohtud
kohtuda
kohtudes
kohtujurist
kohtul
kohtule
kohtuma
kohtumaja
kohtumine
kohtumise
kohtumised
kohtumisel
kohtumises
kohtumisi
kohtumist
kohtumo
kohtunik
kohtunike
kohtunikku
kohtuniku
kohtunikud
kohtunikuks
kohtunud
kohtuotsus
kohtuotsuse
kohtuprotsess
kohtuprotsessi
kohtus
kohtusid
kohtusse
kohtusu
kohtuta
kohtute
kohtuti
kohtuvad
kohtuvo
kohtvo
kohus
kohuse
kohuseid
kohusest
kohuseta
kohust
kohustab
kohustas
kohustatud
kohustub
kohustus
kohustuse
kohustused
kohustusi
kohustuslik
kohustusliku
kohustuslikud
kohustuslikuks
kohustust
kohustuste
kohustustest
kohut
kohutav
kohv
kohvi
kohvik
kohviku
kohvikus
koidu
koidula
koigi
koik
koit
koiva
koja
kojad
kojas
kojast
koju
kokaiini
kokk
kokko
kokku
kokkulepe
kokkulepet
kokkulepitud
kokkuleppe
kokkulepped
kokkuleppel
kokkuleppele
kokkupo
kokkupuude
kokkupuudet
kokkupuute
kokkupuutel
kokkuto
kokkutulek
kokkuvarisemist
kokkuvo
kokla
koknese
koks
kola
kolb
kolde
kole
kolesterooli
koletis
kolga
kolhoos
kolhoosi
kolhoosid
kolib
kolida
kolima
kolinud
kolis
kolisid
koliti
kolju
kolk
kollakas
kollane
kollase
kollased
kollast
kollaste
kolle
kolledz
kolleeg
kolleegi
kolleegid
kolleegide
kolleegidega
kolleegipreemia
kolleegium
kolleegiumi
kollektiiv
kollektiivi
kollektiivne
kollektiivse
kollektsioon
kollektsiooni
kolm
kolmainu
kolmanda
kolmandad
kolmandaks
kolmandal
kolmandale
kolmandana
kolmandas
kolmandasse
kolmandast
kolmandat
kolmandate
kolmandik
kolmandikku
kolmandiku
kolmapa
kolmas
kolme
kolmeaastase
kolmekesi
kolmekordne
kolmekorruseline
kolmeks
kolmeku
kolmel
kolmele
kolmemo
kolmepa
kolmes
kolmest
kolmeteistku
kolmikhu
kolmku
kolmnurga
kolmnurk
kolmteist
kolo
kolonel
kolonelleitnant
kolonistid
kolonn
kolonni
koloog
koloogia
koloogiline
koloogilise
koloonia
kolooniad
kolooniaid
kolooniate
kolooniates
kolts
kolu
kolumbus
kolumbuse
koluvere
koma
komandandi
komandant
komando
kombe
kombed
kombeid
kombeks
kombel
kombinatsioon
kombinatsioone
kombinatsiooni
kombinatsioonid
kombineerida
kombineerides
kombineeritud
komi
kominterni
komisjon
komisjoni
komisjonid
komisjonide
komisjonile
komisjonis
komissar
komissarov
komitaadis
komitee
komiteed
komiteede
komme
kommentaar
kommentaare
kommentaarid
kommenteerinud
kommenteeris
kommenteeritud
kommete
kommunikatsioon
kommunikatsiooni
kommunism
kommunismi
kommunist
kommunistid
kommunistide
kommunistlik
kommunistlike
kommunistlikku
kommunistliku
kommuun
kommuuni
komnenos
komo
kompaktne
kompanii
kompaniid
kompassi
kompleks
kompleksi
kompleksis
kompleksujumises
komplekt
komplekti
komponeeris
komponendi
komponendid
komponent
komponente
komponenti
komponentide
kompositsioon
kompositsiooni
kompromiss
kompromissi
kompus
komsomoli
komtuur
komtuuri
komtuurid
komtuurkond
kon
kondensaatori
konfiguratsioon
konfiskeeriti
konflikt
konflikte
konflikti
konfliktid
konfliktide
konfliktis
konfo
kong
kongo
kongregatsiooni
kongress
kongressi
kongressil
konguta
konklaav
konklaavil
konkreetne
konkreetse
konkreetsed
konkreetseid
konkreetsel
konkreetsele
konkreetselt
konkreetses
konkreetsest
konkreetset
konkreetsete
konkurendid
konkurents
konkurentsi
konkurentsivo
konkursi
konkursil
konkurss
konn
konna
konnektor
konomist
konoomia
konoomika
konrad
konservatiivid
konservatiivide
konservatiivne
konservatiivse
konservatooriumi
konservatooriumis
konserveerunud
konsistoorium
konsistooriumi
konsonandid
konsool
konsooli
konstandi
konstant
konstanti
konstantin
konstantinoopol
konstantinoopoli
konstantinoopolis
konstantinoopolisse
konstantinos
konstantinose
konstantne
konstantse
konstanzi
konstitutsioon
konstitutsiooni
konstitutsioonikohus
konstitutsioonilise
konstrueerida
konstrueeris
konstrueeritud
konstruktor
konstruktorite
konstruktsioon
konstruktsiooni
konsul
konsulid
konsuliteks
konsultant
kontakt
kontakte
kontakti
kontaktid
kontaktide
kontaktis
kontekst
konteksti
kontekstis
kontekstist
konto
kontor
kontori
kontrabass
kontradmiral
kontrasti
kontroll
kontroller
kontrolleri
kontrolli
kontrollib
kontrollida
kontrollima
kontrollimine
kontrollimise
kontrollimiseks
kontrollis
kontrollisid
kontrollitakse
kontrollitud
kontrollivad
kontsentratsioon
kontsentratsiooni
kontsentratsioonist
kontsentreeritud
kontseptsioon
kontseptsiooni
kontserdi
kontserdid
kontserdil
kontserdimaja
kontserdimajas
kontserdisaalis
kontserni
kontsert
kontserte
kontserti
kontsertide
kontsertidel
kontsertmeister
konvendi
konvendihoone
konvent
konventsioon
konventsiooni
konventsiooniga
konverents
konverentse
konverentsi
konverentsidel
konverentsil
koobas
kood
koodeks
koodeksi
koodi
koodid
koodiga
koodnimega
kook
kool
koole
kooli
koolibri
koolid
koolide
koolidele
koolides
kooliga
koolihoone
koolijuhid
koolijuht
kooliks
koolil
koolile
koolimaja
koolimajas
koolinoorte
koolio
koolis
kooliso
koolist
koolitaja
koolitus
koolituse
koolitusi
koolkond
koolkonda
koolkondade
koolkonna
koolmeister
koomik
koomikud
koondab
koondada
koondas
koondati
koondatud
koondis
koondise
koondisega
koondisekarja
koondises
koondisse
koondunud
koondus
koondusid
koonduslaager
koonduslaagri
koonduslaagris
koonga
koopa
koopad
koopas
kooperatiiv
koopia
koopiad
koopiaid
koopiat
koor
kooraste
koordinaadid
koordinaatide
koordinaator
koordineerib
koordineerimine
koore
koori
koorid
kooriga
koorijuhid
koorijuht
koorijuhtimise
koorile
koorimuusika
kooris
kooriu
koorku
koorma
koormatud
koormus
koormuse
koormusega
koormust
koort
kooruvad
koos
koosa
kooselu
koosi
koosko
kooslus
koosmo
koosneb
koosneda
koosnedes
koosnenud
koosnes
koosnesid
koosnev
koosneva
koosnevad
koosnevat
koosolek
koosoleku
koosolekud
koosolekuid
koosolekul
koosolekut
koosolekute
koosseis
koosseisu
koosseisud
koosseisuga
koosseisus
koosseisust
koost
koostab
koostada
koostaja
koostajad
koostama
koostamine
koostamise
koostamiseks
koostamisel
koostamist
koostanud
koostas
koostasid
koostatakse
koostati
koostatud
koostis
koostise
koostisega
koostises
koostisest
koostisosa
koostisosad
koostist
koosto
kootud
kopenhaagen
kopenhaageni
kopenhaagenis
koperniku
kopikat
kopli
koporje
koppel
kopsu
kopsude
kopsupo
kopsuva
kopti
kord
korda
kordab
kordagi
kordamo
kordas
kordi
kordne
kordub
kordus
kordustru
korduv
korduvad
korduvaid
korduvalt
korduvate
korea
koreas
koreograaf
koreograafia
korfu
koridori
korintose
korjata
korjatud
korjus
kork
koroona
koroonapandeemia
koroonaviiruse
korp
korporatsioon
korporatsiooni
korporatsioonide
korpus
korpuse
korpust
korra
korraga
korraks
korral
korraldab
korraldada
korraldaja
korraldajad
korraldama
korraldamine
korraldamise
korraldamisega
korraldamiseks
korraldamisel
korraldamises
korraldamist
korraldanud
korraldas
korraldasid
korraldatakse
korraldatav
korraldati
korraldatud
korraldavad
korraldus
korralduse
korraldused
korraldusega
korraldusel
korraldusi
korraldust
korralduste
korrale
korralik
korraliku
korralikult
korraline
korrapa
korras
korrast
korrastatud
korrata
korratakse
korrektne
korrektselt
korrelatsioon
korrespondent
korrespondentliige
korrosiooni
korruptsioon
korruptsiooni
korruptsioonis
korrus
korruse
korrusel
korrusele
korruseline
korrust
korrutamine
korsika
korsten
korter
korterelamu
korteri
korterid
korteris
korterisse
korterit
kortermaja
kortostani
korvo
korvpall
korvpalli
korvpalliklubi
korvpallis
korvpallitreener
korvpallur
korvpallurid
korz
kos
kose
kosk
kosmiline
kosmilise
kosmoloogia
kosmonaut
kosmos
kosmose
kosmoseagentuuri
kosmoseaparaat
kosmosejaama
kosmoselaev
kosmoselaeva
kosmoses
kosmosesond
kosmosesse
kosmosesu
kosovo
kosovos
kostab
kostis
kostivere
kostroma
kostu
kosu
koti
kotis
kotka
kotkaristi
kotkas
kotkaste
kots
kott
kotta
kotti
kottseened
kottseente
kotzebue
kov
kova
kovi
koz
kp
kpillid
kr
kra
kraad
kraadi
kraadiga
kraadini
kraadise
kraater
kraatri
kraav
kraavi
kraavid
krabi
kraft
krahli
krahv
krahvi
krahvid
krahvide
krahvinna
krahvkond
krahvkonna
krahvkonnad
krahvkonnas
krai
kraini
krais
krako
kramer
krasnaja
krasno
krasnodari
krasnojarski
kratochvi
kratt
krause
kravts
krediidi
kreeka
kreekale
kreekas
kreekasse
kreekast
kreeklased
kreeklaste
kreem
kreenholmi
kreeta
kreetal
kreis
kreises
kreisi
kreisid
kreisis
kremli
kressa
kreutzwald
kreutzwaldi
kriis
kriisa
kriisi
kriiska
kriitik
kriitika
kriitikat
kriitikud
kriitikute
kriitiline
kriitilise
kriitiliselt
kriminaalasja
kriminaalmenetluse
kriminaalo
kriminaalpolitsei
krimm
krimmi
krimmis
krimulda
kris
krista
kristalli
kristallid
kristallide
kristallvo
kristel
kristen
kristi
kristian
kristiina
kristiine
kristin
kristina
kristjan
kristlane
kristlased
kristlasi
kristlaste
kristlik
kristlike
kristlikku
kristliku
kristlikud
kristlikus
kristlus
kristluse
kristluses
kristlusse
kristlust
kristo
kristus
kristuse
kristust
kriteerium
kriteeriumi
kriteeriumid
kritiseerib
kritiseerinud
kritiseeris
kritiseerisid
kritiseeriti
kritiseeritud
krms
kro
kromosoom
kromosoomi
kromosoomide
kronoloogia
kroon
krooni
krooniga
kroonik
kroonika
kroonikad
kroonikas
kroonile
krooniline
kroonilise
kroonis
krooniti
kroonitud
kroonlinna
kroonprints
kroonu
kross
krossi
kru
kruiisilaev
krull
krundi
krusenstern
krusten
kruus
kruusa
kruusama
kruuse
kruusima
krzysztof
krzyz
ks
ksa
ksainus
kse
ksenija
ksenooni
kshaaval
ksi
ksid
ksik
ksikasjalikult
ksikasju
ksikisiku
ksikisikute
ksikma
ksiknumbrid
ksikobjektid
ksikso
ksiku
ksikud
ksikuid
ksikult
ksikus
ksikut
ksikute
ksikutel
ksikutes
ksikutest
ksin
ksinda
ksiwad
kski
ksko
kskord
ksku
ksmeel
ksne
ksnes
ksnest
kste
ksteise
ksteisega
ksteisele
ksteisest
ksteist
ksu
ksus
ksuse
ksused
ksusega
ksuseks
ksusena
ksuses
ksusest
ksusi
ksust
ksuste
ksustega
ksusteks
ksustele
ksustes
ksustest
kt
ku
kubermang
kubermangu
kubermangude
kubermangudes
kubermanguga
kubermangugu
kubermangus
kubermangust
kuberner
kuberneri
kubernerid
kuberneriks
kubernerina
kubernerkond
kubrick
kuda
kudas
kude
kudede
kudedes
kudu
kuhu
kuhugi
kui
kuibo
kuid
kuida
kuidagi
kuidas
kuigatsi
kuigi
kuigivo
kuimetsa
kuis
kuiv
kuiva
kuivad
kuivades
kuival
kuivanud
kuivas
kuivastu
kuivatatakse
kuivatatud
kuivati
kuivo
kujawy
kuju
kujud
kujude
kujuga
kujul
kujule
kujuline
kujulise
kujult
kujund
kujundab
kujundada
kujundaja
kujundamine
kujundamise
kujundamisel
kujundanud
kujundas
kujundasid
kujundati
kujundatud
kujundavad
kujundeid
kujundid
kujundite
kujundus
kujunduse
kujundusega
kujuneb
kujuneda
kujunema
kujunemine
kujunemise
kujunemisel
kujunemist
kujunenud
kujunes
kujunesid
kujunevad
kujur
kujusid
kujust
kujuta
kujutab
kujutada
kujutamine
kujutamise
kujutanud
kujutas
kujutasid
kujutatakse
kujutati
kujutatud
kujutav
kujutava
kujutavad
kujutavate
kujutis
kujutise
kujutised
kujutisega
kujutisi
kujutist
kujutiste
kujutleda
kujutlus
kujutlusjo
kujutlusvo
kuke
kukk
kukkunud
kukkus
kukkusid
kukruse
kuku
kukub
kukul
kukutada
kukutamist
kukutas
kukutati
kukutatud
kuld
kulda
kuldar
kuldgloobuse
kuldhordi
kuldi
kuldmedal
kuldmedali
kuldmedaliga
kuldmedalit
kuldmedalivo
kuldne
kuldse
kuldsed
kuldset
kuldsulg
kulg
kulgeb
kulgenud
kulges
kulgev
kulgevad
kulgu
kulgur
kull
kulla
kullaga
kullama
kullamaa
kullassepp
kullast
kullatud
kulli
kulmineerus
kulno
kultu
kulturasdati
kultus
kultuse
kultuur
kultuuri
kultuuriakadeemia
kultuurid
kultuuride
kultuurides
kultuurielu
kultuuriga
kultuurikeskus
kultuurikeskuse
kultuurikeskused
kultuurikeskuses
kultuurile
kultuurileht
kultuuriline
kultuurilise
kultuurilised
kultuuriliselt
kultuurilisi
kultuurilist
kultuuriliste
kultuuriloos
kultuurima
kultuurimaja
kultuuriministeerium
kultuuriministeeriumi
kultuuriminister
kultuuripa
kultuuripreemia
kultuuris
kultuuriselts
kultuurist
kultuuritegelane
kultuuritegelased
kultuuriu
kultuuriva
kultuurkapital
kultuurkapitali
kulu
kulub
kulud
kulude
kulukas
kulul
kulunud
kulus
kulusid
kulutab
kulutas
kulutused
kulutusi
kulutuste
kuma
kumari
kumb
kumba
kumbagi
kumbki
kumer
kummagi
kummalegi
kummalgi
kummaline
kummardus
kummaski
kummist
kummuli
kumu
kun
kuna
kunagi
kunagine
kunagise
kunagisest
kunda
kungla
kuni
kuninga
kuningad
kuningaga
kuningaks
kuningal
kuningale
kuningalt
kuningana
kuninganna
kuningannaks
kuningapoeg
kuningas
kuningast
kuningat
kuningate
kuningatu
kuningavo
kuninglik
kuninglike
kuninglikku
kuningliku
kuninglikud
kuninglikus
kuningriigi
kuningriigid
kuningriigiga
kuningriigiks
kuningriigile
kuningriigis
kuningriigist
kuningriik
kuningriiki
kunni
kuno
kunst
kunsti
kunstiajaloo
kunstiajaloolane
kunstiajalugu
kunstiakadeemia
kunstiakadeemias
kunstid
kunstide
kunstiga
kunstigalerii
kunstihoone
kunstiinstituudi
kunstiinstituudis
kunstikool
kunstikooli
kunstikoolis
kunstikriitik
kunstile
kunstiline
kunstilise
kunstimaja
kunstimuuseum
kunstimuuseumi
kunstimuuseumis
kunstina
kunstio
kunstipedagoog
kunstiru
kunstis
kunstist
kunstiteadlane
kunstitegelane
kunstiteos
kunstiteoseid
kunstiu
kunstlik
kunstliku
kunstlikult
kunstnik
kunstnike
kunstnikest
kunstnikke
kunstnikku
kunstniku
kunstnikud
kunstnikuna
kunstto
kuopio
kupar
kuperjanov
kuperjanovi
kupli
kuppel
kura
kuraator
kuradi
kuralaste
kuramaa
kuramaal
kuramaale
kurat
kurb
kurdi
kurdistani
kure
kurema
kuremaa
kuressaare
kuressaares
kurg
kuri
kurista
kuristik
kuristiku
kurisu
kuritegevus
kuritegevuse
kuritegu
kuritegude
kuritegusid
kuriteo
kuriteod
kurito
kurja
kurjad
kurjategija
kurjategijad
kurjategijate
kurjus
kurjuse
kurla
kurland
kurna
kurnas
kurnatud
kurs
kursi
kursis
kurski
kursus
kursuse
kursused
kursusel
kursusi
kursust
kursuste
kursustel
kurt
kurtide
kurtna
kuru
kurvits
kus
kusagil
kusagilt
kusepo
kusjuures
kuski
kuskil
kuskilt
kust
kustas
kustunud
kustus
kustutada
kustutati
kuts
kutsar
kutse
kutsel
kutseline
kutselise
kutseo
kutsu
kutsub
kutsuda
kutsudes
kutsuma
kutsunud
kutsus
kutsusid
kutsutakse
kutsuti
kutsutud
kutsuvad
kuu
kuub
kuuba
kuud
kuude
kuudel
kuue
kuueks
kuueku
kuuel
kuuele
kuuenda
kuuendal
kuues
kuuest
kuueteistku
kuuga
kuuks
kuul
kuula
kuulab
kuulaja
kuulama
kuulanud
kuulas
kuulata
kuulates
kuulati
kuulda
kuuldema
kuuldes
kuuldud
kuuldus
kuule
kuuleb
kuuleme
kuulen
kuuli
kuulipilduja
kuulipildujaga
kuulipildujat
kuulis
kuulito
kuulma
kuulmine
kuulmise
kuulnud
kuulsa
kuulsad
kuulsaid
kuulsaim
kuulsaks
kuulsam
kuulsamad
kuulsamaid
kuulsate
kuulsid
kuulsin
kuulsus
kuulsuse
kuulsust
kuulsuste
kuulu
kuulub
kuuluda
kuuludes
kuulujutud
kuuluma
kuulumine
kuulumist
kuulunud
kuulus
kuulusid
kuulutab
kuulutada
kuulutades
kuulutama
kuulutanud
kuulutas
kuulutasid
kuulutatakse
kuulutati
kuulutatud
kuuluv
kuuluva
kuuluvad
kuuluvaid
kuuluvaks
kuuluvas
kuuluvat
kuuluvate
kuuluvates
kuuluvus
kuuluvuse
kuum
kuuma
kuumad
kuumutamisel
kuumutatakse
kuupa
kuupmeetrit
kuurme
kuurvu
kuus
kuusalu
kuuse
kuusik
kuusiku
kuusk
kuuste
kuut
kuvada
kuvari
kuvatakse
kuveidi
kuznetsov
kv
kvalifikatsioon
kvalifikatsiooni
kvalifikatsioonis
kvalifitseeritud
kvalifitseerus
kvaliteedi
kvaliteediga
kvaliteet
kvaliteeti
kvaliteetne
kvantitatiivne
kvantmehaanika
kvartal
kvartali
kvartalis
kvarts
kvartsi
kw
kwazulu
kwh
ky
kyle
kyo
kyu
l
la
laadi
laadida
laadimine
laadimise
laadimiseks
laadis
laadoga
laager
laagna
laagri
laagrid
laagris
laagrisse
laagrit
laama
laan
laane
laanemetsa
laar
laari
laas
laasi
laasik
laastas
laastasid
laastus
laasunduse
laasundust
laat
laata
laatre
laats
laava
lab
labor
laboratoorium
laboratooriumi
laboratooriumis
laboratory
labori
laboris
labu
lac
lactarius
lad
lada
lade
ladele
lademe
lades
ladest
ladestu
ladiini
ladina
ladinaameeriklasi
ladinakeelne
ladinakeelse
ladinakeelsest
ladinapa
ladu
lady
lae
laekunud
laekus
laekvere
laen
laenas
laenatud
laene
laeng
laengu
laenguga
laenso
laenu
laenud
laenude
laenul
laenule
laenuu
laertios
laetud
laev
laeva
laevad
laevade
laevadega
laevadel
laevadele
laevaga
laevakompanii
laeval
laevale
laevalt
laevast
laevastik
laevastikku
laevastiku
laevastikuga
laevastikus
laevatatav
laevatehas
laevatehase
laevatehases
laevau
laevu
laewa
laffranque
laga
lage
lagedi
lagi
lagle
lago
lagrange
laguneb
lagunema
lagunemine
lagunemise
lagunemisel
lagunemist
lagunenud
lagunes
lagunevad
lahe
lahed
lahel
lahemaa
lahend
lahendab
lahendada
lahendama
lahendamata
lahendamine
lahendamise
lahendamiseks
lahendamisel
lahendamist
lahendas
lahendati
lahendatud
lahendid
lahendus
lahenduse
lahendused
lahenduseks
lahendusi
lahendust
lahenduste
lahes
lahest
lahing
lahingu
lahingud
lahinguga
lahinguid
lahingus
lahingusse
lahingust
lahingut
lahingute
lahingutegevuse
lahingutegevuses
lahingutes
lahingutest
lahinguva
lahke
lahku
lahkub
lahkuda
lahkudes
lahkuma
lahkumine
lahkumise
lahkumiseks
lahkumisest
lahkumist
lahkunud
lahkus
lahkusid
lahkuvad
lahn
laht
lahta
lahte
lahti
lahtine
lahtis
lahtise
lahtised
lahtiseks
lahtiste
lahtistel
lahus
lahuse
lahuses
lahusti
lahustu
lahustub
lahustunud
lahustuvad
lahutab
lahutada
lahutamatu
lahutamine
lahutamise
lahutas
lahutasid
lahutati
lahutatud
lahutus
lahutust
lahutusvo
lai
laia
laiad
laial
laialdane
laialdase
laialdaselt
laialdasemalt
laialdast
laiale
laiali
laialt
laiaro
laias
laid
laidoner
laidoneri
laidude
laiem
laiema
laiemad
laiemale
laiemalt
laiemas
laiemat
laiend
laiendab
laiendada
laiendamine
laiendamise
laiendamiseks
laiendamist
laiendas
laiendasid
laiendati
laiendatud
laiendus
laieneb
laienemine
laienemise
laienemist
laienenud
laienes
laigud
laik
laikmaa
laimjala
laine
lained
laineid
lainepikkus
lainepikkuse
lainepikkusega
lainepikkuste
lainete
laisk
laitse
laiu
laiune
laius
laiuse
laiusega
laiusest
laiust
lajos
lake
laki
lakkab
lakkas
laks
lal
lale
laline
lalise
lalised
lalisena
lalisi
lalisprofessor
laliste
lalo
lalpool
lalt
laltoodud
lama
lamab
lamades
lamas
lamba
lambad
lambaid
lambakoer
lambda
lambert
lamberti
lambi
lamborghini
lame
lameda
lamedad
lammas
lammaste
lammutada
lammutati
lammutatud
lamp
lamprophiidae
lan
lana
lancasteri
land
landau
landeswehri
landgu
landi
landscape
lane
lang
lange
langeb
langeda
langema
langemine
langemise
langemist
langenud
langenute
langes
langesid
langetada
langetas
langetatud
langev
langeva
langevad
langi
langobardid
langobardide
language
languages
languoid
langus
languse
langust
lani
lanka
lano
lanud
lao
laos
laosa
laosas
laose
laotud
lapi
lapin
laplace
laps
lapse
lapsed
lapseeas
lapsega
lapsel
lapselaps
lapsele
lapsena
lapsepo
lapsest
lapsi
lar
lara
laretei
large
lari
larissa
larka
larry
lars
larsen
larsson
larus
las
lase
laseb
lased
lasen
laser
laseri
lasevad
lasi
lasid
laska
laske
laskekaugus
laskemoona
laskesuusataja
laskesuusatajad
laskesuusatamine
laskesuusatamise
laskis
laskma
laskmine
lasknud
lasksid
lasku
laskub
laskur
laskurdiviis
laskurdiviisi
laskurkorpus
laskurkorpuse
laskurpolgu
laskurpolk
laskus
lasnama
lass
lasse
last
lasta
lastab
lastada
lastades
lastaja
lastajad
lastajate
lastajatele
lastakse
lastanud
lastas
lastasid
lastatud
lastavad
laste
lasteaed
lasteaia
lasteaias
lastega
lastekirjanduse
lastekirjanik
lastekodu
lastel
lastele
lastepa
lasteraamat
lasteraamatud
lastes
lastest
lasti
lastud
lasub
lasva
lata
late
lateraani
latgale
latgali
latgalid
latgalite
latin
lattik
latvia
latvija
latvijas
laua
lauad
laual
lauale
lauama
lauapalli
laud
lauda
laude
lauenburgi
lauk
laul
laula
laulab
laulavad
laulda
lauldakse
lauldes
lauldi
laule
laulik
laulis
laulja
lauljad
lauljaid
lauljana
lauljanna
lauljatar
lauljate
laulma
laulmine
laulmist
laulnud
laulsid
laulu
laulud
laulude
lauludes
lauludest
lauluga
laulukirjutaja
laululava
laulule
lauluo
laulupeo
laulupidu
laulus
lauluso
laulust
lauluva
lauluvo
laupa
laur
laura
laureaadid
laureaat
lauren
laurence
laurent
laurentiuse
laurentsiuse
lauri
lauristin
laurits
lausa
lausaldaja
lausanne
lause
laused
lausega
lauseid
lauses
lauset
lausete
lausunud
lausus
laut
lauter
lauteri
lav
lava
lavad
lavakunstikateedri
lavakunstikooli
laval
lavale
lavamaa
lavassaare
lavastaja
lavastajad
lavastajana
lavastanud
lavastas
lavastati
lavastatud
lavastus
lavastuse
lavastused
lavastuses
lavastusi
lavastustes
lavoisier
law
lawrence
layer
lazar
lazio
lb
lba
lbe
lbmatuks
lbustamiseks
lc
lcd
ld
lda
ldarvestuses
ldatakse
lde
lder
ldi
ldib
ldine
ldise
ldised
ldiseks
ldisele
ldiselt
ldisemalt
ldises
ldisest
ldisi
ldist
ldistatud
ldiste
lditakse
ldja
ldjoontes
ldjuht
ldjuhul
ldkarikas
ldkogu
ldkoosolek
ldkoosoleku
ldkoosolekul
ldlaulupidu
ldlevinud
ldma
ldmo
ldnimetus
ldosa
ldots
ldre
ldrelatiivsusteooria
ldri
ldroos
ldse
ldsuse
ldsusele
ldtunnustatud
ldtuntud
ldu
ldude
ldudel
ldus
ldvo
le
lea
leader
league
leandmine
leandmise
leandmist
lear
learning
learvuti
learvutite
leave
leb
leba
lebedev
leben
lech
led
lee
leedi
leeds
leedu
leeduga
leedulased
leedulasi
leedulast
leedulaste
leedule
leedus
leedust
leegion
leegiona
leegioni
leek
leelo
leen
leena
leeni
leepra
leeri
leerimine
leeritud
leesi
leesment
leetu
leevendada
leevendamiseks
leevi
left
lega
legaat
legacy
legal
legend
legendaarne
legendaarse
legendi
legendid
legi
legion
lego
lehe
lehed
leheku
lehel
lehes
lehis
lehm
lehma
lehmad
leho
lehola
leht
lehte
lehtede
lehtedega
lehtedest
lehti
lehtse
lei
leia
leiab
leiaks
leiame
leian
leiavad
leib
leiba
leibkonda
leibkondadest
leibkonna
leibkonnas
leibniz
leibnizi
leicester
leid
leida
leide
leiden
leideni
leides
leidis
leidma
leidmine
leidmise
leidmiseks
leidmisel
leidnud
leidsid
leidsin
leidsiwad
leidu
leidub
leiduda
leidude
leidunud
leidus
leiduv
leiduva
leiduvad
leiduvate
leidybos
leigatud
leigh
leika
leila
leili
leina
leino
leipzig
leipzigi
leipzigis
leis
leisi
leitakse
leitav
leiti
leitnandiks
leitnant
leito
leitud
leiud
leiukohad
leiutaja
leiutajad
leiutas
leiutati
leiutatud
leiva
leiwa
leja
lejo
leka
lekaal
lekaalu
lekaalukalt
lekaalus
lekande
lekanded
lekandeid
lekandja
lekanne
lekannet
lekohut
leks
leksikon
lektor
lektorina
leku
lel
lele
leliiduline
leliidulise
leliigne
lelle
lem
lema
lemaailmne
lemaailmse
lemaailmselt
lemad
lemaid
lemaks
lemal
lemale
lemalt
lemana
lemas
lemast
lemat
lemate
lember
lembit
lembitu
lemine
leminek
lemineku
leminekul
leminekuma
leminekut
lemise
lemised
lemisel
lemises
lemist
lemiste
lemjooksul
lemjuhataja
lemjuhatajaks
lemkogu
lemkohtu
lemkohus
lemmik
lemno
lemo
lempreester
lemraada
lemsalu
lemus
lemvo
len
lena
lend
lendab
lendama
lendamist
lendas
lendasid
lendati
lendatud
lendav
lendavad
lende
lendu
lendude
lendur
lendurid
lene
leng
leni
lenin
leningrad
leningradi
leningradis
lenini
lenna
lennanud
lennart
lennata
lennates
lennon
lennu
lennud
lennuettevo
lennufirma
lennufirmad
lennujaam
lennujaama
lennujaamad
lennujaamade
lennujaamas
lennujaamast
lennuk
lennukeid
lennuki
lennukid
lennukiga
lennukil
lennukile
lennukis
lennukit
lennukite
lennukompanii
lennul
lennundus
lennunduse
lennuo
lennuva
lennuvo
lenud
lenurme
lenz
leo
leon
leonard
leonardo
leone
leonhard
leonid
leopard
leopold
lepa
lepajo
lepe
lepea
lepik
lepiku
leping
lepingu
lepingud
lepinguga
lepinguid
lepingule
lepinguo
lepingus
lepingust
lepingut
lepingute
lepitada
lepiti
lepitud
lepland
lepo
lepp
leppe
leppida
leppik
leppima
leppinud
leppis
leppisid
ler
leri
leriigiline
leriigilise
les
lesande
lesanded
lesandega
lesandeid
lesandeks
lesandel
lesanne
lesannet
lesannete
lesannetega
lesanneteks
lesannetes
lese
lesehitus
lesehituse
lesk
leskutse
leslie
leso
lespoole
lesse
lest
lesta
lestis
lestised
lestiseks
lestisena
lestiste
lestistena
lestistest
lesto
lestus
lestuse
lestused
lestuseks
lestusi
lestuskivi
lestusma
lestusmedal
lestuspa
lestussamba
lestussammas
lestust
lestustahvel
lestuste
lestustes
lestusvo
lesvo
lesvoolu
let
leta
letab
letada
letades
letama
letamine
letamise
letamiseks
letamisel
letamist
letan
letanud
letas
letasid
letatakse
letati
letatud
letav
letavad
leti
letik
letikku
letiku
letter
letters
lettische
lettland
letus
letuse
letusel
letusele
letust
leu
leujutused
leujutuste
leukotsu
lev
leva
levaade
levaadet
levaate
levaateid
levad
levadia
leval
levalt
levandi
level
levenemaalise
leverkuseni
levi
leviala
levib
levida
levik
leviku
levikuga
levikule
levikult
levikut
levila
levima
levimine
levimise
levin
levinud
levinuim
levinum
levinumad
levinumaid
levis
levisid
levitada
levitamine
levitamise
levitati
levivad
levkivi
levkivito
levo
levy
lewis
lewise
lex
lexikon
lez
lg
lga
lgab
lgade
lgas
lgbt
lge
lgede
lgedega
lgedel
lgedele
lgedelt
lgedes
lgedest
lgendab
lgendada
lgendamine
lgendamise
lgendamisel
lgendatakse
lgendatud
lgendus
lgenduse
lgendused
lgendust
lget
lgeto
lgi
lgib
lgida
lgides
lgima
lgimine
lgimise
lgimiseks
lgimist
lgis
lgitakse
lgitav
lgiti
lgitud
lgivad
lglo
lgne
lgneb
lgr
lgse
lgu
lhv
li
lia
liam
lib
libahunt
libe
libeeria
liber
liberaalid
liberaalide
liberaalne
liberaalse
liberalism
liberalismi
liberecis
libertadores
liberty
liblikas
liblikat
libliko
liblikujumises
library
libreto
libri
lid
lide
lie
liebe
liechtenstein
liechtensteini
lielciems
lielva
liepa
lietuviu
lietuvos
life
liga
ligandi
ligemale
light
lightning
lights
ligi
ligidal
ligikaudne
ligikaudu
ligila
ligipa
ligito
ligue
liguta
liguuria
liha
lihased
lihaste
lihavo
lihha
liht
lihtne
lihtrahva
lihtsa
lihtsad
lihtsaid
lihtsaim
lihtsaks
lihtsalt
lihtsam
lihtsama
lihtsamaid
lihtsamaks
lihtsasti
lihtsat
lihtsate
lihtsus
lihtsuse
lihtsustab
lihtsustada
lihtsustatud
lihula
lihulas
lihvitud
liia
liialdatud
liialt
liibanon
liibanoni
liibanonis
liibu
liidendas
liidendati
liider
liides
liidese
liidetakse
liideti
liidetud
liidia
liidri
liidrid
liidu
liidud
liiduga
liidukantsler
liidul
liidule
liidumaa
liidumaal
liidupa
liidus
liidust
liiduvabariikide
liig
liiga
liigaastal
liigahooajad
liigama
liigas
liigasse
liigatabel
liige
liigendatud
liiget
liigi
liigid
liigiga
liigiks
liigil
liigile
liigina
liigist
liigitada
liigitatakse
liigitatud
liigiti
liigitus
liigne
liigse
liigselt
liigset
liigu
liigub
liigutab
liigutada
liiguti
liigutused
liigutusi
liigutuste
liiguvad
liik
liike
liiki
liikide
liikidega
liikidel
liikidele
liikidest
liiklus
liikluse
liikluso
liiklussagedus
liiklusso
liiklust
liikme
liikmed
liikmega
liikmeid
liikmeks
liikmel
liikmele
liikmeline
liikmelise
liikmelises
liikmena
liikmeskond
liikmesriigi
liikmesriigid
liikmesriigis
liikmesriik
liikmesriiki
liikmesriikide
liikmesriikides
liikmest
liikmesus
liikmete
liikmetega
liikmeteks
liikmetel
liikmetele
liikmetest
liikuda
liikudes
liikuma
liikumapanija
liikumatu
liikumine
liikumise
liikumised
liikumisega
liikumiseks
liikumisel
liikumisele
liikumises
liikumisest
liikumisi
liikumist
liikumiste
liikumisvo
liikunud
liikursuurtu
liikus
liikusid
liikuv
liikuva
liikuvad
liikuvaid
liikuvate
liikuvus
liilia
liimets
liin
liina
liine
liini
liinid
liinide
liinil
liinile
liinist
liis
liisa
liisi
liisu
liit
liita
liite
liitis
liitlane
liitlase
liitlased
liitlasi
liitlaste
liitlastega
liitlasva
liitmine
liitmise
liitmisel
liitmist
liitriigi
liitrine
liitrit
liitso
liitu
liitub
liituda
liitude
liitudes
liituma
liitumine
liitumise
liitumisel
liitumist
liitunud
liitus
liitusid
liituvad
liitvabariigi
liiv
liiva
liivak
liivakivi
liivaku
liivalaia
liivama
liivane
liivast
liivi
liivik
liivika
liivimaa
liivimaal
liivimaale
liivimaalt
liivlased
liivlaste
liiwi
liiwimaa
liiwimaal
liiwimaale
liiwlased
liiwlaste
lik
like
liko
likool
likooli
likoolid
likoolide
likoolides
likooliga
likoolile
likoolis
likoolist
liks
liku
likud
likuid
likukujuline
likut
likute
likvideerida
likvideerimine
likvideerimise
likvideerimist
likvideeris
likvideeritav
likvideeriti
likvideeritud
lil
lile
lili
lilian
lill
lilla
lille
lilled
lillede
lilleku
lilli
lilly
lily
lim
lima
limaal
limalt
limaskesta
limbaz
limburg
limburgi
limine
limise
limited
limiteeritud
limpopo
limus
limuse
limusega
limuselt
limust
lin
lina
linaja
linastunud
linastus
lincoln
lincolni
lind
linda
linde
lindepuu
lindgren
lindgreni
lindi
lindstro
lindu
lindude
lindudel
lindudele
lindudest
line
lineaarne
lineaarse
lineaarselt
lines
ling
lingid
lingu
lingua
linguistics
lingus
lingvistika
link
linko
linn
linna
linnaasunduse
linnad
linnade
linnadega
linnadele
linnades
linnadesse
linnadest
linnaelanike
linnaelanikud
linnaeus
linnaga
linnagalerii
linnakodanike
linnakomitee
linnakooli
linnakoolis
linnaks
linnal
linnala
linnale
linnama
linnamu
linnamuuseum
linnamuuseumi
linnano
linnao
linnaosa
linnaosad
linnaosas
linnapea
linnapead
linnapeaks
linnaplaneerimise
linnar
linnaraamatukogu
linnarajoon
linnaringkond
linnart
linnas
linnast
linnastu
linnasu
linnateater
linnateatri
linnateatris
linnava
linnavalitsus
linnavalitsuse
linnavo
linnavolikogu
linnavolikokku
linnavolinike
linne
linnu
linnud
linnulennult
linnuliik
linnus
linnuse
linnuseala
linnused
linnuseid
linnuses
linnusesse
linnusest
linnust
linnuste
linnutee
lint
linus
linux
linuxi
lio
lion
lionel
lipikaealine
lipnik
lipp
lippe
lippmaa
lippu
lippude
lipu
lipud
lipuga
lipuks
lipul
lis
lisa
lisaajal
lisab
lisad
lisada
lisades
lisajo
lisaks
lisama
lisameeriklasi
lisamine
lisamisega
lisamist
lisandub
lisandunud
lisandus
lisandusid
lisanduvad
lisanud
lisas
lisasid
lisasjade
lisatakse
lisati
lisatud
lisava
lisavad
lise
lised
liseesti
liseid
liseks
liselanike
lisele
liselt
lisena
lises
lisest
lisi
lisid
liskaubandus
liskaubanduse
lisklassi
lisku
lisliige
lisliikmeks
lislingid
lisluure
lismaa
lismaailma
lismaal
lismaalaste
lismaale
lismaalt
lismaised
lismaiste
lisministeerium
lisministeeriumi
lisministeeriumis
lisminister
lisministri
lisministrid
lisministriks
lisministrite
liso
lispartei
lispoliitika
lispuud
lisrahvaste
lisriigi
lisriikide
lissabon
lissaboni
lissabonis
lissuhete
list
lista
listab
listada
listas
listatud
listavad
liste
listele
listest
lisu
lisuurslaalom
lisuurslaalomis
lisvo
lita
litab
litada
litama
litamine
litamise
litas
litatakse
litati
litatud
literaat
literary
literatur
literature
lithuania
liti
lito
litograafia
litsents
litsentsi
little
liturgilised
litus
lituse
litusso
liu
liustik
liustike
liustiku
liustikud
liv
liva
live
liverpool
liverpooli
liverpoolis
lives
living
livla
livland
livlands
livonia
livoniae
lix
lja
ljaande
ljaanded
ljaandeid
ljaandel
ljaandena
ljaandes
ljaandja
ljaandmine
ljaandmise
ljaandmist
ljaanne
ljaannet
ljaannete
ljaannetes
ljaantud
ljaarvatud
ljad
ljade
ljadel
ljaga
ljaha
ljak
ljakaevamised
ljakaevamistel
ljaks
ljaku
ljakud
ljakujunenud
ljakul
ljakule
ljakut
ljakutse
ljakuulutamise
ljakuulutamist
ljakuulutatud
ljal
ljalangemisma
ljalase
ljale
ljalo
ljalt
ljalu
ljama
ljamo
ljana
ljao
ljapa
ljapaistev
ljapaistva
ljapaistvate
ljapanek
ljapoole
ljara
ljas
ljaso
ljaspool
ljast
ljastab
ljastas
ljastatakse
ljastati
ljastatud
ljastpoolt
ljasurnud
ljataga
ljati
ljato
ljatud
ljavo
lje
ljed
ljega
ljel
ljele
ljeline
ljelt
ljena
ljend
ljendab
ljendada
ljendades
ljendamine
ljendamiseks
ljendanud
ljendas
ljendasid
ljendatakse
ljendatud
ljendav
ljendavad
ljendeid
ljendi
ljendid
ljendit
ljendite
ljendub
ljendus
ljenduse
ljes
ljest
lju
ljub
ljubljana
ljubov
ljuda
ljudmila
ljumist
ljund
ljundi
ljundis
ljundit
ljundpinge
ljunud
ljus
ljuvad
lk
lka
lke
lked
lkeid
lkes
lkida
lkija
lkijad
lkimine
lkimise
lkinud
lkis
lkma
ll
lla
llakuur
llalt
llaltki
llama
llap
llar
llas
llastunud
llatav
lle
llegi
ller
lleri
lles
lleta
lli
llide
lliste
llo
lloyd
llu
llud
llul
llule
llumaa
llumajandus
llumajanduse
llumajanduses
llumajanduslik
llumajandusliku
llumajandusminister
llumajandust
llumajandusteadlane
llumajandusteaduskonna
llumajandustegelane
llumajandusu
llumees
llumeeste
llus
lluste
lluto
lm
lma
lmab
lmad
lmade
lmaks
lmalt
lmas
lmasid
lmata
lmates
lmav
lmava
lmavad
lme
lmed
lmede
lmem
lmi
lmida
lmides
lmikpuu
lmima
lmimine
lmimise
lmimisel
lmimist
lminud
lmis
lmisid
lmiti
lmitud
lmunud
ln
lne
lni
lnis
lo
loa
loal
loata
loc
local
lochte
locke
lockheed
lode
lodi
loe
loeb
loend
loendid
loendis
loeng
loengud
loenguid
loengute
loeta
loetakse
loetav
loetelu
loeti
loetleb
loetletakse
loetletud
loetud
loevad
log
logic
logistika
logo
logos
logose
logost
lohe
lohk
lohu
lohusuu
loire
loit
lojaalsuse
lokaalne
lokk
loksa
lokuta
lola
loll
lombardia
lomonossovi
lomp
london
londoni
londonis
londonisse
londonist
long
loni
loo
loob
loobu
loobub
loobuda
loobuma
loobumine
loobumise
loobumist
loobunud
loobus
loobusid
loobuti
lood
loodab
loodan
loode
loodearmee
loodeosa
loodeosas
loodes
loodesse
loodest
loodetakse
loodeti
loodi
loodu
loodud
loodus
loodusala
looduse
loodusega
loodusele
looduses
loodusesse
loodusest
looduseuurijate
loodusfoto
loodusfotograaf
looduskaitse
looduskaitseala
looduskaitsealad
looduskaitsealal
looduskaitsealune
looduskaitsja
looduslik
looduslike
looduslikes
looduslikest
looduslikke
looduslikku
loodusliku
looduslikud
looduslikult
looduslikus
looduslikust
loodusna
looduso
looduspark
loodust
loodusteadlane
loodusteaduse
loodusteaduskonna
loodusteaduste
loodusuurijate
loodusvarade
loog
looga
loogik
loogika
loogikas
loogikat
loogiline
loogilise
loogilised
loogiliselt
loogilist
looja
loojad
loojaks
look
looking
loole
loom
looma
loomaaed
loomaaia
loomaaias
loomaarst
loomaarstiteadlane
loomad
loomade
loomadega
loomadel
loomadele
loomadest
loomakaitse
loomakasvatus
loomakasvatuse
loomakasvatusteadlane
loomaks
loomaso
loomastik
loomi
loomine
looming
loomingu
loominguga
loomingule
loominguline
loomingulise
loomingus
loomingust
loomingut
loomise
loomisega
loomiseks
loomisel
loomisele
loomiseni
loomises
loomisest
loomist
loomu
loomuga
loomulik
loomulikku
loomuliku
loomulikud
loomulikult
loomult
loomuo
loomupa
loomus
loomuse
loomusest
loomust
loona
loone
loonia
loonud
loop
loorits
loos
loosimine
loost
loota
loote
lootel
lootes
lootis
lootsid
lootus
lootuse
lootused
lootuses
lootust
loov
loova
loovad
loovutama
loovutas
loovutati
looz
lopez
lord
lordi
lorenz
lorenzo
lorraine
los
loss
lossi
lossid
lossis
lossist
lost
lothar
loti
lotman
lotmani
lotringi
lotte
lotus
lou
louis
louise
louisiana
louvre
lova
love
low
lower
lp
lpilsi
lpsasti
lr
lru
ls
lse
lselt
lt
ltd
lte
lteenamusega
ltega
ltel
ltest
ltida
ltides
ltima
ltimaks
ltimatu
ltimatult
ltimine
ltimiseks
ltsamaa
ltsamaal
ltsitud
ltu
ltub
ltumata
ltumatu
ltumatud
ltumatuks
ltumatult
ltumatus
ltumatuse
ltumatust
ltumatut
ltumatute
ltus
ltuv
ltuvad
ltuvaks
ltuvalt
ltuvus
ltuvuse
ltuvuses
ltuvust
lu
lua
luba
lubab
lubada
lubades
lubaduse
lubama
lubanud
lubas
lubasid
lubatakse
lubatav
lubati
lubatud
lubavad
lubi
lubja
lubjakivi
lubjakivist
lublini
luc
luca
lucas
lucca
luce
lucia
luciano
lucius
lucy
lud
lude
ludmilla
ludovico
ludvig
ludwig
ludwigi
ludza
luftwaffe
luga
lugeda
lugedes
lugeja
lugejad
lugejaid
lugejale
lugejate
lugejatele
lugema
lugemine
lugemis
lugemise
lugemiseks
lugemisel
lugemist
lugenud
luges
lugu
lugude
lugudest
lugupeetud
lugusid
luha
luhamaa
luhanski
luht
lui
luid
luidja
luiga
luige
luigi
luik
luis
luisa
luise
luiz
luka
lukas
luke
luki
lukk
lukku
lukoil
luks
luksemburg
luksemburgi
luksemburgis
luku
lula
lule
luma
lume
lumi
lumiste
luna
lunaraha
lunastaja
lund
lundi
lur
lus
lussika
lust
lustivere
lut
luteri
luteriusu
luterlik
luterliku
luther
lutheri
luts
lutsu
lutz
luu
luua
luuakse
luud
luude
luues
luuk
luuka
luukas
luule
luulekogu
luulekogud
luules
luulest
luulet
luuletaja
luuletajad
luuletus
luuletuse
luuletused
luuletusi
luuletust
luuletuste
luunja
luup
luuraja
luure
luust
luuu
luxembourg
luxembourgi
luz
lv
lva
lvad
lvadel
lval
lvamaa
lvamaal
lvas
lve
lvenimega
lvenimi
lves
lvest
lvi
lvid
lvili
lvinud
lvis
lvisid
lvitud
lvivi
lvkond
lvkonda
lvkondade
lvkonna
lvnes
lwe
ly
lydia
lynn
lynx
lyon
lyoni
m
ma
maa
maabus
maabusid
maad
maade
maadeavastaja
maadega
maadel
maadele
maades
maadest
maadeuurija
maadleja
maadlejad
maadlus
maadluse
maadluses
maaelu
maaga
maagaasi
maagia
maagiline
maagima
maagu
maailm
maailma
maailmaga
maailmakarikavo
maailmale
maailmameister
maailmameistri
maailmameistriks
maailmameistrivo
maailmamere
maailmana
maailmapa
maailmapanga
maailmarekord
maailmarekordi
maailmarekordid
maailmarekordit
maailmas
maailmaso
maailmast
maailmasu
maailmavaate
maaja
maakaitseva
maakera
maakividest
maakohtu
maakohus
maakond
maakonda
maakondade
maakondades
maakonna
maakonnad
maakonnaga
maakonnaks
maakonnas
maakonnast
maakoore
maakoores
maakrahv
maakri
maal
maale
maalehe
maaleht
maali
maalid
maalida
maalide
maalidel
maalides
maalija
maalikunst
maalikunsti
maalikunstis
maalikunstnik
maalikunstnike
maalikunstniku
maalikunstnikud
maalil
maalima
maalimise
maalimist
maalinud
maalis
maalitud
maalt
maama
maamarssal
maameister
maamo
maandumist
maandur
maandus
maani
maano
maantee
maanteed
maanteede
maanteega
maanteel
maanteele
maanteelt
maanteest
maapa
maaparanduse
maapealne
maapealse
maapiirkondades
maapind
maapinda
maapinna
maapinnal
maapinnale
maapinnalt
maapinnast
maapo
maarahva
maarajoonide
maardla
maardu
maareformi
maarja
maarjama
maarjamaa
maarjamo
maas
maasi
maasik
maasika
maasikas
maasilinna
maasse
maast
maastik
maastikke
maastikku
maastiku
maastikud
maastikukaitseala
maastikukaitsealad
maastikukaitsealal
maastikul
maata
maatasa
maatriks
maatriksi
maatu
maau
maava
maavalitsus
maavalitsuse
maavanem
maavanema
maavara
maavarade
maaviljeluse
maavo
mac
macau
macbook
macdonald
mach
machiavelli
machine
macintosh
macmillan
mad
madagaskar
madagaskari
madagaskaril
madal
madala
madalad
madalaim
madalaks
madalal
madalale
madalam
madalama
madalamad
madalamal
madalamale
madalamat
madalamate
madalamatel
madalas
madalast
madalat
madalate
madalatel
madalik
madaliku
madalikul
madalikule
madalmaad
madalmaade
madalmaades
madalpa
madame
made
madeira
madeleine
madis
madise
madison
madisoni
madisson
madli
madona
madonna
madrid
madridi
madridis
madu
madude
madudel
madusid
mae
maeti
maetud
mag
maga
magab
magada
magalha
magama
magas
magazine
magda
magdaleena
magdalena
magdeburgi
mage
maggie
maggiore
magic
magister
magistri
magistrikraad
magistrikraadi
magistrikraadiga
magistrio
magistrito
magma
magna
magneesiumi
magnet
magnetic
magnetiline
magnetilise
magnetva
magnituudine
magnus
magnuse
magritte
magus
magusa
mah
maha
mahaja
mahajaana
mahasurumist
mahe
mahilou
mahla
mahler
mahleri
maht
mahti
mahtra
mahtu
mahtunud
mahtuvus
mahu
mahub
mahuga
mahukas
mahus
mahutab
mahutada
mahutas
mahutavus
mai
maia
maid
maide
maiden
maidla
maido
maie
maikuus
mail
mailis
maimets
maimu
main
maine
mainet
maini
mainib
mainida
maininud
mainis
mainitakse
mainiti
mainitud
mainz
mainzi
maire
mais
maisi
maismaa
maismaal
maist
maiste
mait
maitse
maitsega
maitset
maitsta
maja
majad
majade
majades
majaka
majakas
majakovski
majale
majamuuseum
majandamise
majandus
majanduse
majandusele
majanduses
majandusharu
majanduskasvu
majanduskriis
majanduskriisi
majanduslik
majanduslike
majanduslikke
majanduslikku
majandusliku
majanduslikud
majanduslikult
majanduslikust
majandusminister
majandusno
majanduspoliitika
majandussu
majandust
majandusteadlane
majandusteadlased
majandusteadus
majandusteaduse
majandusteaduskonna
majandustegelane
majandusu
majaomanike
majaomanikkude
majapidamise
majapidamises
majapidamist
majas
majasse
majast
majja
major
majori
maju
mak
makarov
make
makedoonia
makedoonias
making
maks
maksa
maksab
maksas
maksavad
makse
maksejo
maksid
maksim
maksimaalne
maksimaalse
maksimaalselt
maksimaalset
maksimum
maksimumi
maksimumtemperatuur
maksis
maksma
maksmata
maksmine
maksmise
maksnud
maksta
makstakse
maksti
makstud
maksu
maksud
maksude
maksudest
maksuma
maksumus
maksusu
mal
malaaria
malai
malaisia
malaisias
malawi
malcolm
male
malefo
malemeister
malemeistriks
maleolu
males
maletaja
maletajad
malev
maleva
malevkond
malevkonna
mali
malis
mall
malle
mallorca
malm
malmo
malo
malta
maltal
maltswet
maltsweti
mamma
man
mana
management
manche
manchester
manchesteri
manda
mandaadi
mandaati
mandel
mandri
mandrija
mandril
mandrilava
mandriline
mandriosa
mandz
manfred
manhattan
manhattani
manhattanil
mani
manifest
manifesti
mann
mano
manor
mans
mansi
mansiiskis
manteuffel
mantojums
mantova
manu
manual
manuel
manufaktuuri
manustada
manustamine
manustatakse
mao
maod
maoliigidpeter
maoliik
maoperekond
map
maple
maps
mar
mara
marad
maran
marat
maraton
maratoni
marburgi
marc
marcel
marcello
march
marchand
marche
marco
marcos
marcus
mardi
mardikalised
mardikaliste
mare
marek
maret
marga
margareeta
margaret
margareta
margarete
margaretha
margarethe
margarita
marge
margi
margit
margo
margot
marguerite
margus
mari
maria
marian
mariana
marianne
marie
marienburgi
marija
marik
marika
marilyn
marin
marina
marine
marino
mario
marion
maripuu
maris
marit
marita
maritime
mariupoli
marius
marja
marjad
marje
marju
mark
marka
market
marki
markii
markkrahv
markkrahvi
markkrahvid
marko
marksismi
markus
markuse
marleen
marmor
marmorist
marne
maroko
marokos
mars
marseille
marshall
marshalli
marsi
marsil
marsile
marsruudil
marsruut
marsruuti
marss
marssal
marssis
mart
marta
marten
martha
marti
martin
martina
martini
martino
martinson
martinus
martna
martti
maru
marx
marxi
mary
marylandi
mas
masin
masina
masinad
masinaehitus
masinaehituse
masinaid
masinat
masinate
masing
masingu
masino
masinto
mask
maski
mason
masoovia
mass
massa
massaaz
massachusetts
massachusettsi
massi
massiga
massiiv
massiivi
massiivne
massiline
massilise
massiliselt
massimo
massist
masso
massu
mast
master
masters
masti
masuuria
mat
mata
mateeria
matemaatik
matemaatika
matemaatikaleksikon
matemaatikao
matemaatikas
matemaatikat
matemaatikateaduskonna
matemaatikud
matemaatiline
matemaatilise
matemaatilised
matemaatiliselt
matemaatilisi
matemaatiliste
mater
materiaalne
materiaalse
materiaalset
materiaalsete
material
materialen
materialien
materials
materjal
materjale
materjali
materjalid
materjalide
materjalidega
materjalidest
materjaliga
materjalis
materjalist
math
mathbb
mathbf
mathcal
mathematical
mathematics
mathias
mathiesen
mathieu
mathilde
mathrm
mati
matilda
matisse
matka
matkarada
matmispaik
matrikliaadel
matriklisse
matrix
mats
matsalu
matsi
matt
matta
matteo
matter
matteus
matteuse
matthew
matthews
matthias
matti
mattias
mattiesen
mattis
matus
matused
matustel
matvei
maurer
mauri
maurice
mauritaania
mauritiuse
maurus
mauruse
mausoleum
max
maxima
maximilian
maximus
maxwell
maxwelli
may
maydell
mayer
maz
mazciems
mb
mba
mbab
mbama
mbas
mbavad
mbe
mbejo
mber
mberehitus
mberlu
mbermo
mberpo
mberringi
mbert
mberto
mbertru
mbit
mblik
mbol
mboleid
mboli
mbolid
mboliks
mbolina
mboliseerib
mboliseeris
mboliseerivad
mbolit
mbolite
mboolika
mboolne
mboolse
mboolsesse
mbritseb
mbritses
mbritsesid
mbritsetud
mbritsev
mbritseva
mbritsevad
mbritsevast
mbritsevat
mbritsevate
mbrus
mbruse
mbruses
mbrusest
mbruskonna
mbruskonnas
mbrusse
mbrust
mbus
mc
mccartney
mcdonald
mclaren
md
me
mea
meaning
measurement
mecklenburg
mecklenburgi
med
meda
medal
medaleid
medali
medalid
medaliga
medaliheitlusest
medaliklassi
medalit
medalitabel
medalivo
media
mediaan
mediaanvanus
medical
medici
medicina
medicine
medieval
meditatsioon
meditsiin
meditsiini
meditsiiniauhinna
meditsiinidoktor
meditsiiniline
meditsiinilise
meditsiinio
meditsiinis
meditsiiniso
medium
medvedev
mee
meedia
meedias
meeksi
meel
meelde
meeldeja
meeldi
meeldib
meeldinud
meeldis
meeldiv
meeldiva
meeldivad
meele
meeleavaldajad
meeleavaldajate
meeleavaldus
meeleavalduse
meeleavaldused
meeleavaldusel
meeleavalduste
meeled
meelega
meeleheitel
meelel
meelelahutus
meelemo
meeleolu
meelepa
meeles
meelest
meelestatud
meeletu
meeli
meelis
meelitab
meelitada
meelitas
meelsasti
meelt
meelte
meeltega
meenemu
meenutab
meenutada
meenutades
meenutas
meenutav
meenutavad
meer
meeri
meerid
meeride
mees
meesko
meeskond
meeskonda
meeskondade
meeskondlik
meeskondlikult
meeskonna
meeskonnad
meeskonnaga
meeskonnal
meeskonnale
meeskonnaliiget
meeskonnaliikmed
meeskonnas
meeskonnast
meeskonnavo
meeskoor
meeskoori
meeskoorile
meesliinis
meesna
meespeaosata
meessoost
meest
meeste
meestega
meestel
meestele
meestest
meet
meeter
meetmed
meetmeid
meetmete
meetod
meetodeid
meetodi
meetodid
meetodiga
meetodiks
meetodil
meetodist
meetodit
meetodite
meetoditega
meetoditest
meetri
meetril
meetrine
meetrini
meetrise
meetrit
mega
mehaanika
mehaaniline
mehaanilise
mehaanilised
mehaaniliselt
mehaanilisi
mehaanilist
mehaaniliste
mehe
mehed
mehega
meheks
mehel
mehele
meheline
mehelise
mehena
mehenimed
mehenimi
mehest
mehhaniseeritud
mehhanism
mehhanisme
mehhanismi
mehhanismid
mehhanismide
mehhiko
mehhikos
mehi
mehike
mehikoorma
mehis
mehitamata
mehitatud
mehmed
mei
meid
meie
meiega
meier
meierei
meiji
meil
meile
mein
meinhard
meis
meist
meister
meistersportlane
meistri
meistrid
meistriks
meistrile
meistriliiga
meistriliigas
meistrite
meistritiitli
meistrivo
meißeni
mel
melanie
melbourne
melchior
melissa
meloodia
member
membraan
membraani
memento
memmekene
memoriaal
memorial
memoriam
memory
memphis
memuaarid
men
menar
mendelssohn
mene
menetlus
menetluse
menetluses
menetlusse
menon
mens
ment
mental
menu
mer
mera
meraas
meraasi
mercedes
mercia
mercury
merd
mere
merea
mereakadeemia
merega
merejalava
merejo
merekindluse
merekooli
merel
merelahing
merelahingus
merele
merelt
merema
meremaa
meremaal
meremees
meremeeste
meremehed
meremiili
mereni
mereo
merepa
merepinna
merepinnast
merepo
merero
meres
mereso
merest
mereva
merevee
meri
merike
meriku
merila
merit
meriva
merkel
merkuur
merkuuri
merle
merpalu
merre
mers
meru
mes
mesi
mesilased
mesilaste
mesopotaamia
mesopotaamias
messenger
messi
messier
messina
met
meta
metaan
metaani
metabolism
metabolismi
metafu
metal
metall
metalle
metalli
metallica
metallid
metallide
metallikunstnik
metallist
metallito
metallurgia
metaphysics
meteoroloogia
method
methods
metodisti
metodoloogia
metoodika
metro
metroo
metroojaam
metropoliidi
metropoliit
metropolitan
metropolitana
mets
metsa
metsad
metsade
metsades
metsadest
metsaga
metsakaitseala
metsakalmistul
metsakalmistule
metsaku
metsamajanduse
metsandik
metsandus
metsanduse
metsaraie
metsas
metsast
metsateadlane
metsato
metsau
metsavend
metsavendade
metsavennad
metsi
metsik
metsiku
metskond
metskonna
metskonnad
metsku
metslang
metsosopran
metspalu
metsseal
mett
metu
mexico
meyer
mez
mf
mfiso
mfisu
mfoonia
mfooniaorkester
mfooniaorkestri
mfooniaorkestrile
mfooniat
mfooniline
mfotsu
mg
mh
mhz
mi
mia
miami
michael
michaeli
michal
michał
michel
michelangelo
michele
michelle
michelson
michigan
michigani
mick
mickwitz
micro
microsoft
microsofti
mid
mida
midagi
middle
middlesbrough
mide
midi
midnight
midtown
mie
mieszko
mig
miga
migratsiooni
miguel
migueli
migun
miha
mihai
mihail
mihhail
mihhailovits
mihkel
mihkelson
mihkli
miikaeli
miili
miilits
miilitsa
miina
miini
miinimum
miinimumtemperatuur
miitavi
mika
mikael
mike
mikelsaar
mikita
mikitama
mikiver
mikk
mikko
mikołaj
mikro
mikrobioloog
mikrobioloogia
mikrofoni
mikroneesia
mikroobide
mikroorganismid
mikroorganismide
miks
mikser
mil
milan
milani
milano
milanos
mile
miles
militaarehitised
military
miljard
miljardi
miljardit
miljo
miljon
miljona
miljoneid
miljoni
miljonid
miljonile
miljonit
mill
millal
millalgi
mille
millega
millegagi
millegi
millegipa
milleks
millekski
millel
millele
millelegi
millelt
milleni
millennium
miller
milleri
milles
milleski
millesse
millest
millestki
milleta
milli
millimeetrit
milline
million
millise
millised
milliseid
millisel
millises
millist
milliste
mills
milos
milton
milvi
milwaukee
mimaa
mimaal
min
mina
minagi
minas
mind
mindi
mine
mineiro
minek
minekut
minema
mineraal
mineraale
mineraali
mineraalid
mineraalide
mineral
mineraloogia
minevik
minevikku
mineviku
minevikus
minevikust
minge
mingeid
mingi
mingid
mingil
mingile
mingis
mingist
mingisugune
mingisuguse
mingisugust
mingit
mingite
mini
minimaalne
minimaalse
minimaalselt
ministeerium
ministeeriumi
minister
ministri
ministrid
ministries
ministriks
ministrite
minna
minnakse
minnes
minnesota
minor
minose
minsk
minski
minskis
minu
minuga
minul
minule
minult
minus
minust
minut
minuti
minutiga
minutil
minutis
minutit
mio
mir
mirabilia
miranda
mirjam
mirko
mirna
miro
miroslav
mirror
mis
mise
misega
miseks
misel
mises
misest
misha
misja
misjona
misjonito
miski
mispa
mispeale
miss
missa
mission
missioon
missiooni
missioonid
missioonil
mississippi
misso
missouri
missugune
missuguse
missugused
mist
mistahes
misto
mit
mitau
mitchell
mithridates
mitme
mitmeaastane
mitmed
mitmeha
mitmeid
mitmekesine
mitmekesisus
mitmekesisuse
mitmekesisust
mitmekordne
mitmeks
mitmeku
mitmel
mitmele
mitmeotstarbeline
mitmes
mitmesse
mitmest
mitmesuguse
mitmesugused
mitmesuguseid
mitmesugust
mitmesuguste
mitmesugustel
mitmesugustes
mitmeta
mitmete
mitmetel
mitmetele
mitmetes
mitmetest
mitmeti
mitmevo
mitmus
mitmuse
mitmuses
mits
mitsubishi
mitt
mitte
mitteametlik
mitteametlikult
mitteilungen
mitteso
mitteta
mittetulundusu
mitu
mituku
mitusada
mitut
mix
mk
ml
mln
mm
mma
mmanud
mmargune
mmargused
mmastik
mmastikku
mmastiku
mmata
mmatakse
mmates
mmati
mmatud
mme
mmeetria
mmeetriline
mmeetrilise
mmeetrilised
mmekond
mmel
mmend
mmer
mmet
mmi
mmik
mmil
mmku
mmu
mn
mnaasium
mnaasiumi
mnaasiumiks
mnaasiumis
mne
mneaastane
mneaastase
mned
mneid
mneks
mnel
mnele
mnenda
mnendal
mnendate
mnendatel
mnendi
mnendid
mnendil
mnenditel
mnes
mnesse
mnest
mnete
mnetel
mnevo
mni
mnt
mo
mobiilne
mobiilse
mobiiltelefoni
mobile
mobilisatsiooni
mobiliseeriti
mobiliseeritud
mobutu
mod
mode
model
modell
modelleerimine
modellid
models
modena
modern
modernismi
modernse
modifikatsioon
modifikatsioonid
modifitseeritud
moe
moekunstnik
moel
moes
moh
mohamed
mohammed
moi
mois
moks
mokslo
mol
moldaavia
moldova
moldovas
mole
molecular
molekul
molekulaarbioloog
molekulaarbioloogia
molekulaarne
molekule
molekuli
molekulid
molekulide
molekulis
molie
molina
moll
moloogia
molotov
molotovi
molu
moment
mon
mona
monaco
monacos
monarh
monarhi
monarhia
monarhid
monde
monet
money
monferrato
mongoli
mongolid
mongolite
mongoolia
mongoolias
monica
monika
mono
monofu
monograafia
monroe
monster
mont
montaaz
montana
monte
montenegro
montenegros
montgomery
montpellier
montre
montreal
monumendi
monument
mood
moodi
moodne
moodsa
moodul
mooduli
moodulid
moodus
moodusta
moodustab
moodustada
moodustades
moodustama
moodustamine
moodustamise
moodustamisega
moodustamiseks
moodustamisel
moodustamist
moodustanud
moodustas
moodustasid
moodustatakse
moodustati
moodustatud
moodustavad
moodustavate
moodustub
moodustumine
moodustumise
moodustumist
moodustunud
moodustus
moodustusid
moodustuvad
moon
moonika
moonutatud
moor
moora
moore
mooses
moosese
mooste
mootor
mootoreid
mootori
mootorid
mootoriga
mootorit
mootorite
mootorso
moraal
moraali
moraalifilosoofia
moraalne
moraalse
moraalsed
moraalselt
moraalset
moral
morales
morality
morava
mordva
more
moreno
morfoloogia
morgan
mori
moritz
morning
morozov
morris
morrison
morton
mos
mosambiigi
moscow
moses
moskva
moskvas
moskvasse
moskvast
moslemid
moslemite
moss
most
mother
motiiv
motiive
motiivi
motiivid
motiivide
motion
motivatsioon
motivatsiooni
motiveerib
motiveeritud
moto
motor
motoriseeritud
motorola
motors
motorsport
motosportlane
motsu
mount
mountain
move
movement
movie
mozart
mozarti
mozilla
mp
mpa
mpeg
mpia
mpiaad
mpiakomitee
mpiakulla
mpial
mpiama
mpiarekord
mpiarekordi
mpiavo
mptomeid
mptomid
mptomite
mpumalanga
mr
mri
mrna
mrs
ms
msa
msalt
mstislav
mstislavits
mt
mtdna
mtu
mtv
mu
muc
mucha
mud
muda
mudel
mudeleid
mudeli
mudelid
mudeliga
mudelil
mudelile
mudelis
mudelist
mudelit
mudelite
mudelitel
muga
mugav
muh
muhammad
muhu
muid
muide
muidki
muidu
muidugi
muinas
muinasaja
muinasajal
muinasjutt
muinasjutte
muinasjutud
muinaskalmed
muinaslinnus
muinaslinnused
muinsuskaitse
muinsuskaitseameti
muinsusma
muist
muiste
muistised
muistne
muistse
muistsed
muistsete
muiz
mujal
mujale
mujalgi
mujalt
muks
mul
muld
mulda
muldade
muldadel
mulgi
mulje
muljet
mull
mulla
mullad
mullas
mullast
mulle
multi
multimeedia
mun
muna
munad
munade
munama
mune
muneb
munga
mungad
munitsipaalrajoon
munk
munkade
munna
mura
murad
muraka
murat
murd
murda
murde
murded
murdeid
murder
murdes
murdis
murdja
murdmaa
murdmaasuusataja
murdmaasuusatajad
murdmaasuusatamine
murdnud
murdoch
murdsid
murdumisna
mure
mured
mures
muret
muretseda
muretsema
muretses
muri
murmanski
murphy
murrab
murray
murre
murret
murrete
murretes
murru
murtud
muru
mus
musa
muse
museo
muses
museum
music
musica
musical
musik
musk
musketa
muslimite
mussolini
must
musta
mustad
mustade
mustafa
mustaks
mustal
mustale
mustama
mustanahalisi
mustanahaliste
mustas
mustast
muster
musti
mustja
mustjala
mustjo
mustla
mustlased
mustlasi
mustpeade
mustra
mustreid
mustri
mustrid
mustriga
mustrit
mustrite
mustvee
mutatsioon
mutatsioonid
mutt
muu
muud
muuda
muudab
muudatus
muudatuse
muudatused
muudatusi
muudatuste
muudatustega
muudavad
muude
muudel
muudele
muudes
muudest
muudetakse
muudeti
muudetud
muuga
muuhulgas
muul
muule
muuli
muundab
muundatud
muus
muusa
muuseas
muuseum
muuseumi
muuseumid
muuseumide
muuseumides
muuseumile
muuseumis
muuseumist
muuseumito
muusik
muusika
muusikaakadeemia
muusikaauhinnad
muusikaga
muusikakeskkooli
muusikakool
muusikakooli
muusikakoolis
muusikal
muusikale
muusikali
muusikaline
muusikalis
muusikalise
muusikalist
muusikaliste
muusikao
muusikapedagoog
muusikapedagoogid
muusikaprodutsent
muusikas
muusikasse
muusikast
muusikat
muusikateadlane
muusikateooria
muusikau
muusikavideo
muusikaz
muusiku
muusikud
muusikuid
muusikute
muust
muuta
muutes
muutis
muutlik
muutma
muutmata
muutmine
muutmise
muutmisega
muutmiseks
muutmisel
muutmist
muutnud
muutsid
muutu
muutub
muutuda
muutudes
muutuja
muutujad
muutujate
muutuks
muutuma
muutumatu
muutumatuna
muutumine
muutumise
muutumisest
muutumist
muutunud
muutus
muutuse
muutused
muutusi
muutusid
muutust
muutuste
muutustega
muutustele
muutustest
muutuv
muutuva
muutuvad
mv
mw
mx
my
myanmari
mycobacterium
myspace
mystery
myth
n
na
naaber
naabermaakonnad
naabervallad
naabri
naabrid
naabrite
naabruses
naad
naamika
naamikat
naamiline
naamilise
naamilised
naamiliselt
naamilist
naan
naani
naaseb
naasid
naasis
naasmist
naasnud
naasta
naastes
naatriumi
nab
nabala
nabla
nach
nachrichten
nacional
nad
nade
nadega
nadeks
nadel
nadele
nades
nadest
nadez
nael
naela
naelsterlingi
naelsterlingit
naene
naer
naerab
naeratades
naeratas
naeratus
naerda
naerdes
naeris
naerma
naeru
naeruva
nafraas
nafta
naftat
naftato
naga
nagel
nagi
nagoog
nagu
nagy
naha
nahaga
nahakunstnik
nahal
nahale
nahast
nahava
nahk
nahka
nahkhiir
nahkhiirte
nahkur
nai
naine
nais
naise
naised
naisega
naiseks
naisel
naisele
naisena
naisenimed
naisenimi
naisest
naishinge
naisi
naisko
naiskodukaitse
naiskond
naiskonna
naiskoor
naismaletajad
naisna
naiso
naispeaosata
naissaare
naissoo
naissoost
naist
naiste
naistega
naistel
naistele
naisterahvas
naistest
naisu
naja
najal
najalg
nak
nakatumine
nakatumise
nakatunud
nakatunut
nakatunute
nakkus
nakkuse
nakkushaiguste
naks
nal
nale
nali
naline
naliselt
nalja
naljakas
nalt
nam
nama
name
names
namiibia
namo
nams
namu
namuri
nan
nana
nancy
nane
nano
nantes
nao
napa
napilt
napole
napoleon
napoleoni
napoli
napolis
naraamat
naraamatu
narkootikumide
naro
narr
narva
narvas
narvast
narwa
nas
nasa
nasdaq
nase
naseks
naseletusi
naseni
nashville
naso
nassau
nassilma
nast
nastada
nastas
nastasja
nastatud
nastia
nastiale
nastiast
nastik
nastiku
nastus
nat
natali
natalia
natalie
natalja
nathan
nation
national
nationale
nations
nato
natsi
natside
natsionaalsotsialistliku
natsionaliseeriti
nattoke
nattokesse
natu
natuke
natukene
natukese
natura
naturaalarvude
natural
nature
nau
nauding
naudingu
naudingut
nauru
nautida
nav
nava
navad
navaga
navaid
navaks
naval
navale
navalt
navana
navani
navanimed
navara
navarra
navas
navast
navat
navate
navatel
navatele
navesti
navo
navu
nazionale
nb
nba
nbc
nberg
nbergi
ncbi
nchen
ncheni
nchenis
nchez
ncipe
nd
nda
ndab
ndad
ndagi
ndail
ndaja
ndajad
ndajana
ndajate
ndama
ndamine
ndamise
ndamiseks
ndamist
ndas
ndasid
ndate
ndatel
ndatest
ndav
ndava
ndavad
nde
ndebele
nded
ndeks
ndel
nder
ndes
ndez
ndi
ndid
ndida
ndide
ndides
ndiga
ndil
ndile
ndima
ndimine
ndimise
ndimist
ndimuse
ndinu
ndinud
ndis
ndische
ndischen
ndisches
ndisid
ndisse
ndist
ndmus
ndmuse
ndmused
ndmuseks
ndmusest
ndmusi
ndmust
ndmuste
ndmustega
ndmustel
ndmustele
ndmustest
ndor
ndra
ndrahn
ndrahnud
ndroom
ndroomi
ndroomiga
ndsaks
ndur
ne
neal
near
nebraska
nebst
neburg
neburgi
nec
ned
neda
nede
nedel
nedele
nederland
nedes
nedest
nedz
need
needki
needsamad
needus
neelab
neem
neeme
neemed
neenetsi
neeru
neerude
neeruti
neesia
neetud
neeva
nega
negatiivne
negatiivse
negatiivsed
negatiivseid
negatiivseks
negatiivselt
negatiivset
negatiivsete
negi
negoodid
negootide
nehatu
nei
neid
neidu
neil
neile
neill
neilt
neis
neisse
neist
neitsi
neiu
neiud
neiuna
neiupo
nek
nekaldal
nekeeles
nekroloog
neks
neku
nekustamo
nel
nelda
neldakse
neldi
nele
neleb
neleja
nelejad
nelejaid
nelejat
nelejate
nelema
neles
nelesid
nelevad
nelgilised
neli
neliku
nelinurkne
nelinurkse
nelipu
nelja
neljakordne
neljaks
neljaku
neljal
neljale
neljanda
neljandaks
neljandal
neljandale
neljandas
neljandat
neljapa
neljapaadil
neljas
neljast
neljateistku
nella
nelli
nelson
nelsoni
nelused
nelusi
nemaa
nemaal
nemad
nemere
nemerel
nemeres
nemeresoome
nemeri
nemets
nemo
nemunase
nen
nenda
nende
nendega
nendeks
nendel
nendele
nendelt
nendes
nendesse
nendest
neo
neodu
neoliitikumi
neosa
neosas
nepal
nepali
nepalis
nepoolne
nepoolse
neptuuni
ner
neranna
nerannikul
neriikide
nerinde
nerindel
nerman
nero
nerva
nes
nese
nesid
nest
nestor
net
neti
nets
network
neu
neue
neumann
neuronite
neuropsu
neustadt
neutraalne
neutraalse
neutraalseks
nev
nevada
never
nevo
nevski
new
newcastle
news
newton
newtoni
next
nexus
ney
nez
nfsv
nft
ng
nga
ngad
ngalt
ngas
ngasse
ngast
ngaste
ngc
nge
ngel
ngi
ngib
ngida
ngides
ngija
ngijad
ngijaid
ngijaks
ngijal
ngijale
ngijana
ngijat
ngijate
ngijatele
ngijatest
ngima
ngimine
ngimise
ngimiseks
ngimist
nginud
ngis
ngisid
ngitakse
ngiti
ngitud
ngiv
ngivad
ngo
ngu
nguaega
ngud
ngude
ngudega
ngudeks
ngudel
ngudele
ngudelt
ngudes
ngudest
ngufilm
ngufilmi
ngufilmis
nguga
nguks
ngul
ngule
ngus
ngust
ngutulemused
nguva
nh
nhl
ni
nia
nica
nicaragua
niccolo
nice
nicholas
nicht
nick
nico
nicola
nicolae
nicolai
nicolas
nicolaus
nicole
nid
nide
nie
niels
nielsen
nietzsche
nig
niga
nigeeria
nigeerias
nigel
niger
nigeri
night
nigi
nigol
nigra
nigsberg
nigsbergi
nigul
nigula
niguliste
nihe
nihkus
nii
niidu
niigi
niiha
niikaua
niikuinii
niiluse
niimoodi
niina
niinimetatud
niipalju
niipea
niisama
niisamuti
niisiis
niiske
niiskus
niiskuse
niiskust
niisugune
niisuguse
niisugused
niisuguseid
niisugusel
niisuguses
niisugust
niisuguste
niisuke
niit
niitudel
niiviisi
niivo
nija
nik
nika
nikaia
nike
nikephoros
nikerdatud
niki
nikita
nikkel
niko
nikola
nikolai
nikolajev
nikolajevits
nikolaus
nikolause
nikomachose
nikon
nikord
nikov
niks
niku
nil
nile
nils
nilsson
nim
nimaa
nimaal
nime
nimed
nimede
nimedega
nimedest
nimega
nimekiri
nimekirja
nimekirjad
nimekirjas
nimekirjast
nimeks
nimekuju
nimekujud
nimel
nimele
nimeline
nimelise
nimeliselt
nimelises
nimelist
nimelt
nimena
nimepa
nimes
nimesid
nimest
nimestik
nimeta
nimetab
nimetada
nimetades
nimetama
nimetame
nimetamine
nimetamise
nimetanud
nimetas
nimetasid
nimetata
nimetatakse
nimetatav
nimetati
nimetatud
nimetavad
nimetu
nimetus
nimetuse
nimetused
nimetusega
nimetuseks
nimetusest
nimetusi
nimetust
nimetuste
nimetut
nimi
nimiso
nimistu
nimistus
nimistusse
nimiva
nin
nina
ninck
nine
ning
ningad
ningaid
ningal
ningast
ningate
ningatel
ningates
nini
ninja
nino
nintendo
nio
nipernaadi
nirk
nis
nisma
nissan
nissi
nisso
nisson
nissoni
nist
nistas
nistati
niste
nisu
niz
nk
nka
nkad
nkal
nklik
nkumine
nkumise
nkvd
nl
nla
nlad
nlib
nlkp
nm
nn
nna
nnak
nnaku
nnakud
nnakuga
nnakuid
nnakuks
nnakul
nnakule
nnakus
nnakust
nnakut
nnakute
nnakutega
nnakutes
nnanud
nnap
nnapuu
nnata
nnates
nnati
nne
nneks
nnelik
nnelikud
nnelikuks
nnelikult
nnest
nnestu
nnestub
nnestumine
nnestumise
nnestunud
nnestunult
nnestus
nnestusid
nnet
nnetu
nnetus
nnetuse
nnetused
nnetuses
nnetusi
nnetust
nnetuste
nni
nniaastapa
nniaeg
nnib
nnid
nnide
nniga
nnija
nnik
nnikhusen
nniks
nniku
nnil
nnilised
nninimega
nninimi
nnipa
nnis
nnist
nnistati
nnistatud
nnitab
nnitas
nnivad
nno
nnu
no
noa
noaga
noah
noarootsi
nobel
nobeli
noble
noblessneri
noe
noel
noh
noir
noise
nokaudiga
nokia
nokk
nomenclature
nomenklatuur
nominatsioon
nominatsiooni
nomineeritud
nominendid
nominent
non
nonu
nood
noodi
noodid
nool
noor
noore
noored
noorel
noorele
noorelt
noorem
noorema
nooremad
nooremale
nooremat
nooremate
nooremehe
nooremleitnant
nooremteadur
noorena
noores
noorest
noori
noorik
noorim
noorima
noorma
noormees
noormehe
noormets
noorpo
noorsoo
noorsooteater
noorsooteatris
noorsooto
noort
noorte
noorteakadeemiaga
noorteba
noortekeskus
noorteklubis
noortel
noortele
noortest
noorus
nooruse
nooruses
noot
nora
norbert
nord
nordea
nordi
nordic
nordisk
nordrhein
norm
norma
normaalma
normaalne
normaalse
normaalseks
normaalselt
normaalset
norman
normandia
normann
normanni
normannid
normannide
norme
normet
normi
normid
normide
norra
norras
norrasse
norrast
norrat
norris
norske
north
northern
norton
norway
norwegian
norwich
nos
not
notar
notari
notarite
note
noteeritud
notes
nothing
notoc
notre
nottingham
nou
nous
nov
nova
novaator
novads
novaja
novel
novell
novelle
novelli
novellid
novellikogu
november
novembri
novembril
novembrini
novembris
novembrist
novgorod
novgorodi
novgorodis
novi
novikov
novo
novodevits
novosibirski
novosti
now
nowy
nr
ns
nsa
nsdap
nsi
nster
nsteri
nsus
nsuse
nsust
nsv
nsvl
nt
ntaks
nte
ntees
nteesi
nteesida
nteesiks
nteesis
nteesitakse
nteesitud
nteesivad
nteetiline
nteetilise
nteetilised
nteetiliste
nter
ntesaator
ntgenikiirguse
nthal
nther
nti
ntide
ntu
nu
nuclear
nud
nuga
nuia
nukiri
nukitsamees
nukk
nukleotiidi
nuku
nukuteater
nul
nulg
nulik
nulka
null
nulli
nulliga
nullist
num
number
numbers
numbreid
numbri
numbrid
numbriga
numbris
numbrit
numbrite
numbritega
numeid
numi
numid
numit
numite
numitooja
nunn
nupp
nuppu
nupu
nupud
nur
nurga
nurgad
nurgakivi
nurgal
nurgas
nurgast
nurjus
nurk
nurka
nurkade
nurme
nursi
nus
nused
nuseid
nuste
nuta
nutitelefoni
nutma
nutt
nuttis
nvidia
ny
nya
nyc
nygren
nyi
nyman
o
oandu
ob
obama
oberstdorfis
obersturmbannfu
obersturmfu
obi
obinitsa
object
objekt
objekte
objekti
objektid
objektide
objektidega
objektidele
objektidest
objektiga
objektiivi
objektiivne
objektiivse
objektiivselt
objektiivset
objektiks
objektile
objektina
objektist
oblast
oblasti
oblastiga
oblastikomitee
oblastis
oblastisse
oblomov
oblomovi
observatoorium
observatooriumi
observatooriumis
ocean
och
oct
october
od
oda
odav
odavam
odavamad
odavise
odaviskaja
odaviskes
ode
oder
odessa
odessas
odra
odu
odysseus
oecd
oesel
of
off
office
official
officinalis
og
oga
ogre
oh
ohio
ohkas
oht
ohtlik
ohtlike
ohtlikke
ohtliku
ohtlikud
ohtlikuks
ohtralt
ohtu
ohtude
ohtuleht
ohu
ohud
ohuks
ohus
ohustab
ohustatud
ohustavad
ohutu
ohutus
ohutuse
ohver
ohverdati
ohvitser
ohvitsere
ohvitseri
ohvitserid
ohvitseride
ohvitserina
ohvreid
ohvri
ohvriallikas
ohvrid
ohvrikivi
ohvriks
ohvrit
ohvrite
oi
oikumeenilise
oil
oinas
ois
oise
oit
oja
ojaka
ojamaa
ojasoo
ojuland
ok
oka
okas
okaspuu
oke
okeaania
oki
okk
okkad
oklahoma
okolaadi
oks
oksa
oksad
oksana
oksendamine
oksiid
oksitaani
oksjonil
okste
oksu
okt
oktoober
oktoobri
oktoobriks
oktoobril
oktoobrini
oktoobrirevolutsiooni
oktoobris
oktoobrist
okupatsioon
okupatsiooni
okupatsioonide
okupatsiooniva
okupatsioonivo
okupeerimist
okupeeris
okupeerisid
okupeeritud
ol
ola
olaf
olari
olav
olavi
old
oldenburg
oldenburgi
oldi
oldud
ole
oled
oleg
olegi
olek
oleks
oleksandr
oleksid
oleksime
oleksin
oleksite
oleksiwad
oleku
olekus
olekusse
olekust
olekut
olema
olemas
olemasolev
olemasoleva
olemasolevad
olemasolevaid
olemasolevat
olemasolevate
olemasolu
olemasolul
olemasolule
olemasolust
olemast
olematu
oleme
olemine
olemise
olemisest
olemist
olemus
olemuse
olemuselt
olemusest
olemuslik
olemuslikult
olemust
olen
olend
olendeid
olendi
olendid
olendite
oleneb
olenemata
olenevalt
oles
olesk
oletab
oletada
oletame
oletas
oletatakse
oletatavasti
oletatud
olete
olev
oleva
olevad
olevaid
olevaks
oleval
olevale
olevas
olevasse
olevast
olevat
olevate
olevatel
olevatele
olevatest
olevi
olevik
oleviku
olevikus
oleviste
olewat
olga
olge
olgu
olgugi
oli
olid
oligi
olime
olin
oline
olion
oliseks
oliselt
olisem
olisemalt
oliveira
oliver
olivia
olivier
oliwad
oll
olla
ollakse
olle
ollema
olles
olli
ollino
olnd
olnud
olnuks
olof
oloog
oloogia
olovernes
olsen
olt
olu
olud
olude
oludes
olukord
olukorda
olukordade
olukordades
olukordi
olukorra
olukorraga
olukorrale
olukorras
olukorrast
oluline
olulise
olulised
oluliseks
olulisel
oluliselt
olulisem
olulisemad
olulisemaid
olulisemaks
olulisemate
olulisi
olulisim
olulist
oluliste
olulisteks
olulisus
olulisust
olustvere
olympiako
olympic
olympique
om
oma
omab
omad
omada
omade
omadega
omades
omadest
omadus
omaduse
omadused
omadusi
omadusso
omadust
omaduste
omadustega
omadustele
omadustelt
omadustest
omaenda
omaenese
omaette
omaga
omakaitse
omakasu
omakorda
omaks
omaksvo
omal
omale
omalt
omama
omamine
omamoodi
omana
omand
omandab
omandada
omandades
omandama
omandamine
omandamise
omandamiseks
omandamist
omandanud
omandas
omandasid
omandatud
omandavad
omandi
omandio
omandisse
omanduses
omandusse
omane
omanik
omanike
omanikeks
omanikele
omanikke
omanikku
omaniku
omanikud
omanikuks
omanikule
omanimelise
omanud
omapa
omar
omas
omase
omased
omaseid
omasid
omast
omaste
omava
omavad
omavahel
omavaheline
omavahelise
omavahelised
omavahelisi
omavahelist
omavaheliste
omavalitsus
omavalitsuse
omavalitsused
omavalitsuseks
omavalitsuses
omavalitsust
omavalitsuste
omavalitsustegelane
omavalitsusu
omavanuste
omega
ometi
ometigi
omi
omistab
omistada
omistatakse
omistati
omistatud
omma
omolungma
omski
on
ona
once
one
onepage
ongi
oni
onion
onkoloogia
online
only
onomastika
ontario
onu
onupoeg
oo
ooberst
ooberstleitnant
oodanud
oodata
oodatakse
oodatav
oodates
oodati
oodatud
ookean
ookeani
ookeanide
ookeanil
ookeanis
ooper
oopereid
ooperi
ooperid
ooperilaulja
ooperilauljad
ooperimaja
ooperis
ooperit
oor
oota
ootab
ootama
ootamata
ootamatu
ootamatult
ootan
ootas
ootasid
ootavad
ootide
ootus
ootused
op
opel
open
opengl
opera
operaator
operaatori
operation
operatorname
operatsioon
operatsioone
operatsiooni
operatsioonid
operatsioonide
operatsioonis
operatsioonisu
opereerib
operett
opmann
opole
opositsioon
opositsiooni
optika
optiline
optilise
optilised
optiliste
optimaalne
optimaalse
optimeeritud
option
opus
or
ora
oracle
orajo
orange
oranje
oranz
oras
orav
orava
orbiidi
orbiidil
orbiidile
orbiit
orchestra
orden
ordeni
ordeniga
ordenit
ordens
order
ordered
ordineeris
ordineeriti
ordo
ordoviitsiumi
ordu
orduga
ordule
ordulinnus
ordulinnuse
ordumeister
ordumeistri
orduru
ordusse
ordut
orduva
oregoni
orel
oreli
orelile
orelit
orenburgi
org
orgaaniline
orgaanilise
orgaanilised
orgaanilises
orgaanilisi
orgaanilist
orgaaniliste
organ
organi
organic
organid
organisation
organisatsioon
organisatsioone
organisatsiooni
organisatsioonid
organisatsioonide
organisatsioonidega
organisatsioonidele
organisatsioonides
organisatsiooniga
organisatsioonile
organisatsioonis
organisatsioonist
organiseerida
organiseerimine
organiseerimise
organiseeris
organiseeriti
organiseeritud
organism
organisme
organismi
organismid
organismide
organismides
organismile
organismis
organist
organite
organization
orgu
ori
orientalist
orientatsiooni
orienteeritud
orienteeruja
orienteerumisjooksu
origin
originaal
originaali
originaalis
originaalne
originaalpealkiri
originaalpealkirjaga
original
origins
orion
orissaare
orja
orjad
orjade
orjoli
orjuse
orkaan
orkester
orkestri
orkestrile
orkestris
orlando
orle
orlov
ornitoloog
ornobo
oro
ors
orsini
orthodox
orto
oru
orud
orus
orust
os
osa
osad
osade
osadega
osadeks
osadel
osadele
osades
osadest
osaga
osaka
osakaal
osakaalu
osake
osakese
osakesed
osakesi
osakeste
osakestefu
osakond
osakonda
osakondade
osakonna
osakonnad
osakonnajuhataja
osakonnas
osaks
osal
osale
osaleb
osaleda
osaledes
osaleja
osalejad
osalejaid
osalejate
osalejatele
osalema
osalemast
osalemine
osalemise
osalemiseks
osalemisest
osalemist
osalenud
osales
osalesid
osaleti
osalevad
osalevate
osaline
osalise
osalised
osaliseks
osaliselt
osalist
osalt
osalus
osaluse
osalusega
osalusel
osalust
osana
osanud
osapool
osapoole
osapooled
osapoolte
osariigi
osariigid
osariigis
osariigist
osariik
osariiki
osariikide
osariikides
osas
osasid
osast
osata
osau
osav
osavo
osborne
oscar
oscari
oscarile
osce
osi
oska
oskab
oskar
oskas
oskavad
oskus
oskuse
oskused
oskusi
oskusso
oskust
oskuste
oslo
oslos
osmani
osmanid
osmanite
osmussaare
osnabru
ossa
osseetia
ossinovski
ost
osta
ostab
osten
osteti
ostetud
ostis
ostja
ostma
ostmine
ostmiseks
ostnud
ostrovi
ostsee
ostseeprovinzen
ostsid
ostu
osula
osus
osuse
osusega
osust
osutab
osutada
osutamine
osutamise
osutanud
osutas
osutatakse
osutatud
osutavad
osutub
osutuda
osutunud
osutus
osutusid
osutuvad
osvald
oswald
ot
otakar
otas
otava
otepa
other
oti
otimaa
otimaal
ots
otsa
otsad
otsaga
otsas
otsast
otse
otsekohe
otsekui
otsene
otsese
otsesed
otseseid
otseseks
otseselt
otseses
otsest
otseteed
otseto
otseu
otsi
otsib
otsida
otsides
otsima
otsimas
otsimine
otsimise
otsing
otsingud
otsinud
otsis
otsisid
otsitakse
otsiti
otsitud
otsivad
otstarbe
otstarbekas
otstarbeks
otstarbel
otstarve
otstes
otsus
otsuse
otsused
otsusega
otsuseid
otsusel
otsusele
otsuses
otsusest
otsust
otsustab
otsustada
otsustades
otsustama
otsustamine
otsustanud
otsustas
otsustasid
otsustatakse
otsustati
otsustatud
otsustav
otsustava
otsustavad
otsustavalt
otsustavat
otsuste
otsustus
otsustuse
otsustused
otsustusi
otsustusjo
otsustuste
otsustusvo
ott
otta
ottawa
otto
otuse
ou
oulu
our
out
ov
ova
ovaalse
ove
over
overline
overview
ovi
oviir
owen
owens
own
oxenstierna
oxford
oxfordi
oy
oz
ozols
p
pa
paadi
paadid
paadiga
paadrema
paal
paali
paapua
paar
paari
paarid
paaride
paarikaupa
paariku
paaril
paarile
paaris
paarisaerulisel
paarisma
paarisnumbrid
paaritu
paaritud
paarku
paarsada
paas
paat
paati
paavo
paavst
paavsti
paavstid
paavstide
paavstiga
paavstiks
paavstile
paavstilt
paavstliku
paber
paberi
paberil
paberile
paberit
paberito
paberivabrik
paberraha
pablo
pace
pacific
packard
pad
pada
padar
padise
padova
padrik
padrunit
pae
paekivi
paekivist
paet
pagan
pagana
paganad
paganate
pagari
pagasti
pagasts
page
pagendati
pages
pagulaste
paguluses
paha
pahaks
pahaloomuliste
pahameel
pahameele
pahameelt
pahe
pahema
pahlen
pai
paide
paides
paiga
paigad
paigal
paigaldada
paigaldamine
paigaldatakse
paigaldati
paigaldatud
paigale
paigas
paigast
paigus
paigutab
paigutada
paigutas
paigutatakse
paigutati
paigutatud
paiguti
paigutus
paik
paika
paikade
paikades
paikkond
paikneb
paikneda
paiknedes
paiknemine
paiknemise
paiknemist
paiknenud
paiknes
paiknesid
paiknev
paikneva
paiknevad
paiknevaid
paiknevat
paiknevate
paiku
paikuse
pain
paindlik
painting
pais
paisja
paista
paistab
paistavad
paistis
paistma
paistnud
paistsid
paistu
paisu
paisutatud
paja
paju
pajur
pajusalu
pajusi
pak
paketi
pakett
pakistan
pakistani
pakistanis
pakitud
pakk
pakkuda
pakkudes
pakkuja
pakkuma
pakkumine
pakkumise
pakkumist
pakkunud
pakkus
pakkusid
pakkuv
pakri
paks
paksem
paksu
paksud
paksune
paksus
paksuse
paksusega
paksust
pakt
pakti
paku
pakub
pakutakse
pakuti
pakutud
pakuvad
pal
pala
palace
palais
palamuse
palavik
palaviku
palazzo
paldiski
paldiskis
pale
palee
paleed
palees
paleontoloog
paleontoloogia
palermo
palestiina
palestiinas
palga
palgaso
palgata
palgati
palgato
palge
palgi
palivere
palja
paljad
paljaks
paljand
paljandid
paljas
paljaspea
paljassaare
paljastas
paljo
palju
paljud
paljude
paljudel
paljudele
paljudes
paljudesse
paljudest
paljuneb
paljunemine
paljunemise
paljunemist
paljunevad
paljus
paljusid
paljuski
palk
palka
palkas
pall
palladio
pallas
pallase
palli
palm
palma
palmer
palmi
palmse
palo
palu
palub
paluda
paludes
paluku
paluma
palun
palunud
paluoja
palupera
palus
palusalu
palusid
palustris
paluti
palve
palved
palvega
palvel
palvela
palvemaja
palvera
palvet
palwe
pama
pamiiri
pamiiris
pan
panama
panda
pandeemia
pandi
pandivaldus
pandivere
pandud
pandz
pane
paneb
paneks
panema
paneme
panemine
panen
panevad
paneve
pang
panga
pangad
pangandus
pangas
pangata
pange
pani
panid
panin
paniwad
pank
panka
pankade
pankroti
pankrotti
pankur
panna
pannakse
panne
pannes
panno
pannoonia
pannud
panoraam
panorama
panoramio
panso
pant
panther
pantis
pantone
pantvangi
panus
panuse
panust
panustada
panzer
paola
paolo
papa
pape
paper
papers
papp
pappel
papst
papu
par
para
paradigma
paradiis
paradiisi
paradise
paradoks
paradoksi
paragrahvi
paraguay
parajasti
paraku
paralleelne
paralleelsed
paralleelselt
parameeter
parameetreid
parameetrid
parameetrite
parandab
parandada
parandades
parandama
parandamine
parandamise
parandamiseks
parandamist
parandas
parandati
parandatud
parandus
parandused
parandusi
paraneb
paranemist
paranenud
paranes
paraolu
paras
parasjagu
parasvo
parata
paratamatu
paratamatult
paratamatus
paratamatuse
pardal
pardale
parem
parema
paremad
paremaid
paremaks
paremal
paremale
paremalt
paremas
paremasse
paremast
paremat
paremate
paremini
paremkaldal
parempoolne
parempoolse
parempoolsed
paremuselt
paremusja
parfu
pargi
pargid
pargis
pargist
pariis
pariisi
pariisis
pariisist
parim
parima
parimad
parimaid
parimaks
parimal
parimale
parimat
parimate
paris
park
parker
parki
parkide
parkides
parkinsoni
parkis
parlamendi
parlamendihoone
parlamendile
parlamendis
parlamendivalimised
parlamendivalimiste
parlamendivalimistel
parlament
parlamentaarne
parlamentaarse
parlamenti
parma
parmas
parrot
pars
part
partei
parteid
parteide
parteiga
parteile
parteis
parteisse
parteist
partia
partial
partii
partiid
partisanide
partner
partneri
partnerid
partneriks
partnerite
parts
partsi
party
parun
paruness
paruni
parv
parve
parvlaev
pas
pascal
pass
passi
passid
passiivne
passiivse
past
pasta
pastor
pastoraadi
pastorat
pastori
pastoriks
pasvaldibu
pat
pata
pataljon
pataljoni
pataljonis
pataljoniu
patarei
patareid
patendi
patent
patenteeris
path
patients
patkul
patoloogia
patria
patriae
patriarh
patriarhaadi
patriarhi
patricia
patrick
patroon
patsiendi
patsiendid
patsiendil
patsiendile
patsient
patsienti
patsientide
patsientidel
patsientidele
patt
pattu
pattude
patu
patud
patune
pau
paucker
paul
paula
pauli
pauline
paulista
paulo
paulos
pauls
paulucci
paulus
pauluse
paunku
paus
pausi
pavel
pavia
paviljon
pavlov
pavlovits
pax
payne
paz
pb
pc
pci
pcr
pd
pdf
pe
pea
peaaegu
peaaju
peaasi
peaasjalikult
peaassamblee
peab
peace
pead
peadirektor
peadirektori
peadirigent
peaga
peagi
peahoone
peahoones
peaingel
peak
peakirik
peakomitee
peakontor
peakorraldaja
peakorter
peakorteri
peakraav
peakraavi
peaks
peaksid
peaksime
peaksin
peal
peale
pealegi
pealetung
pealetungi
pealetungioperatsioon
pealik
pealiku
pealikud
pealinn
pealinna
pealinnad
pealinnaks
pealinnas
pealinnast
pealinnuse
pealkiri
pealkirja
pealkirjaga
pealt
pealtna
pealtvaatajat
peame
peamees
peamine
peaminister
peaministri
peaministrid
peaministriks
peaministrile
peaministrina
peamise
peamised
peamiseks
peamiselt
peamisest
peamisi
peamist
peamiste
peamisteks
pean
peana
peaosa
peaosades
peaosas
peaosata
peapiiskop
peapiiskopi
peapiiskopiks
peapiiskopile
peapiiskopkond
peapiiskopkonda
peapiiskopkonna
peapo
peapreemia
peaprokuro
pearl
pearson
pearu
peas
peasekreta
peasisseka
peasissepa
peaso
peast
peastaabi
peata
peatada
peatas
peatati
peate
peategelane
peategelase
peategelased
peatoimetaja
peatreener
peatreenerid
peatreeneriks
peatselt
peatu
peatub
peatuma
peatus
peatuse
peatused
peatusid
peatuvad
peava
peavad
peavalitsus
peavalitsuse
peavalu
peavarju
peawad
peb
pectore
pedagoog
pedagoogid
pedagoogika
pedagoogikateadlane
pedagoogikau
pedagoogiline
pedagoogilise
pedagoogilises
pedajas
pedersen
pedi
pedja
pedro
peedu
peegel
peegeldab
peegeldavad
peegeldub
peegeldunud
peegeldus
peegli
peen
peene
peened
peenike
peep
peer
peet
peeta
peetakse
peetav
peeter
peeti
peetri
peetrus
peetruse
peetud
pegasus
pehk
pehme
pehmed
pehmete
peidetud
peidus
peigmees
peipsi
peipsia
peirce
peirsol
peita
peitis
peitu
peitub
peking
pekingi
pekingis
pekka
pekki
peko
peksis
pele
pelga
pelgalt
pelgulinna
pelle
pellegrini
peloponnesose
pen
penaltiseerias
penelope
penguin
penikesseks
pennsylvania
pensiona
pensioni
pensionile
pentium
pentti
pentus
peo
peol
people
per
pera
perception
percy
pere
pered
perede
perega
pereira
perekond
perekonda
perekondade
perekondadest
perekondi
perekonna
perekonnad
perekonnaga
perekonnale
perekonnanime
perekonnanimed
perekonnanimede
perekonnanimega
perekonnanimeks
perekonnanimi
perekonnas
perekonnast
perele
peremees
peremeest
peremehe
peremehed
peremeheks
perenaine
perenaise
perenimi
peres
perest
perestroika
peret
perfect
performance
pergamoni
peri
period
periood
perioodi
perioodika
perioodiks
perioodil
perioodiliselt
perioodist
perkins
permi
perroon
perry
person
persona
personaalarvuti
personaalunioonis
personal
personali
personality
perspective
perspectives
perspektiivi
perspektiivis
peru
perugia
peruu
peruus
pes
pesa
pesad
pesapallur
pesas
pesast
pescara
pesi
pesitseb
pesitsemine
pesitsevad
pessa
pesta
pesti
pesu
pet
peta
petab
petada
petades
petaja
petajad
petajaid
petajaks
petajale
petajana
petajat
petajate
petajatele
petama
petamata
petamine
petamise
petamisega
petamiseks
petamisel
petamisest
petamist
petanud
petar
petas
petasid
petatakse
petati
petatud
petavad
pete
peter
peterburi
peterburis
peterburist
peters
petersburg
petersen
peterson
petersoni
petes
petit
petlane
petlased
petr
petra
petras
petri
petro
petrogradi
petrogradis
petrone
petrov
petrovits
petrovna
petrus
pets
petseri
petserimaa
petta
pettai
petter
pettunud
pettus
pettuse
petus
petuse
petused
petusega
petuseks
petusele
petuses
petusest
petusi
petust
petuste
peugeot
pevad
pevkur
pez
pfaltskrahv
pfalz
pfalzi
pffer
pg
ph
phane
phase
phd
phelps
phi
phil
philadelphia
philadelphias
philip
philipp
philippe
philippi
philippos
philips
phillips
philosophical
philosophie
philosophy
phoenix
phone
photo
photography
photos
php
phyllosticta
phys
physical
physics
pi
pia
pianist
pianistid
piano
piastide
piazza
pib
picasso
picea
pico
picture
pictures
pid
pidada
pidades
pidage
pidama
pidamata
pidamine
pidamise
pidamiseks
pidamist
pidanud
pidanuks
pidas
pidasid
pidavat
pide
pidest
pidev
pideva
pidevad
pidevalt
pidevas
pidevat
pidevate
pidi
pidid
pidin
pidiwad
pidu
pidulik
piduliku
pidulikult
pidupa
piduso
pidustused
pie
pieminekl
piemonte
pier
pierce
piero
pierre
piet
pieter
pietro
pigem
pigmendid
pigment
pihku
pihkva
pihkvas
pihkvasse
pihl
pihlak
pihlaka
pihlakas
pihlap
pihta
pihtla
piia
piibe
piibel
piibli
piiblis
piiblito
piiga
piik
piim
piima
piimato
piina
piip
piir
piirab
piirama
piiramatu
piiramine
piiramise
piiramiseks
piiramisel
piiramisro
piiramist
piirang
piirangud
piiranguid
piirangute
piiranguvo
piiranud
piiras
piirasid
piirata
piirati
piiratud
piiravad
piirdemu
piirdub
piirduda
piirdus
piire
piires
piiresse
piiri
piiria
piiriala
piirid
piiride
piirides
piiridesse
piiridest
piirikaitseru
piiriks
piiril
piirile
piirima
piirini
piiripunkt
piirissaare
piirist
piiritletud
piiritu
piiriu
piirivalve
piirivalveameti
piirkond
piirkonda
piirkondade
piirkondadeks
piirkondades
piirkondadesse
piirkondadest
piirkondi
piirkondlik
piirkondlike
piirkondliku
piirkondlikud
piirkonna
piirkonnad
piirkonnaga
piirkonnaks
piirkonnale
piirkonnas
piirkonnast
piirkonnau
piirkonniti
piirneb
piirnes
piirsalu
piirva
piisa
piisab
piisav
piisava
piisavad
piisavalt
piisavat
piiskop
piiskopi
piiskopid
piiskopiks
piiskopile
piiskopilinnus
piiskopilinnuse
piiskopkond
piiskopkonda
piiskopkonna
piiskopkonnad
piiskopkonnas
piiskopkonnast
piiskopp
piiskoppe
piiskoppi
piiskoppide
piiskoppidega
piiskoppidele
pik
pika
pikaaegne
pikaajaline
pikaajalise
pikaajalised
pikaajalist
pikad
pikaealine
pikaks
pikal
pikale
pikali
pikalt
pikas
pikast
pikavere
pikem
pikema
pikemad
pikemaid
pikemaks
pikemalt
pikemas
pikemat
pikemate
pikendada
pikendas
pikendati
pikendatud
piki
pikihoone
pikim
pikima
pikk
pikka
pikkade
pikkamisi
pikker
pikki
pikkja
pikknimy
pikkune
pikkus
pikkuse
pikkused
pikkusega
pikkuseks
pikkusel
pikkuselt
pikkuses
pikkusest
pikkust
piklik
pikliku
piksli
pikslit
pikslite
piku
pikud
pikuid
pikute
pilane
pilar
pilase
pilased
pilasega
pilaseks
pilasele
pilasena
pilasi
pilaskonna
pilasselts
pilast
pilaste
pilastega
pilastel
pilastele
pilastest
pildi
pildid
pildiga
pildil
pildis
pildistas
pilgrim
pilgu
pilguga
pilgul
piline
pilise
pilised
piliselt
pilistvere
pilk
pilku
pill
pille
pilli
pillid
pillima
pilliroog
piloodi
piloodid
piloot
pils
pilt
pilte
piltene
pilti
piltide
piltidega
piltidel
pilu
pilv
pilve
pilved
pilvede
pilvelo
pilvi
pilvik
pima
pime
pimeda
pimedad
pimedaks
pimedas
pimedate
pimedus
pimeduse
pimeduses
pin
pina
pind
pinda
pindade
pindala
pindalaga
pindalalt
pindalast
pindi
pine
ping
pinge
pinged
pingega
pingeid
pinget
pingete
pingi
pingud
pinguid
pingute
pini
pink
pinna
pinnad
pinnaga
pinnal
pinnale
pinnalt
pinnamood
pinnas
pinnase
pinnases
pinnasesse
pinnast
pinus
pio
pioneer
pioneeride
piotr
pipi
pippin
piraadid
piraatide
piret
pirgu
pirita
pirital
pisa
pisarad
pisaraid
pisi
pisike
pista
pistik
pistiku
pistis
pistmist
pisuha
pisut
pitakse
piti
pitka
pittsburgh
pitud
pius
piusa
pivad
piz
pjotr
pka
pkr
pl
pla
plaadi
plaadid
plaadifirma
plaadifirmaga
plaadil
plaadile
plaan
plaane
plaani
plaanib
plaanid
plaanide
plaanis
plaanist
plaanitakse
plaaniti
plaanitud
plaat
plaate
plaati
plaatide
plaatina
place
places
plahvatas
plahvatus
plahvatuse
plahvatuses
plan
plancki
planeedi
planeedid
planeedil
planeerimine
planeerimise
planeering
planeeringu
planeeriti
planeeritud
planeet
planeeti
planeetide
planet
planning
plant
plants
plasma
plastist
plata
plate
plato
platon
platoni
platoo
plats
platsi
platsil
platsile
platvorm
platvormi
platvormil
platvormile
play
player
playstation
plaza
plc
please
plettenberg
plettenbergi
plii
plik
plikku
pliku
plikuks
plikult
plinius
plo
ploki
plokk
plokkflo
ploom
plus
pluss
pluuto
plzen
pm
pmata
pmatrix
pmatu
pmatult
pmatus
pmatuse
pmatuseni
pmc
pmcid
pmeline
pmelise
pmid
pms
pne
png
po
pod
podkarpacie
podlaasia
podolski
poe
poed
poeem
poeemi
poeet
poeg
poega
poegade
poegadele
poegadest
poegi
poeglaste
poes
poest
poetry
pofu
pohja
pohjanmaa
pohla
point
poisi
poisid
poisile
poiss
poissi
poiste
poistekoor
poistele
poitiers
poja
pojad
pojaga
pojal
pojale
pojana
pojapoeg
pojast
poks
poksi
poksija
poksijad
poksis
poksivo
pol
polaaruurija
poland
polariseeritud
pole
polegi
poleks
polevat
polgu
police
policy
poliitbu
poliitik
poliitika
poliitikaga
poliitikale
poliitikas
poliitikasse
poliitikast
poliitikat
poliitiku
poliitikud
poliitikuid
poliitikute
poliitiline
poliitilise
poliitilised
poliitiliseks
poliitilisele
poliitiliselt
poliitilises
poliitilisest
poliitilisi
poliitilist
poliitiliste
poliitilistel
poliitilistest
poliitvalitsuse
political
politics
politoloog
politoloogia
politsei
politseiameti
politseijaoskond
politseile
politseinik
politseinike
politseinikku
politseinikud
politseipataljon
politseiprefektuur
politseiprefektuuri
politseis
politseiu
polizei
polk
polka
polkovnik
poll
polli
polnud
polo
polotski
polski
poltava
polu
pomises
pomm
pommeri
pommi
pommiru
pommitamise
pommitasid
pomorze
pompeius
pont
ponte
pontificalis
pontificalise
pontus
pood
poodi
poodiumile
poodiumit
pool
poola
poolaga
poolakad
poolakaid
poolakat
poolakate
poolale
poolas
poolasse
poolast
poolat
pooldab
pooldaja
pooldajad
pooldajaid
pooldajate
pooldanud
pooldas
pooldasid
poole
pooled
poolega
poolehoidu
pooleks
poolel
pooleldi
poolele
pooleli
poolelt
pooleni
pooles
poolest
poolestusaeg
poolfinaal
poolfinaali
poolfinaalid
poolfinaalis
pooli
poolkaitsja
poolkaitsjad
poolkaitsjana
poolko
poolmo
poolne
poolo
poolraskekaalus
poolsaar
poolsaare
poolsaared
poolsaarel
poolsaarele
poolsaarest
poolsaart
poolse
poolt
poolte
poolteist
pooltel
pooltha
poolvend
poom
pop
pope
popes
poplaulja
popmuusika
popov
popper
popperi
populaarne
populaarse
populaarsed
populaarseim
populaarseks
populaarsem
populaarsemad
populaarsemaid
populaarsemaks
populaarsus
populaarsuse
populaarsuselt
populaarsust
popular
populariseerija
populariseerimise
population
populatsioon
populatsiooni
populatsioonid
populatsioonide
populatsioonis
por
pordi
porfiri
porfu
pori
porkuni
poros
porsche
port
porta
portaal
portaali
portaalis
portal
porter
porti
portland
porto
portrait
portree
portreed
portreid
portugal
portugali
portugalis
portugallased
poruts
porvoo
positiivne
positiivse
positiivsed
positiivseid
positiivseks
positiivselt
positiivset
positiivsete
positsioon
positsioone
positsiooni
positsioonid
positsioonide
positsioonidele
positsioonil
positsioonile
positsioonis
poska
post
posti
postijaam
postimees
postimehe
postimehes
postkontor
postmark
postuumselt
potees
poteese
poteesi
poteesid
poteeside
potentsiaal
potentsiaali
potentsiaalne
potentsiaalse
potentsiaalselt
potsdami
potter
potteri
poulos
pour
powell
power
powerpc
poz
poznan
pp
ppa
ppaja
ppajad
ppar
ppas
ppe
ppeaasta
ppeaastal
ppeasutus
ppeasutuse
ppeasutused
ppeasutuste
ppeb
pped
ppeda
ppedes
ppeesma
ppega
ppehoone
ppejo
ppekava
ppekeelega
ppekeskus
ppeks
ppel
ppelaud
ppele
ppema
ppemise
ppemist
ppenud
pperada
ppes
ppesid
ppeto
ppetool
ppetooli
ppetoolis
ppeu
ppevahendeid
ppida
ppides
ppija
ppima
ppimine
ppimise
ppimiseks
ppimist
ppinud
ppis
ppisid
ppisteaduste
ppkokkuvo
ppm
pprojekti
ppu
ppus
pr
pra
practical
practice
prade
pradega
pradele
praegu
praegugi
praegune
praeguse
praegused
praeguseks
praegusel
praegusele
praeguseni
praeguses
praegusest
praegust
praeguste
praetud
praha
prahas
praktika
praktikas
praktikat
praktiline
praktilise
praktilised
praktiliselt
praktilises
praktilisi
praktilist
praktiliste
prandi
prangli
prantslane
prantslased
prantslaste
prantsuse
prantsuskeelne
prantsuskeelset
prantsusmaa
prantsusmaad
prantsusmaaga
prantsusmaal
prantsusmaale
prantsusmaalt
praost
praostid
praostkond
praostkonda
praostkonna
pratt
pravda
pre
prediger
predikaadi
predikaadid
predikaat
preditseeritakse
preemia
preemiad
preemiat
preester
preestri
preestrid
preestriks
preestrit
preestrite
prefekt
prefektuur
prefektuuri
prefektuuris
preili
preisi
preisimaa
preisimaal
preisimaale
preislased
preislaste
prelu
premier
premio
premium
preobraz
presbu
present
preses
presidendi
presidendid
presidendikandidaadiks
presidendikandidaat
presidendiks
presidendil
presidendile
presidendina
presidendivalimised
presidendivalimiste
presidendivalimistel
president
presidenti
presiidium
presiidiumi
presley
press
pressi
pressiesindaja
pressikonverentsil
pressiteade
prestiiz
pretendentide
pri
price
pride
prii
priidu
priima
priit
prillid
prima
primaarne
primaarse
prime
primeira
primera
primorje
prince
princess
princeton
princetoni
principles
print
prints
printsess
printsessi
printsi
printsiibi
printsiibid
printsiibist
printsiip
printsiipe
printsiipi
printsiipide
printsiipidest
prior
pris
prisma
prits
private
privileege
privileegid
prix
prize
pro
probleem
probleeme
probleemi
probleemid
probleemide
probleemidega
probleemidele
probleemidest
probleemiga
probleemiks
probleemile
probleemist
problem
problemaatiline
problems
proc
proceedings
process
processing
production
productions
products
produkti
produtseeris
produtsendi
produtsendid
produtsent
prof
professionaalse
professional
professor
professori
professorid
professoriks
professorina
profiil
profiili
profile
profu
program
programm
programme
programmeerija
programmeerimine
programmeerimise
programmeerimiskeel
programmeeritud
programmi
programmid
programmide
programmiga
programmile
programmis
programmist
progress
progressi
progressiivne
progu
prohvet
project
projekt
projekte
projekteerimine
projekteerimise
projekteerimisel
projekteerinud
projekteeris
projekteeritud
projekti
projektid
projektide
projektides
projektiga
projektijuht
projektijuhtimise
projektile
projektis
projektist
projektsioon
projektsiooni
prokaru
prokuratuur
prokuratuuri
prokuro
pronks
pronksi
pronksiajal
pronksima
pronksist
pronksmedal
pronksmedali
pronksmedalit
pronksso
proosa
proosakirjanik
prootoni
prootonite
proov
proove
proovi
prooviaastal
proovid
proovida
proovide
proovile
proovis
propaganda
propageeris
properties
proportsionaalne
proportsioon
proportsioonid
propositsioon
propositsiooni
propositsioonid
pros
prose
prosel
protection
protein
protektoraat
protest
protestandid
protestantide
protestantlik
protestantliku
protesti
protestiks
protocol
protokoll
protokolli
protokollid
prototroni
prototu
protseduur
protseduuri
protseduurid
protseduuride
protsendi
protsendilise
protsent
protsenti
protsess
protsesse
protsessi
protsessid
protsesside
protsessides
protsessiga
protsessil
protsessis
protsessist
protsessor
protsessoreid
protsessori
protsessorid
protsessoriga
protsessorit
protsessorite
proua
provence
provints
provintsi
provintsid
provintside
provintsides
provintsiga
provintsiks
provintsis
provintsist
provinzen
pru
prunus
prus
pruse
pruslinn
pruslinnad
prusma
prust
pruudi
pruugi
pruuli
pruun
pruuni
pruunid
pruunikas
pruut
ps
pse
psed
pseid
pseks
pselt
psem
psema
psemad
psemalt
pset
psete
pseudo
pseudonu
psi
psp
pst
psu
psus
psuse
psusega
psust
psustada
psustus
psustusleheku
psv
psychological
psychology
pt
pteeritud
ptk
ptolemaios
ptolemaiose
ptolemaioste
pu
public
publica
publication
publications
publik
publikatsioone
publikatsioonid
publiku
publikule
published
publishers
publishing
publiska
publitsist
publius
puccini
pud
pudel
pudeli
puerto
puga
puges
puhas
puhast
puhastada
puhastamine
puhastamiseks
puhastatud
puhastus
puhata
puhja
puhk
puhkama
puhkedes
puhkemise
puhkemist
puhkenud
puhkes
puhkesid
puhkpilliorkester
puhkudel
puhkus
puhkuse
puhkust
puhta
puhtad
puhtaks
puhtalt
puhtast
puhtus
puhtuse
puhtust
puhub
puhuks
puhul
puhus
puid
puidu
puidust
puiduto
puiestee
puiesteel
puise
puistu
puit
puitu
puka
pukk
puks
pul
pulber
pule
pulk
pullerits
pulli
pulm
pulma
pulmad
pulmi
pumba
pump
puna
punaarmee
punaarmees
punaarmeesse
punakas
punalipu
punalipulise
punane
punase
punased
punasega
punaseid
punaseks
punasel
punases
punasesse
punasest
punast
punaste
punastest
punata
punava
pung
pungad
puni
punk
punkt
punkte
punkti
punktid
punktide
punktidega
[...]
