!
"
#
##0
##1
##10
##11
##12
##13
##14
##15
##16
##17
##18
##19
##2
##20
##21
##22
##23
##24
##25
##26
##27
##28
##29
##3
##30
##31
##32
##33
##34
##35
##36
##37
##38
##39
##4
##40
##41
##42
##43
##44
##45
##46
##47
##48
##49
##5
##50
##51
##52
##53
##54
##55
##56
##57
##58
##59
##6
##60
##61
##62
##63
##64
##65
##66
##67
##68
##69
##7
##70
##71
##72
##73
##74
##75
##76
##77
##78
##79
##8
##80
##81
##82
##83
##84
##85
##86
##87
##88
##89
##9
##90
##91
##92
##93
##94
##95
##96
##97
##98
##99
$
%
&
'
(
)
*
+
,
-
.
/
0
00
000
001
002
003
004
005
006
007
008
009
01
010
012
013
016
02
03
04
05
06
07
08
09
1
10
100
1000
1001
1002
1007
101
1010
1012
1015
1016
1017
1018
102
1020
1021
1024
103
1030
1035
1037
1038
104
1040
1046
105
1050
1054
1056
1059
106
1060
1066
107
1070
1071
1073
1076
108
1080
1086
1088
109
1090
1093
1095
1096
1097
1098
1099
11
110
1100
1101
1103
1109
111
1110
1111
1118
111804439
112
1120
1125
1126
1128
113
1130
1136
114
1140
1146
1147
115
1150
1152
1154
1155
1157
1158
116
1160
117
1170
1177
118
1180
1181
1184
1185
1186
1187
1189
119
1190
1191
1192
1194
1197
1198
1199
12
120
1200
1201
1202
1203
1204
1205
1206
1207
1208
1209
121
1210
1211
1212
1214
1215
1216
1217
1218
1219
122
1220
1221
1222
1223
1224
1225
1226
1227
1228
1229
123
1230
1231
1233
1234
1235
1236
1237
1238
1239
124
1240
1241
1242
1243
1244
1245
1246
1247
1248
1249
125
1250
1251
1252
1253
1254
1255
1256
1257
1258
1259
126
1260
1261
1262
1263
1264
1265
1266
1267
1268
127
1270
1271
1272
1273
1274
1275
1276
1277
1278
1279
128
1280
1281
1282
1283
1284
1285
1287
1288
1289
129
1290
1291
1293
1294
1295
1296
1297
1298
1299
13
130
1300
1302
1303
1304
1305
1307
1308
1309
131
1310
1312
1314
1315
1316
1317
1318
1319
132
1320
1322
1323
1325
1326
1327
1328
1329
133
1330
1332
1333
1334
1335
1337
134
1340
1341
1342
1343
1344
1345
1346
1347
1348
1349
135
1350
1352
1353
1354
1355
1356
1359
136
1360
1361
1362
1363
1364
1365
1367
1368
1369
137
1370
1371
1373
1374
1375
1376
1377
1378
1379
138
1380
1381
1382
1383
1385
1386
1387
1388
1389
139
1390
1392
1393
1394
1395
1396
1397
1398
1399
14
140
1400
1401
1402
1403
1404
1405
1406
1407
1408
1409
141
1410
1411
1412
1413
1414
1415
1416
1417
1418
1419
142
1420
1421
1422
1423
1424
1425
1426
1427
1428
1429
143
1430
1431
1432
1433
1434
1435
1436
1437
1438
1439
144
1440
1441
1442
1443
1444
1445
1446
1447
1448
1449
145
1450
1451
1452
1453
1454
1455
1456
1457
1458
1459
146
1460
1461
1462
1463
1464
1465
1466
1467
1468
1469
147
1470
1471
1472
1473
1474
1475
1476
1477
1478
1479
148
1480
1481
1482
1483
1484
1485
1486
1487
1488
1489
149
1490
1491
1492
1493
1494
1495
1496
1497
1498
1499
15
150
1500
1501
1502
1503
1504
1505
1506
1507
1508
1509
151
1510
1511
1512
1513
1514
1515
1516
1517
1518
1519
152
1520
1521
1522
1523
1524
1525
1526
1527
1528
1529
153
1530
1531
1532
1533
1534
1535
1536
1537
1538
1539
154
1540
1541
1542
1543
1544
1545
1546
1547
1548
1549
155
1550
1551
1552
1553
1554
1555
1556
1557
1558
1559
156
1560
1561
1562
1563
1564
1565
1566
1567
1568
1569
157
1570
1571
1572
1573
1574
1575
1576
1577
1578
1579
158
1580
1581
1582
1583
1584
1585
1586
1587
1588
1589
159
1590
1591
1592
1593
1594
1595
1596
1597
1598
1599
16
160
1600
1601
1602
1603
1604
1605
1606
1607
1608
1609
161
1610
1611
1612
1613
1614
1615
1616
1617
1618
1619
162
1620
1621
1622
1623
1624
1625
1626
1627
1628
1629
163
1630
1631
1632
1633
1634
1635
1636
1637
1638
1639
164
1640
1641
1642
1643
1644
1645
1646
1647
1648
1649
165
1650
1651
1652
1653
1654
1655
1656
1657
1658
1659
166
1660
1661
1662
1663
1664
1665
1666
1667
1668
1669
167
1670
1671
1672
1673
1674
1675
1676
1677
1678
1679
168
1680
1681
1682
1683
1684
1685
1686
1687
1688
1689
169
1690
1691
1692
1693
1694
1695
1696
1697
1698
1699
17
170
1700
1701
1702
1703
1704
1705
1706
1707
1708
1709
171
1710
1711
1712
1713
1714
1715
1716
1717
1718
1719
172
1720
1721
1722
1723
1724
1725
1726
1727
1728
1729
173
1730
1731
1732
1733
1734
1735
1736
1737
1738
1739
174
1740
1741
1742
1743
1744
1745
1746
1747
1748
1749
175
1750
1751
1752
1753
1754
1755
1756
1757
1758
1759
176
1760
1761
1762
1763
1764
1765
1766
1767
1768
1769
177
1770
1771
1772
1773
1774
1775
1776
1777
1778
1779
178
1780
1781
1782
1783
1784
1785
1786
1787
1788
1789
179
1790
1791
1792
1793
1794
1795
1796
1797
1798
1799
18
180
1800
1801
1802
1803
1804
1805
1806
1807
1808
1809
181
1810
1811
1812
1813
1814
1815
1816
1817
1818
1819
182
1820
1821
1822
1823
1824
1825
1826
1827
1828
1829
183
1830
1831
1832
1833
1834
1835
1836
1837
1838
1839
184
1840
1841
1842
1843
1844
1845
1846
1847
1848
1849
185
1850
1851
1852
1853
1854
1855
1856
1857
1858
1859
186
1860
1861
1862
1863
1864
1865
1866
1867
1868
1869
187
1870
1871
1872
1873
1874
1875
1876
1877
1878
1879
188
1880
1881
1882
1883
1884
1885
1886
1887
1888
1889
189
1890
1891
1892
1893
1894
1895
1896
1897
1898
1899
19
190
1900
1901
1902
1903
1904
1905
1906
1907
1908
1909
191
1910
1911
1912
1913
1914
1915
1916
1917
1918
1919
192
1920
1921
1922
1923
1924
1925
1926
1927
1928
1929
193
1930
1931
1932
1933
1934
1935
1936
1937
1938
1939
194
1940
1941
1942
1943
1944
1945
1946
1947
1948
1949
195
1950
1951
1952
1953
1954
1955
1956
1957
1958
1959
196
1960
1961
1962
1963
1964
1965
1966
1967
1968
1969
197
1970
1971
1972
1973
1974
1975
1976
1977
1978
1979
198
1980
1981
1982
1983
1984
1985
1986
1987
1988
1989
199
1990
1991
1992
1993
1994
1995
1996
1997
1998
1999
2
20
200
2000
2001
2002
2003
2004
2005
2006
2007
2008
2009
201
2010
2011
2012
2013
2014
2015
2016
2017
2018
2019
202
2020
2021
2022
2023
2024
2025
203
2030
204
205
2050
206
207
208
209
2099
21
210
2100
211
212
213
214
215
216
217
218
219
22
220
2200
221
222
223
224
225
226
227
228
229
23
230
2300
2307
231
232
233
234
235
236
237
238
239
24
240
2400
241
242
243
244
245
246
247
248
249
25
250
2500
251
252
253
254
255
256
257
258
259
26
260
2600
261
262
263
264
265
266
267
268
269
27
270
2700
271
272
273
274
275
276
277
278
279
28
280
2800
281
282
283
284
285
286
287
288
289
29
290
291
292
293
294
295
296
297
298
299
3
30
300
3000
301
302
303
304
305
306
307
308
309
31
310
311
312
313
314
315
316
3166
317
318
319
32
320
3200
321
322
323
324
325
326
327
328
329
33
330
331
332
333
334
335
336
337
338
339
34
340
341
342
343
344
345
346
347
348
349
35
350
3500
351
352
353
354
355
356
357
358
359
36
360
361
362
363
364
365
366
367
368
369
37
370
371
372
373
374
375
376
377
378
379
38
380
381
382
383
384
385
386
387
388
389
39
390
391
392
393
394
395
396
397
398
399
4
40
400
4000
401
402
403
404
405
406
407
408
409
41
410
411
412
413
414
415
416
417
418
419
42
420
421
422
423
424
425
426
427
428
429
43
430
431
432
433
434
435
436
437
438
439
44
440
441
442
443
444
445
446
447
448
449
45
450
4500
451
452
453
454
455
456
457
458
459
46
460
461
462
463
464
465
466
467
468
469
47
470
471
472
473
474
475
476
477
478
479
48
480
481
482
483
484
485
486
487
488
489
49
490
491
492
493
494
495
496
497
498
499
5
50
500
5000
501
502
503
504
505
506
507
508
509
51
510
511
512
513
514
515
516
517
518
519
52
520
521
522
523
524
525
526
527
528
529
53
530
531
532
533
534
535
536
537
538
539
54
540
541
542
543
544
545
546
547
548
549
55
550
551
552
553
554
555
556
557
558
559
56
560
561
562
563
564
565
566
567
568
569
57
570
571
572
573
574
575
576
577
578
579
58
580
581
582
583
584
585
586
587
588
589
59
590
591
592
593
594
595
596
597
598
599
6
60
600
6000
601
602
603
604
605
606
607
608
609
61
610
611
612
613
614
615
616
617
618
619
62
620
621
622
623
624
625
626
627
628
629
63
630
631
632
633
634
635
636
637
638
639
64
640
641
642
643
644
645
647
648
649
65
650
651
652
653
655
656
657
658
659
66
660
661
662
664
665
666
67
670
671
672
673
674
675
677
678
679
68
680
681
683
684
685
686
687
688
69
690
691
695
698
7
70
700
7000
701
705
707
71
710
711
712
713
715
717
72
720
725
73
730
737
74
740
741
744
745
747
75
750
751
752
756
757
76
760
767
768
77
770
771
774
775
776
777
78
780
781
785
787
79
790
8
80
800
8000
801
802
81
810
811
813
814
82
820
821
825
829
83
830
84
840
843
85
850
855
86
860
861
862
87
870
871
875
876
877
878
879
88
880
882
887
888
89
890
9
90
900
9000
907
91
910
911
912
919
92
920
925
9256
93
930
936
94
940
95
950
951
952
955
96
960
962
963
965
97
970
973
976
978
98
980
9810000201
983
985
99
990
9949
9984
9985
999
:
;
<
=
>
?
@
[
\
]
^
_
`
a
aa
aab
aabits
aachen
aacheni
aad
aadam
aadama
aade
aadel
aadi
aadli
aadlik
aadlike
aadlikud
aadlimatriklisse
aadliseisusse
aadlisuguvo
aado
aadress
aadressi
aadressiga
aadressil
aadria
aadu
aafrika
aafrikas
aafrikasse
aafrikast
aafriklasi
aagaard
aakre
aal
aaloe
aalto
aaltonen
aamen
aan
aani
aanis
aapo
aare
aaria
aarma
aarne
aaron
aas
aasa
aasia
aasias
aasiasse
aasiast
aasma
aasovi
aaspere
aasta
aastaajad
aastad
aastaga
aastaid
aastail
aastaist
aastaka
aastaks
aastaku
aastal
aastale
aastalt
aastana
aastane
aastani
aastapa
aastapreemia
aastaraamat
aastaringselt
aastaro
aastas
aastasaja
aastasajal
aastase
aastased
aastaseks
aastasel
aastasele
aastaselt
aastasena
aastasest
aastasi
aastasse
aastast
aastaste
aastastel
aastastele
aastat
aastate
aastatega
aastateks
aastatel
aastateni
aastatest
aastatuhande
aastatuhandel
aastatuhat
aatom
aatomeid
aatomi
aatomid
aatomit
aatomite
aav
aava
aavik
aaviksoo
aaviku
aavo
ab
aba
abad
abalone
abas
abasiini
abava
abba
abbe
abbey
abbott
abc
abd
abdul
abdulla
abdullah
abe
abel
abeli
abhaasi
abhaasia
abhaasias
abi
abiellub
abielluda
abielludes
abielluma
abiellumist
abiellunud
abiellus
abiellusid
abielu
abielus
abielust
abieluva
abies
abiesimees
abiga
abijo
abikaasa
abikaasad
abikaasade
abikaasaga
abikaasaks
abikaasale
abikaasat
abiks
abil
abile
abiline
abilinnapea
abina
abino
abio
abistada
abistama
abistamise
abistas
abita
abiva
abja
abo
abordi
abort
aborti
about
abraham
abram
abriss
abruka
abruzzo
abs
absolu
absolute
absoluutne
absoluutse
absoluutselt
absoluutset
absorption
absorptsioon
abstract
abstraktne
abstraktse
absurdne
abt
abteilung
abti
abtiss
abu
ac
acad
acade
academia
academic
academicum
academy
accademia
access
accessed
accident
account
ace
acer
ache
achiet
acid
acids
ackerman
across
act
acta
action
active
activities
activity
acute
acı
ad
ada
adalbert
adam
adams
adamsi
adamson
adamsoni
adavere
add
adda
address
ade
adekvaatne
adel
adelaide
adele
adelheid
adels
ader
adi
adige
adjunkto
adjutant
adler
administraator
administrati
administratiiv
administratiivne
administratiivselt
administration
administratsioon
administratsiooni
admiral
admiraliteedi
ado
adobe
adolf
adolfi
adolph
adolphe
adra
adramaad
adramaid
adresse
adrian
adrianfrith
adson
adult
advanced
advances
adventure
adventures
advokaadi
advokaadibu
advokaadina
advokaat
advokaatide
advokatuuri
adw
adz
ae
aed
aeda
aedades
aednik
aedniku
aeg
aega
aegade
aegadel
aegadest
aegamo
aegano
aeglane
aeglase
aeglaselt
aeglasem
aeglasemalt
aegna
aegne
aegruumi
aegse
aegsed
aegu
aegunud
aegviidu
aero
aerodu
aerofoto
aet
aetakse
aeti
aetud
af
afa
afc
affairs
afganistan
afganistani
afganistanis
afghanistan
aforism
aforisme
africa
african
afrika
afrikaani
after
ag
aga
again
against
agar
agatha
age
agency
agenda
agent
agentuur
agentuuri
ages
agga
agnes
agnese
agny
ago
agree
agreement
agressiivne
agressiooni
agricola
agricultural
agriculture
agrolinnake
agronoom
agu
agur
ah
ahead
ahel
ahela
ahelad
ahelas
ahelate
ahelik
ahh
ahhaa
ahhaia
ahi
ahja
ahjo
ahju
ahjus
ahl
ahmad
ahmed
ahne
aho
ahti
ahtme
ahto
ahv
ahven
ahvenamaa
ai
aia
aiad
aianduse
aias
aiast
aid
aida
aidanud
aidas
aidata
aidates
aids
aidu
aig
aikovski
aili
aimata
aime
aimla
aimu
aimugi
ain
aina
aine
ained
ainega
aineid
aines
ainest
ainet
ainete
ainetel
ainetest
aino
ainsa
ainsad
ainsaks
ainsana
ainsatki
ainsus
ainsuse
ainsuses
ainu
ainuke
ainukese
ainukeseks
ainulaadne
ainulaadse
ainult
ainuo
ainus
ainustki
ainuu
ainuvo
air
airbus
aircraft
aire
aires
airese
aireses
airi
airlines
airlinesi
airport
airways
ais
aisch
aise
ait
aita
aitab
aitaks
aitama
aitas
aitasid
aitavad
aivar
aivo
aix
aizkraukle
aizpute
aizsardzi
aizsarga
aj
aja
ajaarvamise
ajaarvamist
ajab
ajad
ajada
ajades
ajaga
ajahetkel
ajaja
ajakava
ajakiri
ajakirja
ajakirjad
ajakirjade
ajakirjades
ajakirjale
ajakirjandus
ajakirjanduse
ajakirjanduses
ajakirjandust
ajakirjanik
ajakirjanike
ajakirjaniku
ajakirjanikud
ajakirjanikuna
ajakirjas
ajakirju
ajaks
ajal
ajale
ajalehe
ajalehed
ajalehele
ajalehes
ajaleht
ajalehte
ajalehtede
ajalehtedele
ajalehtedes
ajalehti
ajaline
ajalise
ajaliselt
ajaloo
ajalooarhiiv
ajalooarhiivi
ajalooga
ajaloolane
ajaloolase
ajaloolased
ajaloolaste
ajaloole
ajalooline
ajaloolis
ajaloolise
ajaloolised
ajaloolisel
ajalooliselt
ajaloolises
ajaloolisest
ajaloolisi
ajaloolist
ajalooliste
ajalooma
ajaloomuuseum
ajaloomuuseumi
ajalooo
ajaloos
ajaloost
ajalt
ajalugu
ajalukku
ajama
ajani
ajanud
ajapikku
ajara
ajas
ajasid
ajast
ajastu
ajastul
ajastule
ajastust
ajau
ajavad
ajavahemik
ajavahemikku
ajavahemiku
ajavahemikul
ajavahemikus
ajaveeb
ajavo
ajax
ajendas
ajendatud
ajendiks
aju
ajus
ajuti
ajutine
ajutise
ajutised
ajutiseks
ajutiselt
ajutist
ak
aka
akaatsia
akadeemia
akadeemias
akadeemiasse
akadeemik
akadeemiline
akadeemilise
akadeemiliselt
akadeemilises
akadeemilist
akademie
akadi
aken
akende
akendest
akent
aki
akna
aknad
aknaid
aknast
ako
akord
akordi
akordion
akronu
akru
aks
akse
aksel
akt
akti
aktid
aktiivne
aktiivse
aktiivsed
aktiivseid
aktiivseks
aktiivselt
aktiivset
aktiivsete
aktiivsus
aktiivsuse
aktiivsust
aktiveeritud
aktivist
aktsepteerida
aktsepteeritud
aktsia
aktsiad
aktsiaid
aktsiaselts
aktsiaseltsi
aktsiate
aktsiatest
aktsiona
aktsiooni
aktuaalne
aku
akusatiiv
akustika
akustiline
akustilise
akvitaania
al
ala
alabama
alad
alade
aladega
aladel
aladele
aladelt
aladest
alaealine
alaealise
alaealiste
alaga
alagrupi
alagrupima
alagrupis
alain
alajo
alaku
alal
alale
alaline
alalise
alaliselt
alalisvoolu
alalo
alalt
alalu
alam
alama
alamad
alamate
alamjooksu
alamjooksul
alamkoda
alamkoja
alamliik
alamliiki
alampolkovnik
alamsaksa
alamsorbi
alamsu
alamsugukond
alamvesikonda
alan
alandab
alandada
alandlikult
alane
alanud
alar
alari
alaru
alas
alase
alasid
alaska
alast
alaste
alasti
alata
alatasa
alates
alati
alatiseks
alatskivi
alatu
alau
alava
alavere
alba
albaania
albaanias
albaanlased
albanus
albany
albert
alberta
alberti
alberto
albion
albrecht
albrechti
albu
album
albumi
albumid
albumiga
albumil
albumilt
albumit
albumite
alcohol
alders
aldo
ale
alejandro
aleksander
aleksandr
aleksandra
aleksandri
aleksandria
aleksandrovits
aleksandrovna
aleksei
aleksejev
aleksejevits
aleksis
aleksius
alender
alessandro
aleuudi
alev
alevi
alevik
alevikku
aleviks
aleviku
alevikus
alevis
alevisse
alevist
alevit
alevite
alex
alexander
alexandra
alexandre
alexios
alexis
alfa
alfons
alfonso
alfred
alfredo
alg
algab
algallikas
algama
algas
algasid
algatada
algataja
algatas
algatasid
algatati
algatatud
algatus
algatuse
algatusel
algav
algavad
alge
algebra
algebraline
alghariduse
algirdas
algkeele
algkool
algkooli
algkoolis
algne
algo
algoritm
algoritmi
algse
algsed
algsel
algselt
algses
algsest
algset
algul
algupa
algus
algusaastatel
alguse
algusega
alguseks
alguseni
alguses
algusest
algust
algusta
algvorm
ali
alias
alice
alide
aligned
alina
alis
alison
alistada
alistades
alistas
alistasid
alistati
alistuma
alistus
alistusid
alive
alkohol
alkoholi
alku
all
alla
allaka
allan
allapoole
allar
allas
allavoolu
alle
allee
allegro
allen
aller
alles
allesja
allgemeine
alliance
allik
allika
allikad
allikaid
allikaks
allikana
allikas
allikast
allikat
allikate
allikates
allikatest
alliksaar
alliku
allium
allja
allkiri
allkirja
allkirjaga
allkirjastas
allkirjastasid
allkirjastati
allkirjastatud
allmann
allmusic
allpool
allu
allub
alluma
allunud
allus
allusid
allutada
allutati
allutatud
alluv
alluvad
alluvate
alluvusega
alluvuses
alluvusse
allveelaev
allveelaeva
allveelaevade
alma
almato
alo
aloe
alois
aloja
alone
along
alonso
alpes
alpha
alphabet
alphonse
alpi
alpid
alpide
alpides
alpidest
alpiklubi
alpina
alpine
alpinismi
alpinist
als
alsace
also
alt
alta
altai
altar
altari
altbergs
alte
alter
alternatiiv
alternatiivi
alternatiivina
alternatiivne
alternatiivse
alternative
altka
alto
alttoa
alu
alul
aluliina
alumiinium
alumiiniumi
alumiiniumist
alumine
alumise
alumised
alumisel
alumises
alumist
alune
alus
aluse
alused
aluseid
aluseks
alusel
alusele
alusena
aluspaari
aluspo
alust
alustab
alustada
alustades
alustama
alustamiseks
alustamist
alustanud
alustas
alustasid
alustatakse
alustati
alustatud
alustavad
aluste
alustel
alutaguse
alvar
alver
alveri
alves
alvin
always
alz
alzheimeri
am
ama
amadeus
amalia
amalie
amand
amanda
amandus
amata
amato
amazon
amazonase
amber
ambla
amd
ame
amedeo
ameerika
ameerikas
ameerikasse
ameerikast
ameeriklane
ameeriklased
ameeriklaste
amelia
amen
america
american
amerika
amet
ameti
ametiaeg
ametiaega
ametiaja
ametiajaks
ametiajal
ametid
ametikoha
ametikohad
ametikohal
ametikohale
ametikohalt
ametikoht
ametikohta
ametikohtadel
ametis
ametisse
ametist
ametit
ametiu
ametivande
ametivo
ametlik
ametlike
ametlikel
ametlikes
ametlikke
ametlikku
ametliku
ametlikud
ametlikuks
ametlikul
ametlikule
ametlikult
ametlikus
ametnik
ametnike
ametnikke
ametniku
ametnikud
ametnikuna
ami
amin
aminohapete
ammad
ammu
ammugi
amnestia
amo
among
amor
amore
amos
amour
amplituud
amplituudi
amsterdam
amsterdami
amsterdamis
amt
amu
amuuri
amy
an
ana
analoog
analoogia
analoogne
analoogselt
analu
analysis
analytical
anarhia
anas
anastasius
anatoli
anatomica
anatomy
anatoolia
anatoom
anatoomia
anchor
ancient
and
anda
andaluusia
andamit
ande
andekas
andeks
anders
andersen
anderson
andersson
andes
andestada
andestus
andestuse
andestust
andev
andi
andide
andis
andja
andjate
andke
andma
andmast
andmata
andmebaas
andmebaasi
andmebaasis
andmebaasist
andmed
andmeid
andmeil
andmekogu
andmekogus
andmete
andmetega
andmetel
andmetele
andmetest
andmeto
andmetu
andmine
andmise
andmisega
andmiseks
andmisest
andmist
andnud
ando
andorra
andra
andre
andrea
andreas
andrease
andrei
andrej
andrejev
andres
andrese
andresen
andrew
andrews
andri
andris
android
androidi
andronikos
andrus
andrzej
andsid
andsin
andsiwad
andur
andy
aneemia
anette
ange
angel
angela
angeles
angelese
angeleses
angelina
angelo
angels
angerja
angerjas
anglikaani
anglo
anglosaksi
angola
angolas
anhalt
anhalti
ani
anija
anima
animaator
animafilm
animafilmide
animal
animals
animatsiooni
anita
anjou
anka
ankara
ankur
ann
anna
annab
annad
annaks
annals
anname
annan
annavad
anne
annekteerimist
annekteeris
annekteeriti
anneli
annet
annetas
annette
anni
annie
annika
annist
anniversary
anno
announces
annual
annud
annus
ano
anonu
another
anr
anri
anrid
ans
ansambel
ansambli
ansamblid
ansambliga
ansamblis
ansamblisse
ansamblist
ansamblite
ansamblites
anscombe
anseku
ansi
ansip
ansipi
ansv
ant
anta
antakse
antanas
antarktika
antarktikas
antav
antava
ante
antenn
antenni
anthony
anti
antibiootikumide
antigua
antiigileksikon
antiik
antiikaja
antiikajal
antiikajast
antikeha
antikehade
antioksu
antiookia
anto
antoine
antoinette
antoloogia
anton
antoni
antonio
antonius
antoniuse
antonov
antonu
antropoloog
antropoloogia
ants
antsla
antsu
antti
antud
antwerpeni
anu
anum
anvelt
any
anzin
ao
ap
apa
apache
aparaat
ape
apek
apelsin
apertura
apg
aphrodite
api
apis
apokalu
apokru
apollo
apollon
apolloni
apostel
apostellik
apostli
apostlik
apostliku
apostlite
app
appi
appl
apple
application
applications
applied
approach
approaches
approx
apps
apr
april
aprill
aprilli
aprillil
aprillini
aprillis
aprillist
aps
apteegi
apteek
apteeker
apuulia
aq
aqua
aquila
aquino
ar
ara
araabia
araabias
araablased
araablaste
arab
arabia
arago
aragoni
aramea
aramis
aravete
arbitraaz
arbusow
arc
arch
archaeological
archaeology
architecture
archiv
archive
archived
archives
archivio
archivum
arco
arctic
arder
ardo
are
area
areas
areen
aren
arena
arenal
arendab
arendada
arendaja
arendajad
arendama
arendamine
arendamise
arendamisega
arendamiseks
arendamisel
arendamisele
arendamist
arendanud
arendas
arendasid
arendatakse
arendati
arendatud
arendus
arenduse
arenduskeskus
arendustegevuse
arendusto
areneb
areneda
arenedes
arenema
arenenud
arenes
arenesid
arenev
arenevad
areng
arengu
arenguga
arengukava
arengukoosto
arenguks
arengule
arengus
arengusse
arengust
arengut
aretatud
arg
argentina
argentinas
argipa
argo
argpu
argumendi
argumendid
argument
argumente
argumenti
arhangelski
arheoloog
arheoloogia
arheoloogiama
arheoloogid
arheoloogiline
arheoloogilised
arheoloogilisi
arheoloogiliste
arhetu
arhi
arhiiv
arhiivi
arhiivikoopia
arhiivis
arhiiviversioon
arhitekt
arhitekti
arhitektid
arhitektide
arhitektina
arhitektuur
arhitektuuri
arhitektuuribu
arhitektuuriga
arhitektuurima
arhitektuurimuuseum
arhitektuuris
arhitektuurist
arhitektuurivo
arhivaar
arhiveeritud
ari
ariadne
ariel
ariste
aristide
aristokraatia
aristoteles
aristotelese
aristotle
aritmeetika
arizona
arkaadia
arkadi
arkansase
arktika
arles
arleux
arm
armand
armas
armasta
armastab
armastad
armastada
armastaja
armastama
armastame
armastan
armastanud
armastas
armastasid
armastasin
armastatakse
armastatu
armastatud
armastavad
armastus
armastuse
armastusega
armastusele
armastuses
armastusest
armastust
arme
armed
armee
armeed
armeede
armeega
armeekindral
armeekorpus
armeekorpuse
armeele
armeenia
armeenias
armeenlased
armeenlaste
armees
armeesse
armeest
armenia
armenian
armin
arms
armsad
armsam
armstrong
armu
armuke
armukese
armuline
armunud
armus
armust
army
arne
arno
arnold
aro
aron
around
arp
arrak
arranz
arras
arrasi
array
arreteeriti
arro
arrow
ars
arsenal
arsenali
arseni
arst
arsti
arstiabi
arstid
arstide
arstina
arstiteadlane
arstiteaduse
arstiteaduskonna
arstiteaduskonnas
arstiteadust
art
artagnan
arte
artemis
arteria
arthur
article
articles
artificial
artikkel
artikleid
artikli
artiklid
artikliga
artiklis
artiklist
artiklit
artiklite
artiklites
artis
artist
artiste
artisti
artistid
artists
artjom
arto
artois
arts
artur
arturo
aru
aruande
aruanded
aruandes
aruanne
aruba
arukas
aruku
arula
aruma
arusaadav
arusaam
arusaama
arusaamad
arusaamatu
arusaamine
arusaamise
arusaamist
arust
arutada
arutama
arutas
arutasid
arutatakse
arutati
arutelu
arutlus
arutluse
arv
arva
arvab
arvad
arvama
arvamine
arvamise
arvamus
arvamuse
arvamused
arvamusel
arvamusele
arvamusi
arvamust
arvamuste
arvan
arvanud
arvas
arvasid
arvasin
arvata
arvatakse
arvatav
arvatavalt
arvatavasti
arvate
arvates
arvati
arvatud
arvavad
arve
arved
arvel
arvele
arvelt
arvesse
arvestab
arvestada
arvestades
arvestama
arvestamata
arvestatakse
arvestati
arvestatud
arvestuse
arvestuses
arvestuslik
arvi
arvid
arvo
arvso
arvu
arvud
arvude
arvudes
arvuga
arvukad
arvukalt
arvukate
arvuks
arvukus
arvukuse
arvukust
arvul
arvule
arvuliselt
arvult
arvust
arvustus
arvustusi
arvutada
arvutamiseks
arvutatakse
arvutatud
arvuteid
arvuti
arvutid
arvutiga
arvutile
arvutima
arvutis
arvutisse
arvutisu
arvutit
arvutite
arvutiteadlane
arvutites
arvutivo
arvutused
arvutuste
arwad
arwas
arwata
arxiv
arz
as
asaamist
ase
asedirektor
aseesimees
aseesimeheks
asehaldur
asekantsler
asekuberner
asekuningas
asemel
asemele
asend
asendab
asendada
asendades
asendama
asendamine
asendas
asendatakse
asendati
asendatud
asendi
asendis
asendit
asendus
asendusliige
asepeaminister
asepresidendi
asepresidendiks
asepresident
aserbaidz
aseri
aseso
aset
aseta
asetab
asetada
asetas
asetatakse
asetati
asetatud
asetseb
asetses
asetsev
asetsevad
asetus
asetuse
asetusega
asevalitseja
ash
ashley
ashton
asi
asia
asian
asito
asja
asjaajaja
asjaajamise
asjad
asjade
asjadega
asjadele
asjades
asjadest
asjaga
asjal
asjale
asjao
asjaolu
asjaolud
asjaolude
asjaoludel
asjaoludest
asjaolule
asjaolusid
asjaolust
asjas
asjasse
asjast
asjata
asjatu
asjatult
asjatundja
asjatundjad
asju
asjus
asjust
ask
asko
asp
aspects
aspekt
aspekte
aspekti
aspektid
aspektide
aspektist
aspirant
aspirantuuri
aspirantuuris
aspx
ass
assamblee
asse
assembly
assessment
assessor
assistendina
assistent
associated
association
associations
assotsiatsioon
assotsiatsiooni
assu
ast
asta
aste
asteroid
asteroidide
astet
asti
astme
astmed
astmega
astmel
astmele
astmeline
astmes
astmete
aston
astra
astrahani
astrid
astrofu
astroloogia
astronaut
astronomical
astronomy
astronoom
astronoomia
astronoomid
astu
astub
astuda
astudes
astuma
astumise
astumist
astunud
astus
astusid
astusin
astuuria
astuvad
asu
asuala
asub
asuda
asudes
asukad
asukoha
asukohad
asukohaga
asukohaks
asukohale
asukohas
asukohast
asukoht
asukohta
asula
asulad
asulaid
asulakoht
asulas
asulasse
asulast
asulat
asulate
asulates
asum
asuma
asumi
asumid
asumis
asumisele
asumist
asundus
asunduse
asundused
asunikud
asunud
asupaik
asus
asusid
asustab
asustamata
asustasid
asustati
asustatud
asustus
asustuse
asustusjaotuse
asustustihedus
asutada
asutaja
asutajad
asutajaid
asutajaliige
asutajatest
asutamine
asutamise
asutamiseks
asutamisest
asutamist
asutanud
asutas
asutasid
asutati
asutatud
asutav
asutava
asuti
asutus
asutuse
asutused
asutuses
asutusi
asutuste
asutustes
asuv
asuva
asuvad
asuvaid
asuval
asuvale
asuvas
asuvasse
asuvast
asuvat
asuvate
asuvatest
at
ata
atalanta
atari
atas
ate
ateena
ateenas
ateljee
ateljees
athena
athletic
athletics
athos
ati
atika
atka
atla
atlandi
atlanta
atlantas
atlantic
atlantis
atlas
atlase
atle
atmosfa
ato
atoll
atom
atomic
atp
ats
atsetu
atsu
attack
attacks
attention
atti
attila
atu
au
auaste
auastme
auastmed
auastmes
aubigny
aubin
audentese
audi
audio
audiovisuaalse
audit
auditi
audoktor
audoktorid
audoktoriks
audru
auf
auflage
aug
augsburg
augsburgi
augu
augud
august
augusta
auguste
augusti
augustiks
augustil
augustin
augustini
augustinus
augustis
augustist
augusto
augustus
augustuse
auhind
auhinda
auhindade
auhindu
auhinna
auhinnad
auhinnaga
auhinnale
auk
auke
aukiri
aukodanik
aukonsul
auks
auku
aukude
aul
aule
auleegioni
auliige
auliikmeks
auma
aun
aunimetus
aunimetuse
aur
aura
aurelius
aureus
aurik
aurora
auru
aus
ausa
ausalt
ausamba
ausammas
ausf
ausgewa
austada
austama
austamine
austatakse
austati
austatud
austen
austerlased
austin
austraalia
austraalias
austraaliasse
austraaliast
australia
australian
austria
austriale
austrias
austriasse
austriast
austroneesia
austus
austuse
austust
ausus
autasu
autasustas
autasustati
autasustatud
author
authority
authors
auto
autobiograafia
autod
autode
autoga
autojuht
autol
automaat
automaatika
automaatne
automaatse
automaatselt
automatic
automatiseeritud
automobile
autona
autonoomia
autonoomiat
autonoomne
autonoomse
autonoomses
autoo
autoportree
autor
autoreid
autori
autorid
autoriks
autorile
autorina
autorio
autorit
autorite
autoriteedi
autoriteet
autoriteeti
autos
autosid
autost
autot
autoto
autotootja
autotransporta
autovo
auu
auva
auvere
auvergne
aux
auxi
av
ava
avaari
avab
avad
avada
available
avalanche
avalda
avaldab
avaldada
avaldades
avaldama
avaldamata
avaldamine
avaldamise
avaldamiseks
avaldamisma
avaldamist
avaldanud
avaldas
avaldasid
avaldatakse
avaldati
avaldatud
avaldavad
avaldub
avalduda
avaldus
avalduse
avalduste
avalduvad
avalik
avalike
avalikel
avalikes
avalikke
avalikku
avalikkus
avalikkuse
avalikkusele
avalikkust
avaliku
avalikud
avalikuks
avalikul
avalikult
avalikus
avalikust
avalikustas
avalikustati
avalikustatud
avama
avamine
avamise
avamiseks
avamisel
avamist
avanduse
avaneb
avanes
avanevad
avant
avanud
avar
avarii
avaringis
avas
avasid
avastab
avastada
avastaja
avastamine
avastamise
avastamiseks
avastamist
avastanud
avastas
avastasid
avastati
avastatud
avaste
avastus
avastuse
avastused
avastuste
avatakse
avati
avatseremoonial
avatud
ave
avec
avenu
avenue
average
avesnes
aviation
avignon
avignoni
avin
avinurme
avita
avo
awa
awaldas
award
awards
away
ax
axel
ay
ayette
az
b
ba
baar
baari
baas
baasi
baaside
baasil
baasis
baba
babu
baby
bach
bachi
bachmann
back
background
bacon
bacteria
bad
baden
badeni
baer
baeri
bafta
bag
bagdadi
bagdadis
baha
bahama
bahreini
bai
baieri
baieris
baikali
bailey
bailleul
bakalaureuse
bakalaureusekraadi
bakalaureusekraadiga
bakalaureuseo
bakalaureuseto
baker
bakter
baktereid
bakteri
bakterid
bakterite
bakuu
bakuus
bal
balance
balduin
baldwin
baleriin
bali
balkaari
balkani
balkanil
ball
ballaad
balleti
balletitantsija
ballett
balta
balthasar
balti
baltic
baltica
balticu
baltika
baltikumi
baltikumis
baltimaade
baltimaades
baltimore
baltisaksa
baltisakslaste
baltische
baltischen
baltisches
balvi
ban
band
banda
bang
bangladesh
bangladeshi
bank
banks
bapaume
baptiste
baptisti
bar
bara
barack
baralle
barat
baratriki
barbara
barbarossa
barbuda
barcelona
barcelonas
barclay
bari
bariton
barja
barnes
barnim
baro
barokk
barokkstiilis
barokne
baron
barre
barrett
barry
bart
bartolomeo
baru
bas
base
based
baseerub
basel
baseli
basic
basiilika
basil
basileios
basilica
basis
basketball
baski
baskin
bass
bassein
basseini
basseinis
bassi
basskitarr
basskitarrist
basso
bastien
bastion
bastioni
bat
bataillon
battery
battista
battle
batu
baudelaire
bauer
baumann
bauska
bautzeni
bay
bayer
bayern
bb
bbc
bbi
bbld
bc
bd
be
beach
beagle
bean
bear
bearbeitet
beast
beat
beata
beatles
beatrice
beaufort
beaumetz
beaumont
beautiful
beauty
beauvoir
beauvois
beaux
bec
beci
beck
becker
becki
become
becomes
bed
beda
bedane
bedase
bedast
bedat
bee
beekman
been
beer
beethoven
beethoveni
befolkning
before
begin
beginning
behavior
behavioral
behaviour
behind
bei
beijing
being
beitra
bekkeri
bel
belarus
belgia
belgias
belgrad
belgradi
belgradis
believe
belize
bell
bella
belle
belli
bellini
bellona
bellonne
belo
belt
bema
bemedal
bemedali
bemedalit
bemedalivo
bemoll
ben
bender
bene
benedetto
benedict
benedictus
benedikt
benes
benevento
benfica
bengali
bengt
beni
benini
benito
benjamin
bennett
benno
benny
benoi
bensiini
bentheimi
bentley
benz
ber
berberi
berend
berends
beretta
berg
bergamo
bergen
bergeni
berger
bergi
bergman
bergmann
beria
berit
berk
berkeley
berles
berliin
berliini
berliinis
berlin
berliner
bermuda
bern
bernard
bernardo
bernd
berneetika
bernhard
berni
bernie
bernini
bernstein
berry
bert
berta
bertha
berthold
bertrand
beru
berubla
bes
bessaraabia
best
bet
beta
betoon
betooni
betoonist
better
betti
betty
betula
between
beverly
bevolking
bey
beyond
bez
bezirke
bf
bha
bhutani
bi
bib
bibcode
bible
bibliograaf
bibliograafia
biblioteca
biblioteka
bibliotekas
bid
bida
biden
bides
bienenstamm
bienenstammi
bienestamm
big
biga
bik
bika
biks
biku
bil
bilaskevo
bilbao
bile
bill
billboard
billboardi
billie
billion
billy
bilo
biloba
bima
bimine
bimiseks
bimist
bimo
bimu
bimurde
bimurre
bin
bina
binding
bingen
bingeni
binud
bio
biobibliograafia
biochem
biochemistry
biofu
biograafia
biograafiad
biograafiline
biograafilise
biograafilises
biografisches
biographical
biographie
biographisches
biography
biokeemia
biokeemik
bioku
biol
biological
biology
bioloog
bioloogia
bioloogias
bioloogiline
bioloogilise
bioloogilised
bioloogiliselt
bioloogilist
bioloogiliste
biomassi
biosfa
biosu
biotechnology
biotehnoloogia
bipa
bipaistev
bipaistvus
bipo
bir
bira
bird
birdlife
birds
birger
birgit
birgitta
birma
birmingham
birminghamis
birth
birz
bis
bishop
bisid
bismarck
biso
bissau
bist
bit
bitavus
bitcoin
biti
bitine
bitise
bitist
bitt
bitti
bitud
biv
biva
bivad
biviidud
biviimine
biviimise
biviimiseks
biviimisel
biviimist
bizet
bjo
bk
bki
bl
bla
black
blackberry
blackburn
blackwell
blade
blair
blaise
blake
blanc
blanche
blangy
blast
ble
bli
blick
blickgem
blind
blit
block
blog
blogi
blogspot
blokaadi
blood
bloom
bloomberg
blow
blu
blue
blues
bluetooth
bmp
bmw
bns
bo
board
boat
bob
bobby
boca
bock
bodhisattva
body
boeing
bogdan
bogislaw
boiry
bois
boisleux
bolesław
boliivia
boliivias
bologna
bols
bolt
bolton
bomb
bon
bonaparte
bond
bondi
bone
bonifatius
bonn
bonni
bonnie
book
books
boole
boot
bor
bora
bordeaux
border
borg
borgia
boris
boriss
borja
born
bornho
borussia
bos
bosch
bosnia
bosnias
boss
boston
bostoni
bostonis
bot
botaanik
botaanika
botaanikaaed
botaanikaaia
botany
both
botswana
bottle
bottom
botvinnik
boulenger
boulogne
bourgeois
bowie
box
boxrec
boy
boyd
boyle
boys
boz
bp
br
bra
bracy
brad
bradley
braga
bragelonne
brahe
braille
brain
braks
brale
bralik
braliku
bralikud
bralikult
branch
brand
brandenburg
brandenburgi
brandon
brandt
branna
bras
brasiilia
brasiilias
brasil
brasileiro
bratislava
braun
braunschweig
braunschweigi
bravo
brazil
bre
break
breaking
breast
brebie
bremen
bremeni
brescia
breslau
brest
bresti
bretagne
breton
bretooni
brett
brez
bri
brian
bridge
bridget
brief
brien
brigaad
brigaadi
brigaadikindral
brighton
brigitte
briid
brill
bring
brisbane
bristol
britain
britannia
britannica
briti
britid
british
britt
brittide
brjanski
brno
bro
broad
broadcasting
broadway
broken
bronte
brooker
brooklyn
brooks
bros
brother
brothers
brotze
brown
browne
browni
browning
browser
bru
bruce
brugge
brun
brunei
bruno
brussels
bryan
bryant
bsd
bt
btr
bu
buch
buchdruckerei
buchhandlung
buck
buckley
buda
budapest
budapesti
budapestis
buddha
buddy
bude
budism
budismi
budismis
budistlik
budistliku
buenos
buffalo
bugi
build
building
buire
bukaresti
bukarestis
bul
bulgaaria
bulgaarias
bulgaarlased
bulgaarlaste
bull
bulla
bullas
bulletin
bundesla
bundesliga
bunge
burchard
bureau
burg
burgen
burgundia
burjaadi
burke
burkina
burman
burn
burns
burtnieki
burton
burundi
bus
busch
bush
bushi
business
buss
bussi
bussid
bussijaam
bussiliin
bussipeatus
but
buterne
butler
butterfly
button
butu
buxho
buxhoeveden
buy
bwv
by
byzantine
byzantium
c
ca
cable
caesar
caesari
cafe
cage
cagnicourt
calabria
calais
calgary
california
californias
call
called
calls
calvin
cam
cambrai
cambridge
came
camera
cameron
camille
camp
campaign
campania
campanula
campbell
campeonato
campo
camus
can
canada
canadian
canal
canavese
canberra
cancer
canche
candida
canis
cannes
canon
canterbury
canto
cantus
cao
cap
cape
capelle
capital
cappella
captain
capua
car
cara
carbon
card
cardiff
care
career
carex
carey
cargo
caribbean
carl
carlo
carlos
carmen
carnegie
carnival
carol
carolina
caroline
carpenter
carr
carrie
carrier
carroll
carson
carter
cas
casa
case
cases
cash
casino
caspar
cassini
cast
castel
castello
castle
castro
cat
catalogue
catch
categories
caterina
catharina
catherine
catholic
cato
cauchy
cause
causes
cave
cb
cbs
cc
cd
cdc
cdot
cdu
ce
cecil
cecilia
cedric
cel
celestino
cell
celle
cells
cellular
celtic
census
centaurea
center
central
centre
century
cepa
ceres
ces
cesare
cesvaine
cf
cgi
ch
cha
chain
challenge
challenges
chamber
chamberlain
chamorro
champagne
champions
championship
championships
chan
chance
chandler
chang
change
changes
changing
channel
chaos
chapelle
chapman
chapter
character
characteristics
characterization
charge
charles
charlesi
charlie
charlotte
chart
charts
chase
che
check
checklist
chef
chelle
chelsea
chem
chemical
chemistry
chen
cher
cherry
chess
chi
chicago
chicagos
chief
chiesa
child
childhood
children
chile
china
chinery
chinese
chip
chis
cho
choice
chomsky
chr
chris
christ
christensen
christi
christian
christiani
christie
christina
christine
christmas
christoffer
christoph
christophe
christopher
chrome
chronicle
chronicon
chu
chuck
church
churchill
ci
cia
cicero
cid
cie
ciems
cijas
cinema
cinnamomum
cio
circ
circle
circuit
circus
cis
cit
cite
cities
citroe
citrus
citta
city
cityga
citypopulation
citys
civil
civilization
ck
cke
cken
ckeni
cker
cki
cl
claes
claims
claire
clapton
clara
clarendon
clark
clarke
clarki
class
classic
classical
classics
classification
claude
claudia
claudio
claudius
claus
clav
clay
cle
clean
clear
clemens
clement
clemente
clermont
cleveland
clifford
climate
clin
clinical
clinton
clive
clock
close
cloud
club
cluny
cluster
clyde
cm
cmos
cn
cnn
co
coast
coastal
coauthors
coca
code
codex
coelestinus
coffee
cognition
cognitive
cohen
cojeul
col
cola
colbert
cold
cole
coleman
coli
colin
colle
collection
college
collins
colombia
colombias
colombo
colonna
color
colorado
colors
colour
colubridae
columbia
columbus
column
com
combat
come
comes
coming
command
commander
commentary
commercial
commission
committee
commodore
common
commons
commonsis
communes
communication
communications
communist
community
como
companion
company
comparative
comparison
competition
complete
complex
components
composition
comprehensive
computer
computing
comte
comune
comuni
con
conan
concacaf
concept
concepts
concert
concerto
concordia
conde
condita
conditions
conference
confirms
conflict
congress
conifer
connect
connecticut
connecticuti
connor
conrad
consciousness
consequences
conservation
console
constant
constantin
constantinus
constantius
constellation
constitution
construction
consumer
contact
contemporary
content
contest
conteville
context
conti
continental
contra
contract
contre
control
controller
convention
cook
cooki
cool
coop
cooper
copa
cope
coppa
copy
coq
core
cornelius
cornell
cornet
corona
coronavirus
corporation
corps
corpus
corte
cortex
corun
corvus
cos
cosimo
cost
costa
could
council
count
counter
countries
country
county
coup
coupe
courcelles
course
court
coust
couture
cov
cover
covid
cox
cp
cpu
cr
craig
crane
crash
crataegus
crawford
crazy
crc
cre
cream
creation
creative
credit
creek
cremona
crew
crime
criminal
crisis
cristina
critical
croisilles
croix
cromwell
cross
crown
cruise
cruises
cruz
cry
crystal
cs
csa
csi
cska
css
ct
ctor
cu
cuba
cube
cultural
culture
cultures
cum
cup
cupi
cura
curie
current
curt
curtis
cut
cv
cy
cycle
cyp
cyrtodactylus
cyrus
cz
czech
d
da
daakia
daam
daami
daani
daativ
dab
dabas
dad
dade
dades
dadest
dag
dagestani
dagmar
dahl
dai
daily
daimler
dainville
daisy
dakota
daks
dal
dala
dalad
dalaga
dalai
dalaks
dalal
dalaleht
dalalo
dalane
dalapa
dalas
dalase
dalased
dalast
dalat
dalavahetusel
dale
dali
dallas
dalmaatsia
dalton
dam
damaskuse
dame
damed
damega
damele
dames
damesse
damest
dametunnistus
dametunnistuse
damik
damiku
damlik
dan
dana
dance
dancing
dangerous
daniae
daniel
daniil
danik
danilo
danish
danny
dans
danske
dant
dante
danzigi
dao
daoht
daohtu
dapa
dar
dari
darja
dark
darmstadt
darmstadti
darren
darwin
darwini
das
dast
dasti
data
database
datatowel
date
dateeritud
dati
datu
datuba
dauersiedlungsraum
daugava
daugavpilsi
dav
davad
davajalik
davalt
dave
david
davidi
davidjants
davidson
davies
davis
davise
dawn
day
days
daz
db
dc
dd
ddr
de
dea
dead
deadly
deal
dean
death
debate
debora
deborah
debu
debussy
dec
december
decision
ded
dede
dee
deemon
deep
def
default
defence
defense
defineerib
defineerida
defineeris
defineeritakse
defineeritud
definition
definitsioon
definitsiooni
dega
degli
dehu
dei
dekaan
deklaratsioon
deklaratsiooni
dekoratiivne
dekreediga
deks
del
delacroix
delaware
delda
deldakse
deldud
dele
delegatsioon
delegatsiooni
delfi
delhi
delivery
dell
della
delle
delta
dem
dema
demand
demeeste
demeid
demi
demo
democracy
democratic
demokraadid
demokraatia
demokraatide
demokraatlik
demokraatlike
demokraatlikku
demokraatliku
demokraatlikus
demonstreeris
den
denier
denis
deniss
denmark
dennis
density
departamentas
departamento
departemang
departemangu
departemangus
department
dependent
depoo
deportivo
depression
depressioon
depressiooni
der
deraalne
deraalse
deratsioon
deratsiooni
deratsioonide
deratsioonis
derby
derek
des
descartes
descartesi
description
desert
desid
design
desktop
desmond
dessandi
dessant
dest
det
detail
detaile
detailed
detaili
detailid
detailide
details
detakse
detection
detektiiv
determination
deti
detroit
detroiti
dets
detsember
detsembri
detsembril
detsembrini
detsembris
detsembrist
detud
detuna
deubner
deus
deutsch
deutsche
deutschen
deutscher
deutsches
deutschland
deux
dev
deva
development
developmental
device
devices
devil
devoni
devus
devuse
devusse
dfb
dgs
di
dia
diabetes
diafilm
diagnoosi
diagnoositi
diagnoositud
diagnosis
diagnostika
diagramm
diakon
diakoniks
dialektika
dialoog
dialoogi
diameeter
diameetriga
diamond
diana
diane
dias
dick
dickie
dickinson
dict
dictionary
dictionnaire
did
dida
didier
die
diees
diego
dies
dieter
dietrich
diferentsiaalvo
difference
differences
different
differential
dig
diga
digar
diger
digi
digitaalarhiivis
digitaalne
digitaalse
digitaalsed
digitaalselt
digitaalses
digitaalset
digitaalsete
digital
digiteeritud
dija
dijad
dijate
dik
diktaator
diktatuuri
dil
dile
dilemma
dima
dimetu
dimitri
dimo
din
dina
dinamo
dine
ding
dini
dinud
dio
diogenes
dionysius
dipi
diplom
diplomaadi
diplomaat
diplomaatia
diplomaatide
diplomaatiline
diplomaatilise
diplomaatilised
diplomaatiliste
diplomi
diplomito
dir
direcija
direct
direction
director
directory
direktiiv
direktiivi
direktor
direktori
direktoriks
direktorina
direktorite
dirigeeris
dirigendina
dirigent
dirk
dirty
dis
disaegse
disain
disainer
disaini
disainis
disainitud
disajal
disaster
disc
disco
discourse
discovery
disease
diseases
disid
disk
diskrimineerimise
diskvalifitseeriti
disney
disorder
disorders
display
displaystyle
dissident
dist
distab
distada
distades
distants
distantsi
distantsil
distas
distasid
distatakse
distati
distatud
distatuna
distribution
district
distrikt
distsipliin
distsipliini
distus
distuse
distused
distusi
distuste
ditamine
ditamise
ditati
div
diversity
diviis
diviisi
divisio
division
divisjon
divisjoni
dizionario
dj
dja
dk
dki
dl
dlane
dlused
dlusi
dm
dma
dmine
dmitri
dna
dne
dnepri
dnestri
dnime
dnimega
dnimi
dns
dnud
do
dobele
doc
docs
doctor
document
documentation
documents
does
dog
dogs
doi
doktor
doktorant
doktori
doktorikraad
doktorikraadi
doktorio
doktorito
doktoriva
doktriin
doktriini
dokumendi
dokumendid
dokumendis
dokument
dokumentaalfilm
dokumentaalfilmi
dokumentatsioon
dokumente
dokumenteeritud
dokumenti
dokumentide
dokumentides
dole
dolgaani
dollar
dollari
dollarini
dollarit
dolly
dolores
dom
domain
domeen
domeeni
domenico
domestic
domineerib
domineeris
domineerisid
domineeriv
domineerivad
domineerivaks
domingo
domini
dominica
dominiiklaste
dominikaani
dominique
don
donald
donbassi
donetsk
donetski
dong
doni
donizetti
donna
doodz
doonau
door
dopamiini
dora
dorian
doris
dorothea
dorothy
dorpat
dorpater
dortmundi
dos
dostojevski
dot
dots
dotsendina
dotsent
douard
double
douchy
douglas
douglase
dover
down
download
doyle
dp
dq
dr
dra
draakon
draakoni
draama
draamafilm
draamastuudio
draamateater
draamateatri
draamateatris
dracaena
dracula
draft
dragon
drake
dram
drama
dramaturg
drava
draw
dre
dream
dreams
drei
dresden
dresdeni
dresdenis
dritter
drive
driver
dro
droelektrijaam
droelektrijaama
droksu
drolu
drop
drosophila
dru
druck
drug
drugs
druk
druku
drukud
drukuid
drukule
drukut
drukute
drukutele
drum
druz
dry
ds
dse
dseks
dsest
dsid
dsin
dsiwad
dspace
dt
du
dual
dub
dubai
dublin
dublini
dublinis
dud
duda
dudes
due
duett
duga
duisans
duka
dukad
dukalt
dukas
duke
dul
dulink
dumas
dumbledore
dume
dumist
duncan
dundaga
dunja
dunn
dunud
duo
dur
durbe
durch
dureid
duri
durid
during
durit
durite
duritele
dury
dus
dusid
dust
dutch
duty
duur
dv
dva
dvd
dvi
dvinjaninov
dvustada
dvustatud
dwight
dx
dy
dylan
dynamic
dynamics
dz
dze
dzelzcel
dzerz
dztwo
e
ea
eaa
each
eagle
eahelik
eakadeemia
eal
eales
eao
earl
early
earth
eas
east
eastern
easy
eau
eb
ebaas
ebaasi
ebakindel
ebako
ebakorrapa
ebaku
ebama
ebameeldiv
ebamo
ebamugav
ebao
ebaseaduslik
ebaseadusliku
ebaseaduslikult
ebaselge
ebastabiilne
ebasu
ebata
ebatavaline
ebatavaliselt
ebato
ebau
ebavo
ebba
eberhard
eberle
ebola
ebrigaadi
ebu
ec
echo
eco
ecological
ecology
economic
economics
economist
economy
ecuador
ecuadori
ecuadoris
ed
eda
edasi
edasiarendus
edasijo
edasilu
edasimu
edasine
edasipa
edasise
edasised
edasiseks
edasisest
edasist
edaspidi
edastab
edastada
edastamine
edastamise
edastamiseks
edastas
edastatakse
edastavad
edda
eddie
eddy
edela
edelaosas
edelas
edelasse
eden
edendab
edendada
edendaja
edendamine
edendamise
edendamiseks
edendas
edenes
edestades
edestas
edetabel
edetabeli
edetabelis
edetabelites
edgar
edge
edinburgh
edinburghi
edit
edited
edith
edition
editor
editors
ediviis
ediviisi
edmond
edmonton
edmund
edo
eds
edu
eduard
eduardo
education
educational
eduga
eduka
edukad
edukaim
edukaks
edukalt
edukam
edukamaid
edukas
edukat
eduskunna
edutati
edutult
edvard
edvin
edward
edwardi
edwards
edwin
ee
eed
eedi
eek
eel
eelarvamus
eelarve
eelarvest
eeldab
eeldada
eeldades
eeldas
eeldatakse
eeldatavasti
eeldavad
eeldus
eeldused
eelduseks
eeldusel
eeldusi
eelduste
eelis
eelise
eelised
eeliseid
eeliseks
eelistab
eelistada
eelistades
eelistas
eelistasid
eelistatakse
eelistatud
eelistavad
eeljooksud
eelk
eelka
eelko
eelma
eelmainitud
eelmine
eelmise
eelmisel
eelmises
eelmisest
eelmiste
eelneb
eelnenud
eelnes
eelnev
eelneva
eelnevad
eelnevalt
eelnevas
eelnevast
eelnevat
eelnevate
eelnimetatud
eelno
eelo
eelpool
eelse
eelto
eelujumine
eelujumises
eelurikkus
eelvo
eemal
eemaldab
eemaldada
eemaldamine
eemaldamiseks
eemaldamist
eemaldas
eemaldatakse
eemaldati
eemaldatud
eemale
eemalt
een
eeni
eenia
eenpalu
eepos
eepose
eeria
eerias
eerik
eero
ees
eesel
eesistuja
eeska
eeskiri
eeskirjad
eeskuju
eeskujuks
eeskujul
eesliide
eesliitega
eesliitest
eeslinn
eeslinna
eeslinnas
eeslinnuse
eesma
eesmaa
eesmine
eesna
eesnime
eesnimi
eeso
eesotsas
eespere
eespool
eesriide
eesriie
eesso
eest
eesti
eestiga
eestigiid
eestik
eestikeelne
eestikeelse
eestikeelsed
eestikeelses
eestikeelset
eestikeelsete
eestil
eestile
eestimaa
eestimaal
eestimaale
eestipa
eestis
eestisse
eestist
eestistamine
eestistamisel
eestit
eestko
eestkoste
eestkostja
eestlane
eestlase
eestlased
eestlasena
eestlasest
eestlasi
eestlast
eestlaste
eestlastega
eestlastel
eestlastele
eestlastest
eestluse
eestseisja
eestvedaja
eestvedamisel
eestvo
eetika
eetiline
eetilise
eetris
eetrisse
eeva
eevi
eewa
ef
efekt
efekti
efektiivne
efektiivse
efektiivsed
efektiivselt
efektiivsem
efektiivsus
efektiivsuse
efektiivsust
effect
effective
effects
eg
ega
egeuse
egg
egiidi
egiptus
egiptuse
egiptuses
egiptusest
egiptusse
egle
ego
egon
egrupi
egrupp
egypt
eh
eha
ehala
ehasalu
ehe
ehhi
ehhis
ehhoslovakkia
ehhoslovakkias
ehhov
ehhovi
ehib
ehin
ehita
ehitab
ehitada
ehitaja
ehitajate
ehitama
ehitamata
ehitamine
ehitamise
ehitamisega
ehitamiseks
ehitamisel
ehitamist
ehitanud
ehitas
ehitasid
ehitatakse
ehitati
ehitatud
ehitavad
ehitis
ehitise
ehitised
ehitisi
ehitisma
ehitist
ehitiste
ehitud
ehitus
ehituse
ehitusega
ehituseks
ehitusel
ehituselt
ehituses
ehitusest
ehitusettevo
ehitusinsener
ehitusja
ehitusmaterjalide
ehitusmeister
ehituspa
ehitust
ehitusto
ehk
ehkki
ehrlich
ehst
ehstland
ehte
ehted
ehteid
ehtne
ei
eichenbaum
eid
eide
eight
eik
eiki
eila
eile
eimiski
ein
einar
einasto
eine
einem
einen
einer
eines
eino
einstein
einsteini
einwohnerzahl
eiran
eis
eisen
eit
eitab
eitada
eitas
eitus
ej
eja
ejl
ejuhatus
ejuhatuse
ejuhi
ejuht
ek
eka
ekaa
ekalda
eke
eki
ekindral
ekk
ekl
ekm
eko
ekp
ekr
ekraan
ekraani
ekraanil
ekraanile
ekre
eks
eksa
eksami
eksamid
eksemplar
eksemplari
eksib
eksid
eksida
eksiili
eksiilis
eksinud
eksis
eksisteeri
eksisteerib
eksisteerida
eksisteerimise
eksisteerinud
eksisteeris
eksisteerisid
eksisteerivad
eksistents
eksistentsi
eksitav
eksitus
ekskommunitseeris
ekslik
ekslikult
ekspeditsioon
ekspeditsiooni
ekspeditsioonil
ekspeditsioonist
eksperdid
eksperimendi
eksperiment
eksperimentaalne
eksperimentaalpsu
eksperimentaalse
eksperimente
ekspert
ekspertide
eksponeeritakse
eksponeeriti
eksponeeritud
ekspordi
eksport
ekspositsioon
ekspress
ekspressi
ekspressiooni
ekss
eksternina
eku
ekuru
ekvaatori
ekvatoriaal
el
ela
elab
elad
elada
elades
elagu
elaks
elama
elame
elamine
elamise
elamiseks
elamisloa
elamu
elamud
elamus
elamute
elan
elane
elanik
elanike
elanikel
elanikele
elanikest
elanikke
elanikkond
elanikkonna
elanikkonnast
elanikku
elaniku
elanikud
elanikuga
elanud
elas
elase
elased
elasi
elasid
elasiwad
elast
elaste
elastele
elatakse
elati
elatist
elatud
elav
elava
elavad
elavaid
elavalt
elavat
elavate
elavatele
elavho
elbe
elda
eldakse
eldav
eldes
eldi
eldis
eldud
ele
eleanor
election
elections
electric
electrical
electron
electronic
electronics
elegans
elekter
elektri
elektrienergia
elektrienergiat
elektrijaam
elektrijaama
elektriline
elektrilise
elektrilised
elektriliselt
elektriliste
elektriraudtee
elektrisu
elektrit
elektriva
elektrivo
elektrivool
elektrivoolu
elektrolu
elektromagnetiline
elektromagnetilise
elektron
elektrone
elektroni
elektronid
elektronide
elektroodi
elektroodide
elektroonika
elektrooniline
elektroonilise
elektroonilised
elektrooniliselt
elektroonilist
elektrooniliste
elektrotehnika
elemendi
elemendid
elemendiks
elemendist
element
elemente
elementi
elementide
elementidega
elementidest
elements
elena
eleonora
eleonore
elevandiluuranniku
elevant
elfriede
elge
eli
elias
eliidi
eliisabeti
eliit
elin
elina
eline
elinor
eliot
elis
elisa
elisabet
elisabeth
elisabethi
elise
elised
eliseks
eliselt
elisest
elisi
elist
eliste
elistvere
elite
eliteprospects
elizabeth
elizabethi
eljabinski
elknu
ell
ella
ellamaa
elle
ellen
eller
elleri
elli
elliott
ellis
ellist
ello
ellu
elluja
elluviimise
elluviimiseks
elmar
elmatar
elmo
elnud
elo
elon
elron
elroni
els
elsa
else
elsevier
elt
elton
elts
elu
eluaasta
eluaastad
eluaastal
eluaastani
eluaastast
eluaastat
eluaeg
eluaegne
eluaegse
eluaja
eluajal
eluea
eluga
eluiga
eluja
elujo
eluka
elukaaslane
elukas
elukeskkonna
elukoha
elukoht
elukohta
eluks
elukutse
elukutseline
elukutselisena
elukutseliste
elul
elule
eluloo
elulood
elulugu
elumaja
elund
elundi
elundite
eluo
elupa
elupaiga
elupaigatu
elupaik
elupaikade
elupaiku
elupuu
elurikkuse
eluro
eluruumid
elus
elusalt
elusse
elust
elustiili
elustik
eluta
eluto
elutseb
elutsevad
elutsu
elutu
eluure
eluviis
eluviisi
eluviisiga
eluvo
elva
elvas
elvi
elvira
elvis
em
ema
emad
emade
emadepa
emaga
emaitija
emajo
emaka
emakas
emakeel
emakeele
emakeeleks
emakeelena
emaks
emaksu
emal
emale
emalt
emand
emane
emanuel
emanuele
emapoolne
emari
emase
emased
emaslind
emast
emaste
emastel
embleem
embru
eme
emees
emergency
emerging
emeriitprofessor
emerituuri
emerson
emi
emic
emigreerus
emiir
emil
emilia
emilie
emilio
emily
emk
emma
emmanuel
emmaste
emme
emmy
emo
emotion
emotsionaalne
emotsionaalse
emotsionaalselt
emotsionaalset
emotsioon
emotsioone
emotsiooni
emotsioonid
emotsioonide
emp
empaatia
emperor
empiiriline
empiirilise
empiiriliselt
empire
ems
emta
emu
en
ena
enam
enama
enamasti
enamat
enamik
enamikku
enamiku
enamikul
enamikule
enamikus
enamikust
enamjaolt
enamlaste
enamus
enamuse
enamusega
enamuses
enamust
enciklope
enciklopedija
enciklopediju
encyclopaedia
encyclopedia
encyclopædia
encyklopedia
end
enda
endab
endada
endaga
endal
endale
endalt
endamisi
endas
endasse
endast
endatud
endavad
ende
endeid
endel
endi
endid
endile
endine
endisaegne
endise
endised
endisel
endisele
endiselt
endises
endisest
endisi
endist
endiste
endistest
endite
endla
endrik
ends
endus
ene
enera
energeetika
energia
energiaga
energiasa
energiast
energiat
energiato
energy
enese
enesega
enesel
enesele
enesema
eneses
enesest
enesestmo
enesetapp
enesetapu
eneseva
eneste
enestele
eng
engel
engelbert
engelbrecht
engelhardt
engine
engineering
england
english
engure
eni
enim
enitso
enka
enko
enn
enna
ennam
ennast
enne
ennegi
enneko
ennem
ennemini
enneta
ennetada
enno
ennustab
ennustada
ennustamine
ennustas
ennustus
eno
enough
enrico
enrique
ens
ensemble
enski
ensu
ensv
ent
enter
enterprise
entertainment
entomoloog
entre
entry
entsu
entu
environment
environmental
eo
eohvitser
eok
eos
eosa
eosad
eosade
eotelpiska
eots
ep
epa
epataljon
epataljoni
epealik
epeirose
epic
epideemia
episood
epistemoloogia
epitsenter
epl
epmu
epner
epo
epoeg
epolgu
epolgus
epolk
epolku
epoolest
epp
eps
epsilon
epub
equipment
er
era
eradotsent
eraelu
eraettevo
eragu
erakond
erakonda
erakondade
erakonna
erakonnad
erakonnast
erakool
erakordne
erakordselt
erakorraline
erakorralise
eraldab
eraldada
eraldamine
eraldamiseks
eraldas
eraldatakse
eraldati
eraldatud
eraldavad
eraldi
eraldiseisev
eraldiseisva
eraldub
eraldumine
eraldunud
eraldus
eraldusid
eramu
erand
erandeid
erandiks
erandina
eranditult
erao
erapooletu
eras
erasektori
erasmus
erast
erastvere
erau
erb
erdi
erdog
ere
ereisilaev
erelt
ergastatud
ergma
ergo
erhard
eri
eriala
erialade
erialal
erialale
eriauhind
eric
erich
ericsson
erigeron
erik
erika
eriksson
eriku
eriline
erilise
erilised
eriliseks
eriliselt
erilisi
erilist
eriliste
erine
erineb
erineda
erines
erinesid
erinev
erineva
erinevad
erinevaid
erineval
erinevalt
erinevas
erinevast
erinevat
erinevate
erinevatel
erinevatele
erinevates
erinevatesse
erinevatest
erinevus
erinevuse
erinevused
erinevusi
erinevust
erinevuste
eringkond
eringkonna
erino
erio
eriolukorra
eriosakonna
eriotstarbeline
eripa
eripreemia
eristab
eristada
eristama
eristamine
eristamiseks
eristas
eristatakse
eristatav
eristatavad
eristatud
eristavad
eristub
eristus
eristuvad
eritavad
eriti
eritrea
eriu
eriva
erivajadustega
erk
erkessi
erki
erkki
erm
ermitaaz
erna
ernesaks
ernesaksa
ernest
ernesto
erni
ernits
erno
ernst
ero
erosiooni
err
erra
erri
error
erru
ers
ersa
ersen
erso
ersp
erster
ert
ertshertsog
eru
ervin
erwin
es
esa
esaar
esalu
esbl
esc
escape
escherichia
ese
esed
eseks
eseme
esemed
esemeid
esemete
eset
esi
esialgne
esialgse
esialgsed
esialgselt
esialgsest
esialgu
esietendus
esiettekanne
esiisa
esikoha
esikohal
esikohale
esikoht
esikohta
esikolmikusse
esiku
esile
esileto
esiliiga
esiliigas
esiliigasse
esilinastunud
esilinastus
esimees
esimehe
esimehed
esimeheks
esimehele
esimehena
esimene
esimese
esimesed
esimeseks
esimesel
esimesele
esimesena
esimeses
esimesest
esimesi
esimesse
esimest
esimeste
esimesteks
esimestel
esimestena
esimestest
esinaine
esindab
esindada
esindades
esindaja
esindajad
esindajaid
esindajaks
esindajana
esindajat
esindajate
esindajatega
esindajatekoja
esindajatest
esindama
esindanud
esindas
esindasid
esindatud
esindav
esindavad
esindus
esinduse
esinduskogu
esine
esineb
esineda
esinedes
esineja
esinejanimega
esinema
esinemine
esinemise
esinemissageduselt
esinemist
esinenud
esines
esinesid
esineti
esinev
esineva
esinevad
esinevate
esiotsa
esiplaanil
esit
esita
esitab
esitada
esitades
esitaja
esitajad
esitama
esitamine
esitamise
esitamiseks
esitamisel
esitamist
esitanud
esitas
esitasid
esitatakse
esitati
esitatud
esitavad
esiteks
esiti
esitleb
esitles
esitleti
esitlus
esitus
esituse
esituses
esivanem
esivanemad
esivanemate
eske
esko
eskola
eslav
esmaabi
esmajoones
esmakordselt
esmalend
esmalt
esmamainitud
esmane
esmapilgul
esmase
esmased
esmaseks
esmaspa
esmast
esmatru
esna
eso
esolev
esoleva
esoleval
esolevas
esp
espan
esperanto
espn
espoo
essay
essays
esse
essee
esseed
esseid
esseist
essen
essential
essexi
essite
est
esta
estab
estada
estanud
estas
estate
estatud
estcube
este
esteetika
esteetiline
esteetilise
ester
esther
esti
estica
estik
estiku
estikus
estikust
estimates
estla
estland
estnische
estnischen
estnischer
esto
estonia
estonian
estonias
estonica
estre
estus
estuse
esuse
esuu
esuus
esuusataja
esuusatamises
et
eta
etaguse
etagused
etakse
etanooli
etapi
etapid
etapil
etapis
etapist
etapivo
etapp
etappe
etappi
etappidel
etav
etava
etc
ete
eteenistuse
eteenistusest
eteenistusse
etendas
etendus
etenduse
etendused
etendusi
etendust
ethernet
ethics
ethnic
ethnologue
eti
etioopia
etioopias
etipp
etippu
etis
etiste
etk
etniline
etnilise
etnograaf
etnograafia
etnoloog
etnoloogia
eto
ets
ett
ette
etteantud
etteka
ettekande
ettekanne
ettekujutus
ettekujutuse
ettema
ettena
etteotsa
ettepanek
ettepaneku
ettepanekud
ettepanekuga
ettepanekuid
ettepanekul
ettepanekut
ettepanekute
ettepoole
ettevaatlik
ettevaatlikult
ettevalmistamine
ettevalmistamise
ettevalmistamisel
ettevalmistus
ettevalmistuse
ettevalmistusi
ettevo
ettewo
etu
etud
etuna
etv
eu
eucalyptus
euge
eugen
eugene
eugenio
eugenius
eukalu
eukaru
eur
euraasia
euraasias
euro
euroala
euroga
euroopa
euroopas
euroopasse
euroopast
euroopat
eurooplased
eurooplaste
europa
europaea
europe
european
eurot
eurovision
eurovisiooni
eurovisioonil
ev
eva
evad
evade
evadel
evaelu
evaelus
evaga
evakorda
evaks
evakueeriti
eval
evald
evale
evalehe
evalehes
evaleht
evalgi
evaluation
evama
evan
evana
evane
evangeelium
evangeeliumi
evangeeliumis
evangeelne
evangeelse
evangelischen
evani
evans
evar
evaraamat
evas
evase
evased
evaseid
evaseks
evasel
evasele
evaselt
evases
evasest
evast
evaste
evastes
evato
evavalgele
eve
evelin
evelyn
even
evengi
evening
event
events
ever
evert
everton
every
everything
evi
evic
evidence
evik
evike
eviku
evikud
evil
eviti
evo
evolution
evolutionary
evolutsioon
evolutsiooni
evr
evs
evski
evts
ew
ewa
ewad
ewal
ewald
ewaleht
ex
example
exchange
executive
exhibition
exp
expedition
experience
experiment
experimental
expert
explained
exploration
explorer
expo
exposure
express
expression
extended
extension
external
extra
extreme
eye
eyes
eyre
ez
f
fa
faas
faasi
faasis
faber
fabian
fabio
fabricius
face
facebook
facebooki
facebookis
faces
fact
factbook
facto
factor
factors
factory
facts
faculty
fah
fail
faile
faili
failid
failide
failisu
failure
fair
faire
faith
faksiimileversioonis
fakt
fakte
fakti
faktid
faktide
faktiliselt
faktor
falco
falcon
falklandi
fall
falls
false
falunis
fame
familie
family
famous
fan
fanny
fantaasia
fantasy
fao
faq
far
faraday
farm
farmaatsia
farmakoloog
farmakoloogia
farmer
farmi
fas
fashion
faso
fassaad
fassaadi
fast
fat
father
fauna
faure
faust
fbi
fc
fci
fda
fe
fear
feat
feature
features
february
fed
federal
federation
federico
feel
feldmarssal
feliks
felipe
felix
fellow
female
feminism
feminist
femme
fenno
fenomen
fenomeni
fenotu
fenu
feodor
fer
ferdinand
ferdinandi
ferdinando
ferenc
ferguson
fermi
ferna
fernando
ferrara
ferrari
fersen
festival
festivali
festivalidel
festivalil
festschrift
fever
ff
fi
fia
fiat
fiction
fid
fide
fideikomiss
fidel
fidz
field
fields
fiemmes
fifa
fifth
figaro
fight
fighter
fighting
figure
figures
fikseeritud
filantroop
file
files
filharmoonia
filiaal
filiaali
filip
filipiinid
filipiinide
filipiinidel
filipp
filippo
filise
film
filme
filmi
filmid
filmide
filmides
filmidest
filmifestival
filmifestivali
filmifestivalil
filmiga
filmikunsti
filmilavastaja
filmile
filmimuusika
filmina
filmioperaator
filmiprodutsent
filmirez
filmis
filmist
filmistuudio
filmitegija
filmiti
filmito
filmitud
filmiveeb
films
filoloog
filoloogia
filoloogiat
filosoof
filosoofi
filosoofia
filosoofiadoktori
filosoofiaentsu
filosoofiale
filosoofias
filosoofiaseltsi
filosoofiast
filosoofiat
filosoofiateaduskonna
filosoofiateaduskonnas
filosoofid
filosoofide
filosoofiline
filosoofilise
filosoofilised
filosoofilisi
filosoofilist
filosoofiliste
filter
filtri
fin
finaal
finaali
finaalis
finaalma
finaalturniiril
finaalturniirile
final
finance
financial
finants
find
finden
fine
finis
finland
finlandia
finn
finnish
finnmargi
fire
firenze
firenzes
firma
firmad
firmade
firmale
firmas
firn
first
fis
fischer
fish
fisher
fitzgerald
five
fix
fjodor
fjodorovits
fjord
fjordi
fk
fl
fla
flaami
flag
flags
flamengo
flandria
flash
flat
flavius
fleming
flers
fletcher
fleur
fleury
flight
flo
floor
flora
florence
flores
florida
floridas
flos
flow
flower
floyd
flu
fly
flying
fm
fn
fo
focus
foiniikia
fokker
folk
folkloori
folklore
folklorist
folkloristika
following
fond
fondi
fondiloendis
font
fontaine
fontana
food
foogt
fookus
foonia
foorum
foot
football
footoni
for
forbes
force
forces
ford
fordi
foreign
forest
forever
forgiveness
forgotten
form
formaadis
formaalne
formaalse
formaalselt
formaat
format
formation
formeeriti
former
forms
formula
forrest
forschungen
forseliuse
fort
forte
fortune
forum
forward
fosfor
fosfori
fosforu
fossiilku
foster
foto
fotod
fotode
fotoentsu
fotograaf
fotograafi
fotograafia
fotokogu
fotosid
fotosu
fotot
foucault
found
foundation
foundations
four
fourier
fourth
fox
fp
fr
fra
fraas
fraasi
fraasist
frac
fragmendid
fragment
fragmente
fraktsioon
fraktsiooni
fraktsioonid
frame
framework
fran
franc
france
frances
francesca
francesco
francis
francisco
franciscos
franciscus
franco
frangi
frangid
frangimaa
frank
frankenstein
frankfurdi
frankfurdis
frankfurt
franki
frankide
frankie
franklin
franklini
frans
frantis
frantsisklaste
frantzen
franz
fraser
fraternitas
fre
fred
freddie
frederic
frederick
frederik
fredrik
free
freedom
freeman
frege
freiburg
freiburgi
french
frequency
fresnes
fresnoy
freud
freudi
frey
friedebert
friederike
friedman
friedrich
friedrichi
friend
friends
friisi
friisimaa
fritz
friuli
friuuli
fro
from
fromhold
front
frontier
frontiers
frost
fru
fruit
fry
fs
fsb
ft
fu
fuel
full
fun
function
functional
functions
fund
fundamentaalne
fundamental
fundamentals
funk
funktsionaalne
funktsionaalru
funktsionaalse
funktsioon
funktsioone
funktsiooni
funktsioonid
funktsioonide
funktsiooniga
funktsiooniks
fusion
future
fuuga
fv
fwer
fx
g
ga
gaas
gaasi
gaasid
gaaside
gabon
gaboni
gabriel
gabriela
gabriele
gabrieli
gad
gada
gaeli
gaetano
gaga
gagarini
gagi
gaia
gailit
gaius
gal
gala
galaktika
galaktikate
galaxy
gale
galeegi
galerii
galeriis
gales
galicia
galiitsia
galilei
galileo
galina
gallery
gallia
gallus
gama
gambia
game
games
gamma
gandhi
ganen
gang
ganuse
gao
gap
gar
garaaz
garantii
garci
garcia
garde
garden
gardie
gardner
garmisch
garnison
garnisoni
garrett
gars
gary
gas
gast
gaston
gate
gates
gatts
gauja
gaulle
gaussi
gautengi
gav
gava
gavad
gaval
gavale
gavalt
gavam
gavamale
gavamalt
gavas
gavat
gavendade
gavere
gavus
gavuse
gavusel
gavusele
gavuses
gavust
gay
gaz
gaza
gazeta
gazette
gazetteer
gazprom
gb
gbit
gc
gdan
gddr
ge
gear
gebietsstand
geda
gedad
gedalt
gede
gedega
gedel
gedele
gedelt
gedes
gedesse
gedest
gee
geen
geene
geeni
geenid
geenide
geenius
geforce
gegen
gegenwart
gei
gel
gema
gemata
gemeente
gemeinde
gemeinden
gemeindeverzeichnis
gemendi
gemendis
gement
gementi
gemine
gemini
gemise
gemisega
gemist
gemus
gen
gender
gene
genealogisches
genealoogia
genealoogilisest
geneb
geneda
genedes
geneetik
geneetika
geneetiline
geneetilise
geneetilised
geneetiliselt
geneetilist
geneetiliste
genema
genemine
genemise
genemist
genenud
general
generation
generatsiooni
genes
genesid
genesis
genet
genetic
genetics
geneva
genevad
genf
genfi
genfis
geni
genike
genikud
genitiiv
genius
gennadi
gennaio
gennes
genome
genoom
genoomi
genotsiidi
genotu
genova
gent
genus
geo
geoffrey
geofu
geograaf
geograafia
geograafiline
geograafilise
geograafilised
geograafiliselt
geograafilises
geographic
geographischer
geography
geokogude
geological
geology
geoloog
geoloogia
geoloogiline
geoloogilise
geoloogiliselt
geomeetria
geomeetriline
geomeetrilise
geonames
geoportaal
georg
george
georges
georgi
georgia
ger
gerald
gerard
gerd
gerda
gerhard
gerli
germaani
germaanlaste
germain
german
germania
germany
gerrit
gert
gertrud
gertrude
ges
gescha
geschichte
gesellschaft
gesid
gessner
get
geto
gets
getter
gev
geva
geval
gevamaa
gevamaal
gga
ggi
ghana
ghanas
gheorghe
ghost
ghz
gi
gia
giacomo
gian
gianni
giant
gib
gibraltari
gibson
gicle
gid
gideon
gieeni
giga
gihein
gija
gijo
giks
gil
gila
gilbert
gildi
gile
giles
gilles
gima
gime
gin
gina
gine
ginkgo
gio
giorgi
giorgio
giovanni
girard
girl
girls
girolamo
gis
gise
gised
giseks
gisel
gisene
giseni
gisest
gisi
gismaa
gisoo
gist
giste
gita
gitakse
gite
github
giti
gitoru
gitud
giulia
giuliano
giulio
giuseppe
givad
givald
givalda
givaldne
givalla
give
givenchy
giwad
gks
gl
gla
gland
glasgow
glass
gle
glehni
glen
glenn
globaalne
globaalse
global
globe
glock
gloria
glory
glossary
gloucesteri
glu
gm
gmbh
gnaeus
gnu
go
goal
god
goes
goethe
gogol
gohelle
going
gold
goldberg
golden
goldman
golf
golfi
golitso
gomes
gone
gonsiori
gonza
good
goodman
google
gooti
gootide
gora
gorbats
gordon
gori
gorki
got
gotha
gott
gottfried
gotthard
gottlieb
gottlob
gould
gouvernemens
gouy
gov
government
gp
gps
gpu
gr
gra
graaf
graafi
graafide
graafik
graafika
graafikat
graafiline
graafilise
grabbi
grace
grad
graf
graham
grammar
grammatika
grammatiline
grammi
grammy
gran
granada
grand
grande
graniidist
graniit
grano
grant
granti
graphics
grass
grata
grave
gravitatsioon
gravitatsiooni
gravu
gray
graz
grazi
gre
great
greatest
greco
greece
greek
greeka
green
greene
greenwood
greg
gregeriiad
gregor
gregorio
gregorius
gregoriuse
gregory
greif
greifswaldi
grenada
grenader
grenoble
greta
grete
grey
gri
grice
griffin
griffith
grigori
grimm
grin
gris
gro
grobin
gross
ground
group
groupi
groups
grove
growth
grozno
groß
große
gru
grupi
grupid
grupina
grupis
grupp
gruppe
gruppi
gruppide
grus
gruusia
gruusias
gruyter
gs
gsm
gt
gtx
gu
gua
guajaana
guard
guardian
guatemala
gude
gudz
gue
guerra
guerre
guez
guglielmo
gui
guide
guido
guillaume
guillermo
guinea
guineas
guinnessi
guitar
gulbene
gulf
gun
gunnar
guns
guo
guru
gus
gusid
gustaf
gustav
gustave
gustavo
gustavson
gustaw
gut
guy
guyana
gv
gwen
gyo
gyula
h
ha
haab
haabersti
haag
haagi
haagis
haak
haamer
haanja
haapsalu
haapsalus
haarab
haarama
haaranud
haaras
haarasid
haarata
haaratud
haas
haaslava
haav
haava
haavad
haavade
haavata
haavatud
habe
habemega
habet
habicht
habras
habsburg
habsburgid
habsburgide
had
hade
hadel
hadrianus
hadz
hagemeister
hagen
hageri
hagi
hahn
hai
haige
haiged
haigeid
haigekassa
haigeks
haigestumise
haigestunud
haigestus
haiget
haigete
haigla
haiglaravi
haiglas
haiglasse
haigus
haiguse
haigused
haigusega
haigusest
haigusi
haigust
haiguste
haimre
hain
hainaut
hair
haiti
haja
hajaku
hajo
hajumine
hajusalt
hajutatud
hak
hakanud
hakassi
hakata
hakatakse
hakates
hakati
hakatud
hakirja
hakka
hakkab
hakkad
hakkaks
hakkama
hakkame
hakkan
hakkas
hakkasid
hakkasin
hakkasiwad
hakkavad
hakkitud
hakoda
haks
hakse
haku
hakuks
hakute
hal
halastamatu
halb
halba
halbade
halbu
haldab
haldamine
haldamise
haldamiseks
haldas
haldjas
haldus
haldusalas
haldusalasse
halduse
haldusjaotus
haldusjaotuse
halduskeskus
halduskeskuseks
halduslikult
halduspiirides
halduspiirkonnas
haldusreformi
haldusreformini
haldusterritoriaalse
haldusu
hale
halepa
half
halinga
haljala
hall
hallap
hallas
hallata
halle
haller
hallermann
halli
hallid
hallik
hallikas
halliks
hallis
halliste
hallo
halo
halva
halvad
halvaks
halvas
halvasti
halvem
halvemini
halvenes
halvustav
ham
hamba
hambad
hambaid
hamburg
hamburgi
hamburgis
hamilton
hamiltoni
hamlet
hammas
hammaste
hammastega
hammer
hampshire
hampton
hamu
han
hana
hand
handbook
handbuch
handi
handle
hando
hands
handu
hang
hani
hanila
hank
hankida
hankis
hanko
hanna
hannah
hannes
hannibal
hanno
hannover
hannoveri
hannoveris
hannu
hans
hansa
hansapa
hansen
hanso
hanson
hansson
hansu
hanto
hapa
hapaikade
hape
hapete
hapnik
hapnikku
hapniku
hapnikuga
happe
happeline
happy
hapu
har
hara
harakas
harald
hard
hardcore
hardi
hardo
hardware
hardy
hare
hargla
hargneb
hari
harida
haridus
hariduse
haridusega
haridusele
hariduselt
hariduses
haridusministeerium
haridusministeeriumi
haridusminister
haridusseltsi
haridussu
haridust
haridustegelane
haridusto
harilik
harilikku
hariliku
harilikul
harilikult
haripunkti
haritud
harja
harju
harjumaa
harjumaal
harjumaale
harjumus
harjumuspa
harjunud
harjutada
harjutus
harkivi
harkovi
harku
harmoonia
harmooniat
harmooniline
harold
harper
harrastas
harri
harriet
harris
harrison
harry
hart
harta
hartknoch
hartmann
haru
harud
harude
haruldane
haruldase
haruldased
haruldasi
haruldaste
haruraamatukogu
harutee
harv
harva
harvard
harvardi
harvem
harvemini
harvey
harzi
has
hasartma
hash
hassan
hasselblatt
hasso
hast
hat
hats
hatu
hau
haua
hauad
haual
hauale
hauaplats
hauast
hauata
haucourt
haud
hauda
haudi
haug
haugi
hauptsturmfu
haus
haut
haute
hauteville
havai
havaimu
have
haven
havrincourt
hawaii
hay
haydn
haydni
hayes
hc
hcl
hd
hdmi
he
hea
heaastane
heaastase
head
heade
headline
headus
headuse
heaegselt
heainsa
heaks
heakskiidu
heakskiitu
heal
heale
healega
health
heameelega
heaolu
heart
hearts
heas
heast
heasu
heat
heather
heaven
heavy
heb
hector
hed
hedal
hedale
hedalt
hedane
hedase
hedased
hedaseks
hedases
hedasi
hedast
hedaste
hede
hedus
heduse
heduses
hedusse
hedust
hedvig
hedw
hedwig
heebrea
heeliumi
hega
hegel
hegeli
hegi
heha
hehaaval
hei
heida
heidab
heide
heidelberg
heidelbergi
heidetakse
heideti
heidetud
heidi
heidy
heiki
heikki
heiko
heili
heimtali
hein
heina
heinamaa
heinaru
heinaste
heine
heini
heino
heinrich
heinrichi
heinrici
heinsalu
heinz
heisatakse
heisati
heita
heites
heiti
heitis
heitma
heitnud
heitsid
heke
hekojaline
hekordne
hekordse
hekorraga
hekorruseline
heks
heksa
heksaku
heksanda
heksas
heksast
heksateistku
hektari
hektarit
heku
hel
hela
held
heldada
heldatud
helde
heldur
hele
heleda
heledad
heledam
heledus
heleduse
helegi
helen
helena
helene
helepanekuid
helepanelikult
helepanu
helepanuta
helepanuva
helesinine
helga
helge
helgi
heli
helid
helide
helifailid
heliko
helikopter
helikunsti
helilooja
heliloojad
heliloojaid
heliloojate
heliloomingu
helin
helina
helirea
helirez
helirida
heliro
helisid
helistas
helisu
heliteose
helito
heliva
heljo
helju
helk
hell
hella
hellamaa
hellat
helle
heller
hello
helm
helme
helmi
helmut
helmuth
help
helsingi
helsingin
helsingis
helsingisse
helsinki
helt
heltermaa
helve
helvi
hem
hema
hemad
hemaid
hemaks
hemal
hemale
hemalt
hemast
hemasti
hemat
hemate
hematki
heme
hemingway
hemo
hemus
hemuse
hemuses
hemusrahvuste
hemuste
hen
hena
hend
henda
hendab
hendada
hendades
hendaks
hendama
hendamine
hendamise
hendamiseks
hendamisel
hendamisest
hendamist
hendanud
hendas
hendasid
hendatakse
hendati
hendatud
hendatult
hendav
hendava
hendavad
hendecourt
hendeid
hendemiraadid
hendemiraatide
henderson
hendi
hendid
hendina
hendist
hendit
hendite
hendkuningriigi
hendkuningriigis
hendkuningriik
hendriigid
hendriikide
hendriikidele
hendriikides
hendriikidesse
hendriikidest
hendrik
henduda
hendunud
hendus
henduse
hendused
hendusega
henduseks
hendusele
henduses
hendusest
hendusi
henduslik
hendusse
hendust
henduste
hene
heneb
heneda
henedes
henema
henemine
henemise
henemisega
henemisel
henemist
henenud
henes
henesid
henevad
henn
henning
henno
hennoste
heno
henri
henriette
henrik
henriku
henrique
henry
henryk
heo
hepa
hepoolselt
her
hera
herakleitos
herakleitose
herakles
heraklese
herald
herbert
here
heritage
herlin
hermaku
herman
hermann
hermanni
hermans
hermaville
hermes
hermynia
herna
herne
hero
herodes
heroes
herr
herra
herschel
hersoni
herta
hertsegoviina
hertsegoviinas
hertsog
hertsogi
hertsogid
hertsogiks
hertsogile
hertsoginna
hertsogiriigi
hertsogiriik
hertsogite
hertsogkond
hertsogkonda
hertsogkonna
hertsogkonnad
hertsogkonnaks
hertsogkonnas
herzog
hes
hese
hesed
heseid
hesel
heselt
heski
heskoos
heso
hess
hesse
hessen
hesseni
hest
heste
hestest
hestik
hestikku
hestiku
hestikuline
hestikus
hesu
hesugune
hesuguse
hesugused
hesuse
het
heta
hete
heteistku
hetk
hetke
hetkega
hetkeks
hetkel
hetkest
hetki
hetorni
hetuntud
heva
hevad
hex
heß
hf
hg
hh
hha
hhe
hhi
hhiaater
hhiaatria
hhoanalu
hholoog
hholoogia
hholoogias
hholoogiast
hholoogiat
hholoogid
hholoogide
hholoogiline
hholoogilise
hholoogilised
hholoogiliselt
hholoogilist
hholoogiliste
hi
hiajaline
hiajaliselt
hib
hid
hidalt
hidden
hieesma
hielulood
hierarhia
hieroglu
hieronymus
hifilm
high
higher
highway
higi
hihooaja
hiid
hiie
hiiema
hiiglaslik
hiilgav
hiilgus
hiina
hiinas
hiinasse
hiinast
hiinlased
hiio
hiir
hiire
hiired
hiirte
hiis
hiite
hiiu
hiiumaa
hiiumaal
hik
hika
hikaha
hike
hikese
hikesed
hikeseks
hikesi
hikest
hikeste
hikiri
hikirja
hikokkuvo
hikool
hikooli
hikoolis
hikoosseisu
hiku
hikud
hikuid
hikuks
hikus
hikut
hikute
hikutes
hilaire
hilary
hilda
hildegard
hildesheimi
hilduv
hiline
hilise
hilised
hiliseks
hiliselt
hilisem
hilisema
hilisemad
hilisemal
hilisemale
hilisemas
hilisemast
hilisemat
hilisemate
hilisematel
hilisemates
hilisi
hiliso
hilissu
hilist
hiliste
hilisteks
hilja
hiljaks
hiljem
hiljemalt
hiljemgi
hiljemini
hiljuti
hill
hillar
hillary
hille
hilli
hills
hilton
him
hima
himaalaja
himad
himatki
himeeskonnas
himma
himo
himu
hin
hina
hind
hinda
hindab
hindade
hindama
hindamine
hindamise
hindamiseks
hindamisel
hindamist
hindas
hindasid
hindavad
hindi
hindrek
hindu
hinduismi
hine
hineb
hineda
hinedes
hinema
hinemine
hinemise
hinemisel
hinemist
hinenud
hines
hinesid
hinev
hineva
hinevad
hinevaid
hinevat
hinevate
hing
hingamine
hingamise
hingamisel
hingamisteede
hingata
hinge
hinged
hingede
hingega
hingele
hingeo
hinges
hingest
hingeto
hingu
hingud
hingus
hingusse
hingute
hinna
hinnad
hinnaga
hinnang
hinnangu
hinnangud
hinnanguid
hinnangul
hinnanguline
hinnanguliselt
hinnangut
hinnangute
hinnanud
hinnata
hinnatakse
hinnati
hinnatud
hinrikus
hint
hints
hio
hiosa
hiosas
hip
hiplaaniga
hirm
hirmsa
hirmsasti
hirmu
hirmua
hirmuga
hirmul
hirmunud
hirmus
hirmust
hirsch
hirundo
hirv
his
hise
hiseadus
hiseaduse
hiseadusega
hiseadusele
hiseaduses
hiseadusliku
hiseadust
hised
hisega
hiseid
hiseks
hisel
hisele
hiselt
hiselu
hisena
hises
hisest
hisettevo
hisgu
hishaud
hiskond
hiskonda
hiskondades
hiskondlik
hiskondlike
hiskondlikke
hiskondlikku
hiskondliku
hiskondlikud
hiskondlikult
hiskonna
hiskonnale
hiskonnas
hiskonnast
hiskonnateaduste
hiskonnategelane
hisna
hiso
hispaania
hispaaniale
hispaanias
hispaaniasse
hispaaniast
hispaaniat
hispaanlased
hispania
hispank
hissoost
hisstardiga
hist
histab
histada
histama
histamaks
histamine
histamise
histamiseks
histamist
histas
histasid
histatakse
histati
histatud
histav
histavad
histe
histegevuse
histel
histele
histo
histoire
histoloogia
historia
historiae
historic
historical
historie
historischen
historisches
history
histu
histus
histute
hisus
hisuse
hit
hita
hiti
hitler
hitleri
hito
hits
hitses
hitseti
hitsetud
hitt
hitud
hiu
hiv
hiva
hivo
hj
hja
hjad
hjade
hjaga
hjakaldal
hjaks
hjaku
hjal
hjala
hjale
hjalik
hjaliku
hjalikult
hjalikumalt
hjalmar
hjalt
hjamaa
hjamaade
hjamaades
hjamere
hjani
hjaosa
hjaosas
hjapo
hjapoolkera
hjapoolkeral
hjapoolne
hjapoolse
hjapoolseim
hjapoolsem
hjarannik
hjarannikul
hjas
hjasaami
hjaso
hjast
hjata
hjavee
hjend
hjendada
hjendades
hjendas
hjendatud
hjendeid
hjendid
hjendus
hjus
hjuse
hjused
hjuseid
hjuseks
hjusel
hjusena
hjuseta
hjusi
hjuslik
hjust
hjusta
hjustab
hjustada
hjustades
hjustajaks
hjustanud
hjustas
hjustasid
hjustatud
hjustavad
hjuste
hjusteks
hjustel
hjustest
hk
hkeaine
hkel
hki
hkida
hkima
hkis
hkkond
hkleid
hkli
hklid
hklipuu
hko
hkto
hku
hkuda
hkuja
hkus
hkuto
hl
hlau
hle
hlen
hler
hlk
hlten
hm
hma
hmad
hmade
hmadega
hmades
hmaga
hmaks
hmale
hmas
hmast
hmau
hme
hmelno
hmi
hmitus
hmituse
hmituste
hms
hmus
hmuse
hn
hna
hnab
hnad
hnaga
hnav
hne
hni
ho
hobi
hobu
hobujo
hobune
hobuse
hobused
hobusega
hobuseid
hobusel
hobust
hobuste
hobustega
hoc
hockey
hockeydb
hof
hoffman
hoffmann
hofmann
hohenzollern
hoia
hoiab
hoiak
hoiaku
hoiakud
hoiakuid
hoiakut
hoiakute
hoiatas
hoiatus
hoiavad
hoida
hoides
hoidis
hoidja
hoidku
hoidma
hoidmine
hoidmise
hoidmiseks
hoidnud
hoidsid
hoiduda
hoiduma
hoitakse
hoiti
hoitud
hoiu
hoiuala
hoiul
hoiule
hoki
hokiklubi
hokikoondise
hokima
hokkaido
hold
holders
holding
hole
holger
holiday
holland
hollandi
hollandikeelne
hollandis
hollandisse
hollandist
hollandlane
holly
hollywood
hollywoodi
holm
holmes
holmesi
holmi
holocaust
holokausti
holstein
holsteini
holstre
holt
holy
home
homer
homerose
homieli
homme
hommik
hommiku
hommikuks
hommikul
hommikuse
hommikuso
hommikust
hommikuti
homo
homogeenne
honda
hondurase
hone
honey
hong
hongkong
hongkongi
hongkongis
honor
honore
honorius
hoo
hooaeg
hooaega
hooaegadel
hooaja
hooajaks
hooajal
hooajaline
hooajast
hoobi
hood
hooga
hoogu
hook
hooldaja
hooldajao
hoolde
hooldekodu
hooldus
hoole
hoolega
hoolekande
hooleks
hooli
hoolikalt
hoolimata
hoolinud
hoolitseb
hoolitseda
hoolitsema
hoolitses
hoolt
hoone
hooned
hooneid
hoonel
hoonele
hoones
hoonesse
hoonest
hoonestus
hoonet
hoonete
hoonetekompleks
hoonetel
hoonetes
hoonetest
hoop
hoopis
hoopiski
hoovi
hoovus
hop
hopa
hope
hopkins
horace
horisondi
horisont
horisontaalne
horisontaalse
horisontaalselt
horizon
horn
horni
horse
horst
hortus
horvaadi
horvaatia
horvaatias
hospital
host
hot
hotel
hotell
hotelli
hotellis
hour
hours
house
housing
houston
how
howard
howe
hoxha
hp
hr
hradec
hren
hrer
hri
hrodna
hronika
hrsg
hrung
hrus
hs
hsbc
ht
hta
htaeg
htaega
htaegu
htaja
htajaks
htamatu
htamatud
htav
htava
htavad
htavaks
htavale
htavalt
htavasti
htawale
htc
hte
htede
htedega
htedel
htedest
htegi
htekokku
htekoodi
htekoodiga
htemoodi
hti
htis
htjas
htk
htki
htkuju
htkujus
htlane
htlase
htlaselt
htlasi
htm
htme
html
htne
htpa
htru
htsa
htsad
htsaid
htsaim
htsaimad
htsaimaks
htsaks
htsal
htsam
htsama
htsamad
htsamaid
htsamaks
htsamate
htsat
htsate
htse
htseks
htset
htsus
htsuse
htsusega
htsuselt
htsusest
htsuspartei
htsust
http
https
htu
htub
htud
htuda
htudes
htuid
htuks
htul
htuleht
htune
htuni
htunud
htus
htuse
htused
htusi
htuso
htust
htuste
htut
htutakse
htutel
htuti
htuv
htuvad
htuvalt
htvere
htviisi
hu
hua
huang
hub
hubble
huber
hubert
hud
hudson
hudsoni
huffington
huga
hugh
hughes
hugo
hugues
hujo
hukaitse
hukata
hukati
hukatud
huke
hukese
hukesed
hukeste
hukka
hukkamine
hukkamo
hukkasid
hukkub
hukkunud
hukkunuid
hukkunute
hukkus
hukkusid
hul
hule
hulga
hulgad
hulgaga
hulgal
hulgale
hulgaliselt
hulganisti
hulgas
hulgast
hulk
hulka
hulkade
hull
hullem
hullu
hulluks
hullumeelne
hulo
huma
humal
humala
human
humanitaar
humanitaarabi
humanitaargu
humanitaarteaduste
humanities
humans
humboldti
hume
humie
hummuli
humo
humorist
humuuseum
huna
hundi
hundid
hungarian
hungary
huniiskus
hunt
hunter
hunti
hunyadi
huo
hupel
hurda
huro
hurt
huru
huruumi
hus
husa
husalt
husam
huso
hust
husus
hususe
husust
huta
hutab
hutada
hutades
hutama
hutanud
hutas
hutasid
hutatakse
hutati
hutatud
hutavad
hutemperatuur
hutemperatuuri
huti
huto
hutud
hutusel
huuled
huuli
huulte
huumor
huumori
huva
huve
huvi
huvid
huvide
huvidega
huvidele
huvides
huvidest
huviga
huvisid
huvita
huvitab
huvitanud
huvitas
huvitatud
huvitav
huvitava
huvitavad
huvitavaid
huvitavat
huvitus
huxley
hvardab
hvardades
hvardas
hvardasid
hvel
hvi
hvis
hybrid
hyde
hyper
hyundai
hz
høeg
i
ia
iaaf
iad
iai
iakse
ial
ialgi
ian
ias
iata
iauliai
ib
iba
ibe
ibeeria
ibel
ibele
ibki
ibm
ibn
ibolla
ibrahim
ibsen
ibu
ic
icao
ice
iceland
ich
id
ida
idab
idagootide
idaho
idakaldal
idaks
idakse
idaku
idamaade
idame
idan
idanud
idaosa
idaosas
idapoolne
idarannikul
idarindel
idas
idast
idata
idatakse
idates
idati
idatud
idavad
ide
idea
ideaal
ideaali
ideaalne
ideaalse
idealism
ideas
idee
ideed
ideede
ideedest
ideega
ideele
ideest
ideid
idelda
ideldes
idelnud
idend
idendeid
idendi
idendid
idendis
idendit
idendite
identification
identiteedi
identiteet
identiteeti
identity
identne
identsed
ideoloogia
ideoloogilise
ides
idesaatev
idesaatva
idet
idetakse
idetav
idetava
idetavalt
idete
idetega
ideteks
ideti
idetud
idi
idioot
idis
idla
ido
idu
iduauto
idud
iduga
iduk
iduka
idukas
idukeid
iduki
idukid
idukit
idukite
iduks
idul
idule
iduma
idupu
idus
iduse
iduso
idust
idutee
ie
iec
ied
iedali
iedzi
ieee
iega
iel
iela
ielik
ielikku
ieliku
ielikuks
ielikult
ielikus
ieline
ielised
ieliste
iend
iendab
iendada
iendama
iendanud
iendas
iendati
iendatud
iendav
iendava
iendavad
iendavaid
iendavalt
iendavat
iendavate
iene
ieo
ies
iest
ieste
iesti
iete
ieti
ietolmu
ieva
ievoliline
if
ig
iga
igakord
igaks
igaku
igal
igale
igalt
igana
iganes
iganud
igapa
igapidi
igas
igasse
igast
igasugu
igasugune
igasuguse
igasugused
igasuguseid
igasugust
igasuguste
igat
igata
igatahes
igatakse
igati
igatsus
igatud
igau
igav
igavene
igavese
igaveseks
igavest
igavesti
igaviku
ige
igeaegselt
iged
igega
igeid
igekeelsusso
igeks
igel
igele
igem
igemast
igemini
igepealt
iges
igesse
igest
igesti
iget
igete
igeusklikud
igeusku
igeusu
igga
igi
igihaljas
igil
igile
igilt
igis
igist
igiti
iglane
iglase
iglaselt
iglus
igluse
iglust
ign
ignatius
igor
igu
igub
igud
iguga
igukast
igul
igule
igupoolest
igus
igusaktid
igusaktide
iguse
igused
igusega
igusele
igusemo
iguses
igusest
igusi
igusja
iguskantsler
iguskantsleri
iguslane
iguslik
iguslike
iguslikest
iguslikke
iguslikku
iguslikkuse
igusliku
iguslikud
iguslikult
iguspa
igusseadus
igussu
igust
igustab
igustada
igustatud
iguste
igusteadlane
igusteadus
igusteaduse
igusteaduskonna
igusteaduskonnas
igusteadust
igusteaduste
igustega
igustest
igustus
iha
ihre
ihtu
ihu
ii
iial
iialgi
iid
iidne
iidse
iii
iili
iilis
iim
iimi
iimiga
iimis
iiri
iirimaa
iirimaal
iiris
iisaku
iisrael
iisraeli
iisraelis
iiveldus
ija
ijad
ijaks
ijate
ik
ika
ikab
ikama
ikamine
ikas
ike
iked
ikeettevo
ikega
ikeho
ikeja
ikelinn
ikene
ikes
ikese
ikesed
ikeseid
ikeseks
ikesel
ikesele
ikeses
ikesest
ikesesu
ikeseto
ikesi
ikest
ikeste
ikestel
ikestele
ikestes
ikestest
iketa
iki
ikide
ikidel
ikidele
ikides
ikidest
ikistani
ikistanis
ikiv
ikivad
ikjal
ikjale
ikka
ikkagi
ikke
ikla
ikne
ikoon
ikooni
ikov
iks
ikse
iksed
ikseid
ikseim
ikseks
ikselt
iksem
iksema
iksemad
iksemaid
iksemaks
iksemat
iksemate
iksemateks
iksemates
iksid
iksime
iksin
iksugu
iksus
iksuse
ikt
iku
ikude
ikudel
ikus
ikuse
ikust
ikvo
il
ila
ile
ileib
ili
ilib
ilimise
ilinud
ilis
iliselt
ilisid
ilitab
ilitada
ilitades
ilitama
ilitamine
ilitamise
ilitamiseks
ilitamist
ilitanud
ilitas
ilitasid
ilitatakse
ilitati
ilitavad
ilivad
ilja
iljits
ilkka
ill
illegaalse
illinois
illinoisi
illu
illuka
illusioon
illustraator
illustrated
illustratsioonid
illustreerinud
illustreeris
illustreeritud
ilm
ilma
ilmaga
ilmale
ilmalik
ilmalikku
ilmaliku
ilmalikud
ilmamaa
ilmar
ilmari
ilmas
ilmast
ilme
ilmed
ilmet
ilmja
ilmne
ilmneb
ilmnenud
ilmnes
ilmnevad
ilmselgelt
ilmselt
ilmsiks
ilmtingimata
ilmub
ilmuda
ilmuma
ilmumine
ilmumise
ilmumist
ilmunud
ilmus
ilmusid
ilmutab
ilmutas
ilmutus
ilmutuse
ilmuv
ilmuvad
ilo
ilona
ilse
ilt
ilu
ilukirjandus
ilukirjanduse
ilukirjandust
ilus
ilusa
ilusad
ilusaid
ilusaks
ilusal
ilusam
ilusasti
ilusat
ilusate
ilust
ilusti
iluuisutaja
iluvo
ilves
ilvese
im
ima
image
images
imaging
imalda
imaldab
imaldada
imaldades
imaldaks
imaldama
imaldanud
imaldas
imaldasid
imaldavad
imalik
imalike
imalikest
imalikke
imalikku
imalikkus
imalikkuse
imalikkusest
imalikkust
imaliku
imalikud
imalikuks
imalikult
imalikust
imalus
imaluse
imalused
imalusega
imalusel
imalusest
imalusi
imalust
imaluste
imalustega
imalustele
imalustest
imas
imata
imatu
imatuks
imavere
imbi
imdb
ime
imed
imede
imees
imega
imeid
imeks
imekus
imekuse
imekust
imela
imele
imelik
imelikku
imelikud
imelikult
imeline
imelise
imelised
imendi
imendus
imes
imest
imestades
imestas
imestus
imet
imetaja
imetajad
imetajate
imetajatel
imete
imetlusva
imetu
imetuks
imetus
imf
img
imine
iminud
imise
imist
imitud
imkond
imkonda
imla
imleja
imlemine
imlemise
immanuel
immatrikuleeriti
immigrantide
immune
immunology
immuunsu
imo
impact
impeerium
impeeriumi
impeeriumis
imperatiiv
imperfektiivne
imperial
implications
import
importance
important
impulsi
impulss
imre
imsa
imsad
imsaim
imsam
imsate
imsus
imsuse
imsusega
imsust
imu
imud
imude
imudega
imudele
imuga
imuks
imul
imule
imult
imunud
imus
imuses
imuso
imust
imuvo
in
ina
inamere
inari
inas
inc
including
ind
indeks
indeksi
independence
independent
index
india
indiaani
indiaanlased
indiaanlaste
indian
indiana
indianapolis
indias
indiasse
indiast
indie
individuaalne
individuaalse
individuaalsed
individuaalselt
individual
indiviid
indiviidi
indiviidid
indiviidide
indiviiditi
indo
indoeuroopa
indoneesia
indoneesias
indonesia
indrek
indreku
indrekul
indrekule
indrik
induced
induktsioon
induktsiooni
induse
industrial
industries
industry
indutseeritud
ine
inen
ines
inetu
infarkti
infection
infektsiooni
inflatsioon
inflatsiooni
influence
info
infokeskus
infoleht
inforegister
informa
informaatika
information
informatsioon
informatsiooni
infosu
infot
infotehnoloogia
infou
infovastupanu
infrastruktuur
infrastruktuuri
infty
ing
inga
inge
ingeborg
ingel
ingeri
ingerimaa
ingerimaal
ingis
ingl
inglane
inglased
inglaste
ingli
inglid
inglise
ingliskeelne
ingliskeelse
ingliskeelses
ingliskeelsest
ingliskeelset
inglismaa
inglismaal
inglismaale
inglismaalt
inglite
ingmar
ingo
ingrid
ingus
ingvar
inhaber
ini
inimarengu
inimelu
inimene
inimese
inimesed
inimesega
inimeseks
inimesel
inimesele
inimeselt
inimesena
inimeseni
inimeses
inimesest
inimesi
inimest
inimeste
inimestega
inimestel
inimestele
inimestelt
inimestes
inimestest
inimkeha
inimkond
inimkonna
inimkonnale
inimlik
inimliku
inimmo
inimo
inimorganismi
inimsoo
inimtegevuse
inimtu
inimva
initiative
initsiatiivi
initsiatiivil
inja
inn
inna
inni
innocent
innocentius
innovation
innovatsiooni
innsbruck
innsbrucki
innsbruckis
innukalt
ino
inquiry
inreko
ins
insener
inseneri
insenerid
inseneride
insenerina
inside
insider
inski
inspekcija
inspektor
inspiratsiooni
inspireeris
inspireeritud
instagram
institut
institutas
institute
institution
institutsioon
institutsiooni
institutsioonid
institutsioonide
instituudi
instituudis
instituut
instituuti
instruktor
instrument
instrumentaal
instrumentide
instruments
insurance
int
inte
integraallu
integrated
integration
integratsiooni
integreeritud
intel
inteli
intellekt
intellektuaalne
intellektuaalse
intelligence
intelligentne
intelligentsuse
intensiivne
intensiivse
intensiivselt
intensiivsus
intensiivsuse
intensiivsusega
intensiivsust
inter
interaction
interactions
interactive
interaktiivne
interaktsiooni
interest
interface
interjo
interlingua
internacional
internal
international
internationale
internatsionaali
internazionale
internet
interneti
internetis
internetist
internetiu
internetti
interpretation
interstate
intervall
interview
intervjuu
intervjuud
intervjuus
intervjuusid
into
intressi
intressima
introduction
introdutseeriti
ints
inud
inuks
invasion
invasioon
invasiooni
invest
investeerida
investeeringud
investeeringuid
investeeringute
investigation
investor
io
ion
ioon
ioone
iooni
ioonid
ioonide
ios
iowa
ip
ipa
ipad
iphone
ipod
ipv
iq
ir
ira
iraagi
iraagis
iraak
iraan
iraani
iraanis
iran
iraq
irboska
ird
ire
ired
irega
ireid
ireland
irene
irete
iretega
iri
irib
irida
irina
iris
irish
iritud
irja
irkutski
irl
irma
iron
iroonia
iru
irv
irving
irwin
is
isa
isaac
isaak
isabel
isabella
isabelle
isad
isade
isaga
isaha
isahoone
isaid
isakompleks
isakompleksi
isaks
isaku
isal
isale
isalt
isamaa
isamaad
isamaaso
isana
isand
isanda
isandad
isandate
isane
isaomanik
isapoolne
isaportaalis
isas
isased
isaslind
isast
isaste
isastel
isasu
isat
isate
isates
isavald
isavalitseja
isavallas
isbn
ise
isea
isealiseks
ised
iseenda
iseendaga
iseendale
iseendast
iseenese
iseeneses
iseenesest
iseennast
isegi
isekeskis
isel
iseloom
iseloomu
iseloomuga
iseloomulik
iseloomulikke
iseloomulikku
iseloomuliku
iseloomulikud
iseloomulikuks
iseloomust
iseloomustab
iseloomustada
iseloomustamiseks
iseloomustas
iseloomustatakse
iseloomustav
iseloomustavad
isend
isendeid
isendi
isendid
isendit
isendite
iseo
ises
iseseisev
iseseisva
iseseisvad
iseseisvaks
iseseisvalt
iseseisvat
iseseisvate
iseseisvumise
iseseisvumist
iseseisvus
iseseisvuse
iseseisvuspa
iseseisvuspartei
iseseisvusso
iseseisvust
isha
isi
isid
isik
isikkoosseisu
isiklik
isiklike
isiklikke
isiklikku
isikliku
isiklikud
isiklikuks
isiklikult
isiklikust
isiksus
isiksuse
isiksusha
isiku
isikuandmete
isikud
isikuga
isikuid
isikuks
isikul
isikule
isikuna
isikupa
isikus
isikust
isikut
isikute
isikutel
isikutele
isikutest
isime
isin
isis
isiwad
iskasvanu
iskasvanud
iskasvanuks
iskasvanute
iskasvanutel
iskasvanutele
iskogu
iskuu
isla
islam
islami
islamic
islamiliikumise
islamiriik
island
islandi
islandil
islands
isle
ism
isma
ismi
isnik
isnike
isnikkude
isniku
isnikud
isnimega
iso
isolatsiooni
isoleeritud
ispikk
israel
israeli
iss
issa
issand
issanda
isse
issi
issn
isso
issue
issues
ist
ista
istab
istad
istagi
istaimede
istame
istan
istate
istatus
istavad
iste
isted
istega
isteid
istelda
isteldi
istele
istelnud
istes
istest
istet
istetakse
istetav
istetavaks
istete
isteti
istetud
istis
istja
istkond
istkonda
istkondade
istkonna
istkonnad
istkonnaga
istkonnas
istleb
istleja
istlejad
istlejat
istlema
istles
istlesid
istlevad
istlik
istliku
istlikult
istlus
istluse
istlused
istlusel
istlusele
istluses
istlusest
istlusi
istlust
istluste
istlusteks
istlustel
istlustele
istlustelt
istlustest
istma
istmine
istmise
istmiseks
istmist
istnud
istra
istria
istsid
istsin
istu
istub
istuda
istudes
istuma
istun
istung
istungi
istungil
istungja
istunud
istus
istuse
istusega
istusele
istusid
istusin
istuspa
istust
istutada
istutati
istutatud
istuvad
istva
isu
isuri
it
ita
itaalia
itaaliale
itaalias
itaaliasse
itaaliast
itaaliat
itaallane
itaallased
itab
itaja
itajad
itajaid
itajate
italia
italian
italiana
italiane
italy
itama
itamiseks
itan
itas
itasid
itavad
ite
ited
itega
iteid
itejuht
itekiri
itekirja
itekirjaga
itekirjanik
iteks
itekunsti
itel
itele
iteline
item
itema
itemid
itena
ites
itest
itev
itevkomitee
iti
itis
itja
itjad
itjaid
itjaks
itjale
itjana
itjat
itjate
itleb
itleja
itlejad
itlejaid
itlejaks
itlejana
itlejanna
itlejat
itlejatar
itlejate
itlema
itlemine
itlemise
itlemiseks
itlemist
itles
itlesid
itlevad
itlus
itluse
itlused
itlusega
itluseks
itlusele
itluses
itlusest
itlusse
itlust
itma
itmata
itmatu
itmine
itmise
itmisega
itmiseks
itmisel
itmisele
itmisest
itmist
itnud
ito
its
itsa
itseaeg
itseb
itsemise
itseng
itsengu
itses
itsev
itsevad
itsid
itsin
itsiwad
itta
itu
itub
ituda
itude
ituma
itumine
itumise
itumisega
itumisele
itumises
itumisest
itumist
itunes
itunud
itus
ituse
itused
ituseks
itusel
itusele
itusi
itust
ituste
itustel
ituvad
iu
iucn
iucni
iupac
iuris
ius
iuse
iuslik
iusliku
iustatud
iutud
iv
iva
ivad
ivaid
ivan
ivanhoe
ivano
ivanov
ivanova
ivanovits
ivanovna
ivanovo
ivanud
ivar
ivari
ivas
ivasid
ivask
ivaste
ivat
ivata
ivate
ivatud
ive
ivergny
ivi
ivitada
ivitas
ivitati
ivo
ivu
ivupuu
iwad
ix
iz
iza
izel
j
ja
jaa
jaago
jaagu
jaagup
jaagupi
jaak
jaakko
jaakobi
jaakson
jaam
jaama
jaamahoone
jaamas
jaamast
jaan
jaana
jaani
jaanika
jaanilinna
jaanio
jaanipa
jaanis
jaanson
jaanuar
jaanuari
jaanuaril
jaanuarini
jaanuaris
jaanuarist
jaanus
jaapan
jaapani
jaapanis
jaapanisse
jaapanist
jaapanlased
jaapanlaste
jaava
jack
jackie
jackson
jacksoni
jacob
jacobs
jacques
jad
jada
jaemu
jaga
jagab
jagada
jagades
jagama
jagamine
jagamise
jagamisega
jagamisel
jagamist
jaganud
jagas
jagasid
jagatakse
jagati
jagatud
jagavad
jagu
jaguneb
jagunemine
jagunemist
jagunenud
jagunes
jagunesid
jagunevad
jah
jahe
jahho
jahi
jahil
jahimees
jahr
jahrbuch
jahre
jahrhundert
jahrhunderts
jaht
jahti
jahtklubi
jahu
jaime
jaja
jajo
jak
jaka
jake
jakob
jakobi
jakobson
jakobsoni
jakooli
jakoolis
jakov
jakovlev
jaks
jaksa
jakub
jakuudi
jakuutia
jala
jalad
jalaev
jalaeva
jalaevad
jalaevade
jalaevastiku
jalaga
jalaja
jalaka
jalakas
jalal
jalale
jalamil
jalano
jalas
jalast
jalaste
jalava
jale
jalg
jalga
jalgade
jalgadega
jalgadel
jalge
jalgpall
jalgpalli
jalgpalliklubi
jalgpalliklubide
jalgpallikoondis
jalgpallikoondise
jalgpallikoondisega
jalgpallikoondisele
jalgpallikoondises
jalgpallikoondislaste
jalgpalliliidu
jalgpalliliit
jalgpallis
jalgpallistaadion
jalgpallitreener
jalgpalliturniiril
jalgpalliva
jalgpallur
jalgpalluriks
jalgratta
jalgrattaso
jalgrattur
jalgsi
jalgu
jaline
jalis
jalise
jalised
jaliselt
jalisi
jalist
jaliste
jalule
jalutama
jalutuska
jam
jama
jamaica
jamburgi
jamees
jameeste
jamehed
james
jamesi
jamie
jaministeeriumi
jaminister
jamo
jan
jana
janar
jane
janeiro
janeiros
janek
janet
jani
janika
janis
janne
janno
jannsen
jannseni
jano
jansen
janson
janu
januari
january
janukovo
janus
janusz
jao
jaoks
jaolt
jaos
jaoskond
jaoskonna
jaotada
jaotamine
jaotamise
jaotatakse
jaotati
jaotatud
jaotub
jaotunud
jaotus
jaotuse
jaotust
jaotuvad
japan
japanese
japo
jardi
jaretke
jari
jarl
jarmo
jaroslav
jaroslavits
jaroslavli
jas
jaska
jason
jasper
jast
jate
jategevus
jategevuse
jategevuses
jategevust
jaunpiebalga
java
javangi
javangide
javier
jawa
jay
jazz
jciems
je
jean
jeanette
jeanne
jeemeni
jeesus
jeesuse
jeesust
jeff
jefferson
jeffersoni
jeffrey
jegor
jegorov
jehoova
jekaterina
jelena
jelgava
jelizaveta
jeltsin
jeltsini
jena
jenissei
jennifer
jenny
jens
jensen
jeremy
jerevani
jerome
jerry
jersey
jerusalem
jeruusalemm
jeruusalemma
jeruusalemmas
jerzy
jesmin
jesper
jesse
jessica
jesu
jesuiidid
jesuiitide
jesus
jet
jevgeni
jewish
jh
ji
jia
jiang
jidis
jill
jim
jimi
jimmy
jin
jir
jit
jj
jk
jm
jms
jmt
jne
jo
joa
joachim
joakim
joala
joan
joann
joanna
joaqui
job
jobs
joe
joel
joensuu
joey
johan
johani
johann
johanna
johannes
johannese
johanni
johansen
johanson
johansson
john
johni
johnny
johns
johnson
johnsoni
join
joins
joint
jojo
jon
jonas
jonathan
jones
jonesi
jong
jonsson
joo
joob
joobnud
joodi
jooga
joogi
jook
jooke
jooki
jookide
jooks
jookse
jookseb
jooksevad
jooksid
jooksis
jooksja
jooksma
jooksnud
jooksu
jooksul
jooksus
jooma
joomine
joon
joonas
joone
jooned
joonega
joonel
joonele
jooni
joonia
joonis
joonised
joonisel
joonisfilm
joonistada
joonistamise
joonistanud
joonistas
joonistatud
joonistus
joonistused
joonistusi
joonistuso
joont
joonte
joonud
joosep
joosepi
joost
joosta
joostes
jordaania
jordan
jordani
jorge
jorma
jos
jose
josef
joseph
josephi
josh
joshua
josip
jossif
jostson
jour
journal
journey
joy
joyce
joyner
jp
jpeg
jpg
jpl
jpm
jpt
jr
js
jstor
jt
ju
juan
jub
juba
jube
jud
juda
judaismi
jude
judith
judo
judy
juga
jugla
jugoslaavia
jugoslaavias
juh
juha
juhan
juhani
juhanson
juhatab
juhatada
juhataja
juhatajaks
juhatajana
juhatanud
juhatas
juhatus
juhatuse
juhatusel
juhatuses
juhatusse
juhend
juhendaja
juhendajad
juhendamisel
juhendanud
juhendas
juhi
juhib
juhid
juhiks
juhile
juhina
juhised
juhiseid
juhitakse
juhitav
juhitava
juhitaval
juhiti
juhitud
juhivad
juhkentali
juho
juht
juhte
juhti
juhtida
juhtide
juhtides
juhtima
juhtimine
juhtimise
juhtimisega
juhtimiseks
juhtimisel
juhtimises
juhtimissu
juhtimist
juhtinud
juhtis
juhtisid
juhtiv
juhtiva
juhtivad
juhtivaid
juhtivaks
juhtivate
juhtkond
juhtkonda
juhtkonna
juhtno
juhtu
juhtub
juhtuda
juhtudel
juhtudest
juhtum
juhtuma
juhtumeid
juhtumi
juhtumid
juhtumil
juhtumised
juhtumisi
juhtumist
juhtumit
juhtumite
juhtunud
juhtus
juhuks
juhul
juhus
juhuse
juhuslik
juhuslike
juhusliku
juhuslikud
juhuslikult
juhust
juice
juka
jukad
jukamaid
jukas
jukka
juku
jul
jule
jules
julge
julged
julgelt
julgenud
julgeolek
julgeoleku
julgeolekujo
julgeolekuno
julgeolekupolitsei
julgeolekuteenistuse
julges
julgus
julguse
julgust
julgustas
julia
julian
juliana
juliane
julie
julien
juliette
julija
julio
julius
juliuse
julm
julma
july
juma
jumal
jumala
jumalad
jumalaema
jumalaga
jumalaid
jumalaks
jumalal
jumalale
jumalalt
jumalanna
jumalas
jumalasse
jumalast
jumalat
jumalate
jumalateenistus
jumalateenistuse
jumalateenistused
jumalateenistusi
jumalatele
jumalik
jumalikku
jumaliku
jumalus
jumaluse
jumava
jump
jums
jun
june
jung
junior
juno
junud
juozas
jupiter
jupiteri
jure
juri
juridica
juriidiline
juriidilise
juriidilised
juriidiliselt
juriidiliste
juris
jurisdiktsiooni
jurist
juristi
juristide
juristina
jus
jusfa
jusid
juske
juss
jussi
just
justice
justiitsministeerium
justiitsministeeriumi
justiitsminister
justiitsministri
justin
justinianus
justinianuse
justkui
justus
juta
jutab
jutada
jutama
jutanud
jutas
jutasid
jutatud
jutavad
jutlus
jutluse
jutlust
jutlustaja
jutt
jutte
juttu
jutu
jutud
jutule
jutuma
jutusi
jutust
jutustab
jutustada
jutustaja
jutustas
jutustus
jutustuse
jutustused
jutustusi
juua
juubel
juubeli
juubelit
juuda
juudas
juudi
juudid
juudit
juuksed
juukseid
juula
juuli
juulil
juulini
juulis
juulist
juuni
juunil
juunini
juunior
juunioride
juunipo
juunis
juunist
juur
juura
juurde
juurdeehitis
juurdepa
juurdunud
juure
juured
juures
juuresolekul
juurest
juuri
juurte
juurtega
juuru
juust
juuste
juustega
juustu
juut
juute
juuti
juutide
juv
juva
juvad
juventus
juvo
jyva
k
ka
kaabel
kaabli
kaabu
kaader
kaadri
kaagja
kaal
kaalep
kaali
kaaliumi
kaalu
kaalub
kaaluda
kaaluga
kaaluma
kaalus
kaalutlused
kaalutlustel
kaalutud
kaaluvad
kaamera
kaane
kaanon
kaar
kaardi
kaardid
kaardil
kaardile
kaardima
kaardirakendused
kaardistamine
kaardiva
kaare
kaarel
kaaren
kaarepere
kaari
kaarina
kaarli
kaarma
kaart
kaarte
kaarti
kaartide
kaartidel
kaas
kaasa
kaasaarvatud
kaasabil
kaasaegne
kaasaegse
kaasaegsed
kaasaegses
kaasaegset
kaasaegsete
kaasaja
kaasajal
kaasamine
kaasani
kaasas
kaasasu
kaasasutaja
kaasata
kaasati
kaasatud
kaasautor
kaasautorid
kaasha
kaasik
kaasiku
kaaslane
kaaslase
kaaslased
kaaslast
kaaslaste
kaaslastega
kaasneb
kaasneda
kaasnenud
kaasnes
kaasnev
kaasnevad
kaasso
kaasto
kaastunne
kaastunnet
kaasvalitseja
kaasvo
kabala
kabardi
kabe
kabel
kabeli
kabelid
kabelis
kabelit
kabes
kabetaja
kabinet
kabineti
kabuli
kadak
kadaka
kadakas
kadarik
kadastik
kade
kadedus
kadega
kadi
kado
kadri
kadrina
kadrioru
kadriorus
kadu
kaduda
kaduma
kadumine
kadumise
kadumist
kadunud
kadunuks
kadus
kadusid
kaebama
kaebas
kaebus
kaebuse
kaebusi
kaebuste
kael
kaela
kaelas
kaelast
kaer
kaera
kaetakse
kaeti
kaetud
kaev
kaevandamine
kaevandamise
kaevandatakse
kaevandus
kaevanduse
kaevata
kaevati
kaevatud
kaevu
kafka
kagu
kaguosa
kaguosas
kagus
kagusse
kah
kahala
kahaneb
kahanenud
kahanes
kahasse
kahe
kaheaastane
kaheaastase
kahekesi
kaheko
kahekordne
kahekordse
kahekorruseline
kaheks
kaheksa
kaheksaks
kaheksaku
kaheksanda
kaheksandikfinaalis
kaheksapaadil
kaheksas
kaheksast
kaheksat
kaheksateist
kaheksateistku
kaheku
kahel
kahelda
kahele
kahemo
kahepa
kahepaadil
kahes
kahest
kaheteistku
kahetses
kahetsus
kahetsust
kahevo
kahju
kahjuks
kahjulik
kahjulikud
kahjustab
kahjustada
kahjustatud
kahjustavad
kahjustus
kahjustused
kahjustusi
kahjustuste
kahjutuks
kahn
kaht
kahte
kahtlane
kahtlema
kahtlemata
kahtlus
kahtluse
kahtlused
kahtlusi
kahtlust
kahtlustatakse
kahtlustati
kahur
kahuri
kahuriga
kahurit
kahvatu
kai
kaia
kaido
kaie
kaija
kaine
kaire
kairi
kairo
kairos
kais
kaisa
kaiser
kaisma
kaitse
kaitseala
kaitsealade
kaitsealal
kaitsealune
kaitseb
kaitsejo
kaitsekategooriasse
kaitseks
kaitsel
kaitsele
kaitseliidu
kaitseliit
kaitsema
kaitseministeerium
kaitseministeeriumi
kaitseminister
kaitseministri
kaitseministriks
kaitsemu
kaitsepataljon
kaitsepolitsei
kaitsepu
kaitseregistrisse
kaitses
kaitseseisukorra
kaitsesid
kaitsesu
kaitset
kaitsev
kaitseva
kaitsevad
kaitsevo
kaitsja
kaitsjad
kaitsjana
kaitsjate
kaitsma
kaitsmine
kaitsmise
kaitsmiseks
kaitsmisel
kaitsmist
kaitsnud
kaitsta
kaitstakse
kaitstes
kaitstud
kaitsva
kaiu
kaja
kajakas
kajar
kajastab
kajastas
kajastatud
kajastavad
kajastub
kaks
kaksikud
kaksikvo
kaksku
kakssada
kaksteist
kakuma
kal
kala
kalad
kalade
kaladest
kalamaja
kalamees
kalapu
kalato
kalda
kaldad
kaldajoone
kaldal
kaldale
kaldalt
kaldmaa
kaldoja
kaldu
kaldub
kaldus
kalduvad
kalduvus
kale
kalender
kalendri
kalendris
kalev
kaleva
kalevala
kalevi
kalevipoeg
kalevipoja
kalevite
kalifaadi
kaliiber
kaliibriga
kaliif
kaliningradi
kalinini
kaljo
kalju
kaljulaid
kaljuma
kaljundi
kaljurand
kaljuste
kalkun
kall
kalla
kallal
kallale
kallas
kallase
kallasmaa
kallast
kallaste
kallastel
kalle
kalli
kallid
kalliks
kallim
kallimad
kallio
kallis
kallist
kalm
kalmari
kalme
kalmer
kalmet
kalmistu
kalmistud
kalmistul
kalmistule
kalmistut
kalmistute
kalmo
kalmu
kalmus
kaltsiumi
kalu
kaluga
kalur
kaluri
kalurid
kalurikolhoos
kaluriku
kalurite
kalvi
kama
kamber
kambja
kambodz
kambri
kambris
kambrisse
kambro
kamerun
kameruni
kammerha
kammerkoor
kammkeraamika
kampaania
kampaanias
kampaaniat
kamts
kan
kana
kanaari
kanad
kanada
kanadas
kanadasse
kanal
kanaleid
kanali
kanalid
kanalil
kanalis
kanalit
kanalite
kanda
kandava
kandes
kandev
kandevo
kandidaadi
kandidaadid
kandidaadiks
kandidaadina
kandidaadiva
kandidaat
kandidaate
kandidaati
kandidaatide
kandidatuuri
kandideerib
kandideerida
kandideerinud
kandideeris
kandideerisid
kandis
kandja
kandjad
kandle
kandma
kandmine
kandmise
kandmiseks
kandnud
kandseente
kandsid
kandub
kandus
kandva
kandvad
kane
kanep
kanepi
kang
kanga
kangas
kangast
kange
kangelane
kangelase
kangelased
kangelaste
kangesti
kangilaski
kangro
kangur
kann
kanna
kannab
kannad
kannada
kannata
kannatab
kannatada
kannatama
kannatanu
kannatanud
kannatas
kannatasid
kannatavad
kannatus
kannatuse
kannatused
kannatusi
kannatust
kannatuste
kannavad
kannel
kannike
kannu
kannul
kansas
kansase
kant
kantaat
kantakse
kanter
kanti
kanton
kantoni
kantonis
kantrilaulja
kants
kantsel
kantselei
kantsi
kantsler
kantsleri
kantud
kanu
kanud
kanuti
kao
kaob
kaoks
kaos
kaotab
kaotada
kaotades
kaotama
kaotamine
kaotamise
kaotamist
kaotanud
kaotas
kaotasid
kaotati
kaotatud
kaotavad
kaotsi
kaotus
kaotuse
kaotused
kaotusega
kaotusi
kaotust
kaovad
kapi
kapimaa
kapital
kapitali
kapitalismi
kaplan
kaplinski
kapp
kapsas
kapten
kapteni
kapteniks
kar
kara
karabahhi
karate
karats
karboksu
karda
kardab
kardan
kardavad
kardeti
kardinal
kardinali
kardinalid
kardinalide
kardinaliks
kardinalpreester
kare
kareda
karel
karelson
karen
karepa
kareva
kargas
kari
kariibi
karika
karikas
karikasarja
karikat
karikaturist
karikatuure
karikatuurid
karikatuurivo
karikavo
karin
karis
karistada
karistas
karistatakse
karistati
kariste
karistus
karistuse
karistused
karistuseks
karistuso
karistusseadustik
karistusseadustiku
karistust
karja
karjala
karjalas
karjamaa
karjamo
karjane
karjas
karjub
karjuda
karjuma
karjus
kark
karksi
karl
karla
karli
karlova
karlovy
karlson
karlsson
karm
karma
karmen
karmi
karmid
karmilt
karmo
karol
karoline
karolingide
karp
karpaatide
karro
kars
karstiala
karta
kartaago
kartes
kartis
kartma
kartnud
kartograaf
kartsid
kartsin
kartul
kartuleid
kartuli
kartus
kartuses
karu
karud
karuks
karula
karuse
karusoo
karv
karva
karvad
karvadega
karvane
karvased
karvkate
kas
kasahhi
kasahstan
kasahstani
kasahstanis
kasak
kasakad
kasakate
kasari
kase
kasemaa
kasemets
kasepa
kasiino
kasik
kasimir
kask
kaspar
kaspia
kass
kassa
kassari
kasse
kasseli
kassi
kassid
kasside
kast
kasta
kastani
kaste
kasti
kastiilia
kastre
kasu
kasuisa
kasukas
kasuks
kasulik
kasulikku
kasuliku
kasulikud
kasulikuks
kasulikum
kasum
kasumi
kasumit
kasuta
kasutab
kasutada
kasutades
kasutaja
kasutajad
kasutajaid
kasutajal
kasutajale
kasutajaliides
kasutajaliidese
kasutajat
kasutajate
kasutajatel
kasutajatele
kasutama
kasutamata
kasutamine
kasutamise
kasutamisega
kasutamiseks
kasutamisel
kasutamisele
kasutamises
kasutamisest
kasutamist
kasutanud
kasutas
kasutasid
kasutata
kasutatakse
kasutatav
kasutatava
kasutatavad
kasutatavaid
kasutatavat
kasutatavate
kasutati
kasutatud
kasutav
kasutavad
kasutegur
kasutu
kasutus
kasutuse
kasutusel
kasutusele
kasutuselevo
kasutuses
kasutusest
kasutusko
kasutusse
kasutust
kasv
kasva
kasvab
kasvada
kasvades
kasvaja
kasvajad
kasvajate
kasvama
kasvamas
kasvamise
kasvanud
kasvas
kasvasid
kasvatab
kasvatada
kasvataja
kasvatama
kasvatamine
kasvatamise
kasvatamiseks
kasvatamisel
kasvatanud
kasvatas
kasvatasid
kasvatatakse
kasvatati
kasvatatud
kasvatus
kasvatuse
kasvav
kasvava
kasvavad
kasvavat
kasvavate
kasvo
kasvu
kasvuga
kasvukohatu
kasvuks
kasvule
kat
kata
katab
katakse
katalaani
kataloog
kataloogi
kataloogis
kataloonia
katalu
katar
katari
katariina
katarina
katastroof
katastroofi
katavad
kate
katedraal
katedraali
katedraalis
kateeder
kateedri
kateedris
kategooria
kategooriad
kategoorias
kategooriasse
kategooriat
kategooriate
katerina
katharina
katherine
kathleen
kati
katie
katja
katk
katkeb
katkematu
katkend
katkenud
katkes
katkesid
katkestada
katkestama
katkestas
katkestati
katki
katku
katla
katlamaja
katma
katmiseks
kato
katoliiklane
katoliiklased
katoliiklaste
katoliiklik
katoliikliku
katoliikluse
katoliku
katre
katri
katrin
katrina
kats
katse
katsed
katseid
katsel
katses
katset
katsetada
katsetas
katsetati
katsete
katsetes
katsetused
katsid
katsu
katsub
katsuda
katsuma
katsunud
katsus
katta
katte
katteks
kattev
kattis
kattub
kattuvad
katud
katus
katuse
katusega
katusel
katusele
katuselt
kaua
kauaaegne
kauaaegse
kauaks
kauba
kaubad
kaubama
kaubamaja
kaubandus
kaubanduse
kaubanduses
kaubanduskeskus
kaubanduskeskuse
kaubandust
kaubatee
kaubelda
kaubeldi
kaudne
kaudselt
kaudu
kauem
kauemaks
kaug
kauge
kauged
kaugel
kaugele
kaugelt
kaugeltki
kaugemal
kaugemale
kaugemalt
kaugete
kaugo
kaugus
kauguse
kaugusel
kaugusele
kauguselt
kaugushu
kaugust
kaukaasia
kaukaasias
kauksi
kaunas
kaunase
kaunases
kauni
kaunid
kaunis
kaunist
kaunistatud
kaunistavad
kaunitar
kaunite
kauno
kaup
kaupa
kaupade
kauplemine
kauplemise
kauplus
kaupluse
kauplused
kaupmees
kaupmeeste
kaupmehe
kaupmehed
kaupo
kaupu
kaupunkien
kaur
kaus
kausi
kava
kaval
kavaler
kavalerid
kavaleride
kavand
kavandas
kavandati
kavandatud
kavandi
kavas
kavastu
kavatse
kavatseb
kavatsenud
kavatses
kavatseti
kavatsus
kavatsuse
kavatsused
kavatsusest
kavatsust
kaver
kavilda
kay
kazimierz
kb
kd
ke
keava
keda
kedagi
keeda
keedetakse
keedetud
keegi
keel
keelab
keelanud
keelas
keelata
keelati
keelatud
keeld
keelde
keeldu
keeldub
keelduda
keeldunud
keeldus
keeldusid
keele
keeled
keelega
keeleks
keelel
keelele
keeleline
keelena
keeleo
keeles
keelest
keeleteadlane
keeleteadus
keeleteaduse
keeleteaduses
keeletoimetaja
keeleversioon
keeli
keelkonda
keelkonna
keelt
keelte
keeltega
keeltes
keeltesse
keeltest
keelu
keelustas
keelustati
keema
keemia
keemias
keemiat
keemiato
keemik
keemiline
keemilise
keemilised
keemiliselt
keemilisi
keemilist
keemiliste
keene
keenia
keenias
keenud
keep
keerab
keerama
keeras
keerata
keeratud
keerd
keeruka
keerukas
keerukate
keerukus
keerukuse
keeruline
keerulise
keerulised
keeruliseks
keerulisem
keerulisemaks
keerulisi
keeruliste
kees
keeta
keevallik
keha
kehad
kehade
kehaga
kehakaalu
kehakaalus
kehakultuuri
kehakultuuriteaduskonna
kehal
kehale
kehaline
kehalise
kehaosa
kehapikkus
kehas
kehasse
kehast
kehastab
kehastas
kehastus
kehra
kehtestab
kehtestada
kehtestamine
kehtestamise
kehtestamist
kehtestas
kehtestati
kehtestatud
kehtetuks
kehti
kehtib
kehtima
kehtinud
kehtis
kehtiv
kehtiva
kehtivad
kehtivuse
kehtna
kehv
kehva
keik
keila
keilas
keiser
keiserlik
keiserliku
keisri
keisrid
keisriks
keisrile
keisrilt
keisrinna
keisririigi
keisririigiga
keisririigile
keisririigis
keisririik
keisririiki
keisrit
keisrite
keit
keith
keizer
kek
kekkonen
kel
kela
kelder
keldi
keldri
keldris
kell
kella
kellad
kellatorn
kelle
kellega
kellegagi
kellegi
kelleks
kellel
kellele
kellelegi
kellelgi
kellelt
kelleltki
kellena
keller
kelles
kellest
kelli
kelly
kelm
kemikaalide
ken
kena
kenad
kenasti
kender
kene
kennedy
kenneth
kenny
kent
kenti
kentucky
kepi
kepiga
kepler
kepleri
kepp
kera
keraamik
keraamika
keraamikat
kere
kerega
kerem
keres
kerese
kerge
kerged
kergejo
kergekaalus
kergekeskkaalus
kergelt
kergem
kergemaks
kergemini
kergesti
kerget
kergete
kergeto
kerkib
kerkinud
kerkis
kerkisid
kerkivad
kerli
kernu
kerry
kersna
kersti
kert
kerttu
kertu
kes
kesa
kese
keset
kesk
keskaeg
keskaegne
keskaegse
keskaegsed
keskaegses
keskaegsest
keskaegsete
keskaja
keskajal
keskajast
keskamet
keskasula
keskasulaks
keskel
keskele
keskelt
keskendub
keskenduda
keskendudes
keskenduma
keskendumine
keskendunud
keskendus
keskendutakse
keskenduvad
keskerakond
keskerakonda
keskerakonna
keskhaigla
keskhariduse
keskinglise
keskjooksul
keskkaalus
keskkaitsjana
keskklassi
keskkomitee
keskkond
keskkonda
keskkondades
keskkonna
keskkonnaamet
keskkonnaga
keskkonnakaitse
keskkonnale
keskkonnaministeerium
keskkonnaministeeriumi
keskkonnaminister
keskkonnamo
keskkonnaportaalis
keskkonnaregistri
keskkonnas
keskkonnaso
keskkonnast
keskkool
keskkooli
keskkoolio
keskkoolis
keskku
keskliidu
keskliit
kesklinn
kesklinna
kesklinnas
kesklinnast
kesklo
keskma
keskmes
keskmine
keskmise
keskmised
keskmisel
keskmiselt
keskmisest
keskmist
keskmiste
keskna
keskne
keskno
kesko
keskosa
keskosas
keskpa
keskpaigaks
keskpaigani
keskpaigas
keskpaigast
keskpaik
keskpaiku
keskpanga
keskpank
keskpunkt
keskpunkti
keskraamatukogu
keskru
keskse
keskseks
kesksel
keskset
keskso
kesksoost
keskta
kesku
keskus
keskuse
keskused
keskusega
keskuseks
keskuses
keskusest
keskusi
keskust
keskva
keskvalitsuse
keskvo
kest
kesta
kestab
kestamiseks
kestavad
kestel
kestev
kestis
kestma
kestnud
kestsid
kestus
kestuse
kestust
ketas
keti
ketlin
kets
kett
ketta
kettaheites
kettaheitja
kettler
keva
kevad
kevade
kevadel
kevadeni
kevadest
kevadine
kevin
key
kg
kgb
kha
khaan
khaani
khaaniriigi
khali
khan
khk
khl
khmeeri
khz
ki
kia
kiai
kiarv
kibe
kibuvits
kid
kida
kide
kides
kidest
kids
kieli
kiga
kige
kihelkond
kihelkonda
kihelkondade
kihelkondlikult
kihelkonna
kihelkonnad
kihelkonnakirik
kihelkonnakool
kihelkonnakooli
kihelkonnakoolis
kihelkonnas
kihelkonnast
kihi
kihid
kihis
kihist
kihistik
kihistiku
kihistu
kihistut
kihlus
kihnu
kiht
kihti
kihtide
kihutas
kiidab
kiideti
kiidetud
kiidja
kiiev
kiievi
kiievis
kiik
kiil
kiili
kiindumus
kiip
kiir
kiirabi
kiire
kiired
kiireim
kiireima
kiireks
kiirelt
kiirem
kiirema
kiiremaks
kiiremini
kiirendab
kiirendada
kiirendus
kiiresti
kiiret
kiirgab
kiirgus
kiirguse
kiirgust
kiiri
kiirlaskumises
kiirte
kiirtee
kiiruga
kiiruisutaja
kiirus
kiiruse
kiirusega
kiirusel
kiirusest
kiirust
kiisa
kiisk
kiisler
kiita
kiitis
kiitma
kiitnud
kiitsid
kiitus
kiitusega
kiitust
kiiu
kiiver
kija
kikas
kike
kikerpuu
kikoda
kikoja
kikojas
kiks
kil
kilbi
kilbil
kildini
kile
kilgas
kiline
kilingi
kilise
kilk
kill
killed
killer
killing
kills
killud
kilo
kilogrammi
kilomeeter
kilomeetri
kilomeetril
kilomeetrit
kilp
kilpkonn
kilpna
kiltsi
kim
kima
kimata
kimine
kimise
kimised
kimisi
kimiste
kimistel
kimmel
kin
kina
kind
kindad
kindel
kindla
kindlad
kindlaid
kindlaks
kindlaksma
kindlal
kindlale
kindlalt
kindlam
kindlas
kindlasti
kindlat
kindlate
kindlus
kindluse
kindlused
kindluses
kindlust
kindlustada
kindlustama
kindlustamine
kindlustamiseks
kindlustas
kindlustatud
kindluste
kindlustus
kindlustuse
kindlustused
kindral
kindralfeldmarssal
kindrali
kindralkuberner
kindralkuberneri
kindralleitnant
kindralmajor
kindralmajori
kindralmajoriks
kindralpolkovnik
kindralstaabi
king
kinga
kingad
kingdom
kingi
kingissepa
kingissepp
kingiti
kingitud
kingitus
kingituseks
kingitusi
kingo
kings
kingsepp
kini
kink
kinkida
kinkinud
kinkis
kinni
kinnine
kinnisasja
kinnise
kinnistu
kinnistute
kinnisvara
kinnitab
kinnitada
kinnitama
kinnitamata
kinnitamine
kinnitamise
kinnitamiseks
kinnitanud
kinnitas
kinnitasid
kinnitatakse
kinnitati
kinnitatud
kinnitavad
kinnitub
kinnitunud
kinnitus
kinnituse
kinnituseks
kinnitusel
kinnitust
kinnituvad
kino
kinodes
kinos
kinud
kio
kipper
kippus
kippusid
kipub
kipuvad
kira
kirbla
kirche
kirchspiel
kirde
kirdeosa
kirdeosas
kirdes
kirdesse
kire
kired
kirg
kirgiisi
kirglik
kirglikult
kiri
kiribati
kirik
kiriklik
kirikliku
kiriku
kirikuaed
kirikud
kirikuga
kirikuhoone
kirikuid
kirikukogu
kirikukogul
kirikuks
kirikuku
kirikul
kirikule
kirikumo
kirikuo
kirikuriigi
kirikus
kirikusse
kirikust
kirikut
kirikute
kirikutes
kirill
kirillitsa
kirillitsas
kirimale
kirj
kirja
kirjad
kirjade
kirjades
kirjadest
kirjaga
kirjakeel
kirjakeele
kirjakeeles
kirjale
kirjalik
kirjalikes
kirjaliku
kirjalikud
kirjalikult
kirjama
kirjamees
kirjameeste
kirjandus
kirjandusauhind
kirjandusauhinna
kirjanduse
kirjandusele
kirjanduses
kirjandusest
kirjanduskriitik
kirjanduskriitika
kirjanduslik
kirjanduslikku
kirjandusliku
kirjandusmuuseum
kirjandusmuuseumi
kirjanduspreemia
kirjandust
kirjandusteadlane
kirjanik
kirjanike
kirjanikke
kirjaniku
kirjanikud
kirjanikuks
kirjanikuna
kirjaoskuse
kirjas
kirjaso
kirjast
kirjastaja
kirjastus
kirjastuse
kirjastuses
kirjata
kirjato
kirjatu
kirjavahema
kirjavahetus
kirjaviis
kirje
kirjelda
kirjeldab
kirjeldada
kirjeldades
kirjeldamine
kirjeldamiseks
kirjeldamisel
kirjeldanud
kirjeldas
kirjeldasid
kirjeldatakse
kirjeldati
kirjeldatud
kirjeldav
kirjeldavad
kirjeldus
kirjelduse
kirjeldused
kirjeldusi
kirjeldust
kirjelduste
kirju
kirjuta
kirjutab
kirjutada
kirjutades
kirjutaja
kirjutama
kirjutamata
kirjutamine
kirjutamise
kirjutamiseks
kirjutamisel
kirjutamist
kirjutan
kirjutanud
kirjutas
kirjutasid
kirjutasin
kirjutatakse
kirjutati
kirjutatud
kirjutavad
kirjutis
kirjutised
kirjutisi
kirjutistes
kirk
kirke
kirna
kirovi
kirs
kirsi
kirsipuu
kirss
kirsti
kirstu
kirurg
kirurgia
kirves
kis
kisa
kise
kisid
kisin
kiskja
kiskuda
kiskus
kiss
kist
kiste
kisti
kisub
kit
kita
kitarr
kitarri
kitarrist
kitas
kiti
kito
kits
kitsa
kitsad
kitsaks
kitsam
kitsamas
kitsaro
kitsas
kitsast
kitse
kitselt
kitsendatud
kitsi
kitty
kitud
kituse
kitzberg
kitzbergi
kitzbu
kiu
kiud
kiusatus
kiuste
kiva
kive
kivi
kiviaja
kivid
kivide
kividega
kividest
kiviga
kivija
kivikalme
kivikas
kiviku
kivil
kivile
kivilo
kivim
kivima
kivimeid
kivimi
kivimid
kivimit
kivimite
kivimu
kivine
kivio
kivira
kivisild
kivisilla
kiviso
kivist
kivistik
kivisu
kiwi
kj
kk
kka
kkab
kkama
kkamine
kkas
kkasid
kke
kked
kkejooks
kkejooksus
kkel
kki
kkida
kkide
kkidega
kkideks
kkidest
kkis
kko
kku
kl
kla
klaar
klaas
klaasi
klaasikunstnik
klaasist
klahvpillid
klahvpillima
klaipe
klara
klarnet
klas
klass
klasse
klassi
klassid
klasside
klassifikaator
klassifikatsioon
klassifikatsiooni
klassifitseeritakse
klassika
klassikakirjastus
klassikaline
klassikalise
klassikalised
klassikalises
klassikalisest
klassikalist
klassikaliste
klassikaraadio
klassikas
klassikaso
klassile
klassiline
klassilise
klassiliseks
klassilises
klassis
klassist
klassitsism
klassitsismi
klassitsistlik
klaus
klaver
klaveri
klaveril
klaverile
klaverima
klaverio
klaverit
klaviatuur
klaviatuuri
klein
kleine
kleini
kleis
kleit
klement
kleopatra
kleve
kli
klid
kliendi
kliendid
kliendile
klient
kliente
klientide
klientidele
kliima
kliimaga
kliimamuutuste
kliimas
kliimat
kliimavo
kliinik
kliiniku
kliinikum
kliinikumi
kliiniline
kliinilise
kliline
kliment
klint
klis
klit
klite
klo
klooga
kloori
klooster
kloostri
kloostrid
kloostrile
kloostris
kloostrisse
kloostrist
kloostrit
kloostrite
kloostriu
klopeedia
klopeediakirjastus
klopeediakirjastuse
klopeedias
klorofu
klubi
klubid
klubide
klubides
klubiga
klubikarja
klubile
klubis
klubisse
klubist
kluge
kluwer
km
kn
knab
knight
know
knowledge
known
knu
knud
knut
ko
koa
koalitsioon
koalitsiooni
kobras
koce
koch
koda
kodade
kodakondsus
kodakondsuse
kodakondsusest
kodakondsust
kodanik
kodanike
kodanikel
kodanikele
kodanikest
kodanikke
kodanikku
kodanikkude
kodaniku
kodanikud
kodanikuks
kodanikule
kodanikunimega
kodanikunimi
kodanikuo
kodanikuu
kodanliku
kodavere
kodeerib
kodeeritud
kodo
kodu
kodudes
koduka
koduks
koduleheku
kodulehel
koduleht
kodulennujaam
kodulinn
kodulinna
kodulinnas
koduloomade
koduloomuuseum
koduma
kodumaa
kodumaad
kodumaal
kodumaale
kodumaalt
kodune
kodunt
koduo
kodus
koduse
koduso
kodust
kodustaadion
kodustatud
kodutu
koduva
koe
koer
koera
koerad
koerato
koeri
koerte
koertel
koeru
koff
kogeda
kogemata
kogemus
kogemuse
kogemused
kogemusele
kogemusest
kogemusi
kogemust
kogemuste
kogemustest
kogenud
koger
kognitiivne
kognitiivse
kogu
koguarv
koguarvu
kogub
kogud
koguda
kogude
kogudes
kogudus
koguduse
kogudused
kogudusele
koguduses
kogudusest
kogudust
koguduste
koguja
kogukond
kogukonda
kogukondade
kogukonna
kogukonnad
kogukonnas
kogum
koguma
kogumik
kogumikku
kogumiku
kogumikus
kogumikust
kogumine
kogumise
kogumiseks
kogumist
kogumit
koguneb
kogunenud
kogunes
kogunesid
kogunevad
koguni
kogunud
kogupikkus
kogupindala
kogus
koguse
koguses
kogusid
kogusse
kogust
kogustes
kogutakse
koguteos
koguti
kogutoodang
kogutoodangust
kogutud
koguva
koguvad
koguvo
koha
kohad
kohaga
kohaks
kohal
kohaldada
kohaldatakse
kohale
kohalik
kohalike
kohalikel
kohalikele
kohalikes
kohalikest
kohalikke
kohalikku
kohaliku
kohalikud
kohalikuks
kohalikul
kohalikule
kohalikus
kohalikust
kohaline
kohalises
kohalolu
kohalt
kohandada
kohandati
kohandatud
kohane
kohaneda
kohanenud
kohanime
kohanimed
kohanimede
kohanimeraamat
kohanimeraamatu
kohanimeraamatus
kohanimi
kohanud
kohapeal
kohas
kohaselt
kohast
kohastunud
kohata
kohati
kohatu
kohatud
kohe
kohelda
kohila
koht
kohta
kohtab
kohtade
kohtadel
kohtadele
kohtades
kohtadesse
kohtadest
kohtas
kohti
kohtla
kohtlemine
kohtlemise
kohtlemist
kohtu
kohtuasi
kohtuasja
kohtuasjas
kohtub
kohtud
kohtuda
kohtudes
kohtule
kohtuma
kohtumaja
kohtumine
kohtumise
kohtumised
kohtumisel
kohtumises
kohtumisi
kohtumist
kohtumo
kohtunik
kohtunike
kohtuniku
kohtunikud
kohtunikuks
kohtunud
kohtuotsus
kohtuotsuse
kohtupa
kohtuprotsess
kohtuprotsessi
kohtus
kohtusid
kohtusse
kohtusu
kohtuta
kohtute
kohtuti
kohtuvad
kohtuvo
kohtvo
kohus
kohuse
kohuseid
kohuseks
kohuseta
kohust
kohustas
kohustatud
kohustus
kohustuse
kohustused
kohustusi
kohustuslik
kohustusliku
kohustuslikuks
kohustust
kohustuste
kohustustest
kohut
kohutav
kohutavalt
kohv
kohvi
kohvik
kohviku
kohvikus
koi
koidu
koidula
koigi
koik
koiola
koit
koiva
koja
kojad
kojas
kojast
koju
koka
kokaiini
kokk
kokko
kokku
kokkulepe
kokkulepet
kokkulepitud
kokkuleppe
kokkulepped
kokkuleppel
kokkuleppele
kokkupo
kokkupuude
kokkupuutel
kokkuto
kokkuvarisemist
kokkuvo
kokla
koknese
koks
kola
kolde
kole
kolesterooli
koletis
kolga
kolhoos
kolhoosi
kolib
kolida
kolima
kolinud
kolis
kolisid
koliti
kolju
kolk
kolla
kollakas
kollane
kollase
kollased
kollast
kollaste
kolle
kolledz
kolleeg
kolleegi
kolleegid
kolleegide
kolleegidega
kolleegipreemia
kolleegium
kolleegiumi
kollektiiv
kollektiivi
kollektiivne
kollektiivse
kollektsiona
kollektsioon
kollektsiooni
kolm
kolmainu
kolmanda
kolmandad
kolmandaks
kolmandal
kolmandale
kolmandana
kolmandas
kolmandasse
kolmandast
kolmandat
kolmandate
kolmandik
kolmandikku
kolmandiku
kolmapa
kolmas
kolme
kolmeaastase
kolmekesi
kolmekordne
kolmekorruseline
kolmeks
kolmeku
kolmel
kolmele
kolmemo
kolmepa
kolmes
kolmest
kolmeteistku
kolmikhu
kolmku
kolmnurga
kolmnurk
kolmnurkne
kolmsada
kolmteist
kolo
kolonel
kolonelleitnant
kolonistid
kolonn
kolonni
koloog
koloogia
koloogialeksikon
koloogiline
koloogilise
koloonia
kolooniad
kolooniaid
kolooniate
koltasaami
kolts
kolu
kolumbus
kolumbuse
koluvere
koma
komandandi
komandant
komando
kombe
kombed
kombeid
kombeks
kombel
kombinatsioon
kombinatsiooni
kombineerida
kombineeritud
komi
kominterni
komisjon
komisjoni
komisjonide
komisjonile
komisjonis
komissar
komissarov
komitaadis
komitee
komme
kommentaar
kommentaare
kommentaarid
kommenteerinud
kommenteeris
kommenteeritud
kommertsgu
kommete
kommunikatsioon
kommunikatsiooni
kommunism
kommunismi
kommunismiohvrid
kommunist
kommunistid
kommunistide
kommunistlik
kommunistlike
kommunistlikku
kommunistliku
kommuun
kommuuni
komo
kompanii
kompaniid
kompassi
kompleks
kompleksi
kompleksujumises
komplekt
komplekti
komponeeris
komponendi
komponendid
komponent
komponente
komponenti
komponentide
kompositsioon
kompositsiooni
kompositsioonio
kompromiss
kompromissi
kompus
komsomoli
komtuur
komtuuri
kon
kondensaatori
kondid
konfiskeeriti
konflikt
konflikte
konflikti
konfliktid
konfliktide
konfliktis
konfo
kong
kongo
kongregatsiooni
kongress
kongressi
kongressil
konguta
konklaav
konklaavil
konkreetne
konkreetse
konkreetsed
konkreetseid
konkreetsel
konkreetsele
konkreetselt
konkreetses
konkreetsest
konkreetset
konkreetsete
konks
konkurents
konkurentsi
konkurentsivo
konkursi
konkursil
konkurss
konn
konna
konomist
konoomia
konoomika
konrad
konsa
konservatiivide
konservatiivne
konservatiivse
konservatooriumi
konservatooriumis
konsistoorium
konsistooriumi
konsool
konsooli
konstant
konstanti
konstantin
konstantinoopoli
konstantinoopolis
konstantinoopolisse
konstantinos
konstantne
konstanzi
konstitutsioon
konstitutsiooni
konstitutsioonikohus
konstrueerida
konstrueeris
konstrueeritud
konstruktor
konstruktsioon
konstruktsiooni
konsul
konsuliteks
konsultant
kont
kontakt
kontakte
kontakti
kontaktid
kontaktide
kontaktis
kontekst
konteksti
kontekstis
kontekstist
konto
kontor
kontori
kontoris
kontrabass
kontradmiral
kontroll
kontroller
kontrolli
kontrollib
kontrollida
kontrollima
kontrollimine
kontrollimise
kontrollimiseks
kontrollis
kontrollisid
kontrollitakse
kontrollitud
kontrollivad
kontrollu
kontsentratsioon
kontsentratsiooni
kontsentreeritud
kontseptsioon
kontseptsiooni
kontserdi
kontserdid
kontserdil
kontserdimaja
kontserdimajas
kontserdisaalis
kontserni
kontsert
kontserte
kontserti
kontsertide
kontsertidel
kontsertmeister
konvendi
konvendihoone
konvent
konventsioon
konventsiooni
konventsiooniga
konverents
konverentse
konverentsi
konverentsil
koobas
kood
koodeks
koodi
koodid
koodiga
kook
kool
koola
koole
kooli
koolibri
koolid
koolide
koolidele
koolides
kooliga
koolihoone
koolijuht
koolikott
kooliks
koolile
koolimaja
koolimajas
koolinoorte
koolio
koolis
koolist
koolitaja
kooliteed
koolitus
koolituse
koolitusi
koolkond
koolkonda
koolkonna
koolmeister
koomik
koomiline
koondab
koondada
koondas
koondati
koondatud
koonderakond
koondis
koondise
koondisega
koondisekarja
koondises
koondisse
koondunud
koondus
koondusid
koonduslaager
koonduslaagri
koonga
koopa
koopad
koopas
kooperatiiv
kooperatiivi
koopia
koopiad
koopiaid
koor
kooraste
koordinaadid
koordinaatide
koordinaator
koordineerib
koordineerimine
koore
koorem
koorest
koori
kooriga
koorijuht
koorijuhtimise
koorile
koorimuusika
kooris
kooriu
koorku
koorma
koormat
koormatud
koormus
koormuse
koormusega
koormust
koort
kooruvad
koos
koosa
kooselu
koosi
koosko
kooslus
koosmo
koosneb
koosneda
koosnedes
koosnenud
koosnes
koosnesid
koosnev
koosneva
koosnevad
koosnevat
koosolek
koosoleku
koosolekud
koosolekuid
koosolekul
koosolekut
koosolekute
koosseis
koosseisu
koosseisus
koosseisust
koost
koostab
koostada
koostaja
koostajad
koostama
koostamine
koostamise
koostamiseks
koostamisel
koostamist
koostanud
koostas
koostasid
koostatakse
koostati
koostatud
koostis
koostise
koostisega
koostises
koostisest
koostisosa
koostist
koosto
kootud
kopenhaagen
kopenhaageni
kopenhaagenis
koperniku
kopikat
kopli
koppel
kopsu
kopsude
kopsupo
kopsuva
kopti
korb
kord
korda
kordab
kordagi
kordamo
kordas
kordi
kordne
kordub
kordus
kordustru
korduv
korduvad
korduvalt
korduvate
kore
korea
korean
koreas
koreograaf
koreograafia
koridori
korintose
korjama
korjandusest
korjas
korjata
korjatud
korjus
kork
korni
koroona
koroonapandeemia
koroonaviiruse
koroonaviirusega
korp
korporatsioon
korporatsiooni
korporatsioonide
korpus
korpuse
korra
korraga
korraks
korral
korraldab
korraldada
korraldaja
korraldajad
korraldama
korraldamine
korraldamise
korraldamisega
korraldamiseks
korraldamisel
korraldamises
korraldamist
korraldanud
korraldas
korraldasid
korraldatakse
korraldatav
korraldati
korraldatud
korraldavad
korraldus
korralduse
korraldused
korraldusega
korraldusel
korraldusi
korraldust
korrale
korralik
korralikku
korraliku
korralikult
korraline
korrapa
korras
korrast
korrastatud
korrata
korratakse
korrektne
korrektselt
korrelatsioon
korrespondent
korrespondentliige
korruptsioon
korruptsiooni
korruptsioonis
korrus
korruse
korrusel
korrusele
korruseline
korrust
korsika
korsten
korter
korterelamu
korteri
korterid
korteris
korterisse
korterit
korteriu
kortermaja
korv
korvi
korvo
korvpall
korvpalli
korvpalliklubi
korvpallis
korvpallitreener
korvpallur
korz
kos
kose
kosja
kosk
kosmiline
kosmilise
kosmoloogia
kosmonaut
kosmos
kosmose
kosmosejaama
kosmoselaev
kosmoselaeva
kosmoses
kosmosesond
kosmosesse
kosmosesu
kosovo
kosovos
kostab
kostabi
kostis
kostivere
kostroma
kostu
kosu
koti
kotis
kotka
kotkaristi
kotkas
kotkaste
kots
kott
kotta
kotti
kottseente
kotzebue
kov
kova
kovi
koz
kp
kpillid
kr
kra
kraad
kraadi
kraadiga
kraadise
kraater
kraatri
kraav
kraavi
krabi
krae
kraft
krahli
krahv
krahvi
krahvid
krahvide
krahvinna
krahvkond
krahvkonna
krahvkonnas
krai
kraini
krais
krako
kramer
krasnaja
krasno
krasnodari
krasnojarski
kratt
kraus
krause
krediidi
kreeka
kreekale
kreekas
kreekasse
kreekast
kreeklased
kreeklaste
kreem
kreenholmi
kreeta
kreis
kreisi
kreisis
kremer
kremli
kressa
kreutzwald
kreutzwaldi
kriis
kriisa
kriisi
kriiska
kriit
kriitik
kriitika
kriitikat
kriitikud
kriitikute
kriitiline
kriitilise
kriitiliselt
kriminaalasja
kriminaalmenetluse
kriminaalo
kriminaalpolitsei
krimm
krimmi
krimmis
krimmitatari
krimulda
kris
krista
kristall
kristalli
kristallid
kristallide
kristel
kristen
krister
kristi
kristian
kristiina
kristiine
kristin
kristina
kristjan
kristlane
kristlased
kristlasi
kristlaste
kristlik
kristlike
kristlikku
kristliku
kristlikud
kristlikus
kristlus
kristluse
kristluses
kristo
kristus
kristuse
kristust
kriteerium
kriteeriumi
kriteeriumid
kritiseerib
kritiseerinud
kritiseeris
kritiseeriti
kritiseeritud
kro
krohn
krokodill
kromosoom
kromosoomi
kromosoomide
kronoloogia
kroon
krooni
krooniga
kroonik
kroonika
kroonikad
kroonikas
kroonile
krooniline
kroonilise
kroonis
krooniti
kroonitud
kroonlehed
kroonlinna
kroonprints
kroonu
kross
krossi
kru
kruiisilaev
krull
krundi
kruse
krusenstern
krusten
kruus
kruusa
kruusama
kruuse
kruusi
kruusima
krzysztof
krzyz
ks
ksa
ksainus
kse
ksenija
kshaaval
ksi
ksid
ksik
ksikasjalikult
ksikasju
ksikisiku
ksikisikute
ksikma
ksiknumbrid
ksikso
ksiku
ksikud
ksikuid
ksikult
ksikut
ksikute
ksikutest
ksildane
ksime
ksin
ksinda
ksindus
ksipa
ksiwad
kski
ksko
kskord
ksku
ksmeel
ksne
ksnes
ksnest
kste
ksteise
ksteisega
ksteisele
ksteisest
ksteist
ksu
ksus
ksuse
ksused
ksuseks
ksusena
ksuses
ksusest
ksusi
ksust
ksuste
ksustega
ksusteks
ksustele
ksustes
ksustest
kt
ku
kubermang
kubermangu
kubermangude
kubermangugu
kubermangus
kubermangust
kuberner
kuberneri
kuberneriks
kubernerina
kubernerkond
kubjas
kubrick
kuda
kudas
kude
kudede
kudedes
kudu
kuhn
kuhu
kuhugi
kui
kuibo
kuid
kuida
kuidagi
kuidas
kuigatsi
kuigi
kuigivo
kuimetsa
kuis
kuiv
kuiva
kuivab
kuivad
kuivaks
kuival
kuivama
kuivanud
kuivas
kuivastu
kuivatatakse
kuivatatud
kuivo
kujawy
kuju
kujud
kujude
kujuga
kujul
kujule
kujuline
kujulise
kujult
kujund
kujundab
kujundada
kujundaja
kujundama
kujundamine
kujundamise
kujundamisel
kujundanud
kujundas
kujundasid
kujundati
kujundatud
kujundavad
kujundeid
kujundi
kujundid
kujundite
kujundus
kujunduse
kujundusega
kujuneb
kujuneda
kujunema
kujunemine
kujunemise
kujunemisel
kujunemist
kujunenud
kujunes
kujunesid
kujunevad
kujur
kujusid
kujust
kujuta
kujutab
kujutada
kujutama
kujutamine
kujutamise
kujutanud
kujutas
kujutasid
kujutatakse
kujutati
kujutatud
kujutav
kujutava
kujutavad
kujutavate
kujutis
kujutise
kujutised
kujutisi
kujutist
kujutiste
kujutleda
kujutlus
kujutlusvo
kuke
kukk
kukkuda
kukkuma
kukkunud
kukkus
kukkusid
kukruse
kuku
kukub
kukul
kukutada
kukutamist
kukutas
kukutati
kukutatud
kukuvad
kuld
kulda
kuldar
kuldgloobuse
kuldhordi
kuldi
kuldlo
kuldmedal
kuldmedali
kuldmedaliga
kuldmedalit
kuldmedalivo
kuldne
kuldse
kuldsed
kuldset
kuldsete
kuldsulg
kulg
kulgeb
kulgenud
kulges
kulgev
kulgevad
kulgu
kull
kulla
kullaga
kullama
kullamaa
kullassepp
kullast
kullatud
kullerkupp
kulli
kulmineerus
kulmu
kulno
kultu
kultur
kulturasdati
kultus
kultuur
kultuuri
kultuuriakadeemia
kultuurid
kultuuride
kultuurides
kultuurielu
kultuuriga
kultuurikeskus
kultuurikeskuse
kultuurikeskuses
kultuurile
kultuurileht
kultuuriline
kultuurilise
kultuurilised
kultuuriliselt
kultuurilist
kultuuriliste
kultuurima
kultuurimaja
kultuuriministeerium
kultuuriministeeriumi
kultuuriminister
kultuuripa
kultuuripreemia
kultuuris
kultuuriselts
kultuuriseltsid
kultuurist
kultuuritegelane
kultuurito
kultuuriu
kultuuriva
kultuurkapital
kultuurkapitali
kulu
kulub
kulud
kulude
kulukas
kulul
kulunud
kulus
kulusid
kulutab
kulutada
kulutas
kulutused
kulutusi
kulutuste
kuma
kumar
kumari
kumb
kumba
kumbagi
kumbki
kumer
kummagi
kummalegi
kummalgi
kummaline
kummardus
kummaski
kummi
kummuli
kumo
kumu
kun
kuna
kunagi
kunagine
kunagise
kunagisest
kunda
kungla
kuni
kuninga
kuningad
kuningaga
kuningaks
kuningal
kuningale
kuningalt
kuningana
kuninganna
kuningannaks
kuningapoeg
kuningas
kuningast
kuningat
kuningate
kuningatu
kuningavo
kuninglik
kuninglike
kuninglikku
kuningliku
kuninglikud
kuninglikus
kuningriigi
kuningriigiga
kuningriigiks
kuningriigile
kuningriigis
kuningriigist
kuningriik
kuningriiki
kunni
kuno
kunst
kunsti
kunstiajaloo
kunstiajaloolane
kunstiajalugu
kunstiakadeemia
kunstiakadeemias
kunstid
kunstide
kunstiga
kunstigalerii
kunstihoone
kunstiinstituudi
kunstiinstituudis
kunstikool
kunstikooli
kunstikoolis
kunstikriitik
kunstile
kunstileksikon
kunstiline
kunstilise
kunstimuuseum
kunstimuuseumi
kunstimuuseumis
kunstina
kunstio
kunstipedagoog
kunstis
kunstist
kunstiteadlane
kunstitegelane
kunstiteos
kunstiteoseid
kunstiu
kunstlik
kunstliku
kunstlikult
kunstnik
kunstnike
kunstnikele
kunstnikke
kunstnikku
kunstniku
kunstnikud
kunstnikuna
kunstto
kuntien
kuopio
kupar
kuperjanovi
kupli
kuppel
kura
kuraator
kuradi
kuralaste
kuramaa
kuramaal
kuramaale
kurat
kurb
kurba
kurbus
kurbust
kurdi
kurdistani
kure
kurema
kuremaa
kurereha
kuresoo
kuressaare
kuressaares
kurg
kurgu
kuri
kurista
kuristik
kuristiku
kurisu
kuritegevus
kuritegevuse
kuritegu
kuritegude
kuritegusid
kuriteo
kuriteod
kurito
kurja
kurjad
kurjast
kurjategija
kurjategijad
kurjategijate
kurjus
kurjuse
kurk
kurku
kurla
kurland
kurlands
kurna
kurnas
kurnatud
kurs
kursi
kursis
kurski
kursus
kursuse
kursused
kursusel
kursusi
kursust
kursuste
kursustel
kurt
kurtide
kurtna
kuru
kurva
kurvalt
kurvits
kus
kusagil
kusagile
kusagilt
kusjuures
kuski
kuskil
kuskile
kuskilt
kuslap
kuslapuu
kust
kustas
kustunud
kustus
kustutada
kustutati
kuts
kutsar
kutse
kutsel
kutseline
kutseo
kutsu
kutsub
kutsuda
kutsudes
kutsuma
kutsunud
kutsus
kutsusid
kutsutakse
kutsuti
kutsutud
kutsuvad
kuu
kuub
kuuba
kuubal
kuud
kuude
kuudel
kuue
kuueks
kuueku
kuuel
kuuenda
kuuendal
kuues
kuuest
kuueteistku
kuuga
kuuks
kuul
kuula
kuulab
kuulaja
kuulajate
kuulama
kuulamine
kuulanud
kuulas
kuulata
kuulates
kuulda
kuuldavale
kuuldema
kuuldes
kuuldud
kuuldus
kuule
kuuleb
kuuled
kuuleme
kuulen
kuulete
kuulge
kuuli
kuulipilduja
kuulipildujat
kuulis
kuulito
kuulma
kuulmine
kuulmise
kuulnud
kuulo
kuulsa
kuulsad
kuulsaid
kuulsaim
kuulsaks
kuulsam
kuulsamad
kuulsamaid
kuulsate
kuulsid
kuulsin
kuulsus
kuulsuse
kuulsust
kuulsuste
kuulu
kuulub
kuuluda
kuuludes
kuulujutud
kuuluma
kuulumine
kuulunud
kuulus
kuulusid
kuulutab
kuulutada
kuulutama
kuulutanud
kuulutas
kuulutasid
kuulutatakse
kuulutati
kuulutatud
kuuluv
kuuluva
kuuluvad
kuuluvaid
kuuluvaks
kuuluvas
kuuluvat
kuuluvate
kuuluvates
kuuluvus
kuuluvuse
kuum
kuuma
kuumad
kuumus
kuumutamisel
kuumutatakse
kuupa
kuurvu
kuus
kuusalu
kuuse
kuused
kuusik
kuusiku
kuusk
kuusku
kuuste
kuut
kuuto
kuvada
kuvatakse
kuveidi
kuznetsov
kv
kvalifikatsioon
kvalifikatsiooni
kvalifikatsiooniga
kvalifikatsioonis
kvalifitseeritud
kvalifitseerus
kvaliteedi
kvaliteediga
kvaliteet
kvaliteeti
kvantmehaanika
kvart
kvartal
kvartali
kvartalis
kvarts
kvint
kw
kwazulu
kwh
ky
kyiv
kyle
kyo
kyu
l
la
laad
laadi
laadida
laadimine
laadis
laadoga
laager
laagna
laagri
laagris
laagrisse
laama
laaman
laan
laane
laar
laari
laas
laasi
laasik
laastas
laastasid
laastus
laasunduse
laasundust
laat
laata
laatre
laats
laava
lab
label
labor
laboratoorium
laboratooriumi
laboratooriumis
laboratory
labori
laboris
labour
labu
lac
lactarius
lad
lada
lade
ladele
lademe
lades
ladest
ladestu
ladies
ladiini
ladina
ladinakeelne
ladinakeelse
ladinakeelsest
ladinapa
ladu
lady
lae
laekus
laekvere
laen
laenas
laenatud
laene
laeng
laengu
laenguga
laenso
laenu
laenud
laenude
laenul
laenule
laenuu
laertios
laetud
laev
laeva
laevad
laevade
laevadega
laevadel
laevadele
laevaga
laevakompanii
laeval
laevale
laevalt
laevast
laevastik
laevastikku
laevastiku
laevatatav
laevatehas
laevatehase
laevatehases
laevau
laevu
laewa
laffranque
laga
lage
lageda
lagedale
lagedi
lagi
lagle
lago
lagrange
laguneb
lagunema
lagunemine
lagunemise
lagunemisel
lagunemist
lagunenud
lagunes
lagunevad
lahe
lahega
lahel
lahemaa
lahend
lahendab
lahendada
lahendama
lahendamata
lahendamine
lahendamise
lahendamiseks
lahendamisel
lahendamist
lahendas
lahendati
lahendatud
lahendus
lahenduse
lahendused
lahenduseks
lahendusi
lahendust
lahenduste
lahes
lahest
lahing
lahingu
lahingud
lahinguid
lahingus
lahingusse
lahingust
lahingut
lahingute
lahingutegevuse
lahingutegevuses
lahingutes
lahinguva
lahja
lahke
lahkelt
lahku
lahkub
lahkuda
lahkudes
lahkuma
lahkumine
lahkumise
lahkumiseks
lahkumisest
lahkumist
lahkunud
lahkus
lahkusid
lahkuvad
lahn
laht
lahta
lahte
lahti
lahtine
lahtis
lahtise
lahtised
lahtiste
lahtistel
lahus
lahuse
lahuses
lahusti
lahustu
lahustub
lahustunud
lahustuvad
lahutab
lahutada
lahutama
lahutamatu
lahutamine
lahutas
lahutasid
lahutati
lahutatud
lahutus
lahutust
lahutusvo
lai
laia
laiad
laiade
laial
laialdane
laialdase
laialdaselt
laialdasemalt
laialdast
laiale
laiali
laialt
laiaro
laias
laid
laidoner
laidoneri
laidude
laiem
laiema
laiemale
laiemalt
laiemas
laiemat
laiend
laiendab
laiendada
laiendamine
laiendamise
laiendamist
laiendas
laiendasid
laiendati
laiendatud
laiendus
laieneb
laienemine
laienemise
laienemist
laienenud
laienes
laigud
laik
laikmaa
laimjala
laine
lained
laineid
laineline
lainepikkus
lainepikkusega
lainete
laip
lais
laisk
laitse
laiu
laiub
laiune
laius
laiuse
laiusega
laiusest
laiust
lajos
lake
laki
lakk
lakkab
lakkamatult
lakkas
lakke
laks
lal
lale
laline
lalise
lalised
lalisena
lalisi
lalisprofessor
lalist
laliste
lalistele
lalpool
lalt
laltoodud
lam
lama
lamab
lamades
lamas
lamba
lambad
lambaid
lambakoer
lambda
lambert
lamberti
lambi
lame
lameda
lamedad
lammas
lammaste
lammutada
lammutati
lammutatud
lamp
lamprophiidae
lan
lana
lancasteri
land
landau
lander
landeswehri
landgu
landi
landing
landscape
lane
lang
lange
langeb
langeda
langema
langemine
langemise
langemist
langenud
langenute
langes
langesid
langetada
langetas
langetatud
langev
langeva
langevad
langi
langobardid
langobardide
language
languages
languoid
langus
languse
langust
lani
lanka
lano
lanud
lao
laos
laosa
laosas
laose
laotud
lapi
lapin
laplace
laps
lapse
lapsed
lapsega
lapsel
lapselaps
lapsele
lapsena
lapsepo
lapsest
lapsi
lar
lara
laretei
large
largest
lari
larissa
larka
larry
lars
larsen
larsson
larus
las
lase
laseb
lased
laseks
lasen
laser
lasevad
lasi
lasid
laska
laske
laskekaugus
laskemoona
laskesuusataja
laskesuusatamise
laskis
laskma
laskmine
lasknud
lasksid
lasku
laskub
laskur
laskurdiviis
laskurdiviisi
laskurkorpus
laskurkorpuse
laskus
lasnama
lass
lasse
lassen
last
lasta
lastab
lastada
lastades
lastaja
lastajad
lastajaid
lastajate
lastajatele
lastakse
lastama
lastanud
lastas
lastasid
lastatud
lastavad
laste
lasteaed
lasteaia
lasteaias
lastega
lastekirjanduse
lastekirjanik
lastekodu
lastel
lastele
lastepa
lasteraamat
lastes
lastest
lasti
lastud
lasub
lasva
lat
lata
late
later
lateraani
latest
latgale
latgali
latgalite
latikas
latin
lattik
lattre
latvia
latvies
latvija
latvijas
lau
laua
lauad
laual
lauale
laualt
lauama
lauapalli
lauas
laud
lauda
laude
lauenburgi
laugas
lauk
lauka
laul
laula
laulab
laulan
laulatus
laulavad
laulda
lauldakse
lauldes
lauldi
lauldud
laule
laulik
laulis
laulja
lauljad
lauljaid
lauljana
lauljanna
lauljatar
lauljate
laulma
laulmine
laulmise
laulmist
laulnud
laulsid
laulu
laulud
laulude
lauludes
lauludest
lauluga
laulukirjutaja
laululava
laulule
lauluma
lauluo
laulupeo
laulupidu
laulus
lauluso
laulust
lauluva
lauluvo
launch
launches
laupa
laur
laura
laureaadid
laureaat
lauren
laurence
laurent
laurentiuse
laurentsiuse
lauri
lauristin
laurits
lausa
lausanne
lause
laused
lauseid
lauses
lauset
lausete
lausunud
lausus
laut
lauta
lauter
lav
lava
lavad
lavakunstikateedri
lavakunstikooli
laval
lavale
lavamaa
lavassaare
lavastaja
lavastajana
lavastajate
lavastanud
lavastas
lavastatud
lavastus
lavastuse
lavastuses
law
lawrence
laws
lay
layer
lazar
lazio
lb
lba
lbe
lblik
lbmatu
lbmatuks
lbustamiseks
lc
lcd
ld
lda
ldarvestuses
ldatakse
lde
lder
ldi
ldib
ldine
ldirekcija
ldise
ldised
ldiseks
ldisele
ldiselt
ldisemalt
ldises
ldisest
ldisi
ldist
ldistatud
ldiste
ldjoontes
ldjuht
ldjuhul
ldkogu
ldkoosolek
ldkoosoleku
ldkoosolekul
ldlaulupidu
ldlevinud
ldma
ldmo
ldnimetus
ldosa
ldots
ldpikkus
ldre
ldri
ldroos
ldse
ldsegi
ldsuse
ldsusele
ldtunnustatud
ldtuntud
ldu
ldude
ldudel
ldus
ldvo
le
lea
lead
leader
leaders
leadership
leaf
league
leandmine
leandmise
learning
learvuti
least
leave
leb
leba
lebedev
leben
lec
lech
leclerc
lecture
led
leda
lee
leebe
leedi
leeds
leedu
leedulased
leedulasi
leedulast
leedulaste
leedus
leedust
leegi
leegion
leegiona
leegioni
leek
leelo
leen
leena
leeni
leeri
leesi
leesment
leevendada
leevendamiseks
leevi
left
leg
lega
legaat
legacy
legal
legend
legendaarne
legendaarse
legendi
legendid
legi
lego
lehe
lehed
leheku
lehel
lehele
lehelind
lehes
leheta
lehis
lehiste
lehm
lehma
lehmad
leho
lehola
leht
lehte
lehtede
lehtedega
lehtedes
lehtedest
lehti
lehtse
lei
leia
leiab
leiad
leiaks
leiame
leian
leiavad
leib
leiba
leibkondadest
leibkonna
leibniz
leibnizi
leicester
leid
leida
leide
leiden
leideni
leides
leidis
leidma
leidmine
leidmise
leidmiseks
leidnud
leidsid
leidsin
leidsiwad
leidu
leidub
leiduda
leidude
leidunud
leidus
leiduv
leiduvad
leiduvate
leidybos
leigatud
leigh
leika
leila
leili
leimus
lein
leina
leino
leipzig
leipzigi
leipzigis
leis
leisi
leitakse
leitav
leiti
leitnandiks
leitnant
leito
leitud
leiud
leiutaja
leiutas
leiutati
leiutatud
leiutis
leiva
leiwa
leja
lejo
leka
lekaal
lekaalu
lekaalukalt
lekaalus
lekande
lekandja
lekanne
lekannet
lekantud
leko
lekohut
leks
leksikon
leksikoni
leksikonis
lektor
lektorina
leku
lel
lele
leliiduline
leliidulise
leliigne
leliigsed
lelle
lem
lema
lemaailmne
lemaailmse
lemaailmselt
lemad
lemaid
lemaks
lemal
lemale
lemalt
lemana
lemas
lemast
lemat
lemate
lember
lembit
lembitu
lemine
leminek
lemineku
leminekuma
leminekusumma
leminekut
lemise
lemised
lemisel
lemises
lemist
lemiste
lemjooksul
lemjuhataja
lemjuhatajaks
lemkogu
lemkohtu
lemkohus
lemmik
lemno
lemo
lempreester
lemraada
lemsaksa
lemsalu
lemsorbi
lemus
lemvo
len
lena
lend
lendab
lendama
lendamist
lendas
lendasid
lendati
lendatud
lendav
lendavad
lende
lender
lendu
lendur
lene
leng
lengus
leni
lenin
leningrad
leningradi
leningradis
lenini
lenna
lennanud
lennart
lennata
lennates
lennon
lennu
lennud
lennuettevo
lennufirma
lennujaam
lennujaama
lennujaamade
lennujaamas
lennujaamast
lennuk
lennukeid
lennuki
lennukid
lennukiga
lennukil
lennukile
lennukis
lennukist
lennukit
lennukite
lennukompanii
lennul
lennunduse
lennuo
lennuva
lennuvo
lens
lenud
lenurme
lenz
leo
leon
leonard
leonardo
leone
leonhard
leonid
leopard
leopold
lepa
lepajo
lepatriinu
lepea
lepik
lepiku
leping
lepingu
lepingud
lepinguga
lepinguid
lepingule
lepinguo
lepingus
lepingust
lepingut
lepingute
lepitada
lepiti
lepitud
lepland
lepo
lepp
leppe
leppida
leppik
leppima
leppinud
leppis
leppisid
leq
ler
leri
leriigiline
leriigilise
leroy
les
lesande
lesanded
lesandega
lesandeid
lesandeks
lesandel
lesanne
lesannet
lesannete
lesannetega
lesanneteks
lesannetes
lesannetest
lesbian
lese
lesehitus
lesehituse
lesgi
lesid
lesk
leskutse
leslie
lesma
leso
lesotho
lespoole
less
lesse
lessons
lest
lesta
lester
lestis
lestised
lestiseks
lestisena
lestiste
lestistena
lestistest
lesto
lestus
lestuse
lestused
lestuseks
lestusi
lestuskivi
lestusma
lestusmedal
lestuspa
lestussamba
lestussammas
lestust
lestustahvel
lestuste
lestustes
lestusvo
lesvo
lesvoolu
let
leta
letab
letad
letada
letades
letama
letamine
letamise
letamiseks
letamisel
letamist
letan
letanud
letas
letasid
letatakse
letati
letatud
letav
letavad
leti
letik
letikku
letiku
leto
letseburgi
lett
letter
letters
lettische
lettland
lettres
letu
letus
letuse
letusel
letusele
letust
leu
leujutuste
leukotsu
lev
leva
levaade
levaadet
levaate
levaateid
levad
levadia
leval
levalt
levandi
level
levels
levenemaalise
levi
leviala
levib
levida
levik
leviku
levikuga
levikule
levikult
levikut
levila
levima
levimise
levin
levinud
levinuim
levinum
levinumad
levinumaid
levis
levisid
levitada
levitamine
levitamise
levitas
levivad
levkivi
levkivito
levo
levy
lewis
lewise
lex
lexicon
lexikon
lez
lg
lga
lgab
lgade
lgas
lgbt
lge
lgede
lgedega
lgedel
lgedele
lgedelt
lgedes
lgedest
lgendada
lgendamine
lgendamise
lgendatakse
lgendatud
lgendus
lgenduse
lget
lgeto
lgi
lgib
lgida
lgides
lgima
lgimine
lgimise
lgimiseks
lginud
lgis
lgisid
lgitakse
lgitav
lgiti
lgitud
lgivad
lgne
lgneb
lgse
lgu
lhv
li
lia
liam
lias
lib
libahunt
libe
libeeria
liber
liberaalid
liberaalide
liberaalne
liberaalse
liberalism
liberalismi
libertadores
liberty
libises
liblikad
liblikas
liblikate
libliko
liblikujumises
library
libreto
libri
liczbach
lid
lide
lie
liebe
liechtenstein
liechtensteini
lief
liefland
lielciems
lielva
liepa
lietu
lietuviu
lietuvos
life
lift
liga
ligandi
ligemale
light
lightning
lights
ligi
ligidal
ligikaudne
ligikaudu
ligila
ligipa
ligito
ligny
ligue
liguta
liguuria
liha
lihas
lihased
lihast
lihaste
lihavo
lihha
liht
lihtminevik
lihtne
lihtrahva
lihtsa
lihtsad
lihtsaid
lihtsaim
lihtsaks
lihtsalt
lihtsam
lihtsamad
lihtsamaid
lihtsamaks
lihtsasti
lihtsat
lihtsate
lihtsus
lihtsuse
lihtsustab
lihtsustada
lihtsustatud
lihula
lihulas
lihvitud
lii
liia
liialdatud
liialt
liibanon
liibanoni
liibanonis
liibu
liidendas
liidendati
liider
liides
liidese
liidetakse
liideti
liidetud
liidia
liidri
liidrid
liidu
liiduga
liidukantsler
liidul
liidule
liidumaa
liidumaal
liidupa
liidus
liidust
liiduvabariikide
liig
liiga
liigaastal
liigama
liigas
liigasse
liigast
liige
liigendatud
liiget
liigi
liigid
liigiga
liigiks
liigil
liigina
liigist
liigitada
liigitatakse
liigitatud
liigiti
liigitus
liigne
liigse
liigselt
liigset
liigu
liigub
liigutab
liigutada
liigutas
liigutus
liigutused
liigutusi
liigutuste
liiguvad
liik
liike
liiki
liikide
liikidel
liikidest
liiklus
liikluse
liikluso
liiklussagedus
liiklusso
liiklust
liikme
liikmed
liikmega
liikmeid
liikmeks
liikmele
liikmeline
liikmelise
liikmelises
liikmena
liikmeskond
liikmesriigi
liikmesriigid
liikmesriik
liikmesriiki
liikmesriikide
liikmesriikides
liikmest
liikmete
liikmetega
liikmeteks
liikmetel
liikmetele
liikmetest
liikuda
liikudes
liikuma
liikumatu
liikumatult
liikumine
liikumise
liikumised
liikumisega
liikumiseks
liikumisel
liikumisele
liikumises
liikumisest
liikumisi
liikumist
liikumiste
liikumisvo
liikunud
liikursuurtu
liikus
liikusid
liikuv
liikuva
liikuvad
liikuvate
liilia
liim
liin
liina
liine
liini
liinid
liinil
liinile
liinist
liis
liisa
liisi
liisu
liit
liita
liitis
liitlane
liitlase
liitlased
liitlasi
liitlaste
liitlasva
liitmine
liitmise
liitmisel
liitmist
liitriigi
liitrine
liitrit
liitso
liitu
liitub
liituda
liitude
liitudes
liituma
liitumine
liitumise
liitumisel
liitumist
liitunud
liitus
liitusid
liituvad
liitvabariigi
liiv
liiva
liivak
liivakivi
liivaku
liivalaia
liivama
liivane
liivast
liivi
liivik
liivika
liivimaa
liivimaal
liivimaale
liivimaalt
liivlased
liivlaste
liiwi
liiwimaa
liiwimaal
liiwimaale
liiwlased
liiwlaste
lik
like
liko
likond
likool
likooli
likoolid
likoolide
likoolides
likooliga
likoolile
likoolis
likoolist
liks
liku
likud
likuid
likukujuline
likut
likute
likvideerida
likvideerimise
likvideerimist
likvideeritav
likvideeriti
likvideeritud
lil
lile
lili
lilian
lill
lilla
lille
lilled
lillede
lilleku
lilli
lilly
lily
lim
lima
limaal
limalt
limaskesta
limbaz
limburg
limburgi
limine
limise
limit
limited
limits
limus
limuse
limusega
limuselt
limust
lin
lina
linad
linaja
linask
linastunud
linastus
lincoln
lincolni
lind
linda
linde
lindepuu
lindgren
lindi
lindsay
lindstro
lindu
lindude
lindudel
lindudest
line
lineaarne
lineaarse
lineaarselt
lines
ling
lingi
lingu
lingua
linguistic
linguistics
lingus
lingvistika
link
linko
linn
linna
linnaasunduse
linnad
linnade
linnadealune
linnadele
linnades
linnadesse
linnadest
linnaelanike
linnaeus
linnaga
linnagalerii
linnakomitee
linnakooli
linnakoolis
linnaks
linnal
linnala
linnale
linnama
linnamu
linnamuuseum
linnamuuseumi
linnano
linnao
linnaosa
linnaosad
linnaosade
linnaosas
linnaossa
linnapea
linnapeaks
linnaplaneerimise
linnaraamatukogu
linnarajoon
linnaringkond
linnaringkonnas
linnart
linnas
linnast
linnastu
linnasu
linnateater
linnateatri
linnateatris
linnava
linnavalitsus
linnavalitsuse
linnavolikogu
linnavolikokku
linnavolinike
linne
linnu
linnud
linnulennult
linnuliik
linnus
linnuse
linnused
linnuseid
linnuses
linnusesse
linnusest
linnust
linnuste
linnutee
lint
linus
linux
linuxi
lio
lion
lionel
lions
lipikaealine
lipnik
lipp
lippe
lippmaa
lippu
lippude
lips
lipu
lipud
lipuga
lipuks
lipul
liquid
lis
lisa
lisaajal
lisab
lisad
lisada
lisades
lisajo
lisaks
lisama
lisamine
lisamisega
lisandub
lisandunud
lisandus
lisandusid
lisanduvad
lisanud
lisas
lisasid
lisasjade
lisatakse
lisati
lisatud
lisava
lisavad
lise
lised
liseesti
liseid
liseks
liselanike
lisele
liselt
lisena
lises
lisest
lisi
lisid
liskaubanduse
lisklassi
lisku
lisliige
lisliikmeks
lislink
lisluure
lismaa
lismaal
lismaalaste
lismaale
lismaalt
lismaiste
lisministeerium
lisministeeriumi
lisministeeriumis
lisminister
lisministri
lisministriks
lisministrite
liso
lispartei
lispoliitika
lispuud
lisrahvaste
lisriigi
lisriikide
lissaboni
lissabonis
lissuhete
list
lista
listab
listada
listas
listatud
listavad
liste
listele
listest
lisu
lisuurslaalomis
lita
litab
litada
litama
litamine
litas
litati
litatud
lite
literaat
literary
literatur
literature
lithuania
liti
lito
litsents
litsentsi
little
litus
lituse
litusso
liu
liustik
liustike
liustiku
liustikud
liv
liva
live
liverpool
liverpooli
lives
livia
living
livla
livland
livlands
livo
livonia
livoniae
livviko
lix
lja
ljaande
ljaanded
ljaandeid
ljaandel
ljaandena
ljaandes
ljaandest
ljaandja
ljaandmine
ljaandmise
ljaandmist
ljaanne
ljaannet
ljaannete
ljaannetes
ljaantud
ljaarvatud
ljad
ljade
ljadel
ljaga
ljaha
ljak
ljakaevamised
ljakaevamistel
ljaks
ljaku
ljakud
ljakujunenud
ljakul
ljakule
ljakut
ljakutse
ljakuulutamist
ljal
ljalangemisma
ljalase
ljale
ljalo
ljalt
ljalu
ljama
ljamo
ljana
ljane
ljao
ljapa
ljapaistev
ljapaistvate
ljapanek
ljapoole
ljara
ljas
ljaso
ljaspool
ljast
ljastab
ljastatakse
ljastati
ljastatud
ljastpoolt
ljasurnud
ljataga
ljato
ljatud
ljau
ljavo
lje
ljed
ljega
ljel
ljele
ljeline
ljelt
ljend
ljendab
ljendada
ljendama
ljendamine
ljendamiseks
ljendanud
ljendas
ljendasid
ljendatakse
ljendatud
ljendav
ljendavad
ljendeid
ljendi
ljendid
ljendist
ljendit
ljendub
ljendus
ljenduse
ljes
ljest
lju
ljub
ljubljana
ljubov
ljuda
ljudmila
ljund
ljundi
ljundpinge
ljunud
ljus
ljuvad
lk
lka
lke
lked
lkeid
lkelaen
lkerung
lkes
lkida
lkija
lkijad
lkimine
lkimise
lkinud
lkis
lkma
ll
lla
llakuur
llalt
llaltki
llama
llane
llap
llar
llas
llastunud
llatas
llatav
llatavalt
llatunud
llatus
llc
lle
llegi
ller
lleri
lles
lli
llide
lliste
llo
lloyd
llu
llud
llul
llule
llumaa
llumajandus
llumajanduse
llumajanduses
llumajanduslik
llumajandusliku
llumajandusminister
llumajandust
llumajandusteadlane
llumajandustegelane
llumajandusu
llumees
llumeeste
llus
lluste
lluto
lm
lma
lmab
lmad
lmade
lmaks
lmal
lmalt
lmas
lmasid
lmast
lmata
lmates
lmav
lmava
lmavad
lme
lmed
lmede
lmi
lmida
lmides
lmikpuu
lmima
lmimise
lmimist
lminud
lmis
lmisid
lmiti
lmitud
lmunud
lmutatud
ln
lne
lni
lnis
lo
loa
loal
loata
local
location
lock
locke
lockheed
lode
lodi
loe
loeb
loen
loend
loendis
loeng
loengu
loengud
loenguid
loengute
loeta
loetakse
loetav
loetelu
loeti
loetleb
loetletakse
loetletud
loetud
loevad
log
loges
logic
logistika
logo
logos
lohe
lohk
lohu
lohusuu
lohutust
loi
loire
loit
lokk
loksa
lokuta
lola
loll
lollus
lombardia
lomonossovi
lomp
london
londoni
londonis
londonisse
londonist
long
loni
lonicera
loo
loob
loobu
loobub
loobuda
loobuma
loobumine
loobumise
loobumist
loobunud
loobus
loobusid
loobuti
lood
loodab
loodan
loode
loodearmee
loodeosa
loodeosas
loodes
loodesse
loodetakse
loodeti
loodi
loodu
loodud
loodus
loodusajakiri
loodusala
looduse
loodusega
loodusele
looduses
loodusesse
loodusest
looduseuurijate
loodusfoto
loodusfotograaf
looduskaitse
looduskaitseala
looduskaitsealal
looduskaitsealune
looduskaitsja
looduslik
looduslike
looduslikest
looduslikke
looduslikku
loodusliku
looduslikud
looduslikult
loodusna
looduso
looduspark
loodust
loodusteadlane
loodusteaduse
loodusteaduste
loodusuurijate
loodusvarade
loog
looga
loogik
loogika
loogikas
loogikat
loogiline
loogilise
loogiliselt
loogilist
looja
loojad
loojaks
look
looking
looks
loole
loom
looma
loomaaed
loomaaia
loomaaias
loomaarst
loomaarstiteadlane
loomad
loomade
loomadega
loomadel
loomadele
loomadest
loomakaitse
loomakasvatuse
loomakasvatusteadlane
loomaso
loome
loomi
loomine
looming
loomingu
loominguga
loomingule
loominguline
loomingulise
loomingus
loomingust
loomingut
loomise
loomisega
loomiseks
loomisel
loomisele
loomises
loomisest
loomist
loomu
loomuga
loomulik
loomulikku
loomuliku
loomulikud
loomulikult
loomult
loomupa
loomus
loomuse
loomusest
loomust
loona
loone
loonia
loonud
loop
loor
loorits
loos
loosi
loost
loota
loote
lootes
lootis
lootnud
lootsid
lootus
lootuse
lootused
lootuses
lootusetu
lootusetult
lootusi
lootust
loov
loova
loovad
loovutama
loovutas
loovutati
looz
lopez
lord
lordi
lorenz
lorenzo
lori
lorraine
los
lose
loss
lossi
lossid
lossis
lossist
lost
lot
lothar
loti
lotman
lotmani
lotringi
lotta
lotte
lotto
lotus
lou
louis
louise
louisiana
louvre
love
low
lower
lp
lpg
lpilsi
lpsalt
lpsasti
lr
lru
ls
lse
lsed
lselt
lt
lta
ltd
lte
lteenamusega
ltega
ltel
ltest
ltida
ltides
ltima
ltimaks
ltimatu
ltimatult
ltimine
ltimiseks
lts
ltsamaa
ltsamaal
ltsitud
ltu
ltub
ltumata
ltumatu
ltumatud
ltumatuks
ltumatult
ltumatus
ltumatuse
ltumatust
ltumatut
ltumatute
ltus
ltuv
ltuvad
ltuvalt
ltuvus
ltuvuse
ltuvuses
ltuvust
lu
lua
luba
lubab
lubada
lubades
lubaduse
lubage
lubama
lubanud
lubas
lubasid
lubatakse
lubatav
lubati
lubatud
lubavad
lubi
lubja
lubjakivi
lubjakivist
lublini
luc
luca
lucas
lucca
luce
lucia
luciano
lucius
lucy
lud
lude
ludmilla
ludovico
ludvig
ludwig
ludwigi
ludza
luftwaffe
luga
lugeda
lugedes
lugeja
lugejad
lugejaid
lugejale
lugejate
lugema
lugemine
lugemise
lugemiseks
lugemisel
lugemist
lugenud
luges
lugesid
lugesin
lugu
lugude
lugudest
lugupeetud
lugupidamist
lugusid
luha
luhamaa
luhanski
luht
lui
luid
luidja
luiga
luige
luigi
luik
luis
luisa
luise
luiz
luka
lukas
luke
luki
lukk
lukku
luks
luksemburg
luksemburgi
luksemburgis
luku
lukuma
lula
lule
luma
lume
lumi
lumiste
lump
luna
lunaraha
lunastaja
lund
lundi
lung
lur
lus
lussika
lust
lusti
lustivere
lut
luteri
luteriusu
luterlik
luterliku
luther
lutheri
luts
lutsu
lutz
luu
luua
luuakse
luud
luude
luues
luuk
luuka
luule
luulekogu
luuleraamat
luules
luulest
luulet
luuletaja
luuletajad
luuletajate
luuletus
luuletuse
luuletused
luuletusi
luuletust
luuletuste
luunja
luup
luuraja
luure
luus
luust
luuu
luv
luxembourg
luxembourgi
luz
lv
lva
lvad
lvadel
lvak
lval
lvamaa
lvamaal
lvas
lve
lved
lvede
lvenimega
lvenimi
lves
lvest
lvi
lvid
lvik
lvili
lvinud
lvis
lvisid
lvitud
lvivi
lvkond
lvkonda
lvkondade
lvkonna
lvnes
lwe
ly
lydia
lyga
lynch
lynn
lynx
lyon
lyoni
m
ma
maa
maabus
maad
maade
maadeavastaja
maadega
maadel
maadele
maades
maadest
maadeuurija
maadleja
maadlus
maadluse
maadluses
maaelu
maag
maaga
maagaasi
maagia
maagiline
maagima
maailm
maailma
maailmaga
maailmakarikavo
maailmale
maailmameister
maailmameistri
maailmameistriks
maailmameistrivo
maailmamere
maailmana
maailmapa
maailmapanga
maailmarekord
maailmarekordi
maailmarekordit
maailmas
maailmaso
maailmast
maailmasu
maailmavaade
maaja
maakera
maakividest
maakohtu
maakohus
maakond
maakonda
maakondade
maakondades
maakonna
maakonnad
maakonnaga
maakonnaks
maakonnano
maakonnas
maakonnast
maakoore
maakrahv
maal
maale
maalehe
maaleht
maali
maalid
maalida
maalide
maalidel
maalides
maalija
maalikunst
maalikunsti
maalikunstis
maalikunstnik
maalikunstnike
maalikunstniku
maalil
maalima
maalimise
maalimist
maalinud
maalis
maalitud
maalt
maama
maamarssal
maameister
maamo
maandus
maani
maano
maantee
maanteed
maanteede
maanteega
maanteel
maanteele
maanteelt
maanteest
maapa
maaparanduse
maapealne
maapealse
maapiirkondades
maapind
maapinda
maapinna
maapinnal
maapinnale
maapinnalt
maapinnast
maapo
maar
maarahva
maarajoonide
maardla
maardu
maareformi
maarja
maarjale
maarjama
maarjamaa
maas
maasi
maasik
maasika
maasikas
maasilinna
maasse
maast
maastik
maastikke
maastikku
maastiku
maastikud
maastikukaitseala
maastikukaitsealal
maastikul
maata
maatasa
maato
maatriks
maatriksi
maatu
maau
maava
maavalitsus
maavalitsuse
maavanem
maavanema
maavara
maavarade
maaviljeluse
maavo
mac
macau
macbeth
macbook
macdonald
mach
machiavelli
machine
macmillan
macron
mad
madagaskar
madagaskari
madagaskaril
madal
madala
madalad
madalaim
madalal
madalale
madalam
madalama
madalamad
madalamal
madalamale
madalamat
madalamate
madalas
madalast
madalat
madalate
madalatel
madalik
madaliku
madalikul
madalikule
madalmaad
madalmaade
madalmaades
madame
made
madeira
madeleine
madis
madise
madison
madisoni
madisson
madli
madona
madonna
madrid
madridi
madridis
madu
madude
madudel
madusid
mae
maestro
maeti
maetud
maffia
mag
maga
magab
magada
magalha
magama
maganud
magas
magazin
magazine
magda
magdaleena
magdalena
magdeburgi
mage
magevee
maggie
maggiore
maggo
magic
magister
magistri
magistrikraad
magistrikraadi
magistrikraadiga
magistrio
magistrito
magma
magna
magneesiumi
magnet
magnetic
magnetiline
magnetilise
magnetva
magnicourt
magnituudine
magnus
magnuse
magu
magus
magusa
magusad
magusat
magyar
mah
maha
mahaja
mahajaana
mahe
mahilou
mahl
mahla
mahler
maht
mahti
mahtra
mahtu
mahtunud
mahtus
mahu
mahub
mahuga
mahukas
mahus
mahutab
mahutada
mahutas
mahutavus
mai
maia
maid
maide
maiden
maidla
maido
maie
maikuus
mail
mailis
maimets
maimu
main
maine
mainet
maini
mainib
mainida
maininud
mainis
mainitakse
mainiti
mainitud
mainz
mainzi
maire
mais
maisi
maismaa
maismaal
maisnil
maist
maiste
mait
maitse
maitseb
maitsega
maitset
maitsta
maizie
maja
majad
majade
majades
majaka
majakas
majakovski
majale
majamuuseum
majandamise
majandus
majandusaasta
majanduse
majandusele
majanduses
majandusharu
majanduskasvu
majanduskriis
majanduskriisi
majanduslik
majanduslike
majanduslikke
majanduslikku
majandusliku
majanduslikud
majanduslikult
majandusminister
majanduspoliitika
majandussu
majandust
majandusteadlane
majandusteaduse
majandusteaduskonna
majandustegelane
majandusu
majaomanike
majapidamise
majapidamises
majapidamist
majas
majasse
majast
majesteedi
majja
major
majori
maju
mak
makarov
make
makedoonia
makedoonias
makes
making
maks
maksa
maksab
maksas
maksavad
makse
maksejo
maksid
maksim
maksimaalne
maksimaalse
maksimaalselt
maksimaalset
maksimum
maksimumtemperatuur
maksis
maksma
maksmata
maksmise
maksnud
maksta
makstakse
maksti
makstud
maksu
maksud
maksude
maksudest
maksuma
maksumaksja
maksumus
maksusu
mal
mala
malaaria
malagassi
malai
malaisia
malaisias
malajalami
malawi
malaysia
malcolm
male
malefo
malemeister
malemeistriks
maleolu
males
maletaja
maletreener
malev
maleva
malevkond
malevkonna
mali
malis
mall
malla
malle
mallorca
malm
malmi
malmo
malmsten
malo
malta
maltal
maltswet
maltsweti
maly
mama
mamma
man
mana
management
manager
manche
manchester
manchesteri
manda
mandaadi
mandaati
mandel
mandela
mandri
mandrija
mandril
mandriline
mandriosa
mandz
manfred
mango
manhattan
manhattani
manhattanil
mani
manifest
manifesti
manila
manin
mann
manner
mannheimi
manni
mano
mans
mansi
mansiiskis
mantel
manteuffel
mantli
mantojums
mantova
manu
manual
manuel
manufacturing
manustamine
many
mao
maod
maoliigid
maoliik
maoori
maoperekond
map
maple
mappe
mapping
maps
mar
mara
marad
maran
maras
marat
marathi
maraton
maratoni
marburgi
marc
marcel
marcello
march
marchand
marche
marco
marcos
marcus
mardi
mardikaliste
mare
marek
marest
maret
marga
margaret
margareta
margarete
margaretha
margarethe
margarita
marge
margi
margit
margo
margot
marguerite
margus
mari
maria
marian
mariana
marianne
mariano
marie
marija
marik
marika
marilyn
marin
marina
marine
marino
mario
marion
maripuu
maris
marit
maritime
mariupoli
marius
marja
marjad
marje
marju
mark
marka
market
marketing
marki
markii
markkrahv
markkrahvi
marko
marks
marksismi
markus
markuse
marmor
marmorist
marmortahvlil
marne
maroko
marokos
marquion
marriage
mars
marseille
marsh
marshall
marshalli
marsi
marsil
marsile
marsruudil
marsruut
marsruuti
marss
marssal
marssis
mart
marta
marten
martha
marti
martin
martina
martine
martini
martino
martins
martinson
martinus
martna
martson
martti
maru
marx
marxi
mary
marylandi
mas
mashke
masin
masina
masinad
masinaehituse
masinaid
masinat
masinate
masing
masingu
masinlik
masino
masinto
mask
maski
mason
masoovia
mass
massa
massaaz
massachusetts
massachusettsi
masse
massi
massiga
massiiv
massiivi
massiivne
massiline
massilise
massiliselt
massimo
massist
masso
massu
mast
master
masters
masti
masuuria
mat
mata
match
mate
mateeria
matemaatik
matemaatika
matemaatikaleksikon
matemaatikao
matemaatikas
matemaatikat
matemaatiline
matemaatilise
matemaatilised
matemaatiliselt
matemaatiliste
mater
materiaalne
materiaalse
material
materialen
materialien
materials
materjal
materjale
materjali
materjalid
materjalide
materjalidest
materjaliga
materjalis
materjalist
math
mathbb
mathbf
mathcal
mathematical
mathematics
mathias
mathiesen
mathieu
mathilde
mathrm
mati
matilda
matisse
matka
matkarada
matmispaik
matrikel
matriklisse
matrix
mats
matsalu
matsi
matt
matta
matteo
matter
matteuse
matthew
matthews
matthias
matti
mattias
mattiesen
mattis
matu
matus
matused
matustel
matvei
maud
maurer
mauri
maurice
mauritaania
mauritiuse
maurus
mauruse
mausoleum
max
maxim
maxima
maximilian
maximus
maxwell
maxwelli
may
maya
maydell
mayer
maz
mazarin
mazciems
mazsalaca
mb
mba
mbab
mbama
mbas
mbasid
mbavad
mbe
mbejo
mber
mberlu
mbermo
mberpo
mberringi
mbert
mberto
mbertru
mbit
mblik
mblikuvo
mblus
mbol
mboleid
mboli
mbolid
mboliks
mbolina
mboliseerib
mboliseerivad
mbolit
mbolite
mboolika
mboolne
mboolsesse
mbris
mbritseb
mbritses
mbritsesid
mbritsetud
mbritsev
mbritseva
mbritsevad
mbritsevast
mbritsevat
mbritsevate
mbrus
mbruse
mbruses
mbrusest
mbruskonna
mbruskonnas
mbrusse
mbrust
mbuma
mbunud
mbus
mbusid
mc
mccartney
mcdonald
mcgraw
mclaren
md
me
mea
mean
meaning
means
measure
measurement
mec
mechanics
mechanism
mechanisms
mecklenburg
mecklenburgi
med
meda
medal
medaleid
medali
medalid
medaliga
medaliheitlusest
medalit
medalivo
media
mediaan
mediaanvanus
mediabank
medical
medici
medicina
medicinal
medicine
medieval
meditatsioon
meditsiin
meditsiini
meditsiiniauhinna
meditsiinidoktor
meditsiiniline
meditsiinilise
meditsiinio
meditsiinis
meditsiiniso
medium
medvedev
mee
meedia
meedias
meeksi
meel
meelde
meeldeja
meeldi
meeldib
meeldida
meeldiks
meeldima
meeldinud
meeldis
meeldisid
meeldiv
meeldiva
meeldivad
meele
meeleavaldajad
meeleavaldajate
meeleavaldus
meeleavalduse
meeleavaldused
meeleavaldusel
meeleavalduste
meeled
meelega
meeleha
meeleheitel
meelel
meelelahutus
meeleldi
meelemo
meeleolu
meelepa
meeles
meelest
meelestatud
meeletu
meeli
meelis
meelitab
meelitada
meelitas
meelsasti
meelt
meelte
meeltega
meenus
meenutab
meenutada
meenutades
meenutas
meenutasid
meenutav
meenutavad
meenutusi
meer
meeri
meerid
meeride
mees
meesko
meeskond
meeskonda
meeskondade
meeskondlikult
meeskonna
meeskonnad
meeskonnaga
meeskonnale
meeskonnaliiget
meeskonnas
meeskonnast
meeskonnavo
meeskoor
meeskoori
meesna
meespeaosata
meessoo
meessoost
meest
meeste
meestega
meestel
meestele
meestest
meet
meeter
meeting
meetmed
meetmeid
meetmete
meetod
meetodeid
meetodi
meetodid
meetodiga
meetodil
meetodit
meetodite
meetoditega
meetri
meetril
meetrine
meetrini
meetrise
meetrit
mega
mehaanika
mehaaniline
mehaanilise
mehaanilised
mehaaniliselt
mehaaniliste
mehe
mehed
mehega
meheks
mehel
mehele
meheline
mehelise
mehena
mehenimena
mehenimi
mehest
mehhaniseeritud
mehhanism
mehhanisme
mehhanismi
mehhanismid
mehhanismide
mehhiko
mehhikos
mehi
mehike
mehikoorma
mehis
mehitamata
mehitatud
mehmed
mei
meid
meie
meiega
meiegi
meier
meierei
meikar
meil
meile
meilt
mein
meinhard
meis
meist
meister
meistersportlane
meistri
meistrid
meistriks
meistrile
meistriliiga
meistriliigas
meistrite
meistritiitli
meistrivo
meißeni
mel
melanie
melbourne
melchior
melissa
meloodia
melville
member
members
membraani
memento
memmekene
memoriaal
memorial
memoriam
memory
memuaarid
men
menar
mendelssohn
mene
menetlus
menetluse
menetluses
menetlusse
menon
mens
ment
mental
menu
meos
mer
mera
meraas
mercedes
mercia
mercury
merd
mere
merea
mereakadeemia
merega
merejalava
merejo
merekindluse
merekooli
merel
merele
merelt
merema
meremaa
meremaal
meremees
meremeeste
meremehed
meremiili
meremuuseumi
mereni
mereo
merepa
merepinna
merepinnast
merepo
merero
meres
mereso
merest
mereste
mereva
merevee
merevikis
meri
merike
merikotkas
meriku
merila
merilaas
merili
merit
meriva
merkel
merkmalen
merkuur
merkuuri
merle
merpalu
merre
meru
mes
mesi
mesilane
mesilased
mesilaste
mesopotaamia
mesopotaamias
message
messenger
messi
messier
messina
met
meta
metaani
metabolism
metabolismi
metafoor
metafu
metal
metall
metalle
metalli
metallica
metallid
metallide
metallikunstnik
metallist
metallito
metaphysics
meteoroloogia
method
methods
metodisti
metodoloogia
metoodika
metro
metroo
metroojaam
metropoliit
metropolitan
metropolitana
mets
metsa
metsad
metsade
metsades
metsadest
metsaga
metsakaitseala
metsakalmistul
metsakalmistule
metsaku
metsamajanduse
metsandik
metsandus
metsanduse
metsar
metsas
metsast
metsateadlane
metsato
metsau
metsavend
metsavendade
metsavennad
metsi
metsik
metsiku
metsikult
metskond
metskonna
metsku
metslang
metsosopran
metspalu
metsseal
mett
metu
metz
mexico
meyer
mez
mf
mfiso
mfisu
mfoonia
mfooniaorkester
mfooniaorkestri
mfooniaorkestrile
mfooniat
mfooniline
mfotsu
mg
mh
mhz
mi
mia
miami
mice
michael
michaeli
michal
michał
michel
michelangelo
michele
michelle
michelson
michigan
michigani
mick
mickwitz
micro
microbiol
microbiology
microsoft
microsofti
mid
mida
midagi
middle
mide
midi
midnight
mie
miejscowos
mies
mieszko
mig
miga
migra
migration
migratsiooni
miguel
migun
miha
mihail
mihhail
mihhailovits
mihkel
mihkelson
mihkli
miia
miikaeli
miili
miilits
miilitsa
miina
miini
miinimum
miinimumtemperatuur
miinus
miitavi
mika
mikael
mike
mikelsaar
miki
mikita
mikitama
mikiver
mikk
mikko
mikołaj
mikrobioloog
mikrobioloogia
mikrofoni
mikroneesia
mikroobide
mikroorganismide
miks
mikser
miku
mil
milan
milani
milano
milanos
mile
miles
military
miljard
miljarda
miljardi
miljardit
miljo
miljon
miljona
miljoneid
miljoni
miljonid
miljonile
miljonit
miljonite
milk
mill
millal
millalgi
mille
millega
millegagi
millegi
millegipa
milleks
millekski
millel
millele
millelegi
millelt
milleni
millennium
miller
milleri
milles
milleski
millesse
millest
millestki
milleta
milli
millimeetrit
milline
million
millise
millised
milliseid
millisel
millises
millist
milliste
mills
milne
milos
milton
milvi
milwaukee
mimaa
min
mina
minagi
minas
mind
mindi
mine
mineiro
minek
minekut
minema
mineraal
mineraale
mineraali
mineraalid
mineraalide
mineral
mineraloogia
minevik
minevikku
mineviku
minevikus
minevikust
ming
minge
mingeid
mingi
mingid
mingil
mingile
mingis
mingisse
mingist
mingisugune
mingisuguse
mingisuguseid
mingisugust
mingit
mingite
mingu
mini
minimaalne
minimaalse
minimaalselt
minimum
mining
ministeerium
ministeeriumi
minister
ministri
ministrid
ministries
ministriks
ministrite
ministry
minna
minnakse
minnes
minnesota
minni
minoor
minor
minose
minsk
minski
minskis
minu
minuga
minul
minule
minult
minus
minusse
minust
minut
minuti
minutiga
minutil
minutis
minutit
mio
mir
mira
miranda
mirjam
mirko
mirna
miro
miroslav
mirror
mis
mise
misega
miseks
misel
mises
misest
misja
misjona
misjonito
miska
miski
miskit
mismoodi
mispa
mispeale
miss
missa
missile
missing
mission
missioon
missiooni
missioonil
mississippi
misso
missouri
missugune
missuguse
missugused
missugust
mist
mistahes
mister
misto
mit
mitau
mitchell
mitme
mitmeaastane
mitmed
mitmeha
mitmeid
mitmekesine
mitmekesisus
mitmekesisuse
mitmekesisust
mitmekordne
mitmeks
mitmeku
mitmel
mitmele
mitmeotstarbeline
mitmes
mitmesse
mitmest
mitmesuguse
mitmesugused
mitmesuguseid
mitmesuguste
mitmesugustel
mitmesugustes
mitmeta
mitmete
mitmetel
mitmetele
mitmetes
mitmetest
mitmeti
mitmevo
mitmus
mitmuse
mitmuses
mitochondrial
mits
mitsubishi
mitt
mitte
mitteametlik
mitteametlikult
mitteavalik
mitteilungen
mitteso
mitteta
mittetulundusu
mitu
mituku
mitusada
mitut
mix
mk
ml
mln
mm
mma
mmanud
mmargune
mmarguse
mmargused
mmastav
mmastik
mmastikku
mmastiku
mmata
mmatakse
mmates
mmati
mmatud
mme
mmeetria
mmeetriline
mmeetrilise
mmeetrilised
mmekond
mmel
mmeldud
mmend
mmer
mmet
mmi
mmik
mmil
mmku
mmu
mn
mnaasium
mnaasiumi
mnaasiumiks
mnaasiumile
mnaasiumio
mnaasiumis
mne
mneaastane
mneaastase
mneaastaselt
mned
mneid
mneks
mnel
mnele
mnenda
mnendal
mnendat
mnendate
mnendatel
mnendi
mnendid
mnendil
mnenditel
mnendsu
mnes
mnesse
mnest
mnete
mnetel
mnevo
mni
mnt
mo
mobiil
mobiilne
mobiiltelefoni
mobile
mobilisatsiooni
mobiliseeriti
mobility
moby
mod
mode
model
modell
modelleerimine
models
modena
modern
modernismi
modifitseeritud
module
moe
moekunstnik
moel
moes
moh
mohamed
mohammad
mohammed
moi
mois
mojo
moks
mokslo
mol
moldaavia
moldova
moldovas
mole
molecular
molekul
molekulaarbioloog
molekulaarbioloogia
molekule
molekuli
molekulid
molekulide
molekulis
molie
molina
moll
molly
moloogia
molotov
molotovi
molu
moment
mon
mona
monaco
monacos
monarh
monarhi
monarhia
monchel
monchy
monde
mondo
monet
money
mongoli
mongolid
mongolite
mongoolia
mongoolias
monica
monika
monitor
monitoring
mono
monograafia
monroe
monster
mont
montaaz
montana
montauban
monte
montenegro
montenegros
montgomery
month
monthly
montpellier
montre
montreal
monts
monumendi
monument
mood
moodi
moodne
moodsa
moodul
mooduli
moodus
moodusta
moodustab
moodustada
moodustades
moodustama
moodustamine
moodustamise
moodustamisega
moodustamiseks
moodustamisel
moodustamist
moodustanud
moodustas
moodustasid
moodustatakse
moodustati
moodustatud
moodustavad
moodustavate
moodustis
moodustub
moodustumine
moodustumise
moodustumist
moodustunud
moodustus
moodustuvad
moon
moondunud
moonika
moonutatud
moor
moora
moore
mooses
moosese
mooste
mootor
mootoreid
mootori
mootorid
mootoriga
mootorit
mootorite
mootorso
mora
moraal
moraali
moraalne
moraalse
moraalselt
moraalset
moral
morales
morality
morava
mordva
more
moreau
moreno
morfoloogia
morgan
mori
moritz
morning
morozov
morris
morrison
morse
mort
morton
mory
mos
mosambiigi
moscow
moses
moskva
moskvas
moskvasse
moskvast
moskwalase
moslemid
moslemite
moss
most
mother
motiiv
motiive
motiivi
motiivid
motiivide
motion
motivatsioon
motivatsiooni
motiveeritud
moto
motor
motoriseeritud
motorola
motors
motorsport
motosportlane
motte
mount
mountain
mountains
mouse
move
movement
movie
mozart
mozarti
mozilla
mp
mpa
mpeg
mpia
mpiaad
mpiakomitee
mpiakulla
mpial
mpiama
mpiarekord
mpiavo
mps
mptomeid
mptomid
mptomite
mpumalanga
mr
mri
mrna
mrs
ms
msa
msad
msalt
mstislav
mt
mtdna
mtu
mtv
mu
much
mucha
mud
muda
mudel
mudeleid
mudeli
mudelid
mudeliga
mudelil
mudelis
mudelist
mudelit
mudelite
mudelitel
muga
mugav
mugavalt
muh
muhammad
muhu
muhv
muia
muid
muide
muidki
muidu
muidugi
muinas
muinasaja
muinasajal
muinasjutt
muinasjutte
muinasjutud
muinaskalmed
muinaslinnus
muinsuskaitse
muinsuskaitseala
muinsuskaitseamet
muinsuskaitseameti
muinsusma
muist
muiste
muistne
muistse
muistsed
muistsete
muiz
mujal
mujale
mujalgi
mujalt
muks
mul
muld
mulda
muldade
muldadel
mulgi
mulje
muljet
mull
mulla
mullad
mullas
mullast
mulle
muller
multi
multimeedia
multiple
mun
muna
munad
munade
munama
mundi
mune
muneb
munga
mungad
municipal
munitsipaalrajoon
munk
munka
munkade
munna
munsterroll
mura
murad
muraka
murat
murd
murda
murde
murded
murdeid
murder
murdes
murdeso
murdis
murdja
murdma
murdmaa
murdmaasuusataja
murdmaasuusatamises
murdnud
murdoch
murdsid
murdumisna
murdunud
mure
mured
mures
muret
muretseda
muretsema
muretses
muri
muriel
murmanski
murphy
murrab
murray
murre
murret
murrete
murretes
murru
murtud
muru
mus
musa
muse
museo
museum
music
musica
musical
musicbrainz
musik
musk
muskatplomi
musketa
muslimite
mussolini
must
musta
mustad
mustade
mustafa
mustaks
mustal
mustale
mustama
mustanahaline
mustanahalisi
mustanahaliste
mustas
mustast
muster
musti
mustja
mustjala
mustjo
mustla
mustlased
mustlasi
mustpeade
mustra
mustreid
mustri
mustrid
mustriga
mustvee
mutatsioonid
muti
mutt
muu
muud
muuda
muudab
muudatus
muudatuse
muudatused
muudatusi
muudatuste
muudatustega
muudavad
muude
muudel
muudele
muudes
muudest
muudetakse
muudeti
muudetud
muudki
muudkui
muuga
muuhulgas
muuks
muul
muule
muuli
muundab
muundatud
muus
muusa
muuseas
muuseum
muuseumi
muuseumid
muuseumide
muuseumile
muuseumis
muuseumist
muusik
muusika
muusikaakadeemia
muusikaakadeemias
muusikaauhinnad
muusikaelu
muusikaga
muusikainstrumentide
muusikakeskkooli
muusikakool
muusikakooli
muusikakoolis
muusikakriitik
muusikal
muusikale
muusikali
muusikaline
muusikalis
muusikalise
muusikalisi
muusikalist
muusikaliste
muusikao
muusikapedagoog
muusikaprodutsent
muusikas
muusikasse
muusikast
muusikastiil
muusikat
muusikateadlane
muusikateooria
muusikateose
muusikau
muusikavideo
muusikaz
muusiku
muusikud
muusikuid
muusikute
muust
muuta
muutes
muutis
muutlik
muutma
muutmata
muutmine
muutmise
muutmisega
muutmiseks
muutmisel
muutmist
muutnud
muutsid
muutu
muutub
muutuda
muutudes
muutuja
muutujad
muutujate
muutuks
muutuma
muutumatu
muutumine
muutumise
muutumist
muutunud
muutus
muutuse
muutused
muutusi
muutusid
muutust
muutuste
muutustega
muutustest
muutuv
muutuva
muutuvad
mv
mw
mx
my
mycobacterium
myspace
mystery
myth
n
na
naaber
naaberku
naabervallad
naabri
naabrid
naabrite
naabruses
naad
naamika
naamikat
naamiline
naamilise
naamiliselt
naamilist
naan
naani
naaseb
naasid
naasis
naasmist
naasnud
naasta
naastes
naatriumi
nab
naba
nabala
nach
nachrichten
nacht
nacional
nad
nada
nade
nadega
nadel
nadele
nades
nadest
nadez
nael
naela
naelsterlingi
naelsterlingit
naene
naer
naerab
naeran
naeratades
naeratas
naeratus
naeratusega
naerda
naerdes
naeris
naerma
naersid
naeru
naeruva
nafraas
nafta
naftat
naftato
naga
nagel
nagi
nagoog
nagu
nagunii
nagy
naha
nahaga
nahakunstnik
nahal
nahale
nahast
nahava
nahk
nahka
nahkhiir
nahkhiirte
nahkur
nai
naiivne
naine
nais
naise
naised
naisega
naiseks
naisel
naisele
naisena
naisenimi
naisest
naishinge
naisi
naisko
naiskodukaitse
naiskond
naiskonna
naiskoor
naisna
naiso
naispeaosata
naissaare
naissoo
naissoost
naissugu
naist
naiste
naistega
naistel
naistele
naistepuna
naisterahva
naisterahvas
naistest
naisu
naja
najal
najalg
nak
nakatunud
nakatunut
nakatunute
nakkus
nakkuse
nakkushaiguste
naks
naksitrallid
nal
nale
nali
naline
naliselt
nalja
naljakas
nalt
nam
nama
name
named
names
namiibia
namo
nams
namu
nan
nana
nancy
nane
nano
nantes
nao
naomi
naosast
napa
napilt
napole
napoleon
napoleoni
napoli
napolis
napp
naraamat
naraamatu
naraamatus
narkootikumide
naro
narr
narva
narvas
narvast
narwa
nas
nasa
nasdaq
nase
naseks
naseletusi
naseni
nasest
nash
nashville
naso
nassau
nassilma
nast
nastada
nastas
nastatud
nastia
nastiale
nastiast
nastik
nastiku
nastikus
nat
nata
natali
natalia
natalie
natalja
nate
nathan
nation
national
nationale
nations
native
natl
nato
natsi
natside
natsionaalsotsialistliku
natsionaliseeriti
nattoke
nattokesse
natu
natud
natuke
natukene
natukese
natur
natura
natural
nature
nau
nauding
naudingu
naudingut
nauru
nautida
nautis
nav
nava
navad
navaga
navaho
navaid
navaks
naval
navale
navalno
navalt
navana
navani
navanimed
navara
navarra
navas
navast
navat
navate
navatel
navatele
navesti
navigatsioonima
navo
navu
navy
nazi
nazionale
nb
nba
nbc
nberg
nbergi
ncbi
nchen
ncheni
nchenis
nchez
ncipe
nd
nda
ndab
ndad
ndagi
ndail
ndaja
ndajad
ndajana
ndajate
ndama
ndamine
ndamise
ndamiseks
ndanimetatud
ndas
ndasid
ndate
ndatel
ndatest
ndav
ndava
ndavad
nde
ndebele
ndeks
ndel
nder
ndes
ndez
ndi
ndid
ndida
ndide
ndides
ndiga
ndigen
ndil
ndima
ndimine
ndimise
ndimist
ndimuse
ndinu
ndinud
ndis
ndische
ndischen
ndisches
ndisid
ndisse
ndist
ndkond
ndler
ndmus
ndmuse
ndmused
ndmuseks
ndmusest
ndmusi
ndmust
ndmuste
ndmustega
ndmustele
ndmustest
ndor
ndra
ndrahn
ndroom
ndroomi
ndroomiga
ndsaks
ndu
ndur
ne
neal
near
nebraska
nebst
nebula
neburg
neburgi
nec
ned
neda
nede
nedel
nedes
nedz
need
needki
needsamad
needus
neelab
neelas
neem
neeme
neenetsi
neeru
neerude
neeruti
neesia
neetud
neeva
nega
negatiivne
negatiivse
negatiivsed
negatiivseid
negatiivselt
negatiivset
negatiivsete
negative
neggo
negi
negootide
nehatu
nei
neid
neidu
neil
neile
neill
neilt
neis
neisse
neist
neitsi
neiu
neiud
neiule
neiuna
neiupo
nek
neka
nekaldal
nekeeles
nekroloog
neks
nektar
neku
nekustamo
nel
nelda
neldakse
neldi
nele
neleb
neleja
nelejad
nelejaid
nelejat
nelejate
nelema
neles
nelesid
nelevad
neli
neliku
nelinurkne
nelinurkse
nelipu
neliteist
nelja
neljakordne
neljaks
neljaku
neljal
neljale
neljanda
neljandaks
neljandal
neljandale
neljandas
neljandat
neljapa
neljapaadil
neljas
neljast
neljateistku
nella
nelli
nelson
nelus
nelused
nelusi
nemaa
nemaal
nemad
nemere
nemerel
nemeres
nemeresoome
nemets
nemo
nemunase
nen
nenda
nende
nendega
nendeks
nendel
nendele
nendelt
nendes
nendesse
nendest
neo
neosa
neosas
nepal
nepali
nepalis
nepoolne
nepoolse
neptune
neptuuni
ner
neranna
nerannikul
neriikide
nerindel
nerman
nero
nerva
nes
nese
nesed
nesid
nest
neste
nestor
net
netherlands
neti
netiviide
nets
network
networks
neu
neue
neumann
neural
neuroloog
neuronite
neuroscience
neustadt
neutraalne
neutraalse
neuville
nev
neva
nevada
never
neviisi
neville
nevo
nevski
new
newcastle
newman
news
newton
newtoni
next
nez
nfsv
nft
ng
nga
ngad
ngalt
ngas
ngast
ngaste
ngc
nge
ngel
nger
ngi
ngib
ngida
ngides
ngija
ngijad
ngijaid
ngijaks
ngijal
ngijale
ngijana
ngijat
ngijate
ngijatel
ngijatest
ngima
ngimine
ngimise
ngimiseks
ngimist
nginud
ngis
ngisid
ngitakse
ngiti
ngitud
ngiv
ngivad
ngo
ngu
nguaega
ngud
ngude
ngudega
ngudeks
ngudel
ngudele
ngudelt
ngudes
ngudest
ngufilm
ngufilmi
ngufilmis
nguga
nguks
ngul
ngule
ngus
ngust
nguva
nguyen
nh
nhl
ni
nia
nica
nicaragua
niccolo
nice
nicholas
nicht
nick
nico
nicola
nicolae
nicolai
nicolas
nicolaus
nicole
nid
nide
nie
niels
nielsen
nietzsche
nig
niga
nigeeria
nigeerias
nigel
niger
nigeri
night
nigi
nigol
nigra
nigsberg
nigsbergi
nigul
nigula
niguliste
nih
nihe
nihkus
nii
niidu
niidumari
niigi
niiha
niikaua
niikuinii
niiluse
niimoodi
niina
niinimetatud
niipalju
niipea
niisama
niisamuti
niisiis
niiske
niiskus
niiskuse
niiskust
niisugune
niisuguse
niisugused
niisuguseid
niisugusel
niisuguses
niisugust
niisuguste
niisuke
niit
niitudel
niiviisi
niivo
nija
nik
nika
nikaia
nike
nikephoros
nikerdatud
niki
nikita
nikkel
niko
nikola
nikolai
nikolajev
nikolajevits
nikolaus
nikolause
nikord
nikov
niks
niku
nil
nile
nils
nilsson
nim
nimaa
nimaal
nime
nimed
nimede
nimedega
nimedest
nimega
nimekiri
nimekirja
nimekirjad
nimekirjas
nimekirjast
nimeks
nimekuju
nimel
nimele
nimeline
nimelise
nimeliselt
nimelises
nimelist
nimelt
nimena
nimepa
nimepidi
nimes
nimesid
nimest
nimestik
nimeta
nimetab
nimetada
nimetades
nimetama
nimetame
nimetamine
nimetamise
nimetanud
nimetas
nimetasid
nimetata
nimetatakse
nimetatav
nimetati
nimetatud
nimetav
nimetavad
nimetu
nimetus
nimetuse
nimetused
nimetusega
nimetuseks
nimetusest
nimetusi
nimetust
nimetuste
nimetut
nimi
nimiso
nimistu
nimistus
nimistusse
nimiva
nin
nina
ninaga
ninasarvik
ninck
nine
ninel
ning
ningad
ningaid
ningal
ningast
ningate
ningatel
nini
ninja
nino
nintendo
nio
nipernaadi
nirk
nis
nisma
nissan
nissi
nisso
nisson
nissoni
nist
nistas
niste
nisu
nixon
niz
nj
nja
nk
nka
nkad
nkal
nklik
nkumine
nkumise
nkvd
nl
nla
nlad
nlib
nlkp
nlm
nm
nn
nna
nnak
nnaku
nnakud
nnakuga
nnakuid
nnakul
nnakule
nnakus
nnakut
nnakute
nnakutes
nnanud
nnap
nnapuu
nnata
nnates
nnati
nne
nneks
nnelik
nneliku
nnelikud
nnelikuks
nnelikult
nnepalu
nnest
nnestu
nnestub
nnestumise
nnestunud
nnestunult
nnestus
nnestusid
nnet
nnetu
nnetus
nnetuse
nnetused
nnetuseks
nnetuses
nnetusi
nnetust
nnetuste
nni
nniaastapa
nnib
nnid
nnide
nniga
nnija
nnik
nnikhusen
nniks
nniku
nnil
nninimega
nninimi
nnipa
nnis
nnist
nnistati
nnistatud
nnistus
nnistust
nnitab
nnitaja
nnitanud
nnitas
nnitus
nnituse
nnivad
nno
nnu
no
noa
noaga
noah
noarootsi
nobel
nobeli
nobelprize
noble
node
noe
noel
noh
noir
noise
nojah
nokaudiga
nokia
nokk
nomenclature
nominatsiooni
nomineeritud
nominent
non
nonu
nood
noodi
noodid
noodikirja
noodikirjas
noogutas
nool
noor
noore
noored
noorel
noorele
noorelt
noorem
noorema
nooremad
nooremale
nooremat
nooremate
nooremehe
nooremleitnant
nooremteadur
noorena
noores
noorest
noori
noorik
noorim
noorima
noorma
noormees
noormehe
noormehed
noormets
noorpo
noorsoo
noorsooteater
noorsooteatris
noorsooto
noort
noorte
noorteakadeemiaga
noortekeskus
noorteklubis
noortel
noortele
noortest
noorteu
nooruk
noorus
nooruse
nooruses
noot
nor
nora
norbert
nord
nordi
nordic
nordisk
nordrhein
norm
norma
normaalma
normaalne
normaalse
normaalseks
normaalselt
normal
norman
normandia
normann
normanni
normannid
normannide
norme
normet
normi
normid
normide
norra
norras
norrasse
norrast
norrat
norris
norske
north
northern
norton
norway
norwegian
norwich
nos
not
notar
notari
notarite
note
noteeritud
notes
nothing
notre
nou
nous
nouvelle
nov
nova
novaator
novads
novaja
nove
novel
novell
novelle
novelli
novellid
novellikogu
november
novembri
novembril
novembrini
novembris
novembrist
novgorod
novgorodi
novgorodis
novi
novo
novosibirski
novosti
now
nowy
noyelle
noyelles
nr
ns
nsa
nsdap
nsi
nster
nsteri
nsus
nsuse
nsust
nsv
nsvl
nt
nta
ntaks
nte
ntees
nteesi
nteesida
nteesiks
nteesis
nteesitakse
nteesitud
nteesivad
nteetiline
nteetilised
nter
ntesaator
nthal
nther
nti
ntide
ntu
nu
nuclear
nud
nuga
nuia
nukiri
nukitsamees
nukk
nukker
nukleotiidi
nukralt
nuku
nukuna
nukuteater
nukuteatri
nul
nulg
nulik
nulka
null
nulli
nulliga
nullist
num
number
numbers
numbreid
numbri
numbrid
numbriga
numbris
numbrit
numbrite
numbritega
numeid
numi
numid
numit
numite
numitooja
nunn
nupp
nuppu
nupu
nupud
nur
nurga
nurgad
nurgakivi
nurgal
nurgas
nurgast
nurja
nurjus
nurk
nurka
nurm
nurme
nursi
nus
nused
nuseid
nuste
nut
nuta
nutab
nutan
nutma
nutrition
nutt
nutta
nuttes
nuttis
nvidia
ny
nya
nyi
nyman
nz
nœux
o
oa
oak
oandu
oates
ob
obama
obci
oberstdorfis
obersturmfu
obi
obinitsa
object
objects
objekt
objekte
objekti
objektid
objektide
objektidele
objektidest
objektiga
objektiivne
objektiivse
objektiivselt
objektiks
objektile
objektina
objektist
oblast
oblasti
oblastiga
oblastikomitee
oblastis
oblastisse
oblomov
oblomovi
observations
observatoorium
observatooriumi
observatooriumis
observer
ocean
och
oclc
oct
october
od
oda
odav
odavam
odavamad
odaviskaja
ode
oder
odessa
odette
odra
odu
odysseus
odyssey
oe
oecd
oesel
of
off
office
officer
official
officinalis
og
oga
ographique
ogre
oh
ohio
ohkas
oht
ohtlik
ohtlike
ohtlikke
ohtliku
ohtlikud
ohtlikuks
ohtralt
ohtu
ohtude
ohtuleht
ohu
ohud
ohuks
ohus
ohustab
ohustatud
ohustavad
ohutu
ohutus
ohutuse
ohver
ohverdati
ohvitser
ohvitsere
ohvitseri
ohvitserid
ohvitseride
ohvitserina
ohvreid
ohvri
ohvriallikas
ohvrid
ohvrikivi
ohvriks
ohvrit
ohvrite
oi
oidermaa
oikumeenilise
oil
oinas
ois
oise
oisy
oit
oja
ojaka
ojamaa
ojasoo
ok
oka
okas
okaspuu
oke
okeaania
oki
okk
okkad
oklahoma
okolaad
okolaadi
oks
oksa
oksad
oksana
oksendamine
oksi
oksiid
oksitaani
oksjonil
okste
oksu
okt
oktav
oktavi
oktoober
oktoobri
oktoobriks
oktoobril
oktoobrini
oktoobrirevolutsiooni
oktoobris
oktoobrist
okupatsioon
okupatsiooni
okupatsioonide
okupatsiooniva
okupatsioonivo
okupe
okupeerimist
okupeeris
okupeerisid
okupeeritud
ol
ola
olaf
olari
olav
olavi
old
olda
oldenburg
oldenburgi
oldi
oldud
ole
oled
oleg
olegi
olek
oleks
oleksandr
oleksid
oleksime
oleksin
oleksite
oleksiwad
olekski
oleku
olekus
olekusse
olekust
olekut
olema
olemas
olemasolev
olemasoleva
olemasolevad
olemasolevaid
olemasolevat
olemasolevate
olemasolu
olemasolul
olemasolule
olemasolust
olemast
olemata
olematu
olematuks
oleme
olemine
olemise
olemisega
olemisest
olemist
olemus
olemuse
olemuselt
olemusest
olemuslik
olemuslikult
olemust
olen
olend
olendeid
olendi
olendid
olendite
oleneb
olenemata
olenevalt
oles
olesk
oletab
oletada
oletame
oletas
oletatakse
oletatavasti
oletatud
olete
oletus
olev
oleva
olevad
olevaid
olevaks
oleval
olevale
olevas
olevasse
olevast
olevat
olevate
olevatel
olevatele
olevatest
olevi
olevik
oleviku
olevikus
oleviste
olevus
olewat
olga
olge
olgu
olgugi
oli
olid
olidki
oligi
oliivio
olime
olin
oline
olion
oliseks
oliselt
olisem
olisemalt
olite
oliveira
oliver
olivia
olivier
oliwad
oll
olla
ollakse
olle
ollema
olles
olli
ollino
olnd
olnud
olnudki
olnuks
olof
oloog
olovernes
olsen
olt
olu
olud
olude
oludes
olukord
olukorda
olukordade
olukordades
olukordi
olukorra
olukorraga
olukorrale
olukorras
olukorrast
oluline
olulise
olulised
oluliseks
olulisel
oluliselt
olulisem
olulisemad
olulisemaid
olulisemaks
olulisi
olulisim
olulist
oluliste
olulisust
olustvere
olympedia
olympia
olympic
olympics
olympique
om
oma
omab
omad
omada
omade
omadega
omades
omadest
omadus
omaduse
omadused
omadusi
omadusso
omadust
omaduste
omadustega
omadustele
omadustest
omaenda
omaenese
omaette
omaga
omakaitse
omakasu
omakorda
omaks
omaksvo
omal
omale
omalt
omama
omamine
omamoodi
omana
omand
omandab
omandada
omandama
omandamine
omandamise
omandamiseks
omandamist
omandanud
omandas
omandasid
omandatud
omandavad
omandi
omandio
omandisse
omanduses
omandusse
omane
omanik
omanike
omanikeks
omanikele
omanikke
omanikku
omaniku
omanikud
omanikuks
omanikule
omanimelise
omanud
omapa
omar
omas
omase
omased
omaseid
omasid
omast
omastav
omaste
omava
omavad
omavahel
omavaheline
omavahelise
omavahelised
omavahelisi
omavahelist
omavaheliste
omavahelistest
omavalitsus
omavalitsuse
omavalitsused
omavalitsuseks
omavalitsuses
omavalitsusliku
omavalitsust
omavalitsuste
omavalitsustegelane
omavalitsusu
omavanuste
omega
ometi
ometigi
omi
omistab
omistada
omistatakse
omistatud
omma
ommeti
omolungma
omski
on
ona
once
one
onepage
ongi
oni
onion
onkoloogia
online
only
ono
onomastika
ons
ontario
onu
onupoeg
oo
ooberst
ooberstleitnant
oodanud
oodata
oodatakse
oodates
oodati
oodatud
ookean
ookeani
ookeanide
ookeanis
ooper
ooperi
ooperilaulja
ooperis
ooperist
ooperit
oor
oori
oota
ootab
ootama
ootamata
ootamatu
ootamatult
ootan
ootas
ootasid
ootasin
ootavad
ootide
ootus
ootused
op
ope
opel
open
oper
opera
operaator
operaatori
operation
operations
operatorname
operatsioon
operatsioone
operatsiooni
operatsioonid
operatsioonide
operatsioonisu
opereerib
opereti
operett
opinion
opmann
opole
opositsioon
opositsiooni
oppevara
opportunity
opposition
oppy
optical
optika
optiline
optilise
optilised
optiliste
optimaalne
option
opus
or
ora
oracle
orajo
oral
orange
oranje
oranz
oras
oratoorium
orav
orava
orbiidi
orbiidil
orbiidile
orbiit
orbit
orchestra
orden
ordeni
ordeniga
ordenit
ordens
order
ordered
ordineeris
ordineeriti
ordo
ordoviitsiumi
ordoviko
ordu
orduga
ordule
ordulinnus
ordulinnuse
ordumeister
ordumeistri
ordusse
ordut
orduva
oregon
oregoni
orel
oreli
orelile
orelit
orenburgi
org
orgaaniline
orgaanilise
orgaanilised
orgaanilises
orgaanilisi
orgaanilist
orgaaniliste
organ
organi
organic
organid
organisation
organisatsioon
organisatsioone
organisatsiooni
organisatsioonid
organisatsioonide
organisatsioonidega
organisatsioonides
organisatsioonile
organisatsioonis
organiseerida
organiseerimine
organiseerimise
organiseeris
organiseeriti
organiseeritud
organism
organisme
organismi
organismid
organismide
organismis
organist
organite
organization
orgu
ori
orient
orientalist
orientation
orienteeritud
orienteeruja
origin
originaal
originaali
originaalis
originaalpealkiri
originaalpealkirjaga
original
origins
orion
orissaare
orja
orjad
orjade
orje
orjoli
orjuse
orkaan
orkester
orkestri
orkestrijuht
orkestrile
orkestris
orlando
orle
orleans
orleansi
orlov
ornitoloog
ornitoloogiau
ornobo
oro
ors
orsini
orthodox
orto
oru
orud
orus
orust
orville
os
osa
osad
osade
osadeks
osadel
osadele
osades
osadest
osaga
osakaal
osakaalu
osake
osakese
osakesed
osakesi
osakeste
osakond
osakonda
osakondade
osakonna
osakonnad
osakonnajuhataja
osakonnas
osaks
osal
osale
osaleb
osaleda
osaledes
osaleja
osalejad
osalejaid
osalejate
osalejatele
osalema
osalemine
osalemise
osalemist
osalenud
osales
osalesid
osaleti
osalevad
osalevate
osaline
osalise
osalised
osaliseks
osaliselt
osalt
osalus
osaluse
osalusel
osalust
osana
osanud
osapool
osapoole
osapooled
osapoolte
osariigi
osariigis
osariigist
osariik
osariiki
osariikide
osariikides
osas
osasid
osast
osastav
osata
osau
osav
osavalt
osavo
osborne
oscar
oscari
oscarile
osce
osi
oska
oskab
oskad
oskaks
oskama
oskan
oskar
oskas
oskasid
oskavad
oskus
oskuse
oskused
oskusi
oskusso
oskust
oskuste
oslo
oslos
osmanid
osmanite
osmanitu
osmussaare
osnabru
osprey
ossa
osseedi
osseetia
ossinovski
ost
osta
ostab
osten
osteti
ostetud
ostis
ostja
ostma
ostmine
ostmiseks
ostnud
ostrevent
ostsee
ostseeprovinzen
ostsid
ostu
osula
osus
osuse
osusega
osust
osutab
osutada
osutama
osutamine
osutamise
osutas
osutatud
osutavad
osutub
osutuda
osutunud
osutus
osutusid
osvald
oswald
ot
otas
otava
otepa
other
others
oti
otimaa
otimaal
ots
otsa
otsad
otsaga
otsas
otsast
otse
otsekohe
otsekui
otsene
otsese
otsesed
otseseks
otseselt
otseses
otsest
otseteed
otseto
otseu
otsi
otsib
otsida
otsides
otsima
otsimas
otsimine
otsimise
otsin
otsing
otsingud
otsinud
otsis
otsisid
otsitakse
otsiti
otsitud
otsivad
otstarbe
otstarbekas
otstarbeks
otstarbel
otstarve
otstes
otsus
otsuse
otsused
otsusega
otsuseid
otsusel
otsusele
otsuses
otsusest
otsust
otsustab
otsustada
otsustades
otsustama
otsustamine
otsustanud
otsustas
otsustasid
otsustasin
otsustatakse
otsustati
otsustatud
otsustav
otsustava
otsustavad
otsustavalt
otsustavat
otsuste
otsustus
otsustuse
otsustusvo
ott
ottawa
otto
ottobre
otus
otuse
ou
oulu
our
out
ov
ova
ove
over
overlay
overview
ovi
oviir
owen
own
oxenstierna
oxford
oxfordi
oxfordis
oy
oz
ozols
p
pa
paabeli
paadi
paadid
paadiga
paadrema
paal
paali
paanika
paap
paapua
paar
paari
paarid
paaride
paarikaupa
paariku
paaril
paarile
paariline
paaris
paarisaerulisel
paarisma
paarisnumbrid
paaritu
paaritud
paarku
paarsada
paas
paasvere
paat
paati
paavo
paavst
paavsti
paavstid
paavstiga
paavstiks
paavstile
paber
paberi
paberil
paberile
paberist
paberit
paberito
paberraha
pablo
pace
pacific
packard
pad
pada
padar
padise
padova
padrik
padrunit
pae
paekivi
paekivist
paemurd
paet
pagan
pagana
paganad
paganate
pagari
pagasti
pagasts
page
pagendati
pages
pagulaste
paguluses
pah
paha
pahaks
pahameele
pahameelt
pahandas
pahane
pahaselt
pahe
pahema
pahlen
pai
paid
paide
paides
paiga
paigad
paigal
paigaldada
paigaldamine
paigaldatakse
paigaldati
paigaldatud
paigale
paigas
paigast
paigus
paigutab
paigutada
paigutas
paigutatakse
paigutati
paigutatud
paiguti
paigutus
paik
paika
paikade
paikades
paikkond
paikneb
paikneda
paiknedes
paiknemine
paiknemise
paiknenud
paiknes
paiknesid
paiknev
paikneva
paiknevad
paiknevat
paiknevate
paiku
paikuse
pain
paindlik
painting
pais
paisja
paiskas
paista
paistab
paistavad
paistel
paistis
paistma
paistnud
paistsid
paistu
paisu
paisutatud
paja
paju
pajur
pajusalu
pajusi
pak
pakett
pakistan
pakistani
pakistanis
pakitud
pakk
pakku
pakkuda
pakkudes
pakkuma
pakkumine
pakkumise
pakkumist
pakkunud
pakkus
pakkusid
pakkuv
pakri
paks
paksem
paksu
paksud
paksuks
paksune
paksus
paksuse
paksust
pakt
pakti
paku
pakub
pakutakse
pakuti
pakutud
pakuvad
pal
pala
palace
palais
palamuse
palav
palavik
palazzo
paldiski
paldiskis
pale
palee
palees
paleontoloog
palermo
palestiina
palestiinas
palet
palga
palgaso
palgata
palgati
palgato
palgatud
palge
palgi
palgrave
palivere
palja
paljad
paljajalu
paljaks
paljalt
paljand
paljandid
paljas
paljaspea
paljassaare
paljastab
paljastas
paljo
palju
paljud
paljude
paljudel
paljudele
paljudes
paljudesse
paljudest
paljuneb
paljuneda
paljunemine
paljunemise
paljunevad
paljus
paljusid
paljuski
palk
palka
palkas
pall
pallas
pallase
palli
pallo
palm
palma
palme
palmer
palmi
palmse
palo
palu
palub
paluda
paludes
paluku
paluma
palun
palunud
paluoja
palupera
palus
palusalu
palusid
palustris
paluti
palve
palvega
palveid
palvel
palvela
palvemaja
palvera
palvet
palwe
pama
pamiiri
pan
panama
panda
pandeemia
pandi
pandivaldus
pandivere
pandora
pandud
pandz
pane
paneb
paned
paneks
panema
paneme
panemine
panen
panevad
paneve
pang
panga
pangad
pangas
pangata
pange
pani
panid
panin
paniwad
pank
panka
pankade
pankrot
pankroti
pankrotti
pankur
panna
pannakse
panne
pannes
panno
pannoonia
pannud
panso
pant
panther
pantis
pantone
pantvangi
panus
panuse
panust
panustada
panzer
paola
paolo
papa
pape
paper
papers
papp
pappel
papst
papu
par
para
parade
paradigma
paradiis
paradiisi
paradise
paradoks
paragrahv
paragrahvi
paraguay
parajasti
paraku
paralepp
paralleelne
paralleelsed
paralleelselt
parameeter
parameetreid
parameetri
parameetrid
parameetris
parameetrit
parameetrite
parandab
parandada
parandama
parandamine
parandamise
parandamiseks
parandas
parandati
parandatud
parandus
parandusi
paraneb
paranemist
paranenud
paranes
paraolu
paras
parasjagu
parasvo
parata
paratamatu
paratamatult
paratamatus
parda
pardal
pardale
parem
parema
paremad
paremaid
paremaks
paremal
paremale
paremalt
paremas
paremasse
paremast
paremat
paremate
paremini
paremkaldal
parempoolne
parempoolse
parempoolsed
paremuselt
paremusja
parfu
pargi
pargis
pargist
pariis
pariisi
pariisis
pariisist
parim
parima
parimad
parimaid
parimaks
parimal
parimale
parimat
parimate
paris
park
parker
parki
parkides
parkinsoni
parkis
parks
parlamendi
parlamendihoone
parlamendile
parlamendis
parlamendivalimised
parlamendivalimiste
parlamendivalimistel
parlament
parlamentaarne
parlamentaarse
parlamenti
parliament
parma
parmas
parnu
parrot
pars
part
partei
parteid
parteide
parteiga
parteis
parteisse
parteist
partia
partial
parties
partii
partiid
partisanide
partner
partneri
partnerid
partnerite
partners
parts
partsi
party
parun
paruness
paruni
parv
parve
parvlaev
pas
pascal
pass
passe
passi
passiivne
passiivse
passion
passports
past
pasta
pastor
pastoraat
pastorat
pastori
pastoriks
pasvaldibu
pat
pata
pataljon
pataljoni
pataljonis
pataljoniu
patarei
patareid
patendi
patent
patenteeris
path
pathology
patients
patkul
patoloogia
patria
patriarh
patriarhaadi
patriarhi
patricia
patrick
patroon
patsiendi
patsiendid
patsiendile
patsient
patsienti
patsientide
patsientidel
patsientidele
patt
pattern
patterns
patterson
pattu
pattude
patu
patud
patune
pau
paucker
pauk
paul
paula
pauli
pauline
paulista
paulo
paulos
paulus
pauluse
paunku
paus
pausi
pavel
pavia
paviljon
pavlov
pavlovits
pax
pay
payne
pays
paz
pb
pc
pci
pcr
pd
pdf
pe
pea
peaaegu
peaaju
peaasi
peaasjalikult
peaassamblee
peaauhinna
peab
peabki
peace
pead
peade
peadirektor
peadirektori
peadirigent
peaga
peagi
peahoone
peahoones
peaingel
peak
peakirik
peakomitee
peakontor
peakorraldaja
peakorter
peakorteri
peakraav
peakraavi
peaks
peaksid
peaksime
peaksin
peal
peale
pealegi
pealetung
pealetungi
pealik
pealiku
pealinn
pealinna
pealinnaks
pealinnas
pealinnast
pealinnuse
pealkiri
pealkirja
pealkirjad
pealkirjaga
pealkirjaks
pealkirjana
pealt
pealtna
pealtvaatajat
peame
peamees
peamine
peaminister
peaministri
peaministriks
peaministrile
peaministrina
peamise
peamised
peamiseks
peamiselt
peamisest
peamisi
peamist
peamiste
peamisteks
pean
peana
peaosa
peaosades
peaosas
peapiiskop
peapiiskopi
peapiiskopiks
peapiiskopile
peapiiskopkond
peapiiskopkonda
peapiiskopkonna
peapo
peapreemia
peaprokuro
pearl
pearson
pearu
peas
peasekreta
peasisseka
peast
peastaabi
peata
peatab
peatada
peatas
peatati
peate
peategelane
peategelase
peatoimetaja
peatoimetajaks
peatoimetajana
peatreener
peatreeneriks
peatselt
peatu
peatub
peatuma
peatus
peatuse
peatusid
peatuvad
peava
peavad
peavalitsus
peavalitsuse
peavalu
peavarju
peawad
peb
pectore
pedagoog
pedagoogika
pedagoogikateadlane
pedagoogikau
pedagoogiline
pedagoogilise
pedagoogilises
pedajas
pedersen
pedi
pedja
pedro
peedu
peegel
peegeldab
peegeldavad
peegeldub
peegeldunud
peegeldus
peegli
peen
peene
peened
peeneks
peenike
peep
peer
peet
peeta
peetakse
peetav
peeter
peeti
peetri
peetrus
peetruse
peetud
pegasus
pehk
pehme
pehmed
pehmeks
pehmete
peidab
peidetud
peidus
peigmees
peil
peipsi
peipsia
peirce
peita
peitis
peitu
peitub
peiu
peking
pekingi
pekingis
pekka
pekki
peko
peksa
peksis
peksma
peksta
pele
pelgalt
pelgulinna
peloponnesose
pen
penaltiseerias
penelope
penguin
peni
penikesseks
penn
pennsylvania
penny
pension
pensiona
pensioni
pensionile
pentium
pentti
pentus
peo
peol
people
peos
peota
per
pera
perception
percy
pere
pered
perede
perega
pereira
perekond
perekonda
perekondade
perekondadest
perekondi
perekonna
perekonnad
perekonnaga
perekonnale
perekonnanime
perekonnanimede
perekonnanimega
perekonnanimeks
perekonnanimi
perekonnas
perekonnast
perele
peremees
peremeest
peremehe
peremehed
peremeheks
peremehele
perenaine
perenaise
perenimi
peres
perest
perestroika
peret
perez
perfect
perfektiivne
performance
peri
period
periood
perioodi
perioodika
perioodiks
perioodil
perioodiliselt
perioodist
perkins
permi
permikomi
pernes
perre
perroon
perry
persia
person
persona
personaalunioonis
personal
personali
personality
persons
personva
perspective
perspectives
perspektiivi
perspektiivis
pertoire
peru
perugia
peruu
peruus
pes
pesa
pesad
pesapallur
pesas
pesast
pescara
pesema
pesi
pesitseb
pesitsevad
pesitsusaegne
pessa
pesta
pesti
pesu
pet
peta
petab
petada
petades
petaja
petajad
petajaid
petajaks
petajale
petajana
petajat
petajate
petajatele
petama
petamata
petamine
petamise
petamisega
petamiseks
petamisel
petamisest
petamist
petanud
petanute
petas
petasid
petatakse
petati
petatud
petavad
pete
peter
peterburi
peterburis
peterburist
peters
petersburg
petersen
petersilli
peterson
petersoni
petes
petis
petit
petlane
petlased
petlik
petr
petra
petras
petri
petro
petrogradi
petrogradis
petrone
petrov
petrovits
petrovna
petrus
pets
petseri
petserimaa
petta
pettai
petter
pettumust
pettunud
pettus
pettuse
petus
petuse
petused
petusega
petuseks
petuses
petusest
petusi
petust
petuste
petustest
peugeot
pevad
pevkur
pez
pfaltskrahv
pfalz
pfalzi
pffer
pg
ph
phane
phase
phd
phelps
phi
phil
philadelphia
philadelphias
philip
philipp
philippe
philippi
philippos
philips
phillips
philosophical
philosophie
philosophy
phoenix
phone
photo
photography
photos
php
phyllosticta
phys
physical
physics
physiology
pi
pia
pianist
piano
piazza
pib
pic
picasso
picea
pico
picture
pictures
pid
pidada
pidades
pidage
pidalito
pidama
pidamata
pidamine
pidamise
pidamiseks
pidamist
pidanud
pidanuks
pidas
pidasid
pidasin
pidasiwad
pidavat
pide
pidest
pidev
pideva
pidevad
pidevalt
pidevas
pidevat
pidi
pidid
pidin
pidiwad
pidu
pidulik
piduliku
pidulikult
pidupa
piduso
pidustused
pie
pieminekl
piemonte
pier
pierce
piero
pierre
piet
pieter
pietro
pigem
pigistas
pigment
pihku
pihkva
pihkvas
pihl
pihla
pihlak
pihlaka
pihlakas
pihlap
pihta
pihtla
pii
piia
piibe
piibel
piibeleht
piibli
piiblis
piiblist
piiblito
piibu
piiga
piik
piim
piima
piimato
piin
piina
piinlik
piip
piipu
piir
piirab
piirama
piiramatu
piiramine
piiramise
piiramisel
piiramisro
piiramist
piirang
piirangud
piiranguid
piirangute
piiranguvo
piiranud
piiras
piirasid
piirata
piirati
piiratud
piiravad
piirdemu
piirdub
piirduda
piirdus
piire
piires
piiresse
piiri
piiria
piiriala
piirid
piiride
piirides
piiridesse
piiridest
piirikaitseru
piiriks
piiril
piirile
piirima
piirini
piiripunkt
piirissaare
piirist
piiritletud
piiritu
piiriu
piirivalve
piirivalveameti
piirkond
piirkonda
piirkondade
piirkondadeks
piirkondades
piirkondadesse
piirkondadest
piirkondi
piirkondlik
piirkondlike
piirkondliku
piirkondlikud
piirkonna
piirkonnad
piirkonnaga
piirkonnaks
piirkonnale
piirkonnas
piirkonnast
piirkonnau
piirkonniti
piirneb
piirnes
piirsalu
piirva
piisa
piisab
piisas
piisav
piisava
piisavalt
piiskop
piiskopi
piiskopid
piiskopiks
piiskopile
piiskopilinnus
piiskopilinnuse
piiskopkond
piiskopkonda
piiskopkonna
piiskopkonnad
piiskopkonnas
piiskopkonnast
piiskopp
piiskoppe
piiskoppi
piiskoppide
pik
pika
pikaaegne
pikaajaline
pikaajalise
pikaajalist
pikad
pikaealine
pikaks
pikal
pikale
pikali
pikalt
pikama
pikamaajooksja
pikapeale
pikas
pikast
pikavere
pike
pikem
pikema
pikemad
pikemaid
pikemaks
pikemalt
pikemat
pikendada
pikendas
pikendati
pikendatud
piki
pikihoone
pikim
pikima
pikk
pikka
pikkade
pikkamisi
pikkamo
pikker
pikki
pikkja
pikknimy
pikkune
pikkus
pikkuse
pikkused
pikkusega
pikkuseks
pikkusel
pikkuselt
pikkuses
pikkusest
pikkust
piklik
pikliku
piksli
pikslit
pikslite
piku
pikud
pikuid
pikute
pilane
pilar
pilase
pilased
pilasega
pilaseks
pilasele
pilasena
pilasi
pilaskonna
pilast
pilaste
pilastega
pilastel
pilastele
pilastest
pildi
pildid
pildil
pildile
pildis
pilet
pilgrim
pilgu
pilgud
pilguga
pilgul
pilgust
piline
pilise
pilised
piliselt
pilistvere
pilk
pilke
pilku
pill
pille
pilli
pillid
pillide
pillima
pilliroog
piloodi
piloodid
piloot
pilot
pils
pilsoni
pilt
pilte
piltene
pilti
piltide
piltidega
piltidel
piltlikult
pilu
pilv
pilve
pilved
pilvede
pilvelo
pilvi
pilvik
pima
pime
pimeda
pimedad
pimedaks
pimedas
pimedate
pimedus
pimeduse
pimeduses
pimesi
pin
pina
pind
pinda
pindade
pindala
pindalaga
pindalalt
pindalast
pindi
pine
ping
pinge
pinged
pingega
pingeid
pinget
pingete
pingi
pingud
pinguid
pingul
pingute
pink
pinna
pinnad
pinnaga
pinnal
pinnale
pinnalt
pinnas
pinnase
pinnases
pinnast
pino
pinus
pinyin
pio
pioneer
pioneeride
piotr
piper
pipi
pippin
pipra
piraadid
piraatide
piret
pirgu
pirita
pirn
pirnipuu
pis
pisa
pisarad
pisaraid
pisike
pisikesed
pisini
pista
pistab
pistiku
pistis
pistmist
pistnud
pisuha
pisut
pit
pitakse
pital
piti
pitka
pits
pittsburgh
pitud
pius
piusa
pivad
piz
pjotr
pk
pka
pkr
pl
pla
plaadi
plaadid
plaadifirma
plaadifirmaga
plaadil
plaadile
plaan
plaane
plaani
plaanib
plaanid
plaanide
plaanis
plaanist
plaanitakse
plaaniti
plaanitud
plaat
plaate
plaati
plaatide
plaatina
place
places
plahvatas
plahvatus
plahvatuse
plahvatuses
plan
plancki
plane
planeedi
planeedid
planeedil
planeerimine
planeerimise
planeering
planeeringu
planeeritud
planeet
planeeti
planeetide
planet
planetary
planning
plans
plant
plants
plasma
plastist
plata
plate
platform
plato
platon
platoni
platoo
plats
platsi
platsil
platsile
platvorm
platvormi
platvormil
play
playboy
player
players
playstation
plaza
plc
please
plekk
plettenberg
plettenbergi
plii
plik
plikku
pliku
plikuks
plikult
plinius
plo
ploki
plokk
plokkflo
ploom
ploomipuu
plos
plu
plus
pluss
pluto
pluuto
plzen
pm
pmata
pmatrix
pmatu
pmatult
pmatus
pmc
pmcid
pmeline
pmelise
pmid
pms
pn
pnas
pne
png
po
pod
podkarpacie
podlaasia
podolski
poe
poed
poeedi
poeem
poeemi
poeet
poeetika
poeg
poega
poegade
poegadele
poegadest
poegi
poeglaste
poes
poest
poetry
pohja
pohjanmaa
pohl
pohla
point
points
poisi
poisid
poisike
poisile
poiss
poisse
poissi
poiste
poistekoor
poistele
poitiers
poja
pojad
pojaga
pojal
pojale
pojana
pojapoeg
pojast
poks
poksi
poksija
poksis
poksivo
pol
polaaruurija
poland
polariseeritud
pole
polegi
poleks
polekski
polevat
polgu
police
policy
poliitbu
poliitik
poliitika
poliitikaga
poliitikale
poliitikas
poliitikasse
poliitikast
poliitikat
poliitiku
poliitikud
poliitikuid
poliitikute
poliitiline
poliitilise
poliitilised
poliitiliseks
poliitilisele
poliitiliselt
poliitilises
poliitilisest
poliitilisi
poliitilist
poliitiliste
poliitilistel
poliitilistest
polish
political
politics
politik
politisch
politischen
politoloog
politoloogia
politsei
politseiameti
politseile
politseinik
politseinike
politseinikku
politseinikud
politseiprefektuur
politseiprefektuuri
politseis
politseiu
polk
polka
polkovnik
poll
polli
polly
polnud
polnudki
polo
polotski
polska
polski
poltava
polu
pomises
pomm
pommeri
pommi
pommier
pommiru
pommitamise
pomorze
pompeius
pont
ponte
pontificalis
pontificalise
pontus
pood
poodi
poodiumile
pool
poola
poolaga
poolakad
poolakaid
poolakas
poolakat
poolakate
poolale
poolas
poolasse
poolast
poolat
pooldab
pooldaja
pooldajad
pooldajate
pooldas
pooldasid
poole
pooled
poolega
poolehoidu
pooleks
poolel
pooleldi
poolele
pooleli
poolelt
pooleni
pooles
poolest
poolestusaeg
poolfinaal
poolfinaali
poolfinaalid
poolfinaalis
pooli
poolkaitsja
poolkaitsjana
poolko
poolmo
poolne
poolo
poolraskekaalus
poolsaar
poolsaare
poolsaarel
poolsaarele
poolsaarest
poolsaart
poolse
poolt
poolte
poolteist
pooltha
poolvend
poom
poor
pop
pope
popes
poplaulja
popmuusika
popolazione
popov
popper
populaarne
populaarse
populaarsed
populaarseim
populaarseks
populaarsem
populaarsemad
populaarsemaid
populaarsemaks
populaarsus
populaarsuse
populaarsuselt
populaarsust
popular
populariseerija
populariseerimise
population
populations
populatsioon
populatsiooni
populatsioonid
populatsioonide
por
porfiri
porfu
pori
porkuni
poros
porosamblik
porsche
port
porta
portaal
portaali
portaalis
portal
porter
porthos
portland
porto
portrait
portree
portreed
portreid
portselani
portugal
portugali
portugalis
portugallased
poruts
porvoo
pos
positiivne
positiivse
positiivsed
positiivseid
positiivseks
positiivselt
positiivset
positiivsete
position
positive
positsioon
positsioone
positsiooni
positsioonid
positsioonide
positsioonidele
positsioonil
positsioonile
poska
possible
post
posti
postijaam
postimees
postimehe
postimehes
postkontor
postuumselt
pot
potees
poteese
poteesi
potential
potentsiaal
potentsiaali
potentsiaalne
potentsiaalselt
poti
potsdami
potter
potteri
poulos
pour
pourpre
powell
power
powers
powiat
poznan
pp
ppa
ppab
ppaja
ppama
ppar
ppas
ppe
ppeaasta
ppeaastal
ppeasutus
ppeasutuse
ppeasutuste
ppeb
pped
ppeda
ppedes
ppega
ppehoone
ppejo
ppekava
ppekeelega
ppekeskus
ppeks
ppel
ppele
ppema
ppematerjal
ppemist
ppenud
pperada
ppes
ppesid
ppeto
ppetool
ppetooli
ppetoolis
ppeu
ppevahendeid
ppi
ppida
ppides
ppija
ppima
ppimine
ppimise
ppimiseks
ppimist
ppinud
ppis
ppisid
ppisin
ppkokkuvo
pprojekti
ppu
ppude
ppus
pr
pra
practical
practice
practices
prade
pradega
pradele
prae
praegu
praegugi
praegune
praeguse
praegused
praeguseks
praegusel
praegusele
praeguseni
praeguses
praegusest
praegust
praeguste
praetud
praha
prahas
praktika
praktikas
praktikat
praktiline
praktilise
praktilised
praktiliselt
praktilisi
praktilist
praktiliste
prandi
prangli
prantslane
prantslased
prantslaste
prantsuse
prantsuskeelne
prantsuskeelset
prantsusmaa
prantsusmaad
prantsusmaaga
prantsusmaal
prantsusmaale
prantsusmaalt
praost
praostkond
praostkonda
praostkonna
pratchett
pratt
pravda
pre
prediger
predikaat
preemia
preemiad
preemiat
preester
preestri
preestrid
preestriks
preestrit
preestrite
prefekt
prefektuur
prefektuuri
prefektuuris
preili
preisi
preisimaa
preisimaal
preisimaale
prelu
premier
premio
premium
prentice
preobraz
presbu
present
preses
presidendi
presidendid
presidendikandidaadiks
presidendikandidaat
presidendiks
presidendil
presidendile
presidendina
presidendivalimised
presidendivalimiste
presidendivalimistel
president
presidenti
presidential
presiidium
presiidiumi
presley
press
pressi
pressiesindaja
pressikonverentsil
pressiteade
pressure
prestiiz
pretendentide
preux
prevention
pri
price
pride
priekul
prii
priidu
priima
priit
prillid
prima
primaarne
primary
prime
primera
primo
primorje
prince
princess
princeton
princetoni
principle
principles
print
printer
prints
printsess
printsessi
printsi
printsiibi
printsiibid
printsiip
printsiipe
printsiipi
printsiipide
prior
priori
pris
priske
prisma
prison
prits
private
[...]
