!
"
#
##0
##1
##10
##11
##12
##13
##14
##15
##16
##17
##18
##19
##2
##20
##21
##22
##23
##24
##25
##26
##27
##28
##29
##3
##30
##31
##32
##33
##34
##35
##36
##37
##38
##39
##4
##40
##41
##42
##43
##44
##45
##46
##47
##48
##49
##5
##50
##51
##52
##53
##54
##55
##56
##57
##58
##59
##6
##60
##61
##62
##63
##64
##65
##66
##67
##68
##69
##7
##70
##71
##72
##73
##74
##75
##76
##77
##78
##79
##8
##80
##81
##82
##83
##84
##85
##86
##87
##88
##89
##9
##90
##91
##92
##93
##94
##95
##96
##97
##98
##99
$
%
&
'
(
)
*
+
,
-
.
/
0
00
000
004
007
01
012
02
03
0362
04
05
06
07
070
08
089
09
1
10
100
1000
10000
1002
1007
1008
1009
101
1013
1014
1016
102
103
1036
1037
1038
104
105
1056
106
1066
107
108
1080
1085
1086
109
1093
1094
1095
11
110
1100
1106
1109
111
1111
112
113
1130
114
1143
1147
115
1158
116
1162
1163
1166
117
1170
1172
1175
118
119
1193
12
120
1200
121
122
1227
123
124
1240
125
1250
1254
126
1269
127
1270
128
1284
129
1291
1297
13
130
1300
1302
1304
131
1310
132
1320
1324
1325
1326
133
1332
134
1340
1345
1348
135
1353
136
1360
1369
137
1377
138
1385
1387
139
14
140
1400
1406
1415
142
143
144
145
1450
1451
1452
1453
146
1460
1464
1467
1469
147
1471
148
1480
1486
149
1490
1492
1493
1494
1498
15
150
1500
1504
1506
151
1514
1515
1517
1519
152
1520
1521
1524
1525
1527
1528
153
1539
154
1540
1541
1544
1547
1549
155
1550
1554
1557
156
1560
1563
1564
1565
1568
1569
157
1574
1576
1578
158
1580
159
1591
1596
16
160
1600
1603
161
1613
1616
162
1627
1628
163
1631
1632
1636
164
1642
1643
1645
1646
165
1650
1659
166
1664
1666
1668
167
1670
1672
1675
1677
168
1680
1683
1684
1687
169
1691
1694
1696
1699
17
170
1700
1704
1707
171
1710
172
1724
1727
1728
1729
173
1730
1731
1732
1737
1738
174
1740
1742
1743
1745
1746
1747
1749
175
1750
1752
1754
1755
1756
1757
176
1760
1762
1766
1768
1769
177
1770
1773
1776
1777
1778
1779
178
1780
1783
1784
1787
1788
1789
179
1790
1791
1792
1793
1794
1795
1796
1798
1799
18
180
1800
1801
1802
1803
1804
1806
1807
1808
1809
181
1810
1811
1812
1814
1815
1816
1817
1818
1819
182
1820
1821
1822
1824
1825
1826
1827
1828
1829
183
1830
1832
1833
1834
1835
1836
1837
1838
1839
184
1840
1841
1843
1844
1845
1846
1847
1848
1849
185
1850
1852
1853
1854
1855
1856
1857
1858
1859
186
1860
1861
1862
1863
1864
1865
1867
1868
1869
187
1870
1871
1872
1873
1875
1876
1877
1878
1879
188
1880
1881
1882
1883
1884
1885
1886
1887
1888
1889
189
1890
1891
1892
1893
1894
1895
1896
1897
1898
1899
19
190
1900
1901
1902
1903
1904
1905
1906
1907
1908
1909
191
1910
1911
1912
1913
1914
1915
1916
1917
1918
1919
192
1920
1921
1922
1923
1924
1925
1926
1927
1928
1929
193
1930
1931
1932
1933
1934
1935
1936
1937
1938
1939
194
1940
1941
1942
1943
1944
1945
1946
1947
1948
1949
195
1950
1951
1952
1953
1954
1955
1956
1957
1958
1959
196
1960
1961
1962
1963
1964
1965
1966
1967
1968
1969
197
1970
1971
1972
1973
1974
1975
1976
1977
1978
1979
198
1980
1981
1982
1983
1984
1985
1986
1987
1988
1989
199
1990
1991
1992
1993
1994
1995
1996
1997
1998
1999
2
20
200
2000
2001
2002
2003
2004
2005
2006
2007
2008
2009
201
2010
2011
2012
2013
2014
2015
2016
2017
2018
2019
202
2020
2021
2022
2023
2024
2025
203
2030
204
205
206
207
208
209
21
210
211
212
213
214
215
216
217
218
219
22
220
221
222
223
224
225
226
227
228
229
23
230
2307
231
232
233
234
235
236
2360
237
238
239
24
240
241
242
243
244
245
246
247
248
249
25
250
2500
25000
251
252
253
255
256
257
258
259
26
260
261
262
263
264
265
266
267
268
269
27
270
271
272
273
274
275
276
277
278
279
28
280
281
282
283
284
285
286
287
288
289
29
290
291
292
293
294
295
296
297
298
299
3
30
300
3000
301
302
303
304
305
306
307
308
309
31
310
312
313
314
315
316
317
318
319
32
320
321
3218
322
323
324
325
326
327
328
329
33
330
331
332
333
334
335
336
337
338
34
340
341
342
343
345
346
347
348
349
35
350
3500
351
352
353
354
355
357
358
359
36
360
3600
361
362
363
364
365
367
369
37
371
372
374
375
376
377
378
38
380
383
39
390
391
394
395
399
4
40
400
4000
403
404
407
408
41
411
415
418
42
420
423
424
426
427
428
429
43
432
433
4331
435
44
443
448
45
450
453
457
458
46
461
463
465
467
47
470
474
476
479
48
480
49
490
496
5
50
500
5000
51
510
512
52
520
521
53
532
54
540
541
55
550
555
556
56
560
561
562
565
569
57
570
571
58
580
585
59
598
6
60
600
6000
601
602
605
607
61
610
62
620
624
625
627
63
632
6354
639
64
640
644
649
65
650
66
661
666
6677
668
669
67
674
676
68
686
69
691
694
695
7
70
700
701
702
71
710
711
72
720
726
729
73
738
74
740
748
75
750
76
77
78
780
782
789
79
791
792
793
794
8
80
800
8000
808
81
82
83
831
84
846
847
85
850
859
86
860
87
875
88
880
885
89
895
89645
897
898
9
90
900
9000
905
91
92
93
930
94
946
948
95
96
966
97
971
972
974
978
98
980
982
983
985
99
9954
:
;
<
=
>
?
@
[
\
]
^
_
a
aa
ab
abc
abde
abdel
abdeljalil
abdellah
abkhazia
about
abs
abu
abun
ac
academy
ace
achraf
act
action
activist
actors
actualite
ad
adam
administration
adult
ae
af
afc
afcon
affaire
affairs
africa
africaines
african
afrika
afrique
afro
after
agadir
against
age
agency
ages
ahmed
ai
aicha
air
ais
aise
ait
akhbarona
akhomach
al
albert
alge
algeria
ali
aljazeera
all
alpha
also
alyaoum
am
amar
amazigh
amazighe
ame
america
american
amini
among
amour
an
analysis
ancient
and
andorra
andre
andrew
angela
animation
anime
anna
anne
annonce
announced
annual
another
ans
anthem
anthology
anthony
anthropology
anti
antibiotiques
antiquite
aomar
aotearoa
apple
apre
april
aqsa
ar
ara
arab
arabe
arabi
arabia
arabic
arabiya
arcgis
archaeological
archaeology
arche
architecture
archive
archived
archives
are
area
areas
armenian
army
art
article
articles
arts
arxiv
as
asia
asian
asin
ask
assabah
assembly
assessment
assistant
association
associations
ast
astronomical
astronomy
astrophysics
at
atheism
athletic
atlantic
atlantique
atlas
atractylis
attack
attaque
au
auckland
auf
august
aujourd
aujourdhui
australia
australian
aut
author
authority
authors
autre
autres
aux
av
avec
avn
avril
award
awards
axxam
az
aziz
aziza
b
bab
babesdirectory
back
background
bad
bakkali
ball
balls
banasa
bank
barbary
barbie
barc
barcelona
based
basic
basset
batalha
bay
bayern
bb
bbc
be
becomes
been
before
behavior
behind
bei
being
beirut
belarus
belief
belt
ben
beni
berbe
berber
berbers
berkeley
bermensch
best
between
beyond
bibcode
big
billion
bio
biographical
biographie
biography
biology
birds
bitcoin
black
blackwell
blench
blica
blockchain
blogspot
blue
board
bocchus
body
boi
book
books
borne
bot
botola
bou
boukhiam
boum
boy
boys
bracken
brahim
brandon
braun
brief
brill
britain
britannica
british
broadcasting
brother
brown
bulletin
bundesliga
bureau
business
but
by
c
ca
caf
cafonline
calcio
calculator
california
cambridge
can
canada
canberra
capital
capitalism
captain
captured
cartoon
cas
casa
casablanca
case
cast
ce
cee
cell
census
center
central
centre
centrederechercheberbere
century
ch
chair
chaker
challenge
chamorro
champion
champions
change
changed
changing
channel
chaos
chapter
character
characteristics
charge
charles
chb
che
cheb
check
cheddira
chellah
chelsea
chemical
chemistry
chi
chicago
children
china
chleuh
choice
chris
christchurch
christian
christine
christopher
chuuk
cia
cid
cine
citation
cite
city
civil
claridge
clark
class
classement
classic
classical
classification
cle
clematis
climate
clown
club
clubs
cnn
co
coach
coast
code
colin
college
collins
colonia
color
columbia
com
combined
come
comic
coming
commission
committee
common
commonwealth
communication
community
companion
company
comparative
complete
complex
compris
compte
computer
computers
con
concept
condamne
confederation
conference
confirmed
conflict
congo
congress
conseil
constitution
consulte
contact
contemporary
content
contest
context
continent
continents
contre
cook
copy
core
corner
coronavirus
corporation
costa
could
council
countries
country
coup
coupe
courant
court
covid
cox
created
creator
critical
cryptocurrency
cs
cultural
culture
culturelle
cultures
cup
current
cyprus
d
da
dafif
daily
dali
dans
darija
dark
darna
darwin
das
data
database
date
david
dawn
day
days
dc
dd
de
dead
death
december
defend
defense
definition
definitions
del
delheure
della
democracy
demographic
den
department
der
des
descartes
design
desktopmodules
desormais
destaing
details
determination
deuxie
development
dhjfoot
di
dialectal
dialecte
diam
dictionaries
dictionary
dictionnaire
did
die
died
diego
dies
differences
different
diger
digital
dina
diseases
displaystyle
district
diterrane
dition
dits
division
dna
do
document
documents
does
doi
dollar
don
done
donne
dorcel
dos
double
down
download
dq
dr
draw
driss
droits
dsm
du
duke
during
dutch
dvd
e
early
earth
earthquake
east
eastern
economic
economist
economy
ed
eddine
edisud
edited
edition
editions
editor
edmond
eds
edu
education
edward
effects
egypt
egyptian
eight
el
elcinema
election
elections
electricity
electron
electronic
elements
elizabeth
elon
empire
empty
en
encyclopaedia
encyclope
encyclopedia
encyclopedieberbere
encyclopædia
end
endangered
ending
energy
engineering
england
english
enque
entertainment
entre
environment
equipment
er
era
eren
eric
ernest
erythropus
es
esc
espan
espn
essai
essays
est
estimated
estimates
et
ethics
ethnologue
etude
etymology
eu
europa
europe
european
eurovision
evaluation
evening
events
ever
everyone
everything
evidence
evolution
ex
exchange
exercise
existence
experience
experiment
explains
explosion
external
extra
eye
f
fa
face
facebook
factbook
facts
failed
fall
false
famille
family
fatehi
fatima
fc
fe
feat
feature
features
february
federal
federated
federation
feed
female
femme
femmes
festival
feu
ff
field
fifa
fight
figures
fiji
fijian
file
film
films
fin
final
financial
finno
fire
first
five
fj
flight
flow
fm
fois
food
football
for
forbes
forces
foreign
format
forme
fort
forum
found
foundation
four
fr
frac
fraincart
franc
france
francis
frank
fre
fred
free
freedom
french
friedrich
frmf
from
fsm
fsmlaw
ftpmanager
fu
full
fund
future
g
ga
gala
game
games
gamification
ge
gender
general
genius
genocide
geographic
geography
geological
geonames
george
georges
geoscience
ger
german
germany
get
gets
ghomara
gion
girls
gisborne
gislatives
global
globals
glossary
go
goal
goals
god
goes
gold
golden
good
google
gordon
goud
gouvernement
gov
government
govt
grammar
grammatical
grand
grande
gravelle
great
greater
greek
green
group
groupe
groups
growth
guardian
guide
guy
h
habitants
habitat
habous
had
hadda
hakimi
hall
hamari
hamilton
hamry
hamza
handbook
hans
harmattan
harris
harvard
has
hassan
hassania
haut
have
hawai
hawaii
hbo
hcp
he
health
heart
heaven
hebdo
hegazi
helicopter
help
henry
her
herald
here
heritage
hero
hespress
high
highlights
hill
his
histoire
histoires
historic
historical
histories
historique
history
hl
ho
hoceima
hole
holes
hollywood
holocaust
home
homme
homo
hong
hope
hour
house
how
htm
html
http
https
hui
human
hundreds
husafootball
hydrogen
hymne
i
ian
iata
ibn
ibrahim
ibriszimow
icao
icd
id
identification
identity
idol
idpc
ifab
ifni
ignored
ii
iii
il
ilias
illustrated
image
imdb
imdbname
impact
implications
in
inc
including
inde
independence
independent
index
india
indiana
indigenous
ine
influence
info
information
ingenuity
innovation
instagram
institut
institute
int
intelligence
inter
international
internationale
internet
interview
into
introduction
invented
ir
ircam
ireland
is
isbn
islam
islamic
island
islands
israel
israeli
issn
issue
issues
ist
it
its
iv
j
ja
jalal
jamal
james
jane
january
japan
japanese
jay
jazeera
je
jean
jervis
jeune
jeuneafrique
jeux
jewish
jo
john
johnson
jonathan
jones
jonna
jose
joseph
journal
journals
jp
jpg
jstor
jude
juho
juifs
july
jump
june
just
justice
justin
k
kamal
karl
ke
kelly
key
khadija
khalid
kick
kids
killed
king
kingdom
know
knowledge
ko
kodansha
koivisto
kong
kooora
kosrae
kossmann
ktbdarija
l
la
labor
laboratory
lachgar
lameen
land
lang
language
languages
langue
langues
large
largest
larose
las
last
late
latin
law
lawrence
laws
le
leader
league
learning
lebanon
leconomiste
left
legal
leiden
lematin
leroux
les
lettres
leur
lewis
lexico
lgbt
li
libe
liberte
library
libya
libyan
life
light
like
limited
line
linguistics
linguistique
link
list
literary
literature
litte
little
littlefield
live
living
ll
ln
lnfa
lo
local
location
locke
london
long
look
loreen
los
lost
louis
love
low
ltd
lu
lua
lumie
lutte
lux
m
ma
maarten
machine
madrid
magazine
maghreb
maghress
maghrib
magic
mahsa
mai
mains
maint
make
makes
making
mali
man
management
manchester
manga
manual
many
maori
map
mapexpress
mapnews
maps
mar
maradona
marc
march
marche
mare
maria
mariana
marie
mark
market
markings
maroc
marocain
marocaine
marocaines
marocains
marokko
marrakech
marruecos
mars
martin
mass
massachusetts
massih
match
mathematical
mathematics
matter
matthew
maure
mauretania
mauritania
mauritanie
max
may
me
mean
meaning
means
media
medias
medieval
mediterranean
mehdi
mekne
melbourne
meleisea
melilotus
member
members
memory
men
menara
mer
merriam
merveilles
mes
met
meta
meteorology
metro
mexico
mi
mibladen
michael
michel
michigan
micronesia
middle
migration
miguel
military
milky
miller
million
mimouna
mind
ministe
minister
ministre
ministry
mint
missing
mission
mistborn
mit
moa
mobile
mode
model
modern
module
mohamed
mohammed
mohammedia
mon
moncef
monday
monde
money
moon
moonlight
more
morgan
morning
moroccan
moroccans
morocco
moroccoworldnews
morphine
morse
mort
moskva
mosque
most
moulay
mouvement
move
movement
movie
movies
mp
ms
mu
mundo
museum
music
musique
musk
muslim
muslims
my
n
na
nabil
nai
names
narrative
nasa
nasr
nation
national
nationale
nations
natural
nature
naumann
nd
ne
neanderthal
near
need
nekk
neo
net
netflix
network
new
newjkh
news
next
nga
nger
ni
nietzsche
niger
night
nine
nintendo
nitra
no
nobel
non
nora
nord
north
northern
not
note
notes
nouveau
nouveaux
nouvelle
nouvelles
novel
november
now
nu
nuclear
number
nz
o
obama
object
occupation
ocean
oceania
oclc
october
of
ofc
office
official
officially
officials
officiel
old
olympic
omar
omk
on
onda
one
onepage
online
only
open
openedition
openlibrary
operation
or
order
org
organisation
organization
ori
oriental
origin
original
orwell
os
other
others
ou
ouaddou
ouargla
oudrhiri
oued
ouenza
oujda
oum
our
out
over
overview
own
oxford
p
pa
pablo
pacific
package
page
pages
palestine
palestinian
pam
paper
par
parameter
parapsychology
paris
park
parler
parliament
part
parti
party
pas
passe
patrick
pau
paul
pb
pdf
pe
peace
pedophilia
penalty
penchoen
pendance
penguin
people
peoples
per
performance
period
person
perspective
peter
pf
pg
ph
phil
philippe
philosophical
philosophy
phoenicians
phonologie
php
physical
pjd
place
plan
planet
planetary
plate
plato
play
player
players
pleat
plus
pm
pmc
pmid
pnas
poe
poetry
pohnpei
point
points
policy
political
politics
politique
politiques
polynesian
popular
population
port
portal
portrait
position
positions
post
pour
power
pp
ppe
practices
prasse
pre
precision
prefecture
preliminary
premie
premier
present
president
press
prime
princeton
principles
prison
private
prix
prize
problem
proce
proceedings
production
profile
profiles
program
programme
project
properties
protection
protests
proto
province
pseudoscience
psychological
psychology
ptolemy
public
publications
publique
publisher
publishers
publishing
putin
putten
q
qatar
qpr
qu
quake
quality
que
queen
quelques
question
questions
qui
r
rabat
rachel
rachid
racines
raddad
radiation
radio
rainfall
raja
ral
ramzi
rap
rappeur
ration
rature
ray
rayan
rd
re
reaction
read
real
rebel
recherche
recognition
recognize
record
records
red
ref
referee
referees
reference
reforms
region
regional
regions
relation
relations
release
released
releases
religion
religious
renaissance
rencontres
rene
report
reporter
reports
repu
republic
republika
requires
res
research
researchgate
resident
resolution
resources
results
retour
retrieved
reuters
review
revolution
revue
rex
rgph
rgphentableaux
ri
rica
richard
richest
rie
right
rights
rise
risitas
ro
robert
rock
rocks
roger
roi
role
roma
romaine
roman
rome
rotten
routledge
rowman
royal
royaume
rsssf
rt
ru
rules
russell
russia
russian
s
sa
saadoun
sabadell
sahara
saharan
sai
said
saint
saison
salah
sale
salvador
samoa
samoan
sans
sante
sapiens
sappho
sara
sarah
sars
saudi
say
says
scarecrow
scene
schiattarella
school
science
sciences
scientific
scientists
scorpaena
se
sea
search
season
sebastian
second
secre
section
security
see
selects
self
sense
sentenced
september
serfaty
series
service
services
ses
set
settlement
seven
sevilla
sex
sexual
shapiro
sharing
short
should
show
shows
si
sidebar
sident
sidi
sie
sign
signs
simon
since
singer
site
sites
situation
siwa
siwi
sketch
sky
skyrock
slaoui
small
smart
smith
snrtnews
so
soccer
soccerway
social
sociale
socie
societies
society
solar
solution
some
son
song
sont
sort
souag
soufiane
source
sources
sous
souss
south
soviet
space
spain
spanish
spe
special
species
spinoff
spirit
sport
sporting
sports
springer
st
stade
staff
stand
standard
stanford
star
stars
start
stat
state
states
statistical
statistics
stats
status
steeple
stephen
steve
steven
stevenage
still
stone
story
strong
structure
studies
studio
study
stuff
style
su
subclassification
success
such
sud
suicide
sum
summary
sun
super
superman
support
sur
survey
susan
suspend
suspension
sydney
syste
system
systems
t
ta
table
tables
taekwondo
tait
tamazight
tanger
tank
tasmania
tat
taxonomy
taylor
tb
te
tea
team
teams
technical
technology
ted
telegraph
television
temperature
temps
terms
territories
territory
tes
test
testi
testing
text
texts
th
than
that
the
their
theory
there
thesis
they
things
think
third
this
thomas
thought
three
through
ti
tifinagh
time
timeanddate
times
tingitana
tique
tirra
titan
titans
title
tm
to
today
tokyo
tom
tomatoes
top
topographic
total
totalenergies
tour
tournament
tous
towards
town
tr
trade
traditional
trangers
transfermarkt
translation
travel
tre
treatment
treaty
tro
trois
trondheim
true
trump
tsunami
tt
tu
tuareg
tude
tudes
tunisie
turkey
turkish
tv
twilight
twitter
two
u
uefa
uk
ukraine
un
und
under
understanding
une
unesco
unicode
union
unite
united
units
universalis
universe
universite
university
unknown
unrecognized
up
uparrow
update
upload
ur
uralic
urban
url
us
usa
use
user
uses
usgs
usine
ut
utc
v
va
vaccine
value
values
van
var
ve
veloppement
venture
venus
verlag
version
vi
viaf
victoria
vide
video
videos
vie
view
ville
vip
visual
visualization
vol
volubilis
volume
von
vote
vs
w
wa
wages
waikato
waitangi
wales
walid
wall
wallet
war
wars
was
washington
watch
water
wax
way
wayne
we
weather
web
website
webster
week
well
wellington
were
wergaz
west
western
what
whc
when
where
which
white
who
whose
why
wide
wiki
wikimedia
wikipedia
wiley
will
william
wilson
win
winners
wins
with
without
wolfram
woman
women
wonder
word
work
working
works
world
worldfootball
writing
written
wrong
www
wydad
x
xls
y
ya
yabiladi
yahya
yale
yap
year
years
yellow
york
you
youm
young
your
youssef
youth
youtube
z
zahra
ze
zealand
ziane
zodiacal
zurich
{
|
}
~
£
§
«
¯
°
±
²
´
·
»
×
æ
ð
÷
ħ
ə
ɛ
ɡ
ɣ
ɪ
ʁ
ʃ
ʊ
ʒ
ʔ
ʕ
ʝ
ʲ
ʷ
ʻ
ʿ
ˈ
ː
ˤ
̀
́
̂
̃
̄
̆
̈
̊
̌
̓
̔
̠
̣
̦
̧
̨
̪
̱
̸
͂
͡
α
β
γ
θ
ι
λ
μ
ν
ο
ρ
ς
σ
υ
χ
и
о
у
і
ְ
ִ
ֵ
ַ
ָ
ּ
א
ד
ו
י
ל
ם
מ
ר
ש
،
؛
؟
ا
اء
اب
ابا
ابة
ابتداي
ابتسام
ابراهيم
ابركان
ابع
ابعة
ابعين
ابلو
ابن
ابو
ابيط
ات
اتج
اتحاد
اتصالات
اتفاقية
اتها
اتهوم
اتو
اتيني
اتينية
اج
اجا
اجال
اجتماعية
اجل
اح
احة
احل
احمد
احية
اخد
اخر
اخرا
اخرى
اخرين
اخلة
اخلي
اخيلية
اد
ادريس
ادس
ادي
اديس
اديو
ار
ارا
ارة
ارت
ارتفاع
ارجة
ارح
ارلبيضا
ارو
ارورة
اريجا
اريجة
اريح
اريخ
اريخي
اريخية
اريع
اريقة
از
ازية
ازيين
اس
اسا
اسة
استشهاد
استفتاء
استقلال
اسع
اسم
اسماعيل
اسماعين
اسمها
اسو
اسي
اسية
اش
اشتوكة
اشيدية
اضور
اط
اطا
اطقين
اطو
اظور
اع
اعا
اعة
اعتقال
اعي
اغتيال
اف
افريقيا
افع
افقات
افقو
افين
اق
اقة
اقتصاد
اقل
اقية
اك
اكبر
اكتر
اكن
اكنة
ال
الا
الابا
الات
الاتحاد
الاجتماعي
الاجتماعيات
الاجتماعية
الاحتلال
الاختلافات
الاستعمار
الاستعمال
الاستقرار
الاستقصا
الاستقلال
الاسلام
الاسم
الاشتراكي
الاضطرابات
الاطفال
الاطلس
الاعتداء
الاقتصاد
الاقتصادية
الانتخابات
الاندلس
الاول
الب
الباب
الباحث
الباحثين
البام
الببليوغرافيا
البحث
البحر
البحري
البحرية
البحرين
البدري
البدية
البرازيل
البرتغال
البرتغالي
البرتغالية
البركاني
البرلمان
البرلماني
البرنامج
البرنوصي
البرية
البريد
البريطانية
البريهي
البسطيلة
البشرية
البشير
البصري
البطالة
البطل
البطلة
البطولة
البعد
البقالي
البقشاشة
البكري
البلاد
البلاصة
البلاوي
البلايص
البلد
البلدان
البلدي
البلوغ
البنات
البنادقة
البنت
البندقية
البنسير
البني
البهايم
البهجة
البوحسيني
البوكيلي
البوليس
البوليساريو
البياز
البيان
البيت
البيض
البيضا
البيضاء
البيضاوي
البيي
الة
الت
التا
التابعة
التاج
التاريخ
التاريخي
التاريخية
التازي
التاسع
التاسعة
التالت
التالتة
التالية
التامن
التامنة
التاني
التانية
التايملاين
التبادل
التبدال
التة
التجار
التجارب
التجارة
التجاري
التجارية
التجديد
التجربة
التجمع
التحالف
التحتانية
التحركات
التحرير
التحقيق
التحكم
التحكيم
التحليل
التحول
التحياد
التخدام
التخمام
التدريب
التراب
الترابي
الترابية
الترات
التراث
التراثية
التربية
الترتيب
الترجمة
الترجيح
التركي
التركيب
التركية
التركيز
التروة
التريسينتي
التساقوطات
التستيفة
التسجيل
التسعينات
التسلول
التسيير
التشخيص
التشريعية
التشكيلي
التشيك
التصاور
التصرف
التصريحية
التصميم
التصنيف
التصوير
التصويرة
التضاريس
التضامن
التطبيق
التطبيقات
التطواني
التطور
التطوير
التعادل
التعادول
التعامل
التعاون
التعبير
التعداد
التعريف
التعكال
التعلام
التعليم
التعليمية
التعمير
التغماوي
التغيرات
التغيير
التغييرات
التفاح
التفاعل
التفراق
التفكير
التقافات
التقافة
التقافي
التقافية
التقاليد
التقدم
التقديرات
التقسيم
التقل
التقلاب
التقليدي
التقليدية
التقنيات
التقنية
التقويسة
التقييم
التكنولوجيا
التكوين
التلاتة
التلاتية
التلامد
التلت
التلتاش
التلج
التلعاب
التلفازة
التلفزة
التلوت
التمانينات
التمتيل
التمثيل
التمرد
التمسماني
التمن
التمنية
التمييز
التنضيم
التنضيمات
التنظيم
التنفس
التنفيدية
التنفيذية
التنقل
التنقيط
التنمية
التنوع
التنين
التهامي
التهراس
التوارݣ
التوارݣي
التوارݣية
التواصل
التوالي
التوب
التوجاد
التوحيدي
التوراة
التورات
التورة
التوزيع
التوش
التوضيح
التوفيق
التوقيت
التولالي
التونسي
التونسية
التي
التيار
التيجارة
التير
التيرات
التيران
التيرانات
التيساع
التيشورت
التيكواندو
التيلاسي
التيليفون
التيليفونات
التيمومي
الثالث
الثالثة
الثامن
الثانوي
الثاني
الثانية
الثروة
الثقافة
الثقافي
الثقافية
الثقل
الثمامة
الثورة
الج
الجابري
الجامع
الجامعة
الجامعي
الجاوجة
الجاي
الجايحة
الجاپون
الجاپونية
الجبار
الجبال
الجبل
الجبلية
الجبولة
الجحيم
الجداد
الجدر
الجدول
الجديد
الجديدة
الجديدي
الجذور
الجرا
الجراري
الجرانة
الجردة
الجرنان
الجريدة
الجريمة
الجزء
الجزاي
الجزاير
الجزر
الجزيرة
الجسم
الجسور
الجلد
الجليل
الجماعة
الجماعية
الجمال
الجمع
الجمعة
الجمعية
الجمهور
الجمهورية
الجميع
الجناح
الجندي
الجنس
الجنسي
الجنسية
الجنوب
الجنوبي
الجنوبية
الجهادية
الجهة
الجهد
الجهوية
الجو
الجوامع
الجواي
الجوايه
الجوج
الجوف
الجويطي
الجيب
الجيش
الجيل
الجيلالي
الجيهة
الجيوسياسة
الح
الحاج
الحاجب
الحاجة
الحاكم
الحال
الحالات
الحالة
الحالية
الحب
الحج
الحجة
الحجر
الحجرة
الحجري
الحد
الحدود
الحدودي
الحديث
الحديثة
الحر
الحرارة
الحراق
الحرب
الحرة
الحرف
الحركة
الحروف
الحرية
الحزب
الحساب
الحسن
الحسناوية
الحسني
الحسيمة
الحسيمي
الحسين
الحسيني
الحصن
الحضارة
الحضراوي
الحضرية
الحفاظ
الحفيظ
الحق
الحقوق
الحقيقة
الحقيقي
الحقيقية
الحكام
الحكاية
الحكم
الحكومة
الحل
الحلفاء
الحلقات
الحلقة
الحليل
الحمامة
الحماية
الحمداوية
الحمرا
الحمراء
الحوار
الحوايج
الحوت
الحوز
الحومات
الحي
الحياة
الحياني
الحية
الحيلات
الحيلة
الحيوان
الحيوانات
الخ
الخارج
الخارجية
الخاص
الخاصة
الخاضع
الخامس
الخامسة
الخبر
الخبز
الخدمة
الخرفان
الخضر
الخضرا
الخضراء
الخط
الخطاب
الخطابي
الخطوة
الخلافة
الخليج
الخميس
الخور
الخوف
الخوى
الخيام
الخير
الد
الدات
الداتي
الداخل
الداخلة
الداخلي
الداخلية
الدار
الدارجة
الدارلبيضا
الداريجة
الدامون
الدانمارك
الداودية
الداي
الدايرة
الدبان
الدخلة
الدخول
الدراري
الدراسات
الدراع
الدرجات
الدرجة
الدرهم
الدروج
الدريوش
الدزاير
الدزايرية
الدستور
الدستوري
الدستورية
الدشيرة
الدعم
الدعوة
الدغرني
الدفاع
الدفن
الدق
الدقيقة
الدكالي
الدكتور
الدكتورا
الدلاي
الدليل
الدم
الدماغ
الدمسيرية
الدموع
الدنيا
الدهب
الدهبي
الدهبية
الدو
الدوا
الدوار
الدوحة
الدور
الدورة
الدوري
الدوكتورا
الدول
الدولار
الدولة
الدولي
الدولية
الدوليين
الدومي
الدومينيكان
الدويرة
الديانات
الديانة
الديراسة
الديزاين
الديفاع
الديكتاتور
الديكتاتورية
الديكسيونير
الديمقراطي
الديمقراطية
الديموقراطي
الديموقراطية
الدين
الدينار
الدينامية
الديني
الدينية
الديوان
الديور
الديوري
الذاتية
الذاكرة
الذكرى
الذهب
الذهبي
الذهبية
الذي
الر
الرا
الراب
الرابطة
الرابع
الرابعة
الراجا
الراجل
الراحة
الراحل
الراديو
الراس
الراسمالي
الراسمالية
الراسينݣ
الراشدة
الراشدي
الراشيدية
الراص
الراضي
الراي
الراية
الرايس
الرب
الرباب
الرباح
الرباط
الرباطي
الرباع
الرباعي
الربع
الربعة
الربيع
الرتبة
الرجاء
الرجال
الرجل
الرجلين
الرحالة
الرحامنة
الرحلات
الرحلة
الرحمان
الرحمن
الرحيم
الرخصة
الردمك
الردمكات
الرزاق
الرسالة
الرسام
الرسامين
الرسم
الرسمي
الرسمية
الرسول
الرشاد
الرشوة
الرشيد
الرصاص
الرفاق
الرقم
الرقمي
الركنية
الركيل
الرماد
الرمز
الرمل
الرملة
الرموز
الرميلي
الرو
الرواي
الروايات
الرواية
الروايس
الروتبة
الروح
الروحي
الروحية
الروداني
الروز
الروسوم
الروسية
الرومان
الروماني
الرومانية
الرومانيين
الرومنسية
الروينة
الري
الرياسة
الرياض
الرياضات
الرياضة
الرياضي
الرياضيات
الرياضية
الرياضيين
الريال
الريان
الرية
الريح
الريسوني
الريش
الريف
الريفي
الريفية
الرينين
الريوس
الريݣبي
الز
الزاج
الزاز
الزاكي
الزاهيدي
الزاوية
الزايد
الزايدة
الزايدين
الزاݣ
الزجال
الزجل
الزجلية
الزحام
الزراعة
الزربة
الزرع
الزرق
الزرقة
الزرهوني
الزعيم
الزفزافي
الزلازل
الزلزال
الزمامرة
الزمان
الزمن
الزموري
الزناتي
الزناتية
الزنزانة
الزنقة
الزهراء
الزهراوي
الزهرة
الزواج
الزوايا
الزوينة
الزيادات
الزيادة
الزيارة
الزياني
الزيتون
الزيمبومباح
الزين
الس
السابع
السابعة
السابق
الساحة
الساحل
الساحلية
الساخرة
السادس
السادسة
السارس
الساس
الساسي
الساع
الساعات
الساعة
الساقية
الساكنة
السالمي
السالڤادور
السامية
الساهر
السباب
السباع
السباعي
السباق
السبب
السبت
السبع
السبعة
السبعينات
السبيطار
الستة
الستيل
الستينتاج
السجن
السحر
السحماوي
السخانة
السخونية
السد
السدراتي
السر
السراغنة
السرطان
السرعة
السرية
السريعة
السطح
السطر
السعادة
السعد
السعداوي
السعدي
السعدية
السعديين
السعودي
السعودية
السعيدي
السعيدية
السفارة
السفر
السفير
السقف
السك
السكات
السكاح
السكار
السكان
السكر
السكنى
السكيتيوي
السكيرج
السلاح
السلالات
السلالة
السلام
السلامة
السلامي
السلاوي
السلسلة
السلطات
السلطان
السلطة
السلعة
السلف
السلك
السلوك
السما
السمارة
السمعة
السميات
السمية
السن
السنة
السنسلة
السنوات
السنين
السهل
السهول
السو
السواحل
السواحيلي
السواق
السوبر
السوداء
السودان
السور
السورية
السوسي
السوسية
السوق
السويد
السويدية
السوپر
السوڤياتي
السوڤياتية
السوڤييتي
السي
السياح
السياحة
السياحية
السيادة
السيار
السياسات
السياسة
السياسي
السياسية
السياق
السيت
السيد
السيدا
السيدة
السير
السيرة
السيرك
السيستيم
السيسطيم
السيسطيمات
السيسي
السيط
السيطرة
السيناريو
السينما
السينماي
السينيما
السينيݣال
السيوية
الش
الشاب
الشابي
الشارع
الشاطي
الشاعر
الشاعرة
الشاف
الشام
الشان
الشاوية
الشباب
الشباك
الشبكة
الشبيبة
الشتا
الشتوا
الشجر
الشجرة
الشخص
الشخصيات
الشخصية
الشد
الشدة
الشر
الشرا
الشراط
الشرعية
الشرف
الشرفي
الشرق
الشرقاوي
الشرقي
الشرقية
الشركات
الشركة
الشروط
الشروق
الشريعة
الشريف
الشريفة
الشط
الشعا
الشعب
الشعبي
الشعبية
الشعة
الشعر
الشعرية
الشعوب
الشعى
الشعير
الشفق
الشقيقة
الشك
الشكال
الشكل
الشلحة
الشلوح
الشمال
الشمالي
الشمالية
الشمس
الشمسي
الشمسية
الشمش
الشنا
الشهرة
الشو
الشورى
الشوف
الشوفة
الشوك
الشونجمو
الشوية
الشي
الشيء
الشيخ
الشيخة
الشيطان
الشيعر
الشيلي
الشينوا
الشينوي
الشينوية
الشيوخ
الشيوعي
الشيوعية
الص
الصادرة
الصادق
الصالح
الصالڤادور
الصاموية
الصامويين
الصايت
الصايل
الصباح
الصبليون
الصبليوني
الصبليونية
الصبنيول
الصبنيولية
الصبيحي
الصبيطار
الصح
الصحابي
الصحافة
الصحافي
الصحافيين
الصحة
الصحرا
الصحراء
الصحراوي
الصحراوية
الصحفي
الصحي
الصحية
الصحيح
الصخيرات
الصداع
الصدر
الصديق
الصديقي
الصربية
الصطاد
الصعيبة
الصغار
الصغر
الصغير
الصغيرة
الصغيوراني
الصفحة
الصفدي
الصفر
الصفيحة
الصقلي
الصلاة
الصمت
الصمد
الصمدي
الصمطة
الصناعات
الصناعة
الصناعي
الصناعية
الصندوق
الصنهاجي
الصهيونية
الصوايت
الصوت
الصور
الصورة
الصومال
الصونطر
الصونطرڤيل
الصويرة
الصيادة
الصيادين
الصيد
الصيف
الصين
الصيناعة
الصيناعية
الصينية
الض
الضاهرة
الضاهيرة
الضاوي
الضايات
الضاية
الضايع
الضبط
الضحك
الضحكة
الضراي
الضرب
الضربة
الضروف
الضريب
الضريبة
الضريح
الضس
الضغط
الضفة
الضل
الضلام
الضهر
الضو
الضوء
الضواو
الضيف
الط
الطابع
الطاقات
الطاقة
الطالب
الطاليان
الطالياني
الطاليانية
الطانسيو
الطاهر
الطاي
الطايب
الطايع
الطب
الطبا
الطبعة
الطبقات
الطبقة
الطبيب
الطبية
الطبيعة
الطبيعي
الطبيعية
الطراف
الطران
الطرب
الطرف
الطرق
الطرقان
الطريطوار
الطريق
الطريقة
الطعام
الطفل
الطفولة
الطقطوقة
الطلب
الطلبة
الطلوع
الطليعة
الطنجاوي
الطنجية
الطواري
الطوال
الطود
الطول
الطولة
الطوموبيلات
الطويل
الطويلة
الطوݣو
الطيارات
الطيب
الطير
الطيران
الطيكنولوجيا
الطينيس
الطيور
الظروف
الظهير
الظواهري
الع
العادي
العادية
العازلة
العاشقين
العاصمة
العاطلين
العالم
العالمي
العالمية
العالي
العام
العامة
العباس
العبدي
العبرية
العبيد
العتبة
العتماني
العتمانية
العثماني
العثمانية
العدالة
العدد
العدوى
العراي
العرب
العربي
العربية
العرش
العرض
العروي
العز
العزيز
العساس
العسكر
العسكري
العسكرية
العشرين
العصبة
العصر
العضالة
العضلات
العظيم
العقل
العكس
العلاقات
العلاقة
العلامات
العلامة
العلم
العلماء
العلمي
العلمية
العلوة
العلوم
العلوي
العلوية
العلويين
العليا
العمالة
العمر
العمراني
العمق
العمل
العملة
العملية
العمومية
العنصر
العنف
العهد
العود
العوني
العيالات
العيد
العيطة
العين
العينين
العيون
الغابات
الغابة
الغازي
الغالاط
الغالب
الغالي
الغامضة
الغد
الغذاي
الغرب
الغربي
الغربية
الغماري
الغناء
الغناي
الغيرة
الغيوان
الـ
الفاسي
الفاميلة
الفاي
الفتاح
الفتح
الفترة
الفخض
الفر
الفراعنة
الفرانساوي
الفرانساوية
الفرتيت
الفرق
الفرقة
الفرنسي
الفرنسية
الفروج
الفريق
الفصل
الفضاء
الفقر
الفقيه
الفكر
الفكرة
الفلاحة
الفلز
الفلسطينية
الفلسفة
الفلك
الفلوس
الفن
الفنان
الفنانة
الفنانين
الفنون
الفني
الفنية
الفهرس
الفهري
الفهرية
الفورمة
الفيديو
الفيزيك
الفيلم
الفينيقيين
القادر
القادري
القارات
القارة
القارية
القاسم
القاسمي
القاضي
القاضية
القانون
القاهرة
القاي
القايد
القباي
القبايل
القدام
القدر
القدرة
القدس
القدم
القديم
القديمة
القرا
القرار
القراية
القرصنة
القرعة
القرن
القروية
القرويين
القرية
القسم
القصبة
القصة
القصر
القصيدة
القصيرة
القضاء
القضاي
القضية
القطار
القطاع
القلعة
القمر
القناة
القنيطرة
القنيطري
القوات
القوة
القوس
القوى
القيادة
القياس
القيروان
الكاتب
الكاس
الكاملة
الكبار
الكبرى
الكبير
الكبيرة
الكتاب
الكتابة
الكتب
الكتلة
الكحبة
الكحل
الكرة
الكركرات
الكريم
الكشف
الكفيف
الكلاب
الكلام
الكلمات
الكلمة
الكناري
الكواكب
الكوكب
الكون
الكونداساتور
الكونڤيرسوس
الكيمياء
الل
اللاتيني
اللاتينية
اللاعب
اللام
اللانثانيدات
اللاي
اللبناني
اللجنة
اللحضة
اللحم
اللخر
اللخرانية
اللخرة
اللخرين
اللرض
اللسان
اللسانيات
اللطيف
اللع
اللعاب
اللعابة
اللعب
اللعبة
اللغات
اللغة
اللغوي
اللغوية
اللقب
الله
اللها
اللهجات
اللهجة
اللواء
اللوالا
اللوالة
اللوان
اللوجيك
اللور
اللوز
اللوعاب
اللوغات
اللوغة
اللول
اللولا
اللولاني
اللولانية
اللولة
اللولين
اللون
اللوه
اللوڤر
اللوݣو
اللي
الليستا
الليستة
الليل
الليمون
اللينينية
الليݣا
الم
الما
الماء
المادية
الماضي
الماكلة
المال
المالك
المالكي
المالية
الماي
المبدا
المتجددة
المتحدة
المتعلقة
المتوسط
المتوسطة
المتوكل
المتيوي
المجال
المجاهد
المجتمع
المجلد
المجموع
المجموعات
المجموعة
المجهول
المجيد
المحكمة
المحلي
المحلية
المحمدية
المحيط
المختار
المخرج
المخزن
المدة
المدرب
المدرسة
المدلاوي
المدن
المدني
المدنية
المدينة
المرا
المرابطين
المرات
المراكشي
المرة
المرتبة
المرحوم
المرسلي
المرض
المركز
المركزية
المريخ
المرينيين
المسا
المساء
المساجد
المساحة
المستجد
المستعمر
المستقبل
المستوى
المسرح
المسرحي
المسرحيات
المسرحية
المسكيني
المسلحة
المسلسل
المسلمين
المسماة
المسو
المسيح
المسيحي
المسيحية
المسيرة
المشاركة
المشاريع
المشاكل
المشرقي
المشروع
المشكل
المشهور
المشهورة
المصادر
المصامدة
المصري
المصرية
المصطلح
المصورة
المضيق
المطالبة
المطبعة
المعارف
المعارك
المعاصر
المعاصرة
المعاني
المعايير
المعجم
المعدن
المعرفة
المعركة
المعروف
المعروفة
المعطي
المعلومات
المعنى
المعهد
المغاربة
المغاربية
المغالطات
المغالطة
المغرب
المغربي
المغربية
المغريب
المغريبي
المغريبية
المغنية
المقاومة
المقدس
المقدسة
المقصود
المكتب
المكسيك
المكناسي
الملاحي
الملاكمة
الملاي
الملحون
الملعب
الملك
الملكي
الملكية
الملوك
المليون
الممالك
الممثل
الممثلة
المملكة
المناخ
المناطق
المناهل
المنبهي
المنتخب
المندوبية
المنزه
المنصور
المنصوري
المنضمة
المنطقة
المنظمة
المنفلوطي
المنفى
المنور
المهداوي
المهدي
المهرجان
المهمة
المهندس
المهني
المهنية
المو
المواضيع
المواطنين
الموت
الموحدية
الموحدين
المور
الموسم
الموسوعة
الموسيقى
الموسيقية
الموضوع
الموضيل
الموقع
الموقف
المولى
المومني
المياه
الميريكانية
الميلاد
الن
الناتو
الناحية
النادي
النار
الناس
الناسولي
الناصري
الناضور
الناطقين
الناطو
الناظور
الناقص
الناقوس
الناي
النباتات
النبلاء
النبي
النبيلة
النتاي
النتيجة
النجاح
النجم
النجوم
النحاس
النخيل
النرويج
النسا
النساء
النساي
النسب
النسبة
النسخة
النسوي
النسوية
النسيج
النشا
النشاط
النشر
النشيد
النشيطين
النص
النصارى
النصر
النصوص
النصيري
النضاضر
النضال
النضام
النضرية
النطق
النظام
النعاس
النعناع
النعوت
النفي
النقاد
النقاط
النقاطي
النقد
النقط
النقطة
النقل
النماري
النمرة
النمساوية
النمو
النمودج
النهار
النهاي
النهاية
النهضة
النهوض
النو
النواب
النواحي
النواصر
النواع
النوبة
النور
النورڤيج
النوسخة
النوضة
النوع
النون
النووي
النووية
النيبت
النية
النيت
النيجر
النيف
النيل
النيهاي
النيولوجيزم
النيڤو
النڭليز
النڭليزية
النݣالزة
النݣليز
النݣليزي
النݣليزية
الهادي
الهجراوي
الهدف
الهروب
الهضرة
الهند
الهندسة
الهندي
الهوا
الهواة
الهواري
الهواس
الهوية
الهيبة
الهيي
الواحد
الواد
الوافي
الواقع
الوثاي
الوجدي
الوجه
الوجود
الوحدة
الوحيدة
الوداد
الودغيري
الورد
الوردي
الورقة
الوزاني
الوزراء
الوزير
الوسط
الوسطاني
الوسطى
الوصول
الوطاسيين
الوطن
الوطني
الوطنية
الوفاة
الوقاية
الوقت
الوقيتة
الوكرة
الولايات
الولاية
الولوج
الولي
الوليد
الوهاب
الوهابي
الى
الي
اليان
اليانية
الية
اليزمي
اليسار
الين
اليهود
اليهودي
اليوسفي
اليوسفية
اليوم
الپيدوفيليا
الڤيروس
الڤيلاج
الݣازون
الݣروج
الݣنبوري
ام
اما
امات
امة
امحمد
امرا
امع
امغرفاوي
امن
امي
امية
امين
ان
انا
انة
انتخاب
انتخابات
انتشار
انتظار
انتفاضة
انقلاب
انها
انو
انوي
اني
انية
انيين
انڭويستيك
انݣويستيك
اه
اها
اهتمام
اهم
اهمو
اهوم
او
اوات
اوجة
اول
اولا
اون
اوه
اوها
اوية
اي
ايات
اية
ايت
ايحة
ايد
اير
ايس
ايفة
ايل
ايلا
ايوان
اپ
اپون
اپوني
اپونية
اپونيين
ب
با
باب
بابا
بابل
بابوبي
بات
باح
باحت
باحتة
باحتين
باحث
باحنيني
باحية
باحيت
باحيتين
باد
بادة
بادجيو
بادل
بادو
بادوج
بادين
بار
باراك
باربادوص
بارباريا
باربرا
باربي
بارتون
بارد
باردة
بارسيلونا
بارطون
باري
باريز
باريس
باز
بازل
باس
باسم
باش
باشا
باصي
باط
باطما
باطو
باطي
باطيرا
باع
باعت
باعمران
باعو
باغا
باغة
باغي
باغين
باغيين
باقا
باقة
باقي
باقية
باقين
باقيين
باك
باكا
باكتير
باكتيريات
بال
بالا
بالبوت
بالبيضاء
بالتالي
بالتركية
بالتشوير
بالتفصيل
بالجاپونية
بالحكم
بالخصوص
بالدار
بالدارجة
بالداريجة
بالراس
بالرباط
بالروسية
بالريفية
بالزربة
بالزيادة
بالسويدية
بالسياحة
بالشلحة
بالشينوية
بالصاموية
بالصبليونية
بالصح
بالصفارة
بالصور
بالض
بالضبط
بالطاليانية
بالطريقة
بالعربية
بالغ
بالفرانساوية
بالفرنسية
بالفيديو
بالك
باللاتينية
باللغة
باللوغات
باللوغة
باللي
بالليل
بالمغرب
بالناظور
بالنسبة
بالنڭليزية
بالنݣليزية
باموس
بان
باناصا
بانة
بانت
بانو
باني
بانݣلاديش
باه
باها
باهت
باي
بايتاس
بايدن
بايرن
بايعو
بايعوه
بايكال
باين
باينانس
باينة
باينين
باڤاريا
باݣا
ببزاف
بة
بت
بتا
بتاريخ
بتاشلحيت
بتشلحيت
بتعادول
بتلاتة
بتمازيغت
بتهمة
بتوقيت
بتيفيناغ
بجاي
بجدية
بجعد
بجهة
بجوج
بجوجهم
بجوجهوم
بح
بحات
بحاث
بحار
بحال
بحالا
بحالها
بحالهم
بحالو
بحت
بحث
بحر
بحرف
بحري
بحرية
بحزب
بحساب
بحق
بحكم
بحمرة
بحيت
بحيث
بحيرة
بخ
بختيصار
بخصوص
بخط
بد
بدا
بدات
بداع
بداعية
بدال
بداها
بداو
بداي
بداية
بدة
بدر
بدل
بدلات
بدلو
بدور
بدون
بدية
بديل
بديلات
بر
برا
براج
برادة
براسها
براسهوم
براسو
براصها
براصو
براكن
برامج
براندن
براني
برانية
براهام
براهيم
براهيمي
براهيمية
براون
برج
برد
برز
برسم
برشلونة
برشيد
برصلونة
برطراند
برطقيزي
برغواطة
بركان
بركة
برلاماني
برلمان
برلماني
برلمانية
برلين
برنامج
برهون
بروس
بروصيص
بروك
بروكسيل
بروناي
برونزية
بري
برية
بريزبان
بريس
بريطاني
بريطانيا
بريطانية
بريطانيكا
بريكسيل
بريل
برين
بز
بزاف
بزافت
بزربة
بزز
بزطام
بزناس
بزنيس
بزيادة
بساط
بسباب
بسبابها
بسبب
بسة
بستيعمال
بسلا
بسلامة
بسم
بسمة
بسمي
بسمية
بسميت
بسميتها
بسميتو
بسيط
بسيطة
بشا
بشرط
بشرى
بشري
بشرية
بشكل
بشويا
بشوية
بشي
بص
بصح
بصفة
بصلة
بصيغة
بصيفتو
بض
بضبط
بضربة
بط
بطاقة
بطال
بطريقة
بطل
بطلة
بطمة
بطوطة
بطولة
بع
بعاد
بعام
بعة
بعد
بعدما
بعدها
بعدو
بعض
بعضياتها
بعضياتهم
بعضياتهوم
بعضين
بعكس
بعمران
بعنوان
بعيد
بعيدة
بعينات
بغا
بغات
بغاو
بغداد
بغيتي
بغينا
بـ
بفضل
بفيروس
بقا
بقات
بقاتش
بقاس
بقاو
بقايا
بقة
بقلم
بقوة
بقى
بقيادة
بكار
بكتيريا
بكر
بكري
بكل
بكورة
بل
بلا
بلات
بلاد
بلادنا
بلادها
بلادو
بلادي
بلاصا
بلاصة
بلاصت
بلاصتها
بلاصتهوم
بلاصتو
بلاغ
بلافريج
بلال
بلاما
بلان
بلايص
بلبحر
بلبرتغالية
بلبيان
بلة
بلجيكا
بلحاق
بلحرف
بلحروف
بلحسن
بلحق
بلخصوص
بلخط
بلخياط
بلد
بلدان
بلدي
بلدية
بلعاني
بلعربي
بلعربية
بلعوشي
بلعيد
بلعين
بلغاريا
بلغلط
بلفرانساوية
بلفرونسي
بلفرونصي
بلفضل
بلفلوس
بلفور
بلق
بلقاسم
بلقاضي
بلقب
بلقزيز
بلقصيري
بلقليلة
بلقولة
بلقيادة
بللي
بلمعقول
بلمقابيل
بلمليح
بلو
بلوغة
بلوك
بلوكتشيين
بلونكلي
بلونݣلي
بلوݣ
بلي
بليد
بليدين
بليزيد
بليس
بليغ
بلينش
بلينݣليزيا
بلينݣليزية
بليون
بليونية
بلڤيديو
بما
بمدينة
بمعنى
بمناسبة
بن
بنا
بناء
بنات
بنادم
بناصر
بناني
بناه
بناها
بناو
بناوها
بنبركة
بنت
بنتو
بنجامين
بنجلون
بنحسي
بنخريف
بنخضرة
بنسبة
بنسعيد
بنسليمان
بنسيدي
بنشمسي
بنشيخة
بنشيمول
بنصالح
بنعبد
بنعبدالله
بنعبود
بنعطية
بنعلي
بنعمر
بنعيسى
بنفس
بنقصو
بنك
بنكيران
بنموسى
بنهيمة
بنو
بنور
بنى
بني
بنية
بنين
بنݣرير
بنݣليزية
به
بها
بهاء
بهاد
بهادشي
بهدف
بهية
بهيجة
بو
بواب
بواحد
بواسطة
بوب
بوباكار
بوبكر
بوت
بوتات
بوتان
بوتفليقة
بوتفوناست
بوجدور
بوجلود
بوجمعة
بوجيبار
بوحدة
بوحدها
بوحدهم
بوحدهوم
بوحدو
بوخريص
بوخلال
بوخيام
بودنيب
بودهان
بودي
بور
بوردو
بورصة
بورغواطة
بوركا
بوركينا
بورما
بورن
بوروندي
بوري
بوريس
بوريص
بوريطة
بورݣراݣ
بورݣون
بورݣيبة
بوزنيقة
بوزوبع
بوزوݣار
بوست
بوستة
بوسطون
بوسعيد
بوسكورة
بوسكيلة
بوسلام
بوسلهام
بوسيل
بوش
بوشتى
بوشعيب
بوشويكة
بوشيخي
بوطالب
بوطسوانا
بوطناش
بوطوالة
بوطولا
بوطولات
بوطولة
بوطيب
بوظبي
بوعا
بوعبيد
بوعرفة
بوعزة
بوعشرين
بوعلي
بوغاز
بوفال
بوقنادل
بوك
بوكس
بوكوس
بوكوني
بول
بولامي
بولز
بولمان
بولي
بوليسي
بوليڤيا
بوم
بومالن
بوميرانغ
بون
بوناپارت
بونض
بونعيلات
بونو
بونيقية
بونݣو
بوهيميا
بوي
بويا
بويل
بوينوس
بوڭود
بوݣانڤيل
بوݣراع
بوݣود
بي
بيان
بيب
بيبان
بيبانو
بيبليوغرافيا
بيبي
بية
بيت
بيتكونيكت
بيتكوين
بيتهوڤن
بيد
بيدوان
بيدي
بيديه
بير
بيرد
بيرطراند
بيرطولد
بيروت
بيساتسو
بيست
بيسمارك
بيص
بيض
بيضا
بيضاء
بيضار
بيضة
بيطار
بيع
بيعة
بيعي
بيعية
بيكوين
بيل
بيلا
بيلاروسيا
بيلبورد
بيلة
بيلي
بيليز
بين
بينا
بينات
بيناتها
بيناتهم
بيناتهوم
بينم
بينما
بينها
بينهم
بينهوم
بينو
بينيطو
بينين
بيه
بيها
بيهم
بيهوم
بيو
بيوت
بيوتا
بيولوجية
بيي
بݣاع
ة
ت
تا
تابتة
تابع
تابعا
تابعاها
تابعة
تابعين
تابعينو
تابنادميت
تات
تاتبان
تاتجمع
تاتحد
تاتحدها
تاتحكم
تاتخد
تاتخدم
تاتخرج
تاتسرت
تاتسم
تاتعتابر
تاتعني
تاتغني
تاتقول
تاتكتب
تاتكون
تاتهضر
تاتورك
تاتوصل
تاجة
تاجر
تاحناوت
تاخد
تاد
تادجربيت
تادلة
تادوز
تادير
تاديشارجيت
تار
تارة
تارودانت
تاريخ
تاريخنا
تاريخها
تاريخي
تاريخيا
تاريخية
تاريفيت
تارݣة
تازارين
تازة
تازمامارت
تازواقت
تاسكنيت
تاسيويت
تاشاويت
تاشفين
تاشلحيت
تاشنويت
تاصنهاجيت
تاضونݣيت
تاط
تاطل
تاع
تاعها
تاعو
تاغديمسيت
تاغزوت
تاغماريت
تافراوت
تافقو
تافوغالت
تافيلالت
تاقبايليت
تاكونصونطريت
تال
تالا
تالت
تالتة
تالي
تالين
تاليوين
تام
تامازيغت
تاماسيسي
تامانارت
تاماݣورت
تامر
تامري
تامسنا
تامن
تامودا
تاموسيدا
تانسم
تانسيفت
تانعرفو
تانفوست
تانفوسيت
تانلقاو
تانو
تانومافيلي
تانوي
تانوية
تاني
تانية
تانيت
تاهو
تاهوما
تاهي
تاهيا
تاوجطات
تاوريرت
تاوع
تاونات
تاويزا
تاويلانت
تاي
تاياكلو
تايبان
تايبيعو
تايتانيك
تايتن
تايتنز
تايج
تايجيو
تايحد
تايحكمو
تايخدمو
تايخلي
تايدوز
تايرت
تايرجع
تايزناسنيت
تايطيح
تايعيشو
تايقلبو
تايقول
تايكون
تايكونو
تايلر
تايم
تايمة
تايمز
تاينقص
تايهز
تايهضرو
تايوصل
تاڭمادرت
تاݣورا
تاݣورارت
تبات
تبادل
تباع
تباعت
تباعو
تبان
تبد
تبدا
تبدال
تبدل
تبدلات
تبدلو
تبديل
تبديلات
تبع
تبعات
تبعمرانت
تبعو
تبقا
تبقى
تبنا
تبنات
تبناو
تبنى
تبني
تبي
تبين
تتا
تتبت
تتبع
تتسمى
تتعرف
تتعني
تتغني
تتكون
تتهضر
تجابت
تجارب
تجارة
تجاري
تجارية
تجبد
تجديد
تجر
تجربة
تجرحو
تجريبة
تجريبي
تجم
تجمع
تجمعات
تجمعو
تجوج
تجوجات
تجي
تحاد
تحاربو
تحافض
تحالف
تحالفات
تحبس
تحت
تحتاني
تحتدرية
تحتية
تحد
تحديت
تحديد
تحر
تحرش
تحرير
تحريف
تحسب
تحط
تحفة
تحقق
تحقيق
تحكم
تحل
تحلات
تحليل
تحليلات
تحليلية
تحمي
تحو
تحول
تحولات
تحولو
تحويل
تحي
تحياد
تحيحيت
تحيد
تحيدات
تخاد
تخادت
تخادو
تختار
تختارت
تختارعات
تخد
تخدام
تخدم
تخدمات
تخر
تخرج
تخرجات
تخصص
تخصصات
تخطف
تخطيط
تخل
تخلاو
تخلق
تخلي
تخليطة
تخليه
تد
تدار
تدارت
تدارو
تداعيات
تدافع
تدبير
تدخ
تدخل
تدريب
تدريجي
تدريس
تدعم
تدفن
تدكر
تدكرات
تدمر
تدمرات
تدمير
تدوز
تدير
تر
ترا
تراب
ترابية
ترات
تراث
تراثية
تراجع
تراس
تراك
تران
تراڤرس
ترب
تربات
تربح
تربى
تربية
ترة
ترتفع
ترتيب
ترجع
ترجم
ترجمات
ترجمة
ترخيص
ترد
ترشح
ترشحات
ترفض
ترك
تركمانستان
تركيا
تركيب
تركية
ترو
تروة
تروست
ترية
تريسينتي
تريسينتية
تريليون
ترين
تزاد
تزادت
تزادو
تزام
تزعزيعات
تزعزيعة
تزوج
تزوجات
تزوجو
تزيد
تسالا
تسالات
تسالي
تسامنهوف
تسبب
تسببات
تسببو
تستافد
تستاقل
تستعمرات
تستعمل
تستعملات
تستعملو
تسجل
تسجلات
تسجلو
تسجيل
تسجيلات
تسد
تسطاري
تسع
تسعطاش
تسعود
تسعينات
تسك
تسكت
تسكنات
تسم
تسما
تسمات
تسماو
تسمى
تسمية
تسنا
تسنات
تسونامي
تسي
تسيكنو
تسينات
تسيپورطي
تش
تشاد
تشارك
تشارلز
تشارلي
تشاف
تشافت
تشاكرا
تشاوتشيسكو
تشد
تشدو
تشريعية
تشعل
تشك
تشكل
تشكلات
تشكيل
تشلحيت
تشهر
تشهرات
تشوف
تشومسكي
تشووك
تشي
تشير
تشيكوصلوڤاكيا
تشيلسي
تشين
تصاب
تصالات
تصاوب
تصاوبات
تصاور
تصايبو
تصدر
تصرف
تصريح
تصفيات
تصميم
تصنف
تصنيف
تصنيفات
تصور
تصويت
تصوير
تصويرة
تصويرية
تصيفط
تضرب
تط
تطالب
تطايريت
تطبيق
تطبيقات
تطرا
تطرجم
تطرجمات
تطلق
تطوان
تطور
تطورات
تطورو
تطوير
تطيح
تعادلو
تعادول
تعامل
تعاود
تعاودات
تعاون
تعاويد
تعبير
تعتابر
تعتارف
تعتاقل
تعد
تعديل
تعر
تعربو
تعرض
تعرضات
تعرف
تعرفات
تعرفو
تعريف
تعزيز
تعطا
تعطات
تعطاو
تعطى
تعطي
تعل
تعلم
تعلمات
تعلمو
تعلموها
تعلن
تعلنات
تعليم
تعمر
تعميرة
تعميم
تعني
تعوض
تعويض
تعي
تعيش
تعين
تعينات
تعيين
تغراف
تغمرت
تغن
تغني
تغير
تغيير
تغييرات
تفاحة
تفارقو
تفاصيل
تفاعل
تفاعلات
تفاق
تفاقية
تفتاتح
تفتارض
تفر
تفراوت
تفرض
تفرقات
تفرقو
تفرݣيعات
تفرݣيعة
تفسير
تفكك
تفككات
تفلت
تفهم
تفوت
تقاد
تقارير
تقاست
تقاعد
تقافات
تقافة
تقافي
تقافيا
تقافية
تقاليد
تقبط
تقبلات
تقتل
تقتلو
تقد
تقدر
تقدم
تقدير
تقديرات
تقديم
تقرا
تقرر
تقريب
تقريبا
تقريبان
تقرير
تقرييا
تقس
تقسم
تقسمات
تقسيم
تقص
تقصاو
تقصر
تقل
تقلب
تقليدي
تقليدية
تقني
تقنيات
تقنية
تقول
تقويم
تقيد
تقيس
تقيل
تكتاشف
تكتاشفات
تكتاشفو
تكتب
تكتبات
تكتبو
تكريم
تكشف
تكلاصا
تكلاصات
تكلف
تكلفات
تكلم
تكمل
تكنولوجيا
تكو
تكون
تكونات
تكوين
تل
تلات
تلاتة
تلاتين
تلاقا
تلاقات
تلاقاو
تلامد
تلت
تلتيكو
تلطاش
تلعب
تلعبات
تلعبو
تلفازا
تلفازة
تلفزيوني
تلفزيونية
تلقا
تلقات
تلقاو
تلقاي
تلقب
تلقى
تلمسان
تليتيكو
تلڤزيون
تم
تما
تماجق
تمارة
تماركا
تماركاو
تماركي
تمازيغت
تماشق
تماك
تمانينات
تمت
تمتال
تمتل
تمتيل
تمتيلية
تمر
تمرات
تمرد
تمشي
تمن
تمنة
تمنطاش
تمنع
تمنعو
تمنية
تموت
تمي
تميز
تمييز
تن
تنتاخب
تنتاشر
تنتج
تنشر
تنشرات
تنشرو
تنشيط
تنض
تنضم
تنضمات
تنضيم
تنظم
تنظيم
تنفيدي
تنفيدية
تنقارض
تنقص
تنقل
تنقية
تنمية
تنوض
تنوع
تنولوݣ
تنية
تنين
تها
تهامي
تهبط
تهجرات
تهديد
تهديدات
تهراس
تهرب
تهز
تهم
تهمة
تهوى
تو
توات
تواتون
توارخي
توارخيا
توارد
توارݣ
توارݣة
تواصل
تواني
توبقال
توة
توجه
توجهات
توحد
توحدو
توحيد
تور
تورات
تورة
تورنوا
تورنوة
توري
توريا
تورپان
توزيع
توسع
توسعات
توش
توصف
توصل
توف
توفا
توفات
توفر
توفى
توفيره
توفيق
توقع
توقف
توقيت
تول
تولا
تولال
تولد
تولدات
تولكين
تولوز
تولي
توم
توماس
تومبوكتو
تومرت
تومزابت
تون
تونس
تونسي
تونسية
توني
تونية
توي
تويتر
تويشيات
توپوا
توڤالو
توڤنو
توݣورت
تي
تيا
تيار
تيبان
تيتخد
تيتسم
تيتعتابر
تيتهضرو
تيتوس
تيجاري
تيجارية
تيجة
تيجي
تيحاد
تيحد
تيحدها
تيخابات
تيخانوڤسكايا
تيخد
تيخدم
تيخدمو
تيخل
تيد
تيدور
تيدوز
تيدير
تيديرو
تيديكلت
تير
تيرا
تيرات
تيراكي
تيراكية
تيران
تيراو
تيرنر
تيرينتيوس
تيزنيت
تيزوس
تيزي
تيساع
تيست
تيسكن
تيسكنو
تيسليت
تيشار
تيشاركو
تيشكا
تيصال
تيصالات
تيصب
تيضور
تيط
تيعتابرو
تيعمار
تيعمال
تيعيش
تيعيشو
تيغن
تيغني
تيفاقية
تيفلت
تيفيناغ
تيقدرو
تيقرا
تيقلال
تيقلالية
تيقول
تيقولو
تيكتب
تيكست
تيكنولوجيا
تيكواندو
تيكون
تيكونو
تيل
تيلة
تيلعب
تيلعبو
تيلكيل
تيليطوبيز
تيليفون
تيليفونات
تيم
تيماعي
تيماعية
تيمشي
تيمور
تين
تينا
تينات
تينبع
تينتاسيون
تينغير
تينمل
تينيسي
تيهضر
تيهضرو
تيهضروها
تيهلاك
تيودور
تيوصلو
تيوپيا
تيڤي
تيݣلمامين
تݣ
تݣارݣرنت
تݣال
تݣول
ث
ثار
ثامن
ثاندركاتس
ثانوي
ثانوية
ثاني
ثانية
ثر
ثريا
ثرية
ثقافة
ثقافي
ثقافية
ثلاث
ثلاثة
ثلج
ثم
ثمن
ثمود
ثنية
ثورة
ثير
ثيودور
ج
جا
جاب
جابت
جابر
جابو
جابوه
جابوها
جات
جاتو
جاج
جار
جارة
جاري
جارڤيس
جازة
جازولي
جاسيندا
جاك
جاكارطا
جال
جامايكا
جامع
جامعة
جامعي
جامعية
جاميعة
جاميعي
جان
جانب
جانسن
جانوب
جاني
جانيرو
جاه
جاو
جاي
جايا
جايب
جاية
جايحة
جايزة
جايين
جاپ
جاپون
جاپوني
جاپونية
جاڤا
جب
جبال
جبالة
جبد
جبران
جبرون
جبرية
جبريل
جبل
جبلية
جبهة
جبولا
جبولة
جتماع
جتماعي
جتماعية
جتياح
جتيماعي
جتيماعية
جحا
جد
جداد
جدة
جدد
جدل
جدو
جدوان
جدول
جدي
جديد
جديدا
جديدة
جدير
جر
جرا
جراء
جراءات
جرادة
جرام
جرامية
جراو
جراي
جربة
جرح
جرحة
جردة
جرمانية
جرنان
جريدة
جرير
جريمة
جزء
جزاء
جزاي
جزاير
جزر
جزي
جزيرة
جزيي
جسام
جسم
جطو
جعل
جغرافي
جغرافيا
جغرافية
جل
جلات
جلال
جلالة
جلد
جلول
جلون
جم
جماع
جماعات
جماعة
جماعي
جماعية
جمال
جمالية
جمع
جمعات
جمعة
جمعيات
جمعية
جمل
جملة
جمهور
جمهوري
جمهوريات
جمهورية
جموع
جميع
جميل
جميلة
جناح
جنان
جنب
جنبي
جنبية
جنة
جنرال
جنسي
جنسيا
جنسيات
جنسية
جنوب
جنوبية
جهات
جهاز
جهة
جهزة
جهودية
جهوية
جو
جواب
جواد
جوامع
جوان
جواهرلال
جواو
جواي
جوايز
جوايه
جوج
جوجت
جوجي
جود
جودار
جورج
جورجيا
جورنال
جورنالات
جوريو
جوزي
جوزيف
جوطان
جوطية
جوق
جولات
جولة
جولي
جوم
جون
جونز
جوني
جونيور
جونيڤ
جوهرة
جوي
جوية
جويس
جويو
جويي
جوپيتر
جي
جيال
جيت
جيتسو
جيران
جيرمان
جيري
جيش
جيكو
جيل
جيلالة
جيلالي
جيم
جيمز
جيمس
جيمي
جين
جينا
جينديبو
جينكيز
جيني
جينيراتور
جينيرال
جيهات
جيهاوية
جيهة
جيهت
جيوش
جيولوجيا
جيولوجية
ح
حابة
حات
حاج
حاجات
حاجة
حاد
حادات
حادة
حادي
حاراكة
حارب
حاربو
حارس
حاس
حاضر
حاضرة
حاضرين
حافة
حافض
حافضات
حافضو
حافية
حافيين
حاكم
حاكماها
حاكمة
حاكمها
حاكمين
حاكمينها
حال
حالات
حالة
حالف
حالي
حاليا
حاملة
حامي
حانوت
حاول
حاولات
حاولو
حاييم
حب
حبس
حبسات
حبسو
حبك
حبيب
حبيبي
حة
حت
حتا
حتارف
حتال
حترافية
حتفال
حتل
حتلا
حتلات
حتلاتها
حتلال
حتلو
حتى
حتيجاجات
حتيرافية
حتيفال
حتيمال
حج
حجاج
حجازي
حجاية
حجة
حجر
حجرة
حجوي
حجي
حجيب
حد
حدا
حدات
حداتيات
حداث
حداد
حداه
حداها
حداهم
حدت
حدد
حددات
حدو
حدود
حديث
حديد
حديدان
حر
حرا
حرار
حرارة
حرازم
حراك
حراوية
حرايفي
حرايفية
حرب
حرة
حرضان
حرف
حرفة
حرفيا
حرق
حركات
حركة
حروب
حرودة
حروف
حرية
حرير
حريز
حزاب
حزام
حزب
حس
حساب
حسابات
حساس
حسان
حساين
حسب
حسبنا
حسن
حسني
حسنية
حسو
حسون
حسين
حص
حصا
حصاء
حصاد
حصار
حصاي
حصل
حصن
حصيلة
حضارة
حضاش
حضرية
حط
حطاب
حطات
حفاد
حفض
حفظ
حفل
حفلات
حفلة
حفيد
حفير
حفيظ
حفيظة
حق
حقاي
حقق
حققت
حقها
حقوق
حقوقي
حقوقية
حقيقة
حقيقي
حقيقية
حك
حكام
حكايا
حكايات
حكاية
حكم
حكمات
حكمت
حكمو
حكموها
حكومة
حكيم
حكيمي
حل
حلا
حلات
حلام
حلف
حلقات
حلقة
حلم
حلمي
حلو
حلول
حليل
حليمة
حم
حماد
حمادة
حمادي
حمار
حمامة
حمان
حماية
حمجيق
حمد
حمدي
حمر
حمرة
حمري
حمزاوي
حمزة
حملات
حملة
حمو
حميد
حنا
حنان
حو
حواء
حواجز
حوار
حوارات
حوالي
حوايج
حوت
حور
حوض
حوكم
حوكومة
حوكومية
حول
حولي
حومة
حي
حياء
حياة
حياته
حياتها
حياتهم
حياتهوم
حياتو
حياتي
حيار
حية
حيت
حيتاش
حيث
حيثاش
حيحة
حيد
حيدات
حيدوس
حيزب
حيزون
حيس
حيط
حين
حيوان
حيوانات
حيون
حݣا
خ
خاد
خارج
خارجة
خارجية
خارجين
خارق
خارقة
خاص
خاصة
خاصك
خاصنا
خاصها
خاصهوم
خاصو
خاصيات
خاصية
خاصين
خاضع
خافت
خالد
خامس
خان
خانز
خاوية
خايب
خايبة
خايبين
خايف
خايفين
خبار
خبارات
خبارية
خبر
خبراء
خبير
خت
ختار
ختارت
ختارتو
ختارع
ختارعات
ختارعها
ختارعو
ختارو
ختها
ختو
ختيار
ختيراع
ختيصار
ختيلافات
خد
خدا
خدات
خداتها
خدام
خداما
خدامة
خدامي
خدامين
خدامينش
خداه
خداها
خداو
خداوها
خدايمي
خدم
خدمات
خدمة
خدمتها
خدمتهوم
خدمتو
خدمو
خديجة
خدينا
خذا
خر
خرا
خراج
خراني
خرانية
خرايط
خرباش
خربوشة
خرة
خرج
خرجات
خرجو
خرق
خروج
خرى
خريبكة
خريبݣة
خريطة
خرين
خسر
خسرات
خسرو
خص
خصاي
خصوصا
خصوصن
خصي
خصيات
خصية
خصيصا
خضر
خضرا
خط
خطا
خطاء
خطاب
خطة
خطر
خطوة
خطوط
خطيرة
خطيط
خفاف
خفيف
خفيفة
خل
خلا
خلات
خلاتها
خلاتو
خلاص
خلاف
خلاق
خلاقت
خلاقي
خلاقية
خلال
خلاني
خلاه
خلاها
خلاو
خلاوها
خلايا
خلايق
خلة
خلدون
خلف
خلق
خلقات
خلى
خلية
خليج
خليط
خليفة
خليل
خليلهودزيتش
خمام
خمس
خمسة
خمسطاش
خمسين
خميس
خنافري
خندق
خنوش
خنيفرة
خو
خوان
خوانينا
خوت
خوتو
خور
خوصي
خوماش
خوه
خوها
خويا
خويلد
خوين
خيار
خياط
خيالي
خيالية
خير
خيرات
خيرة
خيسوس
خيل
خيلال
د
دا
داء
داب
دابا
دابي
دابية
داة
دات
داتو
داتي
داتية
داخل
داخلاش
داخلة
داخلي
داخلية
داخلين
داخيلية
داداس
دادس
دار
دارات
دارة
دارت
دارتها
دارتو
دارجة
دارسة
دارلبيضا
دارنا
دارها
دارهم
دارهوم
دارو
داروه
داروها
داروين
داري
داريا
دارية
داريجة
داريين
داز
دازت
دازو
داش
داطا
داعة
دافع
دافعو
دافي
داك
داكشي
داكوطا
دالا
دالرباح
دالزيادة
دالسد
دالسكان
دالشتا
دالشرق
دالشمال
دالشمس
دالشمش
دالصباح
دالصوايت
دالصيف
داللعب
داللوغات
داللوغة
دالليل
دالناس
دالنقاط
دالنهار
دالي
دام
داناي
دانمارك
داني
دانيال
دانييل
داها
داو
داود
داودة
داول
داي
داير
دايرا
دايرة
دايرين
دايز
دايزة
دايزين
دايم
دايمة
دايمين
داڤيد
دب
دبا
دباء
دبابة
دبال
دببة
دبنادم
دبني
دبي
دبية
دة
دج
دجامپ
دجنبر
دجورج
دجوزيفين
دجون
دجونسون
دجونصون
دجي
دجيبوتي
دجيمس
دجيمي
دجينڭرون
دجيوڭرافيك
دجيڤرسون
دحان
دخ
دخل
دخلات
دخلاتها
دخلو
دخليج
دخوش
دخول
در
درات
درار
دراري
دراسات
دراسة
دراعو
دراك
دراما
درامي
دراݣون
درب
درة
درجات
درجة
درس
درسة
درعا
درعة
درن
درهم
دروس
درويش
دري
درية
دريس
دريسة
دريسي
دريسية
دريك
درييك
دزاير
دستور
دستوري
دستورية
دسيدني
دشي
دصاموا
دعاء
دعم
دعوة
دغيا
دفاع
دفع
دفعات
دفن
دق
دقايق
دقة
دقيق
دقيقة
دكالة
دكتور
دكتورا
دكتورة
دكر
دكرو
دكورة
دكووورة
دكي
دل
دلا
دلباكتيرية
دلبحر
دلبدية
دلبشري
دلبلاد
دلبهايم
دلبوطولات
دلبيوتا
دلة
دلجانوب
دلجماعات
دلجيهات
دلجيهة
دلحالات
دلحبس
دلحركة
دلخدمة
دلعاصيمة
دلعالام
دلعسكر
دلعشية
دلعيالات
دلغرب
دلفراقي
دلفرقة
دلفيلم
دلقبايل
دلقرن
دلقوة
دلكتابة
دلكلمة
دلكيلوميتر
دلما
دلماط
دلماكلة
دلمحيط
دلمدون
دلمدينة
دلمرابطين
دلمرات
دلمسافرين
دلمغريب
دلملاين
دلمليار
دلمليون
دلموحدين
دلموسيقى
دلهواة
دليل
دليلة
دليمي
دلݣول
دم
دماج
دماغ
دماغية
دمج
دمر
دمشق
دمنات
دموع
دمون
دموند
دميتري
دمير
دن
دنواع
دنيا
دنيوزيلاندا
دهاد
دهبي
دهبية
دهكون
دهم
دو
دوا
دوات
دواحد
دوار
دوارة
دوارد
دوال
دواور
دواوين
دواي
دوايت
دواير
دوبل
دودس
دور
دورات
دورانطيس
دورة
دورر
دوروثي
دوري
دوريس
دوز
دوزات
دوزان
دوزو
دوزيم
دوستور
دوستوري
دوسطوييڤسكي
دوغ
دوك
دوكتورا
دوكينز
دول
دولات
دولار
دولة
دولف
دولي
دوليا
دولية
دومينيك
دومينيكا
دون
دونالد
دونكي
دونيتسك
دونيدين
دونيس
دويتشه
دويلات
دي
دياب
دياسپورا
ديال
ديالا
ديالت
ديالتها
ديالتو
ديالك
ديالكم
ديالنا
ديالها
ديالهم
ديالهوم
ديالو
ديالوم
ديالي
ديان
ديانا
ديانات
ديانة
دياني
دياول
دياولها
ديب
ديبلوم
ديبيان
ديجا
ديد
ديداس
ديدة
دير
ديراسات
ديراسة
ديريكت
ديزاكي
ديزدمونة
ديزني
ديزي
ديس
ديسك
ديسمبر
ديسي
ديسيميتر
ديف
ديفاعي
ديك
ديكارط
ديكتاتور
ديكسيونير
ديكنز
ديل
ديلاوير
ديلايد
ديلما
ديلهي
ديما
ديمقراطي
ديمقراطية
ديموقراطي
ديموقراطية
دين
دينامو
ديني
دينية
دينيت
ديو
ديوان
ديودوروس
ديور
دييݣو
ديپلوم
ديپلوماسي
ديپلوماسية
ديپو
ديپورتيڤو
ديڤوار
ديڤيد
ذ
ذا
ذات
ذاتية
ذاعة
ذاكرة
ذكر
ذكرى
ذلك
ذمة
ذن
ذي
ر
را
راء
راب
رابحة
رابس
رابطة
رابع
رابعة
رابية
رابيط
رات
راجا
راجع
راجل
راجلها
رادة
رادي
راديو
راري
رازي
راس
راسات
راسة
راسك
راسل
راسمالية
راسها
راسهم
راسهوم
راسو
راسي
راسپوتين
راشد
راصو
راضي
راع
راعة
راعية
رافاييل
راقم
راك
رال
رالية
رام
رامزي
راموص
رامية
ران
راني
راه
راها
راهم
راهو
راهوم
راي
راية
رايت
رايتس
رايس
راينجرز
راينر
راپ
راپاليني
راپور
راݣون
رب
رباب
رباح
رباط
رباطي
رباعيات
ربة
ربح
ربحات
ربحاتها
ربحها
ربحو
ربحوه
ربع
ربعا
ربعة
ربعطاش
ربعين
ربما
ربي
ربية
ربيس
ربيسات
ربيع
ربيعي
رة
رت
رتبة
رتر
رتفاع
رتور
رتورو
رتيب
رتيباط
رتيكل
رثر
رج
رجاء
رجال
رجامة
رجة
رجع
رجعات
رجعو
رجل
رجلين
رجليه
رجنتين
رح
رحال
رحالة
رحل
رحلات
رحلة
رحيل
رحيم
رحيمو
رحيمي
رخ
رخبيل
رخيص
رخيصة
رخين
رد
ردات
رداد
ردة
ردمك
ردن
ردو
ردية
رديناتور
رز
رس
رساطو
رسالة
رسام
رسامة
رسطو
رسم
رسمة
رسموك
رسمي
رسميا
رسمية
رسول
رسوم
رسومات
رشاش
رشد
رشدي
رشف
رشيد
رشيدة
رشيف
رشيڤ
رشيڤي
رض
رضا
رضوان
رضي
رضية
رطودوكسية
رع
رعية
رغبة
رغم
رغيب
رف
رفض
رفضات
رفع
رفود
رفيق
رق
رقام
رقان
رقراق
رقم
رقمي
رقمية
رقي
رقية
رقيق
رقيقة
رك
ركات
ركاديا
ركان
ركانساس
ركة
ركنية
ركيب
ركيبة
ركية
ركيز
ركيولوجي
ركيولوجيا
ركيولوجية
ركيولوجيين
رلاندا
رلرت
رم
رماد
رمز
رمزي
رمزية
رمضان
رملة
رمن
رموز
رميم
رمين
رمينيا
رنا
رها
رهاب
رهابية
رهم
رهوني
رهيفة
رو
روابط
رواج
رواح
رواد
رواندا
رواي
روايات
رواية
روايس
روبا
روبرت
روبير
روبيرت
روبين
روة
روجر
روح
روحانية
رود
رودجر
رودريݣو
روديزيا
رور
رورة
روريك
روز
روزيلا
روزڤلت
روزڤيلت
روس
روسوم
روسي
روسيا
روسية
روسيف
روض
روط
روف
روكو
روما
رومان
روماني
رومانيا
رومانية
رون
رونالد
رونالدو
روندا
روني
روها
رويترز
رويشة
رويل
روپا
روپي
روپية
روپيين
روݣيڤين
ري
رياح
رياسة
رياسية
رياض
رياضات
رياضة
رياضي
رياضية
ريال
ريان
ريب
ريبيرا
ريبيكا
رية
ريتشارد
ريح
ريحة
ريخ
ريد
ريزو
ريزونا
ريسطو
ريسطورات
ريسيطاس
ريسينتي
ريسينتية
ريشي
ريغة
ريف
ريفي
ريفية
ريق
ريقة
ريك
ريكاردو
ريم
ريموند
رين
ريو
ريواية
ريوس
ريوش
ريوكيوانية
ريڭان
رݣادة
رݣان
رݣراݣي
ز
زات
زاجال
زاد
زادت
زادو
زار
زاراتوسطرا
زارو
زاكربيرݣ
زامبيا
زاوية
زاي
زايان
زايد
زايدة
زايدين
زاير
زايلا
زاڭورة
زاݣور
زاݣورة
زة
زج
زجال
زجل
زجلي
زداهرات
زدوق
زراعة
زراعي
زرع
زرق
زرقة
زرهون
زرو
زروال
زري
زعطوط
زعم
زعما
زعماء
زعير
زعيم
زغار
زفزاف
زكريا
زكية
زكير
زلزال
زلزولي
زم
زمات
زمان
زمانية
زمة
زمن
زمور
زموري
زناتة
زناتية
زناقي
زنزارن
زنقة
زهر
زهرا
زهرة
زهور
زهير
زو
زواج
زوج
زوجة
زوراق
زولاي
زوهير
زوين
زوينة
زي
زياد
زيادة
زيارة
زياش
زيان
زيت
زيد
زيدان
زيدو
زيدون
زيدي
زير
زيربيدجان
زيرو
زيرية
زيف
زيكاش
زيلال
زيليس
زيمبابوي
زين
زينب
زينة
زݣزا
س
سا
ساء
ساباب
سابع
سابق
سابقا
سات
ساتدة
ساتورن
ساتيدة
ساجد
ساجيطاريوس
ساحة
ساحل
ساخرة
سادس
ساديس
سار
ساراماݣو
سارة
سارس
ساركوزي
ساريات
ساس
ساسا
ساسة
ساسي
ساسية
ساسيين
ساطوشي
ساطير
ساع
ساعات
ساعة
ساعودية
سافر
سافرو
سافير
سافيرة
ساكا
ساكن
ساكنة
ساكنين
ساكي
سالا
سالات
سالاو
سالف
سالم
سالوستيوس
ساليب
سالڤادور
سام
سامة
سامو
سامي
سامية
سان
سانت
سانتا
سانتيم
ساند
ساندرسن
ساندريلا
ساندويتش
سانديرسن
سانسوكومي
سانط
سانطا
سانطيم
سانية
ساهل
ساهلة
ساهم
ساهمات
ساهمو
ساو
ساوتلاند
ساوند
ساي
سايس
سايل
سب
سباب
سبابها
سبابو
سباطة
سباق
سباني
سبانيا
سبانية
سبايب
سبب
سبة
سبت
سبتة
سبتمبر
سبع
سبعة
سبعتون
سبعطاش
سبعينات
سبق
سبقاتها
سبقليه
سبقو
سبليون
سبو
سبور
سبوع
سبوعية
سبية
سبيطار
سبيل
سة
ست
ستاد
ستادة
ستاذ
ستاذة
ستار
ستاقر
ستاقرو
ستاقل
ستاقلا
ستاقلات
ستاقلو
ستامر
ستامرات
ستانفورد
ستانلي
ستة
ستخرج
ستراتيجي
ستراتيجية
ستراسبورݣ
ستراليا
ستعمار
ستعمرات
ستعمراتها
ستعمرو
ستعمروها
ستعمل
ستقرار
ستقلال
ستن
ستواء
ستوديو
ستور
ستون
ستونوول
ستيتناء
ستيتناي
ستيعمار
ستيعمال
ستيعمالات
ستيغلال
ستيفتاء
ستيفن
ستيقالتو
ستيقلال
ستيقلالية
ستيل
ستيلات
ستيلو
ستيمرارية
ستين
ستينات
ستينتاج
ستيوارت
ستيواي
ستيڤ
ستيڤن
ستيڤنادج
سج
سجل
سجلات
سجلماسة
سجلو
سجنا
سحابة
سحاق
سحرية
سخة
سخون
سخونة
سخونية
سد
سدرات
سر
سراح
سرار
سراي
سربيس
سرة
سرت
سردينيا
سرع
سرعة
سرفاتي
سري
سرية
سرير
سريع
سس
سسات
سسة
سسها
سسو
سسوها
سسين
سطات
سطار
سطاش
سطالين
سطانفورد
سطح
سطرابو
سطرالي
سطراليا
سطرالية
سطنبول
سطور
سطورة
سطوري
سطورية
سطوكهولم
سطوندار
سطونيا
سطيبان
سطيبانيكو
سطيفان
سعاد
سعد
سعدون
سعدي
سعديين
سعود
سعودية
سعيد
سعيدة
سعينات
سغروشن
سف
سفار
سفارة
سفر
سفرة
سفي
سفيان
سفير
سفيرة
سقراط
سقوط
سك
سكار
سكاليس
سكان
سكانديناڤيا
سكانها
سكاني
سكانيا
سكاي
سكر
سكف
سكفكف
سكن
سكنات
سكندر
سكندرية
سكنو
سكوبار
سكوت
سكوري
سكوطلاندا
سكي
سكينة
سل
سلا
سلاح
سلاطين
سلالات
سلالة
سلام
سلامة
سلامي
سلامية
سلاندا
سلاڤية
سلبي
سلحة
سلسلة
سلسول
سلطات
سلطان
سلطة
سلطنة
سلعة
سلف
سلمات
سلمان
سلمى
سلمية
سلوان
سلوب
سلوك
سلوم
سلوى
سليكي
سليم
سليمان
سليماني
سليمة
سم
سما
سماء
سمات
سماعيل
سمالي
سماه
سماها
سماو
سماوه
سماوها
سماوي
سماوية
سمحون
سمع
سمي
سميات
سمية
سميت
سميتها
سميتهم
سميتهوم
سميتو
سميث
سميح
سمير
سميرة
سن
سنا
سناء
سنات
سناو
سنة
سنتيم
سنتيميتر
سنسكريتية
سنسلة
سنغافورة
سنوات
سنوس
سني
سنيسلة
سنين
سها
سهل
سهول
سو
سوء
سوا
سواتيني
سواحل
سوار
سواسا
سواق
سوالم
سوبر
سود
سوداء
سور
سورة
سورس
سورف
سوريا
سورينام
سوزان
سوس
سوسي
سوسية
سوسير
سوشي
سوفتوير
سوق
سولا
سوناك
سوي
سويد
سويدي
سويدية
سويسرا
سويسري
سوينݣا
سوپر
سوپرانو
سي
سيا
سياح
سياحة
سياحي
سياحية
سيادة
سياسات
سياسة
سياسي
سياسيا
سياسية
سياسيين
سيباستيان
سيبيريا
سيبيل
سية
سيت
سيتات
سيتكومات
سيتي
سيجيلماسة
سيد
سيدات
سيدة
سيدل
سيدني
سيدون
سيدي
سير
سيرافان
سيرة
سيرتا
سيرتو
سيرطوريوس
سيري
سيرية
سيرڤانطيس
سيرڤور
سيرݣي
سيزار
سيس
سيستم
سيستيم
سيستيمات
سيسطيمات
سيسي
سيشيل
سيطرات
سيطرة
سيف
سيفاكس
سيفة
سيفريدي
سيفط
سيكيم
سيل
سيلسيوس
سيلول
سيليا
سيلينا
سيليني
سيليوس
سيلڤا
سيم
سيمانات
سيمانة
سيمانية
سيمو
سيمون
سين
سينا
سيناريو
سيناصر
سيناو
سينتشي
سينماي
سينيما
سينيماي
سينيݣال
سيول
سيون
سيوية
سيويروس
سيير
سييرا
سپانيا
سپانيولية
سپاول
سپايدرمان
سپرانطو
سپنيولي
سپنيولية
سپور
سپيريت
سپيس
سپيكتر
سڤيتلانا
ش
شا
شاب
شابة
شاد
شادة
شادين
شار
شارات
شارة
شارج
شارع
شارك
شاركات
شاركت
شاركو
شارل
شاروخان
شاريع
شاريكة
شاط
شاطي
شاعة
شاعر
شاعرة
شاعير
شاعيرة
شاف
شافو
شاكر
شالة
شامة
شاملة
شان
شانݣاي
شانݣهاي
شاوي
شاوية
شايعين
شاپيطر
شاݣ
شباب
شباط
شبايه
شبح
شبكة
شبل
شبه
شبيبة
شبيل
شبيلية
شة
شتا
شتراكي
شتراكية
شتنبر
شتوة
شتوك
شتوكة
شتيراكي
شتيراكية
شجار
شجر
شجرة
شحال
شخاص
شخص
شخصي
شخصيا
شخصيات
شخصية
شد
شدات
شدو
شديد
شديرة
شر
شرا
شرات
شراف
شرح
شرشال
شرط
شرعي
شرعية
شرف
شرق
شرقي
شرقية
شركات
شركة
شروط
شروق
شريبة
شرير
شريرة
شريعية
شريف
شريفة
شريك
شطر
شعا
شعار
شعاع
شعب
شعبان
شعبة
شعبي
شعبية
شعة
شعر
شعرية
شعلات
شعوب
شغال
شغل
شفار
شفشاون
شفشاوني
شفق
شفيق
شقفات
شقفة
شقيقة
شك
شكال
شكاليات
شكايري
شكري
شكل
شكون
شكيب
شكير
شل
شلا
شلالات
شلوح
شمال
شمالي
شمالية
شمس
شمسي
شمسية
شمش
شمعون
شنتوف
شنو
شنݣيكي
شهادات
شهادة
شهار
شهارات
شهر
شهرة
شهور
شهورا
شهيد
شو
شواط
شواطي
شورو
شوريين
شوط
شوف
شوفة
شوقي
شون
شونجمو
شونن
شوهاد
شوي
شويا
شوية
شوݣر
شي
شيبا
شيبان
شيخ
شيد
شيراز
شيراك
شيريشية
شيرين
شيش
شيشا
شيشاوة
شيطان
شيطين
شيعر
شيعرية
شيفور
شيك
شيكاݣو
شيكر
شيكسپير
شيلي
شيماء
شيمي
شين
شينزو
شينوا
شينوية
شينݣيكي
شيوعي
شيوعية
شيݣانشينا
شيݣر
ص
صابات
صابة
صابر
صابيري
صاحب
صاحبتو
صاحبو
صادر
صار
صارا
صاص
صافو
صافي
صافية
صالة
صالح
صالحة
صالومون
صاموا
صامويل
صان
صاوب
صاوباتها
صاوبو
صاور
صاڤاي
صباح
صبانيا
صبر
صبري
صبلونية
صبليون
صبليوني
صبليونية
صبنيولية
صبيطار
صح
صحاب
صحابها
صحابو
صحاح
صحافة
صحافي
صحافية
صحة
صحرا
صحراوية
صحفي
صحفية
صحية
صحيح
صحيحة
صحيفة
صخور
صد
صدار
صدارات
صدام
صدر
صدرات
صدرو
صدقاء
صدمة
صدور
صديق
صديقي
صر
صراع
صربيا
صريعية
صريف
صطاد
صطيناعي
صطيناعية
صعب
صعوبات
صعوبة
صعيب
صعيبة
صغار
صغر
صغرها
صغرو
صغير
صغيرة
صفة
صفحات
صفحة
صفر
صفرة
صفرو
صفريوي
صفيحات
صفيحة
صقلية
صل
صلا
صلاح
صلاحات
صلاحية
صلها
صلهم
صلهوم
صلو
صلوڤاكيا
صلوڤينيا
صلى
صلي
صلية
صليين
صمت
صمطة
صمعة
صناعة
صناعية
صندوق
صنع
صنهاجة
صنيف
صنيفات
صهيوني
صو
صواب
صوات
صوايت
صوت
صوتو
صور
صورة
صوص
صوفاكس
صوفيا
صول
صولدي
صونطر
صونطرال
صونݣاي
صوير
صويرة
صياد
صيد
صيدا
صيغة
صيف
صيفات
صيفط
صيفطات
صيفطو
صيل
صيلة
صيناعة
صيناعية
صينطوري
صيونص
صپونسيانوس
ض
ضاءة
ضابط
ضات
ضاروري
ضاع
ضاعت
ضافة
ضامن
ضامنة
ضاهرة
ضايات
ضاية
ضاير
ضايرة
ضايرين
ضايعات
ضبط
ضجة
ضحايا
ضحك
ضحى
ضحية
ضد
ضدو
ضر
ضراب
ضرابات
ضران
ضراي
ضراپو
ضرب
ضربات
ضربة
ضربو
ضرحة
ضرف
ضروري
ضرورية
ضروف
ضريب
ضرية
ضريح
ضطر
ضعاف
ضعافت
ضعف
ضعيف
ضعيفة
ضغط
ضلال
ضلوع
ضمن
ضمنهم
ضهر
ضهور
ضو
ضواء
ضواهر
ضورة
ضوسي
ضومين
ضومينات
ضونك
ضوي
ضيافة
ضيف
ضيفة
ضيق
ط
طابع
طابلو
طاح
طاحت
طاحو
طادجيكيستان
طار
طاراف
طاراناكي
طارق
طاري
طاريقة
طاريمي
طازمان
طازمانيا
طاسيلا
طاطا
طاقة
طاقم
طاك
طاكسونومي
طاكسي
طاكو
طالب
طالبات
طالبو
طالع
طالعة
طاليان
طالياني
طاليانية
طاليس
طان
طانجا
طانطان
طاي
طايحة
طايلاند
طايلاندية
طايوان
طاݣور
طب
طباق
طبع
طبعات
طبعة
طبق
طبقات
طبقة
طبيب
طبيبة
طبية
طبيعة
طبيعي
طبيعية
طبيق
طبيقات
طبيقية
طة
طح
طر
طرا
طرابلس
طرات
طراف
طرامپ
طرانسيلڤانيا
طراو
طرجامة
طرجم
طرجمات
طرجمة
طرد
طرش
طرف
طرفاية
طرق
طرقان
طروحة
طروفا
طريف
طريق
طريقة
طريقو
طرينيضاض
طفال
طفرات
طفولة
طفيل
طقان
طقس
طقوس
طل
طلاسي
طلاق
طلب
طلبات
طلبة
طلبو
طلس
طلسي
طلسية
طلطاش
طلع
طلعات
طلعو
طلق
طلقات
طلنتي
طلوع
طليب
طليتيكو
طماع
طن
طناش
طنانة
طنجة
طنجية
طنجيس
طنزانيا
طهران
طو
طوال
طوباݣو
طور
طورات
طورو
طوري
طوريياما
طوطو
طوكولوسيدا
طوكيو
طول
طولول
طوماتيكي
طوماس
طوموبيل
طوموبيلات
طوموبيلة
طومي
طونوبيلات
طوني
طونݣ
طونݣا
طوير
طويل
طويلة
طوݣو
طي
طيارات
طيب
طيح
طيحة
طير
طيكساس
طيكنولوجيا
طيل
طيلو
طيليسكوپ
طيناعي
طينجيس
طينݣو
طيودور
طيور
طيوريم
ظ
ظام
ظل
ظهر
ظهير
ع
عا
عابد
عات
عاجل
عاد
عاداد
عادة
عادتن
عادل
عادي
عادية
عارضة
عارف
عارفين
عاش
عاشت
عاشر
عاشو
عاصمة
عاصيفة
عاصيمة
عاع
عافاك
عاقل
عاقلة
عالام
عالم
عالمي
عالميا
عالمية
عالي
عالية
عاليين
عام
عاما
عامال
عاماين
عامة
عامر
عامرة
عامرين
عامل
عاملات
عامين
عانا
عاوتاني
عاود
عاودات
عاودو
عاون
عاونات
عاوناتو
عاونو
عاويد
عاي
عايبية
عايش
عايشة
عايشين
عاين
عب
عبابو
عبار
عبارة
عباس
عبة
عبد
عبدالرحمان
عبدالرحيم
عبداللطيف
عبدالله
عبدة
عبدجليل
عبدرحمان
عبدسلام
عبدصمد
عبدلحفيض
عبدلطيف
عبدلعزيز
عبدلقادر
عبدلكريم
عبدلمجيد
عبدلواحد
عبدو
عبر
عبرات
عبرة
عبرية
عبو
عبي
عبية
عبيد
عبير
عة
عتابر
عتابرو
عتابروها
عتابو
عتارف
عتارفات
عتارفو
عتازل
عتاقل
عتامد
عتمان
عتيبار
عتيبارها
عتيراف
عتيق
عتيݣ
عثمان
عجاز
عجباتو
عجرم
عجور
عد
عداد
عدادي
عدادية
عدام
عدة
عدد
عدم
عدن
عدو
عدوة
عديب
عدية
عديين
عر
عراب
عراض
عراف
عراق
عراقي
عرب
عربي
عربية
عرج
عرشان
عرض
عرف
عرفات
عرفة
عرفو
عرق
عرقلة
عروس
عروض
عريان
عريض
عريضة
عريف
عز
عزراين
عزري
عزل
عزوز
عزيز
عزيزة
عساكريا
عسكارية
عسكر
عسكري
عسكرية
عسو
عشر
عشرات
عشرالاف
عشرة
عشرين
عشواي
عشية
عشيق
عصا
عصابة
عصار
عصبة
عصر
عصري
عصرية
عصمان
عصور
عصيد
عضاء
عضام
عضم
عضو
عضوة
عضوية
عطا
عطات
عطاتها
عطاتو
عطار
عطارد
عطاه
عطاها
عطاو
عطلة
عطى
عطيل
عظم
عفاء
عقا
عقبة
عقد
عقدة
عقلية
عقوبة
عقود
عكاز
عكاظ
عكس
عل
علا
علاش
علاقات
علاقة
علال
علام
علامات
علامة
علامي
علامية
علان
علاود
علاياش
علاين
علم
علماء
علماني
علمانية
علمي
علمية
علن
علنات
علنو
علو
علوم
علوي
على
علي
عليا
عليك
عليم
عليه
عليها
عليهم
عليهوم
علی
عم
عماد
عمار
عمال
عمالة
عمالقة
عمالو
عمان
عمدة
عمر
عمران
عمراني
عمرها
عمرو
عمق
عمل
عملات
عملاق
عملة
عملي
عمليا
عمليات
عملية
عمو
عمود
عمودي
عمور
عموري
عموما
عمومي
عمومية
عمى
عميد
عميرة
عميق
عميقة
عن
عناصر
عنتي
عند
عندا
عندك
عندما
عندنا
عندها
عندهاش
عندهم
عندهوم
عندو
عندوش
عندي
عنصر
عنه
عنوان
عنوانها
عنوانو
عنيف
عهد
عو
عواد
عواصم
عواطف
عوام
عوامل
عوب
عوتاني
عود
عودة
عودية
عوض
عولاما
عولوم
عومار
عومان
عوملة
عومومي
عويطة
عوينة
عي
عياد
عياض
عيالات
عيان
عيانة
عيب
عيبارة
عيد
عيسى
عيش
عيشة
عيطة
عيطلو
عيلم
عيلمي
عيلمية
عين
عينها
عينو
عينيه
عيوش
عيون
عيين
غ
غا
غابات
غابة
غابرة
غات
غاتكون
غاتولي
غادة
غادي
غادية
غادين
غاديين
غار
غاراض
غاز
غازي
غالب
غالبا
غالبية
غالط
غالطة
غالي
غاليبا
غالڤاني
غامبول
غانا
غاندي
غاني
غايخلي
غايشد
غايكون
غبر
غتيال
غدامس
غراض
غرامة
غرب
غربية
غرق
غرناطة
غروب
غريب
غريبة
غريق
غزة
غساق
غسطس
غشت
غضب
غضبان
غط
غفران
غفلة
غل
غلاط
غلاف
غلاق
غلب
غلبات
غلبهم
غلبو
غلبية
غلبيتها
غلبيتهم
غلط
غلى
غمات
غمارة
غمامة
غن
غنا
غنات
غناي
غنى
غنيات
غنية
غي
غياب
غيثة
غير
غيرة
غيرها
غيرهم
غيرهوم
غيطيشة
غينيا
غيير
ـ
ف
فا
فاا
فابور
فات
فاتت
فاتن
فاراداي
فارس
فارقة
فاروق
فاز
فاس
فاسيكي
فاش
فاص
فاصل
فاصو
فاصيل
فاضل
فاضمة
فاطمة
فاطنة
فاعل
فاعلات
فاق
فاكاطاني
فاكونضو
فال
فالا
فالاتحاد
فالبحر
فالبلاد
فالتاريخ
فالترتيب
فالتعريف
فالتقافة
فالتلفازة
فالتيران
فالجاپون
فالجبال
فالجبل
فالجنوب
فالحرب
فالداخل
فالدار
فالدارجة
فالداريجة
فالدزاير
فالدم
فالدماغ
فالدورة
فالدوري
فالدين
فالرباط
فالربيع
فالرياضة
فالريف
فالسبعينات
فالسما
فالسيت
فالسيستيم
فالشتا
فالشرق
فالشمال
فالشهر
فالشورط
فالصباح
فالصحرا
فالصيف
فالضهر
فالضومين
فالطاليان
فالطول
فالعالم
فالعام
فالعصر
فالغرب
فالقرن
فاللافان
فاللخر
فاللعب
فاللوغات
فاللوغة
فاللول
فالليل
فالمجلس
فالمغرب
فالمغريب
فالمنطقة
فالنص
فالنهار
فالنواحي
فالنوسخة
فالنيجر
فالنݣليز
فالوسط
فالوقت
فالون
فاميلات
فاميلة
فاميلتها
فاميلتو
فان
فانݣاري
فانݣانوي
فاي
فايت
فايتة
فايدة
فايلكوين
فباريز
فبحر
فبراير
فبرنامج
فبز
فبزاف
فبعض
فبلاد
فبلاصة
فبلايص
فبني
فبوطولا
فة
فت
فتاريخ
فتاريفيت
فتاسيويت
فتاغماريت
فتاقبايليت
فتح
فتحات
فتحي
فترات
فترة
فترتيب
فتماشق
فتو
فتونس
فتوى
فتيجاه
فتيران
فج
فجامعة
فجبال
فجبل
فجر
فجماعة
فجنوب
فجهة
فجوايه
فجوج
فجيهة
فحال
فحالة
فحة
فحرب
فحل
فحياتو
فخ
فخطر
فخطوط
فدار
فدارلبيضا
فداك
فدرب
فدزاير
فدوار
فدور
فديك
فر
فراد
فراش
فراقي
فران
فرانثيسكو
فرانس
فرانسا
فرانساوي
فرانساوية
فرانساويين
فرانسيس
فرانسيسكو
فرانصا
فرانصاوية
فرانك
فرانكار
فرانكفورت
فرانكلين
فرانكو
فراه
فرايلي
فرباط
فرتيتات
فرتيتة
فرج
فرح
فرحان
فرد
فردي
فردية
فرس
فرسان
فرصة
فرضات
فرضيات
فرضية
فرع
فرعون
فرق
فرقة
فرقتو
فركوس
فرناندو
فرنسا
فرنسي
فرنسية
فروا
فروع
فرونس
فرونسوا
فرويوراسيا
فري
فريد
فريدا
فريدة
فريدريش
فريق
فريقي
فريقيا
فريقية
فريك
فريكا
فزمانو
فزواطة
فزوان
فس
فستة
فسلا
فسنة
فسوس
فسويسرا
فسيت
فسيدي
فسيفسا
فش
فشتنبر
فشحال
فشرق
فشكل
فشل
فشلات
فشمال
فشهر
فشي
فصاموا
فصل
فصول
فصيف
فض
فضاء
فضالة
فضاي
فضل
فضية
فضيحة
فضيلة
فطنجة
فع
فعال
فعام
فعاي
فعايل
فعدد
فعصبة
فعل
فعلا
فعلة
فعلي
فعمر
فعمرها
فعمرو
فعهد
فعوض
فغانستان
فغرب
فـ
ففاس
ففرانسا
ففيلم
فق
فقد
فقدات
فقر
فقرة
فقط
فقناة
فقها
فقي
فقيرة
فقيسم
فقيه
فك
فكار
فكارو
فكازا
فكاس
فكتاب
فكتابو
فكر
فكرة
فكري
فكل
فكلية
فكول
فكووورة
فكير
فل
فلا
فلاح
فلاحية
فلاسفة
فلاش
فلاطون
فلاكي
فلام
فلامها
فلان
فلبحر
فلبدية
فلبلاد
فلبلاصة
فلبلايص
فلبلدان
فلبوطولا
فلبوطولات
فلبوطولة
فلجامعة
فلجانوب
فلجدوال
فلجزيرة
فلجنوب
فلجو
فلجيهة
فلحالة
فلحبس
فلحدود
فلحرب
فلحساب
فلحسيمة
فلحقيقة
فلحوكومة
فلحيزب
فلخارج
فلخاريج
فلخر
فلخمسينات
فلداخل
فلز
فلسافي
فلسافية
فلسطين
فلسفة
فلسفي
فلسفية
فلعاصيمة
فلعالام
فلعالم
فلعام
فلعدوة
فلعرض
فلعشية
فلعهد
فلغالب
فلغرب
فلغلاف
فلفترة
فلفرقة
فلقانون
فلقرن
فلقصارة
فلقناة
فلقواعد
فلقيسم
فلكلمات
فلكمام
فلكورة
فلكية
فللول
فلماضي
فلماط
فلماطش
فلمجال
فلمجموع
فلمجموعة
فلمحيط
فلمدارس
فلمدون
فلمدينة
فلمغريب
فلمملكة
فلمنافسات
فلمنطقة
فلموسم
فلمية
فلميريكان
فلميطشان
فلمينطاقة
فلوريدا
فلوس
فلوسط
فلوسو
فلوغات
فلوقت
فلوقيتة
فلول
فلوو
فلويلاية
فليبيا
فلية
فليتيجاهات
فليمينݣ
فليوم
فلݣزيرة
فم
فما
فمارس
فماطش
فمالي
فمجال
فمدون
فمدينة
فمدينت
فمراكش
فمسابقة
فمسلسل
فمصر
فمكناس
فمنطقة
فمو
فموركاب
فموريطانيا
فموسم
فموقع
فميريكان
فميكرونيزيا
فن
فنان
فنانة
فنانين
فندق
فنص
فنفس
فنهار
فنواحي
فنون
فني
فنية
فنيوزيلاندا
فها
فهاد
فهادشي
فهاذ
فهم
فهو
فهولاندا
فهوم
فهي
فهيد
فو
فواحة
فواحد
فوجي
فوده
فور
فوربس
فورمة
فوزي
فوس
فوستر
فوسط
فوق
فوقاش
فوقت
فوقيتة
فوكاييري
فول
فولاية
فولز
فون
فونصو
فويكيپيديا
فى
في
فيبوناتشي
فيدجي
فيدرالية
فيديرالي
فيديرالية
فيديرير
فيديو
فيردينو
فيرناندو
فيروس
فيزيكي
فيزيكية
فيس
فيساع
فيسبوك
فيشي
فيصل
فيضان
فيعل
فيعلي
فيفا
فيك
فيكرة
فيل
فيلاطوڤا
فيلال
فيلدس
فيلسوف
فيلم
فيليسطين
فيليكس
فيليپ
فيليپين
فيما
فيمطوميتر
فين
فينال
فينلاندا
فينو
فيني
فينية
فيه
فيها
فيهاش
فيهم
فيهوم
فيودور
فيول
فيونيو
فيݣيݣ
فپيلانتي
فݣاع
فݣزاير
ق
قا
قابل
قابلة
قات
قاد
قادر
قادرة
قادرين
قادها
قارا
قارة
قاري
قاريين
قاس
قاسح
قاسحة
قاسم
قاسمي
قاسها
قاصحة
قاضي
قاع
قاعات
قاعة
قاعدة
قاف
قافات
قافة
قافي
قافية
قال
قالت
قالو
قاليد
قاليم
قامات
قامة
قامت
قاموس
قانون
قانوني
قانونيا
قانونية
قاي
قايد
قب
قبال
قبالة
قبالت
قباي
قبايل
قبة
قبرص
قبل
قبلات
قبلي
قبول
قبيلة
قة
قت
قتارح
قتارحو
قتصاد
قتصادي
قتصادية
قتل
قتلو
قتلوه
قتيراح
قتيراحات
قتيراع
قتيصاد
قتيصادي
قتيصادية
قد
قدام
قدر
قدرات
قدرة
قدرو
قدم
قدور
قديس
قديم
قديمة
قر
قرا
قراءة
قراب
قرات
قرار
قرارات
قراو
قرايتها
قرايتو
قرب
قربات
قربان
قرة
قرد
قرر
قررات
قررو
قرشيقة
قرطاج
قرطبة
قرعة
قرن
قرون
قروي
قروية
قريب
قريبا
قريبة
قرية
قريش
قريميا
قس
قسام
قسم
قسنطينة
قسيم
قشتالة
قشلة
قص
قصاء
قصابني
قصار
قصاي
قصايد
قصب
قصبة
قصة
قصد
قصر
قصص
قصصية
قصى
قصيدة
قصير
قصيرة
قضاو
قضاي
قضايا
قضية
قط
قطاب
قطار
قطاع
قطة
قطر
قطع
قطعو
قفات
قل
قلاب
قلال
قلب
قلبي
قلبية
قلة
قلعة
قليات
قلية
قليدي
قليدية
قليل
قليلة
قليم
قليمي
قليمية
قمار
قمة
قمع
قناة
قنت
قنديلة
قنطار
قنطرة
قنوات
قنية
قنيطرة
قو
قوات
قواس
قواعد
قوانين
قوة
قوس
قول
قوم
قومي
قوى
قوي
قوية
قويم
قويمات
قي
قياد
قيادة
قياسي
قياسية
قية
قيس
قيسارية
قيسم
قيشات
قيصاص
قيصر
قيقة
قيمة
قيمتها
قيمتو
قين
ك
كا
كاء
كاب
كابو
كابول
كابيسا
كات
كاتا
كاتاخد
كاتب
كاتبان
كاتبة
كاتبد
كاتبدا
كاتبدل
كاتبغي
كاتبقا
كاتبقى
كاتبي
كاتبين
كاتجمع
كاتجي
كاتجيب
كاتجيهم
كاتحاول
كاتحبس
كاتحدد
كاتحر
كاتحرك
كاتحسب
كاتحط
كاتحكم
كاتحول
كاتختالف
كاتخد
كاتخدم
كاتخرج
كاتخل
كاتخلي
كاتد
كاتدار
كاتدافع
كاتدخل
كاتدرس
كاتدور
كاتدوز
كاتدوي
كاتدي
كاتدير
كاتربح
كاتربط
كاترجع
كاتركز
كاترينا
كاتزاد
كاتزيد
كاتسالي
كاتساهم
كاتساوي
كاتستعمل
كاتسم
كاتسما
كاتسمح
كاتسمى
كاتسي
كاتسيطر
كاتشارك
كاتشاف
كاتشبه
كاتشد
كاتشكل
كاتشمل
كاتشير
كاتصاوب
كاتصاوبهوم
كاتصدر
كاتضبط
كاتضمن
كاتطرا
كاتطلع
كاتطيح
كاتعاني
كاتعاود
كاتعاون
كاتعتابر
كاتعتارف
كاتعتامد
كاتعرف
كاتعطا
كاتعطى
كاتعطي
كاتعطينا
كاتعطيها
كاتعلق
كاتعني
كاتعيش
كاتغبر
كاتغرب
كاتغن
كاتغني
كاتفر
كاتفرض
كاتفوت
كاتقدر
كاتقر
كاتقرا
كاتقسم
كاتقص
كاتقصر
كاتقول
كاتقيس
كاتكتب
كاتكو
كاتكون
كاتكونيكطي
كاتلعب
كاتماركي
كاتمت
كاتمتل
كاتمشي
كاتميز
كاتناقش
كاتنتاشر
كاتنتامي
كاتنتج
كاتنض
كاتنطق
كاتنقص
كاتهبط
كاتهتم
كاتهز
كاتهضر
كاتوصف
كاتوصل
كاتوقع
كاتول
كاتولي
كاتيب
كاتيبة
كاتڭول
كاتݣال
كاتݣول
كاثرين
كاد
كادر
كادوز
كادير
كاديمي
كاديمية
كاديميين
كار
كاراكالا
كارتر
كارتون
كاردانو
كارطا
كارطة
كارفر
كارل
كارلو
كارلوس
كارو
كارول
كارولينا
كاري
كاريير
كاز
كازا
كازابلانكا
كازاخستان
كاس
كاسيان
كاسيوس
كاش
كاط
كاطل
كاطلع
كاطيح
كاع
كافر
كافي
كافية
كاكوباو
كال
كالي
كاليفورنيا
كاليݣولا
كاماتشو
كامبريدج
كامبودج
كامل
كاملة
كاملها
كاملو
كاملين
كاميرا
كاميرون
كامپ
كامپيستريس
كان
كانادا
كانادي
كانبيرا
كانت
كانتش
كانجي
كانديناڤيين
كانساس
كانش
كانط
كانطربوري
كانعرفو
كانعرفوها
كانلقاو
كانلقاوه
كانهضرو
كانو
كانوا
كانوش
كانون
كاني
كانير
كانݣولو
كاهلو
كاولونيا
كاي
كايا
كاياخد
كاياخدو
كايبان
كايبانو
كايبدا
كايبداو
كايبغيو
كايبقا
كايبقى
كايبين
كايبينو
كايت
كايتبدل
كايتبعو
كايتجمعو
كايتحسب
كايتحط
كايتحطو
كايتخدم
كايتخدمو
كايتدار
كايتدارو
كايتزاد
كايتزادو
كايتستاعملو
كايتستعمل
كايتسم
كايتسما
كايتسماو
كايتسمى
كايتشاف
كايتصاوبو
كايتعاقب
كايتعامل
كايتعاود
كايتعتابر
كايتعتابرو
كايتعطى
كايتقسم
كايتكتبو
كايتكون
كايتميز
كايتهضر
كايتݣال
كايجمع
كايجمعهوم
كايجي
كايجيب
كايجيو
كايحبسو
كايحدد
كايحددو
كايحس
كايحي
كايختالف
كايختالفو
كايخد
كايخدم
كايخدمو
كايخرج
كايخل
كايخلي
كايد
كايدار
كايدخل
كايدخلو
كايدور
كايدوز
كايدوزو
كايدوي
كايدويو
كايدي
كايدير
كايديرها
كايديرو
كايديروه
كايربح
كايرجع
كايزيد
كايسالي
كايساليو
كايستعملو
كايسكن
كايسكنو
كايسم
كايشبه
كايشد
كايشكل
كايشكلو
كايشوف
كايشوفو
كايشير
كايصب
كايضمن
كايضوي
كايطرا
كايطراو
كايطل
كايطلعو
كايطيح
كايعاود
كايعاون
كايعاونو
كايعتابرو
كايعتابروها
كايعتامد
كايعرف
كايعرفوش
كايعطي
كايعكس
كايعني
كايعيش
كايعيشو
كايغلب
كايفرض
كايفسر
كايقد
كايقدر
كايقدرو
كايقدم
كايقراو
كايقص
كايقصرو
كايقول
كايقولو
كايكتب
كايكمل
كايكون
كايكونو
كايلبسو
كايلعب
كايلعبو
كايلعبوها
كايلوح
كايمتل
كايمدن
كايمشي
كايمشيو
كايمي
كاين
كاينا
كاينة
كاينتامي
كاينتاميو
كاينتجو
كاينش
كاينين
كايهدرو
كايهز
كايهضر
كايهضرو
كايوري
كايوصف
كايوصل
كايوق
كايوقف
كايول
كايولي
كايپر
كايݣول
كايݣولو
كاپ
كاپتن
كاڤنديش
كب
كبار
كبر
كبرات
كبرو
كبور
كبير
كبيرة
كة
كت
كتا
كتاب
كتابات
كتابة
كتابو
كتاتبي
كتار
كتاشف
كتاشفات
كتاشفو
كتافة
كتامة
كتب
كتبات
كتبان
كتبدا
كتبها
كتبو
كتبين
كتجمع
كتحاول
كتحرك
كتخدم
كتخرج
كتخلي
كتدوز
كتر
كترجع
كتركز
كترية
كتساوي
كتستعمل
كتسما
كتسمى
كتشاف
كتشبه
كتشمل
كتشير
كتضم
كتطرا
كتطلع
كتطلق
كتعتابر
كتعرف
كتعطي
كتعني
كتعيش
كتقدر
كتقرا
كتكون
كتلة
كتلعب
كتمتل
كتمي
كتنتامي
كتنتج
كتنطق
كتوبا
كتوبة
كتوبر
كتوصل
كتوقع
كتي
كتير
كتيرة
كتيرشي
كتيشاف
كتينيدات
كثر
كثرية
كثيرة
كحل
كحلة
كد
كدات
كدو
كدوز
كدية
كدير
كذلك
كر
كرا
كراكوڤ
كراني
كرانيا
كرانية
كرانيين
كرايستشورتش
كرة
كرتون
كرسي
كرمان
كرمة
كرواتيا
كروب
كروز
كروص
كروموزوم
كريت
كريس
كريستيان
كريستيانو
كريستين
كريسطوف
كريسطوفر
كريم
كريمة
كريپطة
كريپطوصولدي
كريپطوعملة
كس
كسدات
كسدة
كسفورد
كسكسو
كسيد
كسيدا
كسيدة
كش
كشف
كشفو
كصي
كطاڤيوس
كف
كل
كلا
كلاب
كلات
كلاخ
كلاسيك
كلاسيكي
كلام
كلاوديوس
كلب
كلة
كلتوم
كلشي
كلم
كلما
كلمات
كلمة
كلمت
كلميم
كلها
كلهم
كلو
كلوب
كلوغة
كليان
كلية
كليم
كليمون
كلينطون
كليوپاطرا
كليپ
كليڤ
كليڤلاند
كلڭ
كم
كما
كمال
كمل
كملات
كمية
كن
كنا
كناش
كنة
كنت
كنتلاقاو
كندا
كندر
كنرمزو
كنز
كنزة
كنعرفو
كنلقاو
كنى
كنية
كنيتها
كنيسة
كهربية
كو
كواركات
كواري
كواط
كواكب
كوان
كوايري
كوايرية
كوبا
كوبريك
كود
كودانشا
كور
كوربن
كورة
كورتيس
كورنوال
كورنيش
كورنيليوس
كورونا
كوري
كوريا
كوريپوس
كوزينة
كوسطاريكا
كوسوڤو
كوصري
كوصمان
كوصوڤو
كوض
كوط
كوفيد
كوك
كوكا
كوكب
كول
كولا
كولان
كولشي
كولما
كولها
كولهوم
كولو
كولورادو
كولومبوس
كولومبيا
كولونيا
كولونيل
كولي
كوم
كوماندان
كومكس
كومو
كومودوس
كوميدي
كوميديا
كوميدية
كوميك
كوميكس
كومپانس
كون
كونان
كونسيسلوس
كونصيپط
كونطاكط
كونطرا
كونطرة
كونو
كوني
كونيكتيكاط
كونݣ
كووورة
كويتوس
كوين
كوينبييز
كوينتوس
كوينز
كوينزلاند
كوينيي
كوپنهاݣن
كوڤ
كوڤيد
كي
كيا
كياخد
كيبان
كيبانو
كيبدا
كيبداو
كيبعد
كيبغي
كيبقا
كيبي
كيبيك
كيبين
كيبينو
كية
كيت
كيتا
كيتب
كيتباع
كيتبدل
كيتجاوز
كيتجمعو
كيتخد
كيتخدم
كيتدار
كيترمز
كيتزاد
كيتزادو
كيتس
كيتستعمل
كيتستعملو
كيتسم
كيتسما
كيتسماو
كيتسمى
كيتشاركو
كيتعتابر
كيتعتبر
كيتعل
كيتعلق
كيتقسمو
كيتكون
كيتلاقاو
كيتلقا
كيتم
كيتڭال
كيتݣال
كيجبد
كيجمع
كيجي
كيجيو
كيحاول
كيحاولو
كيحتاج
كيحدد
كيحساب
كيحط
كيختالف
كيخد
كيخدم
كيخدمو
كيخرج
كيخص
كيخل
كيخلق
كيخلي
كيد
كيدار
كيدافع
كيدخلو
كيدرس
كيدرسو
كيدل
كيدلو
كيدور
كيدورو
كيدوز
كيدوزو
كيدوي
كيدويو
كيدي
كيدير
كيديرو
كيرا
كيران
كيربح
كيرجع
كيرجعو
كيرسم
كيرسيت
كيريباتي
كيرينسكي
كيرݣيستان
كيزيد
كيسالي
كيسان
كيساوي
كيسبب
كيستعمل
كيستعملو
كيستقبل
كيسم
كيسميوه
كيسميوها
كيشبه
كيشك
كيشكلو
كيشمل
كيشوفو
كيشير
كيشيرو
كيصدر
كيضمن
كيطا
كيطرا
كيطراو
كيطلع
كيطيح
كيعاني
كيعاود
كيعاودو
كيعتابر
كيعتابرو
كيعتاقدو
كيعتامد
كيعرف
كيعرفو
كيعطي
كيعطيو
كيعني
كيعيش
كيعيشو
كيغني
كيف
كيفاش
كيفصل
كيفك
كيفما
كيفوت
كيقدر
كيقدرو
كيقرا
كيقري
كيقول
كيقولو
كيكتب
كيكون
كيكونو
كيكيرو
كيل
كيلبس
كيلزير
كيلعب
كيلعبو
كيلعبوها
كيلو
كيلومتر
كيلوميتر
كيلوميطر
كيلوݣرام
كيلي
كيلڤين
كيم
كيما
كيمارس
كيمارسو
كيماوي
كيماوية
كيمت
كيمتل
كيمتلو
كيمشي
كيمشيو
كيمنع
كين
كينتاشر
كينتاقدو
كينتاقل
كينتاكي
كينتامي
كينتاميو
كينتج
كينحادرو
كينيا
كينيدي
كينݣ
كيهتم
كيهدر
كيهدرو
كيهز
كيهضر
كيهضرو
كيهضروها
كيوافق
كيوجين
كيوصف
كيوصل
كيوطو
كيوقع
كيوقعو
كيول
كيولي
كييڤ
كيپروتو
كيڭول
كيݣول
كيݣولو
ل
لا
لاا
لاباز
لاباس
لاباما
لابد
لابس
لابسة
لات
لاتة
لاتحاد
لاتليتيزم
لاتيني
لاتينية
لاتڤيا
لاجي
لاح
لاحض
لاحقاش
لاخر
لاخرا
لاخرة
لاخرى
لاخرين
لاخور
لاربع
لاربعا
لارتيكل
لارجونتين
لارض
لارمي
لاري
لارݣيط
لاس
لاستعمار
لاستقلال
لاسكا
لاش
لاصل
لاعب
لاعبة
لاعبين
لاعداد
لاعي
لاف
لافاك
لافان
لاكوط
لالبوم
لالة
لالمانية
لاليمان
لام
لامازيغية
لامة
لامركزية
لامين
لامپيك
لان
لانا
لانترنيت
لانتريس
لانتيرنيت
لانفورماتيك
لانكا
لانكوباتور
لانݣليت
لاهوز
لاو
لاواكي
لاووص
لاي
لايت
لايد
لايدن
لاين
لاڤوازيي
لب
لباب
لبابا
لباحت
لباحتين
لباحث
لباحيتين
لبار
لباردة
لبارصا
لباركود
لباز
لباس
لباسكيط
لباسيليكا
لباشا
لباشار
لباطري
لباطو
لباطوات
لباقي
لباك
لباكالوريا
لباكتيري
لباكتيريات
لباكتيرية
لبال
لبالون
لبالية
لبانضات
لبانطو
لبانكات
لبانكة
لبانيا
لبانية
لباهاماس
لباهية
لبة
لبت
لبتيداي
لبث
لبح
لبحارة
لبحت
لبحث
لبحر
لبحراوي
لبحري
لبحرية
لبحرين
لبحور
لبحورا
لبحيرة
لبخاري
لبدان
لبداي
لبداية
لبدو
لبديانية
لبدية
لبر
لبرازيل
لبراكين
لبرامج
لبراني
لبرانية
لبرانيين
لبرت
لبرتغال
لبرتغالي
لبرتغالية
لبرتغاليين
لبرخت
لبرد
لبرطقيز
لبرطقيزي
لبرطقيزية
لبركة
لبرلامان
لبرلمان
لبرلمانية
لبرماجة
لبرمجة
لبرنامج
لبرنوصي
لبروتينات
لبروج
لبرونزية
لبروڤ
لبرية
لبريزيل
لبريطاني
لبريطانيا
لبريطانية
لبريطانيين
لبز
لبزاز
لبزاف
لبزطام
لبسة
لبسطاوي
لبسطيلة
لبشتير
لبشر
لبشرة
لبشري
لبشرية
لبشير
لبصري
لبصير
لبطالة
لبطل
لبطلة
لبطولا
لبطولات
لبطولة
لبعث
لبعد
لبعض
لبعودية
لبعيد
لبعيدة
لبقالي
لبقايا
لبكاي
لبكري
لبلاد
لبلادو
لبلاصا
لبلاصة
لبلاغة
لبلان
لبلايص
لبلدان
لبلدي
لبلديات
لبلدية
لبلطيق
لبلقان
لبلوك
لبلوكات
لبلوكتشيين
لبنات
لبنادم
لبنان
لبنانية
لبنت
لبنك
لبنكة
لبنى
لبني
لبنيات
لبنية
لبهايم
لبهجة
لبو
لبوت
لبوتات
لبودية
لبوسطة
لبوشتي
لبوصنة
لبوطولا
لبوطولات
لبوطولة
لبوكس
لبوكيرك
لبولشوڤية
لبولشيڤيين
لبوليس
لبوم
لبومات
لبونيقي
لبونيقية
لبويض
لبي
لبيار
لبيان
لبيبان
لبيت
لبيتكوين
لبير
لبيرط
لبيرو
لبيزانطيين
لبيزنطية
لبيسلاما
لبيض
لبيضا
لبيضاوي
لبيضة
لبيضين
لبيع
لبيعتة
لبيليروبين
لبيوتا
لبيوتة
لبيولوجي
لبيولوجيا
لبيولوجية
لبيي
لبيݣ
لبݣر
لبݣري
لة
لت
لتا
لتاحق
لتحت
لتحتاني
لتلاتة
لتم
لتما
لتها
لتو
لتيحاد
لجابدية
لجابري
لجادبية
لجازاي
لجامعات
لجامعة
لجامعي
لجامعية
لجاميعات
لجاميعة
لجاميعي
لجاميعية
لجانوب
لجانوبي
لجانوبية
لجاي
لجايزة
لجبار
لجبر
لجبهة
لجتة
لجتماعية
لجتيماعي
لجتيماعية
لجدوال
لجدول
لجديد
لجذابة
لجر
لجراري
لجراي
لجرمانية
لجريدة
لجريمة
لجزء
لجزاي
لجزاير
لجزر
لجزيرة
لجزيي
لجسم
لجغرافي
لجغرافيا
لجغرافية
لجفاف
لجماعات
لجماعة
لجماعية
لجمال
لجمالية
لجماهير
لجمع
لجمعيات
لجمعية
لجملة
لجمهور
لجمهوري
لجمهوريات
لجمهورية
لجميع
لجميلة
لجنة
لجندر
لجندرية
لجنرال
لجنس
لجنسي
لجنسية
لجنوب
لجنوبي
لجنوبية
لجهاد
لجهاز
لجهة
لجهوية
لجو
لجوء
لجواي
لجوايز
لجوج
لجودة
لجوق
لجوهر
لجوي
لجوية
لجيش
لجيل
لجين
لجينات
لجينسية
لجيني
لجينية
لجينيراتور
لجينيرال
لجيهات
لجيهاوية
لجيهة
لح
لحاج
لحاجات
لحاجب
لحاجة
لحاد
لحادات
لحاديت
لحاديتة
لحاراكة
لحارس
لحاسان
لحاضر
لحافة
لحاكم
لحال
لحالات
لحالة
لحالي
لحالية
لحاملة
لحامونية
لحان
لحب
لحباسات
لحبس
لحبوب
لحبيب
لحبيس
لحتيجاجات
لحتيرافية
لحتيفال
لحتيلال
لحتيمال
لحج
لحجايات
لحجر
لحجرة
لحجري
لحجرية
لحجم
لحجوجي
لحد
لحدود
لحديتة
لحديد
لحديدية
لحر
لحرارة
لحراري
لحراك
لحرايفيا
لحرايفية
لحرب
لحرة
لحرف
لحرفة
لحرقة
لحركات
لحركة
لحروب
لحروف
لحرية
لحرير
لحريرة
لحزاب
لحزام
لحزب
لحس
لحساب
لحسابات
لحسانية
لحسايني
لحسن
لحسنية
لحسيمة
لحسين
لحصار
لحصن
لحضارات
لحضارة
لحضري
لحضرية
لحضريوي
لحضور
لحضية
لحظة
لحفريات
لحفلات
لحفلة
لحفير
لحق
لحقاش
لحقل
لحقوق
لحقيقة
لحقيقي
لحقيقية
لحك
لحكام
لحكامة
لحكاية
لحكم
لحكمة
لحكومة
لحكيم
لحل
لحلافي
لحلاقي
لحلف
لحلقات
لحلقة
لحلم
لحلو
لحليب
لحم
لحمار
لحمام
لحماية
لحمر
لحمرا
لحمرين
لحمض
لحملات
لحملة
لحمورية
لحن
لحوار
لحوانت
لحوايج
لحوت
لحوريات
لحوز
لحوض
لحوكم
لحوكومات
لحوكومة
لحوكومية
لحولافا
لحومة
لحي
لحياة
لحية
لحيداد
لحيزب
لحيط
لحيماية
لحيوان
لحيوانات
لحيوط
لحݣرة
لخ
لخارج
لخارجية
لخاريج
لخاريجية
لخاريطة
لخاسر
لخاص
لخاصة
لخاصيات
لخاصية
لخالق
لخام
لخامس
لخامسة
لخاميس
لخايب
لخايبة
لخب
لخبار
لخبز
لختيار
لختيراع
لختيلافات
لخد
لخدامة
لخدامي
لخدايمي
لخدايميا
لخدايمية
لخدمات
لخدمة
لخر
لخرا
لخراني
لخراي
لخرايط
لخرة
لخرجاني
لخروج
لخريطة
لخريف
لخرين
لخزين
لخزينة
لخسارة
لخشب
لخصاي
لخصوبة
لخصوص
لخصوصية
لخضر
لخضرا
لخضرة
لخط
لخطاب
لخطابي
لخطر
لخطوط
لخلا
لخلاص
لخلافة
لخلايا
لخلايق
لخلعة
لخلوي
لخلية
لخليج
لخليفة
لخمسة
لخمسينات
لخميس
لخميسات
لخنافري
لخنوس
لخنيفري
لخو
لخوا
لخواتات
لخوت
لخوري
لخوصصة
لخوضر
لخوف
لخولافا
لخيال
لخيالي
لخير
لد
لدابا
لداخل
لدار
لدرجة
لدول
لدولة
لدى
لديك
لديين
لرباط
لرتيفاع
لرض
لري
لس
لسان
لستيعمار
لستيعمال
لستيغلال
لستيقلال
لسلة
لسنة
لش
لشبونة
لشتيراكي
لشركة
لشي
لشݣر
لصالح
لطات
لطان
لطاي
لطاڤا
لطة
لطفي
لطيفة
لع
لعاب
لعابا
لعابة
لعابدين
لعاجي
لعادات
لعاداد
لعادة
لعادي
لعادية
لعاديين
لعارضة
لعاشر
لعاشرة
لعاصمة
لعاصيمة
لعاطلين
لعافية
لعالام
لعالامي
لعالامية
لعالم
لعالمي
لعالمية
لعالي
لعالية
لعاليم
لعاليين
لعام
لعامال
لعامة
لعاود
لعاي
لعايبية
لعب
لعبات
لعبادة
لعبار
لعبارات
لعباسية
لعباسيين
لعبة
لعبد
لعبرات
لعبرة
لعبرية
لعبو
لعبودية
لعبيد
لعة
لعتماني
لعتمانية
لعتمانيين
لعتيراف
لعتيقاد
لعتيماد
لعثمانية
لعجب
لعداد
لعدالة
لعدد
لعدراوي
لعدل
لعدو
لعدوة
لعراسات
لعراق
لعراقي
لعرايش
لعرب
لعربي
لعربية
لعرج
لعرش
لعرصي
لعرض
لعرفية
لعرق
لعروبية
لعروسي
لعروش
لعروض
لعروي
لعريف
لعرݣوب
لعزري
لعساكريا
لعسكاري
لعسكارية
لعسكر
لعسكري
لعسكرية
لعشبة
لعشرة
لعشري
لعشرين
لعشرينات
لعشواي
لعشوب
لعشية
لعصابات
لعصبة
لعصر
لعصري
لعصرية
لعصور
لعضام
لعضلات
لعضم
لعضمة
لعضو
لعضوما
لعضوية
لعضيمة
لعطاشات
لعطرية
لعقاد
لعقد
لعقدة
لعقل
لعقلية
لعقوبات
لعقوبة
لعقود
لعكس
لعلاقات
لعلاقة
لعلالي
لعلامات
لعلامي
لعلج
لعلم
لعلماء
لعلمانية
لعلمي
لعلمية
لعلو
لعلوة
لعلوم
لعلوي
لعلوية
لعلويين
لعليا
لعم
لعمارة
لعمال
لعمالات
لعمالة
لعمالقة
لعمر
لعمراني
لعمق
لعمل
لعملات
لعملاق
لعملة
لعمليات
لعملية
لعمود
لعموم
لعمومي
لعمومية
لعميق
لعناصر
لعناوين
لعند
لعنصر
لعنصرية
لعنف
لعنوان
لعهد
لعواصم
لعوافي
لعوام
لعوامات
لعوامل
لعود
لعولاما
لعولما
لعولوم
لعومان
لعوموم
لعومومية
لعيا
لعياشي
لعيالات
لعيبادة
لعيبارة
لعيد
لعيراق
لعيشة
لعيطة
لعيلم
لعيلمي
لعيلمية
لعين
لعيناوي
لعينين
لعيوط
لعيون
لعݣدات
لغ
لغاء
لغابات
لغابة
لغات
لغاراض
لغاز
لغازات
لغازية
لغال
لغالاط
لغالب
لغالبية
لغالي
لغبارية
لغبرة
لغة
لغتيال
لغتيصاب
لغد
لغرب
لغرباوا
لغربي
لغربيات
لغربية
لغرس
لغرض
لغرق
لغروب
لغريسي
لغزالي
لغزلان
لغزو
لغزواني
لغساق
لغشا
لغشاية
لغضف
لغلاط
لغلاف
لغلط
لغمامة
لغنا
لغناي
لغني
لغنية
لغوي
لغوية
لغيوان
لـ
لف
لفا
لفات
لفاتح
لفارسي
لفارسية
لفارسيين
لفازة
لفاس
لفاسي
لفاسية
لفاشية
لفاضيلي
لفاطميين
لفاعل
لفاكهة
لفاميلات
لفاميلة
لفانطازيا
لفايت
لفباي
لفتاح
لفتح
لفترات
لفترة
لفتوحات
لفتيت
لفتيتاح
لفجر
لفحص
لفخار
لفد
لفراجة
لفراعنة
لفراقي
لفرانسا
لفرانساوي
لفرانساوية
لفرانساويين
لفرانسوية
لفرانسيس
لفرانصاوي
لفرانصاوية
لفرانك
لفرانكاوية
لفرايلي
لفرتيتات
لفرد
لفردي
لفردية
لفرس
لفرصة
لفرضيات
لفرضية
لفرع
لفرعية
لفرق
لفرقة
لفرنساوي
لفرنساوية
لفرنسية
لفرنسيس
لفرنك
لفروع
لفروق
لفرونسي
لفرونصي
لفرونكفونية
لفرونكوفونية
لفريد
لفريق
لفزة
لفساد
لفصحى
لفصل
لفصلي
لفصول
لفصيحة
لفصيلة
لفضا
لفضاء
لفضاي
لفضة
لفضل
لفضية
لفعال
لفعل
لفعلة
لفقر
لفقرة
لفقيه
لفك
لفكر
لفكرة
لفكرية
لفلاحة
لفلاسفة
لفلز
لفلسطينية
لفلسفة
لفلسفي
لفلسفية
لفلك
لفلكي
لفلكية
لفلوس
لفن
لفنا
لفنان
لفنانا
لفنانات
لفنانة
لفنانين
لفنطازيا
لفنون
لفني
لفنية
لفنيدق
لفها
لفهامة
لفهري
لفهم
لفو
لفورمة
لفورمولة
لفوروم
لفوسفاط
لفوصحة
لفوصحى
لفوصفاط
لفوق
لفوقارا
لفوقاني
لفوقانية
لفوقانيين
لفوقبنادم
لفونولوجيا
لفونيتيكية
لفيبرة
لفية
لفيدجيين
لفيديرالية
لفيروس
لفيزيك
لفيزيكية
لفيشيات
لفيعل
لفيفا
لفيقه
لفيكر
لفيكرة
لفيلالي
لفيلسوف
لفيلم
لفيليپين
لفيمينيزم
لفين
لفينال
لفينقيين
لفينومين
لفينونس
لفينيقية
لفينيقيين
لفيول
لفيي
لق
لقا
لقاء
لقاب
لقات
لقادة
لقادر
لقار
لقارات
لقارة
لقاري
لقاسم
لقاصحة
لقاضي
لقاعات
لقاعة
لقاعدة
لقاعيدة
لقاف
لقانون
لقانونية
لقاهرة
لقاو
لقايد
لقايم
لقب
لقباي
لقبايل
لقبايلية
لقبر
لقبل
لقبلتاريخ
لقبور
لقبيلة
لقتصاد
لقتصادية
لقتل
لقتيصاد
لقتيصادي
لقتيصادية
لقتيل
لقتيلة
لقجع
لقد
لقدافي
لقدام
لقدرات
لقدرة
لقدس
لقديس
لقديم
لقديمة
لقرا
لقرار
لقرارات
لقراشل
لقراصنة
لقراية
لقرب
لقرد
لقرص
لقرصنة
لقرطاجية
لقرطاجيين
لقرطاس
لقرعة
لقرن
لقرودا
لقرون
لقروية
لقرويين
لقريب
لقرية
لقسطنطينية
لقسم
لقسيم
لقص
لقصار
لقصارة
لقصايد
لقصبة
لقصة
لقصر
لقصص
لقصف
لقصور
لقصيبة
لقصيدة
لقصير
لقصيرة
لقضاة
لقضاي
لقضايا
لقضيب
لقضية
لقطات
لقطاع
لقطاعات
لقطب
لقطبي
لقطبية
لقطر
لقلال
لقلب
لقلدة
لقلعة
لقلقولة
لقلوية
لقمة
لقمر
لقمع
لقناة
لقناطر
لقنت
لقنصلية
لقنطرة
لقنوات
لقنيتات
لقنيطرة
لقهاوي
لقو
لقوات
لقواس
لقواعد
لقواعيد
لقوانين
لقوة
لقوس
لقوقاز
لقومور
لقومية
لقوى
لقى
لقي
لقياد
لقيادة
لقياس
لقياسي
لقياسية
لقيامة
لقيتي
لقيروان
لقيسم
لقيصاص
لقيصة
لقيصرية
لقيطاع
لقيم
لقيمات
لقيمة
لك
لكاتب
لكاتيب
لكادر
لكار
لكاراطي
لكاربون
لكارطا
لكارطات
لكارطة
لكارو
لكاريبي
لكاريير
لكاس
لكاطاكانا
لكاطوليكية
لكاطيݣوري
لكاف
لكاك
لكالوندريات
لكامل
لكاملة
لكاميرا
لكاميرون
لكاناري
لكانت
لكانجي
لكانيسة
لكاي
لكاين
لكاينات
لكاپتين
لكاپيتان
لكبار
لكبر
لكبرى
لكبور
لكبير
لكبيرة
لكت
لكتاب
لكتابات
لكتابة
لكتاتبي
لكتاتبيا
لكتافة
لكتبا
لكتبة
لكتبية
لكتر
لكتروني
لكترونية
لكتلة
لكتوب
لكتوبا
لكتوبة
لكتير
لكتيشاف
لكتيشافات
لكحل
لكحلة
لكحلين
لكد
لكدية
لكراوي
لكربون
لكرة
لكردية
لكرواتية
لكريزة
لكريم
لكريول
لكريپتون
لكريپطو
لكريپطوصولدي
لكريپطوصولديات
لكريپطوعملات
لكريپطون
لكريپطوݣرافيا
لكست
لكسدات
لكسدة
لكل
لكلاسيكي
لكلاسيكية
لكلاص
لكلاصمة
لكلام
لكلب
لكلمات
لكلمة
لكلوب
لكلوروفيل
لكليان
لكلية
لكم
لكمانجة
لكمية
لكن
لكناري
لكناش
لكنوز
لكنيسة
لكهرمغناطيسية
لكهروسلبية
لكهوف
لكواري
لكواكب
لكواكيب
لكوانطا
لكوايري
لكوايرية
لكود
لكوديم
لكورة
لكوريا
لكورية
لكوزينة
لكوض
لكوكاب
لكوكب
لكول
لكولونيل
لكوليج
لكومنويلت
لكومونويلث
لكوميدي
لكوميديا
لكوميكس
لكون
لكونصير
لكونصيپط
لكونصيپطات
لكونطرات
لكونطرة
لكونطرول
لكونفيديراليات
لكونفيديرالية
لكونكور
لكونݣريس
لكونݣو
لكويت
لكيرݣيزية
لكيسان
لكيطمة
لكيلوݣرام
لكيماوي
لكيماوية
لكيني
لل
للا
للاتحاد
للاقتصاد
للاي
للبرلمان
للبلاد
للبلاصة
للبوطولا
للتا
للتاج
للتراث
للتعادول
للتيحاد
للتيران
للثقافة
للجامعة
للجزر
للجزيرة
للحبس
للحج
للحرب
للحزب
للحفلة
للحكم
للحكومة
للحوكومة
للخسارة
للخميسات
للدار
للدراسات
للدفاع
للدور
للدولة
للرباط
للزجال
للسكان
للسلام
للسلامة
للسياسة
للشاعر
للشباب
للشرق
للشركة
للشمال
للصحافة
للطباعة
للطفل
للعالم
للعبة
للعسكر
للعيالات
للغة
للغرب
للفراقي
للفرع
للفرقة
للفلاحة
للفنان
للقارة
للقرن
للقوات
للقيسم
للكاتب
للكتاب
للكركرات
للكوايري
للماطش
للمحيط
للمدرسة
للمدينة
للمراجع
للمرة
للمرحلة
للمسرح
للمطار
للمطارات
للمغرب
للمغريب
للمقالة
للمقاومة
للمكتب
للملك
للمملكة
للمنتجات
للمنطقة
للمو
للموسيقى
للميريكان
للميطات
للناس
للنسا
للنشر
لله
للهواة
للوغات
للوغة
للول
للولا
للي
للݣول
لم
لما
لماتش
لماتشات
لماج
لماجي
لمادة
لمادي
لمادية
لماذا
لماراطون
لمارستان
لمارشي
لماركة
لماركسية
لمارية
لماريشال
لماسم
لماسيليين
لماشي
لماضي
لماط
لماطش
لماطيرييل
لماطيماتيسيان
لماكلة
لماكينات
لماكينة
لماكيني
لمال
لمالاكي
لمالح
لمالديڤ
لمالطية
لمالكي
لمالية
لماليزية
لماليك
لماليكة
لمان
لماني
لمانيا
لمانية
لمانيرة
لمانيين
لمانݣا
لمانݣات
لمانݣاكا
لماهاطما
لماوري
لماورية
لماي
لمايا
لمبادي
لمباشر
لمباشرة
لمباني
لمبدا
لمبراطورية
لمبيعات
لمتاحدة
لمتال
لمتجددة
لمتحدة
لمتحف
لمتشاف
لمتطر
لمتطوعين
لمتعة
لمتعلقة
لمتغيرات
لمتفرجين
لمتقدمة
لمتلية
لمتليين
لمتوسط
لمتوسطة
لمتوسطية
لمجال
لمجالات
لمجالس
لمجاليس
لمجتمع
لمجتمعات
لمجدوب
لمجر
لمجرات
لمجرة
لمجرد
لمجرور
لمجلات
لمجلة
لمجلس
لمجليس
لمجم
لمجموع
لمجموعات
لمجموعة
لمجهد
لمجهودات
لمجي
لمجية
لمجيد
لمحابسيا
لمحاربة
لمحاكمة
لمحاولات
لمحاولة
لمحايد
لمحتوى
لمحجوب
لمحجوبي
لمحطات
لمحطة
لمحف
لمحكامة
لمحكمة
لمحل
لمحلي
لمحلية
لمحليين
لمحمدي
لمحمدية
لمحور
لمحيط
لمحيطات
لمخ
لمخابرات
لمختار
لمخرج
لمخزن
لمخطط
لمخطوطات
لمخفي
لمخي
لمد
لمدابزات
لمدابزة
لمدارس
لمدافع
لمدافعة
لمدافعين
لمدة
لمدخول
لمدر
لمدراسة
لمدرسة
لمدريب
لمدن
لمدني
لمدنية
لمدهب
لمدون
لمدونا
لمدى
لمدير
لمديرية
لمدينا
لمدينة
لمديورات
لمر
لمرا
لمرابطي
لمرابطية
لمرابطين
لمرات
لمراجع
لمراحل
لمراسي
لمراسيم
لمراقبة
لمراكز
لمراكشي
لمراهقين
لمربع
لمرة
لمرجع
لمرحلة
لمرزوقي
لمرسا
لمرسوم
لمرسى
لمرصا
لمرصد
لمرض
لمرضة
لمرف
لمركز
لمركزي
لمركزية
لمركوب
لمرويات
لمريخ
لمريض
لمريني
لمرينية
لمرينيين
لمزايا
لمزيان
لمزيانة
لمزيانين
لمزيكا
لمس
لمسا
لمسابقات
لمسابقة
لمساحة
لمسار
لمساعدة
لمساعدي
لمسافات
لمسافة
لمسافرين
لمسالية
لمساواة
لمساي
لمسايل
لمسب
لمستاقلة
لمستدامة
لمستشارين
لمستعمارة
لمستعمرات
لمستعمرة
لمستعمرين
لمستقبل
لمستقلة
لمستكشف
لمستكشفين
لمستوطنين
لمستوى
لمستويات
لمسراحي
لمسراحية
لمسرح
لمسرحي
لمسرحيات
لمسرحية
لمسفيوي
لمسلحة
لمسلسال
لمسلسل
لمسلسلات
لمسلمة
لمسلمين
لمسمن
لمسو
لمسي
لمسيح
لمسيحي
لمسيحية
لمسيحيين
لمسيد
لمسيرة
لمش
لمشاركات
لمشاركة
لمشاريع
لمشاع
لمشاكل
لمشاكيل
لمشاهد
لمشرق
لمشروبات
لمشروع
لمشهور
لمشهورة
لمشهورين
لمشوار
لمشور
لمصادر
لمصالح
لمصامدة
لمصاوبة
لمصب
لمصدر
لمصري
لمصرية
لمصريين
لمصطلح
لمصطلحات
لمصمودية
لمصورين
لمصير
لمصيفطة
لمضاهر
لمضل
لمضلع
لمضيق
لمطار
لمطارات
لمطالب
لمطالبة
لمطايفة
لمطباعة
لمطبعات
لمطبعة
لمظاهرات
لمعادلات
لمعادلة
لمعادن
لمعادين
لمعارض
لمعارضة
لمعارضين
لمعارف
لمعارك
لمعاز
لمعاصر
لمعاصرة
لمعالم
لمعاليم
لمعاملة
لمعاناة
لمعاني
لمعاهدة
لمعاودة
لمعاون
لمعاونة
لمعاونين
لمعايير
لمعتقدات
لمعد
لمعدة
لمعدن
لمعراج
لمعراكة
لمعرض
لمعرفة
لمعرفية
لمعركة
لمعروف
لمعروفة
لمعروفين
لمعط
لمعطي
لمعلمين
لمعلومات
لمعلومة
لمعمار
لمعمورة
لمعنى
لمعني
لمعنيين
لمعهد
لمعيار
لمعياري
لمعيارية
لمعيرة
لمعيشة
لمغاربا
لمغاربة
لمغاربي
لمغاربية
لمغارة
لمغاري
لمغامرات
لمغامرة
لمغرب
لمغربي
لمغربية
لمغريب
لمغريبي
لمغريبيات
لمغريبية
لمغلوب
لمغن
لمغناطيسي
لمغني
لمغنيات
لمغنية
لمغنيين
لمفاهمة
لمفاهيم
لمفاوضات
لمفرد
لمفعول
لمفكرين
لمفهوم
لمقابل
لمقاتلة
لمقارنة
لمقاطعات
لمقاطعة
لمقالات
لمقاوم
لمقاومة
لمقبارة
لمقبرة
لمقدار
لمقدس
لمقر
لمقرات
لمقصود
لمقطع
لمكان
لمكانة
لمكتابة
لمكتب
لمكتبة
لمكتوب
لمكتوبات
لمكتوبة
لمكسيك
لمكو
لمكونات
لمكيمل
لمل
لملاح
لملاهية
لملاير
لملاين
لملحامية
لملحة
لملحدين
لملحون
لملك
لملكة
لملكي
لملكية
لملوك
لمليار
لمليحي
لمليك
لمليوحة
لمليون
لممارسات
لممارسة
لممالك
لممتلين
لممتيل
لممتيلة
لممثل
لممثلين
لمملكات
لمملكة
لمناجم
لمناخ
لمنارة
لمناسبات
لمناصب
لمناضلين
لمناطق
لمناطيق
لمناعة
لمنافسات
لمنافسة
لمناهج
لمنبع
لمنتج
لمنتخاب
لمنتخب
لمنتخبات
لمنتزه
لمنتهية
لمنتوجات
لمندوبية
لمنشورات
لمنشورة
لمنصب
لمنصور
لمنصوري
لمنصورية
لمنضامات
لمنضامة
لمنضر
لمنضمات
لمنضمة
لمنضور
لمنطاقة
لمنطق
لمنطقة
لمنظمات
لمنظمة
لمنع
لمنفى
لمنهج
لمنور
لمنݣول
لمهاجرين
لمهاجمة
لمهاجمين
لمهارات
لمهام
لمهد
لمهدن
لمهدي
لمهرجان
لمهرجانات
لمهم
لمهمة
لمهمين
لمهندس
لمهندسين
لمهنديس
لمو
لمواد
لموارد
لمواسم
لمواضيع
لمواطن
لمواطنة
لمواطنين
لموافقة
لمواقع
لمواهب
لموت
لموتى
لموجات
لموجة
لموجودات
لموجي
لموحافيض
لموحد
لموحدية
لموحدين
لموحيط
لمودريب
لمودير
لموديرن
لمور
لمورفين
لموركاب
لموري
لمورية
لموريسكيين
لموريطاني
لموزارابية
لموزع
لموستقبال
لموسم
لموسوعة
لموسيقا
لموسيقى
لموسيقي
لموسيقية
لموشكيل
لموصاد
لموصطلح
لموضع
لموضوع
لموضيل
لموطور
لموعتاقال
لموعجام
لموعد
لموعدال
لموقابيل
لموقارنة
لموقع
لموقف
لمول
لمولاي
لمومن
لموميا
لموناخ
لمونتاخاب
لمونتخاب
لمونضامة
لمونݣولية
لموهبة
لموهيم
لموهيمة
لموڤ
لمي
لميادين
لمية
لميت
لميتال
لميترو
لميتري
لميتريز
لميتشان
لميداليات
لميدالية
لميديا
لميريكان
لميريكاني
لميريكانية
لميريكانيين
لميزان
لميزانية
لميزة
لميساحة
لميسيسيپي
لميصري
لميطات
لميطرو
لميطشان
لميطولوجيا
لميكانيك
لميكروسكوپ
لميكسيك
لميلاد
لميلادي
لميلودي
لميم
لميناء
لمينات
لمينطاقة
لميهاني
لميول
لمپية
لمݣضر
لن
لناس
لنتيخابات
لنتيشار
لنتيقالية
لندن
لنفس
لنهار
لنيف
لنيوزيلاندا
له
لها
لهاد
لهاداف
لهادي
لهام
لهبيل
لهة
لهتيمام
لهجات
لهجة
لهجرة
لهجمات
لهجمة
لهجوم
لهجومات
لهد
لهدرة
لهدف
لهديم
لهرسك
لهرمية
لهزاز
لهضرة
لهم
لهمزة
لهنا
لهند
لهنداسة
لهندسة
لهندوس
لهندوسية
لهندي
لهندية
لهنود
لهنݣارية
لهوا
لهواة
لهواية
لهولاندي
لهولاندية
لهولانديين
لهولوسيني
لهومو
لهوموساپيان
لهوموفوبيا
لهوية
لهيجري
لهيدروجين
لهيراݣانا
لهيكل
لهيكلة
لهيليوم
لهيه
لهيي
لهيپ
لو
لوا
لواح
لواحات
لواحة
لواحد
لواحيد
لواد
لواعر
لواعرة
لواعرين
لوافا
لواقع
لوالا
لوالي
لواليد
لواليدة
لوان
لوبصيرڤاطوار
لوتار
لوتايق
لوتيزم
لوتيقة
لوجع
لوجه
لوجود
لوحات
لوحادات
لوحة
لوحدة
لوحدين
لوحش
لوحيد
لوحيدا
لوحيدة
لوحيدين
لوخرا
لوخرة
لوخرين
لوداد
لوداية
لوديسك
لودڤيك
لوراق
لوربيط
لورد
لورديناتور
لورديناطور
لورديناطورات
لورطوڭراف
لورقة
لورنس
لوروپيين
لورياشي
لورياغلي
لورين
لوزارا
لوزارات
لوزارة
لوزان
لوزاني
لوزن
لوزير
لوزيرة
لوزين
لوزينات
لوس
لوسايطية
لوسط
لوسطاني
لوسطانية
لوسطى
لوسع
لوسي
لوسيا
لوسيل
لوسيوس
لوصف
لوصول
لوصيف
لوصيپ
لوضع
لوضعية
لوط
لوطا
لوطاسيين
لوطريش
لوطني
لوطنية
لوطوروت
لوطوروطات
لوطيل
لوطيلات
لوع
لوعبة
لوعي
لوغات
لوغة
لوغت
لوغتو
لوفاة
لوقات
لوقاية
لوقت
لوقيتا
لوقيتة
لوك
لوكالة
لوكاير
لوكس
لوكسيجين
لوكوس
لوكيلي
لول
لولا
لولاد
لولادة
لولاني
لولايات
لولاية
لولة
لولد
لولي
لولية
لوليد
لوليدات
لولين
لوم
لوموند
لون
لونا
لونجا
لوندريس
لوندون
لونزيم
لونكلي
لونها
لونو
لوني
لونݣاج
لونݣلي
لوه
لوها
لووزارا
لوي
لويب
لويجي
لويداد
لويدان
لويز
لويزارا
لويزارة
لويزيانا
لويس
لويكاند
لويكيپيديين
لويلايات
لويلاية
لوپيپا
لوڤ
لى
لي
ليا
لياس
لياسام
ليالوفي
ليالي
ليام
ليامات
ليامان
لياماني
ليبيا
ليبية
ليبيرالي
ليبيريا
لية
ليتوانيا
ليتيحاد
ليتيفاقية
ليحتيرافية
ليحصاء
ليخطنشطاين
ليد
ليدارة
ليدن
ليدي
ليديا
ليديتور
ليدين
ليرشوندي
ليركام
ليز
ليزا
ليزابيث
ليزابيط
ليزبيانات
ليزوطوپ
ليس
ليسا
ليسار
ليساندرو
ليست
ليستا
ليستة
ليستقلال
ليستيراحة
ليستيعمار
ليستيعمال
ليستيقلال
ليستيواء
ليسر
ليسوع
ليسي
ليسينݣ
ليشارة
ليشتيراكي
ليشعاع
ليصانص
ليصوطو
ليصونس
ليصونص
ليطرو
ليعتيماد
ليغ
ليف
ليفريقي
ليقتيصاد
ليقتيصادي
ليقتيصادية
ليك
ليكتريك
ليكس
ليكسا
ليكساندر
ليكسمبورݣ
ليكسوس
ليكطرون
ليكطروني
ليكطرونية
ليكونومي
ليل
ليلا
ليلة
ليلهامر
ليلى
ليلي
ليليكتروني
ليليكطرون
ليليكطرونات
ليمبراطورية
ليمن
ليمنية
ليموني
لين
لينا
لينتاج
لينتيخابات
ليندا
ليندون
لينساپ
لينقيلاب
لينكولن
لينوكس
لينين
لينينية
لينݣليز
لينݣليزية
ليه
ليها
ليهم
ليهود
ليهودي
ليهودية
ليهوم
ليو
ليوتوب
ليودميلا
ليورانيوم
ليورو
ليوسفي
ليوطي
ليولياني
ليوم
ليوما
ليومي
ليومية
ليون
ليوناردو
ليونان
ليوناني
ليونانية
ليونانيين
ليونسكو
ليونهارت
ليونيسكو
ليونيل
ليويوس
ليپتيس
ليپطون
ليڤر
ليڤو
ليڤي
ليݣ
لپ
لپاج
لپارتية
لپارك
لپاركينݣ
لپروتينات
لپروجي
لپروجيات
لپروصي
لپروطوكول
لپروطون
لپروطيسطانطية
لپروفيسور
لپروفيل
لپروڤ
لپروݣرام
لپسيكولوجيا
لپطرول
لپلاج
لپلازما
لپلاستيك
لپورنو
لپوسط
لپوصط
لپولونية
لپوليزاريو
لپياج
لپياسات
لپيرفورمونص
لپيرمي
لپيزو
لپيسي
لپيطرول
لپيلانتي
لپيلانتيات
لپينيسيلين
لڤاتيكان
لڤار
لڤانادينيت
لڤيديو
لڤيديوات
لڤيرسيون
لڤيروس
لڤيلاج
لڤيلاجات
لڭاز
لڭر
لڭراد
لڭرامير
لڭروپ
لڭروپات
لڭريڭوري
لڭزاير
لڭزيرة
لڭنس
لݣابون
لݣاز
لݣازات
لݣازون
لݣاع
لݣراد
لݣرام
لݣرامير
لݣروب
لݣرونادين
لݣروپ
لݣروپات
لݣريا
لݣريݣوري
لݣرݣرات
لݣزاير
لݣزو
لݣزوات
لݣزيرة
لݣصر
لݣلاوي
لݣمح
لݣمرة
لݣناوي
لݣنس
لݣوانش
لݣوانشية
لݣواوطا
لݣور
لݣوريتمات
لݣول
لݣويرة
لݣيطار
م
ما
ماء
مابغاش
مابغاوش
مابقا
مابقاتش
مابقاش
مابقاوش
مابين
مابيناتهوم
مابينها
مابينهوم
مات
ماتا
ماتاا
ماتت
ماتخرج
ماتش
ماتشات
ماتقدر
ماتقدرش
ماتقيس
ماتكون
ماتو
ماتوصل
ماتيل
ماتيلدا
ماتيو
ماثيو
ماجد
ماجلان
ماجوريل
ماجي
ماحضروش
ماخص
ماد
ماداݣاسكار
مادة
مادي
مادية
ماذا
مار
مارا
مارات
ماراتية
مارادونا
مارة
مارتن
مارتيل
مارتين
مارجريت
مارس
مارساي
مارسيلوس
مارسينياك
مارشال
مارك
ماركا
ماركات
ماركاه
ماركاو
ماركة
ماركس
ماركسي
ماركسية
ماركو
ماركوس
ماركيلوس
مارلبورو
مارلي
ماروك
ماري
ماريا
ماريان
ماريانا
مارية
مارينو
ماريو
مارڤل
مارݣ
مازال
مازالا
مازالة
مازالين
مازاݣان
مازن
مازون
مازيغ
مازيغي
مازيغيات
مازيغية
مازيغيين
ماساشوسيتس
ماسة
ماستر
ماسطر
ماسك
ماسينيسا
ماش
ماشي
ماشين
ماصطانيصوسوس
ماط
ماطان
ماطش
ماطيماتيسيان
ماعات
ماعة
ماعم
ماعمر
ماعمرها
ماعمرهوم
ماعمرو
ماعندها
ماعندهاش
ماعندهومش
ماعندو
ماعندوش
ماغادي
ماغاديش
مافيهاش
مافيهش
ماقبل
ماقدراتش
ماقدرش
ماقدروش
ماك
ماكات
ماكاتفوتش
ماكاتكونش
ماكاطلش
ماكان
ماكانتش
ماكانش
ماكانعرفوش
ماكانو
ماكانوش
ماكايكونش
ماكاين
ماكايناش
ماكاينش
ماكاينينش
ماكخون
ماكس
ماكسيموس
ماكلة
ماكن
ماكورميك
ماكيبانش
ماكيكونش
ماكيكونوش
ماكينة
مال
مالاوي
مالطا
مالك
مالي
مالية
ماليزيا
ماليك
مالين
مالييطوا
مام
مامة
مامحددش
مامعتارفاش
مامعروف
مامعروفاش
مامعروفش
مامعروفينش
مامفاكينش
ماموي
مامي
مان
ماناواطو
مانة
مانديلا
مانسمان
مانويل
ماني
مانيشانش
مانينات
مانݣا
مانݣات
مانݣاكا
ماه
ماو
ماواضحش
ماوري
ماي
مايا
مايبدا
مايبقاش
مايتشاف
مايتماركا
مايجيو
ماير
مايقدرش
مايقدروش
مايقيسها
مايك
مايكروسوفت
مايكل
مايكون
مايكونش
مايكونوش
مايل
مايمكنش
ماين
مايو
ماپا
ماپس
ماݣازين
ماݣنا
مبادرة
مبادي
مبارك
مبازي
مبازية
مبازيين
مباشر
مباشرة
مبد
مبدا
مبدلة
مبدي
مبراطور
مبراطوري
مبراطوريات
مبراطورية
مبرور
مبعد
مبني
مبنية
مبنيين
مة
مت
متا
متابعة
متابعين
متافق
متافقين
متال
متب
متبع
متبعين
متبوعة
متحف
متحكم
متخصص
متخصصة
متداول
متداولة
متداولين
متر
مترجمة
مترو
متساويين
متطورة
متعامد
متعدد
متعددة
متعل
متعلق
متعلقة
متفريج
متقاربة
متقاربين
متقدمة
متل
متلا
متلات
متلة
متلو
متلي
متنوع
متنوعة
متوسط
متوسطة
متوفر
متيازات
متيل
متيلا
مثال
مثل
مثلا
مثلة
مجال
مجالات
مجاهد
مجتمع
مجتمعات
مجد
مجدي
مجرة
مجرد
مجلات
مجلة
مجلس
مجليس
مجمع
مجموع
مجموعات
مجموعة
مجموعين
مجهد
مجهدة
مجوج
مجوجة
مجيد
محادينها
محاديها
محارب
محاربة
محافضة
محافظة
محاكمة
محامي
محاولات
محاولة
محايد
محايدة
محتارف
محتوى
محتويات
محد
محدد
محددة
محددين
محدود
محدودة
محر
محرز
محسن
محسوب
محسوبة
محسوبين
محطات
محطة
محطوط
محف
محفوظ
محفوظة
محقق
محكمة
محكومة
محل
محلول
محلولة
محلي
محلية
محمد
محمود
محمية
محنة
محند
محيط
مختار
مختاصر
مختالف
مختالفة
مختالفين
مختبر
مختبرات
مخترع
مختلف
مختلفة
مخد
مخدمة
مخرج
مخزن
مخصصة
مخطوطات
مخل
مخلط
مخلطة
مخلطين
مخلوف
مد
مدابزة
مدابزين
مدار
مدارس
مدافع
مداولة
مداوم
مدة
مدر
مدراسة
مدرب
مدربا
مدرسة
مدريب
مدريد
مدغشقر
مدفون
مدك
مدكر
مدكور
مدكورة
مدكورين
مدن
مدو
مدوري
مدون
مدونات
مدى
مديحة
مدير
مديرة
مديرية
مدينة
مدينت
مدينتهوم
مدينتو
مديور
مديورة
مديورين
مديونة
مر
مرا
مرابط
مراة
مرات
مراتو
مراجعة
مراحل
مراد
مراض
مراقب
مراكز
مراكش
مرب
مربع
مربوح
مربوطة
مرة
مرت
مرتابط
مرتابطة
مرتابطين
مرتب
مرتبة
مرجع
مرحبا
مرحلة
مرسا
مرسوم
مرسى
مرسي
مرشحة
مرصد
مرض
مرضة
مرف
مرفحة
مرك
مركب
مركبات
مركبة
مركز
مركزي
مركزية
مركوب
مرموشة
مرمى
مرنيسي
مرو
مروان
مرور
مريرت
مريض
مريكا
مريكاني
مريكية
مريم
مز
مزاب
مزال
مزفتة
مزوار
مزوج
مزوجة
مزور
مزورا
مزيان
مزيانة
مزيانين
مزيود
مزيودة
مس
مسا
مسابقات
مسابقة
مساحة
مسار
مساعدة
مسافر
مسايل
مسبوقة
مست
مستاقر
مستاقرين
مستاقل
مستاقلة
مستاقلين
مستامر
مستامرة
مستبعد
مستحيل
مستر
مستشار
مستشارين
مستطيل
مستعمرة
مستعمل
مستعملة
مستقلة
مستوى
مستويات
مسج
مسجلة
مسدودة
مسراحي
مسراحية
مسرح
مسرحي
مسرحيات
مسرحية
مسطردام
مسعود
مسكرود
مسكونة
مسلحة
مسلسل
مسلسلات
مسلف
مسلم
مسلمة
مسلمين
مسم
مسمن
مسموح
مسمي
مسمية
مسناوي
مسو
مسي
مسية
مسيحي
مسيحية
مسيحيين
مسيرة
مسيطرة
مسيك
مش
مشا
مشات
مشارك
مشاركات
مشاركة
مشاركين
مشاريع
مشاكل
مشاكيل
مشالي
مشاهد
مشاهدات
مشاهدة
مشاو
مشتاركة
مشترك
مشتقة
مشجع
مشدود
مشرع
مشروب
مشروع
مشعل
مشغول
مشكل
مشكلة
مشهد
مشهور
مشهورة
مشهورين
مشى
مشي
مشين
مشينا
مصادر
مصانو
مصاوب
مصاوبة
مصاوبين
مصباح
مصدر
مصر
مصري
مصرية
مصطفى
مصطلح
مصطلحات
مصمم
مصمودة
مصمودية
مصنع
مصنفة
مصو
مصور
مصورة
مضادة
مضاهرات
مضبوطة
مضروب
مضل
مضلع
مضلمة
مضوية
مضيق
مطابع
مطار
مطاي
مطباعة
مطبعات
مطبعة
مطبوع
مطبوعات
مطرجم
مطلوقة
مطماطة
مع
معا
معادن
معارض
معارضة
معارف
معالم
معاليم
معانا
معاه
معاها
معاهدة
معاهم
معاهوم
معاودة
معاونة
معاونين
معايير
معبد
معبر
معبود
معة
معتارف
معتارفا
معتارفة
معتارفين
معتازل
معتامد
معتامدة
معترف
معتقل
معجم
معد
معدن
معر
معراكة
معرض
معرف
معرفة
معركة
معروف
معروفا
معروفة
معروفش
معروفي
معروفين
معزوفة
معزولة
معزولين
معط
معطل
معطلا
معطلة
معطيات
معق
معقد
معقدة
معقولة
معل
معلقة
معلم
معلمة
معلومات
معلومة
معم
معماري
معمر
معناها
معندهاش
معنى
معني
معنينو
معها
معهد
معو
معي
معيار
معيارية
مغار
مغاربا
مغاربة
مغاربية
مغارة
مغالطات
مغالطة
مغامرات
مغامرة
مغرب
مغربي
مغربية
مغرس
مغريبي
مغريبية
مغطية
مغناطيسي
مغني
مغنية
مغنيين
مفاهيم
مفاوضات
مفتوح
مفتوحة
مفر
مفرقة
مفرقين
مفروض
مفعول
مفكر
مفهوم
مفهومة
مقابل
مقابلة
مقاد
مقاربات
مقاربة
مقارنة
مقاصد
مقاطعات
مقاطعة
مقال
مقالات
مقالة
مقاوم
مقاومة
مقبرة
مقبول
مقبولة
مقد
مقدار
مقدونيا
مقر
مقس
مقسم
مقسمة
مقسوم
مقسومة
مقسومين
مقص
مقصود
مقطع
مقطوع
مقعد
مقي
مك
مكان
مكانة
مكانتش
مكانش
مكانية
مكايتسالاش
مكاينش
مكب
مكبس
مكة
مكتابة
مكتب
مكتبة
مكتوب
مكتوبة
مكتوبين
مكسورة
مكسيكو
مكع
مكعب
مكل
مكلاسيا
مكلف
مكلفة
مكن
مكناس
مكناسة
مكو
مكون
مكونات
مكونة
مل
ملاء
ملات
ملاح
ملاحضات
ملاحضة
ملاحظات
ملاذ
ملاك
ملال
ملام
ملايين
ملة
ملحد
ملحمة
ملحن
ملحنين
ملعب
ملعبة
ملعوبة
ملك
ملكة
ملكي
ملكية
مللي
ملم
ملن
ملو
ملوك
ملول
ملوية
ملي
مليار
مليكة
مليل
مليلية
مليوحة
مليون
مم
ممارسة
ممالك
ممتل
ممتلة
ممتلين
ممتيل
ممتيلة
ممثل
ممثلة
ممثلو
ممكن
ممكين
مملكة
ممنوع
ممنوعة
ممنوعين
من
مناجم
مناخ
منارة
مناسب
مناسبة
مناصب
مناضل
مناطق
منال
منانة
منبعد
منتاشر
منتاشرة
منتاشرين
منتج
منتخب
منتدب
منتدى
منتصف
منتوج
منتوجات
منجب
منجم
مندوب
منذ
منشور
منشورات
منشورة
منصب
منصف
منصور
منض
منضمات
منضمة
منطاد
منطقة
منظر
منظمة
منع
منعات
منفي
منقارضة
منك
منه
منها
منهم
منهوم
منو
منى
مني
منيب
منية
منير
منين
مه
مها
مهاجر
مهاجم
مهام
مهتم
مهتمين
مهد
مهدد
مهددة
مهدي
مهرجان
مهزوزة
مهضورة
مهم
مهمة
مهمين
مهنة
مهندس
مهوم
مو
مواج
مواد
موارد
موازي
مواسم
مواضع
مواضيع
مواطن
مواقع
مواقف
موال
مواليد
موبادرات
موباشير
موت
موج
موجات
موجب
موجة
موجه
موجود
موجودة
موجودين
موح
موحا
موحى
موخريج
موخود
موخودة
موخودين
مود
مودافيع
مودير
موديرة
مودينا
مور
مورا
موراكامي
موراه
موراها
موراهوم
مورس
موركاب
مورما
موروسيا
موروكو
موري
مورية
موريتانيا
موريس
موريشيوس
موريطانيا
موريطانية
موز
موزار
موزامبيق
موساعيد
موساعيدة
موسكو
موسكوسو
موسكوڤيا
موسلسال
موسم
موسمي
موسوعة
موسوليني
موسى
موسيقا
موسيقار
موسيقى
موسيقي
موسيقية
موشكيل
موشي
موصطلح
موض
موضاف
موضع
موضوع
موضيل
موطرجيم
موطور
موعد
موعل
موغني
موغنية
موقابيل
موقع
موقف
مول
مولات
مولانا
مولاه
مولاها
مولاي
مولد
مولداڤيا
مولدوڤا
مولود
مولودية
مولوكا
مولين
مومتيل
مومتيلة
مومر
مومزن
مومكين
مومن
مون
موناخ
موناضة
موناضيل
موناكو
مونض
مونطانا
مونطينيݣرو
مونوغرافيا
مونيا
مونية
مونيرو
مونݣوليا
موه
موها
موهنديس
موهنديسة
موهوب
موهوم
موهيم
موهيمة
موهيمين
موي
موية
مويين
موڤ
موݣادور
مي
ميا
ميات
ميانمار
ميبلادن
مية
ميت
ميتاق
ميتال
ميتر
ميترو
ميتشان
ميتشل
ميخايل
ميخاييل
ميد
ميداليات
ميدالية
ميدلت
ميدي
ميديا
مير
ميراوي
ميرة
ميرسي
ميركا
ميركوري
ميركوسور
ميركية
ميركيل
ميريام
ميريكا
ميريكان
ميريكاني
ميريكانية
ميريلاند
ميزات
ميساجات
ميساحة
ميستبورن
ميسور
ميسوري
ميسي
ميسيسيپي
ميشال
ميشليفن
ميشيل
ميشيݣن
ميصر
ميطات
ميطرو
ميطشان
ميكاسا
ميكال
ميكانيكية
ميكرو
ميكروميتر
ميكرون
ميكرونيزيا
ميكسيكو
ميل
ميلاد
ميلادها
ميلادي
ميلادية
ميلان
ميلانو
ميلبورن
ميلر
ميلود
ميلي
ميليميتر
ميمة
ميمون
ميمونة
مين
مينا
ميناء
مينة
ميني
مينيسوطا
ميوزك
ميوزيك
ميول
ميونيخ
مييز
ميين
ميڭري
ميݣاواط
ميݣيل
مپير
مڭونة
مݣونة
ن
نا
نابر
نات
ناتجة
ناجحين
ناحية
ناحيت
نادال
نادر
نادرا
نادرة
نادي
نادية
نارايان
ناروتو
ناروطو
ناري
نازا
نازلة
ناس
ناسها
ناشط
ناشطة
ناشطين
ناشف
ناشيونال
ناصر
ناض
ناضت
ناضو
ناضور
ناضول
ناطق
ناطقة
ناطقين
ناطوميا
ناعة
ناف
نافس
ناقد
ناقش
ناقص
ناقصة
ناكاموطو
نامولاولو
ناميبيا
نانسي
نانوتانية
نانوميتر
ناورو
ناي
نايب
نايضة
نايف
ناپوليون
نب
نباء
نبذة
نبي
نبياء
نبيل
نبيلة
نة
نت
نتا
نتاج
نتاجات
نتاخب
نتاخبو
نتاشر
نتاشرات
نتاصر
نتاع
نتاعو
نتاقد
نتاقدو
نتاقل
نتاي
نتايج
نتج
نتجات
نتجاتها
نتجاتو
نتجو
نتخابات
نترتينمنت
نترنت
نترنيت
نتفليكس
نتورك
نتوما
نتي
نتيبيوتيكات
نتيجة
نتيخابات
نتيرنيت
نتيشار
نتيصار
نتيقادات
نتيݣوا
نث
نجا
نجاة
نجاح
نجاز
نجازات
نجاو
نجح
نجحات
نجحو
نجرة
نجلان
نجلوس
نجليزية
نجم
نجمة
نجمي
نجوم
نجيب
نجية
نجيل
نجيلا
نحماني
نحن
نحياز
نخبة
ند
نداء
ندالوس
ندالوسي
ندالوسية
ندرسون
ندرو
ندرويد
ندري
ندريس
ندلس
ندلسي
ندلسية
ندلوس
ندلوسية
ندمان
ندوات
ندورا
ندونيسيا
ندونيسية
نديانا
ندية
ندير
نديرو
ندپندنس
نز
نزار
نزال
نزل
نزهة
نزيدو
نس
نسا
نساء
نساحب
نساحبات
نسان
نساني
نسانية
نساو
نساي
نسايكلوپيديا
نسب
نسبة
نسبي
نسبيا
نسخة
نسطاڭرام
نسمة
نسيكلوپيديا
نسيم
نش
نشا
نشاء
نشاط
نشر
نشرات
نشراتها
نشراتو
نشرها
نشرهوم
نشرو
نشطة
نشيد
نشيط
نشيطة
نص
نصار
نصر
نصراني
نصف
نصوص
نض
نضاضر
نضال
نضام
نضريات
نضرية
نضم
نضمات
نضمة
نضيم
نضيما
نضيمة
نطاركتيكا
نطايوس
نطق
نطوان
نطوني
نطونينوس
نطونيو
نطونيوس
نظام
نظر
نظرية
نظم
نظمة
نعاش
نعام
نعر
نعرفو
نعمان
نعوم
نعيمة
نغام
نغزة
نفا
نفاس
نفس
نفسو
نفسي
نفهمو
نفو
نفورماتيك
نفيذ
نفيس
نقابي
نقاد
نقاذ
نقارضات
نقاش
نقاط
نقاطي
نقد
نقدرو
نقدية
نقص
نقصات
نقصو
نقطة
نقل
نقلاب
نقولو
نقيب
نقية
نقيشات
نقيشة
نقيلاب
نك
نكب
نكوباتور
نكور
نلاحظوه
نلاين
نلقاو
نما
نماذج
نماري
نماط
نمرة
نمشيو
نمط
نمودج
نموذجا
نمية
ننا
نه
نها
نهار
نهارات
نهاي
نهاية
نهر
نهضة
نهم
نهوف
نهيار
نو
نواب
نواة
نوات
نواحي
نواديبو
نوار
نوارة
نواع
نواكشوط
نوال
نوبة
نوبتو
نوبل
نوبير
نوح
نور
نورا
نورالدين
نورط
نورطلاند
نورمان
نورمانديا
نوساخ
نوستيك
نوسخة
نوصلو
نوط
نوع
نوفمبر
نولان
نوميديا
نون
نونبر
نووي
نووية
نوڤا
نوڤاس
نوڤݣورود
ني
نيبراسكا
نية
نيت
نيتشر
نيتشه
نيتوورك
نيجر
نيجيريا
نيزا
نيس
نيسبة
نيشان
نيضام
نيطع
نيقاش
نيكاراݣوا
نيكسون
نيكولا
نيكولاس
نيكولاي
نيل
نيلز
نيلسون
نيلصون
نيم
نيمي
نين
نينتاندو
نيهاي
نيهرو
نيو
نيوتن
نيوجيرسي
نيوز
نيوزيلاندا
نيوزيلاندي
نيوزيلاندية
نيوساوت
نيولوجيزم
نيويورك
نيوپلايماوت
نييمكوين
نيپ
نيپال
نيڤادا
نيڤو
نيڤيس
نپتون
نڭليزية
نݣ
نݣاد
نݣستروم
نݣليز
نݣليزي
نݣليزية
نݣولا
نݣولو
ه
ها
هاب
هابط
هابطة
هابيل
هابيليس
هاجر
هاجرات
هاجرو
هاجيمي
هاد
هادا
هاداك
هادة
هادش
هادشي
هادو
هادوك
هادي
هاديك
هاذ
هار
هارات
هاراري
هاروكي
هارولد
هارون
هاري
هاريسون
هارڤارد
هاز
هاش
هاك
هاكا
هاكاك
هاكدا
هاكداك
هامپشاير
هان
هانة
هاواي
هاوك
هاي
هاية
هايتي
هب
هبري
هبط
هبطات
هبطو
هبي
هبية
هة
هتيمام
هجات
هجة
هجم
هجمات
هجمة
هجمو
هجوم
هجومات
هد
هدا
هداف
هداك
هدشي
هدف
هدى
هذا
هذه
هر
هراس
هرامات
هرب
هربو
هرة
هرغة
هرقل
هرقول
هز
هسبريس
هسپريس
هشام
هضر
هضرات
هضرة
هضرو
هـ
هك
هكا
هكاك
هكتار
هكذا
هل
هلات
هلال
هلو
هلي
هلية
هم
هما
همية
هنا
هنايا
هندسة
هندوو
هندي
هندية
هنري
هنݣاريا
هو
هوا
هواة
هوارة
هواية
هوبا
هوبارت
هوت
هورا
هوس
هوك
هوكاساي
هوكايدو
هولاندا
هولاندي
هولندا
هوليوود
هوم
هوما
هومو
هوندوراس
هوية
هوپ
هي
هيا
هيتا
هيدروجين
هيركوليس
هيرو
هيرودوت
هيروهيطو
هيرپيس
هيسطوريا
هيسپانيولا
هيسپريس
هيطلر
هيفاء
هيكتار
هيكطار
هيل
هيلاري
هيلبراند
هيلدا
هيلين
هيليوم
هيندنبورݣ
هينري
هيومان
هيي
هيݣز
هيݣو
و
وا
واب
وابط
واة
واتحاد
واج
واجد
واجه
واحة
واحد
واحدة
واحل
واحي
واخ
واخا
واخد
واخدة
واخر
واد
وادا
وادو
وادي
وار
واراين
وارة
وارتن
وارخي
وارخيا
واردس
وارزازات
وارسو
وارنر
واري
وارݣ
واسا
واسع
واسعة
واش
واشنطن
واشينطون
واصر
واصل
واصلة
واصلين
واضح
واضحة
واضحين
واع
واعر
واعرة
واعرين
وافق
واق
واقف
واقفة
واقفين
واقيلا
واكس
وال
والا
والاتحاد
والاتصال
والاكين
والايني
والت
والتا
والتاريخ
والتانية
والتجارة
والتر
والتقافة
والتقاليد
والتنمية
والجبال
والجديدة
والجزاي
والحصيلة
والد
والدولة
والدين
والديه
والرباط
والرجاء
والري
والرياضة
والزيتون
والسكان
والسكنى
والسلطة
والسياحة
والسياسة
والسياسية
والشتا
والشرق
والشمال
والصبليون
والصيد
والطريق
والطول
والعبرية
والعلوم
والفتح
والفكر
والفلسفة
والكر
والكوكب
واللغة
واللهجات
واللوغات
واللي
والمغرب
والنادي
والناس
والنشر
والنݣليزية
والو
والوداد
والي
واليدين
واليديه
واليديها
وامر
وان
واهروش
واهلي
واو
واي
وايات
وايباك
واية
وايت
وايطانݣي
وايكاتو
واينبرݣ
وايني
وايه
وايومينݣ
وب
وباء
وبادين
وباربودا
وباسلام
وباش
وبالا
وبالتالي
وبالضبط
وباللي
وباما
وبدا
وبدات
وبداو
وبر
وبركان
وبريطانيا
وبزاف
وبسباب
وبعد
وبعض
وبقا
وبقات
وبقاو
وبل
وبلا
وبلايص
وبلجيكا
وبلي
وبني
وبهاكداك
وبي
وبين
وت
وتا
وتاتخد
وتاط
وتاي
وتبنات
وتحكم
وتسم
وتسمات
وتشهرات
وتعاود
وتعرض
وتقدر
وتلاتين
وتم
وتما
وتماركا
وتمازيغت
وتو
وتونس
وتيقة
وثاي
وثلاثة
وثيقة
وج
وجا
وجامعة
وجاي
وجبة
وجدة
وجع
وجماعات
وجمعية
وجنوب
وجه
وجهات
وجهة
وجوج
وجود
وجوه
وجيك
وجيلة
وجيهة
وح
وحتا
وحتى
وحد
وحدا
وحدات
وحداخرا
وحدة
وحدين
وحسنية
وحكم
وحل
وحمو
وحي
وحيت
وحيتاش
وحيد
وخ
وخا
وخاص
وخدا
وخدات
وخداو
وخر
وخصوصا
وخويا
ود
ودا
ودابا
ودات
وداد
ودادن
ودار
ودارت
ودارو
ودازت
ودازو
وداك
وداكشي
ودخل
ودخلات
ودزاير
ودعم
وديال
وديت
وديع
ور
ورا
وراء
ورات
وراس
وراسيا
وراق
ورام
وران
ورانوس
وراه
وربحو
وربعين
وربون
ورة
ورت
ورجاء
ورجع
ورد
وردة
وردو
وردية
ورزازات
ورقة
ورقية
ورماندي
ورمانديين
ورنال
ورنالات
ورنوا
ورو
وروبا
وروبي
وروبية
وروبيين
ورويل
وروپا
وروپي
وروپية
وروپيين
وروݣواي
وري
ورياغل
وريخية
ورير
وريليوس
وريݣون
ورݣلة
وز
وزاد
وزارة
وزان
وزباكستان
وزراء
وزن
وزون
وزيد
وزير
وزيرا
وزيرة
وزيع
وس
وساخ
وساط
وسام
وساي
وسايطي
وسة
وستين
وسرد
وسط
وسطية
وسع
وسكار
وسم
وسمة
وسميتها
وسهول
وسوم
وسي
وسياسة
وسياسي
وسية
وسيدي
وسيط
وسيلة
وش
وشارك
وشاركو
وشاعر
وشباب
وشحال
وشل
وشمال
وشوية
وشي
وشڤيتس
وص
وصافي
وصبانيا
وصطاد
وصف
وصفات
وصفها
وصل
وصلات
وصلة
وصلت
وصلو
وصوص
وصيف
وض
وضع
وضعية
وضيح
وط
وطان
وطاݣو
وطلب
وطني
وطنية
وطوروت
وطية
وطيل
وع
وعاب
وعاد
وعاوتاني
وعاي
وعبد
وعد
وعدد
وعر
وعطا
وعكي
وعلى
وعلي
وعليها
وعمرو
وعندها
وعندو
وعي
وعين
وغات
وغادي
وغالبا
وغاوية
وغة
وغنات
وغير
وغيرها
وف
وفا
وفاء
وفاة
وفات
وفاش
وفاق
وفان
وفتوير
وفعام
وفعلا
وفق
وفقير
وفلا
وفنفس
وفوق
وفي
وفين
وفيه
وفيها
وفيݣيݣ
وق
وقات
وقاف
وقال
وقبل
وقت
وقتها
وقتو
وقدر
وقرا
وقريب
وقع
وقعات
وقعو
وقف
وقفات
وقيانوسيا
وقيت
وقيتة
وك
وكات
وكاتب
وكاتربط
وكاتعني
وكاتوصل
وكالة
وكان
وكانت
وكانو
وكانوا
وكايبدا
وكايترا
وكايتعتابر
وكايسالي
وكايسيرڤي
وكايعاون
وكايقدر
وكايكون
وكاين
وكاينة
وكاينين
وكايهضرو
وكايول
وكبر
وكتب
وكتبو
وكتر
وكتلعب
وكتورا
وكرانيا
وكسفورد
وكسيجين
وكسيد
وكل
وكلاند
وكلاهوما
وكم
وكور
وكي
وكيخد
وكيفاش
ول
ولا
ولات
ولاد
ولادة
ولادها
ولادهم
ولادهوم
ولادو
ولار
ولاكن
ولاكين
ولاو
ولاية
ولايني
ولباقي
ولبلايص
ولبوطولا
ولبوطولات
ولة
ولجانوب
ولجزاير
ولجنوب
ولحارس
ولحديد
ولحروف
ولحك
ولحكم
ولد
ولدو
ولعاصمة
ولعاصيمة
ولعب
ولعدد
ولعربية
ولعسكر
ولعلو
ولعملة
ولعواصيم
ولغرب
ولفجر
ولفرانساوية
ولفرقة
ولفلوس
ولكاريبي
ولكلمات
ولكن
ولكورة
ولكين
وللي
ولم
ولما
ولمبية
ولمبيك
ولمحيط
ولمدريب
ولمدون
ولمشاكيل
ولمصطفى
ولمعاصرة
ولمنافسات
ولمو
ولميريكان
ولميساحات
ولميساحة
ولمپي
ولمپية
ولمپيك
ولوسطانية
ولوية
ولى
ولي
وليا
وليات
ولية
وليد
وليدات
وليلي
ولين
ولينݣليزية
وم
وما
ومابين
ومات
ومازال
وماشي
ومالي
ومامي
ومان
وماني
ومانية
ومايمكنش
ومبرات
ومبرة
ومتعامدين
ومتوازي
ومحمد
ومخرج
ومدينة
ومراتو
ومرة
ومزيان
ومشا
ومع
ومعا
ومغنية
ومقادة
وملي
ومن
ومناظرات
ومنبعد
ومنتج
ومنظمة
ومنها
ومنو
ومو
ومورا
وموراها
ومولودية
ومي
وميديين
وميريكان
ومين
ون
ونادي
وناشط
ونتيبيوتيك
ونجاح
وندر
ونساء
ونشر
ونص
ونطر
ونقطة
ونلاين
ونهضة
ونو
وني
ونية
ونيوزيلاندا
ونڭليزية
ونݣاج
ونݣاجات
وه
وها
وهاد
وهادا
وهادشي
وهادي
وهاذ
وهايو
وهبي
وهذه
وهران
وهضاب
وهلال
وهم
وهما
وهو
وهوا
وهوم
وهوما
وهي
وهيا
وو
وواحد
وواد
ووتش
وود
وودرو
وودز
وورت
وورد
وورلد
وورݣلة
ووزير
ووصلات
وولا
وولات
وومن
ووي
ووية
وي
ويا
ويب
وية
ويت
ويد
ويدان
ويدية
ويدير
ويزارة
ويست
ويسكونسين
ويسلان
ويقاموس
ويقدر
ويكلي
ويكون
ويكونو
ويكي
ويكيبيديا
ويكيميديا
ويكيپيديا
ويل
ويلا
ويلات
ويلاية
ويلة
ويلر
ويلز
ويلسون
ويلطون
ويليام
ويلينݣطون
ويمكن
وين
ويندوس
وينسطون
وييلز
ويين
وپولو
وپيرا
وپيك
وڤا
وڤر
وڤياتي
وڤياتية
وݣادير
وݣاع
وݣال
وݣاندا
وݣوستوس
وݣوسطوس
ى
ي
يا
ياا
ياب
يات
ياث
ياجور
ياحة
ياخد
ياخدو
ياد
يادة
ياسات
ياسة
ياسر
ياسي
ياسية
ياسين
ياضة
ياضي
ياضية
ياغة
ياق
ياقوت
ياك
ياكل
ياكلو
ياكوب
ياكوش
يال
يالاه
يالله
يالوح
يام
يامات
يان
يانات
يانة
يانݣ
ياپ
يب
يبان
يبانو
يبد
يبدا
يبداو
يبدل
يبراير
يبقا
يبقاو
يبقى
يبني
يبنيو
يبي
يبية
يبيريا
يبيرية
يبيعو
يبين
يبينو
ية
يت
يتا
يتبادل
يتبتو
يتبدل
يتبع
يتجمعو
يتحرك
يتحكم
يتحل
يتحول
يتحولو
يتخد
يترشح
يتزاد
يتسبب
يتشاف
يتشافو
يتشهر
يتشيكا
يتعاملو
يتعاود
يتعتابر
يتعرف
يتعلم
يتعلمو
يتفاهمو
يتقاد
يتكلف
يتلاقا
يتلعبو
يتم
يتماركا
يتوج
يتون
يتيغو
يثير
يثيريوم
يثيمون
يج
يجابي
يجابية
يجارة
يجارية
يجاه
يجر
يجري
يجريو
يجمع
يجي
يجيب
يجيبو
يجيو
يح
يحاد
يحارب
يحاربو
يحاول
يحبس
يحبسو
يحة
يحد
يحدد
يحسب
يحضر
يحط
يحطها
يحفض
يحقق
يحكم
يحكمو
يحل
يحمي
يحميو
يحيد
يحيى
يخ
يختار
يختارو
يخد
يخدم
يخدمو
يخرج
يخرجو
يخسر
يخل
يخلف
يخلفو
يخلق
يخلي
يخليها
يد
يدا
يدافع
يدافعو
يداهو
يداوتنان
يدخل
يدخلو
يدر
يدعم
يدلة
يدمر
يدو
يدور
يدوز
يدوزو
يدي
يديتور
يديتورات
يديث
يدير
يديرو
يديسون
يدين
يديه
يديولوجيا
يديولوجية
ير
يرا
يرات
يراسات
يران
يرانية
يربح
يربحو
يرة
يرجع
يرجعو
يرد
يردو
يرلاندا
يرو
يري
يرية
يريس
يريطيريا
يريكتوس
يريكسون
يرين
يرڤور
يرڤورات
يز
يزابيل
يزناسن
يزنهاور
يزو
يزون
يزيد
يزيدو
يس
يسا
يسار
يساري
يساع
يسافر
يسالي
يسانيات
يساياما
يسة
يست
يستا
يستاقل
يستة
يستعملو
يستقبل
يستيم
يستيمات
يسحاق
يسد
يسرح
يسري
يسك
يسكنو
يسلي
يسم
يسني
يسهال
يسوع
يسي
يسية
يسيطر
يسيطرو
يسيين
يش
يشارك
يشاركو
يشد
يشرح
يشري
يشريو
يشكلو
يشوف
يشوفو
يشيل
يصال
يصاوب
يصاوبو
يصدر
يضا
يضام
يضرب
يط
يطاليا
يطاليكوس
يطرا
يطرة
يطرو
يطلب
يطلع
يطلعو
يطلق
يطورو
يطي
يطيح
يعاء
يعاود
يعاودو
يعاون
يعاونو
يعبر
يعتا
يعتارفو
يعتازل
يعتق
يعتقو
يعر
يعرف
يعرفو
يعطي
يعطيه
يعطيها
يعطيو
يعقوب
يعلن
يعمر
يعني
يعوض
يعيش
يعيشو
يعين
يغة
يغرم
يغلب
يغني
يغود
يغير
يف
يفاع
يفاق
يفاقية
يفتح
يفر
يفران
يفرض
يفرن
يفك
يفني
يفهم
يفهمو
يفوت
يفوز
يفون
يفية
يق
يقاد
يقاومو
يقة
يقتل
يقتلو
يقتلوه
يقد
يقدر
يقدرو
يقدو
يقرا
يقراو
يقرر
يقضيو
يقل
يقلب
يقلبو
يقول
يقولو
يقونة
يقوي
يقيس
يقيسها
يقيسو
يك
يكبر
يكتاشف
يكتب
يكتبو
يكر
يكس
يكست
يكستيل
يكسيونير
يكشف
يكم
يكمل
يكنولوجيا
يكو
يكومانوس
يكون
يكونو
يكوواس
يكيا
يل
يلا
يلات
يلاه
يلبس
يلبسو
يلة
يلتحق
يلتو
يلعب
يلعبو
يلقا
يلقاو
يلقى
يلند
يلون
يلي
يلية
يليجو
يليزابيط
يليسكوپ
يليفون
يليكوم
يلينا
يلينوي
يليين
يم
يما
يماركي
يمان
يمانة
يمانويل
يمتا
يمشي
يمشيو
يمكن
يمكنش
يمن
يموت
يموزار
يموقراطية
يمي
يمينتانوت
يميني
ين
ينا
ينات
يناريو
يناعة
يناعية
ينال
يناير
ينتج
ينجينوويتي
ينزݣان
ينشر
ينشرو
ينشطاين
ينقصو
ينو
ينوا
ينوي
ينوية
يني
ينية
ينيما
ينڤيركارݣل
يه
يها
يهاب
يهامات
يهة
يهجم
يهجمو
يهرب
يهز
يهضر
يهضرو
يهود
يهودي
يهودية
يهوم
يو
يوا
يواجه
يوان
يوايات
يواية
يوب
يوبا
يوبي
يوتا
يوتوب
يوتوبر
يوتيوب
يوح
يوحد
يوخ
يور
يورك
يوروپا
يوري
يوستينيان
يوسف
يوسفية
يوسي
يوسيفو
يوصف
يوصل
يوصلو
يوطا
يوعي
يوعية
يوغرطن
يوفرو
يوقع
يوقف
يوكرانيا
يوكيوانية
يول
يولد
يولي
يوليا
يوليتي
يوليو
يوليوز
يوليوس
يوم
يوماين
يومي
يوميا
يوميات
يون
يونات
يوناني
يونانية
يونايتد
يونس
يونص
يونيفرس
يونيو
يونيڤرس
يوه
يوها
يوهانيس
يوهوم
يووا
يوڤال
يوݣارتن
يوݣوسلاڤيا
يي
ييتشيرو
ييج
ييدها
ييلتسين
يين
ييݣر
يپارطومو
يپلوماسي
يڤان
يڤريسط
يڤو
يڤولا
يڭيدر
يݣولو
ً
ٌ
ٍ
َ
ُ
ِ
ّ
ْ
ٓ
ٔ
ٕ
٠
٪
٬
ٰ
پ
پابلو
پاتي
پاراديس
پاراسيلسوس
پاراݣواي
پارتية
پارك
پاري
پاكيستان
پاكيطا
پالاو
پالمييري
پاناما
پانسو
پانسيلڤانيا
پاو
پاولو
پاولينݣ
پايثون
پاپوا
پرايمكوين
پراݣ
پرو
پروتون
پروسيا
پروصي
پروطون
پروڤونصال
پروݣرام
پريمو
پرينتيس
پرينسطون
پرينسيپي
پطليموس
پطوليمايوس
پل
پلاج
پلاطفورم
پلوطو
پليكاسيون
پلينتي
پلينيوس
پنيولي
پنيولية
پو
پواتيي
پوتين
پور
پورنو
پوسط
پول
پولو
پولونيا
پولي
پوليطيكنيك
پولينا
پوهنپي
پويرطوريكو
پوپ
پي
پيا
پيتر
پيدوم
پير
پيرت
پيركوين
پيرو
پيس
پيطرو
پيطروݣراد
پيطيرسبورݣ
پيكاسو
پيكين
پيلانتي
پيلانتيات
پيلو
پين
پيوطر
پيير
پيپا
پيݣ
چاپونية
ڢ
ڤ
ڤا
ڤاريست
ڤاسكو
ڤالور
ڤان
ڤانواتو
ڤلاديمير
ڤولط
ڤولطا
ڤولطة
ڤونيز
ڤي
ڤيتشي
ڤيتي
ڤيديو
ڤيديوات
ڤيرتكوين
ڤيرجينيا
ڤيرسيون
ڤيرمونت
ڤيرمير
ڤيروس
ڤيرينفيلز
ڤيكطور
ڤيكطوريا
ڤيلا
ڤيلاج
ڤيلاجات
ڤيله
ڤين
ڤينتشر
ڤينسنت
ڤينشي
ڤينوس
ڤينيزويلا
ڤييطنام
ڤيينا
ڭادير
ڭارديان
ڭارطا
ڭاع
ڭال
ڭالزا
ڭاڭا
ڭدال
ڭرد
ڭرض
ڭروپ
ڭروڤر
ڭريفون
ڭزيرة
ڭليز
ڭليزي
ڭليزية
ڭناو
ڭورباتشوڤ
ڮ
ݣ
ݣا
ݣابرييل
ݣادير
ݣار
ݣارسيا
ݣاز
ݣازون
ݣاسا
ݣاع
ݣاعما
ݣال
ݣالت
ݣالها
ݣالو
ݣاما
ݣامبول
ݣامبيا
ݣاندي
ݣانݣ
ݣايا
ݣايوس
ݣدار
ݣدال
ݣدز
ݣديرة
ݣرافيتي
ݣرام
ݣرامشي
ݣراندي
ݣرسيف
ݣروب
ݣروپ
ݣريدكوين
ݣرين
ݣرينادا
ݣرينيتش
ݣريݣوري
ݣزاير
ݣزو
ݣزوات
ݣزيرة
ݣسوس
ݣصر
ݣلادياتور
ݣلتة
ݣلس
ݣلمام
ݣلميم
ݣليز
ݣليزي
ݣليزية
ݣلين
ݣناوة
ݣنايزية
ݣنس
ݣنطرة
ݣنو
ݣنون
ݣو
ݣواطيمالا
ݣوته
ݣوخ
ݣود
ݣودار
ݣورارة
ݣورزيل
ݣورونيو
ݣوسيڤ
ݣول
ݣولد
ݣونݣ
ݣووݣل
ݣويا
ݣويانا
ݣوݣل
ݣيتهاب
ݣيرلز
ݣيزبورن
ݣيلدا
ݣينيس
ݣيڤارا
ި
ެ
ࢽ
क
ज
त
द
ध
न
प
य
र
ल
व
श
ा
ि
ी
ू
े
्
দ
র
া
ী
্
ં
ા
க
ி
ு
்
ท
ส
ั
ิ
ุ
ู
ฺ
่
་
ག
མ
ར
ལ
ོ
င
န
မ
ာ
ု
ေ
်
ြ
ᶣ
‌
‎
‐
–
—
―
‘
’
“
”
„
†
•
…
‫
‬
′
″
⁨
⁩
™
←
↑
→
↔
↵
↷
⇐
∂
∑
−
∗
∞
⋯
③
④
⑦
♒
➔
⟨
⟩
ⴰ
ⴱ
ⴳ
ⴷ
ⴹ
ⴻ
ⴼ
ⴽ
ⵀ
ⵃ
ⵄ
ⵅ
ⵇ
ⵉ
ⵊ
ⵍ
ⵎ
ⵏ
ⵓ
ⵔ
ⵕ
ⵖ
ⵗ
ⵙ
ⵚ
ⵛ
ⵜ
ⵟ
ⵡ
ⵢ
ⵣ
ⵥ
ⵯ
⺀
⺄
⺆
⺈
⺊
⺌
⺕
⺝
⺸
⺼
⿰
⿱
⿲
⿳
⿴
⿵
⿶
⿷
⿸
⿹
⿺
⿻
「
」
『
』
〢
お
く
け
し
た
の
ひ
も
ん
゙
゚
ア
ィ
イ
ウ
ェ
エ
オ
カ
ク
コ
サ
シ
ス
セ
タ
ッ
ツ
テ
ト
ナ
ニ
ネ
ノ
ハ
ヒ
フ
ヘ
マ
ミ
メ
ャ
ヤ
ュ
ユ
ラ
リ
ル
レ
ロ
ワ
ン
・
ー
㇁
㇂
㇄
㇇
㇈
㇉
㇓
㐁
㐄
㐅
㐌
㐫
㐬
㐭
㐮
㐱
㑒
㒵
㒸
㒼
㓁
㓞
㔾
㕛
㕣
㖾
㘝
㚅
㚇
㚔
㚘
㝉
㝡
㝴
㝵
㞋
㞢
㞷
㠩
㠭
㠯
㡀
㡭
㡿
㢲
㢴
㣇
㣺
㥯
㪅
㫄
㫐
㫒
㫺
㬅
㬎
㬥
㬰
㲋
㳄
㷠
㸒
㸚
㸦
㼌
㼲
㽞
㿟
䀠
䂞
䍃
䏍
䒑
䖍
䖒
䖝
䖵
䙴
䚻
䜌
䝿
䡛
䧹
䪞
一
丁
丂
七
丄
丅
丆
万
丈
三
上
下
丌
不
与
丏
丐
丑
专
且
丕
世
丘
丙
业
东
丞
丢
丣
两
严
並
丨
丩
个
丫
丬
中
丮
丰
丱
串
丵
丶
丷
丸
丹
为
主
丽
丿
乀
乂
乃
久
乆
乇
么
义
之
乌
乍
乎
乏
乐
乑
乔
乖
乗
乘
乙
乚
乛
乜
九
乞
也
习
乡
乳
乾
亀
亅
了
亇
予
争
事
二
亍
于
亏
亐
云
互
亓
五
井
亘
亚
亜
亞
亟
亠
亡
亢
交
亥
亦
产
亨
亩
享
京
亭
亮
亯
亰
亲
亳
亶
亷
人
亻
亼
亾
仁
今
介
仌
从
仐
仑
仒
仓
仕
他
付
仝
代
令
以
仮
任
企
伊
伏
伐
休
会
伯
但
位
佐
何
佘
余
作
佥
使
來
侈
侌
侖
侯
侵
便
保
俞
信
修
倉
倍
候
倠
備
僉
僕
儿
兀
允
兂
元
兄
充
兆
兇
先
光
兊
克
兌
免
兑
兒
兓
兔
党
兜
兟
入
全
兩
兪
八
公
六
兮
兰
共
关
兵
其
具
典
兹
兼
冀
冂
冃
冄
内
冈
冉
冊
冋
册
再
冎
冏
冐
冒
冓
冖
冗
冘
军
农
冝
冡
冥
冫
冬
冷
几
凡
凢
凵
凶
凷
凸
凹
出
函
凾
刀
刁
刂
刃
刄
刅
分
切
刊
刍
刑
刕
刖
列
刘
则
初
別
利
别
到
制
刺
則
削
剌
前
剡
創
剽
劉
力
功
加
劦
助
劫
劳
劵
勃
勇
勉
勒
動
務
勞
勤
勹
勺
勻
勾
勿
匀
匂
包
匆
匈
匊
匋
匍
匕
化
北
匚
匝
匡
匪
匱
匸
匹
区
医
匽
匿
區
十
卂
千
卄
卅
卆
升
午
卉
半
卌
华
卑
卒
卓
单
卖
南
卜
卝
卞
占
卡
卢
卣
卤
卦
卩
卪
卬
卯
印
危
即
却
卵
卷
卸
卻
厂
厃
厄
历
厈
厉
厌
厓
厘
厚
原
厤
厥
厨
厭
厲
厶
厷
厸
去
厼
厽
叀
参
參
叅
又
叉
及
友
双
反
叐
发
叒
叔
叕
取
受
叚
叜
叟
口
古
句
另
叩
只
召
可
台
叱
史
右
叵
号
司
叹
吂
各
吅
合
吉
吊
吋
同
名
后
吏
向
吕
君
吝
吞
否
含
启
吳
吴
吹
吾
呂
呆
呈
告
员
呙
周
命
咅
和
咎
咠
咢
咨
咸
咼
哀
品
哉
員
哥
哲
唐
商
啇
問
啚
啬
啻
善
喜
喬
單
喿
嗇
噩
嚴
囊
囗
囘
囙
囚
四
回
囟
因
囧
囬
困
囱
囷
固
国
圂
圅
國
圍
園
圓
土
圡
圣
圥
在
圭
地
圶
圼
坐
坒
坚
坴
垂
垔
垚
埀
埋
埶
執
基
堂
堅
堆
堇
堯
塞
墨
壘
士
壬
壯
声
売
壳
壴
壹
壺
壽
夂
处
夅
夆
备
夊
夋
夌
复
夏
夒
夕
外
夗
夘
多
夜
夢
大
夨
天
太
夫
夬
夭
央
失
夲
头
夷
夸
夹
夻
夾
奂
奄
奇
奈
奉
奎
奏
奐
契
奓
奔
奚
奞
奠
奢
奥
奭
女
奴
奻
好
如
妄
妙
妟
妥
妻
妾
姑
委
姜
威
娄
婁
婴
嬰
嬴
子
孑
孔
孕
孖
字
存
孚
孛
孝
孟
季
孤
学
孫
孱
學
宀
宁
宂
它
宅
宇
守
安
宋
完
宏
宓
宗
官
定
宛
宜
宝
客
宣
室
宮
宰
害
家
容
宾
宿
寄
寅
密
富
寒
察
寧
審
寫
寬
寮
寸
对
寺
寻
寽
対
寿
封
尃
射
将
將
專
尉
尊
尋
尌
對
小
少
尒
尓
尔
尖
尗
尚
尞
尢
尣
尤
尧
尨
尭
就
尸
尹
尺
尻
尼
尽
尾
尿
局
居
屈
屋
屎
屏
屑
展
屖
屚
属
屠
屡
屬
屮
屯
屰
山
屵
屾
岁
岂
岑
岡
岩
岳
岸
峯
島
崇
崑
崔
崖
崙
崩
嵬
嶲
巂
巛
川
州
巟
巠
巢
巤
工
左
巧
巨
巩
巫
差
己
已
巳
巴
巷
巸
巽
巾
巿
帀
市
布
希
帚
帛
帝
带
師
席
帶
常
干
平
年
幵
并
幷
幸
幺
幻
幼
幽
幾
广
広
庄
床
底
店
庚
府
度
庫
庭
庶
康
庸
廉
廌
廛
廣
廩
廴
延
廷
建
廾
廿
开
弁
弃
弄
弇
弋
式
弓
弔
引
弗
弘
弜
弟
弥
弦
弱
張
強
强
彊
彌
彎
彐
彑
当
彔
录
彖
彗
彡
形
彥
彦
彧
彭
彳
役
彼
往
待
律
徒
得
徙
從
復
微
徵
心
忄
必
忌
忍
志
忝
忠
忩
快
念
忽
忿
思
怠
急
怱
恆
恒
恩
恭
息
悉
患
悤
悲
悶
惠
惡
惢
愁
愈
意
愛
感
慈
慧
慮
憂
憲
應
戀
戈
戉
戊
戋
戌
戍
戎
成
我
戒
戔
或
戚
戠
戢
截
戲
戶
户
戸
戹
戼
戾
房
所
扁
扇
手
扌
才
打
托
执
承
折
拉
拜
拳
拿
掌
推
提
摩
撃
支
攴
攵
收
攸
改
放
政
敄
敏
敕
敖
敗
敝
敞
敢
散
敦
敫
敬
数
敷
數
斂
文
斉
斊
斗
斤
斥
斩
斬
斯
新
方
於
施
斿
旁
旋
族
无
旡
既
旣
日
旦
旧
旨
早
旬
旱
旲
时
旾
昆
昇
昌
昍
明
昏
易
昔
昗
昜
星
春
昬
是
昱
昴
昷
時
晃
晋
晏
普
景
晶
智
暑
暴
曇
曜
曩
曰
曲
曳
更
曷
書
曹
曼
曾
替
最
朁
會
月
有
朋
服
朔
朕
朗
望
朝
木
朩
未
末
本
札
朮
术
朱
朵
朶
朿
杀
李
杏
杜
束
条
来
東
杲
杳
松
析
林
枚
果
枝
枲
枼
某
柔
查
柬
柰
柴
栗
校
株
桀
桑
桼
梁
條
梟
梨
棘
棠
棥
森
楚
業
楽
榮
樂
樊
欠
次
欣
欮
欲
欶
欽
款
歆
歇
歛
止
正
此
步
武
歨
歪
歮
歯
歰
歲
歴
歷
歸
歹
歺
死
殳
段
殷
殸
殹
殺
殻
殿
毋
毌
母
每
毒
比
毕
毚
毛
毳
氏
氐
民
气
気
氣
水
氵
氶
氷
永
氺
氾
求
汝
汞
江
沃
沓
沙
沝
泉
法
波
泣
泥
泰
洋
洛
洪
活
派
流
浦
浪
浮
海
淡
淮
清
渚
渠
湯
滿
漢
漫
漸
澤
火
灬
灭
灰
灵
灷
炅
炎
炏
炗
炙
炭
為
烈
烏
烝
焉
無
焦
焱
然
煞
熊
熏
燕
營
燮
爪
爫
爭
爯
爰
爱
爲
爵
父
爻
爽
爾
爿
片
牙
牚
牛
牜
牟
牢
牧
牪
牽
犀
犬
犭
犮
狂
狄
狊
狐
独
狺
猋
猒
猪
献
獻
玄
率
玉
王
玟
玨
珎
班
琴
瑟
瑩
瓜
瓦
甘
甚
生
産
用
甫
甬
田
由
甲
申
电
甶
男
甸
甹
画
甾
畀
界
畏
畐
留
畜
畟
畢
畧
畨
番
畫
異
畱
當
畺
畾
疊
疋
疌
疑
疒
疾
癶
癸
癹
登
發
白
百
皀
皃
的
皆
皇
皋
皐
皕
皮
皷
皿
盃
盆
盇
盈
益
盍
盎
监
盒
盖
盛
盡
監
盤
盧
目
直
相
盾
省
眇
眉
看
眔
眞
真
眷
眼
眾
着
睘
睪
睿
瞏
瞢
瞿
矍
矛
矞
矢
矣
知
矦
短
石
破
碎
磊
磨
示
礻
礼
社
神
祟
票
祭
禀
禁
禸
禹
禺
离
禽
禾
禿
秀
秃
秉
秋
科
秝
秦
移
稟
穀
穌
穴
究
穹
空
穿
突
窄
窒
立
竒
竜
竝
竟
章
童
竹
笑
笠
筆
等
答
箕
算
箴
節
篤
篭
籍
米
粉
粛
粟
粤
粦
粲
糞
糸
糹
系
約
納
素
索
紫
累
細
絜
絫
統
絲
維
綿
縣
繇
纍
纟
缶
网
罒
罔
罕
罗
罙
罡
罢
罪
署
罷
羅
羊
羌
羍
美
羔
羕
羗
羞
羡
羣
群
義
羲
羸
羽
翁
翏
習
翕
翟
翠
翼
老
耂
考
者
耆
而
耎
耑
耒
耳
耴
耶
耷
聂
聊
聖
聚
聶
聿
肀
肃
肅
肉
肖
肙
肥
肩
肯
育
肴
胃
背
胡
胥
能
脊
脩
膚
臣
臤
臧
自
臬
臭
臯
臱
至
致
臺
臼
臽
臾
臿
舀
舂
舄
與
興
舉
舌
舍
舛
舜
舞
舟
般
艮
良
色
艸
艹
艾
芒
芔
芬
芮
花
芳
芺
芻
苔
苗
苟
若
苦
英
茶
茸
荅
草
荒
荣
荼
莆
莧
莫
莽
菆
菊
菐
華
萬
落
葉
著
葛
董
葵
蒙
蒦
蒼
蓋
蓬
蓺
蔑
蔡
蕉
蕭
薄
薛
薦
薰
藍
藏
藥
蘭
虍
虎
虐
虒
虔
處
虖
虗
虘
虚
虛
虜
虞
虫
虽
蚤
蚩
蜀
蜜
蟲
蠡
血
行
衍
術
衛
衣
衤
表
衮
衰
袁
袞
製
褭
褱
襄
襾
西
覀
要
覃
見
規
覓
覧
親
覽
见
角
解
言
訁
訇
計
詹
語
誩
談
諫
諸
講
讠
谷
豆
豈
豊
豐
豕
豖
豙
象
豦
豩
豪
豸
貇
貝
貞
貟
負
貢
貧
貪
貫
責
貳
貴
買
費
賁
資
賈
賏
賓
賔
賛
賞
賢
賣
質
賴
贊
贝
贡
责
贯
贲
贵
赖
赞
赤
赦
走
越
足
路
蹇
身
躬
車
軍
軎
軟
輦
车
辛
辜
辟
辥
辰
辱
農
辵
辶
边
达
过
近
连
迷
追
退
送
逆
逐
通
速
造
逢
連
逮
週
進
遀
遂
過
道
達
遣
適
遷
遺
邊
邑
邕
那
邦
邪
郎
部
郭
都
鄉
酉
酋
配
酓
釆
采
里
重
野
量
金
釒
錢
钅
長
镸
长
門
閃
閉
開
閏
閑
閒
間
閔
閵
閻
闌
门
间
闷
阑
阜
阝
阿
降
陳
隆
隊
隋
隡
隨
隱
隶
隹
隺
隻
隼
隽
难
雀
雁
集
雈
雋
雍
雐
雔
雙
雚
雜
雝
離
難
雨
雩
雪
雲
零
雷
電
需
霍
霜
霝
霞
霸
靈
靑
青
非
靡
面
靣
革
韋
韦
韭
韯
韱
音
頁
頃
項
須
頗
頡
頻
顛
页
風
风
飛
飞
食
飠
養
饣
首
香
馬
馮
駦
马
骨
高
髟
鬥
鬯
鬲
鬼
魚
魯
鮮
鱼
鲁
鳥
鳳
鸟
鹵
鹿
麃
麗
麥
麦
麻
黃
黄
黍
黎
黑
黒
黨
黹
黽
黾
鼎
鼓
鼠
鼻
齊
齋
齐
齒
齿
龍
龙
龜
龟
龠
龰
龱
龴
龵
龶
龷
龸
龹
ꦁ
ꦗ
ꦝ
ꦧ
ꦫ
ꦮ
ꦴ
ꦶ
ꦸ
ꦺ
者
艹
﴾
﴿
：
？
𐤋
𐤐
𐤒
𐤔
𐤕
𠀁
𠀃
𠀆
𠀉
𠀎
𠀐
𠁁
𠁣
𠂆
𠂇
𠂈
𠂉
𠂊
𠂋
𠂎
𠂒
𠂔
𠂛
𠂡
𠂢
𠂤
𠂬
𠂭
𠂹
𠃊
𠃋
𠃌
𠃍
𠃎
𠃑
𠃓
𠃔
𠃜
𠄌
𠄎
𠄠
𠄢
𠆢
𠆥
𠇍
𠈌
𠌵
𠓜
𠔉
𠔥
𠔼
𠔽
𠔿
𠕀
𠕁
𠕋
𠘧
𠘨
𠙻
𠙼
𠚏
𠚒
𠚤
𠚪
𠣏
𠤎
𠤕
𠥓
𠦄
𠦑
𠦝
𠧒
𠧗
𠧪
𠩺
𠪚
𠫓
𠫔
𠫤
𠬛
𠬝
𠬞
𠬢
𠬤
𠬶
𠮛
𠮦
𠮷
𠯑
𠱠
𠳮
𠷎
𡈼
𡉀
𡉵
𡌥
𡍮
𡏳
𡕒
𡕩
𡕰
𡖅
𡗗
𡗜
𡘆
𡘤
𡧱
𡨄
𡩧
𡬠
𡭽
𡰣
𡰥
𡰪
𡰯
𡰱
𡷈
𡸁
𡿨
𡿩
𡿪
𡿺
𢀖
𢀛
𢀩
𢁙
𢆉
𢆰
𢆶
𢇁
𢇇
𢉖
𢌬
𢌿
𢏚
𢑑
𢑚
𢖻
𢙣
𢛳
𢦏
𢦒
𢧵
𢼄
𢾕
𣁋
𣄼
𣅀
𣅽
𣍘
𣎳
𣎵
𣏋
𣏼
𣗥
𣥂
𣥖
𣦵
𣦼
𣧄
𣪊
𣪠
𣬉
𣳾
𣶒
𤇾
𤊽
𤐫
𤓰
𤔔
𤕨
𤣩
𤰇
𤰔
𤰞
𤴓
𤴔
𤽄
𥁑
𥁕
𥃦
𥃩
𥃭
𥇡
𥑟
𥘅
𥘈
𥝢
𥫗
𥱡
𦈢
𦉪
𦉬
𦉼
𦍌
𦍒
𦎧
𦐇
𦓔
𦔮
𦘒
𦙃
𦚏
𦣝
𦣞
𦣻
𦥑
𦥔
𦥯
𦨉
𦭝
𦰩
𧆞
𧈧
𧘇
𧰨
𧴪
𧴮
𧵩
𧾷
𨸏
𨾴
𩙿
𩠐
𩫏
𩵋
𪉷
𪜀
𪟽
𪠲
𪩲
𫇦
𫔭
𫜸
𫝀
𫠣
𫠩
𫢉
𫥞
𫩏
𫩠
𫪡
𫲽
𫶧
𬀷
𬐘
𬗌
𬙙
𬛸
𬜯
𬟩
𬯁
𬴘
𬺻
𬼉
𬼖
𭀰
𭁈
𭁨
𭅰
𭑈
𭕄
𭗼
𭤨
𭥫
𭻾
𮅕
𮊿
𮍌
𮍏
𮓗
𮥼
𮧮
廾
𰀁
𰀄
𰀈
𰀉
𰀕
𰀠
𰀡
𰀢
𰀪
𰁜
𰃮
𰆊
𰆘
𰋙
𰕎
𰢴
𰧭
𰯲
01--
02--
14--
49--
51--
59--
65--
68--
73--
81--
86--
94--
978--
98--
99--
a--
aa--
ab--
abb--
ac--
ad--
af--
agri--
ah--
ahe--
ai--
ak--
al--
alb--
alex--
alter--
am--
an--
analy--
anci--
ap--
app--
appli--
appo--
ar--
art--
as--
at--
ato--
au--
aut--
auto--
av--
aza--
azerb--
b--
be--
ben--
ber--
berk--
bi--
bil--
bir--
bo--
boo--
br--
brad--
bre--
bro--
bru--
buil--
byz--
c--
ca--
can--
car--
caro--
ce--
cen--
ch--
char--
citi--
cla--
cli--
co--
collec--
com--
con--
consi--
cr--
cre--
cri--
cu--
cur--
curi--
d--
da--
dal--
de--
deb--
dec--
decla--
deuts--
di--
dic--
diff--
direc--
dis--
distri--
do--
domi--
dr--
dra--
dre--
du--
dy--
dyna--
e--
eco--
ed--
eff--
el--
ele--
elec--
emp--
en--
eng--
enterp--
er--
es--
et--
eth--
ex--
exp--
expe--
f--
fa--
fac--
far--
fe--
fen--
fi--
fig--
fin--
fo--
for--
fox--
fr--
fri--
fron--
front--
fu--
g--
ga--
ge--
gener--
gh--
gil--
glo--
gm--
go--
gr--
gram--
gre--
gu--
guer--
h--
ha--
ham--
har--
he--
hi--
hin--
ho--
hor--
hu--
hum--
hun--
i--
id--
iden--
imp--
in--
indi--
initi--
inscrip--
inst--
ir--
it--
j--
ja--
jac--
je--
jo--
ju--
k--
ke--
ken--
kh--
ko--
l--
la--
lah--
lan--
laun--
le--
lec--
lep--
lexi--
li--
lib--
lin--
lingu--
liv--
ll--
lo--
lou--
lu--
ly--
m--
ma--
mag--
mai--
majo--
me--
meas--
measure--
mem--
mi--
mid--
mo--
mon--
mor--
mos--
mou--
mu--
mus--
musul--
my--
n--
na--
napo--
navi--
ne--
ni--
no--
nor--
nou--
nu--
ny--
o--
obser--
oc--
offe--
ologi--
olympi--
om--
or--
os--
ou--
p--
pa--
pak--
pal--
par--
pe--
per--
ph--
pi--
pictu--
pin--
po--
poli--
popula--
pr--
pre--
pri--
prin--
pro--
prof--
prop--
psy--
pu--
purp--
q--
qu--
r--
rac--
ram--
ran--
rap--
re--
recog--
regula--
religi--
res--
rho--
ri--
ro--
roph--
ru--
s--
sa--
sab--
sb--
sc--
sch--
scho--
sco--
se--
selec--
sen--
sep--
sh--
she--
si--
sing--
so--
socio--
sou--
sp--
squ--
st--
ste--
str--
stu--
su--
subst--
sul--
sum--
sun--
sur--
sym--
t--
ta--
te--
tea--
techni--
ter--
th--
the--
ti--
tir--
to--
tou--
tr--
trad--
trans--
tri--
trib--
tu--
ty--
u--
un--
univ--
ur--
us--
v--
va--
valen--
ve--
ver--
vi--
vic--
vin--
vo--
voi--
volup--
w--
wa--
wal--
we--
wh--
whan--
wis--
wo--
x--
xx--
y--
z--
za--
ze--
ا--
اب--
ابي--
ات--
اج--
اح--
احت--
اخت--
ار--
اس--
است--
اش--
اط--
اع--
اف--
اك--
ال--
الا--
الاست--
الانت--
الب--
البري--
الت--
التبر--
التشك--
التي--
الث--
الج--
الح--
الحض--
الخ--
الد--
الدا--
الذ--
الر--
الز--
الس--
الش--
الص--
الصهي--
الض--
الط--
الظ--
الع--
الغ--
الف--
الفوق--
الق--
الك--
الكن--
الل--
الم--
المث--
المست--
المع--
المغا--
الن--
النتي--
النظ--
اله--
الهو--
الوز--
الي--
اليون--
ام--
ان--
انت--
اه--
او--
اي--
ب--
با--
باس--
بال--
بالا--
بت--
بتا--
بح--
بخ--
بد--
بر--
بز--
بص--
بط--
بع--
بعض--
بل--
بلق--
بلم--
بلي--
بن--
بني--
به--
بو--
بوج--
بوخ--
بور--
بوز--
بوك--
بول--
بوم--
بي--
بير--
ت--
تا--
تات--
تاز--
تاع--
تام--
تان--
تاي--
تح--
تحر--
تخ--
تخت--
تد--
تر--
ترو--
تس--
تست--
تسو--
تش--
تشوم--
تص--
تصاف--
تض--
تط--
تع--
تعت--
تفا--
تق--
تكلا--
تل--
تلت--
تم--
تما--
تمث--
تن--
تهر--
تو--
تور--
تون--
تي--
تيت--
تيز--
تيط--
تيع--
تيم--
تين--
تيو--
تيپ--
تݣ--
ث--
ثر--
ثم--
ثيو--
ج--
جا--
جار--
جب--
جد--
جر--
جل--
جم--
جماه--
جنا--
جو--
جي--
ح--
حا--
حب--
حت--
حج--
حد--
حص--
حض--
حك--
حل--
حم--
حو--
حي--
خ--
خت--
ختي--
خر--
خص--
خط--
خل--
خو--
د--
دا--
دال--
دالت--
دالس--
دب--
دج--
دجي--
دخل--
در--
دل--
دلمن--
دم--
دو--
دي--
ديجيط--
ديك--
دين--
ديو--
ذ--
ر--
را--
رب--
رت--
رج--
رجون--
رح--
رس--
رف--
رق--
رك--
رم--
رو--
ري--
ريݣ--
ز--
زم--
زو--
زي--
س--
سا--
سار--
سان--
ساي--
سب--
ست--
ستا--
سج--
سد--
سر--
سري--
سط--
سطر--
سك--
سل--
سم--
سن--
سو--
سوڤي--
سي--
سيا--
سير--
سيل--
سين--
سيپ--
سپ--
ش--
شا--
شر--
شك--
شل--
شو--
شي--
ص--
صاد--
صح--
صد--
صر--
صطن--
صغي--
صنا--
صو--
ض--
ضاف--
ضاه--
ضد--
ضر--
ضو--
ط--
طا--
طاج--
طب--
طر--
طرا--
طل--
طو--
طونو--
طي--
طيل--
ظ--
ظل--
ع--
عا--
عب--
عبد--
عت--
عجب--
عد--
عر--
عز--
عشي--
عص--
عض--
عقل--
عم--
عن--
عو--
عي--
غ--
غا--
غات--
غز--
غط--
غل--
غن--
ـ--
ف--
فا--
فال--
فت--
فتو--
فج--
فخ--
فر--
فراي--
فري--
فس--
فش--
فض--
فع--
فق--
فك--
فل--
فلمن--
فم--
فمهر--
فن--
فو--
فور--
فوق--
في--
فير--
فيل--
فين--
ق--
قا--
قب--
قت--
قد--
قر--
قز--
قص--
قل--
قو--
قي--
ك--
كا--
كات--
كار--
كاط--
كان--
كاي--
كايت--
كايعجب--
كاپ--
كب--
كت--
كد--
كر--
كريپطو--
كس--
كل--
كم--
كن--
كهر--
كو--
كور--
كون--
كونس--
كي--
كيت--
كيع--
كين--
ل--
لا--
لات--
لاس--
لام--
لان--
لب--
لبخ--
لبر--
لبو--
لبوص--
لبي--
لبيز--
لبيلا--
لت--
لج--
لجم--
لجو--
لجي--
لح--
لحاخ--
لحر--
لحض--
لحك--
لحل--
لحم--
لحي--
لخ--
لد--
لز--
لس--
لستي--
لش--
لص--
لع--
لعز--
لعص--
لعم--
لعيب--
لغ--
لف--
لفا--
لفاكت--
لفر--
لفلس--
لفو--
لفوطو--
لفيز--
لفيل--
لق--
لقا--
لقو--
لقي--
لك--
لكاپ--
لكري--
لكم--
لكو--
لكيل--
لل--
للا--
لم--
لما--
لمت--
لمتد--
لمث--
لمج--
لمح--
لمخ--
لمد--
لمر--
لمريك--
لمز--
لمس--
لمش--
لمص--
لمض--
لمع--
لمعا--
لمقا--
لمل--
لمه--
لمو--
لمي--
لميلي--
لن--
لنتي--
له--
لها--
لهض--
لهور--
لهيك--
لو--
لوز--
لوص--
لوض--
لونجيوطون--
لوي--
لوپ--
لي--
ليا--
ليتي--
ليز--
ليس--
ليست--
ليط--
ليك--
لپ--
لپارا--
لپرو--
لپروڭ--
لپوز--
لپول--
لڤ--
لڤا--
لڤواي--
لڭ--
لݣ--
لݣو--
لݣيت--
م--
ما--
مات--
ماد--
مار--
ماك--
ماكاي--
مام--
مان--
ماي--
مت--
متح--
مث--
مج--
مجر--
مجهو--
محاب--
محب--
محت--
محم--
مخ--
مخاز--
مخل--
مد--
مر--
مرا--
مز--
مس--
مسا--
مست--
مش--
مص--
مصاي--
مض--
مط--
مع--
معا--
معل--
مغ--
مغا--
مفا--
مفت--
مقت--
مقي--
مك--
مل--
ملاص--
مم--
من--
منط--
منظ--
مه--
مها--
مو--
موت--
موست--
موض--
مول--
مون--
مي--
مير--
مين--
ن--
نا--
ناف--
نب--
نت--
نتي--
ند--
نز--
نس--
نش--
نص--
نض--
نع--
نفي--
نقا--
نك--
نه--
نو--
نور--
نوڤ--
ني--
نيكليو--
نيو--
نݣ--
ه--
ها--
هب--
هجر--
هد--
هر--
هك--
هم--
هند--
هو--
هي--
هير--
هيك--
و--
وا--
وال--
والا--
والت--
والد--
والر--
وب--
وبل--
وت--
وتا--
وج--
وح--
وخ--
ود--
ور--
وز--
وس--
وسط--
وسي--
وش--
وص--
وض--
وط--
وع--
وف--
وق--
وقص--
وك--
وكات--
وكاي--
وكايت--
وكي--
ول--
ولا--
ولم--
ولمسل--
ولي--
وم--
وما--
ومع--
ون--
ونو--
وه--
وو--
ووق--
وي--
ويع--
ي--
يا--
يب--
يت--
يج--
يجيط--
يح--
يحت--
يخ--
يد--
يدي--
ير--
يز--
يس--
يست--
يش--
يط--
يف--
يق--
يك--
يل--
يم--
يمي--
ين--
يني--
يه--
يو--
يور--
ٱ--
پ--
پارا--
پارت--
پاس--
پاك--
پاي--
پرو--
پري--
پل--
پو--
پوم--
پي--
پير--
ڤ--
ڤا--
ڤالا--
ڤالين--
ڤان--
ڤي--
ڤين--
ڭ--
ݣ--
ݣا--
ݣال--
ݣايت--
ݣز--
ݣنا--
ݣو--
ݣيت--
--0
--1
--14
--2
--3
--4
--43
--5
--51
--6
--69
--7
--8
--9
--91
--a
--ad
--ado
--ae
--ah
--al
--ald
--als
--am
--ama
--an
--ance
--ane
--ant
--ar
--ary
--as
--at
--ate
--ati
--ation
--ats
--aw
--ay
--b
--ba
--base
--ble
--bo
--c
--ca
--cal
--ce
--ced
--cent
--ces
--ch
--ck
--cle
--co
--cs
--ct
--cts
--cy
--d
--da
--de
--dit
--do
--ds
--dy
--e
--eco
--ect
--ed
--ein
--el
--em
--en
--ep
--er
--ere
--ern
--ers
--es
--ess
--est
--et
--eth
--eur
--ey
--f
--fa
--fare
--g
--ga
--ge
--gh
--ght
--gne
--gs
--gy
--h
--hay
--he
--hie
--hy
--i
--ia
--ial
--ic
--ical
--ice
--ides
--ie
--ien
--ier
--ies
--if
--ig
--ik
--im
--in
--ing
--io
--ion
--ions
--ir
--ire
--is
--ism
--ist
--ite
--ities
--ity
--ium
--ive
--j
--ja
--k
--ka
--ki
--ks
--ku
--l
--la
--ld
--le
--les
--ley
--li
--ll
--lla
--lle
--logie
--ls
--ly
--m
--ma
--mad
--man
--ment
--ming
--mo
--n
--na
--nce
--nces
--ncy
--nd
--nda
--nds
--ne
--ned
--ner
--nes
--ness
--ng
--ngham
--ngs
--ni
--ning
--no
--ns
--nt
--nu
--ny
--nz
--o
--ol
--ology
--om
--on
--ons
--or
--os
--ot
--ous
--ow
--p
--pe
--ple
--ps
--pua
--q
--r
--ra
--rd
--re
--rn
--ro
--rs
--rt
--ry
--s
--sa
--sch
--se
--sh
--sion
--sm
--son
--ss
--st
--ston
--sty
--t
--ta
--tal
--tant
--te
--ter
--th
--thic
--tic
--ties
--ting
--tion
--tions
--tive
--ton
--tor
--tory
--ts
--tte
--tz
--u
--ual
--ud
--uel
--um
--up
--ur
--ure
--urs
--us
--ution
--ux
--v
--ve
--vention
--ver
--vy
--w
--x
--y
--z
--zi
--ка
--ء
--ءة
--ا
--اء
--اب
--ابطين
--ابي
--اة
--ات
--اتش
--اتي
--اتية
--اج
--اجور
--اح
--اخ
--اد
--ادة
--ادل
--ار
--ارقة
--اري
--از
--ازم
--اس
--اش
--اص
--اض
--اضي
--اط
--اطق
--اطي
--اع
--اف
--افي
--اق
--اقع
--اقي
--اك
--ال
--الف
--الي
--ام
--ان
--انب
--اني
--اه
--اها
--اهب
--او
--اوة
--اوي
--اي
--ايا
--اين
--اينة
--ب
--با
--بات
--بة
--بد
--بر
--بس
--بط
--بع
--بق
--بك
--بن
--بو
--بي
--بيا
--بية
--بيت
--ة
--ت
--تا
--تاج
--تاقد
--تاقدو
--تان
--تة
--تت
--تج
--تح
--تخاب
--تر
--ترنت
--تري
--تس
--تش
--تق
--تقى
--تل
--تن
--تنان
--ته
--تو
--تي
--تيك
--تيو
--تيوم
--ث
--ثة
--ثي
--ج
--جا
--جاز
--جة
--جح
--جر
--جرو
--جع
--جعو
--جل
--جلس
--جم
--جن
--جهد
--جو
--جي
--جيا
--جية
--ح
--حات
--حار
--حة
--حت
--حد
--حدي
--حر
--حرك
--حط
--حف
--حق
--حك
--حكي
--حل
--حن
--حويل
--حي
--حيل
--خ
--خات
--خة
--خد
--خر
--خل
--خلي
--خوي
--د
--دا
--دان
--دة
--دج
--دد
--در
--درا
--دق
--دل
--دم
--دن
--دو
--دوس
--دوم
--دى
--دي
--ديا
--دية
--ديس
--ديين
--ذ
--ذة
--ذر
--ر
--را
--رات
--راد
--راق
--رة
--رت
--رتو
--رج
--رح
--رد
--رر
--رز
--رس
--رش
--رض
--رط
--رف
--رق
--رك
--ركا
--رن
--رو
--روج
--رى
--ري
--ريا
--ريت
--ريس
--ز
--زا
--زة
--زر
--زف
--زل
--زم
--زمي
--زو
--زي
--زيا
--زية
--زيل
--زيلي
--زيي
--س
--سا
--سالي
--سب
--سة
--ست
--ستر
--ستي
--سفور
--سق
--سك
--سكو
--سل
--سم
--سن
--سو
--سول
--سون
--سى
--سي
--سية
--سيكا
--سيو
--ش
--شة
--شجع
--شح
--شر
--شري
--شط
--شل
--شن
--شو
--شي
--شية
--ص
--صا
--صب
--صة
--صد
--صدير
--صر
--صرة
--صك
--صل
--صم
--صنة
--صنف
--صو
--صي
--صير
--ض
--ضا
--ضة
--ضر
--ضرة
--ضس
--ضع
--ضلو
--ضم
--ضن
--ضو
--ضور
--ضى
--ضي
--ضية
--ضين
--ط
--طا
--طات
--طال
--طب
--طة
--طر
--طرة
--طرو
--طع
--طف
--طقة
--طل
--طمة
--طو
--طوار
--طور
--طون
--طوندار
--طي
--طية
--ظ
--ظاظر
--ظة
--ظم
--ظو
--ع
--عاقب
--عاني
--عاهدة
--عب
--عة
--عت
--عتاقد
--عد
--عر
--عش
--عطي
--عل
--عم
--عو
--عي
--عية
--عيل
--غ
--غر
--غرافي
--غرافية
--غز
--غطي
--غل
--غلي
--غم
--غني
--ف
--فا
--فة
--فت
--فد
--فر
--فط
--فطو
--فع
--فق
--فقو
--فلو
--فن
--فو
--في
--فيع
--فين
--ق
--قا
--قاء
--قاق
--قاو
--قب
--قة
--قت
--قد
--قدو
--قر
--قري
--قص
--قل
--قه
--قو
--قى
--قي
--قية
--قيز
--قيل
--قيين
--ك
--كا
--كات
--كب
--كبة
--كة
--كت
--كر
--كز
--كس
--كل
--كن
--كو
--كي
--كية
--كير
--كيين
--ل
--لا
--لاب
--لاقا
--لاند
--لاندية
--لبو
--لة
--لج
--لد
--لع
--لف
--لك
--لندا
--لو
--لوجي
--لوجية
--لي
--لية
--ليش
--لين
--ليين
--م
--ما
--مات
--ماس
--مان
--مب
--مة
--مت
--مر
--مس
--مع
--مل
--من
--مو
--مي
--مين
--مپ
--ن
--نا
--نات
--نار
--ناش
--ناظور
--نة
--نت
--نج
--ند
--ندا
--نز
--نس
--نسون
--نسية
--نع
--نغ
--نق
--نك
--نم
--نو
--نوض
--نى
--ني
--نيات
--نية
--نيين
--نݣ
--ه
--ها
--هات
--هام
--هة
--هد
--هر
--هز
--هق
--هقة
--هم
--همات
--همة
--همو
--هميش
--هو
--هود
--هوم
--هير
--هين
--و
--وا
--وات
--وب
--وة
--وت
--وث
--وثيق
--وج
--وجي
--وجيا
--وجية
--وح
--ود
--ودة
--ودي
--ور
--وري
--وز
--وس
--وساوت
--وش
--وص
--وط
--وع
--وف
--وفر
--وق
--ول
--ولت
--ولف
--ولوجيا
--وم
--ومة
--ون
--ونا
--ونات
--ونز
--ونس
--وه
--وها
--وي
--وية
--وپا
--وڤ
--وݣ
--ى
--ي
--يا
--يات
--يار
--يان
--يب
--ية
--يت
--يتة
--يتر
--يتش
--يتم
--يتي
--يج
--يجيات
--يجية
--يح
--يخ
--يخات
--يد
--يدة
--ير
--يز
--يزية
--يس
--يش
--يشا
--يض
--يضة
--يطة
--يع
--يف
--يق
--يقي
--يك
--يكان
--يل
--يليوم
--يم
--يمة
--ين
--ينݣ
--يه
--يو
--يوس
--يي
--يين
--يپ
--يڤي
--پ
--پا
--پايو
--پر
--پول
--پية
--ڤ
--ڤر
--ڤل
--ڤي
--ڤيا
--ڤية
--ڤيج
--ڭ
--ڭا
--ڭل
--ڭي
--ی
--ݣ
--ݣا
--ݣان
--ݣة
--ݣر
--ݣن
--ݣو
--ݣي
