!
"
#
##0
##1
##10
##11
##12
##13
##14
##15
##16
##17
##18
##19
##2
##20
##21
##22
##23
##24
##25
##26
##27
##28
##29
##3
##30
##31
##32
##33
##34
##35
##36
##37
##38
##39
##4
##40
##41
##42
##43
##44
##45
##46
##47
##48
##49
##5
##50
##51
##52
##53
##54
##55
##56
##57
##58
##59
##6
##60
##61
##62
##63
##64
##65
##66
##67
##68
##69
##7
##70
##71
##72
##73
##74
##75
##76
##77
##78
##79
##8
##80
##81
##82
##83
##84
##85
##86
##87
##88
##89
##9
##90
##91
##92
##93
##94
##95
##96
##97
##98
##99
$
%
&
'
(
)
*
+
,
-
.
/
0
00
000
001
002
003
003716
003717
003718
004
005
0050
006
007
008
009
01
010
010240
011
012
0121
01699
017
018
019
0192
02
021
023
028
029
03
033
035
04
040
04118
04153
047
05
052
05488
05492
05493
05511
057
06
069
07
072
08
0870998900
09
1
10
100
1000
101
1010
101224
10171
102
1020
103
1030
104
1040
10413
105
1050
106
1060
107
1070
1071
108
1080
109
1090
10966
10967
10970
10973
10980
10982
10983
10986
10987
10988
10989
11
110
1100
11002
11007
11012
11014
11016
11033
111
1110
112
1120
113
1130
114
1140
115
1150
116
1160
117
1170
118
1180
119
1190
12
120
1200
121
1210
1214
122
1220
123
1230
124
1240
125
1250
12519
126
1260
127
1270
128
1280
129
1290
1299
13
130
1300
1304
131
1310
1316
132
1320
1328
133
1330
134
1340
135
1350
136
1360
1364
137
1370
138
1380
139
1390
14
140
1400
1409
141
1410
142
1420
1425
143
1430
144
1440
145
1450
146
1460
147
1470
1475
148
1480
149
1490
1495
1498
15
150
1500
1502
1505
151
1510
1515
1519
152
1520
1521
1524
1526
153
1530
1533
1534
1535
1536
1537
1538
1539
154
1540
1541
1542
1543
1544
1547
155
1550
1552
1553
1554
1556
1558
1559
156
1560
1564
1566
1567
1569
157
1570
1572
1573
1574
1575
158
1580
1584
1585
1589
159
1590
1592
1593
1594
1595
1596
1597
1598
1599
16
160
1600
1601
1602
1603
1604
1605
1606
1607
1608
1609
161
1610
1611
1612
1613
1614
1615
1616
1617
1618
162
1620
1621
1622
1623
1625
1626
1627
1628
1629
163
1630
1631
1632
1633
1635
1636
1637
1638
1639
164
1640
1641
1642
1643
1644
1645
1646
1647
1648
1649
165
1650
1651
1652
1653
1656
1657
1658
1659
166
1660
1661
1662
1664
1665
1666
1667
167
1670
1671
1674
1675
168
1680
1688
1689
169
1690
1693
1694
17
170
1700
1701
1702
1703
1707
171
1710
1712
1714
1715
1716
172
1720
1725
1728
173
1730
1733
1734
1735
1736
174
1740
1741
1743
1745
1747
1749
175
1750
1753
1754
1755
1756
1757
1758
1759
176
1760
1761
1762
1763
1764
1765
1766
1767
1768
1769
177
1770
1771
1772
1773
1774
1775
1776
1777
1778
1779
178
1780
1781
1782
1783
1784
1785
1786
1787
1788
1789
179
1790
1791
1792
1793
1794
1795
1796
1797
1798
1799
18
180
1800
1801
1802
1803
1804
1805
1806
1807
1808
1809
181
1810
1811
1812
1813
1814
1815
1816
1817
1818
1819
182
1820
1821
1822
1823
1824
1825
1826
1827
1828
1829
183
1830
1831
1832
1833
1834
1835
1836
1837
1838
1839
184
1840
1841
1842
1843
1844
1845
1846
1847
1848
1849
185
1850
1851
1852
1853
1854
1855
1856
1857
1858
1859
186
1860
1861
1862
1863
1864
1865
1866
1867
1868
1869
187
1870
1871
1872
1873
1874
1875
1876
1877
1878
1879
188
1880
1881
1882
1883
1884
1885
1886
1887
1888
1889
189
1890
1891
1892
1893
1894
1895
1896
1897
1898
1899
19
190
1900
1901
1902
1903
1904
1905
1906
1907
1908
1909
191
1910
1911
1912
1913
1914
1915
1916
19168
1917
1918
1919
192
1920
1921
1922
19226
1923
1924
1925
1926
1927
1928
1929
193
1930
1931
1932
1933
1934
1935
1936
1937
1938
1939
194
1940
1941
1942
1943
1944
1945
1946
1947
1948
1949
195
1950
1951
1952
1953
1954
1955
1956
1957
1958
1959
196
1960
1961
1962
1963
1964
1965
1966
1967
1968
1969
197
1970
1971
1972
1973
1974
1975
1976
1977
1978
1979
198
1980
1981
1982
1983
1984
1985
1986
1987
1988
1989
199
1990
1991
1992
1993
1994
1995
1996
1997
1998
1999
2
20
200
2000
20000
2001
2002
2003
2004
2005
2006
2007
2008
2009
201
2010
2011
2012
2013
2014
2015
20150319
2016
2017
2018
2019
202
2020
2021
2022
203
204
205
206
207
208
209
21
210
211
212
213
214
2149
215
217
218
219
22
220
221
222
223
224
225
226
227
228
229
23
230
231
232
235
236
237
238
24
240
242
2426
243
244
245
246
247
248
249
25
250
2500
252
253
254
255
256
257
258
259
26
260
261
262
263
264
265
266
267
268
269
27
270
271
272
273
274
275
276
277
278
279
28
280
281
282
283
284
285
286
287
288
289
29
290
292
294
295
296
299
3
30
300
3000
30000
301
302
302937
303
304
305
306
307
308
309
31
310
311
312
313
314
315
316
318
32
320
321
322
323
324
325
327
328
33
330
331
332
333
335
339
34
340
341
342
343
344
345
346
347
348
349
35
350
351
352
354
355
358
359
36
360
361
362
36298254992
363
364
36495
365
366
369
37
370
37203
38
386
387
389
39
390
391
392
395
4
40
400
4000
40135348
402
405
406
409
41
410
411
412
415
4181485
42
422
428
43
430
434
44
440
444
445
45
450
454
46
460
465
47
48
480
481
486
49
496
5
50
500
5000
507
51
510
511
512
52
521
522
524
53
530
533070
54
542
543
5497
55
557
558
56
561
57
575
578
58
584
586
587
59
590
6
60
600
609
61
610
613
62
620
629
63
630
639
64
640
644
65
650
66
660
662
666
67
670
679
68
680
6874
69
690
7
70
700
7022
7089
71
710
711
714
72
720
728
73
730
735
74
740
75
750
751
76
760
768
77
770
78
780
79
790
7993
8
80
800
81
810
82
820
828
83
830
832
84
840
849
85
850
85088
86
860
8650
868
87
870
876
879
88
880
885
887
89
890
9
90
900
91
910
92
920
93
930
94
940
95
950
96
960
97
970
978
98
980
987
99
990
991
9968
:
;
<
=
>
?
@
\
^
_
`
a
aachen
aal
aala
aalaf
aalafa
aalto
aalxo
aase
ab
aba
abajo
abandoned
abassensis
abava
abbeville
abbotti
abbreviatus
abda
abdaala
abdafa
abday
abdi
abdida
abdiespanafa
abdifa
abdigalda
abdiizvugal
abdiizvugalaf
abdiizvugalafa
abdimalyeks
abdion
abditcafa
abditomys
abdiwiyir
abdu
abduak
abdualbar
abduaskira
abduaxa
abduef
abduekrent
abdufira
abdumimaks
abduxoa
abe
abeillia
abejorral
abel
abelii
abeomelomys
aberti
abguz
abic
abica
abiccoba
abicedje
abiceke
abico
abicote
abidi
abieticola
abietinoides
abietorum
abjek
ablusus
abomey
abori
aboyikeem
aboz
abra
abrae
abraham
abramov
abrams
abramtsevo
abrawayaomys
abrikol
abrocoma
abrocomidae
abroscopus
abrotcaf
abrotcafa
abrotce
abrotcifa
abrotcion
abrothrix
abrugol
abruka
abruptus
abstrusus
abu
aburra
aburria
abyssinica
abyssinicus
ac
acaciae
academy
acadicus
acagira
acagisa
acanthagenys
acanthidops
acanthion
acanthis
acanthisitta
acanthisittidae
acanthiza
acanthizidae
acanthorhynchus
acanthornis
acapulcensis
acariensis
accipiter
accipitridae
accipitriformes
aceramarcae
aceratos
acerodon
aceros
acevedo
achaetops
acinonyx
acku
acomys
aconaemys
acosta
acouchy
acridotheres
acritillas
acrobata
acrobates
acrobatidae
acrobatornis
acrocephalidae
acrocephalus
acrodonta
acropternis
acrus
acryllium
actenoides
acticola
actinodura
actitis
actophilornis
actuosa
actuosus
aculeatus
acum
acutorostrata
acutus
ad
ada
adailensis
adala
adalaf
adalafa
adalar
adaleem
adam
adamauae
adametzi
adamoi
adams
adamsi
adamsoni
adana
adangensis
addax
adela
adelai
adelomyia
adema
adersi
adim
adipicaudatus
adja
adjuber
adjubera
adjubesik
adjubeyer
adlutaxo
adlutik
admiralitatum
admirata
adocetus
adolf
adolfi
adolfifriderici
adolfo
adolph
adolphe
adolphei
adornos
adraf
adrafa
adre
adriatika
adrien
adsitus
adspersus
adult
aduncus
adusta
adustus
adventures
adversus
ae
aechmophorus
aedium
aeeclis
aegagrus
aegatensis
aegithalidae
aegithalos
aegithina
aegithinidae
aegolius
aegotheles
aegothelidae
aegypius
aegyptius
ael
aelakolacek
aelera
aeliani
aellen
aello
aelyastera
aenigmatica
aenigmaticus
aenigmatolimnas
aepeomys
aepyceros
aepypodius
aepyprymnus
aequalidens
aequalis
aequatorialis
aequatoris
aequatorius
aequinoctialis
aeretes
aereus
aerial
aerodramus
aeromys
aeronautes
aeropuerto
aerosus
aestiva
aestivus
aestuans
aestuarina
aeta
aethalops
aethia
aethiopicus
aethiops
aethomys
aethopyga
afanasi
afer
affaires
affinis
afgana
afghanus
afi
afifa
afigasuteks
afiz
afizaf
afizcek
afizcekon
afizon
afra
africa
africaeaustralis
african
africana
africanus
afrika
afrikaf
afrikafa
afropavo
afrosoricida
afrotis
aftaala
aftaf
aftafa
after
afzelius
ag
agag
against
agamia
agapornis
agay
age
agelaioides
agelaius
agelastes
agelasticus
ageltaf
ageltafa
ageltuca
ageltucaf
ageltucafa
agen
aghavnadzor
agilis
agj
aglaeactis
aglaiocercus
agn
agrado
agraphospiza
agrarius
agrestis
agricolae
agricolai
agriornis
agropsar
agua
aguachica
aguada
aguadas
aguas
aguntanik
agusti
ahlselli
ahlstedt
ahmansonorum
ahoenobarbus
ai
aigeios
ailuridae
ailuroedus
ailuropoda
ailurops
ailurus
aimi
aimophila
ainu
air
aire
airensis
aires
airport
aise
aitkeni
aix
ajax
ak
aka
akakuyol
akan
akanac
akangol
akangoldunol
akasaka
akatuy
akc
akenafa
akeoyera
akialoa
akintakorafa
akira
akka
akletos
akodon
akodontius
akola
akolaxo
akoleper
akoler
akolera
akoles
akolikxo
akoyer
akraf
akreye
aksat
akseli
aksum
akt
akusumol
al
alaakafa
alacer
alacris
aladay
aladayos
alaemon
alaicus
alain
alaiz
alajuela
alan
alaotrensis
alascensis
alashanicus
alaska
alaskanus
alauda
alaudala
alaudidae
alaux
alavon
alb
alba
albania
albany
albar
albatus
albayar
albert
alberti
albertis
albertisii
alberto
albescens
albi
albibarbis
albicans
albicauda
albicaudatus
albicaudus
albicollis
albida
albidens
albifrons
albigena
albignac
albigula
albigularis
albinasus
albinucha
albipes
albirostris
albispinus
albiventer
albiventris
albivexilli
albocaudata
albocinereus
albocollaris
albogularis
albojubatus
alboniger
albonotata
albopunctatus
alborufus
albotorquatus
albulus
albus
alca
alcala
alcaldi
alcedinidae
alcedo
alcelaphinae
alcelaphus
alces
alcidae
alcippe
alcorni
alcover
aldabrensis
aldan
aldo
ale
aleadryas
alecto
alectoris
alectroenas
alectrurus
alectura
alegre
alejandri
alejandro
aleksandr
aleksandra
aleksandrisi
aleksandrova
aleksandrovitc
aleksandrovna
aleksey
alekseyev
alessandria
alessandro
aletesciurus
alethe
alexander
alexandra
alexandrae
alexandre
alexandri
alexandria
alexandromys
alexis
alfari
alfaroi
alfonsina
alfonso
alfred
alfredi
algarrobo
alger
algira
algirensis
algirus
algodo
algunas
algunos
ali
alice
alionycteris
alipiopsitta
aliquantulus
aliskandarya
alisterus
aliuca
aljazair
alka
alkaf
alkafa
alkaira
alkaxo
alkik
alkokilik
all
alla
allactaga
allactaginae
allactodipus
allais
allan
alle
allegheniensis
allegoria
allegory
allen
alleni
allenia
allenopithecus
allex
alleyn
allocebus
allocricetulus
allonge
alma
almaiisa
almeida
almuk
alnorum
alof
aloga
alogiques
alonso
alopecoenas
alophoixus
alopochelidon
alopochen
alorensis
alouatta
alouattinae
aloyar
aloyara
alp
alpes
alpha
alpherakyi
alphonse
alphonsei
alpicola
alpina
alpinus
alpoz
alpujarra
alsace
alston
alstoni
alt
alta
altaica
altaicus
altamira
altar
altas
alte
altelopa
altelopik
alticola
alticolus
altifrontalis
altiplanensis
altissimus
altitudinis
altivallis
alto
altofa
altokafa
alton
altos
altum
altıntepe
alub
alubda
alubdaf
alube
alubeaf
alubeafa
alubeaksat
alubka
aluboy
aluboya
aludeve
aluteik
alvar
alvarado
alvares
alvarez
alvarezi
alyona
am
amadina
amaga
amalfi
amalocichla
amalya
amandava
amatus
amaurolimnas
amaurornis
amaurospiza
amazilia
amazona
amazonas
amazonetta
amazonicus
ambalema
ambalo
ambarvalis
ambiguus
ambik
amblyceps
amblycercus
amblyonyx
amblyornis
amblyospiza
amblyramphus
amblyrhiza
amblysominae
amblysomus
ambohimanga
ambroise
ambrose
ame
amecensis
amedeo
ameghino
ameghinoi
america
american
americana
americanus
amerika
amerikaf
amerikafa
amerikatanarasokeem
amerikik
amerindiafa
amerindiafe
amerindiik
amerindik
amga
amhegino
amicus
amidaca
amidaf
amidafa
amidapaf
amizda
amizdiz
amizdok
amizdoy
amlit
amlitafa
ammodillus
ammodorcas
ammodramus
ammomanes
ammomanopsis
ammon
ammonastes
ammoperdix
ammophilus
ammosov
ammospermophilus
ammotragus
amoenus
amok
among
amor
amour
amoyensis
ampeliceps
ampelioides
ampelion
ampelornis
amphialus
amphibius
amphinectomys
amphispiza
amplus
ampullatus
amsterdam
amu
amuda
amundsen
amur
amurensis
amuzera
amytornis
an
ana
anabacerthia
anabar
anabathmis
anabazenops
anacaona
anadir
anadyrensis
anagoria
anairetes
anak
anakuma
analogus
anam
anamba
anambe
anambensis
aname
anameda
anamef
anamefa
anameon
anamez
anamkaf
anamkafa
anamlapira
anaplectes
anapoima
anarhynchus
anas
anastasae
anastasya
anastomus
anathana
anatidae
anatinus
anatola
anatole
anatolia
anatolian
anatolica
anatolicus
anceps
anchietae
ancient
ancistrops
and
anda
andalgalomys
andaluci
andamanensis
andelys
andersen
anderseni
anderson
andersoni
andes
andigena
andik
andina
andinomys
andinus
andium
andre
andrea
andreas
andrew
andrews
andrewsi
andrey
andreyev
andriaholinirina
andriantompohavana
androdon
andropadus
androphobus
andus
ane
anerythrus
anetianus
aneyar
aneyara
aneyasik
aneyason
angabol
angarensis
angasii
ange
angel
angelcabrerai
angeles
angelica
angelo
angers
anglais
anglia
angola
angolae
angolensis
angonicus
angoniensis
angostura
angouya
anguinae
angularis
angulatus
angusi
angusta
angustapalata
angustiae
angusticeps
angustidens
angustifrons
angustirostris
anhima
anhimidae
anhinga
anhingidae
anhuiensis
ani
aniakensis
anika
animal
animales
animosus
anisognathus
anisomys
anitae
anj
ankara
ankaranensis
ankittota
ankoliae
ann
anna
annamensis
annamiticus
annandalei
anne
annectens
annellatus
annexus
annie
annobonensis
annonciade
annulata
annulatus
annulus
annunciation
anodorhynchus
anolaima
anomalospiza
anomaluridae
anomaluromorpha
anomalurus
anomalus
anonymomys
anopetia
anori
anorrhinus
anotomys
anourosorex
anous
ans
ansell
anselli
ansellorum
anser
anseranas
anseranatidae
anseriformes
anserma
ansermanuevo
ansorgei
ansout
ant
antaf
antafa
antafe
antarktika
antbird
antechinomys
antechinus
antelope
antelopes
antero
antes
anteyar
anteyara
anteyayana
anthipes
anthobaphes
anthocephala
anthochaera
anthony
anthonyi
anthornis
anthoscopus
anthracinus
anthracoceros
anthracothorax
anthreptes
anthus
antiaf
antibes
antica
antidorcas
antigone
antigua
antiguo
antilla
antillensis
antilles
antilocapra
antilocapridae
antilope
antilophia
antilopinae
antilopinus
antimena
antineae
antinorii
antioquia
antipov
antique
antiquite
antiquorum
antiquus
antisensis
antiuca
antoine
anton
antonia
antoniae
antonii
antonio
antonov
antrostomus
antsingy
antti
antwerpen
anubis
anumara
anumbius
anurolimnas
anurophasis
anvers
anyust
anyustda
anyuste
anyusteaf
anyusteafa
anyusteaksat
anyustoy
anyustoya
aonyx
aora
aorensis
aotcaf
aotidae
aotus
aou
apache
apalharpactes
apalis
apaloderma
apalopteron
apartado
ape
apeco
apella
aperea
apereoides
aphanapteryx
aphanocrex
aphanotriccus
aphantochroa
aphelocephala
aphelocoma
aphrastura
aphrastus
aphrodroma
api
apicala
apicalis
apiz
aplin
aplini
aplodontia
aplodontiidae
aplodontus
aplonis
apodemoides
apodemus
apodidae
apodiformes
apoensis
apollinaris
apomys
aposentos
apple
apre
apricus
april
aprons
aprositornis
aprosmictus
aproteles
apsaka
apta
aptacik
aptaf
aptafa
aptafo
apteem
aptenodytes
apterygidae
apterygiformes
apteryx
aptiskafa
aptolafa
apton
apulo
apus
aquaticus
aquila
aquilo
aquilonius
aquilus
aquiminzaque
aquitania
ar
ara
araba
arabaf
arabafa
arabica
arabicus
arabik
arabs
arabupu
araca
aracataca
arachnoides
arachnothera
araduca
araeum
arai
arak
arame
aramidae
aramides
aramidopsis
aramus
araneus
aranzazu
arapeniwer
arapovac
ararat
aras
aratinga
araya
arayaf
arayafa
arayaxo
arboleda
arboledas
arborea
arboreus
arborimus
arborophila
arbres
arbured
arburer
arburera
arbureyer
arc
arcabuco
arcadia
arcalus
arcanator
archaeological
archaeology
archbold
archboldia
archboldomys
arche
archer
archeri
archilochus
archinard
architecture
archives
arcilla
arcium
arcoba
arctic
arctica
arctictis
arcticus
arctocebus
arctocephalus
arctogalidia
arctoidea
arctoides
arctonyx
arctos
arcuatus
ardea
ardeidae
ardenna
ardeola
ardeotis
ardial
ardialik
ardil
are
area
areldafa
arena
arenae
arenal
arenalis
arenaria
arenarius
arenas
arendsi
areni
arenicola
areniticola
arenivagus
arequipae
arequipe
arerunguaensis
arescens
areskol
arestafa
arfakiensis
arga
arge
argelia
argentata
argentatus
argenteocinereus
argentescens
argenteuil
argenteus
argentina
argentinaf
argentinius
argentinus
argentiventer
argishti
argishtikhinili
argurus
argusensis
argusianus
argynnis
argyrodytes
argyropulo
argyropus
arhuaco
aricana
aridulus
ariekafa
ariel
arienta
arienteem
aries
ariguani
arikea
arimalius
arin
arispa
aristide
ariuta
arizelocichla
arizonae
arizonensis
arkal
arkive
arkod
arktika
arlize
armadillo
armand
armando
armandvillei
armatus
armavir
arme
armena
armenaf
armenafa
armenafe
armenavik
armenavon
armenia
armenian
armenians
armenica
armenik
armenikeem
armor
armstrong
arna
arnee
arnhemensis
arnholdi
arnuxii
aro
aroaensis
aroche
arotieva
arotievaf
arotievafa
arotievik
around
arpa
arpi
arpuma
arqueolo
arrayanes
arredondo
arredondoi
arremon
arremonops
arrhenii
arriagensis
arriba
arrogans
arroyo
arsames
arse
arsenjevi
arsenyev
arses
art
artabuynk
artamella
artamidae
artamus
artan
artashes
artata
artavazd
artazukar
artazukara
artazukayar
arte
artemesiae
artemisia
artemisiospiza
artexo
artfir
artfiyir
arthur
arthuri
arti
artiodactyla
artisornis
artist
artiste
artlakid
artlakir
artlakira
artlakiyid
artlanid
artlanir
artlanira
artlaniyir
artlapid
artlapir
artlapira
artlapiyid
artlapiyir
artnir
artnisa
artowara
artowas
artowasa
artowasik
artowasikya
artowaso
arts
artus
arubani
aruensis
arula
arunchi
arundinax
arundinicola
arundinum
aruscensis
arusha
arvalis
arvicanthis
arvicola
arvicolinae
arxangelsk
arxipov
ary
aryabertensis
aryon
aryona
aryone
aryono
arzamas
arzashkun
arzenti
arzentigo
arzentiok
arzt
as
asarcornis
ascanius
asfarol
ashaninka
ashbyia
asher
ashes
ashmolean
ashtoni
asi
asia
asiaeorientalis
asiaf
asiafa
asian
asiatica
asiaticus
asikkala
asinus
asio
askid
askina
askipera
askir
askira
askisik
askison
askiyid
askiyina
askiyir
aslak
asmi
asomatus
aspakol
aspalax
aspatha
aspectos
asper
aspumta
assamensis
assiette
assimilis
assis
assise
association
assur
ast
asthenes
astirbon
astol
astopol
astrapia
astraxan
asturias
astutus
astvatsatsin
asut
asutez
asutim
at
ata
atalotriccus
atayera
atchinensis
atcom
atela
atelerix
ateles
atelidae
atelier
atelinae
atelocynus
atelornis
ateneum
ater
aterrimus
athene
atheneum
atherodes
atherurus
atilax
atimastillas
atina
atitsura
atkins
atla
atlanta
atlantica
atlanticus
atlantika
atlantisia
atlantoxerus
atlapetes
ato
atoed
atoena
atoer
atoera
atoeyer
atrata
atratus
atricapillus
atrice
atriceps
atrichornis
atrichornithidae
atrinasus
atrir
atrirelictus
atrirufus
atristriatus
atrodorsalis
atronasus
atrovarius
atsa
attagis
attenboroughi
attenuata
attenuatus
atthis
atticora
atticus
attila
attwateri
atys
au
aubinnii
aubryi
auceps
audax
audebert
audeberti
audubon
audubonii
auf
augastes
auguin
august
augustana
auguste
augustidens
augustin
augustins
augusto
aulacorhynchus
aulaf
aulafa
auliscomys
aulon
ault
aultoves
aultovesa
auluca
aumo
aumur
aunque
aurantius
aurata
auratus
aurea
aureiventris
aureogaster
aureola
aureospinula
aureoventris
aureus
aurgol
aurgukol
auricularis
auriculatus
aurifrons
aurigineus
aurignac
aurignacian
auriparus
aurita
auritus
auriventer
aurobrunneus
auropunctatus
aurora
aurore
auroreus
aus
auschwitz
ausensis
auspicatus
austen
australia
australiaf
australis
austrasia
austrinus
author
automne
automolus
autoportrait
autumn
auvers
aux
auyantepui
auzembergeri
auzur
auzura
av
ava
avafrika
avahi
avak
avant
avara
avarus
avec
aveem
aveg
avellanarius
avenida
avenue
averal
averini
aves
avia
avibase
aviceda
avicinnia
avignon
avilapiresi
avius
avlemodikaf
avocettula
avonara
avosetta
avot
avplekura
avunculus
avura
avusa
avusik
awa
awahnee
awalk
awalkaf
awalkafa
awalker
awalkera
awalkereka
awalkes
awalkexik
awalkeyed
awalkeyer
awalkeyes
awalkik
awalkikafa
awalkikxo
awalkoda
awalkodayura
awalkopera
awalt
awaltaf
awaltanaf
awaltara
awaltolya
awashensis
awentol
awid
awir
awira
awiyid
awiyir
awiyis
ax
axapafa
axel
axis
axuca
ayadol
ayadukol
ayaf
ayafa
ayanis
aye
ayik
ayikaf
ayikafa
ayikeem
ayikya
ayikyaf
ayikyafa
ayikye
ayikyeem
ayikyef
ayikyefa
ayikyevaf
ayikyevafa
ayikyevik
ayikyevikya
ayitia
aykar
ayn
ayol
ayres
aytad
aytar
aytara
aytayad
aytayan
aytayar
aythya
az
azafa
azaka
azakiaxe
azandica
azara
azarae
azarian
azdas
aze
azed
azega
azeka
azekaf
azekafa
azekapa
azekexa
azekos
azen
azent
azenta
azentafa
azera
azil
azilafa
azilbuuk
azilugal
azis
azon
azov
azteca
aztecus
azu
azubol
azul
b
ba
bab
babari
babaulti
babax
babbitt
babbler
baberi
baberowski
babi
babina
babuljas
baby
babyrousa
babyrussa
bacata
bacchus
bachman
bachmani
bachue
backed
background
bactrianus
bad
bada
baden
badende
badescene
badger
badia
badius
baeodon
baeolophus
baeopogon
baeops
baerdaf
baerdafa
baeri
bafela
bagaces
bagala
bagalara
bagaliuca
bagobus
bagre
bahi
bahrkeetae
baibacina
baie
baigneuse
baigneuses
baikal
bailey
baileyi
bailwardi
bain
bains
baiomys
baird
bairdi
bairdii
baja
bajo
bak
bakanik
bakar
baker
bakeri
baku
bakuda
bakudey
bakudom
bal
balabra
balae
balaena
balaeniceps
balaenicipitidae
balaenidae
balaenoptera
balaenopteridae
balakian
balboa
balcanica
balcanicus
balcon
balearica
balem
balemda
baleme
balemeaf
balemeafa
balemeaksat
balemoy
balemoya
balgaria
bali
balica
balicus
baliensis
baliera
balikunica
baliolus
balionycteris
balireizusik
ball
ballena
balneator
baloutch
balsa
balsac
balsaci
balta
baltimore
baluchi
baluensis
balumaks
balumara
balumaropa
balumasik
balumayan
balumayana
balun
bam
bambino
bambusicola
bamendae
ban
bana
banakrisi
bancana
bancanus
bancarus
bancatol
bancekol
bancimol
banco
bancoba
bancol
bancoldunoleem
bancudol
bandarum
banded
banderanus
bandiagara
bandicoot
bandicota
bandol
bane
bang
bangs
bangsi
bangsia
bangsii
banguei
bangueyae
bank
banks
banksi
banksiana
banksianus
banliz
banlize
bannikov
bannisteri
bano
bantan
bantanya
bantel
bantu
banugale
banviele
banvieli
banvielu
banyona
baoulei
baplaxe
bapledji
baptist
baptista
baptistae
baptiste
bar
bara
barabash
barabensis
barakshin
baramensis
barandana
barang
barata
barataf
baraya
barbacoas
barbara
barbarabrownae
barbarensis
barbarus
barbatus
barbei
barberi
barberini
barbiensis
barbosa
barbour
barbouri
barcelona
barclay
barda
bardina
bardzruni
bare
bareaca
bareaf
bareafa
bareaksat
barenda
barendok
barents
barges
bari
barichara
barka
barkal
barkril
barkrilekwa
barkrilidja
barkrilotsa
barloy
barn
barnaf
barnardi
barnardius
barnes
barnett
barney
barns
barocco
baron
baroy
baroya
baroye
baroyi
baroyo
barque
barrancabermeja
barranco
barranquilla
barrerae
barrett
barriga
barrio
barro
barrowensis
barsanda
bart
bartelsi
bartelsii
bartiv
bartlett
bartolini
bartoni
bartramia
bartrutca
barva
baryphthengus
baryshnikov
bas
basari
basel
bashanov
basi
basileuterus
basilica
basilicae
basilii
basilinna
basilornis
baskevich
bassaricyon
bassariscus
basse
bassi
bassin
bastakara
bastakasa
bastam
bastardi
basuticus
bat
bata
bataille
batakaf
batakafa
batakakirya
batake
batakik
batara
batchelder
batcoba
batcuol
batdume
bate
bateau
bateaux
batenide
bates
batesi
bath
bather
bathers
bathing
bathmocercus
bathsheba
bathyergidae
bathyerginae
bathyergus
bati
batinde
batis
batkane
batlize
batman
batmana
bato
batomys
baton
batrachostomus
batse
battan
battel
battersea
battista
battode
batu
batuana
batuanus
batugale
batultik
batviele
batvieli
batvielu
batwatol
batyon
batyona
batyone
baudelaire
baudinettei
bauer
bautista
bavarian
bavaricus
bavicorensis
bawazol
baxek
bay
bayard
bayern
bayonii
bayonne
bazar
bazaxo
bazecked
bazecker
bazed
bazer
bazesa
bazetoux
bazexa
bazhanov
bazincourt
bd
bdeogale
be
bea
beach
beaked
beamys
bearded
beardi
beatae
beatragus
beatrice
beatus
beauforti
beaulieu
beauvois
beaux
beba
bec
beccarii
bechstein
bechthold
bechuanae
beck
becker
beckett
bedablo
bedakol
beddardi
bedfordi
bedfordiae
bedom
beecheyi
beecrofti
beend
beendest
beendiz
beendos
befoltik
befoltikeem
before
beg
begama
begart
beggrow
begitschevi
bei
beicekol
beijing
beirae
beisa
bejaya
bejol
beka
beketov
beksa
belalca
belangeri
belarusa
belarusavik
belarusik
belbeuf
belca
belcera
belcetara
belcon
beldingi
bele
belfieldi
belga
belgaf
belikafa
belir
belira
belisa
belisik
bell
bella
bellavista
belle
belleza
bellied
bellieri
bello
bellula
bellus
belmira
belomys
belon
belosludov
belti
beltra
belundar
belvedere
belzebul
belzebuth
bema
bemberg
bemmel
bempok
ben
benavente
bender
bendeyen
bendeyer
bending
bendirii
bene
beneden
benedict
benefactus
benelafa
benelon
benga
bengalensis
bengana
bengts
benina
benito
benjamin
benkelloun
bennett
bennettianus
bennettii
benplekura
benplekuyur
benson
bensoni
benus
beothucus
bepra
ber
berardius
berbeo
berberana
berck
berd
berdmorei
berenicornis
beretica
beretraf
beretrafa
berezovskii
berga
bergen
bergi
bergmans
bergo
bergson
berhaut
berik
berikeem
berikya
berikye
bering
beringei
beringensis
beringiana
beringianus
berk
berkeley
berkeleyensis
berkshire
berlandier
berlandieri
berlepsch
berlepschia
berli
berlin
berlioz
berma
bermuteo
bernard
bernardi
bernardinus
bernardo
bernardus
berndt
berndtson
bernhardi
bernieria
bernieridae
bernsteini
berpot
berpotam
berpotamak
berpotik
berry
berteau
bertha
berthae
berthe
bertin
bertrand
berya
berye
berylmys
besanafa
besanc
besar
besara
bessy
bet
beta
betania
betara
betcoba
bete
betpakdalaensis
betsabea
betsava
betsileo
betsileoensis
bettan
bettongia
bettoni
betulia
betulina
between
beulah
beuningen
bevular
bewafa
beweem
bewik
bexe
beza
bezoarticus
bhl
bhutanensis
bi
biacensis
biarla
bias
biatas
bibimys
biblia
biblioteca
bibliothe
bicacek
bicolor
bicornis
bidens
biedermanni
bien
bienes
bierce
bierstadt
bieti
bifa
bifeem
big
bijiangensis
bikarijica
bil
bilarni
bild
bilder
bilimitatus
bilita
bilkis
billardierii
billed
billitonus
bilmara
bilotol
bimaculatus
bindi
bingen
binjol
binka
binominata
binotata
binturong
biodiversity
bioga
biography
biologiae
biot
biptik
biptikya
biptikye
bira
biradom
biradoma
biraf
birafa
biragerd
biratotervolia
birch
birchwood
bird
birds
birdseyei
bireem
birelik
birga
birgaf
birgafa
birgon
birgotafa
birgotafe
birgoton
biribi
birmingham
birtafa
birtey
birula
birulai
birungensis
bisaga
bishopi
bisky
bison
bisovol
bissauguinea
bistriata
bisulcus
biswamoyopterus
biswasi
bitej
bitejaf
bitejtum
bitsenko
biugbol
biuna
biwe
bixe
biza
biziura
bjo
bjølstad
black
blafotaf
blafotafa
blafote
blahout
blaine
blainei
blainville
blainvillei
blainvillii
blaise
blakeraf
blakerusukikya
blanc
blanca
blancas
blanche
blanco
blancs
blandus
blanford
blanfordi
blanfordimys
blangorum
blarina
blarinella
blarinomys
blasius
blastocerus
blatak
blay
blayak
bleda
bleu
bleue
bleyenberghi
bli
blica
blicki
blid
blikese
bliopa
blir
blira
bliragropeem
blirinda
blirizva
blirizvafa
blirizvama
blirugal
blis
blisa
blise
blisik
blison
bliss
blitchi
blitison
blitvica
bliyid
bliyir
blizdekol
blizdol
blodaf
blodik
bloduca
bloeker
blok
blood
bloom
blossom
blouchi
blucte
blue
blumenbach
blur
blyth
blythii
blythipicus
bm
bo
boat
boats
boavita
bob
bobak
bobby
bobrinskii
boca
bocaf
bocafa
bocage
bocagei
bocagia
bocas
boccamela
bochalema
bochica
bocki
bockstein
bocourti
bodafa
boddaert
bodjim
boduca
boeadi
boeadii
boehmi
boer
boera
boetticher
boga
bogara
bogdanovi
bogomolets
bogota
bogotensis
boher
bohor
boie
boiei
boieldieu
boijmans
bois
boissie
boissonneaua
boitard
bojaca
bokar
bokayad
bokayana
bokayar
bolabatuensis
bolami
bolbopsittacus
bolborhynchus
bolcaya
bolcevik
bolcoy
bole
bolei
bolemoreus
boli
bolivar
bolivarense
bolivaris
bolivia
boliviae
boliviana
boliviensis
bolk
bolkay
bolkayi
bolkon
bomba
bombal
bombycilla
bombycillidae
bombycinus
bon
bonaerensis
bonafidei
bonald
bonaparte
bonariensis
bonasa
bonasus
bond
bondae
bondar
bonettoi
bongensis
bongolavensis
bonhote
bonhotei
boniara
boniasik
boniaxo
bonilla
bonito
bonnat
bonnaterre
bonnevillei
bonol
bonta
bontanus
bontay
bonvicino
booduga
booensis
book
books
boonsongi
boonsyatol
boosmani
booth
boothiae
bopi
bopica
boquero
boquetensis
bor
bora
boranus
bord
bordeaux
bordet
bords
borealis
boreon
borgen
borges
borghese
boris
boristhenicus
borjasensis
borkhausen
borneanus
borneensis
bornemisza
borneoensis
boromys
bororensis
bororo
borovnik
borowski
borreau
bos
boselaphus
bosnaxercegovina
bosniaca
bosque
bost
bostam
bostap
boston
bostrychia
bostxo
botaurus
botnica
botswana
bottae
bottai
bottegi
bottegoides
bottle
boucher
boudin
bougainville
bougie
bougival
bouille
boulanger
boulevard
boullangerensis
boulware
bouquet
bourbon
bourloni
bourret
boutourlinii
bouvet
bouvieri
bovidae
bovinae
bowdich
bowdler
bowdoini
bowera
bowere
boweref
bowersi
bowesik
bowexo
boxi
boxo
boy
boyaca
boylii
boys
boz
boza
bra
braccatus
brachialis
brachiones
brachycephala
brachycercus
brachyceros
brachycope
brachycrania
brachygalba
brachylagus
brachyonyx
brachyotis
brachyotus
brachypteracias
brachypteraciidae
brachypteryx
brachyramphus
brachyrhynchus
brachysoma
brachytarsomys
brachyteles
brachyura
brachyuromys
brachyurus
bradfield
bradfieldi
brady
bradypodidae
bradypterus
bradypus
braf
brafa
brahma
branderi
brandt
brandti
brandtii
branickii
braniol
branta
brants
brantsii
brara
bras
brasil
brasila
brasilaf
brasiliensis
brass
brassempouy
brauer
braueri
braum
braun
brauneri
brauni
brava
bravo
brayer
brazara
brazenor
brazierhowelli
brazil
brazza
brazzaville
bre
breasted
brecko
breckovskaya
bredanensis
breiza
brek
brelichi
breme
bremen
brendae
bresitanol
bresitayol
bresitevol
bresitimol
bresitol
bresitukol
bresituzol
bresol
brest
bretagne
breton
brevetianus
brevicauda
brevicaudata
brevicaudus
breviceps
brevidens
brevinasus
brevipes
brevirostris
breviz
breweri
bria
brice
bricen
bricenii
bricher
bridge
bridgemani
bridgeri
bridges
bridgesi
brighti
brija
brimmed
brink
brinuga
brisas
brisson
britain
britana
britanaf
britanafa
british
briva
bro
broad
broadbenti
broadbrooks
broca
broccus
brochus
brockman
brockmani
brodiei
brodski
broen
brofeldt
broglie
bron
brongersma
bronner
bronte
bronze
brook
brooke
brookei
brookes
brooklyn
brooks
brooksi
broom
brosset
brothel
brotogeris
brotomys
brouillard
broweri
brown
browni
brownii
brskvenjak
bru
brube
bruce
brucei
brucepattersonius
brucii
brucka
brudira
bruguera
bruijni
brumbacki
brume
brumeux
brumfield
brun
brunensis
bruneri
brunii
brunnea
brunnescens
brunneus
bruno
bruntol
brus
bruselas
brushes
brutafa
bruxa
bruxeem
bruxelles
bruyas
bryant
bryanti
bryce
bryophilus
bryullov
bu
bubalis
bubalornis
bubalus
bublitz
bubo
bubulcus
buc
buca
bucanetes
bucaramanga
bucarasica
buccanodon
bucco
bucconidae
bucculentus
bucephala
buceros
bucerotidae
bucerotiformes
bucha
bucharensis
buchariensis
buchon
buck
buckland
buckleyi
bucorvidae
bucorvus
budapest
budgetti
budini
budorcas
bueae
buechneri
buehleri
buena
buenaventura
buenavista
buenos
buergersi
buettikoferi
buffalo
bufo
bug
buga
bugimo
bugimota
bugimoza
building
buildings
buiver
bukimol
bukol
bula
bulafa
bulbivorus
bull
bullaris
bullata
bullatus
bulleri
bulletin
bullimus
bulmerae
bulol
bulolatelonyikya
bulud
bulur
bulura
buluyud
buluyur
bulweria
bumafa
bumbuz
bumbuzey
bumbuzim
bumbuzok
bumkida
bumkiday
bumkidek
bumkidom
buneks
bunera
bungei
bunguranensis
bunin
bunites
bunkeri
bunnii
bunoae
bunolagus
bunomys
bunopithecus
buntingi
buntunik
buntur
buomi
bup
buphagidae
buphagus
bur
burbidgei
burchell
burchellii
burda
burer
burera
buresa
burgi
burgundia
burhinidae
burhinus
burkaf
burkafa
burkina
burlace
burlacei
burmeister
burmotaxo
burnett
burney
burns
burramyidae
burramys
burrell
burrus
bursarius
burt
burti
burton
burtoni
burundia
buryata
busarellus
busbanza
buselaphus
bushbaby
bushbuck
buska
buskensis
bustaxo
busuangae
buta
butastur
butca
buteo
buteogallus
buterne
buthraupis
butirka
butler
butleri
butorides
butte
butteri
buxtoni
buyas
bwaf
bwafa
bwaxo
bweha
bwindi
bwoy
by
byatti
bycanistes
byoxovo
byrnei
byron
c
ca
caama
cabal
caballero
caballus
caban
cabanis
cabassous
cabeza
cabezas
cabinda
cabot
caboti
cabral
cabrali
cabrera
cabrerae
cabrerai
cacajao
cacao
cacatua
cacatuidae
cachinus
cachipay
cacicus
cacique
cacodemus
cacomantis
cacomitli
cacsilensis
cactophilus
cade
cadim
cadimeem
caeca
caecutiens
caenolestes
caenolestidae
caesar
caesia
cafe
cafer
cafetero
caffer
caffra
cafra
cagayanus
cagottis
cahiers
cahirinus
cahni
cai
caicedonia
caillebotte
cairina
cairo
caissara
cajamarca
cajibi
cajica
calabarensis
calaby
calabyi
calamanthus
calamianensis
calamonastes
calamonastides
calamospiza
calamov
calandrella
calarca
calcariidae
calcarius
calcochloris
caldas
caledoniae
calendulauda
calera
cali
calicalicus
calidior
calidris
california
californiana
californianus
californica
californicus
californiensis
caligata
caligatus
caligavis
caliginea
caliginosus
calinescu
callacanthis
callaeas
callaeidae
callahan
calle
calles
callewaerti
callicebinae
callicebus
callida
callidus
callimico
calliope
callipepla
callipeplus
calliphlox
callipygus
callistomys
callistus
callithrix
callitrichinae
callitrichus
callocephalon
calloceps
callonetta
callorhinus
callosciurinae
callosciurus
callospermophilus
callosus
callotis
calochaetes
calocitta
caloenas
calomys
calomyscidae
calomyscus
calonectris
caloperdix
caloprymnus
caloramphus
calothorax
calura
caluromyinae
caluromys
caluromysiops
calurus
calvertensis
calvus
calypso
calypte
calyptocichla
calyptomena
calyptophilidae
calyptophilus
calyptophractus
calyptorhynchus
calyptura
camacho
camaret
camargensis
camarhynchus
camaroptera
cambojensis
cambridge
camelidae
cameloides
camelopardalis
camelus
cameron
cameronensis
cameroni
camerunensis
camesasca
camfrout
camier
camille
camilo
camino
camo
camoae
camondo
camp
campagne
campamento
campana
campanae
campanius
campbelli
campbelliae
campephaga
campephagidae
campephilus
campestris
campethera
campi
campicoloides
campo
campoalegre
campochaera
camptorhynchus
camptostoma
campylopterus
campylorhamphus
campylorhynchus
camtschatica
camus
can
cana
canada
canadensis
canal
canalete
canariensis
canaster
cancrivorus
candace
candango
candelaria
candelensis
candidula
candidus
canescens
canetti
canfieldiae
cangac
cangaceiro
canicaudus
caniceps
canicollis
canicrus
canidae
caniformia
canigula
caninus
canipes
canirallus
canis
caniscus
caniventer
cannes
cannet
cannomys
canoe
cansdalei
cansulus
cansumys
cansus
cantidad
cantor
cantorchilus
canus
canvas
canves
canyon
cao
caobangis
caovansunga
caparoae
cape
capensis
caperea
capet
capilla
capillosa
capistratus
capital
capitalis
capito
capitonidae
capolongo
caporiaccoi
capped
capra
capreolinae
capreolus
capri
capricornis
caprimulgidae
caprimulgiformes
caprimulgus
caprinae
caprinus
caprolagus
capromyidae
capromyinae
capromys
capsalis
capsiempis
capuchin
capucinus
car
cara
caracal
caracara
caracas
caracasensis
caracoli
caracolus
caracteri
caramanta
caravaggio
caravaggiocrowning
caravaggioeccehomo
caravaggiofrancisprayer
caravaggiojeromemeditation
caravaggioserpent
caraya
carbo
carcassonne
carchensis
carcinophaga
cardellina
cardinalidae
cardinalis
cardiocranius
carducci
carduelis
cariacou
cariama
cariamidae
cariamiformes
caribe
caribert
caribou
caricature
caridonax
carillus
carimatae
cariol
carl
carleton
carlhubbsi
carlo
carloman
carlos
carlosensis
carlottae
carlsberg
carmeli
carmelitae
carmelo
carmen
carminis
carnivora
caro
caroli
carolina
caroline
carolinensis
carolus
carpatica
carpenteri
carpi
carpitalpa
carpococcyx
carpodacus
carpodectes
carpomys
carpornis
carpospiza
carraway
carrera
carretera
carri
carrikeri
carrizal
carruthersi
cartagena
cartago
cartagoensis
carter
carterodon
carterornis
carthage
cartier
cartilagonodus
cary
caryi
caryomys
caryothraustes
casa
casas
cascada
cascade
cascadensis
cascajal
casensis
casilear
casinycteris
casiornis
caso
caspar
caspica
caspicus
cassabois
cassandra
cassiculus
cassin
cassiquiarensis
castagnary
castan
castaneoventris
castaneus
castanops
castanotus
castanurus
casterbridge
castilla
castillo
castle
castor
castoridae
castorimorpha
castroviejoi
casuariidae
casuariiformes
casuarius
cat
catagonus
catalina
catalinae
catalogue
catamblyrhynchus
catamenia
cataponera
catavinensis
catcko
catedral
catellus
caterina
catharopeza
cathartes
cathartidae
catharus
cathe
cathedral
catherinae
catherine
catherpes
catodon
caton
catopuma
catreus
catriscus
catskill
catskills
catta
catus
cauca
caucae
caucasian
caucasica
caucasicus
caucasie
caucensis
caucinus
caudalis
caudata
caudatus
caudimaculatus
caudivarius
caurina
caurinus
causant
cauui
cavator
cavazza
cave
cavelier
cavendishi
cavia
caviidae
caviinae
cavirostris
cawe
caxa
caxafa
cayana
cayetano
cayoensis
cdot
ce
cebidae
cebifrons
cebinae
ceblepyris
cebus
cecilia
cecropis
ceda
cedral
cedro
ceiba
ceja
ceke
cel
celack
celebensis
celebesica
celemda
celeme
celemoy
celenda
celer
celeripes
celeris
celestivka
celeus
celia
celsus
cembre
cementerio
cenera
cenesik
cenis
center
central
centralis
centrasiaticus
centre
centricola
centro
centroamericana
centrocercus
centropus
centrosa
century
cepapi
cepapoides
cephalophinae
cephalophus
cephalopterus
cephalopyrus
cephalorhynchus
cephalotes
cephodes
cephus
cepphus
cepta
cera
ceramicus
cerasina
cerasophila
ceratogymna
ceratopipra
ceratotherium
cerca
cercartetus
cercibis
cercle
cercocebus
cercococcyx
cercomacra
cercomacroides
cercopithecidae
cercopithecinae
cercopithecoidea
cercopithecus
cercotrichas
cerdocyon
ceremonial
ceremoniales
ceremonias
cereopsis
ceres
cerete
cerf
cernagora
cerorhinca
cerradensis
cerrito
cerro
cerrosensis
certans
certhia
certhiaxis
certhidea
certhiidae
certhilauda
certhionyx
certus
cervantes
cervicalis
cervicapra
cervicolor
cervidae
cervinae
cervinipes
cervinus
cervus
ceryle
cesar
ceska
ceskaslovenska
cetacea
cettia
cettiidae
ceuthmochares
ceylonensis
ceyx
ch
cha
chacarius
chacoensis
chadensis
chaeropodidae
chaeropus
chaetocauda
chaetocercus
chaetodipus
chaetomys
chaetophractus
chaetopidae
chaetops
chaetoptila
chaetorhynchus
chaetura
chahin
chaillu
chal
chalcomitra
chalcoparia
chalcophaps
chalcopsitta
chalcostigma
chalybura
chama
chamaea
chamaepetes
chamaetylas
chamaeza
chamanes
chamber
chambre
chamek
champ
champfleury
championi
champlain
champs
chanco
changaica
chanleri
chantilly
chapa
chapadensis
chaparral
chapeau
chapini
chapman
chapmani
chaque
charadriidae
charadriiformes
charadrius
charbinensis
charco
charcot
charente
charing
charitospiza
charlemagne
charleroi
charles
charlotte
charltonii
charmosyna
charwomen
chasen
chasiempis
chasse
chasseur
chat
chato
chatterley
chaudey
chaumie
chauna
chaus
chaval
chavi
chaykovsky
che
cheeked
cheesman
cheesmani
cheirogaleidae
cheirogaleoidea
cheirogaleus
chelemys
chelictinia
chelidoptera
chelidorhynx
chelsea
chemin
cheminot
chenavard
chengi
chenonetta
chenorhamphus
cheramoeca
chernyavskii
cherriei
cherry
chersomanes
chersophilus
cherubini
chesapeake
chesser
chestnut
cheur
cheval
chevreuil
chevrieri
cheybani
cheyennensis
chi
chialtanensis
chianfengensis
chiapensis
chibcha
chibchacum
chibchanomys
chibchas
chica
chicago
chicamocha
chicha
chiche
chichingensis
chien
chihuahuae
child
childebert
childeric
childhood
children
chile
chiliensis
chillae
chilomys
chilpe
chima
chimarrogale
chimborazo
chimie
chimila
chiminigagua
china
chinanteco
chinchilla
chinchillidae
chinchilloides
chinchillula
chinchina
chinensis
chinese
chinga
chinghaiensis
chinguetti
chionidae
chionis
chionomys
chipaque
chipata
chipmunk
chiquinquira
chiquito
chira
chiricahuae
chirindensis
chiriquensis
chirogale
chiromyscus
chironax
chironectes
chiropodomys
chiropotes
chiroptera
chiropus
chiroxiphia
chiruromys
chiryu
chiscas
chita
chivata
chivor
chlamydera
chlamydochaera
chlamydotis
chlamyphorus
chleuasicus
chlidonias
chloephaga
chlorestes
chloridops
chloris
chlorocebus
chloroceryle
chlorocharis
chlorochrysa
chlorocichla
chlorodrepanis
chlorophanes
chlorophoneus
chlorophonia
chloropicus
chloropipo
chloropseidae
chloropsis
chlorornis
chlorospingus
chlorostilbon
chlorotalpa
chlorothraupis
chlorus
chner
cho
choachi
chobiensis
chocoensis
choconta
chodsigoa
choloepus
cholornis
choma
chondestes
chondrohierax
chongoni
chontali
choquequirao
chora
chordeiles
chorotega
chorotegas
chorrera
chotanus
chre
christ
christian
christie
christies
christii
christine
christmas
christoph
christopher
christyi
chroicocephalus
chronologiques
chrotogale
chrotomys
chrotorrhinus
chrysaeolus
chrysanthe
chrysauchen
chrysea
chrysillus
chrysippus
chrysocephala
chrysochloridae
chrysochloridea
chrysochlorinae
chrysochloris
chrysococcyx
chrysocolaptes
chrysocomus
chrysocorythus
chrysocyon
chrysodeirus
chrysogaster
chrysolampis
chrysoleuca
chrysolophus
chrysomelas
chrysomma
chrysomus
chrysonotus
chrysophilus
chrysophlegma
chrysoproctus
chrysopsis
chrysopus
chrysopygus
chrysorrhous
chrysospalax
chrysospila
chrysothlypis
chrysura
chrysuronia
chrysuros
chrysurus
chsisches
chubb
chucuri
chudeaui
chunga
chunyi
churberg
church
churchi
chuscensis
chutuchta
ci
ciastoa
cichladusa
cichlocolaptes
cichlopsis
cicinnurus
cickin
ciconia
ciconiidae
ciconiiformes
cicur
cie
ciel
cielo
cienaga
ciesta
ciestey
ciestok
cigavol
cigognanii
ciliatus
cilicicus
cin
cinamomeus
cincinnati
cinclidae
cinclidium
cinclocerthia
cinclodes
cincloramphus
cinclosoma
cinclus
cinderella
cinderensis
cineraceus
cinerascens
cinerea
cinereiceps
cinereicollis
cinereiventer
cinereoaenea
cinereoargenteus
cinereoflava
cinereofusca
cinereus
cineris
cingulata
cinnameus
cinnamomeus
cinnamomum
cinnycerthia
cinnyricinclus
cinnyris
cintrae
circa
circaetus
circasia
circus
cirdata
cirdataxo
ciridops
cirnei
cisek
cisneros
cissa
cissomela
cissopis
cisticola
cisticolidae
cistothorus
cita
citadelle
citellus
citernii
cites
citrinellus
cittura
city
ciudad
ciuktedol
ciuktol
ciuktumol
civet
civetta
civettictis
civettina
civico
civil
civilization
civitatis
ck
ckane
ckolnik
cladorhynchus
claire
clamator
clamitans
clanga
clangula
clara
claras
claravis
clark
clarkei
clarkii
clarus
clau
claude
claudia
claus
clavium
cle
clearing
cleberi
cleesei
clelland
clementae
cleopatra
clepticus
cleptornis
cleveland
clibanornis
clichy
clidomys
clifford
climacteridae
climacteris
clinton
clio
close
clotaire
cloud
clouds
cloudy
clovis
clunius
cluse
clusius
clymene
clyomys
clytoceyx
clytoctantes
clytolaema
clytomyias
clytorhynchus
clytospiza
cm
cnemarchus
cnemophilidae
cnemophilus
cnemoscopus
cnemotriccus
cnica
cnipodectes
cnossius
cnt
co
coal
coast
coba
cocalis
coccopygia
coccothraustes
coccycua
coccygis
coccymys
coccyzus
cochinensis
cochlearius
cochoa
cockerelli
cockrum
cockrumi
coco
cocodrilo
coconuco
cocorna
cocuy
coelestis
coeligena
coendou
coenensis
coenocorypha
coenosus
coereba
coeruleoalba
coetzee
coetzeei
cofol
cofuot
cognatus
cogua
coibae
coibensis
coimbrai
cokii
col
colaptes
colburni
cole
colegio
colgantes
colibri
coliidae
coliiformes
colinus
colius
coll
collar
collared
collaris
collectie
collection
collections
collectivization
college
collett
colletti
colliaei
collier
collinus
collis
collium
collocalia
colluricincla
colo
colobinae
colobus
colocolo
coloeus
colombia
colombiana
colombianus
colombo
colomys
colonia
colonus
color
colorada
colorado
coloratus
colored
colorhamphus
coloxov
coludo
columba
columbia
columbiana
columbianus
columbidae
columbiensis
columbiformes
columbina
columbus
colyn
com
comaposada
comata
come
comercial
comercio
cometes
commerce
commersonii
commission
common
commune
como
comoe
comosa
compacta
compactus
company
compendio
compsospiza
compsothraupis
comte
comu
comuna
comunera
comunidad
comus
con
conard
concavus
concepcio
conchas
concinna
concinnus
concisa
concisor
concolor
concordia
conde
conditor
condorensis
condylura
conepatus
confinalis
confinis
confinus
conflict
confucianus
congica
congicus
congo
congobelgica
congosorex
congress
conilurus
coninga
conioptilon
conirostrum
conisbee
connectens
connochaetes
connori
conopias
conopophaga
conopophagidae
conopophila
conostoma
conothoa
conothraupis
conoveri
conquest
conquistas
conrad
conscius
considera
consitus
consobrinus
conspicillatus
constantiae
constantin
constantinople
constantinus
construccio
consul
consularis
contacto
contadero
contard
conte
contemporain
contento
conterras
conti
continentalis
continentis
contopus
contractus
contre
contreras
conuropsis
convelatus
convencio
convento
convergens
conversation
conversion
conversione
convexus
convolutor
conya
conyokara
conyuta
cook
cookii
cooksoni
coombsi
cooper
cooperae
cooperi
coordinates
copacabana
copaf
copafa
cope
copei
copperfield
copsychus
copuca
coquerel
coquereli
cora
coracias
coraciidae
coraciiformes
coracina
coracopsis
coracornis
coragyps
coralie
corapipo
corara
corazo
corbet
corbetti
corcoracidae
corcoran
corcorax
cordier
cordieri
cordillera
coreana
coreanus
coreensis
corinnae
corinto
cormobates
cornalia
corneille
corner
corobici
coromoro
coronata
coronatus
corot
corozal
corrales
corregimiento
corriae
corsac
corsicanus
corte
cortot
corvidae
corvinella
corvus
cory
corydon
coryphaspiza
coryphistera
coryphomys
coryphospingus
corythaeola
corythaixoides
corythopis
corythornis
cos
coscoroba
cosik
cossypha
cossyphicula
costa
costalago
costaricensis
costarika
cosxo
cot
cota
coteaux
cothurnata
cotinga
cotingidae
cotopaxi
cottoni
cottontail
cottoradunol
coturnicops
coturnix
coua
coucang
coucha
couchant
couche
coucher
couchi
couchii
couder
coues
couesi
couguar
country
county
coupeau
cour
courbet
course
court
courtauld
courtyard
cousturier
coutourier
cowan
cowani
cowles
coxenii
coyaima
coyhaiquensis
coypus
coyunta
cpogol
cpogudol
cr
cra
cracens
cracidae
cracticus
crainquebille
crane
cranioleuca
craspedotis
crassicauda
crassicaudata
crassicaudatus
crassidens
crassirostris
crassispinis
crassodon
crassus
crater
cratericus
crateromys
crateroscelis
cratodon
cratogeomys
craul
crawford
crawfordi
crawshaii
crawshayi
crax
cre
creagrus
creatophora
creber
creek
crei
cremnobates
cremnomys
cremoriventer
crenata
crenulata
creper
crepuscula
crespo
crested
cretensis
cretica
creticus
cretzschmar
creurgops
crex
cri
cricetidae
cricetinae
cricetomyinae
cricetomys
cricetulus
cricetus
crimea
crimean
crinifer
crinifrons
criniger
crinitus
crispus
cristal
cristalina
cristata
cristatus
cristicauda
cristina
cristo
cristobalensis
cristoforo
crithagra
critical
crnikovac
crocias
crocidura
crocidurinae
crociduroides
croconota
crocuta
croisset
croix
crop
cropped
cropsey
cross
crossarchus
crossei
crossleyi
crossleyia
crossomys
crossoptilon
crotophaga
crowned
crowther
crowtheri
cruce
crucero
cruces
crucifixion
cruciger
crucigera
cruesemanni
crumpi
crunomys
crusalbum
crusnigrum
cruz
cruzlimai
cryophilus
crypsirina
cryptillas
cryptochloris
cryptoleucopteryx
cryptomys
cryptophaps
cryptopipo
cryptoprocta
cryptospilotus
cryptospiza
cryptosylvicola
cryptotis
crypturellus
crypturus
crystal
ctenodactylidae
ctenodactylus
ctenomyidae
ctenomys
ctica
cu
cual
cuales
cuando
cuanzensis
cuaspud
cuatro
cubanus
cubara
cucaita
cuchilla
cuckoo
cuculidae
cuculiformes
cucullatus
cuculus
cucunuba
cuenot
cuero
cueva
cug
cuga
cugafa
cugafe
cuge
cugeke
cugexa
cugexaf
cugexafa
cuglize
cugon
cugote
cugunaykaf
cugunaykafa
cugviele
cui
cuisaf
cuisafa
cuja
culebra
culicicapa
culicivora
culiek
culionensis
culpaeus
cultellus
cultim
cultimeva
cultura
cultural
culturas
culturatus
culture
cumanicus
cumbal
cumberlandius
cumbre
cumingi
cumulus
cundinamarca
cunealis
cunha
cunicularius
cuniculidae
cuniculus
cunliffe
cunningham
cunninghami
cuon
cuoq
cupidineus
cupido
cuppedius
cupreus
curaeus
curasoae
curassavicus
cure
curioi
curiti
curryi
cursor
cursorius
curtatus
curticeps
curvostylis
curzoniae
cuscinus
cuscomys
cuscus
cuskol
custara
custis
custos
cuta
cutchicus
cutia
cuvier
cuvieri
cuyonis
cuzco
cwekfixuya
cwol
cyanea
cyanerpes
cyaneus
cyanicterus
cyanistes
cyanochen
cyanocitta
cyanocompsa
cyanocorax
cyanograucalus
cyanolanius
cyanolimnas
cyanoliseus
cyanoloxia
cyanolyca
cyanomitra
cyanophaia
cyanopica
cyanopsitta
cyanoptila
cyanoramphus
cyanus
cyclarhis
cycloceros
cyclopedidae
cyclopes
cyclopis
cyclopsitta
cyclotis
cygnes
cygnus
cylindricauda
cylindricornis
cylipena
cymbilaimus
cymbirhynchus
cynanthus
cynictis
cynocephalidae
cynocephalus
cynogale
cynomys
cynopterus
cynosuros
cyornis
cyphorhinus
cypress
cyprius
cypseloides
cypsiurus
cypsnagra
cyrenaica
cyrensis
cyrille
cyrtonyx
cystophora
czechowska
d
da
daava
daavaf
dabagala
dablus
dace
dacelo
dacik
dacnis
dacnomys
dacoba
dacota
dacotensis
dactylinus
dactylomyinae
dactylomys
dactylopsila
dactylortyx
dadid
dadir
dadisa
dadiyir
dadjuga
dadjugot
daemon
daf
dafa
dafur
dag
daghestanicus
daginik
daginikeem
dagir
dagira
dagis
dagobert
dahl
dahli
dahlias
daitonensis
dajna
dajnica
dajoma
dakar
dakela
daki
dakido
dakir
dakotensis
dakteks
dakter
daktera
dakteyer
dal
dalaf
dalafa
dalafi
dalafo
dale
daletoe
dalinger
dalintafa
daljek
dall
dallas
dalli
dalon
dalquest
dalquesti
dalstroy
daltoni
dam
dama
damaliscus
damarensis
damascus
dambrensis
dame
dammah
dammermani
damo
dan
dana
dancaxo
dance
danda
dandolena
dane
danebury
danedir
danedira
danei
danexa
danford
danfossi
daniel
danielson
dank
dankasik
danmarka
danmarkaf
danmarkafa
danmarkava
danmarkavaf
dans
danuta
dao
daphaenodon
daphne
daphoenositta
daption
daptrius
dar
dare
daref
darefa
darehshourii
dareik
darekeugal
darfurea
darien
darienensis
dariensis
dario
dark
darka
darkasaberopaf
darlingi
darpe
darpeon
dartmouthi
darwin
darwini
das
dasilvai
dastrubenik
dasugdar
dasugdayar
dasycercus
dasycrotapha
dasykaluta
dasylophus
dasymallus
dasymys
dasyornis
dasyornithidae
dasypodidae
dasypodinae
dasyprocta
dasyproctidae
dasypus
dasythrix
dasytrichus
dasyuridae
dasyurinae
dasyuroides
dasyuromorphia
dasyurus
data
database
datae
datafa
datca
datcanya
datcon
datoy
daubentonia
daubentoniidae
daughter
daurica
dauricus
dauurica
dauuricus
davafa
davensis
david
davide
davidi
davidiana
davidianus
davies
davis
davisi
davisoni
davon
dawn
dawsoni
daxa
day
dayanus
dayi
daykara
dayker
days
dc
dd
de
dead
dealbata
dean
dear
death
deathbed
deauville
deaxelol
deaxipol
deaxol
deaxukol
deba
debak
debala
debalas
debalsaci
debanyesa
debanyese
deblamera
debout
dec
decapita
decem
decemda
decemdafa
decemiray
decemlineata
decemoy
decemoya
decitda
decitmetre
decitor
decitoy
decitoya
deckenii
deconychura
decoracio
decoraciones
decoratus
decula
decumanus
dedichen
deer
defassa
defilippi
definitus
defriesi
defua
dega
degli
degraaffi
degus
dei
dejeani
dejnyov
deksaf
del
delacour
delacouri
delacroix
delafa
delafolie
delamerei
delanymys
delator
delaunay
delectorum
deleornis
deletrix
delfini
delft
delibes
delicatulus
delicatus
delichon
delicias
delimiz
delixa
dell
della
delle
delomys
delothraupis
delphinapterus
delphinidae
delphinus
delphis
delporte
delt
deltafa
deltamys
deltarhynchus
delticola
dem
demerarae
demidovii
demissa
den
dendragapus
dendrexetastes
dendrocincla
dendrocitta
dendrocolaptes
dendrocopos
dendrocoptes
dendrocygna
dendrogale
dendrohyrax
dendrolagus
dendromurinae
dendromus
dendronanthus
dendroperdix
dendropicos
dendroplex
dendroprionomys
dendrortyx
dene
deneon
denfid
denfir
denfiyir
denigratus
denis
denise
denniae
denon
densirostris
dent
dentatus
denti
dentifer
dentro
denver
deomyinae
deomys
deona
deor
deparma
dephomys
deppei
depressicornis
depressus
depuis
der
deraniyagala
derayakara
derbianus
derbyanus
dere
derek
derka
dermoptera
derooi
deroptyus
dersu
dervekxo
des
description
descubrimiento
desde
desert
deserti
deserticola
desertor
desertorum
design
desmana
desmarest
desmarestianus
desmarestii
desmodilliscus
desmodillus
desmomys
desmoulins
desna
desperata
destacan
destructioni
destructor
det
detail
detce
detroit
detumidus
deusen
deux
devant
devexus
devia
deville
devilliersi
devius
deweldura
dewitca
dewitcopa
dezso
dhofarensis
di
dia
diable
diadema
dialeucos
diamante
diamondi
dian
diana
dianae
diaphorapteryx
diardi
diardii
dias
diazi
dicaeidae
dicaeum
dice
dicei
dicerorhinus
diceros
dichotomus
dichrous
dichrozona
dichurus
dickens
dickey
dickeyi
dicki
dickinson
dickman
dicrostonyx
dicruridae
dicrurus
dictator
dictionary
did
didactylus
dide
didelphidae
didelphimorphia
didelphinae
didelphis
didelphoides
diderot
didunculus
die
diego
diehli
diel
diema
dieppe
dierk
diersing
dieseneri
dieterlen
dieterleni
dieu
difficilis
digdatol
digiks
digir
digisik
digit
digiyir
diglossa
dik
dika
dikid
dikir
dikis
dikiyir
dikote
dilafa
dilatus
dile
dilectus
dilfur
dilfura
dilfuyud
dilfuyur
dilgava
dilgavafa
dili
dilintafa
dilized
dilizer
dilizesa
dilizeyed
dilizeyer
dilizeyesa
dilk
dim
dimblira
dimblirugal
dimdenlapir
dimdodera
dimempara
dimempayar
dimfira
dimidiata
dimidiatus
dimlakir
dimlakira
dimlanir
dimlanira
dimlaniyir
dimlapir
dimlapira
dimlapiyir
dimon
dimpir
dimpira
dimstakser
dinant
dinaromys
dinemellia
dingeltokusik
dingo
dingol
dinner
dinnik
dinomyidae
dinomys
dinopium
diogo
diolafo
diomedea
diomedeidae
diomys
diopsittaca
dioptrica
dios
dioses
diotera
diotexa
diphyllodes
diplogale
diplomesodon
diplomys
diplothrix
dipodidae
dipodillus
dipodinae
dipodoidea
dipodomyinae
dipodomys
dippenaar
diprotodontia
dipus
dique
dir
dirbeko
dirbekoma
dirbekora
dire
diref
direfa
direik
direilanon
direm
diretandon
direvielon
dirgan
dirgana
dirganon
dirgar
dirgara
dirgasik
dirgayar
diroteva
dirotevafa
dis
disa
discolor
discosura
diskir
dispar
dissimilis
distancia
distoechurus
distribution
district
disukera
disukesik
disukeson
disukexa
dit
dite
ditions
diuca
div
divan
divatce
divatcepe
divatcera
divblinik
divblir
divblira
divbliyin
divburera
dive
divef
divefa
diveik
diveon
divergens
diversicornis
diversity
diversos
diversus
dives
divexo
diviso
divlanir
divlankera
divlizer
divlizera
divlizeyer
divnedid
divnedir
divnedira
divokseks
divoksera
divrozar
divrozara
divrozas
divsoker
divulaf
divulafa
divvawar
dixiensis
dixon
dixonae
dixoni
diyir
dizver
dizvera
dizvesik
djamdjamensis
djampol
djenetol
djenne
djenol
djoka
djonga
djoudj
djova
djumera
dmitri
dnipro
dnister
do
doaliera
dob
dobar
dobson
dobsoni
dobsonia
dobsonii
dobulik
doca
doceleguas
doda
dodelaf
dodelafa
dodelik
dodelikafa
dodelikeem
doder
dodera
dodingae
dodoma
doeva
doevaf
doevafa
doevafo
doevik
dof
dofa
dog
dogana
doggetti
dogramacii
dogs
doi
doimpar
dokobar
dokobara
dokobasik
dolavirol
dolekik
dolekikafa
doleks
doler
dolera
dolesik
dolexe
dolexo
doleyer
dolichocephalus
dolichocrania
dolichonyx
dolichotis
dolichura
dolichurus
doliornis
dollar
dollman
dollmani
dollmann
dologale
dolores
dolospingus
dolpa
dolphin
dolta
doma
domaniewski
dome
domega
domelicus
domenico
domes
domestica
domesticus
domeykoanus
dominator
domingo
dominicanorum
dominikana
dominique
dominus
domon
domorum
don
donabe
donacobiidae
donacobius
donacophilus
donacospiza
donaf
donafa
donald
donde
dongfangensis
dongolana
dongolanus
donmati
donna
donner
donu
doon
doorsiensis
dopewa
dopewapa
doppelmayri
dora
dorada
dorbignyi
dorcas
dorcatragus
dorcopsis
dorcopsulus
dordogne
dordrecht
doria
doriae
dorian
dorianus
doricha
doriferus
doris
dorota
dorothea
dorrit
dorsalis
dorsata
dorset
doryfera
dos
dositar
dositasa
dositik
dositiktum
dositikya
dositikye
dositon
dosquebradas
dostak
dostoyevski
dota
dotaf
dotafa
dotaxe
dotaxo
dotay
doteem
dotokilik
douard
douarnenez
doubs
douceti
douglas
douglasi
douglasii
doutt
dovey
down
downing
doye
dp
dr
draco
draconilla
dracula
draga
drager
drageyer
dragunara
drake
drale
drasur
drasura
drasuyur
dratcer
dratcera
dravidianus
drawing
dre
dream
dreiser
drelk
drelol
dremomys
drendik
drepanis
drepanoptila
drepanorhynchus
drepanornis
dreptes
dresden
dreyfus
drig
drigdar
drikon
drimula
drinkers
dritik
drivhuset
driviakol
dro
drom
dromadidae
dromaius
dromas
dromedarius
dromiciops
dromococcyx
drouhardi
drozba
drozbeka
drozbey
drozbok
drozdovskii
drume
drummond
drunara
drunta
dryas
drymocichla
drymodes
drymophila
drymornis
drymotoxeres
dryobates
dryocopus
dryolimnas
dryomys
dryoscopus
dsc
dsinezumi
dt
du
duarte
dubiera
dubiesik
dubius
dublin
dubna
dubois
dubost
dubosti
dubusia
duck
ducula
dudui
dueben
duela
duelaxo
dug
duga
dugdol
dugi
dugon
dugong
dugongidae
dugout
duhamel
duitama
dulap
dulapafa
dulaper
dulapera
dulapeyer
dulce
dulidae
dulkeiti
dulkotesa
dulus
dulwich
dum
dumas
dume
dumede
dumetella
dumetia
dun
dundasi
dunes
dung
dunnart
dunni
dunol
dunoleem
duodecimcostatus
dupetor
dupont
duprasi
dupre
dupreanum
dur
durand
durangae
durangi
durant
durante
duranti
durden
dure
durga
during
durrant
durranti
durruti
durulafa
dusicyon
dusky
dussumieri
duthieae
duvaucelii
duvernoy
duvud
duvur
duxara
duz
duzuma
dvina
dwarf
dwigubski
dyacopterus
dyakonov
dybowski
dybowskii
dyck
dye
dylan
dymecodon
dynasties
dysithamnus
dysmorodrepanis
dysoni
dzaga
dzeta
dzeteem
dzor
døden
dødskamp
e
eaf
eafa
eaftaf
eaftafa
eaftevafa
eaftuca
eagle
eared
early
east
eastern
eating
eaton
eau
eauplet
eba
ebava
ebe
ebeltaf
ebeltafa
ebeltafi
ebeltaxo
ebelte
ebeltik
ebeltikya
ebenus
ebgar
ebidus
ebii
ebockafa
eborivorus
ebriosus
eburneae
ecaudatus
ecce
eceyxe
echa
echimyidae
echimyinae
echimys
echinatus
echinista
echinoprocta
echinops
echinosorex
echinothrix
echiothrix
echmiatsin
echymipera
echymiperinae
eclectus
eco
ecor
ecsedensis
ectopistes
ecuador
ecuadorian
ed
eda
edarata
edava
edax
ede
edegotuk
edelfelt
edeme
eden
edeni
edgabia
edgar
edgarda
edge
edificio
edinburgh
edited
edith
edithae
editores
editorial
editorum
edja
edjaftol
edje
edji
edme
edmond
edmund
edna
edo
edoardo
edolisoma
eds
edu
eduardo
edvard
edvardmunch
edward
edwardii
edwards
edwardsi
edwardsii
edwin
eem
eemil
eero
eestia
efe
effect
effera
effet
egale
egara
egas
eglise
egretta
egudo
eha
ehf
ehrenberg
ehrenbergi
eido
eidolon
einar
eine
eip
eira
eirea
eireaf
eisentraut
eisentrauti
ejiri
eka
ekaterina
eke
ekely
ekibol
ekman
eksa
ektudar
ektur
ekuadora
ekwa
el
elaboracio
elachura
elachuridae
elaenia
elakera
elanoides
elanus
elaphinus
elaphodus
elaphrornis
elaphurus
elaphus
elasmodontomys
elassodon
elassodontus
elata
elater
elator
elbeli
elburzensis
elbusik
elda
eldena
eldii
eldik
eldredge
electilis
electra
electromontis
electron
electus
elega
elegans
elegantulus
elementos
elena
eleoscytalopus
eleothreptus
elephant
elephantidae
elephantinus
elephantulus
elephas
eleusis
elfriede
elgersburg
elgesburg
elgonis
elgonius
eli
elias
eliasi
elibatus
eligmodontia
elimon
elin
eliomys
eliot
elisabeth
eliurus
elizabeth
elizaveta
ellasa
ellasaf
ellasafa
ellen
ellerman
ellermani
elliot
ellioti
ellipsiprymnus
ellobius
ellos
elmakol
elmibol
elminia
elmol
elongata
elpat
elpataf
elpatafa
elpateem
elpatopa
elpatopafa
elpatopik
elpatusik
elrod
elsa
elseyornis
eltay
elucus
elupkaf
eluxa
elvira
elza
em
ema
emacek
emarginata
emarginatus
emaxe
embalse
emberiza
emberizidae
emberizoides
embernagra
emblema
emdusik
emersa
emil
emile
emilia
emiliae
emilianus
emilio
emily
emini
eminia
emissus
emma
emmae
emmanuel
emmaus
emmeline
emmons
emmonsae
emmonsii
emnagara
emon
emotus
empidonax
empidonomus
empidornis
empire
emuder
emudera
emudes
en
enaav
encino
enckell
encontrado
encyclopedia
end
enders
endersi
endogurov
energumenos
enfant
enfants
enga
enganus
engberg
engelhardi
engla
englaf
englafo
england
englava
englavaf
englavafo
englavon
englik
english
engri
enhydra
enicognathus
enicurus
enide
enilt
enintenon
enixus
enja
enk
enkap
enkopaf
ennisae
enodes
enomara
enonkoski
ensifera
entatsinol
entelloides
entellus
entering
entomodestes
entomyzon
entrada
entre
entrerianus
entrerri
entry
enudris
envaks
envara
envayar
envigado
environs
eo
eoglaucomys
eolagurus
eolophus
eonis
eonycteris
eophona
eopsaltria
eos
eospalax
eothenomys
eotinus
eozapus
epauletted
ephippiger
ephippiorhynchus
ephippium
epic
epieni
epimachus
epimelas
epinay
epinecrophylla
episoriculus
epita
epiteem
epixanthus
epixerus
epoch
epomophorus
epomops
epsilon
epthianura
epularius
epura
epuyud
epuyuna
equatoris
equidae
equina
equinus
equus
era
eragny
eran
erava
erba
erbafa
erbarge
erbilok
erebuni
eremalauda
eremiana
eremicus
eremitalpa
eremodipus
eremomela
eremophila
eremopterix
erethizon
erethizontidae
erethizontinae
erhard
erhenberg
erica
erich
ericson
erignathus
erik
eriklik
erikssoni
erinaceidae
erinaceinae
erinaceomorpha
erinaceus
eriocnemis
erithacus
erkey
erlangeri
erminea
ermitage
ermitaj
ernest
ernesto
ernst
ernstmayri
eropeplus
eroticism
erpornis
erro
ertra
erubescens
erur
erura
eruyur
ervo
ervokiraf
ervokirafa
ervolia
ervolita
ervolitik
erxleben
erythraeus
erythrarchus
erythreae
erythrocebus
erythrocercidae
erythrocercus
erythrogaster
erythrogenys
erythrogonys
erythroleucus
erythromachus
erythropitta
erythropus
erythrotis
erythrotriorchis
erythrura
erzincan
es
esacus
esau
escalante
eschrichtiidae
eschrichtius
eschscholtz
esclavitud
esclavos
escondido
escuela
escuinapae
esferas
eskimo
esmeralda
esmeraldae
espada
espadey
espadim
espadok
espados
espan
espana
espanaf
espanafa
espanafe
espanava
espanavaf
espanavon
espanik
espe
especial
esperanza
espi
espinal
espino
esquinas
esquisse
essays
essen
est
esta
estacio
estacion
estadio
estampes
estancia
estanciae
estaque
estas
estatal
este
estera
estor
estos
estova
estrella
estrilda
estrildidae
estruc
estur
estura
estuxa
estuxo
esuae
et
etela
ethiopia
etigo
etik
etimar
etimara
eto
etol
etruscus
etsa
ettore
etude
eubalaena
eubucco
euchoreutes
euchrepomis
eucometis
eudes
eudocimus
eudora
eudorcas
eudromia
eudynamys
eudyptes
eudyptula
euge
eugene
eugenes
eugenii
eugenio
eugerygone
eugralla
eulabeornis
eulacestoma
eulacestomatidae
eulagos
eulampis
eulemur
eulidia
eulipoa
eumetopias
eumomota
eumyias
eumysopinae
euneomys
euneornis
eunymphicus
euodice
euoticus
eupetaurus
eupetes
eupetidae
eupetomena
euphagus
eupherusa
euphonia
euphractinae
euphractus
euphratica
euplectes
eupleres
eupleridae
eupodotis
eupsittula
euptilotis
euptilurus
eure
eurillas
eurocephalus
europa
europaea
europaeus
europaf
europafa
europe
european
europik
euroscaptor
eurostopodus
euryceros
eurycerus
eurylaimidae
eurylaimus
euryptila
eurypyga
eurypygidae
eurypygiformes
euryspilus
eurystomus
euryzygomatomys
euscarthmus
euschistospiza
eutoxeres
eutrichomyias
eutriorchis
eutropia
euxanthus
eva
evagor
evangil
evansi
evdokia
evening
everetti
evergladensis
evermanni
eversmanii
eversmann
eversmanni
evexus
evilma
evirga
evla
evlacka
evlafa
evlara
evlon
evoronensis
evotis
evuskol
ewa
ewala
ewalama
ewalatum
ewaleem
ewalzeyena
ewava
ewavak
exaksar
exaksara
exaksasik
exalbidus
examinant
exava
excalfactoria
excavations
excelsior
excelsus
excubutor
exgeanus
exiguus
exilis
exilisciurus
eximius
existencia
existi
exists
exitus
exoleta
exoma
exoner
exonera
exoneyer
expulsus
exterior
extimus
extinct
extractus
exulans
exuler
exuleyed
exupe
exura
exus
exusa
exusik
eydoux
eye
eyelt
eyra
eyton
eyundol
eyundukol
eyvind
ez
ezaki
eze
ezerskaya
ezla
ezlaf
ezlafa
ezlak
ezlopa
ezlopik
f
fa
faafinarol
fabdura
fabre
fabricius
fabrique
facatativa
face
faced
fachada
fada
fadaf
fadak
fagani
fairytale
faisant
fajon
fakon
fala
falaise
falcifer
falcipennis
falco
falcone
falconeri
falconidae
falconiformes
falculea
falcunculus
faldimol
faldol
faldukol
fall
fallax
fallenda
falls
faltaf
faltafa
falte
famatina
famatinae
familia
familiaris
family
famine
famosus
famulus
fang
fani
fanni
fanny
fanya
faol
faradjius
farallon
farasani
fardoulisi
farfrae
farm
farmyard
farrallon
fart
farura
fasciata
fasciatus
fascicularis
fasciculata
fassini
fastafa
fat
fatuellus
faujas
faulkner
fauna
faunulus
faved
favena
faver
favera
faveyed
faveyena
faveyer
fayik
fe
feae
fear
feature
feb
fedafa
federica
federico
fedjushini
fedor
feiler
feileri
fela
feleem
felem
feliceus
felidae
feliformia
feliik
feliks
felilera
felina
felinae
felipe
felipei
felipensis
felira
felis
felisa
felisik
felix
felli
fellowesgordoni
fellowsi
felovia
fels
felsen
felten
felteni
felusik
fem
female
femen
femme
femmes
femoralis
fene
fenestratus
feng
fenkur
fennicus
fent
fentafa
fenton
fentugal
fentugalaf
fentugalon
feodor
fer
ferdinand
ferenc
fereon
feresa
ferghanae
fergussoniensis
ferme
ferminae
ferminia
ferna
fernand
fernandinae
fernando
fernandoni
feroculus
ferox
ferrari
ferrarii
ferreira
ferreogrisea
ferretti
ferreus
ferrilata
ferrocarril
ferruginea
ferrugineus
fertik
fertikya
fertilidad
fertilis
fertye
ferus
fervidus
festa
festina
fetinte
fetisov
fetosus
feu
fever
feyerabend
fi
fialka
fiber
ficedula
fico
field
fieldi
fields
fierdol
fig
figaf
figafa
figginsi
figner
figuras
figure
figures
fikaf
filadelfia
filandia
filav
filchneri
file
fille
filles
filo
fils
fimbriatus
finch
fine
finland
finlayson
finlaysonii
finn
finnberg
finnish
finsch
finschi
finta
fintar
fipta
fird
firdausi
firday
firdera
fire
firenze
firouzi
first
firviks
firvir
firvira
firviyir
fischer
fischeri
fisheri
fishing
fiste
fitc
fitzinger
fitzpatrick
fitzroyi
fitzwilliam
five
flagey
flamarioni
flammarion
flammifer
flannery
flaubert
flava
flavafa
flavescens
flavicans
flavicauda
flavicaudatus
flaviceps
flavicollis
flavidens
flavidus
flavifrons
flavigula
flavigularis
flavimanus
flavior
flavipes
flavissimus
flavius
flaviventer
flaviventris
flavopunctatus
flavovittis
flavus
flaweza
flawezot
flek
fleming
flerov
flers
fleur
fleuretae
fleurs
fli
flibik
flickr
flides
flidesa
flight
flint
flintaf
flintafa
flintik
flioda
flioton
fliwuca
flora
flore
florenciae
florensis
florent
flores
floresianus
floresiensis
floresii
floresta
florian
florida
floridablanca
floridana
floridanus
florisuga
flower
floweri
flowers
flu
fluviatilis
fluvicola
fluvor
flycatcher
flying
fo
foai
foalk
fochi
fociensis
fodax
fodiens
foetida
fog
fogelom
fogg
foina
folir
folira
folivora
folixa
folk
folkam
folkay
folkaykirafa
folletti
folva
folvafa
fond
fondation
fontaine
fontainebleau
fontanelus
fontanierii
fontcouverte
fontinalis
footed
for
forall
forbes
forbesi
ford
fore
forest
forestier
forma
formicariidae
formicarius
formicivora
formosanus
formosovi
formosus
fornarina
fornesi
fornicatus
forpus
forresti
forster
forsteri
forsyth
fort
fortey
forteyfamik
forteykirafa
forteyotafa
fortis
fortol
fortress
fortuna
fortunato
foss
fossa
fossana
fossata
fosse
fossor
fossveien
fosteri
foto
fotsifotsy
foudia
foulehaio
foundation
four
fouras
fox
foxi
fr
fra
frac
fraenata
fragilicauda
franc
franca
francaf
francafa
francafe
francafi
francava
francavaf
francavafo
francavon
france
frances
francesca
francescae
francesco
franceville
franche
francik
francis
francisco
franck
franco
francoisi
francolinus
frandseni
frank
frankenstein
frankfurt
franklinii
franqueti
frans
franz
fraser
fraseria
frater
fratercula
fraterculus
fraternus
fratrorum
frau
fray
fre
frederic
fredericae
frederick
frederickena
frederik
fredonia
fredrik
free
fregata
fregatidae
fregetta
fregilupus
fremonti
frempol
frenata
frenatus
french
frente
frerei
fresno
fretensis
frette
freyr
fri
friche
frick
fridtjof
friedrich
frieze
frigicola
fringilla
fringillidae
frisch
frisen
fritsch
frofara
frollo
from
frommi
front
frontalis
frontata
fronted
frontino
fronto
frosterus
frosti
fruit
frumba
frustror
fruticus
fu
fuchs
fuchu
fue
fueginus
fuego
fuente
fuentes
fueron
fuerte
fuji
fujieda
fujikawa
fujisawa
fuk
fukorlara
fukuroi
fulgens
fulgida
fulica
fuliginatus
fuliginosa
fuliginosus
fulmarus
fulva
fulvastra
fulvescens
fulvetta
fulvicollis
fulvidina
fulvidior
fulvipes
fulviventer
fulvorufula
fulvus
fum
fumeus
fumidus
fumosa
fumosus
funambulus
funcio
fundacio
fundatus
funerarias
funereus
funes
funestus
funisciurus
funza
furax
furcifer
fure
furender
furendera
furnariidae
furnarius
furnessi
furo
furutsa
furva
furvogaster
furvus
fusagasuga
fusca
fuscata
fuscatus
fusciceps
fuscicollis
fuscifrons
fuscior
fuscipes
fuscoater
fuscocapillus
fuscogriseus
fuscomurina
fusconigricans
fusculus
fuscus
fusicaudus
fuxe
fuxedja
fuzol
fwestiol
fyodor
fyodorovna
g
ga
gaar
gaara
gaayar
gabbi
gabbii
gabler
gablexa
gabona
gabonensis
gabot
gabriel
gabriela
gabriellae
gabrielle
gachala
gachancipa
gachantiva
gacheta
gactornis
gadafa
gadakiewega
gadava
gadela
gaden
gadena
gadenon
gader
gadera
gaderopa
gaderopaf
gaderopafa
gaderopafi
gaderopik
gaderopikaf
gaderopon
gadesik
gadesikeem
gadeyer
gadik
gadikeem
gadikya
gadikyafa
gadikye
gadya
gadye
gael
gaest
gaillardi
gaimard
gaimardi
gakera
gal
gala
galagidae
galago
galapagoensis
galbalcyrhynchus
galbedur
galbedura
galbedus
galbol
galbula
galbulidae
galbus
galda
galdafe
galdolk
galdolkafa
galea
galemys
galenomys
galeopterus
galera
galeras
galerella
galericinae
galericulata
galerida
galerie
galeritus
galette
galgenberg
galictis
galidia
galidictis
galidiinae
galili
gallaecius
gallardo
gallarum
gallen
galleria
galleries
galleriet
gallery
gallicolumba
gallicrex
gallien
galliformes
gallimard
gallinago
gallinula
gallirallus
gallo
galloperdix
gallus
galsworthy
galuca
galza
gama
gamay
gambel
gambia
gambianus
gambogi
gamda
gamdakoraf
gamdakorafa
gamdar
gamdaytara
game
gampsonyx
gampsorhynchus
gan
gana
ganana
gandura
ganer
gangarol
gangetica
ganon
ganzhorn
gao
gaoligongensis
gapper
gapperi
gar
garagoa
garamantis
garbei
garci
garcia
gard
gardap
garden
gardner
gardneri
gare
garelli
garia
garleppi
garmenjak
garnettii
garonne
garonum
garridoi
garritornis
garrodia
garrulax
garrulus
gartol
gartukol
gary
gaspensis
gasta
gate
gates
gatol
gaumeri
gaurus
gautier
gave
gavia
gavicalis
gaviidae
gaviiformes
gavit
gaxin
gay
gayane
gazaf
gazafa
gazar
gazara
gazaroti
gazaxo
gazayar
gazda
gazdafa
gazdon
gazella
gazellae
gazelle
gazik
gazikeem
gazikya
gazon
gazugal
ge
geata
gecinulus
gedira
gedraf
gedrafa
gedrosianus
gedruca
gee
geeafrika
geeafrikaf
geef
geefa
geefi
geei
geeka
geeon
geesudana
geissenklo
geissmann
geiste
geja
gejaf
gejik
gejugal
gekast
gelada
gelang
gelbe
gelber
gelbesik
gelfman
gelkeon
gelochelidon
gelt
geltrafa
geltreva
geltrevaf
geltrevafa
geltron
geltruca
gelukafe
gem
gema
gemaf
gemelt
geminorum
geminus
gen
gena
genas
gene
general
generalmente
genes
genesareth
genest
genet
genetta
geneva
genevie
genibarbis
genlis
gennaro
gennevilliers
genoa
genocide
genova
genoways
gentileschi
gentilulus
gentim
geobiastes
geocapromys
geocerthia
geococcyx
geocolaptes
geoffory
geoffrensis
geoffrin
geoffroii
geoffroy
geoffroyi
geoffroyus
geogale
geokichla
geometry
geomyidae
geomys
geon
geopelia
geophaps
georg
george
georges
georgetown
georgi
georgihernandezi
georychus
geositta
geospiza
geothlypis
geotrygon
geoxus
gepenol
gepoyter
geq
ger
geranoaetus
geranospiza
gerard
gerardo
gerbe
gerbei
gerbillinae
gerbilliscus
gerbillurus
gerbillus
gerd
gerendel
germain
germaini
germana
germanaf
germanafa
germanafo
germanavaf
germanavon
germanik
germanus
germany
germinal
gerone
geronefa
geroneon
geronticus
gerpi
gerrardi
gertapik
gertik
gertikye
gertrude
gervais
gervaise
gerygone
geschichte
gesia
gesiar
gesiara
gesta
gestafa
gestara
gesya
getalte
getaltefa
getalteon
getalton
getap
getty
getulus
geuon
gexata
ghana
ghansiensis
ghose
giacomo
giant
giao
gibbon
gibbsii
giblir
gibsoni
gica
gichiganus
gico
gida
gide
gidley
gif
giffardi
gifford
gigante
gigantea
giganteus
gigas
giglioli
gihr
gijaf
gijafa
gijapaf
gijarotiaca
gijarotiaceem
gijarotif
gijarotifa
gijarotiuca
gijaxe
gil
gilbert
gilberti
gilbertii
gildar
gilder
gilesi
gill
gilles
gillespiei
gilliardorum
gillii
gilmore
gilpin
giltafa
giltira
giluwensis
gilvigularis
gilvus
gimalestur
gimpol
gin
gindaf
gindafa
gindafu
gindaroti
gindaxo
gindik
gindugal
ginelasa
ginkgodens
ginnell
ginsa
ginsaxe
ginur
giopaceem
giopon
giorgio
giovanni
giovannoni
gipular
gir
giraffa
giraffidae
girardot
girardota
girbanensis
gire
girl
girls
giro
girolamo
gis
gisa
gise
gisors
gitir
giuditta
giuseppe
giva
givanon
givar
givayar
giverny
giwar
giwara
gje
gjellerup
glabafa
glaber
glacialis
glacier
gladzor
glama
glamoc
glandifera
glareola
glareolidae
glareolus
glasgow
glassi
glastaf
glastafa
glastikeem
glaucidium
glaucinus
glaucis
glaucomys
glauculus
glaucus
gleadowi
gliciphila
gliridae
glirina
gliroides
glironia
glirulus
glis
glise
global
globicephala
gloga
gloger
gloria
glossopsitta
gloveralleni
gloveri
glu
glupafa
gluya
gluyaxa
gluyista
glycichaera
glycifohia
glyphorynchus
glyphotes
glyptotek
gmelin
gmelini
gnorimopsar
gnou
go
goaspil
goats
goba
god
godenhjelm
godevrik
godmani
godwin
goeldi
goeldii
goethalsia
goethe
gogh
gogol
goire
goju
gojukol
gola
golaf
golafe
golani
golapa
gold
golda
golde
golden
goldfuss
goldiei
golding
goldman
goldmani
goldmania
goldoni
goleem
golera
golfo
golia
goliath
golic
golodomor
golunda
gomil
gomilara
gomilasik
gomilura
gominjak
gomk
gonaytar
goncourt
gong
gongshanensis
goni
gonoy
gonza
gonzalesi
gonzalo
goodfellowi
goodman
goodpasteri
goodwin
goodwini
google
gorad
goraks
goral
gorar
gorara
gorayar
gordimer
gordon
gordoni
gordonorum
gore
gorgasi
gorgon
gorilla
gorki
gornji
gorsachius
gort
gorukafa
goslingi
gossypinus
gotir
gotland
gotunuca
gotur
gouazoubira
goudotii
gouges
gould
gouldi
gouldii
goundae
goura
gov
govitaf
govitafa
govitaxo
govitol
govitugal
goweri
goxe
goyol
goyu
gozara
gozasik
gpu
gr
gra
graba
grabol
grabom
grabomeem
grabudol
gracilicaudatus
gracilinanus
gracilipes
gracilirostris
gracilis
gracillimus
gracula
gracupica
gradilafa
gradilik
gradilikya
gradojevici
graecus
graells
graellsi
graf
graffmani
grafisia
graham
grahamensis
grakolera
grallaria
grallaricula
grallariidae
grallina
gralomer
gramalote
graminicola
grammomys
grammurus
grampia
grampus
gran
granada
granaf
granafa
granarius
granatellus
granatensis
grand
grandala
grande
grandes
grandiceps
grandidier
grandidieri
grandis
grands
granet
grangeri
grangier
granjon
grant
granti
grantiella
grantii
granulipes
granvik
graomys
graphiurinae
graphiurus
grass
grasse
grassei
grassianus
gratca
gratiosus
gratus
grau
graueri
graueria
grave
gravette
gravipes
gravis
gray
graydidascalus
grayi
graysoni
gre
great
greater
greed
greelt
green
greeni
greenwoodi
gregalis
gregorianus
gregorius
gregory
gregoryi
greifswald
grekik
grelt
grelta
grenadae
grenoble
gressitti
gretcaks
gretcasik
grevyi
grewcockorum
grey
greyi
griawid
griawir
griawira
griawiyir
griawiyis
griawiyisa
griawiyisi
griffith
griffithi
grigor
grigori
grimmia
grinberg
gringoire
grinnell
grinnelli
griruntara
gris
griseicauda
griseifrons
griseimanus
griseimembra
griseipes
griselda
griseoalbus
griseoflavus
griseogena
griseolus
griseorufus
griseotyrannus
griseoventer
griseoventris
griserufescens
grisescens
griseus
grisonax
grita
griuziara
griva
grm
grobbeni
grocelon
groenlandicus
gromeko
gropa
gropeem
gros
grosiba
grosman
grossman
grosso
grot
grote
grotte
ground
group
grousset
grove
groves
gruadafa
gruadik
grubb
gruidae
gruiformes
grulich
grunniens
grunsa
grunsera
grupeckena
grupecker
gruped
grupeik
grupen
grupena
grupepen
grupepena
gruper
grupera
grupet
grupeyer
grupos
grus
grustad
grustaks
grustar
grustara
grustasik
grustayad
grustayar
gruuca
gruyer
gruyeyer
grypus
gtg
gu
gua
guacamayas
guacamayo
guacheta
guadalcanaria
guadalupe
guadalupensis
guadual
guaduas
guahybae
guairae
guaitarilla
gualea
gualiva
gualmata
guamal
guamara
guamo
guanacaste
guane
guanenta
guangdongensis
guanicoe
guanta
guapi
guaporensis
guarani
guard
guardia
guardiae
guariba
guarne
guaruba
guasca
guatape
guatavita
guatemala
guatemalae
guatemalensis
guateque
guavio
guayabal
guayol
guazabancol
guazaf
guazafa
guazafe
guazikye
guazugal
gubef
gubefa
gubeon
gubernatrix
gubernetes
gud
gue
guentheri
guereza
guerlinguetus
guerra
guerre
guerrerensis
guerrero
guerreroensis
gueux
gueymard
guga
guiahouensis
guianae
guichard
guide
guides
guigna
guila
guillarmodi
guillaume
guille
guillermo
guinasensis
guinea
guineae
guineensis
guinera
guira
gulaf
gulag
gularis
gulday
guldenstaedt
gulik
gulo
gulosa
gulosus
gunaf
gundaf
gundafa
gundi
gundlachi
gundlachianus
gunik
gunnar
gunnii
gunningi
gunnisoni
gunt
gunther
gunuca
gunung
guon
gureev
guritcol
gurkha
gusinde
gustac
gustaf
gustav
gustave
gustuca
guthrie
gutie
guto
guttatus
guttera
guttulus
gutturosa
guvaxa
guvaxot
guy
guyana
guyannensis
guyon
guyundera
guzica
gwatkinsii
gweldipol
gweta
gwetak
gyalophylax
gyas
gygis
gyldenstolpe
gymnicus
gymnobelideus
gymnobucco
gymnocaudus
gymnocercus
gymnocichla
gymnocrex
gymnoderus
gymnogyps
gymnomystax
gymnomyza
gymnophaps
gymnopithys
gymnorhina
gymnorhinus
gymnorhyncha
gymnoris
gymnotis
gymnura
gymnuromys
gymnurus
gyo
gyosho
gypaetus
gypohierax
gyps
gyrator
h
ha
haa
haag
haagneri
habbema
habessinicus
habetensis
habi
habia
habitat
habromys
habroptila
hacha
hachette
hacia
hacienda
hacketti
haddou
hadromys
hadrourus
haeckel
haematoderus
haematopodidae
haematopus
haematortyx
haemorhous
haeromys
hafen
hafferia
hafner
hagen
hageni
haggardi
haghpat
hagmann
haidarum
haigi
hainaldi
hainana
hainanensis
hainanus
haired
hairy
hakone
halcyon
haldi
hale
haliaeetus
haliastur
halichoerus
halicoetes
hall
halland
halli
hallucatus
halobaena
halonen
halonifer
hals
haltenorth
hamadryas
hamamatsu
hamatus
hamburg
hamburger
hamica
hamidiye
hamilton
hamiltoni
hamina
hamirostra
hamlyni
hammondi
hamsun
han
handball
handbook
handley
handleyi
handleyomys
hands
hanglu
hankasalmi
hanks
hanna
hannover
hans
hansen
hansruppi
hantu
hapale
hapalemur
hapalomys
hapalopsittaca
hapaloptila
haplochelidon
haplonycteris
haplophaedia
haplorrhini
haplospiza
hara
harald
harar
hararensis
harbor
harbour
harding
hardwicke
hardy
hardyi
hare
harem
harenna
harlan
harmandi
harmattan
harnieri
harold
harpactes
harpagus
harpax
harper
harpia
harpyionycteris
harpyja
harpyopsis
harrimani
harringtoni
harris
harrisii
harrison
harrisoni
harrissoni
harry
hart
hartert
harterti
hartertula
hartford
hartlaub
hartlaubius
hartmannae
hartola
hartwigi
harvard
harvest
harveyi
harwoodi
harz
hassama
hasta
hastata
hastings
hat
hatfield
hatillo
hatinhensis
hato
hatt
hattai
hatti
hattusa
haussa
haussanus
haussmann
haussonville
haute
haven
havre
hawkeri
hawthorne
hay
hayden
haydeni
hayman
haymarket
he
head
heade
headed
heaney
heaneyi
heavisidii
hechos
hecki
hector
hectori
hedenborgiana
hedgehog
hedydipna
heermanni
hefneri
heiberg
heigo
heim
heimyscus
heina
heine
heinesen
heinola
heinrich
heinrichi
heinrichia
heiss
helarctos
heleia
helen
helena
helene
helge
helgelandsmoen
helgen
heliactin
heliangelus
helicolestes
heliobletus
heliodoxa
heliolais
heliomaster
heliopais
heliophobius
heliornis
heliornithidae
heliosciurus
heliothryx
hell
heller
helleri
hellmayr
hellmayrea
hellwaldii
helm
helmitheros
helogale
helopsaltes
helsinki
helveolus
helvum
hemibelideus
hemicentetes
hemicircus
hemiechinus
hemigalinae
hemigalus
hemignathus
hemingway
hemionus
hemiphaga
hemippus
hemiprocne
hemiprocnidae
hemipus
hemispingus
hemithraupis
hemitragus
hemitriccus
hemixos
hemmer
hemprich
henchard
hendecapleura
hendeei
hendersoni
henicopernis
henicophaps
henicorhina
henleyi
henri
henrici
henrietta
henriette
henrik
henry
henryk
hensel
henseli
heptaxodontidae
heptner
heptneri
heptopotamicus
her
herbert
herbertensis
herberti
herbicolus
herbjørg
herblay
hercegovinensis
herculais
heredia
herher
heritage
herman
hermann
hermannsburgensis
hermaphroditus
hermitage
hermon
hermosa
herna
hernandesii
hernandezi
hernandezii
herpestes
herpestidae
herpetotheres
herpsilochmus
herrera
herreranus
herrmann
hershkovitz
hershkovitzi
herta
herveo
heslopi
hesperinus
hesperiphona
hesperius
hesperus
hesse
hessen
het
heteralocha
heterocephalus
heterocercus
heterodus
heterogeomys
heterohyrax
heteromirafra
heteromunia
heteromyias
heteromyidae
heteromyinae
heteromys
heteronetta
heterophasia
heteropsomys
heterospingus
heteroxenicus
heteroxolmis
heude
heudei
heuglin
hewitt
hexaprotodon
hexolobodon
heymansi
hibernica
hibernicus
hidalgo
hieraaetus
hierococcyx
higginsi
high
higuero
hijuelos
hik
hilaire
hildegardeae
hildermeier
hilgerti
hill
hillers
hilliana
hillieriana
hills
hiltonensis
hilzheimer
himalayan
himalayana
himalayica
himantopus
himantornis
himatione
hindei
hinojosa
hinpoon
hinton
hintoni
hippocamelus
hippolais
hippolyte
hippopotamidae
hippopotamus
hippotraginae
hippotragus
hippurosus
hippurus
hiratsuka
hircus
hiroshige
hirst
hirsutus
hirta
hirtipes
hirtula
hirtus
hirundapus
hirundinea
hirundinidae
hirundo
hirvensalmi
his
hiska
hispanicus
hispaniola
hispida
hispidus
hist
histo
histoire
historia
historic
historical
historico
historique
history
histrionicus
histriophoca
histurgops
hitler
hiver
hjalmar
hk
hle
hmer
ho
hobo
hochdorf
hode
hodgson
hodgsoni
hodgsonii
hodogaya
hodomys
hodophilax
hoevenii
hoffeti
hoffmann
hoffmanni
hoffmannsegg
hoffmannsi
hoffmeister
hofmeyri
hohenlohe
hohle
hohlenstein
hokusai
holden
holdereri
holding
hollander
hollandorum
hollister
hollisteri
hollola
hollywood
holmberg
holmboe
holochilus
holofernes
holzneri
hombre
hombres
hombron
home
hominidae
homininae
hominoidea
homme
homo
homorus
honda
hondo
hondoensis
honduras
hondurensis
honeyeater
honfleur
honolulu
honor
honore
hoogerwerfi
hoogstraali
hooijer
hooker
hookeri
hooki
hoole
hoolock
hooper
hooperi
hopiensis
hopkinsi
hoplites
hoplomyoides
hoplomys
hoploxypterus
horace
horbategh
horizocerus
horizonte
horizorhinus
horn
hornaday
horornis
horribilis
hors
horse
horseshoe
horsfield
horsfieldii
hortulorum
hose
hosei
hosonoi
hospital
hotel
hotsoni
hottentotus
houbaropsis
house
houses
houston
hova
hovhannes
hovhannisyan
how
howard
howell
howelli
howensis
howi
howler
hoya
hoyi
hoyningen
hoyo
hr
hripsime
hrle
hrsg
hsu
hu
hua
huachuca
huanchacae
huangensis
huangshanensis
hubbardorum
hubeiensis
huberti
hubrecht
huckleberry
hucucha
hudson
hudsoni
hudsonica
hudsonicus
hudsonius
huene
huet
huey
hueyi
hughi
hugo
hugot
hui
huila
huitaca
huixtlae
hulselmans
humaine
human
humanas
humanos
humblotia
humboldt
humboldtensis
humboldti
humboldtiana
humboldtii
humei
humeralifera
humeralis
humilis
hummelincki
hummingbird
humphreys
humulis
hungarica
hungarorum
hunt
hunteri
hunza
hunzahu
huot
huron
huronax
hurri
hurrianae
husson
hussoni
hutanis
huts
hutterer
huttereri
hutton
huxley
huxleyi
huysmans
hy
hyacinthinus
hyaena
hyaenidae
hybomys
hybridus
hyde
hydrictis
hydrobadistes
hydrobates
hydrobatidae
hydrochaeris
hydrochoeris
hydrochous
hydrocoloeus
hydrodamalis
hydromys
hydrophasianus
hydropotes
hydroprogne
hydropsalis
hydrornis
hydrurga
hyemoschus
hylacola
hyladelphys
hylaeum
hylexetastes
hylia
hyliidae
hyliota
hyliotidae
hylobates
hylobatidae
hylocetes
hylocharis
hylochoerus
hylocichla
hylocitrea
hylocitreidae
hylocrius
hylocryptus
hyloctistes
hylomanes
hylomyoides
hylomys
hylomyscus
hylonympha
hylopetes
hylopezus
hylophaga
hylophilus
hylophylax
hylopsar
hylorchilus
hymenolaimus
hymenops
hyojironis
hyomys
hyosciurus
hypargos
hyperacrius
hyperborea
hypergerus
hyperoodon
hyperythrus
hypnelus
hypocnemis
hypocnemoides
hypocoliidae
hypocolius
hypocryptadius
hypoedaleus
hypogeomys
hypogramma
hypoleuca
hypoleucos
hypomelanus
hypomelas
hypomicrus
hypophaeus
hypopyrrhus
hypositta
hypothymis
hypoxanthus
hypsibia
hypsibius
hypsignathus
hypsipetes
hypsiprymnodon
hypsiprymnodontidae
hyracoidea
hyrcanicus
hyrynsalmi
hystricidae
hystricognathi
hystricomorpha
hystrix
i
iara
iaxe
iaxeme
iba
ibague
ibeae
ibeanus
ibenik
ibex
ibidorhyncha
ibidorhynchidae
ibn
ibsen
ibycter
ic
ica
icde
ice
ichangensis
ichihara
ichillus
ichneumia
ichneumon
ichnusae
ichthyaetus
ichthyomys
icle
iconographia
icononzo
icteria
icteridae
icteriidae
icterus
ictidomys
ictinaetus
ictinia
ictonyx
ictupol
id
ida
idahoensis
idatcol
ide
idevol
idiopsar
idiurus
idja
idjaf
idjafa
idjon
idukol
idul
idulafa
idulugal
idulugalaf
idulugalon
iduna
iera
ifrita
ifritidae
iglesia
ignacio
ignava
ignita
ignitus
igniventris
ignotus
iguaque
ihering
iheringi
ihf
ii
iii
iisalmi
ija
ik
ika
ikaon
ikapermik
ikaplekuyur
ikayolt
ikayolton
ike
ikovac
ikpa
ikra
ikrafa
ikseyen
iku
ikuzara
ikuzasa
ikz
il
ilaeus
ilana
ilanacek
ilanuk
ilava
ile
ileile
ilfir
ilicura
iliensis
ilimpiensis
ilingirog
ilinitcna
ilkaf
ilkafa
ilkik
ilkuca
illadopsis
illaumar
illiger
illigeri
illinoensis
illinois
illustration
illuteus
ilmari
ilo
ilomantsi
ilovik
ilt
iltaal
iltyestara
ilya
im
image
imaizumi
imaizumii
imarius
imbaburae
imbellis
imberbis
img
imhausi
imiskaf
imitabilis
imitator
imizxa
immunis
imolk
imp
impadimak
impadimot
imparilis
impas
impavantad
impavantar
impavantason
impavidus
imperator
imperfecta
importante
imported
imprenta
imre
imus
imwa
imwatroyta
imwatsenke
imwatum
imwes
imwesa
imwugal
imwugalaf
imwugalon
in
ina
inaf
inafa
inafe
inafi
inafo
inafu
inaquosus
inas
inaturalist
inauris
inaurita
inc
inca
incana
incanus
incaspiza
incautus
incensus
incertae
inch
inclusus
incolatus
incomptus
incomtus
inconstans
incredulity
ind
inda
inde
indefessus
indi
india
indian
indiana
indianapolis
indias
indica
indicator
indicatoridae
indicus
indigirka
indiik
individuo
indochinensis
indolagus
indonesia
indopacetus
indre
indri
indriidae
induni
industrial
industrius
indutus
ine
inen
ineptus
inermis
inesperatus
inexpectatus
inez
inezia
infante
infernatus
infinitesimus
inflata
inflatus
info
infolatus
infraluteus
infulatus
infuscatus
infuscus
ingaxa
ingeborg
ingens
inger
ingrahami
ingrami
ingres
ingrid
ini
inia
inieem
iniidae
iniscatus
initis
inj
inkematol
inker
inkera
inkewer
inkeyer
inmaculada
inmollis
inner
ino
inon
inopinatus
inopinus
inornata
inornatus
ins
inserta
insidiosus
insignis
insolitus
insonus
inspiration
instabilis
instans
institut
institute
instituto
instrumentos
insulans
insularis
insularum
insulicola
int
inta
intabopica
intaf
intafa
intafe
intafi
intafo
intagabexo
inte
intectus
intensa
intensus
intercambio
intercastellanus
interceptio
interior
intermedia
intermedius
international
internationalis
internatus
internet
internetxo
interparietalis
interpres
interrupta
inton
intotcuca
intrudens
intufi
intyon
intyona
inu
inundata
inunguis
inustus
inv
investigator
invicta
invictus
inya
inye
inyoensis
inyon
inyona
inza
inzol
ioanna
iodes
iodopleura
iole
iomys
iona
ip
ipiales
ipic
ipnaeum
ipom
ipomay
ipomek
ipomiz
ipomot
iquique
ir
iraca
iraka
iraki
iran
irana
iranafa
irani
irania
iray
irazu
iredale
irediparra
irena
irene
irenidae
irenomys
iridophanes
iridosornis
iringa
iriomotensis
iris
irk
irkutsk
irma
irolonis
iron
ironokaf
ironokafa
irremotus
irrorata
irroratus
irrupta
irubar
irubara
irubas
irubasa
irubasik
irubasikeem
irubaxo
irubayar
irvington
is
isaac
isaak
isabel
isabella
isabellae
isabellinus
isacco
isarogensis
isbn
ischyrus
ise
isen
ishibe
ishiguro
ishiyakushi
ishpuini
isidore
isidro
isk
isker
iskeson
iskeyer
isla
islamevaf
islamevafa
islamevik
island
islanda
islandaf
islandava
islandavaf
islands
islas
isler
isleria
isnos
iso
isodon
isolatus
isolobodon
ison
isoodon
isothrix
isphahanica
ispidina
israelita
isseli
issn
ist
istanbul
istapantap
iste
istef
istefa
istefo
isteon
istevadimikya
istexo
isthmica
isthmicus
isthmius
isthmomys
isti
istlente
istricus
istrone
isttalte
isu
it
ita
itagu
italia
italiaf
italiafa
italiava
italiavaf
italiavon
italicus
italiens
italy
itatsi
itcabayol
iteem
ithaginis
itis
itna
its
ituango
iturbe
ituriensis
ityopia
itza
iv
ivamu
ivamuf
ivan
ivanitskaya
ivanov
ivanova
ivanovitc
ivanovna
ivanovo
ivanovskaya
ivanovski
ivar
ivori
ivoriensis
ivrea
iwan
ix
ixam
ixobrychus
ixonotus
ixoreus
ixos
ixtlani
iyekot
iyekotaf
iyekotafa
iyekotugal
iyelaf
iyelt
iyeltak
iz
iza
izga
izgon
izkaf
izmaylovitc
izva
izvaf
izvafa
izvafe
izvatcila
izvaxo
izvon
izvopa
izvopik
izvugalayak
j
ja
jabiru
jabouilleia
jacamaralcyon
jacamerops
jacana
jacanidae
jacchus
jacinto
jack
jackson
jacksoni
jaco
jacob
jacobitus
jacobsen
jacques
jacquinot
jacquou
jaculus
jacutensis
jade
jadei
jadif
jadifa
jadion
jadiwik
jafar
jafara
jafasik
jafayan
jafayana
jaftol
jaftoloc
jaftolye
jagori
jagua
jaguar
jaka
jakob
jaktol
jakutensis
jala
jaliscensis
jamaika
james
jamesi
jameson
jamesorum
jampa
jan
janc
jane
janeiro
janes
janetta
jannic
jansson
japanese
japonensis
japonica
japonicus
jappe
jara
jardi
jardin
jardine
jardinii
jasinsky
jasper
jaune
jaunes
java
javanensis
javanica
javanicus
javanus
javier
jaxadara
jayakari
jazaira
je
jealousy
jean
jeanne
jebel
jebes
jeffersonii
jeg
jehan
jekur
jekura
jelinek
jelskii
jelyabov
jem
jemlahicus
jena
jenkins
jenkinsi
jens
jentink
jentinki
jerdon
jerdoni
jergol
jerico
jermuk
jero
jersey
jerusale
jerusalem
jesu
jesupi
jesus
jete
jetty
jeu
jeune
jeuner
jeunes
ji
jiadar
jiadara
jiang
jiangkouensis
jibutia
jico
jidol
jidoldunol
jijacek
jijar
jijayar
jikel
jikelay
jiluca
jime
jimela
jin
jinaf
jinafa
jingdongensis
jiomaik
jiomik
jitkov
jivago
jivot
jiz
jizara
jo
joa
joachim
joan
joaqui
jobiensis
joconde
joensuu
johan
johann
johannes
johannesburg
johannis
johannot
johanssen
johansson
john
johnii
johnson
johnsoni
johnstone
johnstoni
johnstonii
jojobae
joke
jola
jolie
jollyae
jolonensis
jon
jonas
jones
jonesi
jonkaf
jonker
jontik
jontika
jontikar
jontikara
jontikedje
jontikeke
jontiko
jontikote
jontiktan
jontikviele
jontolafa
jonvieler
jonvielera
jora
jorda
jordan
jordansi
jorge
joroinen
jose
josef
josei
joseph
jotaf
jotafa
jotafe
jotasoli
jotik
jotikeem
jotugal
jour
jourdan
jourdanii
jourensis
journal
joutsa
jouvenetae
jovler
jovlera
jovleyed
jovleyen
jovleyer
jowa
jowafa
jowon
joxara
joya
jpeg
jpg
jr
ju
juan
juana
juanambu
juanel
juara
juarezensis
jubatus
jubivo
jubula
jucunda
jucundus
judaei
judeae
judith
juduti
jugemera
jugend
jugoslavia
jugossicularis
juillet
julay
julayek
julayot
juldaschi
jules
julesvalle
julfa
julia
juliamyia
julianae
julie
julien
juliette
julio
juliomys
julius
july
jumtak
juncal
juncensis
junco
june
juni
juninensis
juntae
juntas
junto
jupad
jupar
jupasa
jupayad
jupayar
jupiter
jura
jurado
jurgenson
juris
juruanus
juscelinomys
jusok
jusqu
juste
justice
justo
juuka
juvencus
juvenile
jwa
jynx
jyva
jæger
k
ka
kaagdera
kaaneyar
kaaneyara
kaapori
kaatoed
kaatoeks
kaatoer
kaatoera
kaatoes
kaatoesa
kaatoesik
kaatoeyed
kaatoeyer
kaba
kabay
kabdi
kabdion
kabdu
kabdue
kabdueon
kabelcara
kabobo
kadar
kadarsanomys
kadayar
kadiacensis
kadime
kadimefa
kadimeon
kadimi
kadimion
kadoma
kadulaf
kaffensis
kafuensis
kagemusha
kagluyasa
kagorol
kagrupepen
kagruper
kagrupera
kagrupeyer
kahari
kahuzi
kahuziensis
kai
kaibabensis
kaido
kaik
kaike
kaikfir
kaiki
kaikion
kainuu
kaiseri
kajaani
kakamega
kake
kakegawa
kakever
kakevera
kakeveyer
kal
kalaf
kalafa
kalaharica
kalaharicus
kale
kali
kaliafa
kaliapon
kalinowskii
kalion
kalir
kalison
kaliyir
kalkot
kalkotavaks
kalkotavayan
kallela
kalmar
kalmykorum
kalubu
kaluca
kaluga
kalyujnaya
kamal
kamenar
kameni
kamenjak
kamensis
kamensk
kameruna
kametca
kameyama
kamptzi
kamtcatka
kamtschadalica
kamtschaticus
kan
kanada
kanagawa
kanal
kanava
kanaya
kanbara
kanchil
kandti
kane
kaneii
kangaroo
kangasniemi
kangeanus
kangurol
kankuamo
kannabateomys
kannonkoski
kano
kansas
kansuensis
kantor
kanuri
kapa
kapava
kapbure
kapiti
kaplan
kappeler
kappleri
kar
kara
karabatic
karaf
karafa
karagan
karaginensis
karaker
karami
karamii
karapet
karasensis
karba
karda
kare
kareizur
karelini
karen
kari
kariba
karikert
karimii
karimondjawae
karjala
karl
karlerapa
karlkoopmani
karmir
karolar
karpathorum
karstula
karvedol
karvemol
karvol
karvukol
kas
kasatkin
kase
kasela
kaselica
kashkarov
kaspa
kaspok
kastar
kastchenko
kastschenko
kastschenkoi
kasubi
katahdin
katalikevafa
katanara
katangae
katarina
kataui
katca
katcalad
katcalaf
katcalafa
katcalapafo
katcalar
katcalon
katceem
katcolk
katecta
katectayar
katecton
kategira
katherine
kathiah
kathleenae
katia
katice
katicefa
katicu
katina
katinka
katite
katrasid
katrasir
katrasit
katrasiyid
katrasiyir
katschemakensis
kaup
kaupifalco
kavkaza
kawabata
kawasaki
kawaxo
kawoda
kawodafa
kawodik
kawopik
kawot
kaxtanol
kay
kaza
kazaf
kazafa
kazak
kazakik
kazan
kazara
kazawar
kazawayar
kazaxe
kazaxo
kazbegica
kazik
kazokever
kazuo
kc
ke
keasti
keaysi
kebaks
ked
keeni
kefeliog
keitele
kela
kelaart
kelaarti
kelabit
kelda
keldusik
kelleni
kellog
kellogg
kelloggi
kelor
kelot
kelotafa
kelotza
kelson
kelt
keltopik
kelu
kemerovo
kempi
ken
kenaiensis
kene
kenenina
kengee
keni
keniae
kenibesa
kenibeso
kennedy
kennicott
kennicottii
keno
kenopia
kenrone
kensett
kentacek
kentalte
kenvoke
kenya
kenyoni
kepaita
ker
kera
kerabau
keraf
kerafa
kerakirikya
kerakirya
keralukastik
keramae
keratrapova
kerdela
kere
kereled
kereler
kerelera
kereleyed
kereleyer
kerguelen
kerik
kerima
kerkhoveni
kermodei
kermouster
kernensis
kerodon
kerouac
kerr
kerri
kershaw
kerstingi
kerte
kerukafa
kesa
keshwar
kesi
keska
keskeon
keski
keson
kesselaid
ketikya
ketupa
ketya
ketyanya
keulemans
keuruu
kev
kevaxara
keve
kevelik
keviera
kevlanir
kevlik
kevmadara
kevon
kevotcera
kevotceteson
kevsokara
kevus
kevusa
kevusik
kewa
kexafa
kexi
kexuca
keyaksed
keyaksera
keyensis
keyol
keyserling
kg
khachik
khajuria
kharkiv
khasne
khur
ki
kiang
kiblar
kiblara
kiblayan
kiblayar
kiboko
kibonotensis
kiel
kielcek
kiesling
kiewaf
kiewafa
kiewatca
kiewatcapa
kiewega
kiewuca
kigoma
kihaulei
kiiz
kiizey
kijasik
kikuchii
kikuyuensis
kilbo
kilimanjaro
kilta
kilwa
kim
kima
kimar
kimbar
kimbasa
kimbell
kimi
kimiskafa
kimon
kind
kindae
king
kingdom
kingdon
kings
kingusa
kinlochii
kino
kinoensis
kinzol
kipi
kipling
kipsay
kipsayok
kir
kira
kirafa
kirchenpaueri
kire
kiren
kiria
kirjasto
kirk
kirka
kirkii
kirkko
kirkonkyla
kiron
kirov
kirtlandi
kiselev
kishida
kisiwani
kisling
kislovodsk
kiss
kita
kitchen
kitchener
kitee
kiuruvesi
kivar
kivara
kivija
kivu
kivuana
kivuensis
kizer
kizey
kizgo
kjartan
kkyla
klaa
klabur
klaim
klais
klamathensis
klape
klaus
klawusa
klawuse
kle
klepa
klepapa
klibud
klibur
klibura
klibuyud
klibuyur
klimova
klinikken
klita
klobuc
klobuk
klodt
klok
klokar
klokara
klokera
klokken
kloss
klossi
klossii
kluchorica
klyazma
km
knekus
knighti
knipolegus
knocke
knoxjonesi
knut
knutsoni
ko
koafira
koak
koalol
koaskir
koayka
kob
koba
kobar
kobara
kobas
kobasa
kobasik
kobasikeem
kobaso
kobaver
kobavera
kobaveyer
kobayad
kobayar
kobenhavn
kobl
koblid
koblir
koblira
kobliyir
kobliyis
kobliyisa
kobliyise
koboda
kobosensis
kobrara
kobuder
kobudera
kobus
koch
kock
kocopa
kocopik
kodarensis
kodarol
kodia
kodiacensis
koe
koef
koefa
koenir
koeon
koeti
koexo
koexofa
kofir
koflintar
koflintara
koflir
kofliyir
kofordi
kogia
kogrupara
kogrupas
kogrupasik
kogui
kohl
koilkar
koinga
koinker
koinkera
koiropotamus
koirubad
koirubar
koirubayar
kojok
koka
kolafe
kolakira
kolanid
kolanir
kolanison
kolanixo
kolapixo
kolavara
kolavas
kolavasa
kolavase
kolavasik
kolavasikya
kolavasikye
kolavaxe
kolbi
kolesnikov
kolima
koljuschev
kollman
kollmann
kollmannspergeri
kolna
kolnara
kolnayad
kolnayana
kolnayane
kolnayar
kolneem
kologrivov
kolom
kolombia
kolombiaf
kolumbien
kolxoz
kolyma
kolymensis
kom
komalyer
komarek
komarovski
komi
komodomys
komoria
kompanje
kon
kona
konak
konaka
konakakola
konakar
konakara
konake
konakedje
konaki
konakilar
konaklize
konako
konaktan
konakviele
konca
koncoba
kondana
kondensis
konedir
konganensis
kongensis
kongo
kongoa
konir
konisa
konnevesi
konoleks
konolerokuca
konolesik
konso
konstantin
konstantinopolis
kontan
kontanya
kontega
kontiolahti
konviele
koo
koon
koonir
koopmani
koplekur
koplekura
kopschi
kor
korba
kordofanicus
kore
koredik
koredikeem
koreensis
korenar
korfi
koriakorum
koridanik
koridar
koridxa
korik
korikaf
korikeem
korikye
korinchi
koritnjak
kornat
kornati
kornilova
korobik
korobutik
korolenko
korrigum
korzukhin
kosaf
kosafa
kosayikye
koshewnikowi
kosik
kosikeem
koslowi
kosmad
kosmaks
kosmar
kosmara
kosmat
kosmayad
kosmayan
kosmayana
kosmayar
kost
kostolera
kostroma
kosuteks
koswana
koswar
koswara
koswavasa
koswavayar
koswayad
koswayan
koswayar
kot
kota
kotabafa
kotaf
kotafa
kotafe
kotak
kotapedia
kotar
kotara
kotava
kotavafa
kotavaxak
kotaveyer
kotawar
kotawara
kotawayad
kotawayar
kotbat
kotbata
kotca
kotcakola
kotcoba
kote
koteivoira
kotgrupaf
kotgrupafa
kotgrupera
koti
kotikafa
kotiya
kotla
kotlaf
kotlafa
kotlik
kotlize
koto
koton
kotote
kotraf
kotrafa
kotron
kotrossiaf
kotsakis
kottan
kottel
kottode
kottol
kotuy
kotviele
kou
kouvola
kouymjian
kovalenko
kovalskaya
kovoa
kovoapa
kovoon
koxawanikya
koyar
koyara
koyas
koyasik
koyayar
kozhevnikovi
kozlovi
kozwir
kraba
kraemeri
krafol
kraimol
kramskoj
kramskoy
kranavesa
krant
krantoza
krapol
krapoldunol
krapolik
krasnodar
krasnoe
krasnoyarsk
krasnoye
krauss
kraytacek
kre
krebsii
krefft
krefftii
krent
krepay
krepayot
krestinskoye
kretami
kretsa
kretura
kretzoi
kreuz
krexa
krijol
kril
krilafa
krilenko
krima
krimpa
krimta
krimtaala
krimtafa
krimtaki
krimtaxo
krimteem
krinanik
krist
kristeva
kristevaf
kristevafa
kristina
kristnazbalaviel
kristos
kriz
kro
kropotkin
krotc
krpeljina
kruba
krugeri
krulded
krulder
kruldera
kruldesa
kruldeyed
kruldeyer
krupter
krupteyer
krys
kseara
kser
ksera
kserayar
kseva
ksevafa
kseway
ksuber
ksubera
ksubeyer
ksudaks
ku
kuba
kubaf
kubla
kucilodara
kudja
kudjama
kudjot
kudjotya
kudu
kuelap
kuhl
kuhlii
kuhmo
kuhn
kuhni
kuksa
kuksadom
kuksafa
kuksama
kuksapa
kuksaxo
kulaca
kulaf
kulafa
kulak
kulan
kulapaf
kulik
kulinae
kulj
kulor
kultur
kuluca
kum
kunda
kunkel
kunnas
kunoy
kunoya
kunsi
kunsia
kunst
kunsthalle
kunsthaus
kunstmuseum
kuntaxo
kuopio
kupeornis
kuranafa
kuranira
kurba
kurbaxo
kurd
kurdistanica
kurenik
kurenikya
kurenikye
kurenya
kurenye
kurer
kurera
kureyer
kurgan
kuris
kuritca
kuritcaf
kuritcafa
kurmik
kuroda
kurodai
kurosawa
kursk
kuru
kurusta
kusaf
kusafa
kusatsu
kuse
kusk
kusnotoi
kusto
kustrol
kutab
kutas
kutcara
kuwana
kuznetsov
kuzol
kvinne
kvinner
kwabe
kwaf
kwafa
kwango
kwatikol
kwik
kwikya
kwoyol
kyaxta
kyiv
kyo
kyoto
kyyja
københavn
l
la
labaxo
labe
labiatus
labilis
labiosus
labor
laborifex
labradorensis
labradorius
labranzagrande
lac
lace
lacedo
lachuguilla
lacroix
lacrymalis
lactens
lacustris
ladacensis
lademanni
ladewi
ladoga
ladogensis
lady
lae
laeliwot
laenatus
laevipes
lafayette
lafresnaya
lafresnaye
lag
laga
lagadjubera
lagarto
lagenodelphis
lagenorhynchus
lagercrantz
lagerkvist
laghouat
lagidium
lagie
lagny
lago
lagochilus
lagomorpha
lagonosticta
lagonotus
lagopus
lagorchestes
lagos
lagostomus
lagostrophus
lagothrix
lagotis
lagotricha
laguna
lagunae
lagurus
lahti
laingi
laizafa
laizon
laja
lajas
lajupotcer
lajuyater
lakatos
lake
lakedownensis
lakir
lakro
lakser
lalage
lalibela
lama
lamara
lamarum
lambert
lambertoni
lambey
lambi
lami
lamia
laminatus
lamone
lamotte
lamottei
lamottemys
lampensis
lampi
lampia
lampornis
lamprolaima
lamprolia
lampropsar
lamprospiza
lamprotornis
lamu
lamula
lamy
lan
lana
lanafa
lanatus
lancasteri
lancavensis
land
lander
landesik
lands
landscape
landschaft
landskap
lane
lanedje
laner
lang
langbianis
langguth
langheldi
langi
langsdorffi
langur
lani
laniarius
lanid
laniger
lanigera
laniidae
laniisoma
laninde
lanio
laniocera
lanioturdus
lanir
lanira
lanis
lanison
lanius
lanivawa
lanka
lankavensis
lano
lanon
lanosa
lanosus
lanote
lansielon
lantan
lantier
lanuginosus
lanviele
lanyon
lanyona
lanzad
lanzanik
lanzar
lanzara
lanzayan
lanzayar
lanzerotto
laosiensis
laotum
lapid
lapinlahti
lapir
lapira
lapiyir
lapter
laptev
laptevi
lar
lara
larcheve
larde
larga
large
largha
largo
laricorum
larida
laridae
larisa
lariscus
laristanica
larivie
larkenii
larma
larosterna
larry
lars
larsen
larus
larvata
larvatus
larvik
larvivora
las
lascivus
lasiae
lasiopodomys
lasiorhinus
lasiotis
lasiotus
lasiura
lasiurus
lasius
last
lataste
latastei
lataxina
latebricola
lateralis
laterallus
lateris
latham
lathamus
lathrotriccus
laticaudatus
laticeps
laticilla
latidens
latifrons
latijugularis
latimanus
latinafa
latinava
latinavon
latinorum
latipes
latirostra
latirostris
latona
latouchei
latrans
latrator
latro
latronum
latus
latvia
latviaf
latviava
laucha
laukaa
laumar
laumara
laumasa
laumasir
laura
laure
laureles
laurent
laurenteus
laurentianus
laurie
laurier
laurillard
lausanne
lautrec
lava
lavada
lavadafa
lavak
lavalingeks
lavanarilt
lavarn
lavauden
lavaxo
lavdara
lavek
lavikya
lavok
lavopa
lavrenchenko
lavrov
lavsa
law
lawesii
lawrancei
lawrence
lawuana
laxa
laxmann
lay
layardi
layardii
laye
layera
lazava
lazell
lazzaro
ldegalerie
ldensta
ldenstaedt
le
lea
leach
leadbeateri
leakyi
leander
lebaca
lebaf
lebafa
lebasque
lebikya
leblanc
lebombo
lebrija
lebuca
lec
leca
lecafa
leceva
leche
leconte
lecture
ledoux
lee
leefgebied
leeke
left
legata
legatus
leger
leggadina
lehilahytsara
lehmann
lehmanni
lei
leiden
leigh
leightoni
leimacomys
leiopicus
leiothlypis
leiothrichidae
leiothrix
leipoa
leipzig
leistes
leite
leithiinae
leiva
lekeon
lekeraporugal
lekeraporugalafa
lelia
leltafa
lelwel
leman
lemkei
lemminus
lemmiscus
lemmus
lemniscatus
lemniscomys
lempol
lemur
lemuridae
lemuriformes
lemurinus
lemuroidea
lemuroides
lemurs
lena
lenclos
lenguarum
lenguazaque
leniceps
lenin
lenis
lenomys
lenopa
lenothrix
lenoxus
lent
lente
lentef
lentefa
lentefo
lenteka
lenteon
lentexo
lenton
lentor
lentrone
lentronefa
lentroneon
lenttalte
lenttaltefa
lenttalteon
lentulus
lentuon
leo
leon
leonard
leonardina
leonardo
leonensis
leonina
leonis
leontopithecus
leopardus
leopold
leopoldamys
leote
lepida
lepidocolaptes
lepidopyga
lepidopygia
lepidothrix
lepidura
lepidus
lepilemur
lepilemuridae
leporidae
leporides
leporillus
leporina
leppa
lepri
leptailurus
leptasthenura
leptoceros
leptocoma
leptodactylus
leptodon
leptomys
leptonychotes
leptonyx
leptopoecile
leptopogon
leptopterus
leptoptilos
leptosittaca
leptosomidae
leptosomiformes
leptosomus
leptotila
leptotrygon
lepturus
lepus
lerde
lerdeafa
lerdeaksat
lerdoy
lerdoya
lereboullet
lerkusukikye
lervia
lerwa
les
lesay
lesbia
leschae
leschern
lesko
lesotoa
lespinasse
lespugue
lessa
lesser
lessing
lesson
lessonia
lestes
lestine
lestodelphys
lestoros
lestradei
lesueur
lesueurii
letang
letaxo
letifera
leucas
leucippe
leucippus
leucobaptus
leucoblephara
leucocarbo
leucocephalus
leucochloris
leucodactylus
leucodon
leucogaster
leucogenys
leucogeranus
leucolaemus
leucolimnaeus
leucomus
leucomystax
leuconedys
leuconota
leuconotopicus
leuconotus
leucoparia
leucopeza
leucophaeus
leucops
leucopsar
leucopternis
leucopterus
leucopus
leucorhinus
leucoryx
leucosarcia
leucosticte
leucostictus
leucostigma
leucostomus
leucotis
leucoumbrinus
leucourus
leucura
leucurus
lev
levaala
levaalaf
levant
levantis
leve
levedre
levetirik
levetirikafa
levetiruca
levgar
levgayar
levgon
levi
levicula
levidensis
levipes
levirubar
levis
levitan
levrnaka
levrotir
levrotira
levrotiyir
lewinia
lewis
lewisi
lexa
lexasik
lexusik
leyendas
leyva
lez
lhamit
lhasaensis
lhoesti
li
liabeuf
libakol
libano
liberation
liberia
liberiensis
liberiictis
libertad
libertador
libidinosus
libol
liboldunol
library
libres
libreville
libur
libura
liburnau
libuyun
libyca
libycus
lica
lichenostomus
lichenstein
lichmera
lichtenstein
lichtensteini
lichtensteinii
licite
lickuca
lida
lidaf
lidafa
lidam
lidawicka
lidawickaf
lidawickafa
lidicker
lidopa
lidya
lie
liechtensteini
lieksa
lietuva
lietuvaf
lietuvava
life
lignicolor
ligoni
lik
likera
likon
lilaeus
lilas
lilkol
lille
lilljeborg
lima
limatc
limatus
limbatus
limbekol
limbol
limicola
limitaneus
limitaris
limitis
limnoctites
limnodromus
limnogale
limnomys
limnophilus
limnornis
limnothlypis
limo
limones
limosa
limosus
limpey
limpiae
limpopoensis
lin
linaria
linda
lindberghi
linde
lindholm
line
lineatus
lingae
linge
lingeks
lingen
linger
lingera
lingereva
lingerinda
lingeropa
lingeropaf
lingeropafa
lingeropateza
lingeropatezaloma
lingeropik
linges
lingesa
lingese
lingesik
lingexo
lingeyed
lingeyen
lingeyena
lingeyer
lingeyese
link
linna
linnaeus
linsang
linsdale
linulara
linulus
linurgus
liocichla
liomys
lion
lioparus
lioptilus
liosceles
liota
liotaf
lioza
lipa
lipara
lipaugus
liperi
lipetsk
lipostictus
lipotes
lird
lis
lisa
lisabeth
lisant
lisboa
lise
lissodelphis
lissonycteris
lissotis
lista
listaf
listafa
liste
listikya
listopafa
listuca
lit
litera
literature
liteva
litevaf
litevafa
litevik
lithophilus
litocranius
litoreus
litoris
litte
litteraturpris
little
littledalei
littoralis
living
livingstone
livingstonei
livingstonianus
livingstonii
livorno
livre
livres
liway
liwomba
liwot
liwotak
liwura
liwusik
lix
lixus
liz
liza
lize
liziba
lizira
liziwera
lizor
lizu
lizuk
lizukaf
lizukafa
lizukon
lizuxo
llama
llamadas
llanada
llanensis
llano
llanos
llegada
ller
llosa
ln
lo
loa
loandae
loandicus
loba
lobeliarum
lobodon
loboparadisea
lobotos
location
loche
lochmias
locks
lockwoodi
locustella
locustellidae
lodam
lodame
loddigesia
loderi
loe
loedje
loeke
loempo
lofa
lofta
logijaf
logijafa
logijafe
logijafo
logiltafe
logs
loire
loisel
lojadion
lok
lokalion
lokiewaf
lokiewafa
lokiewon
lokon
lokotgrupaf
lokriah
lokroides
lola
loleon
lolistaf
loloon
loma
lombocensis
lonchothrix
lonchura
london
londres
lonetal
long
longchamp
longchamps
longicauda
longicaudata
longicaudatus
longicaudis
longicaudus
longiceps
longilingua
longimembris
longipes
longipilis
longirostris
longman
longrightarrow
lonnbergi
lons
lonslesaunier
lontra
loochoensis
looke
looking
loon
loote
lope
lopez
lophaetus
lophiomys
lophocebus
lophoceros
lophochroa
lophodytes
lophoictinia
lopholaimus
lophonetta
lophophanes
lophophorus
lophopsittacus
lophorina
lophornis
lophospingus
lophostrix
lophotibis
lophotis
lophotriccus
lophotriorchis
lophozosterops
lophura
lophuromys
lophurus
lopinaf
lopinafa
loplekuks
loplekur
loplekuyud
lopokefa
loquax
lorafa
lord
lordeks
lordi
lordship
lorentzi
lorentzii
lorentzimys
lorenz
lorenzi
lorenzo
loriae
lorica
loriculus
lorik
lorikeem
lorikya
lorikye
loringi
loris
lorisidae
lorisiformes
lorius
loror
lorrain
lorraineus
los
losavsaf
losavsafa
loschalchalerosorum
losea
lospa
lospaf
lospama
losposaf
lot
lotfinder
lotkol
lotor
lou
loue
louiei
louis
louisae
louise
loup
lourdes
louveciennes
louvre
lova
lovati
loveridge
loviele
lowe
lowei
lower
lowery
loweryi
lowi
lowii
lowkashkin
loxia
loxigilla
loxioides
loxipasser
loxodonta
loxodontomys
loxops
loynaz
lozolonaf
lozolonafa
lozolonafo
lu
lualabae
luanda
lubek
luber
lubera
lubyanka
luc
lucani
lucas
lucasana
lucasi
luce
lucetta
lucha
luci
lucia
luciae
lucida
lucidus
lucie
lucien
lucifer
lucifugus
lucina
lucmarinjak
lucrezia
lucrificus
luctuosa
luda
ludev
ludia
ludibundus
ludlow
ludlowi
ludovicianus
ludvig
ludwig
luego
lugansk
lugens
lugubris
luhanka
lui
luigi
luis
luisa
lujoraf
lujorafa
lukarica
lukens
lukolelae
lukoptaf
lukoptafa
luks
lullula
lullulae
lum
lumholtzi
lumkirafa
luna
lunaris
lunata
lunatus
lund
lundahl
lunde
lundholm
lundi
lundomys
lunga
lunia
lunulatus
luo
lupaster
lupaxa
lupinus
lupus
lurd
luridavolta
lurocalis
lusaka
luscinia
luscus
lusitania
lusitanicus
luster
lustera
lut
lutaoensis
luteicollis
luteiventris
lutensis
luteogaster
luteola
luteolus
lutescens
luteus
luther
lutillus
lutra
lutreola
lutreolina
lutreolus
lutrinae
lutris
lutrogale
lutulentus
luva
luxe
luxembourg
luxemburg
luxeon
luz
luzikasiki
luzmicel
luzonensis
luzonicus
luzoniensis
luztum
lvaro
lviv
lvovna
ly
lya
lybica
lybiidae
lybius
lycalopex
lycaon
lychnuchus
lycocorax
lycoides
lydekker
lydekkerianus
lyelli
lylei
lymani
lymnocryptes
lyncodon
lyncornis
lyne
lynne
lynx
lyon
lyoni
lyratus
lyrurus
lys
lysteri
lyubatovitc
lyudmila
lyumar
lyumara
lyumas
lyumasik
lyumason
m
ma
maaninka
maas
mababiensis
mabel
mabirae
mac
macaca
macaco
macanal
macaque
macarthuri
macarthurii
macassaricus
maccarthiae
macconnelli
maccoyi
macculus
macdonaldi
macdonnellensis
macdougalli
macedonicus
macgregoria
machado
machaerirhynchidae
machaerirhynchus
machaeropterus
macheiramphus
machetes
machetornis
machlolophus
machrinoides
machrinus
machu
mackenziaena
mackenziei
mackenzii
mackilligini
mackinderi
mackinlay
mackloti
macleari
macleay
macleayi
macmillan
macmillani
macneilli
macowi
macquart
macra
macroagelaius
macrocephalon
macrocephalus
macrocercus
macrocorpus
macrodon
macrogalidia
macrogeomys
macroglossus
macronectes
macronus
macronyx
macrophonius
macropodidae
macropodiformes
macropodinae
macropsalis
macropus
macropygia
macrorhinos
macrorhynchus
macroscelidea
macroscelides
macroscelididae
macrosceloides
macrosensis
macrosphenidae
macrosphenus
macrotarsomys
macrotis
macroura
macrourus
macrura
macruromys
macrurus
maculata
maculats
maculatus
maculicollis
mad
mada
madagascar
madagascariensis
madagasikara
madame
maddalena
made
madeirensis
madeleine
mademoiselle
madera
madina
madogae
madonna
madoqua
madrensis
madrid
madromys
maenas
maeterlinck
mafelar
mafia
magadan
magalha
magangue
magda
magdalena
magdalenae
magdalene
magellanicus
mageshimae
maggie
maghrebi
magister
magna
magnificus
magnus
magriba
magribaf
magumma
magyara
magyarafa
magyaravaf
mahaganus
maharadatunkamsi
mahates
maheu
maheude
mahomet
mai
maid
maiden
maigrat
maimanah
main
maine
maini
maisaka
maison
maisons
maji
major
majori
majoriae
majusculus
makalata
makedonia
makkovikensis
maksim
mal
mala
malabaricus
malaccana
malacocincla
malacomys
malaconotidae
malaconotus
malacopteron
malacoptila
malacorhynchus
malacothrix
malaitensis
malambo
malamud
malaskir
malaskisik
malawi
malawia
malayana
malayanus
malcorus
maldonado
male
maler
malestur
malestura
malestus
malgruper
malherbe
mali
malia
malimbus
malindangia
malitiosus
mallakir
mallakira
mallama
mallanid
mallanir
mallaniyir
mallapid
mallapir
mallapira
mallard
mallarme
malle
mallodelphys
mallomys
mallurus
malnaler
malpaisomys
malraux
malsaver
malsavera
malsaveson
malsaveyed
malsaveyer
malseotar
malstar
malta
maltsev
maluridae
malurus
malyedar
malyer
malyera
malyerot
malyerotaf
malyerotafa
malyesik
malygin
malyopar
malyopara
malyopasik
malyopasikeem
mam
mamadasa
mamewavaxa
mamfol
mamiratra
mammal
mammalia
mammelomys
mammife
mammuthus
mamontova
mamorae
man
mana
manacus
manafo
managuensis
manatus
manavi
manchester
manchurica
mancoba
mandarin
mandarinus
mandela
mandingo
mandingoa
mandjarum
mandrillus
mandshuricus
maneke
manengubae
manet
manfred
mangabey
manglard
mango
manguensis
manicorensis
maniculatus
manidae
manipulus
manis
manitobensis
manium
manizales
mann
mannheim
manni
manningi
manorina
manos
mansfield
mansuetus
manta
mantaf
mantafa
mantafi
mantchurica
mantchuricus
mante
mantes
mantiqueirensis
mantled
mantode
manton
mantschuricus
manucodia
manuel
manufactura
manul
manyadol
manyara
manyevol
manyona
manyukol
manzanares
manzoni
map
mapa
mapungubwe
maquassiensis
mar
mara
maracaibensis
maracajuensis
maral
marat
maraxica
maraxina
marc
marcai
marcanoi
marcel
march
marche
marchei
marchio
marco
marcos
marcotte
marcrurus
marculus
marcus
mard
mare
mareca
mareeba
marek
mares
margaret
margaretamys
margarettae
margarita
margaritae
margaritas
margarobyas
margaroperdix
margarops
margarornis
marginata
marginatus
margotmarshae
marguerite
mari
maria
marianensis
marianna
mariannus
marica
marie
marigny
marijampole
mariko
marina
marine
marinensis
marinhus
marinilla
marinus
mario
mariol
maripi
mariposae
mariquensis
mariquita
maris
maritimensis
maritimus
mariupol
marjoriae
marjorie
marjorita
mark
markarbeid
marker
markhami
marlet
marleyi
marly
marmaronetta
marmorata
marmosa
marmoset
marmosops
marmosurus
marmota
marmottan
marna
marne
marquet
marrensis
marseille
marsella
marsh
marshall
marshalli
marsupialis
marta
martelli
martensi
martes
martha
marthe
marti
martial
martiensseni
martig
martigafa
martin
martinensis
martinez
martini
martino
martinoi
martinsi
martinson
martirensis
martiros
marungensis
marusei
marut
marwida
marx
mary
maryanto
marylandica
masae
masai
masalai
mascarenotus
mascarinus
mascotensis
maserk
maseru
masius
mask
maslinjak
masoala
mason
mass
massachusetts
massacre
massacres
massaesyla
massaica
massaicus
massif
massoia
massoutiera
mastacalis
mastacomys
mastomys
mata
matabiru
matacus
matagalpae
matambuai
matanim
matela
matelamidusik
matelamiduxo
matelarebava
mateo
mater
material
mathbb
mathe
mathews
mathieu
mathilde
matin
matina
matine
matiques
matisse
mato
matschie
matschiei
matteo
matthew
matthewsi
mattheyi
maubuisson
mauesi
maui
maulinus
maullinicus
maun
maupassant
mauprat
maura
mauriac
maurice
mauricio
maurin
maurisca
mauritaniae
mauritius
mavian
mawa
mawakwikya
max
maxfuz
maxi
maxima
maxime
maximilien
maximowiczii
maximus
maxno
maxomys
maxwell
maxwelli
maxwellii
may
maya
mayas
mayensis
mayeri
maynardi
mayor
mayori
mayri
mayrornis
mayumbicus
maz
maza
mazak
mazama
mazaroz
mazedol
mazenod
mazjida
mazol
mbaiso
mbeya
mbi
mbita
mbolo
mbolos
mc
mcclelland
mcclellandii
mcclintock
mccoy
mcguire
mcilhennyi
mclaughlin
mcmurtry
mcpherson
mcteague
me
mea
mead
meadow
mearns
mearnsi
mearnsia
mearsi
mechowi
mecoba
mecocerculus
med
medelli
medellin
medellinensis
medellinia
medemi
media
mediante
medicaudatus
medina
medio
medios
mediterranea
medius
medjianus
medjitol
medjol
medvedev
medway
meelimafa
meem
meena
meer
meester
meesteri
mefta
meftafa
meftava
meftavaf
meftavafa
meftaxo
mefteem
megabyas
megacephalus
megaceros
megaceryle
megacrex
megadendromus
megadontomys
megadyptes
megaerops
megaladapis
megalaimidae
megalampitta
megalodous
megaloglossus
megalomys
megalonychidae
megalonyx
megalops
megalotis
megalotus
megalura
megalurus
megaoryzomys
megapodiidae
megapodius
megapotamus
megaptera
megarynchus
megascapheus
megascops
megasorex
megaspila
megastictus
megatriorchis
megaxenops
megazosterops
megenol
megol
megoldunol
megrupen
megrupena
megrupenikya
megrupeno
megudol
meher
mehmet
mei
meie
meier
meiglyptes
meila
meinde
meinertzhagen
meinertzhageni
meisje
meissner
meister
mejer
mejera
mek
meka
mekisturus
melaenornis
melalophos
melampeplus
melampitta
melampittidae
melamprosops
melampus
melanafa
melancholy
melancoryphus
melanerpes
melanesia
melania
melaniparus
melanitta
melanius
melankoli
melanocarpus
melanocephalus
melanochaita
melanocharis
melanocharitidae
melanochir
melanochlora
melanochra
melanocorypha
melanodera
melanodryas
melanogaster
melanoleuca
melanoleucus
melanomys
melanonyx
melanopareia
melanopareiidae
melanopepla
melanoperdix
melanophrys
melanopogon
melanops
melanopterus
melanoptila
melanorectes
melanorheus
melanospiza
melanotis
melanotus
melantho
melanura
melanurus
melas
melasmothrix
melayaf
melbourne
meld
meldara
meleagris
meles
melgar
meliarchus
melichneutes
melidectes
melidora
melierax
melignomon
melilestes
melini
meliphaga
meliphagidae
melipotes
melithreptus
melitograis
mellandi
melleri
mellisuga
mellivora
mellom
mellonae
melloria
mellot
melmakol
melmakolafa
melocichla
melogale
melomys
melon
melonycteris
melopsittacus
melopyrrha
melospiza
melozone
meltada
melursus
melville
melzolk
meminna
memorial
memory
memwedaf
men
menagensis
menamicus
mendelssohn
mendeni
mendocinus
mendosus
mendoza
meneleki
meneliki
menetes
mengermani
menglaensis
menglalis
menn
ment
mentawi
menton
menua
menura
menuridae
menzbieri
menzies
mephistophiles
mephitidae
mephitis
mer
mera
merced
mercedes
merganetta
mergatus
mergellus
mergil
mergileem
mergulus
mergus
meri
meridae
meridensis
meridianus
meridionalis
merikol
merikyul
merion
meriones
merisi
meritus
merle
mermaid
merna
mero
meroe
meropidae
meropogon
merops
merrem
merriam
merriami
merry
mersin
mertensi
mertoy
meru
merulaxis
mes
mesa
mesdag
mesechinus
mesembrinibis
mesembrinus
mesembriomys
meseta
mesey
mesidios
mesitornis
mesitornithidae
mesitornithiformes
mesoame
mesocapromys
mesocricetus
mesomelas
mesomys
mesoplodon
mesopolius
mesopotamia
mesopotamiae
mesopotamica
mesopropithecus
messorius
mesto
met
metabolus
metachirus
metallura
metan
metate
metates
metenukeyena
methi
method
metopidius
metopothrix
metre
metriopelia
metro
metropolitan
metropolitana
metz
meursault
meuse
meviele
mevielu
mewa
mexianae
mexicalis
mexican
mexicana
mexicanae
mexicanus
mexico
mexika
mexikaf
meyen
meyer
meyerbeer
meyeri
mez
meza
mezen
mg
mhorr
mi
miafiz
miafizestura
miala
mialaberikye
mialon
mialukaf
mialukafa
mialukon
mialukugal
mialukugalafa
mica
micaelamys
micas
michael
michaeli
michaelis
michel
michelangelo
michener
michianus
michnoi
michua
mico
miconax
micoureus
micrastur
micrathene
microakodontomys
microbates
microbiotheria
microbiotheriidae
microbullatus
microcarbo
microcavia
microce
microcebus
microcerculus
microchera
microdillus
microdipodops
microdon
microdynamis
microeca
microgale
microgoura
microhierax
microhydromys
microligea
micromacronus
micromonacha
micromurexia
micromys
micronisus
microparra
microperoryctes
microphthalmus
micropotamogale
microps
micropsitta
micropternus
micropteropus
micropus
micropygia
microrhopias
microryzomys
microsciurus
microstilbon
microtarsus
microtinus
microtis
microtus
microxenops
micrura
micrurus
micrus
midas
middendorff
middendorffi
middendorffii
midi
midura
miduxo
miduyud
mie
miehikka
miel
mielaf
mielafa
mielafizaf
mielcek
mielcekon
mielon
mientras
miette
mifune
miga
migafa
migexa
migona
migratorius
miguel
migulin
mikkeli
miklo
mikra
mikrafa
mikrasane
mikreem
mikrik
mikronesia
mil
mila
milaf
milafa
milagros
milano
milanoii
milbava
mile
milebik
miledje
miletus
milgafe
milgugal
milinde
milk
milkatcaf
milkatcik
mill
millais
millardi
millardia
miller
milleri
millet
milleti
millicens
millinocket
millsi
milne
milneedwardsii
milo
milove
milsaref
milsarefa
miltan
miltandon
miltuca
milugale
milugalon
milvago
milvus
milyoltafa
milyona
mimax
mimetra
mimicus
mimidae
mimulus
mimus
min
mina
minaf
minafa
minahassae
minakuchi
minas
mincae
mindanensis
mindegol
mindorensis
mindorus
mine
minensis
minette
miniatus
minima
minimus
mining
mink
minla
minnae
minneapolis
minnesota
mino
minor
minoricensis
minous
minsk
minusculus
minutissimus
minutoides
minutus
mionectes
miopithecus
miquihuanensis
mira
mirabilis
mirador
mirae
miraflores
mirafra
miranda
mirapitanga
miravallensis
miravalles
mirbeau
miroir
mirounga
mirror
mirus
mirza
mis
misak
miscix
mishima
misionensis
misonne
misonnei
mispo
misra
misraf
mississippi
missouriensis
mistral
mit
mitchelli
mitchellii
mitchill
mitis
mitrata
mitratus
mitrephanes
mitrospingidae
mitrospingus
mitsuke
mittendorfi
mittermeier
mittermeieri
mitu
miurus
miv
mivart
mivdelt
mivgrunsesa
mivizva
miwad
miwar
miwayar
mixail
miya
mizura
mjo
mk
mm
mme
mmler
mnara
mniotilta
mo
moava
moavaf
moavafa
moavafi
moavaxa
moavaxo
moavukaf
moavukafa
moberg
moblira
mochica
modern
moderne
modestus
modiano
modicus
modigliani
modiglianii
modo
modulatricidae
modulatrix
moe
moek
moekote
moeliker
moellendorffi
moerescens
mogera
mogollonensis
mohamed
mohavensis
moho
mohoidae
moholi
mohoua
mohouidae
moi
moida
moion
moire
moisson
moitessier
mojana
mola
molaris
molat
moldova
mole
molie
molina
molinae
molino
molitor
mollicomulus
mollipilosus
mollis
moloch
mologa
moloneyi
molossinus
molothrus
molotov
molt
moltam
moltap
moluccensis
mombasa
momik
momonga
momotidae
momotus
mompox
mon
mona
monachella
monachus
monafa
monakoa
monarcha
monarchidae
monard
monardi
monasa
monastery
monax
monaxo
monaxoeem
moncktoni
monde
mondolfi
mone
monet
monexo
mongola
mongolica
mongolicus
mongoose
mongoz
mongua
mongui
moni
monias
moniquira
monkey
monkeys
monoceros
monochromos
monodelphis
monodon
monodontidae
monoensis
monoides
monos
monotremata
monserrate
monsieur
monstrabilis
monstrosus
mont
montage
montagne
montagu
montague
montan
montana
montanus
montauban
montceau
monte
montebelli
montebello
montecincla
montecristo
monteiri
monteli
montenegrina
montenegro
montensis
montereyensis
monteri
montes
montevideo
montfoucault
monticola
monticolomys
monticolus
monticularis
montifringilla
montis
montivaga
montmartre
montmorency
montosa
montpellier
montseny
montsou
montt
monument
monumento
monuments
moo
moojen
moojeni
moonlight
moonsund
moorcroft
moore
moorei
mooreorum
morafa
morales
moran
moravany
mordax
mordeni
mordosus
moreinis
moreni
moreotica
moresbyensis
morgan
morgani
morgen
mori
morio
morissot
morning
morococcyx
morogoro
morosa
morotaiensis
morozova
morphnarchus
morphnus
morrison
morro
morroensis
morrosquillo
mort
morte
mortin
morton
morulus
morus
mosanensis
moschata
moschatus
moschidae
moschiferus
moschiola
moschus
moscow
moshi
moskva
moskvitin
mosque
mosquensis
mosquera
mossambica
mossambicus
mot
motacilla
motacillidae
motalavae
motavita
mother
motilo
motivos
mottoulei
motuoensis
moueem
mouhotei
moukol
moukolaf
moukolafa
moukolafi
moulin
moulthrop
mount
mountain
mountains
moupinensis
moupinia
mouret
mouse
mousquetaires
moustache
mouthier
moutons
movement
mozambika
mr
mrtovac
mrtovnjak
msa
mt
mtwara
mu
mudor
muelleri
muenninki
muenzneri
muffat
mugosaricus
muhu
muisca
mujanensis
mujer
mujeres
muka
mukeem
mukoda
mukot
mulafa
mulatta
muliensis
mullah
mulleripicus
multatuli
multiaculeatus
multicolor
multiplex
multivittata
mulufta
mulufter
muluftera
mulufteyer
mun
munbyanus
munch
munda
mundia
mundo
mundus
munesteks
munester
mungo
mungos
mungotictis
municipal
municipio
munoai
munsterhjelm
muntiacus
muntjak
muoga
muon
mupinensis
mur
murat
murcie
murelia
murexechinus
murexia
muriavensis
muricauda
muriculus
muricus
muridae
murie
murillo
murina
murinae
murinauralis
murinus
muritania
muroidea
muroides
murray
murrayi
murs
mursavi
murtoy
murtoyek
murtoyuk
mus
musaf
musanga
musasir
muscardinus
muscatensis
muscicapa
muscicapella
muscicapidae
muscigralla
muscipipra
muscisaxicola
musculinus
musculoides
musculus
muse
museo
museum
museums
musicales
musicus
musimon
musique
musk
musoma
musophaga
musophagidae
musophagiformes
musschenbroekii
musser
musseri
mussoi
mustela
mustelidae
mustelinae
mustelinus
musteloides
musuca
musy
mutabilis
mutacek
mutcol
mutcumol
mutesae
mutgigella
mutiger
mutis
mutiscua
mutoni
mutus
muurame
muva
muvacek
muvafa
muvara
muvareka
muvasaz
muvugal
muvugalaf
muvugalafa
muvugalon
muxaks
muxar
muxara
muxasa
muxelk
muy
muyquyta
muyskunol
muzo
mwa
mwanza
mwedaf
mweem
my
myadestes
mycerobas
mycteria
mydaus
myers
myeza
myiagra
myiarchus
myiobius
myioborus
myiodynastes
myiomela
myiopagis
myioparus
myiophobus
myiopsitta
myiornis
myiotheretes
myiothlypis
myiotriccus
myiozetetes
mylomys
myocastor
myocastoridae
myodes
myoictis
myoides
myomimus
myomorpha
myomyscus
myonycteris
myophonus
myoprocta
myops
myopus
myornis
myosciurus
myosorex
myosoricinae
myospalax
myosuros
myot
myotomys
myoxinus
myrmeciza
myrmecobiidae
myrmecobius
myrmecocichla
myrmecophaga
myrmecophagidae
myrmelastes
myrmia
myrmoborus
myrmochanes
myrmoderus
myrmophylax
myrmorchilus
myrmornis
myrmothera
myrmotherula
myrtis
mysateles
mysoliae
mystacalis
mystacinus
mystacornis
mystax
mysticeti
mysticetus
mystromys
myurus
myza
myzomela
myzornis
mzabi
mørk
n
na
nabala
naboxa
nach
nacional
nadar
nadeev
nadejda
nader
nadim
nadine
nadler
nadya
naemorhedus
naf
nafalik
nafalikeem
naga
nagib
nagtglasii
nahe
nahua
naimark
nair
nairi
nairobae
naivashae
naked
nakera
nakeyer
nakila
nakwarolara
naler
nam
namah
namaquensis
nami
namibensis
namibia
namibornis
namio
namira
namiyei
namulol
namuloltum
namulosusik
nana
nancillus
nancy
nancyae
nancymaae
nandinia
nandiniidae
nanger
nangqenica
nanilla
nankey
nankeyot
nannococcyx
nannodes
nannomys
nannopsittaca
nannosciurus
nanonycteris
nansac
nansen
nantes
nanus
napaea
napaeozapus
napi
naples
napole
napoli
napothera
naptey
napu
nara
naranjal
naranjo
naranjos
narar
narayar
narda
naria
narica
narilt
nariltap
nariltuk
narin
narir
narkoy
narmol
narmukol
narodnaya
narumi
narva
nasa
nasalis
nasica
nasicus
naso
nasoloi
nasomaculatus
nasonov
nassau
nasua
nasuella
nasuta
nasutus
natalae
natalensis
natalia
natalie
natalis
natalya
natanson
nathan
nathaniel
national
nationale
nationalgalerie
nationalmuseum
nationalpark
nationi
nativitatis
nattereri
natunae
natunensis
natur
natural
naturale
naturaleza
naturalis
nature
naturelle
naumann
nautica
nauticus
navarra
nave
navidad
navigator
navus
nayaritensis
nayaur
nazbalkera
nazbar
nazbeik
nazbeikeem
nazbeikya
nazbeikye
nazbeikyeeem
nazber
nazbeya
nazbeye
nazi
nazionale
ncbi
nchen
nchez
ncipe
nde
ndez
ndor
ne
nea
neacomys
neafrapus
neal
neamblysomus
neandertal
near
neavei
neblina
nebulicola
nebulosa
nebulosus
necator
nechi
necked
necopinus
necromys
necropsar
necropsittacus
necrosyrtes
nectarinia
nectariniidae
nectogale
nectomys
neda
nederlanda
nederlandaf
nederlandava
nederlandavafo
nederlandavon
nedid
nedir
nedis
nedisa
nedison
nediyir
nefasatol
nefasesatol
nega
negans
negatus
neglecta
neglectus
negligens
negra
negrensis
negrina
negrinus
negro
negrosensis
nehring
nehringi
neige
neill
neilli
neira
neiva
nek
neke
neken
nekev
nekevon
neki
nekid
nekina
nekir
nekis
nekisa
nekiyid
nekiyir
nekoski
nela
nelkaf
nelkafa
nelkafo
nelkon
nelkot
nelkoteem
nelly
nelson
nelsoni
nelsonia
nemaeus
nemequene
nemestrina
nemoco
nemon
nemoralis
nemorivaga
nemosia
nemunas
nendar
nendara
nendasik
neobalaenidae
neobritannicus
neocaledonica
neocenus
neochelidon
neochen
neochmia
neocichla
neocossyphus
neocrex
neoctantes
neodon
neodrepanis
neofelis
neofiber
neogranadino
neohylomys
neolalage
neolestes
neomexicanus
neomixis
neomorphus
neomys
neopelma
neophascogale
neophema
neophoca
neophocaena
neophron
neopipo
neopsephotus
neopsittacus
neopteryx
neosittidae
neosuthora
neotamias
neotetracus
neothraupis
neotis
neotoma
neotominae
neotomodon
neotomys
neotragus
neovison
neoxolmis
nepalensis
nephelomyias
nephelornis
nera
nereis
nergie
nerl
nero
nertcinsk
neruda
nesaeus
nesasio
nesida
nesillas
nesiotes
nesioticus
nesiotites
neskinn
nesocharis
nesoclopeus
nesoctites
nesoenas
nesofregetta
nesokia
nesolagus
nesolestes
nesomyidae
nesomyinae
nesomys
nesophila
nesophilus
nesophontes
nesophontidae
nesopsar
nesoptilotis
nesoromys
nesoryzomys
nesospingidae
nesospingus
nesospiza
nesotriccus
nesterovi
nestor
net
netscheri
netta
nettapus
neubrandenburg
neubronneri
neue
neuf
neumann
neumanni
neurotrichus
neustadt
neusticomys
neustria
neuville
neuwied
neva
nevada
nevadensis
nevado
nevados
nevak
nevatum
nevaxe
nevo
nevoyol
nevoyukol
new
newark
newcomb
newmani
news
newton
newtoni
newtonia
newzelanda
nexilis
nexus
neya
nez
ng
nga
ngamiensis
ngel
ngeles
nghetinhensis
ngorongoro
ngottoensis
ni
nia
niadicus
niagara
niasis
niata
nica
nicaragua
nicaraguae
nicarao
nicator
nicatoridae
nice
nicholas
nicobarica
nicola
nicolas
nicolet
nicoya
nicoyana
nicoyanos
nicoyas
nictitans
nideks
nidoensis
nie
niedara
niedersa
niedersachsen
nien
niennes
niens
niethammer
niethammeri
nietzsche
nifoviridis
nigella
niger
nigera
nigeria
nigeriae
nigerianus
nigeriensis
nigerrima
night
nigra
nigrensis
nigrescens
nigriauris
nigribarbis
nigricans
nigricauda
nigricaudatus
nigricaudus
nigriceps
nigricollis
nigricolor
nigrifrons
nigrimontana
nigripecta
nigripes
nigrirostris
nigrispinus
nigrita
nigritia
nigritus
nigrocinctus
nigrofusca
nigronuchalis
nigroviridis
nigrovittatus
nihonbashi
nijni
nijur
nik
nikeem
nikiforova
nikitin
nikkonis
nikola
nikolajewitsch
nikolausi
nikolay
nikolayevitc
nikolayevna
nikya
nikye
nil
nilagirica
nilaus
nilgiri
nilopegamys
nilotica
niloticus
nils
nilssen
nilsson
nilt
niltava
nimat
nimateem
nimba
nimbae
nimbasilvanus
nimo
nimr
nin
ningaui
ningbing
ningpoensis
ninon
ninox
nio
niobe
niokolo
nios
niosasik
nipalensis
niphanae
nipona
niponaf
niponafa
niponavafa
niponavon
nippon
nipponia
nir
nirnai
nisaetus
nishiwaki
niska
niskada
nissaka
nisu
nitca
nitedula
nitela
nitida
nitidula
nitidus
nitratoides
nivaf
nivafa
nivalis
niveatus
niveipes
niveiventris
nivicola
niviventer
njak
nkvd
nl
nma
nnber
nnberg
nnich
no
noaa
noack
noafa
noailles
nobar
nobara
nobel
nobilis
noblei
nobsa
noctivagus
nocturnus
nodler
noeditsection
noelafa
noeltafa
noir
noire
nok
nokol
nokoldunol
nola
nolda
noldaf
noldafa
noldara
noleem
nolthenii
nom
nomarna
nomascus
nombre
nomcek
nomonyx
non
nonnula
nono
noon
nopalol
nope
nopeon
norae
noratus
noravank
norazayana
nord
norden
nordeste
nordiska
nordquiest
nordquist
nordrhein
nordstrand
norfolcensis
norga
norgaf
norgafa
norgava
norgavaf
norgavon
norka
norluca
normalis
norman
normanda
normandia
normandie
noronhomys
norosiensis
norris
norte
north
northbrook
northern
northiella
norton
norvegicus
norwood
nos
nosed
nosophora
notamacropus
notata
notatus
notharchus
nothocercus
nothocrax
nothoprocta
nothura
notialis
notinus
notiochelidon
notiomys
notiomystidae
notiomystis
notioros
notiosorex
notius
notoc
notom
notomys
notopholia
notopteris
notoryctemorphia
notoryctes
notoryctidae
notraca
notre
nouhuysi
nov
nova
novaeangliae
novaeguineae
novaehollandiae
novaesi
novaya
noveboracensis
noved
november
novemcinctus
nover
noves
novesa
noveyed
noveyer
novgorod
noviembre
novikov
novikovi
novo
novokuznetsk
novosibirsk
nox
noyer
np
ns
nshan
nsula
nter
nther
ntico
ntyharju
nu
nuba
nubasuteks
nubaviputi
nubaviputiusikya
nubaviputiusikye
nubeem
nubiana
nubica
nubilus
nubrica
nuca
nuchalis
nucifraga
nuda
nudaf
nudama
nude
nudeem
nudgoyol
nudicaudatus
nudicaudus
nudipes
nudiventris
nudo
nudol
nue
nuer
nuestra
nueva
nuevo
nuga
nugeem
nuit
num
numarius
numaz
numaze
numazen
numazu
nume
numen
numenius
numida
numidica
numidicus
numididae
numon
nunatakensis
nuner
nurmes
nus
nusatenggara
nutid
nutikya
nutikye
nutir
nutisa
nutiyir
nuttalli
nuttallii
nuva
nuve
nuyaf
nuyafa
nuyevaf
nuyevafa
nuyik
nuyuca
ny
nyabafa
nyama
nyansae
nyanzae
nyasae
nyblin
nyctanassa
nyctereutes
nycthemera
nyctibiidae
nyctibius
nycticeboides
nycticebus
nycticorax
nycticryphes
nyctidromus
nyctimene
nyctiphrynus
nyctipolus
nyctiprogne
nyctomys
nyctyornis
nyelafa
nyelagraba
nyema
nyemanga
nyemega
nyemila
nyemoka
nyemova
nyemuza
nyerere
nyi
nyikae
nymphicus
nyobrikya
nyofara
nyondakirafa
nyoxa
nystalus
nyula
nzel
nørregaard
o
oak
oaks
oasicus
oates
oaxacae
oaxacensis
ob
oban
obando
oberholser
obesulus
obesus
obfuscatus
obiensis
objetos
oblaka
oblakak
oblakeem
oblast
oblativa
oblaxa
obliquidens
obliquus
obolenskii
obrera
obruc
obscura
obscuratus
obscurior
obscurus
observandus
obsoletus
obtusirostris
oc
ocaga
ocagera
ocampo
ocan
occasius
occidental
occidentalis
occidente
occiduus
occisor
occultus
ocean
oceania
oceanites
oceanitidae
oceanodroma
oceem
ochetorhynchus
ochoa
ochotensis
ochotona
ochotonidae
ochracea
ochraceiventer
ochraceocinereus
ochraceus
ochraspis
ochraventer
ochreata
ochrogaster
ochrogenys
ochrognathus
ochropus
ochrotomys
ochrourus
ochroxantha
ochrus
ochthoeca
ochthornis
ocius
oclc
oconnelli
ocreata
ocreatus
octave
octavio
octavus
octodon
octodontidae
octodontomys
octomys
ocularis
oculatus
oculocincta
ocyceros
ocydromus
ocypete
ocyphaps
ocythous
odalisque
odawara
odayol
odesa
odessa
odiar
odobenidae
odobenus
odocoileus
odontoceti
odontophoridae
odontophorus
odontorchilus
odontospiza
odorata
odore
oecomys
oeconomus
oedipus
oedistoma
oena
oenanthe
oenax
oenomys
oenos
oerstedii
oertzeni
oeuvre
of
offella
office
ofrendas
og
oga
ogalt
ogilby
ogilbyi
ogilbyii
ogilvie
ognev
ognevi
ognorhynchus
ogooue
ogouensis
ogpu
oguni
oguptusik
ohiensis
ohio
ohioensis
ohionensis
oi
oicata
oil
oiostolus
ois
oise
oiseaux
ojo
ok
oka
okabe
okada
okadae
okanagana
okapia
okavango
okazaki
oke
oken
okhotina
okiensis
okilaxo
okilik
okitsu
oklahomae
okljuc
oklucavla
okol
okollakisik
okon
oksana
oku
okuensis
ol
olaf
olallae
olallamys
olana
olaya
olchonensis
old
olda
olegar
olegara
olenyok
oleracea
olfers
olga
olgaf
olgalicura
olgalicusik
olgalicuyur
olgapaf
olgapafa
olib
oligoryzomys
olithique
olitor
olivacea
olivaceous
olivaceus
olive
oliveira
oliver
oliveri
oliviae
olivier
olivieri
olk
olkik
olkoba
olkotca
olkoy
ollivier
ollula
olmeca
olof
oloferne
ologie
olonne
olor
olrogi
olson
oluafa
oluik
oluikeem
oluya
olya
olympe
olympica
olympicus
olympika
olympus
om
omaf
omafa
omar
omava
omayrol
omaze
ombusik
omelt
omensis
omeros
omexa
omichlodes
ommatophoca
omnia
omnivora
omsk
on
ona
onager
onara
onaratota
onas
onasa
onasik
onca
oncilla
oncostoma
ondatra
ondura
onegin
oneillornis
onkar
onkiro
onrubia
ont
ontinaf
ontinafa
ontine
ontinuk
onya
onychogalea
onychognathus
onychomys
onychoprion
onychorhynchus
onychostruthus
ooldea
op
opa
opaf
opafa
opdenboschi
opeem
opelaf
opelafa
opelon
opeluca
operarius
ophile
ophion
ophrysia
opik
opimus
opisthocomidae
opisthocomiformes
opisthocomus
opistholeuca
opisthoprora
opisthostictus
opo
opold
oporornis
opossum
opra
opranafa
opraxo
opriskafa
optabilis
optevoz
opulentus
oquirrhensis
or
ora
orage
oral
oralis
orange
orangerie
orangiae
orarius
orazio
orbelian
orbicularis
orbigny
orbis
orca
orcaella
orcesi
orchesticus
orchide
orcinus
ord
ordaf
ordafa
ordii
ordinalis
oreamnos
oreas
oregon
oregona
oregonensis
oregoni
oregonus
orek
orenburg
oreocetes
oreocharis
oreoica
oreoicidae
oreolais
oreomanes
oreomystis
oreonax
oreonympha
oreophasis
oreophilais
oreopholus
oreopolus
oreopsar
oreopsittacus
oreornis
oreortyx
oreoscoptes
oreoscopus
oreostruthus
oreothlypis
oreothraupis
oreotragus
oreotrochilus
oresterus
orestes
oretlik
org
orhan
ori
oria
oribasus
oribates
oricolus
orient
oriental
orientalis
oriente
orientis
orig
origensis
origine
origines
origma
orii
orika
orikaf
orikafa
orikafo
orimattila
orinoci
orinomus
orinus
oriolia
oriolidae
oriolus
oriomo
orion
oriturus
oriundus
orizabae
orka
orkon
orle
orlov
ornans
ornata
ornatus
ornithion
ornithorhynchidae
ornithorhynchus
ornorectes
oro
orophila
orophilus
orosi
orpa
orr
orsay
orsola
ortalis
ortega
orthodon
orthogeomys
orthogonys
orthonychidae
orthonyx
orthopsittaca
orthorhyncus
orthotomus
ortygospiza
ortyxelos
orwell
orycteropodidae
orycteropus
oryctolagus
oryol
oryx
oryzoborus
oryzomys
oryzorictes
oryzorictinae
os
osbeck
osborni
oscar
osceola
osgood
osgoodi
osgoodomys
osilae
osimensis
osiris
osk
oskar
oslo
osman
osmani
osmanlı
osny
oso
osorio
osos
ospina
ostera
osteraf
osterafa
ostik
osun
osvaldoreigi
ota
otaria
otariidae
otcer
otcera
otces
otceyes
othai
othus
otididae
otidiformes
otidiphaps
otinus
otion
otis
otisorex
otocyon
otok
otolemur
otomyinae
otomys
otonyctomys
otopteropus
otospermophilus
ototylomys
otra
otras
otro
otros
otsa
otson
ottenwalder
otter
otto
ottoman
otuk
otular
otulara
otulayan
otulayar
otus
ou
oualata
oubanguii
oudot
ouen
ouest
oulu
ounianga
ourebi
ourebia
oustalet
oustaleti
out
outokumpu
ovamboensis
ovejas
over
ovibos
oviedo
ovis
oviskik
oviskuca
owen
oweni
owensi
owstoni
oxam
oxen
oxford
oxi
oxiana
oxianus
oxieem
oxifa
oxila
oxotsk
oxylabes
oxymycterus
oxypogon
oxyruncus
oxyura
oyapocki
oyat
oye
ozaks
ozarkensis
ozotoceros
ozwaks
ozwar
p
pa
pablo
paca
pacheco
pacho
pachycare
pachycephala
pachycephalidae
pachycephalopsis
pachycoccyx
pachyptila
pachyramphus
pachyuromys
pachyurus
paci
pacific
pacifica
pacificus
pacifika
pacifikafa
packer
pacos
padasjoki
padilla
padua
paeba
paedulcus
paenulata
pag
paganensis
page
pagensis
pagenstecher
pagodroma
pagophila
pagophilus
paguatae
paguma
pagurus
pagus
pahari
pailta
pailtega
pailtegaxo
painting
paipa
paisaje
paisajes
paitana
pajarito
pajeros
pak
pakap
pakava
paked
paker
pakera
pakeyer
pakistana
pako
pakoik
pakoikeem
pakon
palace
palacio
palacios
palaeopropithecus
palaestina
palais
palatilis
palatina
palavas
palawanensis
palawanomys
palawanus
palazzo
pale
paleobiology
palermo
palestina
palik
palisot
pallas
pallasi
pallasii
pallasiomys
pallens
pallescens
palliata
palliates
palliatus
pallida
pallidicauda
pallidior
pallidipes
pallidiventris
pallidus
palliolata
pallipes
palm
palma
palmar
palmarius
palmarum
palmas
palmer
palmeri
palmeria
palmipes
palmira
palo
palpator
palser
palsotik
paltamo
palud
paludicola
paludinosus
paludipasser
paludivagus
palustris
pama
pambasileus
pamirensis
pamparum
pamplona
pamuk
pan
panama
panamensis
panamintinus
panasci
panche
pandion
pandionidae
pandora
panel
pangani
panganiensis
panglima
panguitchensis
paniscus
panitula
pankhurst
pannietensis
pannoniensis
pannosus
panora
panorama
panoramic
panoramica
panoramio
pansa
pantagruel
pantano
pantastictus
panterpe
panthera
pantherinae
pantholops
panuridae
panurus
panyptila
paolo
papagayo
papagomys
papasula
papers
papik
papio
pappogeomys
papuanus
papuensis
paquette
par
para
parabuteo
paracou
paracrocidura
paracynictis
paradigalla
paradipus
paradisaea
paradisaeidae
paradiso
paradisus
paradoxornis
paradoxura
paradoxurinae
paradoxurus
paradoxus
paraechinus
paraensis
paragallinula
paraguae
paraguayanus
paraguensis
parahydromys
parai
paraleptomys
paralios
parallelus
paralomys
parame
paramelomys
paramensis
paramicrus
paramorum
paramurexia
paramythia
paramythiidae
paranaensis
parantechinus
paranyctimene
parascalops
parascaptor
paratus
paraxerus
parbol
parc
parca
pardaliparus
pardalis
pardalotidae
pardalotus
pardicolor
pardina
pardinoides
pardinus
pardirallus
pardofelis
pardus
pare
pargalu
pargolovo
paricola
paridae
parienti
paris
parisaf
park
parkerthraustes
parkesia
parma
parmafa
parmentierorum
parmon
parmoptila
parnaby
parnassius
paro
paroaria
parophasma
paroreomyza
parotia
parotomys
parowanensis
parque
parra
parroquia
parrot
parryi
parryii
part
parte
parthenon
partie
partir
party
parulidae
paruromys
parus
parva
parviceps
parvidens
parvipes
parvipsitta
parvula
parvulus
parvus
pas
pasadena
pasca
pascal
pascalis
pasha
paskalera
paso
passer
passerculus
passerella
passerellidae
passeridae
passeriformes
passerina
past
pastasae
pastels
pasternak
pasto
pastor
pastoris
patagioenas
patagona
patagonia
patagonicus
patagonum
patas
patavara
patecta
patectafu
patectama
patectokilik
patectolaf
patectolafa
patectolafe
patectolaxo
patectolik
patectolikeem
patectoy
patectoyaf
patectoyafa
pati
patio
patios
patira
patrick
patrius
patterson
pattersonianus
patton
pattoni
patzelti
pau
paucidentata
paucituberculata
paul
paulamys
paulensis
pauli
pauline
paulo
paululus
paulus
pauxi
pavas
pavel
paveli
pavo
paya
payer
payot
paysage
paysanne
paz
pd
pdba
pdf
pe
peace
peak
peale
peang
pearl
pearson
pearsoni
pearsonii
pearsonomys
pearyi
peasant
peasants
peasei
pebuda
pebur
pebura
pecari
pectinator
pectoralis
peculiosa
pedetes
pedetidae
pedionomidae
pedionomus
pedok
pedregal
pedro
pedunculatus
peeli
peguensis
pegunensis
peint
peintre
peintres
peintures
pekka
pelafa
pelagodroma
pelargopsis
pelava
pelea
pelecanidae
pelecaniformes
pelecanoides
pelecanus
pelengensis
pelii
peliperdix
pellorneidae
pellorneum
pelomys
pelops
peltohyas
peltops
pelurus
pelzeln
pelzelnii
pemaratey
pemaxo
pemaxoeem
pemaxoik
pemba
pembertoni
pen
penangensis
penard
penayeem
pendera
pendjari
penelope
penelopides
penelopina
peneoenanthe
peneothello
peni
penicillata
penicillatus
peninsulae
peninsularis
penitente
penitus
pennant
pennanti
pennantii
pennatus
pennipes
pennsylvania
pennsylvanicus
penricei
pensilvania
pentadactyla
pentalagus
penthetor
penza
people
peponocephala
peque
per
perak
perake
perakensis
peraltus
peramelemorphia
perameles
peramelidae
peramelinae
peramplus
perblandus
perca
percek
percest
percivali
perciz
percnostola
percom
percuk
percura
perda
perdafa
perdicula
perditus
perdix
pere
pereafa
pereaksat
peregrina
peregrinus
peregusna
pereira
perenensis
perexiguus
perfava
perfulvidus
perfulvus
perfuscus
pergracilis
pergrisea
periclyzomae
pericrocotus
peridoneus
perijae
periodo
periodos
periparus
periporphyrus
perisoreus
perissocephalus
perissodactyla
perkins
perlutea
perm
permik
permiliensis
permira
pernanus
perniger
pernigra
pernis
pernix
pernyi
pero
perodicticus
perognathinae
perognathus
peromyscus
peron
peronii
peroryctes
perotae
perotensis
perov
perovskaya
peroy
peroya
peroye
perpallidus
perplanus
perplexus
perrault
perrensi
perrieri
perrin
perrini
perry
persa
persaxo
perse
persephone
persian
persica
persicus
persimilis
persona
personata
personatus
perspicillata
pertor
pertunmaa
peru
perua
peruana
peruanum
peruanus
perugia
peruviana
peruvianus
peruviensis
pervagus
pervalens
pervarius
pesca
pescado
peshchev
pesim
pesso
pesta
pestaka
pestakeva
pestakevaf
pestakevafa
pestaler
pestalera
pester
peta
petauridae
petaurillus
petaurista
petauroidea
petauroides
petaurus
petcora
pete
peter
peterburg
peters
petersburg
petersi
petersii
peterson
petersoni
petilidens
petinomys
petit
petite
petra
petraea
petrochelidon
petrodromus
petrogale
petrograd
petroica
petroicidae
petromarmota
petromuridae
petromus
petromyscus
petronia
petropavlovskaya
petrophassa
petropseudes
petrov
petter
petteri
petulans
peucaea
peucedramidae
peucedramus
peuple
peyrierasi
pez
pezay
peziks
pezopetes
pezophaps
pezoporus
phacellodomus
phacochoerus
phaea
phaenicophaeus
phaenicophilidae
phaenicophilus
phaenomys
phaenostictus
phaeocephalus
phaeochroa
phaeomelas
phaeomyias
phaeopepla
phaeopus
phaeotis
phaethon
phaethontidae
phaethontiformes
phaethornis
phaetusa
phaeura
phaeurus
phaeus
phainopepla
phainoptila
phaiomys
phalacrocoracidae
phalacrocorax
phalaena
phalaenoptilus
phalanger
phalangeridae
phalangeriformes
phalangerinae
phalangeroidea
phalaropus
phalcoboenus
phane
phaner
phapitreron
phaps
pharomachrus
phascogale
phascolarctidae
phascolarctos
phascolosorex
phascomurexia
phasianidae
phasianus
phasma
phayrei
phedina
phegornis
phelleoecus
phelpsia
phenacomys
phenax
pheucticus
pheugopedius
phibalura
phigys
philadelphia
philander
philantomba
philbricki
philemon
philentoma
philepitta
philesturnus
philetairus
philip
philipi
philippe
philippensis
philippi
philippii
philippinensis
philippsi
phillips
phillipsi
phillipsii
philohydor
philome
philortyx
philosophie
philosophy
philydor
phimosus
phlegopsis
phleocryptes
phloeomys
phlogophilus
phoca
phocaenoides
phocarctos
phocidae
phocoena
phocoenidae
phocoenoides
phodilus
phodopus
phoebastria
phoebetria
phoebus
phoenicircus
phoeniconaias
phoenicoparrus
phoenicopteridae
phoenicopteriformes
phoenicopterus
phoeniculidae
phoeniculus
phoenicurus
pholidornis
pholidota
phonygammus
photo
photograph
phragmacia
phrygilus
phylarchus
phylax
phylidonyris
phyllanthus
phyllastrephus
phyllergates
phyllis
phyllolais
phyllomyias
phyllomys
phylloscartes
phylloscopidae
phylloscopus
phyllotis
physalus
physeter
physeteridae
physique
phytotoma
pi
pia
piacentinii
piakol
piakudol
piamonte
piano
piaya
pibaf
pica
picasso
picata
picathartes
picathartidae
picatus
picchu
piccola
piccolo
picea
piceus
pichincha
pichiy
picidae
piciformes
picinum
pickford
picking
pickwick
picoides
picta
pictet
picticaudata
pictipes
picture
pictus
piculus
picumnus
picus
pidonis
pie
pied
piedecuesta
piedra
piedras
pieksa
pielavesi
pier
pierre
pierrei
pierreicolus
pietro
piette
piezas
piezorina
pigra
pihtipudas
pijao
pika
pike
pikene
piker
piksa
piksesik
pikumche
pilarensis
pilat
pile
pileatus
pilherodius
piliocolobus
pilipina
pilirostris
pilkaf
pilkafa
pilkapaf
pilkay
pilkoda
pilkoma
pilkomodar
pilkomodara
pilkot
pilkotik
pilkovaf
pilkovafa
pilkovon
pilleri
pilligaensis
pilorides
pilosa
pilosus
piluda
piludafa
pimensis
pimtad
pimtar
pimtara
pimtason
pimtayar
pin
pinacoteca
pinafa
pinakothek
pinalensis
pinarochroa
pinarocorys
pinaroloxias
pinarornis
pinchaque
pinchon
pincol
pine
pinetis
pinetorum
ping
pinguinus
pinheiroi
pinicola
pinius
pinizelic
pinoba
pinochet
pinos
pins
pinta
pintada
pintakirafa
pintar
pinter
pintik
pinto
pintura
pintye
pionites
pionopsitta
pionus
piotrovski
piotrovsky
piotrowski
pipanacoctomys
piperi
pipilans
pipile
pipilo
pipra
pipraeidea
pipreola
pipridae
piprites
piranga
pirdot
pires
pirrensis
pis
pisan
piscivora
piskot
piskur
piskura
piskusik
piskuyun
pisonara
pisonasikya
pissaro
pissarro
pist
pistafa
pistok
pita
pital
pitalito
pitangus
pitcher
pithecheir
pithecheirops
pithecia
pitheciidae
pitheciinae
pithecophaga
pithys
pitmani
pitohui
pitta
pittasoma
pitti
pittidae
pittieri
pitts
pittsburgh
pittura
pityriasidae
pityriasis
piutexe
pivoines
pix
piza
pizarro
pl
plabuca
place
placer
plage
plagiodontia
plain
plaine
plan
planadas
planiceps
planifrons
planigale
planirostris
planorum
plant
plantinarensis
plassans
plata
platacanthomyidae
platacanthomys
plataer
platalea
platanista
platanistidae
plate
plater
plato
platte
platycephalus
platycercus
platylophus
platyops
platyrhynchos
platyrhynchus
platyrinchus
platysmurus
platyspiza
platysteira
platysteiridae
platythrix
platyurus
play
playa
playas
player
playo
plaza
plazas
plectorhyncha
plectrophenax
plectropterus
plegadis
pleistova
plek
plekur
plerotes
ples
plesius
plo
ploceidae
plocepasser
ploceus
ploda
plor
plougastel
pluie
plukera
plumbea
plumbeus
pluto
pluvialis
pluvianellidae
pluvianellus
pluvianidae
pluvianus
plyos
pma
png
pnoepyga
pnoepygidae
po
poa
poaiae
poana
poanon
poblado
poca
pocket
pockets
pocock
pococki
podargidae
podargus
poder
podes
podi
podica
podiceps
podicipedidae
podicipediformes
podilymbus
podoces
podogymnura
podolsk
podomys
podoxymys
poe
poecile
poecilodryas
poecilogale
poecilops
poecilotis
poecilotriccus
poegol
poelagus
poensis
poeoptera
poephila
poeppig
poeppigii
pofa
pogdol
pogonias
pogoniulus
pogonocichla
pogonomelomys
pogonomys
pogonotriccus
pohjois
pohle
poiana
poicephalus
point
pointe
poissy
poke
pokef
pokefa
pokeon
pokolera
pola
polaris
polemaetus
polenov
polenovo
poli
polia
policromada
policromo
polihierax
polii
polinesia
poliocephala
poliocephalus
poliocrania
poliolais
polionotus
polioptila
polioptilidae
poliopus
polioxolmis
polis
politburo
political
politics
politiker
polius
pollen
polli
polska
polskaf
polskafa
polskavaf
polskik
poltava
polulus
polvija
poly
polyboroides
polykomos
polyodon
polyonymus
polyplectron
polysticta
polystictus
polytelis
polytmus
poman
pomanon
pomar
pomara
pomare
pomarea
pomas
pomasik
pomatorhinus
pomatostomidae
pomatostomus
pomel
pommes
pommiers
pomo
pompadour
pona
ponaks
ponceleti
pond
pondoliae
pone
pongo
pont
ponticus
pontifex
pontoise
pontoporia
pontoppidan
ponyaska
poodytes
pooecetes
pool
poopik
poospiza
popaya
popayanus
pope
poplars
popper
poquelin
por
poradro
poradroik
porcellus
porcinus
porculus
porcus
porfeon
poriol
porma
poron
porphyrio
porphyriops
porphyrolaema
porphyrospiza
porque
port
portachuelo
portal
portenkoi
porteousi
porter
porteri
portland
porto
portoricensis
portrait
portraits
portrett
portrieux
portugala
portugalaf
portugalavaf
portugalavon
portugalik
poruca
porvenir
porzana
possibly
possum
post
potager
potamochoerus
potamogale
potenziani
potey
pothuis
potoroidae
potorous
potos
potosi
potosinus
potrerito
potrero
potsdam
potsdamer
potto
pound
pour
pousargues
pousarguesi
powell
powelli
power
poz
pozidriv
pozla
pozo
pozos
pozzuoli
pp
ppell
ppp
pra
pradelles
pradera
pradja
prado
praedatrix
praetor
prag
praha
prairie
prajae
praka
pranis
prantaf
praomys
praskovya
pratcol
pratensis
prateri
pratti
prattorum
prdus
pre
preble
preblei
precolombinas
prehensilis
preksa
premaxillaris
premnoplex
premnornis
premuda
presbytis
presencia
presina
press
presses
preston
pretiellus
pretoriae
preussena
preussenik
preussi
prevostensis
prevostii
preyutar
preyxol
pri
priam
pribilofensis
pricei
pride
prietae
prigogine
prigoginei
prigogone
prilara
primates
primavera
primigenius
primitivus
primo
primolius
primulina
primus
prince
princeps
princeton
principal
principalmente
principula
principulus
prinia
print
printemps
priodontes
prionailurus
prioniturus
prionochilus
prionodon
prionodura
prionomys
prionops
priotelus
pris
priscus
prise
pritchett
prittwitzi
privat
proboscidea
proboscideus
probosciger
procapra
procarduelis
procavia
procaviidae
proceedings
procellaria
procellariidae
procellariiformes
procerus
procnias
procolobus
procyon
procyonidae
procyonoides
proditor
prodotiscus
proechimys
proedromys
proeulagus
profelis
profile
progne
program
progreso
project
proklaci
proklaciza
prokladi
proklami
proklano
proklanoza
proklati
proklavu
prokudin
prolagidae
prolagus
prolatus
prolemur
promayet
promenade
promeropidae
promerops
prometheomys
pronolagus
prontcictcev
properties
propithe
propithecus
prosciurillus
proshaberd
prosil
prosobonia
prosopeia
prosper
prostelay
prostewa
prostewaf
prostewafa
prosthemadera
proteles
proteus
protochromys
protonotaria
protoxerus
proudhon
proust
provence
providence
providencia
provocax
prowincja
proximarinus
prudhomme
pruinosus
prunay
prunella
prunellidae
pruva
pruve
pryeri
prymnolopha
pryori
przewalski
przewalskii
przewalskium
ps
psalidoprocne
psaltriparus
psammomys
psammophila
psammophilus
psarisomus
psarocolius
psel
pselliophorus
psephotellus
psephotus
pseudantechinus
pseudasthenes
pseudastur
pseudaxis
pseudelaenia
pseudeos
pseudhirundo
pseudibis
pseudoalcippe
pseudobias
pseudobulweria
pseudocalyptomena
pseudocheiridae
pseudocheirinae
pseudocheirus
pseudochelidon
pseudochirops
pseudochiropsinae
pseudochirulus
pseudocolaptes
pseudocolopteryx
pseudocrinitus
pseudohydromys
pseudois
pseudoleistes
pseudomys
pseudonapaea
pseudonestor
pseudonigrita
pseudopardalis
pseudopipra
pseudopodoces
pseudopotto
pseudorca
pseudorectes
pseudoryx
pseudoryzomys
pseudosaltator
pseudoscops
pseudoseisura
pseudotriccus
psilopogon
psilopsiagon
psilorhamphus
psilorhinus
psiloscops
psilurus
psittacara
psittacella
psittacidae
psittaciformes
psittacula
psittaculidae
psittaculirostris
psittacus
psitteuteles
psittinus
psittiparus
psittirostra
psittrichas
pskov
psophia
psophiidae
psophodes
psophodidae
psora
pt
ptenochirus
pteralopex
pteridophora
pternistis
pterocles
pteroclidae
pterocliformes
pterodroma
pteroglossus
pteromys
pteromyscus
pteronetta
pteronura
pterophanes
pteropodidae
pteroptochos
pteropus
pteruthius
ptilinopus
ptiliogonatidae
ptiliogonys
ptilocercidae
ptilocercus
ptilocichla
ptilonorhynchidae
ptilonorhynchus
ptilopachus
ptiloprora
ptilopsis
ptiloris
ptilorrhoa
ptilostomus
ptilotula
ptiloxena
ptolemai
ptychoramphus
ptyonoprogne
ptyrticus
pu
publications
publishers
publishing
pucheran
pucheranii
puckin
pucrasia
puda
pudjonica
pudu
pueblensis
pueblito
pueblo
pueblorrico
pueblos
pueden
puente
puerres
puerta
puerto
puerulus
pues
pufafa
puffinus
pugetensis
pugnax
puh
puhoatensis
puisa
puit
puits
pukey
pula
pulara
pulasa
pulchellum
pulchellus
pulcher
pulcherrimus
pulchra
pulitzer
pullata
pullus
puloda
pulotafa
pulsatrix
pulukaf
pulukafa
pulukeva
pulukevafa
pulverulenta
pulverulentus
pulvid
pulvina
pulvinatus
pulvir
puma
pumila
pumilio
pumilus
pumkik
punctata
punctatus
punctulatus
pundti
pune
punensis
punicans
punkaharju
punomys
punta
puntalingeks
puntalingekskeve
puntarenas
puolanka
puon
pur
purace
purara
purda
purdafa
purgatus
purinus
purnella
purpureicephalus
purpureicollis
pursara
purus
pusa
pusaeus
pusch
puscule
pusilla
pusillus
putaoensis
putcol
putcudol
putcukol
putcumol
putcungol
putcuvol
putcuxol
putorius
puumala
puve
puzachenko
puzig
pwader
pwadera
pwades
pwadesa
pwadesik
pwadesikya
px
pyasina
pycnonotidae
pycnonotus
pycnoptilus
pycnopygius
pyctoris
pygacanthus
pygargus
pygarrhichas
pygathrix
pygeretmus
pygerythrus
pygiptila
pygmaea
pygmaeus
pygmy
pygoscelis
pyha
pyhta
pyla
pyotr
pyramids
pyramidum
pyrenaica
pyrenaicus
pyrenestes
pyrgilauda
pyriglena
pyrilia
pyrocephalus
pyroderus
pyrrhinus
pyrrhocoma
pyrrhocorax
pyrrholaemus
pyrrhomerus
pyrrhomyias
pyrrhonotus
pyrrhoplectes
pyrrhorhinos
pyrrhula
pyrrhura
pyrrocephalus
pyrroglaux
pyrropus
pytilia
pz
q
qazvinensis
qinlingensis
quad
quadraticauda
quadratus
quadricornis
quadrimaculatus
quadriscopa
quadrivittatus
quadruplicatus
quaestor
quagga
quai
quarlesi
quasiater
quasimodo
quatre
que
quebecensis
quebrada
quebradas
quelchii
quelea
quelpartis
quemisia
quemuenchatocha
quene
querceti
quercinus
querres
querula
quesada
question
quetzalcoatl
queza
qui
quichua
quiebra
quilichao
quimbaya
quimper
quinault
quinchi
quindi
quindianus
quinquestriatus
quinta
quintinensis
quira
quiscalus
quitensis
quiza
quotus
quoy
quoyi
r
ra
raba
rabafa
rabater
rabatera
rabateson
rabbit
rabelais
rabik
rabor
rabori
racine
radclyffe
radde
raddei
rade
radespiel
radets
radiata
radictcev
radimi
radimida
radimifa
radimifiyir
radimigejugal
radimion
radjah
rafael
raffaello
raffles
rafflesii
raffrayana
rafinesque
ragazza
ragny
rahm
rahmi
railroad
railway
rain
rainer
raineyi
rainieri
rainy
raisa
raisonne
rajah
rajputanae
ralentar
ralentara
rali
ralli
rallicula
rallidae
rallina
rallus
ralma
ralph
raltada
raltadukafa
ram
ramada
ramal
ramanantsoavanai
rambouillet
rami
ramiriqui
ramirohitra
ramisavik
ramo
ramona
ramphastidae
ramphastos
ramphocaenus
ramphocelus
ramphocinclus
ramphocoris
ramphodon
ramphomicron
ramphotrigon
ramsay
ramsayornis
ran
rancedol
rancol
rancumol
rand
randensis
randia
randrianasoloi
rane
raneta
range
rangifer
rango
ranjiniae
ranjitsinhi
ranker
rankera
rantasalmi
ranyer
ranyes
ranyesa
ranyese
rapax
rape
raphanurus
raphicerus
raphus
rapit
rapor
raporaf
raporafa
raporka
raporki
raporuz
raporxo
rapposa
rapti
raptor
raptorum
rard
ras
rasek
rasho
rasmus
rasoloarison
rat
rathenau
ratiavatol
ratsikisol
rattoides
rattus
ratufa
ratufinae
rautalampi
rautatieasema
rautavaara
rava
ravachol
ravacol
ravalduga
ravelobensis
raver
ravera
ravesik
raveyer
raviventris
ravlem
ravlemafa
ravlemak
ravlemind
ravna
ravni
ravulus
ravus
rawaf
rawafa
rawaks
rawaxo
rawopaf
rawopafa
rawopik
raxworthy
ray
rayaleh
raymond
rayol
raz
razama
razamey
razamiz
razamot
razdad
razdar
razdayar
razeem
razeka
razopa
rbara
rd
rdoba
rdstrand
re
rea
reading
real
realizaban
rebara
rebava
rebavaf
rebaveem
rebavega
rebekka
reca
recela
recent
recessus
reclining
reclus
recreo
recurvirostra
recurvirostridae
red
redakik
rediscovering
redjel
redonda
reductus
redud
redunca
reduncinae
redur
redura
redus
redusa
redusik
reduyun
reduyuna
reduyur
reevesi
ref
refa
refe
refo
refulgens
rega
regalis
regina
reginae
regio
region
regiones
regulidae
regulus
rehn
reichardi
reichenbach
reichenow
reid
reigi
reila
reims
reinhardt
reinhart
reino
reinwardtipicus
reinwardtoena
reis
reisho
reissii
reithrodon
reithrodontomys
reiz
rekeon
rekeugal
rekola
rekolafa
rekolapa
relations
relicinus
relicta
relictus
relida
religiosa
relmer
relmera
relmesik
rem
remblira
remburera
rembureyed
remdolekas
reme
remeluxaxa
remfir
remgrupera
remgudaks
remi
remiz
remizidae
remlanira
remlapira
remnir
remolino
remota
remrura
remsen
remtrakura
remu
remy
remyi
rena
renar
renara
renard
renasik
rendilis
rene
renga
rengger
rennes
renoir
renschi
repelo
repens
reperticia
repin
repina
report
represa
representan
repu
res
research
reserve
resguardo
resta
restali
restrepo
restrictus
ret
reticulata
retik
retiro
retractus
retrorsus
returning
retusus
reugale
revava
review
revista
revoili
revolution
revolutionary
revue
rewana
rewara
rewayar
rex
rey
reyes
reyi
reykjavi
rez
rezgalenik
rezgaler
rezgalera
rezgalexo
rg
rgj
rhabdomys
rhabdops
rhabdornis
rhabdotorrhinus
rhagamys
rhagologidae
rhagologus
rhagomys
rhamphocharis
rhamphococcyx
rhaphidura
rhea
rhegmatorhina
rheidae
rheiformes
rhein
rheinardia
rheithrosciurus
rheomys
rhinoceros
rhinocerotidae
rhinocrypta
rhinocryptidae
rhinogradoides
rhinopithecus
rhinoplax
rhinopomastus
rhinoptilus
rhinortha
rhinosciurus
rhionis
rhipidomys
rhipidura
rhipiduridae
rhizomys
rhizophagus
rhizoplagiodontia
rhizothera
rhoads
rhoadsi
rhodacanthis
rhodesiae
rhodinocichla
rhodinocichlidae
rhoditis
rhodius
rhodonessa
rhodopechys
rhodopis
rhodospingus
rhodospiza
rhodostethia
rhodothraupis
rhombomys
rhopias
rhopocichla
rhopophilus
rhopornis
rhynchocyclus
rhynchocyon
rhynchogale
rhyncholestes
rhynchomeles
rhynchomys
rhynchophanes
rhynchopsitta
rhynchortyx
rhynchospiza
rhynchostruthus
rhynchotus
rhynochetidae
rhynochetos
rhyticeros
rhytipterna
ri
riabus
riaf
riafa
ribeiro
ribinsk
ric
rica
ricaurte
rich
richard
richardii
richardson
richardsoni
richardsonii
richartz
richmond
richmondi
richter
ricinae
rickart
rico
ricourt
rictaga
rictela
rictula
rid
rida
ride
ridei
ridgway
ridgwayia
rie
riel
rielcek
riesen
rieta
rietara
rietava
rietavafa
rieteem
rietoda
rietova
rieur
rifbjerg
rift
riga
right
rights
rigidipenna
rigidus
rigord
rigotc
rijay
rijksmuseum
rijust
rijustaf
rikulik
rimator
rime
rimofrons
rin
rinco
rind
rindera
rindes
ringen
ringens
ringtail
riniz
rintjanus
rio
riofri
rion
rionegrensis
rionegro
riosucio
riparia
riparius
riparum
risaralda
riska
riskeda
rissa
rissoires
ristara
ristiina
ristija
ristula
ristulafa
ristulon
ristura
ristus
ristusa
ristusik
rita
ritratto
ritter
ritual
rituales
riudonensis
riukiuanus
riulk
rivage
rivebol
river
rivera
rivie
rivne
rivol
rivoli
rivukol
riwe
rixosa
riyomes
riz
rizik
rk
rkegren
rmnh
rnefelt
rnikovac
ro
roachi
road
roald
rob
robben
robbins
robeem
robert
roberti
roberto
roberts
robertsi
robertson
robertsoni
robin
robinson
robinsoni
roble
robles
roboratus
roborovskii
robsonius
robusta
robustulus
robustus
rocha
roche
rochebrune
rochefort
rochelle
rocher
rochers
roches
rock
rockefeller
rocks
rocky
rocquencourt
roda
rodaala
rodaf
rodafo
rode
rodega
rodentia
rodeo
rodin
rodja
rodjera
rodolphii
rodriguezi
rofavera
roga
roger
roi
roigi
rojas
rojo
rojura
rojus
rojusik
rojuxa
roka
rokak
rokeem
rokobayar
rokopa
rolaf
rolafa
roland
roldanillo
rolland
rollandia
rolleboise
rollulus
roloway
roma
romafa
romafo
romain
romaine
roman
romana
romania
romanik
rome
romerolagus
rompaey
ron
ronald
ronc
roncie
rondoensis
rondoni
rone
roneafrika
roneberkikya
ronef
ronefa
roneka
ronekafa
roneon
ronoksudana
ronon
rontagentimaf
rontagentimafa
rontifa
rontion
ronuon
roos
roosevelt
roosevelti
rooseveltorum
roosmalen
roosmalenorum
ropexe
roque
roraimae
roraimia
roryi
rosa
rosal
rosalia
rosalinda
rosamondae
rosanowi
rosario
rosas
rose
rosenbergii
rosenblum
rosengart
rosenhauer
roses
roseveari
rosida
rosii
rosmarus
ross
rossi
rossia
rossiaf
rossiafa
rossiafe
rossiafo
rossiava
rossiavaf
rossiavik
rossiavon
rossica
rossii
rossiik
rostaza
rostela
rostov
rostralis
rostratula
rostratulidae
rostratus
rostrhamus
rotaskir
roth
rothschild
rothschildi
roti
rotir
rotis
rotisa
rotterdam
rotuca
rotuxadara
roubaud
rouen
rouge
rouges
rougetius
rougon
roumanicus
rousseloti
route
routledge
roux
rovall
rovira
rovulegan
rovumae
rowettia
rowid
rowin
rowina
rowir
rowit
roxellana
roy
royal
roylei
roz
rozar
rozeti
rozokidol
rozokol
rquez
rrez
rster
rth
rttemberg
ru
ruacana
ruaha
ruandae
ruatanica
rubeculus
rubellus
rubens
rubescens
rubeus
rubex
rubiaxe
rubicola
rubicunda
rubicundus
rubida
rubidior
rubidus
rubiginosus
rubra
rubricatus
rubricosa
rubrifrons
rubrirostris
rubrisciurus
rubriventer
rucervus
rucka
ruddi
rudinoris
rudolf
rudolfi
rudyard
rue
ruedi
ruel
ruelga
ruemmleri
rueppellii
ruer
rufa
rufescens
ruficaudatus
ruficaudus
ruficeps
ruficollaris
ruficollis
ruficrista
rufifrons
rufigenis
rufiji
rufilatus
rufina
rufinus
rufipes
rufiventer
rufiventris
rufobrachium
rufocanus
rufodorsalis
rufogriseus
rufomitratus
rufoniger
rufopallidus
rufous
ruftacek
rufulus
rufus
ruga
ruidosae
ruin
ruins
ruisseau
ruiz
ruja
rujara
rujasa
rujod
rujodaf
rukia
ruldad
ruldar
ruldas
ruldasa
ruldayar
rumala
rumeik
rumeikya
rumeuca
rumeugal
rumeugalafi
rumped
rumpi
rumpii
rumpler
runda
rundanyar
rundar
rundayar
rune
runexo
rungruper
runi
runkaf
runt
runta
runteem
ruokokoski
rupa
rupec
rupel
rupestre
rupestris
rupeyen
rupicapra
rupicola
rupinarum
rupol
rupornis
rupp
ruppi
rural
ruricola
rusa
rusahinili
ruscello
ruschii
rusconi
ruseta
rusiges
russa
russatus
russell
russelli
russelliana
russeolus
russeus
russia
russian
russo
russula
russulus
rustoda
ruth
ruthena
rutila
rutilus
ruvanensis
ruvuma
ruwenzori
ruwenzorii
ruwenzorisorex
ruwenzorornis
ruxa
ruxeem
ruxton
ruyat
ruyer
ruyesa
ruyeson
ruyeyer
ruzadera
rven
rvi
rwanda
rwandae
rwd
ry
ryazan
rye
ryley
rynchops
ryner
rysselberghe
ryu
s
sa
saaremaa
saarija
saarnaki
saba
sabaea
sabaeum
sabaeus
sabana
sabanagrande
sabanalarga
sabanas
sabaneta
sabanicola
sabanillae
sabanus
sabe
sabega
sabegara
sabiensis
sabine
sable
sables
saboya
sabrina
sabrinus
sabulonis
sabulosus
sacana
saccard
saccharalis
saccostomus
sacer
sachalinensis
sachsen
sacobianus
sacra
sacramenti
sacramentoensis
sacraria
sacratus
sacrificio
sadigua
sadiya
sadonis
safta
saga
sagaf
sagax
sagei
sagitta
sagittalis
sagittariidae
sagittarius
sagondexo
saguamanchica
saguinus
saha
sahalinensis
sahamae
sahamalazensis
saharae
sahariensis
sahlste
said
saiga
sailors
saimensis
saimiri
saimiriinae
saint
sainte
saisons
sajanensis
sakartvela
sakesphorus
sal
salaam
salado
salae
salamina
salamonis
salanoia
salarius
salatana
salazar
saldan
sale
salebrosus
salenskii
salento
sales
salgar
salicornicus
salimalii
salinarum
salinas
salinensis
salinia
salinicola
salinoctomys
salinomys
salins
salisbury
salitre
salle
salli
salm
salmon
salocco
salome
salomonseni
salon
salottii
salpinctes
salpingotulus
salpingotus
salpornis
salt
saltarius
saltator
saltatricula
saltatrixoides
saltiana
salto
saltuensis
salute
salva
salvador
salvadora
salvadori
salvadorina
salvanius
salvin
salvini
salvinius
samaca
samara
samarensis
sambiranensis
sammlung
samniticus
samuel
samurai
san
sanalubda
sanary
sanborn
sanborni
sanctacrucis
sanctaecruzae
sanctaemartae
sanctiluciae
sanctipaulensis
sanctorum
sanctuary
sand
sanda
sandaf
sandafe
sandborn
sanderson
sands
sane
saneafa
saneaksat
saneaytara
saneeem
saneevaf
sanef
sanefa
saneg
sanegad
sanegaf
sanegafa
sanegaks
sanegar
sanegara
sanegayad
sanegayan
sanegayana
sanegayar
sanegon
saneik
saneikeem
sanelia
saneliafa
saneliakirafa
saneliiskafa
saneroti
sanfelipensis
sanford
sanfordi
sangha
sangirensis
sangronizi
sanguinea
sanguinidens
sanhueza
sanila
sanjei
sanka
sankt
sanluisi
sanoy
sanoya
sanrafaeli
sanshiro
sant
santa
santacruz
santacruzae
santafe
santana
santander
santanderensis
santaneaksat
santarosae
santiago
santo
santolda
santoleaksat
santos
santuario
sao
saor
saornil
sap
sapajus
sapayoa
sapayoidae
sapidus
sapiens
sapientis
sappho
sara
sarae
sarah
saramago
sarapiqui
saratov
sarawakensis
sarcogyps
sarcophanops
sarcophilus
sarcops
sarcoramphus
sardik
sardikya
sardikye
sardinata
sardiniae
sarduri
sardus
sare
sareon
sargon
sarkidiornis
sarkisyants
sarma
saroglossa
sarothrura
sarothruridae
sartre
sarva
sasaima
sasia
saskool
satanas
satarae
satcon
saterei
satolera
satrapa
satunin
satunini
saturata
saturatior
saturatus
saturnus
satyrus
saudiya
saul
saundersiae
saussure
saussurei
sauvage
sauveli
savage
savamis
savannarum
savannius
saver
savera
savi
savigny
savii
savilei
savinkov
savo
savonlinna
savorgnan
savrasov
savsaf
savsafa
savsafe
savsafo
savsavafa
savsugal
savvinskaya
saxa
saxalin
saxara
saxatca
saxatilis
saxicola
saxicolor
saxicolus
say
sayakaf
sayakafa
sayakafe
sayakaxe
sayakik
sayakikye
sayakon
sayornis
sayudar
sayudasik
saz
sazdara
sazopa
scagliai
scaloni
scalopinae
scalops
scalopus
scandentia
scapanulus
scapanus
scapteromys
scaptochirus
scaptonyx
sce
sceloglaux
scelorchilus
scene
scenopoeetes
scepomycter
scey
schadenbergi
schaeferi
schaldach
schalleri
schantaricus
schantz
schaposchnikowi
scharicus
schaub
schauinslandi
scheffeli
scheffer
schefferi
schelkovnikovi
scherman
scherzeri
schetba
schidlovskii
schiffornis
schiller
schinz
schistaceus
schistes
schisticeps
schisticolor
schistochlamys
schistolais
schjerfbeck
schlegel
schlegeli
schlegelii
schliemann
schlitter
schlumbergeri
schmidi
schmidti
schmitzi
schnee
schodde
schoenicola
schoeniophylax
schomburgki
school
schouteden
schoutedenapus
schoutedeni
schouteni
schreber
schrenck
schrenckii
schrenk
schultzei
schwa
schwann
schwanni
schwartz
schwarz
schwarzi
schwarzianus
schweinfurthii
schwerin
sciaphylax
science
sciences
scindiae
scioanus
scissirostrum
scitulus
sciureus
sciuridae
sciurillus
sciurinae
sciuromorpha
sciurotamias
sciurus
sclater
sclateri
sclateria
scleroptila
sclerurus
scolomys
scolopacidae
scolopax
scopidae
scopoli
scopus
scoticus
scotinomys
scotocerca
scotocercidae
scotopelia
scotophilus
scott
scottae
scotti
scottii
scottorum
scourbetcarnavalet
scout
scream
scriptus
scrofa
scrutator
scully
scutisorex
scytalopus
scythrops
se
sea
seal
seali
seamus
seated
seattle
sebadadunol
sebastia
sebastian
sebeka
sebucus
seca
sechurae
seclusa
seco
sector
sedis
sedme
sedulus
seg
sega
segayes
seger
segerstra
segovia
segregatus
seimundi
seine
seinen
seistanica
seiurus
sejugis
sekeetamys
seki
sekol
sel
selafa
selaropa
selaropik
selasphorus
selby
selenidera
seleucidis
selevinia
self
selfburningcigarette
selfportrait
selim
selina
selk
selkirki
selknam
selo
selous
selousi
selt
seltaf
seltafa
seltay
selteva
seltevaf
seltevafa
seltevafo
seltevik
seltom
selton
selura
selvportrett
selvportræt
selys
sema
semek
semicanus
seminolus
semioptera
semispinosus
semistriatus
semitorquatus
semivillosus
semlikiensis
semlikii
semnopithecus
semnornis
semnornithidae
semotus
semplei
sempuz
semyon
semyonovitc
semyonovna
sen
senegal
senegala
senegalensis
senescens
senex
sengaani
senganus
sengen
seniculus
senilis
sennetti
sentevol
senyesa
senyese
senyesikya
senzasusikya
senzasusikye
seorsus
seotar
seotara
seotayar
separation
sephanoides
septemcinctus
septentrionalis
sequoiensis
ser
seramuca
serasani
serbia
serebrennikov
serengeti
serezkyensis
sergey
sergio
seri
sericatus
sericeus
sericornis
sericossypha
sericulus
serilophus
serinus
serna
serotinus
serpiente
serpophaga
serrensis
sersaxo
sersik
sersikya
serval
servalina
serve
ses
sespe
sesquile
sestra
sestrica
sestrice
set
setchuanus
setifer
setikeks
setiker
setikera
seton
setonix
setopagis
setophaga
setornis
setosus
setting
setulosus
setzer
setzeri
seuanezi
seurat
seurati
sevan
sevazhayr
sever
severnaya
severoxo
severtsov
severtzov
severtzovi
severzovi
sevia
sevieri
sevilla
sexcinctus
seyta
sfelt
sga
sh
shah
shakespeare
shalmon
shamel
shanicus
shanseius
shantungensis
sharica
sharicus
sharmani
sharpe
sharpei
shatin
shaw
shawi
shawmayeri
sheep
sheila
sheldoni
shelley
shenbrot
shepherdi
sheppardia
sherman
shermani
sherwood
shidlovsky
shikarii
shikokensis
shimada
shimura
shinagawa
shinto
shiptoni
shirasuka
shirensis
shirley
shistacea
shitkovi
shivini
shizuoka
sho
shoae
shoghakat
shogun
sholicola
shore
short
shortridge
shortridgei
shrew
shrike
shukurovoi
shumaginensis
si
siachoque
siak
sialia
siamensis
siantanicus
siatos
siberia
siberiae
siberu
sibira
sibiraf
sibiria
sibirica
sibiricorum
sibiricus
sibirionetta
sibreei
sibuanus
sicalis
siccatus
siccovallis
siccus
sichuanensis
sichuanicus
sicilia
sicista
sicistinae
sick
sickroom
sicula
sid
sidafa
siday
side
sidi
sidopa
sidopugaleem
sie
siebersi
siebold
siedziko
siel
sielaf
sielafa
sielcek
sielestura
sielon
sierra
sierrae
sierraleona
sifaka
sifanicus
sigebert
sigida
siglo
sigmodon
sigmodontinae
sigmodontomys
signac
signata
signatus
sigrid
siilinja
sika
sikapusi
siki
sikimaria
sikimensis
sikkim
silacea
silaceus
silba
silencio
silent
silenus
silindensis
silja
sillanpa
silukon
silva
silvania
silvaticus
silve
silvestris
silvia
silvicultor
silvicultrix
sima
simacota
simalurensis
simalurus
simbakoraf
simcoxi
sime
simensis
simias
simiiformes
simijaca
similar
similis
simiti
simmons
simmonsi
simo
simon
simone
simoni
simons
simonsi
simoxenops
simplex
simpsoni
simulans
simulator
simulatus
simulus
simum
simus
sin
sina
sinaf
sinafa
sinafe
sinafi
sinagai
sinai
sinaiticus
sinalis
sinaloae
sinaloensis
sincelejo
sincipis
sinclair
sindi
sindica
sine
sinensis
singhala
singhei
sinhaleyus
sinia
siniaf
siniafa
sinica
sinistralis
sinka
sinkara
sinkestol
sinnamariensis
sino
sinosuthora
sint
sintafa
sinton
sinu
sinualis
sinuensis
sinuosus
sinus
sinya
sinyona
siphonorhis
sipia
sipodotus
sipora
siporanus
siptornis
siptornopsis
sirenia
sirgenstein
sirhassenensis
sirta
sirystes
siskiyou
sistu
sit
site
sites
sitio
sitkensis
sitta
sittasomus
sittende
sittidae
sittiparus
siverskaya
sixie
size
sizunta
sjalusi
sk
skala
skapa
skapafa
skay
skeda
skedara
skedaxa
skedegar
skedegara
sketch
skeura
ski
skin
skota
skotaf
skotafa
skrik
skriz
skrombedol
skrombol
skujera
skuks
skunk
skur
skura
skus
skusa
skusik
skuyud
skuyun
skuyuna
skuyur
sky
skyla
skyline
slack
sladeni
slakazol
slakevol
slakimol
slakol
slakudol
sleeping
sleepless
slender
slevini
sloboda
sloggetti
slovenia
slovenska
sma
small
smankol
smankudol
smbat
smbataberd
smeenki
smell
smicrornis
smilk
sminthopsinae
sminthopsis
smirnitskaya
smit
smith
smithemani
smithersi
smithi
smithii
smithornis
smithsonian
smokvenjak
smokvica
smolensk
smuts
snak
snavolzveri
snollaerts
snov
snow
snowornis
snowy
so
soacha
soata
soblir
sobre
sobrinus
soccatus
socha
sociabilis
social
socialis
socie
sociedad
sociedades
society
soconuscensis
socorro
sodalis
sodid
sodir
sody
sodyi
soe
soederstroemi
soehne
soemmeringii
soemmerringii
sofi
sofia
sogamoso
sogza
soir
soist
sok
soka
sokaf
sokafa
sokasane
sokasaneevaf
sokasaneevik
sokasanefa
sokasanerotifa
soker
sokexo
sokeyer
sokid
sokir
sokiyid
sokiyir
sokolov
sokolovi
sokta
sol
solatus
solberg
soldan
soledad
soleil
solen
solenodon
solenodontidae
soli
solisi
solisorex
solitaria
solitarius
solitude
soljenitsin
soloensis
solokseropa
solokseropik
solokseropikeem
solomonis
solomys
solovki
solovuca
solparsad
solparsar
solparsara
soluma
solve
solwifa
solwikaca
solzarter
som
somalia
somalica
somalicus
somaliensis
somateria
somedir
somereni
sometir
somme
sommeil
sommer
sommernatt
sommeromys
somogy
somondoco
son
sona
sondaica
sondaicus
songaricus
songea
songo
sonkaja
sonker
sonnenschein
sonomae
sonora
sonoriensis
sonso
sontera
soped
soper
sopera
soperi
sopetra
sopeyed
sopeyen
sopeyer
sophie
sopo
sopur
sopura
sopus
sopuyuna
sopuyur
sora
soraca
sordidulus
sordidus
sorella
sorellus
sorex
soricidae
soricina
soricinae
soricinus
soricipes
soricoides
soricomorpha
soriculus
sornborger
sotalia
sotheby
sothebys
sotid
sotigir
sotikae
sotir
sotkamo
soto
sotre
souain
soudanicus
souef
source
sous
sousa
south
southern
soviet
sovietaf
sovietafa
sovietafe
sovietafo
sovietik
sowerby
soye
soyinka
soza
spadesuit
spadicea
spadiceus
spadix
spalacidae
spalacinae
spalacinus
spalacopus
spalax
spanish
sparrman
spartacus
spartonoica
spatiosus
spatula
spechti
special
species
specimen
speciosa
speciosus
spectabilis
speculanas
speculipastor
spedol
spegazzinii
speke
spekei
spekii
spelaea
spelaeomys
spelaeornis
spencei
spencer
speothos
sperdol
spermophaga
spermophilopsis
spermophilus
sphecotheres
spheniscidae
sphenisciformes
spheniscus
sphenocichla
sphenoeacus
sphiggurus
sphinx
sphynx
sphyrapicus
spicilegus
spikol
spilocuscus
spilogale
spilopelia
spiloptila
spilornis
spilosoma
spilotus
spinatus
spindalidae
spindalis
spinipinnis
spinosissimus
spinosus
spinus
spiny
spiradens
spiridonova
spissigrada
spitak
spitzenberger
spix
spixii
spiza
spizaetus
spizella
spizelloides
spiziapteryx
spizixos
spizocorys
splendens
splendidissima
splendidula
splendidus
spodiopsar
sponsorius
sponsus
sporophila
sporopipes
sportive
spos
sposaf
sposafa
sposuca
spotted
spretus
spriggsarum
spring
springfield
spua
spurelli
spy
sqrt
squamicaudata
squamicaudis
squamipes
square
squirrel
srilankamys
sseldorf
ssongeae
st
sta
staba
stabaxo
stabilis
stabrega
stachyridopsis
stachyris
stactolaema
stad
stadel
staduxin
stager
stagonopleura
stairs
stakera
staksa
staksakirik
staksed
staksenik
stakser
stakseyed
stakseyen
stakseyer
stalin
stalinugal
stama
stamasugdakiraf
stan
stana
standing
stangeri
stanisław
stanjur
stankovici
stanley
stanleyanus
stannarius
stansburyi
star
starched
starcki
starka
starnoenas
stas
stasa
state
states
station
stavenn
stavropol
stayad
stayar
ste
steatomys
steatornis
steatornithidae
steere
steerei
steerii
stefan
stein
steinbachi
steinbeck
steiner
steinhardti
steini
steinlen
stejneger
stejnegeri
stekeon
stelgidillas
stelgidopteryx
stella
stellaris
stellarum
stendhal
stenella
stenersen
steno
stenocephala
stenocephalemys
stenostira
stenostiridae
stepan
stepanos
stepensis
stephan
stephani
stephanicus
stephanoaetus
stephanophorus
stephanoxis
stephen
stephennashi
stephens
stephensi
stercorariidae
stercorarius
sterle
sterna
sternoclyta
sternula
sterreichische
sterrhoptilus
steven
stevensi
stevenson
stevensoni
stica
sticas
stictonetta
stigmatica
stigmaticus
stigmatura
stigmonyx
stikeenensis
still
stiltia
stimulax
stiphrornis
stipiturus
stirling
stirtoni
stizodon
stizorhina
stochomys
stockholm
stoddart
stogoyeks
stoicus
stolenik
stolenikafa
stolenikeem
stolera
stoles
stolesa
stolexo
stolexoeem
stoliczka
stoliczkana
stoliczkanus
stolida
stolipin
stolzmanni
stomiopera
stone
stonei
storch
storer
storeyi
storia
stories
storka
storm
storni
storr
stoya
stra
strabik
straeten
straga
stragar
stragela
straminea
stramineus
strand
stranden
strandi
strasbourg
strasse
stravok
stream
streatori
streckeri
street
strega
strelzowi
strepera
strepsiceros
strepsirrhini
streptocitta
streptopelia
streptoprocne
stresemann
stresemannia
striatus
strickland
strigidae
strigidorsa
strigiformes
strigocuscus
strigopidae
strigops
strike
strindberg
striped
strix
striz
stroganov
stroganovi
stroked
strom
struthidea
struthio
struthionidae
struthioniformes
struthopus
stuart
stuartii
studenterlunden
studies
studio
study
stuhlman
stuhlmanni
stujera
stukol
stundol
sturgisi
sturnella
sturnia
sturnidae
sturnornis
sturnus
stute
stutera
stutesik
stuttgart
stuva
styani
stylodipus
stymphalornis
styron
styx
su
sua
suaita
suara
suaveolens
suba
subachoque
subaffinis
subaurantiaca
subauratus
subbotina
subcentro
subcincta
subcristata
subflavus
subfuscus
subgrisescens
subgutturosa
subhemachalana
sublegatus
sublimis
sublineatus
sublucidus
submicrus
subnorte
subnubilus
subpalmata
subquadricornutus
subrosea
subrufus
subsimilis
subsimus
subsolanus
subspinosus
substriatus
subsur
subtenuis
subterraneus
subtilis
subtilissima
subtropicus
sucre
sud
suda
sudana
sudre
sue
suesca
suffocans
suffusus
sugamuxi
sugara
sugata
sugda
sugdakiraf
sugdala
sugdalar
sugdalas
sugdara
sugomel
suidae
suillus
suinae
suiriri
suisse
suka
sukara
sukarn
sukur
sul
sula
sulcidens
sulem
sulemaf
sulemafa
sulemeem
suler
sulidae
suliformes
sulkava
sully
sultani
sum
sumaco
sumapaz
sumatrae
sumatraensis
sumatrana
sumatranus
sumatrensis
sumatrius
sumbanus
sume
sumefa
sumeon
sumi
sumichrasti
sumlingeks
summer
sumungota
sumuon
sumy
sun
sunameri
suncoides
suncus
sundaicus
sundamys
sundasciurus
sundevall
sundevalli
sundevallii
sungorus
sunidica
sunrise
sunset
suola
suolara
suolasiki
suolinda
suomi
suomia
suomiaf
suomiava
suomiavaf
suomussalmi
suonenjoki
supe
superans
superciliaris
superiorensis
supernus
superstes
supi
sur
sura
surata
surbol
surculus
surda
surdaster
surdisorex
surdus
sure
surf
suria
suricata
suricatta
surifer
surnati
surnia
surniculus
suroeste
surp
surter
surtera
sururae
sus
susa
susan
susanna
sushkini
susiana
susik
susikeem
suslicus
sustol
sutafa
sutagao
sutamarcha
sutatenza
suteks
sutelar
sutelara
sutelasik
sutelayar
suteptik
suter
sutera
suterinda
suterot
suterotaf
suterotafa
suterotafo
suteroteem
suterotik
suterotikeem
sutese
sutesik
suteyen
suteyena
suteyer
suthora
sutin
sutton
sutuca
suvom
suvomiz
suxara
suxayad
suzanne
suzdar
svalbard
sven
sveriga
sverigaf
sverigava
sverigavaf
sverigavon
svetlana
svg
svrs
swainson
swainsonii
swalius
swalot
swamp
swan
swarth
swarthi
swava
swavafa
swavopa
swaxiliavon
swaynei
swenk
swetciskol
swimming
swinderianus
swinhoe
swinhoei
swinhoii
swinnyi
swiza
swizaf
swynnertoni
swynnertonia
sybilla
sydenham
sydney
sye
syke
sykes
sylvanus
sylvaticus
sylvestris
sylvia
sylvicapra
sylvietta
sylviidae
sylvilagus
sylviorthorhynchus
sylviparus
sylvisorex
syma
symbol
symphalangus
symposiachrus
synallaxis
synaptomys
syncerus
syndactyla
syndactylus
syntheosciurus
synthliboramphus
sypheotides
syria
syriaca
syriacus
syrichta
syrigma
syrmaticus
syrrhaptes
syrticus
sysma
syste
systellura
syunik
sz
szczepanek
szechuanensis
t
ta
tabio
table
tables
tablo
tabor
tabora
taccocua
tachornis
tachuris
tachybaptus
tachycineta
tachyeres
tachyglossidae
tachyglossus
tachymarptis
tachyoryctes
tachyoryctinae
tachyphonus
tacomensis
taczanowski
taczanowskii
tadae
tadava
tadavafa
tadeusz
tadle
tadled
tadlemwa
tadler
tadlesa
tadlexa
tadleyed
tadleyer
tadorna
tael
taelafta
taelaftaf
taelaftara
taeniopygia
taeniotriccus
taerae
taeromys
taganrog
tage
tahoe
tai
taiga
taigniers
tail
tailed
taiouanus
taiva
taivana
taivanus
tajacu
taka
takama
takashi
taki
takin
taking
takra
takreluca
taksa
tal
talakol
talamancae
talapoin
talarum
talas
talassicus
talaudium
talazaci
talboti
talegalla
tales
talga
talgeem
talolk
talpa
talpey
talpidae
talpinae
talpinus
talpoides
talte
talteberkikya
taltef
taltefa
taltefo
talteka
taltekaf
taltekafa
talteon
taltexo
talton
talyschensis
tama
tamandua
tamango
tamarin
tamariscinus
tamaulipensis
tamava
tamavaf
tamavafa
tamavafe
tamavafi
tamavageja
tamaxo
tamba
tambie
tambo
tambov
tame
tamef
tamefa
tamensis
tamias
tamiasciurus
tamiops
tampere
tan
tana
tanae
tanaf
tanafa
tanager
tanahat
tanakae
tanala
tanara
tanaragazaxo
tanarasokeem
tanaxo
tancrei
tanda
tandacku
tandatum
tandeem
tandeon
tandon
tane
taneaf
taneafa
taneafe
taneafo
taneafu
taneagadesik
taneakaf
taneakafa
taneaksat
tanealik
taneanazbeikye
taneatisik
taneatomon
taneaviel
taneik
taneon
taneugot
tanezumi
tanga
tangalunga
tanganyika
tanganyikae
tangara
tani
tank
tankatcafi
tano
tanon
tanoxifa
tanoy
tanoya
tanoye
tanoyo
tansaniana
tanta
tantalus
tantamaxofa
tantanon
tantazukot
tanuca
tanuskafa
tanuskuca
tanyasaf
tanygnathus
tanysiptera
tanzania
tanzaniafa
taoniscus
tapanaf
tapecomys
tapedafa
tapera
tapeti
tapetillus
taphrolesbia
taphrospilus
tapiridae
tapirus
tapoatafa
taraba
tarabuli
tarandus
taratuta
tardi
tardigradus
tarella
tarfayensis
tari
tarizayana
tarkar
tarphonomus
tarra
tarrae
tarragon
tarsalis
tarsier
tarsiger
tarsiidae
tarsiiformes
tarsipedidae
tarsipes
tarsius
tarsomys
taruakol
tarusa
taruter
taruteteson
tasco
tasega
tasila
tasmacetus
tasmaniensis
tatara
tatarica
tatcer
tatceteson
tate
tatei
tateomys
tatera
taterillus
tatouay
tatrica
tatricus
tattersall
tattersalli
tatyana
tauraco
taurinsulae
taurinus
taurotragus
taurus
tausa
tavaratra
tavembik
taver
tavera
tavesik
taveyer
tawa
tawaday
tawadayaf
tawadayafa
tawadayafe
tawadayik
tawadayikafa
tawadayikeem
tawadayikya
tawamidura
tawamiduraf
tawamidurafa
tawamidus
tawamidusa
tawava
tawavo
tawavofa
tawavopa
tawavopafa
tawavopik
taway
tawayaf
tawayeem
tawetc
tawitawiensis
tawoldaxa
tawova
tawuk
tawuz
taxicolor
taxidea
taxilla
taxinus
taxus
taya
tayassu
tayassuidae
tayeem
taylor
taylori
taymir
taz
tazuk
tazukad
tazukar
tazukara
tazukon
tazukoy
tazukoyera
tca
tcabanen
tcabanera
tcabanes
tcabanesa
tcabanesik
tcada
tcala
tcalad
tcalar
tcalayar
tcalist
tcamol
tcardiol
tcarma
tcastafa
tcatera
tcatesa
tcatesikya
tcatexe
tcaykovski
tcaza
tcazesa
tceboksari
tcedera
tceka
tcekak
tcelda
tcelyabinsk
tcelyuskin
tcema
tcerna
tcerni
tcernigiv
tcerski
tcexov
tchagra
tciamaf
tciamafa
tciga
tcila
tcilafa
tcilamona
tcilaxe
tcilaxo
tcilea
tcileaf
tcipol
tcita
tcoker
tcol
tcoley
tcoluk
tcubay
tcukotka
tculk
tculkafa
tculkeem
tcuma
tcumivera
tcumivesik
te
teapensis
teatro
teau
tebaida
teberdina
tec
teca
tegi
tegira
tegiraca
tegis
tegisa
tegisaca
tegisik
tegison
teguina
tehuantepecus
teisheba
teishebani
teixa
tejar
tejidos
teka
tekudol
tel
tela
telacanthura
tele
teledromas
telespiza
teleus
telfairi
telfordi
teli
telibol
telibudol
teliz
tellier
tello
tellus
telmalestes
telo
telophorus
telperron
telum
telyon
telyona
temama
temchuki
temminck
temminckii
temminek
temnurus
temon
tempisque
temple
templo
templos
temporalis
temps
ten
tena
tenaf
tenafa
tenant
tenaster
tenax
tencin
tende
tenebricus
tenecol
tenekara
tenelliodus
tenellus
tener
tenerife
teni
teniceva
teniskafa
tenjo
tenorio
tenrec
tenrecidae
tenrecomorpha
tentura
tenuipes
tenuirostris
tenuis
tenuker
tenukera
tenukeyen
tenukeyer
tenusa
tenuwer
tenza
teotihuaca
tepe
tephrodornis
tephromelas
tephrosceles
tephrozosterops
tequendama
ter
terathopius
terca
tere
terenotriccus
terenura
teres
teresa
tereticaudus
teretistridae
teretistris
terminal
terminus
ternois
ternon
ternopil
terpsiphone
terraenovae
terrarum
terre
terrestris
terricola
terricolor
territorio
terror
terrosus
tersina
tersus
terutaus
terutus
tervo
tes
tescorum
tesia
tesoro
testa
testol
tetley
tetracerus
tetradactyla
tetradactylus
tetrao
tetraogallus
tetraophasis
tetrastes
tetrax
teuszii
tev
teva
tevda
teve
teveaf
teveafa
teveaksat
tevkrilafa
tevoy
tevoya
texanus
texas
texensis
texianus
tey
teyara
teza
tezaloma
tezcatlipoca
tezik
tezikya
th
thaeleri
thai
thaiwanensis
thalassarche
thalasseus
thalassoica
thalassornis
thalia
thallomys
thalmann
thalpomys
thalurania
thames
thamin
thamnistes
thamnolaea
thamnomanes
thamnomys
thamnophilus
thamnornis
thamnos
thapsinillas
thaptomys
thar
thaumastura
thaw
the
theatre
thectocercus
theerapati
their
theodor
theodore
theodorverhoeveni
theresa
theresae
theristicus
theropithecus
thescelocichla
thetis
thibert
thibetana
thibetanus
thielska
thierry
thierryi
thikae
thinobia
thinocoridae
thinocorus
thinornis
thlypopsis
tholloni
thomas
thomasi
thomasomys
thomensis
thomomys
thompson
thompsoni
thomson
thomsoni
thomsonii
thonglongya
thoracatus
thornicrofti
thoulless
thous
thraupidae
thraupis
three
threnetes
threskiornis
threskiornithidae
thrichomys
thripadectes
thripophaga
throated
through
thryomanes
thryonomyidae
thryonomys
thryophilus
thryorchilus
thryothorus
thu
thumb
thunberg
thunderstorm
thw
thylacinidae
thylacinus
thylacomyidae
thylamys
thylogale
thysanurus
thyssen
ti
tianschanensis
tianshanica
tiaris
tiaver
tibacuy
tibasosa
tiberias
tibetana
tibetanus
tibu
tiburonensis
tica
ticak
ticawaltara
tice
ticef
ticefa
ticeon
ticfira
tichodroma
tichodromidae
tici
tickellia
tickir
tickraytacek
ticu
tid
tide
tie
tienne
tierra
tierradentro
tierras
tif
tiff
tigara
tigid
tigir
tigira
tigis
tigisa
tigise
tigiso
tigixo
tigiyid
tigiyir
tiglik
tigranes
tigre
tigrillo
tigrina
tigrinus
tigriornis
tigris
tigrisoma
tijuca
tikir
tikira
tikis
tikisa
tikiyir
til
tila
tilara
tildera
tilik
tillotson
tilmatura
tilonura
tima
timalia
timaliidae
timana
time
timealeyi
timeliopsis
times
timidus
timm
timminsi
timofeev
timorensis
timoriensis
timpumo
tinamidae
tinamiformes
tinamotis
tinamus
tiner
tingia
tinjaca
tinterow
tiomanicus
tionis
tipacoque
tipo
tippelskirchi
tique
tir
tira
tire
tirka
tis
tisa
tise
tisi
tisik
tiskar
tiskid
tiskir
tiskira
tiskiyir
tiso
tison
tisquesusa
tisu
tit
titak
titawaltara
tite
titef
titeon
titfira
titi
titickasa
titir
titiribi
titis
titisa
titkraytacek
title
titthaecheilus
tityra
tityridae
tiv
tiva
tivius
tivoli
tixolon
tiya
tiyid
tiyir
tiyis
tiyisa
tizaf
tizafa
tiziano
tizon
tizuca
tizura
tjaederi
tjerapai
tlacuatzin
tmetothylacus
to
toa
toaz
toba
tobolica
tobolsk
toc
toca
tocaima
tocancipa
tocantinsi
tocantinus
tocarema
tockus
tod
toda
tode
todidae
todiramphus
todirostrum
todo
todus
toeem
togeanensis
togianus
togoa
togoensis
tohi
toidesik
toilette
toits
toivakka
tokaido
tokcoba
tokdume
tokoda
toktan
tokuda
tokudae
tokudaia
tokyo
tol
tola
tolai
tolbiac
tolda
toldon
tole
toleaf
toleafa
toleafe
toleafu
toleaksat
toledo
tolgenira
tolgenisik
tolima
tolka
tolksevafa
tollubekdunol
tolmomyias
tolon
tolonga
toloy
toloya
toloye
toloyi
toloyo
tolsanda
tolstoy
tolteca
toltecus
tolu
tolucae
tolvolveyveem
tolypeutes
tolypeutinae
tom
toma
tomas
tombol
tombs
tome
tomensis
tomentosus
tomes
tomesi
tommaso
tomsk
ton
toni
tonkeana
tonkeanus
tonkinensis
tonquinia
tontalis
tony
tonya
toole
toothed
topaipi
topaza
topi
toporkova
toprakkale
toquepala
tor
tora
toradjol
tordayi
tore
torestasonara
torgos
tori
torigid
torigin
torigina
torigir
torigira
torigiyir
torino
toritensis
torkeva
toro
toronto
torpedo
torquata
torquatus
torques
torre
torrei
torrent
torreornis
torres
torresi
torridus
torvus
torx
toschi
toshiro
tota
totapa
totara
totasik
totoro
totsuka
toufoeus
touit
toulon
toulouse
toumanoff
touques
tour
tourka
tout
tovarnjak
tovazol
tove
tovedol
tovipol
tovok
tovol
tovukol
tovumol
towar
towara
towards
tower
town
townsend
townsendi
townsendii
toxorhamphus
toxostoma
toz
toza
tozafa
tozekik
tozeri
tozi
tozur
tozuwer
tozuweyer
tr
tra
trabe
trabeata
trachyphonus
trachypithecus
tradicio
tragelaphus
tragocamelus
tragopan
tragulidae
tragulus
trail
traill
train
trak
trakopa
trakopaf
trakopik
traku
trakud
trakula
trakur
trakura
trakuray
trakuson
trakut
trakuyud
trakuyur
tranieri
transbaicalicus
transbaikalicus
transcaspicus
transcaucasica
transcaucasicus
transitionalis
transitorius
transsylvanica
transsylvanicus
transvaalensis
trapadoux
trapova
trasid
trasir
trasit
trasitison
trasiyid
trasiyin
trasiyina
trasiyir
traspur
travassosi
travemu
traven
travers
traversia
traversii
travesi
trazevda
trdat
tre
tree
trees
treeshrew
tregellasia
tregul
trelaf
trelafa
trelapafa
tremarctos
trenafa
trepidus
treron
tres
tresewera
tresexe
tresexefa
tretat
tretca
tretyakov
tretyakovski
trevelyani
tri
triangle
tribonyx
trichastoma
trichechidae
trichechus
trichodere
trichoglossus
tricholaema
tricholestes
trichopus
trichosurus
trichothraupis
trichotis
trichura
trichurus
trichys
tricinctus
triclaria
tricolor
tricuspis
tridactyla
tridactylus
tridecemlineatus
triel
trig
trigafa
trigonoceps
triguca
trilineata
trimez
trimucronatus
trimulic
trina
tringa
trinidad
trinidadensis
trinitatis
trinitatus
trinomys
trinotatus
tripartitus
trist
tristan
tristis
tristrami
tristriatus
triton
triunfo
trivialis
trivirgata
trivirgatus
trivittatus
trivulzio
trocaday
trocadayafa
trocadayxa
trochalopteron
trochilidae
trochilus
trochocercus
trogarn
troglodytes
troglodytidae
trogon
trogonidae
trogoniformes
trogopterus
trois
tronasikya
tropaeolum
tropez
tropica
tropical
tropicalis
troskadafa
troskol
trotteri
trouche
trouessart
troughton
troupeau
trouville
trowbridge
trowbridgii
troyes
trstikovac
true
truei
truga
trugon
trujillo
trumbullensis
trumi
trumon
truncatus
truongsonensis
trutca
trutcama
trutcapa
trutceem
tryphomys
ts
tsaghats
tsar
tschadensis
tschaganensis
tscherskia
tschersky
tschiliensis
tschudi
tschudii
tschuktschorum
tschundi
tselka
tsenke
tsingy
tsiyenol
tsna
tsodilo
tsolovi
tsss
tsuchiyama
tsuensis
tsugi
tsunera
tsvetayeva
tt
ttir
ttneri
tu
tua
tube
tuberosum
tubulidentata
tuconax
tucpastaxe
tucpastaxo
tucpastik
tucpastikye
tucumana
tucumanus
tude
tudes
tudonara
tuelimar
tueskol
tufa
tufek
tufted
tugol
tugolek
tuileries
tujradik
tuke
tukiewara
tukrunol
tuksaxo
tula
tularensis
tularosae
tulduco
tulla
tullbergi
tulok
tulon
tulorara
tulua
tum
tumaco
tumbaga
tumbalensis
tumbezia
tumbuktu
tumidus
tumtaf
tumtafa
tumtaxo
tumtik
tumtikya
tumtikye
tumuli
tumulus
tunar
tundama
tundrarum
tundrensis
tunera
tungussensis
tunja
tunneyi
tunotrayar
tunus
tunuyar
tunuyara
tunuyas
tuoc
tuoviskawer
tupaia
tupaiidae
turabara
turacoena
turba
turbo
turci
turdidae
turdoides
turdus
turestanon
turestapayar
turestar
turestara
turestayar
turka
turkaf
turkafa
turkafe
turkavaf
turkey
turkik
turkish
turmeque
turmoil
turnagra
turneri
turnicidae
turnix
turodawesa
turova
turovi
turowi
turrialba
tursia
tursiafa
tursieem
tursiops
turton
turtur
turuchanensis
tushpa
tushpuea
tuta
tutaza
tuusniemi
tuvel
tuveli
tuvinicus
tuwarzara
tuwava
tuwavaf
tuwavafa
tuwavaxo
tuwaveva
tuwavevaf
tuzda
tver
twa
twain
tweedii
twilight
two
twyfelfontein
tylas
tyler
tyleri
tyleriana
tylomyinae
tylomys
tylorhinus
tymerlachsonorum
tympanoctomys
tympanuchus
type
typhlomys
typhlops
typica
typicus
typus
tyranneutes
tyrannidae
tyrannopsis
tyrannulus
tyrannus
tyrant
tytler
tytleri
tytlerii
tyto
tytonidae
tytonis
tyumen
u
ua
uba
ubala
ubangiensis
ubaque
ubate
ubericolor
ucayalensis
ucayalii
uchi
uchidai
ucom
ucucha
udrias
udutaf
udutuca
ufa
ufer
uffizi
ug
ugafa
ugal
ugalay
ugalda
ugaldik
ugale
ugaleem
ugali
uganda
ugandae
ugda
ugo
ugol
ugot
ugra
ugyunak
uicn
uinta
uintensis
uja
ujeem
ujiwa
uk
uka
ukaf
ukanol
ukeem
ukiyo
ukraina
ukrainaf
ukrainafa
ukrainavik
ukrainavon
ukraine
ukrainicus
ukrainik
ukrcensus
uksa
uksabol
uldinena
uldinenon
uldiner
uldinera
uldinet
uldineyen
uldineyer
ulim
ulisik
ulloa
ulm
ulthiensis
ultima
uluk
ulyanovsk
ulysse
uma
umberto
umbri
umbrinus
umbristriata
umbrosus
ume
umote
umpquensis
un
una
unalascensis
uncia
unctuosus
und
undeks
under
undera
underwoodi
undulatus
une
unenik
unera
unesco
unfinished
ungava
ungavensis
unge
unguiculatus
unguifera
unguja
unicinctus
unicolor
unicornis
uniformis
unio
union
unistriata
unisulcatus
united
univ
universidad
universitaires
universite
university
univittatus
unja
uno
updike
upper
upright
upton
upucerthia
upupa
upupidae
ur
uraba
uraeginthus
ural
uralensis
uranomys
urartensis
urartian
urartu
urartuava
uratelornis
urbain
urbana
urbano
urbera
uria
uribe
urichi
uriza
urlicker
urlickeyer
urmia
urochroa
urocissa
urocolius
urocynchramidae
urocynchramus
urocyon
urodynamis
urogale
uroglaux
urolais
urolestes
uromyias
uromys
uropelia
uropsalis
uropsila
uropsilus
urorhipis
urosphena
urosticte
urothraupis
urotrichus
urotriorchis
urrao
ursidae
ursinus
ursule
ursus
urucuma
uruguaya
uruguayensis
urva
us
usa
usaban
usambara
usambarae
usambarensis
usine
uskej
uso
uspallata
usquin
ussuricus
ussuriensis
ust
ustulatus
ustus
usuk
usukotasa
ut
uta
utagawa
utah
utahensis
utahickae
utara
utca
utcaf
utcafe
utceem
utcoruca
uti
utibilis
utif
utigraba
utilizaban
utilizadas
utilizados
utilizaron
utska
uul
uum
uurainen
uvendewala
uvita
uwa
uzala
uzda
uzdapa
uzdeem
uzekol
uzera
uzerara
uzungwensis
v
va
vaccarum
vace
vacillator
vadjer
vae
vaeskol
vaf
vafa
vagans
vage
vagee
vageeon
vageexo
vageiste
vagerone
vagetalte
vagin
vaginalis
vagrans
vahl
vaj
vajger
vakol
val
valaam
valderrama
valdig
valdigak
valdivia
valdiviae
valdivianus
vale
valencia
valente
valentefa
valenteon
valentexo
valentiste
valentrone
valenttalte
valeve
valeveon
valey
vali
validus
valin
valle
valledupar
valley
vallicola
vallinus
vallotton
valois
valparai
valtimo
vamba
vambiz
vambot
vamo
vamoe
vamoefa
vamoeon
vamoo
vampire
vampyr
van
vanafiz
vanama
vanawalt
vanblir
vanblira
vanburer
vancourverensis
vancouverensis
vancouveri
vandeleuria
vandeuseni
vane
vaneksara
vanellus
vanfir
vanga
vangidae
vangira
vangluyaks
vangluyanik
vangluyara
vangruper
vangrupet
vanheurni
vani
vanikatcur
vanikatcuyur
vanimpar
vanion
vanlanir
vanmia
vanmiae
vanmiaeon
vanolar
vanpid
vanpir
vanpitis
vanpiyid
vanpiyir
vanpiyis
vanpiyisa
vanpokefa
vanrosseni
vansara
vanstar
vantenura
vanyer
vanzolinii
vaon
var
varaf
varafa
varafe
varafo
varais
vardenis
vardonii
varecia
varela
varengeville
varenne
vargas
varia
variabilis
variani
varians
variegata
variegates
variegatoides
variegatus
varilla
varius
varkaus
varla
varlam
varon
varona
varone
varoneon
varpaisja
varronis
vartaf
varteba
vartera
vartes
vartesik
varus
varvara
varynaensis
varze
vas
vasco
vase
vases
vasijas
vasili
vasilievitc
vasilyev
vask
vaskesik
vassali
vatalte
vatalteon
vates
vatice
vaticexo
vatite
vauriella
vavitc
vawa
vawafe
vawale
vawapa
vawila
vaxe
vaxeon
vayaks
vayar
vayara
vayarugal
vayarundeks
vayasik
vayayar
vayk
vayots
vaz
ve
vebaltara
vebidur
vebidus
vecchioni
ved
veda
vedey
vedeyaf
vedeyafa
vedeyafe
vedeyafi
vedeyafo
vedeyot
vedil
veem
vefara
vega
vegas
vegeduks
vegedunava
vegedur
vegedura
vegeduropa
vegeduropaf
vegeduropafa
vegeduropik
vegedusa
vegedusik
vegeduyud
vegeduyun
vegeduyuna
vegeduyur
vegem
vegetus
vegungaf
vegungafa
vegungafe
vegungik
vektar
vela
veldkampii
veles
velessiensis
veli
velik
velika
velikya
vellerosus
velo
velox
velutinus
vema
vemafa
vemon
venadillo
venado
venaticus
venatorius
venecia
venezia
venezuela
venezuelae
veniliornis
venise
venny
venta
ventaquemada
ventaxo
ventorum
ventralis
ventura
venus
venusta
venustulus
venustus
vera
veraecrucis
veraecruscis
veraepacis
verde
verdun
vere
verecundus
vereda
vereschchagin
vergel
vergumvelt
vergumveltaf
vergumveltkiraf
vergumveltkirafa
vergumvelton
verhaeren
verhageni
verheyen
verheyeni
verine
verlag
vermeer
vermilingua
vermivora
vernashen
vernaya
vernayi
verne
vernet
verreaux
verreauxi
verreauxii
verrucosus
vers
versailles
versalles
verschureni
versicolor
versteegi
vert
verte
vertega
vertiente
vertokad
vertuma
verus
vervet
vesanto
vescus
veseljuh
vesi
vesk
vesmanis
vesnol
vespuccii
vestar
vestara
vestasik
vestasikya
vestayar
vestitus
vesuvio
vetas
vetcay
vetcayek
vetluga
vetulus
vevey
vewar
vewara
vewayar
vewukaf
vexa
vexala
vexe
vexillaris
vexillarius
vexillifer
vey
veyafa
veygadikya
veygadikye
veygadye
veyon
veyturkafa
veyyasa
vi
via
viafa
viaje
viank
viaria
viaro
viatorum
viboral
viborg
vicente
vicinity
victoire
victor
victoria
victoriae
victorianjansae
victorious
victus
vicugna
vida
vider
videyer
vidjera
vidua
viduidae
vie
vieillot
vieira
vieja
viejo
viel
vielcek
viele
vieleafa
vieleon
vieleuca
vieli
vieltum
vielu
viento
vierema
vietnama
view
viga
vigens
vigilans
vigilis
vigne
vignei
vigors
vii
viii
viitasaari
vikiz
viktor
vil
vila
vilar
vilara
vilarugal
vilasa
vilayad
vilayan
vilayana
vilayar
vildeks
vile
viley
vilhelm
vilho
villa
village
villageoise
villai
villamari
villanueva
villapinzo
villas
ville
villers
villeta
villosa
villosissimus
villosus
vilnius
vilsandi
vilt
viltar
viltara
viltaxa
viltayad
viltayar
vilter
viltera
vilyuy
vim
vimava
vimgraba
vimkol
vimwasikeem
vin
vincent
vincenti
vincenzo
vinci
vincit
vini
vinogradov
vinogradovi
vintera
vintesik
viola
viole
violence
violet
vion
viperinus
virda
vireo
vireolanius
vireonidae
virgata
virgen
virgilia
virginia
virginiae
virginiana
virginianus
viridis
viridonia
virnafa
virolahti
virta
vis
visagiei
visby
viscacia
visite
vison
vista
vitalinus
vitcegda
viterbo
vitim
vittata
vittatus
vitticollis
vittorio
vitulina
viunsur
vivax
viverra
viverricula
viverridae
viverrinae
viverrinus
vivien
viwazer
vixasa
vizcaccia
vizcai
vlaanderaf
vladimir
vladivostok
vo
voa
voalavo
voama
voapa
vociferans
voda
vodeem
vodeni
vodenjak
vodjur
vofa
vofar
vofayar
vogel
vogelherd
voi
voice
voisins
voke
vokoda
vol
vola
volans
volar
volas
volasa
volatinia
volca
volcanes
volcanism
volcano
voldum
vole
volemys
volga
volgunuca
volins
volkaluca
volkare
volke
volkenstein
volkmanni
volmiv
volnik
volnuchini
vologda
volopelkafe
volruptesa
volruptesuca
vols
volse
volsen
volson
volsu
voltaxe
volto
volume
volunt
volution
volveyoxi
volveyveem
volveyyasa
volya
vom
vombatidae
vombatiformes
vombatus
vombik
vome
vomerina
von
voner
vonera
vonewer
vonewera
voneweyer
voneyer
vonkik
vor
voratus
vorax
vorbumol
vordermanni
vormela
vormsi
voronej
vorontsov
vortirac
vorya
vosmaeri
voss
vox
voxaze
voxe
voxen
voxis
voxise
voxisen
voxosk
voyage
vrafueva
vrain
vrayara
vre
vrebafa
vreda
vredefort
vrepta
vreux
vrodak
vrolik
vrouw
vruni
vrutaks
vrutar
vrutara
vrutasik
vu
vudeson
vue
vueltas
vuest
vuesteks
vuestera
vuestesa
vuestexa
vuestexeem
vugoya
vugoyuma
vugzol
vuida
vuidara
vuillard
vuillet
vuka
vukuda
vula
vulcani
vulcanius
vulcanorum
vulcanus
vulgaris
vulgivaga
vulpecula
vulpes
vulpina
vulpinus
vultera
vultur
vulture
vumbae
vumeltafa
vunci
vund
vunda
vundaf
vundafa
vundopa
vuntoy
vuquangensis
vura
vurja
vuwaf
vuwafe
vuwik
vwa
vwardol
vwepafa
vwon
vy
vyatka
w
wa
wabol
wadsworth
wafibol
wafokol
wafomol
wafra
wagela
wagler
wagner
wagneri
wahlbergi
wahlroos
wahwahensis
waikoy
waite
wajoc
wakefield
wal
walcott
wald
waldheim
waldronae
wale
walef
wales
wali
walie
walker
wall
wallabia
wallaby
wallacii
walleri
wallichii
wallis
wallowa
wallraf
walpira
walta
walter
walters
walton
walvedeyaf
walvedeyafa
walzilira
walzilis
wan
wana
wang
wanur
wanuyasiko
war
warbler
wardi
ware
warkundol
warmoletra
warnemu
warolara
waroldon
warren
warreni
warszawa
warter
warzaca
warzaf
warzafa
warzafe
warzafo
warzapulukeva
warzeks
warzer
warzera
warzes
warzesa
warzesik
warzeyed
warzeyer
warzot
wasatchensis
washington
washingtoni
wasol
wassmo
waster
watasei
water
waterfall
waterhouse
watersi
watsa
watsafa
watson
watsoni
wattsi
wavdafa
waves
wawaf
wawafa
wawik
wawuca
way
wazdel
wazdera
wazdexa
weasel
weasteukol
web
webbi
weber
weberi
webeyer
weckerly
wed
weda
wedafa
wedaxo
weddelli
weddellii
wedemol
weemsi
weeping
wegidol
weimar
wekixol
weksler
welfa
welfafa
welidar
well
wellcome
wellsi
welma
welmon
welmot
weltikya
weltikye
welty
welwitschii
wen
wendesa
wenya
wenyaxa
wenyaxe
wenyusik
werd
werda
werdtoraf
werdxo
werner
werpazol
werpol
werpukol
werth
wertheri
west
westerholm
western
westfalen
wetara
wetarensis
wetce
weti
wetmore
wetmorei
wetmorethraupis
wettstein
wetzel
wetzeli
wevala
wexa
wey
weynsi
weyprecht
wezo
wga
whale
whartoni
whitaker
whitakeri
white
whiteheadi
whitei
whitelyi
whitesidei
whitmani
whittredge
whytei
wickler
wico
wid
wida
widafa
widaki
widama
widava
widavaf
widavafa
widavafe
widavaloma
widavama
widavapa
widaxo
widdringtonii
wideem
widega
widel
wideyik
wideytafa
wideytik
widik
widikya
widot
widotafa
wied
wiedii
wiedomys
wien
wiener
wiesbaden
wiftenol
wiftol
wiftovol
wignacourt
wigursol
wiik
wija
wijoy
wikandapa
wiki
wikiart
wikikrenteem
wikipedia
wikisource
wikispecies
wiks
wil
wilcoxi
wilczek
wild
wilde
wilderness
wildlife
wilfredomys
wilhelm
wilhelmina
willem
willendorf
willett
willetti
william
williams
williamsi
williamsoni
williamstown
willisornis
willumsen
wilms
wiloc
wilson
wilsoni
wilteem
wiltkiraf
wilttota
wimmeri
win
wina
windhoekensis
window
wine
winesburg
wing
winge
winged
wingei
winka
winkaf
winkafa
winkafe
winkawidot
winkeem
winkelmanni
winnemana
winnyae
winston
winstoni
winta
winter
winterthur
winthropi
winton
wintoni
winugaf
winugafa
winugafo
winugon
wipitesik
wir
wira
wiray
wirikol
wis
wisconsinensis
wison
wisselingh
wit
witaf
witafa
witafe
witaluguinea
witca
with
witherbyi
witkot
witkotura
witkotusik
wittei
wivga
wivgatorik
wiwa
wixedo
wixedoga
wiyir
wizuwes
wna
wocokol
wocol
wocolya
wocukol
wocumol
wocusol
woda
woday
woermanni
wogura
wole
wolf
wolfe
wolffsohni
wolfgang
wolfi
wollastoni
wollebaeki
wollstonecraft
wolters
woman
women
wonar
wonara
wong
wood
woodfordi
woodfordia
woodhouse
woodi
woodman
woodpecker
woods
woodwardi
woolf
woolleyae
woolly
woosnami
worar
worara
worayar
worcester
wori
workers
world
worth
worthington
wortmani
wouk
woyek
wren
wrightae
wroughton
wroughtoni
wu
wuchihensis
wuka
wula
wulpa
wupe
wurmbii
www
wynnei
wyulda
władysław
x
xa
xabarovsk
xadikya
xadola
xaim
xakola
xalta
xaltafa
xanta
xantaf
xantafa
xantaza
xanthaeolus
xanthanotus
xanthipes
xanthocephalus
xanthogenys
xanthognathus
xanthomixis
xanthoprymnus
xanthopsar
xanthopus
xanthopygus
xanthosternos
xanthotis
xanthurus
xantippe
xanto
xantofa
xanton
xantumik
xarba
xarkiv
xatanga
xatcaxa
xatckar
xatoy
xayastana
xe
xed
xefto
xeftoara
xeftocek
xeka
xema
xenerpestes
xenicus
xenodacnis
xenoglaux
xenoligea
xenomys
xenoperdix
xenopipo
xenopirostris
xenops
xenopsaris
xenornis
xenospingus
xenospiza
xenotriccus
xenuromys
xenus
xerampelinus
xerinae
xeromys
xerophila
xerophilus
xerotrophicus
xerson
xerus
xi
xialara
xico
xida
xidaxe
xii
xiii
xim
xingjian
xingu
xiphidiopicus
xiphocolaptes
xipholena
xiphorhynchus
xiv
xix
xixe
xmelnitski
xo
xollanda
xolmis
xonuka
xonukalanzar
xonukalanzara
xonuked
xonuker
xonukera
xonukesik
xonukesira
xonukeyed
xonukeyer
xonukeyes
xonukik
xopo
xorjevskaya
xristina
xrvatska
xrvatskaf
xu
xueqin
xultura
xusedol
xusikol
xusol
xusumol
xuta
xuton
xuvar
xuvara
xuye
xv
xvi
xvii
xviii
xviiie
xx
xxi
y
ya
yabol
yaburol
yafa
yagoda
yagouaroundi
yaguara
yakimensis
yakimova
yaksyatol
yakui
yakushimae
yakutsk
yalden
yaldeni
yale
yalestaca
yalestafa
yalta
yamal
yamamoto
yamashima
yamashinai
yamba
yambaf
yambafa
yambafe
yambaginsaxe
yambatcila
yambatcilaxe
yambaxa
yambik
yambudik
yan
yana
yanguiensis
yanka
yankariensis
yanta
yantot
yantotaf
yapeni
yard
yarkandensis
yaroslavl
yarumal
yasa
yasaf
yasafa
yaseem
yasegafa
yasegon
yasik
yasikeem
yasko
yastera
yastesik
yasunari
yater
yatera
yates
yatesik
yaxay
yaxol
yayeyamae
ye
year
years
yeats
yebalensis
yedjago
yedjagoda
yedjagoza
yefimovitc
yeghegis
yeghegnadzor
yekaterinburg
yeld
yeldaxo
yeldxo
yeldxoik
yellow
yellowstone
yelmensis
yelpin
yemeni
yendol
yeniseensis
yenisey
yepesi
yer
yerbury
yerevan
yermak
yerres
yerumanik
yerumanikya
yerumanye
yerumar
yerumara
yerumayar
yerusalem
yerusalim
yervand
yesoensis
yestara
yesus
yevgeni
yevgenya
yik
yikya
yikye
yinaxot
yiwol
ymard
yo
yofter
yoke
yokkaichi
yolandae
yolombo
yolt
yoltack
yoltad
yoltar
yoltara
yoltayad
yoltayan
yoltayana
yoltayar
yoltkiraf
yoltkirafa
yoltkirafe
yolton
yon
yona
yonak
yonar
yonara
yone
yonenagae
yoni
yono
yontan
yorck
yorda
yordara
yorida
york
yosemite
yoshida
yoshikurai
yoshiwara
yoshiyuki
yoter
young
younger
youngi
youngman
youngsoni
youth
yovara
yoy
yucantanensis
yucatanensis
yucataniae
yucatanica
yucatanicus
yud
yudafa
yudin
yuenshanensis
yuhina
yui
yukonensis
yukonicus
yulei
yumanensis
yunanensis
yundacek
yunganus
yungarum
yungipicus
yunk
yunkeks
yunker
yunkera
yunkes
yunkesik
yunkexa
yunkeyed
yunkeyen
yunkeyena
yunnanensis
yup
yuri
yuryatin
yuyapol
yves
yvonnae
z
za
zaava
zabaikala
zabdur
zabdura
zabdusik
zabduyuna
zabduyur
zabel
zacatecae
zacazgo
zacharie
zachidovi
zadar
zae
zaedyus
zaglossus
zagorodnyuk
zaipa
zakariai
zaleks
zalera
zalkin
zalophus
zalor
zambesiensis
zambeziensis
zambia
zambrano
zamicrus
zammaranoi
zamora
zamorae
zamyatin
zanclostomus
zanela
zaniga
zanisik
zanisikya
zanjonensis
zanne
zanon
zanudar
zanudas
zanudasa
zanudayar
zanzibar
zanzibaricus
zapa
zapata
zapatoca
zapetcok
zaphaeus
zaphiri
zaporijya
zapus
zaque
zaquesazipa
zar
zaragoza
zaramody
zaratornis
zardrieux
zarhynchus
zaritap
zarudnyi
zarzal
zasulitc
zatca
zavattariornis
zavzagid
zavzagir
zavzagiyid
zavzagiyir
zavzaks
zavzar
zavzayar
zawilt
zaza
zazda
zborowski
ze
zebra
zebrilus
zebroides
zechi
zegodaf
zegol
zek
zelara
zelebor
zeledonia
zeledoniidae
zelotomys
zelt
zeltara
zeltayad
zemlya
zemni
zena
zenaida
zenkerella
zenkeri
zenki
zentrygon
zerda
zertek
zertekey
zertekiz
zertekos
zertekot
zertekum
zertekuz
zetaquira
zetta
zeus
zevallos
zeylanicus
zeylanius
zeylonensis
zhang
zhao
zheng
zhytomyr
ziavik
ziavikya
ziavikye
ziavya
ziavye
zibellina
zibetha
zibethicus
zida
ziegler
zijnafa
zikenaf
zikexa
zikeyed
zikeyena
zikeyer
zilir
zima
zimansky
zimbabwe
zimbabwea
zimbol
zimmeensis
zimmeri
zimmerius
zimmerman
zimmermann
zimmermanni
zinera
zinki
zinn
zinseri
zionafa
ziosk
zipa
zipaco
zipaquira
zipazgo
ziphiidae
ziphius
zirser
zirsera
zirsesik
zivotc
zivotcara
zivotccek
zixa
zo
zober
zobera
zodius
zola
zolonaf
zolonafa
zolonafo
zolonapafa
zolonon
zolonuca
zolter
zona
zonalis
zonas
zone
zonerodius
zonotrichia
zoo
zoologica
zoological
zoology
zoonavena
zoothera
zornjak
zorrino
zosteropidae
zosterops
zosterornis
zova
zovdaks
zovdar
zovdara
zovdasik
zovdayan
zovdayar
zovdom
zovdomaks
zquez
zu
zugafa
zukowsky
zuleika
zulia
zuliae
zuluensis
zum
zuniensis
zunigae
zuptay
zuptayok
zur
zuxol
zvak
zvartnots
zveri
zverieem
zveriopafa
zweig
zwischen
zygodontomys
zygogeomys
zygomaticus
zyli
zyzomys
{
|
}
~


¡
¢
£
«
­
°
±
²
³
´
·
»
½
×
ß
æ
øvre
œ
œuvre
ʿ
̀
́
̂
̃
̄
̆
̇
̈
̊
̋
̌
̓
̔
̛
̣
̦
̧
̨
̮
ι
ο
π
ς
а
академии
анна
армянского
б
бере
берег
берега
берегу
близ
большая
большои
будинок
в
валааме
василии
весна
вестник
вечер
вид
во
вокзал
волге
вул
г
галерея
гоголь
государственная
государственныи
грозои
д
движения
день
деревня
дождя
долина
дом
дорога
дочери
дубы
души
е
жизнь
з
за
заж
зима
зимои
золотая
и
из
издание
издательство
изобразительных
или
искусств
искусство
истории
история
к
каторга
кн
корень
крыму
культура
л
ленина
лес
леса
лесная
леснои
лесу
луг
м
маи
марии
мария
маркса
мельница
мертвые
моря
мост
музеи
мы
н
на
над
народа
ныи
о
область
озеро
ока
окрестностях
он
осеннии
осень
остров
острове
п
парке
пеи
перед
перов
перовская
площадь
по
под
поленов
портрет
после
пруд
р
раи
река
реки
репинои
речка
россии
роща
русскии
ручеи
с
ская
словарь
собор
солнечныи
сосновом
сосновыи
сосны
софья
спб
ссср
ссылка
сумерки
т
те
тернопіль
третьяковская
у
украі
урарту
утро
ф
х
храм
художеств
художественныи
художника
ч
через
э
энциклопедическии
энциклопедия
этюд
ю
я
является
і
գ
եկեղեցի
էջմիածնի
խաչքար
ս
սմբատաբերդ
սուրբ
և
᛫
​
‎
‐
–
—
‘
’
‚
“
”
„
†
•
…
‰
″
‼
№
→
↔
↷
∀
∃
≈
③
④
⑦
►
⺀
⺄
⺆
⺈
⺊
⺌
⺕
⺝
⺸
⺼
⿰
⿱
⿲
⿳
⿴
⿵
⿶
⿷
⿸
⿹
⿺
⿻
〢
あ
い
か
き
く
け
し
す
た
て
と
な
に
の
は
ひ
ほ
ま
む
も
よ
ら
る
れ
わ
を
ん
゙
ウ
コ
サ
ス
テ
ユ
ラ
ル
・
ー
㇁
㇂
㇄
㇇
㇈
㇉
㇓
㐁
㐄
㐅
㐌
㐫
㐬
㐭
㐮
㐱
㑒
㒵
㒸
㒼
㓁
㓞
㔾
㕛
㕣
㖾
㘝
㚅
㚇
㚔
㚘
㝉
㝡
㝴
㝵
㞋
㞢
㞷
㠩
㠭
㠯
㡀
㡭
㡿
㢲
㢴
㣇
㣺
㥯
㪅
㫄
㫐
㫒
㫺
㬅
㬎
㬥
㬰
㲋
㳄
㷠
㸒
㸚
㸦
㼌
㼲
㽞
㿟
䀠
䂞
䍃
䏍
䒑
䖍
䖒
䖝
䖵
䙴
䚻
䜌
䝿
䡛
䧹
䪞
一
丁
丂
七
丄
丅
丆
万
丈
三
上
下
丌
不
与
丏
丐
丑
专
且
丕
世
丘
丙
业
东
丞
丢
丣
两
严
並
丨
丩
个
丫
丬
中
丮
丰
丱
串
丵
丶
丷
丸
丹
为
主
丽
丿
乀
乂
乃
久
乆
乇
么
义
之
乌
乍
乎
乏
乐
乑
乔
乖
乗
乘
乙
乚
乛
乜
九
乞
也
习
乡
乱
乳
乾
亀
亅
了
亇
予
争
事
二
亍
于
亏
亐
云
互
亓
五
井
亘
亚
亜
亞
亟
亠
亡
亢
交
亥
亦
产
亨
亩
享
京
亭
亮
亯
亰
亲
亳
亶
亷
人
亻
亼
亾
仁
今
介
仌
从
仐
仑
仒
仓
仕
他
付
仝
代
令
以
任
企
伊
伏
伐
休
会
伯
但
位
何
佘
余
作
佥
使
來
侈
侌
侍
侖
侯
侵
便
保
俞
信
修
倉
倍
候
倠
備
僉
僕
儿
兀
允
兂
元
兄
充
兆
兇
先
光
兊
克
兌
免
兑
兒
兓
兔
党
兜
兟
入
全
兩
兪
八
公
六
兮
兰
共
关
兵
其
具
典
兹
兼
冀
冂
冃
冄
内
冈
冉
冊
冋
册
再
冎
冏
冐
冒
冓
冖
冗
冘
军
农
冝
冡
冥
冫
冬
冷
几
凡
凢
凵
凶
凷
凸
凹
出
函
凾
刀
刁
刂
刃
刄
刅
分
切
刍
刑
刕
刖
列
刘
则
初
別
利
别
到
制
刺
則
削
剌
前
剡
剽
劉
力
功
加
劦
助
劫
劳
劵
勃
勇
勉
勒
動
務
勞
勤
勹
勺
勻
勾
勿
匀
匂
包
匆
匈
匊
匋
匍
匕
化
北
匚
匝
匡
匪
匱
匸
匹
区
医
匽
匿
區
十
卂
千
卄
卅
卆
升
午
卉
半
卌
华
卑
卒
卓
单
卖
南
卜
卝
卞
占
卡
卢
卣
卤
卦
卩
卪
卬
卯
印
危
即
却
卵
卷
卸
卻
厂
厃
厄
历
厈
厉
厌
厓
厘
厚
原
厤
厥
厨
厭
厲
厶
厷
厸
去
厼
厽
叀
参
參
叅
又
[...]
