!
"
#
##0
##1
##10
##11
##12
##13
##14
##15
##16
##17
##18
##19
##2
##20
##21
##22
##23
##24
##25
##26
##27
##28
##29
##3
##30
##31
##32
##33
##34
##35
##36
##37
##38
##39
##4
##40
##41
##42
##43
##44
##45
##46
##47
##48
##49
##5
##50
##51
##52
##53
##54
##55
##56
##57
##58
##59
##6
##60
##61
##62
##63
##64
##65
##66
##67
##68
##69
##7
##70
##71
##72
##73
##74
##75
##76
##77
##78
##79
##8
##80
##81
##82
##83
##84
##85
##86
##87
##88
##89
##9
##90
##91
##92
##93
##94
##95
##96
##97
##98
##99
$
%
&
'
(
)
*
+
,
-
.
/
0
00
000
00000
00010
00030
001
002
004
006
007
01
010
01667
018
02
025
028
03
033
03333
037
04
04000
05
050
057
06
061
06667
069
07
076
08
0810
085
09
093
096
1
10
100
1000
10000
1001
1004
1005
101
1010
1013
1014
1015
1019
102
1020
1027
1028
103
1030
1033
1034
1035
104
1040
1047
105
1050
1054
106
1060
1063
1066
107
1070
1076
108
1080
109
1090
1093
1098
11
110
1100
1101
1103
111
1110
1111
1113
1115
112
1120
1125
113
1130
1133
1136
1138
114
1140
115
1150
1151
1157
116
1160
11667
117
1170
1177
118
1180
1184
119
1190
1193
1199
12
120
1200
1201
1202
1204
1206
1207
121
1210
1215
1216
1217
122
1220
1227
123
1230
124
1240
125
1250
1257
126
1260
1263
1265
1268
1269
127
1270
1271
1272
1274
128
1280
1282
1283
1284
129
1290
1296
1298
1299
13
130
1300
1303
1307
1308
131
1310
1313
1319
132
1320
1321
1327
1328
1329
133
1330
13333
134
1340
1341
1343
1346
1347
1349
135
1350
1353
136
1360
137
1370
1375
1377
138
1380
1387
1389
139
1390
1397
1398
14
140
1400
1403
1405
141
1410
1412
1415
142
1420
1425
1427
143
1430
1431
144
1440
1442
1446
1448
145
1450
1451
1452
1453
146
1460
1462
1463
1468
1469
147
1470
1471
1475
1477
148
1480
1481
1483
1485
1486
149
1490
1492
1493
1494
1495
1496
1498
1499
15
150
1500
15000
1501
1502
1503
1504
1505
1506
1507
1508
1509
151
1510
1511
1512
1513
1514
1515
1516
1517
1518
1519
152
1520
1521
1523
1524
1525
1526
1527
1528
153
1530
1531
1532
1533
1534
1535
1536
1537
1538
1539
154
1540
1541
1542
1543
1544
1545
1546
1547
1548
155
1550
1551
1553
1555
1556
1558
1559
156
1560
1561
1562
1564
1565
1566
1567
1568
1569
157
1570
1571
1572
1574
1576
1577
1579
158
1580
1581
1582
1583
1584
1585
1586
1587
1588
1589
159
1590
1591
1592
1593
1594
1595
1596
1597
1598
1599
16
160
1600
1601
1602
1603
1604
1605
1606
1607
1608
1609
161
1610
1611
1612
1614
1615
1616
1617
1618
1619
162
1620
1621
1623
1624
1625
1626
1627
1628
1629
163
1630
1631
1632
1633
1634
1635
1636
1637
1638
1639
164
1640
1641
1642
1643
1644
1645
1646
1647
1648
1649
165
1650
1651
1652
1653
1654
1655
1656
1657
1658
1659
166
1660
1661
1662
1663
1664
1665
1666
1667
1668
1669
167
1670
1671
1672
1673
1674
1675
1676
1677
1678
1679
168
1680
1681
1682
1683
1684
1685
1686
1687
1688
1689
169
1690
1691
1692
1693
1694
1695
1696
1697
1698
1699
17
170
1700
1701
1702
1703
1704
1705
1706
1707
1708
1709
171
1710
1711
1712
1713
1714
1715
1716
1717
1718
1719
172
1720
1721
1722
1723
1724
1725
1727
1728
1729
173
1730
1731
1732
1733
1734
1735
1736
1737
1738
1739
174
1740
1741
1742
1743
1744
1745
1746
1748
1749
175
1750
1751
1752
1753
1754
1755
1756
1757
1758
1759
176
1760
1761
1762
1763
1764
1765
1766
1767
1768
1769
177
1770
1771
1772
1773
1774
1775
1776
1777
1778
1779
178
1780
1781
1782
1783
1784
1785
1786
1787
1788
1789
179
1790
1791
1792
1793
1794
1795
1796
1797
1798
1799
18
180
1800
1801
1802
1803
1804
1805
1806
1807
1808
1809
181
1810
1811
1812
1813
1814
1815
1816
1817
1818
1819
182
1820
1821
1822
1823
1824
1825
1826
1827
1828
1829
183
1830
1831
1832
1833
18333
1834
1835
1836
1837
1838
1839
184
1840
1841
1842
1843
1844
1845
1846
1847
1848
1849
185
1850
1851
1852
1853
1854
1855
1856
1857
1858
1859
186
1860
1861
1862
1863
1864
1865
1866
1867
1868
1869
187
1870
1871
1872
1873
1874
1875
1876
1877
1878
1879
188
1880
1881
1882
1883
1884
1885
1886
1887
1888
1889
189
1890
1891
1892
1893
1894
1895
1896
1897
1898
1899
19
190
1900
1901
1902
1903
1904
1905
1906
1907
1908
1909
191
1910
1911
1912
1913
1914
1915
1916
1917
1918
1919
192
1920
1921
1922
1923
1924
1925
1926
1927
1928
1929
193
1930
1931
1932
1933
1934
1935
1936
1937
1938
1939
194
1940
1941
1942
1943
1944
1945
1946
1947
1948
1949
195
1950
1951
1952
1953
1954
1955
1956
1957
1958
1959
196
1960
1961
1962
1963
1964
1965
1966
1967
1968
1969
197
1970
1971
1972
1973
1974
1975
1976
1977
1978
1979
198
1980
1981
1982
1983
1984
1985
1986
1987
1988
1989
199
1990
1991
1992
1993
1994
1995
1996
1997
1998
1999
2
20
200
2000
20000
2000744
2001
2002
2003
2004
2005
2006
2007
2008
2009
201
2010
2011
2012
2013
2014
2015
2016
2017
2018
2019
202
2020
2021
2022
2023
2025
203
2030
204
2040
205
2050
206
2060
207
2070
208
209
21
210
2100
211
212
213
214
215
216
21667
217
218
219
22
220
221
222
223
224
225
226
227
228
229
23
230
2300
231
232
233
234
235
236
237
238
239
24
240
2400
241
242
243
244
245
246
247
248
249
25
250
2500
25000
251
252
253
254
255
256
257
258
258374
259
26
260
261
262
263
264
265
266
26667
267
268
269
27
270
271
272
273
274
275
276
277
278
279
28
280
281
282
283
28333
284
285
286
287
288
289
29
290
291
292
293
294
295
296
297
298
299
3
30
300
3000
30000
301
302
303
304
305
306
307
308
309
31
310
311
312
313
314
315
316
3166
31667
317
318
319
32
320
321
322
323
324
325
326
327
328
329
33
330
331
332
333
33333
334
335
336
337
338
339
34
340
341
342
343
344
345
346
347
348
349
35
350
3500
351
352
353
354
355
356
357
358
359
36
360
361
362
363
364
365
366
36667
367
368
369
37
370
371
372
373
374
375
376
377
378
379
38
380
381
382
383
384
385
386
387
388
389
39
390
391
392
393
394
395
396
397
398
399
4
40
400
4000
40000
401
402
403
404
405
406
407
408
409
41
410
411
412
413
414
415
416
41667
417
418
419
42
420
421
422
423
424
425
426
427
428
429
43
430
431
432
433
434
435
436
437
438
439
44
440
441
442
443
444
445
446
447
448
449
45
450
451
452
453
454
455
456
457
458
459
46
460
461
462
463
464
465
466
467
468
469
47
470
471
472
473
474
475
476
477
478
479
48
480
481
482
483
48333
484
485
486
487
488
489
49
490
491
492
493
494
495
496
497
498
499
5
50
500
5000
50000
501
502
503
504
505
506
507
508
509
51
510
511
512
513
514
515
516
51667
517
518
519
52
520
521
522
523
524
525
526
527
528
529
53
530
531
533
53333
534
535
536
537
538
539
54
540
541
542
543
544
545
546
547
548
549
55
550
55000
551
552
553
554
555
556
557
558
559
56
560
561
562
564
565
566
567
568
57
570
571
572
573
574
575
576
577
578
579
58
580
581
582
583
58333
584
585
586
587
588
589
59
590
591
592
593
594
595
596
597
598
599
6
60
600
6000
601
602
603
604
605
606
607
608
6088
609
61
610
612
614
616
61667
617
618
619
62
620
621
624
625
626
627
628
63
630
631
632
633
63333
634
635
638
639
64
640
641
642
643
644
646
648
649
65
650
651
652
653
654
655
656
657
658
659
66
660
661
662
663
664
665
666
66667
667
67
670
671
672
673
674
675
676
679
68
680
681
683
684
685
686
687
688
689
69
690
691
692
693
694
695
696
697
698
699
7
70
700
7000
70000
701
702
703
704
705
706
707
708
709
71
710
711
712
714
715
716
71667
718
72
720
721
724
725
727
728
729
73
730
733
734
735
737
738
74
740
741
742
747
748
749
75
750
751
752
753
754
755
756
757
759
76
760
761
762
763
764
76667
767
768
77
770
771
772
775
776
778
779
78
780
78333
786
787
788
789
79
790
792
793
794
795
796
797
798
799
8
80
800
8000
80000
801
802
804
805
807
808
81
810
811
812
813
814
815
816
81667
817
818
819
82
820
821
822
823
825
827
828
829
83
830
831
833
83333
839
84
840
841
842
843
846
85
850
85000
8501
851
852
853
854
855
856
857
858
859
86
860
8601
862
866
86667
868
869
87
870
872
873
874
875
876
877
879
88
880
882
883
885
886
887
89
890
891
892
893
894
895
896
899
9
90
900
9000
90000
901
902
903
904
907
908
909
91
910
911
912
913
914
91667
92
920
922
92286
924
929
93
930
931
932
933
93333
934
937
94
940
944
945
946
95
950
95000
953
955
957
958
959
96
960
961
962
963
965
966
96667
967
968
969
97
970
971
972
973
975
977
978
979
98
980
982
984
985
988
99
990
992
993
994
995
996
997
998
999
99918
99972
:
;
<
=
>
?
@
[
\
]
^
_
`
a
aa
aab
aabenraa
aachen
aage
aalborg
aarhus
aaron
aars
aasen
aasmund
ab
abandoned
abba
abbado
abbasonur
abbey
abbi
abbin
abbott
abc
abcnews
abd
abdel
abdeslam
abdullah
abe
abel
aber
aberdeen
aberdeenshire
abergavenny
abidjan
abkasia
aboriginal
about
above
abraham
abrahamsen
abs
absalon
absalonsen
absent
absolut
abstrakt
abu
abuja
ac
academic
academy
accessdate
accessed
accipiter
according
account
ace
achebe
achievement
acid
acids
acres
acrocephalus
across
act
acting
action
activity
actor
actors
actra
actress
acts
actualites
ad
ada
adam
adams
add
adding
addis
addition
additional
adelaide
adherents
adidas
admin
administration
administrative
admiral
admiralur
ado
adobe
adolf
adorocinema
adressa
adrian
adriana
adriatico
adult
advances
advent
adventure
adventures
advokatur
ae
aek
aeroplanes
af
afc
affair
affairs
afganistan
afghanistan
afi
afp
afraid
africa
african
afrika
afrikaans
afrikanar
afrikanarar
afrikanska
afrikanskar
afrikanski
afrikanskir
afrikanskum
afrikanskur
afrikonsk
afrikonsku
afrikonskum
afro
afroamerikanarar
afroamerikanska
afrodita
afroditu
aftan
aftana
aftanfyri
aftara
aftari
aftast
aftasta
aften
aftenposten
after
afterparty
aftonbladet
aftrat
aftur
aftura
afturat
aftureftir
afturfyri
afturgongd
afturi
afturkomin
aftursvar
afturvald
afturvaldur
afturvendandi
afzelius
ag
again
against
agan
agder
age
aged
agency
agent
agentumboð
agentumboðið
ages
aggi
agglomerations
agios
agn
agnar
agnes
agnga
agree
agreed
agreement
agricola
agriculture
agu
aguilera
agurk
ah
ahead
ahmad
ahmadinejad
ahmed
ahram
ahreppur
ahtisaari
ahu
ai
aia
aid
aids
aiga
aik
aime
ain
air
airasia
airbus
aires
airlines
airport
airstrikes
airways
ajax
ak
aka
akademi
akademien
akademiens
akademinum
akb
akbar
akfar
akfør
akførum
aki
akillevs
akillevsi
akk
akker
akkura
akraberg
akrabergi
akrabyrgi
akrahreppur
akranes
akraneskaupstaður
akrar
akrarnar
akropolis
aks
aksel
aksgro
akta
aktiv
aktiva
aktivir
aktivistur
aktivt
aktivur
aktuelt
aktum
akur
akureyrarkaupstaður
akureyri
akva
akvavitt
al
ala
alabama
aladdin
alain
alan
alandresults
alanya
alarabiya
alashkert
alaska
alba
albanar
albania
albanian
albanskt
albanskur
albany
albeittar
alberg
albert
alberta
alberto
albertslund
albion
albrecht
albright
album
albums
albuquerque
alc
alcazar
ald
alda
aldamo
aldan
aldara
aldarinnar
aldarskiftið
aldean
aldehyd
alder
aldri
aldrig
aldrin
aldrinum
aldu
alduba
aldubaran
aldur
aldurin
aldurnar
aldursbo
aldursmark
aldursmarkið
ale
alec
alejandro
aleksandar
aleksander
aleksandr
aleksandur
aleksej
aleqa
alessandria
alessandro
alex
alexander
alexandra
alexandre
alexandria
alexandru
alexandur
alexei
alexiou
alexis
alf
alfa
alfabetinum
alfabetisk
alfabetið
alfagra
alfama
alfonso
alfred
alfredo
alfrøði
algebra
alger
algeria
algiris
algoritma
alheiminum
alheims
alheimsfevnandi
alheimurin
ali
alibru
alice
alicia
alidy
alien
alighieri
alin
alina
aling
alingsa
alir
alis
alisa
alisfrøði
alisfrøðingur
alisfrøðingurin
alison
alistair
alive
alivinnan
alivinnu
alivinnuna
alivinnuni
aljazeera
alkan
alken
alkmaar
alkohol
alkoholi
alkoholir
all
alla
allah
allahalgannadagur
allan
allar
allardyce
allarflestu
allarhelst
allari
allastaðni
alle
allegiance
allegro
allen
allende
alley
alliance
allies
alligatorur
alligatorurin
allir
allison
allmovie
allmusic
allsvenskan
allt
allting
allur
ally
alma
almanna
almannakunngjørd
almannakunngjørdi
almannama
almannara
almannastovan
almenn
almenna
almennan
almennar
almennari
almenni
almenningin
almenninginum
almennir
almennt
almennu
almennum
almennur
alment
almikið
almis
almost
alnets
alnir
alno
aloftast
alone
along
alonso
alopex
alpecin
alpha
alphabeat
alpunum
alpurnar
als
alsamt
alshammar
alskyns
also
alsto
alt
alta
altarinum
altarið
altartalvan
altartalvuna
alternativ
alternative
alti
altingið
altjo
alto
altso
aluminium
aluminiumsma
alva
alves
alvesta
alvi
always
alyga
am
amadeus
amado
amager
amalia
amalie
amanda
amap
amariel
amasona
amatør
amazing
amazon
amber
amboð
amboðum
ambrosius
ame
amelia
amen
ameri
america
american
americans
americas
amerigo
amerika
amerikanar
amerikanarar
amerikanari
amerikanarin
amerikanarir
amerikanarum
amerikansk
amerikanska
amerikanskan
amerikanskar
amerikanskari
amerikanski
amerikanskir
amerikanskt
amerikansku
amerikanskum
amerikanskur
amerikonsk
amerikonsku
amerikonskum
amerikumenn
amfetamin
ami
amid
amifo
amin
aminata
aminir
aminosy
amis
amne
amnesty
among
amor
amore
amores
amos
amour
ampas
amr
amstel
amsterdam
amt
amtmanninum
amtmaður
amtmaðurin
amts
amtsra
amtum
amulios
amundsen
amy
an
ana
analog
analyse
anas
anastacia
anastasia
anatolia
anc
ancelotti
anchorage
ancient
ancora
and
anda
andadra
andaliga
andaligum
andalusia
andan
andanum
andar
andaðist
anden
anders
andersen
anderson
anderssen
andersson
andesfjøll
andesfjøllum
andesfjøllunum
andevni
andheiti
andi
andin
andla
andliga
andlit
andliti
andlitinum
andlitið
andlitsfjalandi
andorra
andra
andrade
andras
andrass
andrasson
andre
andrea
andreas
andreasen
andreassen
andrei
andrej
andreotti
andress
andrew
andrews
andrias
andriasar
andromakka
andromakku
andros
andstøðan
andstøðu
andstøðuflokkarnir
andstøðuni
andy
aneby
anes
anette
anfinn
anfinni
anga
angel
angela
angeles
angeli
angelika
angelina
angelo
angels
anggun
angist
anglais
anglesey
anglo
angola
angreb
anguilla
anhalt
anholt
animal
animals
animated
animatio
animation
animationmagazine
anime
animenewsnetwork
animeraða
animeraður
anita
anja
ankara
anker
ankusevs
anmeldelse
ann
anna
annan
annapolis
annar
annarleiðis
annars
annað
annaðhvørt
annaðpla
anne
anneliese
annes
annesar
annesi
annette
annfinnur
anni
annie
annika
anniku
annis
annita
anniversary
annlis
anno
announce
announced
announcement
announces
annu
annual
anos
another
anquetil
ans
ansa
ansar
ansast
ansað
anser
anso
ansson
answers
ansæð
ansøka
ansøkan
ansøku
ansøkuna
antarctic
antarktis
anthem
anthologi
anthology
anthony
anthus
anti
antibiotika
antigua
antilloyggjar
antilloyggjum
antillunum
antillurnar
antin
antiokia
antiquaries
anto
antoine
antoinette
anton
antoni
antonia
antonio
antonis
antonius
antwerpen
anwar
any
ao
aoi
ap
apa
apacharar
apache
apart
apartheid
apocalypse
apoel
apollo
apollon
apopleksi
aposto
app
appalachiafjøll
appalakkufjøll
appeal
appear
appearances
appears
appilsinir
apple
application
appoint
appointed
apr
apra
apri
april
apulia
apur
aqua
aquatics
aquinas
aquino
ar
ara
arab
arabia
arabisk
arabiska
arabiskt
arabisku
arabiskum
arabiskur
arabo
arafat
aragon
aramæiskt
arantes
arap
arar
arara
arau
arbakka
arbakkanum
arbakkarnar
arbakki
arbeiddi
arbeiddu
arbeiderpartiet
arbeitt
arbeiða
arbeiðarafelag
arbeiðaraflokkinum
arbeiðaraflokkurin
arbeiðarar
arbeiðari
arbeiði
arbeiðinum
arbeiðir
arbeiðis
arbeiðið
arbeiðnum
arbeiðs
arbeiðsbo
arbeiðsfo
arbeiðsgevarafelag
arbeiðsgevarafelagið
arbeiðsgevari
arbeiðskvinnufelag
arbeiðslegum
arbeiðsleys
arbeiðsli
arbeiðsloysi
arbeiðsloysið
arbeiðsmannafelag
arbeiðsmannafelagið
arbeiðsmarknaðarma
arbeiðsmarknaðinum
arbeiðsmaður
arbeiðsmegi
arbeiðspla
arbeiðsti
arbeiður
arbitration
arbo
arboga
arc
arch
archibald
archive
archived
archives
arco
arctic
arden
ardølunum
are
area
areas
arena
arenabowl
arendal
aretha
arfrælsi
arge
argentina
argentinska
argentinskur
argir
argja
argjaba
argjum
argon
argos
argus
ari
aria
arias
ariel
aril
arion
arisona
aristocats
aristoteles
arizona
arja
arjen
arjeplogs
arkansas
arkimedes
arkitektinum
arkitektur
arkitekturin
arkiv
arktis
arktisk
arktiska
arktiskt
arktisku
arktiskum
arktiskur
arli
arlington
arlo
arlæra
arm
armando
armar
arme
armenia
armenskt
armenskur
armfeldt
armgarð
armi
armin
armitstead
armo
arms
armstrong
armu
armur
army
arna
arnar
arnarneshreppur
arnbjørn
arndt
arne
arnfri
arni
arno
arnold
aro
aron
around
arpartar
arpartarnir
arpartinum
arpartur
arparturin
arresø
arri
arrow
arruda
arrættindi
ars
arsenal
arsi
arsins
arstatus
art
arte
artemis
arthur
article
articleid
articles
artid
artikel
artikkel
artikler
artist
artists
artistur
arts
artu
aru
aruba
arv
arva
arvalutir
arvanitaki
arvað
arvaði
arvidsjaurs
arvika
arvin
arvur
arøki
arøkinum
arøkið
as
asbest
asbjørn
aschehoug
asellus
aserbadjan
aserbadsjan
aserbajdsjan
asfalt
ash
ashley
ashton
asia
asian
asiatar
asiatisk
asiatiska
asiatisku
asiatiskum
asin
ask
askanios
asker
askersunds
askham
askildsen
askur
asmussen
aso
asp
aspx
assad
assault
assembly
assens
assessment
asset
assia
assigned
assistance
associated
association
associations
assy
ast
asta
astaire
astana
astanaerror
astaðni
asterix
asti
astma
aston
astri
astrid
astrið
astronautur
astronomi
astrup
astyanax
asyllex
at
ataqatigiit
atassut
atatu
atburð
atdra
ater
atferð
atgongd
athen
athena
athens
athenskur
athlete
athletes
athletic
athletics
athos
ati
atkins
atkinson
atkvøddi
atkvøddu
atkvøtt
atkvøða
atkvøðu
atkvøðugreiðslu
atkvøðum
atkvøðunum
atkvøður
atkvøðurnar
atkvøðurætt
atla
atlanta
atlantic
atlantis
atlantsflog
atlantshav
atlantshavi
atlantshavinum
atlantshavið
atlas
atle
atli
atlimaskap
atlit
atliti
atløgu
atoll
atollin
atom
atomini
atomnummar
atomum
atopiskt
ator
atp
atpworldtour
atso
att
atta
attack
attacker
attackers
attacks
attaque
attentat
attentats
attika
attlee
atu
atvold
atvoldin
atvoldunum
atwood
au
auckland
audio
audition
audrey
auf
aug
august
augusta
auguste
augustin
augustine
augustinussen
augusto
augustur
augustus
auken
auktio
aung
aurdal
aurelius
aurora
aus
auschwitz
austen
austin
australia
australian
austria
austur
author
authorformat
authorities
auto
autobiography
autumn
aux
av
ava
avalon
avant
avatar
avbara
avbera
avbjo
avbyrgd
avbyrgdur
avbyrgt
avdu
ave
avenue
avermaet
avesta
avfall
avfalli
avfallið
avfc
avger
avgera
avgerandi
avgerð
avgerða
avgerðandi
avgerðin
avgerðina
avgerðir
avgerðum
avgjørd
avgjørdi
avgjørdu
avgjørdur
avgjørt
avgreiða
avhoyrdur
avi
aviation
avicii
aviser
aviv
avleitt
avleiðing
avleiðingar
avleiðingarnar
avleiðingum
avloysari
avloyst
avloysti
avly
avmarka
avmarkað
avmarkaða
avmarkaðari
avmarkaði
avmarkaðum
avmarkaður
avmarking
avmarkingar
avmyndaðar
avmyndaður
avnokta
avon
avra
avrik
avrit
avrætta
avrættað
avrættaði
avrættaðir
avrættaður
avrætting
avrættingar
avstað
avstrala
avstralia
avstralsk
avstralska
avstralski
avstralsku
avstralskur
avtaka
avtala
avtalan
avtalað
avtalu
avtaluna
avtaluni
avtalur
avtekur
avtikin
avtikið
avto
avtoftað
avtornaði
avvaksin
avvaksnar
avvarðandi
awake
award
awarded
awards
away
ax
axel
ayaka
ayano
ayatollah
ayers
aymara
ayrshire
az
aziz
azkaban
azorurnar
að
aðaldælahreppur
aðalfund
aðalfundi
aðalfundin
aðalfundinum
aðalfundur
aðalfundurin
aðalin
aðalma
aðalra
aðalsfundurin
aðalskrivaranum
aðalskrivari
aðalskrivarin
aðalskrivstovan
aðalsmaður
aðalstjo
aði
aðra
aðrar
aðrari
aðrastaðni
aðrir
aðru
b
ba
baba
babba
babel
babs
baby
babylon
bacalao
bach
bacharach
bachelor
bacheloru
bachmann
back
background
backing
backlink
backstroke
bacon
bad
baden
badenweiler
badminton
bae
baffin
baffinsland
baffinslandi
bafta
bag
baga
bagdad
bagge
baggio
baghdad
baghdadi
baha
bahama
bahamaoyggjar
bahamaoyggjum
bahamas
bahia
bahrain
baianstovu
bailey
baja
bak
baka
bakari
bakað
baker
bakgrund
bakgrundini
baki
bakinum
bakið
bakka
bakkafrost
bakkanum
bakkast
bakkastokki
bakkin
bakr
baksy
bakteria
bakterian
bakteriu
bakterium
bakteriuna
bakteriuni
bakteriur
bakteriurnar
baktus
baku
bakur
bal
balance
bald
baldur
baldwin
baldy
bale
bali
balkan
balkanha
balkankri
ball
ballad
ballads
balle
ballerup
balling
ballo
ballon
baltasar
baltic
baltimore
baltisku
balzer
bamako
bambi
ban
bana
bananir
bananum
banasu
band
banda
bandi
bandinum
bandið
bands
banff
bang
bangin
bangkok
bangladesh
bangladesj
bangor
banjo
bank
banka
bankakvinna
bankanum
bankar
bankarnar
bankarnir
banker
banki
bankin
banknordik
banks
bankum
bankunum
bann
banna
bannar
bannast
bannað
bannaði
bannaðir
bannaðu
bannaður
banner
bannið
bant
bantuma
bao
baptist
bar
bara
barack
baraldur
barba
barbados
barbara
barbaru
barber
barbie
barbiedukkur
barbra
barbro
barbuda
barca
barcelona
barclays
bardaga
bardagan
bardaganum
bardagar
bardagarnir
bardagi
bardagin
bardiani
bardist
bardot
bardu
bardur
bardust
bardøgum
bardøgunum
bare
barein
barentshavinum
bari
barker
barks
barmi
barn
barna
barnaa
barnablaðið
barnablaðnum
barnabo
barnabøkur
barnado
barnaeksem
barnagarðar
barnagarður
barnagarðurin
barnagrunnur
barnagørðum
barnaheim
barnamentanarheiðursløn
barnari
barnaro
barnarættindadagur
barnarættindasa
barnarættindi
barnasangir
barnasjo
barnasju
barnasku
barnasøgur
barnatannrøktin
barnau
barndo
barnes
barngarla
barni
barninum
barnið
barnsbeini
barnsins
baro
baroli
baron
barr
barrett
barrier
barrir
barrow
barrum
barry
barst
bart
bartal
bartalsstovu
barðastrandarsy
bas
basa
basaltfla
base
baseball
based
basel
basement
basguitar
bashar
basic
basim
basin
baskaralandið
basketball
baskiskt
bass
bassel
bassistur
bassleikari
bassur
bast
basten
bastian
bastien
bastille
bastogne
bat
bataclan
batista
batman
batnað
batnaði
baton
battaljo
battari
batti
battle
bauer
bauhaus
bauxit
bay
bayer
bayern
bayou
bað
bb
bbc
bbfc
bbs
bc
bd
be
beach
beag
bean
bear
beast
beat
beata
beate
beatlarnir
beatles
beatrix
beatriz
beats
beautiful
beauty
beauvoir
bec
became
because
bech
beck
beckenbauer
becker
beckett
beckham
become
becomes
beder
bedste
beecher
been
beethoven
bef
befo
befolkning
befolkningsfo
befolkningsstatistik
before
begin
beginning
begins
beha
behind
behindthevoiceactors
behring
bei
beiggi
beiggin
beiggja
beiggjar
beijing
beijo
bein
beina
beinagrind
beinagrindin
beinagrindir
beinan
beinanvegin
beinavegin
beindi
beindu
being
beini
beinini
beinir
beinisvørð
beinisvørði
beinið
beinleiðis
beint
beinta
beinum
beinunum
beinur
beirut
beiti
beitilendi
bel
bela
belarus
belfast
belgia
belgian
belgisk
belgiska
belgiski
belgiskur
belgium
belgrade
belials
believe
belis
bell
bella
belle
belmondo
belmont
belmopan
belo
below
belti
beltið
bem
ben
benadikt
bend
benda
bendar
bendast
bender
bendi
bending
bendingar
bendir
benedicta
benedictus
benfica
bengt
bengtsfors
bengtsson
benigno
benin
benito
benjamin
benjaminsen
benkur
bennett
benny
bensin
bent
bente
bentsen
beograd
ber
bera
berast
berbar
berg
bergamo
bergen
bergens
bergh
berghamar
bergi
berginum
bergið
bergljo
bergman
bergs
bergsson
bergstro
bergto
bergur
beri
berini
berit
berja
berjalyngur
berjast
berjist
berkeley
berligt
berlin
berlinale
berlinaluni
berliner
berlings
berlingske
berlinmu
berlusconi
bermuda
bern
bernadotte
bernard
bernardo
bernhard
bernhardt
bernie
berry
bert
berta
bertani
bertel
bertholdsen
bertil
bertolt
bertrand
berum
berøa
bes
beskrivelse
best
besta
beste
besti
bestu
bestur
bet
beta
betesda
beth
bethel
betlehem
betong
betongi
betra
betran
betraði
betri
bette
better
betty
betur
between
beverly
bevo
bevolkingsontwikkeling
beyonce
beyond
beyð
bfl
bg
bi
bia
bianca
bibcode
bibi
bible
bibliotek
bidda
biden
bieber
biedermann
bien
bierhoff
big
biggest
biggestuscities
bike
bikeexchange
bil
bilan
bilar
bilarnir
bilatalið
bili
bilin
bilinum
bill
billa
billboard
billeder
billings
billio
billy
bilum
bilur
bilurin
bin
bind
binda
bindandi
binding
bindir
bindum
bindur
bingen
bio
biografi
biografisk
biografunum
biography
biology
bipm
bird
birdman
birds
birgir
birgit
birgitta
birita
biritu
birkblog
birkeland
birkenes
birkerød
birkir
birmingham
birna
birnie
birta
birth
birthday
birthe
birting
bishop
biska
biskeiavi
biskopstø
biskt
bisku
biskum
biskup
biskupi
biskupskelda
biskupur
biskupurin
bismarck
bisonoksar
bisonur
bispadømi
bispasetrið
bispinum
bispur
bispurin
bissau
bit
bitch
biti
bitklo
bitland
bitter
biz
biðin
biðið
biðja
biður
bja
bjarga
bjargar
bjargað
bjargaði
bjargaðir
bjargaðu
bjargaður
bjarkhamar
bjarki
bjarna
bjarnason
bjarne
bjarni
bjarnir
bjarnoyggin
bjart
bjarta
bjartali
bjartur
bjerre
bjerregaard
bjo
bjurholms
bjuvs
bjørg
bjørgini
bjørgum
bjørgunum
bjørgvin
bjørk
bjørn
bjørnin
bjørnson
bjørnstjerne
bjørt
bk
bl
bla
blachman
black
blackburn
blackwell
blade
bladet
blair
blaise
blak
blaka
blake
blanc
blanchett
bland
blanda
blandar
blandað
blandaðum
blanding
blandingur
blankar
blankaska
blankska
blankt
blasfemi
blast
blasts
blaze
blað
blaðfo
blaði
blaðið
blaðkvinna
blaðmaður
blaðnum
blaðstjo
blaðsøga
blaðu
blaðungur
ble
bleed
bleikt
bleiv
blekinge
blett
blettir
blettum
blettur
blev
bleytar
bleytt
bleytum
blf
bli
blia
blian
blica
blikkfloyta
blikur
blind
blindur
blir
bliuna
bliuni
bliunnar
bliuty
bliver
blivi
blivin
blivið
blivnar
blivnir
blivu
blix
blixen
blo
bloch
block
blod
bloemfontein
blog
bloggari
bloggur
blogs
blogspot
blokland
blomkvist
blonde
blood
bloodgroup
bloody
bloom
bloomberg
bloomington
bloomsbury
bls
blu
blue
blueberry
bluebird
bluegrass
blues
bluesto
bly
blædel
bløð
bløðini
bløðkuurt
bløðum
bløðunum
bm
bmc
bmi
bne
bo
boarar
board
boarnir
boasson
boat
bob
bobby
boccaccio
boccoli
bodens
bodil
body
boel
boels
bog
boga
bogaskjo
bogason
bogen
bogi
bogota
bohr
boise
bok
bokasolan
bokhandil
bokma
boko
boksari
boksing
bold
boldklub
boli
bolivia
bollebygd
bollna
bologna
bolt
bolungarvi
bomb
bombay
bomber
bombers
bombing
bombings
bombs
bon
bonaire
bonaparte
bond
bondevik
bone
bones
bonhoeffer
bonkinum
bonn
bonnie
bonniers
bonus
boo
book
books
boom
boot
boots
bop
bor
bora
bordeaux
border
borealis
boreray
borg
borgarakri
borgarar
borgararættindastri
borgararættindum
borgarbyggð
borgarfjarðarhreppur
borgarfjarðarsy
borgari
borgarlig
borgarliga
borgarligu
borgarstjo
borgarum
borgarunum
borgen
borges
borgholms
borgin
borgina
borgini
borgir
borgmeistari
borgnine
borgum
borin
boris
borið
bork
borla
born
borneo
bornholm
borno
borough
borromeo
bort
borten
borussia
borð
borði
borðinum
borðið
borðoy
borðoynna
borðoynni
borðs
borðspæl
borðtennis
borðtennisfelag
borðvi
bosnia
bosniskt
boss
boston
both
botn
botnfiskur
botni
botnin
botninum
botsvana
botulinum
botulismu
boulder
boulevard
bounty
bourdain
bournemouth
bouvetoy
bowie
bowl
bowling
box
boxofficemojo
boy
boykott
boyle
boys
boð
boða
boðan
boðanardagur
boðanir
boðar
boðarar
boðari
boðað
boðaði
boðaðu
boði
boðin
boðini
boðið
boðskap
boðum
boðunum
br
bra
brabant
brace
brad
bradley
braga
bragd
bragdið
bragi
braham
brahmadellarnir
brahms
brand
brandenburg
brandi
brando
brandt
brandur
brann
branta
brasi
brasil
brasileira
brasileiras
brasileiro
brasilia
brasilsk
brasilska
brasilskt
brasilsku
brasilskur
brast
bratislava
bratt
bratta
brattaberg
bratteli
brattlendi
braun
brava
brave
bravo
brazil
brazilian
bre
break
breakfast
breaking
breaks
breaststroke
brecht
breckmann
breidd
breiddi
breiddin
breiddu
breitner
breitt
breivik
breið
breiða
breiðar
breiðari
breiðast
breiðband
breiðdalshreppur
breiðir
breiðu
breiðum
breiður
brek
brekað
brekaðu
breki
brekku
brekkunum
bremen
brend
brenda
brendan
brendar
brende
brendi
brendu
brendur
brenna
brennandi
brenni
brennievni
brennir
brennivi
brennur
brent
brentford
breschel
bressay
bresta
bresti
brestir
brestisson
brestur
bretagne
bretar
brethren
bretland
bretlandi
bretlands
bretonskt
bretsk
bretska
bretskan
bretskar
bretskari
bretski
bretskir
bretskt
bretsku
bretskum
bretskur
bretum
breyt
breyð
breyðføða
breyði
bri
brian
brickman
bride
bridge
bridgeport
bridges
bridgetown
brief
brigade
brigdi
brighton
brigitta
brigitte
brim
brimheim
brimi
brimil
brimilin
brimið
brimnes
brimpla
bringa
bringan
brings
bringu
bringuna
bringuni
bringusvimjing
brisbane
brisinum
brisið
britain
britannia
britannica
british
britney
britt
britta
brix
brno
bro
broadcast
broadcasting
broadway
broberg
brock
broddur
broderick
broken
brom
bromer
bromo
bromwich
broncos
bronsa
bronson
bronsu
bronsuheiðursmerki
bronsuheiðursmerkjum
bronsuøldini
bronx
bronze
brookings
brooklyn
brooks
bros
brosma
brosnan
brostrup
brot
brother
brothers
broti
brotin
brotini
brotið
brotlendir
brotna
brotnar
brotnaði
brotsgerð
brotsmaður
brotsmenn
brotsspark
brotssparkskapping
brotsverk
brotum
brown
broyta
broytast
broyting
broytingar
broytingarnar
broytingin
broytingum
broytir
broytist
broytt
broytta
broyttar
broytti
broyttir
broyttist
broyttu
broyttum
broyttur
broyttust
bru
bruce
brugda
bruk
brun
bruna
brundtland
brunei
brunnin
bruno
brunsj
brunswick
brussel
brussels
brustu
bruttotjo
brutu
bruun
bruxelles
bry
bryan
bryggja
bryggjari
bryggjað
bryggju
bryggjubakka
bryld
bryna
brynhild
brynjar
brynjolfur
brythonisku
brzoskowski
bræv
brævaskifti
brævi
brævið
brødrene
brøgd
brøndby
brønderslev
brøtt
brøttu
brøttum
brøv
brøvini
brøvum
brøvunum
brøðrasamkoman
brøðrasamkomuna
brøðrasamkomuni
brøðrum
brøðrunum
brøður
brøðurnir
bs
bt
btu
btva
bu
buchanan
buck
bucures
budapest
budda
buddha
buddisma
buddistar
buddy
budget
buena
buenos
buffalo
buffon
bugge
bugvar
building
buildings
buka
bukarest
bukowski
bulgaria
bulgarskt
bulgarskur
bull
bullerbyn
bulletin
bullock
bumba
bumban
bumbað
bumbu
bumbua
bumbuatso
bumbuna
bumbur
bumburnar
bummull
bummullin
bundesliga
bundin
bundið
bundna
bundnar
bundnir
bundnum
bundu
bunkan
bunton
bunyan
buo
burat
bureau
burger
burgundarsnigil
burj
burka
burke
burkina
burlington
burlo
burma
burn
burning
burnley
burns
burqa
burr
burroughs
bursa
burt
burton
burtur
burturav
burturflutt
burturfra
burturi
burturkast
burtursæð
burturu
burturvi
burundi
burðabro
burðardygga
burðardyggari
burðarnir
bus
bush
business
businessinsider
buskerud
buss
bussar
bussin
bussinum
bussum
bussur
bussurin
buster
but
butan
buteo
butler
butterfly
buy
buzz
buðla
bx
by
bye
byen
bygd
bygda
bygdafo
bygdahu
bygdar
bygdara
bygdarfo
bygdarma
bygdarra
bygdarsavn
bygdasavn
bygdastevna
bygdi
bygdin
bygdina
bygdini
bygdir
bygdirnar
bygdu
bygdum
bygdunum
bygdur
bygg
byggi
byggilist
byggimeistari
bygging
byggingin
byggingina
byggingini
byggir
byggja
byggjast
bygland
bygnaðurin
bygning
bygningar
bygningarnar
bygningarnir
bygningi
bygningin
bygninginum
bygningum
bygningunum
bygningur
bygningurin
bygt
byjaði
bylgjan
bylgju
bylon
byrgd
byrgdar
byrgdarblaðstjo
byrgdina
byrging
byrgingar
byrgingin
byrgingina
byrja
byrjan
byrjanin
byrjanina
byrjanini
byrjar
byrjað
byrjaði
byrjaðu
byrjaður
byron
byrsu
byrsum
byrsur
byrta
bysshe
byzantinska
bæjarhreppur
bæk
bænadikt
bærendsen
bærentsen
bævrar
bævurin
bæði
bø
bøgan
bøguni
bøin
bøkur
bøkurnar
bøn
bønarorð
bøndur
bøndurnar
bøndurnir
bønhu
bønir
bønum
børge
børk
børks
børkur
børn
børnini
børnum
børnunum
børsskra
bøta
bøtt
bøtur
bøur
bøurin
c
ca
cabinda
cable
cabu
cache
cadel
caesar
cafe
caff
caicosoyggjar
cain
cal
calculated
calcutta
caldero
caldwell
cale
calendar
calendarfile
calgary
calidris
california
caliph
caliphate
call
called
calls
calvin
cam
camargo
cambridge
came
camelot
camera
cameron
camilla
camille
camion
camp
campaign
campbell
campeonato
campus
can
canada
canadian
canal
canaria
canaries
canberra
cancellara
cancer
cand
candamir
candice
candy
cannes
cannondale
canoe
cantabile
canterbury
canyon
cap
capacity
cape
capital
capitol
capo
capote
cappelen
captain
capture
captured
car
cara
caras
carbonatom
carboxylsy
card
cardiff
carduelis
care
carey
caribbean
carl
carlo
carlos
carlsberg
carlsen
carlsson
carly
carmen
carol
carola
carolina
caroline
carolus
carpenter
carpenters
carre
carrey
carrie
carried
carroll
cars
carson
carsten
carta
carter
cartoon
cary
cas
casa
case
casement
cases
casey
cash
casino
caso
caspar
casper
cassidy
cassius
cast
castle
castlebar
castro
casualties
casualty
cat
catalina
catalog
catalunya
catan
catch
cate
category
cathedral
catherine
catholic
cathrine
cats
cause
cavendish
cayman
caymanoyggjar
cb
cbc
cbs
cbsnews
cc
ccc
cd
cdn
cdot
cdu
ce
ceaus
cecil
cecilia
cedar
cedric
celebration
celebrity
cello
celsius
celtic
cemr
census
censusindia
center
centerpartiet
central
centralbyra
centre
centro
centrum
century
ceo
cercignani
cervantes
cesar
cesare
cest
cet
cf
cfm
cgi
ch
cha
chad
chadri
chadwick
chain
chains
challenge
chamber
chamberlain
chamorro
champagne
champion
champions
championship
championships
champlain
chan
chance
chanel
chang
change
changed
channel
chansons
chapel
chaplin
chapter
character
charadrius
charb
charity
charles
charleston
charley
charlie
charlotte
charlottetown
charlton
charon
charrie
chart
charter
chartres
charts
chase
chash
chat
chattanooga
chaucer
che
check
chefs
chelsea
chelseafc
chemical
chepstow
cher
cherokee
cherokesiskt
cherry
chess
chester
chet
cheyenne
chi
chiang
chicago
chico
chief
chiesa
child
children
chile
chili
china
chinese
chinua
chips
chirac
chiricahua
chisholm
chlidonias
cho
chocolate
choice
chopin
chr
chris
christ
christchurch
christen
christensen
christer
christian
christiania
christians
christiansborg
christiansen
christianshavn
christianskirkjan
christianskirkjuni
christie
christina
christine
christmas
christoffer
christoph
christopher
chronicle
chronicles
chuck
church
churchill
ci
cia
ciccone
cid
cider
cie
cies
cincinnati
cinderella
cindy
cine
cinema
cinerea
cio
cip
ciranda
circle
circuits
circus
cis
cisv
cite
cities
city
citypopulation
ciudad
civil
civilians
ck
cke
ckero
cl
cla
claim
claims
claire
clara
clark
clarke
clash
class
classic
classics
classification
claude
claudia
claudio
claus
clausen
clav
clay
clayton
clean
clemens
clement
clementsen
cleopatra
clerk
cleveland
clickhaze
cliff
clifford
climate
cline
clint
clinton
clive
clock
clone
clooney
close
closed
closer
closing
clostridium
clotworthy
cloud
cloudid
clover
clown
club
clube
clubs
clubworldcup
clyde
cm
cms
cmt
cn
cnn
co
coach
coaching
coal
coalition
coast
coca
cochran
cochrane
cocker
coco
cod
code
codes
cody
coefficient
cofi
cofidis
cohen
coihue
col
cola
colbertaldo
cold
coldeportes
cole
coleman
colin
collection
college
collins
colombia
coloquick
color
colorado
columba
columbia
columbus
com
combat
come
comedic
comedy
comes
comic
comics
comicwiki
coming
commander
commedia
commedie
comment
commission
commissioner
committee
common
commons
commonwealth
community
como
compact
companies
companion
company
comparative
competition
competitions
competitor
complete
complex
composers
compostela
compound
computer
comune
con
concepcio
concept
concert
conchita
concord
concordia
conditions
condoleezza
conepatus
coney
conference
confidential
confirm
confirmed
confirms
conflict
congo
congress
connacht
connecticut
connection
connery
connor
conquest
conrad
conservation
conservative
conservatives
considered
constitution
construction
contact
contador
contae
conte
contemporary
content
contest
continental
continues
contra
contract
contre
control
convention
convert
conway
cook
cooksoyggjar
cool
coolidge
cooper
coordinates
cop
copa
copacabana
copenhagen
coppi
corac
corax
corazon
corbusier
corfitz
corinthians
cork
cornelius
cornell
corniskt
cornwall
cornwallis
corona
corpo
corporate
corporation
corps
corresponding
corriere
cort
corto
corvus
cosgrove
costa
costs
costume
could
council
count
counter
counties
countries
country
countrysangari
countryto
county
course
court
cover
covid
cowboy
cowboyar
cowboys
cox
cpfc
cph
cr
craig
crane
crash
craven
crawford
crazy
cre
created
creators
credits
cree
creek
cremona
crew
cricket
crime
crimes
criminal
crisis
cristiano
cristina
crite
criterium
critical
critics
cro
croatia
croce
crockett
crocodilia
croix
cromwell
cross
crowe
crown
cru
cruise
crusher
cruyff
cruz
cry
crystal
crystalacids
cs
csf
ct
ctd
ctitle
cu
culinary
cult
cultura
cultural
culture
cumberland
cummings
cuneo
cup
curac
curie
currency
current
currently
curtis
cut
cutfather
cycling
cyclingarchives
cyclingnews
cyclingweekly
cycliste
cykelmagasinet
cymru
cynthia
cyp
cyprus
cyrus
cz
czech
cæsar
d
da
dab
dad
daddy
dadlur
dag
daga
dagar
dagarnar
dagarnir
dagblad
dagbladet
dagblaðið
dagblaðnum
dagbo
dagen
dagens
dagf
dagfest
dagfinn
dagfinnur
dagførd
dagføring
dagført
dagin
dagliga
dagligari
dagligt
dagligum
dagligur
dagmar
dagny
dags
dagsins
dagsskra
dagur
dagurin
dahl
dahle
daily
dailymail
daisy
dakar
dakota
dal
dala
dalabyggð
dalai
dalar
dalarnar
dalarnas
dalarnir
dalasy
dale
dali
dalin
dalinum
dallas
dalry
dals
dalsa
dalsbæk
dalsgaard
dalsgarð
dalton
dalur
dalurin
dalvi
dam
damaskus
dame
damer
dami
damm
dan
dana
dananum
dance
dancing
dane
dangah
dangerous
dani
daniel
daniella
danielle
danielsen
danielsens
danielsson
danimark
danin
danir
danish
danishcharts
danjal
danmark
danmarkar
danmarks
danmarksmeistari
danmørk
danne
dannebrog
danny
dans
dansa
dansandi
dansari
dansarinna
dansað
dansaðu
danse
dansi
dansifelag
dansifelagið
dansin
dansinum
dansk
danska
danskan
danskar
danskari
danske
danski
danskir
danskt
danskur
dansur
dansurin
dante
daphne
dar
darfur
dario
dark
darkness
darling
darnley
daron
darwin
daryl
das
dat
data
database
date
dates
dato
datt
datter
daughter
dauphine
dave
davi
david
davidsen
davidson
davis
davy
dawkins
dawn
dawson
day
days
daði
db
dbu
dc
dd
dda
ddar
ddi
ddin
ddini
ddir
ddist
ddk
ddr
ddu
ddum
ddur
ddust
de
dea
dead
deadly
deadmau
deal
dean
death
deaths
debate
debbie
debes
debess
deborah
debrah
debrecen
debut
dec
decade
decca
december
decide
decision
declaration
declares
dee
deep
deer
def
default
defeat
defence
defender
defense
defined
definera
definerað
definitio
deg
degerfors
degi
degli
degnum
dehli
dei
deiggj
deignan
deila
deild
deildarleiðari
deildarstjo
deildin
deildina
deildini
deildir
deildirnar
deildum
deilir
deilstatinum
deilt
dekk
del
delaware
delblanc
delfi
delhi
dell
della
delle
dello
delos
delta
dem
demmus
demo
democracy
democratic
democratico
demographia
demographic
demoitie
demokraatit
demokrat
demokratar
demokratarnir
demokrati
demokratia
demokratiska
demokratiski
demokratiskt
demokratunum
demon
dempsey
den
denali
denis
denmark
denne
dennis
denstoredanske
dent
dentur
denver
denyer
department
depil
depilin
depli
deplinum
deprecated
der
derek
deres
derhamns
derko
dermanlands
derta
des
desantis
descartes
description
desejo
desember
desembur
desert
desho
desi
design
desimaltøl
desmond
despite
destination
det
detail
detailed
details
detailview
detroit
detta
dette
dettur
deutsch
deutsche
deutschen
deutscher
deutsches
deutschland
deux
devecerski
development
devil
devon
dewey
deyð
deyða
deyðadag
deyðado
deyðadømd
deyðan
deyðans
deyðarevsing
deyði
deyðilig
deyðiliga
deyðin
deyðir
deyðis
deyðshja
deyðu
deyðum
deyður
deð
df
dfb
dfra
dhabi
dhf
dhs
di
dia
diabetes
diabo
dialekt
dialektin
dialektir
diamantar
diamantum
diametur
diamond
diamonds
diana
diane
diary
dias
dick
dickens
dickinson
dictionary
dicuil
did
diderik
dideriksen
didier
dido
didriksen
die
died
diego
dies
dietrich
dif
difference
different
dig
diggi
digital
digte
dijk
dik
dikt
dikter
dimension
dimensions
dimm
dimma
dimmalætting
dimmari
dimmbru
dimmgra
dimmum
dimmur
dimt
din
dina
dinamo
dine
ding
dinge
dingsdag
dino
dinosaurar
dio
dion
diplomatur
direct
directeur
direction
director
directory
dirigentur
dirty
dirvi
disco
discography
discogs
discovery
dism
disney
disneychannelmedianet
disneyland
display
displaystyle
distance
distribution
district
districts
distrikt
ditalia
dith
divas
divaz
divers
divertimento
division
divisions
divo
dixon
diz
dizzy
dj
djengis
djevulin
djibuti
djo
djokovic
dju
djurga
djurholm
djurhuus
dk
dkk
dleyp
dliga
dm
dmitri
dmitry
dmty
dmtyzmde
dn
dna
dnarveður
dnað
dnaðar
dnaðarby
dnaðarkollveltingin
dnaðarland
dnaðarlond
dnaðarlondini
dnaðarlondum
dnaðarlondunum
dnaðarma
dnaðarmaður
dnaðarvirki
dnaðarvirkir
dnaðarvørur
dnaði
dnaðin
dnaðinum
dnaður
dnaðurin
dni
dnin
dnina
dning
dningar
dningarmesta
dningarmesti
dningarmestu
dningarmikil
dningarmikið
dningarmikla
dningarmiklan
dningarmiklar
dningarmiklastu
dningarmiklir
dningarmiklu
dningi
dningin
dningur
dningurin
dnini
dnir
dnirnar
dnum
do
dobro
doc
docid
docs
doctor
document
documentary
documentation
documents
dodekanes
dodoma
doe
doed
does
dog
dogg
doha
doi
doing
dois
doktararitgerð
doktari
doktor
dokumentar
dokumentarfilmar
dokumentarfilmur
dokumentarurin
dolce
dole
dollarar
dollari
dollin
dolls
dolly
dolmans
dolmayan
dolores
dom
domain
domenico
domestic
domesticus
dominerandi
domingo
dominika
dominikanaly
dominikanska
domino
don
dona
donald
donaldson
donau
done
donegal
donetsk
dong
donkey
donna
donny
donsk
donsku
donskum
doo
door
doors
doping
dorado
dorete
doris
dorotea
dorothea
dorrit
dorset
dorthe
dortmund
dos
dostojevskij
dotter
dottin
double
doubles
doubt
doug
douglas
douwe
dove
dover
down
download
downloads
doyggja
doyggjandi
doyle
doypa
doypt
doyptur
doyr
doyði
doyðu
dozens
dp
dq
dr
dra
dracula
draga
dragast
dragon
drake
drakk
drama
dramatic
dramatikari
dramaverkstaðið
drammen
drangar
drangedal
drap
drapac
draw
draws
dre
dream
dreams
dreamworks
dregur
dreijer
dreingir
dreingirnir
dreingjabo
dreingjum
drekan
drekar
drekin
drekka
drekkivatn
drekkur
drelnesi
drepa
drepur
dresden
dress
drew
dreymaland
dreymar
dreymi
dreymin
dreymso
dreymum
dreymur
dreymurin
dri
dries
drigin
drigið
drignir
dripin
dripið
dripnir
dripnu
drive
driver
driving
dro
drog
drogheda
drone
drones
drong
drongur
drongurin
dronning
drop
dropadrivið
drops
drotning
drotningin
droymdi
droymt
dru
drukkið
drukku
drukna
druknaði
drums
drunnhvi
drupu
dry
drykkur
drøm
ds
dss
dtil
du
duarte
dub
dubai
dublin
dubliners
dubuffet
duchamp
duck
due
duel
duet
duett
duga
dugdi
dugdu
dugir
dugna
dugnalig
dugnaligir
dugnaligur
dugni
duke
dukka
dukkan
dukkuheim
dukkuna
dukkuni
dukkunum
dukkur
dukkurnar
dulnevninum
dult
dum
dumas
dumbo
dumoulin
duna
duncan
dundalk
dunna
dunnald
dunnaldi
dunnaldur
dunnerdag
dunnu
dunnur
dunnuvi
dunst
duo
dupult
dur
durham
durhuus
during
durita
durunum
dust
dustsu
dutch
duttu
duty
duvalier
duvall
dvala
dvd
dvi
dvørgagongustjørnan
dvørgarnir
dw
dwelling
dwight
dy
dybkjær
dygd
dygdir
dyggiliga
dyggur
dying
dylan
dyr
dyrka
dyrkar
dyrkað
dyrkaðar
dyrkaðu
dyrkilendi
dyrnar
dyst
dysti
dystin
dystinum
dystir
dystirnar
dystirnir
dystum
dystunum
dystur
dysturin
dz
dælt
død
døde
døden
døgg
døgn
døgum
døgunum
døgurða
dølum
dølunum
døma
dømandi
dømast
dømd
dømdi
dømdir
dømdur
dømi
dømini
dømir
dømis
dømið
dømt
dønum
døtrar
døtur
døturnar
e
ea
each
eagle
eagles
ean
earhart
earl
early
earth
easp
east
easter
eastern
eastwood
easy
eat
eb
ebba
ebbe
ebbu
ebchecked
ebenezer
ebs
ebu
ec
ece
economic
economics
economist
economy
ed
eda
edda
eddie
eddu
eddy
eden
edenbridge
edgar
edge
edinborg
edinburgh
edirne
edison
edit
edith
edition
editor
edmonton
edmund
edmundi
edmundsson
edna
edo
eds
edson
edu
eduard
eduardo
educac
education
edva
edvald
edvard
edward
edwin
ee
eec
een
eesti
ef
efesus
efesusbrævið
effect
effersøe
effo
effodeildin
effodeildini
efl
efta
efter
eftf
eftir
eftirfylgjari
eftirkomarar
eftirkomari
eftirkomarum
eftirli
eftirlit
eftirliti
eftirlitið
eftirlitstal
eftirly
eftirløn
eftirmaður
eftirnavn
eftirnavninum
eftirnavnið
eftirnøvn
eftirsku
eftirspurning
eftirspurningur
eftirspurningurin
eftirsum
eftur
eg
egearahavinum
egede
egg
eggen
eggert
eggina
eggini
eggið
eggja
eggjahvi
eggjar
eggjarnar
eggjaskal
eggjað
eggjaði
eggjaðu
eggjunum
eggvaksin
egholm
egi
egidio
egil
egill
egilstoft
egilstrøð
egin
egina
eginleikar
egið
egna
egnan
egnar
egnari
egnað
egner
egnu
egnum
ego
egon
egvad
egypt
egyptaland
egyptalandi
egyptalands
egyptar
egyptian
egyptiska
egyptisku
egyptiskur
ehf
ei
eide
eidesgaard
eiffel
eiffeltornið
eiga
eigara
eigaranum
eigarar
eigararnir
eigari
eigarin
eigarunum
eight
eigi
eigur
eiheldur
eik
eileen
eiler
eilif
eimskip
ein
eina
einabu
einaferð
einahandil
einahandilin
einahandlinum
einamest
einans
einar
einari
einars
einarsson
einarætt
einaræði
einaræðisharri
einaræðisharrin
einasta
einastandandi
einasti
einastu
einaudi
einaveldi
eind
eindags
eindhoven
eindin
eindina
eindini
eindir
eindirnar
eindum
eine
eineias
eineiasar
eineiasi
eineiuni
einer
einfalda
einfaldar
einfalt
eingi
eingil
eingilin
eingilskum
eingin
eingir
einglar
einhvør
eini
einir
einkarætt
einki
einkja
einkult
einkultstart
einkultstarti
einleikari
einmansleiki
einmansleikur
einmælt
einn
einræðisharri
eins
einsamallar
einsamallur
einsamalt
einsamøll
einsemi
einstaka
einstakan
einstakar
einstakir
einstaklingakappingum
einstaklingar
einstaklingin
einstaklingsvirki
einstaklingum
einstaklingur
einstakt
einstakur
einstein
einstøk
einstøku
einstøkum
eintakið
eintal
eintali
eintracht
eintøk
eintøkum
einu
einum
einvi
eirargarður
eirik
eiriksfoss
eirikur
eisenhower
eisini
eisni
eit
eita
eitrandi
eitt
eittans
eitthvørt
eitur
eiturkoppur
eivin
eivind
eivør
eið
eiði
eiðinum
eiðis
eiðisvatn
eiðið
eiður
ej
ejc
ejdesgaard
ejm
ek
ekberg
ekero
eksakt
eksem
eksil
eksjo
ekstra
ekstrabladet
ektað
ekvador
ekvator
ekvatorguinea
el
elas
elba
elbe
eld
eldar
eldgos
eldgosini
eldi
eldin
eldinum
eldra
eldri
eldru
eldsa
eldsbruna
eldur
eldurin
elduvi
eldvatn
eleanor
elected
election
elections
electric
electro
electronica
elektrisitet
elektrisitetsverkið
elektrisitetverkið
elektriska
elektro
elektron
element
elements
elena
elephant
elfelagið
elfsborg
elgar
elgur
eli
elia
elias
eliasen
elin
elina
elinborg
elini
eliot
elis
elisabet
elisabeth
elite
elitusvimjari
elizabeth
ella
elle
ellefsen
ellemann
ellen
eller
elli
elligomul
ellingsgaard
ellington
elliot
ellis
ellisakfør
ellivu
elmegi
elnur
elo
eloratings
elsa
else
elsebeth
elska
elskar
elskarinna
elskaði
elsker
elski
elspa
elsta
elsti
elstu
elstur
elsu
elta
eltir
elton
elttør
elva
elvdi
elvdu
elverk
elverkið
elvir
elvis
elvt
em
emanuel
emberiza
embla
embæti
embætinum
embætisfo
embætismaður
embætismenn
embætispro
embætið
emerge
emergency
emerging
emerson
emi
emil
emile
emili
emilia
emiliano
emilie
emily
eminem
emirates
emiratunum
emirri
emma
emmaboda
emmanuel
emmaus
emmelie
emmy
emmylou
emperor
empetrum
empire
empires
en
enakter
encyclopedia
encyclopædia
end
enda
endalig
endaliga
endaligi
endaligt
endaligu
endama
endan
endans
endanum
endar
endaspælinum
endaspælið
endaumfarið
endað
endaði
endaðu
ende
endi
endiliga
endin
ending
endingina
endingini
ends
endurgivin
endurgjald
endurminningar
endurny
endurprentað
endurreisa
endurreist
endurskoðan
endurskoðað
endurstovnað
endurtaka
endurto
enduru
endurvaldur
endurvann
endurvi
enekk
energi
energy
eng
engberg
engel
engels
engelsk
engineer
engineering
england
englandi
english
engskt
enhedslisten
enid
eniro
enko
enn
enni
enniberg
ennihvi
ennio
ennið
ennta
enok
enough
enrico
enrique
ensk
enska
enskar
enskari
enski
enskir
enskt
ensku
enskum
enskur
ent
enter
enterprise
entertainment
entry
environment
environmental
environnement
enya
ep
epiktetos
epilobium
epiros
episo
episode
episodes
epli
eplir
equipment
equisetum
er
era
erase
ergometertider
erhard
eri
eric
erica
erich
erichsen
erie
erievatn
erievatni
erik
eriksen
eriksson
erin
erindring
erindringer
eritrea
erkibiskupur
erkihertuginna
erla
erland
erlend
erlendi
erlendur
erling
erlingsdo
erna
erne
ernest
ernie
ernst
ero
eros
ert
eru
erva
erwin
es
esa
esaias
esbern
esbjerg
esc
escape
esctoday
escu
eskifjo
eskilstuna
eskimoar
eslo
esmar
espan
especial
espen
esperanto
espi
espn
espnfc
ess
essay
essays
essential
essex
essunga
est
esta
estado
estaing
estas
estelle
ester
esther
estiano
estimates
estiska
estiskt
estland
estlandi
estonia
estonian
estrela
et
eta
etandi
etape
etc
eternal
eternity
ethnic
ethnologue
etin
etiopia
etixx
etið
etna
etniskar
etniskum
ett
etta
etter
ettler
etur
eu
euge
eugene
euklid
eunice
euripides
euro
euronews
europa
europcar
europe
european
europeans
europeiska
europæiske
eurosport
eurostat
eurovision
euskadi
euskaltel
eustatius
ev
eva
evan
evangeliini
evangeliinum
evangeliið
evangelisk
evangelistarnir
evangelium
evangeliunum
evans
eve
even
evening
evensen
event
eventid
events
ever
everest
everett
everglades
everton
evertonfc
every
everybody
everything
evi
evic
evidence
evil
evje
evna
evnafrøði
evnafrøðilig
evnafrøðiliga
evnafrøðiligum
evnafrøðingur
evnafrøðingurin
evnari
evnasambinding
evnað
evni
evnini
evnir
evnið
evnum
evolution
evra
evrasia
evropa
evropara
evropasamveldinum
evropasamveldið
evropatinginum
evropear
evropearar
evropeararnir
evropearin
evropearum
evropeisk
evropeiska
evropeiskar
evropeiskari
evropeiski
evropeiskir
evropeiskt
evropeisku
evropeiskum
evropu
evruna
evrur
evstu
evu
evvia
ewa
ex
exam
example
examples
exchange
exclusive
executive
exeter
exhibition
exit
expanded
expedition
experiment
experimental
explained
exploration
explorer
explosion
explosions
expo
export
express
expressen
extend
extended
extra
exxon
ey
eydna
eydnan
eydnast
eydnaðist
eydnu
eydnuna
eye
eyes
eyga
eyganum
eygað
eygleiða
eygleiðarar
eygleiðarastøðu
eygsjo
eygu
eygum
eyguni
eygunum
eygur
eyja
eyjafjarðarsveit
eyjafjarðarsy
eyka
eykaja
eykalimur
eyknevndur
eyknevni
eyknevnið
eyrith
eyrur
eystan
eystanfyri
eystani
eystanstevna
eystantil
eystara
eystarasalt
eystarasalti
eystari
eystarlaga
eystaru
eystasta
eystra
eystrasalt
eystrasalti
eystri
eystrum
eystur
eystura
eysturafrika
eysturdal
eystureftir
eysturevropa
eysturgrønlandi
eysturi
eysturikskur
eysturkommuna
eysturkommunu
eysturlandinum
eysturoy
eysturoyar
eysturoyartunnilin
eysturoynna
eysturoynni
eysturpakistan
eysturri
eysturro
eystursi
eystursjo
eystursku
eysturstein
eysturstrond
eysturstrondina
eysturstrondini
eysturtimor
eysturty
eyvindur
eyð
eyðbjørn
eyðfinn
eyðfinnsdo
eyðgunn
eyðkend
eyðkenda
eyðkendi
eyðkendu
eyðkendur
eyðkenna
eyðkenni
eyðkennir
eyðkent
eyðkvæmi
eyðmerkja
eyðmy
eyðna
eyðsy
eyðsæð
eyðun
eyðunsdo
eyðvør
ezekiel
ezekielsbo
ezra
eða
eðlan
eðlur
f
fa
faa
fabian
fabio
fablab
fable
fabricius
face
facebook
facebooksi
faces
fact
factbook
factfinder
facto
factor
factory
facts
factsheet
faer
faeroensis
fagerholm
fagersta
fagforening
fagna
fagnað
fagnaði
fagnaður
fagra
fagrar
fagrarbo
fagri
fagundes
fagurbo
fagurt
fahrenheit
fair
faith
faits
fakfelag
fakfelagið
fakfeløg
fakfeløgini
fakliga
fakta
fakultet
falck
falco
fald
falda
faldari
faldað
faldur
falk
falkenberg
falkenbergs
falklandsoyggjar
falko
falkur
fall
falla
fallen
falli
fallin
falling
fallinum
fallið
falls
falløks
false
falster
falt
falu
famagusta
fame
fami
familja
familjan
familju
familjufyritøkuni
familjum
familjuna
familjuni
familjur
family
famous
fan
fanga
fangahu
fangalegan
fangaleguna
fangar
fangarnir
fangað
fangaðu
fangaður
fangi
fangilsi
fangin
fangum
fangunum
fani
fann
fannir
fans
fanst
fantasia
fantastic
fantasy
fantini
fanø
fao
faostat
faqs
far
fara
faraday
farar
farast
farbro
farc
fargo
fari
farin
faringaravtalu
farið
farleið
farligt
farlit
farloyvi
farm
farmaskip
farmaskipum
farmer
farmi
farming
farnar
farnir
farnu
faroe
faroeartstamps
faroeislands
faroejet
faroenature
faroes
faroese
faroesoccer
faroestamps
farso
fart
fartelefon
fartelefonin
fartelefonir
fartelefonum
farum
farvæl
fashanu
fashion
faso
fast
fasta
fastan
fastar
fastari
fastbu
fasti
fastir
fastlandinum
fastur
fat
fata
fatah
fatal
fatan
fatar
fatað
fate
father
fatur
fatwa
faust
fausto
faustulos
favn
favnar
favorite
fawcett
faðir
faðirin
faðirs
fb
fbf
fbi
fc
fck
fcn
fcsuduroy
fd
fdj
fe
fear
feat
feature
features
featuring
feb
februar
february
federal
federation
federer
federico
feel
feeling
feet
fegin
fegnast
fegnir
feilur
feira
feit
feitari
feitt
feitti
feitum
feitur
fekk
fekst
felag
felagi
felagið
felagnum
felags
felagsheiti
felagsheitið
felagshu
felagsins
felagskapinum
felagskapur
felagskapurin
felagsma
felagsmarknaðin
felagsskap
felagsskapi
felagsskapin
felagsskapinum
felagsskapir
felagsskapirnir
felagsskapum
felagsskapur
felagsskapurin
feld
feldi
feldur
felipe
felix
fell
fella
felli
fellow
fellowship
fellur
feltet
feløg
feløgini
feløgum
feløgunum
fem
female
femme
femmes
femminile
fenað
fenaður
fenerbahc
fer
ferdinand
ferenc
ferguson
feriu
ferjan
ferjulegan
ferjur
ferjusamband
ferkilometrar
ferkilometur
fermetrar
fermi
ferna
fernanda
fernando
fert
ferð
ferðafo
ferðafra
ferðama
ferðamannaby
ferðamannama
ferðamannaskip
ferðandi
ferðara
ferðasamband
ferðasambandið
ferðast
ferðavinna
ferðavinnan
ferðavinnu
ferðavinnuby
ferðavinnuma
ferðavinnuna
ferðavinnuni
ferðaðist
ferðaðust
ferðin
ferðina
ferðing
ferðini
ferðir
ferðirnar
ferðslan
ferðslu
ferðsluni
ferðsluvanlukku
ferðum
feskt
feskum
fest
festa
festi
festir
festirstein
festival
festivalin
festivalinum
festivalum
festivalur
festivalurin
festið
festu
fet
fetlar
fever
fevna
fevnd
fevndar
fevndi
fevnir
fevnt
feyk
feynman
feðgar
ff
ffffffffffff
ffffffffffffff
ffle
fh
fi
fianna
ficedula
fiction
fide
fidel
fidjioyggjar
field
fields
fif
fifa
fifth
fight
fighter
fighters
fighting
figurbo
figures
figurur
fiji
fil
file
filed
filemonsbrævið
files
filip
filipinskur
filippi
filippinunum
filipsoyggjar
filipsoyggjum
filipsoyggjunum
filipstad
filipstads
film
filma
filmar
filmarnar
filmarnir
filmatiserað
filme
filmen
filmfestival
filmfestivalinum
filmframleiðari
filmi
filmin
filminum
filmleikstjo
filmreference
films
filmsbrot
filmsbrotið
filmsfelagið
filmsfo
filmsframleiðari
filmsi
filmsleikari
filmsleikstjo
filmslist
filmsrøðini
filmssku
filmsto
filmsvirðisløn
filmsvirðislønina
filmtage
filmum
filmunum
filmur
filmurin
filmvirðisløn
filosofi
filosofur
fimleikahøllin
fimleiki
fimm
fimmti
fimmtia
fimt
fimta
fimtan
fimtapla
fimti
fimtingur
fimtingurin
fimtstørsta
fimtstørsti
fimtu
fin
fina
final
finala
finalan
finalen
finaler
finalistur
finally
finals
finalu
finalum
finaluna
finaluni
finalupla
finalur
finalurnar
financial
find
finding
fine
finger
fingid
fingin
fingist
fingið
fingnar
fingu
fingur
fingust
fink
finland
finlandi
finn
finna
finnan
finnar
finnast
finnbogado
finnbogi
finni
finnist
finnland
finnlandi
finnlands
finnmark
finnur
finsen
finsens
finsk
finska
finskt
finskum
finskur
finspa
finst
fiona
fire
firefox
firense
firenze
firouz
first
firvald
firvaldar
firvaldur
firði
firðinum
firðir
firðirnar
firðum
fischer
fish
fisher
fisheries
fisherman
fisk
fiska
fiskaaling
fiskar
fiskasløg
fiskau
fiskað
fiskaði
fiskaðu
fiskepigernes
fiski
fiskieiði
fiskieiðinum
fiskifør
fiskii
fiskima
fiskimannafelag
fiskimarkið
fiskimaður
fiskimenn
fiskin
fiskinum
fiskiskap
fiskiskapi
fiskiskapur
fiskiskapurin
fiskiskip
fiskiskipum
fiskivinna
fiskivinnan
fiskivinnu
fiskivinnuma
fiskivinnuna
fiskivinnuni
fiskivinnusku
fiskivinnutjo
fiskiørn
fiskur
fiskurin
fist
fit
fita
fiti
fitjur
fitness
fitt
fitzgerald
five
fixtures
fja
fjala
fjald
fjaldi
fjaldu
fjaldur
fjalir
fjall
fjalla
fjallabyggð
fjallaklintrari
fjallaland
fjallalendi
fjallalendinum
fjallalendið
fjallali
fjallarevur
fjallari
fjallaryggir
fjallaryggur
fjallarøð
fjallarøðini
fjallarøðir
fjallasi
fjallasu
fjallatind
fjallatindar
fjallavatn
fjalli
fjallinum
fjallið
fjallva
fjals
fjalt
fjareystri
fjarskotin
fjarskotnu
fjarskotnum
fjart
fjarðabyggð
fjarðastevnu
fjaðrar
fjaðrarnar
fjeldsted
fjepparar
fjepparum
fjo
fjodor
fjord
fjordane
fjords
fju
fjølbroytni
fjølbroytt
fjølbroytta
fjølbroyttar
fjølbroyttari
fjølbroyttum
fjølbroyttur
fjølbygdasta
fjølbygdastu
fjøld
fjøldin
fjølgast
fjøll
fjøllini
fjøllum
fjøllunum
fjølmiðlar
fjølmiðlarnar
fjølmiðlarnir
fjølmiðlum
fjølmiðlunum
fjølta
fjør
fjøru
fjøruku
fjøruni
fjøruti
fjørð
fjørðin
fjørðinum
fjørður
fjørðurin
fjøður
fk
fkbanga
fl
fla
flag
flagg
flagga
flaggdagur
flaggi
flagginum
flaggið
flakavirki
flakavirkið
flakkfo
flakum
flamengo
flamma
flandern
flanders
flash
flata
flatt
flayout
flb
fle
fleir
fleira
fleiri
fleiristaðni
fleirtal
fleirtali
fleirtjo
flekk
flekkefjord
flekkut
fleming
flemming
flenna
flensborg
flensburg
flere
fleri
flertalsregering
flesjarnar
flest
flestar
flestir
flestu
flestum
flestøll
fletcher
fletta
fletting
flevoland
fleyg
fleyga
fleyr
fleyt
fli
flickr
flid
flight
fljo
flo
floe
flog
flogbo
flogfar
flogfari
flogfarinum
flogfarið
flogfelag
flogfelagið
flogferð
flogferðslu
flogfør
flogførini
flogførum
floghavn
floghavnin
floghavnina
floghavnini
floghetja
flogi
flogið
flogmu
flogmy
flognum
flogsamband
flogskipari
flogskiparin
flogva
flogvanlukku
flogvøll
flogvøllin
flogvøllinum
flogvøllir
flogvøllur
flogvøllurin
flokk
flokkar
flokkarnar
flokkarnir
flokkast
flokkað
flokki
flokkin
flokkinum
flokkum
flokkunum
flokkur
flokkurin
floks
floksformaður
floksins
floksleiðari
floksmenn
floksmenninar
floksmenninir
floksmonnunum
floor
floors
flora
florence
florey
florian
florida
flot
flota
flotan
flotanum
floti
flotin
flotoyggj
flower
flowers
floyd
floygd
floygdir
floyta
floytu
flu
flugu
flugur
flutning
flutningi
flutningur
flutt
fluttar
flutti
fluttir
fluttu
fluttur
fly
flying
flykrur
flynn
flyta
flytast
flytifo
flytifuglur
flyting
flytir
flytur
fløga
fløgan
fløgg
fløggum
fløggunum
fløgu
fløgum
fløguna
fløguni
fløgur
fløgurnar
fløguu
fløtan
fløtti
fløtum
fløtuni
fløtunum
fløtur
fløturnar
fløða
fløðir
fm
fma
fmenuid
fmn
fn
fo
fob
fobi
focus
fodbold
foeroyar
fogh
fokus
fold
foldarskarð
foldum
folk
folkaflokkurin
folkakirkjan
folkeparti
folkesagn
folketinget
folkeviser
folkma
following
fonda
fong
fongi
fongin
fongslaður
fongsli
fongslinum
fongsul
fongsulsrevsing
fonseca
fontaine
foo
food
foot
football
footballer
footballers
footnote
footnotes
for
forberg
forbergið
forbes
forbjo
forboð
forboðin
forboðið
forbund
force
forces
ford
fordo
foreign
foreignpolicy
foreldraleys
foreldranna
foreldrini
foreldrum
foreldrunum
foreldur
forelskaður
forest
forever
forfatter
forfedrar
forfylging
forget
forkirkjuni
forkla
forks
forkvinna
forkvinnu
forlag
forlaget
forlagi
forlagið
forlagnum
form
forma
formand
formann
formanni
formannin
formanssessin
formar
format
formation
formaður
formaðurin
formel
formelt
former
formi
formilin
formin
formliga
forms
formula
formuladeildin
formur
formurin
forn
forna
fornaldar
fornar
fornari
fornavn
fornenskt
fornfrøði
fornfrøðiligar
fornfrøðingar
fornfrøðingur
forngrikskum
forni
fornminni
fornminnissavn
fornminnissavni
fornminnum
fornnorrønt
fornnorrønum
fornnorskt
fornu
fornum
fornur
fornøld
fornøldini
fororð
foroya
foroyar
foroyskt
foroyskur
forrit
forritið
forsangari
forsangarin
forseta
forsetafru
forsetan
forsetanum
forsetar
forsetarnar
forsetaval
forsetavalevni
forsetavalinum
forsetavalið
forseti
forsetin
forsetisma
forsetisra
forshaga
forsi
forskning
forsku
forstaðir
forstaður
forstjo
forstøðum
forsvarandi
forsvik
forsviks
forsætisma
forsætisra
forsøg
fort
fortaldi
fortalt
fortelja
fortelur
forti
fortreytir
fortune
fortuneo
fortuyn
fortæller
fortællinger
forum
forward
forða
forðar
forðað
forðaði
forðing
forðingar
forðum
foss
fossa
fossar
fossarnir
fossinum
fossur
fossurin
foster
fostrið
fosturs
fosturtøku
fotatradk
fotball
fotbo
fotboltsleikari
fotografur
foula
found
foundation
fountain
four
fourth
fox
foxnews
fr
fra
frac
fractura
frakland
fraklandi
fraklands
fraklendingar
fraklendingurin
fram
frama
framat
framborið
framburð
framburði
framburðin
framburðsflokkinum
framburðsflokkurin
framburður
framburðurin
framd
framdar
framdi
framdu
framdur
frame
frameftir
framfari
framferðarha
framføra
framførdi
framførdu
framførdur
framførir
framførsla
framførslan
framførslu
framførslum
framførsluna
framførslur
framførslurnar
framført
framgongd
framhald
framhaldandi
framhaldsdeildina
framhaldsdeildini
framhaldsfilmur
framhaldssku
frami
framkomin
framkomið
framkomna
framleidd
framleiddar
framleiddi
framleiddir
framleiddu
framleiddur
framleitt
framleiða
framleiðarar
framleiðari
framleiðast
framleiðir
framleiðsla
framleiðslan
framleiðslu
framleiðsluna
framleiðsluni
framleiðsluto
framm
framman
frammanfyri
frammanundan
frammi
framso
framsokn
framstandandi
framstig
framsy
framsøkin
framt
framtak
framtakið
framti
framu
framum
framvegis
framvið
framyvir
franc
franca
france
frances
francesco
francis
francisco
franco
frank
frankari
frankenstein
frankfort
frankfurt
frankie
frankiska
franklin
frankrig
frans
fransaterna
fransk
franska
franskar
franskari
franski
franskir
franskt
franskur
fransmenn
frants
frantz
franz
fraser
fraserburgh
fratercula
fre
fred
fredag
freddie
freddy
fredericia
frederick
frederik
frederikke
frederiksberg
frederiksborg
frederiksen
frederikshavn
fredrik
fredriksen
free
freebassel
freedag
freedom
freelance
freeman
freestyle
fregðegævar
frei
freiburg
freja
frelsa
frelsari
frem
fremad
fremja
fremjast
fremmand
fremmanda
fremmandaorð
fremmandar
fremmandir
fremmandum
fremmant
fremra
fremri
fremst
fremsta
fremsti
fremstu
fremstur
fremur
french
freud
fri
frid
frida
friday
fridinator
fridtjof
friedrich
friend
friendlies
friendly
friends
friesland
frigg
friis
frisch
frisvømning
fritid
frits
fritz
frið
friða
friðaravtala
friðaravtalu
friðarbogin
friðarheiðursløn
friðarheiðurslønina
friðarlig
friðarliga
friðarligari
friðarligt
friðarsa
friðarsamra
friðarti
friðað
friðaður
friði
friðin
friðinum
friðskjo
friður
friðurin
fro
froland
from
fronsk
fronsku
fronskum
front
frontier
froome
froskar
froskmannafelag
frost
frostmarkið
frostmy
frostro
frozen
froðba
froðbiar
frp
fru
frukt
fruktabesta
fruktago
fruktagott
fruktar
fruktin
fruktir
fruktirnar
frum
frumeintakinum
frumevni
frumevnini
frumevnið
frumframførdur
frumframført
frumma
frummongd
frumsko
frumsy
frumtøl
frunt
fry
fryst
frysta
frystipunktið
frystir
frystum
frystur
fræ
fræini
fræið
fræls
frælsa
frælsan
frælsari
frælsi
frælsir
frælsiskri
frælsisstri
frælsisyvirly
frælsið
frælst
frælsum
frælsur
frændum
frændur
frænir
frætt
frætta
frætti
frættist
frøi
frøði
frøðiheiti
fs
fsf
ft
ftemplates
ftp
fu
fuci
fuel
fugl
fugla
fuglabjørg
fuglabjørgini
fuglabjørgunum
fuglabo
fuglafirði
fuglafjarðar
fuglafjordur
fuglafjørð
fuglafjørður
fuglaframi
fuglakvæðið
fuglali
fuglar
fuglarnir
fuglasløg
fugli
fuglin
fugloy
fugloyar
fugloyggin
fugloynni
fuglsang
fuglum
fuglur
fuglurin
fuglø
fulaniar
fulham
full
fulla
fullan
fullar
fullari
fullcast
fullfi
fullgo
fullkomiliga
fullkomin
fullkomið
fullkomna
fullma
fullt
fulltext
fullti
fulltime
fulltru
fullu
fullum
fullur
fullvaksin
fullveldi
fullveldisri
fullveldið
fulnar
fult
fun
fund
fundar
fundi
fundin
funding
fundinum
fundir
fundland
fundlandi
fundum
fundur
fundurin
funeral
funk
funksjo
funktio
funnar
funnin
funning
funningi
funnings
funningsfirði
funningsfjørður
funningur
funnir
funnist
funnið
funnu
funnust
funny
fur
fura
furaca
further
fury
fut
futbol
futbolo
futebol
futuna
futunaoyggjar
future
fven
fwc
fy
fyen
fyi
fylgdi
fylgdu
fylgi
fylgir
fylgisvein
fylgisveinar
fylgið
fylgja
fylgjandi
fylgjast
fylgjum
fylgt
fylke
fylki
fylkinum
fylkið
fylla
fyllir
fyllu
fylt
fyltar
fylti
fyn
fyns
fyr
fyri
fyribils
fyribilsstjo
fyribrigdi
fyribyrging
fyribyrgja
fyribyrgjandi
fyribyrgjast
fyrifallandi
fyrigeving
fyrilestrar
fyrilestur
fyrilit
fyrimun
fyrimunir
fyrimunur
fyrimynd
fyrimyndin
fyrimyndina
fyrimyndir
fyrir
fyrireika
fyrireikað
fyrireiking
fyriseting
fyrisetingar
fyrisiting
fyrisitingarlig
fyrisitingarliga
fyrisitingarligt
fyrisitingarligu
fyrisitingarligum
fyrisitingarligur
fyrisitingarlo
fyrisitingin
fyrisitingina
fyrisitingini
fyriskipa
fyriskipan
fyriskipanir
fyriskipar
fyriskipari
fyriskipað
fyriskipaði
fyristøðumaður
fyritøka
fyritøkan
fyritøku
fyritøkum
fyritøkuna
fyritøkuni
fyritøkunum
fyritøkur
fyrivarni
fyrndini
fyrr
fyrra
fyrrenn
fyrri
fyrru
fyrrv
fyrrverandi
fyrst
fyrsta
fyrstan
fyrstani
fyrstapla
fyrsti
fyrstir
fyrstu
fyrstuni
fyrstur
fysiologi
fysta
fystu
fæ
fæið
fær
færeyinga
færingetidende
færoa
færoense
færoæ
færri
fært
færø
færøe
færøerne
færøernes
færøsk
færøske
færøysk
fæst
fðahreppur
fø
fødd
føddi
føddir
føddur
født
føgruli
føldi
følir
føll
føllum
følv
før
føra
førandi
førarin
førast
førd
førdi
førdir
førdu
førdur
føri
føringafelag
føringati
førinum
førir
førleika
førleikar
føroya
føroyabanka
føroyaflokkurin
føroyahu
føroyalandi
føroyama
føroyameistaraheiti
føroyameistaraheitið
føroyameistarar
føroyameistari
føroyar
føroyinga
føroyingafelag
føroyingar
føroyingarnir
føroyingasøga
føroyingasøgu
føroyingi
føroyingum
føroyingur
føroyingurin
føroysk
føroyska
føroyskan
føroyskar
føroyskari
føroyski
føroyskir
føroyskra
føroyskt
føroysku
føroyskum
føroyskur
føroyum
først
første
ført
førum
førur
føst
føstu
føstufressar
føstum
føti
føtt
føtur
føturnar
føturnir
føða
føði
føðiby
føðiland
føðin
føðina
føðing
føðingar
føðingardag
føðingardagur
føðingardegi
føðir
føðslu
føðsluevni
g
ga
gaal
gaard
gabel
gable
gabon
gabriel
gabriela
gabyggð
gabø
gad
gadaffi
gaddafi
gade
gael
gaeltacht
gaffa
gaga
gagarin
gagliasso
gagn
gagna
gagnefs
gagnny
gagns
gahr
gai
gaither
gakk
gal
gala
galapagos
galatasaray
galaxy
galba
galda
galdandi
galdur
galerie
galicia
galilea
galilei
galileo
galið
gall
gallari
gallaro
gallaveitsluni
galleri
gallery
gallinago
gallon
galloway
gallup
galt
galway
gama
gamal
gamalt
gamalur
gaman
gambia
game
gamejam
games
gamespot
gamla
gamlan
gamlar
gamlari
gamle
gamli
gamlir
gamma
gammel
gammeltoft
gan
gana
ganbare
gand
ganda
gandakallur
gandhi
gandi
gang
ganga
gangandi
gangast
gange
ganges
gangi
gangur
ganz
gao
gap
gaportalurin
gar
garbrot
garci
garcia
gardar
garde
garden
gardshodn
gareth
garfield
gari
garibaldi
garland
garlendi
garma
garmin
garner
garry
garuppskot
garuppskotið
garvinnan
garvinnu
gary
garð
garðabær
garðar
garðarnar
garðarnir
garði
garðin
garðinum
garður
garðurin
gas
gasa
gasolin
gass
gassi
gast
gate
gates
gateshead
gatlinburg
gato
gatt
gatunnilin
gaudi
gauguin
gaulle
gauss
gauteng
gav
gaverk
gavin
gavrilo
gavst
gay
gaza
gazetteer
gazzetta
gað
gb
gbingar
gbingur
gbob
gc
gd
gdan
gdi
gdis
gdjo
gdri
gdur
gdy
ge
gear
geertruida
geil
geir
geiri
geit
geitir
geitum
gekk
gekst
gemeinde
gen
gender
gene
general
generalinum
generalur
generation
genesis
gengis
geni
gennem
genova
gent
genta
gentan
gente
gentiloni
gentlemen
gentofte
gentu
gentubo
gentuko
gentum
gentuna
gentuni
gentunum
gentur
genturnar
gentuto
geo
geoffrey
geografi
geograph
geographic
geographical
geography
geological
geometri
geonames
georg
george
georges
georgetown
georgia
georgios
georgisk
georgiska
georgiskt
georgius
geos
ger
gera
geraint
gerais
gerald
gerandisdag
gerandisdagar
gerandisdagin
gerandisdegi
gerandisdegnum
gerandisli
gerard
gerast
gerd
gerda
gerdu
gergo
gerhard
gerhardi
gerhardsen
geri
germain
german
germanic
germansk
germanskt
germansku
germanskum
germany
gerningsmenninir
geronimo
gerrans
gerrard
gers
gerst
gert
gertrud
gerð
gerðabo
gerði
gerðin
gerðir
gerðum
geschichte
gestasangari
gestir
gestum
gestur
get
getting
gev
geva
gevast
gevið
gevst
gevur
geykur
geyma
geysir
geyta
geytan
geyti
geytin
gfestival
gg
gga
ggevandi
ggi
ggin
gginda
ggindar
ggindi
ggindum
gging
ggingargrunnurin
ggini
gginum
ggir
ggið
ggj
ggja
ggjadag
ggjadagin
ggjadagur
ggjadegi
ggjan
ggjandi
ggjar
ggjara
ggjari
ggjarkreppan
ggjarkreppuni
ggjarleiðari
ggjarlig
ggjarliga
ggjarligan
ggjarligar
ggjarligt
ggjarligu
ggjarligum
ggjarlo
ggjarma
ggjarmiðdepil
ggjarnevnd
ggjarnevndin
ggjarnevndini
ggjaru
ggjas
ggjast
ggjasta
ggjastu
ggjað
ggjaðar
ggjaði
ggjaðu
ggjaður
ggji
ggju
ggjua
ggjum
ggjunda
ggjundi
ggjuni
ggjunum
ggjur
ggjustovu
ggjutu
ggur
gh
ghana
ghil
ghm
ghost
ghostbusters
ghosts
ghvi
gi
giacomo
gianfranco
gianni
giannis
giant
giants
gibraltar
gibson
gica
gift
gifta
giftast
gifti
giftir
giftist
giftu
giftur
giftust
giktafelag
gil
gilbert
gilda
gildi
gildið
gilla
gilli
gin
gina
ging
ginger
gingin
gingið
gingrich
gingu
gini
ginn
gino
ginum
giordano
giorgio
giorgos
giovanna
giovanni
gir
giraffurin
girl
girls
girnar
girnir
giro
girðing
giscard
gislaveds
gista
gistingarhu
gitin
gitingar
gitið
gitna
gitnasta
gitnastu
gitnir
gittar
gittara
gittarar
gittari
gittarleikari
gittarspælari
gitte
giulio
giuseppe
give
given
gives
givin
givið
givnar
givnir
giza
gja
gjald
gjalda
gjaldoyra
gjaldoyrað
gjar
gjarna
gjo
gju
gjøgnum
gjøgnumbrot
gjøgnumbrotið
gjøgnumføra
gjøgnumførdi
gjør
gjørd
gjørdar
gjørdi
gjørdir
gjørdist
gjørdu
gjørdur
gjørdust
gjørligt
gjørt
gl
gla
glad
gladsaxe
gladys
glas
glasgow
glasi
glass
glataðu
glað
glaðir
glaður
gleim
glemmebogen
glen
glendi
glendinum
glendið
glenn
glerfoss
gleða
gleði
gleðiboðskapin
gleðilig
gleðin
gleðir
gli
glig
gliga
gligan
gligt
gligum
gligur
glitnir
glitraheiði
glitrandi
glo
global
globala
globalis
globe
globo
gloria
glory
glostrup
glotti
gloucestershire
gloyma
gloymt
glu
gluggin
glukosu
glyvra
glyvralon
glyvrar
glyvrum
glyvur
glæsner
gløggur
gm
gmt
gna
gnagdy
gnarr
gnesta
gni
gnosjo
gnu
gnum
go
goal
goals
goat
gobert
god
gode
godfather
godt
godtfred
godwin
goes
goethe
gogh
gogo
goia
goideliskt
going
gold
golden
goldenfoot
goldin
goldið
goldman
golf
golfstreymurin
gomel
gomez
gomlu
gomlum
gomul
gone
gong
gongd
gongdin
gongdina
gongdini
gongini
gongst
gongu
gongugøta
gongugøtuni
gongulag
gongumenn
gongur
gonguro
gongustjørna
gongustjørnan
gongustjørnuna
gongustjørnuni
gongustjørnunum
gongustjørnur
gongustjørnurnar
gongutu
gonna
gonza
good
goodbye
goode
google
gop
gorbachev
gorbatjov
gordon
gore
gorfuglur
gorillur
gorkij
gorman
gos
goscinny
gosfjall
gosfjallið
gosfjøll
gosfjøllini
gosfjøllum
gospel
gossip
gosławski
got
gotfjøður
gotha
gothic
gotiska
gotiskt
gotið
gotland
gotlandi
gotlands
gott
gottfried
gottlieb
gov
governance
government
governor
govt
goy
goym
goyma
goymast
goymd
goymdi
goymdu
goymir
goymslan
goymslu
goymslur
goymt
goynni
goysa
goysir
goysti
gozo
gp
gps
gq
gr
gra
grace
graceland
grad
gradir
graffiti
grafikari
grafisk
grafningshreppur
graham
gramm
grammar
grammy
gran
grana
granada
grand
grande
grandma
grani
grann
granna
grannaby
grannabygdunum
grannalagnum
grannalandinum
grannalandið
grannalond
grannalondini
grannalondum
grannalondunum
grannar
granni
grannskoðari
granska
granskar
granskarar
granskari
granskarir
granskarum
granskað
granskaði
gransking
grant
granted
gras
grasfløtum
grasfløtunum
grasfløtur
grasfløturnar
grasi
grasinum
grasið
grasker
graslendi
grasli
grass
grav
grava
grave
graz
gre
great
greatest
greece
greek
green
greene
greenedge
greenland
greenpeace
greensboro
greenville
greenwich
greenwood
greg
gregersen
gregor
gregorianska
gregorio
gregorius
gregoriussen
gregory
greiddi
greiddu
grein
greina
greinar
greinarnar
greinarøð
greinasavn
greindur
greiniliga
greinin
greinina
greining
greinini
greinir
greinirnar
greinum
greinunum
greipel
greipuna
greitt
greivadømi
greivadøminum
greivi
greið
greiða
greiðar
greiðing
greiðingar
greiðingarnar
greiðingin
greiðingina
greiðingini
greiðingum
greiðir
greiður
gren
grenada
grenadiers
grenadinoyggjar
grene
grenoble
greta
grete
gretu
greve
grevlingur
grevur
grey
gri
grid
grieg
griezmann
griffin
griffith
grikkaland
grikkalandi
grikkalands
grikkar
grikkarnir
grikkum
griksk
grikska
grikskar
grikski
grikskt
griksku
grikskum
grikskur
grikst
grimhild
grimm
grimstad
grind
grindaba
grindadra
grindahvalur
grindalo
grindavi
grindin
grindina
grindstop
griskum
grivin
grivið
grivnar
grivnir
grið
gro
groban
grodzka
groningen
grootfontein
grosso
ground
group
groupe
groups
grover
grovt
growing
growth
gru
gruffydd
grugg
grums
grun
grund
grunda
grundar
grundarfjarðarbær
grundarfjo
grundarlag
grundarlagi
grundarlagið
grundarsteinin
grundað
grundaði
grundaðu
grundaður
grundbo
grundgeving
grundgevingini
grundin
grundini
grundlagdur
grundleggja
grundleggjandi
grundlegði
grundlið
grundlo
grundtvig
grundum
grundvøllurin
grunn
grunni
grunninum
grunnlo
grunnum
grunnur
grunnurin
grunt
gry
gryvjur
grækaris
grækarismessa
grækarismessu
grækarismessuhald
grækarisson
grælingur
græsted
græt
grøkt
grøn
grøna
grønar
grønari
grønho
grøni
grønir
grønland
grønlandi
grønlands
grønlendingar
grønlendsk
grønlendska
grønlendskt
grønlendsku
grønlendskum
grønlendskur
grønlig
grønmeti
grønt
grønu
grønum
grønur
grøv
grøvin
grøvina
grøða
grøðandi
grøði
grøðin
grøðina
gs
gsa
gsavbjo
gsbotni
gsby
gsbygd
gseiði
gsfangar
gsfirði
gsfjørð
gsfjørður
gsførslu
gsluna
gsmaður
gsmenn
gssteinurin
gsti
gsvatn
gsveg
gsvegi
gt
gtry
gty
gu
guadeloupe
guam
guanda
guangdong
guangzhou
guanta
guantanamo
guarani
guard
guardian
guatemala
gud
gudalæru
gudalæruni
gudar
gudarnar
gudarnir
guddo
gudfrøði
gudfrøðingur
gudi
gudinna
gudloysi
gudloysingar
gudmund
gudr
gudru
gudrun
guds
gudstænasta
gudstænastu
gudum
gudunum
gudur
gudurin
guernsey
guerra
guest
guevara
guez
guide
guido
guild
guillermo
guillotinu
guinea
guinness
guit
guitar
guitari
guitaristur
guitarleikari
guittar
gujana
gul
gula
gular
gulbru
guld
guldborg
gulf
gulir
gull
gullbringusy
gullfepurin
gullgravarar
gullheiðursmerki
gulli
gullig
gullið
gulljo
gullka
gulllaksur
gullna
gullspa
gulstelkur
gult
gulu
gulum
gulur
gum
gummi
gun
gunda
gundadali
gunilla
gunman
gunmen
gunnar
gunnari
gunnarsdo
gunnarsson
gunnarstein
gunnhild
gunnleygsdo
gunnva
guns
gunum
gunva
gunvør
gur
gurin
guru
gus
gusgus
gustaf
gustafsson
gustav
gustave
gustavsson
gut
gutenberg
guttesen
guttorm
guttormi
guttorms
guttormsson
guttormur
guus
guvar
guvernør
guvernørinum
guvernørur
guvernørurin
guy
guð
guði
guðlaugsson
guðmundsdo
guðmundsson
guðmundur
guðrið
guðru
guðrun
guðruna
guðs
gv
gva
gvakri
gvaksin
gvaksið
gvan
gvandi
gvani
gvans
gvansdo
gvansson
gvanum
gvar
gvara
gvarar
gvararnir
gvaratalið
gvari
gvarin
gvarnar
gvarnir
gvarum
gvarunum
gvast
gvastaðni
gvatali
gvatalið
gvaviðurskifti
gvað
gvaði
gvaður
gvhøna
gvi
gvin
gving
gvingar
gvingarnar
gvingin
gvingina
gvingini
gvingum
gvini
gvir
gvið
gvoy
gvu
gvuliga
gvum
gvuni
gvunum
gvur
gvurin
gvurnar
gvuslig
gvusliga
gvusligar
gvøllinum
gwen
gwendalyn
gwlad
gwynedd
gwyneth
gy
gyldendal
gyldendals
gyldne
gylfi
gyllene
gyllin
gylt
gylta
gylti
gyltur
gymnasium
gynt
gæliskt
gæliskum
gæs
gætur
gða
gørðum
gørðunum
gøta
gøtan
gøteborg
gøtu
gøtueiði
gøtugjo
gøtum
gøtuna
gøtuni
gøtunum
gøtur
gøturnar
gøtuskegg
gøtuskeggjar
h
ha
haag
haakon
haarde
haaretz
haarlem
habo
had
haderslev
hadsund
hafa
hafez
hafnarfjarðarkaupstaður
hafnarfjo
hafnia
haft
haga
hagan
hagani
haganum
hagar
hagen
hagerup
hagfors
haggard
hagi
hagin
hagman
hagstova
hagstovan
hagstovu
hagstovuni
hagtalsgrunnur
hagtøl
hagtølini
hagtølum
hagtølunum
haider
hail
haile
haiti
hal
hala
halanum
hald
halda
haldandi
haldansen
haldarsvi
haldast
haldi
haldið
haldo
haldurs
hale
haley
half
halga
halgidagar
halgidagur
halgido
halgimenni
halgimenninum
halgimennið
halgir
hali
halin
hall
halla
hallands
halldo
halle
hallen
hallgri
halli
halliwell
hallið
halloween
hallstahammars
hallur
halmstad
halmstads
hals
halvarðsøku
halvdanarson
halvorsen
ham
hamas
hamburg
hamburger
hamferð
hamid
hamilcar
hamilton
hamlet
hammaro
hammer
hammershaimb
hammond
hampiliga
hampshire
hamrabyrgi
hamradun
hamrar
hamsun
han
hana
hanagleiv
hancock
hand
handa
handan
handanin
handanina
handar
handað
handaðar
handaði
handball
handbo
handbook
handbooks
handfara
handfaring
handil
handilin
handils
handilsby
handilsforðingar
handilshu
handilsli
handilsma
handilsmaður
handilsmenn
handilsmiðdepil
handilssa
handilsskapi
handilssku
handilsstaður
handilstøð
handilsvirksemi
handilsviðurskiftini
handilsøki
handla
handlar
handlarnir
handler
handli
handlinum
handlum
handlunum
handrit
handritið
handritum
hands
handtaka
handtikin
handtiknir
handto
handverk
handverkarar
hanga
hangandi
hangul
hanja
hank
hanks
hann
hanna
hannah
hanne
hannes
hannesar
hannesi
hanni
hannibal
hannis
hannover
hannus
hanoi
hans
hansara
hansdo
hansen
hansina
hanson
hanssen
hansson
hanstholm
hanus
hanusardo
hanusarson
hanusi
haparanda
hapoel
happ
happy
har
hara
haraftrat
harafturat
harafturi
harald
haraldi
haralds
haraldsson
haraldssund
haraldssundi
haraldur
haram
haran
harare
harav
harbor
harbors
harbour
hard
harding
hardy
hareftir
harelbeke
hargarbrøðurnir
hari
haris
harkaliðið
harlem
harmoniku
harmur
harnæst
harold
harper
harpercollins
harra
harradømi
harrans
harranum
harrar
harri
harriet
harrin
harris
harrisburg
harrison
harry
harstad
hart
hartford
hartil
hartling
haru
haruhi
harum
harumframt
harur
harvard
harvest
harvey
harvið
harzen
harða
harðan
harðar
harðari
harðast
harðført
harðir
harðliga
harðligt
harðræði
harðskap
harðskapi
harðskapur
harður
has
hasenhu
hash
haslev
hassan
hasselblatt
hasselt
hat
hata
hatt
hatta
hattarvi
hattur
hatturin
hattusha
hauge
haugen
haunted
hausa
hav
hava
havanna
havbotninum
havbotnurin
havbu
havde
have
havel
haven
havet
havfru
havgri
havhest
havhestar
havhesti
havhestur
havi
having
havinum
havið
havli
havn
havnaby
havnalagnum
havnar
havnara
havnarba
havnarby
havnarfo
havnarlag
havnin
havnina
havnini
havnir
havnum
havra
havreki
havri
havs
havsbru
havsins
havsvimjing
havt
havtaska
havumhvørvinum
hawai
hawaii
hawaiianskt
hawaiianskum
hawaiioyggjar
hawaiioyggjum
hawking
haydn
hayes
hayworth
hazard
haðan
haðani
hb
hc
hd
hdr
he
head
heads
health
hear
heard
hears
heart
hearts
heat
heath
heats
heaven
heavy
hebdo
hebr
hebra
hebraiska
hebraiskt
hebraiskum
hebrearabrævið
hebrew
hebridunum
hebridurnar
hebron
heby
hector
hedda
hedemora
hedin
hedvig
heep
hefner
heft
hefta
heftir
heftum
hegel
hegelmann
hegri
heick
heidegger
heidelberg
heidi
heil
heila
heilag
heilaga
heilagi
heilagsta
heilagt
heilagu
heilagur
heilan
heilanum
heilar
heild
heili
heilin
heiliva
heilsa
heilsan
heilsu
heilsubo
heilsufelagsskapur
heilsufrøðiliga
heilsuly
heilsuma
heilsuna
heilsuni
heilsurøkt
heilsustovnurin
heilsutrygd
heilsuverkið
heilsølu
heilt
heiltal
heilum
heim
heima
heimabeiti
heimady
heimadystir
heimadystirnir
heimaftur
heimafturkomin
heimahoyrandi
heimaliðið
heimamissio
heimamu
heiman
heimani
heimara
heimasi
heimastadion
heimasty
heimavøll
heimavølli
heimavøllur
heimavøllurin
heimby
heimbygd
heimbygdina
heimbygdini
heimi
heimild
heimildarfilmur
heimildir
heimin
heimins
heiminum
heimið
heimland
heimlandi
heimlandinum
heimlandið
heimleys
heims
heimsa
heimsarvar
heimsarvin
heimsarvur
heimsbardaga
heimsbardagi
heimsbo
heimshøv
heimsins
heimskend
heimskenda
heimskendi
heimskendu
heimskendur
heimskreppan
heimskri
heimskringla
heimsmarknaðinum
heimsmeistara
heimsmeistaraheitið
heimsmeistarakappingini
heimsmeistaraskapin
heimsmeistari
heimsmet
heimsmetið
heimsparti
heimspartinum
heimspartur
heimsparturin
heimspeki
heimspekingar
heimspekingur
heimspekingurin
heimspørtum
heimspørtunum
heimsspeki
heimssøguni
heimstað
heimstaði
heimstaður
heimstaðurin
heimsumfatandi
heimsveldi
heimsveldinum
heimsyvirly
heimur
heimurin
heina
heinason
heindrikur
heine
heinemann
heinesen
heingja
heini
heinrich
heintað
heit
heita
heitan
heitar
heitari
heitasta
heiti
heitini
heitinum
heitir
heitið
heitt
heitti
heittu
heitu
heitum
heitur
heitvi
heiðalendi
heiðalyngur
heiðar
heiðarnar
heiði
heiðin
heiðra
heiðrar
heiðrað
heiðraði
heiðraður
heiðrik
heiðrikur
heiðrun
heiðunum
heiður
heiðurin
heiðurs
heiðursga
heiðurslimur
heiðursløn
heiðurslønin
heiðurslønina
heiðurslønini
heiðurslønir
heiðursmerki
heiðursmerkini
heiðursmerkir
heiðursmerkið
heiðursmerkjaby
heiðursmerkjum
hekk
heks
heksir
heksirnar
hektarar
hektor
hektori
hel
held
heldur
hele
helen
helena
helenos
helens
helenu
helga
helgafellssveit
helge
helgi
helium
heljar
hell
hella
hellbom
helle
helli
hello
hellu
hellum
helluna
helluni
hellunum
hellur
hellurnar
helming
helmingi
helmingin
helmingur
helmingurin
helmsdal
helmut
help
helsiga
helsingborgs
helsingfors
helsingforssa
helsingør
helsinki
helst
helt
heltnarnar
helveg
helviti
helvt
helvtin
helvtina
hemingway
heminum
hen
hena
henda
hendan
henderson
hendi
hending
hendinga
hendingar
hendingarnar
hendingin
hendingina
hendingini
hendingum
hendingunum
hendir
hendrik
hendu
hendur
hendurnar
henna
hennar
hennara
henni
henning
henri
henrietta
henrik
henriksen
henry
hensley
henson
hent
henta
hente
hentet
hentleikar
hentze
hep
hepburn
hepna
hepni
heppin
heppið
her
hera
herald
herav
herbert
hercules
herdeild
herdeildir
herdeildirnar
herdeildum
herdeildunum
herdis
here
hereftir
herferð
herferðir
herfo
herfyri
herfølge
herge
hergeir
heri
herin
herinum
heritage
herja
herjar
herjað
herjaði
herjaðu
herlið
herma
herman
hermann
hermannsson
hermansen
hermaður
hermegi
hermenn
hermenninir
hermennirnir
hermiona
hermione
hermionu
hermo
hermonnum
hermonnunum
herna
hernaðarflogfør
hernaðarkvett
hernaðarlig
hernaðarliga
hernaðarligt
hernaðarligu
hernaðarligum
hernaðarsty
hernaðarstøð
herning
herningur
hero
heroes
heroin
herovasta
herovasti
herovastin
herr
herred
herrer
herrljunga
herschel
hersegovina
hersetingarvaldinum
hersetingarvaldið
hersetingin
hersett
hersettar
hersetti
hersettu
hersigovina
hertaka
hertekur
hertfordshire
hertikin
hertikið
herto
hertogi
hertænastu
heru
herundir
herup
herur
herurin
herverk
herviligt
hervið
hervør
heryvirmaður
herzegovina
herðaklapp
herðaklappið
herðar
herðarnar
herðslu
hesa
hesaferð
hesar
hesari
hesi
hesin
hesir
hesjedal
hessen
hest
hestar
hesti
hestin
hestoy
hests
hestur
hesturin
hesu
hesuferð
hesum
het
hetfield
hetja
hetjur
hetland
hetlandi
hetlands
hetta
hettar
hev
heva
hevja
hevna
hevnd
hevndi
hevnt
hevur
hevði
hey
heyerdahl
heyggi
heyggjar
heyggjum
heygnum
heygum
heykur
heysin
heyst
heysta
heystað
heysti
heystið
hezbollah
heðin
heðini
heðinsdo
hf
hi
hidalgo
hidden
hiddink
hideki
hierarchy
higar
higartil
higgins
high
highest
highlight
highway
hilary
hilbert
hilda
hildesheim
hildigunn
hildin
hildið
hildnar
hildnir
hildu
hildur
hill
hillary
hillel
hillerød
hills
hillsong
hilmar
hilton
him
himlen
himli
himmal
himmalin
himmals
himmel
himmerland
himmiri
himni
himself
hin
hina
hinar
hinari
hind
hindenburg
hindi
hindu
hinduar
hinduisma
hingu
hini
hinir
hins
hinskynd
hinum
hinumegin
hinvegin
hip
hiplingur
hippolais
hirohito
hiroshima
hirsa
hirtshals
hirðar
hirðarnir
hirðmenn
his
hispanic
hispaniola
hist
histo
historia
historic
historical
historie
historien
history
hit
hita
hitanum
hitastigar
hitastigi
hitchcock
hitchens
hiti
hitin
hitler
hitlistanum
hitparade
hits
hitt
hitta
hittast
hitti
hittist
hittið
hittlistanum
hittlistum
hittust
hiv
hiðani
hja
hjalmar
hjalti
hjarnar
hjarta
hjartama
hjartanum
hjartasju
hjartatilburði
hjartað
hjelm
hjem
hjemmeside
hjerdi
hjf
hjo
hju
hjørdis
hjørring
hjørtir
hjørtur
hjørturin
hk
hl
hls
hm
hms
hnappadalssy
hnj
hns
ho
hoa
hob
hobart
hobro
hockey
hodges
hoffman
hoffmann
hofgaard
hofors
hoggi
hogni
hogwarts
hokkaido
hokusai
hol
holberg
holbrook
holbæk
hold
holden
holder
holding
hole
holgar
holger
holiday
holið
holland
hollande
hollandi
hollendska
hollendskt
hollendskum
holly
hollywood
holm
holmes
holmsland
holocaust
holst
holstebro
holstein
holt
holte
holu
holum
holuni
holur
holy
home
homecoming
homem
homer
homeros
homme
hommes
homo
homrum
hon
hond
honda
hondbo
hondina
hondini
hondum
hondunum
honduras
honey
hong
hongkong
hongt
hongur
honin
honky
honnu
honolulu
honor
honorary
honors
honour
honshu
honum
hood
hoover
hop
hope
hoping
hopkins
hoppandi
hoppar
hora
hordaland
hordalandi
horie
horizon
horizonte
horn
hornabo
hornafjørður
hornaseyður
horne
horni
hornini
horninum
hornið
hornnes
hornorkestur
hornum
horror
horse
horsens
horst
horton
horvin
horvið
horvna
horvnir
horvnu
hos
hoskins
hosni
hospital
host
hostage
hostages
hosur
hot
hotel
hotell
hotellinum
hotellið
hotelstjo
hotspur
hound
hour
hours
house
housing
houston
hov
hove
hovedstadens
hovgaard
hovi
hovna
hovs
hovsegg
hovstunnilin
how
howard
however
hoy
hoydal
hoydalar
hoydølum
hoyggj
hoyr
hoyra
hoyrarar
hoyrast
hoyrdi
hoyrdist
hoyrdu
hoyrir
hoyrist
hoyrið
hoyrt
hoyvi
hp
hr
hrunamannahreppur
hs
hsf
ht
htm
html
http
https
hu
hua
huang
huckabee
huckleberry
huddersfield
hudiksvalls
hudson
hudsona
huffington
huffingtonpost
hug
huga
hugabo
hugafelag
hugaleikari
hugama
hugan
huganum
hugavert
hugaðir
hugaður
hugburð
hugburðurin
hugdi
hugdu
hugflog
hugh
hughes
hugi
hugin
hugleiðingar
hugman
hugmyndir
hugna
hugnalig
hugnaligt
hugo
hugsa
hugsan
hugsandi
hugsanin
hugsanir
hugsanum
hugsar
hugsast
hugsað
hugsaði
hugsaðu
hugsjo
hugskot
hugskotið
hugt
hugtak
hugtakandi
hugtakinum
hugtakið
hugtikin
hugtøk
hugurin
hugvi
hui
huld
hulda
huldufo
hulk
hull
hultsfreds
human
humber
humboldt
hume
humlu
hummarin
humor
hun
hunang
hunangi
hund
hundabrævinum
hundar
hundaætt
hundin
hundrað
hundraðtals
hundraðtu
hundreds
hundur
hundurin
hung
hungarian
hungary
hunger
hungri
hungur
hungursneyð
hunt
hunter
hunting
huntington
hurricane
hurt
hurð
hus
husband
husby
huse
huset
hussein
hutuar
huxa
huysum
huðrar
hv
hva
hvad
hvagar
hval
hvalastøðin
hvalastøðina
hvalastøðini
hvalastøðir
hvalba
hvalbiar
hvalbiareiði
hvalbiartunnilin
hvalbingar
hvalfjarðarsveit
hvalir
hvalspy
hvalur
hvalurin
hvalva
hvalvi
hvannasund
hvannasundi
hvannasunds
hvannhaga
hvannhagi
hvannro
hvannrok
hvar
hvarv
hvassar
hvassliga
hvassur
hvast
hvat
hvaðan
hveding
hveiti
hvem
hveragerðisbær
hvessingur
hvi
hvidovre
hvidtfeldt
hvirlan
hvo
hvonn
hvor
hvurvu
hvussu
hvølpar
hvønn
hvønnfall
hvønnfalli
hvør
hvørfall
hvørfalli
hvørgin
hvørja
hvørjar
hvørjari
hvørji
hvørjir
hvørju
hvørjum
hvørjumegin
hvørjumfall
hvørki
hvørkikyn
hvørs
hvørsfall
hvørt
hvørva
hvørvur
hvøssum
hwan
hy
hydra
hydrogen
hygg
hyggja
hyggjararnir
hyggjarunum
hyggju
hyggur
hygrocybe
hyli
hylin
hylki
hylte
hylurin
hyss
hædd
hæddar
hæddarpunktið
hæddin
hæddina
hæddini
hæddir
hæddum
hægri
hægst
hægsta
hægstarætt
hægsti
hægstirættur
hægstu
hægstur
hækka
hækkar
hækkað
hækkaði
hættir
hættislig
høg
høga
høgadalsa
høgan
høgar
høgdar
høgdi
høgdir
høgdu
høgdur
høgenni
høgga
høggormur
høggur
høgguslokkar
høgguslokkur
høgir
høgligari
høgna
høgnado
høgnesen
høgni
høgra
høgri
høgru
høgrumegin
høgt
høgti
høgu
høgum
høgur
høj
høje
højgaard
højre
høli
hølini
hølir
høll
høllin
høllina
høllini
hølum
hølunum
høpi
hør
hørg
hørga
hørsholm
hørð
hørðu
hørðum
høsn
høv
høvd
høvdanum
høvdastaði
høvdi
høvdingar
høvdingarnar
høvdingi
høvdingur
høvdinum
høvdið
høvdu
høvi
høvini
høvum
høvundar
høvundin
høvundum
høvundur
høvundurin
høvur
høvuðs
høvuðsa
høvuðsatvoldin
høvuðsbo
høvuðsby
høvuðsbygningurin
høvuðsendama
høvuðsgrein
høvuðsgrøði
høvuðsgøtan
høvuðsheitum
høvuðsjarnbreytarstøðin
høvuðskappingini
høvuðsleikarar
høvuðsleiklut
høvuðsleikluti
høvuðsleiklutin
høvuðsleiklutinum
høvuðsleiklutirnir
høvuðsleiklutunum
høvuðsma
høvuðsorsøkin
høvuðsperso
høvuðsskrivstovan
høvuðsskrivstovu
høvuðssløg
høvuðsstað
høvuðsstaðarkommununi
høvuðsstaði
høvuðsstaðin
høvuðsstaðinum
høvuðsstaðir
høvuðsstaðnum
høvuðsstaður
høvuðsstaðurin
høvuðsstaðurið
høvuðsstovnar
høvuðsstuðul
høvuðsstuðulin
høvuðsstøð
høvuðssæti
høvuðssætið
høvuðstaðnum
høvuðstaður
høvuðsuppga
høvuðsvartur
høvuðsvenjari
høvuðsverk
høvuðsvinna
høvuðsvinnan
høyre
i
ia
iaea
iago
iam
ian
ib
ibge
ibn
ibrahim
ibrahimovic
ibsen
ibtimes
ibugvar
ic
ice
iceland
icelandic
ich
ichiro
ichirou
icid
icon
id
ida
idag
idaho
idea
identified
identity
ideologi
idi
idol
iduskbn
iduskcn
ie
iemochi
if
ife
iffhs
ig
igbo
ige
igen
iglaso
ign
igor
igulker
ihf
ihlen
ii
iii
ik
ikast
ikea
ikke
ikki
ikon
iktas
il
ili
ilionskvæði
iljitj
ill
illa
illgruna
illgruni
illhugin
illinois
illum
illur
illustrated
illustrator
illveðri
illveður
ilo
ilon
ilse
ilt
ilulissat
im
image
images
imagine
iman
imbamba
imbd
imdb
imelda
imf
img
immanuel
immigration
immunskipanin
impact
imperial
important
impossible
in
ina
inb
inc
includes
including
inclusion
incorporated
ind
inda
indarar
indberetninger
inden
independence
independent
index
indexmundi
indi
india
indiahav
indiahavi
indiahavinum
indian
indiana
indianapolis
indianarar
indianararnir
indicates
indicators
indigenous
indira
indisk
indiska
indisku
indiskum
indiskur
individual
indo
indonesia
indonesiskur
indoor
indtil
indurain
indus
industri
industrial
industry
ine
ineos
infinite
inflatio
influence
info
infomedia
infoplease
informatio
information
infrastructure
ing
inga
ingadal
inge
ingeborg
ingen
inger
ingi
ingibjørg
ingili
ingin
ingmann
ingmar
ingo
ingolf
ingrid
ingrið
ingun
ingvar
ingvard
ingvars
inhabitants
ini
injured
inki
inkl
inlet
inn
inna
innan
innandura
innanfyri
innangarðs
innanhy
innani
innanlands
innanri
innara
innari
innaru
innast
innbjo
innbu
inneftir
innenriks
inner
innflutning
innflutningi
innflutningurin
innflutt
innfluttur
innflyta
innflytarar
innflytarum
innføddu
innføra
innførd
innførdi
innført
innganginum
inngangur
inngangurin
inni
innihald
innihalda
innihaldi
innihaldinum
innihaldið
innihaldsliga
inniheldur
innihelt
inniro
innivist
innlagdur
innlandet
innleiðandi
innlendis
innlendisma
innlimað
innlimaður
innlit
innløgd
innra
innrættað
innsbruck
innsettur
innskriftin
innspæld
innspældur
innspælt
inntil
inntøka
inntøkan
inntøku
inntøkukelda
inntøkum
inntøkunum
inntøkur
inntøkurnar
insensato
insertsang
inside
insider
instagram
installation
instead
institut
institute
institution
institutionen
institutions
instrumental
insula
insulin
int
inte
intelligence
intended
inter
intercontinental
international
internationale
internazionale
internet
internetinum
internetið
internets
interpret
intertoto
interval
interview
interviews
intl
intldetails
into
intres
intro
introduction
inuit
inuittar
inuktitut
inum
inva
invalid
invisible
io
ioannis
ioc
ion
iowa
ip
ipa
ipc
ipcc
iphone
iprage
ipsen
iqaluit
ir
ira
irak
irakar
irakiska
iran
iranian
iranska
iransku
iranskur
iraq
iraqi
ire
ireann
ireland
irf
iriks
iris
irish
irishtimes
irma
irnar
irnir
irokesarar
iron
ironman
irskur
irving
is
isaac
isabel
isabella
isabelle
isak
isaksen
isbn
ischen
isf
isholm
ishøj
isil
isis
iskt
iskum
isla
islam
islamabad
islamic
islamiska
islamiskur
islamist
islamska
islamski
islamskir
islamskt
islamskum
island
islanders
islandgames
islands
islas
isle
isles
isn
iso
isopoda
israel
israeli
israelskur
issn
issue
issues
issuu
ist
istanbul
istat
it
ita
italia
italian
italiana
italiani
italiano
italienska
italienskt
italiu
italiumaðurin
italsk
italska
italski
italskt
italsku
italskum
italskur
italy
item
itemid
ithaka
itið
itolsk
itrottur
its
itt
itu
itunes
iu
iucn
iv
iva
ivaleyst
ivan
ivanov
ivar
ivast
ivað
iversen
ivi
ivir
ivoire
iwo
ix
izagirre
izmir
ið
j
ja
jacinto
jack
jackie
jackson
jacksonville
jacob
jacobs
jacobsen
jacobsens
jacobsøn
jacopo
jacqueline
jacques
jae
jag
jagger
jagland
jagstra
jagten
jainisma
jakarta
jake
jakku
jakob
jakobsen
jall
jalli
jallur
jallurin
jals
jam
jamaika
jamboree
jameika
james
jamestown
jamie
jamsro
jan
jana
jandova
jane
janeiro
janet
janick
janis
janka
jansson
januar
january
janukovitsj
janus
janusi
japan
japanar
japanarar
japanarum
japanese
japans
japansk
japanska
japanskar
japanskt
japanskum
japanskur
japonsk
japonsku
japonskum
jared
jarn
jarnbardur
jarnbreyt
jarnbreytarstøð
jarnbreytarstøðin
jarnbreytastøðin
jarnbreytin
jarnbreytina
jarnbreytini
jarnbreytir
jarnbreytirnar
jarni
jarnið
jarnma
jarða
jarðar
jarðarbru
jarðarferð
jarðarferðir
jarðarinnar
jarðarskorpuni
jarðað
jarðaður
jarðber
jarðfeingi
jarðfrøði
jarðnøtir
jarðskja
jasmin
jason
jaspur
jastrid
java
javier
javna
javnan
javnateknið
javnaðarfl
javnaðarflokkin
javnaðarflokkinum
javnaðarflokkur
javnaðarflokkurin
javnaðarfloksins
javnbjo
javni
javnir
javnleik
javnleiki
javnleikur
javnli
javnrætt
javnrættindi
javnrættindum
javnsett
javnstøðu
javnstøðunevndini
javnt
javnur
javnva
jay
jazeera
jazz
jazzto
jazzur
jazzurin
je
jean
jeane
jeanette
jeanne
jeb
jedward
jeff
jefferson
jeffrei
jeffrey
jeg
jehova
jekaterinburg
jeltsin
jemen
jenis
jenner
jennifer
jenny
jens
jensen
jensina
jenskjeld
jenssen
jeppe
jeremia
jeremy
jeriko
jerome
jerry
jersey
jeru
jerusalem
jesper
jespersen
jess
jesse
jessica
jesu
jesus
jesusar
jesusi
jet
jets
jette
jewish
jf
jfk
ji
jiang
jiddiskt
jihad
jill
jim
jima
jimmie
jimmy
jinder
jk
jm
jn
jo
joa
joachim
joakim
joan
joanne
joaquim
job
jobs
jochumsson
joe
joel
joen
joensen
joey
jogvanarge
johan
johann
johanna
johanne
johannes
johannesburg
johannesen
johannessen
johansen
johansson
john
johnny
johns
johnsigurd
johnson
johnston
johs
join
joins
joint
joinus
jokkmokks
jolie
jolly
jomfru
jomo
jon
jona
jonas
jonathan
jones
jong
jonhard
jonhardi
joni
jonna
jonny
joplin
jord
jordan
jordana
jordania
jorden
jordi
jorge
jorsala
jos
jose
josef
josefina
josefine
joseph
josephine
josephsen
josh
joshua
josip
jota
joti
journal
journalist
journalistar
journalistarnir
journalistum
journalistur
journey
jovi
joy
joyce
jp
jpg
jpost
jr
jsp
jt
ju
juan
juche
judas
judea
judith
judo
judofelag
judy
juel
jugoslavia
juillet
jul
jules
juli
julia
julian
juliana
juliane
julianska
julianski
julie
juliu
julius
julsgart
july
jumbo
jump
jun
june
juneau
jung
jungle
juni
junior
juniorar
juniormet
juniormetið
juniors
junkarin
juno
jupiter
jur
jura
juri
juries
jurij
jury
just
justa
justice
justin
justinussen
justinusson
jutta
juul
juventus
jv
jyllands
jytte
jæger
jøda
jødado
jødanna
jødar
jødarnar
jødarnir
jødi
jødisk
jødiska
jødisku
jødiskum
jødum
jødunum
jøkladal
jøklar
jøklarnir
jøklum
jørgen
jørgeni
jørgensen
jørn
jørundur
jørð
jørðildið
jørðin
jørðina
jørðini
jøvn
jøvnum
k
ka
kabul
kaczyn
kadeild
kadeildin
kafe
kaffi
kaffistovur
kafka
kaforlag
kaga
kagarður
kaggans
kagganum
kaggin
kagrunnur
kagrunnurin
kahandil
kaheiðursløn
kahlo
kahn
kahøvundur
kai
kaiser
kaj
kajsa
kaka
kakao
kala
kalaallit
kalashnikov
kalda
kaldar
kaldari
kaldasta
kaldbak
kaldbaksbotn
kaldbaksbotnur
kaldir
kaldrananeshreppur
kaldur
kaledo
kaledonia
kalendaran
kalendaranum
kalendari
kalendarin
kalifornia
kaliningrad
kalix
kall
kalla
kallar
kallast
kallað
kallaðar
kallaði
kallaðir
kallaðist
kallaðu
kallaður
kalldjo
kalle
kallfiskurin
kallkyn
kallsberg
kallsoy
kalmar
kalmarsamveldið
kalsoy
kalsoynna
kalsoynni
kalsø
kalt
kalvi
kamarinum
kamarið
kamarko
kamarto
kamban
kambodja
kambsdal
kambsdali
kambsdalur
kambur
kamehameha
kamelar
kamelo
kamen
kamerun
kamikaze
kamp
kampala
kampingpla
kampmann
kamprad
kan
kanada
kanadisk
kanadiska
kanadiskt
kanadisku
kanadiskur
kanal
kanalin
kanalina
kanalini
kanalirnar
kanarisku
kandi
kandidater
kandidatur
kane
kanevndin
kanin
kaninin
kann
kanna
kannabis
kannar
kannast
kannað
kannaði
kanning
kanningar
kanningarnar
kanningin
kanningina
kanningini
kanningum
kano
kansas
kanska
kanslari
kanst
kant
kantar
kantata
kanti
kantinum
kanton
kantur
kap
kapital
kapitalisma
kapitalistiska
kapitalistisku
kapitalur
kapitlar
kapittul
kapnas
kapp
kappa
kappast
kappaðist
kappaðust
kappen
kappi
kapping
kappingar
kappingara
kappingarnar
kappingin
kappingina
kappingini
kappingum
kappingunum
kappkoyring
kappro
kappsu
kaptein
kapteinur
kar
kara
karachi
karagounis
karaiskakis
karakassin
karar
karate
karaumboðið
karbon
karbyrgi
kardamummuby
karel
karelia
karen
kari
karibia
karibiahav
karibiahavi
karibiahavinum
karibiska
karibisku
karin
karina
karithøvundur
karius
kariwahlgren
karl
karla
karlamagnus
karlamagnusar
karli
karlsborg
karlsborgs
karlsen
karlshamns
karlskoga
karlskrona
karlsruhe
karlsson
karlstad
karlstads
karma
karmar
karmarnar
karmur
karolina
karolos
karrieru
karsten
karthago
karum
karunum
kasakstan
kasavn
kasavni
kasavninum
kasavnið
kasettuband
kashino
kashmir
kaspar
kasper
kaspiska
kass
kassameistari
kassettuband
kassettubond
kast
kasta
kastar
kastað
kastaði
kastaðu
kasti
kastrup
kastu
kasum
kasøvn
kat
kata
katalanskt
katalo
katar
katarina
kate
katekismus
katharine
katherine
kati
katie
kato
katolikkar
katolikkarnir
katolsk
katowice
katrin
katrina
katrine
katrinu
kattegat
kattu
kattur
katusha
katushaerror
katy
kau
kaukasus
kaupstaður
kaurisma
kautokeino
kav
kava
kavango
kavanum
kavarar
kavarðafelagnum
kavat
kavaði
kavba
kavi
kavin
kavirðisløn
kavirðislønina
kavist
kavkasus
kavæl
kavørður
kayak
kazan
kað
kaði
kaðu
kaður
kb
kbh
kdo
ke
keaton
keeffe
keep
kefalonia
keflavi
keiputeknari
keiro
keisara
keisaran
keisarans
keisaranum
keisaraveldinum
keisari
keisarin
keisarinna
keith
kekenia
kekkia
kekkisk
kekkiska
kekkiskt
kekkiskur
kekkoslovakia
kelda
keldan
keldu
keldufar
keldufeilur
keldum
kelduna
kelduni
keldunum
keldur
keldurnar
kelinavninum
kelinavnið
keller
kellingin
kelly
keltar
keltisk
keltisku
keltiskum
kelvin
kemal
kemi
kemst
kemur
ken
kend
kenda
kendan
kendar
kendari
kendast
kendasta
kendasti
kendastu
kendastur
kendi
kendir
kendu
kendum
kendur
kenguran
kenja
kenjanskur
kenna
kennast
kennedy
kenneth
kenni
kenniorð
kenniorðið
kennir
kennist
kenny
kenslu
kenslum
kenslur
kent
kentucky
kenya
kenyatta
kept
ker
kerr
kerry
kers
kerteminde
keton
ketta
kettu
kettur
kevin
key
keyb
keyboard
keyboards
keyp
keypa
keyparin
keypast
keypir
keypis
keypmannahavn
keypmannahavnar
keypmannahavns
keypmaður
keypmenn
keypmh
keypmonnum
keyps
keypstaður
keypt
keypti
keyptu
keyptur
keys
keystone
kf
kfjaðrar
kfuk
kfum
kg
kgl
kh
khader
khalifa
khalkis
khamenei
khan
khandil
khartabil
khartoum
khomeini
khrusjtjov
ki
kibrit
kid
kidnapped
kids
kidømi
kidømið
kiel
kielsen
kierkegaard
kiev
kigali
kikki
kikvartettir
kilda
kilensku
kilenskur
kili
kilimanjaro
kiljan
kill
killed
killer
killers
killing
killings
kills
kilo
kilometra
kilometrar
kilometur
kilowattti
kils
kim
kims
kin
kina
kind
kinda
kinder
kindi
kindini
kindum
kinesarar
kinesisk
kinesiska
kinesiski
kinesiskt
kinesiskum
kinesiskur
king
kingar
kingarnir
kingati
kingaøld
kingdom
kingdoms
kingi
kingo
kings
kingston
kingum
kingur
kini
kinks
kinna
kinnhvi
kinshasa
kinum
kinverjar
kinversk
kinverska
kinverski
kinverskt
kinversku
kinverskum
kinverskur
kipling
kipp
kippur
kir
kirgisia
kirgisistan
kiribati
kirk
kirke
kirken
kirkja
kirkjan
kirkju
kirkjua
kirkjubo
kirkjubygd
kirkjubø
kirkjubøar
kirkjubømu
kirkjubøur
kirkjugarð
kirkjugarði
kirkjugarðin
kirkjugarðinum
kirkjugarður
kirkjugarðurin
kirkjukletti
kirkjuliga
kirkjuligum
kirkjulið
kirkjuliðið
kirkjuliðunum
kirkjum
kirkjuma
kirkjumu
kirkjuna
kirkjuni
kirkjunnar
kirkjunum
kirkjur
kirkjura
kirkjurnar
kirkjuso
kirkjusy
kirkjuvatn
kirkwall
kirsten
kirstin
kiruna
kirundi
kirvi
kis
kisa
kisborgarar
kisborgararætt
kisborgaraskap
kisborgari
kisdagin
kisdagurin
kisdegnum
kisfelagsskapi
kisins
kiskur
kisma
kisovasti
kispolitikk
kispolitikki
kisra
kisrættarma
kiss
kisstjo
kist
kisumboðið
kisumboðsmaður
kisumboðsmaðurin
kit
kitarovic
kitrio
kits
kittel
kitts
kitty
kivi
kið
kja
kjad
kjaft
kjafti
kjaftin
kjaftinum
kjafturin
kjak
kjakast
kjaki
kjakinum
kjakið
kjalarvørrinum
kjallaranum
kjandi
kjans
kjarnin
kjarnorka
kjarnorku
kjarnorkuva
kjarnorkuverk
kjarnu
kjarrsnigil
kjartan
kjast
kjeld
kjeldsen
kjell
kjelnæs
kjer
kjo
kjum
kjunum
kjær
kjærbo
kjærsgaard
kjølbro
kjølurin
kjøt
kjøta
kjøti
kjøtið
kk
kka
kkar
kkari
kkir
kkla
kklar
kklarar
kklararnir
kklari
kklarin
kklarum
kklað
kklaði
kkling
kklu
kklufelag
kklukapping
kklukappingar
kklukappingin
kklukappingini
kklukappingum
kklukappingunum
kklulið
kkluliðið
kklur
kklæðið
kkum
kkur
kl
kla
klakk
klakkstein
klakstein
klaksvi
klaksvik
klakt
klamydia
klandrast
klandur
klar
klassifikatio
klassikarar
klassisk
klassiska
klassiskan
klassiskar
klassiskt
klassisku
klassiskum
klassiskur
klaus
klaver
klaverleikari
klein
kleist
kleopatra
klerk
klettafjøll
klettafjøllum
klettar
kletti
klettin
klettinum
klettskarð
klettum
klettur
kletturin
kleystur
kleyv
kli
klimt
klingar
klingruni
klingruvarpi
klingum
klingur
klingurin
klippa
klippans
klippfisk
klippfiskur
klipt
klo
klokkan
klokkulyngur
klokkuti
klombrum
klopp
klor
klostrið
klovna
klu
klubas
klugman
klæddur
klædna
klædnai
klædnað
klæmint
klænt
klætt
klæðast
klæði
klæðini
klæðinum
klæðir
klæðum
klødd
kløn
klørnar
kløur
km
kma
kmentafrøði
kmentaheiðursløn
kmentalig
kmentaliga
kmentaligt
kmentasøga
kmentasøgu
kmentavirðisløn
kmentavirðislønina
kmentir
kmentirnar
kmentum
kmentunum
kn
kna
knandi
knappar
knappir
knappliga
knappur
knapt
knar
knarfari
knarfarin
knarferð
knarferðir
knarmaður
knarprestar
knarprestur
knarsty
knassi
knesset
knez
kni
knife
knight
knights
knin
knina
kning
kningar
knini
knip
knir
knivsta
kno
knockout
know
knowledge
known
knoxville
knr
knu
knud
knudsen
knum
knusniglar
knut
kny
knæ
knæk
knørri
knørrur
knøtt
knøttin
ko
koba
kobe
koch
koda
kofi
kokain
kokkur
kokosoyggjar
koks
kokuspa
kol
kola
kolana
kolbeinagjo
kolbeinn
kolding
kolera
kolevni
koli
kolið
kolkata
koll
kollafirði
kollafjarðar
kollafjørð
kollafjørður
kolli
kollinum
kollvelting
kollveltingarmaður
kollveltingin
kollveltingina
kollveltingini
kolombia
koloni
koloniirnar
kolont
kolorado
koltri
koltur
kolumbia
kolumbianskur
kolumbus
kolvetni
kom
koma
komandi
kombikk
komi
komin
komið
komma
kommando
kommer
kommissio
kommun
kommuna
kommunala
kommunale
kommunalreformin
kommunalreforminum
kommunalu
kommunan
kommune
kommuner
kommunernas
kommunisma
kommunisman
kommunismu
kommunistaflokkinum
kommunistaflokkurin
kommunistarnir
kommunistiska
kommunistiski
kommunistiskt
kommunistisku
kommunu
kommunufelag
kommunufelagið
kommunulækni
kommunum
kommunuma
kommununa
kommununar
kommununi
kommununum
kommunur
kommunurnar
kommunusamskipan
kommunuskrivstovan
kommunusku
kommunusty
kommunuval
kommunuvalinum
kommunuvalið
komna
komnar
komnir
komoroyggjar
kompagni
komponera
komponerað
komponeraði
komponistur
komposisjo
kompositio
komst
komu
kon
kona
konan
konfirmatio
konflikt
kong
kongabo
kongadømi
kongafiskur
kongaliga
kongaligi
kongaligur
kongar
kongari
kongarnir
kongehuset
kongelige
kongens
kongi
kongin
kongins
konginum
kongliga
kongo
kongoa
kongressin
kongressina
kongressini
kongs
kongsbo
kongsdo
kongsdømi
kongshu
kongsins
kongsjørð
kongsri
kongsveldi
kongsveldið
kongur
kongurin
konjak
konkani
konni
konoy
konrad
konsert
konsertferð
konserthu
konsertin
konsertina
konsertini
konsertir
konsertum
konservativ
konservativa
konservative
konservativu
konservativur
konstantin
konstantinopel
konstantinopolitanska
konsul
kontinental
kontinentallið
konto
kontrabass
kontrakt
kontrast
konu
konufo
konum
konuni
konur
konurnar
kopar
kopari
koparrør
koppa
koppaði
koppseta
koppsett
kor
korallriv
korallrivið
koranin
koranini
korea
koreakri
korean
koreanska
koreanskt
korfu
korini
korint
korintbræv
korn
kornaapur
korni
kornini
kornið
kornlendið
kornsløg
kornsløgini
korona
koronu
kort
korte
korti
kortini
kortinum
kortið
kortum
korum
korvald
kos
kosin
kosið
kosovo
kost
kosta
kostar
kostas
kostað
kostaði
kostaðu
kostnaðurin
kostsku
kota
kotur
koturnar
kouachi
koyra
koyrandi
koyrast
koyrd
koyrdi
koyrdu
koyrdur
koyrir
koyrt
kr
kra
krabba
krabbadjo
krabbady
krabbamein
krabbameini
kraft
krag
kragerø
kragesteen
kragh
krahu
krai
kraj
krako
kraks
kralegu
krambatangi
krambu
krameldaður
kramer
kramfors
kranj
krarøktarfrøðingar
krarøktarfrøðingur
krasnodar
krasystir
krauss
krav
kravd
kravdar
kravdi
kravdist
kravdu
kravið
kraviðgerð
kravt
kravti
krea
krediteraður
kreftir
krenn
kreo
kreppa
kreppan
kreppu
kreppuna
kreppuni
kreta
krevja
krevst
krevur
krf
kri
krig
krim
krimi
kriminalitet
kriminalitetur
krimiskaldsøga
kring
kringir
kringsettu
kringur
kringvarp
kringvarpi
kringvarpinum
kringvarpið
kris
krist
krista
kristel
kristeligt
kristen
kristensen
kristersson
kristi
kristian
kristiania
kristianna
kristiansand
kristiansen
kristianstads
kristiliga
kristiligi
kristiligt
kristiligum
kristin
kristina
kristindo
kristinehamns
kristinu
kristið
kristjan
kristna
kristnan
kristnar
kristnari
kristni
kristnir
kristnu
kristnum
kristoffer
kristofferson
kristoffur
krists
kristus
kritikaravirðislønin
kritikerlaget
kritikerprisen
kritisk
kro
kroatia
kroatiska
kroatiskt
kroes
krogh
krokodillur
krokoms
kronobergs
kropp
kroppi
kroppin
kroppinum
kroppurin
kropsliga
kross
krossfestur
krossfiskar
krossi
krossinum
krossla
krossmessa
krossnev
krossur
krossurin
kroyst
kroysta
kru
kruse
kry
krydd
kryddari
krzysztof
kræklingur
krønikubo
krøv
krøvini
ks
ksf
ksfirði
ksfjalli
ksfjørð
ksho
ksi
kska
kskt
kskur
kssa
ksstri
kst
kstav
kstaviliga
kstavin
kstavinum
kstavir
kstavirnir
kstavum
kstavunum
kstavur
kstavurin
kstjørn
kt
kta
ktar
kti
ktige
ktir
ktist
ktu
ktur
ktust
ku
kuala
kuba
kubanskur
kubbut
kublai
kueyðkenni
kular
kulda
kuldalondum
kuldanum
kuldi
kuldin
kult
kultur
kulturpris
kulturva
kulu
kum
kumi
kumla
kumpass
kun
kuna
kunar
kunarson
kundar
kundi
kundu
kuneo
kung
kunga
kungsbacka
kungso
kuni
kunna
kunnað
kunnaði
kunnger
kunngerð
kunngjørd
kunngjørdar
kunngjørdi
kunngjørdu
kunngjørt
kunning
kunningarstova
kunningarstovur
kunningarstovurnar
kunnleika
kunnleikin
kunnu
kunnugt
kunoy
kunoyar
kunoyingar
kunoynni
kunst
kunstakademi
kunstakademiet
kunsten
kunstfond
kunstmuseum
kunum
kuopio
kup
kupala
kupi
kups
kupsson
kupsstovu
kur
kurbyggð
kurdar
kurdish
kurdiskt
kurds
kurfu
kurhreppur
kurin
kurkaupstaður
kurnar
kuro
kursiv
kurt
kurv
kurvabo
kurvaldømi
kurvar
kurvina
kusama
kut
kutschera
kuvait
kuveit
kuwait
kv
kvalifikasjo
kvalifikatio
kvalifisera
kvalifiserað
kvalifiseraði
kvalifiseraðu
kvalifisering
kvartetterne
kvartfinaluna
kvað
kveik
kveikt
kvenna
kvenndjo
kvennkyn
kvennkyni
kvennkynsorð
kvett
kvetti
kvettroynd
kvf
kvi
kvik
kvikur
kvindebiografisk
kvinden
kvinesdal
kvinfo
kvinna
kvinnan
kvinnu
kvinnufelagið
kvinnufelagnum
kvinnufo
kvinnufotbolt
kvinnulandsliðið
kvinnulandsliðnum
kvinnuliga
kvinnuligi
kvinnuligur
kvinnum
kvinnuna
kvinnuni
kvinnunum
kvinnur
kvinnurnar
kvinnurættindum
kvinnuti
kvistur
kviðin
kvæder
kvæðabo
kvæði
kvæðini
kvæðinum
kvæðið
kvæðnum
kvæðum
kvæðunum
kvøld
kvøldarnar
kvøldi
kvøldið
kvøldma
kvøldsku
kvørkveggja
kvørkveggjan
kvøða
kvøðið
kw
kwame
kwazulu
kwh
ky
kyi
kyiv
kykladunum
kykladurnar
kykna
kyknaði
kyknu
kyknum
kyknuni
kyknur
kyknurnar
kyksilvur
kykt
kyle
kylie
kyn
kynd
kyndil
kyndilsmessubygd
kyndilsmessubygdir
kyndli
kyndum
kyni
kynini
kynjaður
kynsbu
kynsleyst
kynsli
kynsliga
kynsligan
kynsligt
kynsligum
kynum
kyo
kyoto
kypros
kyros
kyrrahav
kyrrahavi
kyrrahavinum
kyrrahavið
kyrrahavsoyggjar
kyrrahavsoyggjarnar
kyrrahavsstrondini
kyrt
kyst
kyushu
kæra
kærd
kærdi
kærdur
kærin
kærleika
kærleikan
kærleikans
kærleiki
kærleikin
kærleiksku
kært
kæru
kærum
kærunum
kærur
kærurnar
københavn
københavns
køge
køkur
køld
køldu
køldum
kømur
køn
kørg
l
la
laa
laaftan
lab
labeini
labeinsstrondin
labeinsstrondini
label
lablaðið
lablaðnum
labo
laborde
labotni
labour
labrador
labru
labukkurin
labygdir
labørn
ladag
ladagur
laden
ladies
lado
lady
ladysmith
lafirði
lafjørðin
lafjørðinum
lafjørður
lafløgan
lafrøði
lafrøðingur
lafsdo
lafsfjo
lafsvi
lafundin
lafundurin
lafur
lag
laga
lagað
lagdar
lagdir
lagdur
lage
lagerlo
lagi
lagið
lagjo
lagna
lagnu
lagnum
lagongd
lagopus
lagos
lagrað
lagri
lagt
laholms
lahreppur
lai
laila
lak
lakalendarin
lake
lakes
laki
lakjuni
laks
laksa
laksi
lakssild
laksur
lalondini
lalondunum
lalærari
lama
lamannin
lamanninum
lamassu
lamaðurin
lamb
lamba
lambareiði
lambið
lamenn
lamhauge
lampard
lampre
lan
lana
lancashire
lancaster
lance
lancie
land
landa
landafrøði
landafrøðiliga
landafrøðiligt
landafrøðiligum
landamark
landamørk
landamørkini
landanna
landapla
landati
landau
landavegssu
landaøki
landaøkið
landbu
landet
landfast
landgongd
landgrunnin
landgrunninum
landi
landinum
landið
landjørðini
landna
landnyrðing
landnyrðingi
landnyrðings
landnyrðingshorninum
landnyrðingsparti
landnyrðingspartinum
landrut
lands
landsbo
landsbygd
landscape
landsdyst
landsdystir
landsdystur
landsfelag
landshold
landsins
landskapping
landskappingin
landskappingini
landskassan
landskrona
landslaeknin
landslag
landslagið
landslagnum
landslið
landsliðinum
landsliðið
landsliðnum
landsliðsboð
landsliðsho
landsliðsleikarar
landsliðsleikari
landsliðsma
landsliðsmet
landsliðunum
landslo
landslut
landsluti
landslutin
landslutinum
landslutir
landslutirnir
landslutum
landslutunum
landslutur
landsluturin
landslæknanum
landslækni
landslæknin
landsma
landspartar
landsparti
landspartinum
landspartur
landsparturin
landspørtum
landspørtunum
landssju
landsskjalasavn
landsskjalasavnið
landssku
landssty
landssynning
landstad
landstinginum
landstingið
landstingslimir
landsty
landsverk
landsynning
landsynningi
landsynnings
landsynningsa
landsynningsasia
landsynningshorninum
landsynningsparti
landsynningspartinum
landt
landøki
landøkið
lane
lanevndin
lanevndina
lanevndini
lang
langa
langafri
langan
langanesbyggð
langar
langari
langasandi
langbana
lange
langgaard
langgeil
langhyl
langi
langid
langir
langsokkur
langt
langteinum
langti
language
languages
langur
lanie
lanius
lanka
lans
lansing
lanslutur
lant
lantsson
lanum
lanæmingar
lao
laos
laoyggj
lapro
lapry
lar
lara
larar
lareygað
larfrøði
larfrøðingur
large
largest
lari
larin
larliga
larligum
larljo
larmyrking
larmyrkingin
larnar
larnir
larris
larry
lars
larsen
larsju
larsson
larus
las
lasa
laskipið
lasko
lasse
lassen
lasso
last
lastbili
lastbilur
lastbilurin
lastini
lastjo
lasy
lat
lata
latast
late
later
laterna
latest
lati
latifah
latimes
latin
latinos
latinska
latium
latið
latnar
latnir
latoftir
latræ
latræið
latrø
latrøð
latum
latunnilin
lau
lauda
laudrup
launch
launched
launches
laura
laurbær
lauren
laurence
laurent
laurie
lauritzen
laursen
lausanne
laut
lav
lava
lave
lavendilbla
laverkið
lavi
lavinia
laviniu
lavinium
lavoisier
lavsson
lavsøka
lavsøku
lavsøkuaftan
lavsøkudag
lavsøkuframsy
lavsøkukonsertin
lavsøkukonsertini
lavsøkuna
lavur
law
lawetz
lawrence
lawrencea
laws
laxa
laxness
layout
lað
laða
laðangarði
laðað
laðaðir
laði
laðir
laðu
laðum
laður
lb
lby
lbygt
ld
ldan
lder
ldi
ldsama
ldsamar
ldsamt
ldsamur
ldsom
ldsomu
ldsviks
ldur
le
lea
lead
leader
leaders
leading
league
lear
least
leave
leaves
leaving
leben
lech
led
ledger
lee
leeds
leeuwarden
lefigaro
left
leg
lega
legacy
legal
legan
legat
legend
legends
legg
leggi
legging
legginum
leggirnir
leggið
leggja
leggjarar
leggjarum
leggjast
leggur
leggurin
legia
legislative
lego
legst
legu
leguhu
leguna
leguni
legur
legurnar
legði
legðist
lehnert
lei
leicester
leidd
leiddi
leiddur
leiden
leif
leiga
leigað
leigaði
leigaðum
leigh
leigu
leik
leika
leikalund
leikandi
leikar
leikara
leikarafelag
leikarar
leikararnir
leikari
leikarin
leikarum
leikarunum
leikast
leikastjo
leikaði
leikaðust
leikbo
leikhu
leiki
leikin
leikinum
leikir
leikirnar
leikirnir
leiklist
leiklistara
leiklistin
leiklistina
leiklut
leikluti
leiklutin
leiklutinum
leiklutir
leiklutum
leiklutur
leikluturin
leikrit
leikritahøvundur
leikrithøvundur
leikritið
leikskald
leikstjo
leikstjori
leikt
leikti
leiktir
leiktu
leiktur
leikum
leikunum
leikur
leikurin
leikvølli
leila
leilu
leine
leingi
leingist
leinkja
leinster
leipzig
leir
leiri
leirkerið
leirvi
leisti
leita
leitan
leitar
leitað
leitaði
leitaðu
leite
leiti
leitingini
leitisvatn
leitt
leiv
leivdir
leivdirnar
leivi
leivsson
leivur
leið
leiða
leiðandi
leiðara
leiðaranum
leiðarar
leiðari
leiðarin
leiðarum
leiðarunum
leiðbeina
leiðin
leiðina
leiðini
leiðir
leiðis
leiðsla
leiðslan
leiðslu
leiðsluna
leiðsluni
leiðum
lekja
lekjandi
leksands
leksikon
lektari
lelystad
leme
lemmon
lemmy
lemonde
lemvig
len
lena
lenda
lendi
lending
lendingina
lendingini
lendinum
lendir
lendið
lendska
lendskt
lendsku
lene
lenga
leni
lenin
leningrad
lenk
lennart
lennon
lennox
lenny
lens
lenu
lenvig
leo
leon
leona
leonard
leonardo
leone
leonid
leonor
leonov
leopardsnigil
leopold
leppard
lepus
ler
lervig
lerwick
les
lesa
lesandi
lesarar
lesarin
lesarum
lesast
lesbos
lesibo
lesifør
lesley
leslie
lesnað
lesnaðin
lesnaðinum
lesotho
lesoto
lessebo
lesseps
lessons
lestrara
lestrarti
lestur
lesund
lesur
let
letour
letter
letterman
letters
lettiska
lettiskt
lettiskur
lettland
lettlandi
letur
lev
levande
level
leven
lever
leverkusen
levi
lewandowski
lewinsky
lewis
lex
lexington
ley
leyen
leygardag
leygardagar
leygardagin
leygardagur
leygardegi
leygarkvøld
leygarkvøldið
leyk
leynar
leynum
leyp
leypa
leypur
leys
leysar
leysgangari
leyslatin
leysliga
leyst
leysum
leysur
leyton
leyv
leyva
leyvan
leyvsko
leyvtrø
leyvu
leyvuna
leyvur
lez
lf
lfamiljuni
lfdan
lff
lfinn
lfrøði
lfrøðingar
lfrøðingur
lftanes
lfur
lfus
lføri
lførini
lførum
lførunum
lg
lgagn
lgar
lgbt
lgna
lharan
li
lia
liam
lias
libanon
liber
liberal
liberala
liberalisma
liberalismu
liberalur
liberation
liberia
libertadores
liberty
library
libris
libya
libyska
license
lichtenstein
lide
lidingo
lidko
lidna
lidnan
lidnar
lidnir
lidt
lie
liebe
liechtenstein
lied
lieder
lietuvosfutbolas
life
lifetime
lift
lig
liga
ligan
ligar
ligari
liggja
liggjandi
liggur
light
lightning
lights
lightweight
ligia
ligið
ligne
ligt
ligue
ligum
ligur
likam
like
likka
liktinstein
likud
lili
liljan
lill
lilla
lille
lillehammer
lillesand
lilli
lily
lim
lima
limaland
limalandi
limalond
limalondini
limalondum
limalondunum
limaskap
limaskapi
limaskapin
limaskapinum
limað
limburg
limburgiskt
limerick
limfjørðin
liminum
limir
limirnar
limirnir
limit
limited
limits
limosa
limum
limunum
limur
lin
lina
lincoln
lincolnshire
lind
linda
lindbergh
lindenskov
lindesnes
lindgren
lindy
line
linear
lines
ling
linga
lingar
lingarnir
lingin
linginum
linguistic
linguistics
lingum
lingur
lingurin
lini
linja
linjan
linju
linjuna
linjuni
linjur
linjurnar
link
linkedin
linko
links
linn
linna
linnaeus
linne
linnæus
linum
lio
lion
lionel
lions
lipstick
lir
lirnar
lisa
lisberg
lisbeth
lisboa
lise
lisin
lisið
lissabon
list
lista
listabo
listafelag
listafo
listaframsy
listagrein
listagreinir
listakvinna
listakvinnan
listama
listamannin
listamaður
listamaðurin
listan
listanum
listaportal
listar
listarfo
listarliga
listarligt
listarligum
listasavn
listasavni
listasavnið
listaska
listasøvn
listaverk
listaverkið
listavirðisløn
liste
listed
listen
listhaug
listi
listin
listinblog
listinblogg
listir
listma
lists
lit
lita
litava
litaviska
litaviskt
litað
lite
literary
literature
litevni
litføgrum
liti
litin
litinum
litir
litirnir
litisstørv
litið
litmanen
lito
litrar
litri
litt
litteratur
litteraturpris
litteraturpriser
little
littur
litum
liturin
liu
liv
liva
livandi
livar
livað
livdi
livdu
live
liverpool
liverpoolfc
lives
livet
livetiming
livets
liviha
livikorini
living
livingstone
livir
liviti
liviumstøður
livur
liz
liza
lizzie
lið
liði
liðin
liðina
liðini
liðinum
liðir
liðið
liðkapping
liðkappingar
liðkappingini
liðkappingum
liðkota
liðnum
liðskipari
liðsvimjing
liðu
liðug
liðugt
liðugur
liðum
liðunum
liður
lja
ljan
lje
ljo
lju
ljubljana
ljungby
ljusdals
lk
lka
lkaatkvøða
lkaatkvøðan
lkaatkvøðu
lkaatkvøðuna
lkaatkvøðuni
lkabo
lkadra
lkafl
lkaflokkin
lkaflokkinum
lkaflokkurin
lkafloksins
lkaflytingati
lkaha
lkaheilsura
lkakirkjan
lkakirkjuna
lkakirkjuni
lkali
lkaly
lkamegin
lkanavn
lkanavnið
lkaogn
lkar
lkari
lkarnar
lkarnir
lkaræði
lkaræðiliga
lkaræðisliga
lkaræðið
lkasku
lkaslag
lkaslagið
lkasløg
lkasløgini
lkasløgum
lkaspæl
lkaspælinum
lkaspælið
lkatal
lkatali
lkatalinum
lkatalið
lkatalsfrøði
lkateljing
lkateljingin
lkateljingini
lkating
lkatingi
lkatinginum
lkatingið
lkatingsbo
lkatingsins
lkatingslimir
lkatingslimur
lkatingsmaður
lkatingsval
lkatingsvalinum
lkatingsvalið
lkato
lkatættleika
lkatættleikin
lkavald
lkavøkstur
lkavøksturin
lkað
lkaðar
lkaði
lkaðir
lkaðu
lkerung
lki
lkin
lkina
lking
lkingin
lkingini
lkini
lkinum
lkið
lknafjarðarhreppur
lkneyt
lkring
lks
lksins
lksliga
lkum
lkunum
lkur
lkurin
ll
lla
llan
lland
llandbo
llandi
llands
llc
llefors
ller
lli
llivare
lloyd
llum
llur
llywelyn
llywood
llæra
llæru
lm
lma
lmabo
lmanakkanum
lmanakki
lmapi
lmar
lmarnar
lmarnir
lmaskald
lmasunnudagur
lmaður
lmaðurin
lmhults
lmi
lmin
lminum
lms
lmsbo
lmsbær
lmum
lmunum
lmunur
lmur
lmurin
ln
lnar
lningalist
lningar
lningarnar
lningin
lningum
lningur
lningurin
lo
loaf
local
location
loch
locke
locustella
lodi
lodigiano
lodnu
loekke
lofoten
loft
loftar
lofthav
lofthavinum
lofti
loftinum
loftið
loftvegis
log
loga
logan
logaritman
logir
logið
logn
lognberg
logo
logos
logting
logtingsmal
lokal
lokala
lokalar
lokalt
lokalu
lokalum
loki
lokið
lokka
lokkar
lokna
loknan
loksins
lola
lomb
lombardia
lomma
lomon
lomonoyggjarnar
lomons
lomonsoyggjar
lomonstemplið
lomvigi
lomvigin
lon
lond
londini
londinum
london
londum
londunum
lone
lonely
lonesome
long
longa
longd
longda
longdar
longdin
longdina
longdini
longer
longest
longi
longri
longst
longsta
longsti
longstu
longu
longum
longur
longway
longyearby
look
looking
lookup
lop
lope
lopez
lopi
lopin
lopini
lopinum
lopið
loppugras
lopra
lopranseiði
lopransho
lopsfo
lopsleikari
lopum
lopunum
loranstøðin
lord
lordi
lords
loreen
lorentzen
lorenzo
loretta
lorka
lort
lorvi
los
lose
losingtoday
losjuni
lost
lot
lotta
lotte
lotto
lottonl
lotus
lou
louis
louisa
louise
louisiana
lounge
louth
louvre
lov
lova
lovar
lovað
lovaða
lovaði
lovaðu
love
lovers
loves
lovin
loving
lovisa
low
lower
loxia
loyndarma
loyndum
loypa
loypir
loypur
loysa
loysing
loysir
loysn
loysnin
loysnir
loyst
loysti
loystur
loyva
loyvd
loyvdi
loyvi
loyvir
loyvt
loðin
loðið
loðpi
lp
lpa
lpar
lpara
lparar
lparfelagsskapur
lparfo
lpari
lparvenjari
lpg
lpin
lpina
lpini
lpir
lpt
lpti
lptu
lrevur
lri
lru
lrun
ls
lsa
lsd
lsdeildini
lsdo
lsetur
lshøgdur
lshøgging
lsi
lsin
lsinum
lsk
lska
lskar
lskari
lski
lskin
lskipan
lskipanini
lskir
lskju
lskt
lsku
lskum
lskur
lsleikari
lsliga
lsligt
lsligu
lsligum
lsligur
lsmessu
lson
lsoy
lsoyar
lstein
lstk
lstm
lstrikuna
lsur
lsurin
lsøki
lsøkið
lsøkjum
lt
lta
ltar
ltd
ltfelag
ltfelagið
lti
ltin
lting
ltinum
ltleikur
lts
ltsa
ltsamband
ltsdeildin
ltsdeildini
ltsdystir
ltsfelag
ltsfelagið
ltsfelagnum
ltsfeløg
ltsfeløgini
ltsfeløgum
ltsfeløgunum
ltskapping
ltskappingin
ltskappingum
ltslandsliðið
ltslandsliðnum
ltsleikara
ltsleikaran
ltsleikarar
ltsleikari
ltsleikarin
ltsli
ltsliðið
ltsmanslandsliðið
ltspælari
ltssamband
ltssambandi
ltssambandinum
ltssambandið
ltsspælari
ltstjo
ltsvenjari
ltsvøllin
ltsvøllir
ltsvøllur
ltsvøllurin
ltu
ltur
lturin
lu
lua
luanda
lubbock
luc
luca
lucas
lucerne
lucia
luciano
lucille
lucius
luck
lucky
lucy
ludo
ludogorets
ludvi
ludvig
ludvika
ludwig
luft
luftda
lufthavn
luftin
luftina
luftini
lufttry
lugo
lui
luigi
luis
luise
luiz
luka
lukas
luke
lukku
luksemborg
luksemborgskt
luksembourg
luksemburg
lukta
lulea
lulesa
lum
lumpur
luna
lund
lunda
lundar
lundell
lundi
lundin
lundir
lunds
lundum
lundunum
lungnabruna
lungnasniglar
lunguni
luni
lunnar
lunum
lupu
lur
lurin
lurnar
lurta
lusia
luskerið
lut
luta
lutakastið
lutað
lutfall
lutfallið
lutfalsliga
luther
lutheran
luthers
lutherska
luthersku
luti
lutin
lutir
lutirnir
lutstatinum
lutstatir
lutstatur
lutstaturin
luttaka
luttakandi
luttakarar
luttakararnir
luttakarum
luttakarunum
luttekur
luttikið
lutto
luttøka
luttøkan
luttøku
lutum
lutur
luturin
lutvi
lutzen
luva
luxembourg
luxemburg
luzern
lv
lva
lvali
lvan
lvandi
lvar
lvara
lvari
lvarsama
lvarslig
lvarsliga
lvarsom
lvbjargið
lvbjargnir
lvblo
lvboðin
lvdalens
lvdan
lverji
lvesborgs
lvfinalum
lvfinaluna
lvfinaluni
lvfinalunum
lvgum
lvhja
lvi
lvinum
lvir
lvið
lvkarleby
lvku
lvleiki
lvljo
lvlærdur
lvma
lvmaraton
lvmorð
lvoyggin
lvoyggj
lvoynna
lvoynni
lvræði
lvs
lvsa
lvsagt
lvsbyns
lvsson
lvssty
lvsty
lvstøðu
lvstøðug
lvstøðuga
lvstøðugan
lvstøðugar
lvstøðugir
lvstøðugt
lvstøðugu
lvstøðugum
lvstøðugur
lvt
lvta
lvtannað
lvtanum
lvtar
lvthundrað
lvti
lvtin
lvu
lvum
lvuna
lvuni
lvur
lvurin
ly
lybech
lycksele
lydia
lyfta
lyfti
lyftið
lyga
lygn
lykil
lykilin
lykke
lyklaorð
lymnaea
lynch
lyndi
lyndon
lyng
lyngby
lyngbye
lyngdal
lyngheiðar
lyngheiðunum
lyngi
lyngjavni
lyngstad
lynn
lyon
lyr
lyrics
lys
lystir
lystrup
lægdir
lægri
lægst
lægsta
lægsti
lægstu
lækka
lækkar
lækna
læknafrøði
læknahja
læknapro
læknar
læknarnir
læknavi
lækni
læknin
læknum
læna
lær
læra
læran
lærara
lærarafelag
lærarafelags
lærarapro
lærarar
lærararnir
lærarasku
lærari
lærarin
lærarum
lærd
lærda
lærdi
lærdir
lærdo
lærdu
lærdum
lærdur
lærir
lært
læru
lærubo
lærugrein
læruna
læruni
lærur
lærusveinarnir
lærusveinunum
læs
læsti
læsø
læt
lætnar
lætt
lætta
lættar
lættari
lættin
lættina
lættini
lættir
lættliga
lættur
lættvekt
lættvekts
løb
løbet
løg
løgd
løgdu
løgfrøði
løgfrøðiliga
løgfrøðingur
løgin
løgini
løgið
løgm
løgma
løgmann
løgmanni
løgmansbø
løgmansskrivstovan
løgmansskrivstovuni
løgmanssteypið
løgmaður
løgmenn
løgregla
løgreglan
løgreglufo
løgreglumaður
løgreglumenn
løgregluna
løgregluni
løgregluøki
løgstør
løgting
løgtingi
løgtinginum
løgtingið
løgtings
løgtingsformaður
løgtingsins
løgtingskvinna
løgtingslimir
løgtingslimum
løgtingslimur
løgtingslo
løgtingsmaður
løgtingsval
løgtingsvali
løgtingsvalini
løgtingsvalinum
løgtingsvalið
løgum
løgunum
løgur
løkin
løkke
løn
lønandi
lønin
lønt
løntakarar
lørdag
løt
løta
løtan
løtt
løttum
løtu
løtuni
løva
løwe
løðing
m
ma
maand
maandag
maarten
maastricht
mac
macarthur
macbeth
macdonald
machine
machu
mackenzie
mackolik
macmillan
macron
mad
madagascar
madagaskar
madame
maddie
made
madeira
madeleine
madia
madicken
madigan
madison
madonna
madrid
mads
madsen
maduro
mae
maelbeek
maersk
mag
magazine
magdalena
magdeburg
magellan
maggie
maggiore
magi
magic
magica
magical
magistari
maglia
magma
magn
magna
magnason
magne
magni
magnu
magnus
magnussen
magnusson
maguire
magyar
mahatma
mahmoud
mai
maia
maiden
maier
mail
maillot
main
maine
mainland
mainstream
maint
mainz
mais
maj
maja
major
maka
makao
makar
make
makedo
makedonia
makes
makin
making
makrel
makreli
makrelur
makt
maktoum
mal
mala
malaisia
malakian
malan
malandi
malari
malaria
malavi
malaysia
malcolm
maldini
maldivoyggjar
maldivurnar
male
maleisia
malena
malenu
malhac
mali
malibu
malla
mallorca
malmkvist
malmo
malmros
malrad
malt
malta
maltiskt
malung
maluni
malvestiti
mamma
mamman
mammu
mammuna
mammuni
mamuka
man
management
manager
manaus
manchester
mand
mandag
mandalay
mandarin
mandela
mandi
mandolin
mandy
manfred
mang
manga
mangan
mangar
mangastaðni
mange
mangir
mangla
manglandi
manglar
mangt
mangul
mangur
manhattan
mania
manila
manitoba
mankell
mann
manna
mannabarn
mannafar
mannafarið
mannafelsdali
mannafør
mannaførum
mannagongd
mannagongdin
mannagongdir
mannahond
mannali
mannamu
mannamunni
mannarættinda
mannarættindado
mannarættindastri
mannarættindayvirly
mannarættindi
mannarættindini
mannarættindum
mannaættin
mannaættina
mannaættini
mannað
mannaðu
mannaður
manndra
mannen
mannerheim
mannfjøld
mannfo
mannheim
manni
mannin
manning
manningin
manningini
manninum
mannliga
mannligi
mans
mansbarn
mansfo
manskt
mansleiki
mansliðið
manson
mansri
manssku
manuel
manum
manutd
manx
many
mao
maoriar
map
mapping
maps
mar
mara
marabo
maradona
marar
mararnir
marathon
maraton
marc
marcel
marcelo
march
marcia
marco
marcos
marcus
mare
margaret
margareta
margaretha
margarin
margha
margit
margot
margreta
margretha
margrethe
margretu
marguerite
mari
maria
mariager
mariagerfjord
mariah
mariana
marianaoyggjar
marianna
marianne
mariannu
marianoyggjar
maribo
maribor
marie
mariehamn
mariestad
marijuana
marilyn
marin
marina
marine
mariner
marino
mario
marionnu
marissa
marit
marita
marite
maritima
maritime
maritu
mariu
mariukirkjan
mariumessa
marius
marjorie
marjun
mark
markaryds
marker
markerað
market
marki
markinum
markirnar
markið
marknaðarbu
marknaðarføra
marknaðarføring
marknaðarførslu
marknaði
marknaðin
marknaðinum
marknaðir
marknaðum
marknaður
marknaðurin
marks
markus
marlene
marley
marlon
marna
marnar
marner
marnersdo
marni
marnir
marokko
marquesasoyggjar
marquis
marrakech
marriage
married
mars
marseille
marselius
marsha
marshall
marshallhja
marshalloyggjar
marsilu
marstal
mart
marta
martha
marti
martin
martinique
martins
martinsson
marts
martti
marty
marunum
marvel
marx
marxism
mary
maryland
mas
mask
maskinan
maskinmeistari
maskinu
maskinum
maskinur
maskinurnar
mason
mass
massa
massachusetts
massacre
massafylla
massi
mast
master
mastering
mastermind
masters
mat
mata
matador
matað
match
matches
matchid
mate
matgerð
math
mathbb
mathias
mathilde
mati
matilda
matin
matinum
matisse
matna
mato
matras
mats
matstova
matstovan
matstovu
matstovum
matstovuni
matstovur
matt
mattarella
mattel
matteo
matter
matteus
matthew
matthews
matthias
matti
mattias
mattrot
matur
maturin
matvøru
matvørufelagsskapur
matvøruhandil
matvørum
matvørur
mau
maud
maudland
maupassant
maurice
mauricio
mauritius
maurizio
maverick
max
maxim
maximilien
maximus
maxwell
may
maya
mayafo
mayaindia
mayari
mayen
mayer
mayhem
mayo
mayor
mayotte
mazinger
maði
maðkar
maður
maðurin
mb
mbf
mbol
mbolið
mborð
mc
mcbirnie
mcbrain
mccain
mccarthy
mccartney
mcclelland
mcconnell
mcdonald
mcfarland
mcgill
mcgovern
mcgraw
mcgvagg
mckinley
mcqueen
md
mdar
mdarfar
mdarfarinum
mdarfarið
mdarfør
mdarmaður
mdi
mdina
mdini
mdir
mdu
mdur
me
mean
meaning
meat
meath
mecklenburg
med
medal
media
medical
medici
medicine
medien
medieval
medina
medisin
medisini
mediterranean
medley
medregnes
medu
medvedev
meet
meets
meg
mega
megd
meget
megi
megin
megina
meginfelag
meginland
meginlandinum
meginlandið
meginlondini
meginpartin
meginpartinum
meginparturin
meginstjo
meginøki
meginøkinum
meginøkið
megna
megnar
megnað
megnaði
megnaðu
mehren
mei
meiari
mein
meina
meinar
meinast
meingi
meinhard
meining
meiningin
meinli
meint
meinti
meir
meira
meiri
meiriluta
meirilutan
meirilutanum
meiriluti
meirilutin
meirluta
meirlutan
meistaradeildin
meistaraheiti
meistaraheitið
meistaraheitum
meistarar
meistaraskapinum
meistaraskapurin
meistarastevnuni
meistaraverk
meistari
meistarin
meitil
meiðslaði
mej
mekka
meksikansk
meksikanska
meksikanskur
meksiko
meksikoby
meksikoflo
mel
melancholy
melanesar
melanesia
melania
melanie
melbourne
melda
meldar
meldað
meldaði
meldið
melduro
melissa
mellan
melleefresh
mellem
melleruds
mellitus
mellouli
melodi
melodifestivalen
melodigrandprix
melur
member
members
membership
memo
memorial
memories
memory
memotekið
memphis
men
menachem
menilaos
menn
menna
mennandi
mennast
mennesker
menninar
menning
menningarhja
menningarlond
menningarlondini
menningarlondum
menningarlondunum
menningarlæru
menningartarni
menningin
menningina
menningini
menninir
mennir
menniskja
menniskjan
menniskjans
menniskjað
menniskju
menniskjum
menniskjuni
menniskjunnar
menniskjur
mennist
menorka
mens
mensura
ment
mentafo
mentama
mentan
mentanar
mentanararv
mentanaravrik
mentanargrunni
mentanargrunnur
mentanarhu
mentanarli
mentanarlig
mentanarliga
mentanarligt
mentanarligu
mentanarligum
mentanarligur
mentanarma
mentanarmiðdepil
mentanarnevnd
mentanarnevndini
mentanarstovnur
mentanarvirðisløn
mentanarvirðislønir
mentanin
mentanina
mentanini
mentanir
mentanum
mentar
menti
mentir
mentist
mentor
mentu
mentunargrunni
mentunargrunnur
mentur
menu
menuid
menuitemid
mephitis
mer
mera
mercedes
mercedis
mercer
merckx
mercury
mercy
mere
merg
merida
meridian
merit
merkel
merki
merking
merkingin
merkini
merkinum
merkir
merkis
merkistein
merkið
merkja
merkjum
merkt
merkti
merktur
merkur
merle
mermaid
mert
meryl
mes
mesa
mess
messa
messi
messias
mest
mesta
mestan
mesterskaber
mesti
mestsum
mestu
mestur
mesures
mesut
met
meta
metal
metaliga
metallica
metast
metbo
meter
method
meti
meting
metingar
metingarnar
metingin
metini
metir
metið
metra
metrar
metre
metrisku
metro
metropolitan
metrum
mett
metta
mettar
mette
metti
mettir
mettu
mettur
metum
metur
meturskipanini
meu
mexico
meyer
mezentios
með
meðal
meðan
mf
mfru
mfs
mg
mi
mia
miami
mice
michael
michala
michał
michea
michel
michelangelo
michele
micheli
michelle
michelsen
michigan
michiganvatn
mick
mickey
microbiology
microsoft
mid
middeweek
middle
middleeast
mideast
midjord
midlands
midna
midnight
midt
midtjylland
midway
midwayoyggjar
mie
mier
mig
migration
miguel
mijn
mika
mikael
mikal
mike
mikel
mikhail
mikil
mikines
mikið
mikkalina
mikkel
mikkelsen
mikkjal
mikkjalsdo
mikkjalsmessa
mikkjalsmessu
mikla
mikladali
mikladals
mikladalur
miklagarður
miklaholtshreppur
miklan
mikli
miklu
miklum
mikronesia
mikronesiasamveldið
mikudag
mikudagin
mikudagur
mikudegi
mil
milan
milano
mile
miles
miley
miliga
militants
military
miljardir
miljo
miljø
milk
mill
millennium
miller
milliard
milliardir
milliardum
millio
million
millionar
millionir
millions
millum
millumbilum
millumnavnið
millumru
millumtjo
milne
milos
milt
milton
milvus
mimir
mimis
min
mina
minas
mind
mine
minetegneserier
ming
mingar
mingini
minh
minha
mini
minister
ministers
ministry
minka
minkandi
minkar
minkað
minkaðar
minkaði
minkaðu
minkaður
minking
minkur
minn
minna
minnast
minneapolis
minnesota
minni
minniluta
minnilutama
minnilutar
minnilutastjo
minniluti
minningar
minningardagur
minningarorð
minningarrit
minnir
minnis
minnisrit
minnist
minnisvarðan
minnisvarði
minnisvarðin
minnið
minogue
minor
minsk
minst
minsta
minsti
minstu
mint
minti
mintist
minum
minur
minus
minute
minutes
minutt
minutti
minuttin
minuttir
minuttum
mio
miquelon
mir
miragoli
miranda
mirbeau
miriam
mirror
mis
misa
misbru
miscellaneous
miseydnast
miseydnaðist
miseydnaðust
miska
miskt
miskum
mismun
mismuni
misny
misnøgd
miss
missa
missing
missio
mission
missir
mississippi
mississippia
misskiljing
missouri
missouria
missur
mist
misti
mistu
mit
mitch
mitchell
mitchelton
mitens
mitra
mitsuko
mitt
mittasti
miu
mix
mixed
mizuki
mið
miða
miðafrika
miðafrikaly
miðal
miðaldar
miðalhitin
miðalli
miðalsto
miðamerika
miðasia
miðby
miðdepil
miðdepilin
miðdeplinum
miðevropa
miðeystri
miðeystur
miðflokkin
miðflokkinum
miðflokkurin
miðil
miðja
miðjan
miðjari
miðjarðarhav
miðjarðarhavi
miðjarðarhavinum
miðjarðarhavið
miðju
miðjum
miðjuna
miðjuni
miðkring
miðla
miðlafo
miðlahu
miðlar
miðlarnir
miðlasavnið
miðlum
miðlunum
miðna
miðskarð
miðskeiðis
miðstovubo
miðstøð
miðva
miðvallaleikari
miðvi
miðvingur
miðøld
miðøldina
miðøldini
mja
mjin
mjins
mjo
mju
mjølnir
mjørka
mjørkadali
mjørkadalur
mjørki
mkirkja
mkirkjan
mkirkjuna
mkirkjuni
mlb
mligu
mm
mmr
mn
mo
moa
mobile
moby
moc
mod
mode
model
modell
models
modena
moder
moderata
moderate
moderaterna
modern
moderna
modernaða
modi
modules
moe
mogadishu
mogens
mohamed
mohammad
mohammed
mohr
moi
moines
moirae
mojo
mol
mold
molde
moldin
moldina
moldini
moldova
molie
moll
molly
molossos
moment
moments
momo
momoiro
mon
mona
monaco
monako
monarki
monarkurin
monday
monde
mondiale
mondovi
mondul
monet
monetta
money
mong
mongd
mongdin
mongdina
mongdir
mongdum
mongolar
mongolia
mongolsku
mongu
mongum
monica
monika
monitor
monk
monkey
monmouth
monmouthshire
monnow
monnum
monnunum
mono
monpezat
monroe
mons
monster
monsters
mont
montana
monte
montenegro
monteverdi
montgomery
month
months
montpelier
montre
montreal
montserrat
monument
moody
moon
moonlight
moore
mor
mora
moral
moralskt
moranis
morbøkutur
more
moreau
moreno
morgan
morgin
morgni
morgra
morgun
morgunin
moritz
morning
morocco
morreyð
morricone
morris
morrison
mors
morskranes
morsnigil
mortan
mortansson
morte
morten
mortensen
mortensens
morti
morts
morð
morðið
morðroynd
mos
mosa
mosaic
mosambik
moscow
moses
mosfellsbær
moshi
mosi
moska
mosku
moskur
moskusneyt
moskva
moss
most
mostefai
mot
motacilla
motala
motalisti
mother
moti
motion
moto
motor
motorar
motori
motorsu
motzfeldt
mou
mount
mountain
mountains
mourinho
mourits
mouritsen
mouse
mouskouri
mouth
move
movement
moves
movie
movies
movistar
moy
moyggjar
mozart
mp
mpeg
mpiri
mpro
mr
mrs
ms
msa
msbo
msbygd
mseyjarhreppur
msferð
msfjall
msflokkurin
msfrøðingur
msheiðursløn
mshu
msins
msku
msl
msn
msnbc
msnes
msnevndin
msnevndini
msra
msskaldsøga
mssku
msson
mstad
msti
msto
msunds
msvaldið
msvi
msvinna
msvinnan
msvinnu
mt
mtlands
mtv
mtva
mty
mtyzmde
mu
muammar
mubarak
much
muckle
muelsbo
mugabe
mugu
muhammad
muhammed
mukherjee
mulder
mulher
mulheres
muller
mullsjo
multimediafiles
multiple
mum
mumbai
mun
munandi
munar
munarson
munch
mundi
mundial
mundið
mundo
mundu
muni
munich
municipalities
municipality
munin
munir
munkar
munkfors
munkur
munkurin
munn
munnan
munni
munnin
munnliga
munnu
munster
munum
munur
munurin
munzinger
mur
murder
murin
murnar
murphy
murray
mus
musa
musculus
muse
museet
museum
musharraf
music
musical
musik
musikksku
muskipanin
muslim
muslimar
muslims
muslimsk
muslimska
muslimskar
muslimskari
muslimski
muslimskir
muslimskt
muslimsku
muslimskum
muslimskur
muslimum
muslimur
mussolini
must
mustafa
mutur
muyo
mverjabrævið
mverjar
mverjari
mverjum
mversk
mverska
mverski
mverskir
mverskt
mversku
mverskum
mverskur
mw
my
myanmar
myers
myhre
mykines
mykinesar
mykinesho
mykinesi
mykonos
mylla
mynd
mynda
myndablaðið
myndabo
myndahøggari
myndama
myndamaður
myndar
myndasavn
myndato
myndað
myndaði
myndaðu
myndevni
myndin
myndina
myndini
myndir
myndirnar
myndlist
myndlistafo
myndpry
myndugleika
myndugleikar
myndugleikarnar
myndugleikarnir
myndugleiki
myndugleikin
myndugleikum
myndugleikunum
myndum
myndunum
mynstur
mynteind
myntir
myra
myrd
myrdur
myrk
myrka
myrkabla
myrkar
myrkari
myrkri
myrkrið
myrkt
myrku
myrkur
myrkursins
myrða
myrður
myself
myspace
mystery
mæla
mælir
mælt
mælti
mæltu
mær
mærsk
mæta
mætari
mætasta
mætastu
mæti
mætir
møblar
møguleika
møguleikan
møguleikar
møguleikarnar
møguleikarnir
møguleiki
møguleikin
møguleikum
møgulig
møguliga
møguligar
møguligt
møguligum
mølini
møller
møn
møre
mørk
mørke
mørkini
mørkøre
mørkøv
mørland
møta
møtast
møti
møtir
møtt
møtti
møttu
møttust
møði
n
na
naa
naband
nabandið
nabandslo
nabond
nach
nacional
nacka
nad
nadag
nadagin
nadagur
naddoddur
nadegi
nadja
nadu
nafo
nafta
nagasaki
nagerði
nagoya
nagras
naguib
naipaul
nairo
nairobi
nakar
nakað
naked
nakin
nakjøt
nakkan
nakkanum
nakra
nakran
nakranti
nakrar
nakrari
nakrir
nakskov
naksos
nalag
nalagi
nalagnum
nalig
naliga
naligt
naligu
naligum
naly
nam
nama
name
named
namerika
names
namibia
namillum
namo
nan
nana
nancy
nandi
nang
nanna
nanning
nansen
nanum
naomi
napalm
napole
napoleon
napoleonskri
napoli
napolitano
nar
nara
narantal
narar
nararnir
narband
narhorn
nari
naringra
narkotika
narlag
narmið
narmiðum
narnar
narnir
narra
narsarsuaq
narva
narvingin
nas
nasa
nascimento
naser
nash
nashville
nashyrningar
nashyrningur
nasi
naska
naskald
naskaldið
naskilnað
naskøld
naskøldunum
nasmiðir
nasmiður
nasmiðurin
naso
nassau
nasser
nast
nasteinur
nat
natal
natalia
natalie
natasha
nation
national
nationale
nationalism
nationalt
nations
native
nato
natrium
natten
nattestad
natu
natural
nature
natwest
natwestiowresults
natwestislandgames
naujiena
nauru
navatnshreppur
navatnssy
navi
navigatørfelag
navn
navnabroyting
navnalo
navnframa
navngivin
navni
navninum
navnið
navnorð
navnorðinum
navnorðið
navy
nazi
nazionale
nazistarnir
nað
naða
naðar
naðarfelagið
naðarfo
naðarjørð
naðarland
naðarlendi
naðarlig
naðarliga
naðarligar
naðarligt
naðarligu
naðarligum
naðarligur
naðarlønir
naðarma
naðarra
naðarskiftið
naðarvørum
naðarvørur
naðarøki
naði
naðin
naðinum
naðir
naðirnar
naðirnir
naðu
naðum
naðunum
naður
naðurin
naþing
nb
nband
nbc
nbcnews
nber
nbilar
nbjørt
nbond
nbsp
nc
nchen
nchengladbach
ncia
nd
nda
ndagarðar
ndagarður
ndagørðum
ndahu
ndan
ndans
ndanum
ndar
ndarson
ndasonur
ndel
nden
nder
ndez
ndheimi
ndi
ndige
ndin
ndir
ndist
ndo
ndringar
ndu
ndum
ndunum
nduo
ndur
ndy
ne
nea
near
neata
nebbasild
nebelong
nebraska
ned
nederland
nederlandse
need
needed
needs
negativ
negativt
negro
nei
neil
neistanum
neistin
nej
nel
nell
nelson
nema
nen
neo
neon
neoptolumos
neoptolumosi
nepal
nephew
neptun
nergie
nero
nersborg
nes
nesi
nesinum
nesið
neskaupstaður
ness
nest
nesvi
net
netanyahu
netflix
netherlands
netinum
netið
nett
netvarp
netverk
network
networks
neue
neutral
neutron
neutronin
neutronir
nev
nevada
nevaleikari
neve
never
neverland
nevi
neville
nevinum
nevis
nevið
nevna
nevnarin
nevnast
nevnd
nevnda
nevndar
nevndarformaður
nevndarlimir
nevndarlimur
nevndarsessir
nevndi
nevndin
nevndina
nevndini
nevndir
nevndirnar
nevndist
nevndu
nevndum
nevndunum
nevndur
nevniliga
nevnir
nevnist
nevnt
new
newark
newcastle
newman
news
newsfiles
newsid
newsweek
newt
newton
next
ney
neymar
neyst
neystabø
neystini
neyt
neytagarðar
neytahald
neytakjøt
neytini
neytum
neyv
neyvan
neyvari
neyvt
neyð
neyðars
neyðhja
neyðini
neyðto
neyðtøku
neyðug
neyðuga
neyðugar
neyðugt
neyðugu
nez
neðra
nfc
nfinn
nfl
ng
nga
ngd
nge
ngel
ngelholms
ngen
nger
ngerð
ngna
ngo
ngs
ngstrump
ngvakeppni
nh
nha
nhild
nhl
ni
nia
niagara
niagaraa
niagarafossar
niagarafossur
nial
nibali
nic
niccolo
nice
nicholas
nicholson
nicht
nick
nickelodeon
nicki
nicko
nicky
niclas
niclasen
nico
nicola
nicolae
nicolai
nicolaj
nicolas
nicole
nicolina
niedersachsen
niels
nielsen
niet
nietzsche
nieuw
nieuws
nieuwsblad
nifs
nig
nigel
niger
nigera
nigeria
nigerian
nigerianskur
night
nightmare
nights
nika
nikab
nikaragua
nike
niki
nikias
nikita
nikki
nikkul
nikla
niklas
niklasarmessa
niklasarmessu
niklasi
nikola
nikolai
nikolaj
nikolaos
nikolaus
nikos
nikosia
nikotin
nikæno
nil
nila
nils
nilssen
nilsson
nimr
nimrud
nin
nina
nine
ning
ningar
ningarnar
ningin
ningina
ningini
ningum
nini
ninja
ninna
nintendo
ninum
nio
nior
niorð
niorðum
nippo
nir
nirnar
nirvana
nishiwaki
niska
nissan
nist
niue
nixon
nizza
nið
niðagri
niðan
niðanfyri
niðara
niðari
niðaru
niðast
niðrandi
niðri
niður
niðurbro
niðureftir
niðurflytarar
niðurflyting
niðurfyri
niðurlag
niðurlagdur
niðurlagið
niðurlagt
niðurlendingar
niðurlendsk
niðurlendska
niðurlendskir
niðurlendskt
niðurlendsku
niðurlendskum
niðurlendskur
niðurlond
niðurlondum
niðurløgd
niðursetingin
niðursetubygd
niðursetubygdin
niðursetufo
niðursetumenn
niðursetumenninir
niðurstøðan
niðurstøðu
niðurtikin
nj
njal
njarðvi
njk
njm
njo
nk
nko
nkrumah
nl
nland
nleif
nleik
nleika
nleikaa
nleikabo
nleikafestivalum
nleikaframleiðari
nleikaheimin
nleikaheiður
nleikakapping
nleikakappingina
nleikakappingini
nleikakvinna
nleikali
nleikara
nleikarafelag
nleikarahu
nleikaran
nleikaranum
nleikarar
nleikararnar
nleikararnir
nleikarasku
nleikarfelag
nleikarhu
nleikari
nleikarin
nleikarinna
nleikarinnan
nleikarinnuna
nleikarinnuni
nleikarum
nleikarunum
nleikasku
nleikasti
nleikatiltak
nleikau
nleikaverk
nleikavirðisløn
nleiki
nleikin
nleikinum
nleikir
nleikum
nleikur
nleikurin
nlig
nliga
nligar
nligt
nligu
nligum
nligur
nlist
nlistarliga
nm
nn
nna
nnavend
nndag
nneberga
nni
no
noaa
noah
nobel
nobelpri
nobelprize
nobels
nobelvirðislønin
nobelvirðislønina
nocchi
node
noe
noel
noget
noi
noid
nok
nokia
nokk
nokmentanin
noktandi
noktar
noktað
noktaði
noktaðu
nol
nolan
nolsøe
nominations
nominees
nominerað
nomineraður
nominerede
nomið
non
noonie
noord
nor
nora
nord
nordanstigs
norden
nordic
nordicstylemag
nordische
nordisk
nordiska
nordiske
nordjylland
nordjyllands
nordland
nordli
nordlysid
nordmalings
nordre
nordrhein
nordsieck
nordsjælland
noreg
noregi
noregis
noregs
norfolksoyggj
norgay
norge
norges
norlin
norma
normal
normals
norman
normandi
normandie
norn
norra
norrbottens
norrko
norro
norrta
norrøn
norrøna
norrønari
norrønt
norrønu
norrønum
norsjo
norsk
norska
norskahavið
norskar
norskari
norske
norski
norskir
norskt
norsku
norskum
norskur
north
northern
northwest
norton
norway
norwegian
norwegiancharts
norwich
norð
norðagøtu
norðan
norðanfjørðs
norðanfyri
norðani
norðanlondum
norðanmenninir
norðantil
norðara
norðari
norðarlaga
norðaru
norðast
norðasta
norðasti
norðastu
norðausturvaldømi
norðberg
norðbergseiði
norðbergseiðinum
norðborg
norðbu
norðdepil
norðdepils
norðdepli
norði
norðly
norðmaður
norðmaðurin
norðmenn
norðmonnum
norðoy
norðoya
norðoyar
norðoyastevnu
norðoyatunnilin
norðoyggjar
norðoyggjum
norðoyri
norðpo
norðradalur
norðragøta
norðragøtu
norðri
norðsjo
norðska
norðstreymoy
norðstreymoyar
norðtoftir
norðtoftum
norður
norðurafrika
norðuramerika
norðuramerikanska
norðuratlantshavi
norðuratlantshavinum
norðuratlantshavið
norðurbreidd
norðurcarolina
norðurdakota
norðureftir
norðurendan
norðurevropa
norðurfraklandi
norðurfri
norðurgrønlandi
norðurhøvum
norðuri
norðurindia
norðuritalia
norðurju
norðurkalifornia
norðurkorea
norðurlanda
norðurlandahu
norðurlandama
norðurlandara
norðurlendsk
norðurlendska
norðurlendskan
norðurlendskar
norðurlendskari
norðurlendskt
norðurlendsku
norðurlendskum
norðurlond
norðurlondini
norðurlondum
norðurlondunum
norðurmarianoyggjar
norðurnigeria
norðurnoregi
norðuroyggjar
norðuroyggjum
norðurpo
norðursa
norðursi
norðurstreymoy
norðurstreymoyar
norðurstrondini
norðurty
norðurvjetnam
norðurþing
norðvesturvaldømi
nos
nostra
nostradamus
not
note
noten
notes
nothing
nothofagus
noticia
noticias
notodden
notre
nottingham
notur
nou
nov
nova
novaja
novak
novela
noveller
november
novembur
novgorod
novn
novo
now
noy
noyar
noydd
noyddi
noyddir
noyddist
noyddu
noyddur
noyddust
noytt
noyða
noyðast
noyðist
npr
nprins
nprinsessa
nprinsur
nprinsurin
nps
nr
nra
nri
nrk
nrw
ns
nsd
nsdjo
nsdo
nsdy
nsfilmur
nsfuglur
nsgjo
nshu
nsi
nsk
nska
nskar
nskt
nsku
nskum
nskur
nsma
nsmenn
nsra
nsson
nster
nstera
nsumboðið
nt
ntur
nu
nubia
nufc
nukleofil
null
nullpunkt
num
numan
number
numbers
numitor
numitori
nummar
nummarið
numre
nun
nuna
nunavut
nunes
nungin
nuni
nuno
nunum
nuovo
nur
nurin
nurnar
nurt
nus
nusra
nuuk
nvarp
nvarpi
nvarpinum
nvarpið
nvarps
nvarpsfilmum
nvarpsins
nvarpsmaður
nvarpsra
nvarpsrøð
nvarpsrøðin
nvarpsrøðina
nvarpsrøðini
nvarpsrøðum
nvarpsrøðunum
nvarpssending
nvarpssendingini
nvarpsvertur
nwt
ny
nya
nybo
nyborg
nybro
nye
nygaard
nygaardsvold
nyggja
nyggjur
nyheder
nyhederne
nyheter
nyholm
nyko
nykøbing
nym
nyna
nynorsk
nyrup
nysted
nystrøm
nyt
nytimes
nytt
nyttu
nyttur
nz
næla
næmingar
næmingarnir
næmingum
næmingunum
næmingur
nær
nærhendis
nærindis
nærkast
nærkaðist
nærmast
nærmasta
nærmasti
nærmastu
nærri
nærum
næs
næss
næst
næsta
næstan
næstbest
næstbesta
næstbestu
næstelsta
næstelsti
næstflest
næstforkvinna
næstformaður
næsthægsta
næsti
næstmest
næstovastu
næstskjo
næststørsta
næststørsti
næststørstu
næstu
næstur
næstvanligasta
næstved
nætur
næturnar
nøgd
nøgdin
nøgdir
nøgdum
nøgdur
nøkrum
nøkta
nøktandi
nøkulunda
nøkur
nøkurlunda
nørast
nørgaard
nøring
nørre
nørresundby
nøs
nøtir
nøvn
nøvnini
nøvnum
nøvnunum
o
oak
oakland
oaks
ob
obama
obi
obituaries
obituary
object
oblast
obp
oc
ocean
oceania
oceanica
och
ockelbo
oclc
oct
octave
october
od
oda
odd
odda
oddamaður
oddamaðurin
oddamenn
oddamonnunum
odder
oddfri
oddvør
odense
oder
odessa
odvar
odyssevs
oecd
oen
oenanthe
of
off
offenbach
offenburg
offer
offers
office
officer
official
officially
officials
officielle
offs
offset
offshore
offur
offurmorðið
ofra
ofrað
ofta
oftani
oftari
oftast
og
ogden
ogn
ogna
ognarfelag
ognarfornøvnini
ognarrættin
ognarvi
ognarvirkið
ognað
ognaði
ognina
ognir
ognirnar
ognum
ogsa
oh
ohio
ohioa
oil
ois
oise
ok
okkara
okkum
okkurt
oklahoma
okres
oksanen
okt
oktavia
oktober
oktobur
ol
ola
olaf
olathe
olav
olavsson
old
oldenburg
ole
oleander
oleg
olesen
olga
olgar
oli
olivant
oliveira
oliver
olivia
olivier
olivur
olja
oljan
olju
oljuber
oljufelagnum
oljufeløg
oljui
oljukeldur
oljuland
oljuma
oljuna
oljuni
oljupri
oljureinsiverk
oljuu
oljuvinnan
oljuvinnu
oljuvinnuni
olle
olof
olofstro
olomouc
olov
olsen
olshana
olsson
olsvig
oluf
olympia
olympiadan
olympiakos
olympic
olympics
olympisk
olympiska
olympiskir
olympiskt
olympisku
om
omaha
oman
omana
omanaftur
omaneftir
omanfyri
omanlop
omanyvir
omar
omega
omegatiming
omkring
omleið
omloop
omma
omman
ommu
omra
on
once
onde
one
onepage
ong
onga
ongan
onganti
ongar
ongari
ongastaðni
ongi
ongin
ongland
onglandi
onglands
onglendingar
ongum
oniontree
oniscus
onki
onkra
onkran
onkrar
onkrari
onkrastaðni
onkrum
onkunti
onkur
onkursvegna
onkustaðni
online
only
onnu
onnur
ono
ons
onsdag
ont
ontario
ontariovatn
op
opbyggelige
opec
open
opening
opera
operaen
operahu
operasangari
operasangarinna
operasongkvinna
operation
operations
operuna
opin
opinbering
opinion
opium
opið
opna
opnan
opnar
opnað
opnaði
opnu
opnum
opp
oppland
opposition
oprah
oprindelse
ops
optaget
option
opus
or
orange
orangutang
orania
oranjestad
orbis
orchestra
ord
ordbog
order
ordiliga
ordning
oregon
orestis
org
organisation
organistur
organization
organizations
orglið
orgul
orica
oricon
orient
orientering
origin
original
originaltittel
orion
orka
orkan
orkaði
orkestrinum
orkestrið
orkestrum
orkestur
orkesturleiðari
orkney
orknoyar
orknoyggjar
orknoyggjum
orknoyum
orku
orkukelda
orkukeldur
orkuma
orkuna
orkuni
orkuny
orlando
orleans
ormar
ormin
orminum
ormur
ormurin
oro
orrustan
orsa
orsaka
orsakað
orsøk
orsøkin
orsøkina
orsøkir
orsøkirnar
orsøkum
orsøkunum
ort
orter
ortodoks
ortodoksa
ortodoksu
orust
orð
orða
orðabo
orðabøkur
orðaskiftinum
orðað
orði
orðingar
orðingin
orðingum
orðini
orðinum
orðið
orðsins
orðtøk
orðtøkini
orðum
orðunum
os
osaka
osama
osasco
osby
oscar
oscars
oseania
osfr
osiania
oskar
oskarshamns
oskarsson
oslin
oslo
osm
osmannari
osmanniska
osmanska
oss
ossetiskt
ost
osteen
osti
osvald
othello
other
others
otis
otranto
otta
ottarsdo
ottawa
ottesen
otto
ottoman
ottomanska
ou
our
oussama
out
outside
outstanding
outta
ov
ova
ovana
ovara
ovari
ovarlaga
ovarliga
ovaru
ovast
ovasta
ovasti
ovastu
ovce
ove
over
overall
overland
oversigt
oversættelse
overview
ovurfiti
ovurhonds
ovurri
ovursto
owen
own
owner
oxelo
oxford
oxfordshire
oxidatio
oxygen
oy
oyggin
oyggj
oyggjabo
oyggjabu
oyggjaflokkur
oyggjaland
oyggjalandið
oyggjaleikamet
oyggjaleikanevndin
oyggjaleikanna
oyggjaleikasambandið
oyggjaleikir
oyggjaleikirnar
oyggjaleikirnir
oyggjaleikum
oyggjaleikunum
oyggjalond
oyggjar
oyggjari
oyggjarnar
oyggjati
oyggjatidindi
oyggjum
oyggjunum
oyndarfirði
oyndarfjarðar
oyndarfjørður
oynna
oynni
oyra
oyrar
oyrarbakka
oyrarbakki
oyrareingir
oyrarnar
oyrasund
oyri
oyrini
oyru
oyrunum
oyða
oyði
oyðilagdir
oyðilagdur
oyðilagt
oyðileggja
oyðileggjast
oyðileggur
oyðilegði
oyðiløgd
oyðimerkur
oyðimerkurnar
oyðimørk
oyðimørkin
oyðimørkina
oyðimørkini
oyðimørkum
oyðimørkunum
oyðin
oyðið
oz
ozil
p
pa
paa
paavo
pablo
pacific
pack
paddur
paddy
padi
padre
page
pageid
pagename
pages
pahlavi
pai
pain
pair
paixa
pajala
pakistan
pakistanska
pakistanskur
pakka
pakkhu
pakonan
pakonuna
pal
palace
palau
palazzo
palermo
palestina
palestinar
palestinsku
palgrave
palin
pall
palla
pallas
palle
palli
pallin
pallinum
palm
palme
palmer
palms
palmyra
paltrinieri
paltrow
palustris
pam
pame
pamela
pan
panama
panathinaikos
panda
pandi
pandora
panduro
panel
panini
pannuni
panoramio
panthera
panum
paolo
papa
papandreou
paparizou
paper
paperback
papers
papiamento
papoulias
pappageyka
pappageykar
pappi
papua
par
para
parabilin
parade
paradi
paradise
paradiso
paraguai
paraguay
paraguei
parai
paralympic
paralympisku
parameter
parameters
parana
paranormal
pardo
pari
paris
parish
parið
park
parker
parkin
parks
parlag
parlagi
parlamentinum
parlamentið
parliament
parliamentary
parma
parmenides
parnir
paros
part
partabrøv
partafelag
partafelagið
partafelagslo
partafeløg
partapeningin
partapeninginum
partar
partarnar
partarnir
parti
partia
participants
partierna
parties
partiet
partille
partin
partinum
partito
partizani
partner
partners
partnership
parton
parts
partti
partur
parturin
partvi
party
pas
pascal
pasok
pass
passa
passage
passar
passaði
passer
passio
passion
passport
past
pasta
pasteur
pat
patagonia
patali
patent
paterson
pathways
patmos
patri
patrick
patsy
patursson
paul
paula
pauli
paulista
paulivar
paulo
paulus
paulusar
pausu
pavarotti
pavel
pavogsbær
pavogshreppur
pavogur
paxton
paz
paði
pbs
pc
pct
pd
pdf
pdra
pe
peabody
peace
peak
pearl
pearson
peary
pebble
pecado
pedagogfelag
peder
pedersen
pedra
pedro
peer
peika
peking
pelagic
pele
pelle
pellegrini
peloponnes
pen
penalties
penalty
penduduk
pengar
pengarnar
pengarnir
pengaseðlar
penguin
penguins
pengum
penicillin
penicillinið
pening
peningaliga
peningarøkil
peningaseðlar
peningastovnur
peningi
peningin
peningur
peningurin
peninsula
penn
pennsylvania
pensioneraður
pensjo
pentagon
penthouse
people
peoples
pepe
pepper
peppers
per
perc
percussion
percy
peregra
pereira
perfect
performance
perfume
peri
period
perlan
perluni
perlur
permanent
pernille
perry
pers
persaflo
persar
persepolis
persia
persiska
persiskt
persiskum
perso
person
personal
persons
persson
perstorps
perth
pertti
peru
pervez
pesaro
peshawar
pest
pet
pete
peter
petersen
petit
petra
petri
petroleum
petros
petterson
petti
petur
peturi
pf
pfa
pfalz
pfeiffer
pforzheim
pg
ph
phantom
pharma
pharmaceutical
phd
phe
phenol
phikwe
phil
philadelphia
philbrow
philip
philipp
philippe
philippines
philips
philipsson
phillip
phillips
philology
phoca
phoenix
phone
photo
photograph
photos
php
phuket
phylloscopus
physical
physics
pi
pia
piacenza
piaf
pianistur
piano
pib
picard
picasso
picchu
pico
picture
pictures
pid
piddi
pie
piece
pieces
piemonte
pier
pierce
piero
pierre
piet
pieten
pieter
piktar
pilatus
pilgrim
pilot
pilsnar
pim
pin
pine
ping
pings
pingvin
pini
pink
pino
pinocchio
pinochet
pinot
pinotti
pinum
pinyin
pioneer
pipar
pippi
pir
pirate
pirates
piretto
pireus
pisa
pisan
pisto
pisurnar
pitcairn
pitcairnoyggj
pitch
pitea
pitt
pittsburgh
piu
pixar
pizza
pizzetti
pið
pjotr
pk
pl
pla
place
placed
places
plads
plaga
plagar
plagdi
plagdu
plaggið
plains
plan
planck
plane
planes
planet
planets
plans
plant
planta
plantan
plantað
plantu
plantua
plantufrøðingur
plantuli
plantum
plantuni
plantur
planturnar
plantusløg
plasering
plaseringin
plasma
plast
plata
platform
platin
platini
platinum
platon
platons
play
playboy
played
player
players
playing
playstation
plaza
plc
please
plo
plug
plummer
plus
pluss
pluto
plymouth
plzen
pløga
pløyen
pm
pmi
pn
pnahvi
pnað
pnaða
pnaðir
pnaðum
png
pnini
pninum
pnið
pnum
po
pocahontas
pochettino
podcast
podgorica
poe
poems
poesi
poet
poetry
poets
pogba
point
points
pokalen
poke
pokur
pol
poland
polanski
polar
polaris
poli
police
policy
polit
politi
politica
political
politics
politiið
politik
politikaran
politikarar
politikari
politikarin
politiken
politikens
politikk
politikkari
politikki
politikkin
politikkinum
politikkur
politikkurin
politima
politisk
politiska
politiskan
politiskar
politiskari
politiske
politiski
politiskir
politiskt
politisku
politiskum
politiskur
polk
poll
pollapo
pollinum
pollock
pollution
pologne
polski
polskur
poltava
polygala
polynesar
polynesia
polynom
pomme
pommern
pontifex
pooh
pool
pop
pope
popov
popp
poppbo
poppto
poppur
popular
population
por
porcellio
porkeri
porkeris
poros
port
portal
portalinum
portalurin
porte
porter
portland
porto
portrait
portrett
portrið
portsmouth
portugal
portugisar
portugisiska
portugisiskt
portugisisku
portugisiskum
portugisiskur
portuguesa
portur
portvi
porzana
posidon
position
positions
positiv
positiva
positivar
positive
positivt
positivu
possible
post
posta
postali
posten
posthu
posthumt
posti
postinum
postkort
postlasøgan
postmatch
postmaðurin
postnord
posts
postul
postur
posturin
postverk
postverkinum
postverkið
pot
potentilla
potsdam
pottar
potter
pottur
poul
poula
poulina
poulsen
pour
powell
power
powers
poznan
pp
pr
pra
practice
prag
pranab
pratensis
prayer
pre
preben
predator
prefiks
prefiksini
preliminaries
preliminary
preliminerpro
prem
premier
premiere
premierleague
prent
prenta
prentari
prentað
prentaðar
prequel
prerian
preriuu
pres
presbyterian
present
presentation
presents
president
presidente
presidential
presidents
presley
press
presse
pressemeddelelse
prest
prestagarðinum
prestagarður
prestagarðurin
prestagjald
prestagjaldi
prestagjøld
prestar
prestarnir
prestasku
presti
prestin
prestinum
preston
prestum
prestunum
prestur
presturin
prestvi
prestwick
pretoria
pretty
preussen
preview
pri
priamos
priamosar
price
pride
priest
prikkar
prikkum
prime
primera
primo
prince
princess
princeton
princip
principal
prins
prinsessa
prinsessan
prinsesse
prinsessu
prinsi
prinsipi
prinsur
prinsurin
print
prior
priotar
pris
prisen
priser
prison
prisoner
privat
privata
privatar
private
privatsku
privatum
prix
prize
prizes
pro
problem
process
procyclingstats
prod
prodju
producer
product
productid
production
productions
products
produserað
prof
professara
professari
professional
professionel
professionell
professionella
professionellum
professionellur
professionelt
professor
profetin
profetur
profeturin
profil
profile
profiles
profilur
profilurin
program
programme
programming
progressive
proibido
project
projects
projekt
promenade
pronunciation
property
pros
prosa
prosent
prosentum
proteam
protection
protein
proteinir
proteinum
protestantar
protestantiska
protestantisku
proto
proton
protonir
protour
proud
proust
provence
provided
providence
provides
province
provinces
provincia
pru
prussland
prusslandi
prusslendskur
pry
prædika
prædikarin
prædikaði
prædikumaður
prædikusto
ps
psg
psmaður
pst
psv
pt
ptar
pti
ptir
ptu
ptur
pu
pub
public
publication
publications
publique
published
publisher
publishers
publishing
pubs
pueblo
puerto
pulitzer
pulse
pulverheksa
pum
puma
pumpa
pund
pungdy
puni
punjab
punk
punkt
punkti
punktið
punktum
punum
pur
pure
pureyð
purin
purisma
purkhu
push
pusillus
pusjkin
pussy
put
putin
putur
pverjahreppur
py
pyromania
pyrrhula
pyssling
pythagoras
pætur
pæturi
pæturs
pætursborg
pæturskirkjan
pætursson
pør
pørtum
pørtunum
pørum
q
qaeda
qaqortoq
qarabag
qatar
qeqqata
qfd
qhubeka
qikiqtaaluk
qin
qing
qr
qu
quad
qualification
qualifiers
qualifying
quality
quand
quarter
quatro
quayle
que
quebec
queen
queens
quem
quercus
query
quest
question
questions
qui
quick
quickfacts
quiet
quincy
quinn
quintana
quipe
quo
qz
r
ra
raba
rabat
rabindranath
rabo
rabretland
rabretlandi
race
racearchives
racerunning
races
rachel
racines
racing
radarin
raddaleikari
raddarleikari
radical
radikala
radikale
radio
radiohead
radisson
radius
radix
rado
rae
raf
rafael
rafflesiablo
rafn
rafrøðingur
rag
raging
ragna
ragnar
ragnarsson
ragnhild
ragnvaldur
rags
ragunda
ragørðum
rahman
rai
raid
rain
rainbow
rainer
rainha
raise
raised
rak
raka
rakar
rakel
rakett
rakettir
rakk
rakri
rakstrinum
raksturin
rakt
rakti
raktir
raktu
raktur
rakul
raleigh
rali
ralph
ralæknar
ralæra
ram
rama
rame
rammatik
ramos
rampage
ramsey
ran
rana
rand
randall
rande
randers
randi
random
randy
ranga
ranger
rangers
rangifer
rani
ranieri
rank
ranking
rankings
rann
rannso
rannva
ranum
ranunculus
rao
rap
rapa
raphael
rapid
rapids
rappari
rapport
rar
rara
rari
rarnar
rarnir
ras
rasarakoyrari
rasessin
rashid
rask
raskin
raslag
rasløg
rasløgum
rasmus
rasmusi
rasmussen
rason
rast
rasta
rastovu
rastu
rasu
rasuskilnaður
rasy
rat
rate
rateyourmusic
rati
ratings
ration
ratu
rau
raul
raven
ravi
ravmagn
ravmagnið
ravn
ravnar
ravnsfjall
ravnur
ravnurin
raw
ray
raymond
raynor
razgrad
rað
raðfylgjan
raðfylgju
raðfylgjuni
raði
raðu
rbjørn
rbo
rborg
rby
rbyggð
rbyla
rbøndur
rck
rd
rda
rdalshreppur
rdar
rden
rdens
rdi
rdo
rdra
rdu
rdum
rdur
rdy
rdæmi
re
reach
read
reader
reading
ready
reagan
reaktio
real
reali
realin
realinum
reality
realkreditinstitut
really
realmadrid
realpro
realsku
realurin
reassembling
rebecca
rebekka
rebel
rebels
reboda
rebro
rec
record
recording
recordings
records
red
redaktio
redaktørur
rede
redmayne
reduktio
reed
reef
reeves
ref
refdate
reference
references
reform
reformation
refs
refugees
reg
regentur
regeringen
regeringer
reggae
reggaeto
regin
regina
regio
region
regional
regionalar
regions
register
regjeringen
reglugerð
reglulig
regluliga
regluligar
regluligt
regluligu
regluligum
reglum
reglunum
reglur
reglurnar
regn
regna
regnar
regni
regnið
regnsko
regnti
regular
regulations
regulus
rehearsal
rehnskio
rei
reich
reid
reika
reikar
reilly
reimund
rein
reina
reinan
reindjo
reindy
reiner
reinert
reinfeldt
reinføri
reinsa
reinsari
reinsað
reinsdjo
reint
reinum
reinur
reis
reisa
reise
reist
reistar
reisti
reistrup
reistu
reistur
reisur
reiv
reið
reiðar
reiðarafelag
reiðarar
reiðari
reiðiliga
reiðrast
reiðrinum
reiðrið
reiður
rejse
reka
rekandi
reki
rekord
rektari
rekur
relatio
relations
relay
release
released
releases
relevant
relief
religio
religion
religious
remains
rembrandt
remee
remember
remi
remix
remmel
remus
ren
renaissance
renato
rendi
rendu
rendur
rene
renessansan
renna
rennandi
rennari
rennes
renning
rennur
renslið
rent
rentu
renzi
replaces
repli
report
reported
reporter
reports
represent
representanter
representatives
repu
repubblica
republic
republican
republika
republikanarar
republikanararnar
republikanararnir
republikanari
republikanarunum
republikanska
republikanski
republikkini
requires
rer
res
rescuers
research
reserata
reservations
reserved
resident
resort
resources
response
ressummary
restaurant
restin
restina
restini
restorff
restorffs
result
resultater
resultlist
results
ret
retoromanskt
retrieved
rets
returdystirnir
return
returns
reu
reumert
reunion
reus
reuters
rev
reveal
revealed
reveals
revenge
review
reviews
revni
revolution
revolutionary
revsa
revsað
revsaður
revsilo
revsima
revsing
revsingin
revur
rex
rey
reydlig
reykho
reykjanesbær
reykjavi
reykjavik
reynatrøð
reynatu
reynheim
reyni
reynolds
reypa
reysti
reytt
reyð
reyða
reyðahavið
reyðan
reyðar
reyðbru
reyði
reyðir
reyðmaðkur
reyðu
reyðum
reyður
reyðvi
rez
reza
rfa
rfagra
rfagri
rfingin
rframsy
rfu
rg
rga
rgarð
rgelanda
rgen
rh
rhagaso
rhamn
rhapsody
rhead
rheinland
rheitsti
rhending
rho
rhode
rhodes
rhodesresults
rhodos
rhreppur
rhus
rhythm
ri
ria
riaa
riabu
riaj
rias
ribe
ribisi
ribosom
ric
rica
ricardo
rice
rich
richard
richards
richardson
richest
richie
richmond
richter
richterstiganum
rick
rickman
rico
riddara
riddari
riddarin
ride
rider
riders
ridge
riding
rie
riebnitzsky
rifbjerg
rifle
rig
riga
rige
riget
rigg
right
rights
rigmor
rigtig
riis
rijeka
rik
rika
rikard
riket
riki
rikin
rikið
rikke
riknir
riko
riksdagen
rilendi
rimaður
rin
rinda
rindar
rindaði
ring
ringa
ringanna
ringar
ringari
ringast
ringasta
ringastu
ringdi
ringen
ringin
ringir
ringja
ringkjøbing
ringkøbing
ringliðið
ringo
ringra
rings
ringsted
ringt
ringum
ringunum
ringur
rini
rinið
rinkeby
rinum
rio
riot
rir
ris
risa
risasto
rise
rises
risfl
risflokkin
risflokkinum
risflokkurin
risfloksins
risfo
risformaður
risin
rising
risins
risk
riska
riskipan
risku
riskum
riskur
riskvinna
riskvinnu
rislimur
rislo
risma
rismann
rismanni
rismannin
rismanninum
rismaður
rismaðurin
rismenn
rismenninar
risni
riso
rispa
risskipan
risskipanarlo
risskipanin
risskipanini
rist
rista
ristingar
rit
rita
ritan
ritania
ritbu
ritchie
ritgerð
rithoevundar
rithovundur
rithøvundafelag
rithøvundan
rithøvundanum
rithøvundar
rithøvundi
rithøvundin
rithøvundinum
rithøvundum
rithøvundunum
rithøvundur
rithøvundurin
riti
ritius
rito
ritograk
ritsjo
ritstj
ritstjo
ritu
rituvi
ritzau
rium
riva
river
rivera
rivers
rivið
rivna
rivum
rivur
riwal
riyadh
rið
riðlinum
riðlum
riðlunum
riðu
rj
rja
rjavndøgur
rjedalen
rjedalens
rjestads
rjum
rk
rkelljunga
rkro
rla
rland
rlandi
rlands
rlden
rleiðari
rlig
rliga
rligan
rligar
rligi
rligt
rligu
rligum
rls
rmeistaraheitið
rmeistari
rmland
rmlands
rmo
rms
rn
rna
rnafirði
rnafjarðar
rnafjørð
rnafjørður
rnamo
rnar
rnarleiðari
rnarlimur
rnarskipan
rnarskipanin
rnarskipanini
rnarti
rnaruppskotið
rnarvaldið
rnason
rnað
rnaði
rnaður
rnby
rneshreppur
rnessy
rnet
rni
rnin
rnina
rnini
rnir
rnirnar
rnma
rno
rnqvist
rnsko
rnsson
rnum
rnunum
ro
roa
road
roald
rob
robben
robbie
robert
roberto
roberts
robertsfors
robespierre
robin
robinson
robo
robocon
robot
rock
rockall
rockefeller
rockto
rocky
rod
roddin
roddur
rodgers
rodmundur
rodos
rodri
rodriguez
roe
rogaland
rogalandi
rogen
roger
rogers
rogn
rognkelsi
rok
rokk
rokkbo
rokki
rokkið
rokksangari
rokkto
rokna
roknar
roknast
roknað
roknaðar
roknaði
roknaðir
roknaður
rokning
roland
role
rolf
roll
rolling
rollingstone
rom
roma
romafo
roman
romance
romandie
romania
romanskt
romantic
romantikkini
romantiska
rome
romeo
romero
romm
romney
romsdal
romulus
romulusi
ron
rona
ronald
ronaldo
ronaldsay
rond
rondut
roning
ronja
ronneby
ronnie
room
rooney
roosevelt
roots
ros
rosa
rose
rosenborg
roses
roskilde
ross
rossabaki
rossi
rossini
rossið
rossum
roster
rothenberger
rotin
rotta
rottan
rotten
rotterdam
rottur
roubaix
rouch
rouen
rouge
round
roundup
route
routledge
rovfuglar
row
rowan
rowing
rowling
roxette
roy
roya
royal
royar
royking
roykja
roykt
roykur
royn
royna
roynast
roynd
royndi
royndin
royndina
royndini
royndir
royndirnar
royndist
royndu
royndum
roynir
roynt
roysni
roysningur
roðar
rquez
rr
rritu
rs
rsaftan
rsbo
rsbreyt
rsbygd
rsbygdir
rsbyrjan
rsdagur
rsf
rsfjo
rsfra
rsgøtu
rsh
rshavn
rshavnar
rsigur
rsins
rsk
rska
rskarandi
rski
rskir
rskt
rsku
rskum
rskur
rsligna
rslignu
rslit
rsliti
rslitini
rslitinum
rslitið
rslitunum
rslok
rsmessu
rso
rsskiftið
rsson
rsssf
rst
rsta
rstadømi
rstadøminum
rstal
rstalið
rstein
rsti
rsverk
rsvi
rsvølli
rsvøllur
rt
rta
rtan
rte
rterbuch
rti
rting
rtingi
rtinginum
rtingið
rtjo
rtp
rttemberg
rtu
rtz
rtøkan
rtøku
ru
rua
ruanda
rubber
rubek
rubeksen
rubin
ruby
rudaw
rudda
rudolf
rudolph
rudy
rudyard
rue
rufrøðingur
rufyribrigdi
rug
rugby
rugripasavn
rugripasavnið
rui
rukku
ruku
rules
ruligar
rulla
rum
rumenia
rumenska
rumenskt
rumenskur
run
runa
runar
runavi
runavik
runaway
rund
runda
rundan
rundanum
rundar
rundt
rundu
rundum
rundur
rune
runeberg
runi
runn
runnar
runner
runni
running
runnið
runnu
runnum
runnur
runt
runum
rupert
rur
rural
ruri
rurik
rurin
rurnar
rus
rush
rushdie
russ
russar
russel
russell
russia
russian
russisk
russiska
russiskar
russiskari
russiski
russiskir
russiskt
russisku
russiskum
russiskur
russland
russlandi
russlands
rust
rustovu
rustur
rutan
rutarbo
ruth
rutherford
rutilfeingi
rutilfeingið
rutt
rutur
ruud
ruvakurt
ruvanlukkum
ruvernd
ruvi
ruvøtn
ruðuleikanum
ruøki
rv
rval
rvali
rvallasy
rvegis
rveldi
rveldini
rveldinum
rverk
rw
rwanda
ry
ryan
rybak
ryberg
ryder
rygg
ryggfjaðrar
ryggfjøður
ryggfjøðurin
ryggfjøðurini
ryggi
ryggin
rygginum
ryggleys
ryggshamar
ryggsvimjing
ryggur
ryggurin
rygsvømning
rykti
ryskivatn
rytter
ræ
ræddur
rækjur
ræna
rænarar
rænarum
rændu
rændur
rænt
ræst
rætt
rætta
rættan
rættar
rættara
rættargjo
rættargongd
rættarhja
rættari
rættarma
rættarnevnd
rættarnevndini
rættarreglur
rætti
rættilig
rættiliga
rættiligt
rættin
rættindi
rættindini
rættindum
rættinum
rættir
rættis
rættskriving
rættuliga
rættur
rætturin
rættvi
ræða
ræðandi
ræðast
ræði
ræðið
ræðslu
ræðslusty
ræðulig
ræðuliga
ræðuligar
ræðuligt
ræðuligu
ræður
rð
rða
rðapla
rðar
rðardo
rðarson
rði
rðing
rðingar
rðingi
rðingur
rðingurin
rðstørsta
rðstørsti
rðu
rður
rødby
rødd
røddin
røddir
røddirnar
rødga
rødgaard
rødovre
røkir
røkja
røkka
røkkur
røkt
røkta
røktarheim
røkti
rømer
rønne
rør
røra
rørekur
rørsla
rørslan
rørslu
rørsluna
rørsluni
rørslur
røtt
røttu
røttum
røtur
røturnar
røð
røða
røðan
røðin
røðina
røðini
røðu
røðum
røðuna
røðuni
røður
rþing
s
sa
saaremaa
saarland
saba
sabla
sabro
sachs
sachsen
sacramento
sad
sadali
sadals
sadalstunnilin
sadalur
sadat
saddam
safari
safety
safjarðarbær
safjarðarsy
safjo
saft
sag
saga
sagan
sagang
sagarði
sagdir
sagdur
sagn
sagnir
sagnirnar
sagnorð
sagnum
sagra
sagt
sahara
sahel
sahreppur
sai
said
saigon
saint
saints
saipan
sair
sait
sak
sakarias
sakaris
sakarma
sakførari
sakk
sakni
sakramenti
sakru
sakson
saksun
saksunar
sakur
sal
sala
salah
salamis
salat
sale
salem
salems
salisbury
salix
sally
salman
salmo
salmon
salmonella
salo
salome
salomon
salon
salt
salta
saltangara
salti
saltnes
saltnesi
salurin
salvador
salzburg
sam
sama
saman
samanber
samanbera
samanberast
samanbering
samanberingar
samanborið
samanbrestir
samandra
samanhangandi
samanhangi
samanlagda
samanlagt
samanlegging
samanleggingina
samanløgdu
samanrenning
samans
samanseting
samansett
samansettar
samansettur
samantha
samanumtikið
samara
samarbeiði
samband
sambandi
sambandinum
sambandið
sambandsfl
sambandsflokkin
sambandsflokkinum
sambandsflokksins
sambandsflokkurin
sambandsfloksins
sambandsri
sambia
sambindingar
sambindingarorð
sambond
sambært
samd
samdir
samdust
samdøgrið
samdøgur
same
sameina
sameind
sameinda
sameindu
sameindum
sameint
samfelag
samfelagi
samfelagið
samfelagnum
samfelagsbo
samfelagsborgarar
samfelagsfrøði
samfelagsfrøðingur
samfelagsins
samfelagsliga
samfelagsligar
samfelagsvi
samfeløg
samfeløgum
samferðslan
samferðslu
samferðsluma
samfull
samfund
samgonga
samgongan
samgongu
samgonguna
samgonguni
samgongusamra
samheiti
sami
samkoma
samkoman
samkomu
samkomuhu
samkomum
samkomuna
samkomuni
samkomur
samkynd
samkyndi
samkyndir
samkyndleika
samkyndleiki
samkyndu
samkyndum
samkyndur
samla
samlaget
samlast
samlað
samlaða
samlaði
samlaðu
samlaðum
samlegu
samleika
samleiki
samlet
samling
samljo
samman
sammen
sammy
samoa
samos
samra
samro
samrøða
samrøðu
samrøður
samskifta
samskifti
samskiftis
samskiftisma
samskiftið
samskipa
samskipan
samskipari
samskipað
samstarv
samstarva
samstarvar
samstarvað
samstarvi
samstarvinum
samstarvið
samstarvsra
samstundis
samsvar
samsvara
samsvarandi
samsvarar
samsvari
samsy
samt
samtak
samtakinum
samtakið
samti
samtykkir
samtykkja
samtykt
samtyktar
samtykti
samtyktin
samuel
samuelsen
samurai
samveldi
samveldinum
samveldisly
samveldisri
samveldisstjo
samveldið
samveru
samvit
samvitsku
san
sanctions
sand
sanda
sandagerði
sandava
sandberg
sande
sandefjord
sandemose
sanders
sandgerðisbær
sandi
sandin
sandinum
sandler
sandoy
sandoyar
sandoynna
sandoynni
sandportal
sandra
sands
sandstrondunum
sandsvatn
sandur
sandurin
sandvi
sandvikens
sandy
sang
sangara
sangaran
sangaranum
sangarar
sangari
sangarin
sangarinna
sangarum
sangarunum
sangbo
sange
sangi
sangin
sanginum
sangir
sangirnar
sangirnir
sangkapping
sangkappingin
sangkappingina
sangkappingini
sangleikinum
sangleikur
sangskrivari
sangtekstir
sangum
sangunum
sangur
sangurin
sankt
sankta
sanna
sannan
sannar
sannaði
sannføra
sannførdur
sannføring
sannleika
sannleikin
sannli
sannu
sannur
sanremo
sansibar
sansir
sanskrit
sant
santa
santana
santiago
santo
santorini
santos
sanum
sao
sar
sara
sarah
sarajevo
saratov
sardegna
sardinia
sarhaldinum
sarhreppur
sari
sarita
sarkozy
sarnir
saronisku
sarsy
sartre
sarur
sas
saskatchewan
sassoli
sast
sat
satellite
saterdag
satoftir
satru
sats
satt
saturday
saturn
saudi
saudiara
saudiarabia
saul
saurimo
sauða
sava
savage
savannah
savas
save
savi
savn
savna
savnar
savnarar
savnast
savnað
savnaðar
savnaði
savnaðu
savnaðust
savninum
savnið
saw
sawyer
saxo
saxofon
say
says
sb
sbjørg
sbjørn
sbo
sbr
sbrt
sby
sbær
sc
scaber
scala
scalloway
scam
scandinavia
scandinavian
scap
scarlett
scarponi
scb
scene
scener
scenes
scha
schall
schandorff
schedule
scheider
schengen
schiller
schiphol
schleswig
schlu
schmeichel
schmidt
schneider
scho
school
schools
schopenhauer
schreier
schro
schrøter
schubert
schulich
schultz
schumacher
schumann
schumpeter
schwarzenegger
schweinsteiger
sci
scias
science
sciences
scient
scilly
scooter
scored
scorer
scorers
scoresway
scotia
scotland
scots
scott
scottish
scout
scouts
scream
screen
script
sct
sculls
sd
sdag
sdagin
sdagur
sdegi
sdjo
sdo
sdp
sdrekka
sdrekkalo
sdrekkamisny
sdrekkany
sdrekkasøla
sdrekkasølu
sdwg
sdy
se
sea
seafood
seagal
seahawks
sean
search
sears
season
seattle
sebastia
sebastian
sebo
sebra
secco
second
seconds
secret
secretary
secrets
section
security
see
seebach
seeger
seen
sef
seg
segafredo
segl
seglba
seglini
seglloftinum
segði
segðist
sei
sein
seinast
seinasta
seinasti
seinastu
seinastuni
seine
seinna
seinnapartin
seinni
seinnu
seinri
seint
seinur
sejm
sejong
sejr
sejren
sek
sekan
sekkir
seks
sekstan
sekstia
sektio
sekund
sekundið
sekundum
sekur
selassie
selatrað
seld
selda
seldar
seldi
seldir
seldu
seldum
seldur
sele
selected
selection
selen
selena
self
selfoss
selja
seljandi
seljaran
seljaranum
seljarin
seljast
selkie
selma
selmu
selo
seloy
selt
seltjarnarnes
seltjarnarneskaupstaður
selur
selv
sem
sement
semi
semifinal
semifinaluna
semifinaluni
seminarium
semja
semjan
semjast
semju
semjur
sen
senatinum
senatið
senator
senatorar
senatorur
send
senda
sendar
sendast
sendi
sendiboð
sendinevndini
sending
sendingar
sendingarnar
sendingin
sendingina
sendingini
sendingum
sendir
sendistovan
sendistovu
sendistovuna
sendistovuni
senditi
sendu
sendur
seneca
senegal
senegala
senior
seniormet
senn
senna
sense
senshi
sent
sentai
seoul
sep
sepp
sept
september
septembur
septuaginta
sequoyah
ser
sera
serbar
serbia
serbiska
serbiskt
serbiskur
serframsy
serfrøðingar
serfrøðingur
sergei
sergej
sergio
sergrein
serie
series
seriewikin
seriu
serlig
serliga
serligan
serligani
serligar
serligari
serligir
serligt
serligu
serligum
serligur
serloyvi
serma
sermerkt
sermerkta
sermerktu
sermerktur
sermersooq
sermitsiaq
serprent
serstaka
serstakan
serstakar
serstakari
serstakliga
serstakt
serstakur
serstøk
serstøku
serstøðu
seru
server
service
services
ses
sesanus
sesar
sesi
sesong
sesongin
sesongina
sesongini
sesongir
sesongum
sesotho
sess
sessin
session
sessions
sessir
sessunum
set
seta
setast
sete
seth
sethu
seting
setingar
setingarnar
setingin
setingini
setingum
setir
setningar
setningur
setningurin
setrinum
sett
setta
settar
setti
settir
settist
settlement
settlers
settu
settum
settur
settust
setu
setur
seuss
sev
sevdal
seven
seventh
several
severin
sevi
sevier
sevilla
sevjan
sevmy
sevni
sevnum
sex
sexo
seyma
seyskelloyggjar
seytjan
seyð
seyðabrævinum
seyðabrævið
seyðahald
seyðakjøt
seyðaslag
seyði
seyðin
seyðinum
seyðir
seyðisfjarðarkaupstaður
seyðisfjo
seyður
seyðurin
seðlar
sf
sfo
sg
sgeir
sgeirsdo
sgerð
sgri
sgt
sh
shadow
shadows
shah
shahurin
shaila
shake
shakespeare
shakespeares
shakira
shall
shandling
shane
shanghai
shannon
sharia
sharif
sharon
sharp
shavinum
shavið
shaw
shawn
she
shea
sheep
sheffield
sheikh
shell
shelley
shepherd
sheridan
sherr
shetland
sheva
shi
shia
shield
shiite
shimano
shine
shinzo
ship
shirley
shirt
shiva
sho
shockey
shogun
shoot
shooting
shootings
shop
shopping
short
shorts
shot
should
shounen
shout
show
showinterpret
showitem
shows
showtime
shrek
shreveport
shriver
shtml
shu
shut
si
sia
siatar
siatiska
siberia
sibiria
sic
sica
sicilia
sid
sida
side
siden
sides
sidney
sidste
sie
sierra
sif
sifnos
sig
siga
sigarett
sigast
sige
sigert
sigga
sigi
sigla
siglandi
sigldi
sigldu
sigling
siglingarsøga
siglingina
siglir
siglt
siglufjo
siglur
sigma
sigmarsson
sigmund
sigmundar
sigmundarson
sigmundi
sigmunds
sigmundur
sign
signa
signabø
signabøur
signar
signhild
signi
signing
signs
sigourney
sigoynarar
sigrar
sigraði
sigri
sigrid
sigrinum
sigrið
sigrun
sigst
sigtuna
sigur
sigurd
sigurin
sigurjo
sigurð
sigurðardo
sigurðsson
siim
sikhar
sikhisma
sild
sildin
silence
silene
silent
silicon
siliga
silja
silkeborg
silki
silkibond
siloa
silva
silver
silvio
silviu
silvius
silvur
silvurheiðursmerki
silvuri
silvurvinnari
sim
simbabvi
simme
simon
simone
simonsen
simple
simply
simprentis
simpson
simpsons
simrishamns
sims
sin
sina
sinai
sinaifjalli
sinatra
since
sind
sinda
sindafo
sindagrein
sindalig
sindaliga
sindaligar
sindaligt
sindaligum
sindamaður
sindamaðurin
sindamenn
sindi
sindini
sindum
sindunum
sindur
sine
sing
singapor
singapore
singar
singarma
singarnar
singarorð
singarti
singel
singer
singin
singina
singing
singini
single
singles
sings
singulin
singulpla
singum
sinha
sini
sinistra
sink
sinn
sinni
sinnissju
sinnið
sint
sinterklaas
sinum
sio
sioux
siouxindia
sipa
sipar
sir
sire
sirius
sirið
sirkus
sirnar
sirnir
sirri
sis
sisilia
sisimiut
sisk
siskt
sisku
sissal
sissel
sister
sisters
sit
sita
sitandi
site
sites
siti
sitipla
sitið
sitka
sitro
sitting
situr
siumut
siv
sivertsen
sivil
sivilfo
sivilverkfrøðingur
siw
six
sixx
size
sið
siðalag
siðan
siðbundin
siðbundna
siðbundnu
siðbundnum
siði
siðin
siðir
siðum
siður
siðurin
siðvenja
siðvenjan
siðvenju
siðvenjuni
sj
sja
sjeik
sjey
sjeya
sjeynda
sjeyndi
sjeyndu
sjeytia
sjimpansur
sjo
sjokola
sjokula
sjonleikari
sjonleikarinna
sju
sjælland
sk
ska
skaale
skaalum
skadag
skadagur
skadd
skaddur
skafta
skaftafellssy
skagabyggð
skagafjarðarsy
skagafjo
skagen
skagerrak
skakandi
skal
skald
skaldinum
skaldið
skaldskap
skaldskapi
skaldskapin
skaldskapur
skaldskapurin
skaldsøga
skaldsøgan
skaldsøgu
skaldsøgum
skaldsøguna
skaldsøguni
skaldsøgur
skaldsøgurnar
skallan
skallanum
skallin
skallur
skallurin
skalt
skam
skamandrios
skamarið
skamm
skamt
skan
skanderborg
skandi
skandinavia
skandinavisk
skandinavisku
skansa
skansan
skansi
skansin
skaoy
skaoyggin
skap
skapa
skapandi
skapanina
skapar
skaparfrøðingur
skaparin
skaparkreppan
skaparkreppu
skaparlig
skaparliga
skaparligan
skaparligar
skaparligi
skaparligt
skaparligu
skaparligum
skaparma
skaparvøkstur
skapað
skapaði
skapaðu
skapi
skapin
skapinum
skapið
skapt
skaptar
skapti
skaptu
skapum
skapur
skapurin
skar
skara
skarar
skaregg
skari
skarin
skarum
skarunum
skarvanes
skarvanesi
skarvur
skarð
skarði
skarðið
skarðs
skarðsa
skarðsvi
skatt
skatta
skattatry
skatti
skattin
skattir
skattland
skattur
skava
skaða
skaðadjo
skaðady
skaðan
skaðar
skaði
ske
skeggi
skeiva
skeivar
skeivt
skeivur
skeið
skeiða
skeiðbundna
skeiðbundnu
skeiði
skeiðið
skeiðnum
skeiðum
skel
skelin
skelina
skelini
skeljady
skeljar
skeljarnar
skelleftea
skelti
skemmuni
skemt
skemtari
skemti
skemtifilmur
skemtirøðini
sker
skera
skering
skeringar
skerinum
skerið
skerja
skerpikjøt
skert
skerum
skeyt
skeyti
ski
skiathos
skibenæs
skidrow
skien
skift
skifta
skiftandi
skiftast
skifti
skiftir
skiftið
skiftu
skiftur
skil
skilago
skild
skildur
skildust
skilir
skilja
skiljast
skilnaður
skilst
skilt
skilti
skiltið
skiltu
skilur
skilvi
skimast
skin
skinn
skinnið
skip
skipa
skipahavn
skipan
skipanes
skipanin
skipanina
skipaninar
skipanini
skipaninini
skipanir
skipanum
skipar
skipara
skipari
skiparin
skipasmiðja
skipasmiðju
skipasmiðjuni
skipast
skipað
skipaða
skipaðar
skipaði
skipaðir
skipaðu
skipaðum
skipaður
skipi
skipini
skipinum
skipið
skips
skipsførari
skipum
skipunum
skir
skirnar
skit
skitin
skive
skið
skja
skjal
skjalasavni
skjaldarmerki
skjaldbøkur
skjali
skjalinum
skjalið
skjalpro
skjals
skjern
skjeyt
skjo
skju
skjy
skjøl
skjøldri
skjøldur
skjølini
skjølum
skland
sklandi
sklands
sko
skolaði
skole
skomm
skopelos
skopje
skopun
skopunar
skora
skorandi
skorar
skorað
skoraði
skordjo
skordy
skorheim
skorin
skorini
skorið
skorradalshreppur
skot
skota
skotadrotning
skotar
skotin
skotið
skotland
skotlandi
skotlands
skotnir
skotsk
skotska
skotski
skotskt
skotsku
skotskum
skotskur
skotum
skotunum
skotva
skou
skov
skoyti
skoyturenning
skoða
skoðan
skoðanir
skoðarar
skoðaravirðislønina
skoðarum
skra
skrevet
skri
skrift
skrifter
skriftin
skriftini
skriftma
skriftum
skriftunum
skriv
skriva
skrivandi
skrivar
skrivarastovu
skrivari
skrivast
skrivað
skrivaða
skrivaðar
skrivaði
skrivaðir
skrivaðu
skrivaður
skriver
skrivi
skriviha
skriving
skrivingin
skrivliga
skrivligt
skrivligum
skrivstovu
skrivstovumaður
skrivstovuni
skrivstovur
skrivstovustjo
skrivt
skriðdjo
skriðdy
skriðso
skriðulop
skru
skrubba
skry
skræða
skt
sku
skugga
skugganum
skuggar
skula
skuld
skuldi
skuldin
skuldina
skuldsettur
skuldu
skulin
skulle
skullu
skulptur
skulu
skum
skunda
skundar
skundi
skur
skurups
skurðviðgerð
skutu
sky
skyggir
skylanders
skyld
skylda
skyldar
skyldast
skyldfo
skyldina
skyldu
skyldum
skyldur
skylt
skylv
skyna
skyscraperpage
skysports
skælingi
skælingur
skørping
skøva
sl
sla
slag
slagi
slagið
slagnum
slakar
sland
slandi
slands
slanga
slangu
slangur
slapp
slar
slate
slaug
slavisk
slaviskt
slavisku
slavið
slavna
sleep
sleeping
sleipnir
sleit
slekt
slendingar
slendingur
slendsk
slendska
slendskar
slendskt
slendsku
slendskum
slendskur
slenska
slenskt
slensku
slenskum
slenskur
slepp
sleppa
sleppur
slepst
slept
slepti
slesvi
slesvig
sli
slide
sligin
sligið
slim
slips
slitnaði
slo
sloan
slope
sloppið
slot
slottinum
slottið
slovak
slovakia
slovakiska
slovakiskt
slovenia
slovensk
slovenska
slovenskt
slovenskur
slow
slu
slum
slumaður
slumaðurin
slupp
sluppin
sluppina
sluppini
sluppu
slur
slurnar
slær
slætt
slætta
slættaberg
slættan
slættanes
slættanum
slættar
slættaratindur
slættari
slætti
slættin
slættlendi
slættlendinum
slættunum
slættur
sløg
sløgini
sløgum
sløgunum
sløk
sløkum
slør
slørið
sløttum
sm
sma
smakk
smakka
smakkar
smakki
smakkin
smakkurin
smala
smalar
smalast
small
smalt
smalur
smart
smedjebackens
smh
smi
smidligur
smile
smiril
smirilin
smith
smitta
smittan
smittandi
smittar
smittað
smittaði
smittaðum
smittaður
smittuni
smiður
smo
smokie
smolt
smoltstøð
sms
smsbl
smu
smund
smyril
smyrilin
smyrilsurt
smyrli
smyrna
smyth
smærri
smærru
smæstu
smøl
smølu
smølum
smør
smøri
sn
sna
snake
snar
snara
snari
snarljo
snart
sne
sni
snigil
sniglar
snið
sniðgevi
sniðgivin
sniðgivið
sniði
sniðið
snjo
snl
sno
snodda
snoop
snow
snu
sny
snæfall
snæfells
snæfellsbær
snæu
snøgg
snøgt
so
soap
soay
sobre
soccer
soccerandequipment
soccerbase
soccernet
soccerway
sochi
social
socialdemokraterna
socialdemokraterne
socialist
socialistisk
societe
society
sofi
sofia
sofie
sofokles
software
sofus
soga
sogn
sokallað
sokallaða
sokallaði
sokallaðu
sokrates
sol
solar
solarsystem
solberg
solda
soldier
soldiers
sole
soleiðis
solistur
solitude
soljo
soll
solleftea
solmunde
solna
solo
solomon
solstad
solution
solutions
solveig
som
somalia
some
somebody
someone
something
sometimes
somewhere
somikið
sommer
somu
somuleiðis
son
sona
sondum
sonevnd
sonevnda
sonevndu
sonevndum
song
songbo
songkvinna
songkvinnan
songkvinnuna
songkvinnuni
songs
songur
songurin
songwriter
soni
sonia
sonin
soninum
sonja
sonn
sonne
sonni
sonnu
sonnum
sonny
sons
sont
sonur
sonurin
sony
sophia
sophie
soppar
soppurin
sopran
soprano
sor
sorg
sorinskrivari
sorinskrivarin
sornfelli
sorsele
sort
sorte
sorø
sosial
sosiala
sosialar
sosialdemokratiskur
sosialdemokratunum
sosialin
sosialinum
sosialisma
sosialismu
sosialistisk
sosialistiska
sosialliberalisman
sosialra
sosialt
sosialu
sosialum
sosialurin
sostatt
sotsji
sottunga
soudal
soul
souls
sound
soundcloud
sounds
soundtrack
source
sources
sousa
south
southafrica
southampton
southeast
southern
sov
sova
sovjet
sovjetiska
sovjetiskum
sovjetiskur
sovjetly
sovjetrussiskur
sovjetsamveldinum
sovjetsamveldisins
sovjetsamveldið
sovjettiski
sovnaði
sovorðin
soyabønir
sp
spa
space
spacemen
spain
spakuliga
spakur
spangled
spania
spaniamenn
spaniamonnum
spanio
spanish
spaniu
spansk
spanska
spanski
spanskt
spanskttalandi
spanskur
spara
sparekassen
sparikassa
sparikassi
sparingar
sparks
sparta
spasskij
speaker
speaks
spears
special
species
specified
speech
speed
speedskatingresults
spencer
spennandi
spenningi
spenningur
spennir
spent
spi
spice
spider
spielberg
spielvan
spik
spiller
spillere
spilt
spin
spinoza
spirit
spirits
spiritualized
spjadd
spjaddar
spjaddist
spjatt
spjaða
spjaðing
spjo
spo
spoken
spongebob
sponsk
sponsku
sponskum
sponsor
sponsora
sponsorship
spor
sporl
sport
sportal
sporten
sportid
sportif
sporting
sports
sporðdrekar
spot
spotlight
spra
sprakk
spratt
spreingievni
spreingingini
spreingir
spreingist
spreingja
spretta
spri
spring
springa
springer
springfield
springs
sprint
sprog
sprongdist
sprotans
sprotanum
sprotin
sprottin
sprottið
sprænt
sprøklut
sprøklutur
spunnin
spunnu
spurdi
spurdist
spurdu
spurdur
spurnartekin
spurning
spurningar
spurningin
spurninginum
spurningum
spurningur
spurningurin
spurt
spurvur
sputnik
spy
spyr
spyrja
spæl
spæla
spælarar
spælararnir
spælari
spælarin
spælast
spæld
spældar
spældi
spældir
spældu
spældur
spæli
spælifilmum
spælifilmur
spælimenninir
spælinum
spælipla
spælir
spæliti
spælið
spælt
spælur
spøkilsissøgur
spøkilsið
spøl
spølum
sqrt
squad
squadlists
squadra
square
squarepants
sr
srael
sraels
sraelsfo
sraelska
sraelski
sraelsku
sraelskur
sraelsmenn
sri
sritis
ss
ssb
ssel
sseldorf
ssf
ssi
ssini
ssinum
ssið
ssjo
ssl
ssleholms
sson
ssp
ssum
ssunum
st
sta
stabbagro
stad
staddir
staddur
stade
stadion
stadium
stadnamn
stads
stadt
staff
staffanstorps
stage
stak
stakfløga
stakfløguna
stakfløguni
stakfløgur
stakk
stakkar
stakkin
stakkur
stakkurin
staklag
staklagið
stakløg
stakri
stalin
stamford
stamps
stan
stand
standa
standaard
standandi
standard
standardinum
standardization
standards
standast
standi
standing
standings
standmynd
standmyndin
standmyndina
standmyndir
standmyndirnar
stanford
stanislav
stanley
star
stara
starar
starcraft
stardust
stargazer
stari
starin
stark
starkey
starr
stars
start
startlist
starts
starv
starva
starvast
starvaðist
starvaðust
starvi
starvinum
starvið
starvsfo
starvsleið
starvsløn
starvslønir
starvsmannafelagið
starvsmannafelagnum
starvsstovan
starvsvenjing
starævinty
stat
statbank
statcan
state
statement
statens
states
stati
static
statin
statinum
station
statir
statirnar
statirnir
statistical
statistics
statistik
statistikbank
statistikbanken
statistiska
statletik
statoids
statoil
stats
statsleiðari
statsmaður
statsminister
statt
statum
statunum
statur
staturin
status
stava
stavanger
stavar
stavað
stavi
stavilsi
stavir
stavn
stavrað
stavraðið
stavraðnum
stavseting
stavum
stay
stað
staðar
staðarnavn
staðarnavnið
staðarnøvn
staðarøki
staðbundnu
staðfest
staðfesta
staðfesti
staðfesting
staðfestir
staðfestu
staðfestur
staði
staðin
staðir
staðið
staðni
staðnum
staðsett
staðsettur
staður
staðurin
ste
steel
steen
stefan
stefani
stefanie
stefano
steffan
steffen
steggin
steig
stein
steinar
steinarr
steinbeck
steinbjørn
steingja
steingri
steini
steinin
steininum
steinko
steinn
steinprent
steinsløg
steinsto
steinto
steinum
steinur
steinurin
steinøld
steinþo
stelkur
stella
stemmer
sten
stenberg
stendst
stendur
stenungsunds
step
stephan
stephen
stephenson
ster
stera
sterbottens
sterdetektiven
stereo
stergo
sterk
sterka
sterkan
sterkar
sterkari
sterkast
sterkasta
sterkasti
sterkastu
sterkir
sterkt
sterku
sterkum
sterkur
sterling
stern
sterna
sternorrlands
stersund
stersunds
sterturin
sterviks
stettin
stev
steve
steven
stevens
stevie
stevið
stevna
stevnan
stevndi
stevndur
stevni
stevns
stevnt
stevnu
stevnum
stevnumet
stevnuna
stevnuni
stevnunum
stevnur
stevnuskra
stewart
steyp
steypafinaluna
steypakapping
steypakappingar
steypakappingin
steypakappingina
steypakappingini
steypavinnarar
steypavinnari
steypið
steyrrættur
steðg
steðga
steðgar
steðgað
steðgaði
steðgaðu
steðgur
sthammars
sti
stiers
stift
stig
stiga
stigan
stiganum
stigatal
stigi
stigin
stigini
stigið
stigkappingini
stigtakari
stigtakarunum
stigum
stigvi
stikk
still
stilla
stillar
stillaði
stillaðu
stille
stiller
stillisliga
stillum
stillur
stimbra
stina
sting
stinga
stingur
stinkdy
stinnur
stinum
stinus
stir
stið
stiðin
stiðja
stja
stjala
stjerne
stjo
stju
stjørdal
stjørna
stjørnan
stjørnin
stjørnu
stjørnubreytir
stjørnufrøði
stjørnufrøðingar
stjørnufrøðingur
stjørnum
stjørnuna
stjørnuni
stjørnunum
stjørnur
stjørnurnar
stjørnuskot
stjørnuspa
stk
stkrabba
stlu
stm
stmanlands
sto
stock
stockbridge
stockholm
stockholms
stoke
stokkar
stokkho
stolið
stoltenberg
stolti
stone
stonehenge
stones
stong
stongd
stongdi
stongt
stop
stopped
stor
stora
stord
store
storegade
storfors
storia
stories
storkreds
storkur
storm
storma
stormi
stormur
storps
storstrøms
stortinget
storumans
story
storyline
stour
stovn
stovna
stovnan
stovnandi
stovnanina
stovnanini
stovnar
stovnari
stovnarin
stovnarnir
stovnarum
stovnarunum
stovnað
stovnaða
stovnaði
stovnaðir
stovnaðu
stovnaður
stovni
stovnin
stovninum
stovnseta
stovnsett
stovnum
stovnunum
stovnur
stovnurin
stovu
stovuna
stovur
stowe
stoypt
stoyta
stoytir
stoytt
stoyttu
stra
straight
strait
straks
strand
stranda
strandabyggð
strandar
strandarflogbo
strandasy
strandfaraskip
strandfaraskipum
strandferðslan
strandferðsluni
strangar
strangari
strange
stranger
strangliga
strasbourg
strategi
strategic
strategiska
strategy
stratton
strauss
stravinskij
stream
streep
street
streets
streingir
streisand
strekki
strekkir
strekkið
stremba
stremban
strendur
strendurnar
strength
strentingur
strevast
streym
streyma
streymar
streymi
streymin
streyminum
streymnes
streymnesar
streymnesi
streymoy
streymoyggin
streymoynna
streymoynni
streymur
streymurin
stri
strika
strikan
strikað
strike
strikes
striku
strikum
strikur
strings
stripes
stro
strok
stromness
strond
strondin
strondina
strondini
strondum
strondunum
strong
strongd
stronger
strongu
strongum
stru
structure
struer
strutsurin
stry
strøm
sttikin
stu
stuart
stubbi
student
studenta
studentafelagsins
studentar
studentasku
studentspro
studentur
studi
studia
studier
studies
studio
studioalbum
studios
study
stuff
stund
stundin
stundir
stundum
stungið
stuntmaður
stur
sturgeon
sturin
sturnus
stutt
stutta
stuttan
stuttar
stuttari
stuttbana
stuttfilmar
stuttfilmin
stuttfilminum
stuttfilmur
stuttfilmurin
stuttgart
stuttgeil
stutti
stuttleika
stuttleikaba
stuttligt
stuttsøga
stuttsøgan
stuttsøgu
stuttsøgukapping
stuttsøgum
stuttsøguni
stuttsøgur
stuttsøgusavn
stuttsøgusavninum
stuttsøgusavnið
stuttsøgusøvn
stuttu
stuttum
stuttur
stuðla
stuðlar
stuðlað
stuðlaði
stuðlaðu
stuðli
stuðul
stuðulin
sty
stykki
stykkinum
stykkisho
stykkið
style
styrk
styrke
styrki
styrkin
styrkir
styrkja
styrkt
stytri
stytt
stytta
stytti
stytting
styttingar
styttri
styðja
stætt
stættir
stødd
støddar
støddarflokking
støddfrøði
støddfrøðiliga
støddfrøðin
støddfrøðingur
støddfrøðini
støddin
støddina
støddini
støddir
støkk
støplum
støre
størra
størri
størru
størsi
størst
størsta
størstan
størsti
størstu
størstur
størv
størvum
støð
støða
støðan
støðg
støðga
støði
støðiliga
støðin
støðina
støðini
støðinum
støðir
støðið
støðu
støðug
støðugan
støðugt
støðugum
støðugur
støðum
støðuna
støðuni
støðunum
støður
su
sua
suarez
sub
subject
submarine
subst
subway
success
successor
such
suci
sud
sudan
sudurras
sue
suely
suezveitin
sugar
suicide
suisse
suite
sukse
sukur
sukurrør
sukurrørum
sukursju
sul
suleiman
sullivan
sully
sulta
sultan
sultat
sum
sumatra
sumba
sumbiar
sumbiarsteinur
sumbingar
summar
summarda
summarfestivalinum
summarfestivalur
summarfestivalurin
summarfri
summargra
summarha
summarhu
summari
summarið
summarleikirnir
summarma
summarna
summarti
summarto
summary
summastaðni
summer
summi
summir
summit
summstaðni
summum
sumri
sumrini
sumstaðni
sumt
sun
suna
sund
sunda
sundaba
sundaferjan
sundalagið
sundalagnum
sundalagsstevna
sundatali
sunday
sunderland
sundi
sundini
sundinum
sundir
sundið
sundskarð
sundstein
sundsvall
sundsvalls
sundtals
sundum
sundur
sundurby
sung
sungin
sungið
sungu
suni
sunleif
sunnan
sunnana
sunnanfyri
sunnanmenn
sunnanmenninir
sunnanvert
sunnara
sunnari
sunnarlaga
sunnaru
sunnast
sunnasta
sunnasti
sunne
sunni
sunnudag
sunnudagin
sunnudagur
sunnudegi
sunset
sunshine
sunt
sunum
sunweb
super
supercopa
supercoppa
supercup
superettan
superior
superiorvatn
superliga
superligan
superliguni
supermodell
superstar
support
supporting
supreme
sur
surfing
surgery
surin
surinam
surnar
survey
susan
susanne
suspect
suspects
susvim
susy
suu
suzanne
suzumiya
suðri
suðringur
suður
suðura
suðurafrika
suðurafrikanski
suðurafrikanskur
suðuramerika
suðuramerikanska
suðurbo
suðurcarolina
suðurdakota
suðurdanmark
suðureftir
suðurendanum
suðurevropa
suðurfraklandi
suðurgeorgia
suðurgrønlandi
suðuri
suðuritalia
suðurju
suðurkalifornia
suðurkorea
suðurkoreanskur
suðurlandinum
suðurlandið
suðuronglandi
suðurossetia
suðuroy
suðuroyar
suðuroyarma
suðuroyarportalurin
suðuroyggin
suðuroyggjum
suðuroyingar
suðuroyingur
suðuroynna
suðuroynni
suðurpo
suðurri
suðurrusslandi
suðursa
suðursandwichoyggjar
suðursi
suðurstatunum
suðurstreymoy
suðurstreymoyar
suðurstrondini
suðursudan
suðurty
suðurvaldømi
suðurvjetnam
suðvesturvaldømi
sv
sva
svabo
svabos
svala
svalbard
svalbarð
svalbarði
svalbarðshreppur
svalbarðsstrandarhreppur
svalo
svam
svante
svanur
svar
svara
svarandi
svarar
svarað
svaraði
svaraðu
svart
svarta
svartadeyða
svartahav
svartahavið
svartan
svartar
svartari
svartha
svarti
svartideyði
svartir
svartkalvi
svartkjaftur
svartma
svartterna
svartur
svasiland
svatn
svav
svedala
sveik
sveimandi
sveimar
svein
sveinar
sveini
sveinur
sveis
sveisisk
sveisiska
sveisisku
sveisiskur
sveitarfe
sven
svend
svendborg
svenljunga
svenning
svensk
svenska
svenskaakademien
svenskar
svenskfilmdatabas
svenskfotboll
svenski
svenskir
svenskt
svensku
svenskum
svenskur
svensson
sverige
sveriges
sverra
sverre
sverri
sverrisson
svevur
svf
svi
sviar
svik
svikagerð
svikin
svimja
svimjara
svimjarar
svimjararnir
svimjari
svimjarin
svimjarir
svimjarum
svimjarunum
svimjifelag
svimjifelagið
svimjihyl
svimjihylur
svimjihylurin
svimjihøll
svimjihøllin
svimjihøllina
svimjihøllini
svimjikapping
svimjikappingini
svimjikappingum
svimjilandsliðið
svimjilandsliðnum
svimjing
svimjingin
svimjisamband
svimjisambandi
svimjistevna
svimjistevnu
svimjistevnuni
svimur
svo
svomið
svongd
svt
svull
svumu
svættið
svølla
svølta
svøri
svørt
svørtu
svørtum
svørð
svørði
svørðinum
svørðið
sw
swahili
swahiliskt
swan
swangah
swank
swansea
swaptree
sweden
swedish
swedishcharts
sweet
swift
swim
swimming
swimrankings
swing
swiss
switzerland
sword
sworn
sy
syd
syddansk
syderbø
sydney
syftu
sylvia
symbol
symbolið
symfoni
symfoniir
symfoniorkestri
symfoniorkestur
symi
symphony
synd
syndanna
syndir
syndrast
syndrað
syndraðist
syndrome
syng
syngja
syngjandi
syngur
syni
synir
synirnar
synirnir
syntaks
synth
synum
synunum
syrgdi
syrgir
syrgja
syria
syriahr
syrian
syse
system
systems
systir
systirin
systkin
systkinabarn
systkinabørn
systkini
systkjum
systrar
systrina
systrini
systur
syðra
syðradal
syðradali
syðradalur
syðri
syðru
syðrugøta
syðrugøtu
syðst
syðsta
syðsti
szczecin
sædd
sæddar
sæddir
sæddur
sæla
sæland
sælandi
sælands
sælendska
sælendskur
sælu
sær
særd
særdi
særdu
særdur
sært
sæst
sæti
sætið
sætt
sætta
sætti
sættstørsti
sættu
sæð
søga
søgan
søgd
søgdu
søgn
søgnin
søgnina
søgnini
søgnum
søgu
søgubo
søgufrøðingar
søgufrøðingur
søgugongd
søgulig
søguliga
søguligar
søguligari
søguligir
søguligt
søguligu
søguligum
søguligur
søgum
søguna
søguni
søgunum
søgur
søguri
søgurnar
søgusavn
søguskrivari
søkir
søkja
søkkur
søkt
søkti
søktu
søla
sølan
søldarfirði
søldarfjørður
søllinge
sølu
sølubu
sølulistanum
søluna
søluni
sølva
sølvi
sømdarga
sømdir
søn
søndag
sønderborg
sønderjyllands
søndre
sør
søren
sørensen
sørt
sørva
søs
søstrene
søt
søtt
søvn
søvndal
søvnum
t
ta
tab
tabjørn
table
tables
tablesc
tablesf
tablesl
tactical
tad
tadsjikistan
tae
taekwondo
tafesti
taff
taftur
tag
tage
tager
tagore
tags
tahiti
tahu
tahylin
tai
tailand
tailandi
tailendskt
taipei
tait
taivan
taiwan
taiyou
tak
taka
takast
take
takes
taket
taki
takinum
takið
takk
takka
takkar
takkaði
taks
takt
tal
tala
talan
talandi
talands
talar
talað
talaði
talaðu
talbot
tald
taldar
taldi
taldir
taldu
taldur
tale
talent
taler
tales
talgild
talgilda
talgilt
tali
taliban
talinum
talið
talk
talking
tall
tallahassee
tallinn
tally
talorð
tals
talsmaður
talt
talu
talufrælsi
taluma
talv
talva
talvan
talvfelag
talvfo
talvi
talvið
talvmeistari
talvolympiaduni
talvsamband
talvu
talvuni
talvur
tama
tamar
tamara
tamarhald
tambar
tammy
tampa
tampere
tan
tandi
tanes
tanesi
tang
tangafirði
tangentar
tangled
tango
tangz
tanja
tankar
tann
tanna
tannhvalir
tannklinikk
tannlækna
tannlæknar
tannlæknastovan
tannlækni
tans
tansania
tanum
taoiseach
tap
tapa
tapandi
tapir
tapirus
tapt
tapti
taptu
tar
tara
tarandus
taranum
tarar
tarasko
target
targeted
tari
tarin
tarira
tarjei
tarnar
tarnir
tarsus
tartu
tarum
tarussiskum
tarussland
tarusslandi
tarzan
tarørsluni
tas
taskip
tasmania
tasmiður
tasniðgevi
tasporið
tast
tasta
tasti
tastu
tat
tate
tatiana
taube
tausen
tav
taxi
tay
taylor
tað
taðar
tb
tbf
tbilisi
tbo
tboð
tbreidd
tbreiðsla
tbreiðslan
tbreiðslu
tbreiðsluna
tbroti
tbræðing
tbu
tbygd
tbygdur
tbygging
tbyggja
tbygt
tc
tchaikovsky
td
tdeytt
tdeyð
tdeyða
tdeyður
tdf
te
tea
team
teamdetails
teams
teamsky
teardrops
tears
teater
teaterpokalen
teatret
teatro
teatur
teborg
teborgs
tech
technology
ted
teddy
teen
teenstreet
teg
teheran
tehran
tei
teigar
teiginum
teigurin
teil
teiland
teilandi
teim
teimum
teimun
tein
teinakapping
teinakappingin
teinar
teinasu
teini
teinin
teininum
teinum
teinunum
teinur
teinurin
teir
teirra
teirri
teistin
teiti
teitur
teivan
teið
tekin
tekn
tekna
teknar
teknari
teknað
teknaði
teknaðu
teknaður
teknifilm
teknifilmar
teknifilminum
teknifilmsrøð
teknifilmsrøðin
teknifilmum
teknifilmunum
teknifilmur
teknifilmurin
tekning
tekningar
tekningarnar
tekningum
teknini
teknirøð
teknirøðin
teknirøðina
teknirøðir
teknisk
tekniska
teknisku
teknið
teknma
teknum
tekst
tekstarøð
tekstasavn
teksten
tekster
teksti
tekstin
tekstinum
tekstir
tekstirnir
tekstum
tekstunum
tekstur
teksturin
tekur
tel
teld
telda
teldan
teldu
teldufrøði
telduna
telduni
teldupost
teldur
teldurnar
telduspæl
telduspælið
telduspøl
tele
telefon
telefonin
telegraph
telemark
telenovela
televarpið
television
telir
telist
telja
teljandi
teljast
teljitalið
tell
telur
telva
telvarar
telvari
telvarin
telvarunum
telvaði
telvaðu
tema
temja
temperature
temperaturur
tempererað
template
templates
temple
templinum
templið
templum
tempo
temprað
temps
tempul
ten
tenchi
tendring
tene
tengd
tengt
tenn
tennessee
tennesseea
tenninar
tennis
tennisleikari
tennisleikarinna
tenor
tenorsangari
tent
tenzing
teppi
ter
teresa
terja
terje
terji
term
terminal
terminator
terna
ternan
terra
terrace
terrae
terre
territorial
territories
territory
terror
terrorism
terrorist
terry
ters
tes
tesla
tess
tessvegna
test
testamenti
testamentisins
tetis
tev
tevja
texas
text
texts
tey
tf
tferð
tferðir
tfl
tflutning
tflutningi
tflutninginum
tflutnings
tflutningsvøra
tflutningsvøran
tflutningur
tflutningurin
tflutt
tflutti
tfluttu
tfluttur
tfly
tflyta
tfra
tfyri
tføroyskt
tg
tga
tgav
tgerð
tgeva
tgevari
tgevi
tgevur
tgivin
tgivið
tgivnar
tgivnir
tgo
tgrevstur
th
tha
thailand
thames
than
thank
that
thatcher
the
theater
theatre
theguardian
theimin
their
them
theme
then
theodor
theodore
theol
theoretical
theory
there
theresa
theresia
these
thessalia
thessaloniki
they
thiamin
thief
thierry
thieves
thimphu
thin
thing
things
think
third
this
thisted
thomas
thomassen
thompson
thomsen
thomson
thor
thorbjørn
thoreau
thorkild
thorne
thorning
thorshavn
thorshavns
thorstein
thorsteinsson
thorup
thorvald
thorvalds
thorvaldsen
those
though
thought
thousand
threat
threatened
three
threes
thriller
through
thu
thule
thulesen
thump
thunberg
thunder
thurman
thus
thy
thyborøn
ti
tia
tianjin
tibera
tiberius
tibet
tibro
tico
tid
tiden
tidende
tidens
tider
tidindi
tidligere
tidsskrift
tiebreakers
tierps
tierra
tigandi
tiger
tign
tigre
tigris
tihy
tijuana
tikarar
tikari
tikarin
tiki
tikin
tikið
tiknar
tiknir
til
tilbage
tilbiðja
tilboð
tilboðið
tilburdir
tilburðir
tilburðirnir
tilburðum
tilburður
tilfar
tilfari
tilfarinum
tilfarið
tilfeingi
tilfeingið
tilflytarar
tilflytarum
tilflyting
tilgongd
tilgongdin
tilhald
tilhoyrandi
tiligt
tiliðið
tilkny
tilkomin
till
tillagað
tillerson
tillisch
tilmæli
tilnevnd
tilnevndir
tilnevndu
tilnevndur
tilnevning
tilnevningar
tilnevnt
tilra
tilsaman
tilsamans
tilsjo
tilsvarandi
tiltak
tiltaki
tiltakinum
tiltakið
tiltakslimur
tiltikin
tiltiknu
tiltøk
tiltøkini
tiltøkum
tilveru
tilveruna
tilveruni
tilvild
tilvildarlig
tilvildarliga
tilvildarligari
tim
tima
timarit
timbri
timbuktu
timbur
timburhandil
timburmaður
time
timeline
times
timing
timothy
timra
timu
timur
tin
tina
tind
tindar
tindarnir
tindasvi
tindho
tindin
tindinum
tindum
tindurin
tine
ting
tingakrossi
tingakrossur
tinganes
tinganesi
tinganest
tingar
tingbo
tingfo
tingformaður
tinghu
tingi
tingini
tinginum
tingið
tinglim
tinglimir
tinglimum
tinglimur
tingmaður
tingmenn
tingmonnum
tingræði
tingsbro
tingsess
tingsessir
tingsins
tingsryds
tingstaður
tingum
tingur
tini
tinkoff
tinkoffsaxo
tinna
tinnandi
tinos
tintin
tinum
tio
tip
tir
tirana
tiriac
tiro
tirreno
tirsdag
tis
tisamenos
tissot
tissottiming
tist
tistovu
tit
titan
titanic
titar
titel
titlar
title
tito
tittul
tittulin
titus
tivølli
tið
tiðnar
tj
tjajkovskij
tjaldavi
tjaldri
tjaldrið
tjaldur
tjan
tjanda
tjanhundrað
tjatsi
tjaðaran
tje
tjekhov
tjernobyl
tjo
tjodpallur
tjodveldi
tju
tjøld
tjøldum
tjørnuvi
tkom
tkomin
tkomnir
tl
tla
tlaa
tlagin
tlan
tland
tlandi
tlands
tlar
tlari
tlasystir
tlegd
tlendi
tlendingar
tlendingum
tlendsk
tlendskar
tlendskir
tlendskt
tlendskum
tley
tli
tligt
tlingur
tlingurin
tlir
tlit
tlondum
tlu
tlum
tluvi
tm
tmu
tmæla
tmæli
tmælini
tmælisfo
tmælisgongu
tmælisgongum
tmælt
tmæltu
tn
tna
tnevnd
tnevndi
tnevndur
tnevnt
tnorðri
tnorðurra
tnu
tnyrðing
tnyrðingi
tnyrðings
tnyrðingshorninum
tnyrðingsparti
tnyrðingspartinum
tnyrðingur
to
tobago
tobias
today
todd
todi
toft
tofta
toftali
toftavatn
toftir
toftirnar
toftum
toftunum
tog
toga
together
togo
toi
tok
toka
tokelau
toki
tokið
tokka
tokstøð
tokugawa
tokuma
tokyo
tol
tola
told
toldu
toledo
tolin
tolir
tolkien
toll
tollakson
tollakur
tollaðar
tolli
tollma
tollur
tolsemi
tolstoj
tom
toma
tomas
tomasson
tomatir
tomatoes
tome
tomelilla
tomi
tommy
tomorrow
ton
tonaskald
tonga
tongue
tongues
toni
tonight
tonk
tonleikari
tonleikur
tonn
tonnum
tons
tonsum
tony
too
top
topeka
topic
topics
topp
toppaði
toppin
toppinum
toppskju
toppskorari
toppurin
tor
tora
toran
torben
torbjørn
tordi
tordu
tordur
tore
torfinnur
torfør
torført
torg
torgard
torginum
torgið
torgri
torino
torir
torkil
tormo
torn
torna
tornado
torneio
torni
tornini
torninum
tornið
toronjadze
toronto
torp
torquay
torre
torres
torrevieja
torrini
torsa
torsby
torsdag
torshavn
torsportal
torstein
torter
torv
torvi
tosa
tosar
tosað
tosaði
tosaðu
toski
toskur
total
totally
totals
toto
tottenham
tottenhamhotspur
totti
touch
tough
tour
toure
tourism
tourist
tournament
tournaments
tours
tove
tower
towers
town
townes
townsend
township
toy
toyggj
toyggjarnar
toyota
tpartinum
tpp
tr
tra
trabzonspor
track
tracy
trade
traditio
traffic
tragoudia
trail
trailer
train
training
traktorar
tramp
trana
tranemo
trani
trankebar
trans
transfermarkt
transformers
translate
transport
transtro
transvaal
transwa
transylvania
trantkongafiskur
trap
trappur
travel
traveling
travis
travnur
traðir
traðkar
traðkaði
tre
treasure
treaty
tree
trefor
trein
treivst
treiðslunum
treiðslur
treiðslurnar
trek
trekt
trelleborg
trelleborgs
trenc
trenton
tres
tretivu
tretivunda
trettan
trettanda
trevur
treysti
treyt
treytað
treytir
treytirnar
treytum
tri
tria
trial
triangle
triathlon
triatlon
tribe
tribune
tribute
trichoniscus
tricks
trier
triksmessa
trilogi
trimum
trine
tringa
trinidad
trinity
trinum
trio
trip
triple
triton
triumph
triv
trivnaðarnevnd
trivnaðarnevndini
trið
triði
triðimaður
triðingar
triðingin
triðingur
triðingurin
triðja
triðjamanni
triðjapla
triðji
triðju
triðstørsta
triðstørsti
tro
troels
trofeo
troglodytes
trolara
trolarar
trolari
trolarin
trollebotten
trollha
trompet
troms
tromsø
trond
trondheim
trong
tronga
trongisva
trongligt
trongum
troops
trophy
tropical
tropiska
tropiskar
tropiskt
tropisku
tropiskum
tropunum
trosa
trot
trotskij
trouble
troya
troyabu
troyar
troyer
troyggjan
troyggju
troyggjuna
troyggjuni
troyttur
troyum
tru
truck
trudeau
true
truman
trummum
trummur
trummusla
trummuspælari
trump
truncatula
truplari
trupul
trupulleikar
trupulleikarnar
trupulleikarnir
trupulleiki
trupulleikin
trupulleikum
trupulleikunum
trupult
trust
truth
trutta
try
trygd
trygdarra
trygdin
trygdina
trygg
tryggan
tryggari
trygging
tryggingar
tryggingarfelag
tryggingarfelagið
tryggingarsambandið
tryggja
tryggjar
tryggjað
tryggjaði
tryggu
tryggur
trygt
trygva
trygvason
trygve
trygvi
tryðjuni
tryðjunum
træ
træba
træbru
træi
træið
trækirkja
trælahald
trælahaldi
trælahaldið
trælahandil
trælahandilin
trælani
trælavatn
trældo
trælir
trælirnir
trælum
trælunum
trælur
træskurðir
trø
trøini
trøll
trølla
trøllakampar
trøllakampum
trøllakampur
trøllanes
trøllanesi
trøllhøvda
trøllhøvdi
trøllið
trøllont
trøllum
trøndelag
trøstur
trøum
trøunum
trøð
trøðni
trøðum
ts
tsai
tsatt
tsb
tsdalshe
tsdalshreppur
tsetning
tsetningar
tsett
tsettur
tsf
tsjo
tskot
tskrivað
tskrivaði
tsla
tslan
tslu
tsluland
tsluna
tsluni
tsonga
tstelkur
tstykking
tstøða
tstøðan
tstøðu
tstøðufo
tstøðumaður
tsunami
tswana
tsy
tsynning
tsynningshorninum
tsynningspartinum
tsøgn
tt
tta
ttafelag
ttafo
ttagrein
ttagreinir
ttagreinum
ttagreinunum
ttakara
ttakarar
ttakvinna
ttala
ttalan
ttalast
ttalað
ttalst
ttalu
ttamannafar
ttamannafarið
ttamaður
ttan
ttanavn
ttanda
ttandi
ttanin
ttanina
ttanini
ttanir
ttanum
ttar
ttarbragd
ttarfelag
ttarfelagið
ttarfo
ttargrein
ttargreinar
ttargreinum
ttarhøll
ttarhøllin
ttarhøllina
ttarhøllini
ttarleiðari
ttarli
ttarmaður
ttasamband
ttast
ttati
ttatia
ttað
ttaði
ttaðu
ttaður
ttaðust
tte
ttersee
ttgangandi
tti
ttikin
ttikið
ttiknir
ttin
ttina
ttingen
ttini
ttinum
ttir
ttirin
ttirnar
ttl
ttleikin
ttma
ttmikla
tto
ttrina
ttrini
ttu
ttum
ttuna
ttunda
ttur
tturfelag
tturfelagsskapir
tturin
ttviks
ttøka
ttøku
ttøkur
tu
tuaregar
tubakkahreppur
tubbak
tuberklar
tuberklum
tuchel
tucson
tudo
tufelag
tufelagið
tufelagnum
tuhu
tuhvalur
tulka
tulkast
tulkað
tulking
tulsa
tum
tummar
tummas
tummasar
tuna
tundra
tunesia
tunesiskur
tung
tunga
tungan
tungi
tunglyndi
tungma
tungt
tungu
tungum
tunguma
tungumal
tungur
tungvekt
tuni
tunlar
tunlinum
tunlum
tunn
tunnil
tunnilin
tunnilsmunnan
tunnur
tunum
tupac
tupelo
tupi
tur
turdus
turdy
ture
turen
turid
turin
turing
turisme
turið
turka
turkaland
turkalandi
turkalands
turkar
turkað
turkaðu
turkaður
turkey
turki
turkihu
turkish
turkisk
turkiska
turkiskt
turkisku
turkiskum
turkiskur
turkmenistan
turko
turks
turku
turkum
turkur
turn
turnar
turne
turner
turnos
turnosi
turr
turra
turrar
turrari
turrastu
turriklæði
turrir
turrlendi
turrligt
turrti
turru
turrum
turrur
turt
tuscumbia
tusk
tustaðahreppur
tustu
tusunna
tusunnu
tusunnudag
tut
tutl
tutlrecords
tutsiar
tutu
tutuila
tuvalu
tuxedo
tuxen
tv
tva
tvald
tvaldi
tvaldur
tvalt
tvarp
tvarpi
tvarpinum
tvarpið
tvarps
tvarpsleikir
tvarpsleikur
tvarpsmaður
tvarpsra
tvarpssendingini
tvedestrand
tvega
tvegaði
tvegis
tveimum
tveimur
tveir
tveita
tveitt
tveitti
tveittu
tveittur
tvey
tvi
tvinna
tvið
tvo
tvoroyri
tvs
tvungin
tvær
tvøra
tvørma
tvøroyrar
tvøroyri
tvørtur
tvørturi
tvørturum
tvøst
tw
twain
twelve
twenty
twentynine
twilight
twin
twist
twitter
two
tx
txt
ty
tygum
tykist
tykjast
tykkara
tykki
tykkum
tyler
tyngdarakseleratio
tyngri
tynwald
type
tyrannosaurus
tyril
tyrla
tyrlan
tyrlu
tyrluni
tyrlur
tyrningur
tysk
tyskur
tyson
tzen
tæk
tæka
tækadømi
tækari
tækasta
tækastu
tækir
tækraby
tækradømi
tækt
tæku
tækum
tæna
tænasta
tænastu
tænastum
tænastur
tænastuvinnuni
tænir
tænt
tær
tætt
tætta
tættar
tættari
tættast
tættir
tættur
tøk
tøkilig
tøkiligt
tøkk
tøkni
tøkniliga
tøkniligar
tøknin
tøkt
tøku
tøkum
tøkuorð
tøkur
tøl
tølini
tølum
tønder
tørv
tørva
tørvar
tørvaði
tørvi
tørvin
tørvinum
tørvur
tørvurin
tøtt
tøttum
u
ua
uae
uarctic
ubuntu
uc
uci
ucibws
uciworldtour
ucl
ucla
ud
uddevalla
uden
uderzo
udgave
udgiven
udgivet
udland
udvalg
uefa
uefachampionsleague
uefaeuro
uefaorg
uffe
uganda
ugga
uggafjaðrar
uggafjaðrarnar
ugla
uglubo
ui
uk
ukraina
ukraine
ukrainsk
ukrainska
ukrainskt
ukreina
uldum
ulf
ulige
ull
ulla
ullin
ullina
ulricehamn
ulrich
ulricus
ulrik
ulster
ultimate
ultratop
uluru
ulvaeus
ulysses
um
uma
umaftur
umar
umbering
umberto
umborð
umboð
umboða
umboðan
umboðandi
umboðar
umboðað
umboðaðar
umboðaði
umboðaðu
umboðaður
umboðini
umboðið
umboðsmannatinginum
umboðsmannatingið
umboðsmaður
umboðsmenn
umboðsra
umboðum
umbygd
umbygging
umbøn
umdømi
umea
umesa
umfar
umfari
umfarinum
umfarið
umfata
umfatandi
umfatar
umfataði
umframt
umfør
umførum
umgirt
umgyrdur
umheimin
umheiminum
umheimurin
umhvørvi
umhvørvinum
umhvørvis
umhvørvisma
umhvørvisstovan
umhvørvisstovuni
umhvørvisvernd
umhvørvisvirðisløn
umhvørvið
uml
umleið
umma
ummæla
ummælari
ummælarum
ummæli
ummælir
umra
umrokning
umrødd
umrødda
umrøddi
umrøddu
umrøddur
umrøtt
umrøða
umrøðu
umseta
umsetari
umseting
umsetingin
umsett
umsetti
umsi
umsita
umsitin
umsiting
umsitingin
umsitingina
umsitingini
umsitir
umsitið
umsitur
umsjo
umskipað
umso
umsorgan
umstri
umstøðum
umstøðunum
umstøður
umstøðurnar
umsøkjarar
umtalað
umtalu
umto
umvegis
umvenda
umvending
umvæla
umvæld
umvælingar
umvælt
un
una
unabridged
unalaska
und
undan
undandystur
undanfarnu
undangongumaður
undangongumenn
undangongumonnunum
undankapping
undankappingina
undankappingini
undanmaður
undantak
undantikin
undantikið
undantøk
undarligt
under
underground
undertaker
undir
undirbit
undirbo
undirgrundini
undirhald
undirhaldandi
undirhaldari
undirhalds
undirhu
undirlutan
undirsjo
undirskilt
undirskriftir
undirskriva
undirskrivar
undirskrivað
undirskrivaði
undirskrivaður
undirslag
undirsløg
undirtøkan
undirtøku
undirvi
undp
undrast
undraðust
undrið
undur
une
unesco
ung
unga
ungan
ungar
ungarar
ungarn
ungarnar
ungarnir
ungarska
ungarskt
ungarskur
ungdo
ungdom
unge
ungfo
ungfuglurin
ungi
ungir
unglingar
ungmannafelag
ungmannafelagið
ungmannafelagnum
ungt
ungu
ungum
ungunum
ungur
uni
unicef
unicode
union
unique
unit
unita
united
units
unity
univ
universal
universe
universidad
universidade
universita
universiteit
universitet
universiteti
universitetinum
universitetið
universitetsby
universitetscenter
universitetum
university
unknown
unn
unni
unrecognized
unst
until
untouchables
unum
unwto
uol
up
update
updated
updates
upload
uploads
upon
upp
uppa
uppaftur
uppat
uppboði
uppboðssølu
uppby
uppbygt
uppdagar
uppdagað
uppdagaði
uppeftir
upper
[...]
