!
"
#
##0
##1
##10
##11
##12
##13
##14
##15
##16
##17
##18
##19
##2
##20
##21
##22
##23
##24
##25
##26
##27
##28
##29
##3
##30
##31
##32
##33
##34
##35
##36
##37
##38
##39
##4
##40
##41
##42
##43
##44
##45
##46
##47
##48
##49
##5
##50
##51
##52
##53
##54
##55
##56
##57
##58
##59
##6
##60
##61
##62
##63
##64
##65
##66
##67
##68
##69
##7
##70
##71
##72
##73
##74
##75
##76
##77
##78
##79
##8
##80
##81
##82
##83
##84
##85
##86
##87
##88
##89
##9
##90
##91
##92
##93
##94
##95
##96
##97
##98
##99
$
%
&
'
(
)
*
+
,
-
.
/
0
00
000
001
002
003
004
006
007
01
02
025
028
03
033
04
05
050
06
061
07
076
08
09
1
10
100
1000
1001
101
1010
1015
1019
102
1020
1027
103
1030
1035
104
1040
105
1050
1054
106
1060
107
1070
1076
108
1080
109
1090
1093
11
110
1100
111
1110
1113
112
1120
1125
113
1130
114
1140
115
1150
116
1160
117
1170
118
1180
119
1190
1193
12
120
1200
1202
1204
1206
1207
121
1210
1215
122
1220
1227
123
1230
124
1240
125
1250
126
1260
1265
1268
1269
127
1270
1272
1274
128
1280
1282
1284
129
1290
1298
1299
13
130
1300
1303
1307
1308
131
1310
1313
1319
132
1320
1327
1329
133
1330
134
1340
1341
1343
1347
135
1350
1353
136
1360
1368
137
1370
1375
1377
1378
138
1380
1387
1389
139
1390
1397
1398
14
140
1400
1403
1405
141
1410
1412
142
1420
1422
1427
143
1430
1431
144
1440
1442
1446
1448
145
1450
1451
1452
1453
146
1460
1462
1468
1469
147
1470
148
1480
1481
1483
1485
149
1490
1492
1494
1496
1498
15
150
1500
1502
1503
1504
1505
1506
1507
1508
1509
151
1510
1511
1512
1513
1514
1515
1516
1517
1519
152
1520
1521
1523
1524
1525
1526
1527
153
1530
1531
1532
1533
1534
1535
1536
1537
1538
1539
154
1540
1541
1542
1543
1544
1545
1546
1547
1548
155
1550
1553
1555
1558
1559
156
1560
1564
1565
1566
1567
1568
157
1570
1571
1572
1576
1577
158
1580
1581
1582
1583
1584
1585
1587
1588
1589
159
1590
1592
1593
1594
1595
1596
1598
1599
16
160
1600
1601
1602
1603
1605
1606
1607
1608
1609
161
1610
1611
1612
1614
1615
1616
1617
1618
1619
162
1620
1623
1624
1625
1626
1627
1628
1629
163
1630
1631
1632
1633
1634
1635
1636
1637
1638
1639
164
1640
1641
1642
1643
1644
1645
1646
1647
1648
1649
165
1650
1651
1652
1653
1654
1655
1656
1657
1658
1659
166
1660
1661
1662
1663
1664
1665
1666
1667
1668
1669
167
1670
1671
1672
1673
1674
1675
1676
1677
1678
1679
168
1680
1681
1682
1683
1684
1685
1686
1687
1688
1689
169
1690
1691
1692
1693
1694
1695
1696
1697
1698
1699
17
170
1700
1701
1702
1703
1704
1705
1706
1707
1708
1709
171
1710
1711
1712
1714
1715
1716
1717
1718
1719
172
1720
1721
1722
1723
1724
1725
1727
1728
1729
173
1730
1731
1732
1733
1734
1735
1736
1737
1738
1739
174
1740
1741
1742
1743
1744
1745
1746
1748
1749
175
1750
1751
1752
1753
1754
1755
1756
1757
1758
1759
176
1760
1761
1762
1763
1764
1765
1766
1767
1768
1769
177
1770
1771
1772
1773
1774
1775
1776
1777
1778
1779
178
1780
1781
1782
1783
1784
1785
1786
1787
1788
1789
179
1790
1791
1792
1793
1794
1795
1796
1797
1798
1799
18
180
1800
1801
1802
1803
1804
1805
1806
1807
1808
1809
181
1810
1811
1812
1813
1814
1815
1816
1817
1818
1819
182
1820
1821
1822
1823
1824
1825
1826
1827
1828
1829
183
1830
1831
1832
1833
1834
1835
1836
1837
1838
1839
184
1840
1841
1842
1843
1844
1845
1846
1847
1848
1849
185
1850
1851
1852
1853
1854
1855
1856
1857
1858
1859
186
1860
1861
1862
1863
1864
1865
1866
1867
1868
1869
187
1870
1871
1872
1873
1874
1875
1876
1877
1878
1879
188
1880
1881
1882
1883
1884
1885
1886
1887
1888
1889
189
1890
1891
1892
1893
1894
1895
1896
1897
1898
1899
19
190
1900
1901
1902
1903
1904
1905
1906
1907
1908
1909
191
1910
1911
1912
1913
1914
1915
1916
1917
1918
1919
192
1920
1921
1922
1923
1924
1925
1926
1927
1928
1929
193
1930
1931
1932
1933
1934
1935
1936
1937
1938
1939
194
1940
1941
1942
1943
1944
1945
1946
1947
1948
1949
195
1950
1951
1952
1953
1954
1955
1956
1957
1958
1959
196
1960
1961
1962
1963
1964
1965
1966
1967
1968
1969
197
1970
1971
1972
1973
1974
1975
1976
1977
1978
1979
198
1980
1981
1982
1983
1984
1985
1986
1987
1988
1989
199
1990
1991
1992
1993
1994
1995
1996
1997
1998
1999
2
20
200
2000
2001
2002
2003
2004
2005
2006
2007
2008
2009
201
2010
2011
2012
2013
2014
2015
2016
2017
2018
2019
202
2020
2021
2022
2023
203
2030
204
2040
205
2050
206
2060
207
2070
208
209
21
210
2100
211
212
213
214
215
216
217
218
219
22
220
221
222
223
224
225
226
227
228
229
23
230
231
232
233
234
235
236
237
238
239
24
240
2400
241
242
243
244
245
246
247
248
249
25
250
2500
251
252
253
254
255
256
257
258
259
26
260
261
262
263
264
265
266
267
268
269
27
270
271
272
273
274
275
276
277
278
279
28
280
281
282
283
284
285
286
287
288
289
29
290
291
292
293
294
295
296
297
298
299
3
30
300
3000
301
302
303
304
305
306
307
308
309
31
310
311
312
313
314
315
316
3166
317
318
319
32
320
321
322
323
324
325
326
327
328
329
33
330
331
332
333
334
335
336
337
338
339
34
340
341
342
343
344
345
346
347
348
349
35
350
3500
351
352
353
354
355
356
357
358
359
36
360
361
362
363
364
365
366
367
368
369
37
370
371
372
373
374
375
376
377
378
379
38
380
381
382
383
384
385
386
387
388
389
39
390
391
392
393
394
395
396
397
398
399
4
40
400
4000
401
402
403
404
405
406
407
408
409
41
410
411
412
413
414
415
416
417
418
419
42
420
421
422
423
424
425
426
427
428
429
43
430
431
432
433
434
435
436
437
438
439
44
440
441
442
443
444
445
446
447
448
449
45
450
451
452
453
454
455
456
457
458
459
46
460
461
462
463
464
465
466
467
468
469
47
470
471
472
473
474
475
476
477
478
479
48
480
481
482
483
484
485
486
487
488
489
49
490
491
492
493
494
495
496
497
498
499
5
50
500
5000
501
502
503
504
505
506
507
508
509
51
510
511
512
513
514
515
516
517
518
519
52
520
521
522
523
524
525
526
527
528
529
53
530
533
534
535
537
538
539
54
540
541
542
543
544
545
546
547
548
549
55
550
551
552
553
554
555
556
557
558
559
56
560
561
562
565
567
568
57
570
572
573
574
575
576
577
579
58
580
581
582
58234
583
585
586
587
589
59
590
591
593
594
595
596
597
598
599
6
60
600
6000
601
602
604
605
606
607
608
6088
609
61
610
616
617
62
620
625
626
627
628
63
630
631
632
634
635
638
639
64
640
642
643
646
649
65
650
651
652
653
654
655
656
66
660
661
662
663
664
665
666
67
670
671
672
675
676
679
68
680
681
683
685
687
688
69
690
691
692
694
695
696
697
698
699
7
70
700
7000
701
703
704
705
706
707
708
709
71
710
711
712
714
718
72
720
725
73
730
735
737
738
74
740
741
7456
747
748
749
75
750
751
753
754
757
76
760
768
77
770
771
772
775
776
778
779
78
780
786
79
790
792
793
795
796
798
799
8
80
800
8000
801
802
804
805
807
808
81
810
812
814
815
818
819
82
820
821
823
825
83
830
84
840
841
842
85
850
852
853
855
856
857
859
86
860
8601
862
87
870
872
874
875
879
88
880
882
887
89
890
893
895
9
90
900
9000
903
907
91
910
911
912
914
92
920
922
92286
93
930
931
932
933
934
94
940
945
95
950
955
96
960
961
962
963
965
968
969
97
970
971
972
973
976
977
978
979
98
980
985
988
99
990
992
994
995
996
997
998
999
99918
99972
:
;
<
=
>
?
@
\
^
_
`
a
aa
aab
aabenraa
aachen
aage
aalborg
aalto
aarhus
aaron
aars
aasen
aasmund
ab
abba
abbado
abbanum
abbasonur
abbasonurin
abbey
abbi
abbin
abbott
abc
abcnews
abdel
abdullah
abe
abel
aberdeen
aberdeenshire
abidjan
abkasia
aboriginal
aboriginar
aboriginarnir
about
above
abraham
abrahamsen
absalon
absalonsen
absent
absolut
abstrakt
abu
abuja
ac
academic
academy
accessed
according
ace
achebe
achievement
acid
acrocephalus
across
act
action
actitis
actor
actors
actress
ad
ada
adam
adams
add
additional
adelaide
adenafo
admin
administration
administrative
admiral
admiralur
ado
adobe
adolf
adressu
adrian
adriatico
advent
adventure
adventures
advokatur
ae
aegir
aek
aerial
aeroplanes
af
afc
affair
affairs
afganistan
afghanistan
afr
afraid
africa
african
afrika
afrikaans
afrikanar
afrikanarar
afrikanska
afrikanskar
afrikanski
afrikanskir
afrikanskum
afrikanskur
afrikonsk
afrikonsku
afrikonskum
afro
afroamerikanarar
afroamerikanska
afrodita
afroditu
aftan
aftana
aftanfyri
aftara
aftari
aftast
aftasta
aften
aftenposten
after
aftrat
aftur
aftura
afturat
aftureftir
afturfyri
afturgongd
afturi
afturkomin
aftursvar
afturvald
afturvaldur
afturvendandi
afzelius
ag
again
against
agder
age
agency
agentumboð
agentumboðið
aggi
agios
agn
agnar
agnes
agnga
agricola
agriculture
aguila
aguilera
agurk
ah
ahmad
ahmadinejad
ahmed
ahu
ai
aid
aids
ain
air
airasia
airbus
aires
airlines
airport
airways
ajax
ak
aka
akademi
akademinum
akademisk
akademisku
akb
akbar
akfør
akførum
aki
akillevs
akillevsar
akillevsi
akk
akkura
akraberg
akrabergi
akrabyrgi
akranesi
akrar
akrarnar
akropolis
aksel
akta
aktiv
aktivera
aktivir
aktivistur
aktivt
aktivur
aktuelt
aktum
akureyri
akutt
akvavitt
al
ala
alabama
aladdin
alain
alan
alandresults
alanya
alaska
alassane
alatri
alba
albanar
albania
albanskt
albanskur
albany
albeittar
alberg
albert
alberta
alberto
albifrons
albin
albion
albrecht
albright
album
albumm
albums
albuquerque
alc
alcazar
ald
alda
aldamo
aldan
aldara
aldarinnar
aldarmo
aldarskiftið
aldehyd
aldri
aldrig
aldrin
aldrinum
aldu
alduba
aldur
aldurin
aldurnar
aldurs
aldursbo
aldursmark
ale
alec
alejandro
aleksandar
aleksander
aleksandr
aleksandur
aleksej
aleqa
alessandria
alessandro
alex
alexander
alexandra
alexandre
alexandria
alexandru
alexandur
alexei
alexiou
alexis
alf
alfa
alfabetinum
alfabetisk
alfabetið
alfagra
alfama
alfonso
alfred
alfredo
alfrøði
algebra
alger
algeria
algiris
algoritma
alheiminum
alheims
alheimsfevnandi
ali
alibru
alice
alicia
alidy
alien
alighieri
align
alignbars
alin
aline
aling
alingsa
alis
alisa
alisfrøði
alisfrøðingar
alisfrøðingur
alisfrøðingurin
alison
alive
alivinna
alivinnan
alivinnuna
alivinnuni
aljazeera
alkan
alken
alkohol
alkoholi
alkoholir
all
alla
allah
allan
allar
allardyce
allarflestu
allarhelst
allari
allastaðni
alle
allen
allende
alley
alliance
allir
allison
allmusic
allsvenskan
allt
allting
allur
ally
alma
almanna
almannakunngjørd
almannakunngjørdi
almannama
almannara
almenn
almenna
almennan
almennar
almennari
almenni
almenninginum
almennir
almennt
almennu
almennum
almennur
alment
almikið
alnets
alno
aloftast
aloha
alone
along
alpha
alphabeat
alphabet
alpina
alpunum
alpurnar
alright
als
alsamt
alskyns
also
alsto
alt
alta
altarinum
altarið
altartalvan
altartalvuna
alte
alternativ
alternative
alti
altingið
altjo
alto
altso
altverkið
aluminium
aluminiumsma
alva
alves
alvesta
alvi
always
alyga
am
amadeus
amado
amager
amalia
amalie
amanda
amap
amariel
amasona
amata
amazon
amazonas
ambassadørar
amber
amboð
amboðum
ame
amelia
amen
ameri
america
american
americans
americas
amerigo
amerika
amerikanar
amerikanarar
amerikanari
amerikanarin
amerikanarir
amerikanarum
amerikansk
amerikanska
amerikanskan
amerikanskar
amerikanskari
amerikanski
amerikanskir
amerikanskt
amerikansku
amerikanskum
amerikanskur
amerikonsk
amerikonsku
amerikonskum
amerikumenn
amfetamin
amifo
amin
aminir
aminosy
amnesia
amnesty
amokk
among
amor
amore
amores
amos
amour
amr
amstel
amsterdam
amt
amtmaður
amtmaðurin
amtmenn
amts
amtsra
amulios
amuliosi
amundsen
amy
an
ana
analog
analyse
anas
anasazi
anastacia
anatolia
anc
anchorage
ancient
ancora
and
anda
andadra
andaliga
andaligum
andalusia
andan
andanum
andar
andaðist
anden
anders
andersen
anderson
anderssen
andersson
andesfjøllum
andesfjøllunum
andevni
andi
andin
andla
andlit
andliti
andlitinum
andlitið
andlitsfjalan
andlitsfjalandi
andorra
andra
andrade
andras
andrass
andrasson
andre
andrea
andreas
andreasen
andreassen
andrej
andreotti
andress
andrew
andrews
andrias
andriasar
andro
android
andromakka
andromakku
andros
andstøðan
andstøðu
andstøðuflokkarnir
andstøðuni
andy
aneby
anes
anette
anew
anfinn
anfinni
ang
anga
angel
angela
angeles
angeli
angelica
angelika
angelina
angelo
angels
angers
angist
anglo
angola
angolskur
angreb
anguilla
angustifolium
anhalt
anholt
animal
animatio
animation
anime
animeraða
anita
anitu
anja
ankara
anker
ankusevs
ann
anna
annan
annapolis
annar
annarleiðis
annars
annað
annaðhvørt
anne
anneliese
annes
annesar
annesi
annette
annfinni
annfinnur
anni
annie
annika
anniku
annis
annita
anniversary
annlis
anno
annu
annual
anny
another
ans
ansa
ansar
ansast
ansað
anser
anseriformes
anso
ansson
ansæð
ansøka
ansøku
ansøkuna
antarctic
antarktis
anthologi
anthology
anthony
anthus
anti
antibiotika
antigua
antilloyggjar
antilloyggjum
antillunum
antillurnar
antin
antiokia
antiquarianism
antiquaries
anto
antoine
antoinette
anton
antoni
antonia
antonio
antonius
antwerpen
anwar
any
ao
ap
apacharar
apache
apama
apartheid
apoel
apollo
apollon
apollonia
apollons
aposto
apotek
apotekið
app
appalachiafjøll
appalachian
appalakkufjøll
appilsinir
apple
application
apr
apra
apri
april
apulia
apur
apus
aqua
aquidneck
aquila
aquinas
aquino
ar
ara
arab
arabia
arabisk
arabiska
arabiskt
arabisku
arabiskum
arabo
arafat
aragon
aramæiskt
arara
arashi
arau
arbakka
arbakkarnar
arbakki
arbeiddi
arbeiddu
arbeiderpartiet
arbeitt
arbeiða
arbeiðarafelag
arbeiðaraflokkin
arbeiðaraflokkinum
arbeiðaraflokkurin
arbeiðarar
arbeiði
arbeiðinum
arbeiðir
arbeiðis
arbeiðið
arbeiðnum
arbeiðs
arbeiðsbo
arbeiðsfo
arbeiðsgevarafelag
arbeiðsgevarafelagið
arbeiðsgevari
arbeiðshefti
arbeiðskvinnufelag
arbeiðslegum
arbeiðsleys
arbeiðsli
arbeiðsloysi
arbeiðsloysið
arbeiðsmannafelag
arbeiðsmannafelagið
arbeiðsmarknaðarma
arbeiðsmarknaðinum
arbeiðsmarknaður
arbeiðsmegi
arbeiðsmenn
arbeiðspla
arbeiðstakarar
arbeiðsti
arbo
arc
arch
archibald
archive
archives
arco
arctic
arctica
ardølunum
are
area
areas
arena
arendal
aretha
arevs
arfo
arfrælsi
arge
argentina
argentinar
argentinska
argentinskur
argir
argja
argjaba
argjum
ari
aria
ariel
aril
arion
aristoteles
arizona
arja
arjen
arjeplogs
arkansas
arkimedes
arkitektar
arkitektinum
arkitektur
arkitekturin
arkiv
arktis
arktisk
arktiska
arktisku
arktiskum
arktiskur
arli
arlington
arlo
arlæra
armar
armenia
armenskt
armenskur
armgarð
armi
armin
armo
arms
armstrong
armu
armunnan
army
arna
arnbjørn
arne
arnfri
arni
arno
arnold
aro
aron
around
arpartar
arpartarnir
arpartinum
arpartur
arparturin
arr
arranged
arri
arrondissement
arrow
arrættindi
ars
arsenal
arsi
arstatus
art
arte
artemis
arthur
article
articleid
articles
artid
artikel
artikkel
artikler
artist
artists
artistur
arts
artu
artur
aru
aruba
arundinaceus
arv
arva
arvalutir
arvanitaki
arvað
arvaði
arvense
arvensis
arvidsjaurs
arvika
arvin
arvur
arøki
arøkinum
arøkið
as
asbest
asbjørn
asbjørnsen
aschehoug
asellus
aserbadjan
aserbadsjan
asfalt
asgreen
ash
ashley
asia
asiatar
asiatisk
asiatiska
asiatisku
asiatiskum
ask
askanios
askham
askildsen
asmussen
asp
aspx
assad
assessment
asset
assia
assigned
association
assy
ast
asta
astaire
astana
astaðni
asterix
asti
astma
aston
astri
astrid
astrið
astrup
astyanax
asyllex
at
ataqatigiit
atassut
atatu
atburð
atdra
ater
atferð
atfinningum
atgongd
athen
athena
athens
athenskur
athletic
athletics
athos
ati
atkins
atkinson
atkvøddi
atkvøddu
atkvøtt
atkvøða
atkvøðu
atkvøðugreiðsla
atkvøðugreiðslan
atkvøðugreiðslu
atkvøðugreiðsluni
atkvøðum
atkvøðunum
atkvøður
atkvøðurnar
atkvøðurætt
atla
atlanta
atlantic
atlantis
atlantsflog
atlantshav
atlantshavi
atlantshavinum
atlantshavið
atle
atli
atlit
atliti
atløgu
atoll
atollin
atom
atopiskt
atp
atso
att
attack
attacks
attika
attlee
atu
atvold
atvoldin
au
auckland
audience
audition
auditorium
audrey
auf
aug
august
augusta
auguste
augustin
augustine
augustinussen
augusto
augustur
augustus
auktio
aung
aurdal
aurelius
aurora
aus
auschwitz
austen
austin
australia
australian
australis
austria
auto
autumn
aux
av
ava
available
avalon
avant
avantgarde
avars
avatar
avbara
avbera
avbjo
avbyrgd
avbyrgdur
avbyrgt
avdu
ave
avenue
avesta
avfall
avfalli
avfallið
avger
avgera
avgerandi
avgerð
avgerða
avgerðandi
avgerðin
avgerðina
avgerðir
avgerðum
avgjøld
avgjørd
avgjørdi
avgjørdir
avgjørdu
avgjørdur
avgjørt
avgreiða
avhoyrdur
avi
aviation
aviser
aviv
avleitt
avleiðing
avleiðingar
avleiðingarnar
avleiðingum
avloysari
avloysir
avloyst
avloysti
avly
avmarka
avmarkað
avmarkaða
avmarkaðir
avmarkaðum
avmarkaður
avmarking
avmarkingar
avmyndað
avmyndaðar
avmyndaður
avnokta
avon
avra
avrik
avrit
avrætta
avrættað
avrættaði
avrættaðir
avrættaður
avrætting
avrættingar
avrættingarnar
avrættingum
avstað
avstralia
avstraliar
avstraliarar
avstralsk
avstralska
avstralski
avstralskir
avstralsku
avstralskur
avtaka
avtala
avtalan
avtalað
avtalu
avtaluna
avtaluni
avtalur
avtekur
avtikin
avtikið
avto
avtoftað
avtornaði
avvaksin
avvarðandi
awake
award
awards
away
ax
axel
ayaka
ayano
ayatollah
ayers
aymara
ayrshire
aythya
az
aziz
azkaban
að
aðalbla
aðalfund
aðalfundi
aðalfundin
aðalfundinum
aðalfundur
aðalfundurin
aðalin
aðalra
aðalskrivaranum
aðalskrivari
aðalskrivarin
aðalsmaður
aðalstjo
aði
aðra
aðrar
aðrari
aðrastaðni
aðrir
aðru
b
ba
baba
babba
babel
babs
baby
babylon
bach
bacharach
bachelor
bacheloru
bachmann
back
backing
backlink
bad
baden
badenweiler
badminton
bae
baffin
baffinsland
baffinslandi
bafta
baga
bagdad
bagge
baggio
bagsværd
baha
bahama
bahamaoyggjar
bahamas
bahia
baianstovu
baja
bak
baka
bakari
bakað
baker
bakgrund
bakgrundini
baki
bakinum
bakið
bakka
bakkafrost
bakkanum
bakkast
bakkastokki
baksy
bakteria
bakterian
bakteriu
bakterium
bakteriuni
bakteriur
bakteriurnar
baktus
baku
bakur
bal
balance
baldur
baldvinsson
baldwin
baldy
bali
balkan
ball
ballad
ballads
balle
balling
ballo
ballon
baltasar
baltic
baltimore
baltisk
baltisku
balzer
bambi
bambus
ban
bana
bananir
banasu
band
banda
bandi
bandið
bands
banff
bang
bangin
bangkok
bangladesh
bangladesj
bangor
bank
banka
bankanum
bankar
bankarnar
bankarnir
banker
banki
bankin
banknordik
banks
bankum
bankunum
bann
banna
bannar
bannast
bannað
bannaðar
bannaði
bannaðir
bannaðu
bannaður
banner
banning
bannið
bans
bant
bantuma
bao
baptist
bar
bara
barack
baraldur
barba
barbados
barbara
barbaru
barber
barbie
barbiedukkur
barbuda
barca
barcelona
bardaga
bardagan
bardaganum
bardagar
bardagarnir
bardagi
bardagin
bardist
bardot
bardu
bardur
bardust
bardøgum
bardøgunum
bare
barein
barentshavinum
bari
barker
barks
barmi
barn
barna
barnaa
barnablaðið
barnablaðnum
barnabo
barnabøkur
barnado
barnaeksem
barnagarðar
barnagarður
barnagarðurin
barnaheim
barnamentanarheiðursløn
barnanna
barnari
barnaro
barnarættindasa
barnarættindi
barnasangir
barnasju
barnasku
barnasøgur
barnatannrøktin
barnau
barndo
barnes
barnetimen
barni
barninum
barnið
barnsbeini
barnsins
baro
baroli
barom
baron
barr
barra
barrett
barrow
barrum
barry
barst
bartal
bartalsstovu
bas
basa
base
baseball
based
basel
basement
basguitar
bashar
bashir
basim
basin
baskaralandið
basketball
bass
bassistur
bassleikari
bassur
bast
basti
bastien
bastogne
bat
bataclan
batista
batman
batnað
baton
battari
battery
batti
battle
bauer
bauhaus
bauxit
baxter
bay
bayern
bað
bb
bbc
bbs
bc
bd
be
beach
bean
bear
beast
beat
beate
beatlarnir
beatles
beatrix
beatriz
beats
beautiful
beauty
bec
because
bech
beck
beckenbauer
becker
beckett
beckham
beder
bedste
beecher
been
beethoven
beethovens
beetroots
befolkning
befolkningsfo
before
befri
begin
begins
begynde
behind
behring
bei
beiggi
beiggin
beiggja
beiggjar
beijing
beijo
bein
beina
beinagrind
beinagrindin
beinagrindir
beinan
beinanvegin
beinavegin
beindi
beindu
being
beini
beinini
beinir
beinisvord
beinisvørð
beinisvørði
beinið
beinleiðis
beint
beinta
beinum
beinunum
beirut
beiti
beitilendi
bekenna
bel
bela
belfast
belgia
belgiarar
belgisk
belgiska
belgiski
belgiskir
belgiskur
belgium
beli
belials
believe
belis
bell
bella
belle
bello
belmondo
belmont
belo
below
belti
beltið
bem
ben
benadikt
bend
benda
bendar
bendast
bender
bendi
bending
bendingar
bendingin
bendir
benedicta
benedictus
bengali
bengt
bengtsfors
benigno
benin
benito
benjamin
benjaminsen
benjardøgg
benkur
bennett
benny
bensin
bent
bente
beograd
ber
bera
berandi
berast
berbar
berg
bergamo
bergen
bergens
bergh
berghamar
bergi
berginum
bergið
bergliot
bergljo
bergman
bergs
bergsson
bergstro
bergto
bergur
beri
beringssund
berini
berit
berja
berjalyngur
berjast
berjist
berligt
berlin
berlinale
berlinaluni
berlingske
berlinmu
berlusconi
bermuda
bern
bernadotte
bernard
bernhard
bernhardt
berry
bert
berta
bertani
bertel
bertholdsen
bertil
bertolt
bertrand
berum
berøa
bes
best
besta
beste
besti
bestu
bestur
bet
beta
betesda
beth
betlehem
betongi
betra
betran
betraði
betri
bette
better
betty
betur
between
beverly
bevo
bevolkingsontwikkeling
beyonce
beyond
beyð
bf
bfl
bg
bgn
bi
bia
bianca
bibi
bibliografi
bibliotek
bichat
bidda
biden
bieber
biedermann
bielsa
bien
big
bil
bilar
bilarnir
bild
bili
bilin
bilinum
bill
billboard
billio
billy
bilsk
bilskir
bilsnir
bilum
bilur
bilurin
bin
bind
binda
bindandi
binding
bindir
bindum
bindur
bingen
bingjur
bio
biograf
biograffilmum
biografi
biografisk
biografunum
biography
bipm
bird
birdman
birds
birgir
birgisson
birgit
birgitta
birita
biritu
birkblog
birkeland
birkenes
birkerød
birkir
birmingham
birna
birni
birnie
birta
birth
birthe
birtili
birting
birtu
bishop
biska
biskopstø
biskt
bisku
biskum
biskup
biskupur
biskupurin
bismarck
bison
bisonoksar
bisonur
bispasetrið
bispin
bispinum
bispur
bispurin
bissau
bit
bitch
biti
bitklo
bitland
bitter
biz
biðin
biðið
biðja
biður
bja
bjarga
bjargar
bjargað
bjargaði
bjargaðir
bjargaðu
bjargaður
bjarkhamar
bjarki
bjarna
bjarnason
bjarne
bjarni
bjarnir
bjart
bjarta
bjartali
bjartur
bjerre
bjo
bjuvs
bjørg
bjørgini
bjørgum
bjørgunum
bjørgvin
bjørk
bjørn
bjørnson
bjørnstjerne
bjørt
bk
bl
bla
blachman
black
blackwell
blair
blaise
blak
blaka
blakað
blake
blanc
blanchett
bland
blanda
blandar
blandað
blandaðar
blandaðum
blanding
blandingur
blankar
blankaska
blankska
blankt
blasfemi
blast
blaze
blað
blaðfo
blaði
blaðið
blaðkvinna
blaðmaður
blaðnum
blaðsi
blaðstjo
blaðu
blaðungur
ble
bleed
bleiv
blekinge
blett
blettir
blettum
blettur
blev
bleytt
bli
blia
blian
blica
blikur
blind
blinda
blindum
blindur
bliuna
bliuni
bliuty
bliver
blivin
blivið
blivnar
blivnir
blivu
blix
blixen
blo
bloch
block
blod
bloemfontein
blog
bloggarar
bloggari
bloggur
blogs
blogspot
blokering
blokkur
blokland
blomkvist
blonde
blood
bloody
bloom
bloomberg
bloomington
bloomsbury
bls
blu
blue
blueberry
bluebird
bluegrass
blues
bluesto
blunt
bly
blædel
bløð
bløðini
bløðum
bløðunum
bm
bmi
bne
bo
board
boarnir
boasson
boat
boats
bob
bobby
boccaccio
boccoli
bodens
bodil
body
boel
boerkaverbod
bog
boga
boganum
bogaskjo
bogason
bogen
bogi
bohr
bok
bokasolan
bokma
boko
boksari
boksing
bold
boldklub
boli
bolivia
bollebygd
bollebygds
bologna
bolsjevikkaflokkurin
bolsjevikkar
bolt
bomber
bon
bonaire
bonaparte
bond
bone
bones
bonhoeffer
bonkinum
bonn
bonnie
bonniers
bonus
book
books
boom
boot
bootcamp
bop
bor
bora
borað
bordeaux
border
borealis
boreray
borg
borgarakri
borgarar
borgararættindastri
borgararættindum
borgari
borgarlig
borgarliga
borgarligu
borgarstjo
borgarum
borgarunum
borgen
borges
borgin
borgina
borgini
borgir
borgmeistari
borgum
borin
boris
borið
bork
borla
born
borneo
bornholm
bornholms
borno
borough
borromeo
bort
borussia
borð
borði
borðini
borðinum
borðið
borðoy
borðoynni
borðs
borðtennis
borðtennisfelag
borðuni
borðvi
bos
bosnia
bosniskt
boss
boston
bot
both
botkyrka
botn
botnfiskur
botni
botnin
botninum
botsvana
bottom
botulinum
botulisma
botulismu
boulder
boulevard
bounty
bour
bourdain
bournemouth
bouvetoy
bowie
bowl
bowling
box
boy
boyle
boys
boznan
boð
boða
boðan
boðanir
boðar
boðarar
boðari
boðað
boðaði
boðaðu
boði
boðin
boðini
boðið
boðskap
boðum
bp
br
bra
brabant
brace
brad
bradley
brae
bragd
bragdið
braham
brahma
brahmadellarnir
brahms
branca
branco
brand
brandenburg
brandi
brando
brandt
brandur
brann
branta
brarup
brasi
brasil
brasileiras
brasileiro
brasilia
brasilsk
brasilska
brasilskir
brasilsku
brasilskur
brast
bratislava
bratt
bratta
brattaberg
brattlendi
braun
brava
brave
bravo
brazil
brazilian
brazzaville
bre
break
breakfast
breaking
brecht
breckmann
breidd
breiddi
breiddin
breiddu
breiner
breitner
breitt
breivik
breið
breiða
breiðar
breiðari
breiðast
breiðir
breiðu
breiðum
breiður
brek
brekað
brekaðu
breki
brekku
brekkunum
bremen
brend
brenda
brendan
brendar
brendi
brendu
brendur
brenna
brennandi
brenni
brennievni
brennir
brennivi
brennur
brent
brentford
breschel
bressay
bresta
brestir
brestisson
brestur
bretagne
bretar
brethren
bretland
bretlandi
bretlands
bretonskt
bretsk
bretska
bretskan
bretskar
bretskari
bretski
bretskir
bretskt
bretsku
bretskum
bretskur
bretum
breve
breyt
breyð
breyðføða
breyði
bri
brian
brickman
bridge
bridgeport
bridges
bridgetown
brief
brigdi
brighton
brigitta
brigitte
brill
brim
brimheim
brimi
brimil
brimið
brimnes
bringa
bringan
bringu
bringumynd
bringuna
bringuni
bringusvimjing
bris
brisbane
brisinum
brisið
britain
britannica
british
britney
britt
britta
brix
brno
bro
broad
broadway
broberg
brock
broddur
broderick
broken
bromo
bromwich
broncos
bronsa
bronson
bronsu
bronsuheiðursmerki
bronsuheiðursmerkjum
bronsuvinnari
bronsuøld
bronsuøldini
bronx
bronze
brooklyn
brooks
bros
brosnan
brot
brother
brothers
broti
brotin
brotini
brotið
brotlendir
brotna
brotnar
brotnaði
brotsgerð
brotsgerðir
brotsmaður
brotsmenn
brotsspark
brotssparkskapping
brotsverk
brotum
brown
broyta
broytast
broyting
broytingar
broytingarnar
broytingin
broytingum
broytir
broytist
broytt
broytta
broyttar
broytti
broyttir
broyttist
broyttu
broyttum
broyttur
broyttust
brt
bru
bruce
brugda
bruk
brun
bruna
brundtland
brunei
bruno
brunsj
brunswick
brussel
brustu
bruttotjo
brutu
bruxelles
bry
bryan
bryggja
bryggjari
bryggjað
bryggju
bryggjubakka
brynhild
brynjolfur
bræv
brævi
brævinum
brævið
brødrene
brøgd
brøndby
brøtt
brøttu
brøttum
brøv
brøvini
brøðrasamkoman
brøðrasamkomuna
brøðrasamkomuni
brøðrum
brøðrunum
brøður
brøðurnir
bs
bt
btu
bu
bubble
buchanan
bucures
budam
budapest
budda
buddha
buddisma
buddistar
buddy
budget
buena
buenos
buffalo
buffon
bugge
bugvar
building
bukarest
bulgaria
bulgarskt
bulgarskur
bull
bullerbyn
bumba
bumban
bumbað
bumbua
bumbuatso
bumbur
bumburnar
bummull
bundesliga
bundesliguni
bundin
bundið
bundnar
bundnir
bundnum
bundu
buon
bureau
burger
burj
burka
burkina
burku
burkuna
burkuni
burlington
burlo
burma
burn
burning
burnley
burns
burqa
burr
burt
burton
burtur
burturav
burturflutt
burturfra
burturi
burtursæð
burturu
burturvi
burundi
burðardygga
burðarnir
bus
bush
business
buskerud
buss
bussar
bussinum
bussum
bussurin
buster
but
butan
buteo
butterfly
buzz
bw
by
bye
byen
bygd
bygda
bygdafo
bygdar
bygdara
bygdarfo
bygdarra
bygdarsavn
bygdasavn
bygdi
bygdin
bygdina
bygdini
bygdir
bygdirnar
bygdu
bygdum
bygdunum
bygdur
bygg
byggi
byggilist
bygging
byggingin
byggingina
byggingini
byggir
byggja
byggjast
bygland
bygnaðurin
bygning
bygningar
bygningarnar
bygningarnir
bygningi
bygningin
bygninginum
bygningsverk
bygningum
bygningunum
bygningur
bygningurin
bygt
byjaði
bylgjan
bylgju
bylon
byrgd
byrgdar
byrgdarblaðstjo
byrgdina
byrging
byrgingar
byrgingin
byrgingina
byrja
byrjan
byrjanin
byrjanina
byrjanini
byrjar
byrjað
byrjaði
byrjaðu
byrjaður
byron
byrsu
byrsum
byrsur
byrta
byrðina
bysantinska
byzantinska
bæk
bænadikt
bærendsen
bærentsen
bævrar
bævurin
bæði
bø
bøgan
bøguni
bøin
bøkur
bøkurnar
bøn
bønarorð
bøndur
bøndurnar
bøndurnir
bønhu
bønir
bønum
børge
børk
børks
børkur
børn
børnini
børnum
børnunum
børsskra
bøta
bøtur
bøur
bøurin
c
ca
cabinda
cable
cabu
caesar
cafe
cahokia
caicosoyggjar
cain
cal
calandra
calcutta
caldero
calendar
calgary
calidris
california
call
called
calling
calls
calvin
cam
cambridge
came
camel
camelot
cameron
cameroon
camilla
camille
camp
campbell
campeonato
campeones
campus
camus
can
canada
canadian
canal
canberra
cancellara
cand
candamir
candice
candy
cannes
canorus
cantabile
canterbury
canvas
canyon
cape
capital
capitol
capo
capone
cappelen
captain
captor
car
cara
caras
carbon
carboxylsy
card
cardiff
carduelis
carey
caribbean
carl
carla
carlo
carlos
carlsberg
carlsen
carlsson
carmen
carol
carola
carolina
caroline
carolus
carpenters
carr
carre
carrey
carrie
carroll
cars
carson
carsten
carta
carter
casa
case
caselle
casey
cash
casino
caso
caspar
casper
cassidy
cassius
cast
castle
castlebar
castro
cat
catalina
catalunya
catan
catch
cate
categori
categoria
categorie
categories
category
cathedral
catherine
catholic
cathrine
cause
cavendish
cayman
caymanoyggjar
cbc
cbs
cd
cdn
cdot
cdu
ce
cecil
cecilia
cedar
cedric
celebration
celebrity
celine
cello
cellokonsert
celsius
celtic
cemr
census
center
central
centre
centro
centrum
century
ceo
cerastium
cercignani
cervantes
cesar
cesare
cesurae
cet
cf
cfm
cgi
ch
cha
chad
chadri
chadwick
chain
challenge
chamber
chamberlain
chamorro
champagne
champaign
champion
champions
championship
championships
champlain
chan
chance
chanel
chang
change
changed
changes
channel
chaplin
chapter
charadriiformes
charadrius
charb
charity
charles
charleston
charley
charlie
charlotte
charlottetown
charlton
charrie
chart
chartres
chase
chaucer
chavi
che
chelsea
chepstow
cher
cherokee
cherokesiskt
cherry
chess
chester
chet
cheyenne
chi
chicago
chico
chief
chiesa
child
children
chile
chili
china
chinese
chinua
chips
chirac
chiricahua
chlidonias
cho
chocolate
choice
chopin
chr
chris
christ
christen
christensen
christer
christian
christiania
christians
christiansborg
christiansen
christianskirkjan
christianskirkjuni
christie
christina
christine
christmas
christoffer
christopher
chronicle
chronicles
chuck
chumash
church
churchill
ci
cia
ciconiiformes
cid
cider
cie
cies
cincinnati
cinderella
cindy
cine
cinema
cinerea
cio
cip
ciranda
circle
circuits
circus
cis
cisalpino
cisv
cities
city
citypopulation
ciudad
ck
cke
ckero
cl
cla
claes
claire
clara
clark
clarke
class
classic
classical
classics
classification
claude
claudio
claus
clausen
clav
clay
clayton
clemens
clement
clementsen
cleveland
clickhaze
cliff
clifford
cliffs
climate
cline
clint
clinton
clive
clock
clone
clooney
close
closer
clostridium
clothier
clotworthy
clover
clown
club
clubs
clyde
cm
cn
cnn
co
coach
coal
coast
coat
coca
cochran
cochrane
coco
code
codes
cody
cofi
cohen
col
cola
colbertaldo
cold
cole
coleman
colin
collar
collection
collections
college
collegium
collins
colo
coloquick
color
colorado
colors
columba
columbarius
columbia
columbiformes
columbus
com
combattler
come
comedic
comedy
comes
comics
comicwiki
coming
commedia
commedie
commission
committee
common
commons
commonwealth
community
como
compact
company
comparative
competition
complete
composers
compostela
compound
computer
comune
con
concepcio
concept
concert
concerto
conchita
concord
concordia
conditions
conepatus
coney
conference
confessions
conflict
congo
congress
connacht
connecticut
connery
conrad
constitution
contact
contae
conte
contemporary
content
contest
continental
contra
control
cook
cool
coolidge
cooper
cop
copa
copenhagen
coptic
cor
corac
corax
corazon
corfitz
corinthians
cork
cornelius
cornell
corniskt
cornwall
cornwallis
corona
corpo
corporation
corps
corr
corresponding
cort
corvus
cory
cosmos
costa
could
council
count
counties
countries
country
countrysangari
countryto
county
courbet
course
court
courthouse
cover
coves
covid
cowboy
cowboyar
cowboys
cox
cph
cr
craig
crash
craven
crawford
crazy
creek
cremona
crew
cricket
crime
crimes
crisis
cristiano
cristina
crite
cromwell
cropped
cross
crowe
crown
cru
crusher
cruyff
cruz
cry
crystal
cs
ctd
cu
cuculus
culinary
cult
cultivation
cultural
culture
cumberland
cuneo
cup
curac
curie
currency
current
currently
curtis
curvirostra
cut
cutfather
cycling
cycliste
cygnus
cynthia
cyrus
cystic
cæsar
d
da
daddy
dag
daga
dagar
dagarnar
dagarnir
dagblad
dagbladet
dagblaðið
dagblaðnum
dagbo
dagen
dagens
dagf
dagfest
dagfesting
dagfinn
dagførd
dagføring
dagføringar
dagført
dagin
dagliga
dagligari
dagligt
dagligum
dagligur
dagmar
dagny
dags
dagseting
dagsetningar
dagsins
dagsskra
dagur
dagurin
dahl
dahle
dai
daily
dailymail
daisy
dakar
dakota
dal
dalai
dalar
dalarnar
dalarnas
dalarnir
dale
dalet
dali
dalin
dalinum
dallas
dals
dalsbæk
dalsgaard
dalsgarð
dalur
dalurin
dam
dame
damer
dami
damm
dampskipi
dan
dana
dananum
dance
dancing
dangah
danger
dangerous
dani
daniel
daniella
danielle
danielsen
danielsens
danielsson
danin
danir
danish
danjal
danmark
danmarkar
danmarks
danmarksmeistaraheitið
danmarksmeistari
danmørk
dannebrog
danny
dans
dansa
dansandi
dansarar
dansari
dansarinna
dansað
dansaðu
danse
dansi
dansifelag
dansifelagið
dansin
dansinum
dansk
danska
danskan
danskar
danskari
danske
danski
danskir
danskt
danskur
dansur
dansurin
dante
daphne
dar
darfur
dari
dario
dark
darkness
darling
darnley
daron
darude
darwin
das
dat
data
database
date
dateformat
dates
dato
datt
datter
dauphine
dave
davi
david
davidsen
davies
davis
davy
dawn
dawson
day
days
db
dbu
dc
dcu
dd
dda
ddar
ddi
ddin
ddini
ddir
ddist
ddk
ddr
ddu
ddum
ddur
ddust
de
dea
dead
deadmau
deal
dean
death
debate
debbie
debes
debess
deborah
debrah
debrecen
debut
dec
decade
decca
december
decide
decision
declaration
dee
deep
def
default
defense
definera
definerað
definitio
defoe
deg
degi
degli
degnum
dehli
dei
deiggj
deila
deild
deildarleiðari
deildarstjo
deildin
deildina
deildini
deildir
deildirnar
deildum
deilir
deilstatinum
deilt
dekk
dekki
deksba
del
delaware
delblanc
delfi
delhi
dell
della
delle
delos
delta
deluxe
dem
demmus
demo
democratic
democratico
demokraatit
demokrat
demokratar
demokratarnir
demokrati
demokratia
demokratiska
demokratiski
demokratiskt
demokratunum
den
denali
denis
denmark
dennis
denstoredanske
dent
dentur
denver
denyer
department
depil
depilin
depli
deplinum
der
derek
derko
dermanlands
derta
des
desai
desantis
descartes
desejo
desember
desembur
desert
desi
design
desmond
dessau
destiny
det
detail
details
detective
detroit
detta
dette
dettur
deutsch
deutsche
deutschland
development
devil
devon
dewey
deyð
deyða
deyðadag
deyðado
deyðadømd
deyðan
deyðans
deyðarevsing
deyðarevsingina
deyðatalið
deyði
deyðilig
deyðiliga
deyðin
deyðir
deyðis
deyðshja
deyðsho
deyðsorsøkir
deyðu
deyðum
deyður
deð
df
dfb
dhabi
dhs
di
dia
diabetes
diabo
dialekt
dialektir
diamantar
diamantum
diametur
diamond
diana
diane
diary
dias
dick
dickens
dickinson
dictionary
dicuil
diderik
didier
dido
didriksen
die
diego
dies
dietrich
different
dig
digital
digte
dijk
dik
dikt
dikter
dimma
dimmalætting
dimmari
dimmbru
dimmgra
dimmum
dimmur
din
dina
dinamo
dine
ding
dinge
dino
dinosaurar
dio
diomedevs
dion
diplomatar
diplomatur
direct
directory
dirigentur
dirty
dirvi
disc
disco
discography
discogs
discovery
diskografi
dism
disney
disneyland
display
displays
distribution
district
districts
distrikt
distrito
dit
dith
ditlevsen
divaz
divertimento
divide
division
divisions
divo
dixon
dixoni
diz
dizzy
dj
djengis
djevulin
djibuti
djo
dju
djurga
djurholm
djurhuus
dk
dkk
dleyp
dliga
dm
dmitri
dmitry
dmu
dn
dna
dnarveður
dnað
dnaðar
dnaðarby
dnaðarkollveltingin
dnaðarland
dnaðarlond
dnaðarlondini
dnaðarlondunum
dnaðarma
dnaðarmaður
dnaðarvirki
dnaðarvirkir
dnaðarvirkjunum
dnaðarvørur
dnaði
dnaðin
dnaðinum
dnaður
dnaðurin
dni
dnin
dnina
dning
dningar
dningarmesta
dningarmesti
dningarmestu
dningarmikil
dningarmikið
dningarmikla
dningarmiklan
dningarmiklar
dningarmiklari
dningarmiklastu
dningarmiklir
dningarmiklu
dningi
dningin
dningur
dningurin
dnini
dnir
dnirnar
do
dobro
doc
docs
doctor
documents
dodekanes
doe
does
dog
dogg
dogonfo
doha
doi
doktari
doktor
dokumentar
dokumentarfilmur
dole
dollarar
dollari
dollin
dolls
dolly
dolmayan
dom
domain
domenico
domesticus
dominerandi
domingo
domini
dominika
dominikanaly
dominikanska
domino
don
dona
donald
donaldson
donau
done
donegal
donetsk
dong
donkey
donna
donsk
donsku
donskum
door
doors
doping
dorado
dorete
doris
dorothea
dorrit
dorthe
dortmund
dos
dostojevskij
dotter
dottin
double
doubt
doug
douglas
dove
dover
down
download
downtown
doyggja
doyggjandi
doyle
doypa
doypt
doyptur
doyr
doyði
doyðu
dq
dr
dra
dracula
draga
dragast
dragon
drake
drakk
drama
dramatikari
dramaverkstaðið
drangar
drangedal
drangur
drap
draw
dre
dream
dreams
dregur
dreingir
dreingirnar
dreingirnir
dreingjabo
dreingjum
dreiuli
drekan
drekar
drekin
drekka
drekkivatn
drekkur
drelnesi
drenge
drengen
drepa
drepur
dresden
drew
dreymaland
dreymar
dreymi
dreymin
dreymur
dreymurin
dri
dries
drigin
drigið
drignir
dripin
dripið
dripnir
dripnu
drive
driver
driving
dro
drogheda
drong
drongur
drongurin
dronning
drop
dropar
drops
drotning
drotningaumfar
drotningin
droymdi
droymt
dru
drugs
drukkið
drukku
drukna
druknaði
drums
drunnhvi
drupu
dry
drykkur
drøm
drømme
ds
dsc
dss
du
duarte
dubai
dublin
dubliners
duchamp
duck
due
duel
duet
duett
duga
dugandi
dugað
dugdi
dugdu
dugir
dugnalig
dugnaligir
dugnaligur
dugni
dugur
duke
dukka
dukkan
dukkehjem
dukkuheim
dukkur
dukkurnar
dulnevninum
dumas
dumbo
duna
duncan
dundalk
dundee
dunlewy
dunna
dunnald
dunnaldur
dunnu
dunnur
dunnuvi
dunst
duo
dupult
dupultur
dur
durham
durhuus
during
durita
duritu
durunum
dust
dustsu
dutch
duttu
duvalier
dvd
dvi
dvørgarnir
dwelling
dwight
dy
dybkjær
dygd
dygdir
dygga
dyggiliga
dyggur
dying
dylan
dyr
dyrene
dyrka
dyrkar
dyrkað
dyrkaðar
dyrkaðu
dyrkilendi
dyrnar
dyst
dysti
dystin
dystinum
dystir
dystirnar
dystirnir
dystum
dystunum
dystur
dysturin
dz
dælt
død
døde
døden
døgg
døglingar
døgn
døgum
døgunum
døgurða
dølum
dølunum
døma
dømandi
dømd
dømdi
dømdir
dømdur
dømi
dømini
dømir
dømis
dømið
dømt
dønum
døtrar
døtur
døturnar
e
ea
each
eagle
eagles
ean
earhart
earl
early
earth
east
eastern
eastwood
easy
eat
eb
ebba
ebbe
ebbu
ebchecked
ebenezer
ebillett
ebu
ec
ece
eclipse
economic
economy
ecuador
ed
edda
eddie
eddu
eddy
eden
edenbridge
edgar
edge
edinborg
edinburgh
edison
edit
edith
edition
editor
edmonton
edmund
edmundi
edmundsson
eds
edson
edu
eduard
eduardo
education
edva
edvald
edvard
edward
edwin
ee
eetion
ef
efeistosi
efesus
effect
effersøe
effo
effodeildin
effodeildini
efl
efter
eftf
eftir
eftirfylgjari
eftirkomarar
eftirkomari
eftirkomarum
eftirli
eftirlit
eftirliti
eftirlitið
eftirly
eftirløn
eftirmaður
eftirnavn
eftirnavninum
eftirnavnið
eftirnøvn
eftirsku
eftirspurning
eftirspurningur
eftirspurningurin
eftirsum
eftur
eg
egearahavinum
egede
egg
eggen
eggert
eggina
eggini
eggið
eggja
eggjahvi
eggjar
eggjarnar
eggjað
eggjaði
eggjaðu
eggjunum
eggvaksin
egholm
egil
egilsnes
egilstoft
egilstrøð
egin
egina
eginleikar
egið
egna
egnan
egnar
egnari
egnað
egner
egnu
egnum
ego
egon
egvad
egypt
egyptaland
egyptalandi
egyptalands
egyptar
egyptian
egyptiskur
ei
eide
eidesgaard
eiffel
eiffeltornið
eiga
eigara
eigaranum
eigarar
eigararnir
eigari
eigarin
eigarunum
eight
eigi
eigur
eiheldur
eik
eikilund
eileen
eiler
eilif
eimskip
ein
eina
einaferð
einahandilin
einahandlinum
einamest
einans
einar
einari
einars
einarætt
einaræði
einaræðisharri
einaræðisharrin
einasta
einastandandi
einasti
einastu
einaudi
einaveldi
eind
eindags
eindhoven
eindin
eindina
eindini
eindir
eindirnar
eindum
eine
eineias
eineiasar
eineiasi
eineiuni
einer
einfalda
einfaldari
einfalt
einføldum
eingi
eingil
eingilin
eingilskum
eingin
eingir
einglar
einhvør
eini
einir
einkarætt
einki
einkja
einkult
einkultstart
einkultstarti
einkultstartur
einleikari
einmansleiki
einmansleikur
einmælt
einn
einræðisharrar
einræðisharri
eins
einsamallar
einsamallur
einsamalt
einsamøll
einstaka
einstakan
einstakar
einstakir
einstaklingakapping
einstaklingakappingum
einstaklingar
einstaklingin
einstaklingsvirki
einstaklingum
einstaklingur
einstakt
einstakum
einstakur
einstein
einstøk
einstøku
einstøkum
eintal
eintracht
eintøk
eintøkum
einu
einum
einvi
einwohnerzahl
eirargarður
eirik
eiriksfoss
eiriksson
eirikur
eisenhower
eisini
eit
eita
eitrandi
eitraður
eitt
eittans
eitthvørt
eitur
eivind
eivør
eið
eiði
eiðinum
eiðis
eiðismaðurin
eiðið
eiður
ejc
ejdesgaard
ejm
ejvind
ek
ekberg
ekdahl
ekero
eklund
eksakt
eksem
eksil
ekstrabladet
ekvador
ekvator
ekvatorguinea
el
elas
elba
elbe
eld
eldgos
eldgosini
eldi
eldin
eldinum
eldra
eldri
eldru
eldsbruna
eldur
eldurin
elduvi
eldvatn
eleanor
election
elections
electoralcollege
electric
electro
electronica
elektrisitet
elektrisitetsverkið
elektrisitetverkið
elektro
elektron
element
elements
elena
elephant
elfelagið
elfsborg
elgar
eli
elia
elias
eliasen
elin
elina
elinborg
eliot
elis
elisabet
elisabeth
elitu
elizabeth
elizabethton
ella
elle
ellefsen
ellemann
ellen
eller
elligomul
ellingsgaard
ellington
elliot
ellis
ellisakfør
ellivu
elmegi
elnur
elsa
else
elsebeth
elska
elskar
elskaði
elsker
elski
elspa
elsta
elsti
elstu
elstur
elsu
elta
eltir
elton
elttør
elva
elvdi
elvdu
elverk
elverkið
elvir
elvis
elvt
em
emanuel
emberiza
embæti
embætinum
embætisfo
embætismaður
embætismenn
embætispro
embætið
emerging
emerson
emi
emil
emili
emilia
emiliano
emilie
emily
eminem
emiratunum
emirri
emma
emmaboda
emmanuel
emmelie
emmy
emotion
emperor
empetrum
empire
ems
en
enakter
encyclopedia
encyclopædia
end
enda
endaliga
endaligi
endaligt
endaligu
endama
endan
endangered
endans
endanum
endar
endaspæl
endaspælinum
endaspælið
endaumfarið
endað
endaði
endaðu
ende
endi
endiliga
endin
ending
endingar
endingina
endingini
endurbygging
endurgivin
endurgjald
endurljo
endurminningar
endurny
endurprentað
endurreisa
endurreist
endurskoðan
endurskoðað
endurstovnað
endursy
endurtaka
enduru
endurvaldur
endurvann
endurvi
enekk
energi
energy
eng
engang
engel
engels
engineer
engineering
england
englandi
engle
english
engskt
enko
enn
enni
enniberg
ennið
ennta
enok
enquist
enrico
enrique
ensign
ensk
enska
enskar
enskari
enski
enskir
enskt
ensku
enskum
enskur
enter
enterprise
entertainment
entry
environment
enya
eo
ep
epi
epiktetos
epilobium
epiros
episode
episodio
eplf
epli
eplir
equisetum
er
era
erase
erecta
ergometertider
erhard
eri
eric
erica
erich
erichsen
erie
erievatn
erievatni
erik
eriksen
eriksson
erindring
eritrea
erkibiskupur
erla
erland
erlend
erlendur
erling
erlingsdo
erna
erne
ernest
ernie
ernst
ero
eros
ert
eru
erva
erwin
es
esaias
esbern
esbjerg
esc
escape
esctoday
eskilstuna
eskimoar
eslo
esmar
espan
especial
esperanc
esperanto
esperantobo
espi
espn
ess
essay
essays
essex
essunga
est
esta
estaing
estelle
ester
esther
estiano
estimates
estiskt
estland
estlandi
estrela
et
eta
etandi
eternity
ethnic
ethnologue
etin
etiopia
etið
etna
etniskar
etniskum
etruskar
ett
etta
etter
ettler
etur
eu
euge
eugene
eunice
euro
euronews
europa
europameistara
europameistaraheitið
europe
european
europeiska
eurovision
eustatius
ev
eva
evan
evandur
evangeliini
evangeliinum
evangeliið
evangelisk
evangelium
evans
eve
even
evening
evensen
event
events
ever
everest
everett
everglades
everton
every
everybody
everything
evi
evic
evil
evje
evna
evnafrøði
evnafrøðilig
evnafrøðiliga
evnafrøðiligum
evnafrøðingur
evnari
evnað
evni
evnini
evnir
evnið
evnum
evolution
evra
evropa
evropameistari
evropara
evropasamveldið
evropatinginum
evropear
evropearar
evropeararnir
evropearin
evropearum
evropeisk
evropeiska
evropeiskar
evropeiskari
evropeiski
evropeiskir
evropeiskt
evropeisku
evropeiskum
evropeiskur
evropu
evruna
evrur
evstu
evu
evvia
ewa
ex
exam
example
examples
exceptionally
executive
exeter
exhibition
expanded
expedition
experiment
experimental
explorer
export
express
extra
exxon
eydna
eydnan
eydnast
eydnaðist
eydnu
eydnuna
eye
eyes
eyga
eyganum
eygað
eygleiða
eygleiðarar
eygleiðarastøðu
eygsjo
eygu
eygum
eyguni
eygunum
eygur
eyka
eyknevndur
eyknevni
eyknevnið
eyr
eyrith
eyrur
eystan
eystanfyri
eystani
eystanstevna
eystantil
eystara
eystarasalti
eystari
eystarlaga
eystaru
eystasta
eystrasalt
eystrasalti
eystri
eystrum
eystur
eystura
eysturafrika
eysturdal
eystureftir
eysturevropa
eysturi
eysturikskur
eysturkommuna
eysturkommunu
eysturlandinum
eysturoy
eysturoyar
eysturoyartunnilin
eysturoyingar
eysturoynna
eysturoynni
eysturpakistan
eysturri
eysturro
eystursi
eystursjo
eystursku
eysturstein
eysturstrond
eysturstrondina
eysturstrondini
eysturtimor
eysturty
eyvindur
eyð
eyðbjørn
eyðfinn
eyðfinnsdo
eyðgunn
eyðkend
eyðkenda
eyðkendi
eyðkendu
eyðkendur
eyðkenna
eyðkenni
eyðkennir
eyðkent
eyðkvæmi
eyðmy
eyðna
eyðsy
eyðun
eyðunsdo
eyðvør
ezekiel
ezekielsbo
ezra
eðlur
f
fa
faa
fabian
fabio
fable
fabre
fabricius
face
facebook
facebooksi
fact
factbook
factfinder
facto
factor
factory
facts
faeroensis
fagersta
fagforening
fagna
fagnað
fagnaði
fagnaður
fagra
fagrar
fagrarbo
fagri
fagurbo
fagurt
fahrenheit
fair
fairs
faith
fakfelag
fakfeløg
fakliga
fakta
falck
falco
falconiformes
faldari
faldað
faldur
falk
falkenberg
falkenbergs
falklandsoyggjar
falko
falkur
fall
falla
fallandi
fallen
falli
fallin
falling
fallinum
fallið
falls
falløks
falnir
false
falt
famagusta
fame
fami
familja
familjan
familju
familjufyritøkuni
familjum
familjuna
familjuni
familjur
family
famous
fan
fanga
fangalegan
fangaleguna
fangar
fangarnir
fangað
fangaðu
fangaður
fangi
fangilsi
fangin
fangum
fann
fannir
fanst
fantasia
fantasy
fao
far
fara
faraday
farar
farast
farbro
farc
farewell
fargo
fari
farin
farið
farleið
farligt
farloyvi
farm
farmasigling
farmaskip
farmaskipum
farmi
farming
farnar
farnir
farnu
faroe
faroeartstamps
faroeislands
faroejet
faroenature
faroes
faroese
faroesoccer
faroestamps
farsa
farso
fart
fartelefon
fartelefonin
fartelefonir
fartelefonum
farum
farvæl
fashanu
fashion
faso
fast
fasta
fastan
fastar
fastari
fastbu
fasti
fastir
fastlandinum
fastur
fat
fata
fatah
fatal
fatan
fatar
fatað
father
fatur
faulkner
faust
fausto
faustulos
favn
favnar
favorite
favoured
fay
faðir
faðirin
faðirs
fb
fbf
fbi
fc
fck
fcsuduroy
fe
fear
feat
feature
features
featuring
feb
februar
february
federal
federation
federer
federico
fedra
feel
feeling
feet
fegin
fegnast
fegnir
feil
feit
feitari
feitt
feitti
feitur
fekk
fekst
felag
felagi
felagið
felagnum
felags
felagsheiti
felagshu
felagsins
felagskapinum
felagskapir
felagskapur
felagskapurin
felagsliðið
felagsma
felagsskap
felagsskapi
felagsskapin
felagsskapinum
felagsskapir
felagsskapum
felagsskapur
felagsskapurin
feld
feldur
felipe
felix
fell
fella
felli
fellow
fellowship
fellur
feløg
feløgini
feløgum
feløgunum
female
femme
fenað
fenaðin
fenaður
fenerbahc
fer
ferdinand
ferenc
ferguson
ferjan
ferjulegan
ferjur
ferjusamband
ferkilometrar
ferkilometur
fermetrar
fermi
fernanda
fernando
fert
ferð
ferðafo
ferðafra
ferðaleiðarar
ferðaleiðari
ferðama
ferðamannaby
ferðamannama
ferðamannaskip
ferðamannaskipum
ferðandi
ferðara
ferðasamband
ferðast
ferðavinna
ferðavinnan
ferðavinnu
ferðavinnuma
ferðavinnuna
ferðavinnuni
ferðaðist
ferðaðust
ferðin
ferðina
ferðing
ferðini
ferðir
ferðirnar
ferðsla
ferðslan
ferðslu
ferðsluni
ferðsluvanlukku
ferðum
feskt
feskum
fest
festa
festi
festir
festirstein
festival
festivalar
festivalin
festivalinum
festivalum
festivalur
festivalurin
festið
fet
fetlar
fever
fevna
fevndar
fevndi
fevnir
feyk
feynman
feðgar
ff
ffle
fh
fi
fianna
fibrosis
ficedula
fiction
fide
fidel
field
fields
fif
fifa
fifth
fight
fighter
fighters
figures
figurur
fiji
file
files
filhos
filip
filipinskt
filipinskur
filippi
filippinunum
filipsoyggjar
filipsoyggjum
filipsoyggjunum
filipstad
filipstads
film
filma
filmar
filmarnar
filmarnir
filmatiserað
filmen
filmfestival
filmfestivalinum
filmi
filmin
filminum
filmleikstjo
filmografi
filmogtv
films
filmsbrot
filmsbrotið
filmsfelagið
filmsfo
filmsframleiðari
filmshu
filmsi
filmsleikari
filmsleiklutir
filmsleikstjo
filmslist
filmsrøðini
filmssku
filmsto
filmsvirðisløn
filmsvirðislønina
filmum
filmunum
filmur
filmurin
filmvirðisløn
filosofi
filosofur
fimleikahøllin
fimleiki
fimm
fimmti
fimmtia
fimt
fimta
fimtan
fimtapla
fimti
fimtingur
fimtingurin
fimtstørsti
fimtu
fina
final
finala
finalan
finaler
finalistur
finalu
finalum
finaluna
finaluni
finalupla
finalur
finalurnar
find
finding
fine
fingin
fingist
fingið
fingnar
fingu
fingust
fink
finland
finlandi
finn
finna
finnan
finnar
finnast
finnbogado
finnbogi
finnist
finnland
finnlandi
finnlands
finnmark
finnmarkini
finno
finnur
finsen
finsens
finsk
finska
finskir
finskt
finskum
finskur
finspa
finsson
finst
fiona
fire
firefox
firense
firenze
firouz
first
firvald
firvaldur
firði
firðinum
firðir
firðirnar
firðirnir
firðum
fischer
fish
fisher
fisheries
fisherman
fisk
fiska
fiskaaling
fiskar
fiskasløg
fiskasløgum
fiskau
fiskavirki
fiskavørur
fiskað
fiskaði
fiskaðu
fiskepigernes
fiski
fiskieiði
fiskieiðinum
fiskifør
fiskii
fiskima
fiskimannafelag
fiskimarkið
fiskimaður
fiskimenn
fiskin
fiskinum
fiskiskap
fiskiskapi
fiskiskapur
fiskiskapurin
fiskiskip
fiskivinna
fiskivinnan
fiskivinnu
fiskivinnuma
fiskivinnuna
fiskivinnuni
fiskivinnusku
fiskivinnutjo
fiskivinnuøkinum
fiskur
fiskurin
fist
fit
fita
fitness
fitt
fitzgerald
five
fja
fjakka
fjala
fjald
fjaldi
fjaldir
fjaldu
fjaldur
fjalir
fjall
fjalla
fjallakappingin
fjallakappingini
fjallaklintrari
fjallaland
fjallalendi
fjallalendinum
fjallali
fjallari
fjallaryggir
fjallaryggur
fjallarøð
fjallarøðini
fjallasi
fjallasu
fjallatind
fjallatindar
fjallavatn
fjalli
fjallinum
fjallið
fjallstein
fjals
fjalt
fjaraði
fjareystri
fjarlestur
fjarskotin
fjarskotnu
fjarskotnum
fjart
fjarðastevna
fjarðastevnu
fjaðrar
fjaðrarnar
fjepparar
fjepparum
fjm
fjo
fjodor
fjord
fjordane
fjords
fju
fjølbroytt
fjølbroytta
fjølbroyttar
fjølbroyttari
fjølbroyttum
fjølbroyttur
fjølbygdasta
fjølbygdastu
fjøld
fjøldin
fjølgast
fjøll
fjøllini
fjøllum
fjøllunum
fjølmentasta
fjølmentastu
fjølmiðlar
fjølmiðlarnar
fjølmiðlarnir
fjølmiðlum
fjølmiðlunum
fjølta
fjør
fjøru
fjøruku
fjøruni
fjøruti
fjørð
fjørðin
fjørðinum
fjørður
fjørðurin
fjøður
fk
fl
fla
flag
flagg
flagga
flaggdagur
flaggi
flagginum
flaggið
flakavirki
flakavirkið
flakkfo
flakum
flamengo
flamma
flammea
flandern
flanders
flash
flata
flatt
flb
fle
fleir
fleirfaldir
fleiri
fleiristaðni
fleirtal
fleirtali
fleirtjo
flekk
flekkefjord
flekkut
fleming
flemming
flensborg
flensburg
flenti
flere
flesjarnar
flest
flestar
flestir
flestu
flestum
flestøll
fletcher
flett
fletting
flettur
fleyg
fleyga
fleyr
fleyt
fli
flickr
flight
flintstones
fljo
flo
floe
flog
flogbo
flogfar
flogfari
flogfarinum
flogfarið
flogfelag
flogfelagið
flogferðslu
flogfør
flogførini
flogførum
floghavn
floghavnin
floghavnina
floghavnini
floghetja
flogi
flogið
flogmu
flogmy
flognum
flogskipari
flogskiparin
flogva
flogvanlukku
flogvøll
flogvøllin
flogvøllinum
flogvøllir
flogvøllur
flogvøllurin
flokk
flokkar
flokkarnar
flokkarnir
flokkast
flokkað
flokki
flokkin
flokking
flokkinum
flokkum
flokkunum
flokkur
flokkurin
floks
floksformaður
floksformaðurin
floksins
floksleiðari
floksmenn
floksmenninar
floksmenninir
floksmonnum
floksmonnunum
floor
flora
florence
florida
flot
flota
flotan
flotanum
floti
flotin
flotoyggj
flower
flowers
floyd
floygd
floygdi
floygdir
floyta
floytir
floytu
flu
flugu
flugur
flutning
flutningi
flutningur
flutt
fluttar
flutti
fluttir
fluttu
fluttur
fly
flying
flynn
flyta
flytast
flytifo
flytifuglur
flyting
flytir
flyttar
flytur
flættaðum
fløga
fløgan
fløgg
fløggum
fløggunum
fløgu
fløgum
fløguna
fløguni
fløgur
fløgurnar
fløguu
fløtan
fløtti
fløtum
fløtuni
fløtunum
fløtur
fløturnar
fm
fma
fmn
fmp
fn
fo
fobi
focus
fodbold
fogh
fokus
fold
foldarskarð
foldum
folk
folkakirkjan
folkeparti
folkesagn
folkeviser
folkma
following
fonda
fong
fongi
fongin
fongslaður
fongsli
fongslinum
fongsul
fongsulsrevsing
fonseca
fontaine
fontsize
foo
food
foot
football
footballer
footnote
footnotes
for
forberg
forbes
forbjo
forboð
forboðin
forboðið
forbund
force
forces
ford
fordo
foreign
foreldraleys
foreldranna
foreldrini
foreldrum
foreldrunum
foreldur
forelskaður
forest
forever
forfedrar
forfylgdi
forfylging
forget
forkla
forks
forkvinna
forlag
forlaget
forlagi
forlagið
forlagnum
forløg
form
forma
formann
formanni
formannin
formanssessin
formar
format
formaður
formaðurin
formel
formelt
formenn
former
formi
formliga
formula
formur
formurin
forn
forna
fornaldar
fornar
fornari
fornfrøði
fornfrøðiligar
fornfrøðingar
forngrikskum
forni
fornminnasavn
fornminni
fornminnissavn
fornminnissavni
fornnorrønt
fornnorrønum
fornu
fornum
fornur
fornøld
fornøldin
fornøldini
fororð
foroya
foroyar
foroyskur
forrit
forritið
forrætningskvinna
forsangari
forsangarin
forschungen
forseta
forsetafru
forsetan
forsetanum
forsetar
forsetarnar
forsetaval
forsetavalevni
forsetavalinum
forsetavalið
forseti
forsetin
forsetisma
forsetisra
forsi
forskning
forsku
forstaðir
forstjo
forsty
forstøðum
forsvarandi
forsvik
forsviks
forsætisma
forsætisra
forsøgulig
fort
fortaldi
fortalt
fortelja
fortelur
forti
fortreytir
fortune
fortuyn
fortællinger
forum
forvitni
forða
forðar
forðarenning
forðað
forðaði
forðing
forðingar
forðum
foss
fossa
fossar
fossarnir
fossbankanum
fossinum
fossur
fossurin
foster
fostrið
fosturs
fosturtøku
fotatradk
fotbo
fotboltsleikari
foto
fotografur
foula
foundation
fountain
four
fourth
fox
foxnews
fr
fra
frac
fractura
frakland
fraklandi
fraklands
fraklendingar
fram
frama
framat
framburð
framburði
framburðsflokkinum
framburðsflokkurin
framd
framdar
framdi
framdu
framdur
frame
frameftir
framfari
framferðarha
framføra
framførdi
framførdu
framførdur
framførir
framførsla
framførslan
framførslu
framførslum
framførsluna
framførslur
framførslurnar
framført
framgongd
framhald
framhaldandi
framhaldsdeildina
framhaldsfilmur
framhaldssku
frami
framkomin
framkomnar
framleidd
framleidda
framleiddar
framleiddi
framleiddir
framleiddu
framleiddur
framleitt
framleiða
framleiðarar
framleiðari
framleiðast
framleiðir
framleiðsla
framleiðslan
framleiðslu
framleiðsluha
framleiðsluna
framleiðsluni
framleiðsluto
framm
framman
frammanfyri
frammanundan
frammi
framso
framsokn
framstig
framsy
framsøkin
framt
framti
framu
framum
framvegis
framvið
framyvir
franc
franca
france
frances
francesco
francis
francisco
franco
frank
frankar
frankari
frankenstein
frankfort
frankfurt
frankie
frankiska
franklin
frans
fransk
franska
franskar
franskari
franski
franskir
franskt
franskur
fransmenn
frants
frantz
franz
fraser
fraserburgh
fratercula
fre
fred
freddie
freddy
fredericia
frederick
frederik
frederiksberg
frederiksborg
frederiksen
frederikshavn
fredrik
free
freedom
freelance
freeman
freestyle
fregðegævar
frei
freiburg
freja
frelsa
frelsari
frem
fremad
fremja
fremmand
fremmanda
fremmandar
fremmandir
fremmandu
fremmandum
fremra
fremri
fremst
fremsta
fremsti
fremstu
fremstur
fremur
french
freud
fri
frid
frida
friday
fridinator
fridtjof
friedman
friedrich
friend
friendly
friends
friesland
frigg
friis
frisch
frisvømning
frits
fritz
frið
friða
friðaravtala
friðaravtalu
friðarbogin
friðarheiðursløn
friðarheiðurslønina
friðarlig
friðarliga
friðarligari
friðarligt
friðarsa
friðarsamra
friðarti
friðað
friðaður
friði
friðin
friðingarøki
friðingarøkjum
friðinum
friðskjo
friður
friðurin
fro
froland
from
fronsk
fronsku
fronskum
front
frontier
froskar
froskmannafelag
frost
frosthvarv
frostmarkið
frostmy
frostro
froðba
froðbiar
frp
fru
frukt
fruktabesta
fruktago
fruktagott
fruktar
fruktin
fruktir
frum
frumevni
frumframførdur
frumframført
frumma
frummongd
frumsko
frumsy
frunt
fry
frystipunktið
frystir
frystum
fræ
fræls
frælsa
frælsan
frælsar
frælsi
frælsir
frælsiskri
frælsisstri
frælsisyvirly
frælsið
frælst
frælsum
frælsur
frændum
frændur
frænir
frætt
frætta
frætti
frættist
frøi
frøði
frøðiheiti
frøðingar
fs
fsf
ft
fu
fugl
fugla
fuglabjørg
fuglabjørgini
fuglabo
fuglafirði
fuglafjarðar
fuglafjordur
fuglafjørð
fuglafjørður
fuglaframi
fuglakvæðið
fuglali
fuglar
fuglarnir
fuglasløg
fuglfirðingar
fugli
fuglin
fugloy
fugloyar
fugloyggin
fugloyingar
fugloynni
fuglsang
fuglum
fuglur
fuglurin
fuglø
fulaniar
fulanifo
fulham
full
fulla
fullan
fullar
fullari
fullfi
fullgo
fullkomiliga
fullkomin
fullkomna
fullma
fullt
fullti
fulltru
fullu
fullum
fullur
fullvaksin
fullveldi
fullveldisri
fullveldið
fulnar
fult
fund
fundar
fundarluttakarar
fundi
fundin
funding
fundinum
fundir
fundland
fundlandi
fundum
fundur
fundurin
funeral
funk
funksjo
funktio
funky
funnar
funnin
funning
funningi
funnings
funningsfirði
funningsfjørður
funningur
funnir
funnist
funnið
funnu
funnust
funny
fur
fura
furaca
further
fury
fut
futbolo
futebol
futtrup
futuna
future
fven
fwww
fy
fyen
fyi
fylgdi
fylgdu
fylgi
fylgir
fylgisvein
fylgisveinamynd
fylgisveinar
fylgið
fylgja
fylgjandi
fylgjast
fylgjum
fylgt
fylki
fylkinum
fylkir
fylkið
fylla
fyllir
fyllu
fylt
fyltar
fylti
fyn
fyns
fyr
fyri
fyribils
fyribrigdi
fyribyrging
fyribyrgja
fyribyrgjandi
fyribyrgjast
fyrifallandi
fyrigeving
fyrilestrar
fyrilestur
fyrilit
fyrimun
fyrimunir
fyrimunur
fyrimynd
fyrimyndin
fyrimyndina
fyrimyndir
fyrimyndum
fyrir
fyrireika
fyrireikað
fyrireiking
fyrisiting
fyrisitingarlig
fyrisitingarliga
fyrisitingarligar
fyrisitingarligt
fyrisitingarligu
fyrisitingarligum
fyrisitingarligur
fyrisitingarlo
fyrisitingin
fyrisitingina
fyrisitingini
fyriskipa
fyriskipan
fyriskipanir
fyriskipar
fyriskipari
fyriskipað
fyriskipaði
fyristøðumaður
fyritøka
fyritøkan
fyritøku
fyritøkum
fyritøkuna
fyritøkuni
fyritøkunum
fyritøkur
fyrivarni
fyrr
fyrra
fyrrenn
fyrri
fyrru
fyrrv
fyrrverandi
fyrst
fyrsta
fyrstan
fyrstani
fyrsti
fyrstir
fyrstu
fyrstuni
fyrstur
fysiologi
fysta
fystu
fæ
fæið
fækkaðust
fær
færeyinga
færingetidende
færoa
færoense
færoæ
færri
fært
færø
færøe
færøerne
færøernes
færøsk
færøske
færøysk
fæst
fø
fødd
føddar
føddi
føddir
føddur
føgruli
føldi
føll
føllum
følv
før
føra
førandi
føraratroyggjuni
førarin
førast
førd
førdi
førdir
førdu
førdur
føri
føringati
førinum
førir
førleika
førleikar
føroya
føroyabanka
føroyahu
føroyalandi
føroyama
føroyameistaraheiti
føroyameistaraheitið
føroyameistarar
føroyameistarastevnan
føroyameistarastevnuni
føroyameistari
føroyar
føroyinga
føroyingafelag
føroyingar
føroyingarnir
føroyingasøga
føroyingasøgu
føroyingi
føroyingum
føroyingur
føroyingurin
føroysk
føroyska
føroyskan
føroyskar
føroyskari
føroyski
føroyskir
føroyskra
føroyskt
føroysku
føroyskum
føroyskur
føroyum
føroyumhttp
først
første
ført
førum
førur
føst
føstu
føstufressar
føstum
føti
føtt
føtur
føturnar
føturnir
føða
føði
føðiby
føðiland
føðin
føðina
føðing
føðingadag
føðingar
føðingardag
føðingardagur
føðingardegi
føðingardegnum
føðingina
føðir
føðslu
føðsluevni
g
ga
gaal
gaard
gaardbo
gabel
gable
gabon
gabriel
gabriela
gabø
gad
gaddafi
gade
gael
gaeltacht
gaffa
gaga
gagarin
gagn
gagna
gagnny
gagns
gai
gaither
gakk
gala
galapagos
galapagosoyggjar
galatasaray
galaxy
galba
galda
galdandi
galdur
galerie
galilei
galileo
galið
gall
gallari
galleri
gallery
galliformes
gallinago
gallon
gallup
galt
galway
gamal
gamalt
gamalur
gaman
gamansleikur
gambia
game
games
gaming
gamla
gamlan
gamlar
gamlari
gamle
gamli
gamlir
gamma
gammel
gammeltoft
gan
gana
ganbare
gand
ganda
gandhi
gandi
gang
ganga
gangandi
gangast
gange
ganges
gangi
gangur
ganz
gap
gaportalurin
gar
garbrot
garci
garcia
gardar
garde
garden
gardshodn
gareth
gari
garibaldi
garland
garma
garner
garrulus
garry
garuppskot
garuppskotinum
garuppskotið
garvinnan
garvinnu
gary
garð
garðar
garðarnar
garðarnir
garði
garðin
garðinum
garður
garðurin
gas
gasa
gasolin
gass
gassi
gast
gat
gate
gates
gatlinburg
gatunnilin
gaudi
gauguin
gaulle
gauss
gauteng
gav
gaverk
gavia
gavin
gavrilo
gavst
gay
gaza
gað
gb
gbagbo
gbingar
gbob
gc
gd
gdan
gdansk
gdi
gdis
gdjo
gdur
gdy
ge
gear
gedichte
gee
geil
geir
geiri
geislavirkni
geit
geitir
geitum
gekk
gekst
gen
gender
gene
general
generalur
generation
gengis
genova
gent
genta
gentan
gente
gentiloni
gentlemen
gentofte
gentu
gentubo
gentuko
gentum
gentuna
gentuni
gentunum
gentur
genturnar
gentuto
geoffrey
geograph
geography
georg
george
georges
georgia
georgios
georgiska
georgiskt
georgius
geos
ger
gera
gerais
gerald
gerandisdag
gerandisdagar
gerandisdagin
gerandisdegi
gerandisdegnum
gerandisli
gerard
gerast
gerd
gerda
gerdu
gergo
gerhard
geri
germain
german
germanic
germansk
germanskt
germansku
germanskum
germany
gerningsmaðurin
gerningsmenninir
geronimo
gerrard
gers
gerst
gert
gertrud
gerð
gerða
gerðabo
gerði
gerðir
gerðum
geschichte
gestasangari
gestir
gestum
gestunum
gestur
get
gev
geva
gevandi
gevast
gevið
gevst
gevur
geyma
geysir
geyta
geytan
geyti
geytin
gfestival
gg
gga
ggevandi
ggi
ggin
gginda
ggindar
ggindi
ggindum
ggindunum
gging
ggingargrunnurin
ggini
gginum
ggir
ggið
ggj
ggja
ggjadag
ggjadagin
ggjadagur
ggjadegi
ggjan
ggjar
ggjara
ggjari
ggjarkreppan
ggjarkreppuni
ggjarlig
ggjarliga
ggjarligan
ggjarligar
ggjarligt
ggjarligu
ggjarligum
ggjarlo
ggjarma
ggjarnevndin
ggjarnevndini
ggjaru
ggjas
ggjast
ggjasta
ggjastu
ggjað
ggjaðar
ggjaði
ggjaður
ggji
ggju
ggjua
ggjum
ggjunda
ggjundi
ggjuni
ggjunum
ggjur
ggjustovu
ggjutals
ggjutu
ggur
ghana
ghil
ghm
ghost
ghostbusters
ghosts
ghvi
gi
giacomo
gianfranco
gianni
giannis
giant
gibraltar
gibson
gif
gift
gifta
giftast
gifti
giftir
giftist
giftu
giftur
giftust
gil
gilbert
gilda
gildi
gildið
gilla
gilli
gin
gina
ging
ginger
gingin
gingið
gingrich
gingu
gini
ginn
gino
ginum
giordano
giorgio
giorgos
giovanna
giovanni
gir
giraffurin
girl
girls
girnar
girnir
giro
girðing
giscard
gista
gistingarhu
gitin
gitingar
gitið
gitna
gitnasta
gitnastu
gitnir
gittar
gittara
gittarar
gittari
gittarleikari
gittarspælari
gitte
giulio
giuseppe
give
given
givin
givið
givnar
givnir
giza
gja
gjald
gjalda
gjaldoyra
gjaldoyrað
gjaldsjavnanum
gjarna
gje
gjo
gjøgnum
gjøgnumbrot
gjøgnumbrotið
gjøgnumføra
gjøgnumførdi
gjør
gjørd
gjørdar
gjørdi
gjørdir
gjørdist
gjørdu
gjørdur
gjørdust
gjørligt
gjørt
gl
gla
glad
gladsaxe
gladys
glas
glasbu
glasgow
glasi
glass
glataðu
glað
glaðir
glaður
glemmebogen
glen
glendi
glendinum
glendið
glenn
glerfoss
gleða
gleði
gleðilig
gleðin
gleðir
gleðist
gli
glig
gliga
gligan
gligt
gligur
glitnir
glitraheiði
glitrandi
glo
global
globalis
globe
globo
gloria
glory
glostrup
glotti
gloucestershire
gloyma
gloymt
gloysi
glu
gluggin
glukosu
glyvra
glyvralon
glyvrar
glyvrum
glyvur
glæde
glæsner
gm
gnagdy
gnarr
gni
gnosjo
gnu
gnum
go
goa
goal
god
gode
godfather
godt
godtfred
goes
goethe
gogh
gogo
goia
going
gold
golden
goldin
goldið
golf
golfstreymurin
gomel
gomez
gomlu
gomlum
gomul
gone
gongd
gongdin
gongdina
gongdini
gongini
gongst
gongu
gongugøtan
gongugøtuni
gongulag
gongumenn
gongur
gonguro
gongustjørna
gongustjørnan
gongustjørnuna
gongustjørnuni
gongutu
gonna
gonza
good
goodbye
google
gorbatjov
gordon
gore
gorfuglur
gorie
gorillur
gorkij
gorman
gorsi
gos
goscinny
gosfjall
gosfjallið
gosfjøll
gosfjøllini
gosfjøllum
gospel
gossip
gosławski
got
gotfjøður
gotha
gothic
gotiska
gotiskt
gotið
gotland
gotlandi
gotlands
gott
gottfried
gough
gov
government
governor
goy
goya
goym
goyma
goymast
goymd
goymdar
goymdi
goymslan
goymslu
goymslur
goymsluru
goymt
goynni
goysa
goysir
goysti
gp
gps
gr
gra
grace
graceland
grad
graffiti
grafikari
grafisk
graham
gram
gramm
grammy
gran
grana
grand
grande
grandma
grani
grann
granna
grannaby
grannabygdunum
grannalagnum
grannalandinum
grannalandið
grannalond
grannalondini
grannalondum
grannalondunum
grannar
grannatjo
granni
grannskoðari
granska
granskar
granskarar
granskari
granskarir
granskað
gransking
grant
gras
grasfløtum
grasfløtunum
grasfløtur
grasfløturnar
grasgo
grasi
grasinum
grasið
grasker
graslendi
grasli
grass
grav
grava
grave
gravity
gray
graz
gre
great
greatest
greece
greek
green
greene
greenland
greenpeace
greensboro
greenville
greenwich
greenwood
greg
gregersen
gregor
gregorianska
gregorio
gregorius
gregoriussen
gregory
greiddi
greiddu
grein
greina
greinar
greinarnar
greinarøð
greinasavn
greiniliga
greinin
greinina
greining
greinini
greinir
greinirnar
greinum
greinunum
greipuvinnari
greitt
greivadømi
greivadøminum
greivi
greið
greiða
greiðar
greiðing
greiðingar
greiðingarnar
greiðingin
greiðingina
greiðingini
greiðingum
greiðir
greiður
gren
grenada
grenadinoyggjar
grene
grenoble
greta
grete
grethe
greve
grevlingur
grevur
grey
gri
gridcolor
grieg
griffin
griffith
grikkaland
grikkalandi
grikkalands
grikkar
grikkum
griksk
grikska
grikskar
grikski
grikskir
grikskt
griksku
grikskum
grikskur
grikst
griksttalandi
grimm
grimstad
grind
grindaba
grindaboð
grindadra
grindahvalur
grindavi
grindin
grindina
grindir
grindstop
grivin
grivið
grivnar
grivnir
grið
gro
groban
grodzka
groningen
grootfontein
grosso
ground
group
grover
grovt
gru
gruffydd
grugg
gruggið
gruiformes
grums
grun
grunaði
grund
grunda
grundar
grundarlag
grundarlagi
grundarlagið
grundarsteinin
grundað
grundaði
grundaðu
grundaður
grundbo
grundgeving
grundgevingin
grundin
grundini
grundlagdur
grundleggja
grundleggjandi
grundlegði
grundlo
grundløgdu
grundtvig
grundum
grundvøllurin
grunn
grunni
grunninum
grunnlo
grunnum
grunnur
grunnurin
grunt
gry
grynri
gryvjuna
gryvjur
grækaris
grækarismessa
grækarismessu
grækarismessuhald
grækarisson
grælingur
græt
grøkt
grøn
grøna
grønar
grønari
grønho
grøni
grønir
grønland
grønlandi
grønlands
grønlendingar
grønlendsk
grønlendska
grønlendskir
grønlendskt
grønlendsku
grønlendskum
grønlendskur
grønmeti
grønt
grønu
grønum
grønur
grør
grøv
grøvin
grøvina
grøða
grøðandi
grøði
grøðin
grøðina
gs
gsa
gsavbjo
gsbotni
gsbygd
gseiði
gsfangar
gsfirði
gsfjørð
gsfjørður
gsførslu
gsluna
gsmaður
gsmenn
gssteinurin
gsti
gsvatn
gsveg
gsvegi
gt
gtry
gty
gu
guadeloupe
guam
guanda
guangdong
guangzhou
guanta
guantanamo
guard
guardian
guatemala
gud
gudalæra
gudalæru
gudalæruni
gudar
gudarnar
gudarnir
guddo
gudfrøði
gudfrøðingur
gudi
gudinna
gudloysi
gudloysingar
gudmund
gudmundsen
gudrun
guds
gudstænastu
gudum
gudunum
gudur
gudurin
guernsey
guerra
guevara
guez
guide
guild
guillotinu
guinea
guinness
guit
guitar
guitari
guitaristur
guitarleikarar
guitarleikari
guittar
gujana
gul
gula
gularo
gulbru
guld
gulir
gull
gullfepurin
gullfoss
gullgravarar
gullgravari
gullheiðursmerki
gulli
gullið
gullka
gulllaksur
gullna
gullspa
gult
gulu
gulum
gulur
gum
gummi
gun
gunda
gundadali
gunilla
gunnar
gunnari
gunnars
gunnarsdo
gunnarsson
gunnarstein
gunnhild
gunnleygsdo
gunnva
gunnvør
guns
gunum
gunvør
gur
gurin
guru
gus
gusgus
gustaf
gustav
gustave
gustavsson
gut
gutenberg
guttesen
guttorm
guttorms
guttormsson
guttormur
guvar
guvernørinum
guvernørur
guvernørurin
guy
guð
guði
guðmundsdo
guðmundsson
guðmundur
guðrið
guðru
guðrun
guðruna
guðs
guðsfrøðingar
gv
gva
gvakri
gvaksin
gvan
gvandi
gvani
gvans
gvansdo
gvansson
gvanum
gvar
gvara
gvarar
gvararnir
gvaratalið
gvari
gvarin
gvarnar
gvarnir
gvarum
gvarunum
gvast
gvastaðni
gvatali
gvatalið
gvaviðurskifti
gvað
gvaði
gvaður
gvhøna
gvi
gvin
gving
gvingar
gvingarnar
gvingarstovnar
gvingin
gvingina
gvingini
gvingum
gvini
gvir
gvið
gvoy
gvu
gvuliga
gvum
gvuna
gvuni
gvunum
gvur
gvurin
gvurnar
gvuslig
gvusliga
gvøllinum
gweedore
gwen
gwendalyn
gwynedd
gwyneth
gy
gyldendal
gyldne
gyldugar
gylfi
gyllin
gylt
gylta
gylti
gyltur
gymnasium
gynt
gæliskt
gæliskum
gæs
gætur
gða
gørðum
gørðunum
gøta
gøtan
gøteborg
gøtu
gøtueiði
gøtufo
gøtugjo
gøtum
gøtuna
gøtuni
gøtunum
gøtur
gøturnar
gøtuskegg
h
ha
haag
haakon
haarde
haarlem
habo
had
hadsund
hafnarfirði
hafnia
haft
haga
hagamarkið
hagan
hagani
haganum
hagar
hagarnir
hagen
hagfors
haggard
hagi
hagin
hagstova
hagstovu
hagstovuni
hagtalsgrunnur
hagtøl
hagtølini
hagtølum
hagtølunum
haider
hail
haile
haiti
hal
hala
halanum
hald
halda
haldandi
haldansen
haldarsvi
haldast
haldi
haldið
haldo
haldurs
hale
half
halga
halgidagar
halgidagur
halgido
halgimenni
halgimenninum
halgimennið
halgir
halin
hall
halla
hallands
halldo
halle
hallen
hallgri
halli
halliwell
halloween
hallur
halmstad
halmstads
hals
halvarðsøku
halvorsen
ham
hamas
hamburg
hamburger
hamferð
hamid
hamilcar
hamilton
hamlet
hammer
hammershaimb
hammond
hamn
hampiliga
hampshire
hamrabyrgi
hamradun
hamrar
hamsun
han
hana
hanagleiv
hancock
hand
handa
handan
handanin
handanina
handar
handað
handaðar
handaði
handball
handbo
handfara
handil
handilin
handils
handilsby
handilsforðingar
handilshu
handilsli
handilsma
handilsmaður
handilsmenn
handilsmiðdepil
handilssa
handilssamband
handilsskapi
handilssku
handilsstaður
handilsvirksemi
handilsviðurskifti
handilsviðurskiftini
handla
handlar
handlað
handler
handli
handlinum
handlum
handlunum
handrit
handritið
hands
handtaka
handtikin
handtiknir
handto
handverk
handverkarar
hanga
hangandi
hangul
hanja
hank
hanks
hann
hanna
hannah
hanne
hannes
hannesar
hannesi
hanni
hannibal
hannis
hannover
hannus
hanoi
hans
hansara
hansdo
hansen
hansina
hanson
hanssen
hansson
hanstholm
hanus
hanusardo
hanusarson
hanusi
haparanda
haphe
happ
happening
happy
har
hara
haraftrat
harafturat
harafturi
harald
haraldi
haralds
haraldsson
haraldssund
haraldssundi
haraldur
haram
haran
harare
harav
harbor
harbors
harbour
hard
harding
hardy
hare
hareftir
harelbeke
hargarbrøðurnir
hari
haris
harkaliðið
harlem
harmoniku
harmur
harnæst
harold
harper
harpercollins
harra
harradømi
harrans
harranum
harrar
harri
harriet
harrin
harris
harrisburg
harrison
harry
harstad
hart
hartford
hartil
haru
harum
harumframt
harur
harvard
harvest
harvey
harvið
harzen
harða
harðan
harðar
harðari
harðast
harðbalna
harðført
harðir
harðliga
harðligt
harðræði
harðskap
harðskapi
harðskapinum
harðskapur
harður
has
hasenhu
haslev
hassan
hasselblatt
hasselt
hat
hata
hatt
hatta
hattarvi
hatturin
hatur
hatursbrotsverk
hauge
haugen
haunted
hausa
hav
hava
havanna
havbotninum
havbotnurin
havbu
havd
havde
have
havel
haven
havet
havfru
havgri
havhest
havhestur
havi
havinum
havið
havli
havn
havnaby
havnafo
havnar
havnara
havnarba
havnarby
havnarlag
havnarlagið
havnin
havnina
havnini
havnir
havnum
havri
havro
havs
havsbru
havsins
havsvimjing
havt
havtaska
havumhvørvinum
hawai
hawaii
hawaiianskt
hawaiioyggjar
hawaiioyggjum
hawking
haydn
hayes
hayworth
haðan
haðani
hb
hc
hd
he
head
headache
headed
health
heard
heart
hearts
heat
heath
heaven
heavy
hebdo
hebra
hebraiska
hebraiskt
hebraiskum
hebrearabrævið
hebrew
hebridunum
hebridurnar
hebron
hedemora
hedvig
hefner
heft
hefta
heftir
heftum
heftur
hegel
heidegger
heidelberg
heidi
height
heil
heila
heilag
heilaga
heilagi
heilagt
heilagu
heilagur
heilan
heilanum
heilar
heild
heili
heilin
heiliva
heilsa
heilsan
heilsu
heilsubo
heilsufrøðiliga
heilsuly
heilsuma
heilsuna
heilsurøkt
heilsuskipanin
heilsustovnurin
heilsuverkið
heilt
heiltal
heilum
heim
heima
heimabeiti
heimady
heimadystir
heimadystirnir
heimaftur
heimafturkomin
heimahoyrandi
heimamissio
heimamu
heiman
heimani
heimara
heimasi
heimasty
heimavøll
heimavølli
heimavøllur
heimavøllurin
heimby
heimbygd
heimbygdini
heimi
heimild
heimildarfilmur
heimildir
heimin
heimins
heiminum
heimið
heimland
heimlandi
heimlandinum
heimlandið
heimleys
heims
heimsa
heimsarvar
heimsarvin
heimsarvur
heimsbardaga
heimsbardagi
heimshøv
heimsin
heimsins
heimskend
heimskenda
heimskendi
heimskendir
heimskendu
heimskendur
heimskort
heimskreppan
heimskri
heimskringla
heimsljo
heimsmarknaðinum
heimsmeistara
heimsmeistaraheitið
heimsmeistarakapping
heimsmeistarakappingar
heimsmeistarakappingin
heimsmeistarakappingini
heimsmeistaraskapin
heimsmeistaraskapið
heimsmeistari
heimsmet
heimsmetið
heimspartar
heimsparti
heimspartinum
heimspartur
heimsparturin
heimspeki
heimspekingar
heimspekingur
heimspekingurin
heimspolitikkur
heimspørtum
heimssøguni
heimstað
heimstaði
heimstaður
heimsumfatandi
heimsveldinum
heimsyvirly
heimur
heimurin
heina
heinason
heindrikur
heine
heinesen
heingja
heini
heinrich
heintað
heintingar
heit
heita
heitan
heitar
heitari
heitasta
heiti
heitini
heitinum
heitir
heitið
heitt
heitti
heittu
heitu
heitum
heitur
heitvi
heiðabla
heiðalendi
heiðar
heiðarnar
heiði
heiðin
heiðra
heiðrar
heiðrað
heiðraði
heiðraður
heiðrik
heiðriki
heiðrikur
heiðrun
heiðunum
heiður
heiðurin
heiðurs
heiðursga
heiðurslimur
heiðursløn
heiðurslønin
heiðurslønina
heiðurslønini
heiðurslønir
heiðursmerki
heiðursmerkini
heiðursmerkir
heiðursmerkið
heiðursmerkjaby
heiðursmerkjavinnarar
heiðursmerkjayvirlit
heiðursmerkjum
heiðursrit
hekk
heks
heksir
hektarar
hektor
hektori
hekuba
hekubu
hel
held
heldur
hele
helen
helena
helenos
helenosi
helenu
helga
helge
helgi
helios
helium
heljar
hell
hella
hellbom
helle
helli
hello
hellu
hellum
helluna
helluni
hellunum
hellur
hellurnar
helming
helmingi
helmingin
helmingur
helmingurin
helmsdal
helmut
help
helsingborgs
helsingforssa
helsingør
helsinki
helst
helt
heltnarnar
helveg
helviti
helvt
helvtin
helvtina
hem
hemingway
heminum
hen
hena
henda
hendan
henderson
hendi
hending
hendinga
hendingar
hendingarnar
hendingarøð
hendingin
hendingina
hendingini
hendingum
hendingunum
hendir
hendrik
hendu
hendur
hendurnar
hennar
hennara
henni
henning
henri
henrietta
henrik
henriksen
henry
hensley
henson
hent
hentleikar
hentze
hepburn
hepni
heppin
her
hera
heraklevs
herald
herav
herbert
hercules
herdeild
herdeildir
herdeildirnar
herdeildum
herdeildunum
herdis
here
hereftir
hereroar
herferð
herferðir
herfo
herfyri
herfølge
herge
hergeir
heri
herin
herinum
heritage
herja
herjar
herjað
herjaði
herjaðu
herlið
herliði
herliðnum
herma
herman
hermann
hermannsson
hermansen
hermaður
hermegi
hermenn
hermenninir
hermennirnir
hermiona
hermionu
hermo
hermonnum
hermonnunum
herna
hernaðardo
hernaðarkvett
hernaðarlig
hernaðarliga
hernaðarligt
hernaðarligu
hernaðarligum
hernaðarsty
hernaðarstøð
herning
herningur
hero
heroes
heroin
herovasta
herovasti
herovastin
herr
herred
herrer
herrljunga
hersegovina
hersetingarvaldinum
hersetingarvaldið
hersetingin
hersett
hersettar
hersetti
hersettu
hersigovina
hertaka
hertekur
hertfordshire
hertikin
hertikið
herto
hertogi
hertænastu
heru
herundir
herup
herur
herurin
herverk
herviligt
herviligu
hervið
hervør
heryvirmaður
herzegovina
herzog
herðaklapp
herðaklappið
herðar
hesa
hesaferð
hesar
hesari
hesi
hesin
hesir
hesse
hessen
hest
hestar
hesti
hestin
heston
hestoy
hests
hestur
hesturin
hesu
hesuferð
hesum
het
hetja
hetjan
hetjur
hetland
hetlandi
hetlands
hetlendingar
hetta
hettar
hev
heva
hevja
hevna
hevnd
hevndi
hevnt
hevur
hevði
hey
heyerdahl
heyggi
heyggjar
heyggjarnir
heyggjum
heygnum
heygum
heykur
heysin
heyst
heysta
heysti
heystið
heðin
heðini
heðinsdo
hf
hi
hidalgo
hidden
hideki
hierarchy
higar
higartil
higgins
high
highest
highland
highlight
highway
hijab
hilary
hilbert
hilda
hildesheim
hildigunn
hildin
hildið
hildnar
hildnir
hildu
hildur
hill
hillary
hills
hilmar
hilton
him
himlen
himli
himmal
himmalin
himmals
himmel
himmerland
himmiri
himni
hin
hina
hinar
hinari
hindenburg
hindi
hindu
hinduar
hinduisma
hini
hinir
hins
hinskynd
hinum
hinumegin
hinvegin
hip
hippolais
hirohito
hiroshima
hirsa
hirtshals
hirundo
hirðar
hirðarnir
his
hispanics
hispaniola
histo
historia
historic
historical
historie
history
hit
hita
hitama
hitanum
hitastigar
hitchcock
hitchens
hiti
hitin
hitler
hits
hitt
hitta
hittast
hitti
hittist
hittið
hittlistanum
hittlistum
hittust
hiv
hiðani
hja
hjallin
hjalmar
hjaltalin
hjalti
hjarnar
hjarta
hjartanum
hjartasju
hjartað
hjelm
hjem
hjf
hjo
hju
hjørdis
hjørring
hjørtir
hjørtu
hjørtur
hk
hl
hls
hm
hms
hnj
ho
hoa
hob
hobart
hobro
hockey
hodges
hoffmann
hofgaard
hofors
hoggi
hogni
hogwarts
hohokamfo
hokkaido
hokusai
hol
holberg
holbrook
holbæk
hold
holding
hole
holgar
holger
holiday
holið
holland
hollande
hollandi
hollendska
hollendskt
hollendskum
holly
hollywood
holm
holmsland
holocaust
holst
holstebro
holstein
holt
holte
holu
holum
holuni
holur
holy
home
homecoming
homem
homer
homeros
homo
homosexuality
homrum
hon
hond
hondbo
hondina
hondini
hondum
hondunum
honduras
honey
hong
hongdur
hongkong
hongt
hongur
honin
honky
honnu
honolulu
honor
honorary
honors
honour
honshu
honum
hood
hoover
hop
hope
hopewell
hopewellfo
hoppar
hora
hordaland
horie
horizon
horizonte
horn
hornabo
hornaseyður
horne
horni
hornini
horninum
hornið
hornkonsert
hornnes
hornorkestur
hornto
hornum
horse
horsens
horst
horvin
horvið
horvna
horvnir
horvnu
hos
hosni
hospital
host
hosur
hot
hotel
hotell
hotellinum
hotellið
hotelstjo
hotspur
hound
hour
hours
house
houston
hov
hove
hovedland
hovedstadens
hovgaard
hovi
hovs
hovsegg
hovstunnilin
how
howard
however
hoy
hoydal
hoydalar
hoydølum
hoyggj
hoyr
hoyra
hoyrarar
hoyrast
hoyrdi
hoyrdist
hoyrdu
hoyrir
hoyrist
hoyrið
hoyrt
hoyvi
hp
hr
hroe
hs
hsf
htm
html
htmlhttp
htmlhttps
http
https
hu
huang
huckabee
huckleberry
huddersfield
hudson
hudsona
huffingtonpost
hug
huga
hugabo
hugafelag
hugaleikari
hugama
hugan
huganum
hugaverd
hugavert
hugaðir
hugaður
hugburð
hugburði
hugburðurin
hugdi
hugdu
hugflog
hugh
hughes
hugi
hugin
hugleiðingar
hugmyndir
hugnaligt
hugo
hugsa
hugsan
hugsandi
hugsanin
hugsanir
hugsanum
hugsar
hugsast
hugsað
hugsaði
hugsaðu
hugsjo
hugskot
hugskotið
hugt
hugtak
hugtakandi
hugtakinum
hugtakið
hugtikin
hugtøk
hugurin
hugvi
huld
hulda
huldufo
huldumaðurin
hull
hultsfreds
human
humanities
humber
humboldt
hume
humlu
hummarin
humor
hund
hundabrævinum
hundar
hundrað
hundraðtals
hundraðtu
hundur
hundurin
hungary
hungri
hungur
hungursneyð
hungursneyðin
hunt
hunter
hunting
hur
hurricane
hurt
hurð
hus
husby
huse
huset
hussein
hutuar
huxa
huysum
huðrar
hv
hva
hvad
hvagar
hval
hvalastøðin
hvalastøðina
hvalastøðini
hvalastøðir
hvalba
hvalbiar
hvalbiareiði
hvalbiartunnilin
hvalbingar
hvalir
hvalspy
hvalur
hvalurin
hvalva
hvalvi
hvannasund
hvannasundi
hvannasunds
hvannhaga
hvannhagi
hvannro
hvannrok
hvar
hvarv
hvassar
hvast
hvat
hvaðan
hveiti
hvem
hvessingur
hvi
hvidovre
hvirlan
hvo
hvonn
hvor
hvurvu
hvussu
hvønn
hvønnfall
hvør
hvørgin
hvørja
hvørjar
hvørjari
hvørji
hvørjir
hvørju
hvørjum
hvørjumegin
hvørki
hvørs
hvørsfall
hvørsfalsbendingina
hvørt
hvørva
hvørvur
hvøssum
hy
hydra
hydrogen
hygg
hyggja
hyggjararnir
hyggjarunum
hyggju
hyggur
hygrocybe
hyli
hylin
hylki
hylte
hylur
hylurin
hypericum
hyss
hædd
hæddar
hæddarlopi
hæddarpunktið
hæddin
hæddina
hæddini
hæddir
hæddum
hægri
hægst
hægsta
hægstarætti
hægsti
hægstirættur
hægstu
hægstur
hækka
hækkandi
hækkar
hækkað
hækkaði
hættir
hættislig
høg
høga
høgadalsa
høgan
høgar
høgd
høgdar
høgdi
høgdir
høgdu
høgdur
høgenni
høgga
høggur
høgguslokkar
høgguslokkur
høgir
høgligari
høgna
høgnado
høgnesen
høgni
høgra
høgri
høgru
høgrumegin
høgt
høgti
høgu
høgum
høgur
høj
høje
højgaard
høli
hølini
hølir
hølið
høll
høllin
høllina
høllini
hølum
hølunum
høpi
hør
hørg
hørsholm
hørð
hørðu
hørðum
høsn
høv
høvd
høvdanum
høvdi
høvdingar
høvdingi
høvdingur
høvdinum
høvdið
høvdu
høvi
høvini
høvum
høvundar
høvundi
høvundin
høvundum
høvundur
høvundurin
høvur
høvuðs
høvuðsa
høvuðsatvoldin
høvuðsbo
høvuðsby
høvuðsbygningurin
høvuðsendama
høvuðsevni
høvuðsfigurur
høvuðsgrein
høvuðsgrøði
høvuðsgøtan
høvuðsheitum
høvuðskappingin
høvuðskappingini
høvuðsleikarar
høvuðsleiklut
høvuðsleikluti
høvuðsleiklutin
høvuðsleiklutinum
høvuðsleiklutirnir
høvuðsleiklutunum
høvuðsma
høvuðsmedaljuvinnarar
høvuðsorsøkin
høvuðsperso
høvuðsprestarnir
høvuðsskrivstovan
høvuðsskrivstovu
høvuðsstað
høvuðsstaðarregio
høvuðsstaði
høvuðsstaðin
høvuðsstaðinum
høvuðsstaðir
høvuðsstaðnum
høvuðsstaður
høvuðsstaðurin
høvuðsstuðul
høvuðsstuðulin
høvuðsstøð
høvuðssæti
høvuðssætið
høvuðstaðnum
høvuðstaður
høvuðsuppga
høvuðsvenjari
høvuðsverk
høvuðsvinna
høvuðsvinnan
høyre
i
ia
iaea
iago
ian
ib
ibn
ibrahim
ibsen
ibugvar
ic
ice
iceland
icelandic
ich
ichiro
ichirou
icon
id
ida
idag
idaho
idea
identity
ideologi
idi
idm
idol
idols
idustre
ie
if
ife
ig
igbo
ige
igen
igor
ihf
ihlen
ii
iii
ik
ikea
ikke
ikki
ikon
iktas
il
ilionskvæði
ilionskvæðið
iljitj
ill
illa
ille
illgruna
illgruni
illhugin
illinois
illum
illur
illustrated
illustrator
illustrerað
illveðri
illveður
ilon
ilt
ilulissat
im
image
images
imagesize
imagine
imam
iman
imbamba
imbd
imdb
imelda
img
immanuel
immigration
immunskipanin
impact
impossible
impulz
in
ina
inazuman
inb
inc
inclusion
incognita
increment
ind
inda
indarar
indberetninger
inden
independence
independent
indeterminate
index
indexmundi
indi
india
indiahav
indiahavi
indian
indiana
indianapolis
indianarar
indianararnir
indianarum
indianarunum
indigenous
indira
indisk
indiska
indiski
indiskir
indisku
indiskum
indiskur
individual
indledende
indo
indonesia
indonesiskur
indoor
indus
industri
industrial
industry
ine
infinite
inflatio
info
information
infrastructure
ing
inga
ingadal
inge
ingeborg
ingen
inger
ingi
ingibjørg
ingili
ingin
ingmann
ingmar
ingolf
ingrid
ingrið
ingun
ingvar
ingvard
ingvars
ingvør
inhabitants
ini
initiative
inj
inka
inkari
inki
inkl
inlet
inn
inna
innan
innandura
innanfyri
innanhy
innani
innanlands
innanri
innara
innari
innaru
innast
innbjo
innbu
innenriks
innflutning
innflutningi
innflutningur
innflutningurin
innflutt
innfluttur
innflytarar
innføddu
innførd
innførdi
innført
innganginum
inngangur
inni
innihald
innihalda
innihaldi
innihaldinum
innihaldið
inniheldur
innihelt
inniro
innivist
innlagdur
innlandet
innleiðandi
innlendis
innlendisma
innliman
innlimað
innlimaður
innlit
innløgd
innra
innrættað
innsbruck
innskriftin
innspæld
innspældur
innspælt
inntil
inntøka
inntøkan
inntøku
inntøkukelda
inntøkum
inntøkunum
inntøkur
inntøkurnar
ins
insertsang
inside
inspirational
instagram
instead
institut
institute
institutionen
instrumental
insulin
int
inte
intelligence
intended
inter
intercontinental
international
internationale
internazionale
internet
internetinum
internetið
internets
intertoto
interview
intl
into
introduction
inuit
inuittar
inuk
inuktitut
inum
inva
invalid
invisible
io
ioc
ion
iowa
ip
ipa
ipcc
iphone
iqaluit
ir
ira
irak
irakar
irakiska
iran
iranar
iranska
iransku
iranskur
iraq
ire
ireland
irf
iriks
iris
irish
irma
irnar
irnir
irokesarar
iron
ironman
irskur
irvine
irving
is
isaac
isabel
isabella
isabelle
isaksen
isbn
ischen
isf
isholm
ishøj
isil
isis
iskt
iskum
isla
islam
islamabad
islamic
islamiska
islamska
islamskum
island
islanders
islandgames
islands
isle
isles
islet
iso
isopoda
israel
israeli
israelskur
issn
ist
istanbul
it
italia
italian
italiana
italiarar
italien
italiu
italiumaðurin
italsk
italska
italski
italskir
italskt
italsku
italskum
italskur
italy
ithaka
itið
itolsk
itrottur
its
itt
itu
itunes
iu
iucn
iv
iva
ivaleyst
ivan
ivanov
ivar
ivast
ivað
iversen
ivi
ivir
ivoire
iwo
ix
izmir
ið
iðafjall
j
ja
jack
jackie
jackson
jacksonville
jacob
jacobsen
jacobsens
jacobsøn
jacqueline
jacques
jag
jagger
jagland
jagstra
jagten
jaguar
jainisma
jakarta
jake
jakku
jakob
jakobsen
jaligt
jall
jalli
jallur
jallurin
jals
jam
jamaika
jamboree
jameika
james
jamestown
jamie
jamsro
jan
jana
jane
janeiro
janet
janick
jansson
janua
januar
january
janukovitsj
janus
janusi
japan
japanar
japanarar
japanarum
japans
japanska
japanskar
japanskir
japanskt
japanskum
japanskur
japonsk
japonsku
jared
jarn
jarnbardur
jarnbreyt
jarnbreytarstøð
jarnbreytarstøðin
jarnbreytastøðin
jarnbreytin
jarnbreytina
jarnbreytini
jarnbreytir
jarnbreytirnar
jarni
jarnið
jarnma
jarnskor
jarða
jarðar
jarðarbru
jarðarferð
jarðarferðin
jarðarferðir
jarðarinnar
jarðarskorpuni
jarðað
jarðaður
jarðfeingi
jarðfrøði
jarðnøtir
jarðskja
jasmin
jason
jaspur
jastrid
java
javier
javna
javnan
javnað
javnaðarfl
javnaðarflokkin
javnaðarflokkinum
javnaðarflokkurin
javnaðarfloksins
javni
javnleik
javnleiki
javnleikir
javnli
javnrætt
javnrættindi
javnrættindum
javnsett
javnstøðu
javnstøðunevndini
javnt
javnur
javnva
jay
jazz
jazzto
jazzur
jazzurin
je
jean
jeane
jeanette
jeanne
jeeg
jeff
jefferson
jeffrei
jeffrey
jeg
jehova
jekaterinburg
jeltsin
jemen
jenis
jenner
jennifer
jenny
jens
jensa
jensen
jensina
jenskjeld
jeppe
jeremia
jeremy
jeriko
jerome
jerry
jersey
jeru
jerusalem
jesper
jespersen
jess
jesse
jessica
jesu
jesus
jesusar
jesusi
jette
jewish
jf
jfk
ji
jia
jiang
jikuu
jill
jim
jima
jimmie
jimmy
jinder
jinsha
jj
jm
jn
jo
joa
joachim
joan
joana
joansoka
job
jobs
jobsbo
joe
joel
joen
joensen
joep
joey
jogvanarge
johan
johann
johanna
johanne
johannes
johannesburg
johannesen
johannessen
johansen
johansson
john
johnny
johns
johnson
johnsson
johnston
johs
joka
jokkmokks
jolie
jolly
jomfru
jomo
jon
jona
jonas
jonathan
jones
jong
jonhard
jonna
joplin
jordan
jordana
jordania
jorden
jordi
jorge
jorsala
jos
jose
josef
josefine
joseph
josephine
josephsen
josh
joshua
josip
jota
joti
journal
journalist
journalistar
journalistarnir
journalistum
journalistunum
journalistur
journey
jovi
joy
joyce
jpeg
jpg
jr
jt
ju
juan
juche
judas
judd
jude
judith
judo
judofelag
judy
juel
jugoslavia
juilliard
jul
jules
juli
julia
julian
juliana
juliane
julianska
julie
juliu
julius
julos
julsgart
july
jumbo
jump
jun
june
juneau
jung
jungle
juni
junior
juniorar
juniormeistarastevnuni
juniormet
juniormetið
junkarin
juno
jupiter
jur
jura
juries
jurij
jury
jussi
just
justa
justice
justify
justin
justinussen
jutta
juul
juventus
jv
jyllands
jytte
jæger
jøda
jødado
jødanna
jødar
jødarnar
jødarnir
jødi
jødisk
jødiska
jødiskt
jødisku
jødiskum
jødum
jødunum
jøkladal
jøklar
jøklarnir
jøklum
jøklunum
jørgen
jørgeni
jørgensen
jørn
jørð
jørðildið
jørðin
jørðina
jørðini
jøvn
jøvnum
k
ka
kabul
kaczyn
kadeild
kadeildin
kaffi
kaffistovur
kafka
kaforlag
kaga
kagarður
kagestar
kaggans
kagganum
kaggin
kagrunnur
kagrunnurin
kahandil
kaheiðursløn
kahlo
kahn
kahøvundar
kahøvundur
kai
kairo
kaiser
kaj
kajsa
kaka
kakao
kalaallit
kalashnikov
kalda
kaldar
kaldari
kaldasta
kaldbak
kaldbaksbotn
kaldbaksbotnur
kaldir
kaldur
kaledo
kaledonia
kalendaran
kalendaranum
kalendarin
kalifornia
kaliningrad
kalix
kall
kalla
kallar
kallast
kallað
kallaðar
kallaði
kallaðir
kallaðist
kallaðu
kallaður
kalle
kallfiskurin
kalligrafi
kallkyn
kallsberg
kalmar
kalsoy
kalsoynna
kalsoynni
kalsø
kalt
kamarinum
kamarko
kamarto
kamban
kambodja
kambsdal
kambsdali
kambsdalur
kamehameha
kamelar
kamelo
kamen
kamerun
kamp
kampen
kampingpla
kampmann
kamprad
kan
kanada
kanadiarar
kanadisk
kanadiska
kanadiskar
kanadiskir
kanadiskt
kanadisku
kanadiskur
kanal
kanalin
kanalina
kanalini
kanalirnar
kandi
kane
kanevndin
kanin
kaninin
kann
kanna
kannabis
kannar
kannast
kannað
kannaði
kanning
kanningar
kanningarnar
kanningin
kanningini
kanningum
kano
kanon
kansas
kanska
kanslari
kanst
kant
kantata
kantinum
kanton
kap
kapital
kapitalistiska
kapitalur
kapittul
kapnas
kapp
kappa
kappast
kappaðist
kappaðust
kappen
kappi
kapping
kappingar
kappingara
kappingarnar
kappingin
kappingina
kappingini
kappingum
kappingunum
kappkoyring
kappro
kappsigling
kappsu
kaptein
kapteinur
kar
kara
karachi
karagounis
karaiskakis
karakassar
karanavn
karanum
karar
karate
karaumboðið
karbon
karbyrgi
kardamummuby
karel
karelia
karen
kari
karibia
karibiahav
karibiahavi
karibiahavinum
karibiska
karibisku
karin
karina
karir
karithøvundur
karius
karl
karlamagnus
karlamagnusar
karli
karlsborg
karlsborgs
karlsen
karlshamns
karlskrona
karlsruhe
karlsson
karlstads
karma
karmar
karmarnar
karmur
karnival
karolina
karolos
karriera
karrieru
karsten
karthago
karum
karunum
kasakstan
kasavn
kasavni
kasavninum
kasavnið
kasettuband
kashino
kashmir
kaspar
kasper
kaspiska
kass
kassameistari
kassandra
kassel
kassettuband
kassettubond
kast
kasta
kastar
kastað
kastaði
kastaðu
kasti
kastrup
kastu
kasum
kasumi
kasøvn
kata
katalanskt
katalo
katar
katarina
kate
katego
kategori
kategoria
kategorie
kategorija
katekismus
katharine
katherine
kati
katie
kato
katolikkar
katowice
katrin
katrina
katrine
katrinu
kattegat
katusha
katy
kau
kaukasus
kaurisma
kautokeino
kav
kava
kavango
kavanum
kavarar
kavat
kavaði
kavba
kavi
kavin
kaving
kavirðisløn
kavist
kavæl
kavørður
kawashima
kay
kazan
kað
kaði
kaðu
kaður
kb
kbh
kdo
ke
keane
keaton
keeffe
keep
kefalonia
keflavi
keiji
keiputeknari
keiro
keisara
keisaran
keisarans
keisaranum
keisarar
keisaraveldi
keisaraveldinum
keisari
keisarin
keisarinna
keith
kekenia
kekkar
kekkia
kekkisk
kekkiska
kekkiskir
kekkiskt
kekkiskur
kekkoslovakia
kelda
keldan
keldu
keldua
keldufar
keldulisti
keldum
kelduna
kelduni
keldunum
keldur
keldurnar
keldutilfar
kelinavninum
kelinavnið
keller
kellingargarði
kellingin
kelly
keltar
keltisk
keltisku
keltiskum
kelvin
kemal
kemst
kemur
ken
kend
kenda
kendan
kendar
kendast
kendasta
kendasti
kendastu
kendastur
kendi
kendir
kendu
kendum
kendur
kenguran
kenja
kenjanskur
kenna
kennast
kennedy
kenneth
kenni
kenniorð
kennir
kennist
kenny
kenslu
kenslum
kenslur
kent
kentucky
kenya
kenyatta
ker
keren
kerr
kerry
kers
kert
ketta
kettur
kevin
key
keyb
keyboard
keyboards
keyp
keypa
keyparin
keypast
keypir
keypis
keypmannahavn
keypmannahavnar
keypmannahavns
keypmaður
keypmenn
keypmh
keypmonnum
keyps
keypstaður
keypt
keypti
keyptu
keyptur
keys
kfum
kg
khader
khalifa
khalkis
khamenei
khan
khandil
khartoum
khoisanfo
khomeini
khrusjtjov
ki
kid
kids
kidømi
kidømið
kiel
kielsen
kienhuis
kierkegaard
kiev
kievru
kigali
kikki
kikvartettir
kilda
kilenska
kilensku
kilenskur
kili
kiljan
kill
killed
killer
killers
killing
kilo
kilometra
kilometrar
kilometur
kim
kimi
kims
kin
kina
kind
kinda
kinder
kindi
kindini
kindum
kinesarar
kinesisk
kinesiska
kinesiski
kinesiskir
kinesiskt
kinesisku
kinesiskum
kinesiskur
king
kinga
kingar
kingarnar
kingarnir
kingaskip
kingati
kingaøld
kingdom
kingi
kingo
kings
kingston
kingum
kingur
kini
kinks
kinna
kinshasa
kinum
kinverjar
kinversk
kinverska
kinverskar
kinverskt
kinversku
kinverskum
kinverskur
kipling
kipp
kippur
kir
kirgisia
kirgisistan
kiribati
kirk
kirke
kirkja
kirkjan
kirkju
kirkjua
kirkjubo
kirkjubygd
kirkjubø
kirkjubøar
kirkjubøkurnar
kirkjubømu
kirkjubøur
kirkjugarð
kirkjugarði
kirkjugarðin
kirkjugarðinum
kirkjugarður
kirkjugarðurin
kirkjukletti
kirkjuliga
kirkjulið
kirkjuliðið
kirkjum
kirkjuma
kirkjumenn
kirkjumu
kirkjuna
kirkjuni
kirkjunnar
kirkjunum
kirkjur
kirkjura
kirkjurnar
kirkjuvatn
kirkwall
kirsten
kirstin
kiruna
kirundi
kirvi
kis
kisa
kisborgarar
kisborgararætt
kisborgari
kisdagurin
kisdegnum
kisfelagsskapi
kisins
kisma
kisovasti
kispolitikk
kispolitikkur
kisra
kisrættarma
kiss
kisstjo
kist
kisumboð
kisumboðið
kisumboðsmaður
kitrio
kitts
kitty
kivik
kið
kja
kjad
kjaft
kjaftinum
kjak
kjakast
kjaki
kjakinum
kjakið
kjalarvørrinum
kjallaranum
kjandi
kjans
kjarnan
kjarnin
kjarnorka
kjarnorku
kjarnorkubumbu
kjarnorkuva
kjarnorkuverk
kjarnu
kjartan
kjast
kjeld
kjeldsen
kjell
kjelnæs
kjo
kjukken
kjum
kjunum
kjær
kjærbo
kjærsgaard
kjølbro
kjølurin
kjøt
kjøti
kjøtið
kk
kkar
kkir
kkla
kklar
kklarar
kklararnir
kklari
kklarin
kklarum
kklað
kklaði
kkling
kklu
kklukapping
kklukappingar
kklukappingin
kklukappingini
kklukappingum
kklulið
kklur
kklæðið
kkum
kkur
kl
kla
klakk
klakkstein
klakstein
klaksvi
klaksvik
klamydia
klandrast
klandur
klassifikatio
klassikarar
klassikarunum
klassisk
klassiska
klassiskan
klassiskar
klassiskt
klassisku
klassiskum
klassiskur
klattiklatt
klaus
klaver
klaverleikari
klein
kleist
kleopatra
klerk
klettafjøll
klettafjøllum
klettar
kletti
klettin
klettinum
klettskarð
klettum
klettur
kletturin
kleystur
kleyv
kli
klikkir
klikkja
klimt
klingar
klingruvarpi
klingum
klingur
klingurin
klippa
klippans
klippfisk
klippfiskur
klipt
klo
klokkan
klokkulyngur
klokkuti
klombrum
klostrið
klostur
klu
klubas
klugman
klæddur
klædnai
klædnasniðgevi
klædnað
klædnaði
klæmint
klæðast
klæði
klæðini
klæðir
klæðum
kløn
klørnar
km
kma
kmenta
kmentafrøði
kmentagreinir
kmentaheiðurslønir
kmentalig
kmentaliga
kmentaligt
kmentasøga
kmentasøgu
kmentavirðisløn
kmentavirðislønina
kmentir
kmentirnar
kmentum
kmentunum
kn
kna
knandi
knappar
knappliga
knappur
knapt
knar
knarfari
knarfarin
knarferð
knarferðir
knarmaður
knarprestar
knarprestur
knarsty
knassi
knast
knee
knesset
knez
kni
knife
knight
knights
knin
knina
knini
knip
knir
knirnar
knivsta
kno
knockout
know
knowledge
known
knoxville
knu
knud
knudsen
knum
knunum
knusniglar
knut
kny
knæ
knæk
knørri
knørrur
knøttin
ko
koba
kobe
koch
koda
kofi
kokain
kokkur
koks
kokuspa
kol
kola
kolana
kolding
kolera
kolevni
koli
kolkata
koll
kollafirði
kollafjarðar
kollafjørð
kollafjørður
kolldømdur
kollvelta
kollvelting
kollveltingarmaður
kollveltingin
kollveltingina
kollveltingini
kolombia
koloni
kolshøll
koltri
koltur
kolumbia
kolumbianskur
kolumbus
kom
koma
komandi
kombikk
kombinatio
komi
komin
komið
kommando
kommandørhu
kommer
kommissio
kommun
kommuna
kommunala
kommunalar
kommunalreformin
kommunalreforminum
kommunalu
kommunan
kommune
kommuner
kommunernas
kommunisma
kommunisman
kommunistaflokkinum
kommunistaflokkurin
kommunistarnir
kommunistiska
kommunistiski
kommunistiskt
kommunistisku
kommunu
kommunufelag
kommunufelagið
kommunulækni
kommunum
kommunuma
kommununa
kommununar
kommununi
kommununum
kommunur
kommunurnar
kommunusamskipan
kommunuskrivstovan
kommunusku
kommunusty
kommunuval
kommunuvalinum
kommunuvalið
komnar
komnir
komoroyggjar
kompagni
komponera
komponerað
komponeraði
komponistur
kompositio
komst
komu
kon
kona
konan
konfirmatio
kong
kongabo
kongadømi
kongafiskur
kongalig
kongaliga
kongaligi
kongaligur
kongar
kongari
kongarnir
kongehuset
kongelige
kongens
kongi
kongin
konginum
kongliga
kongo
kongoa
kongressin
kongressina
kongressini
kongs
kongsberg
kongsbo
kongsdo
kongsdømi
kongshu
kongsins
kongsjørð
kongsri
kongsveldi
kongsveldið
kongur
kongurin
konkani
konni
konoy
konrad
konsert
konsertferð
konserthu
konsertin
konsertina
konsertini
konsertir
konsertum
konservativa
konservative
konservativu
konservativur
konstantin
konstantinopel
konsul
kontinental
kontinentallið
konto
kontrabass
kontrakt
kontrast
konu
konufo
konuni
konur
konurnar
kopar
kopari
koparrør
koppa
koppaði
koppseta
koppsett
kor
korallriv
korallrivið
koranin
koranini
korea
koreakri
koreanska
koreanskt
korfu
korini
korint
korn
korni
kornið
kort
korte
korti
kortini
kortinum
kortið
kortum
korum
kos
koseidon
kosin
kosið
kosovo
kosta
kostar
kostað
kostaði
kostaðu
kostnaðurin
kostsku
kota
kotur
koturnar
kouachi
koyra
koyrandi
koyrd
koyrdi
koyrdu
koyrdur
koyrir
koyrt
kr
kra
krabba
krabbady
krabbamein
krabbameini
krabburð
kraft
krag
kragesteen
kragh
krahu
krai
kraj
krako
kraks
kralegu
krambatangi
krambu
kramer
kramfors
kranj
krarøktarfrøðingar
krasnodar
krasystir
krauss
krav
kravd
kravdar
kravdi
kravdist
kravdu
kravi
kravið
kravt
kravti
krea
krediteraður
kreftir
krem
krenn
kreppa
kreppan
kreppu
kreppuna
kreppuni
kreta
krevja
krevsa
krevst
krevur
krf
kri
krig
krim
krimi
kriminalitet
kriminalitetur
kriminellur
krimiskaldsøga
krimiskaldsøgur
kring
kringir
kringsettu
kringur
kringvarp
kringvarpi
kringvarpinum
kringvarpið
kris
krist
krista
kristel
kristeligt
kristen
kristensen
kristersson
kristi
kristian
kristiani
kristiania
kristianna
kristiansand
kristiansen
kristianstads
kristiliga
kristiligari
kristiligi
kristiligum
kristin
kristina
kristindo
kristinu
kristið
kristjan
kristna
kristnan
kristnar
kristnari
kristni
kristnir
kristnu
kristnum
kristoffer
kristofferson
kristoffur
krists
kristus
kritikaravirðislønin
kritikerprisen
kro
kroatar
kroatia
kroatiska
kroatiskt
krogh
kronobergs
kropp
kroppi
kroppin
kroppinum
kroppurin
kropsliga
kross
krossfestur
krossfiskar
krossi
krossinum
krossla
krossmerki
krossmessa
krossur
krossurin
kroyst
kru
kruse
kry
krydd
kryddari
krzysztof
kræklingur
krønikubo
krøv
krøvini
krøvum
ks
ksf
ksfirði
ksho
kska
kskt
kskur
kssa
kst
kstav
kstaviliga
kstavin
kstavinum
kstavir
kstavirnir
kstavum
kstavunum
kstavur
kstavurin
kstjørn
kt
kta
ktar
kti
ktir
ktist
ktu
ktur
ktust
ku
kuba
kubanskur
kublai
kueyðkenni
kular
kulda
kuldalondum
kuldanum
kuldi
kuldin
kultur
kulturva
kulu
kum
kumi
kumla
kun
kuna
kunar
kunarson
kundar
kundi
kundu
kuneo
kung
kunga
kungsbacka
kuni
kunna
kunnað
kunnger
kunngera
kunngerð
kunngjørd
kunngjørdar
kunngjørdi
kunngjørdu
kunngjørdur
kunngjørt
kunning
kunningarstova
kunningarstovur
kunnleika
kunnu
kunnugt
kunoy
kunoyar
kunoyingar
kunoyingum
kunoynni
kunst
kunstakademi
kunstfond
kunstmuseum
kunum
kup
kupala
kupi
kups
kupsson
kupsstovu
kur
kurdar
kurfu
kurgisku
kurin
kurnar
kuro
kursiv
kurt
kurv
kurvabo
kurvar
kurvina
kusama
kuupik
kuvait
kuveit
kv
kva
kvalifikasjo
kvalifikatio
kvalifisera
kvalifiserar
kvalifiserað
kvalifiseraði
kvalifiseraðu
kvartetterne
kvartfinaluna
kvartfinalur
kveikt
kvennkyn
kvett
kvetti
kvf
kvi
kvikur
kvindebiografisk
kvinden
kvinder
kvinesdal
kvinfo
kvinna
kvinnan
kvinnu
kvinnubo
kvinnufelagið
kvinnufelagnum
kvinnufo
kvinnufotbolt
kvinnulandsliðið
kvinnulandsliðnum
kvinnuliga
kvinnuligi
kvinnuligir
kvinnuligur
kvinnuliðið
kvinnum
kvinnuna
kvinnuni
kvinnunum
kvinnur
kvinnurnar
kvinnurættindi
kvinnurættindum
kvinnuti
kvist
kvistur
kvæder
kvæðabo
kvæði
kvæðini
kvæðinum
kvæðið
kvæðnum
kvæðum
kvæðunum
kvøld
kvøldarnar
kvøldi
kvøldið
kvøldma
kvøldsku
kvørkveggjan
kvøða
kvøðið
kwazulu
ky
kyi
kyiv
kykladunum
kykladurnar
kykna
kyknaði
kyknu
kyknulæra
kyknum
kyknur
kyknurnar
kykt
kylie
kyn
kynd
kyndi
kyndil
kyndilsmessubygd
kyndilsmessubygdir
kyndli
kyndum
kyni
kynini
kynjaður
kynsbu
kynsleyst
kynsli
kynslig
kynsliga
kynsligan
kynsligt
kynsligu
kynsligum
kynum
kyoto
kypros
kyrka
kyrkjebø
kyrrahav
kyrrahavi
kyrrahavinum
kyrrahavið
kyrrahavsoyggjarnar
kyrrahavsoyggjunum
kyrrahavsstrondini
kyrt
kyst
kæra
kæran
kærd
kærdi
kærdur
kærin
kærir
kærkomin
kærleika
kærleikan
kærleikans
kærleiki
kærleikin
kærleiksku
kært
kæru
kærum
kærur
kærurnar
københavn
københavns
køkur
køld
køldu
køldum
kømrum
kømur
kørg
l
la
laa
laaftan
labeini
labeinsstrondin
labeinsstrondini
label
lablaðið
lablaðnum
labo
laborde
labotni
labour
labrador
labru
labukkurin
labørn
ladag
ladagur
laden
ladies
lado
lady
lafirði
lafjørðin
lafjørðinum
lafjørður
lafløgan
lafrøði
lafrøðingar
lafrøðingur
lafundin
lafur
lag
laga
lagað
lagdar
lagdir
lagdur
lagerlo
lagi
lagið
lagna
lagnu
lagnum
lagongd
lagopus
lagos
lagrað
lagri
lagt
laholms
lai
laila
lak
lakalendarin
lake
lakes
laki
lakjuni
laks
laksa
laksi
lakssild
laksur
lalondini
lalondunum
laly
lalærari
lama
lamannin
lamanninum
lamassu
lamaðurin
lamb
lamba
lambareiði
lambið
lamenn
lamhauge
lampard
lampedusa
lampur
lan
lana
lancashire
lancaster
land
landa
landafrøði
landafrøðiliga
landafrøðiligt
landafrøðiligum
landakapping
landalæra
landamark
landamørk
landamørkini
landanna
landapla
landati
landau
landavegssu
landavegsu
landaveldinum
landaøki
landaøkið
landbu
landet
landetta
landfast
landfrøði
landgongd
landgrunninum
landi
landinum
landið
landna
landnyrðing
landnyrðingi
landnyrðings
landnyrðingshorninum
landnyrðingspartinum
landnyrðingur
landrut
lands
landsbo
landscape
landsdyst
landsdysti
landsdystir
landsdystum
landsdystur
landsfelag
landsfo
landsins
landskapping
landskappingin
landskappingini
landskassan
landskrona
landslag
landslagið
landslagnum
landslið
landsliðinum
landsliðið
landsliðnum
landsliðs
landsliðsboð
landsliðsfo
landsliðsho
landsliðsleikarar
landsliðsleikari
landsliðsma
landsliðsmet
landsliðsvenjari
landsliðunum
landslut
landsluti
landslutin
landslutinum
landslutir
landslutirnir
landslutum
landslutunum
landslutur
landsluturin
landslæknanum
landslækni
landslæknin
landspartar
landspartarnir
landsparti
landspartinum
landspartur
landsparturin
landspørtum
landspørtunum
landsrætti
landssju
landsskjalasavn
landssku
landssty
landstad
landstinginum
landstingið
landstingslimir
landstingsval
landstingsvalinum
landsty
landsverk
landsynning
landsynnings
landsynningsa
landsynningsasia
landsynningshorninum
landsynningsparti
landsynningspartinum
landsynningur
landt
landtag
landøki
landøkið
lane
lanevnd
lanevndin
lanevndini
lang
langa
langan
langar
langari
langasandi
langbana
lange
langgaard
langgeil
langhyl
langi
langir
langsokkur
langt
langti
language
languages
langur
lanius
lanka
lans
lansing
lant
lanum
lanæmingar
lao
laos
lapro
lapry
lar
lara
larar
lareygað
larfrøði
larfrøðingur
large
lari
larin
larliga
larmyrking
larmyrkingin
larnar
larnir
larris
larry
lars
larsen
larsju
larsson
larus
larva
las
lasa
laskapur
laskipið
lasko
lasse
lassen
last
lastbili
lastbilur
lastbilurin
lastini
lastjo
lastovu
lat
lata
latannlæknastovan
latast
late
later
laterna
latest
lati
latifah
latimes
latin
latinos
latinosar
latinosi
latinska
latium
latið
latnar
latnir
latoftir
latoftum
latræ
latræið
latrø
latrøð
latunnilin
lau
lauda
laudrup
laugardalslaug
laura
laurbær
lauren
laurence
laurent
lauritzen
lausanne
lav
lava
lave
laverkið
lavi
lavinia
laviniu
lavinium
lavrov
lavsson
lavsøka
lavsøku
lavsøkuaftan
lavsøkudag
lavsøkuframsy
lavsøkukonsertin
lavsøkukonsertini
lavsøkuna
lavsøkusvimjingina
lavur
law
lawrence
lawrencea
laxa
laxness
lay
lað
laða
laðangarði
laðað
laðaðir
laði
laðir
laðu
laðum
laður
lb
lby
lc
ld
ldan
lder
ldi
ldsama
ldsamar
ldsamt
ldsamur
ldsom
ldsomu
ldsviks
ldur
le
lea
lead
leader
league
leave
leaving
leben
lech
led
ledger
lee
leeds
leerssen
left
legacy
legal
legan
legend
legends
legg
leggi
legging
legginum
leggirnir
leggið
leggja
leggjarar
leggjarum
leggjast
leggur
leggurin
legislative
legitimitet
legst
leguhu
leguna
leguni
legur
legurnar
legði
legðist
lehnert
lei
leicester
leiddi
leiddur
leiden
leif
leiga
leigað
leigaði
leigaðum
leigh
leigu
leik
leika
leikalund
leikandi
leikar
leikara
leikarafelag
leikarar
leikararnir
leikari
leikarin
leikarum
leikarunum
leikast
leikastjo
leikaði
leikbo
leikhu
leiki
leikin
leikinum
leikir
leikirnar
leikirnir
leiklist
leiklistara
leiklistin
leiklistina
leiklut
leikluti
leiklutin
leiklutinum
leiklutir
leiklutum
leiklutur
leikrit
leikritahøvundur
leikrithøvundur
leikritið
leikskald
leikstjo
leikstjori
leikt
leikti
leiktir
leiktu
leiktum
leiktur
leikum
leikunum
leikur
leikurin
leikverk
leila
leine
leingi
leingist
leinki
leinkjur
leinster
leipzig
leiri
leirkerið
leirvi
leisti
leita
leitan
leitar
leitað
leitaði
leitaðu
leite
leiti
leiting
leitingin
leitingini
leitisvatn
leiv
leivdir
leivdirnar
leivi
leivsson
leivur
leið
leiða
leiðandi
leiðara
leiðaranum
leiðarar
leiðari
leiðarin
leiðarum
leiðarunum
leiðin
leiðina
leiðini
leiðir
leiðirnar
leiðsla
leiðslan
leiðslu
leiðsluna
leiðsluni
leiðum
leiðunum
leka
lekja
lekjandi
leksikon
lektari
lelo
len
lena
lenda
lendi
lending
lendingina
lendingini
lendinum
lendir
lendistøðna
lendið
lendska
lendskt
lendsku
lendskum
lene
lenga
leni
lenin
leningrad
lenk
lennart
lennon
lennox
lens
lent
lenu
lenvig
leo
leon
leona
leonard
leonardo
leone
leonid
leonor
leopold
leppard
lepus
ler
lervig
lerwick
les
lesa
lesandi
lesarin
lesast
lesbos
lesebøkene
lesibo
lesifør
lesley
leslie
lesnaðin
lesnaðinum
lesnaður
lesotho
lesoto
lessebo
lesseps
lessons
lestrabo
lestrar
lestrara
lestrarti
lestur
lesund
lesur
let
leti
letter
letterman
letters
lettiska
lettland
lettlandi
letur
leucophaeus
lev
levande
level
leven
lever
levi
lewandowski
lewicz
lewis
lexington
ley
leyen
leygardag
leygardagar
leygardagin
leygardagur
leygardagurin
leygardegi
leygarkvøld
leygarkvøldið
leyk
leynar
leyni
leynum
leyp
leypa
leypur
leys
leysar
leysgangari
leyslatin
leysliga
leyst
leysum
leysur
leyv
leyva
leyvan
leyvsko
leyvu
leyvum
leyvur
lez
lfamiljuni
lff
lfinn
lfrøði
lfrøðingar
lfrøðingur
lfur
lføri
lførini
lførum
lg
lgagn
lgar
lgbt
lharan
li
lia
liam
lias
libanon
liber
liberal
liberala
liberalisma
liberalismu
liberalur
liberia
libertadores
liberty
library
libris
libya
libyska
license
lichtenstein
lidingo
lidko
lidna
lidnan
lidnar
lidnir
lie
liebe
liechtenstein
lied
lietuvosfutbolas
life
lifetime
lift
lig
liga
ligan
ligar
ligari
ligavegurin
liggja
liggjandi
liggur
light
lighthouse
lightning
lights
lightweight
ligia
ligið
ligt
ligue
ligum
ligur
likam
like
likka
liktinstein
likud
lili
liljan
lill
lilla
lille
lillebror
lillehammer
lillesand
lilli
lily
lim
lima
limafeløg
limaland
limalond
limalondini
limalondum
limalondunum
limaskap
limaskapi
limaskapin
limassol
limað
limbo
limburg
limerick
limfjørðin
limir
limirnir
limit
limited
limits
limosa
limpopo
limum
limunum
limur
lin
lina
lincoln
lincolnshire
lind
linda
lindberg
lindbergh
lindenskov
lindesnes
lindgren
lindy
line
linear
lines
ling
lingar
lingarnir
lingin
linginum
linguistics
lingum
lingur
lingurin
lini
linjan
linju
linjuna
linjuni
linjur
linjurnar
link
linkedin
linko
links
linn
linna
linnaeus
linne
linnæus
linum
lio
lion
lionel
lions
lir
lirnar
lisa
lisberg
lisbeth
lisboa
lise
lisens
lisin
lisið
lissabon
list
lista
listabo
listafelag
listafo
listaframsy
listagreinir
listakvinna
listakvinnan
listama
listamannin
listamaður
listamaðurin
listan
listanavninum
listanum
listar
listarfo
listarliga
listarligt
listasavn
listasavnið
listaska
listaverk
listaverkið
listavirðisløn
liste
listhandverk
listhaug
listi
listin
listinblog
listinblogg
listir
listma
lit
lita
litava
litavisk
litaviska
lite
literary
literatur
literature
litevni
litføgrum
liti
litin
litinum
litir
litirnir
litisstørv
litið
litrar
litri
litsjo
litt
litteratur
litteraturpris
litteraturpriser
little
littur
litum
liturin
liu
liv
liva
livandi
livar
livari
livað
livdi
livdu
live
liverpool
lives
livet
livetiming
livets
liviha
livikorini
living
livingston
livingstone
livir
livistøði
liviti
liviøki
livre
livur
liz
lizzie
lið
liðady
liðgullið
liði
liðin
liðini
liðinum
liðir
liðið
liðkapping
liðkappingar
liðkappingin
liðkappingini
liðkappingum
liðkota
liðnum
liðskiparar
liðskipari
liðsvimjing
liðu
liðug
liðugt
liðugur
liðum
liðunum
liður
lja
ljan
lje
ljo
lju
ljubljana
ljungby
lk
lka
lkaatkvøða
lkaatkvøðan
lkaatkvøðu
lkaatkvøðuna
lkaatkvøðuni
lkabo
lkadra
lkafl
lkaflokkin
lkaflokkinum
lkaflokkurin
lkafloksins
lkaflytingati
lkaha
lkaheilsura
lkakirkjan
lkakirkjuna
lkakirkjuni
lkali
lkaly
lkamegin
lkaminni
lkanavn
lkanavnið
lkanøvn
lkar
lkari
lkarnar
lkarnir
lkaræði
lkaræðiliga
lkaræðiligt
lkaræðisliga
lkaræðið
lkasamgongan
lkasku
lkaslag
lkaslagið
lkasløg
lkasløgini
lkasløgum
lkaspæl
lkaspælið
lkatal
lkatali
lkatalinum
lkatalið
lkatalsfrøði
lkateljing
lkateljingin
lkateljingini
lkating
lkatingi
lkatinginum
lkatingið
lkatingsbo
lkatingsins
lkatingslimir
lkatingslimur
lkatingsmaður
lkatingsval
lkatingsvalinum
lkatingsvalið
lkato
lkatættleika
lkatættleikin
lkau
lkavøkstur
lkavøksturin
lkað
lkaðar
lkaði
lkaðir
lkaðum
lkaður
lkerung
lki
lkin
lkina
lking
lkingin
lkingini
lkini
lkinum
lkið
lkring
lks
lksins
lksliga
lkum
lkunum
lkur
lkurin
ll
lla
llan
lland
llandbo
llandi
llands
llendingar
ller
lli
llivare
lloyd
llum
llur
llywelyn
llywood
llæra
llæru
lm
lma
lmabo
lmanakkanum
lmapi
lmar
lmarnar
lmarnir
lmaskald
lmað
lmaður
lmaðurin
lmhults
lmi
lmin
lminum
lms
lmsbo
lmssyndromið
lmum
lmunum
lmur
lmurin
ln
lnar
lndals
lningalist
lningar
lningin
lningum
lningur
lningurin
lo
loa
loaf
local
location
loch
locke
locustella
lodi
lofoten
loft
loftar
lofthav
lofti
loftinum
loftið
loftvegis
loga
logan
logi
logir
logið
logn
lognberg
logo
logting
logtingsmal
lokal
lokala
lokalar
lokalt
lokalu
lokalum
loki
lokið
lokka
lokkar
lokna
lola
lombardia
lomma
lomon
lomonoyggjarnar
lomons
lomonstemplið
lomvigi
lomvigin
lon
lond
londini
londinum
london
londum
londunum
lone
lonely
lonesome
long
longa
longd
longda
longdar
longdin
longdini
longer
longi
longri
longst
longsta
longsti
longstu
longu
longum
longur
longway
look
looking
lookup
lop
lopez
lopi
lopin
lopini
lopinum
lopið
lopnar
loppugras
lopra
lopranseiði
lopransho
lopsfo
lopsleikari
lopum
lopunum
loranstøðin
lord
lordi
lorenzo
loretta
lort
lorvi
los
lose
losjuni
lost
lot
lotta
lotte
lotto
lotus
lou
louis
louisa
louise
louisiana
lounge
louth
louvre
lov
lova
lovar
lovað
lovaði
lovaðu
love
lovers
loves
lovin
loving
low
lower
loxia
loyndarma
loyndum
loyniliga
loyniligum
loyniligur
loypa
loypur
loysa
loysing
loysir
loysn
loysnin
loysnir
loyst
loysti
loystur
loyva
loyvd
loyvdi
loyvi
loyvir
loyvt
loðin
loðið
loðpi
lp
lpa
lpar
lpara
lparar
lpardo
lparfelagsskapur
lparfo
lpari
lparvenjari
lpin
lpina
lpir
lpiro
lpt
lpti
lptu
lri
lru
lrun
lrættað
ls
lsa
lsd
lsdeildini
lsdo
lsetur
lshøgdur
lshøgging
lsi
lsin
lsinum
lsk
lska
lskar
lskari
lski
lskin
lskipan
lskir
lskju
lskt
lsku
lskum
lskur
lsliga
lsligt
lsligu
lson
lsoy
lsoyar
lsoyarfjørð
lstein
lstk
lstm
lstrikuna
lsurin
lsøki
lsøkjum
lt
lta
ltar
ltd
ltfelag
ltfelagið
lti
ltin
lting
ltinum
lts
ltsa
ltsamband
ltsdeildin
ltsdeildini
ltsdo
ltsdystir
ltsfelag
ltsfelagið
ltsfelagnum
ltsfeløg
ltsfeløgini
ltsfeløgum
ltsfeløgunum
ltsfyrimyndir
ltsho
ltskapping
ltskappingar
ltskappingin
ltskappingum
ltslandslið
ltslandsliðið
ltslandsliðnum
ltsleikara
ltsleikaran
ltsleikarar
ltsleikari
ltsleikarin
ltsli
ltsliðið
ltspælari
ltssamband
ltssambandi
ltssambandinum
ltssambandið
ltsspælarar
ltsspælari
ltstjo
ltsvenjarar
ltsvenjari
ltsvøllin
ltsvøllir
ltsvøllur
ltsvøllurin
ltur
lturin
lu
lua
luanda
lubbock
luc
lucas
lucerne
lucia
luciano
lucien
lucille
luck
lucky
lucy
ludo
ludvi
ludvig
ludvika
ludwig
luft
luftda
luftin
luftina
luftini
lufttry
lui
luigi
luis
luiz
luka
lukas
luke
lukku
luksemborg
luksemborgskt
luksembourg
luksemburg
lulea
lulesa
lum
luna
lund
lunda
lundar
lundi
lundin
lunds
lundum
lundunum
lungnasniglar
luni
lunnar
lunum
lupin
lupu
lur
lurin
lurnar
lurta
lurtar
lusia
luskerið
lut
luta
lutakast
lutakasti
lutakastið
lutað
lutfallið
lutfalsliga
luther
luthers
lutherska
luthersku
luti
lutin
lutir
lutirnir
lutstatinum
lutstatir
lutstatur
lutstaturin
luttaka
luttakandi
luttakarar
luttakararnir
luttakarum
luttakarunum
luttekur
luttikið
lutto
luttøka
luttøku
lutum
lutur
luturin
lutvi
lutzen
luva
luxembourg
luxemburg
luzern
lv
lva
lvali
lvan
lvandi
lvar
lvara
lvari
lvarslig
lvarsliga
lvarsligum
lvarsom
lvbjargið
lvbjargnir
lvblo
lvboðin
lvdan
lverji
lvesborgs
lvfinala
lvfinaluna
lvfinaluni
lvfinalunum
lvfinalur
lvfinalurnar
lvgum
lvhja
lvi
lvinum
lvir
lvið
lvku
lvleiki
lvleikinum
lvljo
lvlærdur
lvma
lvmaraton
lvmorð
lvoyggin
lvoyggj
lvoyggjar
lvoynna
lvoynni
lvræði
lvs
lvsa
lvsagt
lvsbyns
lvsmynd
lvsson
lvssty
lvsty
lvstøðu
lvstøðug
lvstøðuga
lvstøðugan
lvstøðugar
lvstøðugir
lvstøðugt
lvstøðugum
lvstøðugur
lvt
lvta
lvtan
lvtannað
lvtar
lvthundrað
lvti
lvtin
lvu
lvum
lvuna
lvuni
lvur
lvurin
lvvirkandi
ly
lycksele
lydia
lyfta
lyfti
lyftið
lyga
lygn
lykil
lykilin
lykke
lymnaea
lynch
lyndi
lyndon
lyngby
lyngbye
lyngheiðar
lyngheiðunum
lyngi
lyngjavni
lyngstad
lyngur
lynn
lyon
lyrics
lys
lysir
lysti
lystir
lægdir
lægra
lægri
lægst
lægsta
lægsti
lægstu
lækka
lækkar
lækna
læknafrøði
læknahja
læknar
læknavi
lækni
læknin
læknum
læna
lænti
lær
læra
læran
lærara
lærarafelag
lærarafelags
lærarapro
lærarar
lærarasku
lærari
lærarin
lærarum
lærd
lærda
lærdi
lærdir
lærdo
lærdu
lærdum
lærdur
lærir
lærið
lært
læru
lærugrein
læruni
lærur
lærusveinarnir
lærusveinunum
læs
læsti
læsø
læt
lætnar
lætt
lætta
lættar
lættari
lættin
lættina
lættini
lættir
lættliga
lættur
lættvekt
lættvekts
løb
løbet
løg
løgd
løgdu
løgdust
løgfrøði
løgfrøðiliga
løgfrøðingar
løgfrøðingur
løgin
løgini
løgið
løgm
løgma
løgmann
løgmanni
løgmansbø
løgmansskrivstovan
løgmansskrivstovuni
løgmanssteypið
løgmaður
løgmaðurin
løgmenn
løgregla
løgreglan
løgreglufo
løgreglumaður
løgreglumenn
løgregluna
løgregluni
løgregluøki
løgting
løgtingi
løgtinginum
løgtingið
løgtings
løgtingsformaður
løgtingsformenn
løgtingsins
løgtingskvinna
løgtingslimir
løgtingslimum
løgtingslimur
løgtingslo
løgtingsmaður
løgtingsnevndir
løgtingsval
løgtingsvali
løgtingsvalini
løgtingsvalinum
løgtingsvalið
løgum
løgunum
løgur
løkin
løkið
løkke
løkur
løn
lønandi
lønin
lønirnar
lønnibergi
lønt
løntakarar
løt
løta
løtan
løtt
løtu
løtuni
løva
m
ma
maarten
maastricht
mac
macaroni
macarthur
macbeth
macdonald
machine
machu
mackenzie
macmillan
mad
madagascar
madagaskar
madame
maddie
made
madeira
madeleine
madia
madicken
madison
madonna
madrid
mads
madsen
maduro
mae
maelbeek
maersk
mag
magazine
magdalena
magdeburg
magellan
maggie
maggiore
magic
magica
magical
magiske
magistari
maglia
magma
magn
magna
magnason
magne
magni
magnu
magnus
magnussen
magnusson
mahatma
mahmoud
mai
maia
maias
maiden
maier
main
maine
mainland
mainz
mais
maj
maja
maji
major
maka
makao
make
makedo
makedonia
makin
making
makrel
makreli
makrelur
makt
mal
mala
malaisia
malan
malandi
malari
malaria
malavi
malaysia
malcolm
maldini
maldivoyggjar
maldivurnar
male
maleisia
malena
malhac
mali
malibu
malið
malla
malmo
malmros
malrad
malt
malta
maltatoday
maluna
maluni
malvestiti
mamma
mamman
mammu
mammuna
mammuni
mammur
mamuka
man
management
manager
manaus
manchester
mand
mandalay
mandarin
mandela
mandi
mandy
manga
mangan
mangar
mangastaðni
mange
mangir
mangla
manglandi
mangt
mangul
mangur
manhattan
manifestið
manila
maniok
manitoba
mankell
mann
manna
mannabarn
mannafar
mannafarið
mannafelsdali
mannafor
mannafør
mannaførum
mannagongd
mannagongdir
mannahond
mannajagstrarin
mannali
mannamu
mannamunni
mannarættindabrot
mannarættindado
mannarættindastri
mannarættindayvirly
mannarættindi
mannarættindini
mannarættindum
mannaættin
mannaættina
mannaættini
mannað
mannaðar
mannaðu
mannaður
manndra
mannen
mannerheim
mannfall
mannfjøld
mannfo
mannheim
manni
mannin
manning
manningin
manningini
manninum
mannliga
mannligi
mannligir
mans
mansbarn
mansfo
manskt
manslandsliðið
mansleiki
mansleikur
mansliðið
manson
mansri
manssku
manuel
manx
many
mao
maoriar
map
mapa
mapping
mar
mara
marabo
maradona
marar
mararnir
marathon
maraton
marbella
marc
marcel
marcelo
march
marco
marcos
marcus
mare
margaret
margareta
margarin
margarinefabrik
margit
margot
margreta
margretha
margrethe
margretu
marguerite
mari
maria
mariager
mariagerfjord
mariah
mariana
marianaoyggjar
marianna
marianne
mariannu
marias
maribo
maribor
marie
mariehamn
mariestad
marijuana
marilyn
marin
marina
marine
mariner
marino
mario
marionnu
marit
marita
maritima
maritime
maritu
mariu
mariukirkjan
mariumessa
marius
marjorie
marjun
mark
markaryds
marker
markerað
market
markinum
markirnar
markið
marknað
marknaðarbu
marknaðarføra
marknaðarføring
marknaði
marknaðin
marknaðinum
marknaðir
marknaðum
marknaður
marknaðurin
markra
marks
markus
marlene
marley
marlon
marna
marnar
marner
marnersdo
marni
marnir
marokko
marquesasoyggjar
marquis
marrakech
marriage
married
mars
marseille
marselius
marshall
marshallhja
marshalloyggjar
marsilu
mart
marta
martha
marti
martin
martinique
martins
martinsson
martinus
marts
marty
marunum
marx
mary
maryland
mas
masada
mask
maskinan
maskinmeistari
maskinu
maskinum
maskinur
maskinurnar
mason
mass
massa
massachusetts
massi
mast
master
mastering
masters
masteru
mat
mata
matador
matað
match
mate
mater
matgera
matgerð
mathias
mati
matilda
matin
matinum
matisse
matna
mato
matras
mats
matstova
matstovan
matstovu
matstovum
matstovuni
matstovur
matt
mattarella
mattel
matteo
matter
matterhorn
matteus
matthew
matthews
matthias
matti
mattias
matur
maturin
matvøru
matvøruhandil
matvørur
mau
maud
maupassant
maurice
mauricio
mauritius
maurizio
maverick
max
maxim
maximilien
maximus
maxwell
may
maya
mayafo
mayaindia
mayen
mayer
mayflower
mayhem
mayo
mayor
mayotte
mazinger
maði
maðkar
maður
maðurin
mb
mbf
mbol
mbolið
mborð
mc
mcbirnie
mcbrain
mccain
mccarthy
mccartney
mcclelland
mcconnell
mcdonald
mcgovern
mcgvagg
mckinley
mcqueen
md
mdar
mdarfar
mdarfarinum
mdarfarið
mdarfør
mdarmaður
mdarmaðurin
mdi
mdina
mdini
mdu
mdur
me
mean
means
meat
meath
meazza
mecklenburg
med
medal
medalists
medaljuregn
media
mediawiki
medical
medici
medicine
medieval
medisin
mediterranean
medley
medu
medvedev
meet
meeting
meets
meg
mega
megi
megin
megina
meginfelag
meginland
meginlandapla
meginlandinum
meginlandið
meginlondini
meginpartin
meginpartinum
meginparturin
meginstjo
meginøki
meginøkinum
meginøkið
megna
megnar
megnað
megnaði
megnaðu
mehren
mei
meiari
mein
meina
meinar
meingi
meinhard
meining
meiningin
meinli
meint
meinti
meir
meira
meiri
meiriluta
meirilutan
meiriluti
meirilutin
meirluta
meirlutan
meirlutin
meistaradeildin
meistaradeildir
meistaraheiti
meistaraheitið
meistaraheitum
meistarar
meistaraskapinum
meistaraskapsmet
meistarastevnan
meistarastevnuni
meistaravegurin
meistaraverk
meistari
meistarin
meistarunum
meitil
meiðslaði
mej
mekka
meksikanar
meksikanska
meksikanskur
meksiko
meksikoby
meksikoflo
mel
melanesar
melanesia
melanie
melanocephala
melbourne
meld
melda
meldar
meldað
meldaði
meldið
melduro
melissa
mellan
melleefresh
mellem
melleruds
mellitus
mellouli
melodi
melodifestivalen
melos
melur
members
memo
memorial
memories
memory
memotekið
memphis
men
menachem
mendes
menilaos
menn
menna
mennandi
mennast
menninar
menning
menningarhja
menningarlond
menningarlondini
menningarlondum
menningarlondunum
menningartarni
menningin
menningina
menningini
menninir
mennir
menniskja
menniskjan
menniskjans
menniskjað
menniskju
menniskjum
menniskjuni
menniskjunnar
menniskjur
mennist
ment
mentafo
mentama
mentan
mentanar
mentanararv
mentanaravrik
mentanargrunni
mentanargrunnur
mentanarhu
mentanarli
mentanarlig
mentanarliga
mentanarligt
mentanarligu
mentanarligum
mentanarligur
mentanarma
mentanarna
mentanarnevnd
mentanarnevndini
mentanartiltøk
mentanarvirðisløn
mentanarvirðislønir
mentanin
mentanina
mentanini
mentanir
mentanum
mentar
menti
mentir
mentist
mentor
mentu
mentunargrunni
mentunargrunnur
mentur
menu
menuitemid
mer
mera
mercedes
mercedis
merckx
mercury
mercy
merg
meridian
merit
merkel
merki
merking
merkini
merkinum
merkir
merkis
merkisdagar
merkistein
merkið
merkja
merkjadeildin
merkjum
merkt
merkti
merkur
merle
merlin
mermaid
merry
mertesacker
meryl
mes
mesa
mess
messa
messi
messias
messing
mest
mesta
mestan
mesterskaber
mesti
mestsum
mestu
mestur
met
meta
metal
metaliga
metallica
metalto
metar
metast
metbo
meter
meti
meting
metingar
metingarnar
metingin
metini
metir
metið
metra
metrar
metrarnar
metrisku
metro
metropolitan
metrum
mett
metta
mettar
mette
metti
mettir
mettu
mettur
mettustovu
metum
metur
metusalem
meu
mexico
meyer
mezentios
mezentiosi
með
meðal
meðan
mf
mfru
mfs
mhnt
mi
mia
miami
mice
michael
michala
michel
michelangelo
michele
micheli
michelle
michelsen
michigan
mick
mickey
microbiology
microsoft
middle
middleeast
midjord
midlands
midna
midnight
midt
midtjylland
mie
mier
mig
migration
miguel
mika
mikael
mikal
mike
mikhail
mikil
mikines
mikið
mikkalina
mikkel
mikkelsen
mikkjal
mikkjalsdo
mikkjalsmessu
mikla
mikladali
mikladals
mikladalur
miklan
mikli
miklu
miklum
mikronesia
mikronesiasamveldið
mikudag
mikudagin
mikudegi
mil
milan
milano
mile
miles
miley
miliga
milio
military
miljardir
miljo
milk
mill
millennium
miller
milliard
milliardir
milliardum
millio
million
millionar
millionir
millum
millumbilum
millumlanda
millumtjo
milne
milos
milton
milvus
mimir
min
mina
minaret
minas
mind
minden
mine
minetegneserier
ming
mingar
mingini
minh
minha
mini
minister
ministers
minka
minkandi
minkar
minkað
minkaðar
minkaði
minkaðu
minkaður
minking
minn
minna
minnast
minneapolis
minnesota
minni
minnilig
minniluta
minnilutabo
minnilutama
minnilutar
minnilutastjo
minniluti
minningar
minningardagur
minningarorð
minningarrit
minnir
minnis
minnismentan
minnispla
minnisrit
minnist
minnisvarðan
minnisvarðar
minnisvarði
minnisvarðin
minnið
minogue
minor
minsk
minst
minsta
minsti
minstu
mint
minti
mintist
minum
minus
minutt
minutti
minuttin
minuttir
minuttirnar
minuttum
mio
miquelon
mir
miragoli
miranda
mirbeau
miriam
mirror
mis
misa
misbru
miscellaneous
miseydnaðist
miseydnaðust
misk
miska
miskt
miskum
mismun
mismuni
misny
misnøgd
miss
missa
missio
mission
missir
mississippi
mississippia
misskiljing
missouri
missouria
mist
misti
mistu
mit
mitchell
mitens
mitra
mitsuko
mitt
miu
mix
mixed
mizuki
mið
miða
miðafrika
miðafrikaly
miðal
miðalaldurin
miðaldar
miðalhitin
miðalli
miðalsto
miðamerika
miðasia
miðby
miðdepil
miðdepilin
miðevropa
miðeystri
miðeystur
miðflokkin
miðflokkinum
miðflokkurin
miðil
miðið
miðja
miðjan
miðjari
miðjarðarhav
miðjarðarhavi
miðjarðarhavinum
miðjarðarhavið
miðju
miðjum
miðjuna
miðjuni
miðkring
miðla
miðlafo
miðlahu
miðlar
miðlarnar
miðlarnir
miðlum
miðlunum
miðna
miðskarð
miðskeiðis
miðstovubo
miðstøð
miðva
miðvallaleikarar
miðvallaleikari
miðvi
miðvingur
miðøld
miðøldin
miðøldina
miðøldini
mja
mjin
mjins
mjo
mju
mjølnir
mjørka
mjørki
mk
mkirkja
mkirkjan
mkirkjuna
mkirkjuni
mm
mmr
mn
mningar
mo
moa
moberg
mobil
mobile
moby
moc
mod
model
modell
modellir
modena
moderata
moderaterna
modern
moderna
modernaða
moderne
moe
mogadishu
mogens
mohamed
mohammad
mohammed
mohr
moi
moines
moirae
mol
mold
molde
moldin
moldina
moldini
moldova
molie
moll
molly
molossos
mom
moment
momo
momoiro
mon
mona
monaco
monako
monarki
mondiale
mondovi
mondul
monet
monetta
money
mong
mongd
mongdin
mongdina
mongdir
mongdum
mongolar
mongolia
mongolsku
mongolskum
mongu
mongum
monica
monika
monk
monkey
monmouth
monmouthshire
monnow
monnum
monnunum
mono
monochrome
monpezat
monroe
mons
monster
monsters
mont
montan
montana
montanus
monte
montemagno
montenegro
monteverdi
montgomery
month
montpelier
montpellier
montreal
montserrat
monument
monuments
moon
moonlight
moore
mora
moral
moranis
more
moreno
morgan
morgin
morgni
morgra
morgun
morgunin
moritz
morning
morokko
morricone
morris
morrison
mors
morsi
morskranes
morsnigil
mortan
mortansson
morte
morten
mortensen
mortensens
morti
morð
morðið
morðroynd
mos
mosa
mosambik
moscow
moses
moshi
mosi
moskan
mosku
moskum
moskuni
moskur
moskurnar
moskva
moss
most
mot
motacilla
motala
mother
moti
motion
moto
motor
motorba
motorsu
motzfeldt
mount
mountain
mountains
mourinho
mourits
mouritsen
mouse
mouskouri
mouth
move
movement
movie
movies
moy
moyggjar
mozart
mp
mpeg
mpiri
mpro
mr
mrs
ms
msa
msbo
msbøkur
msdo
msferð
msfjall
msflokkurin
mshu
msins
mskappingin
mskappingini
msku
msl
mslandsliðsleikari
msliðnum
msnevndin
msnevndini
msra
msskaldsøga
mssku
msson
mstad
mstads
msti
msto
msvaldið
msvi
msvinna
msvinnu
mt
mtlands
mtv
mu
muammar
mubarak
much
muckle
muelsbo
mugabe
mugu
muhammad
muhammed
mukherjee
mulder
mulher
mulheres
mullsjo
mum
mumbai
mun
munandi
munar
munch
mundi
mundið
mundo
mundu
muni
municipalities
munin
munir
munkar
munkfors
munkur
munkurin
munn
munna
munnan
munni
munnliga
munnu
munster
munum
munur
munurin
munzinger
mur
murder
murin
murnar
murphy
murray
mus
musculus
muse
museum
musharraf
music
musical
musik
musikksku
muslim
muslimar
muslims
muslimsk
muslimska
muslimskar
muslimskari
muslimski
muslimskir
muslimskt
muslimsku
muslimskum
muslimskur
muslimum
muslimur
mussolini
must
mustafa
mverjar
mverjari
mverjum
mversk
mverska
mverski
mverskir
mverskt
mversku
mverskum
mverskur
mw
my
myanmar
myers
myhre
mykines
mykinesho
mykinesi
mykonos
mylderet
mynd
mynda
myndablaðið
myndabo
myndaevnið
myndafo
myndahøggarar
myndahøggari
myndahøggarin
myndama
myndamaður
myndar
myndarøð
myndasavn
myndato
myndað
myndaði
myndaðu
myndevni
myndin
myndina
myndini
myndir
myndirnar
myndlist
myndlistafo
myndpry
myndugleika
myndugleikar
myndugleikarnar
myndugleikarnir
myndugleiki
myndugleikin
myndugleikum
myndugleikunum
myndum
myndunum
mynstrum
mynstur
mynteind
myntir
myntirnir
myosotis
myra
myrd
myrdur
myrk
myrka
myrkabla
myrkar
myrkari
myrkri
myrkrið
myrkt
myrku
myrkur
myrkursins
myrða
myrður
myself
mysing
myspace
mystery
mælir
mælkeforsyning
mælt
mælti
mæltu
mær
mærsk
mæta
mætari
mætasta
mætastu
mæti
mætir
møblar
møde
møguleika
møguleikan
møguleikar
møguleikarnar
møguleikarnir
møguleiki
møguleikin
møguleikum
møgulig
møguliga
møguligar
møguligt
møguligum
mølini
møller
møn
møre
mørk
mørkini
mørkøre
mørkøv
mørland
møta
møtast
møti
møtir
møtið
møtt
møtti
møttu
møttust
møði
n
na
naa
naband
nabandið
nabandslo
nabb
nabond
nach
nacional
nacka
nadag
nadagin
naddoddur
nadegi
nadja
nafo
nagasaki
nagerði
nagoya
nagras
naguib
nairobi
nakar
nakað
naked
nakin
nakjøt
nakkan
nakkanum
nakra
nakran
nakranti
nakrar
nakrari
nakrir
naksos
nalag
nalagi
nalig
naliga
naligt
naligu
naligum
naly
nam
nama
name
named
namerika
names
namibia
namo
nan
nana
nancy
nandi
nanna
nansen
nanum
napalm
napole
napoleon
napoleonskri
napoli
napolitano
nar
nara
narantal
narar
nararnir
narband
narhorn
nari
naringra
narkotika
narlag
narmið
narmiðum
narnar
narnir
narva
narvingin
nas
nasa
nasaret
nascimento
naser
nash
nashville
nashyrningur
nasi
naska
naskald
naskaldið
naskilnað
naskøld
naskøldunum
nasmiðir
nasmiður
nasmiðurin
nassau
nasser
nast
nat
natal
natalie
natasha
nation
national
nationale
nationalism
nationalt
nations
native
nato
natt
natten
nattestad
natu
natural
nature
natwest
natwestiowresults
natwestislandgames
nauru
naval
navi
navigatio
navn
navnabroyting
navnauppruni
navnframa
navngivin
navni
navninum
navnið
navnorð
naxos
nazi
nað
naða
naðar
naðarfelagið
naðarfo
naðargrein
naðarjørð
naðarland
naðarlendi
naðarlig
naðarliga
naðarligar
naðarligir
naðarligt
naðarligu
naðarligum
naðarligur
naðarlønir
naðarma
naðarra
naðarskiftið
naðarvørum
naðarvørur
naði
naðin
naðinum
naðir
naðirnar
naðirnir
naðu
naðum
naðunum
naður
naðurin
nb
nband
nbandalag
nbcnews
nber
nbjørt
nbond
nbrot
nchen
nchengladbach
ncia
nd
nda
ndagørðum
ndahu
ndan
ndans
ndanum
ndar
ndarson
ndarvi
ndel
nder
ndheimi
ndi
ndige
ndin
ndir
ndist
ndo
ndringar
ndu
ndum
ndunum
ndur
ndy
ne
near
neata
nebbasild
nebelong
nebraska
ned
nederlandse
need
needs
negativ
negativt
negro
nei
neil
neistanum
neistin
nej
nel
nell
nelly
nelson
nema
nen
neo
neon
neoptolumos
neoptolumosi
nepal
nephew
neptun
nero
nersborg
nersborgs
nerta
nervous
nes
nesi
nesinum
nesið
ness
nesvi
net
netanya
netanyahu
netflix
netherlands
netinum
netið
netvarp
netverk
netværk
network
networks
neue
neumann
neutron
neutronin
neutronir
nev
nevada
nevaleikari
neve
never
nevi
neville
nevinum
nevis
nevið
nevna
nevnast
nevnd
nevnda
nevndar
nevndarformaður
nevndarlimir
nevndarlimur
nevndarsessir
nevndi
nevndin
nevndina
nevndini
nevndir
nevndirnar
nevndist
nevndu
nevndum
nevndur
nevniliga
nevnir
nevnist
nevnt
new
newark
newcastle
newman
newport
news
newsid
newsletter
newton
next
ney
neyst
neystabø
neystini
neyt
neytahald
neytahaldi
neytahaldið
neytakjøt
neytini
neytum
neyv
neyvan
neyvari
neyvt
neyð
neyðars
neyðhja
neyðini
neyðsynjarvørur
neyðtikið
neyðto
neyðtøku
neyðtøkur
neyðug
neyðuga
neyðugar
neyðugt
neyðugu
nez
neðra
nfc
nfinn
nfl
ng
nga
ngd
nge
ngel
ngen
nger
ngerð
ngna
ngo
ngs
ngstrump
ngvakeppni
nh
nha
nhild
ni
nia
niagara
niagaraa
niagarafossar
niagarafossur
nial
nice
nicholas
nicholson
nick
nicki
nicko
nicky
niclas
niclasen
nico
nicola
nicolai
nicolaj
nicolas
nicole
nicolina
niedersachsen
niel
niels
nielsen
nietzsche
nieuw
nieuws
nieuwsblad
nig
nigel
niger
nigera
nigeria
nigerianskur
night
nightmare
nights
nikab
nikaragua
nike
niki
nikita
nikki
nikla
niklas
niklasarmessa
niklasarmessu
niklasi
nikola
nikolai
nikolaj
nikolaos
nikolaus
nikos
nikosia
nikubo
nil
nila
nils
nilssen
nilsson
nimr
nin
nina
nine
ning
ningar
ningarnar
ningin
ningina
ningini
ningum
nini
ninja
ninna
nintendo
ninum
nio
nior
niorð
niqab
nir
nirnar
nirvana
nishiwaki
niska
nissan
nist
niue
nixon
nið
niðagri
niðan
niðanfyri
niðara
niðari
niðaru
niðast
niðastu
niðrandi
niðri
niðriundir
niður
niðurbro
niðureftir
niðurflytarar
niðurfyri
niðurlag
niðurlagdur
niðurlagið
niðurlagt
niðurlendingar
niðurlendsk
niðurlendska
niðurlendskar
niðurlendskir
niðurlendskt
niðurlendsku
niðurlendskum
niðurlendskur
niðurlond
niðurlondini
niðurlondum
niðurløgd
niðursetubygd
niðursetubygdin
niðursetufo
niðursetumenn
niðursetumenninir
niðurstøðan
niðurstøðu
niðurtikin
nj
njal
njm
njo
nk
nko
nkrumah
nl
nland
nleif
nleik
nleika
nleikaa
nleikabo
nleikafestivalum
nleikaframleiðarar
nleikaframleiðari
nleikaheiður
nleikai
nleikakapping
nleikakappingar
nleikakappingina
nleikakappingini
nleikali
nleikanøvn
nleikara
nleikarafelag
nleikarahu
nleikarakvinna
nleikaran
nleikaranum
nleikarar
nleikararnar
nleikarasku
nleikarfelag
nleikarhu
nleikari
nleikarin
nleikarinna
nleikarinnan
nleikarinnuna
nleikarinnuni
nleikarum
nleikarunum
nleikasløg
nleikasti
nleikatiltak
nleikau
nleikaverk
nleikavideo
nleikavirðisløn
nleiki
nleikin
nleikinum
nleikir
nleikum
nleikur
nleikurin
nlig
nliga
nligar
nligt
nligu
nligum
nligur
nlist
nm
nmu
nn
nna
nneberga
nner
nni
no
noah
noamerikanarar
nobel
nobelpri
nobelprize
nobels
nobelvirðislønin
nobelvirðislønina
nocchi
noe
noget
noi
noid
nok
nokfo
nokia
nokk
nokmentanin
noktandi
noktar
noktað
noktaði
noktaðu
nol
nolsøe
nomin
nominerað
nomineraður
nomið
non
noonie
noord
nor
nora
nord
nordahl
norden
nordic
nordik
nordische
nordisk
nordiske
nordjylland
nordjyllands
nordland
nordlysid
nordre
nordrhein
noreg
noregi
noregis
noregs
norgay
norge
norges
norma
normal
norman
normandi
normandie
norn
norra
norrbottens
norrko
norro
norrta
norrøn
norrøna
norrønari
norrønt
norrønu
norrønum
norsjo
norsk
norska
norskahavið
norskar
norskari
norske
norski
norskir
norskt
norsku
norskum
norskur
north
northern
northwest
norton
norway
norwegian
norwich
norð
norðagøtu
norðan
norðanfjørðs
norðanfyri
norðanlondum
norðanmenninir
norðantil
norðara
norðari
norðarlaga
norðaru
norðast
norðasta
norðasti
norðastu
norðberg
norðbergseiði
norðbergseiðinum
norðborg
norðbu
norðdepil
norðdepils
norðdepli
norði
norðly
norðmaður
norðmaðurin
norðmenn
norðmonnum
norðoy
norðoya
norðoyar
norðoyastevna
norðoyastevnu
norðoyatunnilin
norðoyggjar
norðoyggjum
norðoyri
norðpo
norðradalur
norðragøta
norðragøtu
norðri
norðsjo
norðska
norðstreymoy
norðstreymoyar
norðtoftir
norðtoftum
norður
norðurafrika
norðuramerika
norðuramerikanska
norðuratlantshavi
norðuratlantshavinum
norðuratlantshavið
norðurbreidd
norðurcarolina
norðurdakota
norðureftir
norðurevropa
norðurfri
norðurhøvum
norðuri
norðurindia
norðuritalia
norðurju
norðurkalifornia
norðurkorea
norðurlanda
norðurlandahu
norðurlandakapping
norðurlandama
norðurlandara
norðurlendsk
norðurlendska
norðurlendskar
norðurlendskari
norðurlendskt
norðurlendsku
norðurlendskum
norðurlond
norðurlondini
norðurlondum
norðurlondunum
norðurmarianoyggjar
norðurnigeria
norðurnoregi
norðuroyggjar
norðuroyggjum
norðurpo
norðursa
norðursi
norðurstreymoy
norðurstreymoyar
norðurstrondini
norðurty
nos
nostra
nostradamus
nostrum
not
note
notes
nothing
nothofagus
notodden
notre
nottingham
notur
nou
nouveau
nov
nova
noveller
november
novembur
novgorod
novn
novo
now
noy
noyar
noydd
noyddi
noyddir
noyddist
noyddu
noyddur
noyddust
noytt
noyða
noyðast
noyðist
npocket
nprins
nprinsessa
nprinsessu
nprinsi
nprinsur
nps
nr
nra
nri
nrk
ns
nsdjo
nsdo
nsdy
nsdystur
nsfilmar
nsfilmur
nsgjo
nshu
nsi
nsk
nska
nskappingin
nskt
nsku
nskum
nskur
nsmenn
nsmonnum
nsra
nsson
nster
nstera
nt
nteljingin
ntur
nu
null
num
numar
number
numbers
numitor
numitori
nummar
nummarið
numre
nuna
nunavut
nungin
nuni
nunum
nuovo
nur
nurin
nurnar
nus
nuuk
nv
nvarp
nvarpi
nvarpinum
nvarpið
nvarps
nvarpsfilmum
nvarpsins
nvarpsmaður
nvarpsra
nvarpsrøð
nvarpsrøðin
nvarpsrøðina
nvarpsrøðini
nvarpsrøðir
nvarpsrøðum
nvarpsrøðunum
nvarpssending
nvarpssendingar
nvarpssendingini
nvarpsstøðini
nvarpsvertir
nvarpsvertur
ny
nya
nybo
nybro
nye
nygaard
nyheder
nyhederne
nyheter
nyholm
nyko
nykøbing
nyna
nyrup
nysted
nystrøm
nytimes
nytta
nyttu
nyttur
nz
næla
næmingar
næmingarnir
næmingum
næmingunum
næmingur
nær
nærhendis
nærindis
nærkast
nærkaðist
nærkaðust
nærmast
nærmasta
nærmasti
nærmastu
nærri
nærum
næs
næss
næst
næsta
næstan
næstbest
næstbesta
næstbesti
næstbestu
næstelsta
næstelsti
næstflest
næstforkvinna
næstformaður
næsthægsta
næsti
næstmest
næstniðast
næstovastu
næstskjo
næststørsta
næststørsti
næststørstu
næstu
næstur
næstvanligasta
nætur
næturnar
nøgd
nøgdin
nøgdir
nøgdum
nøgdur
nøkrum
nøkta
nøktandi
nøkulunda
nøkur
nørast
nørgaard
nøring
nørre
nørresundby
nøtir
nøvn
nøvnini
nøvnum
nøvnunum
o
oak
oakland
oaks
ob
obama
obi
oblast
obp
oc
ocean
oceania
oceanica
och
ockelbo
oclc
oct
octave
october
od
oda
odd
odda
oddamaður
oddamaðurin
oddamenn
oddamonnunum
oddfri
oddmar
oddvør
odense
oder
odessa
odyssevs
oecd
oen
oenanthe
of
off
offenburg
offences
offer
office
officer
official
officielle
offshore
offur
offurmorðið
ofra
ofrað
ofraði
ofta
oftani
oftari
oftast
og
ogg
ogn
ogna
ognarfelag
ognarrættin
ognarvi
ognað
ognaði
ognina
ognir
ognum
ogsa
oh
ohio
ohioa
oil
ois
oise
ok
okkara
okkum
okkun
okkurt
oklahoma
okres
okt
oktavia
oktober
oktobur
ol
ola
olaf
olathe
olav
olavsson
old
oldenburg
ole
oleander
oleg
olga
olgar
oli
oliveira
oliver
olivia
olivier
olivur
olja
oljan
olju
oljuda
oljufelag
oljufeløg
oljui
oljukeldur
oljuland
oljuma
oljuni
oljupri
oljureinsiverk
oljuri
oljuu
oljuvinna
oljuvinnan
oljuvinnu
oljuvinnuni
olle
olof
olofstro
olov
olsen
olshana
olsson
olsvig
oluf
olympia
olympiadan
olympiakos
olympic
olympisk
olympiska
olympiskir
olympiskt
olympisku
om
omaha
oman
omana
omanaftur
omaneftir
omanfyri
omanlop
omanstoyttir
omanyvir
omar
omegatiming
omkring
omloop
omma
omman
ommu
on
once
onda
onde
one
onepage
onga
ongan
onganti
ongar
ongari
ongastaðni
ongi
ongin
ongland
onglandi
onglands
onglendingar
ongum
oniontree
oniscus
onki
onkra
onkran
onkrar
onkrari
onkrum
onkunti
onkur
onkursvegna
onkustaðni
online
only
onnu
onnur
ono
ont
ontario
ontariovatn
op
opbyggelige
open
opening
opera
operaen
operahu
operasangari
operasangarinna
operasongkvinna
operation
operuna
opin
opinbering
opinion
opium
opið
opna
opnan
opnar
opnað
opnaði
opnu
opnum
opp
oppland
oprindelse
opus
or
orange
orangutang
orania
oranjestad
orbis
orchestra
ord
ordbog
order
ordiliga
ordning
ore
oregon
orestis
org
organisation
organistur
organization
organizations
orgul
orica
oricon
orientation
orientering
original
originaltittel
orka
orkan
orkaði
orkestri
orkestrinum
orkestrið
orkestrum
orkestur
orkesturleiðari
orkney
orknoyar
orknoyggjar
orknoyggjum
orknoyum
orku
orkukelda
orkukeldur
orkuma
orkuna
orkuni
orkuny
orlando
orleans
orm
ormar
ormin
orminum
ormur
ormurin
oro
orrustan
orsaka
orsakað
orsøk
orsøkin
orsøkina
orsøkir
orsøkirnar
orsøkum
orsøkunum
ort
orter
ortodoks
ortodoksa
ortodoksu
orust
orð
orða
orðabo
orðabøkur
orðafelli
orðaflokkar
orðaskifti
orðað
orði
orðingum
orðini
orðinum
orðið
orðtøk
orðtøkini
orðum
orðunum
os
osama
osasco
osby
oscar
oscars
oseania
osfr
osiania
oskar
oskarsson
oslo
osm
osmannari
osmanska
oss
ossetiskt
ost
osteen
osti
osvald
othello
other
others
otis
otranto
otta
ottarsdo
ottawa
ottesen
otto
ottomanska
otus
ou
ougaard
our
oussama
out
outside
outstanding
outta
ov
ova
ovana
ovara
ovari
ovarlaga
ovaru
ovast
ovasta
ovasti
ovastu
ovce
ove
over
overall
overland
oversættelse
ovurfiti
ovurhonds
ovursto
owen
own
oxford
oxfordshire
oxidatio
oxygen
oxynios
oyggin
oyggj
oyggjabo
oyggjabu
oyggjaland
oyggjalandið
oyggjaleikamet
oyggjaleikanevndin
oyggjaleikanna
oyggjaleikasambandið
oyggjaleikir
oyggjaleikirnar
oyggjaleikirnir
oyggjaleikum
oyggjaleikunum
oyggjalond
oyggjar
oyggjari
oyggjarnar
oyggjati
oyggjatidindi
oyggjum
oyggjunum
oyndarfirði
oyndarfjarðar
oyndarfjørður
oynna
oynni
oyra
oyrar
oyrarbakka
oyrarbakki
oyrareingir
oyrarnar
oyri
oyru
oyrum
oyruni
oyrunum
oyða
oyði
oyðilagdir
oyðilagdur
oyðilagt
oyðileggja
oyðileggjast
oyðileggur
oyðilegði
oyðiløgd
oyðimerkur
oyðimerkurnar
oyðimørk
oyðimørkin
oyðimørkina
oyðimørkini
oyðimørkum
oyðin
oz
p
pa
paa
paavo
pablo
pacific
pack
paddur
paddy
padi
padre
page
pageid
pages
pagewanted
pahlavi
pai
paine
pair
paixa
pajala
pakistan
pakistanska
pakistanskur
pakka
pakkhu
pakonan
palace
palais
palatinheyg
palau
palazzo
palestina
palestinar
palestinskt
palestinsku
palestinum
palgrave
palin
pall
palla
pallas
palle
palli
pallin
pallinum
pallmynd
palm
palme
palmer
palms
paltrinieri
paltrow
palustris
pam
pame
pamela
pan
panama
panathinaikos
pandi
pandora
panduro
panel
panini
panorama
panoramio
panthera
panum
paolo
papa
papandreou
paper
paperback
papers
papoulias
pappageykar
pappi
papua
par
para
paradi
paradise
paradiso
paraguei
parai
paralympic
paralympisku
parameter
parameters
parana
pardo
pari
paris
parish
parið
park
parker
parkin
parkini
parkir
parks
parlag
parlagi
parlamentinum
parlamentið
parlamentsval
parliament
parma
parnir
paros
part
partabrøv
partafelag
partafelagið
partafelagslo
partafeløg
partapeningin
partar
partarnar
partarnir
parti
partiet
partille
partin
partinum
partito
partners
parton
parts
partti
partur
parturin
partvi
party
parva
pas
pascal
paso
pasok
pass
passa
passar
passaði
passer
passeriformes
passion
past
pasta
pasteur
pat
patagonia
patali
patent
paterson
patmos
patri
patrick
patsy
patursson
paul
paula
pauli
paulista
paulivar
paulo
paulus
paulusar
pausu
pavarotti
pavel
paxton
paz
paði
paðu
pbs
pd
pdf
pdra
pe
peace
peak
pearl
peary
pecado
pedagogfelag
peder
pedersen
pedra
pedro
peer
pegasus
peika
peking
pelagic
pele
pelle
pellegrini
peloponnes
pen
penalty
pengar
pengarnar
pengarnir
pengaseðlar
penge
penguin
penguins
pengum
penicillin
penicillinið
pening
peningaliga
peningarøkil
peningaseðlar
peningastovnar
peningastovnur
peningi
peningin
peningur
peningurin
peninsula
penn
pennsylvania
penrose
pensioneraður
pensjo
pentagon
penthouse
people
pepe
pepper
peppers
per
perc
percussion
percy
peregra
pereira
perfect
performance
perfume
pergamon
pergamos
peri
period
perlan
perluni
perlur
pernille
perry
pers
persaflo
persar
persia
persiska
persiskt
persiskum
perso
person
personal
persons
persson
perstorps
perth
pertti
peru
pervez
pesaro
peshawar
pest
pet
pete
peter
petersen
petit
petra
petrel
petri
petroleum
petros
petterson
petti
petur
peturi
pf
pfalz
pfeiffer
pforzheim
pg
ph
phantom
pharmaceutical
phd
phe
phelps
phenol
phil
philadelphia
philbrow
philip
philipp
philippe
philippines
philips
phillips
philology
phoenix
photo
php
phuket
phylloscopus
physics
pi
pia
piacenza
piaf
pianistur
piano
pica
picard
picasso
picchu
pico
picture
pictures
pid
piddarnir
piddi
pie
piece
pieces
piemonte
pier
pierce
piero
pierre
piet
pieta
pieten
pieter
pige
pilatus
pilgrim
pilot
pilsnar
pim
pin
pine
ping
pings
pini
pink
pinocchio
pinochet
pinum
pinyin
pipar
pippi
pir
pirates
pireus
pirikum
pirma
pisa
pisan
pisto
pitcairn
pitea
pitt
pittsburgh
pixar
pizzetti
pið
pjotr
pk
pl
pla
place
places
plaga
plagar
plagdi
plagdu
plaggið
plains
plan
planck
planet
plant
planta
plantan
plantað
plantu
plantua
plantufrøði
plantufrøðingur
plantuli
plantum
plantuni
plantur
plantusløg
plasering
plata
platform
platin
platini
platinum
platon
platons
play
playboy
played
player
players
playstation
plaza
please
plo
plotarea
plotdata
plu
plug
plummer
plus
pluss
pluto
plymouth
pløga
pløyen
pm
pmi
pn
pnahvi
pnað
pnaða
pnaðir
pnaðu
pnaðum
png
pnini
pninum
pnið
pnum
po
pocahontas
podiceps
podicipediformes
poe
poems
poesi
poetry
point
points
pokalen
poke
pokur
pol
poland
polanski
polaris
police
policy
polit
politi
political
politics
politiið
politik
politikaran
politikarar
politikari
politikarin
politiken
politikens
politikk
politikkari
politikki
politikkin
politikkinum
politikkur
politikkurin
politima
politinum
politisk
politiska
politiskan
politiskar
politiskari
politiski
politiskir
politiskt
politisku
politiskum
politiskur
politkovskaya
polk
poll
pollapo
pollinum
pollock
pologne
polskur
poltava
polygala
polynesar
polynesia
pommern
pond
pooh
pool
pop
pope
popov
popp
poppbo
popplist
poppto
poppur
population
por
porcellio
porkeri
porkeris
poros
port
porta
portal
portalinum
portalurin
porte
porter
portland
porto
portrait
portrett
portrið
portugal
portugisar
portugisiska
portugisiskir
portugisiskt
portugisisku
portugisiskum
portugisiskur
portugisum
portuguesa
portur
portvi
porzana
posidon
positiv
positiva
positivari
post
posta
postali
posten
posthu
posthumt
posti
postkort
postmaðurin
postnord
postul
postur
posturin
postverk
postverkinum
postverkið
pot
potentilla
potsdam
pottar
potter
pottur
poul
poula
poulina
poulsen
powell
power
powerlifting
powers
powerslave
poznan
pp
pr
pra
practice
prag
pranab
pratensis
prayer
pre
preben
prefiks
preliminary
preliminerpro
premier
premierleague
prent
prentari
prentað
prentaðar
prentingar
prerian
preriuu
pres
presbyterian
present
presents
president
presidente
presidential
presley
press
pressemeddelelse
prest
prestagarðinum
prestagarður
prestagarðurin
prestagjald
prestagjaldi
prestagjøld
prestar
prestarnir
presti
prestin
prestinum
preston
prestum
prestunum
prestur
presturin
prestvi
pretoria
pretty
preussen
pri
priamos
priamosar
priamosi
price
pride
priest
prikkum
prime
primera
prince
princess
princeton
princip
principal
prins
prinsar
prinsessa
prinsesse
prinsessu
prinsi
prinsipi
prinsur
prinsurin
priotar
pris
prisen
prison
prisoner
privat
privata
privatar
private
privatli
privatsku
privatu
privatum
prix
prize
pro
problem
procellariiformes
procyclingstats
prod
prodju
prodromos
producer
production
productions
produserað
prof
professara
professarar
professari
professional
professionel
professionella
professionellum
professionellur
professionelt
professor
profetur
profeturin
profile
profilur
program
programa
programme
progressive
proibido
project
prokas
promenade
property
prophet
proposal
proposed
pros
prosa
prosayrkingar
prosent
prosentstig
prosentum
proteam
protein
proteinir
proteinum
protestantar
proto
proton
protonir
protour
proust
provence
providence
province
provinces
provincia
pru
prunella
prusslandi
pry
prædika
prædikarin
prædikumaður
prædikusto
ps
pseudovi
psg
psittacina
psmaður
psmenn
pst
psv
psykosudrotningin
pt
pti
ptir
ptu
ptur
pu
pub
public
publication
publications
publique
publishers
publishing
pubs
pueblo
puebloindia
puerto
pulitzer
pulverheksa
pum
pumpa
pumynd
pumyndina
pund
pungdy
puni
punjab
punk
punkt
punktið
punkto
punktum
pur
pure
purin
purisma
purkhu
pusilla
pusillus
pusjkin
pussy
put
puta
putin
putur
px
py
pylsur
pyrrhula
pyrros
pyssling
pætur
pæturi
pæturs
pætursborg
pætursson
pør
pørtum
pørtunum
pørum
q
qaeda
qatar
qeqqata
qikiqtaaluk
qin
qing
qinghai
qr
qualifying
quatro
quayle
que
quebec
queen
queens
queensland
quercus
quest
qui
quiet
quincy
quinn
quintana
quiz
quo
qz
r
ra
raba
rabat
rabo
rabretland
rabretlandi
race
racerunning
rachel
racing
raddaleikarar
raddaleikari
raddarleikari
radikala
radikale
radio
radiohead
radix
rado
rae
rafael
raferðin
rafn
rafns
rafrøði
rafrøðingur
rag
ragnar
ragnarsson
ragnhild
ragnvaldur
rags
ragørðum
rai
rain
rainbow
raindrops
rainer
rainha
raise
rak
raka
rakar
rakel
raketta
rakettir
rakk
rakri
rakstrinum
raksturin
rakt
rakti
raktir
raktu
raktur
rakul
raleigh
rali
ralph
ralæknar
ralæra
ram
rama
rame
rammatik
ramos
ramsey
ran
rana
rand
rande
randers
randi
random
randy
range
rani
ranking
rankings
rann
rannso
rannva
ranum
ranunculus
rap
rapa
rapaði
rape
raphael
rapid
rapids
rapparar
rappari
rapport
rar
rara
rarar
rari
rarin
rarnar
rarnir
ras
rasarakoyrari
rasessin
rashid
rask
raskin
raslag
rasløg
rasmus
rasmusi
rasmussen
rason
rast
rasta
rastovu
rastu
rasu
rasuskilnaður
rat
rate
rateyourmusic
rathaus
rati
ratings
ratu
rau
raul
raven
ravi
ravmagn
ravn
ravnar
ravnsfjall
ravnur
ravnurin
raw
ray
raymond
raynor
razzia
rað
raðfylgjan
raðfylgju
raðfylgjuni
raði
raðu
rbd
rbjørn
rbo
rby
rbyla
rbøndur
rck
rd
rda
rdar
rden
rdens
rdi
rdir
rdo
rdra
rdu
rdum
rdur
re
rea
reagan
reaktio
real
reali
realin
realinum
reality
realkreditinstitut
really
realpro
realsku
realurin
reassembling
reassigned
rebecca
rebekka
rebel
reboda
rebro
record
recording
recordings
records
red
redaktio
redaktørur
rede
redmayne
reed
reeves
ref
referansur
reference
reform
reformation
regatta
regentar
regentur
regeringen
regeringer
reggae
reggaeto
regin
regina
regio
region
regionalar
regions
regjeringen
reglu
reglugerð
reglulig
regluliga
regluligar
regluligt
regluligum
reglum
reglunum
reglur
reglurnar
regn
regna
regnar
regni
regnið
regnsko
regnti
regulus
rei
reich
reid
reign
reikar
reilly
reimund
rein
reina
reinan
reindjo
reindy
reiner
reinert
reinfeldt
reinføri
reinsa
reinsari
reinsað
reinsdjo
reint
reinum
reinur
reis
reisa
reise
reist
reistar
reisti
reistrup
reistu
reistur
reisur
reið
reiðan
reiðar
reiðarar
reiðari
reiðiliga
reiðrast
reiðrinum
reiðrið
reiður
rejse
reka
rekamaðurin
rekandi
reki
rekord
rektari
rekur
relatio
relay
release
releases
religio
religion
religious
rembrandt
remee
remember
remi
remis
remix
remixed
remmel
remus
ren
renaissance
rendi
rendu
rendur
rene
renessansan
renna
rennandi
rennarar
rennari
rennes
renning
rennur
rent
renta
renzi
repechage
repli
report
reppið
represent
representatives
repu
repubblica
republic
republika
republikanarar
republikanararnar
republikanararnir
republikanari
republikanarunum
republikanska
republikanski
republikkini
request
required
rer
res
rescuers
research
reserata
reservations
reserve
reserved
resident
restin
restina
restini
restorff
restorffs
resultater
results
ret
retoromanskt
retrieved
rets
returdystirnir
return
returns
reu
reumert
reunion
reus
reuters
reveals
revenge
review
revni
revolution
revolver
revsa
revsast
revsað
revsaði
revsaður
revsilo
revsima
revsing
revsingin
revsivert
revur
revy
rex
rey
reykjavi
reykjavik
reynatu
reynheim
reyni
reynolds
reypa
reysti
reytt
reyð
reyða
reyðahavið
reyðan
reyðar
reyðbru
reyði
reyðir
reyðu
reyðum
reyður
reyðvi
rez
reza
rfagra
rfagri
rfingna
rfu
rg
rga
rgarð
rgb
rgelanda
rgen
rhagaso
rhamn
rhapsody
rhead
rheinland
rheitsti
rhending
rhode
rhodes
rhodesresults
rhodos
rhus
rhymes
rhythm
ri
ria
riabu
rias
ribe
ric
rica
ricardo
riccardo
rice
rich
richard
richards
richardson
richmond
richter
richterstiganum
rick
rickman
ricky
rico
riddara
riddari
riddarin
ride
rider
ridge
riding
rie
riebnitzsky
riel
rifbjerg
rifbjergs
rig
riga
riget
rigg
right
rights
rigmor
rihanna
riis
rijeka
rik
rika
rikard
riket
rikin
rikið
riknir
riko
riksdagen
rimaður
rin
rinda
rindar
rindaði
ring
ringa
ringanna
ringar
ringari
ringast
ringasta
ringastu
ringdi
ringen
ringin
ringir
ringja
ringkjøbing
ringkøbing
ringo
ringra
rings
ringt
ringum
ringunum
ringur
rini
rinið
rinkeby
rinum
rio
riot
rir
ris
risa
risasto
rises
risfl
risflokkin
risflokkinum
risflokkurin
risfloksins
risfo
risformaður
risin
rising
risins
risk
riska
risku
riskum
riskur
riskvinna
riskvinnu
rislimur
rislo
risma
rismann
rismannin
rismanninum
rismaður
rismaðurin
rismenn
rismenninar
risni
risskipan
risskipanarlo
risskipanin
risskipanini
ristingar
rit
rita
ritan
ritania
ritbu
ritchie
ritgerð
ritgerðir
rithovundur
rithøvundafelag
rithøvundan
rithøvundanum
rithøvundar
rithøvundi
rithøvundin
rithøvundinum
rithøvundum
rithøvundunum
rithøvundur
rithøvundurin
riti
ritius
rito
ritstj
ritstjo
rituvi
ritverk
rium
river
rivera
rivers
rivinum
rivið
rivum
rivur
riwal
rið
riðlar
riðli
riðlinum
riðlum
riðlunum
riðu
rj
rja
rjavndøgur
rjedalen
rjedalens
rjestads
rjum
rk
rkelljunga
rkonsert
rla
rlag
rland
rlandi
rlands
rlden
rleiðarar
rleiðari
rlendi
rlig
rliga
rligan
rligar
rligi
rligt
rligu
rligum
rmeistaraheitið
rmeistari
rmland
rmlands
rms
rn
rna
rnafirði
rnafjarðar
rnafjørð
rnafjørður
rnamo
rnar
rnarbygningar
rnarleiðarar
rnarleiðari
rnarlimir
rnarlimur
rnarskipan
rnarskipanin
rnarskipanini
rnarti
rnaruppskotið
rnarvaldið
rnason
rnað
rnaði
rnaður
rnby
rnet
rni
rnin
rnina
rnini
rnir
rnirnar
rnma
rno
rnqvist
rnsko
rnsson
rnum
rnunum
ro
road
roald
rob
robben
robbie
robert
roberta
roberto
roberts
robertsfors
robespierre
robin
robinson
robo
robocon
robot
rock
rockabilly
rockall
rockefeller
rockto
rocky
rod
roddur
rodgers
rodmundur
rodos
rodrarfelag
rodri
roe
rogaland
rogalandi
roger
rogers
rogn
rognkelsi
rok
rokk
rokkbo
rokki
rokksangari
rokkto
rokna
roknar
roknast
roknað
roknaðar
roknaði
roknaðir
roknaður
rokning
roland
role
rolf
roll
rolling
rom
roma
romafo
roman
romance
romandie
romania
romanskt
romantic
romantikkini
romantiska
rome
romm
romney
romsdal
romulus
romulusar
romulusi
ron
rona
ronald
ronaldo
ronaldsay
rond
roning
ronja
ronneby
ronner
ronnie
room
rooney
roosevelt
roots
ros
rosa
rose
rosendahl
roses
rosing
roskilde
ross
rossabaki
rossi
rossini
rossið
rossum
rothenberger
rotta
rottan
rotterdam
rottur
rouault
roubaix
rouch
rouen
rouge
round
route
rovfuglar
row
rowan
rowboat
rowing
rowling
roxette
roy
roya
royal
royar
royking
roykja
roykt
royktu
roykur
royn
royna
roynast
roynd
royndi
royndin
royndina
royndini
royndir
royndirnar
royndu
royndum
roynir
roynt
roysni
roysningur
roðar
rquez
rr
rritu
rs
rsaftan
rsangur
rsbreyt
rsbygd
rsbygdir
rsbyrjan
rsdag
rsdagur
rsf
rsfjo
rsfra
rsgøtu
rsh
rshavn
rshavnar
rsigur
rsins
rsk
rska
rskarandi
rski
rskir
rskt
rsku
rskum
rskur
rsligna
rslignu
rslit
rslitini
rslitið
rslitum
rslitunum
rslok
rso
rsskiftið
rsson
rsssf
rst
rsta
rstadømi
rstadøminum
rstal
rstein
rsti
rsvi
rsvølli
rsvøllur
rt
rta
rtan
rti
rting
rtingi
rtinginum
rtingið
rtingslimir
rtjo
rttemberg
rtu
rtz
rtøkan
rtøku
ru
rua
ruanda
rubber
rubek
rubeksen
ruby
rudda
ruddað
rudolf
rudolph
rudyard
rue
rufrøðingur
rug
rugby
rugripasavn
rugripasavnið
rukku
ruku
rules
ruligar
rulla
rum
rumenia
rumenska
rumenskt
rumenskur
rumex
run
runa
runar
runavi
rund
runda
rundan
rundanum
rundar
rundt
rundu
rundum
rune
runeberg
runi
runn
runnar
runni
runnið
runnu
runnum
runnur
runt
runum
rupert
rur
ruri
rurik
rurin
rurnar
rush
rushdie
russ
russar
russel
russell
russia
russian
russisk
russiska
russiskar
russiski
russiskir
russiskt
russisku
russiskum
russiskur
russland
russlandi
russlands
rust
rustica
rustovu
rutan
rutarbo
ruth
rutherford
rutilfeingi
rutilfeingið
rutt
rutur
ruvakurt
ruvanlukkum
ruvanlukkur
ruvernd
ruvi
ruvøtn
ruðuleikanum
ruøki
rv
rval
rvaldir
rvali
rvegis
rveldi
rveldini
rverk
rwanda
ry
ryan
rybak
ryberg
rygg
ryggfjøður
ryggi
ryggin
rygginum
ryggir
ryggjum
ryggshamar
ryggsvimjing
ryggur
rygsvømning
rykti
ryskivatn
rytter
ræ
ræddur
ræddust
rækjur
ræna
rænarar
rænarum
rændu
rændur
rænt
ræst
rætt
rætta
rættan
rættar
rættara
rættargjo
rættargongd
rættarhja
rættari
rættarma
rættarnevnd
rættarnevndini
rættarreglur
rætti
rættilig
rættiliga
rættiligt
rættin
rættindi
rættindini
rættindum
rættindunum
rætting
rættingar
rættinum
rættir
rættis
rættskriving
rættuliga
rættur
rætturin
rættvi
ræða
ræðandi
ræðast
ræði
ræðið
ræðslu
ræðslusty
ræðuliga
ræðuligar
ræðuligi
ræðuligt
ræðuligu
ræður
rð
rða
rðapla
rðar
rðarson
rði
rðing
rðingar
rðingi
rðingin
rðingur
rðingurin
rðstørsta
rðstørsti
rðu
rður
rødd
røddin
røddir
røddirnar
røddum
røde
rødga
rødgaard
røkir
røkja
røkka
røkkur
røkt
røkta
røktarheim
røkti
rømer
rønne
rør
røra
rørekur
rørsla
rørslan
rørslu
rørsluna
rørsluni
rørslur
røtt
røttu
røttum
røtur
røturnar
røð
røða
røðan
røðin
røðina
røðini
røðir
røðu
røðum
røður
s
sa
saaremaa
saba
sabbath
sabla
sachs
sachsen
sacramento
sacred
sad
sadali
sadals
sadalstunnilin
sadalur
sadat
saddam
sadi
safari
saferide
saga
sagan
sagang
sagarði
sagdir
sagdur
sagnir
sagnirnar
sagnorð
sagnum
sagnunum
sagt
sahara
sahel
said
saint
saints
saipan
sak
sakarias
sakaris
sakarisi
sakarma
sakførari
sakk
sakni
saknur
sakramenti
sakru
sakson
saksun
saksunar
sakur
sal
sala
salaam
salah
sale
salem
salems
salinas
salisbury
salix
sally
salman
salmo
salmonella
salo
salon
salt
salta
saltangara
salti
saltnes
saltnesi
salurin
salvador
salzburg
sam
sama
saman
samanber
samanbera
samanberast
samanbering
samanberingar
samanborið
samanbresti
samanbrestir
samandra
samanhald
samanhangandi
samanhangi
samanlagda
samanlagdur
samanlagt
samanlegging
samanleggingina
samanrenning
samans
samanseting
samansetingin
samansett
samansettar
samansettur
samantha
samanumtikið
samara
samarbeiði
samband
sambandi
sambandinum
sambandið
sambandsfl
sambandsflokkin
sambandsflokkinum
sambandsflokksins
sambandsflokkurin
sambandsfloksins
sambandsri
sambia
sambindingar
sambindingarorð
sambært
samd
samdir
samdust
samdøgrið
samdøgur
same
sameina
sameind
sameinda
sameindu
sameindum
sameiningina
sameint
samfelag
samfelagi
samfelagið
samfelagnum
samfelagsbo
samfelagsborgarar
samfelagsfrøði
samfelagsfrøðingur
samfelagsins
samfelagsliga
samfelagsligar
samfelagsligum
samfelagsvi
samfeløg
samfeløgum
samferðsla
samferðslu
samferðsluma
samfull
samfund
samgonga
samgongan
samgongu
samgonguna
samgonguni
samgongur
samgongusamra
samheiti
sami
samkoma
samkoman
samkomu
samkomuhu
samkomum
samkomuna
samkomuni
samkomur
samkynd
samkyndar
samkyndir
samkyndleika
samkyndleiki
samkyndu
samkyndum
samkyndur
samkynt
samla
samlaget
samlast
samlað
samlaða
samlaði
samlaðu
samlaðum
samlaður
samlede
samlegu
samleika
samleiki
samling
samlingspartiet
samlitt
samljo
samman
sammett
sammy
samoa
samos
samra
samro
samrøða
samrøðu
samrøður
samskifta
samskifti
samskiftið
samskipa
samskipari
samskipað
samson
samstarv
samstarva
samstarvar
samstarvað
samstarvi
samstarvinum
samstarvið
samstarvsavtalu
samstundis
samsvar
samsvara
samsvarandi
samsvarar
samsvari
samsy
samt
samtak
samtakinum
samtakið
samti
samtykkir
samtykkja
samtykt
samtyktar
samtykti
samtyktin
samuel
samuelsen
samurai
samveldi
samveldinum
samveldisly
samveldisri
samveldisstjo
samveldið
samveru
samvit
samvitsku
san
sand
sanda
sandagerði
sandava
sandberg
sande
sandefjord
sandi
sandin
sandingar
sandinum
sandoy
sandoyar
sandoynna
sandoynni
sandportal
sandra
sands
sandstrondunum
sandsvatn
sandur
sandurin
sandvi
sandvik
sandwich
sandy
sang
sangara
sangaran
sangaranum
sangarar
sangari
sangarin
sangarinna
sangarum
sangbo
sangbok
sange
sangi
sangin
sanginum
sangir
sangirnar
sangirnir
sangkapping
sangkappingin
sangkappingina
sangkappingini
sangleikinum
sangleikur
sangskrivarar
sangskrivari
sangtekstir
sangue
sangum
sangunum
sangur
sangurin
sanh
sankt
sankta
sanna
sannar
sannføra
sannførdur
sannføring
sannleikin
sannli
sanremo
sansibar
sansir
sanskrit
sant
santa
santana
santiago
santo
santorini
santos
sanum
sao
sapporo
sar
sara
sarah
sarajevo
saratov
sardinia
sarhaldinum
sari
sarita
sarkozy
sarnir
saronisku
sartre
sarur
sarveldini
sas
saskatchewan
sassoli
sast
sat
satellite
satoftir
satru
satt
saturday
saturn
saudi
saudiara
saudiarabia
savage
savannan
savarðhald
save
savi
savn
savna
savnar
savnarar
savnast
savnað
savnaðar
savnaði
savnaðu
savnaðust
savninum
savnið
saw
sawyer
saxifraga
saxofon
say
says
sb
sbjørg
sbjørn
sbo
sbrt
sby
sc
scaber
scalemajor
scalloway
scam
scandinavia
scandinavian
scarlett
scary
scb
scene
scener
scha
schall
scheider
schengen
schiele
schiller
schleswig
schlu
schmeichel
schmidt
scho
school
schools
schopenhauer
schreier
schro
schrøter
schubert
schultz
schumacher
schumann
schwarzenegger
schwarzwald
science
sciences
scient
scientific
scilly
scorer
scotia
scotland
scots
scott
scottish
scout
scouts
scream
screen
script
sct
sculls
sd
sdag
sdagin
sdagur
sdegi
sdjo
sdo
sdrekka
sdrekkalo
sdrekkamisny
sdrekkany
sdrekkasøla
sdrekkasølu
sdrekkasøluni
sdwg
sdy
se
sea
seafood
seagull
seahawks
sean
search
sears
season
seattle
sebastia
sebastian
sebo
sebra
secco
second
seconds
secret
secrets
section
security
see
seebach
seeberg
seeding
seeger
seek
seen
sef
seg
segl
seglloftinum
segði
segðist
sei
sein
seinast
seinasta
seinasti
seinastu
seinastuni
seinna
seinnameiri
seinnapartin
seinni
seinnu
seinri
seint
seinur
seitri
sejm
sejong
sek
sekan
sekkin
sekkir
seks
sekstan
sekstia
sektio
sekund
sekundi
sekundið
sekundum
sekur
selassie
selatrað
seld
selda
seldar
seldi
seldir
seldu
seldur
sele
selected
selen
selena
self
selfoss
selja
seljandi
seljaran
seljaranum
seljarin
seljast
selkie
selma
selmu
seloy
selt
selur
selv
selvi
sem
sement
semifinal
semifinala
semifinaluna
semifinaluni
seminar
seminarium
semja
semjan
semjast
semju
semjur
sen
senate
senatinum
senatið
senator
senatorar
senatorur
send
senda
sendar
sendast
sendi
sendiboð
sending
sendingar
sendingarnar
sendingin
sendingina
sendingini
sendingum
sendir
sendistova
sendistovan
sendistovu
sendistovuna
sendistovuni
sendistovurnar
senditi
sendu
sendur
seneca
senegal
senegala
senior
seniormet
senn
senshi
sent
sentai
seoul
sep
sepp
sept
september
septembur
septuaginta
sequoyah
ser
sera
serbar
serbia
serbiska
serbiskt
serbiskum
serbiskur
serena
serframsy
serfrøðingar
serfrøðingur
sergei
sergej
sergio
seria
serie
series
seriewikin
seriu
serlig
serliga
serligan
serligani
serligar
serligari
serligt
serligu
serligum
serligur
serloyvi
serma
sermerkt
sermerkta
sermerktu
sermersooq
serprent
sersambond
serstaka
serstakan
serstakar
serstakliga
serstakt
serstakur
serstøk
serstøku
serstøðu
seru
server
service
ses
sesanus
sesong
sesongin
sesongina
sesongini
sesongir
sesotho
sess
sessin
session
sessions
sessir
sessunum
set
seta
setast
sete
seth
sethu
seting
setingar
setingarnar
setingin
setingini
setingum
setir
setningar
setrinum
sett
settar
setti
settir
settist
settu
settum
settur
settust
setu
setur
sev
sevdal
seven
seventh
severin
sevi
sevilla
sevjan
sevmy
sevni
sevnum
sex
seyma
seyskelloyggjar
seytjan
seyð
seyðabrævinum
seyðabrævið
seyðahald
seyðakjøt
seyðaslag
seyðbondini
seyði
seyðin
seyðinum
seyðir
seyðisfjo
seyður
seyðurin
seðlar
sf
sfo
sg
sgeir
sgeirsdo
sgerð
sgri
sgt
sh
shadow
shah
shaila
shake
shakespeare
shakira
shall
shandling
shanghai
sharia
sharialo
sharif
sharon
shavinum
shavið
shaw
shawn
she
shea
sheep
sheffield
shell
shelley
shepherd
sheppard
sheridan
shetland
shi
shia
shield
shift
shining
shinzo
ship
shire
shirley
shiva
sho
shockey
shoes
shogun
shooting
shop
shore
short
shorts
should
shounen
shout
show
shows
showtime
shrek
shreveport
shriver
shrunk
shtml
shu
shut
si
sia
siatar
siberia
sibiria
sic
sica
sid
sida
side
sides
sidney
sidste
sie
siempre
sierra
sif
sifnos
sig
siga
sigast
sigert
sigga
sigi
sigird
sigla
siglandi
sigldi
sigldu
sigling
siglingarsøga
siglingina
siglir
siglt
sigma
sigmarsson
sigmund
sigmundar
sigmundarson
sigmundi
sigmunds
sigmundur
sign
signa
signabø
signabøur
signar
signhild
signi
sigoynarar
sigrar
sigraði
sigri
sigrid
sigrið
sigru
sigrun
sigst
sigtuna
sigur
sigurd
sigurin
sigurjo
sigurð
sigurðardo
sigurðsson
sigvardsen
sikhar
sikhisma
sild
sildin
silence
silene
silent
silicon
siliga
silja
silkeborg
silki
silkibond
siloa
silva
silver
silvia
silvio
silviu
silvius
silvur
silvurdrongur
silvurheiðursmerki
silvuri
silvurvinnari
sim
simbabvi
simme
simo
simon
simone
simonsen
simple
simprentis
simpson
simrishamns
sims
sin
sina
sinai
sinaiha
sinatra
since
sind
sindafo
sindalig
sindaliga
sindaligar
sindaligt
sindaligum
sindamaður
sindamenn
sindi
sindini
sindum
sindur
sine
sing
singapor
singapore
singar
singarherferð
singarma
singarnar
singarorð
singarti
singel
singer
singin
singina
singing
singini
single
singles
sings
singulpla
singum
sinha
sini
sink
sinni
sinnissju
sinnið
sint
sinterklaas
sinum
sio
sioux
sipa
sipar
sir
sirius
sirið
sirkus
sirnar
sirnir
sirri
sis
sisa
sisilia
sisimiut
sisk
siskt
sisku
sissal
sissel
sister
sisters
sit
sita
sitandi
sitat
site
sites
siti
sitipla
sitið
sitka
sitro
sitting
situr
siumut
siv
sivertsen
sivil
siw
sið
siðafrøði
siðalag
siðan
siðbundin
siðbundna
siðbundnan
siðbundnu
siðbundnum
siði
siðin
siðir
siðum
siður
siðurin
siðvenja
siðvenjan
siðvenju
siðvenjuni
siðvenjur
sj
sja
sjangrur
sjeik
sjey
sjeynda
sjeyndi
sjeyndu
sjeytia
sjimpansur
sjo
sjokola
sjokula
sjonleikari
sjonleikarinna
sju
sjælland
sk
ska
skaale
skaalum
skadagur
skaddir
skaddur
skagerrak
skakandi
skal
skald
skaldinum
skaldið
skaldskap
skaldskapi
skaldskapin
skaldskapur
skaldskapurin
skaldsøga
skaldsøgan
skaldsøgu
skaldsøguhøvundar
skaldsøgum
skaldsøguna
skaldsøguni
skaldsøgur
skaldsøgurnar
skall
skallan
skalli
skallin
skallur
skallurin
skalt
skam
skamandrios
skamarið
skamt
skan
skanderborg
skandi
skandinavia
skandinavisk
skandinavisku
skansa
skansan
skansi
skansin
skaoy
skaoyggin
skaoynni
skap
skapa
skapandi
skapanin
skapar
skaparfrøði
skaparfrøðingar
skaparfrøðingur
skaparin
skaparkreppan
skaparkreppu
skaparlig
skaparliga
skaparligan
skaparligar
skaparligi
skaparligt
skaparligu
skaparligum
skaparma
skaparvøkstur
skapað
skapaði
skapaðu
skapi
skapin
skapinum
skapt
skaptar
skapti
skaptu
skapur
skapurin
skar
skara
skarar
skaregg
skari
skarin
skarum
skarunum
skarvanes
skarvanesi
skarvur
skarð
skarði
skarðið
skarðs
skarðsa
skarðsvi
skatt
skatta
skatti
skattin
skattir
skattland
skattur
skava
skazka
skaða
skaðadjo
skaðan
skaðar
skaði
skeggi
skeiva
skeivar
skeivt
skeivur
skeið
skeiðbundna
skeiðbundnu
skeiði
skeiðið
skeiðnum
skeiðum
skel
skelin
skelini
skeljady
skeljar
skeljarnar
skelleftea
skelti
skemmuni
skemt
skemtarar
skemtari
skemti
skemtileikur
skemtirøðini
sker
skera
skering
skeringar
skerinum
skerið
skerja
skerpikjøt
skert
skerum
skeyt
ski
skiathos
skibenæs
skidrow
skien
skift
skifta
skiftandi
skiftast
skifti
skiftir
skiftið
skiftu
skiftur
skil
skild
skildur
skildust
skilir
skilja
skiljast
skilnaður
skilst
skilt
skilti
skiltið
skiltu
skiluliga
skilur
skilvi
skimast
skinn
skinnið
skip
skipa
skipahavn
skipan
skipanes
skipanin
skipanina
skipanini
skipaninini
skipanir
skipanum
skipar
skipara
skiparar
skipari
skiparin
skipasmiðja
skipasmiðju
skipasmiðjuni
skipast
skipað
skipaða
skipaðar
skipaði
skipaðir
skipaðu
skipaðum
skipaður
skipi
skipini
skipinum
skipið
skips
skipsførari
skipum
skipunum
skir
skive
skið
skja
skjal
skjaldarmerki
skjaldbøkur
skjali
skjalið
skjalpro
skjals
skjern
skjeyt
skjo
skju
skjy
skjøl
skjøldur
skjølum
skland
sklandi
sklands
sko
skole
skopelos
skopje
skopun
skopunar
skora
skorandi
skorar
skorað
skoraði
skordjo
skordy
skorheim
skorin
skoring
skorini
skorið
skot
skota
skotadrotning
skotar
skotin
skotið
skotland
skotlandi
skotlands
skotnir
skotsk
skotska
skotski
skotskir
skotskt
skotsku
skotskum
skotskur
skotum
skotunum
skotva
skou
skov
skoyti
skoyturenning
skoða
skoðan
skoðanir
skoðarar
skoðaravirðislønina
skoðarum
skra
skrevet
skri
skrift
skrifter
skriftini
skriftma
skriftskipan
skriftum
skriv
skriva
skrivandi
skrivar
skrivarastovu
skrivari
skrivast
skrivað
skrivaða
skrivaðar
skrivaði
skrivaðir
skrivaðu
skrivaður
skrivi
skriviha
skriving
skrivingin
skrivliga
skrivligt
skrivligum
skrivstovu
skrivstovuni
skrivstovur
skrivstovustjo
skrivt
skriðdjo
skriðdy
skriðulop
skru
skrubba
skry
skræða
skt
sku
skugga
skuggagestir
skugganum
skuggar
skuggarnar
skuggin
skula
skuld
skuldi
skuldina
skuldsettur
skuldu
skulle
skullu
skulu
skum
skunda
skundar
skundaðu
skundi
skur
skurups
skurðviðgerð
skutu
sky
skyld
skylda
skyldast
skyldfo
skyldina
skyldmann
skyldu
skyldur
skyline
skylt
skylv
skyna
skyrider
skælingi
skøkjulevnaður
sl
sla
slag
slagi
slagið
slagnum
slakar
sland
slandi
slands
slandsklukkan
slang
slangu
slangur
slankum
slapp
slar
slaug
slave
slavisk
slavisku
slavið
slavna
sleep
sleeping
sleipnir
sleit
slekt
slendingar
slendingum
slendsk
slendska
slendskar
slendskir
slendskt
slendsku
slendskum
slendskur
slenska
slenskt
slensku
slenskum
slenskur
slepp
sleppa
sleppur
slepst
slept
slepti
slesvi
slesvig
sli
sligin
sligið
slim
slips
slitnaði
slo
sloan
slope
sloppin
sloppið
slottinum
slottið
slovak
slovakia
slovakiska
slovakiskt
slovenar
slovenia
slovenska
slovenskt
slow
slu
slum
slumaður
slumaðurin
slumenn
slupp
sluppin
sluppina
sluppini
sluppu
slur
slurnar
slær
slætt
slætta
slættaberg
slættan
slættanes
slættanum
slættar
slættaratindur
slættari
slætti
slættin
slættlendi
slættlendinum
slættunum
sløg
sløgini
sløgum
sløgunum
sløk
sløkum
slør
sløri
slørið
sløttum
sma
smakk
smakka
smakkar
smakki
smakkin
smakkurin
smala
smalar
smalast
small
smalt
smalur
smedjebackens
smi
smile
smiril
smirilin
smith
smitta
smittan
smittandi
smittað
smittaði
smittaðum
smittaður
smittuni
smiður
smo
smokie
smolt
smoltstøð
sms
smu
smund
smyril
smyrilin
smyrli
smyrna
smærri
smærru
smærup
smøl
smølum
smør
smøri
sn
sna
snake
snar
snara
snari
snarljo
snart
sne
sngar
sni
snigil
sniglar
sniglum
snimma
snið
sniðgevi
sniðgivin
sniðgivið
sniði
sniðið
snjo
snl
sno
snoop
snow
snu
sny
snæbjørn
snær
snøgg
snøgt
snøri
so
soap
soay
sobre
soccer
soccerandequipment
soccerbase
sochi
social
socialdemokraterna
socialdemokraterne
socialdemokratiet
socialistisk
society
sociology
sodavatn
sofi
sofia
sofie
sofokles
software
sofus
sogn
sokallað
sokallaða
sokallaði
sokallaðu
sokallaðum
sokrates
sol
solar
solberg
solda
sole
soleiðis
solistur
soljo
soll
solleftea
solmunde
solna
solo
solstad
soluna
solution
solveig
som
somalia
some
somebody
someone
something
sometimes
somewhere
somikið
sommer
somu
somuleiðis
son
sondum
sonevnd
sonevnda
sonevndu
sonevndum
song
songarmat
songbo
songkvinna
songkvinnan
songkvinnuni
songkvinnur
songs
songwriter
soni
sonia
sonin
soninum
sonja
sonn
sonne
sonni
sonnu
sonnum
sonny
sono
sons
sonur
sonurin
sony
sophia
sophie
soppar
soppurin
sopran
sor
sorg
sorgina
sorinskrivari
sorinskrivarin
sornfelli
sorsele
sorte
sorø
sosial
sosiala
sosialar
sosialdemokratiskur
sosialdemokratunum
sosialin
sosialinum
sosialisma
sosialismu
sosialistisk
sosialistiska
sosialliberalisman
sosialra
sosialt
sosialu
sosialum
sosialurin
sostatt
sotsji
sottunga
soudal
soul
souls
sound
soundcloud
sounds
soundtrack
source
sousa
south
southampton
southern
sov
sova
sovjet
sovjetiska
sovjetiskum
sovjetiskur
sovjetly
sovjetrussiskur
sovjetsamveldinum
sovjetsamveldisins
sovjetsamveldið
sovjettiski
sovnaði
sovorðin
soyabønir
sp
spa
space
spain
spakuliga
spakuligari
spakur
spangled
spania
spaniamenn
spaniamonnum
spanio
spaniu
spansk
spanska
spanski
spanskir
spanskt
spanskttalandi
spanskur
spara
sparekassen
sparikassa
sparikassi
sparingar
sparrow
sparta
spasskij
spd
spears
special
spectacle
speed
speedskatingresults
speedway
spellerberg
spencer
spennandi
spenningur
spent
spentur
spi
spice
spielberg
spielvan
spik
spiller
spilt
spin
spinna
spirit
spiritualized
spjadd
spjaddar
spjaddist
spjatt
spjaða
spjaðing
spjo
spo
sponsk
sponsku
sponskum
spor
sporadurnar
sport
sportal
sporting
sports
spot
spra
sprakk
spratt
spreingievni
spreingingini
spreingist
spreingivarparar
spri
spring
springfield
springs
sprint
sprog
sprongdist
sprotans
sprotanum
sprotin
sprottin
sprottið
sprøklut
sprøklutur
spunnin
spurdi
spurdist
spurdu
spurdur
spurnartekin
spurning
spurningar
spurningin
spurninginum
spurningum
spurningur
spurningurin
spurt
spurvur
sputnik
spy
spyr
spyrja
spæl
spæla
spælarar
spælararnir
spælari
spælarin
spælast
spæld
spældar
spældi
spældir
spældu
spældur
spæli
spælifilmar
spælifilmum
spælifilmur
spælilisti
spælimenninir
spælinum
spælipla
spælir
spæliti
spælið
spælt
spælur
spøkilsissøgur
spøkilsið
spøl
squad
square
sr
srael
sraelar
sraels
sraelska
sraelski
sraelsku
sraelskur
sraelsmenn
srateyourmusic
sri
ss
ssel
sseldorf
ssf
ssi
ssima
ssini
ssinum
ssið
ssjo
ssl
ssleholms
sson
ssum
ssunum
st
sta
stabbagro
stad
staddir
staddur
stade
stadion
stadium
stads
stadt
staffanstorps
stage
stak
stakfløga
stakfløguna
stakfløguni
stakfløgur
stakk
stakkar
stakkin
stakkinum
stakkur
stakkurin
staklag
staklagið
stakløg
stakpla
stakri
stalin
stamford
stammuni
stamp
stamps
stan
stand
standa
standandi
standard
standardar
standardinum
standardization
standast
standi
standing
standmynd
standmyndin
standmyndir
standmyndirnar
standmyndum
stanford
stangerup
stanislav
stanley
star
stara
starar
starcraft
stardust
stari
starin
stark
starkey
starr
stars
start
starv
starva
starvast
starvaðist
starvaðust
starvi
starvinum
starvið
starvsfo
starvsleið
starvsløn
starvslønir
starvsstovan
starvsvenjing
stat
statbank
statcan
state
statens
states
stati
statin
statinum
station
statir
statirnar
statirnir
statistics
statistik
statletik
statoil
stats
statsflagg
statsleiðarar
statsleiðari
statsmaður
statt
statue
statum
statunum
statur
staturin
status
stava
stavanger
stavar
stavað
stavilsi
stavir
stavn
stavrað
stavraðan
stavraðið
stavraðnum
stavseting
stavum
stay
stað
staðar
staðarnavn
staðarnavnið
staðarnøvn
staðbundnu
staðfest
staðfesta
staðfesti
staðfesting
staðfestir
staðfestu
staðfestur
staði
staðin
staðinum
staðir
staðið
staðni
staðnum
staðseting
staðsett
staðsettur
staður
staðurin
steel
steen
stefan
stefani
stefanie
stefano
steffan
steggin
steig
stein
steinar
steinarr
steinaðu
steinbeck
steinbjørn
steingja
steingri
steini
steinin
steininum
steinko
steinn
steinsløg
steinsto
steinto
steinum
steinur
steinurin
steinøld
stelkur
stella
sten
stenberg
stendst
stendur
stenungsund
step
stephan
stephen
steps
ster
stera
sterbottens
stercorarius
sterdetektiven
stereo
stereotypes
stergo
sterk
sterka
sterkan
sterkar
sterkari
sterkast
sterkasta
sterkasti
sterkastu
sterkastur
sterkir
sterkt
sterku
sterkum
sterkur
sterling
stern
sterna
sternorrlands
stersund
sterturin
stettin
stev
steve
steven
stevens
stevie
stevið
stevna
stevnan
stevndi
stevndur
stevni
stevnt
stevnu
stevnum
stevnumet
stevnuna
stevnuni
stevnur
stevnuskra
stewart
steyp
steypafinaluna
steypafinalurnar
steypakapping
steypakappingar
steypakappingin
steypakappingina
steypakappingini
steypavinnarar
steypavinnari
steypið
steðg
steðga
steðgar
steðgað
steðgaði
steðgaðu
steðgur
sti
stift
stig
stiga
stiganum
stigatal
stigatali
stigatalva
stigi
stigin
stigini
stigið
stigkappingin
stigkappingini
stigtakari
stigtakarunum
stigum
stigvi
stikk
still
stilla
stillar
stillaði
stille
stiller
stillisliga
stillum
stillur
stimbra
stina
stine
sting
stinga
stingur
stinkdy
stinum
stinus
stir
stið
stiðin
stiðja
stja
stjala
stjerne
stjo
stju
stjørna
stjørnan
stjørnin
stjørnu
stjørnubreytir
stjørnufrøði
stjørnufrøðingar
stjørnufrøðingur
stjørnum
stjørnuna
stjørnunum
stjørnur
stjørnurnar
stjørnuskot
stjørnuspa
stk
stkrabba
stla
stlu
stm
stmanlands
sto
stockbridge
stockholm
stockholms
stoke
stokkar
stokkho
stokkholmi
stolið
stoltenberg
stolti
stone
stonehenge
stones
stonewall
stong
stongd
stongdi
stongdir
stongt
stop
stor
stora
stord
store
storegade
storfors
storia
stories
storkreds
storm
storma
stormi
stormur
storps
storstrøms
story
stovn
stovna
stovnan
stovnandi
stovnanin
stovnanina
stovnanini
stovnar
stovnari
stovnarin
stovnarunum
stovnað
stovnaða
stovnaði
stovnaðir
stovnaðu
stovnaður
stovni
stovnin
stovninum
stovnseta
stovnsett
stovnsins
stovnum
stovnunum
stovnur
stovnurin
stovu
stovuna
stovur
stowe
stoypt
stoyta
stoyti
stoytir
stoytt
stoyttu
stra
straight
strait
straks
strand
stranda
strandar
strandarflogbo
strandfaraskip
strandfaraskipum
strandferðslan
strandferðsluni
strangar
strangari
strange
stranger
strangliga
strangt
strasbourg
stratos
stratton
strauss
stravinskij
stream
streep
street
streingir
strekki
strekkir
strekkið
stremba
stremban
strendur
strendurnar
strentingur
strevast
streym
streymar
streymi
streymin
streyminum
streymnes
streymnesi
streymoy
streymoyggin
streymoynna
streymoynni
streymur
streymurin
stri
strigiformes
strika
strikan
strikað
striku
strikum
strip
stro
strok
stromness
strond
strondin
strondina
strondini
strondum
strong
strongd
stronger
strongu
strongum
stru
stry
strøm
sttikin
stu
stuart
stubbar
student
studenta
studentafelagsins
studentar
studentarnir
studentasku
students
studentspro
studentur
studi
studia
studiealbum
studier
studies
studio
studioalbum
studios
study
stuff
stund
stundin
stundir
stundum
stungið
stuntmaður
stur
sturgeon
sturm
sturnus
stutt
stutta
stuttan
stuttar
stuttari
stuttbana
stuttfilmar
stuttfilmin
stuttfilmum
stuttfilmur
stuttfilmurin
stuttgart
stuttgeil
stutti
stuttleika
stuttligt
stuttprosa
stuttsøga
stuttsøgan
stuttsøgu
stuttsøgukapping
stuttsøgum
stuttsøguni
stuttsøgur
stuttsøgusavn
stuttsøgusavninum
stuttsøgusavnið
stuttsøgusøvn
stuttu
stuttum
stuttur
stuðla
stuðlar
stuðlað
stuðlaði
stuðlaðu
stuðli
stuðul
stuðulin
sty
stykki
stykkið
style
styles
styrk
styrke
styrki
styrkin
styrkja
stytri
stytt
stytta
stytti
stytting
styttri
styðja
stættir
stødd
støddar
støddfrøði
støddfrøðingar
støddfrøðingur
støddin
støddina
støddini
støddir
støddum
støkk
størri
størru
størsi
størst
størsta
størstan
størsti
størstu
størstur
størv
størvum
støð
støða
støðan
støðg
støðga
støði
støðin
støðina
støðini
støðir
støðið
støðu
støðug
støðugan
støðugt
støðugum
støðugur
støðum
støðuna
støðuni
støðunum
støður
støðurnar
su
sua
subject
submarine
such
sudan
suduroy
sudurras
sue
suely
suezveitin
suisse
suite
sukse
sukur
sukurrør
sukurrørum
sukursju
sul
suleiman
sullivan
sully
sulta
sultan
sum
sumba
sumbiar
sumbiarsteinur
sumbingar
summar
summarda
summarfestivalinum
summarfestivalur
summarfestivalurin
summarfri
summarha
summarhu
summari
summarið
summarleikirnir
summarma
summarna
summarti
summastaðni
summer
summi
summir
summit
summstaðni
summum
sumri
sumrini
sumstaðni
sumt
sun
suna
sund
sunda
sundaba
sundaferjan
sundalagið
sundalagnum
sundalagsstevna
sundar
sundatali
sunday
sundi
sundini
sundinum
sundir
sundið
sundskarð
sundstein
sundsvall
sundtals
sundur
sundurby
sung
sungin
sungið
sungu
suni
sunleif
sunnan
sunnana
sunnanfyri
sunnani
sunnanmenn
sunnanmenninir
sunnanvert
sunnara
sunnari
sunnarlaga
sunnaru
sunnast
sunnasta
sunnasti
sunne
sunni
sunnudag
sunnudagin
sunnudagur
sunnudegi
sunnukvøld
sunset
sunsetdeildini
sunshine
sunum
sunweb
super
supercopa
supercoppa
superior
superliga
superligan
superliguni
supermodell
supertaure
supporting
supreme
sur
surfing
surin
surinam
surnar
survey
sus
susan
susanne
susvim
susy
suu
suzanne
suðri
suður
suðura
suðurafrika
suðurafrikanski
suðurafrikanskur
suðuramerika
suðuravstralia
suðurbo
suðurcarolina
suðurdakota
suðurdanmark
suðureftir
suðurevropa
suðurfraklandi
suðurgeorgia
suðuri
suðuritalia
suðurju
suðurkalifornia
suðurkorea
suðurkoreanskur
suðurland
suðurlandinum
suðurlandið
suðuronglandi
suðurossetia
suðuroy
suðuroyar
suðuroyarma
suðuroyggjum
suðuroyingar
suðuroyingi
suðuroyingur
suðuroynna
suðuroynni
suðurpo
suðurri
suðurrusslandi
suðursa
suðursandwichoyggjar
suðursi
suðurstatunum
suðurstreymoy
suðurstreymoyar
suðurstrondini
suðursudan
suðurty
suðurvjetnam
sv
sva
svabo
svala
svalbard
svalbarð
svalbarði
svalo
svam
svante
svar
svara
svarandi
svarar
svarað
svaraði
svaraðu
svart
svarta
svartadeyða
svartahav
svartahavið
svartan
svartar
svartari
svarte
svartha
svarti
svartideyði
svartir
svartkalvi
svartkjaftur
svartma
svartur
svasiland
svav
svavar
svedala
sveik
sveimandi
sveimar
svein
sveini
sveinur
sveis
sveisisk
sveisiska
sveisiskir
sveisisku
sveisiskur
sveitarfe
sven
svend
svendborg
svenljunga
svenning
svensk
svenska
svenskar
svenskfilmdatabas
svenski
svenskir
svenskt
svensku
svenskum
svenskur
svensson
sverige
sveriges
sverk
sverra
sverre
sverri
sverrisson
svevur
svf
svg
svi
sviar
svik
svikagerð
svikin
svimja
svimjara
svimjarar
svimjararnir
svimjari
svimjarin
svimjarir
svimjarum
svimjarunum
svimjifelag
svimjifelagið
svimjifeløg
svimjihyl
svimjihylur
svimjihylurin
svimjihøll
svimjihøllin
svimjihøllina
svimjihøllini
svimjikapping
svimjikappingar
svimjikappingin
svimjikappingini
svimjikappingum
svimjilandsliðið
svimjilandsliðnum
svimjing
svimjingin
svimjisamband
svimjisambandi
svimjistevna
svimjistevnu
svimjistevnum
svimjistevnuni
svimur
svinnarar
svo
svomið
svongd
svorin
svt
svumu
svættið
svøllinum
svølta
svør
svøri
svørt
svørtu
svørtum
svørð
svørði
svørðið
swahili
swan
swangah
swansea
sweden
swedish
sweet
swift
swim
swimming
swiss
switzerland
sword
sy
syddansk
syderbø
sydney
syftu
sylvatica
sylvia
symbol
symbolið
symbolum
symfoni
symfoniir
symfoniorkestri
symfoniorkestur
symi
symphony
synarchy
synd
syndanna
syndir
syndrað
syndraðist
syndrom
syng
syngja
syngjandi
syngur
syni
synir
synirnar
synirnir
synth
synum
syrgdi
syrgir
syrgja
syria
syse
system
systir
systirin
systkin
systkinabarn
systkini
systkjum
systrar
systrina
systrini
systur
systurstaðir
syðra
syðradali
syðradalur
syðri
syðru
syðrugøta
syðrugøtu
syðst
syðsta
syðsti
szczecin
sædd
sæddar
sæddir
sæddur
sæla
sæland
sælandi
sælands
sælendskur
sær
særd
særdi
særdir
særdu
særdur
sært
sæst
sæti
sætið
sætre
sætt
sætta
sætti
sættstørsti
sættu
sæð
søga
søgan
søgd
søgdu
søgn
søgnin
søgnina
søgnini
søgnum
søgu
søgufrøðingar
søgufrøðingur
søgugongd
søgulig
søguliga
søguligar
søguligari
søguligir
søguligt
søguligu
søguligum
søguligur
søgum
søguna
søguni
søgunum
søgur
søgurnar
søgusavn
søkir
søkja
søkkur
søkt
søkti
søktu
søla
sølan
søldarfirði
søldarfjørður
søllinge
sølu
sølubu
sølulistanum
sølumet
søluna
søluni
sølva
sølvi
sømdarga
sømdir
søn
søndag
sønderborg
søndergaard
sønderjyllands
sør
søren
sørensen
sørin
sørt
sørva
sørvingar
søs
søstrene
søtt
søvn
søvndal
søvnum
t
ta
tabjørn
table
tables
tac
tad
tadsjikistan
taekwondo
taff
taftur
tag
tage
tagore
tahiti
tahu
tai
taiko
tailand
tailandi
tailands
taipei
taivan
taiwan
taiyou
tak
taka
takast
take
taken
taket
taki
takinum
takið
takk
takka
takkar
takkaði
taks
takt
tal
tala
talan
talandi
talands
talar
talarum
talað
talaði
talaðu
talbot
tald
taldar
taldi
taldir
taldu
taldur
tale
talent
taler
tales
talgild
talgilt
tali
taliban
talinum
talið
talk
tallahassee
tallinn
tally
talorð
tals
talsmaður
talt
talu
talufrælsi
taluma
taluni
talv
talva
talvan
talvfelag
talvfo
talvi
talvið
talvolympiaduni
talvsamband
talvuni
talvur
tam
tama
tamar
tamara
tamarhald
tambar
tammy
tampa
tampere
tan
tandi
tanes
tanesi
tang
tangafirði
tangafjørður
tangan
tangentar
tango
tangz
tanja
tanju
tanka
tankar
tann
tanna
tannklinikk
tannlækna
tannlæknar
tannlæknastovan
tannlækni
tans
tansania
tanum
tanums
tap
tapa
tapandi
tapir
tapirus
tapt
tapti
taptu
tar
tara
taranum
tarar
tari
tarin
tarira
tarjei
tarnar
tarnað
tarnir
tartu
tarum
tarussiskum
tarussland
tarusslandi
tarzan
tarørsluni
taskip
tasmania
tasmiður
tasniðgevi
tasporið
tast
tasta
taste
tasti
tastu
tastur
tate
tatraðk
tatsujin
taube
tausen
tav
taxi
taylor
tað
taðar
tb
tbilisi
tbo
tboð
tbreidd
tbreiðsla
tbreiðslan
tbreiðslu
tbreiðsluna
tbreiðsluøki
tbrot
tbræðing
tbu
tbygd
tbygdur
tbygging
tbyggja
tbygt
tc
td
tdeytt
tdeyð
tdeyður
te
tea
team
teams
tears
teater
teaterpokalen
teaterskole
teatro
teatur
teborg
teborgs
tech
technology
ted
teddy
teen
teenstreet
teftir
teg
teheran
tehran
tei
teigar
teigurin
teil
teiland
teilandi
teim
teimum
teimun
tein
teinakappingar
teinakappingin
teinar
teinarnir
teinasigrar
teinasu
teini
teinin
teininum
teinum
teinunum
teinur
teinurin
teir
teirra
teirri
teiti
teitur
teivan
teið
tekin
tekn
tekna
teknar
teknari
teknað
teknaði
teknaðu
teknaður
teknifilm
teknifilmar
teknifilmsrøð
teknifilmsrøðin
teknifilmum
teknifilmunum
teknifilmur
tekning
tekningar
tekningum
teknirøð
teknirøðin
teknirøðina
teknirøðir
tekniska
tekniskar
tekniskt
teknisku
teknið
teknma
teknum
tekst
tekstarøð
tekstasavn
teksten
tekster
teksti
tekstin
tekstinum
tekstir
tekstirnir
tekstum
tekstunum
tekstur
teksturin
tekur
tel
teld
telda
teldan
teldu
teldufrøði
telduna
teldupost
teldur
teldurnar
telduspæl
telduspælið
telduspøl
teldutøkni
tele
telefon
telefonin
telegraph
telemark
telenovela
telesamskifti
televarpið
television
telgja
telir
telist
telja
teljandi
teljast
teljitalið
tell
telur
telva
telvarar
telvari
telvarin
telvarir
telvarunum
telvaði
telvaðu
tema
temja
temperaturur
template
templates
temple
templi
templinum
templið
templum
tempo
temprað
tempul
ten
tene
tengd
tenn
tennessee
tenninar
tennis
tennisleikarar
tennisleikari
tennisleikarinna
tenor
tenorsangari
tenzing
tepis
teppi
ter
teresa
terja
terje
terji
term
terminal
terminator
terna
ternan
terra
terre
territorial
territories
territory
terror
terry
tesla
tess
test
testamenti
testamentið
tetis
tev
texas
text
tey
tf
tferð
tferðir
tflutning
tflutningi
tflutninginum
tflutnings
tflutningsvøra
tflutningsvøran
tflutningur
tflutningurin
tflutt
tflutti
tfluttu
tfluttur
tfly
tflyta
tfra
tfyri
tføroyskt
tg
tga
tgav
tgerð
tgeva
tgevari
tgevur
tgivin
tgivið
tgivnar
tgivnir
tgo
tgrevstur
th
tha
thabor
thailand
thames
than
thank
that
thatcher
the
theater
theatre
theft
theguardian
theimin
their
thelocal
them
theme
then
theo
theodor
theodore
theol
theory
there
theresa
theresia
these
thessalia
thessaloniki
they
thiamin
thief
thierry
thieves
thimphu
thing
things
think
thinking
third
this
thisted
thomas
thomasen
thomassen
thompson
thomsen
thomson
thor
thorbjørn
thoreau
thorkild
thorne
thorning
thorshavns
thorstein
thorsteinsson
thorvald
thorvalds
those
thousand
three
thriko
thriller
through
thu
thule
thulesen
thumb
thumbnail
thunberg
thunder
thuot
thuresson
thurid
thurman
thy
thyborøn
ti
tia
tianjin
tibera
tiberius
tibet
tibro
ticino
tico
tid
tiden
tider
tidsskrift
tieindir
tierps
tierra
tif
tigandi
tiger
tign
tignarheitið
tignous
tigre
tigris
tihy
tijana
tikarar
tikari
tikarin
tiki
tikin
tikið
tiknar
tiknir
til
tilbage
tilbiðja
tilboð
tilboðið
tilburðir
tilburðirnir
tilburðum
tilburður
tildømis
tilfar
tilfari
tilfarinum
tilfarið
tilfeingi
tilfeingið
tilflytarar
tilflytarum
tilflyting
tilgongd
tilgongdin
tilhald
tilhoyr
tilhoyrandi
tiligt
tilkny
tilkomin
till
tillagað
tillisch
tilmeldingarti
tilmæli
tilnevnd
tilnevndir
tilnevndu
tilnevndur
tilnevning
tilnevningar
tilsaman
tilsamans
tilstaðar
tilsvarandi
tiltak
tiltaki
tiltakinum
tiltakið
tiltakslimur
tiltikin
tiltøk
tiltøkini
tiltøkum
tilveru
tilveruna
tilveruni
tilvi
tilvild
tilvildarlig
tilvildarliga
tilvildarligari
tim
tima
timbri
timbuktu
timbur
timburmaður
time
timeaxis
timeline
times
timidus
timor
timothy
timra
timu
timur
tin
tina
tind
tindar
tindarnir
tindasvi
tindho
tindin
tindinum
tindum
tindurin
tine
ting
tingakrossi
tingakrossur
tinganes
tinganesi
tinganest
tingar
tingast
tingbo
tingfo
tingformaður
tinghu
tingi
tingini
tinginum
tingið
tinglim
tinglimir
tinglimum
tinglimur
tingmaður
tingmenn
tingmonnum
tingræði
tingsbro
tingsess
tingsessir
tingsins
tingsryds
tini
tinkoff
tinna
tinnandi
tinos
tintin
tinum
tio
tip
tir
tiriac
tiro
tirreno
tis
tisamenos
tist
tistovu
tit
titan
titanic
titanium
titlar
title
tito
tittul
tittulin
titus
tivølli
tið
tj
tjajkovskij
tjaldavi
tjaldri
tjaldrið
tjaldur
tjan
tjatsi
tjaðaran
tje
tjekhov
tjekkoslovakia
tjena
tjernobyl
tjo
tjodpallur
tjodveldi
tju
tjøld
tjøldum
tjørnuvi
tkom
tkomin
tkomnir
tla
tlaa
tlagin
tlan
tland
tlandi
tlands
tlar
tlari
tlasystir
tlegd
tlendi
tlendingar
tlendingum
tlendsk
tlendska
tlendskar
tlendskir
tlendskt
tlendskum
tley
tli
tligt
tlingur
tlir
tlit
tlondum
tlu
tlum
tluvi
tmæla
tmæli
tmælini
tmælir
tmælisfo
tmælisgongu
tmælisgongum
tmælt
tmæltu
tn
tnevnd
tnevndi
tnevndur
tnevnt
tng
tnorðri
tnorðurra
tnu
tnyrðing
tnyrðingi
tnyrðings
tnyrðingshorninum
tnyrðingsparti
tnyrðingspartinum
to
tobago
tobias
today
todd
todi
toft
tofta
toftali
toftavatn
toftir
toftirnar
toftum
toftunum
tog
together
togo
tok
tokan
tokelau
toki
tokini
tokið
tokka
tokstøð
tokstøðin
tokugawa
tokuma
tokyo
tol
tola
told
toldu
toledo
tolin
tolir
tolkien
toll
tollakson
tollakur
tollaðar
tolli
tollma
tollur
tollurin
tolsemi
tolstoj
tom
toma
tomas
tomasson
tomatir
tome
tomelilla
tomi
tommy
tomorrow
ton
tonaskald
tonga
tongtian
tongues
toni
tonight
tonk
tonleikari
tonn
tonnum
tons
tonsum
tony
too
top
topeka
topic
topics
topp
toppaði
toppdoma
toppin
toppinum
toppskju
toppskorarar
toppskorari
toppurin
topskorari
tor
tora
torben
torbjørn
tordi
tordu
tordur
torfinnur
torført
torg
torgard
torgi
torginum
torgið
torgri
torino
torir
torkil
torkilsdo
torn
torna
torneio
torni
tornini
torninum
tornið
toronjadze
toronto
torquay
torre
torres
torrevieja
torrini
torsa
torsby
torshavn
torsportal
torstein
tort
torter
torv
tosa
tosar
tosað
tosaði
tosaðu
toski
toskur
total
totally
totals
tottenham
touch
tough
tougu
tour
toure
tourism
tourist
tournament
tours
tove
tower
towers
town
townes
townsend
toy
toyggj
toyota
tpartinum
tr
tra
trabzonspor
track
tracy
trade
traditio
traditional
tragoudia
trail
train
traktorar
tramp
trana
tranemo
trankebar
trans
transfermarkt
transformers
transitional
translated
transperso
transtro
transvaal
transwa
trantkongafiskur
trap
trappur
trash
trask
travel
traveling
travis
traðir
traðka
traðkaði
tre
treasure
treatment
tree
trein
treivst
treiðslunum
treiðslurnar
trek
trekkja
trekt
trelleborg
trelleborgs
trenc
trenton
treo
trettan
trettanda
treysti
treyt
treytað
treytir
treytirnar
tri
tria
trial
trials
triangle
triathlon
triatlon
tribute
trichoniscus
tricks
trier
trilogi
trimum
trine
tringa
trinidad
trinity
trinum
trio
trip
triton
triumph
triv
trivnaðarnevnd
trivnaðarnevndini
trið
triðbesta
triðbestu
triði
triðingar
triðingin
triðingur
triðingurin
triðja
triðjapla
triðji
triðju
triðskjo
triðstørsta
triðstørsti
tro
troels
trofeo
troglodytes
trolara
trolarar
trolari
trolarin
trollha
trompet
troms
tromsø
trondheim
trong
tronga
trongisva
trongum
trophy
tropiska
tropiskt
tropiskum
tropunum
trosa
trot
trotskij
trouble
troya
troyabu
troyar
troyer
troyggjan
troyggju
troyggjuna
troyggjuni
troyggjunum
troyttur
troyum
tru
truck
truddað
trudeau
true
truls
truman
trumfir
trumfur
trummum
trummur
trummusla
trummuspælari
trump
truncatula
truplar
truplari
trupul
trupuleikar
trupulleikar
trupulleikarnar
trupulleikarnir
trupulleiki
trupulleikin
trupulleikum
trupulleikunum
trupult
trust
truth
trutta
try
trygd
trygdarra
trygdin
trygdina
trygg
tryggari
tryggasta
trygging
tryggingar
tryggingarfelagið
tryggingarsambandið
tryggja
tryggjar
tryggjað
tryggjaði
tryggu
tryggur
trygt
trygva
trygvado
trygvason
trygvi
tryðjuni
træ
træba
træbru
træhu
træi
træið
trækirkja
trælahald
trælahaldi
trælahaldið
trælahandil
trælahandilin
trælalo
trælavatn
trældo
trælir
trælirnir
trælum
trælunum
trælur
træplantur
trætuma
trø
trøini
trøll
trølla
trøllakampar
trøllakampum
trøllakampur
trøllanes
trøllanesi
trøllasteinur
trøllhøvdi
trøllið
trøllkonufingri
trøllont
trøllum
trøndelag
trøum
trøunum
trøð
trøðni
trøðum
ts
tsatt
tsb
tsetning
tsett
tsf
tsipras
tsjo
tskrivað
tskrivaði
tsla
tslan
tslu
tsluland
tsluna
tsluni
tsluvi
tsmaður
tsskipan
tstøða
tstøðan
tstøðu
tstøðufo
tstøðumaður
tsunami
tsy
tsynning
tsynningi
tsynningshorninum
tsynningspartinum
tsøgn
tt
tta
ttafelag
ttafeløg
ttafo
ttagreinir
ttagreinum
ttakara
ttakarar
ttakvinna
ttala
ttalast
ttalað
ttalst
ttamannafar
ttamannafarið
ttamaður
ttan
ttanavn
ttanda
ttandapartsfinalur
ttandi
ttanin
ttanina
ttanini
ttanir
ttanum
ttar
ttarbragd
ttarfelag
ttarfelagið
ttarfo
ttargrein
ttargreinar
ttargreinir
ttargreinum
ttarhallir
ttarhøll
ttarhøllin
ttarhøllina
ttarhøllini
ttarkappingar
ttarleiðari
ttarli
ttarnavn
ttarnir
ttartiltøk
ttasamband
ttast
ttati
ttatia
ttað
ttaði
ttaðist
ttaðu
ttaður
tte
ttersee
ttgangandi
tti
ttikin
ttikið
ttiknir
ttin
ttina
ttingen
ttini
ttinum
ttir
ttirin
ttirnar
ttl
ttleikin
ttma
ttmikla
tto
ttrina
ttrini
ttro
ttu
ttum
ttuna
ttur
tturfelag
tturin
ttøka
ttøku
ttøkur
tu
tuaregar
tubbak
tuberklar
tuberklum
tuchel
tucson
tudo
tufelag
tufelagið
tufelagnum
tufeløg
tuhu
tuhvalur
tulka
tulkast
tulkað
tulking
tulkingar
tulsa
tum
tummar
tummas
tummasar
tun
tuna
tunesia
tung
tunga
tungan
tungi
tunglyndi
tungma
tungt
tungu
tungum
tunguma
tungumal
tungur
tungvekt
tuni
tunis
tunlar
tunlinum
tunlum
tunn
tunnil
tunnilin
tunnilsmunnan
tunnur
tunum
tuo
tupelo
tupi
tur
turbo
turdus
turdy
turen
turf
turid
turin
turing
turista
turistas
turið
turka
turkaland
turkalandi
turkalands
turkar
turkað
turkaðu
turkaður
turkey
turki
turkihu
turkisk
turkiska
turkiskt
turkiskum
turkiskur
turkmenistan
turko
turks
turku
turkum
turkur
turn
turnar
turne
turner
turning
turnos
turnosi
turpin
turr
turra
turrar
turrari
turrastu
turriklæði
turrir
turrlendi
turrligt
turrti
turru
turrum
turrur
turt
tusk
tustu
tusunnu
tusunnudag
tut
tutl
tutsiar
tutu
tuu
tuvalu
tuxedo
tv
tva
tvald
tvaldi
tvaldir
tvaldur
tvarp
tvarpi
tvarpinum
tvarpið
tvarps
tvarpsleikir
tvarpsleikur
tvarpsmaður
tvarpsra
tvarpssendingini
tvarpsstøðini
tvedestrand
tvega
tvegaði
tvegis
tveimum
tveimur
tveir
tveita
tveitt
tveitti
tveittu
tvey
tveyara
tvi
tvið
tvoroyri
tvortis
tvs
tvungin
tvær
tvøra
tvørafo
tvørma
tvøroyrar
tvøroyri
tvørtur
tvørturi
tvørturum
tvøst
twain
twenty
twilight
twin
twist
twitter
two
tx
ty
tygum
tykist
tykjast
tykkara
tykki
tykkum
tyler
tyngri
tyrannosaurus
tyril
tyrlan
tyrlu
tyrluni
tyrlur
tyrningur
tyrros
tyskur
tyvir
tzen
tæk
tæka
tækadømi
tækari
tækasta
tækastu
tækir
tækraby
tækradømi
tækt
tæku
tækum
tæna
tænasta
tænastu
tænastum
tænastur
tænastuvinnuni
tænir
tænt
tær
tætt
tættar
tættari
tættast
tættir
tættur
tøk
tøkiligt
tøkir
tøkk
tøkni
tøknifrøði
tøkniliga
tøknin
tøkt
tøku
tøkum
tøkur
tøl
tølini
tølum
tønder
tørv
tørva
tørvar
tørvaði
tørvi
tørvin
tørvur
tørvurin
tøttum
u
uarctic
ubuntu
uci
ucla
ud
uddevalla
ude
uden
uderzo
udgave
udgivet
udo
udvalg
uefa
uffe
uganda
ugga
uggafjaðrarnar
ugla
uglubo
ui
uk
ukraina
ukrainar
ukraine
ukrainsk
ukrainska
ukrainskir
ukrainskt
ukreina
uldum
ulf
ulige
uliginosum
ull
ulla
ullin
ullina
ulricehamn
ulricehamns
ulrich
ulricus
ulrik
ulster
ultimate
ultra
uluru
ulvaeus
ulysses
um
uma
umaftur
umar
umbering
umberto
umborð
umboð
umboða
umboðan
umboðandi
umboðar
umboðað
umboðaði
umboðaðu
umboðini
umboðið
umboðsmannatinginum
umboðsmannatingið
umboðsmaður
umboðsmenn
umboðsra
umboðsstjo
umboðum
umbygd
umbygging
umbøn
umdømi
umea
umesa
umfar
umfari
umfarinum
umfarið
umfarð
umfata
umfatandi
umfatar
umfataði
umframt
umfør
umførum
umheimin
umheiminum
umheimurin
umhvørvi
umhvørvinum
umhvørvis
umhvørvisma
umhvørvisstovan
umhvørvisstovuni
umhvørvisvirðisløn
umhvørvið
uml
umleið
umliðin
umma
ummæla
ummælari
ummælarum
ummæli
ummælir
umra
umrokning
umrødd
umrødda
umrøddu
umrøddur
umrøtt
umrøða
umrøðu
umseta
umsetari
umseting
umsetingin
umsetingum
umsett
umsettar
umsetti
umsettu
umsi
umsita
umsitin
umsiting
umsitingin
umsitingina
umsitingini
umsitið
umsitur
umsjo
umskipað
umso
umsorgan
umstri
umstøðum
umstøðunum
umstøður
umstøðurnar
umsøkjarar
umsøkjarum
umtalað
umtalu
umto
umvegis
umvenda
umvæla
umvæld
umvælingar
umvælt
un
una
unalaska
unclear
und
undan
undandystur
undanfarnu
undangongumaður
undangongumenn
undangongumonnunum
undankapping
undankappingina
undankappingini
undanmaður
undantak
undantikin
undantikið
undantøk
undanumfar
undanumfari
undanvelt
undarligt
under
underground
undir
undirbo
undirgangsto
undirgrundini
undirhald
undirhaldandi
undirhaldari
undirhu
undirlutan
undirsjo
undirskrift
undirskriftir
undirskriva
undirskrivar
undirskrivast
undirskrivað
undirskrivaði
undirskrivaðu
undirskrivaður
undirslag
undirsløg
undirstovnar
undirtøkan
undirtøku
undirvi
undrast
undraðust
undrið
undset
undur
une
unesco
ung
unga
ungan
ungar
ungarar
ungarn
ungarnar
ungarnir
ungarska
ungarskt
ungarskur
ungdo
ungdom
unge
ungfo
ungfuglurin
ungi
ungir
unglinga
unglingar
ungmannafelag
ungmannafelagið
ungmannafelagnum
ungmannafeløg
ungt
ungu
ungum
ungunum
ungur
uni
unicef
union
unique
unit
unita
united
units
univ
universal
universe
universidade
universita
universiteit
universitet
universiteti
universitetinum
universitetið
universitetsby
universitetscenter
universitetum
university
unknown
unn
unna
unni
unst
unum
up
upload
uploads
upon
upp
uppa
uppaftur
uppat
uppboði
uppby
uppbygt
uppdagar
uppdagað
uppdagaði
uppeftir
upper
uppfann
uppfinnarar
uppfinnari
uppfinningar
uppfinnur
uppfunnin
uppfunnið
uppga
uppgerð
uppgerðin
upphav
upphavi
upphavið
upphavsins
upphiting
upphædd
upphæddin
uppi
uppia
uppiborið
uppihalda
uppii
uppisjo
uppiyvir
uppkallað
uppkallaður
upplandi
upplands
uppliva
upplivað
upplivdi
upplivingar
upplivir
upployst
upploystur
upply
upplysingarskjal
upplæring
uppmerksemi
uppna
uppreisn
uppreistrarbo
uppreistrarfo
uppreistrarmenn
uppreistri
uppreistrinum
uppreistur
uppreisturin
uppruna
upprunafo
upprunaheiti
upprunaheitið
upprunaland
upprunaliga
upprunaligi
upprunaligu
upprunama
upprunan
upprunatittul
uppruni
upprunin
upprættað
uppsagdur
uppsala
uppsamlingsalbum
uppsamlingsfløgur
uppsamlingsu
uppsjo
uppskot
uppskoti
uppskotinum
uppskotið
uppskrift
uppskriftir
uppspunnin
uppsto
upptaka
upptikin
upptikið
uppto
upptøka
upptøkan
upptøku
upptøkunum
upptøkur
upptøkurnar
uppundir
uppvaksin
uppvidinge
uppvøkstur
upright
ur
uran
uranus
urban
urdu
urguleikari
uriks
urin
urini
url
urskifti
ursmi
ursula
urtagarðar
urtagørðum
urtapi
urtir
uruguai
uruguay
uruguei
urðum
us
usa
usain
usatoday
usbekistan
usc
usd
use
used
user
usgs
ushuaia
using
uss
usuman
ut
uta
utah
utc
utenriks
utgave
utm
utrecht
uttan
uttana
uttandura
uttaneftir
uttanflokka
uttanfyri
uttangarðs
uttanhy
uttani
uttanlands
uttanlandshandil
uttanlandshandlinum
uttanlandsma
uttanlandsnevndin
uttanlandsnevndini
uttanri
uttanum
uttara
uttaru
uttast
utøya
uv
uwaga
uwe
uzan
v
va
vaagen
vaasa
vaccinium
vadstena
vaduz
vael
vagaportal
vaglinum
vagn
vagur
vakna
vaknar
vaknaði
vakra
vakrar
vakrast
vakrasta
vakrastu
vakrir
vaks
vaksa
vaksandi
vakshattur
vaksi
vaksin
vaksið
vaksna
vaksnar
vaksnir
vaksnu
vaksnum
vakstrarfyritøka
vakstrarhu
vakt
vakti
vakur
vakurleika
vakurt
val
vala
valaknu
valborg
vald
valda
valdar
valdað
valdaði
valdemar
valdi
valdinum
valdir
valdið
valdsharra
valdsharrar
valdsharri
valdu
valdur
valdømi
valdøminum
valdømir
valdømum
vale
valencia
valentina
valentine
valentino
valevni
valevnunum
valg
valgren
vali
valiant
valinum
valisiskur
valið
valkyrja
valla
vallaraheim
valle
vallentuna
valley
valluttøka
valluttøkan
valmenn
valmonnum
valparai
valravn
valrætt
valsigurin
valskeið
valskeiðið
valstri
valt
valu
value
valum
valur
valuta
van
vancouver
vanda
vandabo
vandama
vandamikil
vandamikið
vandan
vandi
vandin
vanes
vanessa
vang
vangelis
vanir
vanja
vanlig
vanliga
vanligan
vanligar
vanligari
vanligasta
vanligasti
vanligastu
vanligi
vanligir
vanligt
vanligu
vanligum
vanligur
vanlukka
vanlukkan
vanlukku
vanlukkuna
vanlukkuni
vanlukkur
vann
vanrøkt
vansbro
vant
vantandi
vanuatu
vanum
vanur
var
vara
varaborgarstjo
varafo
varaforseti
varaforsetin
varalimur
varaløgmaður
varaløgmenn
varamaður
varandi
varar
varasku
varatingmenn
varaumboðsra
varað
varbergs
varbo
vard
varda
vardi
vardin
vardu
vardur
varfiskur
variatio
varin
varing
varir
varius
varma
varmakelda
varmakeldu
varnast
varnaðist
varney
varnir
varpa
varsemi
vart
vartunnil
vartunnilin
varur
varð
varða
varðanum
varðar
varðin
varðveita
varðveitast
varðveitir
varðveitslu
varðveitt
varðveitti
varðveittir
varðveittu
varðveittur
vasa
vasili
vaska
vast
vasta
vat
vatikaninum
vatikanið
vatikanri
vatn
vatnaku
vatnflo
vatnhamar
vatni
vatninum
vatnið
vatnorka
vatnorku
vatnorkuverk
vatnorkuverkið
vatnsdal
vatnskorpuna
vatnskorpuni
vatnsoyrar
vatnsoyrum
vatntrot
vavi
vað
vaðhorn
vb
vbjarga
vde
ve
vecchio
ved
veetos
veg
vega
vegakervið
vegard
vegas
vegasamband
vegg
veggin
vegginum
veggirnar
veggirnir
vegi
vegin
vegir
vegis
vegkappsu
vegleiða
vegleiðari
vegleiðing
vegna
vegnum
vegsu
vegum
vegunum
vegur
vegurin
veidd
veiddir
veiddu
veiddur
veik
veikan
veikir
veikt
veiku
veikur
veil
veils
veingir
veingirnar
veingirnir
veingjum
veingjunum
veit
veita
veitari
veitin
veitina
veiting
veitir
veitsla
veitslu
veitslur
veitst
veitt
veitti
veittu
veiða
veiði
veiðiferð
veiðifo
veiðimenn
veiðir
veiðu
vejen
vejle
vekja
vekk
veksa
veksandi
veksur
vekt
vekteind
vel
vela
velbastað
velbastaður
veldi
veldiga
veldið
veldst
veli
velinum
velið
velja
veljarar
veljarin
veljarum
veljarunum
veljast
vellinge
velt
velta
veltar
veltu
veltuna
veltuni
veltur
velturnar
velur
venceslaus
vencil
vencili
vend
venda
vendi
vendir
vendsyssel
vendu
vene
venesia
venesuela
venezuela
venice
venja
venjara
venjarar
venjararnir
venjari
venjarin
venjing
venjingardystur
venjingarsku
venner
vennesla
venstre
vent
vento
venur
venus
ver
vera
veraldarbardaga
veraldarbardagi
verandi
vercelli
verd
verde
verden
verdens
verdi
verdur
veri
verið
verja
verjan
verji
verjir
verju
verjuleikarar
verjuleikari
verjuma
verjuna
verjuni
verjur
verk
verka
verkafo
verkalix
verkamannafylkingin
verkamannafylkingina
verkfall
verkfalli
verkfrøðingar
verkfrøðingur
verki
verkini
verkinum
verkið
verksetarafelag
verksetari
verkseti
verksmiðja
verksmiðjum
verksmiðjuni
verksmiðjunum
verksmiðjur
verkstaðið
verkum
verkætlan
verkætlanin
verkætlanina
verkætlanini
verkætlanir
verkætlanum
verlag
verland
verma
vermeer
vermir
vermont
vernd
verndarhalgimenni
verne
vernon
verona
veronica
verpa
verpur
verri
vers
versace
versio
version
versjo
versnaði
versnaðu
verstappen
versti
vert
vertin
vertir
vertornea
vertsby
vertstjo
vertunum
vertur
verturin
veru
veruleika
veruleikan
veruleikanum
veruleiki
veruli
verulig
veruliga
veruligar
veruligi
veruligt
veruligu
verum
verur
very
verð
verða
verðandi
verði
verðin
verðina
verðini
verðið
verðu
verður
vesaas
vescovo
vespucci
vest
vestager
vestan
vestanfyri
vestanmu
vestanstevna
vestanstevnan
vestanstevnu
vestantil
vestara
vestari
vestarlaga
vestaru
vestasti
vestergaard
vestfold
vestland
vestmanna
vestmannasund
vestmenn
vestmenningar
vestmenningur
vestmonnum
vestre
vestri
vestsjællands
vestur
vesturafrika
vestureftir
vesturevropa
vesturfri
vesturgermansku
vesturgrønlandi
vesturheimin
vesturheiminum
vesturheimurin
vesturi
vesturkirkjan
vesturlandinum
vesturlendskum
vesturpakistan
vesturri
vestursa
vestursahara
vestursi
vesturstrond
vesturstrondina
vesturstrondini
vesturty
vesuv
vet
vetlanda
vetrar
vetrarha
vetrarmorgnarnar
vetrarmorgun
vetrarnir
vetrarso
vetri
vetur
veturin
veva
vevnafrøði
veyhe
vez
veðrar
veðri
veðrinum
veðrið
veðrur
veður
veðurfrøði
veðurlag
veðurlagi
veðurlagið
veðurlagnum
veðurlagsbroytingar
vf
vfrøði
vfrøðiliga
vfrøðiligu
vfrøðingur
vg
vh
vhs
vi
via
viasat
vibeke
viborg
vic
vicente
victor
victoria
victoriu
victory
vid
vida
videbæk
video
videolag
videospøl
viderø
vids
vie
vierwaldsta
vietnam
view
vif
viga
vigar
vigaði
vigdi
viggo
vigo
vii
viia
viib
viid
viih
viii
vik
vika
vikarur
vikavist
viken
viking
vikings
vikna
viknaði
viks
viktor
viktoria
viktoriuvatn
viku
vikublaðið
vikudagur
vikum
vikuna
vikuni
vikur
vikurnar
vikuskifti
vikuskiftinum
vikuskiftið
vil
vila
vild
vildar
vildi
vildu
vilhelm
vilhelmina
vilhelmsen
vilhja
vilja
viljað
vilji
viljin
vill
villa
village
villar
villas
ville
villi
villiam
villingadalsfjall
villini
villmenn
villsvi
villu
villum
villur
villy
vilnius
vilt
vimmerby
vin
vinaby
vinadyst
vinadystir
vinalag
vinarby
vinardystur
vinarlag
vinarliga
vince
vincent
vincenzo
vinci
vind
vinda
vinden
vinder
vindeyga
vindeygu
vindi
vindinum
vindmegi
vindrose
vindur
vindurin
vinfo
vinga
vingur
vini
vinir
vinje
vinkona
vinmaður
vinmenn
vinna
vinnan
vinnandi
vinnaranum
vinnarar
vinnararnir
vinnari
vinnarin
vinnie
vinningi
vinningurin
vinnu
vinnubankan
vinnubankanum
vinnubankin
vinnufeløg
vinnufyritøkur
vinnuhu
vinnuli
vinnuliga
vinnuligt
vinnuligum
vinnum
vinnuma
vinnuna
vinnunevnd
vinnunevndini
vinnuni
vinnur
vinnurekandi
vinnuto
vinnuvegir
vinnuvegur
vinnuvegurin
vinnuvitan
vinsent
vinskap
vinstra
vinstrahallur
vinstri
vinstru
vinstrumegin
vinter
vinther
vinum
vinur
vinurin
viola
violence
violetta
violin
violinir
violinkonsert
violinleikari
vir
vird
virdu
virdur
virgil
virgilius
virgin
virginia
virka
virkan
virkandi
virkanin
virkar
virkast
virkað
virkaðar
virkaði
virkaðu
virkaður
virki
virkin
virkini
virkinum
virkisøkið
virkið
virkna
virknar
virknir
virknum
virksemi
virkseminum
virksemið
virtual
virus
virusið
virða
virði
virðiliga
virðing
virðingina
virðini
virðir
virðis
virðisbrævamarknaðinum
virðisbrævamarknaðurin
virðisløn
virðislønin
virðislønina
virðislønini
virðislønir
virðislønirnar
virðislønum
virðismikil
virðið
virðum
vis
visa
visby
viser
vishnu
visible
visingar
vision
visions
visit
visitor
visitsuduroy
visnað
vissa
vissan
visst
vissu
vist
vista
vistfrøði
visti
vistu
visualeditor
visundar
vit
vita
vitalis
vitamin
vitaminir
vitaminirnar
vitan
vitandi
vitað
viti
vitin
vitja
vitjan
vitjandi
vitjanir
vitjar
vitjað
vitjaða
vitjaði
vitjaðu
vitjunarverd
vitna
vitni
vitnum
vito
vitramannasteinurin
vittorio
viva
vivaldi
vivian
vivino
vivo
við
viðareiði
viðareiðis
viðarlund
viðarlundin
viðarlundina
viðarlundini
viðarlundir
viðarlundum
viðfarin
viðferð
viðførdi
viðger
viðgera
viðgerð
viðgerðar
viðgitin
viðgitnir
viðgitnu
viðgjørd
viðgjørdar
viðgjørt
viðgongur
viðhald
viðhaldsfo
viðhaldsmenn
viðhvørt
viði
viðkomandi
viðli
viðmerking
viðmerkingar
viðmerkt
viðoy
viðoynni
viðstein
viðtikin
viðtikið
viðtiknar
viðto
viðtøkum
viður
viðurin
viðurkend
viðurkenda
viðurkendi
viðurkendir
viðurkendur
viðurkenna
viðurkenning
viðurkennir
viðurkent
viðurskifti
viðurskiftini
viðurskiftum
viðurskiftunum
viðvi
viđ
vjetnam
vjetnamesiskt
vjetnamkri
vlaanderen
vladimir
vladivostok
vlangt
vle
vleborgs
vliga
vligur
vlinge
vløgm
vm
vmo
vo
voblast
voc
vocal
vocalist
vocals
voce
vodafone
vodafonedeildin
vodafonedeildini
vodka
vogt
vogue
voice
voices
vol
vold
volda
voldemort
voldi
volga
volkswagen
volleyball
volta
voltaire
volume
volvo
von
vongur
vor
vore
vort
vorði
vorðin
vorðið
vorðnar
vorðnir
vostok
vote
vovið
voy
voyage
voyager
voyar
vp
vra
vrak
vrakið
vreiði
vrt
vrunnin
vrunnið
vs
vsa
vsfo
vsfrøði
vsgrundarlagið
vsha
vsins
vsjo
vskor
vskorini
vskvinna
vsleið
vsleiðin
vsmaður
vsneyðug
vssøga
vssøgu
vst
vsti
vstrygging
vsævin
vtøku
vu
vua
vudagur
vuelta
vugo
vukonsert
vuksu
vulcan
vulgare
vulgaris
vulkanskum
vum
vuna
vundið
vuni
vunni
vunnin
vunnið
vunnu
vunum
vur
vurin
vurnar
vust
vuvald
væl
vælda
væleydnaða
vælferð
vælgerandi
vælkent
vælkomin
vælskapt
vælumto
vælvild
vænta
væntandi
væntar
væntast
væntað
væntaði
vær
være
været
væta
vætu
vøkru
vøkrum
vøkstri
vøkstrinum
vøkstur
vøksturin
vøkur
vøll
vølli
vøllin
vøllinum
vøllur
vøllurin
vøluspa
vøra
vøran
vøru
vørum
vørumerki
vøruna
vørunum
vørur
vørurnar
vøruu
vøtn
vøtnini
vøtnum
vøtnunum
w
wa
waag
waagstein
wacken
wade
wagner
wagoner
wahl
wahlgren
waiting
wake
wakeoy
walcott
wales
walisiska
walisiskt
walisiskum
walisiskur
walk
walker
walking
wall
wallace
wallis
wallonie
wallonne
walls
walt
walter
wanderers
wang
wanna
want
wanted
war
ward
warda
wardum
warhol
warner
warren
warrior
warriors
wars
warszawa
was
washington
washingtonpost
wassenbergh
watch
water
waterfront
watergate
waterloo
waters
watford
watson
watts
wave
waves
way
wayne
wbt
wd
we
weapon
wearing
weather
weaver
web
website
wedding
week
weekend
weidenfeller
weihe
welcome
well
wellington
wells
welsh
welt
wembley
wen
went
were
werner
wes
wesley
west
westerbeek
westergaard
westerlund
western
westfalen
westlife
westminster
westport
weyhe
wfp
whale
what
when
where
which
while
whiskey
whisky
white
whitehorse
whitman
whitney
who
why
wiberg
wich
wichita
wide
widmark
width
wie
wien
wiesbaden
wigant
wight
wiki
wikileaks
wikimedia
wikipedia
wikipediu
wikisource
wikivoyage
wikland
wilamowice
wild
wildcard
wilde
wilder
wilhelm
wilkerson
will
willem
william
williami
williams
willie
willis
willoch
willow
willy
wilson
wiltshire
win
wind
windhoek
winding
windows
windsor
wine
wings
winner
winners
winnie
winoujs
winspector
winston
winter
winther
wipo
wisconsin
wish
with
without
wittenberg
wives
wo
wolf
wolfgang
wolinski
wollstonecraft
wolverhampton
woman
women
won
wonder
wonderful
wonderland
wood
wooden
woodrow
woods
woody
woolf
word
wordpress
words
work
working
works
world
worldnews
worldrowing
worlds
worldtour
worldwide
worms
worship
worth
wosm
would
wounded
woza
wozniacki
wozniak
wp
wrath
wright
write
writers
writing
wsj
wsoy
wta
wto
wu
wuhan
wurst
ww
www
wye
wynette
wyoming
x
xbox
xfactor
xhosa
xi
xii
xiii
xiv
xjo
xperiment
xvi
xxi
xxiva
xxivb
y
ya
yahoo
yahya
yale
yamaha
yang
yangtze
yasser
yayoi
yeager
year
years
yell
yellow
yellowknife
yellowstone
yes
yesterday
yggdrasil
yibin
yitzhak
ymis
ymisk
ymiska
ymiskan
ymiskar
ymiskir
ymiskt
ymisku
ymiskum
ymiskur
ymist
ymsa
ymsan
ymsar
ymsastaðni
ymsir
ymsu
ymsum
yn
yndi
yndigt
yngra
yngri
yngru
yngsta
yngsti
yngstu
ynski
ynskir
ynskja
ynskt
ynskti
ynsktu
ynys
yo
yoko
yokohama
yolanda
york
yorkshire
yorktown
you
young
your
yours
yourself
youth
youtube
yrki
yrking
yrkingar
yrkingarnar
yrkingarsavn
yrkingasavn
yrkingasavninum
yrkingasavnið
yrkingasøvn
yrkingin
yrkingina
yrkingini
yrkingum
yrkingunum
yrkisbo
yrkisfelag
yrkisfo
yrkisleiklist
yrkisleið
yrkissjo
yrkja
yrkjara
yrkjarar
yrkjari
yrkjarin
yrkjarum
yrkjarunum
yrkt
yrkti
yrktur
ystad
ystads
ytra
ytri
ytru
ytst
ytsta
ytstifjo
yu
yuka
yukon
yvir
yvirav
yvirfamilia
yvirfamilja
yvirgang
yvirgangi
yvirgangsa
yvirgangsatso
yvirgangsbo
yvirgangsfelagsskapir
yvirgangsfelagsskapurin
yvirgangsfo
yvirgangsmaður
yvirgangsmenn
yvirgangsmenninir
yvirgangur
yvirha
yvirhu
yvirhøvur
yviri
yvirlit
yvirliti
yvirlitinum
yvirlitið
yvirliva
yvirlivað
yvirlivdi
yvirlivdu
yvirly
yvirlækni
yvirmaður
yvirna
yvirnatu
yvirræði
yvirskot
yvirskotið
yvirtaka
yvirtekur
yvirtikin
yvirtikið
yvirto
yvirtøkulo
yvirum
yvirvaldi
yvirvaldið
yður
z
za
zacharias
zachariasen
zachariassen
zagreb
zakarias
zakynthos
zanzibar
zar
zarin
zarur
zarurin
ze
zealand
zedong
zef
zeitschrift
zelmerlo
zeppelin
zero
zevs
zevsar
zh
zhou
zi
zidane
zimbabwe
zinedine
ziska
zlatan
zolta
zoo
zoology
zquez
zu
zuckermann
zuid
zulu
zum
zuma
zur
zurich
zwarte
zwolle
zz
{
|
}
~
¢
£
¤
§
¨
ª
«
­
®
°
±
²
³
´
·
¹
º
»
¼
½
×
ß
æ
ægir
ælaboganum
ær
æra
æru
ærumeiðing
æruna
æsir
æt
æti
ætla
ætlan
ætlandi
ætlanin
ætlanina
ætlanini
ætlanir
ætlanum
ætlar
ætlað
ætlaðar
ætlaði
ætlaðu
ætlaður
ætt
ættarbo
ættarlið
ættarliði
ættarliðini
ættarliðið
ættað
ættaðir
ættaður
ættbo
ættin
ættini
ættir
ættirnar
ættleidd
ættleiða
ættleiðing
ættum
æventyr
ævi
ævinliga
ævinty
ævir
ævisøga
æða
æðrar
æðuvi
ð
ða
ðagitin
ðagitna
ðagitnu
ðaldu
ðaldur
ðamansgarði
ðan
ðandi
ðani
ðanna
ðar
ðara
[...]
