!
"
#
##0
##1
##10
##11
##12
##13
##14
##15
##16
##17
##18
##19
##2
##20
##21
##22
##23
##24
##25
##26
##27
##28
##29
##3
##30
##31
##32
##33
##34
##35
##36
##37
##38
##39
##4
##40
##41
##42
##43
##44
##45
##46
##47
##48
##49
##5
##50
##51
##52
##53
##54
##55
##56
##57
##58
##59
##6
##60
##61
##62
##63
##64
##65
##66
##67
##68
##69
##7
##70
##71
##72
##73
##74
##75
##76
##77
##78
##79
##8
##80
##81
##82
##83
##84
##85
##86
##87
##88
##89
##9
##90
##91
##92
##93
##94
##95
##96
##97
##98
##99
$
%
&
'
(
)
*
+
,
-
.
/
0
00
000
001
003
01
02
03
04
0405
05
06
07
08
09
1
10
100
1000
10000
1004
101
1010
1011
1017
1018
102
1021
1024
1025
1029
103
1030
1032
1035
1037
1038
104
1040
1041
1048
1049
105
1055
1058
106
1060
1061
1063
1066
1067
107
1071
1072
1073
1074
1075
1077
1079
108
1085
1086
1087
1089
109
1091
1092
1093
1094
1095
1097
1099
11
110
1100
1102
1103
1104
1105
1109
111
1113
1118
112
1121
1128
113
1130
1131
1138
114
115
1154
1155
1156
1157
116
1160
1162
1166
1167
117
1172
118
1187
119
1190
1192
1199
12
120
1200
12000
1204
1206
121
1211
1215
1219
122
1220
1221
1222
1224
1225
1226
1227
1228
1229
123
1231
1235
1237
1238
124
1240
1241
1242
1243
1246
1247
125
1250
1254
1256
1258
126
1260
127
1270
1277
128
1280
1281
1283
129
1299
13
130
1300
1302
1307
1308
131
132
1320
1326
1328
133
1337
134
135
1350
1359
136
1360
1362
1366
1368
137
1370
1375
1377
1378
138
1380
1381
1382
1388
1389
139
1394
1395
1396
1397
1398
1399
14
140
1400
1404
1405
1409
141
1410
1411
1414
1415
1419
142
1425
1428
143
1430
1434
144
1441
1444
1446
1447
145
1450
1453
1455
1456
1457
146
1465
1466
1468
1469
147
1477
1478
1479
148
1481
1483
1484
1485
1487
149
1492
1493
1494
1497
1498
1499
15
150
1500
1501
1502
1503
1504
1505
1506
1507
151
1510
1511
1512
1514
1516
1517
1519
152
1520
1521
1522
1524
1525
1526
1527
1529
153
1530
1535
1536
1537
1538
154
1543
1546
1547
1548
155
1550
1553
1554
1555
1556
1557
1558
156
1560
1561
1562
1563
1564
1566
1567
1569
157
1570
1571
1572
1576
1578
158
1580
1581
1585
1587
1588
159
1590
1595
1596
1598
16
160
1600
1602
1603
1605
1606
1609
161
1612
1613
1616
1617
1618
162
1620
1623
1626
1627
1628
1629
163
1632
1637
1639
164
1642
1644
1645
1646
1647
1648
1649
165
1650
1653
1658
166
1660
1665
1666
168
1681
1683
1685
1687
1689
1690
1691
1694
1695
17
170
1700
1701
1703
1704
1705
1708
171
1710
1712
1714
1715
1718
172
1720
1721
1722
1723
1724
1725
1726
1727
173
1730
1732
1733
1734
1735
1736
174
1740
1741
1743
1747
175
1750
1751
1755
1756
1757
1759
176
1760
1761
1762
1763
1764
1765
1767
1768
1769
177
1770
1771
1773
1774
1775
1776
1777
1778
1779
178
1780
1781
1782
1783
1784
1785
1786
1787
1788
1789
179
1790
1791
1792
1793
1794
1795
1796
1797
1798
1799
18
180
1800
1801
1802
1803
1804
1805
1806
1807
1808
1809
181
1810
1811
1812
1813
1814
1815
1816
1817
1818
1819
182
1820
1821
1822
1823
1824
1825
1826
1827
1828
1829
183
1830
1831
1832
1833
1834
1835
1836
1837
1838
1839
184
1840
1841
1842
1843
1844
1845
1846
1847
1848
1849
185
1850
1851
1852
1853
1854
1855
1856
1857
1858
1859
186
1860
1861
1862
1863
1864
1865
1866
1867
1868
1869
187
1870
1871
1872
1873
1874
1875
1876
1877
1878
1879
188
1880
1881
1882
1883
1884
1885
1886
1887
1888
1889
189
1890
1891
1892
1893
1894
1895
1896
1897
1898
1899
19
190
1900
1901
1902
1903
1904
1905
1906
1907
1908
1909
191
1910
1911
1912
1913
1914
1915
1916
1917
1918
1919
192
1920
1921
1922
1923
1924
1925
1926
1927
1928
1929
193
1930
1931
1932
1933
1934
1935
1936
1937
1938
1939
1940
1941
1942
1943
1944
1945
1946
1947
1948
1949
195
1950
1951
1952
1953
1954
1955
1956
1957
1958
1959
196
1960
1961
1962
1963
1964
1965
1966
1967
1968
1969
197
1970
1971
1972
1973
1974
1975
1976
1977
1978
1979
198
1980
1981
1982
1983
1984
1985
1986
1987
1988
1989
199
1990
1991
1992
1993
1994
1995
1996
1997
1998
1999
2
20
200
2000
20000
2001
2002
2003
2004
2005
2006
2007
2008
2009
201
2010
2011
2012
2013
2014
2015
2016
2017
2018
2019
202
2020
2021
2022
2023
2024
203
2030
204
205
206
207
208
209
21
210
211
212
213
214
215
216
217
218
22
220
2200
222
223
224
225
226
227
23
230
232
234
235
236
237
24
240
241
242
245
247
248
249
25
250
2500
251
252
253
255
256
26
260
261
262
263
264
265049
268
269
27
270
271
272
273
275
276
28
280
2800
281
285
286
287
289
28961
29
290
292
299
3
30
300
3000
302
304
309
31
310
311
314
32
320
321
322
323
324
327
328
329
33
330
331
332
333
334
336
34
340
341
343
346
347
349
35
350
3500
353
355
356
358
359
36
360
362
365
366
37
370
375
377
378
379
38
380
384
39
391
394
395
399
4
40
400
4000
401
402
404
405
406
408
41
410
411
415
419
42
420
424
425
426
427
428
429
43
430
431
432
44
440
4400
444
446
449
45
450
451
453
454
455
457
46
460
464
47
471
478
479
48
480
484
485
486
488
49
490
4909
493
494
495
498
499
5
50
500
5000
50000
5017
505
51
512
52
521
522
525
529
53
530
538
539
54
55
550
554
556
56
560
57
570
571
58
585
587
59
590
595
598
6
60
600
6000
605
608
61
610
617
62
620
622
625
63
630
632
634
64
640
644
65
650
651
653
654
656
66
660
661
66398
669
67
671
675
679
68
69
690
7
70
700
7000
71
712
715
717
72
73
730
732
735
737
74
740
745
747
75
750
755
76
762
77
776
777
78
780
783
79
8
80
800
8000
81
813
816
82
820
821
83
837
839
84
840
844
846
85
86
864
869
87
870
872
873
874
875
88
885
89
892
9
90
900
902
907
91
910
92
925
93
930
935
94
940
95
950
96
960
968
97
970
973
974397
975
976305
978
98
980
980352
99
993
997
999
:
;
<
=
>
?
@
[
\
]
^
_
a
aa
aang
aaralygynda
aaralygynyn
aaron
ab
aba
abadan
abadanc
abadanlas
abahay
abaka
abaly
abanmagyna
abany
abanyp
abanypdyr
abas
abat
abatlay
abay
abbas
abbasid
abbasitler
abbasy
abbasyn
abc
abd
abdal
abdallah
abdallar
abdu
abdul
abdulaziz
abdulazizin
abdulhamid
abdulhamit
abdulla
abdullah
abdullay
abdulmejidin
abdulmejit
abdy
abdylhalyk
abdylhekim
abdylkadyr
abdylkadyryn
abdylla
abdyllah
abdyllahan
abdyllatyp
abdyllay
abdyrahman
abdysetdar
abgu
abgunyn
abhaz
abhaziy
abi
abil
abiwert
abiy
ablon
abonent
abonentlerin
aboral
about
above
abr
abra
abraham
abray
abraziw
abrda
abrdan
abrikosow
abrnda
abry
abryn
abryna
abrynda
abryndaky
abryndan
abs
absoly
absses
abstraksiy
abu
abul
abulgazy
abulgazynyn
abulkasym
aby
abyl
abylgazy
abylgazynyn
abylhay
abyn
abzal
abzallary
abzallas
ac
academy
access
accessed
account
acid
action
active
ad
ada
adada
adadaky
adaky
adalar
adalarda
adalardan
adalary
adalaryn
adalaryna
adalarynda
adalaryny
adalarynyn
adalat
adalata
adalatly
adalatlylyk
adalatsyz
adalatsyzlygy
adalatsyzlyk
adalatyn
adalga
adalgalary
adalgany
adalgasy
adalgasyny
adalgasynyn
adam
adama
adamda
adamdan
adamdy
adamdygyny
adamdyr
adamka
adamlar
adamlara
adamlarda
adamlardan
adamlardyr
adamlary
adamlaryn
adamlaryna
adamlaryndan
adamlaryny
adamlarynyn
adamly
adamlyk
adams
adamsy
adamsyna
adamsyny
adamsynyn
adamy
adamyn
adamyny
adamynyn
adamzada
adamzady
adamzadyn
adamzat
adan
adana
adany
adanyn
adap
adarlarynyn
adasy
adasyna
adasynda
adasyndaky
adasyny
adasynyn
adat
adatc
adatdan
adaty
adaw
adawlyk
adawsyz
aday
adds
ade
adessanynda
adi
adiy
adlary
adly
administrasiy
administratiw
administrators
adminstratiw
admiral
admiraly
adobe
adrian
adriatik
adro
adronyn
adrosy
adsl
ady
adybelli
adybir
adydyr
adyga
adyl
adylar
adyldy
adyly
adym
adymy
adyn
adyna
adynda
adyndaky
adyndan
adyny
adynyn
adyp
adypdyr
adypdyrlar
adyr
adyrda
adyrlar
adyry
adyryn
adyy
aeroport
af
afc
affairs
afina
afinanyn
afiny
afinyda
afinydan
afinylylar
afinyny
afinynyn
afk
afrasiy
afrasyy
africa
african
afrigitler
afrika
afrikaans
afrikada
afrikadaky
afrikadan
afrikaly
afrikan
afrikany
afrikanyn
afs
aft
after
afygy
ag
aga
agac
agada
agadan
agady
again
against
agaja
agajan
agajy
agajyn
agajyndan
agajynyn
agal
agalan
agalar
agalara
agalarda
agalardan
agalary
agalaryn
agalaryna
agalaryny
agalarynyn
agaly
agalygy
agalygyn
agalygyna
agalygyny
agalygynyn
agalyk
agalykda
agalykdan
agamuhammet
agan
aganda
agany
aganyn
agar
agaran
agaryp
agasy
agasyna
agasyny
agasynyn
agatay
agay
agdardy
agdarlys
agdarmak
agdary
agdaryldy
agdarylmagy
agdaryly
agdarylyp
agdarylys
agdaryp
agday
agdyk
agdyklyk
age
agency
agent
agentliginin
agesilay
agitasiy
agla
aglaba
aglabasy
aglabasyny
aglabasynyn
aglama
aglamak
aglap
aglar
aglara
aglary
aglaryn
aglaryny
aglas
aglatmak
aglay
agly
aglygy
aglyk
agmyr
agny
ago
agram
agrama
agramly
agramlylygy
agramlylyk
agramy
agramyna
agramyny
agrar
agressiw
agressiy
agronomiy
agry
ags
agsak
agtarmak
agtaryp
agtarys
agty
agtygy
agtygydyr
agtygynyn
agtyklary
agtyklarynyn
agtylyga
agtylygy
agtylygyn
agtylyk
agy
agyl
agymtyl
agyn
agyna
agynda
agyndaky
agyndan
agyny
agynyn
agyp
agyr
agyran
agyrdy
agyrdylar
agyrlas
agyrlygy
agyrlyk
agyrmagy
agyrmak
agyrmay
agyry
agyrylan
agyrylar
agyrylary
agyryldy
agyryly
agyrylyp
agyrylypdyr
agyrylys
agyryny
agyrynyn
agyryp
agyrypdyr
agyrypdyrlar
agyrys
agyrysy
agys
agysy
agyz
agyzda
agyzdan
agyzlaryn
agyzy
agyzzyryk
agza
agzac
agzalalyk
agzalalyklar
agzalan
agzalar
agzalara
agzalary
agzalaryn
agzalaryna
agzalaryndan
agzalaryny
agzalarynyn
agzaly
agzalyga
agzalygyna
agzalyp
agzam
agzama
agzan
agzanyn
agzap
agzasy
agzasydy
agzasydyr
agzasyna
agzasynyn
agzeki
agzy
agzybir
agzybirligi
agzybirlik
agzybirlikde
agzybirlikli
agzyn
agzyna
agzynda
agzyndan
agzyny
agzynyn
ah
aha
ahal
ahala
ahalam
ahalanan
ahalar
ahalara
ahalary
ahalarynyn
ahalda
ahaldan
ahally
ahalteke
ahaly
ahalyn
ahamc
ahasy
ahasyna
ahat
ahata
ahatc
ahatlar
ahatlary
ahaty
ahatyn
ahatynyn
ahbar
ahberdi
ahberdinin
ahead
ahemeniler
ahemenilerin
ahemenitler
aher
aherde
aheri
aherin
aherinde
aherleri
ahey
ahlak
ahlakly
ahlaky
ahli
ahly
ahmal
ahmed
ahmede
ahmedin
ahmedow
ahmet
ahmiy
ahmyr
ahruh
ahruhyn
ahs
ahslar
ahslara
ahslaryn
ahsy
ahsyy
ahu
ahun
ahunyn
ahwa
ahy
ahyn
ahynyn
ahyr
ahyrana
ahyrda
ahyrdyr
ahyret
ahyrky
ahyrlar
ahyrlary
ahyrlaryn
ahyrlaryna
ahyrlarynda
ahyrlaryndan
ahyrlarynyn
ahyrson
ahyry
ahyryn
ahyryna
ahyrynda
ahyryndaky
ahyryndan
ai
aids
air
airplay
airport
ais
aiw
aja
ajak
ajal
ajala
ajam
ajap
ajax
ajay
ajy
ajygy
ajyk
ajyklar
ajyklary
ajyklaryn
ajymtyk
ak
aka
akabe
akad
akademigi
akademik
akademiki
akademiy
akalary
akalarynda
akalaryndaky
akan
akar
akasy
akasyna
akasynda
akasyndaky
akasyny
akasynyn
akbar
akc
akda
akdaky
akdakylar
akdakylardan
akdakylary
akdan
akdas
akden
akdepe
akdy
akdylar
akdyryly
akgaby
akgala
akgan
akgap
akgaplary
akgoy
akitler
akitlerin
akja
akkad
akkra
akky
aklama
aklamak
aklamalar
aklamalara
aklamalaryna
aklamany
aklamasy
aklan
aklanyly
aklap
aklar
aklara
aklarda
aklary
aklaryn
aklaryna
aklarynda
aklaryny
aklarynyn
aklawc
aklawjy
aklay
aklendiriji
akly
aklygy
aklygyn
aklygyna
aklyk
aklylar
aklyn
akma
akmaga
akmagy
akmak
akmay
akmyrat
aknas
aknys
ako
akow
akowyn
akp
akpamyk
aks
aksa
aksaray
aksioner
aksiy
aksyz
aktivistler
aktiw
aktly
aktokay
aktrisa
aktrisasy
aktry
aktrysa
akty
akubowskiy
akup
akus
akut
akwatoriy
aky
akyda
akydasy
akyl
akylan
akyldan
akyldar
akyldarlar
akyldarlary
akyldarlaryn
akyldary
akyldarymyz
akyldaryn
akylly
akylsyz
akyly
akylygy
akylyk
akylyn
akylyp
akym
akyma
akymlar
akymlary
akymlaryn
akymlaryna
akymlarynda
akymlarynyn
akymly
akymsyz
akymy
akymyn
akymyna
akymynda
akymyndaky
akymyny
akymynyn
akyn
akynda
akyndan
akyndyr
akynlarynda
akynlas
akyny
akynynda
akynyndaky
akynyndan
akyp
akypdyr
akypdyrlar
akyr
akyrt
akyry
akys
al
ala
alabama
alabay
alac
alada
aladalary
aladaly
aladasy
aladasyny
aladdin
alaeddin
alaja
alajy
alak
alam
alamak
alamanc
alamat
alamatlandyry
alamatlar
alamatlara
alamatlary
alamatlaryn
alamatlaryny
alamatlarynyn
alamatsyz
alamaty
alamatydyr
alamberdaryn
alan
alana
alanan
alanc
alanda
alandan
alandygy
alandygyny
alandyr
alanlar
alanlaryn
alanlaryndan
alanmagy
alanson
alany
alanymyzdan
alanyn
alanyndan
alap
alar
alara
alarda
alardaky
alardan
alardy
alardyr
alary
alaryn
alaryna
alarynda
alaryndan
alaryny
alarynyn
alas
alasy
alasyn
alasynlyk
alat
alay
alba
alban
albaniy
albary
albert
alberto
albom
albomda
albomlary
albomy
albomyn
albomynda
albomyny
albomynyn
album
alc
alda
aldamak
aldan
aldap
aldaw
aldawa
aldawc
aldi
aldo
aldy
aldylar
aldym
aldyrmak
ale
aleks
aleksandr
aleksandra
aleksandriy
aleksandrowic
aleksandryn
aleksey
alexa
alexander
aley
alfa
alfred
alfredo
algebra
algebraik
algebranyn
algiris
algoritm
algy
alhimiy
ali
alice
alija
alili
alis
aliy
aljak
aljakdygyny
aljyran
aljyrap
alka
alkogol
alkymynda
alkys
all
alla
alladan
allah
allaha
allahdan
allahu
allahumme
allahy
allahym
allahyn
allan
allany
allanyn
allar
allara
allarda
allardan
allary
allaryn
allaryna
allaryndan
allaryny
allarynyn
allatagala
allatagalanyn
allay
alle
allergiki
allergiy
alliance
ally
allyk
allylyk
alma
almady
almadyk
almaga
almagy
almagyn
almagyna
almagyny
almagynyn
almak
almakc
almakda
almakdan
almakdy
almaklary
almaklyga
almaklygy
almaklyk
almaly
almalydy
almalydyr
alman
almandyr
almaniy
almany
almanyn
almasy
almay
almaz
almazdan
almazlyk
almis
aln
alnan
alnanda
alnandan
alnigi
alnyp
alnypdy
alnypdyr
alnys
alo
alp
alpak
alpyldawuk
als
alsa
alsak
alsan
also
alt
alta
altalyk
altay
alternatiw
altlas
altlyk
altmys
alto
alty
altymyrat
altyn
altyna
altyndan
altyndepa
altyndepe
altyndepede
altynjy
altyny
altynyn
altysy
alves
aly
alyan
alyar
alyc
alyda
alydy
alydyr
alyga
alygy
alygyn
alygyna
alygynda
alygyny
alygynyn
alyjy
alyjylar
alyjylyk
alyk
alykda
alyklar
alyklary
alyklaryn
alylar
alylara
alylardan
alylary
alylaryn
alylyk
alym
alyma
alymdas
alymdyr
alymlar
alymlara
alymlardan
alymlary
alymlaryn
alymlaryna
alymlaryndan
alymlarynyn
alymlyk
alymtyl
alymy
alymyn
alyn
alyna
alynan
alyndan
alyndy
alynky
alynmady
alynmadyk
alynmagy
alynmagyna
alynmagyny
alynmagynyn
alynmak
alynmalydyr
alynmay
alynsa
alyny
alynyar
alynyn
alynyp
alynypdyr
alyp
alypdy
alypdyr
alypdyrlar
alys
alytegin
alyy
alz
alıs
am
ama
amaga
amagy
amagyn
amagyna
amagyndan
amagyny
amagynyn
amak
amal
amala
amaldan
amallar
amallara
amallary
amallaryn
amallaryny
amallarynyn
amaly
amalyn
aman
amana
amanadyny
amanat
amandan
amangeldi
amangu
amanlyk
amanov
amanow
amanulla
amany
amanyn
amar
amat
amatly
amatlydy
amatlydyr
amatlyklary
amatsyz
amay
amaz
amazonka
ambedkar
amc
amda
amdan
ame
america
american
amerika
amerikada
amerikadaky
amerikadan
amerikally
amerikaly
amerikalylaryn
amerikan
amerikanlar
amerikanlaryn
amerikany
amerikanyn
amerikasy
amerikasynda
amerikasynyn
amin
amir
amky
amlanan
amlanyp
amlar
amlardan
amlaryna
amly
amlyk
amon
amonyn
amor
amorey
ams
amsterdam
amul
amur
amy
amydery
amyderyanyn
amymyzdan
amymyzyn
amyn
amyna
amynda
amyny
amynyn
amyrat
amyz
amyza
amyzdan
amyzyn
an
ana
anadola
anadoluda
anadoly
anadolyda
anadolydaky
anagy
anagyn
anak
anakkale
anaklar
anaklary
anaklaryn
anaklyk
anal
analitik
analitiki
analiz
analizi
analizleny
anam
anama
anan
ananas
anand
ananda
anar
anas
anat
anatoliy
anatomiki
anatomiy
anbas
anbe
anc
ancient
and
anda
andaky
andalybyn
andalyp
andan
andijan
andiy
andorra
andre
andreas
andrew
andrey
android
andun
andy
andybil
andygy
andygyna
andygyndan
andygyny
andygynyn
andyklary
andyklaryna
andyklaryny
andyn
andyny
andyr
andyrlar
aneslinin
ang
angan
angelina
angily
angliy
anglo
angola
angolanyn
angyc
angyjyn
angyn
angynda
anhay
ani
animasion
animasiy
animated
animation
anime
anin
anjy
anjygy
anjygyn
ankara
ankarada
ankaranyn
ankay
ankes
anladyar
anlar
anlara
anlarda
anlardan
anlary
anlaryn
anlarynda
anlaryndan
anlaryny
anlarynyn
anly
anlydyr
anlyga
anlygy
anlygyn
anlygyny
anlygynyn
anlyk
anma
anmak
anmar
ann
anna
annaberdi
annaberdiy
annageldi
annagylyc
annama
annamuhammet
annanepesow
annanepesowyn
annanow
annasa
anne
anneksiy
annual
ano
anonim
anonymous
anonymousyn
anos
anri
anry
ans
ansambly
anson
ansyz
anszy
ant
antaly
antanta
antantanyn
antarktida
anti
antibiotikler
antibiotikleri
antik
antikythera
antioh
antiokiy
antiwirus
antlary
antlaryny
anto
antologiy
anton
antonin
antoninin
antonio
antoniy
antropologik
antropologiy
anus
anwar
anwarda
anwary
anwaryn
anwaryna
anwarynda
anwaryndaky
anwaryndan
any
anyc
anydyr
anyk
anyklamaga
anyklamak
anyklamakda
anyklamaly
anyklandy
anyklanyldy
anyklanyly
anyklap
anyklay
anyklyk
anyma
anyn
anyna
anynda
anyndaky
anyndan
anyny
anynyn
anyp
anypdyr
anys
anz
ao
ap
apa
apak
apan
apar
apat
apawulc
apbas
apdan
apdy
apdyr
apdyrlar
apek
apennin
apgyt
apkasyny
aplar
aplaryn
apmak
apmaly
apollonyn
apon
aponc
aponiy
aponlar
aponlaryn
apos
apotesiy
app
apparat
apparaty
appendektomiy
apple
apps
apr
apragy
apragyn
apragynyn
aprak
apraklary
apraklaryn
apraklaryndan
apraklaryny
aprakly
apraz
aprel
aprelde
aprelin
aprelinde
aprelinden
april
apuliy
apur
apurda
apy
apyk
apylan
apylandan
apyldy
apylmagy
apylmak
apyly
apylyp
apyp
apys
ar
ara
arab
araba
arabaglans
arabaglanys
arabic
arabystan
arabystany
arabystanyn
arac
arada
aradan
arady
aradylys
arafa
arafat
arafata
arafatda
arag
araga
aragatnas
araglanan
araglanys
araglar
araglary
araglaryn
araglaryny
aragly
aragon
aragy
aragyn
aragyny
aragynyn
arak
araks
aral
aralagynda
aralanan
aralandy
aralany
aralar
aralary
aralaryna
aralarynda
aralaryndaky
aralas
aralocaspius
araly
aralyga
aralygy
aralygyna
aralygynda
aralygyndaky
aralygyny
aralyk
aralykc
aralykda
aralykdaky
aralykdan
aralyklar
aralyklara
aralık
aram
aramady
aramandyr
aramay
aramaz
aramazlas
aramc
aramey
aramga
aramly
aramsyz
aran
aranlar
aranlary
aranlarynyn
aranlygy
aranlyk
arany
aranyn
arap
arapc
araplar
araplara
araplarda
araplardan
araplary
araplaryn
araplas
arapmuhammet
arar
aras
arasa
arassa
arassac
arassalamak
arassalanan
arassalanmak
arassalany
arassalap
arassalay
arassalygy
arasy
arasyna
arasynda
arasyndaky
arasyndan
arasyny
arasynyn
arat
arata
aratapawut
aratc
araty
aray
arbekir
arbitraz
arby
arc
archaeology
archinform
archive
archived
ard
arda
ardahan
ardaky
ardam
ardamy
ardan
ardas
ardy
ardygyny
ardylar
ardym
ardypdyr
ardyr
are
area
arena
argac
argentina
argentinada
argentinanyn
argon
arh
arhaik
arheolog
arheologik
arheologiki
arheologiy
arheologlar
arheologlary
arheologlaryn
arhipelagynyn
arhitektor
arhitektura
arhitekturasy
arhitekturasynda
arhitekturasynyn
arhiw
arhiwi
arhiwlendi
arhiwlenen
arhont
ari
ariana
arianc
arif
arifmetika
arifmetiki
ariler
aristokratik
aristokratiy
aristotel
aristotelin
ariy
arizona
arizonanyn
arjan
arka
arkada
arkadagymyzyn
arkadas
arkadiy
arkalar
arkalary
arkalas
arkaly
arkan
arkasy
arkasyna
arkasynda
arkasyndan
arkay
arky
arl
arlady
arlamaga
arlamagy
arlamagyn
arlamak
arlamakda
arlamaly
arlan
arlanan
arlandy
arlany
arlanylan
arlanyldy
arlanyly
arlanylys
arlanyp
arlanypdyr
arlanys
arlap
arlapdyr
arlar
arlardan
arlary
arlaryn
arlaryna
arlaryny
arlarynyn
arlay
arler
arli
arly
arlygy
arlygyny
arlyk
arlyklar
arlyklary
arlyklaryny
arlyklarynyn
arlykly
arlylygyny
arlylyk
arlz
armady
armak
arman
armay
armiy
army
armys
armyt
arnama
arnoud
arnygy
arnykly
arnyksyz
aroslaw
around
arpa
arpadan
arpay
arpy
ars
arsa
arsak
arsenal
arslan
arslany
arslanyn
arso
arsyn
art
artaban
artakserks
artar
artbujak
artbujakda
artdy
artdyrar
artdyrdy
artdyrmaga
artdyrmak
artdyrmakda
artdyry
artdyryldy
artdyryp
artdyrypdyr
arteriy
article
articles
artilleriy
artist
artisti
artistlerin
artmady
artmagy
artmagyna
artmagyny
artmak
artmandyr
artmay
arts
artur
arty
artyk
artyklyk
artykmac
artyp
artypdyr
artys
aruz
arwa
arwac
arwah
arwalar
arwalaryn
arxivləs
ary
arydyr
aryf
aryflaryn
arygulyy
arygy
arygyn
aryk
aryly
arylyp
arym
arymada
arymadasy
arymadasynda
arymadasynyn
aryms
arymy
arymyna
arymynda
arymyndaky
arymyndan
arymyny
arymyz
arymyzda
arymyzyn
aryn
aryna
arynda
aryndan
aryny
arynyn
aryp
arypdy
arypdyr
arypdyrlar
arys
arysy
arysyna
arysyndan
arysyny
aryy
arz
arza
arzan
arzuw
arzuwlary
arzuwlaryny
arzuwy
arzyly
as
asa
asady
asalan
asaldy
asaly
asalyp
asalypdyr
asalys
asama
asamagy
asamak
asamakda
asan
asap
asapdyr
asapdyrlar
asarhaddon
asat
asata
asatc
asatda
asatdan
asatlary
asatnama
asaty
asatyn
asatyna
asatynda
asatyndan
asatyny
asatynyn
asawy
asawynyn
asay
aseddin
asenem
asgabat
asgyn
ashay
ashgabat
asi
asia
asian
asion
asiy
aska
asla
asly
aslynda
aslyny
aslyy
asma
asmak
asman
asmana
asmanda
asmandaky
asmandan
asmany
asmanyn
asowyn
asp
aspirantura
aspiranturada
aspirin
aspx
asryn
ass
assambley
assiriy
associated
association
assosiasiy
assr
assy
assyk
asta
astanababa
asteroid
astogy
astrabadyn
astrabat
astrahan
astranomiy
astrid
astrologiy
astroly
astronom
astronomik
astronomiki
astronomiy
astronomy
asty
astyna
astynda
astyndady
astyndaky
astyndan
asuda
asudalygy
asudalyk
asy
asydy
asydyr
asyl
asyldas
asylly
asyly
asylyp
asyn
asyna
asynda
asyndaky
asyndan
asyny
asynyn
asyp
asyr
asyra
asyrda
asyrdaky
asyrdan
asyrlap
asyrlar
asyrlara
asyrlarboy
asyrlarda
asyrlardaky
asyrlardan
asyrlary
asyrlaryn
asyrlarynda
asyrlyk
asyry
asyryn
asyryna
asyrynda
asyryndan
asyrynyn
asyz
at
ata
atabay
atabeg
atabegi
atadan
atagarryy
atagy
atajan
atajanow
ataklary
ataklaryny
ataklarynyn
atako
atalar
atalary
atalaryn
atalarynyn
atalay
atalyk
atamyn
atamyrat
atamyz
atamyzyn
atan
atanak
atandan
atany
atanyn
atanyy
atar
atara
atas
atasy
atasyna
atasynyn
atatu
atay
atc
atda
atdaky
atdan
atdy
atdylar
atdyr
atey
atgy
atgydan
atgynyn
atin
atiy
atka
atkes
atla
atlady
atladyp
atlama
atlamak
atlamalar
atlamalary
atlamalarynda
atlanan
atlandyran
atlandyrdy
atlandyrdylar
atlandyrmak
atlandyry
atlandyrylan
atlandyryldy
atlandyryly
atlandyrylyp
atlandyrylypdyr
atlandyrylys
atlandyryp
atlandyrypdyr
atlandyrypdyrlar
atlantik
atlany
atlanyly
atlanyp
atlap
atlar
atlara
atlaram
atlarda
atlardaky
atlardan
atlardyr
atlary
atlaryn
atlaryna
atlarynda
atlaryndan
atlaryny
atlarynyn
atlas
atlasak
atlay
atletika
atlow
atly
atlygy
atlygyna
atlygyny
atlyk
atlykly
atlylar
atlylary
atlylaryn
atlyny
atlynyn
atlysy
atlıkarınca
atma
atmaga
atmagy
atmak
atmaly
atmay
atmaz
atmosfera
atmosferada
atmosferanyn
atolla
atom
ator
atrygy
atrygynda
ats
atsen
atsenin
atsyz
atsyzyn
attar
attaryn
attika
attikanyn
aty
atyjy
atylan
atylar
atyldy
atylla
atyly
atylyp
atylypdyr
atym
atymyzda
atymyzyn
atyn
atyna
atynda
atyndaky
atyndan
atynde
atyny
atynyn
atyp
atypdyr
atyr
atyrdy
atyrdylar
atyrka
atyrmaga
atyrmagy
atyrmak
atyrmakda
atyrmaly
atyry
atyrylan
atyrylandan
atyryldy
atyrylmagy
atyryly
atyrylyp
atyrylypdyr
atyryp
atyrypdyr
atys
au
audio
august
aus
australia
australian
austrian
authority
autizm
autizmin
autizmli
auto
autocad
automated
autorun
avatrade
avengers
aviation
avicenna
aw
awa
awac
awans
awar
award
awards
awatar
away
awaza
awc
awda
awesta
awestada
awestanyn
awfy
awgust
awgusta
awgustda
awgusty
awgustyn
awgustynda
awgustyndan
awiakompaniy
awiasion
awiasiy
awiy
awlamaga
awlamak
awlapdyrlar
awlay
awly
awrat
awrelian
awreliy
awstraliy
awstriy
awstro
awt
awtobiografik
awtobus
awtomat
awtomatik
awtomatiki
awtomatlas
awtomenzilin
awtomobil
awtomobiller
awtonom
awtonomiy
awtor
awtora
awtoritar
awtorlar
awtorlary
awtorlaryn
awtorlarynyn
awtory
awtorydyr
awtoryn
awtoulag
awtoulaglar
awtoulaglaryny
awuly
awus
awusy
awy
awyn
awyny
awynyn
ay
ayal
ayaly
ayan
aydym
aydyn
ayn
ayratyn
ayry
aywi
aywiler
ayy
ayys
az
aza
azaby
azabyndan
azada
azadalary
azadasy
azady
azadynyn
azajyk
azalan
azaldy
azaldyp
azalmagy
azalmagyna
azaltdy
azaltmaga
azaltmak
azaly
azalyp
azalypdyr
azan
azanda
azap
azar
azarbey
azary
azarydyr
azas
azat
azatlyga
azatlygy
azatlygyny
azatlyk
azatlykdan
azatlyklar
azatlyklary
azatlyklaryny
azda
azdan
azdy
azdygyna
azdylar
azdyr
azdyry
azenany
azerbaijan
azerbay
azerbey
azga
azgardy
azgary
azgaryly
azgaryp
azgarypdyr
azguly
azgy
azgyda
azgylar
azgylara
azgylarda
azgylary
azgylarydyr
azgylaryn
azgylaryna
azgylarynda
azgylaryny
azgylarynyn
azgyly
azgyn
azgyny
azgynyn
azgysy
azgysyna
azgysyny
azgysynyn
azhan
azi
aziada
azit
aziy
aziya
aziyany
aziyanyn
azky
azlan
azlar
azlary
azlygy
azlygyn
azlyk
azlyklar
azlypdyr
azlyy
azma
azmac
azmaga
azmagy
azmagyna
azmak
azmakda
azmaklygyn
azmalar
azmalary
azmalaryn
azmanyn
azot
azow
azowyn
azrak
azuw
azuwda
azuwy
azuwymyzdyr
azuwyn
azuwyna
azuwynda
azuwyny
azuwynyn
azy
azyja
azyjy
azyjydyr
azyjylar
azyjylara
azyjylary
azyjylaryn
azyjylarynyn
azyjyny
azyjynyn
azyjysy
azyk
azylan
azylandygy
azylandyr
azyldy
azylmadyk
azylmagy
azyly
azylyp
azylypdy
azylypdyr
azylys
azymow
azyn
azyna
azynda
azyndan
azyp
azypdyr
azypdyrlar
azyr
azyrlar
azys
azyy
azərbaycan
b
ba
baas
bab
baba
babadan
babaday
babalar
babalary
babalarymyz
babalarymyzdan
babalarymyzyn
babalaryn
babalarynyn
babam
babanyn
babarap
babasy
babasyl
babatda
babatdaky
babatynda
babay
babbit
babegin
babeziy
babitlerin
babrak
babur
baby
babynda
babyr
babyryn
bac
bad
bada
badalga
badam
baden
bady
badyna
bae
bag
baga
bagama
bagana
baganalar
bagananyn
bagban
bagbanc
bagc
bagdada
bagdady
bagdadyn
bagdat
bagdatda
bagdatdaky
baglamak
baglanan
baglanmak
baglans
baglanyp
baglanys
baglap
baglar
baglary
baglas
baglatmak
baglay
bagly
baglydy
baglydygyny
baglydyr
baglyk
baglylygy
baglylyk
baglylykda
bagra
bagryn
bags
bagt
bagta
bagtly
bagty
bagtyn
bagtyna
bagtyy
bagy
bagyn
bagynda
bagynyn
bagyr
bagys
baha
bahadan
bahadur
bahadyr
bahalar
bahalary
bahalaryn
bahaly
bahana
bahanasy
bahar
baharly
baharym
baharyn
baharynda
bahasy
bahasyna
bahasyndan
bahasyny
bahasynyn
bahman
bahramow
bahrey
bahriye
bahyl
bahym
bak
baka
bakalawr
bakara
bakja
bakjac
bakmak
bakna
baknac
baknadar
baknadarlary
baknalary
baknalyga
baknalygy
baknalyk
baknalykdan
baknalyklarda
baknalyklaryn
baknasy
baknasyna
bakteriologiki
bakteriy
baktriy
baku
bakuda
bakuw
bakuwda
baky
bakyda
bakylmagy
bakyly
bakylyk
bakyp
bal
bala
balans
balany
balaryc
balarylary
balc
baldagy
baldagyn
baldaklary
baldan
balear
balh
balha
balhda
balhy
balkan
balkanabat
balkanda
balkanlarda
balkanlardaky
balkanyn
ballandor
bally
baltik
baltika
baltimore
baly
balygy
balygyn
balyk
balykc
balyklar
balyklaryn
balykly
balzak
balzam
bamy
ban
bana
banan
band
banderas
bang
bangkok
banglades
bank
banka
bankda
banklar
banklara
banklary
banklaryn
banklarynyn
banky
bankyn
bankynda
bankynyn
banska
bantu
banu
banuwyn
bany
bap
bapdan
bar
bara
barabar
barabardy
barabardyr
barada
baradadyr
baradaky
barak
baran
baranda
baranynda
baranyndan
barar
barasynda
barasyndaky
barat
baray
barbera
barc
barcelona
barda
bardasy
bardasynyn
bardy
bardygy
bardygyna
bardygyny
bardylar
bardyr
barha
bari
barjak
barka
barlag
barlagc
barlagdan
barlaglar
barlaglary
barlaglaryn
barlaglaryny
barlaglarynyn
barlagy
barlamak
barlan
barlanan
barlap
barlay
barly
barlygy
barlygyna
barlygyny
barlyk
barlyklaryn
barlypdyr
barlys
barmady
barmaga
barmagy
barmagyn
barmagyna
barmagyny
barmak
barmaklary
barmaklaryn
barmaklaryny
barmaly
barman
barmandyr
barmasy
barmay
barmy
baron
barrere
bars
barsa
barsan
barselona
bartatua
bartold
bartoldyn
bary
barybir
baryjy
baryjysy
baryldy
baryly
barylypdyr
baryn
baryny
baryp
barypdyr
barypdyrlar
barys
barysy
bas
basan
basar
basarow
basdy
basdyrmak
base
based
basga
basganc
bashardy
bashga
basiley
basketbol
basketbolc
baskı
baslady
baslap
basles
baslygy
basma
basmac
basmak
basny
basra
bassey
bastiliy
basy
basybalyjy
basybalyjylar
basybalyjylara
basybalyjylardan
basybalyjylary
basybalyjylaryn
basybalyjylaryna
basybalyjylarynyn
basybalyjylyk
basybalyjylykly
basybalys
basyk
basylanda
basylmak
basylyp
basym
basyp
basypalys
basypdyr
basyryp
basys
basım
bat
bata
batan
batgalyk
batgalyklar
bathyz
bathyzyn
batlaryna
batly
batmak
batman
batrak
battle
baty
batyl
batyp
batyr
batyrgay
batyrlygy
batyrlygyny
batyrlyk
batyrow
batyrowic
batyry
batyryn
bawariy
bay
baydak
bayramov
baza
bazaar
bazalt
bazar
bazara
bazarda
bazardaky
bazarlar
bazarlarda
bazarlary
bazarlaryn
bazarlaryna
bazarlarynda
bazary
bazaryn
bazaryna
bazarynda
bazaryndaky
bazarynyn
bazasy
bazasynda
bazasyny
bb
bbc
bc
bd
bdiru
be
beat
beatles
bec
become
bede
beden
bedenda
bedende
bedenden
bedene
bedeni
bedenin
bedeninde
bedenine
bedenini
bedeninin
bedenleri
bedenli
bedenterbiy
bedew
bedewi
bedewin
bedewinin
bedewler
bedewleri
bedewlerin
bedewlerine
bedewlerini
bedewlerinin
bedirkent
bedwinler
beens
beg
begdili
bege
begenc
begenji
begi
begin
begins
begler
begleri
beglerin
beglerinin
begligi
begligini
begliginin
beglik
begzadalar
begzadalary
begzadalaryn
begzadalarynyn
behind
behis
behistun
beijo
being
bejergi
bejergiden
bejergiler
bejergini
bejerginin
bejergisi
bejergisinde
bejergisini
bejerilen
bejerilende
bejerilis
bejerily
bejerip
bejeripdirler
bejeris
bejerma
bejermegin
bejermek
bejermekde
bejery
bek
beka
bekdas
bekedi
bekedine
beket
bekewu
beki
bekir
bekla
beklemek
beklemeli
bekley
beklik
bekon
bekr
bekre
bel
bela
belanyn
belarus
belarussiy
belasy
belende
belent
belentdir
belentlige
belentligi
belentlik
belentlikda
belentlikde
belentlikden
belet
belgi
belgileny
belgiler
belgileri
belgili
belgisi
belgiy
belgrad
belki
bell
bella
belledi
bellediler
bellema
bellemegi
bellemegine
bellemek
bellemeli
bellemelidir
bellendi
bellenen
bellenildi
bellenilen
bellenilip
bellenilipdir
bellenilis
bellenily
bellenilyar
bellenip
bellenipdir
belleny
belley
belleya
belli
bellibir
bellidi
bellidir
bellige
belligi
bellik
bellikler
bellikleri
belok
beloklar
beloklary
beloklaryn
belor
belorus
belorussiy
bely
bem
ben
benda
bende
bender
bendertu
bendi
bendin
bendini
bengal
bengaliy
beni
benin
benjamin
benson
bent
bentden
bentler
bentleri
bentlerinin
benzin
beo
beotiy
ber
berber
berc
berda
berde
berdi
berdiler
berdimli
berdimuhamedov
berdimuhamedow
berdimuhamedowyn
berdimuhammedow
berdimyrat
berdin
berdinazar
berdirmek
berdiy
bereket
bereketi
bereketli
beren
berende
berenden
berendigi
berendigini
bereni
berenin
berenlerinde
berer
bererdi
bererin
bereris
berey
berga
bergi
bergidar
bergidarlyk
bergilerin
bergili
bergisi
bergisini
berhiz
beri
beriji
berildi
berilen
berilende
berilip
berilipdir
berilis
beriljek
berilma
berilmedi
berilmedik
berilmegi
berilmegine
berilmegini
berilmek
berilmeli
berilmelidir
berilmey
berilse
berily
berilya
berilyar
berin
berinda
berinde
berine
berini
berinin
berip
beripdi
beripdir
beripdirler
beris
berjay
berjek
berjekdigini
berk
berka
berkarar
berkararlyk
berkeli
berkey
berkidildi
berkidilen
berkidilip
berkidilipdir
berkidilmek
berkidily
berkidip
berkidipdir
berkidy
berkitdi
berkitma
berkitme
berkitmegi
berkitmek
berkitmekde
berkitmeler
berkitmeleri
berkitmeli
berkles
berkligi
berkligine
berkligini
berklik
berky
berlen
berlende
berlendir
berleri
berli
berlin
berlinde
berlinin
berlip
berlipdir
berma
berme
bermedi
bermedik
bermegi
bermegin
bermegine
bermegini
bermek
bermekc
bermekde
bermekden
bermekdir
bermekleri
bermeklige
bermekligi
bermeklik
bermeli
bermelidi
bermelidigini
bermelidir
bermey
bermez
bermezlik
bern
bernard
berns
bers
berse
bersen
bersin
bert
bertels
bery
berya
beryar
bes
besmele
bessarabiy
best
bet
beta
betbagt
betbagtc
betbagtlyk
beter
beteri
beterles
betgels
betniy
beton
betpa
between
bey
beyaz
beyik
beyleki
beza
bezeg
bezegi
bezegine
bezeginin
bezegler
bezegleri
bezegli
bezelen
bezelipdir
bezelis
bezely
bezemek
bezey
bezmia
bf
bg
bhe
bheli
bhesiz
bhesizdir
bhuttonyn
bi
biabray
bibi
bibliografiy
bibliy
bic
biderek
bido
bidu
big
bigu
bihabar
bije
bika
bikanun
bil
bila
bilbil
bildi
bildiler
bildirdi
bildiren
bildirildi
bildirilip
bildirily
bildirip
bildiris
bildirmek
bildiry
bile
bilejik
bilek
bileles
bilelikda
bilelikde
bilelis
bilemok
bilen
bilenem
bilenok
bilenokdy
biler
bilerdi
bilerin
bileris
bilerler
bilersin
bilezik
bilge
bilges
bilgi
bili
bilik
bilim
bilime
bilimi
bilimin
bilimine
bilimini
biliminin
bilimler
bilimleri
bilimlerin
bilimlerini
bilimlerinin
bilimli
bilin
bilinden
bilindi
biline
bilinen
biliner
bilini
bilinjek
bilinjekdigini
bilinmey
bilinmez
biliny
bilip
bilipdir
bilipdirler
bilis
biljek
biljekdi
biljekdigini
bilkastlay
bilkent
bill
billboard
billion
bilma
bilme
bilmedi
bilmedik
bilmediler
bilmedim
bilmegi
bilmejegini
bilmejek
bilmejekdigini
bilmek
bilmeli
bilmen
bilmersin
bilmese
bilmesen
bilmey
bilmez
bilmezlik
bilner
bils
bilse
bilsen
bilsin
bily
bimo
bin
bina
binac
binada
binaga
binalar
binalarda
binalary
binalaryn
binalarynyn
binanyn
binasy
binasyna
binasynda
binasyny
binasynyn
binde
binden
bine
bini
binin
bint
biny
bio
biodu
biografiy
biography
biohimiki
biologik
biologiki
biologiy
biology
biosfera
biperway
bir
biragyzdan
birahat
biraz
birbada
birden
birdenem
birdenka
birdir
bire
birege
biregi
biregin
birek
birekden
birem
birentek
birey
birgiden
birhili
biri
biride
biridi
biridigini
biridir
birigen
birigip
birigy
birikdirdi
birikdirildi
birikdirilen
birikdirilmegi
birikdirily
birikdirip
birikdiripdir
birikdirmek
birikdiry
birikmegi
birikmek
birin
birinde
birinden
birine
birini
birinin
birinji
birinjiden
birinjisi
birisi
birkemsiz
birki
birl
birle
birleri
birlerinde
birlerine
birlerini
birlerinin
birles
birlige
birligi
birligidir
birligine
birligini
birliginin
birlik
birlikde
birlikleri
birliklerini
birliklerinin
birma
birmen
birna
birnac
birneme
birsydyrgyn
birsyhly
birth
birtopar
biruni
biruny
birunynyn
birwagtlar
biry
birz
bis
bismark
bismarkyn
bismilla
bisutin
bit
bitarap
bitaraplygy
bitaraplygyny
bitaraplyk
bitcoin
biten
bitewi
bitewiles
bitewiligi
bitewiligine
bitewiligini
bitewilik
bitewu
bitin
bitirdi
bitiren
bitiry
bitkoy
bitler
bitleri
bitlerin
bitmek
bitmez
bity
biwagt
biy
biynjalyk
biz
bizar
bizde
bizden
bize
bizi
bizin
biznes
black
blackberry
blanc
bleach
bley
blica
block
blockfi
blog
blok
bloomberg
blue
blues
bm
bmg
bn
bnis
bo
bob
bobi
bochum
bodin
body
boeing
bogaz
bogazy
bogazyn
bogazyna
bogazynyn
bogun
bogunda
bogundan
bogunlar
bogunlarda
bogunlardan
bogunlary
bogunlaryn
bogunly
bogup
boigny
boing
boks
bokurdagy
bokurdagyn
bokurdak
bol
bolan
bolanda
bolandan
bolandygy
bolandygyna
bolandygyndan
bolandygyny
bolandyklary
bolandyr
bolanlar
bolanlary
bolanlaryn
bolanlarynda
bolanlygy
bolanlygyndan
bolanlygyny
bolanok
bolanson
bolany
bolanyn
bolanyndan
bolanyny
bolar
bolara
bolardy
bolarlar
bolarmy
bolarsyn
bolarys
bolay
bolc
boldugyc
boldular
boldum
boldumsaz
boldy
boldylar
boleslaw
bolg
bolgar
bolgariy
bolgarlar
bolgay
bolgusyz
boliwiy
boljagyny
boljak
boljakdy
boljakdygy
boljakdygyna
boljakdygyny
bolma
bolmady
bolmadygyn
bolmadyk
bolmaga
bolmagy
bolmagydyr
bolmagyn
bolmagyna
bolmagynda
bolmagyndan
bolmagyny
bolmagynyn
bolmajagyna
bolmajak
bolmajakdygyny
bolmak
bolmakdan
bolmaklary
bolmaklyga
bolmaklygy
bolmaklyk
bolmaly
bolmalydy
bolmalydygy
bolmalydygyny
bolmalydyr
bolman
bolmanda
bolmandy
bolmandygy
bolmandyr
bolmandyrlar
bolmanlygy
bolmanson
bolmasa
bolmasyn
bolmay
bolmaz
bolmazdan
bolmazdy
bolmazlygy
bolmazlyk
bols
bolsa
bolsada
bolsak
bolsalar
bolsam
bolsan
bolsun
bolu
bolun
bolunyar
bolup
bolupdur
bolupdy
bolupdyr
bolupdyrlar
bolus
boly
bolyar
bolyp
bolypdyr
bom
bomba
bombardiri
bombasyny
bombelles
bonapart
bonapartyn
book
books
bor
borc
bordo
borglum
borhes
boris
boristik
borjuny
borjy
born
borona
bos
bosfor
bosgun
bosgunlaryn
bosna
bosnia
bosniy
bospor
bossan
bossua
bossue
bostan
boston
bot
botanika
botswana
botwinnik
bouygues
box
boxofficemojo
boy
boyun
boyunc
boyunca
boz
bozan
bozar
bozmak
bozmay
bozmaz
bozsa
bozuk
bozuklyk
bozulan
bozuldy
bozulmagy
bozulmagyna
bozulmak
bozulmalar
bozulmalary
bozulmay
bozulsa
bozuly
bozulyp
bozup
bozupdyr
bozy
br
bra
brahim
brasil
braun
bray
brazil
braziliy
brend
brest
bri
brigach
briligi
brill
brin
britan
britaniy
britannica
british
broadcast
broadcasting
broker
brokers
bron
bronhit
bronhlaryn
bronirlenen
bros
brothers
brown
bru
bruney
bruselloz
brusellozyn
brut
bry
bs
bsgg
bss
bu
bucharest
budapes
budda
buddac
buddizm
budun
buenos
buffalo
bug
buga
bugalter
bugday
bugra
bugram
bugu
bugun
buhara
buharada
buharadaky
buharadan
buharany
buharanyn
buharest
buhari
buhary
bujar
bujarlyk
bukuda
bukulyp
bul
bulagay
bulam
bulamak
bulanma
bulanyk
bular
bulara
bularda
bulardan
bulary
bularyn
bulas
bulay
bulgur
buluc
bulug
bulut
bulutlar
bulutlaryn
bulutly
bur
bura
buraw
burawlay
burc
bureau
burey
burgas
burhaneddin
burhaneddinin
burkina
burna
burnun
burnundan
burnunyn
burny
bursa
burum
burun
burundi
burunly
burunow
bury
burz
bus
business
but
butan
buthana
buthanany
buthananyn
buthanasy
buthanasynyn
butindunya
buy
buz
buzluk
buzluklaryn
buzly
by
byc
byn
bystrika
c
ca
cabin
cable
cale
calendar
cambridge
cameron
campus
can
canada
candidates
cap
caparbay
capital
caras
cards
carl
carlos
carlsen
carol
cartoon
casa
case
cases
caso
cast
cat
category
causing
cbs
cd
cdot
ce
cees
cenli
census
center
centraal
central
centrasia
centrica
century
ceo
cfd
ch
championship
chan
change
channel
chapter
charles
chart
charts
check
chelsea
chempion
chempionatynyn
chempionlar
chempiony
chenli
chess
chi
chic
chicago
chicken
chico
children
chile
china
chinese
chipkaart
choose
chris
christian
christmas
christopher
chrome
chromium
chronicle
ci
cia
cilt
cin
cinema
cio
circ
citation
city
ciudad
civil
cla
clans
clash
classic
club
cn
cnn
co
code
coin
collection
college
colo
colombia
columbia
com
come
comercio
comics
commission
committee
common
commonwealth
communication
communications
community
como
companies
company
comparebrokers
complete
computer
con
conan
congress
content
contest
contra
control
cool
copa
copenhagen
corac
coronavirus
corpo
corporate
corporation
cos
costa
council
countries
country
court
covid
cr
craig
crazy
cristal
cristiano
cro
crypto
cryptocurrency
cs
css
ctvnews
cu
cula
cultural
culture
cumhuriyeti
cup
cy
cykan
cykyar
cyrus
cysec
d
da
daban
dabany
dabanyn
dabara
dabaralar
dabaralary
dabaraly
dabarasy
dabarasyna
dady
dadyp
dadyr
dag
daga
dagan
dagap
dagda
dagdan
daglar
daglara
daglarda
daglardan
daglary
daglaryn
daglaryna
daglarynda
daglaryndan
daglarynyn
dagly
daglyk
daglyklar
dagy
dagylar
dagyn
dagynda
dagyny
dagynyk
dagynyklygy
dagynyklyk
dagynyn
dagystanda
dagystanyn
dah
daha
dahylly
daily
daja
dajyk
dak
daki
dakiy
daklar
daklary
daklyga
daklygy
daklygyny
daklyk
dakmak
dakota
daky
dakyky
dakylan
dakyldy
dakyly
dakylypdyr
dakynmak
dakyny
dakypdyr
dakypdyrlar
dal
dalanan
dalanmaga
dalanmagy
dalanmagyn
dalanmak
dalanmaly
dalany
dalanylan
dalanylmagy
dalanyly
dalanylyp
dalanylypdyr
dalanyp
dalanypdyr
dalanypdyrlar
dalas
daly
dalydyr
dalynyn
dam
damak
damar
damarlary
damarlaryn
damarlarynyn
damary
damask
damaskda
damdamc
damja
damjasy
damjasyny
dan
dana
danakan
danc
danda
dandanakan
daniel
danish
daniy
danlar
danlara
danlarda
danlary
danlaryn
danlaryna
danlarynda
danlaryny
danlarynyn
danly
danlyk
dans
dansyz
dansyzlykda
dante
dantutma
dany
danymyzda
danyn
danyna
danynda
danyndan
danyny
danynyn
danys
dap
dar
dara
daragty
darajyk
darak
daraly
daray
dardanel
dardanell
dargady
dargadyldy
dargadyly
dargadyp
dargama
dargamagy
dargamagyna
dargan
darganata
dargandan
darganson
dargap
dargapdyr
dargatdy
dargatmak
dargay
darha
darhalar
darhalaryn
darhany
darhanyn
darinin
dariy
dark
darlar
dartgynly
dartgynlygyny
dartgynlyk
dartgynlylygy
dartgynlylyk
dartgynlylykdan
dartmut
dartys
dary
daryn
das
dasary
dash
dasy
dasyna
dasyz
dat
data
database
datc
date
datly
david
dawa
dawaga
dawalar
dawalara
dawalary
dawalaryn
dawalarynyn
dawalas
dawaly
dawanyn
dawasy
dawasyna
dawasyny
dawid
dawud
dawudyn
dawut
day
dayhanlar
days
dazzarkel
db
dc
de
dead
deadline
death
debaryjy
debbi
debi
debut
december
decide
dedir
default
definition
deformasiy
deg
degdi
degen
deger
degerli
degi
degin
degip
degirmek
degirmen
degirmenleri
degis
degishli
degishlidir
degisli
degma
degmek
degmez
degnasyna
degrip
degs
degy
dehistan
dehistanda
dehistany
dehistanyn
dek
dekabr
dekabrda
dekabry
dekabrynda
dekabryndan
dekart
dekden
deklarasiy
dekoratiw
del
dela
delegasiy
deler
delerden
delere
deleri
delerin
delerinden
delerine
delerini
delerinin
delhi
deli
delide
delil
delili
deliller
delini
della
delos
delta
deltada
deltasynda
delusion
deluxe
dem
demdiriji
demdirijiler
demdirijilerin
demgysma
demi
demin
demine
demini
deminin
demir
demirc
demirden
demirel
demirelin
demirgazyga
demirgazygy
demirgazygyn
demirgazygyna
demirgazygynda
demirgazygyndaky
demirgazygyndan
demirgazygyny
demirgazyk
demirgazykda
demirgazykdaky
demirgazykdan
demiri
demirin
demirmagdan
demiry
demis
demla
demlema
demlenen
demokrat
demokratik
demokratiy
demokratlar
demokratlaryn
demri
demrin
den
denem
dengo
denial
deniy
deniz
denticulatus
dep
depa
department
depe
depede
depeden
depego
depeler
depeleri
depelerinin
depesi
depesinde
depesinden
depesine
depgin
depginde
depgini
depginler
depginlerde
depim
depin
depor
deprek
deprekc
depressiy
deputat
deputatlar
deputatlary
deputatlarynyn
deputatlyk
deputaty
depy
der
dera
derbi
derde
derdi
derdine
dere
derege
deregine
deregini
dereja
dereje
derejeda
derejede
derejeden
derejelerde
derejelere
derejeleri
derejelerini
derejeli
derejesi
derejesinda
derejesinde
derejesinden
derejesine
derejesini
derejesinin
derek
dereksiz
derga
derhal
deri
deriasty
deride
deriden
deriler
derilere
derileri
derilerin
derilerine
derin
derini
derinin
derisi
derisinden
derisini
derisinin
derjede
derman
dermanlar
dermanlary
dermanlaryn
dermanlyk
dermany
dermanyn
dermanyny
dern
derrew
ders
derse
dersi
dersini
dersler
dersleri
derslerin
dert
derway
derweza
derweze
derwezeden
derwezeler
derwezesi
derwezesini
derwezesinin
derwezewan
derwu
dery
deryasynyn
derz
des
desert
desga
desgalar
desgalary
desgalaryn
desgalaryna
desgalaryny
desgalarynyn
desgany
desganyn
desgasy
desi
design
desine
desini
deslapky
dessan
dessanc
dessanda
dessanlar
dessanlara
dessanlary
dessany
dessanynda
dessine
dessur
dessurlar
dessurlara
dessurlary
dessurlaryna
dessurlaryny
dessury
desy
details
detallary
detektiv
detroy
deutsche
development
dewid
dey
dezinfeksiy
df
dg
dhaka
di
dia
diagramma
diagrammasy
diagrammasynda
dialekti
dialektiki
diametri
diana
diaspora
dibem
dictionary
did
diego
dien
differential
diga
digi
digic
digine
digini
digital
dik
dikeldildi
dikeldilen
dikeldilip
dikeldilipdir
dikeldilmegi
dikeldilmegine
dikeldily
dikeldip
dikeldipdir
dikeldis
dikeldy
dikelme
dikeltdi
dikeltma
dikeltmegi
dikeltmegin
dikeltmek
dikely
dikip
dikkens
dikligine
dikme
dikmeleri
dikmesi
diktator
dikuc
dil
dila
dilc
dilde
dilden
dildir
dildu
dile
dileg
dilemek
dilen
diler
dilewar
dilewarlygy
diley
dili
dilidir
dilim
dilin
dilinda
dilinde
dilinden
diline
dilini
dilinin
dilip
diller
dillerda
dillerde
dillere
dilleri
dillerin
dillerinde
dillerinden
dillerine
dillerini
dillerinin
dilles
dilli
dilm
dily
dim
dimi
dimilik
dimler
dimorfizm
din
dinamiki
dinar
dinastiy
dinda
dindar
dindarlaryn
dinde
dinden
dine
dinger
dini
dinin
dininde
dininden
dinine
dinini
dininin
dinler
dinlere
dinleri
dinlerinin
dio
diodor
diokletian
diokletianyn
dip
diplom
diplomacy
diplomat
diplomatic
diplomatik
diplomatiy
diplomy
diplomyny
dir
dirdi
directedissy
directorissy
direg
direktor
direktoriy
direktory
diren
dirende
direnin
dirhem
diri
diriji
dirika
dirildi
dirilen
dirilende
dirilendir
dirilib
dirilip
dirilipdi
dirilipdir
dirilis
dirilma
dirilmedi
dirilmedik
dirilmegi
dirilmegine
dirilmegini
dirilmek
dirily
dirin
dirip
diripdir
diripdirler
diris
diriy
dirjek
dirlende
dirler
dirligi
dirliginin
dirma
dirme
dirmegi
dirmegin
dirmek
dirmekde
dirmeklige
dirmeli
diry
dis
disambiguation
discographie
discography
disektomiy
disk
diskde
diskriminasiy
disney
displaystyle
dissertantyn
dissertasion
dissertasiy
district
division
diwan
diwana
diwanda
diwany
diwanylugatitturk
diwanyn
diwanynda
diwanynyn
diwar
diwarda
diwarlanan
diwarlar
diwarlary
diwarlaryn
diwarlaryna
diwarlarynda
diwarlaryny
diwarlarynyn
diwarly
diwary
diwaryn
diwaryna
diwarynda
diwaryndan
diwaryny
diwarynyn
diwersifikasiy
diwiziy
diy
diyen
diyilip
diyilya
diyip
diylip
diymek
dizay
dizraeli
dj
dk
dmitriy
dn
dnepr
dnipro
dnk
do
dodak
dodaklaryn
dog
doga
dogabitdi
dogan
dogandan
doganlar
doganlary
doganlaryn
doganlaryna
doganlarynyn
doganlygy
doganlyk
doganoglany
dogany
doganyn
doganyny
doganynyn
dogduk
dogdy
dogjak
doglan
doglandan
doglup
doglupdyr
doglus
dogralan
dograma
dogramany
dogruc
dogrudan
dogrudanam
dogrudygyny
dogrudyr
dogrusy
dogrusynda
dogry
dogs
dogulan
doguldy
doguly
dogulyar
dogulyp
dogumly
dogy
doi
dois
dok
dokalan
dokalanda
dokaly
dokalypdyr
dokamak
dokap
dokay
dokluk
dokma
dokmac
doktor
doktorlyk
doktory
doktrinasy
dokuma
dokumalar
dokumalara
dokumalaryn
dokumanyn
dokument
dokumental
dokumentler
dokumentleri
dokumentlerin
dokumentlerinin
dokuz
dokuzynjy
dol
dolan
dolanan
dolandy
dolandyran
dolandyrdy
dolandyrmaga
dolandyrmagy
dolandyrmagyn
dolandyrmak
dolandyrmakda
dolandyrs
dolandyry
dolandyryjy
dolandyryjylar
dolandyryjylara
dolandyryjylary
dolandyryjylaryn
dolandyryjysy
dolandyryly
dolandyrylypdyr
dolandyrylys
dolandyryp
dolandyrypdyr
dolandyrypdyrlar
dolandyrys
dolans
dolany
dolanyp
dolanypdyr
dolanys
dolduran
doldurdy
doldurmak
doldury
doldurylan
dolduryly
dolduryp
doldy
dollar
dollara
dollardan
dollarlyk
dollary
dollaryn
dollaryna
dollaryny
dolmak
dolulygy
dolulygyna
doly
dom
domanic
domanowic
don
dona
donald
donaueschingen
donesk
dong
donie
donun
dor
dorbedew
dorbedewi
dorbedewin
doredilen
doretmek
dorilerin
doros
dos
dosent
dosenti
dost
dostlar
dostlary
dostlaryn
dostlarynyn
dostlas
dostlugy
dostlugyny
dostluk
dostlukly
dostoy
dostuna
dosty
doubt
dow
dowam
dowamly
dowamlylygy
dowamy
dowamydyr
dowamynda
dowamyndaky
dowamyny
dowardarc
dowla
dowlet
dowletin
dowletinin
down
dowu
dowurde
dowzah
doy
dp
dr
dra
drama
dramasy
dramaturg
dramaturgiy
dramaturgy
dream
dreamworks
drey
drezden
drob
droba
drobyn
druz
druzhby
ds
dsb
du
dub
dubay
duc
due
duglas
dul
dular
dulla
duman
dumor
dumrul
dun
duna
dunay
dungan
dunya
dunyanin
dur
duralgalar
duralgasy
duralgasynyn
duran
durandyr
duranok
duranyn
durar
durdular
durdy
durdyy
durgunlyk
durka
durkuny
durky
durli
durma
durmaga
durmagy
durmagyna
durmagynda
durmak
durmaly
durmalydyr
durman
durmay
durmaz
durmus
durmys
durna
durnalar
durnuklas
durnukly
durnuklylygy
durnuklylygyny
durnuklylyk
durnuksyz
durs
dursa
dursun
duruly
durun
durup
durupdyr
durupdyrlar
dury
duryar
durylan
durys
dus
dush
dutar
dutary
dutaryn
dutch
duwsyz
duwsyzlygy
duwsyzlyk
duy
duz
duzak
duzdur
duzlar
duzlary
duzly
duzuminde
duzy
dvd
dwigatel
dwigatelin
dwory
dx
dy
dyga
dygyny
dyk
dykma
dykyz
dykyzlygy
dyl
dylan
dylanda
dylar
dylmay
dyly
dylyp
dylypdyr
dylys
dym
dymc
dymdy
dymlar
dymlary
dymlaryn
dymlaryny
dymlarynyn
dymy
dymyn
dymynda
dymyny
dymynyn
dyn
dync
dyngysyz
dynmak
dyp
dypdy
dypdyr
dypdyrlar
dyr
dyran
dyrdy
dyrjak
dyrjas
dyrlan
dyrlar
dyrma
dyrmaga
dyrmagy
dyrmagyn
dyrmak
dyrmakda
dyrmakdan
dyrmaklyk
dyrmaly
dyrman
dyrnak
dyry
dyryjy
dyrylan
dyrylandyr
dyryldy
dyrylmagy
dyrylmagyna
dyrylmagynyn
dyryly
dyrylyp
dyrylypdyr
dyrylys
dyryn
dyryp
dyrypdyr
dyrypdyrlar
dyrys
dys
dyz
dyza
dyzay
dyzmac
dyzyn
dz
e
early
earth
earthquake
east
eastakyn
eastern
easy
ebe
ebedi
ebediles
ebedilik
ebetey
ebilmerin
ebjet
ebla
ebs
ebu
ebul
ec
economic
ed
eda
edara
edaralar
edaralarda
edaralary
edaralaryn
edaralaryna
edaralarynda
edaralaryny
edaralarynyn
edaranyn
edarasy
edarasynda
edarasyny
edarasynyn
edarc
eddin
ede
edebi
edebiy
edebiyat
edeli
edelin
eden
edende
edenden
edendigi
edendigine
edendigini
edendikleri
edendir
edeni
edenin
edeninde
edeninden
edenini
edenler
edenlere
edenleri
edenlerin
edenli
edenson
edep
edepli
eder
ederdi
ederin
ederis
ederler
edermen
edermenligi
edermenligini
edermenlik
edermenlikleri
edf
edge
edi
edigini
ediji
edijiler
edijilik
edil
edildi
edilen
edilende
edilenden
edilendigi
edilendigini
edilendir
edileninden
edilenlerin
edilenson
ediler
edilip
edilipdi
edilipdir
edilis
ediljek
edilm
edilma
edilmedi
edilmedik
edilmegi
edilmeginde
edilmeginden
edilmegine
edilmegini
edilmeginin
edilmek
edilmeli
edilmelidir
edilmese
edilmey
edilmez
edils
edilse
edily
edilya
edilyar
edim
edin
edindi
edindiler
edinen
edinip
edinipdi
edinipdir
edinipdirler
edinji
edinma
edinmegi
edinmek
ediny
edip
edipdi
edipdiler
edipdir
edipdirler
edir
edirne
edis
edisi
edison
edit
edition
edits
ediy
edlip
edson
edu
eduard
eduardo
education
edward
edwards
edy
edya
edyan
edyar
ee
eeg
een
ef
efemer
efiopiy
efir
efire
efrat
eftalit
eftalitler
eftalitlerin
eg
ega
egda
egde
egdi
egdirilen
egdirilipdir
egdirily
egdirip
egdiripdir
egdirmek
egdiry
ege
egede
egeden
egen
egeni
eger
egerde
egey
egi
egidis
egilis
egin
eginde
eginden
egindes
egine
egini
eginin
egip
egipdir
egipdirler
egirme
egirmec
egirmede
egleri
eglerine
egli
eglis
egma
egme
egmek
egne
egni
egnin
egninde
egninden
egninin
ego
egrek
egrem
egri
egridabanlylygy
egriji
egs
egsan
egsilmez
egsiz
egypt
eh
ehir
ehit
ehitler
ehiy
ehler
ehm
ehoslawakiy
ehoslowakiy
ehow
ehr
ehwet
eile
eja
eje
ejere
ejeresi
ejerey
ejesi
ejesine
ejesinin
eji
ejik
ejin
ejir
ejiz
ejizla
ek
eka
ekaranc
ekaterina
ekber
ekc
ekde
ekden
ekdi
ekdiler
ekdirmek
eke
ekebara
ekeden
ekego
ekeje
ekeles
ekelikde
eken
ekendigini
ekeni
ekenin
ekenler
ekenlerin
eker
ekeran
ekeranc
ekeri
ekes
ekesel
ekeseli
eketa
eki
ekiji
ekil
ekilde
ekildi
ekildiler
ekile
ekilen
ekili
ekilinda
ekilinde
ekilini
ekilinin
ekilip
ekilipdir
ekilipdirler
ekillendirilen
ekillendirilipdir
ekillendiris
ekiller
ekilleri
ekillerin
ekillerini
ekillerinin
ekilli
ekilliler
ekilma
ekilmedik
ekilmegi
ekilmek
ekilmeli
ekily
ekim
ekimli
ekimliler
ekimsiz
ekin
ekine
ekini
ekinler
ekinlerden
ekinlere
ekinleri
ekinlerin
ekinlerine
ekinlerini
ekinlerinin
ekiny
ekip
ekipaz
ekipdir
ekipdirler
ekirtga
ekirtge
ekirtgeler
ekirtgesi
ekis
ekla
eklenc
eklenji
ekler
ekleri
eklerin
ekli
eklinde
ekline
ekma
ekme
ekmedi
ekmedik
ekmegi
ekmegin
ekmek
ekmeklige
ekmeklik
ekmeli
ekmey
eko
ekologik
ekologiki
ekologiy
ekonomiki
ekran
ekrana
ekranly
ekrem
eks
ekspedisiy
ekspediy
eksperimental
ekspir
eksport
ekt
ekti
ektin
ektiw
ektler
ektleri
ektlerin
ekwador
ekwatorial
ekwiwalent
eky
el
ela
elam
elamyn
elas
elba
elbetde
elde
eldekiles
elden
eldi
eldildi
eldilen
eldilip
eldilmegi
eldip
eldipdir
eldy
ele
electrabel
eledi
elediler
elegiy
elek
eleken
elekt
elektrik
elektroenergetika
elektromagnit
elektron
elektronik
elektronika
elektronikasy
elektrostansiy
elektrotehnika
elema
elemegi
elemek
elemekde
element
elementi
elementin
elementler
elementlerden
elementleri
elementlerin
elementlerini
elementlerinin
elen
elena
elendi
elenen
elenipdir
elenmegi
eleny
eler
elerde
elere
eleri
elerin
elerinde
elerinden
elerine
elerini
elerinin
eles
eley
elezaweta
elgeleri
elgesi
elgesinin
elhenc
eli
eligi
elik
elikde
elim
elimizden
elimize
elin
elinda
elinde
elindedi
elinden
eline
elini
elinin
elip
elipbiy
elipdir
elis
elit
elizabet
elizabeth
elizaweta
elizelizaweta
elkenli
ell
ella
ellada
eller
elleri
ellerin
ellerinden
ellerine
ellerini
ellerinin
elli
ellin
ellinc
ellinistik
ellinizm
elmegi
elmegine
elmes
elmydama
elo
elpek
elsevier
elsin
elsinin
eltdi
eltip
eltipdir
eltipdirler
eltma
eltmegi
eltmek
eltmeli
elty
ely
elzas
em
ema
emah
emal
emc
emdiry
eme
emegin
emek
emel
emeldarlaryn
emele
emeles
emeli
emen
emenin
emesi
emesine
emesini
emesinin
emi
emil
emiliy
emin
emine
emini
eminlik
emir
emiri
emirin
emirine
emirinin
emirler
emirleri
emirlerinin
emirligi
emirligin
emirliginin
emirlik
emirlikleri
emirliklerinin
emis
emla
emma
emosional
emosiy
empion
empionat
empionatda
empionatlarynda
empionaty
empionatyna
empionatynda
empionatyny
empionatynyn
empionlar
empionlygy
empionlygyny
empionlyk
empiony
empire
empiy
empty
emr
emra
emre
emri
emrinda
ems
emsi
en
ena
enay
enbe
enbesi
enbesinde
enc
encyclopaedia
encyclopedia
encyclopædia
end
endamy
endamyn
ende
endemigi
endemik
enden
endenas
endesa
endi
endigan
endigi
endigine
endigini
endiginin
endik
endikler
endikleri
endiklerini
endir
endis
endokrin
ene
enede
eneden
enedilim
eneg
enegler
enel
eneler
enelerin
enelik
enem
enen
eneolit
ener
enerc
energetika
energiy
eneri
enerligi
enerlik
enesi
enesinin
enewa
eng
engebretsen
engie
engine
engineering
engineeringenerc
engineers
english
eni
enii
enily
enin
eninde
eninden
enini
enisey
eniy
enjam
enjamlar
enjamlarda
enjamlary
enjamlaryn
enjamlarynda
enjamlaryny
enjamlarynyn
enjamlas
enjamy
enjamyn
enko
enkonyn
enkowa
enkowanyn
enler
enleri
enlerinde
enli
enn
enolit
ens
ensiklopedik
ensiklopediy
enson
enta
entegem
entek
entertainment
entoni
environmental
enwer
enweri
enwerinin
eny
ep
epagat
epagatlydyr
epbes
epc
epe
ependi
eper
eperc
epidemiy
epiki
episkop
episkoplar
episo
episode
episodes
episodio
epni
epos
eposda
eposlary
eposy
eposyn
eposynyn
equations
er
era
eramyzdan
eramyzyn
erap
erasty
erasy
erasyna
erasynda
erasyny
erbe
erbet
erbetles
erbetlik
erc
erda
erde
erden
erdi
erdir
erdogan
ere
erediji
eredip
eredy
ereket
ereketi
ereketin
ereketinin
eren
erep
eretik
eretmek
erewan
erey
ergin
ergini
erginini
eri
eridir
erif
erifde
erife
erigat
erik
erim
erin
erinda
erinde
erinden
erine
erini
erinin
erip
eris
eritrey
eriy
erjel
erjellik
erk
erkana
erkegin
erkek
erkekler
erkeklerde
erkeklerden
erkekleri
erkeklerin
erkeklerinin
erkeklik
erkgala
erki
erkin
erkine
erkinlige
erkinligi
erkinliginin
erkinlik
erkler
erkleri
erler
erlerda
erlerde
erlerden
erlerdir
erlere
erleri
erlerin
erlerinda
erlerinde
erlerinden
erlerine
erlerini
erlerinin
erles
erli
erligi
erlik
erlikli
erliksiz
erma
ermek
ermeni
ermeniler
ermenilerin
ermenistan
ermenistana
ermenistanda
ermenistandan
ermenistany
ermenistanyn
ermeny
ern
ernest
ernogoriy
eroziy
ers
ersin
ersiz
ert
ertdir
erte
erteki
ertekiler
ertekilerda
ertekilerde
ertekilere
ertekileri
ertesi
erti
ertidir
ertinde
ertini
ertir
ertirine
ertirki
ertler
ertlerde
ertlere
ertleri
ertlerin
ertlerinde
ertlerine
ertlerini
ertlerinin
ertley
ertli
ertnama
ertnamada
ertnamalar
ertnamalara
ertnamalary
ertnamalaryny
ertnamany
ertnamanyn
ertnamasy
ertnamasyna
ertnamasynda
ertnamasyny
ertnamasynyn
eru
erur
erusalim
erusalimi
erwin
ery
erzurum
es
esa
esalary
esas
esasan
esasanam
esasanda
esasda
esaslanan
esaslandy
esaslandyran
esaslandyrdy
esaslandyry
esaslandyryjy
esaslandyryjylar
esaslandyryjylaryn
esaslandyryjysy
esaslandyrylan
esaslandyryldy
esaslandyryly
esaslandyrylyp
esaslandyrylypdyr
esaslandyryp
esaslandyrypdyr
esaslandyrypdyrlar
esaslany
esaslanyar
esaslanyp
esaslanypdyr
esaslary
esaslaryna
esaslaryny
esaslarynyn
esasly
esassyz
esasy
esasydyr
esasylary
esasynda
esasyndan
esasyny
esasysy
esbap
esbaplar
esbaplary
esbaplaryny
escrava
ese
esen
esenguly
esenow
esenowa
eser
eserda
eserde
eserden
eserdir
esere
eseri
eseridir
eserin
eserinde
eserinden
eserine
eserini
eserinin
eserler
eserlerde
eserlerden
eserlerdir
eserlere
eserleri
eserlerin
eserlerinde
eserlerinden
eserlerine
eserlerini
eserlerinin
esger
esgeri
esgerin
esgerini
esgerler
esgerlere
esgerleri
esgerlerin
esgerlerinden
esgerlerini
esgerlerinin
esgerli
esi
esidi
esidir
esin
esinde
esinden
esine
esini
esinin
esir
esiri
esirin
esirler
esirleri
esirlikde
esirlikden
esiz
eskis
esko
esku
esli
esma
espan
especial
espn
esse
esseden
esser
essesi
est
esta
estate
ester
estetiki
estoniy
estr
estrada
eswatini
eswedin
et
etapda
etaz
etc
etda
etdaly
etde
etdedi
etden
etdi
etdigi
etdik
etdiler
etdiligi
etdim
etdin
etdir
etdirdi
etdirdiler
etdiren
etdirilipdir
etdirily
etdirip
etdiripdir
etdiripdirler
etdirjek
etdirma
etdirmek
etdiry
ete
etegi
eteginda
eteginde
etek
etekleri
eteklerinda
eteklerinde
eteklerine
eten
etende
etenden
etenson
eter
eterli
eterlidir
eterlik
eterlikdir
eterliligi
etginjek
etginjekler
etginjeklere
etginjeklerin
etginjeklik
ethereum
ethnic
ethnologue
eti
etidir
etik
etika
etilen
etim
etimize
etimizi
etimizin
etimologiy
etin
etinda
etinde
etinden
etine
etini
etinin
etip
etipdi
etipdir
etipdirler
etirdi
etirdiler
etiren
etirer
etiriji
etirildi
etirilen
etirilip
etirilipdir
etirilis
etirilmegi
etirily
etirip
etiripdir
etiripdirler
etiris
etirjek
etirma
etirmegi
etirmegin
etirmek
etirmekde
etirmekden
etirmeklik
etirmeli
etirmey
etirpdir
etirse
etiry
etis
etjegini
etjek
etjekdi
etjekdigi
etjekdigini
etki
etlek
etlendirily
etlendiry
etlenen
etlenendir
etlenip
etlenipdir
etleny
etler
etlerde
etlerden
etlere
etleri
etlerin
etlerinde
etlerine
etlerini
etlerinin
etles
etli
etlidir
etlik
etliligi
etlilik
etlisi
etm
etma
etme
etmedi
etmedik
etmediler
etmeg
etmegi
etmegin
etmeginde
etmeginden
etmegine
etmegini
etmeginin
etmejek
etmek
etmekc
etmekde
etmekden
etmekdi
etmekdir
etmekleri
etmeklige
etmekligi
etmekligin
etmeklik
etmeli
etmelidi
etmelidigini
etmelidir
etmelidirler
etmese
etmesen
etmesi
etmey
etmez
etmezc
etmezden
etmezligi
etmezlik
etmis
etnam
etnama
etnamalar
etnamda
etnik
etniki
etnograf
etnografik
etnografiki
etnografiy
etnonim
etnonimi
etnonimin
etnoniminin
etnonimler
etnonimleri
etoliy
etoro
etraba
etraby
etrabydyr
etrabyn
etrabyna
etrabynda
etrabyndaky
etrabyndan
etrabynde
etrabynyn
etrap
etrapc
etrapda
etrapdaky
etraplar
etraplara
etraplarda
etraplardaky
etraplary
etraplaryn
etraplaryna
etraplarynda
etraplaryny
etraplarynyn
etrapynda
etrek
etruriy
etrusk
etrusklar
etrusklaryn
ets
etse
etsede
etsek
etseler
etsen
etsin
etsiz
ety
etya
eu
eurasia
euronews
europe
european
europeanewropa
europeewropa
europeewropada
europeewropanyn
eurovision
ev
eva
ever
evidence
evn
evolution
ew
ewa
ewan
ewanyn
ewara
ewbey
ewc
ewde
ewden
ewe
ewfrat
ewgeniy
ewi
ewic
ewik
ewikler
ewiklere
ewiklerin
ewin
ewklid
ewklidin
ewna
ewoly
ewraziy
ewrey
ewro
ewropa
ewropada
ewropadaky
ewropadan
ewropaly
ewropalylar
ewropalylaryn
ewropany
ewropanyn
ewropoid
ewsi
ewskinin
ewskiy
ewtanaziy
ewu
ewwal
ex
exchange
exclusive
exe
experience
experts
express
extremely
ey
eydip
eye
eyec
eyes
eyesi
eyle
eyr
eyran
eysem
ez
ezber
ezd
ezdi
ezdinin
ezdlerinde
ezilen
ezily
ezipdirler
ezis
eziz
ezizim
ezizow
ezmek
ezray
ezy
f
fa
fabiy
fabrigi
fabrigy
fabrik
fabrikleri
facebook
factbook
facts
faculty
fadime
fahreddin
fainaru
faks
faktlary
faktor
faktorlar
faktorlara
faktorlary
faktorlaryn
fakultet
fakultetde
fakulteti
fakultetinde
fakultetine
fakultetini
fakultetinin
falconinae
fales
false
familiy
family
fan
fantastik
fantastiki
fantaziy
fao
far
faraby
farabynyn
faraon
faraonlary
faraonlaryn
faraony
faraonyn
farap
farer
farmasewtika
farro
fars
faruk
farz
farzdygyny
farzdyr
farzlary
farzy
farzyny
fas
faso
fataly
fath
fatih
fatiha
fatima
fatma
faunasy
faust
fay
fayard
fazyletlidir
fc
fe
feat
featuring
february
federal
federasiy
federation
federatiw
fejirden
feliz
fellahin
fen
fenerbahc
feodal
feodalc
feodallara
feodallaryn
feodallarynyn
fer
fera
ferdinand
ferdo
fergana
fergy
feri
fermalary
ferment
fermer
fermerler
fermerlere
fermerlerin
ferreira
fes
fessaliy
festivals
festiwal
festiwala
festiwaly
festiwalyn
festiwalynda
festiwalynyn
feth
feudal
few
fewral
fewralda
fewraly
fewralynda
fewralyndaky
fey
fi
fiat
fide
fidy
fifa
figura
fiji
fikh
fil
filadelfiy
filasofiy
fildis
files
filip
filipp
filippin
filippinler
filippinleri
filistin
film
filmde
filmi
filmidir
filmin
filminde
filmini
filminin
filmler
filmlerde
filmleri
filmlerinde
filmlerinden
filmlerinin
filologiy
filosof
filosofik
filosofiki
filosofiy
filosofiyasyn
filosoflaryn
filosofy
fin
final
finala
finalda
finalist
finaly
finalyna
finalynda
financemagnates
financial
finc
finikiy
finland
finlandiy
finly
fir
fire
firma
firmalar
firmalary
firmalaryn
firmasy
firmasynyn
first
fis
fit
fitra
fitre
fitresini
five
fiwy
fiwyda
fiwynyn
fizigi
fizik
fizika
fizikanyn
fizikasy
fiziki
fiziologik
fiziologiki
fiziologiy
fk
fl
fla
flandriy
flash
fley
flipp
flober
florensiy
florida
flot
flotunda
flotuny
flotunyn
floty
flotyny
floy
floyd
fm
fo
fobos
fobosyn
focus
fogo
fokus
folklor
fon
fonduna
fondy
fonetik
food
football
for
forbes
ford
foreign
forma
formada
formal
formalary
formasy
formasynda
format
formatlar
formaty
formula
formulasy
fort
fortepiano
fortepy
forum
forumda
forumy
forumyn
foto
fotosuratlary
foundation
four
fourfourtwo
fox
fr
frac
frakiy
framework
fran
franc
france
francesco
francis
frank
frankfurt
frankie
franklaryn
franklin
frans
fransisko
fransiy
fransua
fransuz
fransuzc
fransuzlar
fransuzlara
fransuzlary
fransuzlaryn
frat
freak
fred
frederik
fredrik
free
freedom
french
frey
fridrih
friendship
from
front
fronta
frontda
fronty
frontynyn
frozen
ft
fti
ftse
ftu
fu
full
fuller
fun
fundamental
funksional
funksiy
funt
fuq
furiy
fut
futbol
futbola
futbolc
futbolcular
futbolcuları
futbolist
futbolo
futboly
futbolyn
future
futzal
fy
fytyr
g
ga
gaasperplas
gaba
gabada
gabady
gabadylar
gabadyn
gabakc
gabalan
gabalypdyr
gabamak
gabap
gabapdyr
gabapdyrlar
gabarc
gabat
gabatda
gabatdaky
gabatdan
gabaw
gabawa
gabawda
gabawdan
gabawy
gabay
gabon
gabriel
gabriela
gabry
gabsburglar
gabsburglaryn
gaby
gabygy
gabygyn
gabygynda
gabygyny
gabygynyn
gabyk
gabyklary
gabykly
gabyn
gac
gad
gada
gadagan
gadagandy
gadagandyr
gadam
gadym
gadymdan
gadymky
gadymy
gadymysy
gadymyy
gadyr
gadyrly
gadyry
gadyryn
gadyryny
gagarin
gah
gahar
gaharjan
gaharlanyp
gaharly
gahary
gaharyny
gahryman
gahrymanc
gahrymanlar
gahrymanlarc
gahrymanlary
gahrymanlaryn
gahrymanlarynyn
gahrymany
gahrymanyn
gahrymanynyn
gaiti
gajar
gajarlar
gajarlaryn
gajy
gak
gakylygy
gakylygyn
gakylyk
gal
gala
galada
galadaky
galadan
galadriel
galadyr
galak
galalar
galalara
galalarda
galalardan
galalary
galalaryn
galalaryna
galalaryny
galalarynyn
galaly
galam
galamga
galamy
galan
galanda
galandygyny
galanlar
galanlary
galany
galanyn
galanyny
galapyn
galar
galara
galary
galaryn
galas
galasy
galasyna
galasynda
galasyndan
galasyny
galasynyn
galatasaray
galaxy
galay
galdy
galdylar
galdyran
galdyrdy
galdyrmaga
galdyrmak
galdyrmaly
galdyry
galdyryjy
galdyrylan
galdyryly
galdyrylypdyr
galdyryp
galdyrypdyr
galdyrypdyrlar
galerey
galiley
galindo
galisiy
galkan
galkany
galkynys
gall
galla
gallac
gallanyn
gallar
galliy
galma
galmady
galmaga
galmagal
galmagally
galmagy
galmagyna
galmagyny
galmagynyn
galmajak
galmak
galmaly
galman
galmandyr
galmay
galmaz
galn
galp
galsa
galtaman
galtamanbas
galtamanc
galtamanlar
galtamanlardan
galtamanlaryn
galtas
galy
galyar
galyberse
galybersede
galyn
galyndy
galyndylar
galyndylary
galyndylaryny
galyndylarynyn
galyndysy
galyp
galypdy
galypdyr
galypdyrlar
galys
gam
gama
gambiy
gamburg
gamc
game
games
gamgyn
gamly
gamyny
gamys
gan
gana
gananyn
ganat
ganatlany
ganatlary
ganatlarynyn
ganatly
ganatlylar
ganaty
ganatynyn
ganda
gandaky
gandi
gandini
gandinin
gando
gandy
gandym
gang
ganga
ganhor
ganly
gannibal
gannibaly
gannibalyn
gansu
gant
gany
ganym
ganyn
ganyna
ganyndan
ganyny
ganynyn
gao
gap
gapa
gapak
gapan
gapda
gapdal
gapdaldan
gapdallary
gapdallarynda
gapdaly
gapdalynda
gapdalyndan
gaplan
gaplanan
gaplap
gaplar
gaplarda
gaplary
gaplaryn
gapma
gapy
gapydan
gapylar
gapyn
gapyny
gapynyn
gapyrga
gapyrgalaryn
gapysy
gapysyna
gapysynda
gar
gara
garabag
garabekewu
garabogaz
garac
garada
garadag
garadagystan
garadan
garadas
garaden
garadepe
garadolan
garagalpagystan
garagalpak
garagalpaklar
garagas
garago
garagol
garagoy
garagulak
garagum
garaguma
garagumda
garagumun
garagumyn
garagus
garahan
garahanly
garahanlylar
garahytay
garaja
garajaoglanyn
garakc
garako
garalama
garalar
garaldy
garaly
garalyp
garalypdyr
garamagy
garamagyna
garamagynda
garamagyndaky
garamak
garaman
garamay
garamazdan
garamergen
garamergene
garamergenin
garamtyl
garamyk
garan
garanda
garanyn
garao
garap
garapdyrlar
garas
garasu
garasy
garawsyz
garawul
garay
garaz
garc
garda
gardan
gardas
garga
gargys
gari
gark
garkyn
garly
garlyk
garlynyn
garlyy
garmak
garmaly
garna
garny
garnyn
garpys
garpyz
garran
garry
garrybay
garrygala
garrygalada
garrylar
garrylyk
garryy
gars
garshy
gartas
garward
gary
garyba
garyby
garybyn
garylan
garylyp
garym
garyn
garyndan
garyndas
garyndynyn
garyndysy
garynjalar
garynyn
garyp
garyplar
garyplara
garyplary
garyplaryn
garyplas
garyplyk
garyplykda
garys
gas
gasy
gasyk
gat
gatamagy
gatan
gatap
gatda
gatdan
gatlaga
gatlagy
gatlagyn
gatlagyna
gatlagynda
gatlagyny
gatlagynyn
gatlak
gatlakda
gatlakdan
gatlaklar
gatlaklara
gatlaklary
gatlaklaryn
gatlaklaryna
gatlaklarynda
gatlaklaryndan
gatlaklarynyn
gatlakly
gatly
gatnady
gatnap
gatnas
gatnaw
gatnawlar
gatnawlary
gatnawly
gatnawy
gatnay
gato
gaty
gatyk
gatylygy
gatym
gatynda
gatys
gaudio
gauss
gaway
gawun
gawunyn
gay
gaz
gaza
gazaba
gazaby
gazabyna
gazagystan
gazagystanda
gazagystanyn
gazak
gazaklar
gazaklaryn
gazal
gazallary
gazan
gazana
gazanan
gazananlary
gazananlaryny
gazananlarynyn
gazanc
gazanda
gazandy
gazandylar
gazanjyk
gazanmaga
gazanmagy
gazanmagyn
gazanmak
gazany
gazanyar
gazanylan
gazanyldy
gazanyly
gazanylypdyr
gazanyn
gazanyp
gazanypdy
gazanypdyr
gazanypdyrlar
gazap
gazaply
gazawat
gazawlar
gazet
gazetde
gazeti
gazetin
gazetinde
gazetinin
gazetler
gazetlerde
gazetlerin
gazi
gaziantep
gazlar
gazlaryn
gazlyp
gazma
gazmak
gazna
gaznada
gaznadan
gaznaly
gaznalylar
gaznalylaryn
gaznany
gaznanyn
gaznasy
gaznasyndan
gaznasyny
gaznasynyn
gaznawa
gaznawy
gaznawynyn
gazprom
gazuw
gazy
gazyk
gazylan
gazylyp
gazyn
gazyny
gazynyn
gazyp
gazzaly
gb
gbay
gd
gda
gdr
ge
gec
gecdi
gecen
gechiren
gechirip
gecirilen
gecirmek
geday
gein
gejim
gektar
gektara
gektardan
gektary
gel
gela
geldi
geldiler
geldim
geldin
geldiy
gelejekde
gelen
gelende
gelenden
gelendigi
gelendigine
gelendigini
gelendir
gelenin
geleninde
geleninden
gelenini
gelenje
gelenler
gelenlerin
gelenlerinden
gelenok
gelenson
geler
gelerdi
gelerin
geles
geli
gelik
gelim
gelin
gelindi
gelinler
geliny
gelip
gelipdi
gelipdir
gelipdirler
gelis
geliy
geljege
geljegi
geljegin
geljegine
geljegini
geljek
geljekde
geljekki
gelma
gelmedi
gelmeg
gelmegi
gelmeginde
gelmegine
gelmegini
gelmeginin
gelmek
gelmekleri
gelmeklik
gelmeli
gelmey
gelmez
gelmezlik
gelmis
gelnen
gelni
gelnin
gelnipdir
gels
gelse
gelsen
gelsin
gely
gelya
gelyan
gelyar
gem
gemeente
gemoglobin
gemoglobinin
gen
genc
gene
general
generallary
generaly
genetika
genetiki
genial
genius
genje
genji
genofondy
genri
genrih
genuy
geo
geodeziy
geograf
geografik
geografiki
geografiy
geografy
geographic
geologik
geologiki
geologiy
geometrik
geometriki
geometriy
georg
george
georgia
georgiy
geosentrik
geosyy
gep
gepatit
gepatitin
gepatitler
gepatitlerin
gepi
gepin
gepla
geplema
geplemek
geples
gepley
ger
gerbi
gerc
gerdenine
geredot
gereginden
gerek
gerekdi
gerekdigini
gerekdir
gerekli
gerekmez
gerekmi
gereksiz
geren
geri
gerim
gerime
gerimi
gerimli
gerin
gerinin
gerip
geris
gerkezi
gerlen
german
germaniy
germanlar
germanlaryn
germany
gerodot
gerodotyn
gers
gersegowina
gersegowinany
gersegowinanyn
gersiwez
gersog
gertrude
gerusiy
gery
ges
geso
get
getir
getirdi
getirdiler
getiren
getirer
getiriji
getirildi
getirilen
getirilip
getirilipdir
getirilis
getirilmegi
getirily
getirip
getiripdi
getiripdir
getiripdirler
getirjek
getirma
getirmedi
getirmegi
getirmegin
getirmek
getirmeli
getiry
getirya
gets
gey
gez
gezege
gezegem
gezeginde
gezegine
gezek
gezekde
gezekden
gezekki
gezekles
gezekli
gezelenc
gezelenje
gezen
gezer
gezip
gezmek
gezy
gfr
gi
gibraltar
gic
gid
gideli
giden
gidende
gidenden
gidenler
gidenleri
gider
gidilipdir
gidily
gidimli
gidip
gidipdi
gidipdir
gidipdirler
gidir
gidis
gidy
gidya
gigiy
gija
gije
gijede
gijeden
gijeki
gijeler
gijelerine
gijesi
gijesinde
gijesine
gijesini
gijikdirma
gijilewik
gijira
gijra
gik
giksoslaryn
gilan
gilbert
gile
gileligini
gilelik
giler
gileri
gily
gimalay
gimn
gimnastika
gimnaziy
gimni
gimnin
gin
ginda
ginde
ginden
gine
gini
ginin
ginli
gipotireozly
gipotireozyn
gippokrat
gips
gir
giray
girdeji
girdejiler
girdejileri
girdejilerin
girdejilerinin
girdejili
girdejinin
girdejisi
girdejisine
girdejisinin
girdey
girdi
girdiler
girdim
girelge
girelgesi
girelgesinin
giren
girende
girenden
girendir
girenin
girer
girew
girewine
girily
girip
giripdir
giripdirler
giris
girizdi
girizdiler
girizen
girizildi
girizilen
girizilendir
girizilip
girizilipdir
girizilmegi
girizilmegine
girizilmegini
girizily
girizip
girizipdir
girizipdirler
girizma
girizmegi
girizmek
girizy
girjek
girkan
girkaniy
girl
girls
girma
girmegi
girmegin
girmegine
girmeginin
girmek
girmey
girmez
girmezden
girt
girtleri
girtlerinin
giry
girya
giryar
gis
git
gitara
gitarac
gitdi
gitdigic
gitdiler
gitjek
gitler
gitlerin
gitma
gitme
gitmegi
gitmegine
gitmek
gitmeli
gitmey
gitmez
gitse
gity
giy
giz
gizla
gizlemek
gizlenip
gizlenipdirler
gizleny
gizley
gizlin
gizlinlik
gizlinlikde
gjilan
gl
glady
global
globe
globus
glum
gly
gm
gney
go
goc
god
goes
goja
gojaman
gojanyn
gok
gol
gola
golagyn
golak
golastyna
golastynda
golay
golc
gold
golda
goldady
goldadylar
goldamady
goldamaga
goldamagy
goldamagynda
goldamak
goldan
goldany
goldanyly
goldap
goldapdyr
goldapdyrlar
goldaw
goldawc
goldawy
goldawyna
goldawyndan
goldawyny
golday
golden
goll
golland
gollandiy
gollandlar
gollanma
gollanmasy
gollary
gollaryny
gollun
gollyn
golowac
goltgy
golun
goluna
goluny
goly
gomer
gomerc
gomerin
gomez
gomin
gomindan
gon
gonamc
gonc
gonduras
gonkong
gons
gonup
good
google
gopan
goplit
gopuz
gor
gora
gorady
goradylar
gorag
goraga
goragc
goraghana
goraghanada
goraghanalary
goraghanalaryn
goraghanalarynda
goraghanamyza
goraghananyn
goraghanasy
goraghanasyna
goraghanasynda
goraghanasynyn
goragly
goraglylygy
goragsyz
goragy
goragyna
goragyny
goralan
goralmagy
goraly
goralyp
goralys
goramaga
goramagy
goramagyn
goramak
goramakda
goramaly
goran
goranmak
goranys
gorap
gorapdyr
gorapdyrlar
goray
gorbac
gordon
gorkak
gorkan
gorkezilyar
gorkezmek
gorkiy
gorkmak
gorkudyn
gorkuly
gorkunc
gorkup
gorkusy
gorkut
gorkuzdy
gorkuzmak
gorkuzyp
gorky
gorlary
gorlarynyn
gormon
gormonlary
gormonlarynyn
gory
gos
gosling
gospel
gotlar
gotlaryn
gov
government
gow
gowac
gowagy
gowagynda
gowagyndan
gowak
gowaklarda
gowaklary
gowgaly
gowragy
gowragyny
gowrak
gowrakdy
gowrakdyr
gowrulan
gows
gowudyr
gowulandyrmagy
gowulandyrmak
gowulas
gowulyk
gowurak
gowus
gowusy
gowuz
gowuzyn
gowy
goy
goz
gozgalan
gozgalmay
gozgaly
gozle
gprs
gr
gra
gradni
gradus
gradusa
graf
grafika
grafiki
graflyklarda
graham
grakh
gram
grama
grammatik
grammatika
grammy
gran
granada
grand
grande
granit
graz
gre
great
greatest
gregorian
grek
grekc
grekler
greklerden
greklere
greklerin
grenlandiy
gres
gresiy
grigoriy
grigory
grin
grossmey
group
groups
growth
gru
grupba
grupbasy
gruzin
gruziy
gs
gsi
gsm
gt
gu
guam
guardian
guba
gubadag
gubay
gubernator
gubernatory
guberniy
gubury
guburyn
guburynyn
guc
guda
gudac
gudas
gudrat
gudratly
gudraty
guduzlama
guide
guinness
gujak
gujur
gujurly
gul
gula
gulac
gulaga
gulagy
gulagyn
gulagyna
gulak
gulaklaryn
gulaly
gulam
gulan
gulanlar
gular
gulary
gularyn
gularyna
gularynda
gularyndan
gularyny
gularynyn
gulbatyr
gulc
gulgeldi
gulgeldinin
gullanan
gullandy
gullanmaga
gullanmak
gullany
gullanyp
gullanypdyr
gullanypdyrlar
gullar
gullara
gullardan
gullary
gullaryn
gulluga
gullugy
gullugyn
gullugyna
gullugynda
gullugyny
gullugynyn
gulluk
gullukc
gullukda
gullukdan
gulluklary
gulmuhammedow
gulun
guly
gum
guma
gumanistik
gumanitar
gumda
gumdag
gun
gunbatar
gunc
gundogar
guni
gunlar
gunlaryn
gunlas
gunly
gunnlar
gunnlaryn
gunorta
guny
guo
gur
gurady
guradylan
guradylar
guradylyp
guragyry
guragyrynyn
gurak
gurakc
guraklyk
gural
guralan
guraldy
guraldyr
gurallar
gurallary
gurallaryn
gurallaryna
gurallaryny
gurallarynyn
guraly
guralypdyr
guralys
gurama
guramac
guramadyr
guramaga
guramagy
guramak
guramakda
guramalar
guramalara
guramalary
guramalaryn
guramalaryna
guramalarynyn
guramany
guramanyn
guramasy
guramasyna
guramasynda
guramasyny
guramasynyn
guran
gurap
gurapdyr
gurapdyrlar
guratmak
guray
gurban
gurbandurdy
gurbanguly
gurbanlyk
gurbanma
gurbannazar
gurbannepesow
gurbanow
gurbansoltan
gurbany
gurbanyny
gurbetc
gurc
gurdu
gurdular
gurduran
gurdury
gurduryp
gurdurypdyr
gurdy
gurhan
gurhanda
gurhany
gurhanyn
gurjak
gurlan
gurlar
gurlaryn
gurlup
gurlupdyr
gurlus
gurlutay
gurlyk
gurlys
gurmaga
gurmagy
gurmagyn
gurmak
gurmakda
gurmaklygy
gurmaklyk
gurnalan
gurnaldy
gurnaly
gurnama
gurnamagy
gurnamak
gurnan
gurnap
gurnay
gurply
gurs
gurt
gurujusy
gurujy
gurujysy
gurulan
guruldy
guruljak
gurulmagy
gurulmagyna
gurulmagyny
gurultay
guruly
gurulyp
gurulypdyr
gurulys
gurup
gurupdyr
gurupdyrlar
gury
gurylan
gurylandyr
guryy
gus
gusc
gusl
guslda
guslyn
gusmak
gussa
gussaly
gustaw
gusul
gusy
gusyn
gusynda
gusyny
gusynyn
gutaran
gutarandan
gutaranson
gutaranyndan
gutardy
gutarmagy
gutarmak
gutarmay
gutarnykly
gutary
gutaryp
gutarypdy
gutarypdyr
guthrie
gutlamak
gutlug
gutlyy
gutular
gutulmak
gutulmys
gutusy
guw
guwanc
guwanjy
guwlar
guwlara
guwlary
guwlaryn
guwy
guy
guz
guzlaryn
guzy
gvb
gwardiy
gwatemala
gwatemalada
gwiney
gy
gybat
gyc
gygyrdy
gygyrmak
gygyry
gygyryp
gygyrys
gyjakc
gykylyk
gyl
gylaryny
gylc
gyly
gylyc
gylyjy
gylyjyn
gylyjyny
gylyjynyn
gylyk
gym
gymmat
gymmatbaha
gymmatbahaly
gymmatly
gymmatlydyr
gymmatlygy
gymmatlyk
gymmatlyklar
gymmatlyklary
gymmatlyklaryn
gymmatlyklaryna
gymmatlyklaryny
gymmatlyklarynyn
gymmaty
gymmatyn
gymmatyny
gymmatynyn
gyn
gyna
gynanan
gynanc
gynansak
gynany
gynanyp
gyny
gynyn
gypjak
gyr
gyra
gyrada
gyraden
gyralary
gyralarynda
gyralaryny
gyran
gyrasy
gyrasyna
gyrasynda
gyrgy
gyrgyna
gyrgync
gyrgyz
gyrgyzlar
gyrgyzlaryn
gyrgyzystan
gyrgyzystanda
gyrgyzystanyn
gyrlypdyr
gyrmanc
gyrmyzy
gyrtyc
gyry
gyryldy
gyrymsy
gyryp
gyrypdyr
gyrypdyrlar
gys
gysga
gysgac
gysgajyk
gysgalan
gysgaldylan
gysgaldyp
gysgaltmak
gysgaltmasy
gysganc
gysmak
gyssagly
gysy
gysylan
gysylmagy
gysylyp
gysyp
gysyz
gyt
gytc
gytlay
gytly
gyy
gyz
gyza
gyzamyk
gyzarmagy
gyzary
gyzdan
gyzdyrma
gyzdyryp
gyzgala
gyzgalan
gyzgylt
gyzgyn
gyzgynlygy
gyzgynlyk
gyzgyny
gyzgynynyn
gyzlar
gyzlara
gyzlarbibi
gyzlary
gyzlaryn
gyzlaryny
gyzlarynyn
gyzy
gyzyklanan
gyzyklandy
gyzyklandyry
gyzyklanma
gyzyklanmalar
gyzyklanmasy
gyzyklany
gyzyklanyp
gyzyklanypdyr
gyzykly
gyzyklydyr
gyzyl
gyzylarbat
gyzylay
gyzylbas
gyzylc
gyzyletrek
gyzylja
gyzylo
gyzylymtyl
gyzyn
gyzyna
gyzyny
gyzynyn
gyzyp
gyzzyrma
għajn
għar
h
ha
habar
habara
habarc
habardar
habarlar
habarlary
habarlaryny
habarlas
habarly
habarsyz
habary
habaryn
habaryna
habaryny
haber
haberleri
hac
hadys
hadysa
hadysadyr
hadysalar
hadysalara
hadysalary
hadysalaryn
hadysalaryna
hadysalaryny
hadysalarynyn
hadysany
hadysanyn
hadysasy
hadysasyna
hadysda
hadyslarda
hadysy
hadysynda
hafi
hafizulla
haj
haja
hajatlary
hajda
hajdan
hajerul
hajy
hajylaryn
hajymuhammet
hajyn
hajyna
hajyny
hajyp
hak
hakany
hakda
hakdaky
hakdan
hakim
haklary
haklaryny
haklarynyn
haky
hakykat
hakykata
hakykatda
hakykatdan
hakykatdanam
hakykatdanda
hakykaty
hakykatyn
hakyky
hakyn
hakyna
hakynatutma
hakynda
hakyndaky
hakyny
hakynyn
hal
hala
halac
halakara
halal
halallyk
halamay
halap
halas
halasga
halat
halatda
halatlarda
halatlary
halatlarynda
halatynda
halay
halda
haldey
haldurdy
halif
halk
halka
halkaly
halkara
halkasynyn
halkdan
halkdyr
halklar
halklara
halklarda
halklardan
halklary
halklaryn
halklaryna
halklarynda
halklaryndan
halklaryny
halklarynyn
halky
halkymyz
halkymyza
halkymyzyn
halkyn
halkyna
halkynda
halkyny
halkynyn
halkyy
hall
hally
hallynyn
halta
haltasy
haltasyna
haly
halyc
halyf
halyfat
halyfaty
halyfatyn
halyfatynyn
halyflyk
halyfy
halyfyn
halyl
halylar
halylary
halylaryn
halylarynyn
halyna
halynda
halyny
halynyn
halypa
halypalaryn
halypasy
halypasynyn
halys
halysy
halysynyn
ham
hamala
hamd
hammamlar
hammurapi
hammurapinin
hamsun
hamyny
hamyr
hamyrmay
hamza
hamzay
han
hana
hanafi
hanalar
hanam
hanasy
hanasynyn
hanbalylar
hanbank
hanbel
hanbeli
hanc
handan
handbook
handyr
hanedanlygy
hanedanlygynyn
hanefi
hanefilere
hangeldi
hanhowuz
hanjar
hanlar
hanlara
hanlardan
hanlary
hanlaryn
hanlaryna
hanlarynyn
hanlyga
hanlygy
hanlygyn
hanlygyna
hanlygynda
hanlygyny
hanlygynyn
hanlyk
hanlyklar
hanlyklary
hanlyklaryn
hanlyklaryny
hanlyklarynyn
hanna
hanow
hans
hanto
hany
hanym
hanymy
hanymyn
hanyn
hanyna
hanynyn
haos
hapa
hapalanma
hapalanmagy
hapalay
hapasyny
hapgyrtma
hapgyrtmanyn
har
haraba
harabac
harabalary
harabalyklary
haram
harama
haramdyr
haramzada
harap
harasat
haray
harby
harbylaryn
harbylas
harc
harej
harem
harm
harold
harp
harpdan
harplar
harplary
harpy
harpynyn
harri
harry
hars
hartiy
harvard
haryda
harydy
harydyn
haryt
harytlar
harytlary
harytlaryn
harytlaryny
harytlarynyn
has
hasa
hasaba
hasabat
hasabaty
hasabatyna
hasaby
hasabyn
hasabyna
hasabynda
hasabyndan
hasabyny
hasabynyn
hasabyy
hasadan
hasam
hasan
hasanyn
hasap
hasapc
hasapdan
hasaplamak
hasaplamalar
hasaplan
hasaplanan
hasaplandy
hasaplanmay
hasaplany
hasaplanyar
hasaplanyly
hasaplanylypdyr
hasaplanyp
hasaplanypdyr
hasaplap
hasaplapdyr
hasaplapdyrlar
hasaplar
hasaplary
hasaplaryny
hasaplarynyn
hasaplas
hasaplasa
hasaplasyk
hasaplay
hasardag
hasda
hasly
hasrat
hasratly
hass
hassa
hassahana
hassahanada
hassalar
hassalyk
hasy
hasyl
hasylly
hasyllylygy
hasyllylygyn
hasyllylyk
hasyly
hasylyn
hasylyny
hasym
hat
hata
hatar
hatara
hatarda
hatardan
hatarlarynda
hataryna
hatarynda
hatda
hatemi
hateminin
hatlar
hatlary
hatlaryn
hatlaryny
hatly
hattusili
haty
hatyja
hatyn
hatyna
hatynda
hatyny
hatynyn
hatyra
hatyrasy
hatyrasyna
havacılık
have
hawa
hay
haysy
haz
hazar
hazary
hazaryn
hazir
hazirki
hazyna
hazynadan
hazynalar
hazynalary
hazynalaryn
hazynany
hazynasy
hazynasyna
hazynasyny
hazynynyn
hbet
hbetdes
hbidi
hbidine
hbidini
hbit
hbitleri
hbitlerine
hbitlerini
hbitlerinin
hbitli
hd
hdi
hdp
he
head
health
heart
heaven
hebes
hebrewewrey
heder
hedow
hedowyn
hedy
hek
hekay
hekim
hekimin
hekli
hel
hela
helc
helen
heley
hellesi
help
helsinki
hem
hemay
hemde
hemedan
hemem
heminguey
hemis
hemle
hemma
hemme
hemmeden
hemmeler
hemmelere
hemmeleri
hemmelerin
hemmesi
hemmesinde
hemmesinden
hemmesine
hemmesini
hemmesinin
hemmetaraplay
hemra
hemralarynyn
hemrasy
hemswort
hemsworth
hemze
hen
hendorf
heniz
henize
henizem
henk
hennem
henneme
henry
heo
hepda
hepde
hepdede
hepdeden
hepdela
hepdelik
her
herara
herc
herda
herde
herden
herdir
here
hereket
hereketde
herekete
hereketi
hereketin
hereketinde
hereketinden
hereketine
hereketini
hereketinin
hereketjen
hereketlendiriji
hereketler
hereketlere
hereketleri
hereketlerin
hereketlerine
hereketlerini
hereketlerinin
hereketli
hereketsiz
herero
hergiz
heri
heridir
herin
herinda
herinde
herinden
herine
herini
herinin
herjiginin
herlenip
herler
herlerda
herlerde
herlerden
herlere
herleri
herlerin
herlerinde
herlerinden
herlerine
herlerini
herlerinin
herli
herliler
herlilerin
hermano
herna
herni
hero
hersegowina
hersi
hersinde
hersine
hersinin
herzegovina
het
hetden
hetli
hett
hettler
hettlerin
hey
heykeli
hezil
hezillik
hezret
hezreti
hg
hhr
hi
hic
high
higher
hijret
hijri
hika
hikmet
hikmeti
hikmetler
hikmetlerinin
hil
hilal
hilaly
hilalyn
hilalyny
hile
hilega
hili
hilin
hiline
hilini
hilinin
hill
hilli
hilmi
him
himik
himiki
himiy
himli
hin
hind
hinde
hindi
hindigus
hindihytay
hindiler
hindilerin
hindistan
hindistana
hindistanda
hindistandaky
hindistandan
hindistany
hindistanyn
hini
hinjiy
hios
hip
hir
hirli
hirurgiki
hirurgiy
his
histo
historical
history
hit
hiwa
hkp
hks
hl
hlamidioz
hlamidiy
hle
hlelendiry
hleleri
hlelerinin
hlelilerin
hler
hlerde
hlesi
hlesini
hlesinin
hlet
hletde
hlete
hleti
hletinden
hletini
hletinin
hletley
hletli
hli
hlihalk
hlisi
hlisinde
hlisine
hlisini
hlisinin
hliumumy
hlor
hlumumy
hmet
hmetden
hmete
hmeti
hmetin
hmetini
hmetinin
hmetkes
hmetso
hmiy
hnet
ho
hobbes
hobbese
hoja
hojaahmet
hojaguly
hojaly
hojalyga
hojalygy
hojalygyn
hojalygyna
hojalygynda
hojalygyndan
hojalygyny
hojalygynyn
hojalyk
hojalykda
hojalyklar
hojalyklara
hojalyklarda
hojalyklary
hojalyklaryn
hojalyklarynda
hojalyklarynyn
hojambaz
hojams
hojanepes
hojanyn
hojanyy
hojay
hokkay
hokkey
hokmunde
hol
hold
holding
holiday
holidays
hollywoodreporter
home
homem
homey
hommat
hong
hons
hop
hor
hora
horaha
horasan
horasana
horasanda
horasandaky
horasandan
horasany
horasanyn
horaz
horda
hordalylar
horezm
horezmde
horezme
horezmi
horezmin
horezminin
horezmliler
horezmlilerin
horezms
horhe
horlamak
horlanan
horlanmak
horlany
horluk
hormat
hormata
hormatlamak
hormatlany
hormatly
hormaty
hormatyna
horosan
horosanlylar
horwat
horwatiy
hos
hose
hosrow
hossarlyk
hossary
hot
house
how
howa
howada
howadan
howaly
howandarlygynda
howandarlyk
howany
howanyn
howard
howasy
howatyr
howatyrlanyp
howay
howdan
howdanc
howdanlary
howdanlaryn
howdany
howdanyn
howdanynyn
howla
howlukmac
howlukman
howlusynda
howlusynyn
howly
howlynyn
howp
howpdan
howply
howpsuz
howpsuzlygy
howpsuzlygyny
howpsuzlyk
howpun
howpuna
howpuny
howpunyn
howpy
howsala
howsalaly
howuz
howwa
hoy
hoz
hq
hr
hra
hrada
hradaky
hralarynda
hraly
hran
hrana
hranda
hranyn
hrap
hrat
hrata
hratlanypdyr
hratly
hraty
hratyny
hre
href
hremi
hri
hriban
hrin
hristian
hristianc
hristianlar
hristianlary
hristianlaryn
hristiy
hristofor
hristosyn
hriy
hromosoma
hroniki
hronologiy
hrus
hstag
ht
htden
htimal
htimaldyr
htimallygy
htiy
htm
html
htnama
http
https
httu
hu
huan
huc
hudabende
huday
hudoz
hudson
huhany
hukugy
hukugyna
hukugyndan
hukugyny
hukugynyn
hukuk
hukukc
hukukdan
hukuklar
hukuklardan
hukuklary
hukuklaryn
hukuklaryna
hukuklaryndan
hukuklaryny
hukuklarynyn
hukukly
hukuklyk
hukuklylyk
hukuksyz
hulagu
human
humarly
humay
hun
hung
hunlar
hunlara
hunlaryn
huntsman
huny
hur
hurdyr
hurlary
hurlyga
hurlygy
hurlygyny
hurlyk
hurma
hurs
hurus
hus
husey
hususan
hususanda
hususy
hususylas
hususyy
hut
hutba
huy
huzuryna
hwa
hy
hydyr
hydyrow
hyjuw
hyjuwly
hyjuwy
hyn
hyr
hyrada
hyrady
hyradyn
hyrat
hyratda
hyratdan
hyrsyz
hysrow
hyt
hytay
hywa
hywada
hywadaky
hywadan
hywaly
hywany
hywanyn
hyy
hyz
hyzmat
hyzmatdas
hyzmatka
hyzmatlar
hyzmatlary
hyzmatlaryn
hyzmatlaryna
hyzmatlaryny
hyzmatlarynyn
hyzmaty
hyzmatyn
hyzmatyna
hyzmatynda
hyzmatyny
hyzyr
hz
hzada
i
ia
iai
iakinf
iana
ib
ibem
iber
iberdi
iberdola
iberen
iberenin
iberildi
iberilen
iberilipdir
iberilmegi
iberily
iberip
iberipdir
iberipdirler
iberiy
iberma
ibermegi
ibermek
ibery
iblis
ibm
ibn
ibni
ibo
ibrahim
ibt
ic
icinde
icki
id
idda
ide
ideal
idealistik
ideddin
ideddinin
idedipdirler
ideg
iden
ideologiy
ider
idetdin
idey
idi
idigini
idilmedik
idily
idin
idip
idipdi
idir
idis
idow
idris
idy
ie
ieee
ielts
if
iffhs
ifrat
iftar
iftitah
ig
igde
igdir
igdirler
ige
igem
igi
igide
igidi
igidin
igidir
igil
igildem
igin
iginde
iginden
igine
igini
iginin
igit
igitler
igitlere
igitleri
igitlerin
igitlerine
igitlerini
igitlerinin
igitlik
ignored
igor
igrenc
igrenip
igrenipdirler
igrenji
igreny
igrimi
igriminji
ih
ihanasy
ihanasynyn
ihmyrat
ihtilam
ii
iii
iir
iisus
iji
ijik
ijiler
ijileri
ijilerin
ijisi
ijtimagy
ik
ika
ikay
ikde
ikden
ikdir
ikes
ikeslenmegi
ikesli
iki
ikic
ikiden
ikilenc
ikilik
ikin
ikindi
ikinji
ikinjiden
ikinjisi
ikinjisine
ikirjin
ikisem
ikisi
ikisinde
ikisini
ikisinin
ikitaraplay
ikiy
ikler
iklerde
iklerden
iklere
ikleri
iklerin
iklerinde
iklerine
iklerini
iklerinin
ikli
iklige
ikligi
ikligin
ikligini
iklik
iklikda
iklikde
ikp
iksiz
ikta
iktas
il
ila
ilaman
ilat
ilata
ilatdan
ilatlar
ilatlary
ilatly
ilaty
ilatyn
ilatyna
ilatynda
ilatyndan
ilatyny
ilatynyn
ilc
ilden
ildes
ildi
ildigi
ildigidir
ildiler
ile
ilek
ilen
ilende
ilenden
ilendigini
iler
ilerden
ilere
ileri
ilerin
ilerine
ilerini
ilerinin
ilerki
ilga
ili
ilige
iligi
iligin
iliginda
iliginde
iliginden
iligine
iligini
iliginin
ilik
ilikda
ilikde
ilikden
ilikdir
ilikler
iliklere
ilikleri
iliklerin
iliklerinden
iliklerine
iliklerini
iliklerinin
ilikli
iliksiz
ilim
ilin
ilinde
iline
ilini
ilinin
ilip
ilipdir
ilis
iljek
ilk
ilki
ilkibada
ilkibas
ilkidurmus
ilkiler
ilkinji
ilkinjilerin
ilkinjisi
illa
illek
iller
illeri
illerin
illes
illi
illik
illikler
illikleri
illikli
illiriy
ilma
ilmegi
ilmegine
ilmegini
ilmeginin
ilmek
ilmez
ilnama
ilnamalary
ilnamalaryny
ilnamalas
ilnamasy
ilnamasyna
ilnamasyny
ilse
ilteris
ilturmus
ilu
ily
im
ima
image
images
iman
imany
imanyn
imdb
imdi
ime
imi
imin
imiz
imizde
imize
imizi
imkent
imler
imlik
immigrant
immigrantlaryn
immun
imo
impact
imperator
imperatora
imperatorlar
imperatorlary
imperatorlaryn
imperatorlyk
imperatory
imperatoryn
imperial
imperialistik
imperiy
import
impuls
imran
imre
in
ina
inasy
inc
ind
inda
inde
indedi
indeks
indeksi
indeksin
inden
independent
index
indey
indi
india
indian
indiden
indigo
indiki
indir
indira
indiren
indirilen
indiwidual
indiwidualizm
indonesia
indonesian
indoneziy
induizm
indus
induslar
industrial
industriy
ine
inedo
inem
inen
inende
iner
inerc
inereneri
inerlik
infeksiy
infinity
infly
info
informasiy
informatika
information
infragyzyl
infrastrukturasy
ing
ingaly
ingiz
ington
ingtonda
ingtonyn
ingus
ini
inin
inine
ininin
inip
inipdir
inisi
inji
injik
injil
injili
injiller
injir
ink
inka
inkalar
inkalary
inkasy
inkubasion
inli
inmegi
inmek
inna
innowasion
innowasiy
ino
inownikleri
ins
insiz
instagram
instagramda
institut
institutda
institute
institutlary
institutlarynyn
instituty
institutyn
institutyna
institutynda
institutyny
institutynyn
int
inta
integral
intellektual
intelligence
inter
interactive
interaktiw
interfey
internal
internasional
international
internet
internetde
internete
interview
into
investopedia
iny
inz
io
iogann
ioi
ioniy
iordan
iordaniy
ios
ip
ipa
ipad
ipdi
ipdiler
ipdir
ipdirler
iphone
ipod
iprage
iq
ir
ira
iraflar
irak
iran
iranian
iranica
iraq
iraz
irc
irde
irden
irdi
irdiler
irdim
ire
irec
ireji
irejin
ireland
ireli
iren
irer
iresi
irgazy
irginsiz
iri
iriji
irijiler
irijilerin
irijilik
irijinin
irijisi
irildi
irilen
irilende
iriler
irilip
irilipdir
irilis
iriljek
irilm
irilmedi
irilmegi
irilmegine
irilmegini
irilmek
irilmeli
irily
irimlilik
irin
irine
irinin
irip
iripdi
iripdir
iripdirler
iris
irisi
irk
irket
irketlar
irketlery
irki
irland
irlandiy
irlen
irlende
irler
irlerde
irleri
irlerin
irles
irma
irmay
irmegi
irmegin
irmek
irmekde
irmekdir
irmeklik
irmeler
irmeleri
irmeli
irmey
irra
irrasional
irtmek
irwan
irwing
iry
iryar
is
isa
isaak
isabel
isanyn
isaura
isbn
isbnisbn
isc
ise
isfendiy
isgender
isgenderin
ishak
ishleyar
isi
isidir
isine
isini
isinin
iskender
isla
islam
islamic
island
islandiy
isle
isledi
islediler
isleg
islege
islegi
islegin
islegine
islegini
isleginin
islegleri
isleglerini
islema
islemedi
islemek
islemey
islendik
islese
isleseler
islesen
isley
ismail
ismet
iso
isolated
isolatorweg
isp
ispan
ispanc
ispaniy
ispanlar
ispanlaryn
isrip
issn
issy
istanbul
istik
istilam
istler
istlere
istleri
istlerin
istoriy
isy
isyrasynda
it
ita
ital
italian
italikler
italiy
italmaz
italy
itay
itburunyn
itdi
itdim
ite
itekla
itel
iten
itergi
itgi
itgiler
itgili
itgisi
iti
itiles
itim
itimden
itin
itip
itipdir
itirdi
itiren
itirer
itirilen
itirilmegi
itirim
itirip
itiripdi
itiripdir
itiripdirler
itirma
itirmedi
itirmegi
itirmek
itirmey
itiry
itler
itleri
itlerin
itlerinde
itlerinin
itmegi
itmegine
itmek
itnazar
its
ittihat
itu
itunes
ity
iu
iudey
iuhd
iv
ivy
iwan
iwanowic
iwe
iwelerinde
iwesi
iwesinde
iwrit
ix
iy
iyul
iz
izc
izda
izde
izden
ize
izetbegowic
izhanyn
izi
izin
izine
izinin
izler
izlerde
izleri
izlerin
izm
izme
izmi
izmin
iznik
izolirlenen
izzetbegowic
j
ja
jady
jadygo
jadyly
jae
jafar
jagazlar
jahan
jahana
jahanda
jahankes
jahany
jahanyn
jahyl
jak
jakarta
jalay
jam
jamal
james
jamy
jan
jana
janc
janda
jandaky
jandan
jandar
jandarlar
jandarlary
jandarlaryn
jandaryn
janko
janlandyran
janlandyrdy
janlandyrmak
janlandyry
janlandyryldy
janlanyp
janly
jansen
janserek
jansyz
january
jany
janym
janyn
janyna
janyndan
janyny
janypkes
japanaponiy
japarguly
jar
jarc
jarnama
jas
java
javascript
jawaharlal
jay
jaylar
jaylary
jaylaryn
jaz
je
jean
jebel
jebir
jebis
jebisles
jebislik
jebray
jedel
jedeller
jedelli
jegi
jegin
jegini
jejik
jek
jekler
jeklerden
jeklere
jekleri
jeklerin
jekson
jelal
jelaleddin
jelaleddini
jelaleddinin
jelaletdin
jem
jemagat
jemagatc
jemagatlar
jemagatlary
jemagatlarynyn
jemagaty
jemagatyn
jemagatynyn
jemal
jemalyny
jemek
jemgiy
jemgyy
jemgyyetc
jemi
jemine
jemini
jeminin
jemla
jemledi
jemlemek
jemlendi
jemlenen
jemlenendir
jemlenip
jemlenipdi
jemlenipdir
jemlenis
jemlenmegi
jemleny
jemleri
jemley
jems
jen
jenap
jenay
jeneral
jenjel
jenkinson
jenkinsonyn
jennet
jennete
jennifer
jent
jepa
jepakes
jeren
jergelan
jerime
jerri
jerry
jesedi
jesedini
jesetleri
jet
jey
jeza
jezalandyrmak
jezalandyryldy
jezalandyryly
jezalandyrylyp
jezalandyryp
jezalandyrypdyrlar
jezasy
jezasyna
jezasyny
jhilmar
ji
jibuti
jigistan
jigistanda
jigistanyn
jigsi
jihan
jik
jikler
jikleri
jiklerin
jikme
jiler
jilere
jileri
jilerin
jilerinin
jilige
jiligi
jilik
jilikli
jilt
jiltden
jiltlik
jim
jimmi
jimmy
jin
jini
jinin
jio
jipal
jir
jirc
jirler
jirleri
jirlerin
jirlerinin
jisi
jisim
jisimdir
jisime
jisimin
jisimler
jisimlere
jisimleri
jisimlerin
jisimlerinin
jisinin
jizzakh
jj
jmg
jnu
jo
joan
jobs
joe
jogaby
jogabyny
jogap
jogapka
jogo
john
jolittinin
jomart
jon
jonathan
jones
jora
jorap
joray
jorge
jorj
jorjiy
jorjyn
jos
jose
joseph
journal
journey
joy
jozef
jpg
jpht
jr
ju
juc
juda
judey
jul
julie
julio
july
juma
jumageldiy
jumay
jump
jun
june
jung
junior
just
justice
justin
jy
jyda
jydyr
jykyr
jylar
jylara
jylary
jylaryn
jylarynyn
jylaw
jylawy
jylawyny
jylyk
jyn
jynaza
jynazasy
jyns
jynsa
jynshana
jynshananyn
jynslary
jynslarynyn
jynsly
jynssyz
jynsy
jynsyna
jynyn
jysy
k
ka
kabel
kabineti
kabinetinin
kabir
kabul
kabulhanasynda
kabulyn
kac
kada
kadalary
kadalaryna
kadalaryny
kadalas
kadaly
kadar
kaddafi
kadfiz
kadr
kadrlar
kadrlary
kadyr
kaf
kafedrasy
kafedrasynyn
kagan
kagany
kaganyn
kagyz
kagyzlar
kagyzlary
kagyzy
kagyzyn
kaim
kak
kaka
kakabas
kakabay
kakam
kakamyn
kakan
kakao
kakasy
kakasyna
kakasyndan
kakasyny
kakasynyn
kakay
kakmak
kaky
kakyly
kakyp
kal
kalar
kalary
kalby
kalbyn
kalbyna
kalbynda
kalbynyn
kaledoniy
kalendar
kalendary
kalendarynda
kaliforniy
kalinin
kaliy
kalligrafiy
kalp
kalsiy
kaly
kam
kamary
kamat
kamboja
kamc
kamera
kamerun
kamil
kampaniy
kampusu
kamus
kan
kanada
kanadada
kanadaly
kanadanyn
kanagat
kanagatlandyrmaga
kanagatlandyrmak
kanagatlandyrmay
kanagatlandyry
kanagatlandyryp
kanal
kanallar
kanallary
kanallaryn
kanaly
kanalyn
kanalynda
kanalynyn
kandidat
kandidaty
kangy
kanis
kanlar
kansleri
kanun
kanuna
kanunalay
kanunc
kanunda
kanunlar
kanunlara
kanunlary
kanunlaryn
kanunlaryna
kanunlaryny
kanunlarynyn
kanunlas
kanuny
kanunyn
kanunyna
kanunyny
kanunynyn
kany
kanyn
kap
kapablanka
kapilly
kapital
kapitalistik
kapitalizmin
kapitallas
kapitaly
kapitalyn
kapitalynyn
kapitan
kapitanlyk
kapitany
kapuy
kapyr
kapyy
kar
kara
karac
karan
karantin
karar
karara
kararlar
kararlary
kararlaryny
kararlarynyn
karary
kararyna
kararyny
kardes
karel
karen
karfagen
karfagenin
karfagenliler
karfogen
karfogenin
karhananyn
karib
karikatura
karintiy
kariy
karjakin
karl
karlos
karlsen
karo
karol
karolina
karollyk
karoly
karpow
kars
karst
kart
karta
kartada
kartalary
kartasy
kartasyna
kartasynda
kartasyny
kartlar
kartlary
kartlarynyn
kartoc
kartos
karun
kary
karz
karzlar
karzlary
karzlas
karzy
karzyna
kas
kasam
kaspi
kaspinin
kaspiy
kassit
kassiy
kast
kasta
kastamonu
kastiliy
kasy
kasym
kat
katalan
katalog
kataloniy
katar
kate
kategori
kategoriy
katolik
katoliki
katolikleri
katoliklerin
katon
katy
kauc
kaufman
kaufmanyn
kawaleriy
kawkaz
kawkaza
kawkazda
kawkaziy
kawkazyn
kawurt
kay
kaza
kazakhstan
kazan
kazasy
kazasyny
kaznasyna
kazwin
kazy
kazylar
kazylyk
kazym
kazynyn
kazyy
kba
kbay
kbogma
kc
kd
kda
kde
kdedi
kden
kdenc
kdepa
kdepe
kdepede
kdere
kdi
kdir
kdirildi
kdirilen
kdirilendi
kdirilendir
kdirilipdi
kdirilipdir
kdirily
kdirip
kdiripdir
kdirmek
kdiry
kdu
ke
kebap
kebelegi
kebelekler
kec
keffaret
keffareti
kek
kekilow
kel
kela
kelala
kelem
kelemin
kelemliler
keli
kelif
kella
kelle
kellec
kellede
kelleku
kellelerini
kelleli
keller
kelleri
kellesi
kellesinde
kellesine
kellesini
kellesinin
kelt
keltaras
kelte
keltler
kem
kemal
kemala
kembriy
kemc
kemden
kemeldi
kemelmegine
kemely
kemer
kemina
kemine
kemsidiji
kemsiz
ken
kenan
kenar
kenara
kenarda
kenarlary
kenarlaryna
kenarlarynda
kenarlaryndan
kenarlaryny
kenarlarynyn
kenary
kenaryn
kenaryna
kenarynda
kenaryndaky
kenaryndan
kenaryny
kenarynyn
kende
kendin
kenep
kengan
keniksiz
kenin
keniy
kennedi
kennedinin
kent
kentda
kentde
kentin
kentinin
kepderi
kepil
kepili
kepillendiry
kepillik
kepjebas
ker
kerahat
keraly
keramat
keramatly
keramik
keramika
keramiki
kerbabay
kerc
kerem
keremli
keri
kerim
kerimde
kerimi
kerimin
kerip
kerki
kerler
kerleri
kerlerini
kerlerinin
kerman
kermana
kermany
kerpic
kerri
kert
kerwen
kerwenler
kerwenleri
kerwenlerin
kerwensaray
kes
kesbi
kesdi
kese
kesearkac
kesearkajyn
keseka
keseki
kesekinin
kesel
keselc
keselde
keselden
keseldir
kesele
keselhana
keselhanada
keseli
keseligine
keselin
keselinde
keselinden
keseline
keselini
keselinin
kesella
keseller
kesellerde
kesellerden
kesellere
keselleri
kesellerin
kesellerinde
kesellerine
kesellerini
kesellerinin
keselley
keselli
kesgitla
kesgitledi
kesgitlema
kesgitleme
kesgitlemegine
kesgitlemek
kesgitlemekde
kesgitlemesi
kesgitlendi
kesgitlenen
kesgitlenildi
kesgitlenily
kesgitlenip
kesgitlenipdir
kesgitleny
kesgitley
kesgitli
kesiginde
kesiji
kesik
kesil
kesildi
kesilen
kesilip
kesilipdir
kesilmegi
kesily
kesip
kesipdir
kesis
kesmegi
kesmek
kesmelidir
kesy
ket
keteni
kethudalar
kethudalaryn
kethudasy
ketlikler
kevin
key
kezzap
kg
kgi
kgu
khan
khanyn
khdr
ki
kibi
kic
kid
kiden
kidilipdir
kidip
kidipdir
kidipdirler
kidman
kids
kidy
kil
kiler
kilere
kileri
kilerin
kilik
kilis
kill
kilogram
kilograma
kilometr
kilometrden
kilometrdir
kilometre
kilometri
kilometrlik
kilometrlikde
kim
kimde
kimden
kimdir
kime
kimi
kimin
kimine
kiminin
kimiy
kimler
kimleri
kimlerinin
kimligi
kimligine
kimligini
kimliginin
kimlik
kimwrler
kimy
kin
kinay
kine
kinematiki
kinematografiy
king
kingdom
kini
kinin
kino
kinoda
kinonyn
kinostudiy
kinosy
kinosynda
kiok
kip
kipr
kiprde
kiprin
kir
kira
kiril
kirin
kiris
kirpiler
kirs
kis
kisi
kislorod
kislorody
kislorodyn
kislota
kislotalary
kislotasy
kislotasynyn
kistan
kistana
kistanda
kistanyn
kit
kitab
kitaba
kitaby
kitabydyr
kitabyn
kitabyna
kitabynda
kitabyndan
kitabyny
kitabynyn
kitabı
kitap
kitapc
kitapda
kitapdan
kitapdyr
kitaphana
kitaphanac
kitaphanada
kitaphanalar
kitaphanalarda
kitaphanalary
kitaphanalarynda
kitaphanalarynyn
kitaphananyn
kitaphanasy
kitaphanasynda
kitaphanasynyn
kitaplar
kitaplarda
kitaplardan
kitaplary
kitaplaryn
kitaplarynda
kitaplaryndan
kitaplaryny
kitaplarynyn
kiy
kize
kja
kje
kki
kl
kla
klar
klark
klary
klarynyn
klas
klassifikasiy
klassik
klassiki
klassyk
klassyky
klasy
klasyna
klasynyn
klawdiy
klemek
klen
klendi
klendirdi
klendiriji
klendirilen
klendirilipdir
klendirilmedik
klendirip
klendirma
klendirmek
klendirmeler
klendirmeleri
klendirmeli
klendiry
klenen
klenily
klenipdir
klenma
klenmey
kleny
kleopatra
kler
klerda
klerde
klerden
klere
kleri
klerin
klerinda
klerinde
klerinden
klerine
klerini
klerinin
kles
kley
kli
klidi
klidir
kligi
klik
kliler
klilik
klimat
klimatly
klimaty
klimatyn
kliniki
klinopis
klinton
klip
kliwlend
kliy
klod
klodiy
klu
klub
klubas
klublar
klublarynyn
kluby
klubyn
klubyna
klubynda
klubynyn
klykda
km
kma
kman
kmandyr
kmany
kmanydyr
kme
kmegi
kmek
kmen
kmenistanyn
kmu
kmunde
kn
knight
know
kny
ko
koalisiy
kod
kodeksi
kodu
kody
koeffisiy
kofa
kofe
kokanowa
kokos
kol
kolhoz
kolhozc
kollegial
kollegiy
kollej
kolleji
kollejine
kollejinin
kollejler
kolleksiy
kollektiw
kollektiwi
kolonial
koloniy
kolorado
kolumb
kolumbiy
kolumbyn
kom
koma
komanda
komandanyn
komandasy
komandasynyn
komandiri
komandirlik
komanduy
kombinaty
komediy
komek
komisiy
komissarlar
komissiy
komitet
komiteti
komitetin
komitetinin
komitetlerinin
komla
kommersiy
kommunikasiy
kommunist
kommunistik
kommunistler
kommunistlere
kommunistleri
kommunistlerin
kommunizm
komor
komp
kompaniy
kompartiy
kompleks
kompleksi
kompleksley
kompozisiy
kompozitor
kompozitorlar
kompozitory
kompy
komsomol
komunistik
kon
konditer
konfederasiy
konferensiy
kong
kongo
kongres
kongresde
kongresi
kongresinin
kongress
konnelly
konsentrasiy
konsepsiy
konserni
konserninin
konsert
konserwasiy
konserwatiw
konserwatoriy
konserwatorlar
konserwatorlaryn
konstansiy
konstantin
konstantinin
konstantinopol
konstantinopolyn
konstitusion
konstitusiy
konstitutiy
konstruksiy
konsul
konsullar
konsullyk
kontey
kontinent
kontinental
kontinentaldy
kontinentin
kontinentinin
kontrrewoly
konwensiy
konwent
konwentin
kony
konya
kooperatiw
koordinatlar
kop
kopa
kopeltmek
kopengagen
kopengagende
kopernigin
kopernik
koplerin
kor
korean
koreka
korey
korinf
korinfde
korinfin
korneliy
kornell
korol
korola
korollary
korollygy
korollygyna
korollygynyn
korollyk
koroly
korolyn
koronavirusa
koronawirus
korporasiy
korporatiw
korpusy
korrupsiy
kos
kosmetiki
kosmiki
kosmos
kosmosa
kosmosy
kosowo
kosta
kot
kow
kowa
kowalap
kowalas
kowlup
kowmak
kowmy
kowuly
kowumdas
kowumlaryn
kowup
kowupdyrlar
kowus
kowusyn
kowy
kowyn
koy
kp
kr
krakow
krasnowodsk
krass
krassyn
kray
kredit
krek
krekden
krem
krepostnoy
krey
kriket
kriptowaly
kris
krista
kristadelfianlar
kristofer
krit
kritde
kritin
krizis
kromwel
kruz
krym
krymyn
ks
kserks
ksiz
ksu
kt
ktu
ku
kuala
kub
kuba
kubada
kubadyn
kuban
kubany
kubanyn
kubat
kubogy
kubogyn
kubogyna
kubogynda
kubogyny
kubogynyn
kubok
kuboklary
kudan
kudu
kufa
kufr
kuk
kul
kull
kulyy
kum
kun
kunanbay
kunic
kupası
kuprin
kur
kuran
kuranda
kurandaky
kurany
kuranyn
kurdish
kurdistan
kurds
kuriy
kurs
kursuny
kurumu
kurus
kus
kusan
kusy
kut
kutadgu
kutups
kuw
kuwey
kuwwat
kuwwatly
kuwwatlylygy
kuwwaty
kuwwatyna
kuwwatyny
kuwwatynyn
kuy
kuzey
kw
kwadrat
kwadrata
kwalifikasiy
kwant
kwars
kwartirasy
kwt
ky
kybapdas
kybla
kybladan
kyda
kydan
kydy
kydyr
kylyk
kyn
kync
kyndy
kyndyr
kynlas
kynlyk
kynyk
kyp
kyran
kyrgyzstan
kyrk
kyrkdan
kys
kyssa
kyssac
kysymly
kyy
kıbrıs
l
la
laborator
laboratoriy
labyzly
lac
ladan
lady
ladylar
ladyly
ladyp
ladypdyr
lag
laga
lagerkwist
lagy
lagyn
lagyna
lagynda
lagyndaky
lagyny
lagynyn
lajakdygyny
lak
laka
lakam
lakamlary
lakamly
lakamy
lakamyna
lakamyny
lakda
laksmanyn
lal
lalc
lam
lama
lamaga
lamagy
lamagyn
lamagyna
lamak
lamaklyk
lamaly
lamalydyr
laman
lamanka
lamay
lamaz
lamazdan
lan
lana
lanan
lananda
lanandan
lanandygy
lanandygyna
lanandygyny
lanandyr
lanar
land
landa
landan
landda
lands
landy
landygyny
landylar
landyn
landyrmak
landyrys
lang
language
languages
langyc
langyjy
langyjyny
lanka
lanma
lanmaga
lanmagy
lanmagyna
lanmagyny
lanmagynyn
lanmak
lanmalar
lanmay
lans
lansa
lansetnigin
lany
lanyar
lanylan
lanyldy
lanylmagy
lanyly
lanylyp
lanyn
lanynda
lanyndan
lanyp
lanypdy
lanypdyr
lanypdyrlar
lanys
laos
laosyn
lap
lapdy
lapdyr
lapdyrlar
lapykec
lar
lara
laram
larda
lardaky
lardan
lardyr
larry
lary
larydyr
larymyz
laryn
laryna
larynda
laryndaka
laryndaky
laryndan
laryny
larynyn
las
lasa
lasan
lasiy
last
lat
latdy
laterit
latin
latma
latmak
latmay
latwiy
laty
latyn
latync
latynlar
latys
launch
launches
laura
laureaty
law
lawc
lawda
lawlar
lawlara
lawlarda
lawlardan
lawlary
lawlaryn
lawlaryna
lawlarynda
lawlaryny
lawlarynyn
lawly
lawr
lawy
lawyn
lawynda
lawynyn
lay
layar
lazer
lb
lc
ld
lda
ldan
lde
lden
ldi
ldigi
ldigine
ldigini
ldiler
ldir
ldirler
ldu
ldyn
le
league
lebanon
lebap
lebapda
lec
led
lede
leden
ledi
ledigine
ledigini
ledily
ledip
ledipdirler
ledir
ledy
lee
left
leg
lege
legendar
legi
legidir
legin
leginda
leginde
leginden
legine
legini
leginin
legion
legleri
leglerini
legli
legsiz
lejek
lejigi
lejik
lejikler
lejikleri
lejiklerin
lejiklerini
lejiklerinin
lek
lekden
leki
lekiler
lekilerde
lekilerden
lekilere
lekileri
lekilerin
lekisi
lekisine
lekisinin
lekler
leklerden
leklere
lekleri
leklerin
leklerinde
leklerinden
leklerine
leklerini
leklerinin
lekley
leksiy
leler
lelik
lelikde
lem
lema
lemdar
lemde
leme
lemegi
lemegin
lemegine
lemegini
lemek
lemekde
lemekden
lemeklik
lemeli
lemelidi
lemey
lemez
lemi
lemin
leminde
lemine
len
lend
lende
lenden
lendi
lendigi
lendigini
lendir
lendirdi
lendirip
lendiripdir
lendirma
lendirmegi
lendirmek
lendirmeli
lendiry
lenen
lenende
leni
lenilip
lenily
lenin
leninc
leninde
leninden
leningrad
leningradyn
leninin
leninist
lenip
lenipdi
lenipdir
lenipdirler
lenis
lenjek
lenler
lenlerin
lenma
lenmedik
lenmegi
lenmegin
lenmegine
lenmegini
lenmek
lenmey
lens
lenson
lent
lenta
leny
leo
leonard
leonardo
leonid
leopold
lepbey
lepid
ler
lera
lerc
lerda
lerde
lerden
lerdir
lere
lerem
leri
leridir
lerimiz
lerin
lerinde
lerinden
lerine
lerini
lerinin
les
lese
lesi
let
letin
letinc
letinlik
letmek
levant
levantine
lew
lewant
lewiathan
lewon
lewu
ley
leya
lezzet
lezzetli
lff
lge
lgeleri
lgelerinde
lgesi
lgesinda
lgesinde
lgesinden
lgesine
lgesini
lgesinin
lgu
lhit
li
lia
liberal
liberallar
liberiy
libertadores
library
lic
lider
lideri
liderimizin
lidi
lidigi
lidigine
lidigini
lidir
lidirler
lidiy
lidl
lietuvos
lietuvosfutbolas
life
liga
ligada
liganyn
ligasy
ligasyna
ligasynda
ligasyndan
ligasyny
ligasynyn
lige
ligi
ligin
liginde
liginden
ligine
ligini
liginin
ligue
lihtens
lihu
lik
lika
likda
likde
likden
like
likgulyy
liki
likler
liklere
likleri
liklerin
liklerinde
likley
liks
liler
lilere
lileri
liligi
lilik
lilikde
liliy
lim
lima
limc
limdir
limfa
limi
limited
limlik
limon
lin
linda
linden
lindgren
line
lines
lingua
lingwistik
lingwistika
lini
linin
liniy
link
linkolnyn
lio
lion
lionel
lip
lipdi
lipdir
lipdirler
lir
lirik
lirikasy
liriki
lis
lisc
lisenziy
lisey
lisi
lisine
lisiniy
lisiy
lisler
lislerden
lislere
lisleri
lislerin
lissabon
list
listan
listening
lists
lit
litecoin
lithuania
lithuanian
lito
litr
litre
little
litvan
litwa
litwan
litwany
litwanyn
liu
live
liwan
liwiy
liy
liza
lizden
ljek
ljemal
ljemalyn
lk
lka
lkarney
lkdarlar
lkdarlaryn
lke
lkelerde
lkeleri
lkelerine
lkesi
lkesinde
lkesinin
lki
lkin
lkleri
lklerin
lklerinin
lku
ll
lla
llar
llarda
llary
llaryn
lle
ller
llerde
llerden
llere
lleri
llerin
llerinde
llerini
llerinin
lles
lley
lli
llige
lligi
llik
llu
lm
lma
lme
lmedik
lmegi
lmegine
lmegini
lmeginin
lmek
lmeler
lmelere
lmeleri
lmelerin
lmelerine
lmeli
lmesi
lmey
lmez
lmezden
lmezinden
lmi
lmu
ln
lni
lo
logika
logikanyn
logiki
logos
lomakin
lomay
lon
london
londona
londonda
londondaky
londonyn
lonely
long
lonyn
lopez
lor
lora
lord
lorenso
los
lotaringiy
louis
love
low
lowell
lowic
lowurdap
loy
lp
ls
lse
lt
ltd
ltu
lu
lua
luc
luga
lugat
lugy
lugyn
lugyna
lugynda
lugyndan
lugyny
lugynyn
lui
luis
luk
luka
lukda
luklar
lukman
lukmana
lukmanc
lukmanlar
lukmanlary
lukmanlaryn
lukmany
lukmanyn
lukmanyna
lulygy
lumpur
lup
lupdyr
lur
lus
luwryn
lvl
lwan
lwana
lwanlar
lwany
lwanyn
lwet
lweti
lwiw
ly
lya
lybasy
lydy
lydyr
lyga
lygy
lygydy
lygydyr
lygyn
lygyna
lygynda
lygyndan
lygyny
lygynyn
lyk
lykda
lykdan
lykdyr
lyklar
lyklara
lyklardan
lyklary
lyklaryn
lyklaryna
lyklaryny
lyklarynyn
lyklygyna
lylar
lylaryn
lylyga
lylygy
lylygyny
lylygynyn
lylyk
lym
lyma
lymda
lymlar
lymy
lymynda
lyn
lyp
lys
m
ma
mac
machine
macintosh
mada
madagaskar
madalena
madan
madda
maddadan
maddalar
maddalary
maddalaryn
maddalaryny
maddalarynyn
maddany
maddanyn
maddasy
maddasyna
maddasynda
maddy
made
madonna
madrid
madridin
mady
madyk
maersk
mag
maga
magam
magaryf
magaryfc
magazin
magazine
magdan
magdanc
magdanlar
magdanlary
magdanlaryn
magdanly
magdany
magdanynyn
magellan
maggie
magistral
magistratlar
maglumat
maglumata
maglumatlar
maglumatlara
maglumatlarda
maglumatlardan
maglumatlary
maglumatlaryn
maglumatlaryna
maglumatlaryndan
maglumatlaryny
maglumatlarynyn
maglumatly
maglumaty
maglumatyn
maglumatyna
magnewi
magnit
magniy
magnus
magnysy
mags
magtymguly
magtymgulynyn
magy
magyn
magyna
magynda
magyny
magynyn
mah
mahabat
mahal
mahallar
mahaly
mahalyn
mahalynda
mahesti
mahmud
mahmut
mahmydyn
mahmyt
mahrum
mahsus
mahsusdyr
mail
main
maint
mak
makala
makalada
makalalar
makalalary
makalalaryny
makalasy
makalasynda
makao
makbul
makc
makda
makdan
makdisi
makdyr
make
makedon
makedoniy
makedonskinin
makedonskiy
makenzi
making
maklary
maklygy
maklyk
maks
maksada
maksadalay
maksady
maksadymyz
maksadyna
maksadyny
maksat
maksatlar
maksatlara
maksatlary
maksatlaryna
maksatlaryny
maksatly
maksatnama
maksatnamada
maksatnamalar
maksatnamalary
maksatnamany
maksatnamanyn
maksatnamasy
maksatnamasyna
maksatnamasynda
maksatnamasyny
maksatnamasynyn
maksim
maksimal
maksimilian
maksimum
makul
makullady
mal
mala
malakka
malar
malawi
malay
malazgirt
malaziy
maldan
maldarc
maldarlar
maldiwler
malfunctioning
malhac
mali
maligin
malik
maliy
mallar
mallara
mallarda
mallary
mallaryn
mallaryny
mallarynyn
malta
maly
malydy
malydyr
malym
malyn
malyny
malynyn
mam
mamasynyn
mamla
mamun
mamunyn
man
mana
manada
manadyn
management
manat
manatlyk
manc
manchester
manda
mandan
mandat
mandy
mandyr
mandyrlar
manenschijn
manga
mangol
mangys
manifesti
manihey
manipuly
manjur
manjurlar
manjurlara
manjurlaryn
manlar
manlardan
manlary
manlaryn
manlaryna
manlaryny
manlarynyn
manlyk
mann
manografiy
manov
mans
mansur
manually
many
manyda
manydadyr
manydas
manylar
manylarda
manylary
manylaryny
manyly
manyn
manyna
manyny
manysy
manysyna
manysynda
manysyndaky
manysyny
manysynyn
manysyz
mao
map
mar
mara
maradona
maral
marath
marathlar
marawadepe
march
marg
marganes
margaret
margiana
margianada
margiananyn
margin
margiy
margus
mari
maria
marian
mariana
marie
marin
marinin
marino
mariy
mark
marka
markasy
markes
market
marketing
markets
markirlenen
marko
marks
marksist
marksistik
marksizm
markus
marn
maro
marokkanyn
marokko
mars
marsa
marsyn
mart
marta
martda
martin
martyna
martynda
maru
marvel
mary
maryda
marydaky
marydan
maryly
maryny
marynyn
marys
marz
mas
masa
masalar
masgara
masgarac
masgaralyk
mask
maslahat
maslahata
maslahatc
maslahatda
maslahatlar
maslahatlary
maslahatlaryn
maslahatlaryny
maslahatlas
maslahaty
maslahatyn
maslahatyna
maslahatynda
maslahatyny
maslahatynyn
mass
massa
massac
massaget
massagetler
massagetlerin
massasy
massasynyn
masson
massonyn
master
masut
masy
masyn
mat
mata
matadan
matalar
matalary
matalaryn
matam
matanyn
matc
match
matematigi
matematik
matematika
matematikanyn
matematiki
material
materialistik
materiallar
materiallardan
materiallary
materiallaryn
materiallaryny
materiallarynyn
materialy
materialyn
materigin
materik
materiy
mathrm
matlab
mawerannahr
mawerannahra
mawerannahrda
mawerannahryn
mawrikiy
mawritaniy
mawut
mawy
mawzoley
may
maz
mazaly
mazar
mazarda
mazarlar
mazarlarynyn
mazary
mazaryn
mazarynyn
mazda
mazdagyn
mazdak
mazdan
mazenderan
mazlygy
mazlyk
mazmun
mazmuna
mazmunda
mazmunly
mazmuny
mazmunyna
mazmunyndan
mazmunyny
mb
mba
mbappe
mbay
mbox
mc
mccloud
mda
mdar
mdara
mdarc
mdardyr
mdarlar
mdarlary
mdarlaryn
mdarlaryna
mdarlarynyn
mdarlygy
mdarlygyn
mdarlygyna
mdarlygyny
mdarlygynyn
mdarlyk
mdary
mdarydyr
mdaryn
mdaryna
mdaryny
mdarynyn
mde
mden
mdi
mdir
mdu
me
mebel
mec
mechanical
med
medal
medallar
medallary
medaly
mede
meden
medeni
medeniy
medeniyet
medeniyeti
medeniyetinin
medeny
medet
medi
media
medic
medien
medigini
medik
medina
medine
medinede
medir
medisina
medisinanyn
medisinasy
mediterranean
mediy
medresa
medrese
medresede
medreseler
medreselerde
medreselerin
medresesi
medresesinde
medresesini
meet
mega
mege
megerem
megi
megidir
megin
meginde
meginden
megine
megini
meginin
mehanika
mehanikanyn
mehaniki
mehanizm
mehanizmi
mehanizmleri
mehdi
mehmed
mehmet
mejbur
mejbury
mejek
mejlis
mejlisde
mejlise
mejlisi
mejlisin
mejlisinde
mejlisinden
mejlisinin
mejnun
mek
mekan
mekana
mekanlary
mekany
mekc
mekde
mekdebe
mekdebi
mekdebidir
mekdebin
mekdebinde
mekdebine
mekdebini
mekdebinin
mekden
mekdep
mekdepde
mekdepden
mekdepler
mekdeplerde
mekdepleri
mekdeplerin
mekdeplerinde
mekdeplerini
mekdeplerinin
mekdir
mekga
mekge
mekgede
mekgeden
mekgejo
mekir
mekka
mekleri
meklerini
mekles
meklige
mekligi
mekligin
meklik
mekruh
mekruhdyr
meksika
meksikada
meksikanyn
mel
melaneziy
melburn
mele
melegin
melegus
melek
melekler
meleklerin
meler
melerde
melerden
melerdir
melere
meleri
melerin
melerinde
melerinden
melerine
melerini
melerinin
melhem
melhemi
meli
melidi
melidir
melike
mellek
mem
memfis
memluk
men
menc
menden
mendes
menem
menes
meni
menin
menje
menjesi
menlik
mens
ment
menuc
menzes
menzil
menzili
menzilinin
mer
merdana
merdiwan
meredow
meredowyn
meret
merezy
mergen
mergi
merhemetli
merhum
merhumyn
meri
merjen
merjeni
merkez
merkezde
merkezden
merkeze
merkezi
merkezidir
merkezin
merkezinda
merkezinde
merkezinden
merkezine
merkezini
merkezinin
merkezler
merkezleri
merkezlerin
merkezlerinde
merkezlerinden
merkezlerine
merkezlerini
merkezlerinin
merkezles
merkezli
merkuriy
mermer
mermerden
mert
merteba
mertebe
mertebeli
mertebesi
mertebesine
mertebesini
mertlerc
mertligi
mertlik
merv
merw
merwda
merwde
merwden
merwe
merwezi
merwezinin
merwi
merwin
mery
mes
mese
mesela
mesele
meselede
meseleler
meselelerde
meselelere
meseleleri
meselelerin
meselelerinde
meselelerine
meselelerini
meselelerinin
meselem
meselesi
meselesidir
meselesinde
meselesine
meselesini
meselesinin
mesen
mesge
mesgen
mesgeni
mesi
mesidir
mesih
mesihi
mesin
mesinde
mesinden
mesine
mesini
mesinin
mesiz
mesjid
mesjide
mesjidi
mesnewi
mesopatamiy
mesopotamiy
messeniy
messi
messor
mesud
mesudyn
mesut
met
meta
metacritic
metal
metaldan
metallar
metallary
metallaryn
metallurgiy
metaly
metalyn
metara
metatrader
metbugat
metbugatda
metbugatynda
metde
metden
mete
meteorologik
meteorologiy
meti
metin
metinden
metine
metini
metinin
metjide
metjidi
metjidin
metjidinde
metjidine
metjidinin
metjit
metjitde
metjitdir
metjitler
metjitlerde
metjitlerin
metler
metleri
metlerinin
metr
metrden
metrdir
metre
metrlik
metro
metrologiy
metronetstudie
meu
mew
mewin
mewlid
mey
meydany
meyilnamasy
mez
mezden
mezhebe
mezhebi
mezhebinde
mezhebine
mezhebinin
mezhep
mezler
mezligi
mezlik
mezolit
mg
mgm
mgu
mi
mic
michael
micro
microsoft
middle
mide
miden
midi
midir
midiy
mifiki
mifler
mifologiy
migrasiy
mihail
mihay
mik
mikay
mike
miken
mikeny
mikro
mikroner
mikroneziy
mil
milady
miladydan
miladynyn
milan
milanda
mile
miler
mileri
milerin
milerini
milerinin
mili
military
mill
miller
milles
millet
milletara
milletbas
milletc
milletden
milleti
milletimizin
milletin
milletine
milletinin
milletler
milletlerin
milletli
milli
milliard
milliarddan
millige
milligi
millik
milliles
milliligini
millilik
millimetr
million
milliona
milliondan
millionlarc
milliony
milliy
milliyet
milt
mily
mim
min
mina
minada
minadan
minamoto
minara
minaranyn
minarasy
mind
minda
minde
minden
mine
mineral
minerallar
mineralogiy
mingazow
mini
miniaty
minimum
minin
minister
ministirligine
ministr
ministri
ministrin
ministrinin
ministrler
ministrleri
ministrlerinin
ministrligi
ministrliginde
ministrligine
ministrliginin
ministrlik
ministrlikler
ministrliklerin
ministry
minnetdar
minnetdarlyk
minomy
minoy
minsk
minut
minutda
minutdan
minutlap
minutlyk
mio
mioma
miomanyn
mir
miras
mirasa
mirasdar
mirasdarlary
mirasdary
mirasdu
miraslygy
mirasy
mirasyn
mirasyna
mirasyny
mirasynyn
mire
mirhay
miri
mirin
miritler
mirlen
mirler
mirza
mirziy
mis
misden
misi
misin
misine
misini
miss
misserian
missionerleri
missiy
mist
mit
mitanni
miti
mitin
mitlenis
mitlenme
mitlenmek
mitleny
mitler
mitleri
mitlik
mitra
mitridat
miui
miwa
miwe
miwec
miweler
miweleri
miwelerini
miweli
miwesi
miwesinin
miy
miz
mizan
mizde
mize
mizi
mizin
mk
mkin
mkinc
mkindi
mkindigini
mkindir
mku
ml
mla
mld
mle
mledi
mleler
mler
mlerde
mlerden
mlere
mleri
mlerin
mlerinde
mlerinden
mlerine
mlerini
mlerinin
mley
mli
mligi
mligin
mlik
mlikdir
mlikler
mliklerde
mliklerden
mliklerdir
mliklere
mlikleri
mliklerin
mliklerini
mliklerinin
mln
mlrd
mlu
mm
mmedin
mmedow
mmedowa
mmek
mmet
mmeti
mmetin
mmetinin
mmetnepes
mmetsizlenmeginin
mmetweli
mmez
mmezi
mmezin
mmezinin
mmezli
mmu
mo
mobil
mobile
moc
moda
modal
mode
model
modeli
modelini
modeni
modenin
modern
mogol
mogollar
mojo
moldawiy
moldowa
molekuly
molla
mollanepes
mollanepesin
mollanyn
mollison
molly
moly
momm
mon
monako
monarhistik
monarhiy
mong
mongol
mongolia
mongoliy
mongollar
mongollara
mongollarda
mongollardan
mongollaryn
mongoloid
mongolpisint
monjugatdy
monjugatdylar
monjugatdylaryn
monjuk
monjuklar
mono
monofaktur
monografiy
monopol
monopoliy
monorhiy
montaz
montesky
monument
monumental
moon
mopreme
mor
moraw
morawia
morawiy
more
morfi
morfologik
morfologiy
morgan
morning
mos
moscow
moskwa
moskwada
moskwadaky
moskwadan
moskwaly
moskwanyn
most
mosul
mother
motion
motor
motorlary
motorlarynyn
motorly
motory
motorynyn
mount
mountain
movie
movies
mowzeley
mowzoley
mowzugy
mowzugyn
mowzuk
moy
mozaika
mozambik
mp
mpeg
mr
mri
mru
ms
msu
mt
mtil
mts
mu
muany
muezzi
mugallym
mugallymc
mugallymlar
mugallymlary
mugallymlaryn
mugallymlarynyn
mugallymy
mugallymyn
mugan
mugt
mugthor
mugthorlyk
muhadow
muhammed
muhammede
muhammedi
muhammedin
muhammet
muhammetguly
muhammetnazar
muhammetrahym
muhtarow
muizeddin
mukaddes
mukam
mukamy
mukanna
mukannanyn
mukdar
mukdarda
mukdardaky
mukdary
mukdaryna
mukdarynda
mukdaryny
mukdarynyn
mukmin
mul
mulher
mulheres
mumiy
mumkin
mumy
mun
muna
munda
mundan
mundanam
mundane
mundo
munun
muny
munyn
muqanna
mur
murat
murawy
murgabyn
murgap
murtlak
murtly
mus
musa
musawatc
musay
museum
music
muskul
muslim
muslimin
mussolini
musson
mustafa
mustahapdyr
mustapa
musty
musulman
musulmana
musulmanc
musulmanlar
musulmanlara
musulmanlary
musulmanlaryn
musulmany
musulmanyn
mutasiy
mutulu
muzaffar
muzaffer
muzey
mvp
my
mya
mydam
mydama
mydamalyk
myhman
myhmanc
myhmanhana
myhmanhanalar
myhmanhananyn
myhmanhanasy
myhmanlar
myhmanlara
myhmanlary
myhmanlaryn
myhmanso
myhmanyn
mylay
mylly
myn
mynasybetli
mynasyp
mynasypdyr
mynlar
myradow
myraly
myrat
mys
mysal
mysaldyr
mysallar
mysaly
mysalydyr
mysalynda
mysapyr
mı
n
na
nabonid
nac
nacional
nad
nadan
nadira
nadiranyn
nady
nadylan
nadylyp
nadyp
nafile
nag
nagasaki
nags
nagt
nagym
nagys
nah
nahar
nahara
nahardan
naharlary
naharlaryn
nahary
naharyn
nahic
najibullanyn
nak
nakgas
nakly
nakyl
nakyla
nakyllar
nal
nala
nalan
naly
nalys
nam
nama
namaga
namagy
namak
namalar
namalary
namalaryn
namalaryna
namalaryny
namalarynyn
namangan
namart
namaz
namaza
namazda
namazdan
namazgadepe
namazlarda
namazlary
namazlarynda
namazlaryny
namazlarynyn
namazy
namazyn
namazyna
namazynda
namazyndan
namazyny
namazynyn
name
names
namib
namibia
namibian
namibiy
namys
namysly
namysy
namysyna
namysyny
nan
nandyr
nanotehnologiy
nany
nanyn
naoh
nap
napaleon
napaleonyn
napdyr
napdyrlar
napoleon
napoleonyn
nar
narmer
nars
naryz
nas
nasa
nasawy
nasdaq
nasr
nasreddin
nasretdin
nasrullah
nasy
nasyr
nasyreddin
nat
natali
natalie
nataly
natco
nation
national
nationalism
nations
natmak
natmaly
nato
natriy
natural
nature
naver
nawac
nawigasiy
nawuhodonosor
nay
naz
nazar
nazara
nazarda
nazardan
nazaretli
nazarly
nazarow
nazary
nazaryndan
nazaryy
nazjan
nbatar
nbatara
nbatarda
nbatardaky
nbatardan
nbatary
nbataryn
nbatarynda
nbataryndaky
nbataryny
nbir
nc
ncaa
ncbi
nceler
ncia
ncu
nd
nda
ndan
nde
ndedi
ndedir
ndeligi
ndelik
nden
nder
ndermenem
ndew
ndey
ndi
ndigi
ndiginden
ndigine
ndigini
ndiginin
ndikleri
ndiklerine
ndiklerini
ndiler
ndim
ndir
ndirdi
ndirilis
ndirily
ndirip
ndiripdir
ndiripdirler
ndiris
ndirler
ndirma
ndirmek
ndiry
ndiz
ndizde
ndizin
ndizine
ndizki
ndogar
ndogara
ndogarda
ndogardaky
ndogardan
ndogars
ndogary
ndogaryn
ndogaryna
ndogarynda
ndogaryndaky
ndogaryndan
ndogaryny
ndogarynyn
ndogdyy
ndu
ne
near
nebere
nebereleri
neberelerinden
neberelerine
neberelerinin
neberesi
neberesinden
neberesinin
nebi
nebis
nebit
nebitc
nebitdag
nebitgaz
nebiti
nebitin
nebsewu
nebsi
nebsin
nec
nede
neden
nederlandse
nedir
nedirin
negatiw
negi
negrler
negrlerin
neje
nejis
nejmeddin
nek
nekey
nel
nelen
neleri
nelerin
nelerini
neli
nelip
nelis
nem
neme
nemek
nemes
nemesc
nemesler
nemeslere
nemeslerin
nemli
nen
nendir
nenen
neolit
nepal
nepes
nepesow
nepis
neps
nepsler
neptun
ner
nerler
neron
neronyn
nerw
nerwa
nerwler
nerwleri
nerwlerin
nes
nesay
nesewi
nesi
nesihat
nesil
nesilbas
nesilden
nesiller
nesillere
nesilleri
nesillerin
nesillerine
nesillerinin
nesils
nesimi
nesip
nesle
nesli
neslin
neslinden
neslindendir
neslini
neslinin
net
netflix
netija
netije
netijede
netijelendirme
netijeler
netijelere
netijeleri
netijelerine
netijelerini
netijelerinin
netijeli
netijeliligi
netijeliligini
netijesi
netijesidir
netijesinde
netijesine
netijesini
netijesiz
netimler
network
neu
neutron
new
newa
newada
newadanyn
newde
newin
news
next
ney
nezir
nezlik
nf
ng
ngr
ngugi
nh
nhan
ni
nia
niburc
nic
nick
nide
niden
niderl
niderland
niderlandiy
niderlandlar
niderlandlaryn
nidir
nifa
nifas
niger
nigeriy
night
nih
nik
nika
nikada
nikadan
nikalap
nikalas
nikanyn
nikaragua
nikasy
nikasyz
nikey
nikiy
nikler
nikli
nikolas
nikolay
nikosiy
nikow
nikson
nikulin
nil
nilin
nily
nin
ninde
ninden
nine
ninewiy
nini
ninin
nio
nip
nipdi
nipdir
nipdirler
nir
nira
nire
nirede
nireden
niri
nis
nisa
nisaby
nisap
nisi
nisinin
nistan
nistanda
nistanyn
nits
niversitesi
niy
niz
nj
nja
nje
njeginde
njeginden
njek
njekde
njeklerinde
njeklerinden
njeler
njelere
njeleri
njelerin
njelerine
njelerini
njelerinin
njeli
njen
njesi
njesine
njesini
njesinin
njey
nji
njiden
njin
njisi
nju
njy
nka
nki
nkruma
nku
nl
nla
nlar
nlaryn
nler
nlerde
nlerden
nlere
nlerem
nleri
nlerimizde
nlerimize
nlerin
nlerinde
nlerinden
nlerine
nlerini
nlerinin
nles
nley
nli
nlige
nligi
nligidir
nligin
nligine
nligini
nliginin
nlik
nlikden
nlikler
nliklerden
nliklere
nlikleri
nliklerin
nliklerine
nliklerini
nliklerinin
nlikli
nlm
nlu
nm
nma
nme
nmegi
nmegine
nmeginin
nmek
nmeklik
nmeli
nmey
nmez
nn
nna
nnama
nnamasy
nnet
nnetdir
nneti
nnetleri
nnetlerini
nni
no
nobat
nobatda
nobatdaky
nobatdakysy
nobatynda
nobel
nodira
nog
nogai
nogay
nohur
nok
nokada
nokady
nokadyna
nokat
nokatdan
nokatlar
nokatlary
nokatlarynda
nokatlarynyn
nokia
nol
nola
nomerlik
nominal
nominasiy
non
nor
nord
norta
nortada
nortadaky
nortadan
nortan
nortanyn
nortasy
nortasyna
nortasynda
nortasyndaky
nortasyndan
nortasyny
north
northern
norweg
norwegiy
nos
not
notarial
noticias
nova
novela
november
now
noway
nowgorod
nowruz
nowruzaly
noy
noyabr
npo
npr
nr
ns
nsay
nsden
nse
nsi
nsiy
nsiz
nsli
nson
nsu
nt
ntgileri
ntginin
nu
nubiy
nuclear
nuh
nuk
nukday
number
numbers
numidiy
numizmatika
nun
nuna
nunda
nundan
nuny
nunyn
nur
nurahmet
nurberdi
nurberdinin
nurberdiy
nuri
nurmuhammet
nurmyrat
nursa
nury
nuryy
nus
nusay
nusga
nusgada
nusgalary
nusgalaryny
nusgalarynyn
nusgalyk
nusgasy
nusgasydyr
nusgasyna
nusgasynda
nusgasyndan
nusgasyny
nusgasynyn
nusgawy
nut
nwald
ny
nya
nygmat
nygtady
nygtaly
nygtamak
nygtap
nygtapdyr
nygtay
nyl
nyn
nynda
nyny
nynyn
nyp
nyrh
nyrhlar
nyrhlaryn
nyrhy
nys
nytimes
nyy
nyzam
nyzamly
nyzamy
nyzamylmu
nz
nzak
nın
o
oazis
oazisi
oazisin
oazisinde
oazisinin
oba
obada
obadaky
obadan
obadas
obadyr
obalar
obalara
obalarda
obalardan
obalary
obalaryn
obalaryna
obalarynda
obalaryndaky
obalaryndan
obalaryny
obalarynyn
obama
obany
obanyn
obasy
obasydyr
obasyna
obasynda
obasyndaky
obasyndan
obasyny
obasynyn
oblast
oblastda
oblasty
oblastyn
oblastyna
oblastynda
oblastynyn
obraz
obrazy
obrazyny
obs
obserwatoriy
oby
oc
october
ocuk
od
oda
odessa
odissey
odor
odun
oduna
oduny
odunyn
ody
of
off
office
official
ofiser
ofiseri
og
oga
ogalan
ogalandan
ogaldy
ogaly
ogalypdyr
ogdam
oglan
oglana
oglanjyk
oglanlar
oglanlaryn
oglany
oglanyn
ogludyr
oglum
oglun
ogluna
oglundan
ogluny
oglunyn
ogly
oglydyr
oglynyn
ogry
ogs
ogsa
ogsam
ogul
ogullary
ogullaryna
ogullaryny
ogullarynyn
ogullygy
ogulnabat
ogun
ogurjaly
ogurlanan
ogurlyk
oguz
oguzda
oguzdan
oguzhan
oguzhanyn
oguzlar
oguzlara
oguzlardan
oguzlary
oguzlaryn
oguznama
oguznamada
oguznamalar
oguznamanyn
oguzyn
ogy
ogyn
oh
ohan
ohin
ojagy
ojagyn
ojak
ojaklary
ojaklaryny
ojar
ok
oka
okady
okadyly
okajak
okalan
okalanda
okaldy
okalmagy
okals
okaly
okalyp
okalypdyr
okamaga
okamagy
okamagyn
okamak
okamaly
okaman
okamay
okan
okanc
okanjy
okanyn
okap
okapdyr
okapdyrlar
okar
okara
okarda
okardaky
okardan
okarky
okarlandy
okarlandyrdy
okarlandyrmaga
okarlandyrmak
okarlandyry
okarlandyryp
okarlanmagy
okarlanmagyna
okarlany
okarlanyp
okarsy
okarsynda
okarsyndaky
okary
okarydy
okarydyr
okaryk
okas
okasa
okatmagyn
okatmak
okay
okc
okdan
okdugy
okdugyna
okdugyny
okdur
okdy
okdyr
okean
okeaniy
okeany
okeanyn
okeanynyn
okgunly
okislenme
okka
oklamak
oklap
oklar
oklary
oklaryn
oklay
oklugy
okluk
okly
oklygy
okolad
okrugy
okrugynyn
oks
oksford
oktawian
oktawianyn
oktawiy
oktay
okty
okul
okumly
okun
okuna
okunmak
okuny
okunyn
okunypdyrlar
okup
okus
okuw
okuwa
okuwc
okuwlar
okuwlaryny
okuwy
okuwyn
okuwyny
okuwynyn
oky
okyja
okyjy
okyjylar
okyjylara
okyjylary
okyjylaryn
okyjylaryna
okyjynyn
ol
ola
olagc
olam
olan
olar
olara
olarak
olaram
olarda
olardaky
olardan
olary
olaryn
olas
olbars
olbas
olbashc
old
olda
oldan
oldas
oldid
oldy
oles
olga
olho
oli
oligarhiy
olim
olimpiada
olimpiadasy
olimpiy
olja
ollady
ollap
ollar
ollary
ollaryn
ollaryna
ollarynda
ollaryndan
ollaryny
ollarynyn
ollay
olo
olom
oludyr
olugan
olugyn
olugyp
oluk
olun
oluna
olunda
olundaky
olundan
oluny
olunyn
olup
olupdyr
oly
olympiad
olynyn
om
oman
omar
omaryn
omay
omc
omut
omutlar
omutlaryn
on
ona
onac
onat
onatda
onc
once
onda
ondaky
ondan
ondanam
one
onepage
oneplus
ongin
onki
onlar
onlarc
onlarda
onlarynda
onlay
online
onluga
onluk
onok
onow
onson
onsuz
onu
onulyp
onun
onunjy
onurga
ony
onyn
onynda
onyndaky
onynyn
opan
opandepe
opanlar
opanlaryn
opany
opanyn
ope
opek
open
opening
opera
operasion
operasiy
operated
operatiw
operatory
oppozisiy
optiki
optimizasiy
or
ora
orak
oral
oran
oraz
oraza
orazaly
orazalynyn
orazany
orazanyn
orazasy
orazasyna
orazasyny
orazma
orazow
orazowa
orazsa
orba
orbita
orbitasynyn
orda
ordanyn
orden
ordeni
ordenin
ordeninin
ordenleri
order
oregon
orfografiy
org
organ
organiki
organisation
organization
organizm
organizmde
organizme
organizmin
organizmler
organizmlerin
organlar
organlary
organlaryn
organlaryna
organlarynyn
organy
organyn
orguy
orhan
orhon
orient
origin
original
origins
oris
orite
ork
orkda
orkestr
orlar
orlaryn
orlyk
orna
ornament
ornas
ornuna
ornunda
ornuny
ornunyn
orny
orod
ors
orslar
orslaryn
orsy
orsyy
ort
orta
ortac
ortada
ortak
ortaky
ortalary
ortalaryna
ortalarynda
ortalaryndan
ortalyk
ortarasynda
ortasy
ortasyna
ortasynda
ortasyndaky
ortasyndan
ortay
orum
orun
oruna
orunbasary
orunda
orunja
orunlarda
orunlary
orunlaryn
orunlaryny
orunlyk
oruntutarlary
oruntutary
orup
orus
ory
oryn
orz
os
oscar
oskar
oslo
osman
osmanly
osmanlylaryn
osmanyn
osob
osoblary
osobyn
ost
osumliklerin
ot
ota
otag
otagda
otaglar
otaglarda
otaglary
otaglaryn
otagly
otagy
otc
otda
otdan
ote
otel
other
otit
otitde
otitin
otjumak
otland
otlandiy
otlap
otlar
otlardan
otlary
otlaryn
otlarynyn
otly
otnositel
otparazc
otr
otrar
otrisatel
otry
otryn
ottoman
otur
oturan
oturar
oturdy
oturdylan
oturmak
oturman
oturtmak
oturumly
otury
oturylys
oturym
oturymlas
oturymly
oturyp
oturypdyr
oturypdyrlar
oturys
otuz
otuza
otuzynjy
oty
otyr
otyrdy
otyrka
otyry
ou
our
out
ouwendijk
ov
ovce
over
overrightarrow
ow
owa
owadan
owadanlygy
owadanlyk
owako
owal
owaz
owazasy
owazly
owazy
owc
owdur
owdurlaryn
owgan
owganistanda
owganlar
owganlaryn
owganly
owganystan
owganystana
owganystanda
owganystandaky
owganystandan
owganystanyn
owguc
owhun
owhunly
owlak
owly
ownujak
ownuk
owowsah
owradylan
owrat
ows
owsuz
owsuzlyga
owsuzlyk
owsuzlyklara
owuna
owuz
owyn
oxford
oximetry
oy
oynap
oyun
oyunda
oyunlaryny
oz
oza
ozal
ozalam
ozaldan
ozalky
ozallar
ozaly
ozan
ozar
ozdy
ozef
ozi
ozlag
ozmagy
ozmak
ozmazlyk
ozone
ozu
ozune
ozuni
ozunin
ozup
ozupdyr
ozupdyrlar
ozus
ozy
p
pa
pablo
pac
padan
page
pagerank
pages
pagsa
pagsadan
pagta
pagtac
pagtadan
pagtan
pagtany
pagtanyn
pahna
pahyr
paint
pajarlap
pajygaly
pak
pakistan
pakyr
pal
palar
palara
palarda
palardan
palary
palaryn
palaryna
palarynda
palaryndan
palaryny
palarynyn
palas
palata
palatadan
palataly
palatasy
palatasyndan
palatasynyn
palaw
palawy
palc
paleografiy
paleolit
palestina
palestinada
palestinany
palestinanyn
palestine
palma
palta
pamir
pampellinin
pamuk
pan
panama
panc
panda
pandemic
pandemiy
panthera
pany
panyn
paolo
papa
papasy
papasynyn
paper
papirus
papirusy
papua
par
para
paragway
parahat
parahatc
parahatlyk
parai
parallel
parameter
paramore
parasatly
parasatlylyk
parasimpatik
paraw
paraz
parc
parfiy
parfiya
parfiyanyn
parfy
parhy
pari
paris
pariz
park
parky
parlak
parlament
parlamentde
parlamentden
parlamente
parlamenti
parlamentin
parlamentinin
parlay
parn
parol
pars
parsah
parsc
parslar
parslara
parslardan
parslaryn
parsy
part
parti
partial
partisi
partiy
partlama
partlay
party
parys
parz
pas
paskal
pasly
paslynda
paslynyn
pasport
pasporty
pasportyny
pass
passi
passiw
pasy
pasyllaryn
pasyllarynda
pasyna
pasyndan
pasynyn
pata
patent
patma
patologiy
patriarhal
patrik
patrisiler
pats
pattay
patys
paul
paula
paulo
paulu
pawel
pay
payne
paytagty
pbo
pc
pden
pdf
pdi
pdiler
pdim
pdir
pdirler
pdu
pe
pec
pedagog
pedagogik
pedagogika
pedagogiki
pederlerimizin
pedra
pedro
pegi
pegin
pehlewi
pek
pekc
pekden
pekin
pekine
pekini
peldi
peldilis
peldily
peldip
peldy
pele
pelegin
pelek
pelen
pelip
pelipdir
pelis
pelmegi
pelmegine
pelmek
pelopannes
peloponnes
pelsepa
pelsepe
pelsepec
pelsepesi
pelsepesini
pelsepesinin
pelsepewi
peltma
peltmek
pely
pen
pena
penaka
pendi
penjaba
penjabyn
penjap
penje
penjire
penn
pens
pensilwaniy
pensiy
people
peoples
per
perc
perde
perdeli
perdesi
pereira
peren
pergam
pergamen
pergament
perhat
peri
peridun
peridunyn
perikl
period
periodik
peris
perkutan
permakultura
perman
permana
permanent
permany
pero
perry
pers
persey
persia
persian
persiy
personal
personaz
pert
peru
peruana
peruano
perunyn
perwana
perway
pery
perzendi
perzendinin
perzent
perzentleri
pes
pesdi
pesdir
pese
peseldiji
peseldip
peseldy
peselip
peselmegi
peselmegine
peseltmek
pesely
pesi
pesli
pesligi
peslik
pet
petdag
petdagda
petdagdan
petdagyn
pete
peter
peterburg
peterburga
peterburgda
peterburgdaky
peterburgyn
petir
petrogradda
petronas
petrowna
petrus
pey
peyda
pezlik
pg
pgo
pharma
phi
philosophia
philosophy
pho
phone
photos
php
phuday
pi
pianino
pictures
pida
pidasy
pierre
pifagor
pifagorc
pifagoryn
pikc
piker
pikir
pikirdes
pikire
pikiri
pikiric
pikirimizc
pikirin
pikirinden
pikirine
pikirini
pikirlenip
pikirlenis
pikirlenma
pikirlenme
pikirlenmek
pikirler
pikirlere
pikirleri
pikirlerin
pikirlerine
pikirlerini
pikirlerinin
pikirli
pil
pila
pilc
piliory
pilos
pin
ping
pinin
pio
pir
piramida
piramidalar
piramidalaryn
piramidasy
pireney
pirey
pirgulyy
piri
pirin
piriney
pirma
pis
pisint
pisse
piter
pitna
pitne
pitnec
pitneleri
pitnesi
pitt
piwo
piy
pjin
pju
pk
pka
pl
pla
place
plan
planet
planeta
planetadyr
planetalar
planetalaryn
planetanyn
planetasy
planlas
plano
plans
plant
plantasiy
plants
plany
planyny
plary
plaryn
plarynyn
platey
platina
platon
platonyn
play
player
players
please
plebey
plebsi
plenc
pler
plerden
plere
pleri
plerin
plerinden
plerine
plerini
plerinin
plexr
pley
pli
plidir
plik
plowdiw
plu
plus
plutarh
plutarhyn
pluton
plutonyn
ply
pmilletli
pnewmoniy
po
poc
pods
poe
poem
poema
poemalar
poemalary
poemanyn
poemasy
poemasynda
poemasyny
poeziy
point
pol
poladyn
polat
polatdan
poliamid
police
policy
poliester
polimeks
polineziy
poliomiy
polipropilen
polis
polisin
polisiy
polisler
polisleri
polislerin
polislerinin
politehniki
politic
political
politics
polk
polkownik
polky
polo
poloz
pols
poly
pomes
pomidor
pomidoryn
pompey
pont
pop
population
populations
populy
por
poros
porrugy
porsy
port
portal
portaly
portalynyn
portlary
portugal
portugalc
portugaliy
portugallar
portuguese
portun
porty
pos
post
posta
posy
potensial
potter
pour
power
powest
powesti
powestin
powestinde
powestini
powestler
powestleri
poy
pozisiy
pp
ppartiy
pr
pra
praga
praktika
praktiki
prawoslaw
prawoslawlary
pre
predmet
predmeti
predmetin
predmetini
prefekti
premc
premier
premiere
premiy
premy
president
press
pretor
pretoriy
preveza
preview
prey
prezident
prezidente
prezidenti
prezidentidir
prezidentimiz
prezidentimizin
prezidentin
prezidentini
prezidentinin
prezidentleri
prezidentlerinin
prezidentlige
prezidentligi
prezidentligine
prezidentlik
prezidiumynyn
pri
pribaltika
price
prime
princeton
prinsip
prinsipi
prinston
print
prnewswire
pro
problema
problemalary
problemasy
processing
producer
product
production
products
prody
prof
professional
professor
professory
profile
prog
programma
programmac
programmada
programmalar
programmalary
programmalaryn
programmalaryny
programmany
programmanyn
programmasy
programmasyna
programmasyny
programmasynyn
programmirleme
progressiw
project
prokurory
prosent
proses
prosesde
prosesi
prosesin
prosesinde
prosesine
prosesini
prosesinin
prosesleri
proseslerin
protein
protest
protestant
protokol
protokoly
prowinsiy
proy
proza
pru
prus
prussiy
prusy
psanly
psihikanyn
psihiki
psiholog
psihologik
psihologiki
psihologiy
psiz
ptaraplay
ptaraply
ptolemey
pu
public
publications
publique
publishing
publisistik
puc
pud
pudaga
pudagy
pudagydyr
pudagyn
pudagyna
pudagynda
pudagyndaky
pudagyny
pudagynyn
pudak
pudakda
pudaklar
pudaklarda
pudaklary
pudaklaryn
pudaklaryna
pudaklarynda
pudaklaryny
pudaklarynyn
pudakly
puerto
pugac
pugta
pugtalandyrmaga
pugtalandyrmagyn
pugtalandyrmak
pugtalanmagy
pugurly
puja
pul
pula
pulemy
pullar
pullara
pullary
pullaryn
pullaryny
pullarynyn
pulse
pulun
puluny
pulunyn
puly
puni
punkty
puppet
pursady
pursat
pursatda
pursatdan
pursatlary
pursaty
pursatynda
pus
put
putin
py
pyc
pygamber
pygamberden
pygambere
pygamberi
pygamberimiz
pygamberimizin
pygamberin
pygamberler
pygamberleri
pygamberlerin
pylan
pyn
pyragy
pyragynyn
pys
pytrak
pyy
q
qasam
qibla
qqq
quad
quarterly
que
quem
quicken
r
ra
rabat
radiasiy
radikal
radikulitin
radio
radioda
radiostansiy
radiotehniki
radius
radiy
radoy
rady
radyjy
radylan
radyp
radypdyrlar
raf
rafael
rafsanjany
rafsanjanynyn
raga
ragoy
ragy
ragyn
ragyna
ragyny
ragynyn
rahat
rahatlandyryjy
rahatlyk
rahatsyz
rahim
rahman
rahmanguly
rahmanowa
rahmet
rai
rainha
raja
rajasy
rak
raketa
raklar
raklara
raklary
raklaryna
raklarynda
rakly
raky
ral
raly
ralyk
ram
rama
ramagy
ramagyna
ramagynyn
ramak
ramaly
ramc
ramlar
ramow
ramowyn
ramses
ramy
ramyn
ramynyn
ran
rana
ranc
randa
randaky
randan
randyr
ranjit
rankings
ranly
ranlylar
ranlylaryn
rany
ranyn
rao
rap
rapc
rapdyr
rar
ras
raster
rat
rate
rather
ratly
ratmak
ratmakda
raty
ratyn
ratynam
ratynda
ratynlygy
ratynlygydyr
ratynlygyna
ratynlygyny
ratynlyk
ratynlykda
ratynlyklar
ratynlyklara
ratynlyklary
ratynlyklaryn
ratynlyklaryna
ratynlyklaryny
ratynlyklarynyn
rau
raul
rawenna
rawy
rawynyn
ray
raz
razres
razy
razyc
razylas
razylygy
razylygyn
razylygyny
razylyk
rbesi
rbesinde
rboy
rc
rd
rda
rde
rdekow
rden
rdes
rdi
rdiler
rdim
rdin
rdip
rdir
rdu
rdy
re
read
reading
reaksion
reaksiy
reaktiw
real
realist
realistik
realizm
reb
rebeg
rec
record
records
red
redaksiy
redaktor
redaktory
reddit
reden
redenlerin
redi
rediji
redijiler
redijilige
redijiligi
redijiligin
redijiliginde
redijiliginden
redijiligine
redijiligini
redijiliginin
redijilik
redijilikde
redijilikli
redijisi
redildi
redilen
redilenden
redilendigini
redilendir
redilip
redilipdi
redilipdir
redilmegi
redilmegine
redilmegini
redilmeginin
redily
redip
redipdi
redipdir
redipdirler
redy
redya
ref
referendum
refler
reform
reforma
reformalar
reformalary
reformalaryn
reformasiy
reformasy
reformasyny
rege
regi
regin
reginde
reginden
regine
regini
reginin
region
regional
regir
regular
reguly
rehim
rehimdar
rehimsiz
rehimsizlik
rehmet
reis
reisin
rejebow
rejeli
rejep
rejepoff
rejepow
rek
reka
rekagat
rekagatda
rekagatly
rekagatynda
rekc
rekden
rekdes
reke
reklama
reklemek
rekler
rekli
reklilik
rekord
rekordlar
rekordyny
rektory
rel
relde
reldeli
release
releases
reler
relere
releri
relerin
relerinde
relerine
relerini
relerinin
relga
relge
relgeler
relgeleri
relgelerine
relgelerini
relgesi
relgesine
relgesini
relgesinin
reli
religious
relip
rely
rem
rema
reme
remegi
remeginde
remegine
remegini
remeginin
remek
remel
remey
remez
remezan
remezanda
remezany
remezanyn
remo
remont
ren
renc
rende
rendec
rendesine
rendigini
rene
renen
reni
renijilerin
renin
renip
renis
renleri
renlerin
renmek
reno
rentgen
repetek
repetitive
report
repressiy
repu
republic
republika
rer
rersin
res
research
resi
resiz
resler
resmi
resmiles
resminama
resminamalar
resminamalara
resminamalary
resminamalaryn
respirator
respublika
respublikac
respublikada
respublikadyr
respublikalar
respublikalary
respublikalaryn
respublikalarynyn
respublikan
respublikanc
respublikany
respublikanyn
respublikasinda
respublikasy
respublikasydyr
respublikasyna
respublikasynda
respublikasyny
respublikasynyn
restoran
restoranlar
resul
results
resulullah
resulullahyn
resuly
resurslary
resurslaryny
resurslarynyn
ret
retdi
retdiler
reti
retin
retjek
retli
retma
retmegi
retmegin
retmek
retmekde
retmeklige
retmeli
retrieved
reuters
review
rew
rewans
rewoly
rey
rez
reza
rezidensiy
rezin
rezoly
rf
rfi
rgala
rgalanyn
rgen
rgenc
rgende
rgenin
rgenje
rgenji
rgenjin
rgenleri
rgenles
rgi
rgic
rgu
rhagodes
rhana
rhanalar
rhanalara
rhanalarda
rhanalary
rhanalaryn
rhanalaryna
rhanalarynda
rhanalaryny
rhanalarynyn
rhanany
rhananyn
rhanasy
rhanasyny
rhanasynyn
ri
ria
ric
rica
rie
rif
riga
right
rights
riji
rijiler
rijilerin
rijiligi
rijiligini
rijiliginin
rijilik
rijilikli
rijinin
rijisi
rik
rika
rikdes
rikli
riko
ril
rildi
rilen
rilende
rilenden
rilendigi
rilendigini
riler
rilip
rilipdi
rilipdir
rilis
rilma
rilmegi
rilmegine
rilmegini
rilmek
rilmeli
rilse
rily
rim
rimde
rimden
rime
rimi
rimin
rimli
rimliler
rimlilere
rimlileri
rimlilerin
rin
rind
rinde
rinden
rine
ring
rini
rinin
rinoplastika
rio
rip
ripdi
ripdir
ripdirler
riplik
ris
rise
risk
rit
rite
riteles
ritm
ritonlar
riy
riz
rjek
rjew
rjewe
rji
rju
rk
rka
rkan
rkc
rkewic
rkezdi
rkezdiler
rkezdim
rkezen
rkezer
rkeziji
rkezijiler
rkezijileri
rkezijilerine
rkezijisi
rkezildi
rkezilen
rkezilip
rkezilipdir
rkezilis
rkezilma
rkezily
rkezip
rkezipdir
rkezipdirler
rkezis
rkezma
rkezme
rkezmegi
rkezmek
rkezmeleri
rkezmesi
rkezy
rkezya
rki
rkiler
rkilerin
rkisi
rkistan
rkiy
rkiye
rkler
rklerde
rklere
rkleri
rklerin
rklerinin
rkles
rkm
rkmen
rkmenabat
rkmenbas
rkmenbasy
rkmenc
rkmenden
rkmendir
rkmene
rkmenfilm
rkmengala
rkmengaz
rkmenhoway
rkmeni
rkmenin
rkmenistan
rkmenistana
rkmenistanda
rkmenistandaky
rkmenistandan
rkmenistanly
rkmenistany
rkmenistanym
rkmenistanyn
rkmenler
rkmenlerde
rkmenlerden
rkmenlerdir
rkmenlere
rkmenleri
rkmenlerin
rkmenlerinden
rkmenlerine
rkmenlerinin
rkmenlernin
rkmennebit
rkmenportal
rkmensa
rkmentelekom
rkmneistanyn
rku
rl
rla
rlar
rledi
rlemek
rlen
rlendi
rlenen
rlenily
rleny
rler
rlerda
rlerde
rlerden
rlere
rleri
rlerin
rlerinde
rlerinden
rlerine
rlerini
rlerinin
rles
rley
rli
rlidir
rlige
rligi
rligin
rliginde
rligine
rligini
rliginin
rlik
rlikde
rlikler
rliklere
rlikleri
rliklerin
rliklerinde
rliklerine
rliklerini
rliklerinin
rliler
rlilerin
rliligi
rliligini
rlip
rlipdir
rlu
rm
rma
rme
rmede
rmeden
rmedi
rmedik
rmegey
rmegi
rmegin
rmek
rmekde
rmekden
rmeklige
rmeklik
rmeli
rmen
rmenc
rmeni
rmenler
rmenleri
rmenlerin
rmenlerinin
rment
rmentc
rmentler
rmentleri
rmentlerin
rmey
rmez
rmi
rmin
rmis
rn
rnen
rner
rnis
rnk
rnu
rnus
ro
road
roald
robert
roberto
roberts
robin
robots
rock
rockstar
rod
roda
rodjers
rodoguna
rodogunanyn
rodos
roessler
rogers
rogly
roglynyn
rohi
rohma
rok
rol
rola
rolda
roll
rollarda
rollary
rolunda
roluny
roly
rolyny
roma
roman
romanda
romanlar
romanlary
romanlarynda
romanlaryny
romantik
romantiki
romany
romanyn
romanynda
romanyny
romanynyn
romen
romina
romul
ron
ronald
ronaldo
ronaldu
ros
rosa
rosatom
rose
rosly
rossiy
rostov
rostow
rota
rotten
rouge
routledge
rowac
rowan
rowanlygy
rowanlyk
roway
roy
royal
royale
rp
rpe
rpeje
rre
rrjedha
rru
rs
rsa
rsag
rsaglylar
rsak
rsaklar
rsary
rsarylar
rsarylaryn
rsarynyn
rsdu
rse
rsek
rseler
rsen
rsfsr
rsi
rsin
rsiz
rslenin
rsssf
rsu
rt
rta
rtburc
rtc
rtden
rte
rtge
rtgeley
rtgu
rtgyran
rti
rtik
rtler
rtleri
rtlerin
rtmek
rtogrul
rttemberg
rtu
rturs
rty
ru
ruanda
rub
rubagy
rubin
rubl
ruc
rudolf
rugsady
rugsat
rugsatsyz
rugy
rugyna
rugyny
ruh
ruha
ruhabat
ruhany
ruhanylar
ruhanylary
ruhanylaryn
ruhdan
ruhlanan
ruhlandyry
ruhlaryn
ruhnama
ruhnamada
ruhnamany
ruhnamanyn
ruhnamasynda
ruhnamasynyn
ruhubelent
ruhun
ruhuna
ruhunda
ruhuny
ruhunyn
ruhy
ruhyy
ruk
ruklaryny
rukly
ruku
rul
ruly
rum
ruma
rumly
rumtyl
rumy
rumyn
rumync
rumyniy
run
runda
rup
rupdyr
rur
rus
rusc
rusiy
ruslan
ruslar
ruslara
ruslardan
ruslaryn
russ
russia
russian
russiy
russiya
russlar
russlaryn
russo
rusy
ruth
ruzwelt
ruzweltin
rwe
ry
rya
ryan
rybas
rydan
ryk
ryklary
ryl
rylan
rylandan
rylar
rylaryn
ryldy
rylmagy
rylmagyny
rylmak
rylmay
rylmaz
ryly
rylyp
rylypdyr
rylys
rym
ryn
ryna
rynda
ryny
rynyn
ryp
rypdyr
rypdyrlar
rys
rysar
rysarlar
rysarlary
rysgal
rysy
ryy
ryza
ryzaguly
rz
rza
rze
s
sa
saady
saadynyn
sabyn
sabynlar
sabynlary
sabyny
sabyr
sac
sada
sadaka
sadakalar
sadakanyn
sadakasyny
sadalas
saddam
saddamyn
sadrazam
sadyk
safa
safar
safavid
sag
saga
sagada
sagadyn
sagaldys
sagat
sagatda
sagatdan
sagatlap
sagatlary
sagatlyk
sagc
sagda
sagdy
sagdyn
sagdynlas
sagdynlygyn
saglar
saglara
saglarda
saglary
saglaryn
saglyga
saglygy
saglygyn
saglygyna
saglygyny
saglyk
sagy
sagyn
sah
sahabalar
sahabat
sahara
saharanyn
sahawat
sahawatly
saherdir
sahih
sahilli
sahna
sahnada
sahnalas
sahnasyna
sahnasynda
sahsy
sahy
sahyh
sahylyk
sahypa
sahypada
sahypadan
sahypalar
sahypalary
sahypalaryn
sahypalaryna
sahypalarynda
sahypalaryny
sahypalarynyn
sahypany
sahypanyn
sahypasy
sahypasydyr
sahypasyna
sahypasynda
sahypasyndan
sahypasyny
sahypasynyn
said
saint
sak
sakar
sakarc
sakc
sakgal
sakgally
sakgaly
sakgalyn
sakgalyny
saklady
saklajak
saklama
saklamaga
saklamagy
saklamagyn
saklamak
saklamakda
saklamaklyk
saklamaly
saklamalydyr
saklamay
saklan
saklanan
saklandy
saklanmagy
saklanmagyna
saklanmak
saklanmalydyr
saklany
saklanyly
saklanyp
saklanypdyr
saklap
saklapdyr
saklapdyrlar
saklar
saklaryn
saklay
saksoniy
sakyrtgalaryn
sal
sala
salam
salamat
salamin
salamlas
salamy
salan
salar
salary
salaryn
salarynyn
salawat
salawaty
saldamly
saldy
saldyran
saldyrmak
saldyryp
saldyrypdyr
salgy
salgydy
salgydyn
salgydyny
salgylanmak
salgylany
salgylanyp
salgysy
salgyt
salgytdan
salgytlar
salgytlara
salgytlardan
salgytlary
salgytlaryn
salkyn
sallah
sallanc
sallanyp
salmaga
salmagy
salmak
salman
salnan
salnyp
salnypdyr
sals
salvador
salwador
saly
salyh
salyk
salym
salyn
salynmagy
salynmak
salyny
salynypdyr
salyp
salypdyr
salypdyrlar
salyr
salyrlar
salyrlaryn
salys
sam
saman
samaniler
samany
samanylaryn
samanyn
samanynyn
samarkand
samarkanda
samarkandy
samarkandyn
samarkant
samarkantda
samarkantdan
same
samnit
samnitler
samoa
samoly
samos
samsung
samsyk
samuel
samuray
san
sana
sanalan
sanaly
sanamak
sanap
sanardan
sanas
sanaw
sanawac
sanawda
sanawy
sanawyna
sanawynda
sanawyny
sanay
sanc
sanda
sandan
sandyk
sangue
sanguy
sanitar
sanitariy
sanjar
sanjara
sanjary
sanjaryn
sanjy
sanjydyr
sanjym
sanjymlary
sanjymlaryn
sankt
sanlar
sanlara
sanlardan
sanlary
sanlaryn
sanly
sanlyja
sanlysy
sanremo
sanskrit
sansyz
santa
santiago
santimetr
santimetre
santos
sany
sanydyr
sanyn
sanyna
sanynda
sanyndan
sanyny
sanynyn
sanysy
sanysyny
sao
sap
sapa
sapagy
sapagyn
sapak
sapaklar
sapaklary
sapaklaryny
sapaly
sapanc
sapar
sapara
saparda
sapargeldi
saparlary
saparmurat
saparmyrat
saparow
sapary
saparyn
saparyndan
saparynyn
saplanmak
saply
sapporo
sapy
sar
sara
saragt
saragtda
sarah
sarahs
sarahsa
sarahsda
sarahsdan
sarahsly
sarahsyn
saralyp
saray
sardiniy
sargon
sargyt
sarianidinin
sariy
sarman
sarp
sarpa
sarpaly
sarpasy
sary
sarygamys
saryhanow
saryja
saryk
saryklar
saryklaryn
sarymsak
sarymtyl
saryy
sas
sasani
sasanid
sasanidler
sasaniler
sasanitler
sasany
sasanylar
sasy
sat
satas
satdy
satirik
satiriki
satlas
satlyk
satmaga
satmagy
satmak
satrapy
saturn
saturnyn
satuw
satuwa
saty
satyjy
satylan
satyldy
satyly
satylyp
satylypdyr
satyn
satyp
satypdyrlar
satys
saud
sawc
say
saylandy
saytından
saz
saza
sazak
sazanda
sazandalar
sazandalary
sazandalaryn
sazandalyk
sazandasy
sazc
sazlamak
sazlary
sazlaryn
sazlaryny
sazlas
sazlay
sazly
sazlyklary
sazy
sazyn
sazyna
sazynda
sazyny
sazynyn
scho
school
schools
schro
schwarzwald
science
sciences
scott
script
sdes
sdi
sdu
se
sea
search
season
seasons
seba
sebabi
sebapli
sebastian
sebit
sebitara
sebitda
sebitde
sebitden
sebite
sebiti
sebitin
sebitinda
sebitinde
sebitinden
sebitine
sebitini
sebitinin
sebitler
sebitlerde
sebitlere
sebitleri
sebitleridir
sebitlerin
sebitlerinda
sebitlerinde
sebitlerinden
sebitlerine
sebitlerini
sebitlerinin
sebitley
sebtinde
sec
secret
section
security
sede
see
sefewi
sefewiler
sefewilerin
sefi
segsen
sehiw
sejda
sejde
sejdede
sejdesi
sejdesini
sek
sekilinde
sekiz
sekizburc
sekizinji
sekretar
sekretarlygyna
sekretary
sekunt
sekuntda
sel
sela
selc
seleccio
selena
seler
selewk
selewkidler
selewkidlerin
selewkitlerin
self
selim
selime
seljerip
seljeris
seljerma
seljugyn
seljuk
seljuklar
seljuklary
seljuklaryn
seljukly
seljuklylar
seljuklylaryn
sell
selly
selm
sem
sement
semi
seminariy
semit
semiz
semy
sen
sena
senagat
senagata
senagatc
senagatda
senagatlary
senagatlas
senagaty
senagatyn
senagatyna
senagatynda
senagatyny
senagatynyn
senarist
senasy
senat
senata
senatda
senatdan
senator
senatorlar
senatorlary
senatorlaryn
senaty
senatyn
sende
senden
sendi
sendigine
sendigini
sendir
sene
senegal
seneleri
senem
senenamasy
senenamasynda
senenamasynyn
senesi
senesinde
senesini
senesinin
senet
senetc
senhora
seni
senin
sensorly
sent
senturiy
senty
senuber
seny
senzor
seo
sep
sepgidi
sepgidinde
sepgitler
sepgitlere
sepgitleri
sepler
sepleri
seplerin
seplerini
seples
sepmeli
september
septimiy
ser
sera
serb
serbaz
serbazlar
serbazyn
serbiy
serbler
serblere
serbleri
serblerin
serc
serdar
serdara
serdarlar
serdarlary
serdarlaryn
serdarlarynyn
serdarlyk
serdary
serdarymyz
serdarymyzyn
serdaryn
serdarynyn
sereden
seredende
seredenin
seredildi
seredilende
seredilip
seredily
seredin
seredip
seredy
serenjam
seresaply
seresaplyk
seresaplylyk
seret
seretdi
seretma
seretmek
seretmezden
seretsen
sergey
sergi
serhedabat
serhedi
serhedinde
serhedinden
serhedine
serhedini
serhedinin
serhet
serhetabat
serhetden
serhetdes
serhetler
serhetleri
serhetlerinde
serhetlerine
serhetlerini
serhetlerinin
serhetles
serhety
serhos
seri
serial
serialyn
serie
series
seris
seriy
serkerde
serkerdebas
serkerdeler
serkerdeleri
serkerdelerin
serkerdelerine
serkerdelerinin
serkerdeliginde
serkerdelik
serkerdesi
serkow
serpay
serpikdirip
server
service
services
serwer
serwi
serwisi
serwiy
serz
ses
sese
sesi
sesin
sesinden
sesine
sesini
sesinin
seslendi
seslendirmek
seslenme
seslenmek
sesler
sesleri
seslerin
sesli
sessiy
sessiz
set
seti
setir
setirde
setirden
setiri
setirin
setirler
setirlerde
setirleri
setirlerin
setirlerinde
setirlerini
setirli
sety
seul
seus
seven
sevgi
sewastopol
sewer
sewerin
sewily
sewr
sex
sexo
sey
sez
sezar
sezara
sezaryn
sezewar
sf
sfera
sgel
sgelc
sgerma
sgermezlik
sgu
sh
shaherinde
shakur
she
shemalar
shemasy
shepherd
shey
sheyle
shi
shol
shonun
short
show
shrek
shu
si
sibir
sibirde
side
sidon
sifr
sifrinin
signal
sikli
sil
sileziy
silindr
silk
silva
sim
simap
simfoniki
simfoniy
simins
simpatik
simsiz
simuly
simwoly
simwolynyn
sin
sina
sinan
sinanyn
sinay
sind
sinda
sinde
sinden
sindh
sine
singapur
singh
single
singles
sini
sinin
sink
sinop
sintaksisi
sintetik
sintetiki
sio
sir
sire
siri
sirinde
sirinden
sirine
sirini
sirinin
siriy
sirk
sirke
sirleri
sirlerini
sirles
sirli
sirliligi
siseron
sisiliy
sissistiy
sistana
sistema
sistemalary
sistemanyn
sistemasy
sistemasyna
sistemasynda
sistemasyny
sistemasynyn
site
sites
sitesi
sitirleme
sitoplazma
sitrus
siwas
siwilizasiy
six
siy
siyasal
siz
sizalpin
sizden
sizdi
size
sizi
sizin
sizlerin
sizlige
sizligi
sizligin
sizlik
sk
skaly
skandinaw
skandinawiy
skelet
skif
skifler
skiflerin
skiy
skobelew
skott
skripka
skwaz
sky
sl
slawy
sleri
sles
sley
sli
slim
slimin
slowak
slowakiy
slowen
sloweniy
slowy
sm
sma
small
smart
smartfon
smegi
smeginde
smegine
smegini
smeginin
smek
smi
smit
smith
smolensk
sms
smw
smyslow
sn
sng
so
soap
sobral
soc
soccer
soccerway
social
society
sock
sofiy
soft
software
sogaby
sogabyny
sogan
sogany
sogap
soguljanynyn
sokol
sokrat
sokup
soky
sokynyn
sol
sola
soldatlar
solo
solomon
solon
solonyn
soltan
soltana
soltangala
soltangalanyn
soltanlar
soltanlary
soltanlaryn
soltanlaryna
soltanlarynyn
soltanlygy
soltanlygyna
soltanlygynda
soltanlygyny
soltanlygynyn
soltanlyk
soltans
soltany
soltanyn
soltanynyn
soly
somali
sommars
son
sona
sonam
sondan
song
songay
sonky
sonra
sonun
sony
sopuc
sopy
sopyc
sopyy
sora
sorady
sorag
soraga
soraglar
soraglara
soraglaryn
soragyn
soragyna
soramaga
soraman
soranlarynda
sorap
sorapdyr
sorapdyrlar
soray
sort
sortlary
sortly
sorty
sorujy
sorujyly
sorup
sory
sosial
sosialist
sosialistik
sosialistler
sosializm
sosializmden
sosializmin
sosiologiy
sosiy
soslowiy
sossial
sossialistik
sostawyna
sosy
soter
sotsial
soul
soundtrack
source
south
southern
souza
soviet
sow
sowa
sowadyjy
sowadyjyda
sowadylan
sowal
sowala
sowallara
sowat
sowatly
sowatsyz
sowda
sowes
sowet
soweti
sowetinde
sowetinin
sowetler
sowetlerin
sowetlerinin
sowgady
sowgat
sowgatlar
sowuk
sowukda
sowukdan
sowuklama
sowuklamagy
sowuklamalarynda
sowuklamanyn
sowuklamasy
sowuklyk
sowup
sowut
soy
space
spanish
spaniy
sparta
spartada
spartagyn
spartak
spartaly
spartalylar
spartalylaryn
spartanyn
spasski
spasskiy
spassky
speaking
special
spektral
spekuly
spider
spiritual
spirtli
spitamen
sporalar
sporalary
sport
sporta
sportda
sporting
sports
sportun
sportuny
sportunyn
sporty
sportyn
spy
sqrt
squad
square
squid
sr
srew
sritis
ss
sse
ssin
sskp
ssr
sssr
st
sta
stadion
stadionlar
stadiony
stadionynda
stadiy
stalin
stalinin
stambul
stambula
stambulda
stambuldaky
stambulyn
stan
stana
stanbul
standa
standard
standart
standarty
stanford
stanoklar
stanoklaryn
stansiy
stany
stanyn
star
stara
stars
start
stas
stat
state
states
statistics
statistik
statistika
status
statusy
statusyny
statuy
stawropol
stefan
stefano
steffen
stem
steme
stemin
stepan
ster
stesine
steve
stey
sti
stifadə
stiker
stil
stili
stilinde
stilinin
stilleri
stipendiy
stiw
stiwen
stki
stleri
stock
stockholm
stol
stolun
stomatologiy
stone
store
stories
story
stp
strabon
strabonyn
strategik
strategiki
strategiy
street
stress
strongman
stu
stuart
studies
studio
studios
studiy
study
sty
style
su
sub
subkutan
subtropik
subtropiki
subut
subutnamalar
subutnamalary
subutnamasy
subutnamasydyr
suby
sud
sudaba
sudabanyn
sudan
sudanda
sudanyn
sudet
sudun
sudy
sues
sufy
suggested
sugun
suguny
suicide
sulla
sullanyn
sultan
sulu
sum
sumbar
sun
sungat
sungata
sungatda
sungaty
sungatyn
sungatyna
sungatynda
sungatyny
sungatynyn
super
supercell
sur
sura
suradyn
surah
surat
surata
suratc
suratda
suratkes
suratlandyrmak
suratlandyry
suratlandyryly
suratlandyrylypdyr
suratlandyrypdyr
suratlar
suratlary
suratlaryn
suratly
suraty
suratyn
suratyny
suresini
surinam
survey
suryn
sus
susan
suw
suwa
suwara
suwarmak
suwaryly
suwarymly
suwarys
suwasty
suwc
suwda
suwdaky
suwdan
suwlar
suwlarda
suwlary
suwlaryn
suwlaryny
suwlarynyn
suwly
suwsuz
suwsuzlykdan
suwsyz
suwuk
suwuklygy
suwuklygyn
suwuklyk
suwun
suwuna
suwundan
suwuny
suwunyn
suwy
suwyn
suwynyn
suy
suz
svg
swapo
swedish
swift
swy
sy
syc
sydarya
sydyr
sygryn
sygyr
syk
sykylykc
sylag
sylaglandy
sylaglany
sylaglary
sylaglay
sylagy
sylar
sylay
sym
syn
syna
synag
synaga
synagdan
synaglar
synagy
synagyn
synalar
synalara
synalary
synalaryn
synandy
synans
synanys
synap
synasy
sync
synd
synda
synlamak
synlap
synlay
synmagy
synp
synpa
synpda
synplar
synplaryn
synpy
synpyn
synpynyn
syny
synyn
syp
sypat
sypatlar
sypatlary
sypaty
sypay
sypyp
syr
syrasynda
syrc
syrdarya
syrdas
syrdery
syrdyryp
syrkaw
syrkawy
syrkawyn
syrlaryny
syrly
syry
syrygyp
syryn
syryny
syryp
system
systems
sysy
sysynyn
syy
syyasy
syz
syzlyga
syzlygy
syzlygymyzy
syzlygymyzyn
syzlygyn
syzlygyna
syzlygyny
syzlygynyn
syzlyk
syzlykdan
syzmak
syzys
szy
t
ta
tab
tabindir
table
tablesl
tablisasy
tabs
tabyn
tabynlygyna
tabynlygyndaky
tac
tad
tada
tadan
tae
tag
tagala
tagalla
tagallalar
tagallalary
tagallalaryny
tagallasy
tagam
tagamlar
tagamlary
tagamly
tagamy
tagamyny
tagan
tagas
tagc
taglymat
taglymaty
taglymatyn
taglymatyna
taglymatyny
taglymatynyn
tagma
tagmasy
tagt
tagta
tagtabazar
tagtanyn
tagtda
tagtdan
tagty
tagtymyz
tagtymyzyn
tagtyn
tagtyna
tagtynda
tagtyndan
tagtyny
tagtynyn
tagy
tagzym
taharet
tahareti
taharetli
taharetsiz
tahmasp
tahrimen
tahy
tahyr
tahyryn
tahyy
tai
tailand
tajikistan
tak
takdyry
takm
takmyn
takmynan
takmyndan
takwa
takygy
takyk
takyklamak
takyklyk
takyr
tal
talaba
talabalay
talaby
talabyna
talabyny
talady
taladylar
talak
talamaga
talamak
talan
talandy
talanmagy
talanmajak
talant
talantly
talanty
talany
talanyp
talanypdyr
talap
talapdyr
talapdyrlar
talaplar
talaplary
talaplaryna
talaplaryny
talas
talay
talk
taly
talyby
talyp
talyplar
talyplara
talyplarda
talyplary
talyplaryn
talyplarynyn
talys
tam
tama
tamam
tamamlady
tamamlamak
tamamlan
tamamlanan
tamamlanandan
tamamlandan
tamamlandy
tamamlanmagy
tamamlany
tamamlanyndan
tamamlanyp
tamamlanypdyr
tamamlap
tamamlapdyr
tamamlay
tamdyr
tamdyra
tamdyrda
tamdyrlamasy
tamdyry
tamdyryn
tamyn
tan
tana
tanadan
tanady
tanadypdyr
tanalan
tanaldy
tanaly
tanalyp
tanalypdyr
tanamak
tanamay
tanamayan
tanap
tanapyny
tanatdy
tanay
tankydy
tankyt
tankytc
tankytlay
tannenberg
tans
tansc
tanslary
tansy
tansyn
tany
tanymal
tanyn
tanys
tanzaniy
tap
tapan
tapar
taparyn
tapawudy
tapawudyny
tapawut
tapawutlanan
tapawutlandy
tapawutlandyrmak
tapawutlandyry
tapawutlandyryly
tapawutlandyrys
tapawutlanmay
tapawutlany
tapawutlanyp
tapawutlanypdyr
tapawutlanypdyrlar
tapawutlar
tapawutlary
tapawutly
tapawutlylykda
tapdy
tapdylar
tapdym
tapel
tapgyr
tapgyra
tapgyrda
tapgyrlay
tapgyry
tapgyryna
tapgyrynda
tapgyryny
tapgyrynyn
taplay
tapmadyk
tapmaga
tapmagy
tapmak
tapman
tapmay
tapsa
tapy
tapyjy
tapyjysy
tapylan
tapylanok
tapylar
tapyldy
tapylmagy
tapylmagyna
tapylmaz
tapyly
tapylyp
tapylypdyr
tapyndy
tapyndylar
tapyndylary
tapyndylaryn
tapyp
tapypdyr
tapypdyrlar
tapys
tar
tarafından
tarap
tarapa
tarapda
tarapdaky
tarapdan
tarapdarlary
tarapdarlaryna
tarapdarlaryndan
tarapdarlaryny
tarapdarlarynyn
tarapdary
tarapdarydy
tarapdarydyr
taraplar
taraplara
taraplary
taraplaryn
taraplaryna
taraplarynda
taraplaryny
taraplarynyn
taraplay
taraply
tarapy
tarapyn
tarapyna
tarapynda
tarapyndaky
tarapyndan
tarapyny
tarapynyn
taras
tarhan
tarhanyn
tarih
tarihi
tarixi
tarixində
tarma
tarmak
tarpa
tarpyndan
tary
taryh
taryha
taryhc
taryhda
taryhdaky
taryhdan
taryhnamasy
taryhy
taryhymyz
taryhymyza
taryhymyzy
taryhymyzyn
taryhyn
taryhyna
taryhynda
taryhyndaky
taryhyndan
taryhyny
taryhynyn
tarykat
tarylyp
taryp
taryplay
tas
tasir
tasit
taslama
taslamalar
taslamalary
taslamalaryny
taslamany
taslamanyn
taslamasy
taslamasyny
tasmaniy
tassyk
tassyklady
tassyklamagyna
tassyklamak
tassyklanan
tassyklandy
tassyklany
tassyklanyldy
tassyklap
tassyklay
tat
tata
tatar
tatarlar
tatarlary
tatarlaryn
tatarlarynyn
tatda
tatdaky
tatlar
tatlarda
tatlary
tatlaryn
tatlarynda
tatlarynyn
taty
tatyn
tatyna
tatynda
tatynyn
tauris
tauty
taw
tawaf
tawafa
tawafy
tawafyn
tawafyndan
tawafyny
tawafynyn
tawarih
tawul
tay
taydan
taylor
taypa
taypalary
taze
tazeden
tbilisi
tc
td
tda
tde
tden
tdepdi
tdepmeler
tdesinden
tdh
tdi
tdng
tdu
tdy
tdylar
tdym
te
teatr
teatra
teatrda
teatrlar
teatry
teatryn
teatrynda
teatrynyn
tebigat
tebigata
tebigatda
tebigatdaky
tebigaty
tebigatyn
tebigatyna
tebigatyny
tebigatynyn
tebigi
tebigy
tebip
tebipc
tebipler
tech
techcrunch
technologies
technology
ted
tedious
tefsir
tefton
tegelegra
tegelek
tegi
tegin
teginin
tegmil
tegmiller
tegmilleri
tegmilli
teh
tehas
tehlil
tehnalogiy
tehnika
tehnikany
tehnikanyn
tehnikasy
tehnikasyny
tehnikasynyn
tehniki
tehnologik
tehnologiki
tehnologiy
tehran
tej
tejen
tejende
tejene
tejenin
tejriba
tejribe
tejribeler
tejribeleri
tejribeli
tejribesi
tejribesinde
tejribesine
tejribesini
tejribesinin
tejrime
tek
teka
tekbir
tekbiri
teke
tekeler
tekelerin
tekelerinin
tekes
tekirdag
tekiz
tekizligi
tekizligine
tekizliginin
tekizlik
teklibi
teklibine
teklibini
teklip
teklipler
teklipleri
tekliplerini
tekst
teksti
tekstil
tekstin
tekstini
tekstler
tekstleri
tektoniki
tel
tela
telbiy
tele
telefon
telefona
telefonlar
telefonlarda
telegeples
telego
telegraf
telegrafirleme
telegrafiy
telekec
telekommunikasiy
teles
teletoon
telewideniy
telewizion
telewizor
telewizorda
telewizorlar
teley
telim
telpegi
telpek
tem
tema
temada
temadan
temalar
temalarda
temalardan
temanyn
temasy
temasyna
teme
temettu
temi
teminden
temine
temir
temirin
temlere
temma
temmi
temperatura
temperaturanyn
temperaturasy
temperaturasynyn
ten
tenant
tendag
tendagyn
tende
tenden
tendensiy
tene
tenec
teni
tenin
teninden
tennisc
tentek
teo
teodor
teoman
teorema
teoremasy
teoretiki
teoriy
ter
tera
terakki
terbiy
terdi
terdiler
teren
terezi
teriji
terilen
terilip
terilipdir
terilis
terilmegi
terilmegine
terily
terim
terime
terimi
terimine
terimini
terin
terip
teripdir
teripdirler
teritoriy
terjima
terjime
terjimec
terjimehal
terjimehaly
terjimeler
terjimeleri
terjimesi
terk
terkidu
term
terma
terme
termek
termez
termin
terminaly
terminalynyn
termini
terra
territorial
territoriy
territory
terrorc
ters
tersine
tersles
tertibe
tertibi
tertibin
tertibinde
tertibine
tertibini
tertibinin
tertip
tertipde
tertiples
tertipli
tertipsiz
tertipsizlik
terwiy
tery
tes
tesbih
tesla
test
teswir
teswirleny
tet
tetc
tewi
tewton
tex
text
tey
tga
tgeden
tgedi
tgediji
tgedildi
tgedilen
tgedilip
tgedily
tgedip
tgedipdir
tgedy
tgema
tgemegi
tgemegine
tgemeginin
tgemek
tgemey
tges
tgese
tgetdi
tgetma
tgetme
tgetmegi
tgetmek
tgetmeler
tgetmeli
tgetmey
tgewsiz
tgey
tghb
tghs
th
tha
than
that
the
theft
theguardian
their
thep
think
thiongo
this
thomas
thor
thorc
three
through
thug
ti
tiberinin
tiberiy
tibet
tibi
tibinin
tibrin
tigir
tigirli
tiglatpalasar
tigr
tigran
tik
tikenli
tikilen
tikily
tikin
tili
tilki
tilsimaty
tim
timarlanypdyr
time
timeline
times
timor
timur
timurid
tin
tindu
ting
tingi
tinginde
tini
tinin
tinley
tinsoy
tio
tip
tipi
tipine
tipler
tipli
tir
tira
tiraz
tire
tireler
tireleri
tirelerin
tirelerinin
tireoid
tiresi
tiresinden
tiresinin
tirkes
tirkis
tirmizi
tirsek
tiry
tis
tit
titan
title
tito
titr
titra
titreme
titremesi
tituly
titulyny
tiw
tiy
tiz
tizara
tizden
tizles
tizligi
tizligine
tizligini
tizliginin
tizlik
tizlikde
tizlikli
tjak
tk
tkm
tkp
tl
tlar
tlaryna
tler
tleri
tlerin
tli
tm
tma
tmaga
tmagy
tmagyna
tmak
tmakc
tmaklaryna
tmaly
tmalydyr
tmanyn
tmaz
tmcell
tme
tmek
tmt
tmys
tn
tna
to
toba
today
toefl
tofik
tog
togalagynyn
togalak
togap
togrul
togsan
togtadyldy
togtamys
togtatmak
togun
tohum
tohumc
tohumlary
tohumlarynyn
tohumly
tohumy
tohumyny
tohumynyn
tok
tokay
tokga
tokio
toklutay
tokly
tokmak
tokugawo
tolgunys
tolkun
tolkunlary
tolkuny
tolstow
tolstowyn
tolstoy
tom
tomas
tomatoes
tomdan
tome
tomluk
tompson
tomsun
tomsuna
tomsunda
tomsy
tomuny
tomus
tomusda
tomusky
tomy
tomzagy
tomzak
tomzaklar
ton
tong
tonga
toni
tonna
tony
top
topalan
topar
topara
toparc
toparda
topardaky
topardan
toparlans
toparlanys
toparlar
toparlara
toparlarda
toparlardan
toparlary
toparlaryn
toparlaryna
toparlarynda
toparlaryny
toparlarynyn
toparlay
topary
toparydyr
toparyn
toparyna
toparynda
toparyndan
toparyny
toparynyn
topbak
topkapi
topkapy
toplady
toplamak
toplan
toplanan
toplanmak
toplany
toplanyp
toplap
toplapdyr
toplary
toplaryn
toplay
toplum
toplumda
toplumlary
toplumlay
toplumy
toplumydyr
toplumyn
toplumyna
toplumynda
toplumyndan
toplumyny
toplumynyn
toponimika
toponimikasy
toponimiy
topraga
topragy
topragyn
topragyna
topragynda
topragyny
topragynyn
toprak
toprakda
toprakdan
topraklar
topraklarda
topraklary
topraklaryna
topraklarynda
topraklaryny
topraklarynyn
toprakly
topy
tor
tora
toran
torba
torgay
torly
toronto
torun
toruna
torunda
tory
tos
total
totalitar
tou
tour
tournaments
tow
tower
towlanyp
towlap
towlaryn
town
tows
towsup
towugyn
towuk
towuklar
towun
towy
toy
tozan
tozandan
tozanly
tozany
tozdury
tozduryp
tozdurypdyr
tozgunc
tozmagy
tr
tra
trac
track
trading
traffigi
tragediy
trahey
trailer
traktat
traktor
trans
transfer
translated
transmilli
transport
transporty
tranzaksiy
trap
trapesiy
travel
tray
tre
trestinin
trey
trezege
tri
tribuny
tribunynyn
trigonometriy
trihomoniaz
trihomoniazyn
trilogiy
trinidad
tripoli
tripolskiy
triumf
triy
tropik
tropiki
troy
trt
true
trump
try
ts
tsa
tsak
tssr
tu
tuguna
tulliy
tumar
tun
tundra
tunga
tungus
tunis
tunisi
tunlar
tupac
tupacyn
tupan
tur
tura
turan
turanyn
turba
turbalary
turboreaktiw
turdy
turgut
turizm
turk
turkan
turkey
turkish
turkiy
turkmen
turkmenistan
turkmenistana
turkmenistanda
turkmenistane
turkmenistanyn
turkmenleri
turkmenlerin
turkmenportal
turks
turlaryn
turmagyna
turmak
turnir
turs
turup
turupdyr
turuzdy
turuzdylar
turuzmak
turuzy
tury
turzup
turzupdyr
tus
tussag
tussaglygynda
tussaglykda
tussaglykdan
tut
tutan
tutanlar
tutanlary
tutanlarynyn
tutanlygy
tutanlygyna
tutanlygynda
tutanlygyndaky
tutanlyk
tutany
tutanymyz
tutanymyzyn
tutanyn
tutanynyn
tutar
tutas
tutawac
tutdurdy
tutdurmak
tutdy
tutdylar
tutgay
tutha
tutjak
tutlus
tutma
tutmadyk
tutmaga
tutmagy
tutmagyn
tutmak
tutmaly
tutmalydyr
tutman
tutmay
tutmazlyk
tutmos
tutsa
tutsak
tutsan
tutten
tutujy
tutuk
tutulan
tutulanda
tutuldy
tutulmagy
tutulmak
tutulsa
tutulup
tutuly
tutulyp
tutulypdyr
tutumly
tutun
tutup
tutupdy
tutupdyr
tutupdyrlar
tutus
tuty
tutyar
tv
twitter
two
txt
ty
tya
tyc
tyg
tygs
tyl
tylla
tyn
tynda
tyndan
tyny
tynyn
type
tyy
tzdb
u
ua
uan
uatt
uaz
uaziy
ubey
ubiley
uc
uchin
ucin
ud
uda
udan
udia
udihu
udin
udo
udorlar
udow
udowik
udur
udyr
udz
uefa
uels
ug
uganda
ugarit
ugedey
uger
uglerod
uglewodlar
ugo
ugoslawiy
ugra
ugrady
ugradylar
ugradyldy
ugradyly
ugradyp
ugradypdyr
ugran
ugrapdyr
ugrapdyrlar
ugratdy
ugratmak
ugratmaly
ugray
ugrudyr
ugrukdyrylan
ugrulan
ugrulyp
ugrun
ugruna
ugrunda
ugrundaky
ugrundan
ugruny
ugrunyn
ugry
ugrynda
ugundyr
ugur
ugurda
ugurdaky
ugurdan
ugurdas
ugurlar
ugurlarda
ugurlary
ugurlaryn
ugurlaryna
ugurlarynda
ugurlaryndan
ugurlaryny
ugurlarynyn
ugurly
ugursyz
ugurta
ugurtapyjylygy
ugy
ugyn
uhrig
uitfild
ujuna
ujunda
ujundaky
ujundan
ujuny
ujy
ujylar
ujylaryn
ujypsyz
ujypsyzja
uk
uka
ukajyk
uklap
uklar
uklary
uklaryn
uklay
ukly
ukma
ukowskiy
ukoza
ukr
ukrain
ukraina
ukrainada
ukrainany
ukrainanyn
ukraine
ukraini
ukrainian
ukray
ukrop
uks
uksemburg
ukuda
ukur
ukusy
uky
ukyby
ukybyna
ukybyny
ukybynyn
ukynyn
ukyp
ukyplary
ukyplaryny
ukyply
ukyplydygyny
ukyplydyr
ukyplylygy
ukyplylygyny
ukyplylyk
ul
ula
ulag
ulaglar
ulaglary
ulaglaryn
ulalanson
ulaldy
ulalmagy
ulaly
ulalyp
ulamalar
ulan
ulanan
ulanda
ulandy
ulandylar
ulanmaga
ulanmagy
ulanmagyn
ulanmak
ulanmakda
ulanmaklyga
ulanmaklyk
ulanmaly
ulanmay
ulanmazdan
ulany
ulanyjy
ulanyjylar
ulanyjylara
ulanyjylary
ulanyjylaryn
ulanyjylaryna
ulanyjylarynyn
ulanyjynyn
ulanylan
ulanylanda
ulanylandygyny
ulanyldy
ulanylmaga
ulanylmagy
ulanylmagyna
ulanylmagynyn
ulanylmaly
ulanylmay
ulanyls
ulanylsa
ulanyly
ulanylyar
ulanylyp
ulanylypdyr
ulanylys
ulanyp
ulanypdyr
ulanypdyrlar
ulanys
ular
ulara
ulardan
ulardyr
ulary
ularyn
ularynyn
ulas
ulay
ulda
uldy
uldylar
ulg
ulgam
ulgama
ulgamda
ulgamdyr
ulgamlar
ulgamlarda
ulgamlary
ulgamlaryn
ulgamlarynda
ulgamlaryny
ulgamlarynyn
ulgamlas
ulgamy
ulgamydyr
ulgamyn
ulgamyna
ulgamynda
ulgamyndaky
ulgamyndan
ulgamyny
ulgamynyn
ulian
ulianyn
uliy
ullakan
ulma
ulmady
ulmaga
ulmagy
ulmagyna
ulmagyny
ulmagynyn
ulmak
ulmalar
ulmasy
ulmasyz
ulmay
ulmazlyk
uloza
uls
ulsa
ultra
ultramelews
ultrases
ulu
uludan
uludy
uludyr
ulug
ulugbegin
ulugbek
ulular
ululary
ulularyn
ulularynyn
ululy
ululygy
ululygyna
ululygynda
ululygyny
ululyk
ululykda
ululykdaky
ululykdyr
ulumsy
ulumsylyk
ulupdyr
ulurak
ulus
ulusy
ulusydyr
ulusyna
uly
ulydyr
ulyga
ulygy
ulygyn
ulygyny
ulyk
ulykda
ulylar
ulylaryn
ulyn
ulyna
ulynda
ulyp
ulypdy
ulypdyr
ulypdyrlar
ulys
um
uma
umar
umay
umer
umlar
umlary
umlaryn
umlaryny
umlarynyn
umman
ummany
ummanyn
ummanynda
ummanyndan
ummanynyn
ummasyz
umra
umre
umruk
umrulypdyr
ums
umu
umuman
umumy
umumyadamzat
umumylas
umumylygy
umumylyk
umumylykda
umumymilli
umurtga
umurtgalar
umurtgalary
umurtgalaryny
umury
umus
umut
umy
umydy
umyny
umyt
un
una
unan
unana
unanlar
unanyn
unay
unbas
unc
unca
und
unda
undaky
undan
unde
under
underground
undylar
undylary
undyr
unesco
unesko
unhcr
unhen
uni
union
unipet
unitar
united
university
uniwersal
uniwersitet
uniwersitetde
uniwersitete
uniwersiteti
uniwersitetin
uniwersitetinde
uniwersitetine
uniwersitetini
uniwersitetinin
uniwersitetler
uniwersitetleri
uniwersitetlerin
uniwersitetlerinde
uniwersitetlerinin
uniy
unknown
unlar
unlara
unlarda
unlary
unlaryn
unlaryna
unlarynda
unlaryndan
unlaryny
unlarynyn
unlukda
unly
unlylar
unlylaryn
unrecognized
unsow
untly
unu
unudyp
unun
ununy
ununyn
unus
unutman
unwanlary
unwany
unwanyny
uny
unyn
unyna
unynda
unyndaky
unyndan
unyny
unynyn
up
update
updy
updyr
updyrlar
upiter
upon
ur
ura
ural
uran
uranyn
urartu
uratu
uratunyn
urban
urda
urdu
urdum
urdumyz
urdumyza
urdumyzda
urdumyzdaky
urdumyzy
urdumyzyn
urdun
urduna
urdunda
urduny
urdunyn
urdy
urdyn
urdynda
urga
urgaly
urgan
urganyn
urgara
urgasyz
urgy
uridik
uridiki
urin
urist
uriy
urkac
url
urlan
urma
urmagy
urmak
urmiy
urnal
urnalda
urnalist
urnalistika
urnalistlerin
urnallarda
urnallarynda
urnaly
urnalyna
urnalynda
urnalynyn
urosy
urosynyn
urp
urs
ursa
ursan
urt
urtda
urtdaky
urtdan
urtdur
urtl
urtlar
urtlara
urtlarda
urtlardaky
urtlardan
urtlary
urtlaryn
urtlaryna
urtlarynda
urtlaryndaky
urtlaryndan
urtlaryny
urtlarynyn
urtly
urtlylar
urug
uruga
urugc
urugdan
uruglar
uruglary
uruglarynyn
urugway
urugy
urugyn
urugyna
urugyndan
urugynyn
urup
urupdyr
urupdyrlar
urus
ury
uryldy
uryly
urym
urymy
us
usa
usb
use
used
user
users
usets
usion
usiy
uskalar
uskanyn
ussa
ussac
ussady
ussahana
ussahanalar
ussahanalary
ussahanasynda
ussalar
ussalary
ussalaryn
ussalarynyn
ussanyn
ussasy
ussat
ussatlarc
ussatlary
ussatlarynyn
ussatlygy
ussatlygyny
ussatlyk
ussiy
ussr
ustac
ustaw
ustu
usuf
usufa
usul
usulda
usullar
usullara
usullary
usullaryn
usullaryna
usullaryny
usullarynyn
usuly
usulydyr
usulyn
usulyna
usulynda
usulyny
usulynyn
usulyy
usup
usy
usyna
usynda
usynyn
ut
uta
utamys
utanc
utany
uter
uterde
utere
uteri
uterin
uterler
uterleri
uterlerin
utgas
utizm
utm
uton
utuk
utuly
utulys
utup
utus
uwa
uwagt
uwal
uwas
uwey
uwmak
uwmalydyr
uwuly
uwunmak
uwup
uwy
uy
uz
uzadyp
uzaga
uzak
uzakda
uzakdaky
uzakdan
uzaklas
uzaklygy
uzaklyk
uzaklykda
uzaklykdadyr
uzalan
uzaldy
uzalma
uzalmasy
uzaltmak
uzaly
uzalyp
uzap
uzay
uzbekistan
uzboy
uzdas
uze
uzlar
uzu
uzunlygy
uzy
uzyn
uzyna
uzynda
uzynja
uzynly
uzynlygy
uzynlygyna
uzynlygyny
uzynlygynyn
uzynlyk
uzynlykda
uzynlykly
uzyny
uzynyn
v
va
vaga
value
values
van
var
variabilis
variety
vatnajo
vattenfall
ve
velvet
vera
verbund
verde
version
vervoerbedrijf
very
vfl
vi
via
victoria
vida
video
vie
view
vii
viii
vila
village
vilnius
virus
visa
voce
voice
vol
volks
von
voz
vs
vu
w
wa
wada
wag
waginizm
wagon
wagonlaryn
wags
wagt
wagta
wagtal
wagtam
wagtda
wagtdaky
wagtdan
wagtky
wagtlap
wagtlar
wagtlarda
wagtlardan
wagtlary
wagtlaryn
wagtlarynda
wagtlaryny
wagtlay
wagtly
wagtlyk
wagty
wagtym
wagtyn
wagtyna
wagtynda
wagtyndaky
wagtyndan
wagtyny
wagtynyn
wagytda
wagyz
wagz
wagzy
wah
wahideddin
wahideddinin
wahyt
wajyp
wajypdyr
wajyplary
waka
wakadan
wakalar
wakalara
wakalardan
wakalary
wakalaryn
wakalaryna
wakalaryny
wakalarynyn
wakany
wakanyn
wakasy
wakfa
wakfe
wakfesinden
waksina
waksinasiy
wakuf
wakyf
walensiy
walent
waleriy
walide
walinin
walker
wall
walla
walli
walt
walter
waly
wam
wamberi
wan
wana
wanat
wanda
wandallar
wanessa
wanlar
wanlara
wanlarda
wanlardan
wanlary
wanlaryn
wanlaryny
wanlarynyn
wany
wanyn
wap
war
ward
warianty
warikoz
warner
wars
was
washington
wasiliy
wasily
wasko
wasp
wassal
wassaly
wat
wata
watan
watana
watanc
watandas
watanso
watany
watanym
watanymyzda
watanymyzyn
watanyn
watanyna
watanyndan
watanyny
watanynyn
watch
water
watikan
watwat
watwatyn
wawilon
wawilona
wawilonda
wawiloniy
wawilonlylar
wawilony
wawilonyn
wawilow
way
wayback
wc
wda
wdada
wdadan
wdaga
wdany
wdanyn
wdasy
wdasyna
wdasynda
wdasyny
wdasynyn
wdega
wdi
wdu
we
web
websay
website
webster
wed
weda
wedalar
weekly
wegas
wegetatiw
wek
wekgelc
wekgellik
wekil
wekilbazar
wekilc
wekili
wekilin
wekilini
wekilinin
wekiller
wekilleri
wekillerin
wekillerinden
wekillerine
wekillerini
wekillerinin
wektor
wektoryn
wel
wela
welay
welayat
welayaty
welayatyn
welayatynda
welayatynyn
weleme
welen
weli
welia
welin
weliy
well
wella
wellac
welosiped
welsapar
wely
wen
wena
wenada
wenegi
wenera
weneriki
wenesiy
wenesuela
wenesuelanyn
wenger
wengriy
wenin
wenrgiy
wepa
wepadar
wepaly
wepalylygy
wepalylygyn
wepalylyk
wepat
wepay
wer
were
werege
weregi
weregin
wereginda
wereginde
wereginden
weregine
weregini
wereginin
werek
werekda
werekde
werekleri
wereklerinda
wereklerinde
wereklerine
werekley
wers
wersal
wersiy
wertikal
wes
wesariy
wesi
wesini
wesiy
wesjen
weslendirdi
weslendirmek
weslendiry
west
western
wesy
wet
weterinar
weterinariy
weto
wey
wez
wezdurdy
wezine
wezini
wezipa
wezipd
wezipe
wezipede
wezipeden
wezipeler
wezipelerde
wezipelere
wezipeleri
wezipelerin
wezipelerinde
wezipelerine
wezipelerini
wezipelerinin
wezipeli
wezipesi
wezipesinde
wezipesinden
wezipesine
wezipesini
wezipesinin
wezir
weziri
wezirin
wezow
wezowa
wgi
wgu
what
when
wher
where
wheri
wherin
which
white
who
why
wi
wid
widehat
wideo
wideomontaz
widow
wied
wiki
wikidata
wikipedia
wikipediy
wikiso
wiktor
wiktoriy
wiley
wilgelm
wilhelm
will
william
williams
willin
wilny
wilson
wilsonyn
wily
winc
windows
wins
winter
wir
wirjiniy
wirtual
wirus
wirusa
wiruslar
wiruslary
wiruslaryn
wirusly
wirusy
wirusyn
wirusyny
wirusynyn
wis
wise
wish
wiskoza
wisla
witaliy
witamini
witaminler
witaminleri
witaminlerin
witebsk
witfild
witfildin
with
without
witr
wiy
wizantiy
wizit
wizitka
wizitkalar
wizual
wl
wla
wladimir
wladimirowic
wladislaw
wlana
wle
wledi
wlen
wlet
wletara
wletde
wletden
wletdir
wlete
wleti
wletidir
wletim
wletimiz
wletimizde
wletimizin
wletin
wletinda
wletinde
wletinden
wletine
wletini
wletinin
wletjanow
wletler
wletlerde
wletlerden
wletlere
wletleri
wletlerin
wletlerinde
wletlerinden
wletlerine
wletlerini
wletlerinin
wletli
wletlilik
wletma
wlety
wligi
wliy
wlu
wmal
wme
wmek
wne
wnejay
wni
wnu
wo
wodorod
wokal
woley
wolfram
wolga
wologez
wolwoksyn
woly
woman
women
won
woods
word
work
working
works
world
worldwide
woronez
worskla
would
woy
wozroz
wp
wpa
wr
wra
wrac
wran
wrat
wre
wrebap
wrebaplas
wreda
wreden
wredily
wredip
wredipdirler
wredis
wredy
wregin
wrek
wreli
wreliligin
wrelilik
wren
wrendi
wrendiler
wrenen
wreniji
wrenijiler
wrenijilerin
wrenildi
wrenilen
wrenilende
wrenilip
wrenilipdir
wrenilis
wrenilma
wrenilmedik
wrenilmegi
wrenilse
wrenily
wrenip
wrenipdir
wrenipdirler
wrenis
wrenma
wrenmegi
wrenmegin
wrenmek
wrenmekde
wrenmekden
wrenmeklige
wrenmekligin
wrenmeklik
wrenmeli
wreny
wresi
wresine
wresinin
wretmek
wrey
wri
writing
wriz
wrizde
wrize
wrizi
wrote
wru
ws
wsi
wsinin
wsu
wu
wulkan
wulkanlar
wulkany
wut
wwa
wwe
www
wy
wyz
x
xbox
xi
xiaomi
xii
xiii
xiv
xix
xml
xv
xvi
xvii
xviii
xx
xxi
xxii
y
ya
yabany
yada
yadyga
yagday
yagdayda
yagny
yahoo
yak
yakyn
yale
yaly
yamy
yan
yana
yandex
yanynda
yar
yarag
yarlamak
yarlyk
yarym
yas
yasalan
yay
yayınları
yazan
yazuw
yazylan
yb
yba
ybadat
ybadatdyr
ybadathana
ybadathanada
ybadathanalar
ybadathanalarda
ybadathanalary
ybadathanalaryn
ybadathanalaryny
ybadathananyn
ybadathanasy
ybadathanasyna
ybadathanasynyn
ybadatlar
ybadaty
ybadatyn
ybadatyny
ybadatynyn
ybana
ybarat
ybaratdy
ybaratdyr
ybatalga
ybi
ybrahym
ybray
yby
ybynlar
ybyny
yc
yd
yda
ydaky
ydam
ydaman
ydamly
ydamlylygy
ydan
ydap
ydas
ydy
ydyr
ye
year
years
yeke
yen
yene
yeni
yeniji
yenijisi
yenilish
yenish
yer
yerde
yere
yeri
yerin
yerine
yerler
yerlerde
yerleri
yerlerin
yerlerinde
yerlerini
yerles
yerlesen
yerleshyar
yerlesiyar
yerli
yetis
yewropa
yewropada
yg
yga
ygal
ygally
ygalyn
ygar
ygary
ygeldi
ygjamlas
yglan
ygly
yglyk
yglylygy
yglylygyn
yglylyk
ygnady
ygnaga
ygnagy
ygnagyn
ygnagyna
ygnagynda
ygnagynyn
ygnak
ygnakda
ygnaklary
ygnalan
ygnalmagy
ygnaly
ygnamaga
ygnamak
ygnanan
ygnandy
ygnandylar
ygnans
ygnany
ygnanyp
ygnanypdyrlar
ygnanys
ygnap
ygnapdyr
ygnapdyrlar
ygnay
ygrylyp
ygrynda
ygrynyn
ygryy
ygtybarly
ygtyy
ygy
ygydan
ygydyr
ygylygy
ygym
ygyn
ygyna
ygynda
ygyndaky
ygyndan
ygyndy
ygyndyda
ygyndylary
ygyndylaryn
ygyndylarynyn
ygyndysy
ygyndysyna
ygyndysynda
ygyndysyny
ygyndysynyn
ygyny
ygynyn
ygyp
ygyr
ygyrda
ygyrlar
ygyrlary
ygyrlarynda
ygyrlaryndan
ygyrlaryny
ygyrlarynyn
ygyrmak
ygyry
ygyrynda
yh
yhlas
yhlasly
yhlasy
yhram
yhrama
yhramdan
yhramsyz
yhsan
yhsar
yhzada
yi
yil
yja
yju
yjy
yjylar
yjylary
yjylaryn
yjysy
yk
ykalga
ykalgasy
ykan
ykanda
ykandan
ykandygy
ykandygyny
ykandyr
ykanlarynda
ykanson
ykany
ykanynda
ykanyndan
ykar
ykaran
ykarar
ykardy
ykardylar
ykarma
ykarmady
ykarmaga
ykarmagy
ykarmagyn
ykarmak
ykarmakda
ykarmaly
ykarman
ykarmay
ykartmak
ykary
ykaryjy
ykarylan
ykaryldy
ykarylmagy
ykarylmagyny
ykaryly
ykarylyp
ykarylypdyr
ykarylys
ykaryp
ykarypdyr
ykarypdyrlar
ykarys
ykay
ykbal
ykbaly
ykbalyna
ykbalynda
ykbalyny
ykbalynyn
ykc
ykda
ykdajy
ykdajylar
ykdajylary
ykdajylaryn
ykdajylaryny
ykdan
ykday
ykdy
ykdylar
ykdyr
ykdysady
ykdysadyy
ykdysatc
ykgyn
ykgynsyz
ykjak
ykjakdygyny
ykjam
yklar
yklara
yklarda
yklardan
yklary
yklaryn
yklaryna
yklarynda
yklaryndan
yklaryny
yklarynyn
ykly
yklydy
yklydygyny
yklydyr
yklygy
yklygyny
yklyk
yklykda
yklylykda
yklymda
yklymyn
yklymynyn
ykma
ykmady
ykmaga
ykmagy
ykmagyn
ykmagyna
ykmagynda
ykmagyny
ykmagynyn
ykmajak
ykmak
ykmalar
ykmaly
ykman
ykmandyr
ykmanka
ykmasy
ykmay
ykmaz
ykrar
yksa
yksyz
yku
yky
ykyar
ykylan
ykylanda
ykyldy
ykylmagy
ykylmagyna
ykylmak
ykyly
ykylyp
ykylypdyr
ykyp
ykypdy
ykypdyr
ykypdyrlar
ykys
ykytly
yl
yla
ylahy
ylahyy
ylalas
ylamaga
ylamak
ylan
ylanc
ylanda
ylandan
ylandy
ylandyr
ylanly
ylany
ylanyn
ylap
ylar
ylara
ylarda
ylardan
ylardy
ylary
ylaryn
ylaryna
ylarynda
ylaryndan
ylaryny
ylarynyn
ylas
ylay
yld
ylda
yldaky
yldan
yldawuk
yldy
yldyrym
yldyz
yldyzlar
yldyzlary
yldyzlaryn
yldyzy
yldyzyn
ylgamak
ylganc
ylgap
ylgas
ylgaw
ylgay
ylgy
ylgyn
ylham
ylky
yllap
yllar
yllara
yllarda
yllardaky
yllardan
yllary
yllaryn
yllaryna
yllarynda
yllaryndaky
yllaryndan
yllaryny
yllarynyn
yllyga
yllygy
yllygyn
yllygyna
yllygynda
yllyk
yllykda
yllykdan
yllyklar
yllyklara
yllyklarda
yllyklardan
yllyklaryn
ylma
ylmadyk
ylmagy
ylmagyna
ylmak
ylmanak
ylmanan
ylmay
ylmaz
ylmy
ylmyn
ylmyna
ylmynda
ylmyndan
ylmyny
ylmynyn
ylow
yls
ylsay
yltmac
yly
ylyga
ylygam
ylygy
ylygyn
ylygyna
ylygynda
ylygyndaky
ylygyndan
ylygyny
ylygynyn
ylyk
ylykda
ylykdan
ylykdy
ylykdyr
ylyklar
ylyklara
ylyklarda
ylyklardan
ylyklary
ylyklaryn
ylyklaryna
ylyklaryndan
ylyklaryny
ylyklarynyn
ylykly
ylyksyz
ylylygy
ylylyk
ylym
ylyma
ylymda
ylymdyr
ylymlar
ylymlary
ylymlaryn
ylymlaryna
ylymlaryny
ylymlarynyn
ylymly
ylymtyl
ylymy
ylymyn
ylyn
ylyna
ylynda
ylyndan
ylyny
ylynyn
ylyp
ylypdy
ylypdyr
ylys
ym
yma
ymam
ymama
ymamy
ymamyn
ymarat
ymaratc
ymaratlar
ymaratlary
ymaratlaryn
ymaraty
ymaratyn
ymtyly
ymtylys
ymy
ymykly
ymyn
ymyz
ymyza
ymyzda
ymyzy
ymyzyn
yn
yna
ynal
ynam
ynamdar
ynamly
ynamsyzlyk
ynamy
ynamyna
ynamyny
ynanc
ynandyryjy
ynanja
ynanjy
ynanjyna
ynanjynda
ynanmak
ynanmaly
ynanmay
ynanmazlyk
ynany
ynanyly
ynanyp
ynanypdyr
ynanypdyrlar
ynanys
ynas
ynaslyk
ync
ynda
yndady
yndaka
yndaky
yndam
yndamlygy
yndan
yndygy
yndyr
yngurlus
ynha
ynjalyk
ynjalyksyz
ynjar
ynjyk
ynkylaby
ynkylabyn
ynkylabynyn
ynkylap
ynkylapc
ynlakay
ynlanan
ynlar
ynlary
ynlaryn
ynlaryny
ynlyk
ynmac
ynsan
ynsana
ynsandan
ynsanlar
ynsanlara
ynsanlary
ynsanlaryn
ynsanperwer
ynsanperwerlik
ynsany
ynsanyn
yny
ynyn
ynyna
ynyny
ynynyn
yo
yok
yokary
yol
yola
yolbas
yollary
yoly
yone
yorite
york
yorkork
you
young
your
youtube
yp
ypa
ypahana
ypahananyn
ypahanasy
ypdy
ypdyr
ypdyrlar
yplap
yplygy
yr
yra
yraga
yragy
yragyn
yrak
yrakda
yrakdaky
yrakdan
yran
yrar
yrda
yrdamak
yrdan
yrdy
yrdylar
yrdyly
yrjak
yrky
yrlaryn
yrly
yrlydyr
yrlyk
yrmaga
yrmagy
yrmak
yrmakda
yrmakdan
yrmaly
yrmalydyr
yrman
yrmas
yrmay
yrmyradowa
yrow
yrsarap
yrsy
yrsyna
yrsynda
yrsyndaky
yrsyndan
yrtmak
yrtyjy
yrtyk
yry
yrygy
yrylan
yryldy
yrylmagy
yryly
yrylyp
yrylypdyr
yrym
yrymlas
yrymly
yrymlydy
yrymlydyr
yryn
yryp
yrypdyr
yrypdyrlar
yrys
ys
ysgyndan
ysgynsyzlyk
yshak
yslam
yslama
yslamda
yslamdan
yslamlas
yslamy
yslamyn
ysly
ysmamyt
ysmay
ysmaz
ysnys
yspyhan
yspyhana
yspyhanda
yspyhany
ysray
yssy
ysy
ysydyr
ysyna
ysynda
ysyndan
ysyny
ysynyn
yt
ytlamak
ytly
yto
yu
yurdumyzda
yurdumyzyn
yurdun
yuri
yurt
yuwas
yuze
ywa
ywalar
ywalaryn
yy
yyl
yyla
yylda
yyldaky
yyldan
yyllap
yyllar
yyllarda
yyllyk
yylyn
yz
yza
yzagalak
yzarlama
yzarlamak
yzarlany
yzarlanyp
yzarlap
yzarlapdyr
yzarlay
yzda
yzdan
yzdyr
yzgarly
yzgy
yzgylar
yzgylary
yzgysy
yzky
yzlar
yzlary
yzlaryna
yzlaryny
yzly
yzlyk
yzmak
yzmyks
yzy
yzygider
yzygiderli
yzygiderliligi
yzygy
yzygyn
yzyk
yzyklar
yzykly
yzyn
yzyna
yzynda
yzyndaky
yzyndan
yzyny
yzysu
yılında
z
za
zabt
zack
zada
zady
zadyn
zadyny
zag
zahhagyn
zahhak
zahmet
zahyr
zak
zakaspi
zakaspide
zakaspiy
zakawkaziy
zakawkazy
zakaznigi
zakymlay
zal
zalar
zallary
zalsburg
zaly
zalym
zalymlygy
zalymlyk
zalyn
zalynda
zam
zaman
zamana
zamananyn
zamanasy
zamanasynda
zamanasyny
zamanasynyn
zamanda
zamanlar
zamanlarda
zamanlardan
zamany
zamanyn
zamanyna
zamanynda
zamanyndan
zamanynyn
zambiy
zammy
zan
zanetti
zar
zara
zaralarynda
zaratus
zarba
zarbasy
zarina
zarn
zarp
zary
zaryn
zat
zatda
zatdan
zatdyr
zatlar
zatlara
zatlarda
zatlardan
zatlary
zatlaryn
zatlaryny
zatlarynyn
zawod
zawodlar
zawodlary
zawodlaryn
zawody
zawodyn
zawodynyn
zay
zaz
zb
zbas
zbe
zbegistan
zbegistanda
zbegistanyn
zbegystan
zbek
zbekc
zbekler
zbeklerden
zbeklerin
zbolus
zde
zdelife
zdelifede
zden
zdi
zdu
ze
zec
zedd
zeden
zedilmegi
zedip
zedis
zedy
zega
zegc
zehin
zehini
zehinin
zehinini
zehininin
zehinleri
zehinli
zek
zekat
zekata
zekatda
zekatdan
zekaty
zekatyn
zekatyny
zel
zela
zelandiy
zeledi
zelel
zelemek
zelendi
zelenip
zelenmegi
zeleny
zeler
zeli
zelik
zelikler
zelikleri
zeliklerin
zelili
zelilinin
zellandiy
zellige
zelligi
zelligin
zelligini
zellik
zem
zemey
zeminin
zemzen
zen
zenan
zenana
zenanlar
zenanlara
zenanlaryn
zenanlarynyn
zenany
zenanyn
zenek
zeni
zenin
zenini
zenit
zenzele
zeper
zeperlenmegi
zer
zeran
zeranyny
zerarly
zerga
zeri
zero
zerur
zerurdy
zerurdygyny
zerurdyr
zerurlygy
zerurlygyna
zerurlygyny
zerurlyk
zerurlyklar
zerurlyklary
zerurlyklaryny
zes
zesi
zetmek
zeus
zewal
zewaldan
zey
zga
zgalan
zge
zgerdi
zgerdis
zgeris
zgermegi
zgertma
zgertmek
zgertmeler
zgertmeleri
zgertmelerin
zgertmelerini
zgertmelerinin
zgu
zgyny
zi
zibil
zid
zidane
zide
zigfrid
zik
zikge
zikgela
zikgelenen
zikgelenipdir
zikir
zil
zilhijja
zimbabwe
zin
zinay
zinda
zinde
zinden
zine
zini
zinin
zip
zir
zire
zirem
zirin
zirki
zirkizaman
zirlikc
ziy
zl
zla
zle
zleg
zlegc
zlegde
zlegi
zlegin
zleginde
zlegler
zlegleri
zleglerin
zlem
zlema
zlemde
zleme
zlemegi
zlemek
zlemeli
zlemi
zlemin
zlemler
zlemleri
zlemlerin
zlendi
zlenilen
zlenip
zlenipdir
zlenipdirler
zleny
zler
zlerc
zlerde
zlerden
zlere
zlerem
zleri
zleric
zlerin
zlerinde
zlerinden
zlerine
zlerini
zlerinin
zles
zlesen
zley
zli
zlu
zma
zme
zmegi
zmegin
zmek
zmekde
zmekden
zmeklige
zmeli
zmey
zn
znu
zo
zol
zolagy
zolagyn
zolagynda
zolagyny
zolagynyn
zolak
zolakda
zolaklary
zolaklaryny
zolakly
zombies
zonasynda
zond
zone
zones
zool
zoologiy
zor
zordan
zorluk
zoroastrizm
zos
zson
zsu
zu
zukerberg
zuko
zul
zulkarney
zulum
zulumyna
zulumyndan
zun
zuni
zy
zygtyy
zygyr
zyk
zym
zyn
zyna
zynat
zyndan
zyndana
zyndanda
zynjyr
zyp
zyy
{
|
}
~

¡
¢
£
¤
¥
¦
§
©
ª
«
¬
­
®
°
±
²
³
µ
·
¸
º
»
¼
½
¾
×
ß
÷
ørsted
ħal
ı
ın
ŋ
ƶ
ə
ɾ
ʣ
ʰ
ʲ
ʻ
ʼ
ʾ
ˈ
ˌ
ː
˚
ˤ
̀
́
̂
̃
̄
̆
̇
̈
̉
̊
̋
̌
̓
̔
̛
̡
̣
̥
̦
̧
̨
̪
̯
̷
͂
͡
α
β
γ
δ
ε
λ
μ
ν
ο
ρ
ς
σ
υ
ω
ϕ
а
абд
аз
азербаи
ак
алиев
аль
ан
ар
арабскии
ас
ат
ашх
ашхабад
аятов
б
баи
баку
баргузинского
бер
библиотека
биобиблиографическии
биология
бориев
бу
в
ван
вв
века
великои
венера
владимирович
во
воз
вои
впере
все
всемирныи
вып
г
газета
гг
герои
года
гос
государственныи
д
данных
джана
джанскои
для
до
е
ев
евгении
его
ж
же
жизни
жизнь
з
за
закаспии
заповедник
заповедника
заповеднике
земля
и
из
изучения
ил
индустрия
институт
истории
история
к
как
класса
количество
коран
корана
коронавируса
коронавирусом
кыргыз
л
легкая
лет
ли
м
марс
материалы
мб
меркурии
меры
мира
мирзие
москва
мы
н
на
нам
народ
народа
населения
научно
не
нептун
новости
ны
о
обзор
области
общеобразовательных
он
организации
основы
от
официальныи
охота
охотн
оценила
оценили
очерки
п
перевод
перепись
период
пифагора
по
под
портал
правда
предотвращению
президент
прибаи
припев
проблемы
проектирование
происхождения
проникновения
р
раздел
ран
рггу
революции
ред
республики
россии
руми
русскии
русско
русское
с
саи
сатурн
сборник
свободы
связи
сельского
скачать
скии
ского
скои
словарь
слово
соавт
соболеи
соболя
совет
советская
советского
соломин
социалистического
союз
спб
список
справочник
сср
ссср
статья
ства
стр
сура
т
те
тест
том
труда
туркмении
туркменискои
туркменистан
туркменистана
туркменистане
туркменскии
туркменского
туркменскои
у
узбекистан
украі
уран
условиях
уче
учебник
ф
фабрик
х
хоз
хозяи
хх
центр
ч
черникин
что
ш
шавкат
ших
щ
э
экологии
энциклопедия
это
ю
юпитер
юрии
я
язык
і
ҫ
ү
ә
ִ
ַ
ב
ה
י
כ
ם
ע
פ
ר
ש
ת
،
ء
ا
الا
العربية
الل
ام
ب
بن
به
ة
ت
ج
ح
خ
د
ذ
ر
ز
س
ش
شهرستان
ص
ض
ط
ع
غ
ـ
ف
ق
ك
ل
لا
م
ن
ه
و
ى
ي
ً
ٌ
ٍ
َ
ُ
ِ
ّ
ْ
ٓ
ٔ
ٕ
ٰ
ٱل
ٱلر
پ
چ
ی
ۡ
۲
۳
ހ
ރ
އ
ވ
ދ
ޖ
ާ
ި
ު
ެ
ް
ं
क
ग
ट
त
द
न
प
ब
भ
म
य
र
ल
स
ह
ा
ि
ी
ु
े
्
ং
ত
দ
ব
ল
শ
া
ে
্
க
ட
ி
ு
ை
்
ං
ක
ත
ර
ල
ශ
්
ා
ී
ว
ั
ิ
ุ
็
่
་
ག
ཆ
ད
མ
ཡ
ལ
ས
ི
ུ
ོ
ྐ
္
한선화
​
‌
‍
‎
‏
‐
‑
–
—
―
‘
’
‚
“
”
„
•
…
′
″
⁡
€
№
←
→
↔
↷
⇒
∂
∈
−
∗
∘
∞
∫
≈
⋅
③
④
⑦
▪
►
○
◌
☉
♣
⟶
⬇
⯓
ⴰ
ⴱ
ⵉ
ⵍ
ⵎ
ⵔ
ⵖ
ⵜ
⺀
⺄
⺆
⺈
⺊
⺌
⺕
⺝
⺸
⺼
⿰
⿱
⿲
⿳
⿴
⿵
⿶
⿷
⿸
⿹
⿺
⿻
、
《
》
「
」
『
』
〢
い
う
か
こ
さ
し
す
た
つ
て
に
の
は
も
る
れ
゙
゚
ア
ィ
イ
オ
キ
ク
コ
サ
シ
ス
タ
ッ
テ
ト
ニ
フ
ミ
ム
メ
ャ
ュ
ユ
ラ
ル
レ
ン
・
ー
ㄧ
㇁
㇂
㇄
㇇
㇈
㇉
㇓
㐁
㐄
㐅
㐌
㐫
㐬
㐭
㐮
㐱
㑒
㒵
㒸
㒼
㓁
㓞
㔾
㕛
㕣
㖾
㘝
㚅
㚇
㚔
㚘
㝉
㝡
㝴
㝵
㞋
㞢
㞷
㠩
㠭
㠯
㡀
㡭
㡿
㢲
㢴
㣇
㣺
㥯
㪅
㫄
㫐
㫒
㫺
㬅
㬎
㬥
㬰
㲋
㳄
㷠
㸒
㸚
㸦
㼌
㼲
㽞
㿟
䀠
䂞
䍃
䏍
䒑
䖍
䖒
䖝
䖵
䙴
䚻
䜌
䝿
䡛
䧹
䪞
一
丁
丂
七
丄
丅
丆
万
丈
三
上
下
丌
不
与
丏
丐
丑
专
且
丕
世
丘
丙
业
东
丞
丢
丣
两
严
並
丨
丩
个
丫
丬
中
丮
丰
丱
串
丵
丶
丷
丸
丹
为
主
丽
丿
乀
乂
乃
久
乆
乇
么
义
之
乌
乍
乎
乏
乐
乑
乔
乖
乗
乘
乙
乚
乛
乜
九
乞
也
习
乡
乳
乾
亀
亅
了
亇
予
争
事
二
亍
于
亏
亐
云
互
亓
五
井
亘
亚
亜
亞
亟
亠
亡
亢
交
亥
亦
产
亨
亩
享
京
亭
亮
亯
亰
亲
亳
亶
亷
人
亻
亼
亾
仁
今
介
仌
从
仐
仑
仒
仓
仕
他
付
仝
代
令
以
任
企
伊
伏
伐
休
会
伯
但
位
何
佘
余
作
佥
使
來
侈
侌
侖
侯
侵
便
保
俞
信
修
倉
倍
候
倠
備
傳
僉
僕
儿
兀
允
兂
元
兄
充
兆
兇
先
光
兊
克
兌
免
兑
兒
兓
兔
党
兜
兟
入
全
兩
兪
八
公
六
兮
兰
共
关
兵
其
具
典
兹
兼
冀
冂
冃
冄
内
冈
冉
冊
冋
册
再
冎
冏
冐
冒
冓
冖
冗
冘
军
农
冝
冡
冥
冫
冬
冷
几
凡
凢
凵
凶
凷
凸
凹
出
函
凾
刀
刁
刂
刃
刄
刅
分
切
刍
刑
划
刕
刖
列
刘
则
初
別
利
别
到
制
刺
則
削
剌
前
剡
剽
劉
力
功
加
劦
助
劫
劳
劵
勃
勇
勉
勒
動
務
勞
勤
勲
勹
勺
勻
勾
勿
匀
匂
包
匆
匈
匊
匋
匍
匕
化
北
匚
匝
匡
匪
匱
匸
匹
区
医
匽
匿
區
十
卂
千
卄
卅
卆
升
午
卉
半
卌
华
卑
卒
卓
单
卖
南
卜
卝
卞
占
卡
卢
卣
卤
卦
卩
卪
卬
卯
印
危
即
却
卵
卷
卸
卻
厂
厃
厄
历
厈
厉
厌
厓
厘
厚
原
厤
厥
厨
厭
厲
厶
厷
厸
去
厼
厽
叀
参
參
叅
又
叉
及
友
双
反
叐
发
叒
叔
叕
取
受
叙
叚
叜
叟
口
古
句
另
叩
只
召
可
台
叱
史
右
叵
号
司
叹
吂
各
吅
合
吉
吊
吋
同
名
后
吏
向
吕
君
吝
吞
否
含
启
吳
吴
吹
吾
呂
呆
呈
告
员
呙
周
命
咅
和
咎
咠
咢
咨
咸
咼
哀
品
哉
員
哥
哲
唐
商
啇
問
啚
啬
啻
善
喜
喬
單
喿
嗇
噩
嚴
囊
囗
囘
囙
囚
四
回
囟
因
囧
囬
困
囱
囷
固
国
圂
圅
國
圍
圓
土
圡
圣
圥
在
圭
地
圶
圼
坐
坒
坚
坴
垂
垔
垚
埀
埋
埶
執
基
堂
堅
堆
堇
堯
塚
塞
墨
壘
士
壬
壯
声
壳
壴
壹
壺
壽
夂
处
夅
夆
备
夊
夋
夌
复
夏
夒
夕
外
夗
夘
多
夜
夢
大
夨
天
太
夫
夬
夭
央
失
夲
头
夷
夸
夹
夻
夾
奂
奄
奇
奈
奉
奎
奏
奐
契
奓
奔
奚
奞
奠
奢
奥
奭
女
奴
奻
好
如
妄
妙
妟
妥
妻
妾
姑
委
姜
威
娄
婁
婴
嬰
嬴
子
孑
孔
孕
孖
字
存
孚
孛
孝
孟
季
孤
学
孫
孱
學
宀
宁
宂
它
宅
宇
守
安
宋
完
宏
宓
宗
官
定
宛
宜
宝
客
宣
室
宮
宰
害
家
容
宾
宿
寄
寅
密
富
寒
察
寧
審
寫
寬
寮
寸
对
寺
寻
寽
対
寿
封
尃
射
将
將
專
尉
尊
尋
尌
對
小
少
尒
尓
尔
尖
尗
尚
尞
尢
尣
尤
尧
尨
尭
就
尸
尹
尺
尻
尼
尽
尾
尿
局
居
屈
屋
屎
屏
屑
展
屖
屚
属
屠
屡
屬
屮
屯
屰
山
屵
屾
岁
岂
岑
岡
岩
岳
岸
峯
島
崇
崑
崔
崖
崙
崩
嵬
嶲
巂
巛
川
州
巟
巠
巢
巤
工
左
巧
巨
巩
巫
差
己
已
巳
巴
巷
巸
巽
巾
巿
帀
市
布
希
帚
帛
帝
带
師
席
帶
常
干
平
年
幵
并
幷
幸
幺
幻
幼
幽
幾
广
庁
広
庄
床
底
店
庚
府
度
庫
庭
庶
康
庸
廉
廌
廛
廣
廩
廴
延
廷
建
廾
廿
开
弁
弃
弄
弇
弋
式
弓
弔
引
弗
弘
弜
弟
弥
弦
弱
張
強
强
彊
彌
彎
彐
彑
当
彔
录
彖
彗
彡
形
彥
彦
彧
彭
彳
役
彼
往
待
律
徒
得
徙
從
復
微
徵
心
忄
必
忌
忍
志
忝
忠
忩
快
念
忽
忿
思
怠
急
性
怱
恆
恋
恒
恩
恭
息
悉
患
悤
悲
悶
惠
惡
惢
愁
愈
意
愛
感
慈
慧
慮
憂
憲
應
戀
戈
戉
戊
戋
戌
戍
戎
成
我
戒
戔
或
戚
戠
戢
截
戲
戶
户
戹
戼
戾
房
所
扁
扇
手
扌
才
打
托
执
承
技
折
拉
拜
拿
掌
推
提
摇
摩
支
攴
攵
收
攸
改
放
政
敄
故
敏
敕
敖
敗
敝
敞
敢
散
敦
敫
敬
数
敷
數
斂
文
斉
斊
斗
斤
斥
斩
斬
斯
新
方
於
施
斿
旁
旋
族
无
旡
既
旣
日
旦
旧
旨
早
旬
旱
旲
时
旾
昆
昇
昌
昍
明
昏
易
昔
昗
昜
星
春
昬
是
昱
昴
昷
時
晃
晋
晏
普
景
晶
智
暑
暴
曇
曩
曰
曲
曳
更
曷
書
曹
曼
曾
替
最
朁
會
月
有
朋
服
朔
朕
朗
望
朝
木
朩
未
末
本
札
朮
术
朱
朴
朵
朶
朿
杀
杏
杜
束
条
来
東
杲
杳
松
析
林
枚
果
枝
枲
枼
某
柔
查
柬
柰
柴
栗
桀
桑
桼
梁
條
梟
梨
棋
棘
棠
棥
森
楚
業
楽
榮
樂
樊
標
欠
次
欣
欮
欲
欶
欽
款
歆
歇
歛
止
正
此
步
武
歨
歪
歮
歯
歰
歲
歴
歷
歸
歹
歺
死
殳
段
殷
殸
殹
殺
殻
殿
毋
毌
母
每
毒
比
毕
毚
毛
毳
氏
氐
民
气
氣
水
氵
氶
氷
永
氺
氾
求
汝
汞
江
池
沃
沓
沙
沝
泉
法
波
泣
泥
泰
洛
洪
活
派
流
浦
浪
浮
淡
淮
清
渚
渠
港
湯
準
滚
滿
漢
漸
澳
火
灬
灭
灰
灵
灷
炅
炎
炏
炗
炙
炭
為
烈
烏
烝
焉
無
焦
焱
然
煞
熊
熏
燕
營
燮
爪
爫
爭
爯
爰
爱
爲
爵
父
爻
爽
爾
爿
片
版
牙
牚
牛
牜
牟
牢
牧
牪
特
牽
犀
犬
犭
犮
狂
狄
狊
独
狺
猋
猒
猪
献
獒
獻
玄
率
玉
王
玟
玨
珎
班
琴
瑟
瑩
瓜
瓦
甘
甚
生
産
用
甫
甬
田
由
甲
申
电
甶
男
甸
甹
画
甾
畀
界
畏
畐
留
畜
畟
畢
畧
畨
番
畫
異
畱
當
畺
畾
疊
疋
疌
疑
疒
疾
病
癶
癸
癹
登
發
白
百
皀
皃
的
皆
皇
皋
皐
皕
皮
皷
皿
盃
盆
盇
盈
益
盍
盎
监
盒
盖
盛
盡
監
盤
盧
目
直
相
盾
省
眇
眉
看
眔
眞
真
眷
眼
眾
着
睘
睪
睿
瞏
瞢
瞿
矍
矛
矞
矢
矣
知
矦
短
石
研
破
碎
磊
磨
示
礻
礼
社
祟
票
祭
禀
禁
禸
禹
禺
离
禽
禾
禿
秀
秃
秉
秋
科
秝
秦
移
稟
穀
穌
穴
究
穹
空
穿
突
窄
窒
立
竒
竜
竝
竟
章
童
竹
笑
笠
第
筆
等
答
箕
算
箴
節
篤
篭
米
粉
粛
粟
粤
粦
粲
糞
糸
糹
系
約
納
素
索
紫
累
細
経
絜
絫
絲
維
綿
縣
繇
纍
纟
统
缶
网
罒
罔
罕
罗
罙
罡
罢
罪
署
罷
羅
羊
羌
羍
美
羔
羕
羗
羞
羡
羣
群
義
羲
羸
羽
翁
翏
習
翕
翟
翠
翼
老
耂
考
者
耆
而
耎
耑
耒
耳
耴
耶
耷
聂
聊
聖
聚
聶
聿
肀
肃
肅
肉
肖
肙
肥
肩
肯
育
肴
胃
背
胡
胥
能
脊
脩
膚
臣
臤
臧
自
臬
臭
臯
臱
至
致
臺
臼
臽
臾
臿
舀
舂
舄
與
興
舉
舌
舍
舛
舜
舞
舟
般
艮
良
色
艸
艹
艾
芒
芔
芬
芮
花
芳
芺
芻
苔
苗
苟
若
苦
英
茶
茸
荅
草
荒
荣
荼
莆
莧
莫
莽
菆
菊
菐
華
萬
落
葉
著
葛
董
葵
蒙
蒦
蒼
蓋
蓬
蓺
蔑
蔡
蕉
蕭
薄
薛
薦
薰
藍
藏
藥
蘭
虍
虎
虐
虒
虔
處
虖
虗
虘
虚
虛
虜
虞
虫
虽
蚤
蚩
蜀
蜜
蟲
蠡
血
行
衍
術
衛
衣
衤
表
衮
衰
袁
袋
袞
褭
褱
襄
襾
西
覀
要
覃
見
規
覓
視
覧
親
覽
见
角
解
言
訁
訇
計
記
詹
語
誩
諸
警
讠
计
谷
豆
豈
豊
豐
豕
豖
豙
象
豦
豩
豪
豸
貇
貝
貞
貟
負
貢
貧
貪
貫
責
貳
貴
買
費
賁
資
賈
賏
賓
賔
賛
賞
賢
賣
質
賴
贊
贝
贡
责
贯
贲
贵
赖
赞
赤
赦
走
越
足
路
蹇
身
躬
車
軍
軎
軟
輦
车
辛
辜
辟
辥
辰
辱
農
辵
辶
边
达
过
近
连
迷
追
退
送
逆
逐
通
速
造
逢
連
逮
進
遀
遂
過
道
達
遣
適
遷
遺
邊
邑
邕
那
邦
邪
郎
部
郭
都
鄉
酉
酋
配
酓
釆
采
里
重
野
量
金
釒
錢
钅
镇
長
镸
长
門
閃
閉
開
閏
閑
閒
間
閔
閵
閻
闌
门
间
闷
阑
阜
阝
阿
降
院
陳
隆
隊
隋
隡
隨
隱
隶
隹
隺
隻
隼
隽
难
雀
雁
集
雈
雋
雍
雐
雔
雙
雚
雜
雝
離
難
雨
雩
雪
雲
零
雷
需
霍
霜
霝
霞
霸
靈
靑
青
非
靡
面
靣
革
韋
韦
韭
韯
韱
音
頁
頃
項
須
頓
頗
頡
頻
顛
页
風
风
飛
飞
食
飠
飯
養
饣
首
香
馬
馮
駦
马
骨
高
髟
鬥
鬯
鬲
鬼
魚
魯
鮮
鱼
鲁
鳥
鳳
鸟
鹵
鹿
麃
麗
麥
麦
麻
黃
黄
黍
黎
黑
黒
黨
黹
黽
黾
鼎
鼓
鼠
鼻
齊
齋
齐
齒
齿
龍
龙
龜
龟
龠
龰
龱
龴
龵
龶
龷
龸
龹




者
艹
ﷺ
️
﻿
！
（
）
－
２
＝
？
🔊
🜨
𠀁
𠀃
𠀆
𠀉
𠀎
𠀐
𠁁
𠁣
𠂆
𠂇
𠂈
𠂉
𠂊
𠂋
𠂎
𠂒
𠂔
𠂛
𠂡
𠂢
𠂤
𠂬
𠂭
𠂹
𠃊
𠃋
𠃌
𠃍
𠃎
𠃑
𠃓
𠃔
𠃜
𠄌
𠄎
𠄠
𠄢
𠆢
𠆥
𠇍
𠈌
𠌵
𠓜
𠔉
𠔥
𠔼
𠔽
𠔿
𠕀
𠕁
𠕋
𠘧
𠘨
𠙻
𠙼
𠚏
𠚒
𠚤
𠚪
𠣏
𠤎
𠤕
𠥓
𠦄
𠦑
𠦝
𠧒
𠧗
𠧪
𠩺
𠪚
𠫓
𠫔
𠫤
𠬛
𠬝
𠬞
𠬢
𠬤
𠬶
𠮛
𠮦
𠮷
𠯑
𠱠
𠳮
𠷎
𡈼
𡉀
𡉵
𡌥
𡍮
𡏳
𡕒
𡕩
𡕰
𡖅
𡗗
𡗜
𡘆
𡘤
𡧱
𡨄
𡩧
𡬠
𡭽
𡰣
𡰥
𡰪
𡰯
𡰱
𡷈
𡸁
𡿨
𡿩
𡿪
𡿺
𢀖
𢀛
𢀩
𢁙
𢆉
𢆰
𢆶
𢇁
𢇇
𢉖
𢌬
𢌿
𢏚
𢑑
𢑚
𢖻
𢙣
𢛳
𢦏
𢦒
𢧵
𢼄
𢾕
𣁋
𣄼
𣅀
𣅽
𣍘
𣎳
𣎵
𣏋
𣏼
𣗥
𣥂
𣥖
𣦵
𣦼
𣧄
𣪊
𣪠
𣬉
𣳾
𣶒
𤇾
𤊽
𤐫
𤓰
𤔔
𤕨
𤣩
𤰇
𤰔
𤰞
𤴓
𤴔
𤽄
𥁑
𥁕
𥃦
𥃩
𥃭
𥇡
𥑟
𥘅
𥘈
𥝢
𥫗
𥱡
𦈢
𦉪
𦉬
𦉼
𦍌
𦍒
𦎧
𦐇
𦓔
𦔮
𦘒
𦙃
𦚏
𦣝
𦣞
𦣻
𦥑
𦥔
𦥯
𦨉
𦭝
𦰩
𧆞
𧈧
𧘇
𧰨
𧴪
𧴮
𧵩
𧾷
𨸏
𨾴
𩙿
𩠐
𩫏
𩵋
𪉷
𪜀
𪟽
𪠲
𪩲
𫇦
𫔭
𫜸
𫝀
𫠣
𫠩
𫢉
𫥞
𫩏
𫩠
𫪡
𫲽
𫶧
𬀷
𬐘
𬗌
𬙙
𬛸
𬜯
𬟩
𬯁
𬴘
𬺻
𬼉
𬼖
𭀰
𭁈
𭁨
𭅰
𭑈
𭕄
𭗼
𭤨
𭥫
𭻾
𮅕
𮊿
𮍌
𮍏
𮓗
𮥼
𮧮
廾
𰀁
𰀄
𰀈
𰀉
𰀕
𰀠
𰀡
𰀢
𰀪
𰁜
𰃮
𰆊
𰆘
𰋙
𰕎
𰢴
𰧭
𰯲
16--
25--
42--
47--
60--
71--
75--
80--
99--
a--
aa--
ab--
aba--
abi--
aborige--
abra--
abs--
absor--
aby--
ac--
ad--
ada--
adat--
adaw--
adess--
adro--
adyl--
af--
affiks--
ag--
aga--
agar--
agdar--
agro--
agyr--
agyz--
agzalal--
ah--
aha--
ahadat--
ahwa--
ahyr--
ai--
ajy--
ak--
aka--
aksakg--
akyl--
akyn--
al--
ala--
alak--
alan--
alar--
alda--
aldy--
ale--
ali--
aljy--
alky--
all--
alla--
alman--
aln--
alp--
als--
alt--
aly--
alyn--
alys--
am--
amak--
aman--
ammar--
an--
anc--
and--
ang--
ani--
anje--
anna--
annama--
ano--
ans--
ant--
anti--
antropo--
any--
anyk--
ao--
ap--
apol--
app--
appo--
apr--
apy--
apyk--
ar--
araba--
arady--
arag--
arassa--
arat--
arc--
are--
argen--
arh--
arhiw--
ari--
aristokrat--
arkt--
arpy--
art--
ary--
as--
asa--
asi--
asp--
ass--
astek--
astra--
asy--
at--
ata--
atdy--
ate--
atland--
atom--
aty--
au--
aus--
aw--
awa--
awise--
awt--
ay--
ayy--
az--
aza--
azalt--
azan--
azar--
azat--
azma--
azy--
b--
ba--
bab--
baba--
babezio--
bag--
baha--
bak--
bal--
bala--
balyk--
bap--
bar--
baran--
barsa--
bas--
bashl--
bassyr--
basybal--
basyp--
bat--
bawen--
bay--
baza--
bc--
be--
beden--
beg--
bege--
beje--
bek--
beket--
bel--
belleni--
ben--
ber--
beren--
berk--
berkidi--
bes--
bet--
bey--
bi--
bihewior--
bije--
bil--
bilen--
bio--
bir--
biri--
birikme--
bis--
bit--
biz--
blo--
bo--
bog--
bogaz--
bogd--
bol--
bom--
bor--
bos--
bot--
boz--
br--
bra--
brah--
bred--
bri--
bru--
bu--
budd--
bug--
bul--
bulujy--
bur--
but--
buz--
by--
c--
ca--
camp--
can--
car--
cas--
cat--
ce--
celebra--
cent--
ch--
cham--
che--
ci--
cin--
cla--
cn--
co--
com--
con--
cr--
cre--
cro--
cu--
cy--
d--
da--
dag--
dagy--
dah--
dak--
dal--
dalaw--
daly--
dam--
damar--
dan--
dar--
dargat--
de--
deg--
dek--
del--
dem--
demet--
demog--
demos--
den--
dep--
depe--
der--
dere--
des--
develo--
di--
dia--
dialek--
dik--
dim--
din--
dini--
dio--
dip--
dir--
direc--
diren--
diri--
dis--
disk--
dive--
diy--
dn--
do--
docu--
dog--
doga--
dok--
dol--
dom--
dor--
dost--
dow--
dr--
dra--
dro--
du--
dub--
dul--
dur--
durdy--
duz--
dy--
dyk--
dyl--
dyn--
dyr--
də--
e--
ebul--
ec--
econ--
ed--
edi--
ef--
eg--
egdi--
ege--
egi--
eh--
eje--
ejik--
ejiz--
ek--
eka--
ekdi--
eke--
eki--
ekil--
eko--
ekono--
eks--
eksplu--
ekwat--
el--
elam--
ele--
elec--
elektro--
elen--
elim--
em--
emal--
eme--
emel--
emi--
ems--
en--
enc--
end--
eng--
eni--
enkt--
ep--
epigraf--
er--
era--
ere--
eri--
erif--
erk--
erli--
ert--
es--
esa--
esas--
ese--
esen--
esse--
est--
et--
etdi--
etdir--
eten--
eti--
etim--
etnog--
etnogene--
eu--
ev--
ew--
ex--
ey--
eye--
ez--
ezd--
f--
fa--
fakt--
far--
farmak--
fazy--
fazylet--
fe--
feld--
fer--
fermo--
fet--
fi--
fil--
fin--
fit--
fizul--
fl--
fla--
flora--
fo--
fon--
for--
foto--
fr--
frie--
fu--
fun--
fy--
g--
ga--
gaba--
gabs--
gahar--
gak--
gal--
galjak--
galmy--
gam--
gan--
ganazl--
gar--
gara--
garyn--
gat--
gawun--
gay--
gaz--
gazan--
gb--
ge--
gec--
gel--
gelen--
gem--
gen--
geo--
gep--
ger--
gerak--
gerek--
ges--
gez--
gi--
gid--
giden--
gidro--
giji--
gijik--
gile--
gin--
gipo--
gir--
giren--
gis--
git--
giz--
gl--
glise--
gm--
go--
goltu--
gon--
gop--
gopar--
gor--
goran--
gorke--
gornus--
gos--
gow--
gowulandy--
goy--
goz--
gr--
graf--
gre--
grif--
gu--
gubur--
guja--
gul--
gum--
gumanis--
gun--
gup--
gur--
gurplan--
gurs--
gus--
gutl--
gutu--
guw--
guz--
gy--
gyjyn--
gyl--
gym--
gyr--
gys--
gyz--
gyzja--
h--
ha--
hadys--
haja--
hajy--
hak--
haky--
hal--
hala--
halif--
halk--
halka--
halyf--
ham--
han--
hana--
hapa--
har--
haraja--
has--
hasap--
hat--
hatar--
hay--
haz--
he--
hek--
hel--
hepde--
her--
het--
hez--
hi--
him--
hin--
his--
hju--
hle--
hlelen--
hler--
hlet--
hli--
ho--
hoja--
hokum--
hol--
holmg--
hor--
hormat--
hos--
hossar--
how--
howlu--
howlujy--
howp--
hoz--
hra--
hrat--
hre--
hri--
ht--
hu--
hun--
hur--
hus--
huzu--
hy--
hyr--
i--
ib--
iber--
ic--
id--
ide--
idi--
if--
ig--
ih--
ij--
iji--
ik--
ikes--
iki--
il--
ila--
ildi--
ilen--
iler--
ili--
ilk--
im--
in--
ina--
ind--
ing--
ink--
inowni--
ins--
instit--
int--
integ--
inter--
inwa--
io--
ip--
ir--
ire--
iren--
iri--
is--
isi--
isle--
it--
ita--
iti--
iu--
iwe--
iwu--
iy--
iz--
j--
ja--
jac--
jam--
jan--
jar--
jas--
jay--
je--
jed--
jeffer--
jek--
jem--
jemal--
jen--
jep--
jeza--
jezalandy--
ji--
jo--
jon--
jr--
ju--
juma--
jy--
jygyl--
jyns--
jyrk--
jyzy--
k--
ka--
kabylas--
kada--
kaf--
kah--
kaka--
kal--
kam--
kan--
kapasa--
kar--
kas--
kat--
kde--
kdir--
ke--
kel--
kem--
kemsi--
ken--
kepil--
ker--
kerpi--
kes--
kesel--
kesgit--
kesme--
ket--
ki--
kid--
kil--
kim--
kin--
kino--
kir--
kit--
kje--
kl--
kla--
klawiat--
kle--
kli--
klip--
kn--
ko--
kod--
kol--
koloniz--
kolonizator--
kom--
komet--
komis--
komment--
kon--
konflik--
konst--
kontr--
kop--
kor--
kos--
kow--
kr--
krasno--
ks--
ksiz--
kt--
ku--
kub--
kul--
kun--
kur--
kut--
kw--
kwart--
ky--
kı--
l--
la--
laby--
lag--
lak--
lam--
lan--
landy--
lans--
lar--
las--
lat--
law--
lay--
lb--
ldi--
le--
ledi--
leg--
lem--
leme--
len--
lendir--
leo--
ler--
les--
let--
lge--
li--
lider--
liga--
lik--
lim--
lir--
lis--
lit--
lk--
lke--
ll--
lli--
lme--
lo--
logis--
lon--
los--
low--
ls--
lt--
lu--
ly--
lyk--
m--
ma--
mac--
mad--
mag--
mags--
mah--
mak--
makul--
mal--
mam--
man--
map--
mar--
mars--
mas--
mashg--
mask--
mat--
matur--
maur--
mawr--
maz--
mb--
mc--
me--
mec--
med--
medi--
mega--
mel--
mem--
men--
mer--
mes--
met--
meta--
mete--
meteor--
metod--
mew--
mey--
mez--
mg--
mi--
mic--
migra--
mik--
mikro--
mil--
min--
ministi--
minor--
mir--
mis--
mit--
miz--
mli--
mm--
mmet--
mmez--
mo--
mojahed--
molek--
molekula--
molla--
mon--
monah--
mor--
mos--
mowzuk--
mr--
ms--
mt--
mu--
muhar--
mul--
mun--
mur--
mus--
my--
myn--
n--
na--
nabo--
nad--
nag--
nah--
nahar--
nak--
nakly--
nan--
nap--
nar--
nas--
nasio--
nc--
nd--
nder--
ndir--
ne--
neandert--
nel--
nem--
net--
new--
news--
ng--
nh--
ni--
nic--
niji--
nik--
nil--
niy--
nje--
njek--
nji--
nli--
nme--
nmek--
no--
nor--
not--
now--
nowella--
ns--
nt--
nu--
nur--
o--
oazis--
ob--
obraz--
oc--
od--
oda--
of--
og--
oga--
ogul--
ogun--
ogurl--
oh--
ok--
oka--
okan--
okar--
okdy--
okean--
okkupir--
oks--
ol--
oli--
olo--
om--
on--
ona--
one--
onu--
op--
optim--
or--
ora--
oraz--
orda--
org--
ort--
orun--
os--
ossu--
ost--
osum--
ot--
otur--
ou--
out--
ov--
ow--
owkal--
oy--
oyun--
oz--
ozan--
p--
pa--
pal--
pan--
par--
para--
paraz--
part--
parus--
pasy--
patri--
paws--
pay--
pe--
pedikul--
pek--
pelas--
per--
peri--
pes--
pessejik--
pet--
pete--
pey--
peyda--
phi--
phy--
pi--
piktog--
pil--
pin--
pio--
pir--
pis--
pisis--
pl--
pla--
plan--
plat--
play--
pli--
po--
poe--
pol--
polk--
pop--
por--
port--
pra--
pre--
pri--
pro--
prof--
program--
propa--
prostat--
protezir--
psi--
psihika--
pta--
pu--
pub--
publis--
pugta--
pul--
punkt--
py--
pyn--
q--
qu--
qua--
que--
r--
ra--
radio--
rail--
raketa--
ram--
ran--
rap--
ras--
rasio--
rat--
ray--
rc--
rdi--
re--
reb--
red--
redak--
redaktir--
reden--
redi--
ref--
reflek--
reje--
rek--
ren--
repertua--
requ--
res--
respo--
ret--
reve--
rez--
ri--
ric--
ril--
rim--
ris--
riz--
rji--
rk--
rkez--
rkezil--
rki--
rkmen--
rl--
rlen--
rme--
rmek--
rn--
ro--
robot--
rre--
rs--
rt--
ru--
ruh--
ruk--
rus--
ry--
ryl--
rys--
ryz--
s--
sa--
sabin--
sag--
sah--
sahna--
sak--
sakao--
sakyr--
sal--
salgy--
sam--
san--
sap--
sar--
sars--
sary--
sat--
satrap--
say--
saz--
sch--
scien--
sco--
scu--
se--
seb--
sek--
sel--
selje--
sem--
sen--
sene--
sep--
ser--
sergi--
seris--
serpi--
serpikdir--
ses--
set--
sey--
sez--
sf--
sh--
shad--
she--
shi--
si--
sifr--
sig--
sil--
sim--
simwo--
sin--
sir--
sirak--
situ--
siz--
sk--
sklad--
skulp--
sl--
sm--
sn--
so--
sogul--
sol--
son--
sora--
sow--
sowal--
sowhoz--
spe--
spek--
spesi--
sr--
ss--
sse--
st--
sta--
stan--
staw--
ste--
stok--
stre--
stu--
studen--
su--
sub--
sud--
suhan--
sum--
sun--
super--
sur--
sura--
surat--
suw--
suwa--
suz--
swe--
swi--
swo--
sy--
sygd--
sygyn--
sylag--
sym--
syn--
syna--
synd--
syp--
syr--
syz--
sze--
t--
ta--
tab--
tablis--
tabyn--
tag--
tagt--
tagta--
tah--
tak--
takyk--
tal--
tam--
tamam--
tan--
tana--
tap--
tapgyr--
tar--
tarak--
tas--
tassyk--
tawaf--
tay--
te--
tegel--
teh--
tek--
tekep--
tel--
tele--
tem--
temir--
ten--
teo--
ter--
termin--
tes--
tewi--
tgedi--
tgem--
th--
the--
ti--
tik--
tils--
tilsima--
tim--
tir--
tis--
tiz--
tl--
tm--
tma--
tmaz--
to--
tog--
tohum--
tolgu--
tom--
top--
topon--
tor--
tos--
tow--
tozan--
tr--
tra--
trab--
tradi--
trans--
tre--
tri--
tribu--
trium--
tropos--
ts--
tu--
tun--
tur--
turuz--
tut--
ty--
u--
ua--
uc--
ud--
ug--
uglew--
ugra--
ugruk--
ujy--
uk--
uks--
ukur--
uky--
ul--
ula--
ulan--
ulma--
uly--
um--
uma--
un--
uni--
unive--
uniwersite--
unjy--
unu--
up--
ur--
urma--
urok--
urtl--
us--
usu--
ut--
uta--
utm--
uw--
uwdu--
uwu--
uy--
uz--
uzak--
v--
va--
ve--
vent--
ver--
vi--
via--
vog--
w--
wa--
wada--
wag--
wah--
wajyp--
wan--
war--
wariant--
watan--
we--
web--
wed--
wekil--
wel--
wen--
wer--
wes--
west--
wet--
wetera--
wez--
wi--
wideo--
wiki--
will--
wir--
witam--
wl--
wla--
wlet--
wo--
wok--
wol--
wolo--
wre--
wri--
ws--
wu--
x--
xi--
xx--
y--
ya--
yan--
yar--
yas--
yay--
yaz--
yazgyl--
ydy--
ye--
yg--
ygal--
ygnan--
ygty--
ygy--
yh--
yi--
yk--
ykan--
ykdy--
yky--
yl--
yla--
ylan--
ym--
ymam--
yn--
yna--
ynand--
ynas--
ynja--
yo--
yol--
yp--
yr--
yra--
yry--
ys--
yt--
yu--
yurt--
yz--
yza--
yzy--
z--
za--
zaby--
zag--
zak--
zam--
zapas--
zar--
zat--
zb--
ze--
zel--
zem--
zen--
zeper--
zeperlen--
zer--
zetme--
zge--
zgert--
zi--
zik--
zikge--
zle--
zli--
zo--
zol--
zor--
zu--
zul--
zy--
ð--
ħ--
ı--
ın--
γ--
а--
аз--
б--
бо--
в--
ват--
вер--
вл--
вр--
г--
ге--
го--
гор--
гражд--
д--
де--
ди--
древ--
ду--
е--
живот--
з--
и--
изд--
ин--
исл--
ию--
к--
ки--
кл--
кн--
комп--
кр--
куль--
л--
ле--
ли--
лю--
м--
ме--
между--
меч--
ми--
млекоп--
мо--
му--
н--
на--
но--
о--
образо--
од--
окт--
п--
пе--
пищ--
по--
пр--
при--
про--
пу--
р--
раб--
рахм--
результ--
респуб--
ром--
с--
са--
се--
сис--
сит--
ск--
слу--
со--
ст--
т--
таб--
таш--
то--
турк--
туркм--
у--
универси--
ф--
фо--
х--
ха--
ц--
ч--
числе--
э--
эвтан--
янв--
ө--
ا--
ب--
ت--
جمه--
ر--
ع--
ل--
م--
ن--
و--
ي--
پی--
--0
--1
--2
--3
--4
--5
--6
--69
--7
--8
--9
--a
--ab
--abr
--ac
--ad
--ada
--ado
--ads
--ady
--af
--ag
--ah
--ai
--ak
--aki
--al
--alar
--ald
--alga
--aly
--am
--amo
--an
--ana
--aney
--ant
--any
--anyn
--ap
--ar
--ara
--ary
--as
--asy
--at
--ata
--atda
--ati
--ation
--ations
--ative
--atly
--ato
--aty
--au
--aw
--ay
--az
--b
--ba
--bam
--bank
--bas
--bat
--bay
--be
--beg
--bent
--bi
--bil
--ble
--bo
--bu
--burg
--by
--c
--ca
--cal
--ce
--cente
--ces
--ch
--chysy
--ci
--ck
--co
--cs
--ct
--cy
--d
--da
--dad
--dag
--dak
--daky
--dan
--dar
--das
--day
--ddo
--de
--den
--di
--digi
--digine
--digini
--dik
--dikleri
--din
--dir
--diris
--dirler
--diy
--do
--dow
--ds
--du
--duk
--dy
--dygy
--dygyna
--dygyny
--dyk
--dylar
--dyly
--dyn
--dyny
--dyp
--dyr
--dyrlar
--dı
--e
--ea
--ed
--ede
--ef
--egi
--ei
--eira
--eiro
--ek
--el
--eld
--ell
--els
--em
--en
--ence
--ensiy
--ent
--enti
--eo
--ep
--er
--eri
--ers
--es
--esi
--ess
--est
--et
--eta
--eti
--ett
--ew
--ex
--ey
--ez
--eza
--f
--fa
--fas
--fe
--ff
--fi
--field
--fon
--fy
--fyk
--g
--ga
--gac
--gala
--gan
--gas
--gat
--gc
--ge
--ger
--ght
--gi
--gic
--gik
--giki
--gin
--gine
--gini
--gir
--giy
--go
--gon
--gs
--gu
--gua
--guly
--guy
--gy
--gyc
--gyn
--gyna
--gynda
--gyny
--gyp
--gyry
--h
--ha
--han
--hana
--hc
--he
--hed
--hi
--hik
--hiy
--hlap
--hlara
--ho
--hon
--hs
--ht
--hu
--hy
--i
--ia
--ial
--ian
--ib
--ic
--ich
--id
--ida
--idir
--idler
--ie
--ies
--if
--ii
--iji
--ik
--ika
--iki
--il
--ildi
--ilen
--ili
--ilip
--ils
--ily
--im
--imiz
--imus
--in
--ina
--inde
--inden
--ine
--ing
--ini
--inian
--inin
--io
--ion
--ionist
--ip
--ir
--ira
--is
--isi
--isiy
--ism
--ist
--ista
--istik
--istler
--it
--ities
--itler
--ity
--ius
--ive
--iw
--ix
--iy
--iz
--izasiy
--ize
--izm
--izme
--j
--ja
--jagy
--jak
--jan
--je
--jek
--ji
--jigi
--jow
--jy
--jygy
--jygyn
--jyk
--jyklar
--k
--ka
--kal
--kay
--kda
--kdy
--ke
--kes
--kga
--kh
--ki
--kiy
--klar
--kly
--ko
--ks
--ksiy
--kt
--ktiw
--ky
--kyn
--l
--la
--lady
--lama
--lamak
--lan
--lanmak
--lany
--lap
--lar
--lara
--larda
--lary
--laryn
--laryna
--laryny
--larynyn
--las
--lay
--lc
--ldi
--ldo
--ldy
--le
--lein
--len
--leny
--ler
--lerde
--lerden
--lere
--leri
--lerin
--lerine
--lerini
--les
--ley
--lga
--lgy
--lho
--li
--lige
--ligi
--ligin
--lik
--lip
--lis
--liy
--ljak
--ll
--lla
--lma
--lmady
--lmadyk
--lmagy
--lmagyny
--lmak
--lmaly
--lman
--lmandyr
--lmasa
--lmay
--lo
--log
--ls
--lsa
--lse
--lt
--ltma
--lu
--luk
--ly
--lyga
--lygy
--lygyn
--lygyny
--lyk
--lylar
--lyny
--lynyn
--lyp
--lypdyr
--lys
--lyy
--m
--ma
--mad
--magy
--mail
--mak
--maly
--man
--mandyr
--may
--maz
--mc
--me
--megi
--mek
--meli
--men
--mey
--mez
--mi
--min
--miz
--mize
--mizi
--mizin
--mlary
--mly
--mu
--murt
--muz
--my
--mygyn
--myn
--myrat
--mys
--myz
--myza
--myzda
--myzdan
--myzy
--myzyn
--n
--na
--nal
--nama
--nay
--nc
--ncy
--nd
--nda
--ndaky
--ndan
--nde
--nden
--nds
--ndy
--ndyr
--ne
--ned
--ng
--ni
--nin
--nis
--niy
--nka
--nlyk
--nmagy
--nmak
--nn
--no
--non
--ns
--nso
--nt
--nta
--nuel
--ny
--nyn
--nyy
--o
--oa
--od
--ode
--ofil
--og
--ogik
--ogiy
--ogly
--ogy
--oid
--ok
--okdy
--okko
--ol
--ole
--ologiy
--om
--omik
--on
--ond
--oniy
--ons
--ont
--op
--or
--oriy
--os
--osy
--osyn
--ot
--oto
--ov
--ova
--ow
--owa
--owic
--owyn
--oy
--oz
--p
--pa
--pat
--pdy
--pdyr
--pe
--ph
--phy
--pi
--pik
--ple
--po
--pos
--ppe
--ps
--pur
--py
--q
--r
--ra
--rak
--ran
--rar
--rc
--rd
--rdir
--rdo
--rdy
--re
--res
--ressiy
--ri
--rik
--rin
--rip
--rjak
--rk
--rma
--rmaga
--rmagy
--rmagyn
--rmak
--rmaly
--rman
--rme
--rmek
--ro
--row
--rs
--rt
--ru
--ry
--ryly
--ryn
--ryp
--rys
--s
--sa
--san
--sasiy
--se
--sen
--sh
--si
--sible
--sii
--sin
--sine
--sini
--sion
--siy
--siz
--sk
--ski
--slar
--sler
--so
--son
--sor
--sow
--ss
--ssa
--ssiy
--st
--sta
--stik
--stream
--su
--sy
--syn
--syna
--synda
--syndan
--syny
--synyn
--syz
--sı
--t
--ta
--tan
--tc
--tdy
--te
--ted
--ter
--tes
--tez
--th
--ti
--ties
--tik
--tiki
--tin
--tion
--tions
--tiw
--tler
--tly
--tm
--tmek
--to
--tor
--tow
--tr
--try
--ts
--tu
--tuk
--tum
--ty
--tyk
--u
--ub
--uc
--ud
--udyn
--ue
--uel
--ug
--uit
--uk
--ul
--um
--umy
--un
--una
--uny
--unyn
--up
--ur
--ure
--urg
--us
--ut
--uw
--uz
--v
--va
--ve
--ves
--w
--wa
--we
--wi
--win
--wiy
--wu
--wuk
--wy
--wyn
--x
--y
--ya
--yk
--ylar
--yldy
--yly
--ylyk
--ym
--yn
--yna
--ynda
--yndan
--yny
--ynyn
--yp
--yr
--ys
--ysis
--ystan
--yt
--yy
--yz
--yza
--z
--za
--zan
--zas
--zat
--zdan
--ze
--zi
--ziy
--zlik
--zlygy
--zlyk
--zm
--zo
--zy
--ı
--ım
--ın
--ır
--ıs
--ə
--η
--ς
--а
--аи
--ам
--ация
--ая
--б
--ба
--брь
--в
--ви
--г
--ги
--д
--да
--ди
--ды
--е
--еи
--ель
--ения
--ент
--з
--и
--ие
--ии
--ин
--их
--ич
--ия
--к
--ка
--ки
--кии
--л
--лы
--ль
--ля
--м
--ма
--ме
--ми
--н
--ная
--нда
--ние
--нии
--ния
--ного
--нои
--ных
--о
--ов
--ои
--п
--р
--ра
--с
--ст
--т
--та
--ть
--у
--х
--ша
--ъ
--ы
--ь
--я
--ا
--ان
--ة
--د
--در
--ر
--ش
--ل
--ن
--ه
