!
"
#
##0
##1
##10
##11
##12
##13
##14
##15
##16
##17
##18
##19
##2
##20
##21
##22
##23
##24
##25
##26
##27
##28
##29
##3
##30
##31
##32
##33
##34
##35
##36
##37
##38
##39
##4
##40
##41
##42
##43
##44
##45
##46
##47
##48
##49
##5
##50
##51
##52
##53
##54
##55
##56
##57
##58
##59
##6
##60
##61
##62
##63
##64
##65
##66
##67
##68
##69
##7
##70
##71
##72
##73
##74
##75
##76
##77
##78
##79
##8
##80
##81
##82
##83
##84
##85
##86
##87
##88
##89
##9
##90
##91
##92
##93
##94
##95
##96
##97
##98
##99
$
%
&
'
(
)
*
+
,
-
.
/
0
00
000
001
003
01
02
03
04
05
06
07
08
09
1
10
100
1000
10000
1001
1004
101
1010
1011
1017
1018
102
1020
1021
1024
1025
1029
103
1030
1032
1035
1037
1038
104
1040
1041
1048
1049
105
1055
1058
106
1060
1061
1063
1066
1067
107
1071
1072
1073
1074
1075
1077
1079
108
1080
1085
1086
1087
1089
109
1091
1092
1093
1094
1095
1096
1097
1099
11
110
1100
1102
1103
1104
1105
111
1112
1113
1118
112
1120
1121
1125
1127
1128
113
1130
1131
1138
114
1147
115
1153
1154
1155
1156
1157
116
1160
1162
1166
1167
117
1172
118
1187
119
1190
1191
1194
1199
12
120
1200
12000
1204
1206
121
1210
1211
1215
1219
122
1220
1221
1222
1224
1225
1226
1227
1228
1229
123
1231
1235
1237
1238
124
1240
1241
1242
1243
1246
1247
125
1250
1254
1256
1258
126
1260
127
1270
1277
1279
128
1280
1281
1283
129
1290
1299
13
130
1300
1302
1307
1308
131
132
1320
1326
1328
133
1334
1337
134
135
1350
1359
136
1360
1362
1366
1368
137
1370
1375
1377
1378
138
1380
1381
1382
1388
1389
139
1394
1397
1398
1399
14
140
1400
1403
1404
1405
1409
141
1410
1414
1415
1419
142
1420
1425
1428
143
1430
1434
144
1441
1444
1446
1447
145
1450
1453
1454
1455
1456
1457
146
1465
1466
1468
1469
147
1470
1475
1477
1478
148
1481
1483
1484
1485
1487
149
1492
1493
1494
1497
1498
1499
15
150
1500
1501
1502
1503
1504
1505
1506
1507
151
1510
1511
1512
1514
1516
1517
1519
152
1520
1521
1522
1524
1525
1526
1527
1529
153
1530
1535
1536
1537
1538
154
1540
1543
1546
1547
1548
155
1550
1553
1554
1555
1556
1557
1558
156
1560
1561
1562
1563
1564
1566
1567
1569
157
1570
1571
1572
1576
1578
158
1580
1581
1585
1587
1588
159
1590
1595
1596
1598
16
160
1600
1602
1603
1605
1606
1609
161
1612
1613
1616
1617
1618
162
1620
1623
1626
1627
1628
1629
163
1632
1637
1639
164
1642
1644
1645
1646
1647
1648
1649
165
1650
1653
1658
166
1660
1665
1666
167
168
1680
1681
1683
1685
1687
1689
169
1690
1691
1694
1695
17
170
1700
1701
1703
1704
1705
1708
171
1710
1712
1714
1715
1718
172
1720
1721
1722
1723
1724
1725
1726
1727
173
1730
1732
1733
1734
1735
1736
174
1740
1741
1743
1747
1749
175
1750
1751
1755
1756
1757
1758
1759
176
1760
1761
1762
1763
1764
1765
1767
1768
1769
177
1770
1771
1773
1774
1775
1776
1777
1778
1779
178
1780
1781
1782
1783
1784
1785
1786
1787
1788
1789
179
1790
1791
1792
1793
1794
1795
1796
1797
1798
1799
18
180
1800
1801
1802
1803
1804
1805
1806
1807
1808
1809
181
1810
1811
1812
1813
1814
1815
1816
1817
1818
1819
182
1820
1821
1822
1823
1824
1825
1826
1827
1828
1829
183
1830
1831
1832
1833
1834
1835
1836
1837
1838
1839
184
1840
1841
1842
1843
1844
1845
1846
1847
1848
1849
185
1850
1851
1852
1853
1854
1855
1856
1857
1858
1859
186
1860
1861
1862
1863
1864
1865
1866
1867
1868
1869
187
1870
1871
1872
1873
1874
1875
1876
1877
1878
1879
188
1880
1881
1882
1883
1884
1885
1886
1887
1888
1889
189
1890
1891
1892
1893
1894
1895
1896
1897
1898
1899
19
190
1900
1901
1902
1903
1904
1905
1906
1907
1908
1909
191
1910
1911
1912
1913
1914
1915
1916
1917
1918
1919
192
1920
1921
1922
1923
1924
1925
1926
1927
1928
1929
193
1930
1931
1932
1933
1934
1935
1936
1937
1938
1939
194
1940
1941
1942
1943
1944
1945
1946
1947
1948
1949
195
1950
1951
1952
1953
1954
1955
1956
1957
1958
1959
196
1960
1961
1962
1963
1964
1965
1966
1967
1968
1969
197
1970
1971
1972
1973
1974
1975
1976
1977
1978
1979
198
1980
1981
1982
1983
1984
1985
1986
1987
1988
1989
199
1990
1991
1992
1993
1994
1995
1996
1997
1998
1999
2
20
200
2000
20000
2001
2002
2003
2004
2005
2006
2007
2008
2009
201
2010
2011
2012
2013
2014
2015
2016
2017
2018
2019
202
2020
2021
2022
2023
2024
2025
203
2030
2035
204
205
206
207
208
209
21
210
211
212
213
214
215
216
217
218
219
22
220
2200
221
222
223
224
225
226
227
229
23
230
232
234
235
236
237
24
240
241
242
244
245
247
248
249
25
250
2500
252
253
255
256
258
259
26
260
261
262
263
264
265
266
268
269
27
270
271
272
273
275
276
28
280
2800
281
282
284
285
286
287
289
28961
29
290
291
292
293
296
297
299
3
30
300
3000
301
302
304
309
31
310
311
312
314
32
320
321
322
323
324
325
327
328
329
33
330
331
332
333
334
336
337
338
34
340
341
343
346
347
349
35
350
3500
351
353
355
356
357
358
359
36
360
362
365
366
368
369
37
370
375
377
378
379
38
380
382
384
385
387
39
390
391
393
394
395
399
4
40
400
4000
401
402
404
405
406
408
41
410
411
419
42
420
424
425
426
427
428
429
43
430
431
432
44
440
4400
444
446
449
45
450
451
452
453
454
457
46
460
464
47
471
478
479
48
480
484
485
486
488
49
490
4909
493
49351
494
495
498
499
5
50
500
5000
5017
505
51
510
512
519
52
520
521
522
525
53
530
533
538
539
54
540
549
55
550
556
56
560
57
570
571
58
580
585
587
59
590
595
598
6
60
600
6000
605
61
610
617
62
620
622
625
63
630
632
634
639
64
640
644
647
65
650
651
653
654
656
66
660
661
669
67
670
671
679
68
680
681
69
690
7
70
700
7000
71
712
715
717
72
724
73
730
732
735
737
74
740
745
746
747
748
75
750
754
755
757
76
762
767
77
776
777
78
780
783
79
8
80
800
8000
81
812
813
816
82
820
821
829
83
837
839
84
840
85
850
86
864
869
87
870
872
873
874
875
88
885
89
892
9
90
900
902
907
91
910
92
925
93
930
935
94
940
946
95
950
96
960
968
97
970
973
975
978
98
980
989
99
990
993
997
998
999
:
;
<
=
>
?
@
\
^
_
a
aa
aang
aaralygynyn
aaron
ab
aba
abadan
abadanc
abadanlas
abahay
abaka
aban
abanmagyna
abany
abanyp
abanypdyr
abas
abat
abatlay
abay
abbas
abbasid
abbasidler
abbasitler
abbasy
abbasyn
abc
abd
abdal
abdallah
abdallar
abdu
abdul
abdulaziz
abdulazizin
abdulhamid
abdulhamit
abdulla
abdullah
abdullay
abdulmejit
abdylhekim
abdylkadyr
abdylkadyryn
abdylla
abdyllah
abdyllahan
abdyllay
abdyrahman
abdysetdar
abel
abgu
abhaz
abhaziy
abi
abil
ability
abiwert
abiy
able
ablon
ablona
ablonar
ablonlar
ablonlary
ablonları
ablonu
ablonun
abonent
aboral
about
above
abr
abra
abraham
abray
abraziw
abrda
abrdan
abry
abryna
abrynda
abryndaky
abryndan
abs
absar
absoly
abstract
abu
abul
abulgazy
abulgazynyn
abulkasym
aby
abyl
abylgazy
abylgazynyn
abylhay
abyn
ac
academic
academy
acceptable
accepted
accepting
access
accessed
accessible
accesskey
account
accounts
acid
across
act
action
actions
active
activities
activity
ad
ada
adada
adaky
adalar
adalarda
adalardan
adalary
adalaryn
adalaryna
adalarynda
adalaryny
adalarynyn
adalat
adalatly
adalatlylyk
adalatsyz
adalatsyzlyk
adalga
adalgany
adalgasy
adalgasynyn
adam
adama
adamda
adamdan
adamdy
adamdyr
adamka
adamlar
adamlara
adamlarda
adamlardan
adamlardyr
adamlary
adamlaryn
adamlaryna
adamlaryndan
adamlaryny
adamlarynyn
adamly
adamlyk
adams
adamsy
adamsyny
adamsynyn
adamy
adamyn
adamyny
adamynyn
adamzada
adamzady
adamzadyn
adamzat
adan
adana
adany
adanyn
adasy
adasyna
adasynda
adasyndaky
adasyny
adasynyn
adat
adatc
adatdan
adaty
adawsyz
add
added
adding
addition
additional
addnl
address
addresses
adds
ade
adi
adile
adiy
adlary
adly
admin
administrasiy
administratiw
administrator
administratorlygym
administrators
administratorship
admins
adminship
adminstratiw
admiral
admiraly
adobe
adresi
adrian
adriatik
adro
adronyn
adrosy
adsl
advance
advanced
ady
adybelli
adybir
adydyr
adyga
adyl
adylar
adyldy
adyly
adym
adymy
adyn
adyna
adynda
adyndaky
adyndan
adyny
adynyn
adyp
adypdyr
adypdyrlar
adyr
adyrda
adyrlar
adyrlary
adyry
adyryn
adyy
aeroport
af
afc
affairs
affect
affected
affecting
affects
affiche
afficher
affiliate
affiliates
afina
afiny
afinyda
afinydan
afinylylar
afinyny
afinynyn
afk
afrasiy
afrasyy
africa
african
afrigitler
afrika
afrikaans
afrikada
afrikadaky
afrikadan
afrikaly
afrikan
afrikany
afrikanyn
afro
afs
aft
after
afterwards
afyga
afygy
afygylara
ag
aga
agac
agada
agageldi
again
against
agaja
agajan
agajy
agajyn
agajyndan
agajynyn
agal
agalan
agalar
agalara
agalarda
agalardan
agalary
agalaryn
agalaryna
agalaryny
agalarynyn
agaly
agalygy
agalygyn
agalygyna
agalygyndan
agalygyny
agalygynyn
agalyk
agalykda
agalykdan
agamuhammet
agan
agany
aganyn
agar
agasy
agasyna
agasynyn
agatay
agay
agdaklyk
agdarlys
agdaryldy
agdarylmagy
agdarylys
agdaryp
agday
agdyk
agdyklyk
age
agentliginin
agesilay
aglaba
aglabasy
aglabasynyn
aglamak
aglap
aglar
aglara
aglary
aglaryn
aglaryny
aglas
aglay
agly
agmyr
agny
ago
agora
agram
agrama
agramly
agramlylygy
agramy
agramyny
agrar
agregat
agressiw
agressiy
agry
ags
agsak
agtaryp
agtarys
agty
agtygy
agtygydyr
agtygynyn
agtyklary
agtyklarynyn
agtylyga
agtylygy
agtylygyn
agtylyk
agy
agyl
agymtyl
agyn
agyna
agynda
agyndaky
agyndan
agyny
agynyn
agyp
agyr
agyrdy
agyrdylar
agyrlas
agyrlygy
agyrlyk
agyrmagy
agyrmak
agyry
agyrylan
agyrylar
agyrylary
agyryldy
agyryly
agyrylyp
agyrylypdyr
agyrylys
agyryny
agyrynyn
agyryp
agyrypdyr
agyrypdyrlar
agyrys
agys
agyz
agyzdan
agyzlaryn
agyzy
agza
agzac
agzalalyk
agzalalyklar
agzalan
agzalar
agzalara
agzalary
agzalaryn
agzalaryna
agzalaryndan
agzalaryny
agzalarynyn
agzaly
agzalyga
agzalygyna
agzalyp
agzam
agzama
agzan
agzanyn
agzap
agzasy
agzasydy
agzasydyr
agzasyna
agzy
agzybekli
agzybir
agzybirligi
agzybirligini
agzybirlik
agzybirlikde
agzyn
agzyna
agzynda
agzyndan
agzyny
ah
aha
ahal
ahala
ahalar
ahalara
ahalary
ahalarynyn
ahalda
ahaldan
ahally
ahalteke
ahaly
ahalyn
ahamc
ahan
ahasy
ahasyna
ahat
ahata
ahatc
ahatlar
ahatlary
ahaty
ahatyn
ahbar
ahead
ahemenid
ahemeniler
ahemenilerin
ahemenitler
aher
aheri
aherin
aherinde
aherleri
ahey
ahlak
ahlakly
ahlaky
ahli
ahly
ahmal
ahmed
ahmedin
ahmet
ahruh
ahruhyn
ahs
ahsan
ahslar
ahslara
ahslaryn
ahsy
ahsyy
ahu
ahun
ahunyn
ahura
ahy
ahyn
ahyr
ahyrana
ahyrda
ahyrdyr
ahyret
ahyrky
ahyrlar
ahyrlary
ahyrlaryn
ahyrlaryna
ahyrlarynda
ahyrlaryndan
ahyrlarynyn
ahyrson
ahyry
ahyryn
ahyryna
ahyrynda
ahyryndaky
ahyryndan
ai
aids
ain
air
airplay
airport
ais
aiw
aja
ajal
ajax
ajay
ajy
ajygy
ajyk
ajyklar
ajyklary
ajyklaryn
ak
aka
akabe
akademigi
akademik
akademiki
akademiy
akalary
akalarynda
akan
akar
akasy
akasynda
akasyndaky
akasyny
akasynyn
akbar
akc
akda
akdaky
akdakylar
akdakylary
akdan
akden
akdepe
akdy
akdylar
akdyryly
akgala
akgap
akgaplary
akgoy
akitler
akja
akkad
akkra
akky
aklama
aklamak
aklamalar
aklamalara
aklamalaryna
aklamany
aklamasy
aklan
aklanyly
aklar
aklara
aklarda
aklary
aklaryn
aklaryna
aklarynda
aklaryny
aklarynyn
aklawjy
aklay
aklendiriji
akly
aklygy
aklygyn
aklygyna
aklyk
aklylar
aklyn
akma
akmaga
akmagy
akmak
akmay
akmyrat
aknas
aknys
akow
akpamyk
aks
aksa
aksakgallar
aksaray
aksioner
aksiy
akt
aktiw
aktokay
aktrisa
aktrisasy
aktry
aktrysa
akty
akubowskiy
akup
akustiki
akut
akwatoriy
aky
akyda
akydasy
akyl
akylan
akyldar
akyldarlar
akyldarlary
akyldarlaryn
akyldary
akyldaryn
akylly
akyly
akylygy
akylyk
akylyn
akylyp
akym
akyma
akymlar
akymlary
akymlaryn
akymlaryna
akymlarynda
akymlarynyn
akymly
akymsyz
akymy
akymyn
akymyna
akymynda
akymyndaky
akymyny
akymynyn
akyn
akynda
akyndan
akyndyr
akynlarynda
akynlas
akyny
akynynda
akynyndaky
akyp
akypdyr
akyr
akys
al
ala
alabama
alabay
alac
alada
aladalary
aladasy
aladasyny
alaeddin
alaja
alamanc
alamat
alamatlandyry
alamatlar
alamatlara
alamatlary
alamatlaryn
alamatlaryny
alamatlarynyn
alamatsyz
alamaty
alamatydyr
alamberdaryn
alan
alanan
alanc
alanda
alandan
alandygy
alandygyny
alandyr
alanlar
alanlaryn
alanlaryndan
alanmagy
alanmagyna
alanmagynyn
alanson
alanyn
alanyndan
alap
alar
alara
alarda
alardaky
alardan
alary
alaryn
alaryna
alarynda
alaryndan
alaryny
alarynyn
alarys
alas
alasyn
alasynlyk
alay
alba
alban
albaniy
albert
alberto
albom
albomda
albomlary
albomy
albomyn
albomynda
albomyny
albomynyn
album
alc
aldan
aldap
aldaw
aldawa
aldi
aldo
aldy
aldylar
aldym
aldyrmak
ale
aleks
aleksandr
aleksandra
aleksandriy
aleksandrowyn
aleksandryn
aleksey
aleppo
alexander
aley
alfa
alfred
alfredo
algebra
algebraik
algebranyn
algir
algiris
algoritm
algoritmlerine
algy
algynyn
ali
aliases
alice
align
alija
alis
aliy
aljak
aljyran
alka
alkogol
alkymynda
alkys
all
alla
alladan
allah
allaha
allahdan
allahu
allahumme
allahy
allahym
allahyn
allan
allanazarow
allanur
allany
allanyn
allar
allara
allarda
allardan
allary
allaryn
allaryna
allaryndan
allaryny
allarynyn
allatagala
allatagalanyn
allay
alle
alleborgobot
allergiki
allergiy
alliance
allow
allowed
allows
allylyk
alma
almady
almaga
almagy
almagyn
almagyna
almagyny
almagynyn
almak
almakc
almakda
almakdan
almakdy
almaklary
almaklyga
almaklygy
almaklyk
almaly
almalydy
almalydyr
alman
almaniy
almanyn
almaty
almay
almaz
almazdan
almeida
aln
alnan
alnanda
alnandan
alnyp
alnypdy
alnypdyr
alnys
alo
along
alp
alpak
alpha
alphabet
alpyldawuk
already
als
alsa
alsak
alsan
also
alt
alta
altalyk
altay
alternative
alternatiw
alternatiwasy
although
altlas
altlygyndaky
altlyk
altmys
alto
alty
altymyrat
altyn
altyna
altyndan
altyndepa
altyndepe
altyndepede
altynjy
altyny
altynyn
alvarado
alves
always
aly
alyan
alyar
alyda
alydy
alydyr
alyga
alygy
alygyn
alygyna
alygynda
alygyny
alygynyn
alyjy
alyjylar
alyjylyk
alyk
alykda
alyklar
alyklary
alyklaryn
alylar
alylara
alylardan
alylary
alylaryn
alym
alymdas
alymdyr
alymlar
alymlara
alymlary
alymlaryn
alymlaryna
alymlaryndan
alymlarynyn
alymlyk
alymtyl
alymy
alymyn
alyn
alyna
alynan
alyndan
alyndy
alynjagy
alynky
alynmady
alynmadyk
alynmagy
alynmagyny
alynmagynyn
alynmaly
alynmalydyr
alynmay
alynsa
alyny
alynyn
alynyp
alynypdyr
alyp
alypdy
alypdyr
alypdyrlar
alys
alytegin
alyy
alz
alıs
am
ama
amaga
amagy
amagyn
amagyna
amagyndan
amagyny
amagynyn
amak
amal
amala
amaldan
amallar
amallara
amallary
amallaryn
amallaryny
amallarynyn
amaly
amalyn
aman
amana
amanadyny
amangeldi
amangu
amanlyk
amanov
amanow
amanulla
amany
amanyn
amar
amarelo
amat
amata
amatly
amatlydy
amatlydyr
amatlyklary
amatsyz
amay
amazonka
ambary
ambassadors
ambedkar
amc
amda
amdan
ame
america
american
americans
amerika
amerikada
amerikadaky
amerikadan
amerikally
amerikaly
amerikalylaryn
amerikan
amerikanlar
amerikanlaryn
amerikany
amerikanyn
amerikasy
amerikasynyn
amin
amir
amlanan
amlanyp
amlar
amly
amlyk
amon
among
amor
amores
amorey
amortizasiy
amount
ams
amsterdam
amul
amur
amy
amydery
amymyzdan
amymyzyn
amyn
amyna
amynda
amyny
amynyn
amyrat
amyz
amyza
amyzyn
an
ana
anadola
anadoly
anadolyda
anadolydaky
anak
anakkale
anaklar
anaklaryn
anaklyk
anal
analitiki
analiz
analizleny
analysis
anama
anan
ananas
anand
ananda
anany
anar
anas
anat
anatoliy
anatomiki
anatomiy
anbas
anbe
anc
ancient
and
anda
andalybyn
andalyp
andan
andijan
andiy
andorra
andre
andreas
andrew
andrey
android
andun
anduny
andy
andybil
andygy
andygyna
andygyndan
andygyny
andyklary
andyklaryna
andyklaryny
andyny
andyr
andyrlar
aneslinin
anestezi
anew
ang
angan
angily
angliy
anglo
angola
angolanyn
angyc
angyjyn
angyn
angynda
anhay
ani
animasion
animasiy
animated
animation
animator
anime
anin
anjy
anjygy
anjygyn
ankara
ankarada
ankaradaky
ankaranyn
anlar
anlara
anlarda
anlardan
anlary
anlaryn
anlarynda
anlaryndan
anlaryny
anlarynyn
anly
anlyga
anlygy
anlygyny
anlyk
anma
anmak
anmar
ann
anna
annaberdi
annaberdiy
annageldi
annagylyc
annama
annamuhammet
annanepesow
annanepesowyn
annanow
anne
anneksiy
announce
announced
announcement
announcements
announcing
annual
ano
anonymous
anonymousyn
anos
another
anr
anri
anry
ans
ansambly
anson
answer
ansyz
anszy
ant
antaly
antanta
antantanyn
antarktida
anti
antibiotikler
antik
antikythera
antioh
antiokas
antiokiy
antiwirus
antlary
anto
antologiy
anton
antonin
antoninin
antonio
antoniy
antropogenezde
antropologik
antropologiy
anus
anwar
anwarda
anwary
anwaryn
anwaryna
anwarynda
anwaryndan
any
anyc
anydyr
anyk
anyklamaga
anyklamak
anyklamakda
anyklamaly
anyklandy
anyklanyldy
anyklanyly
anyklap
anyklay
anyklyk
anyn
anyna
anynda
anyndaky
anyndan
anyny
anynyn
anyone
anyp
anypdyr
anys
anything
anz
ao
aol
aopin
ap
apa
apak
apar
apat
apata
apawulc
apbas
apdan
apdy
apdyr
apdyrlar
apek
apennin
apgyt
api
apk
apkasyny
aplaryn
apmak
apologies
apologize
apon
aponc
aponiy
aponlar
aponlara
aponlaryn
apos
app
apparaty
appear
appearance
appears
appendektomiy
apple
application
applications
apply
appreciate
appreciated
approach
appropriate
approval
apps
apr
apragy
apragyn
apragynyn
aprak
apraklary
apraklaryn
apraklaryndan
apraklaryny
aprakly
apraz
aprel
aprelde
aprelin
aprelinde
apresentador
april
apuliy
apur
apurda
apy
apyk
apylan
apyldy
apylmagy
apyly
apylyp
apylys
apyp
apys
ar
ara
arab
araba
arabaglans
arabaglanys
arabic
arabystan
arabystany
arabystanyn
arabystanynyn
arac
arada
aradan
aradyjy
aradylys
arafa
arafat
arafata
arafatda
arag
araga
aragatnas
araglanan
araglanys
araglar
araglary
araglaryn
araglaryny
aragly
aragon
aragy
aragyn
aragyny
aragynyn
arak
araks
aral
aralandy
aralany
aralar
aralary
aralarynda
aralaryndaky
aralas
aralocaspius
araly
aralyga
aralygy
aralygyna
aralygynda
aralygyndaky
aralygyny
aralyk
aralykda
aralykdaky
aralykdyr
aralyklara
aram
aramay
aramaz
aramazlas
aramc
aramey
aramga
aramly
aramsyz
aran
aranlar
aranlary
aranlarynyn
aranlygy
aranlyk
arantes
arany
arap
arapc
araplar
araplara
araplardan
araplary
araplaryn
araplas
arapmuhammet
arar
aras
arassa
arassac
arassalamak
arassalanan
arassalanmak
arassalany
arassalap
arassalay
arassalygy
arasy
arasyna
arasynda
arasyndaky
arasyndan
arasyny
arat
arata
aratapawut
aratc
araty
arawsyz
aray
arbekir
arbitraz
arby
arc
archaeology
archive
archives
ard
arda
ardahan
ardaky
ardam
ardamy
ardan
ardas
ardy
ardygyny
ardylar
ardym
ardypdyr
ardyr
are
area
areas
aren
arena
aretha
argac
argentina
argentinada
argentinanyn
arheolog
arheologik
arheologiki
arheologiy
arheologlar
arheologlary
arheologlaryn
arhipelagynyn
arhitektor
arhitektura
arhitekturasy
arhitekturasynda
arhitekturasynyn
arhiw
arhiwi
arhiwlendi
arhiwlenen
arhont
ari
ariana
arianc
arifmetika
ariler
aristokratik
aristokratiy
aristotel
aristotelin
ariy
arizona
arizonanyn
arjan
ark
arka
arkada
arkadagymyzyn
arkadas
arkalar
arkalary
arkalas
arkaly
arkan
arkanzas
arkasy
arkasyna
arkasynda
arkasyndan
arkay
arky
arl
arlady
arlamaga
arlamagy
arlamagyn
arlamak
arlamakda
arlan
arlanan
arlandy
arlany
arlanylan
arlanyldy
arlanyly
arlanylys
arlanyp
arlanypdyr
arlap
arlapdyr
arlar
arlara
arlardan
arlary
arlaryn
arlaryna
arlaryny
arlarynyn
arlay
arler
arli
arly
arlygy
arlygyny
arlyk
arlyklar
arlyklary
arlyklaryny
arlyklarynyn
arlykly
arlylygyny
arlylyk
arlz
armak
arman
armay
armenian
armiy
army
armyt
arnama
arnyksyz
aroslaw
around
arpa
arpadan
arpy
arrondi
ars
arsa
arsak
arsenal
arslan
arslanyn
arso
arsyn
art
artaban
artanda
artar
artbujak
artbujakda
artdy
artdyrar
artdyrdy
artdyrmaga
artdyrmagyn
artdyrmak
artdyrmakda
artdyry
artdyryldy
artdyryp
artdyrypdyr
arteriy
article
articles
artilleriy
artist
artisti
artists
artmady
artmagy
artmagyna
artmagyny
artmandyr
artmay
artmaz
arts
artur
arty
artyk
artykmac
artyp
artypdyr
artys
aruz
arwa
arwac
arwalar
arwalaryn
ary
arydyr
aryf
arygulyy
arygyn
aryk
arym
arymadasy
arymadasynda
arymadasynyn
aryms
arymy
arymyna
arymynda
arymyndaky
arymyndan
arymyzda
arymyzyn
aryn
aryna
arynda
aryny
arynyn
aryp
arypdyr
arypdyrlar
arys
arysy
arysyna
arysyndan
arysyny
aryy
arz
arza
arzan
arzasy
arzuw
arzuwlary
arzuwlaryny
arzuwy
arzyly
as
asa
asalan
asaldy
asaly
asalyp
asalypdyr
asalys
asama
asamagy
asamak
asan
asap
asapdyr
asapdyrlar
asat
asata
asatc
asatda
asatdan
asatlary
asatnama
asaty
asatyn
asatyna
asatynda
asatyndan
asatyny
asatynyn
asawy
asawynyn
asay
asbox
aseddin
asenem
asgabat
asgyn
ashay
ashgabat
asi
asia
asian
asion
asiy
ask
aska
asked
asking
asla
asly
aslynda
aslyny
aslyy
asman
asmana
asmanda
asmandan
asmany
asmanyn
asp
aspects
aspirantura
aspx
asryn
ass
assambley
assiriy
assisted
associate
associated
association
assosiasiy
assy
astanababa
astrabadyn
astrabat
astrahan
astranomiy
astrid
astro
astrofizika
astrologiy
astroly
astronom
astronomik
astronomiki
astronomiy
astronomy
asty
astyna
astynda
astyndady
astyndaky
astyndan
asuda
asudalygy
asudalyk
asy
asydy
asydyr
asyl
asyldas
asylly
asyn
asyna
asynda
asyndaky
asyndan
asyny
asynyn
asyp
asyr
asyra
asyrda
asyrdaky
asyrdan
asyrlap
asyrlar
asyrlara
asyrlarboy
asyrlarda
asyrlardaky
asyrlardan
asyrlary
asyrlaryn
asyrlarynda
asyrlyk
asyry
asyryn
asyryna
asyrynda
asyryndan
asyrynyn
asyz
at
ata
atabay
atabeg
atabegi
atadan
atagarryy
atagy
atajan
atajanow
ataklary
ataklaryny
ataklarynyn
atako
atalar
atalary
atalay
atalyk
atamyn
atamyrat
atamyz
atamyzyn
atan
atanak
atandan
atany
atanyn
atanyy
atar
atara
atas
atasy
atasyna
atasynyn
atatu
ataturk
atay
atc
atda
atdaky
atdan
atdy
atdyr
atey
atgy
atgydan
atgynyn
atin
atka
atkes
atlady
atlama
atlamak
atlamalar
atlamalary
atlamalarynda
atlamasy
atlanan
atlandyran
atlandyrdy
atlandyrdylar
atlandyrmak
atlandyry
atlandyrylan
atlandyryldy
atlandyryly
atlandyrylyp
atlandyrylypdyr
atlandyrylys
atlandyryp
atlandyrypdyr
atlandyrypdyrlar
atlantic
atlantik
atlany
atlanyly
atlanyp
atlap
atlar
atlara
atlarda
atlardaky
atlardan
atlardyr
atlary
atlaryn
atlaryna
atlarynda
atlaryndan
atlaryny
atlarynyn
atlas
atlay
atletika
atlow
atly
atlygy
atlygyna
atlygyny
atlyk
atlykly
atlylary
atlyny
atlysy
atlıkarınca
atma
atmaga
atmagy
atmak
atmaly
atmaz
atmosfera
atmosferanyn
atolla
atom
ator
atrygy
atrygynda
ats
atsen
atsenin
atsyz
atsyzyn
attar
attaryn
attend
attended
attention
attika
attikanyn
aty
atyjy
atylan
atylar
atyldy
atyly
atylyp
atymyzda
atymyzyn
atyn
atyna
atynda
atyndaky
atyndan
atynde
atyny
atynyn
atyp
atypdyr
atyr
atyrdy
atyrka
atyrmaga
atyrmagy
atyrmak
atyrmakda
atyry
atyrylan
atyrylandan
atyryldy
atyrylmagy
atyryly
atyrylyp
atyrylypdyr
atyryp
atyrypdyr
atys
au
audio
auditoriy
august
aus
austrian
authority
autizm
autizmli
auto
autocad
automated
automatic
automatically
autonomous
autorun
autre
aux
available
avec
avengers
avenida
aventuras
average
aviation
avicenna
avoid
aw
awa
awar
award
awards
awatar
away
awaza
awc
awda
awesta
awestada
awestanyn
awfy
awgust
awgusta
awgustda
awgusty
awgustyn
awgustynda
awgustyndan
awiasion
awiasiy
awiator
awlamak
awlay
awly
awrat
awrelian
awreliy
awstraliy
awstriy
awstro
awt
awtobus
awtomatik
awtomatiki
awtomatlas
awtomenzilin
awtomobil
awtonom
awtonomiy
awtor
awtorlar
awtorlary
awtorlaryn
awtorlarynyn
awtory
awtorydyr
awtoryn
awtoulag
awtoulaglar
awtyny
awus
awy
awyn
awyny
awynyn
axe
ay
ayal
ayaly
ayan
aydym
ayratyn
ayry
ayrıca
aywi
aywiler
ayys
az
aza
azaby
azabyndan
azada
azadasy
azady
azadynyn
azajyk
azaldy
azaldyp
azalmagy
azalmagyna
azaltdy
azaltmaga
azaltmak
azaly
azalyp
azalypdyr
azan
azap
azar
azarbey
azary
azarydyr
azas
azat
azatlyga
azatlygy
azatlygyny
azatlyk
azatlykdan
azatlyklar
azatlyklary
azatlyklaryny
azda
azdan
azdy
azdylar
azdyr
azenany
azerbaijan
azerbay
azerbey
azga
azgardy
azgary
azgaryp
azguly
azgy
azgyda
azgylar
azgylara
azgylarda
azgylary
azgylarydyr
azgylaryn
azgylaryna
azgylarynda
azgylaryny
azgylarynyn
azgyly
azgyny
azgynyn
azgysy
azgysyna
azgysyny
azgysynyn
azi
aziada
azit
aziy
aziya
aziyanyn
azlan
azlar
azlary
azlygy
azlygyn
azlyk
azlyklar
azlypdyr
azlyy
azma
azmac
azmaga
azmagy
azmagyn
azmagyna
azmak
azmakda
azmalar
azmalary
azmaly
azman
azmanyn
azmet
azow
azowyn
azrak
azuw
azuwda
azuwy
azuwymyzdyr
azuwyn
azuwyna
azuwyny
azuwynyn
azy
azyja
azyjy
azyjylar
azyjylara
azyjylary
azyjylaryn
azyjylarynyn
azyjyny
azyjynyn
azyjysy
azyk
azylan
azylandygy
azylandyr
azyldy
azylmadyk
azylmagy
azyly
azylyp
azylypdy
azylypdyr
azylys
azymow
azyn
azyna
azynda
azyndan
azyp
azypdyr
azypdyrlar
azyr
azyrlar
azys
azərbaycan
b
ba
baas
bab
baba
babadan
babaday
babalary
babalarymyz
babalarymyzdan
babalarymyzyn
babalaryn
babalarynyn
babanyn
babarap
babasy
babasyl
babatda
babatdaky
babatynda
babay
babbit
babegin
babeziy
babitlerin
babur
baby
babyr
babyryn
bac
back
background
bad
bada
badalga
badam
baden
bady
badyna
bae
bag
baga
bagama
bagana
baganalar
bagananyn
bagban
bagbanc
bagc
bagdad
bagdada
bagdady
bagdadyn
bagdat
bagdatda
bagdatdaky
baglanan
baglans
baglany
baglanys
baglap
baglar
baglary
baglaryn
baglas
baglay
bagly
baglydy
baglydygyny
baglydyr
baglylygy
baglylykda
bagra
bagryn
bags
bagt
bagta
bagtly
bagty
bagtyn
bagtyna
bagtyy
bagy
bagynda
bagyr
bagys
baha
bahadan
bahadur
bahadyr
bahalar
bahalary
bahalaryn
bahaly
bahana
bahanasy
bahar
baharly
baharynda
bahasy
bahasyna
bahasyndan
bahasyny
bahasynyn
bahman
bahramow
bahrey
bahriye
bak
baka
bakalawr
bakan
bakara
bakja
bakmak
bakna
baknadar
baknalyga
baknalygy
baknalyk
baknalykdan
baknalyklarda
baknalyklaryn
baknasy
baknasyna
bakteriologiki
bakteriy
baktriy
baku
bakuda
bakuw
bakuwda
baky
bakylmagy
bakyly
bakylyk
bakyp
bal
bala
balaryc
balarylary
balc
balchik
baldagy
baldagyn
baldan
balet
balh
balha
balhda
balhy
balkan
balkanabat
balkanda
balkanlar
balkanlarda
balkanlardaky
ballandor
ballon
baltika
baly
balygy
balygyn
balyk
balykc
balyklar
balyklary
balyklaryn
balykly
balzak
balzam
bamy
ban
bana
banan
band
bang
bangkok
banglades
bangladesh
bank
banka
bankda
banklar
banklary
banklaryn
banklarynyn
bankomat
banky
bankyn
bankynda
bankynyn
banner
bans
banska
bantu
bany
bap
bapdan
bar
bara
barabar
barabardy
barabardyr
barada
baradadyr
baradaky
barak
baran
baranda
baranynda
baranyndan
barasynda
barasyndaky
barbera
barcelona
barda
bardasy
bardasynyn
bardy
bardygy
bardygyna
bardygyny
bardylar
bardyr
barha
bari
barjak
barka
barlag
barlagc
barlagdan
barlaglar
barlaglary
barlaglaryn
barlaglaryny
barlaglarynyn
barlagy
barlamak
barlan
barlap
barlay
barly
barlygy
barlygyna
barlygyny
barlyk
barlyklaryn
barlypdyr
barlys
barmady
barmaga
barmagy
barmagyn
barmagyna
barmagyny
barmak
barmakdan
barmaklaryn
barmaly
barman
barmandyr
barmay
barmy
barokko
baron
barrere
bars
barsa
barsan
barselona
bartatua
bartold
bartoldyn
bary
barybir
baryjy
baryjysy
barylan
baryldy
baryly
barylypdyr
baryn
baryny
baryp
barypdyr
barypdyrlar
barys
barysy
bas
basan
basar
basarow
basdy
base
based
basga
basganc
bashardy
bashga
basic
basiley
basketbol
basketbolc
baskı
baslady
baslap
basles
basma
basmac
basmagy
basmak
basny
basra
bassey
basy
basybalyjy
basybalyjylar
basybalyjylara
basybalyjylary
basybalyjylaryn
basybalyjylaryna
basybalyjylykly
basybalys
basylanda
basylyp
basym
basyp
basypalys
basypdyr
basys
basım
bat
bata
batan
batgalyk
batgalyklar
bathyz
bathyzyn
batly
batman
battle
baty
batyl
batyp
batyr
batyrgay
batyrlygy
batyrlyk
batyrow
batyrowic
batyry
batyryn
bawariy
bay
baydak
baza
bazaar
bazalary
bazalt
bazar
bazara
bazarda
bazarlar
bazarlarda
bazarlary
bazarlaryna
bazarlarynda
bazarow
bazary
bazaryn
bazaryna
bazarynda
bazaryndaky
bazarynyn
bazasy
bazasynda
bazasyny
bb
bbc
bc
bcnster
bd
bdiru
be
beat
beatles
bebe
bec
because
become
bede
beden
bedenda
bedende
bedenden
bedene
bedeni
bedenin
bedeninde
bedenine
bedenini
bedeninin
bedenleri
bedenli
bedenterbiy
bedew
bedewi
bedewinin
bedewler
bedewleri
bedewlerin
bedewlerine
bedewlerini
bedewlerinin
bedirkent
bedwinler
been
before
beg
begdili
bege
begenc
begi
begin
beginning
begins
begler
begleri
beglerin
beglerinin
begligi
beglik
begun
begzadalar
begzadalary
begzadalaryn
begzadalarynyn
behalf
behavior
behind
behis
behistun
beijing
beijo
being
beingmuslimamerica
bejergi
bejergiden
bejergidir
bejergiler
bejergini
bejerginin
bejergisi
bejergisinde
bejergisini
bejerilen
bejerilis
bejerily
bejerip
bejeripdirler
bejeris
bejermegin
bejermek
bejermekde
bejery
bek
beka
bekdas
bekedi
bekedine
bekedlary
beket
beki
bekir
bekla
beklemek
beklemeli
bekley
beklik
bekon
bekr
bekre
bel
bela
belarus
belarussiy
belasy
belende
belent
belentdir
belentlige
belentligi
belentlikde
belentliklerine
belet
belge
belgeleme
belgi
belgileny
belgiler
belgileri
belgili
belgisi
belgisini
belgiy
belgrad
beliz
belki
bell
bella
belledi
bellediler
bellemegine
bellemek
bellemeli
bellemelidir
bellendi
bellenen
bellenildi
bellenilen
bellenilip
bellenilipdir
bellenilis
bellenily
bellenilyar
bellenip
bellenipdir
belleny
belley
belli
bellidi
bellidir
bellige
belligi
bellik
bellikler
bellikleri
belok
beloklar
beloklary
beloklaryn
belorus
belorussiy
below
bely
bem
ben
benda
bende
bender
bendertu
bendi
bendin
benefit
bengal
bengaliy
beni
benin
benjamin
benson
bent
bentden
bentler
bentleri
beo
beotiy
ber
berber
berc
berda
berde
berdi
berdiler
berdimli
berdimuhamedow
berdimuhamedowyn
berdimuhammedow
berdimyrat
berdin
berdinazar
berdiy
bereket
bereketli
beren
berende
berenden
berendigi
bereni
berenin
berer
bererdi
bererin
berga
bergi
bergidarlyk
bergisi
bergisini
berhiz
beri
beriji
berildi
berildigi
berilen
berilende
berilendir
berilip
berilipdir
berilis
beriljek
berilma
berilmagan
berilmedi
berilmedik
berilmegi
berilmegine
berilmegini
berilmeli
berilmelidigi
berilmelidir
berilmey
berilse
berily
berilya
berilyar
berin
berinda
berinde
berine
berini
berinin
berip
beripdi
beripdir
beripdirler
beris
berishingiz
berjay
berjek
berk
berka
berkarar
berkeli
berkey
berkidildi
berkidilen
berkidilipdir
berkidily
berkidip
berkidipdir
berkidy
berkitdi
berkitma
berkitme
berkitmek
berkitmekde
berkitmeler
berkitmeleri
berkitmeli
berkles
berkligi
berkligine
berklik
berky
berlen
berlende
berlendir
berleri
berli
berlin
berlinde
berlinin
berlip
berlipdir
berma
berme
bermedi
bermegi
bermegin
bermegine
bermegini
bermek
bermekde
bermekden
bermekdir
bermeklige
bermekligi
bermeli
bermelidigini
bermelidir
bermey
bermez
bermezlik
bern
bernard
berns
bers
berse
bersen
bert
bertels
bery
berya
beryar
bes
besmele
bessarabiy
best
bet
beta
betbagtc
beter
beterles
beton
better
between
bey
beyaz
beyik
beyleki
beyond
beza
bezeg
bezegde
bezegi
bezegler
bezegleri
bezegli
bezelen
bezelipdir
bezelis
bezely
bezemek
bezey
bezmia
bf
bg
bhe
bheli
bhesiz
bhesizdir
bi
bibi
bibliografiy
bibliographic
bibliy
bic
biderek
bido
bidu
big
bigu
bije
bikanun
bil
bila
bilbil
bildi
bildiler
bildirdi
bildirdiler
bildiren
bildirily
bildirip
bildiris
bildirmek
bildiry
bile
bilejik
bilek
bileles
bilelikda
bilelikde
bilelis
bilemok
bilen
bilenem
bilenok
biler
bilerdi
bileris
bilerler
bilersin
bilezik
bilge
bilges
bilgi
bili
bilim
bilime
bilimi
bilimin
bilimine
bilimini
biliminin
bilimler
bilimleri
bilimlerin
bilimlerini
bilimli
bilin
biline
bilinen
biliner
bilinjek
bilinjekdigini
bilinmey
bilinmez
biliny
bilip
bilipdir
bilipdirler
bilis
biljek
biljekdi
biljekdigine
biljekdigini
bilkastlay
bill
billboard
bilma
bilme
bilmedi
bilmedik
bilmediler
bilmedim
bilmegi
bilmejegini
bilmejek
bilmek
bilmeli
bilmersin
bilmese
bilmey
bilmez
bilmezlik
bilner
bils
bilse
bilsen
bilsin
bily
bimo
bin
bina
binac
binada
binaga
binalar
binalarda
binalary
binalaryn
binalarynyn
binanyn
binasy
binasynda
binasyny
binasynyn
binde
binden
bine
bing
bini
binin
binomial
biny
bio
biodiversity
biodu
biografiy
biographies
biography
biohimiki
biologik
biologiki
biologiy
biosfera
biota
biperway
bir
biragyzdan
birahat
biraz
birbada
birden
birdenka
birdir
bire
birege
biregi
biregin
birek
birem
birentek
birey
birgiden
birhili
biri
biride
biridi
biridigini
biridir
birigip
birikdirildi
birikdirilen
birikdirilmegi
birikdirily
birikdirip
birikdiripdir
birikdirmek
birikdiry
birikmegi
birikmek
birin
birinde
birinden
birine
birini
birinin
birinji
birinjiden
birinjisi
birisi
birkemsiz
birle
birleri
birlerinde
birlerine
birlerini
birlerinin
birles
birlige
birligi
birligidir
birligine
birligini
birliginin
birlik
birlikde
birlikleri
birliklerini
birliklerinin
birma
birmen
birna
birnac
birneme
birsydyrgyn
birtopar
biruni
biruny
birunynyn
biry
birz
bis
bismark
bismilla
bisutin
bit
bitarap
bitaraplygy
bitaraplygyny
bitaraplyk
bitcoin
bitewi
bitewiligi
bitewiligini
bitewilik
bitewu
bitin
bitirdi
bitiren
bitiry
bitkoy
bitler
bitleri
bitlerin
bitmez
bity
biy
biynjalyk
biz
bizde
bizden
bize
bizi
bizin
biznes
black
blanc
blanche
blank
block
blocked
blocker
blocks
blog
bloglar
blok
blokunyn
bloky
blue
blues
bmg
bn
bo
board
bob
bobi
bodin
bodine
body
boeing
bogaz
bogazy
bogazyn
bogazynyn
bogun
bogunay
bogundan
bogunlar
bogunlarda
bogunlardan
bogunlary
bogunlaryn
bogunly
boi
boing
boks
bokurdak
bol
bola
bolan
bolanda
bolandan
bolandygy
bolandygyna
bolandygyny
bolandyklary
bolandyr
bolanlar
bolanlara
bolanlary
bolanlaryn
bolanlygy
bolanlygyndan
bolanok
bolanson
bolany
bolanyn
bolanyndan
bolar
bolardy
bolarlar
bolarmy
bolarsyn
bolarys
bolay
bolc
bold
boldugyc
boldular
boldum
boldumsaz
boldy
boldylar
boleslaw
bolgar
bolgariy
bolgarlar
boliwiy
boljagyny
boljak
boljakdy
boljakdygy
boljakdygyna
boljakdygyny
bolma
bolmady
bolmadygyn
bolmadyk
bolmaga
bolmagy
bolmagydyr
bolmagyn
bolmagyna
bolmagynda
bolmagyndan
bolmagyny
bolmagynyn
bolmajagyna
bolmajak
bolmajakdygyny
bolmak
bolmakdan
bolmaklary
bolmaklyga
bolmaklygy
bolmaly
bolmalydy
bolmalydygy
bolmalydygyny
bolmalydyr
bolman
bolmanda
bolmandy
bolmandygy
bolmandyr
bolmandyrlar
bolmanlygy
bolmanson
bolmasa
bolmasyn
bolmay
bolmaz
bolmazdan
bolmazdy
bolmazlygy
bols
bolsa
bolsada
bolsak
bolsalar
bolsam
bolsan
bolsun
bolu
bolun
bolup
bolupdur
bolupdy
bolupdyr
bolupdyrlar
bolus
boly
bolyar
bolyp
bolypdyr
bom
bomba
bombardiri
bombasyny
bombelles
bonapartyn
book
bookmark
books
bor
borc
border
bordo
bordure
borhes
boris
boristik
borjuny
borjy
born
bos
bosfor
bosgun
bosgunlar
bosniy
bospor
bossua
bossue
bostan
boston
bot
botanika
both
botmultichill
bots
botswana
bottom
botwinnik
bouygues
box
boy
boyun
boyunc
boyunca
boz
bozan
bozar
bozdy
bozmak
bozmay
bozmaz
bozsa
bozuk
bozulan
bozuldy
bozulmagy
bozulmagyna
bozulmagynyn
bozulmalar
bozulmalary
bozulmay
bozulsa
bozuly
bozup
bozupdyr
bozy
br
bra
branch
brand
brasil
brasileiro
braun
brava
bray
brazil
brazilian
braziliy
break
brend
brest
brey
bri
brill
brin
bring
brings
bristol
britan
britaniy
britannica
british
brodwey
broken
brokerc
bronhit
bronhlaryn
bros
brothers
brown
browsebar
browser
browsers
bruney
bruselloz
brusellozyn
brusilow
brut
bry
bs
bsgg
bu
bucharest
bud
budapes
budda
buddac
buddist
buddizm
budget
budun
buenos
buffalo
bug
buga
bugalter
bugday
bugra
bugram
bugs
bugu
bugurc
buhara
buharada
buharadan
buharany
buharanyn
buharest
buhari
buhary
build
building
bukuda
bul
bulagay
bulanma
bular
bulara
bularda
bulardan
bulary
bularyn
bulas
bulgur
buluc
bulug
bulut
bulutlar
bulutly
bur
bura
buraw
burc
bureaucrat
burey
burhaneddin
burhaneddinin
burkina
burna
burnun
burnundan
burnunyn
burny
bursa
burt
burun
burundi
burunow
burz
bus
business
but
butan
buthana
buthanany
buthananyn
buthanasy
buthanasynyn
butindunya
button
buttons
buy
buz
buzluk
buzluklaryn
buzly
buzz
by
byn
byny
byrial
bystrika
c
ca
cable
cache
cadre
cale
calendar
call
called
cambridge
came
camera
caminho
campaign
campeonato
can
canada
canakkale
candidacy
candidate
candidates
cannot
cap
caparbay
cape
capital
caption
car
cara
caras
card
cards
care
carlos
carlsen
carol
carpet
cartoon
cartoons
carvalho
casa
case
cases
caso
cat
cate
categori
categoria
categorie
categories
category
caused
cc
cd
cdot
ce
ceb
cell
cenli
centalauth
center
centraal
central
centre
centrica
century
ceo
certain
cest
cette
cfd
ch
championship
chan
chance
change
changed
changes
changing
channel
character
characters
charles
chart
charter
chat
check
cheers
chekhov
chelsea
chemical
chempion
chempionatynyn
chempionlar
chempiony
chess
chessgames
chi
chic
chicago
chicken
chico
children
childrens
chile
china
chinese
chipkaart
choice
choose
chosen
chris
christmas
christopher
chrome
chromium
chronicle
chuck
church
ci
cia
cifier
cilt
cin
cio
circ
citadel
citation
citations
cite
cites
citoid
city
ckoerner
cla
clans
clarity
clash
class
classic
classical
classis
clear
click
clicking
climate
clone
close
club
cn
cnn
co
code
cohors
collaborative
collapsed
collected
collection
collections
colo
color
column
columns
com
come
comics
coming
command
comment
comments
commission
committee
common
commons
commonscat
communication
communications
communities
community
como
compact
company
compass
compat
competition
complaints
complete
completed
complex
computer
con
conan
concerns
conduct
conference
confirm
conflict
conflicts
confusion
consensus
conservation
consider
consideration
consistent
constantly
consultation
contact
contain
containing
contains
content
contents
contest
context
continue
contra
contribs
contribute
contributions
contributors
control
conversation
conversations
convert
coor
coord
coordinate
coordinates
coordinator
copa
copy
copyright
corac
coragem
core
corpo
corporate
corporation
correct
corresponding
cos
cosewic
costa
cot
could
couleur
council
countries
country
court
covid
cr
crazy
cre
create
created
creating
creation
crianc
cristal
criteria
cro
cropped
cross
cryptocurrency
cs
css
cu
cula
cultural
culture
cumhuriyeti
cup
cur
current
currently
cursor
custom
customize
cut
cv
cy
cycle
cykan
cykyar
d
da
daban
dabany
dabanyn
dabara
dabaralar
dabaralary
dabaraly
dabarasy
dabarasyna
dabi
dag
daga
dagan
dagap
dagda
dagdan
daglar
daglara
daglarda
daglardan
daglary
daglaryn
daglaryna
daglarynda
daglaryndan
daglarynyn
dagly
daglyk
daglyklar
dagy
dagylar
dagyn
dagynda
dagyny
dagynyk
dagynyklygy
dagynyklyk
dagynyn
dagystan
dagystanyn
dah
daha
dahylly
daily
dak
daki
daklar
daklary
daklaryny
daklyga
daklygy
daklygyny
daklyk
dakmak
dakota
daky
dakyky
dakylan
dakyldy
dakyly
dakylypdyr
dakynmak
dakyny
dakypdyr
dakypdyrlar
dal
dalanan
dalanmaga
dalanmagy
dalanmagyn
dalanmak
dalanmaly
dalany
dalanylan
dalanylmagy
dalanyly
dalanylyp
dalanylypdyr
dalanyp
dalanypdyr
dalanypdyrlar
dalary
dalas
daly
dalydyr
dam
damar
damarlary
damarlaryn
damary
damask
damaskda
damdamc
damja
damjasy
damjasyny
dan
dana
danakan
danc
danda
dandanakan
daniel
daniy
danlar
danlara
danlarda
danlary
danlaryn
danlaryna
danlarynda
danlaryny
danlarynyn
danly
danlyk
dans
dansyz
dante
dany
danymyzda
danyn
danyna
danynda
danyndan
danyny
danynyn
danys
dar
daragty
darajyk
darak
daray
dardanel
dargady
dargadyldy
dargadyp
dargama
dargamagy
dargamagyna
dargan
darganata
dargandan
dargap
dargapdyr
dargatmak
dargay
darha
darhalaryn
darhany
darhanyn
dari
darinin
dariy
darlar
dartgynly
dartgynlyk
dartgynlylyk
dartgynlylykdan
dartmut
dartys
dary
daryn
das
dasary
dash
dasy
dasyna
dasyz
dat
data
database
datc
date
dates
datly
david
davuthabarlas
dawa
dawalar
dawalara
dawalary
dawalaryn
dawalarynyn
dawaly
dawanyn
dawasy
dawasyna
dawasyny
dawid
dawud
dawudyn
dawut
day
dayhanlar
days
dazzarkel
dc
dd
de
dead
deadline
dear
death
debaryjy
debbi
debi
debut
decade
december
decf
decide
decision
declared
dedir
default
define
definition
deformasiy
deg
degen
deger
degerli
degi
degin
degip
degirmek
degirmen
degis
degishli
degishlidir
degmez
degy
dehistan
dehistanda
dehistanyn
deitch
dek
dekabr
dekabrda
dekabry
dekabrynda
dekabryndan
dekart
deki
deklarasiy
del
dela
delegasiy
deler
delerden
delere
deleri
delerin
delerinden
delerine
delerini
delerinin
delete
deleted
deletion
delhi
deli
delide
delil
delili
delini
delisted
delivered
delivery
delos
delta
deltada
deltasynda
deluxe
dem
demdirijiler
demdirijileri
demdirijilerin
demgysma
demi
demin
demine
demini
deminin
demir
demirc
demirden
demirel
demirelin
demirgazyga
demirgazygy
demirgazygyn
demirgazygyna
demirgazygynda
demirgazygyndaky
demirgazygyndan
demirgazygyny
demirgazyk
demirgazykda
demirgazykdaky
demirgazykdan
demiri
demirin
demirmagdan
demiry
demo
demografikasy
demografiy
demographics
demokrat
demokratik
demokratiy
demokratlar
demokratlaryn
demrin
den
dengo
deniy
deniz
density
denticulatus
dep
depa
departamentinin
department
depe
depede
depeden
depego
depelerinin
depending
depesi
depesinde
depesinden
depesine
depgin
depginde
depgini
depginler
depginlerde
depin
deployed
deployment
deployments
deprecated
deprek
deprekc
depressiy
deputat
deputatlar
deputatlary
deputatlarynyn
deputatlyk
deputaty
depy
der
dera
derbi
derdi
derdine
dere
deregine
dereja
dereje
derejeda
derejede
derejeden
derejelerde
derejelere
derejeleri
derejelerini
derejeli
derejesi
derejesinda
derejesinde
derejesinden
derejesine
derejesini
derejesinin
derek
dereksiz
derga
derhal
deri
deride
deriler
derilere
derileri
derilerin
derilerine
derini
derinin
derisi
derisinden
derisini
derisinin
derjede
derman
dermanlar
dermanlary
dermanlaryn
dermanlyk
dermany
dermanyn
dern
derrew
ders
derse
dersi
dersini
dersler
dert
derway
derweza
derweze
derwezesi
derwezesini
derwezesinin
derwezewan
derwu
dery
deryasynyn
derz
des
desc
described
description
descriptions
desejo
desert
desga
desgalar
desgalary
desgalaryn
desgalaryna
desgalaryny
desgalarynyn
desganyn
desgasy
desi
design
desine
desini
desktop
deslapky
dessan
dessanc
dessanda
dessanlar
dessanlary
dessany
dessanynda
dessine
dessur
dessurlar
dessurlara
dessurlary
dessurlaryna
dessurlaryny
dessury
destino
det
detailed
details
detallary
detektiv
detroy
deutsche
deutschland
deux
deuxie
dev
develop
developed
developer
developers
development
device
devices
devito
dewid
dey
dezinfeksiy
dg
dhaka
di
dia
diagramma
diagrammasy
diagrammasynda
dialektiki
dialog
diametri
diana
dibem
dictionary
did
diego
dien
diff
difference
different
differential
diffs
dig
diga
digi
digic
digine
digini
digital
dihttps
dik
dikeldildi
dikeldilen
dikeldilip
dikeldilipdir
dikeldilmegi
dikeldilmegine
dikeldily
dikeldip
dikeldipdir
dikeldis
dikeldy
dikeltdi
dikeltma
dikeltmegi
dikeltmegin
dikeltmek
dikely
dikip
dikme
dikmeleri
dikmesi
diktator
dikuc
dil
dila
dilc
dilda
dilde
dilden
dildir
dildu
dile
dileg
dilemek
dilen
diler
dilewarlygy
diley
dili
dilidir
dilin
dilinda
dilinde
dilinden
diline
dilini
dilinin
diller
dillerda
dillerde
dillere
dilleri
dillerin
dillerinde
dillerinden
dillerine
dillerini
dillerinin
dilli
dilm
dily
dim
dimi
dimilik
dimler
dimorfizm
din
dinamiki
dinamo
dinar
dinastiy
dinda
dindar
dindarlaryn
dinde
dinden
dine
dini
dinimizde
dinin
dininde
dininden
dinine
dinini
dininin
dinler
dinleri
dinlerin
dinlerinin
dio
diokletian
diokletianyn
dip
diplom
diplomacy
diplomat
diplomatic
diplomatik
diplomatiy
diplomy
dir
dirdi
dirdiler
direct
directedissy
direction
directly
director
directorissy
direktor
direktoriy
direktory
diren
dirende
direnin
dirhem
diri
diriji
dirika
dirildi
dirilen
dirilende
dirilendir
dirilip
dirilipdi
dirilipdir
dirilis
dirilmedi
dirilmedik
dirilmegi
dirilmegine
dirilmegini
dirily
dirin
dirip
diripdir
diripdirler
diris
diriy
dirjek
dirler
dirligi
dirliginin
dirlikleri
dirma
dirme
dirmegi
dirmegin
dirmek
dirmekde
dirmekdir
dirmeklige
dirmeli
diry
dis
disable
disabled
disambiguation
disaster
discuss
discussion
discussions
disektomiy
disk
diskde
diskografiy
diskriminasiy
disney
display
displayed
displays
disruption
dissemination
dissertasiy
distinguish
distributed
distribution
diverse
diversity
divisio
division
diwan
diwana
diwanda
diwany
diwanylugatitturk
diwanyn
diwanynda
diwar
diwarda
diwarlanan
diwarlar
diwarlary
diwarlaryn
diwarlaryna
diwarlarynda
diwarlaryny
diwarlarynyn
diwarly
diwary
diwaryn
diwaryna
diwarynda
diwaryndan
diwaryny
diwarynyn
diwersifikasiy
diwiziy
diy
diyen
diyilip
diyilya
diyip
diylip
diymek
dizay
dj
dl
dlya
dmitriy
dms
dn
dnk
do
doc
document
documentation
documents
dodak
dodaklaryn
does
doesn
dog
doga
dogabitdi
dogalar
dogan
dogandan
doganlar
doganlary
doganlaryn
doganlarynyn
doganlygy
doganlyk
doganoglany
dogany
doganyn
doganyny
doganynyn
dogduk
dogdy
doglan
doglandaky
doglandan
doglup
doglupdyr
doglus
dogmagyndan
dogralan
dograma
dogruc
dogrudan
dogrudanam
dogrudygyny
dogrudyr
dogrusy
dogrusynda
dogry
dogulan
dogulanlar
doguldy
doguly
dogulyp
dogy
doha
doi
doing
dois
doit
dok
dokalan
dokaly
dokalypdyr
dokamak
dokay
dokma
dokmac
doktor
doktorlyk
doktory
doktrinasy
dokuma
dokumalar
dokumalara
dokumalaryn
dokument
dokumental
dokumentation
dokumentler
dokumentleri
dokumentlerin
dokumentlerinin
dokuz
dokuzynjy
dolan
dolanan
dolandy
dolandyran
dolandyrdy
dolandyrjak
dolandyrmaga
dolandyrmagy
dolandyrmagyn
dolandyrmak
dolandyrmakda
dolandyrs
dolandyry
dolandyryjy
dolandyryjylar
dolandyryjylara
dolandyryjylary
dolandyryjylaryn
dolandyryjysy
dolandyrylmagy
dolandyryly
dolandyrylypdyr
dolandyrylys
dolandyryp
dolandyrypdyr
dolandyrypdyrlar
dolandyrys
dolans
dolany
dolanyp
dolanypdyr
dolanys
doldurmak
doldury
doldurylan
dolduryly
dolduryp
doldy
dollar
dollara
dollardan
dollarlyk
dollary
dollaryn
dollaryna
dollaryny
dolulygyna
doly
dom
domain
domanowic
domenleri
domesticated
don
dona
donald
donation
donaueschingen
donc
done
dong
donun
dor
doros
dos
dosent
dost
dostlar
dostlary
dostlaryn
dostlarynyn
dostlas
dostlugy
dostluk
dostlukly
dostoy
dostuna
dosty
dot
double
dow
dowam
dowamly
dowamlylygy
dowamy
dowamydyr
dowamynda
dowamyndaky
dowardarc
dowla
dowlet
dowletinin
down
dowu
dowzah
doy
dr
dra
draft
drafting
drama
dramasy
dramaturg
dramaturgiy
dramaturgy
drawing
drezden
drob
drobyn
droite
drop
dropped
druz
druzhby
du
duas
dub
dubay
duc
due
duglas
dul
dular
dulla
duman
dumor
dumrul
dun
duna
dunay
dunya
dunyanin
dur
duralgalar
duralgasy
duralgasynyn
duran
duranyn
durar
durdular
durdy
durdyy
durgunlyk
during
durjak
durka
durkuny
durky
durli
durma
durmaga
durmagy
durmagyn
durmagynda
durmak
durmaly
durmalydyr
durman
durmay
durmus
durmys
durna
durnalar
durnuklas
durnukly
durnuklylygy
durnuklylygyny
durnuklylyk
durnuksyz
durs
dursa
dursun
duruly
durun
durup
durupdyr
durupdyrlar
dury
duryar
durylan
durys
dus
dush
dutar
dutary
dutaryn
dutch
duwsyz
duwsyzlygy
duwsyzlyk
duy
duz
duzak
duzlar
duzlary
duzly
duzuminde
duzy
dvd
dwigatel
dwigatelin
dwory
dx
dxe
dy
dygyny
dyk
dykma
dykyz
dykyzlygy
dyl
dylan
dylanda
dylar
dylmay
dyls
dyly
dylyp
dylypdyr
dylys
dym
dymc
dymlar
dymlary
dymlaryn
dymlaryny
dymlarynyn
dymy
dymyn
dymynda
dymyny
dymynyn
dyn
dync
dyngysyz
dynmak
dyp
dypdyr
dypdyrlar
dyr
dyran
dyrdy
dyrjak
dyrjas
dyrma
dyrmaga
dyrmagy
dyrmagyn
dyrmak
dyrmakda
dyrmakdan
dyrmaly
dyrnak
dyry
dyryjy
dyryjylary
dyrylan
dyryldy
dyrylmagy
dyrylmagynyn
dyryly
dyrylyp
dyrylypdyr
dyrylys
dyryn
dyryp
dyrypdyr
dyrypdyrlar
dyrys
dys
dyz
dyza
dz
dıs
e
each
earlier
early
earth
earthquake
easier
easily
east
eastakyn
eastern
easy
ebe
ebedi
ebediles
ebedilik
ebetey
ebjet
ebla
ebs
ebsco
ebu
ebul
ec
economic
economist
ed
eda
edara
edaralar
edaralarda
edaralary
edaralaryn
edaralaryna
edaralarynda
edaralaryny
edaralarynyn
edarasy
edarasydyr
edarasynda
edarasynyn
edarc
eddin
ede
edebi
edebiy
edebiyat
edeli
edelin
eden
edende
edenden
edendigi
edendigine
edendigini
edendikleri
edendir
edeni
edenin
edeninde
edeninden
edenler
edenlere
edenleri
edenlerin
edenson
edep
eder
ederdi
ederin
ederis
ederler
edermen
edermenligi
edermenlik
edermenlikleri
edf
edge
edi
edige
edigini
ediji
edijiler
edijilik
edil
edildi
edildigi
edilen
edilende
edilenden
edilendigi
edilendigine
edilendigini
edilendir
edileninden
edilenler
edilenlerin
edilenson
ediler
edilip
edilipdi
edilipdir
edilis
ediljek
edilm
edilma
edilmedi
edilmedik
edilmegi
edilmeginde
edilmegine
edilmegini
edilmeginin
edilmek
edilmeli
edilmelidir
edilmese
edilmey
edilmez
edils
edilse
edily
edilya
edilyar
edim
edin
edindi
edindiler
edinen
edinip
edinipdi
edinipdir
edinipdirler
edinji
edinma
edinmegi
edinmek
edinse
ediny
edip
edipdi
edipdiler
edipdir
edipdirler
edir
edirne
edis
edison
edit
edited
editing
edition
editor
editorlar
editors
edits
ediy
edlip
edson
edt
edu
eduard
eduardo
education
educational
edward
edwards
edy
edya
edyan
edyar
ee
eeg
ef
efemer
effect
effects
effort
efiopiy
efir
efire
efrat
eftalitler
eftalitlerin
eg
ega
egda
egde
egdi
egdirilen
egdirilipdir
egdirip
egdiripdir
egdirmek
egdiry
ege
egede
egeden
egeleri
egen
egeni
eger
egerde
egey
egi
egidis
egilis
egin
eginde
eginden
egindes
egine
egini
eginin
egirme
egirmec
egler
egleri
eglerine
egli
eglis
egma
egmek
egnin
egninden
egninin
ego
egrem
egri
egridabanlylygy
egriji
egs
egsan
egsilmez
egsiz
egypt
eh
ehir
ehit
ehitler
ehitlerini
ehiy
ehler
ehm
ehoslawakiy
ehoslowakiy
ehow
ehr
ehudy
ehwet
eile
either
eje
ejere
ejeresi
ejerey
ejesi
ejesine
ejesinin
eji
ejigin
ejik
ejir
ejiz
ejizla
ek
eka
ekaranc
ekaterina
ekber
ekde
ekden
ekdi
ekdiler
eke
ekebara
ekeden
ekegapanlar
ekego
ekeje
ekeles
ekelikde
eken
ekendigini
ekeni
ekenin
ekenler
ekenlere
ekenlerin
eker
ekeran
ekeranc
ekeri
ekes
ekesel
eketa
eki
ekiji
ekil
ekilde
ekildi
ekile
ekilen
ekili
ekilinda
ekilinde
ekilini
ekilinin
ekilip
ekilipdir
ekilipdirler
ekillendirilen
ekillendirilipdir
ekillendiris
ekiller
ekilleri
ekillerin
ekillerinin
ekilli
ekilliler
ekilma
ekilmegi
ekilmeli
ekily
ekim
ekimli
ekimliler
ekimsiz
ekin
ekinden
ekine
ekinler
ekinlerden
ekinlere
ekinleri
ekinlerin
ekinlerine
ekinlerini
ekinlerinin
ekiny
ekip
ekipaz
ekipdir
ekipdirler
ekirtga
ekirtge
ekirtgeler
ekirtgesi
ekis
ekla
eklenc
ekler
ekleri
eklerin
ekli
eklinde
ekline
ekma
ekme
ekmedi
ekmedik
ekmegi
ekmegin
ekmek
ekmeli
ekmey
eko
ekologik
ekologiki
ekologiy
ekonomiki
ekonomist
ekran
ekrana
ekranly
ekrem
eks
ekse
ekspedisiy
ekspediy
eksperimental
ekspir
ekspirin
eksport
ekspressionizm
ekt
ekti
ektin
ektiw
ektler
ektleri
ektlerin
ekwador
ekwatorial
ekwiwalent
eky
el
ela
elam
elamyn
elas
elbetde
elde
eldekiles
elden
eldi
eldildi
eldilen
eldilmegi
eldip
eldipdir
eldy
ele
election
elections
electrabel
eledi
elediler
elegiy
elek
eleken
elekt
elektrik
elektromagnit
elektron
elektronik
elektronika
elektrostansiy
elektrotehnika
elema
elemegi
elemek
elemekde
element
elementar
elementi
elementler
elementleri
elementlerin
elementlerini
elementlerinin
elements
elen
elena
elendi
elenen
elenipdir
elenmegi
eleny
eler
elerde
elere
eleri
elerin
elerinde
elerinden
elerine
elerini
elerinin
eles
elevation
eley
elgeleri
elgesi
elgesinin
elhenc
eli
eligi
eligible
elik
elikde
elim
elimizden
elin
elinda
elinde
elinden
eline
elini
elinin
elip
elipbiy
elipdir
elis
elit
elitre
elizabet
elizabeth
elizaweta
elizelizaweta
elkenli
ellada
eller
elleri
ellerin
ellerinden
ellerini
ellerinin
elli
ellin
ellinc
ellinistik
ellinizm
elmegi
elmegine
elmydama
elpek
else
elsin
eltdi
eltip
eltipdir
eltipdirler
eltma
eltmegi
eltmek
eltmeli
elty
ely
elzas
em
ema
email
emal
embargo
emc
emdiry
eme
emegin
emek
emeldarlaryn
emeldarlarynyn
emele
emeles
emeli
emen
emenin
emesi
emesini
emesinin
emi
emil
emiliy
emin
emine
emini
eminlik
emir
emiratlary
emiri
emirin
emirine
emirinin
emirler
emirleri
emirlerinin
emirligi
emirliginin
emirlik
emirlikleri
emirliklerinin
emis
emla
emma
emosional
emosiy
empion
empionat
empionata
empionatda
empionatlarynda
empionaty
empionatyna
empionatynda
empionatyny
empionatynyn
empionlar
empionlygy
empionlygyny
empionlyk
empiony
empire
empiy
empty
emr
emra
emre
emri
ems
emsi
en
ena
enable
enabled
enabling
enanyn
enay
enbe
enbesi
enbesinde
enc
encourage
encouraged
encyclopaedia
encyclopedia
encyclopædia
end
endamyn
endangered
ende
endemigi
endemik
enden
endenas
endesa
endigan
endigi
endigine
endigini
endik
endikler
endikleri
endiklerini
endir
endis
endokrin
ends
ene
enede
eneden
eneg
enegler
enel
eneler
enelerin
enelerinden
enelik
enem
enemiz
enen
eneolit
ener
enerc
energetik
energetika
energiy
eneri
eneris
enerligi
enerlik
enes
enesi
enesinin
enewa
enforcement
eng
engagement
engebretsen
engie
engine
engineer
engineering
engineeringenerc
engineers
england
english
enhance
eni
enily
enin
eninde
eninden
enini
enisey
eniy
enjam
enjamlar
enjamlary
enjamlaryn
enjamlarynda
enjamlaryny
enjamlarynyn
enjamlas
enjamy
enjamyn
enko
enkonyn
enkowa
enkowanyn
enlem
enler
enleri
enlerinde
enli
enlidir
enolit
ens
ensiklopedik
ensiklopediy
enson
ensure
enta
entegem
entek
enter
entered
entertainment
entoni
entry
environment
environmental
environments
enwer
enweri
eny
eo
eol
ep
epagat
epagatlydyr
epbc
epc
ependi
eper
eperc
epidemiy
epiki
episkop
episo
episode
episodes
episodio
epni
epos
eposlary
eposy
eposyn
eposynyn
equations
er
era
eramyzdan
eramyzyn
erap
erasty
erasy
erasyna
erasyndaky
erasyny
erasynyn
erbet
erbetles
erc
erda
erde
erden
erdi
erdir
erdogan
ere
erediji
eredy
ereket
ereketi
ereketin
ereketinin
eretik
eretmek
erey
ergin
ergini
erginini
eri
eridir
erif
erifde
erife
erigat
erik
erin
erinda
erinde
erinden
erine
erini
erinin
erip
eris
eritrey
eriy
erjel
erk
erkana
erkegin
erkek
erkekler
erkeklerde
erkeklerden
erkekleri
erkeklerin
erkeklerinin
erkeklik
erkgala
erki
erkin
erkine
erkinlige
erkinligi
erkinlik
erkler
erkleri
erlendi
erler
erlerda
erlerde
erlerden
erlerdir
erlere
erleri
erlerin
erlerinda
erlerinde
erlerinden
erlerine
erlerini
erlerinin
erles
erli
erligi
erlik
erlikli
ermek
ermeni
ermeniler
ermenilerin
ermenistan
ermenistana
ermenistanda
ermenistandan
ermenistany
ermenistanyn
ern
erne
ernest
ernogoriy
eroziy
erri
error
errors
ers
ersin
ersiz
ert
ertdir
erte
erteki
ertekiler
ertekilerde
ertekilere
ertekileri
ertesi
erti
ertidir
ertinde
ertine
ertini
ertir
ertirine
ertirki
ertler
ertlerde
ertlere
ertleri
ertlerin
ertlerinde
ertlerinden
ertlerine
ertlerini
ertlerinin
ertley
ertli
ertnama
ertnamada
ertnamalar
ertnamalara
ertnamalary
ertnamalaryny
ertnamany
ertnamanyn
ertnamasy
ertnamasyna
ertnamasynda
ertnamasyny
ertnamasynyn
eru
erur
erusalim
erusalimi
erwin
ery
erzurum
es
esa
esalary
esas
esasan
esasanam
esasanda
esasda
esaslanan
esaslandyran
esaslandyrdy
esaslandyry
esaslandyryjy
esaslandyryjylar
esaslandyryjylaryn
esaslandyryjysy
esaslandyrylan
esaslandyryldy
esaslandyryly
esaslandyrylyp
esaslandyrylypdyr
esaslandyryp
esaslandyrypdyr
esaslandyrypdyrlar
esaslanmak
esaslany
esaslanyar
esaslanyp
esaslary
esaslaryna
esaslaryny
esaslarynyn
esasly
esassyz
esasy
esasydyr
esasynda
esasyndan
esasyny
esasynyn
esasysy
esbaplary
esbaplaryny
esboc
escrava
ese
esen
esenguly
esenow
esenowa
eser
eserda
eserde
eserden
eserdir
eseri
eseridir
eserin
eserinde
eserinden
eserine
eserini
eserinin
eserler
eserlerde
eserlerden
eserlerdir
eserlere
eserleri
eserlerin
eserlerinde
eserlerinden
eserlerine
eserlerini
eserlerinin
esger
esgeri
esgerin
esgerini
esgerler
esgerlere
esgerleri
esgerlerin
esgerlerinden
esgerlerini
esgerlerinin
esgerli
esi
esidir
esinda
esinde
esinden
esine
esini
esinin
esir
esirler
esirleri
esirlikde
esiz
eskis
esko
esli
esma
espace
especial
especially
esperanc
espn
esse
esseden
essential
esser
essesi
essirha
est
esta
established
estate
ester
estetiki
estoniy
estrada
estrela
eswatini
eswedin
et
etapda
etaz
etbas
etc
etda
etde
etdedi
etden
etdi
etdigi
etdik
etdiler
etdiligi
etdim
etdin
etdir
etdirdi
etdirdiler
etdiren
etdirilipdir
etdirily
etdirip
etdiripdir
etdiripdirler
etdirma
etdirmek
etdiry
ete
etegi
eteginda
eteginde
etek
etekleri
eteklerinda
eteklerinde
eteklerine
eten
etende
etenden
etenson
eter
eterli
eterlidir
eterlik
eterlikdir
eterlikli
eterliligi
etginjek
etginjekler
etginjeklere
etginjeklik
ethereum
eti
etidir
etik
etika
etilen
etim
etimizi
etimizin
etimologiy
etin
etinda
etinde
etinden
etine
etini
etinin
etip
etipdi
etipdir
etipdirler
etirdi
etirdiler
etiren
etiriji
etirildi
etirilen
etirilip
etirilipdir
etirilis
etirilmegi
etirily
etirin
etirip
etiripdir
etiripdirler
etiris
etirjek
etirma
etirmegi
etirmegin
etirmek
etirmekde
etirmeli
etirse
etiry
etis
etjegini
etjek
etjekdi
etjekdigi
etjekdigini
etki
etlek
etlendirily
etlendiry
etlenen
etlenendir
etlenipdir
etleny
etler
etlerden
etlere
etleri
etlerin
etlerinde
etlerine
etlerini
etlerinin
etles
etli
etlidir
etliligi
etlilik
etlisi
etm
etma
etme
etmedi
etmedik
etmediler
etmegi
etmegin
etmeginde
etmeginden
etmegine
etmegini
etmeginin
etmejek
etmek
etmekc
etmekde
etmekden
etmekdi
etmekdir
etmekleri
etmeklige
etmekligi
etmekligin
etmeklik
etmeli
etmelidi
etmelidigine
etmelidigini
etmelidir
etmelidirler
etmese
etmesen
etmesi
etmey
etmez
etmezc
etmezden
etmezligi
etmezlik
etmis
etnam
etnama
etnik
etniki
etnograf
etnografik
etnografiki
etnografiy
etnonimi
etnonimin
etnoniminin
etnonimler
eto
etoliy
etraba
etraby
etrabyn
etrabyna
etrabynda
etrabyndaky
etrabyndan
etrabynde
etrabynyn
etrap
etrapc
etrapda
etrapdaky
etraplar
etraplara
etraplarda
etraplardaky
etraplary
etraplaryn
etraplaryna
etraplarynda
etraplaryny
etraplarynyn
etrek
etruriy
etrusk
etrusklar
etrusklaryn
ets
etse
etsede
etsek
etseler
etsen
etsin
etsiz
ety
eu
euronews
europe
european
europeanewropa
europeewropa
europeewropada
ev
eva
evaluation
even
event
events
eventually
ever
every
everyone
everything
evn
ew
ewa
ewan
ewanyn
ewbey
ewc
ewde
ewe
ewfrat
ewi
ewic
ewik
ewikler
ewiklere
ewiklerin
ewin
ewklid
ewklidin
ewliy
ewna
ewoly
ewraziy
ewrey
ewro
ewropa
ewropada
ewropadaky
ewropadan
ewropaly
ewropalylar
ewropalylaryn
ewropany
ewropanyn
ewropoid
ewsi
ewskiy
ewtanaziy
ewu
ewwal
ex
example
examples
except
exchange
excited
exe
exemple
exist
existing
exists
expand
expanded
expected
expenses
experience
experienced
experimental
experiments
expires
expiry
explanation
explorer
export
express
extend
extended
extension
external
extinct
ey
eye
eyec
eyes
eyesi
eyle
eyr
eyran
eysem
ez
ezber
ezd
ezdi
ezdinin
ezdlerinde
ezilen
ezis
eziz
ezizow
ezy
f
fa
fabrigi
fabrigy
fabrik
fabrikleri
facebook
facultatif
faculty
fadime
fahreddin
fairy
faks
fakt
faktlar
faktlary
faktor
faktorlar
faktorlara
faktorlary
faktorlaryn
fakultet
fakultetde
fakulteti
fakultetinde
fakultetine
fakultetini
fakultetinin
fakultetler
false
familia
familiy
family
famous
fan
fantastiki
fantaziy
fao
faq
far
faraby
farabynyn
faraon
faraonlary
faraonlaryn
faraony
faraonyn
farap
farer
farm
farro
fars
faruk
farz
farza
farzdygyny
farzdyr
farzlary
farzy
farzyndan
farzyny
fas
faso
faster
fataly
fath
fatih
fatiha
fatima
fatma
fauna
faunasy
faust
faut
favorite
fay
fayard
fazla
fazyletli
fazyletlidir
fazyletlisi
fc
fdc
fe
feat
feature
features
featuring
feb
february
federal
federasiy
federation
federatiw
feedback
feel
fejirden
fejrin
fellahin
fellow
feminism
fenerbahc
feodal
feodalc
feodallara
feodallaryn
feodallarynyn
fer
fera
ferdinand
ferdo
fergana
feri
ferida
fermalary
fermer
fermerler
fermerlerin
ferreira
fes
fessaliy
festa
festivals
festiwal
festiwala
festiwaly
festiwalyn
festiwalynda
feth
few
fewer
fewral
fewralda
fewraly
fewralynda
fey
ff
fi
fide
fidy
field
fields
fifa
fifth
fiji
fikh
fil
fildis
file
filename
files
filip
filipp
filippin
filippinler
filippinleri
fill
filled
film
filmde
filmi
filmidir
filmin
filminde
filmini
filminin
filmler
filmlerde
filmleri
filmlerinde
filmografiy
films
filologiy
filosof
filosofik
filosofiki
filosofiy
filosoflar
filosoflaryn
filosofy
filter
fin
final
finala
finalda
finalist
finaly
finalyna
finalynda
financial
find
fini
finikiy
finished
finlandiy
finly
fir
fire
firma
firmalar
firmalary
firmasy
firmasynyn
first
fis
fit
fitra
fitre
fitresini
five
fiwy
fiwyda
fix
fixed
fizigi
fizik
fizika
fizikanyn
fizikasy
fiziki
fiziologik
fiziologiki
fiziologiy
fk
fl
flag
flagged
flandriy
flash
flex
fley
flipp
flor
flora
florensiy
flores
florida
flot
flotunda
flotuny
flotunyn
floty
flotyny
flow
floy
fm
fo
fobos
fobosyn
focus
focused
fogo
folk
folklor
folklore
follow
followed
following
fon
fond
fonda
fonduna
fondy
fonetik
font
food
football
footballers
footballforfriendship
footnotes
for
forbes
force
ford
foreign
forget
form
forma
formada
formal
formalary
formasy
formasynda
format
formatlar
formats
formatted
formatting
formaty
former
formerly
formula
formulasy
fort
fortepiano
fortepy
forum
forumda
forumy
forumyn
forumynyn
forward
fossil
foto
fotosuratlary
found
foundation
four
fourfourtwo
fourth
fox
fr
frac
frakiy
frame
frameless
framework
fran
franc
france
francis
frank
frankfurt
frankie
franklin
frans
fransisko
fransiy
fransua
fransuz
fransuzc
fransuzlar
fransuzlara
fransuzlary
fransuzlaryn
frat
fred
frederik
fredrik
free
freedom
french
frey
friday
fridrih
friendly
friendship
from
front
fronta
frontda
frontdaky
fronty
frozen
ft
ftse
ftu
fu
full
fuller
fun
function
functionality
functions
fundamental
funding
funds
funksional
funksiy
funt
fuq
further
fut
futbol
futbola
futbolc
futbolcular
futbolcuları
futbolist
futbolo
futboly
futbolyn
futbolynyn
future
fy
fykyh
fytyr
g
ga
gaasperplas
gabada
gabady
gabadylar
gabadyn
gabahat
gabalan
gabalypdyr
gabamak
gabap
gabapdyr
gabapdyrlar
gabarc
gabat
gabatda
gabatdaky
gabatdan
gabaw
gabawa
gabawda
gabawdan
gabawy
gabay
gabon
gabriel
gabriela
gabry
gabsburglar
gabsburglaryn
gabygy
gabygynda
gabygynyn
gabyk
gabyn
gac
gad
gada
gadagan
gadagandy
gadagandyr
gadaganlyklary
gadam
gadget
gadgets
gadym
gadymdan
gadymky
gadymy
gadymysy
gadymyy
gadyr
gadyry
gadyryny
gaflat
gagauz
gahar
gaharjan
gahary
gaharyny
gahryman
gahrymanc
gahrymanlar
gahrymanlarc
gahrymanlary
gahrymanlaryn
gahrymanlarynyn
gahrymany
gahrymanyn
gaiti
gajar
gajarlar
gajarlaryn
gak
gakylygy
gakylygyn
gakylyk
gal
gala
galada
galadaky
galadan
galadriel
galadyr
galak
galalar
galalara
galalarda
galalardan
galalary
galalaryn
galalaryna
galalaryny
galalarynyn
galaly
galam
galamga
galamy
galan
galandygyny
galanlar
galanlary
galany
galanyn
galapyn
galar
galara
galary
galaryn
galas
galasy
galasyna
galasynda
galasyndan
galasyny
galasynyn
galatasaray
galaxy
galay
galdy
galdylar
galdyran
galdyrdy
galdyrmaga
galdyrmak
galdyry
galdyryjy
galdyrylan
galdyryly
galdyrylypdyr
galdyryp
galdyrypdyr
galdyrypdyrlar
gale
galerey
galiley
galindo
galisiy
galkan
galkany
galkynys
gall
galla
gallac
gallanyn
gallar
gallery
galliy
galma
galmaga
galmagy
galmagyna
galmagyny
galmagynyn
galmak
galman
galmandyr
galmay
galmaz
galp
galsa
galtaman
galtas
galy
galyar
galyberse
galybersede
galyn
galyndy
galyndylar
galyndylary
galyndylaryny
galyndylarynyn
galyndysy
galyp
galypdy
galypdyr
galypdyrlar
gam
gambiy
gamc
game
games
gamgyn
gamys
gan
gana
gananyn
ganat
ganatlany
ganatlary
ganatlarynyn
ganatly
ganatlylar
ganaty
ganatynyn
ganda
gandi
gandinin
gando
gandym
gang
ganga
ganhor
ganly
gannibal
gannibalyn
gansu
gant
gany
ganym
ganyn
ganyna
ganyndan
ganyny
gao
gap
gapda
gapdal
gapdaldan
gapdallary
gapdalynda
gapdalyndan
gaplan
gaplanan
gaplar
gaplarda
gaplary
gaplaryn
gapma
gapy
gapydan
gapylar
gapyn
gapyrga
gapyrgalaryn
gapysy
gar
gara
garabag
garabekewu
garabogaz
garada
garadag
garadagystan
garadan
garadas
garaden
garadepe
garagalpagystan
garagalpak
garagalpaklar
garago
garagoy
garagulak
garagum
garaguma
garagumda
garagumun
garagumyn
garagus
garahan
garahanly
garahanlylar
garahytay
garaja
garajaoglanyn
garakc
garako
garalar
garalaryn
garaldy
garaly
garalypdyr
garamagy
garamagyna
garamagynda
garamagyndaky
garamak
garamay
garamazdan
garamtyl
garamyk
garan
garanda
garanyn
garao
garap
garapdyrlar
garas
garaso
garasu
garawsyz
garay
garaz
garc
garda
gardan
gardas
gari
gark
garkyn
garly
garlyk
garlynyn
garlyy
garmaly
garna
garny
garnyn
garpys
garpyz
garry
garrygala
garrygalada
garrylar
garrylyk
garryy
gars
garshy
gartas
garward
gary
garyba
garyby
garybyn
garylan
garylyp
garym
garyn
garyndan
garyndas
garyndynyn
garynjalar
garynyn
garyp
garyplar
garyplara
garyplary
garyplaryn
garyplas
garyplyk
garys
gas
gasy
gasyk
gat
gatamagy
gatda
gatlaga
gatlagy
gatlagyn
gatlagyna
gatlagynda
gatlagyny
gatlagynyn
gatlak
gatlakda
gatlaklar
gatlaklara
gatlaklary
gatlaklaryn
gatlaklaryna
gatlaklarynda
gatlaklaryndan
gatlaklarynyn
gatlakly
gatly
gatnap
gatnas
gatnaw
gatnawlary
gatnawy
gatnay
gato
gaty
gatyganatlylar
gatylygy
gatyn
gatynda
gatys
gaudio
gauss
gaway
gawun
gawunyn
gay
gayo
gaz
gaza
gazaba
gazaby
gazabyna
gazagystan
gazagystanda
gazagystannyn
gazagystanyn
gazak
gazaklar
gazal
gazallary
gazan
gazana
gazanan
gazananlar
gazananlary
gazananlaryny
gazananlarynyn
gazanc
gazanda
gazandy
gazandylar
gazanjyk
gazanmaga
gazanmagy
gazanmagyn
gazanmak
gazany
gazanyar
gazanylan
gazanyldy
gazanyly
gazanylypdyr
gazanyn
gazanyp
gazanypdy
gazanypdyr
gazanypdyrlar
gazap
gazaply
gazawat
gazawlar
gazet
gazeti
gazetinde
gazetinin
gazetler
gazetlerde
gazetlerin
gaziantep
gazlar
gazly
gazlyp
gazma
gazmak
gazna
gaznada
gaznadan
gaznaly
gaznalylar
gaznalylaryn
gaznany
gaznanyn
gaznasy
gaznasyny
gaznasynyn
gaznawa
gaznawy
gaznawynyn
gazojak
gazprom
gazuw
gazy
gazyk
gazylan
gazylyp
gazyn
gazyny
gazynyn
gazyp
gazzaly
gb
gd
gda
gdr
ge
gec
gecdi
gecen
gechiren
gechirip
gecirilen
geday
gein
gektar
gektara
gektardan
gektary
gel
gela
geldi
geldiler
geldim
geldin
geldiy
gelejekde
gelen
gelende
gelenden
gelendigi
gelendigine
gelendigini
gelendir
gelenin
geleninde
geleninden
gelenje
gelenler
gelenlerin
gelenlerinden
gelenok
gelenson
geler
geles
geli
gelik
gelim
gelin
gelindi
gelinler
geliny
gelip
gelipdi
gelipdir
gelipdirler
gelis
geljege
geljegi
geljegin
geljegine
geljegini
geljek
geljekde
geljekki
gelma
gelme
gelmedi
gelmegi
gelmeginde
gelmegine
gelmegini
gelmeginin
gelmek
gelmekleri
gelmeli
gelmey
gelmez
gelmis
gelnen
gelnin
gelnipdir
gels
gelse
gelsin
gely
gelya
gelyan
gelyar
gem
gemoglobin
gen
genc
gender
gene
general
generallary
generallarynyn
generally
generaly
generate
genetika
genetiki
geni
genis
genje
genji
genofondy
genosidi
genre
genri
genrih
gente
genus
genuy
geo
geograf
geografik
geografiki
geografiy
geografy
geographic
geographical
geologik
geologiki
geologiy
geometrik
geometriki
geometriy
georg
george
georgiy
geosentrik
geosyy
gep
gepatit
gepatitin
gepatitlerin
gepin
gepla
geples
gepley
ger
gerbi
gerc
gerdenine
gerek
gerekdi
gerekdigini
gerekdir
gerekli
gereklidir
gerekmez
geri
gerim
gerime
gerimi
gerimli
gerin
gerinin
gerip
geris
german
germaniy
germanlar
germanlaryn
germany
gerodot
gerodotyn
gers
gersegowina
gersegowinany
gersegowinanyn
gersog
gertrude
gerusiy
gery
ges
geso
get
getir
getirdi
getirdiler
getiren
getirer
getiriji
getirildi
getirilen
getirilip
getirilipdir
getirilmegi
getirilmeli
getirily
getirip
getiripdi
getiripdir
getiripdirler
getirjek
getirma
getirmedi
getirmegi
getirmegin
getirmek
getiry
getirya
gets
getting
gey
gez
gezege
gezeginde
gezegine
gezek
gezekde
gezekki
gezekles
gezelenc
gezelenje
gezen
gezer
gezip
gezy
gfr
gh
gi
gibi
gibraltar
gic
gid
giden
gidende
gidenden
gider
gidilipdir
gidily
gidimli
gidip
gidipdir
gidipdirler
gidis
gidy
gidya
gif
gigiy
gija
gije
gijede
gijeden
gijeki
gijeler
gijelerine
gijesi
gijesinde
gijesine
gijesini
gijikdirma
gijira
gijra
gik
giksoslaryn
gilan
gilbert
gilda
gile
gileligini
gilelik
giler
gileri
gily
gimalay
gimn
gimnastika
gimnaziy
gimni
gimnin
gimnler
gin
ginda
ginde
ginden
gine
gini
ginin
ginli
gipotireozyn
gips
gir
giray
girdeji
girdejiler
girdejileri
girdejilerinin
girdejili
girdejinin
girdejisi
girdejisinden
girdejisine
girdejisinin
girdenek
girdey
girdi
girdiler
girdim
girelge
girelgesi
girelgesinin
giren
girende
girenden
girenin
girer
girew
girewine
girily
girip
giripdir
giripdirler
giris
girizdi
girizdiler
girizen
girizildi
girizilen
girizilendir
girizilip
girizilipdir
girizilmegi
girizilmegini
girizily
girizip
girizipdir
girizipdirler
girizma
girizmegi
girizmek
girizy
girjek
girkaniy
girl
girls
girma
girmegi
girmegin
girmegine
girmek
girmeli
girmey
girmez
girmezden
girse
girt
girtleri
giry
giryar
gis
git
gitara
gitarac
gitdi
gitdigic
gitdiler
gitjek
gitler
gitlerin
gitma
gitmegi
gitmegine
gitmek
gitmeli
gitse
gity
give
given
giving
giy
giz
gizla
gizlenip
gizlenipdirler
gizleny
gizlin
gizlinlik
gizlinlikde
gje
gjilan
gl
gladiator
glady
global
globe
globus
glum
gly
gney
gnu
go
goal
goc
god
gofmanstal
gogh
going
goja
gojaman
gok
gol
gola
golastyna
golastynda
golay
golc
gold
golda
goldady
goldadylar
goldamady
goldamaga
goldamagy
goldamagynda
goldamak
goldan
goldany
goldanyly
goldap
goldapdyr
goldapdyrlar
goldaw
goldawc
goldawy
goldawyna
goldawyndan
goldawyny
golday
goldayan
goldayaryn
golden
goll
golland
gollandiy
gollanma
gollanmasy
gollar
gollary
golliwud
gollyn
goltuk
goluny
goly
gomer
gomerc
gomerin
gomin
gomindan
gomindanyn
gomoseksuallyk
gon
gonamc
gonc
gonduras
gone
gonkong
gons
gonup
good
google
gopan
goparmak
goplit
gora
gorady
goradylar
gorag
goragc
goraghana
goraghanada
goraghanalar
goraghanalary
goraghanalarynda
goraghananyn
goraghanasy
goraghanasyna
goraghanasynda
goraghanasynyn
goragly
goraglylygy
goragsyz
goragy
goragyna
goragyny
goralan
goralmagy
goraly
goralyp
goralys
goramaga
goramagy
goramagyn
goramak
goramakda
goramaly
goran
goranmak
goranys
gorap
gorapdyr
gorapdyrlar
goray
gorie
gorkan
gorkezilyar
gorkezmek
gorkiy
gorkmak
gorkudyn
gorkuly
gorkunc
gorkup
gorkusy
gorkut
gorkuzdy
gorkuzmak
gorky
gorlary
gorlarynyn
gormon
gormonlary
gormonlarynyn
gory
gos
gospel
gotlar
gotlaryn
gov
governance
government
gow
gowac
gowagy
gowagynda
gowagyndan
gowak
gowaklarda
gowaklary
gowgaly
gowragy
gowragyny
gowrak
gowrakdy
gowrakdyr
gowrulan
gows
gowudyr
gowulandyrmagy
gowulandyrmak
gowulas
gowurak
gowus
gowusy
gowuz
gowuzyn
gowy
goy
goz
gozgalan
gozgalmay
gozgaly
gozle
gr
gra
gradni
gradus
gradusa
graf
grafika
grafiki
graham
gram
grama
gramdyr
grammatika
grammy
gran
granada
grand
grande
granit
grant
grants
graphs
gras
grateful
gray
graz
gre
great
greatest
greek
greetings
gregory
grek
grekc
grekler
greklerden
greklere
greklerin
grenlandiy
gres
gresiy
grigoriy
grin
grito
grossmey
group
groups
grow
growth
gru
grupba
gruzin
gruziy
gs
gu
guam
guarantee
guatemala
gubadag
gubay
gubernator
gubernatory
guberniy
gubury
guburynyn
guc
guda
gudac
gudas
gudrat
gudratly
gudraty
guduzlama
guerra
guide
guidelines
gujak
gujur
gujurly
gul
gula
gulaga
gulagy
gulagyn
gulagyna
gulak
gulaly
gulam
gulan
gular
gulary
gularyn
gularyna
gularynda
gularyny
gularynyn
gulbatyr
gulc
gullanan
gullandy
gullanmaga
gullanmak
gullany
gullanyp
gullanypdyr
gullanypdyrlar
gullar
gullara
gullardan
gullary
gullaryn
gulluga
gullugy
gullugyn
gullugyna
gullugynda
gullugyny
gullugynyn
gulluk
gullukc
gullukda
gullukdan
gulluklary
gulmuhammedow
gulun
guly
gum
guma
gumanistik
gumanitar
gumdag
gun
gunbatar
gunc
gundogar
guni
gunlar
gunlaryn
gunlas
gunly
gunnlar
guny
gur
gurady
guradylan
guradylar
guradylyp
guragyry
guragyrynyn
gurak
gurakc
guraklyk
gural
guralan
guraldy
guraldyr
gurallar
gurallary
gurallaryn
gurallaryny
gurallarynyn
guraly
guralypdyr
guralys
gurama
guramac
guramadyr
guramaga
guramagy
guramak
guramakda
guramalar
guramalara
guramalary
guramalaryn
guramalaryna
guramalarynyn
guramany
guramanyn
guramasy
guramasyna
guramasynda
guramasyny
guramasynyn
guran
gurap
gurapdyr
gurapdyrlar
guray
gurban
gurbandurdy
gurbanguly
gurbanma
gurbannazar
gurbannepesow
gurbanow
gurbansoltan
gurbany
gurbanyny
gurbanynyn
gurbetc
gurc
gurdu
gurdular
gurduran
gurdury
gurduryp
gurdurypdyr
gurdy
gurhan
gurhanda
gurhany
gurhanyn
gurjak
gurlan
gurlar
gurlaryn
gurlup
gurlupdyr
gurlus
gurlutay
gurlys
gurmaga
gurmagy
gurmagyn
gurmak
gurmakda
gurmaklyk
gurnalan
gurnaldy
gurnaly
gurnama
gurnamak
gurnap
gurnay
gurply
gurs
gurt
gurujy
gurujysy
gurulan
guruldy
guruljak
gurulmagy
gurulmagyna
gurultay
guruly
gurulyp
gurulypdyr
gurulys
gurup
gurupdyr
gurupdyrlar
gury
gurylan
gurylandyr
guryy
gus
gusc
gusl
gusla
guslda
guslyn
gusmak
gussa
gussaly
gusul
gusy
gusynda
gusyny
gusynyn
gutaran
gutarandan
gutaranson
gutardy
gutarmay
gutarnykly
gutary
gutaryp
gutarypdyr
guthrie
gutlug
gutly
gutlyy
gutular
gutulmys
gutusy
guw
guwanc
guwanjy
guwlar
guwlaryn
guwy
guy
guz
guzy
gvb
gwardiy
gwatemala
gwatemalada
gwiney
gx
gy
gybat
gyc
gygyry
gyl
gylaryny
gylarynyn
gyllary
gyly
gylyc
gylyjy
gylyjyn
gylyjyny
gylyk
gym
gymmat
gymmatbaha
gymmatbahaly
gymmatly
gymmatlydyr
gymmatlygy
gymmatlyk
gymmatlyklar
gymmatlyklary
gymmatlyklaryn
gymmatlyklaryna
gymmatlyklaryny
gymmatlyklarynyn
gymmaty
gymmatyn
gymmatyny
gymmatynyn
gyn
gynanan
gynanc
gynansak
gynany
gynanyp
gyny
gynyn
gypjak
gypjaklar
gypjaklaryn
gyr
gyra
gyrada
gyraden
gyralary
gyralarynda
gyran
gyrasy
gyrasynda
gyrgy
gyrgyna
gyrgync
gyrgyz
gyrgyzystan
gyrgyzystanda
gyrgyzystanyn
gyrlypdyr
gyrmanc
gyrmyzy
gyrtyc
gyry
gyryldy
gyrymsy
gyryp
gyrypdyr
gyrypdyrlar
gys
gysga
gysgac
gysgajyk
gysgalan
gysgaldylan
gysgaldyp
gysgaltmak
gysgaltmasy
gyssagly
gysy
gysylan
gysylmagy
gysylyp
gysyp
gysyz
gyt
gytc
gytlay
gytly
gyy
gyz
gyza
gyzamyk
gyzary
gyzdyrma
gyzdyryp
gyzgalan
gyzgylt
gyzgyn
gyzgynlyk
gyzgyny
gyzgynynyn
gyzlar
gyzlara
gyzlary
gyzlaryn
gyzlarynyn
gyzy
gyzyklanan
gyzyklandy
gyzyklandyry
gyzyklanma
gyzyklanmasy
gyzyklany
gyzyklanyp
gyzyklanypdyr
gyzykly
gyzyklydyr
gyzyl
gyzylarbat
gyzylbas
gyzylja
gyzylo
gyzylymtyl
gyzyn
gyzyna
gyzyny
gyzynyn
għajn
għar
h
ha
habar
habarc
habardar
habarlar
habarlary
habarlaryny
habarlas
habarly
habary
habaryna
habaryny
haber
hac
had
hadys
hadysa
hadysadyr
hadysalar
hadysalara
hadysalary
hadysalaryn
hadysalaryna
hadysalaryny
hadysalarynyn
hadysany
hadysanyn
hadysasy
hadysasyna
hadysda
hadyslarda
hadysy
hadysynda
hafi
haj
haja
hajathana
hajatlary
hajda
hajdan
hajerul
hajy
hajylaryn
hajyn
hajyna
hajynda
hajyny
hajyp
hak
hakda
hakdaky
hakdan
hakim
hakkında
haklary
haklaryny
haklarynyn
haky
hakykat
hakykata
hakykatda
hakykatdan
hakykatdanam
hakykatdanda
hakykaty
hakykatyn
hakyky
hakyn
hakyna
hakynatutma
hakynda
hakyndaky
hakyny
hakynyn
hal
hala
halac
halakara
halal
halallyk
halamay
halan
halap
halas
halasga
halat
halatda
halatlarda
halatlary
halatlarynda
halatynda
halay
halda
haldey
haldurdy
half
halif
halk
halka
halkara
halkdan
halkdyr
halklar
halklara
halklarda
halklardan
halklary
halklaryn
halklaryna
halklarynda
halklaryndan
halklaryny
halklarynyn
halky
halkym
halkymyz
halkymyza
halkymyzy
halkymyzyn
halkyn
halkyna
halkynda
halkyny
halkynyn
halkyy
hall
hally
halta
haltasy
halwasy
haly
halyc
halyf
halyfat
halyfaty
halyflyk
halyfy
halyfyn
halyl
halylar
halylary
halylaryn
halylarynyn
halyna
halynda
halyndaky
halyny
halynyn
halypa
halypasy
halys
halysy
halysynyn
ham
hamala
hamd
hamilton
hammamlar
hammurapi
hammurapinin
hamsun
hamyr
hamyrmay
hamza
hamzay
han
hana
hanafi
hanam
hanasy
hanasynyn
hanbank
hanbel
hanbeli
hanbelilere
hanberke
hanc
hand
handan
handle
handyr
hanedanlygy
hanefi
hanefilerden
hanefilere
hangeldi
hanifa
hanife
hanlar
hanlara
hanlary
hanlaryn
hanlaryna
hanlarynyn
hanlyga
hanlygy
hanlygyn
hanlygyna
hanlygynda
hanlygyny
hanlygynyn
hanlyk
hanlyklar
hanlyklary
hanlyklaryn
hanlyklaryny
hanlyklarynyn
hanna
hanow
hans
hany
hanym
hanymyn
hanyn
hanyna
hanynyn
hapa
hapalanma
hapalanmagy
hapalay
hapgyrtma
hapgyrtmanyn
happen
happening
happens
happy
har
haraba
harabac
harabalary
harabalyklary
harajatlar
haram
harama
haramdan
haramdyr
harasat
harassment
haray
harbor
harby
harbylaryn
harbylas
harc
hard
harem
harp
harpdan
harplar
harplary
harpy
harri
harry
hars
haryda
harydy
harydyn
haryt
harytlar
harytlary
harytlaryn
harytlaryny
harytlarynyn
has
hasaba
hasabat
hasabaty
hasabatyna
hasaby
hasabyn
hasabyna
hasabynda
hasabyndan
hasabyny
hasabynyn
hasabyy
hasadan
hasam
hasan
hasanyn
hasap
hasapc
hasapdan
hasaplama
hasaplamak
hasaplamalar
hasaplanan
hasaplandy
hasaplanmay
hasaplany
hasaplanyar
hasaplanyly
hasaplanyp
hasaplanypdyr
hasaplap
hasaplapdyr
hasaplapdyrlar
hasaplar
hasaplary
hasaplarynyn
hasaplas
hasaplasa
hasaplasyk
hasaplay
hasardag
hasda
hasly
hasrat
hasratly
hassa
hassahana
hassahanada
hassalar
hassalyk
hasy
hasyl
hasylly
hasyllylygy
hasyllylygyny
hasyllylyk
hasyly
hasylyn
hasylyny
hasym
hat
hata
hatar
hatara
hatarda
hatardan
hatarlarynda
hataryna
hatarynda
hatda
hatemi
hateminin
hatlar
hatlary
hatlaryn
hatlaryny
hatnote
haty
hatyja
hatyn
hatyna
hatynda
hatyny
hatynyn
hatyra
hatyrasy
hatyrasyna
havacılık
have
having
hawa
hay
haysy
hayys
hazar
hazaryn
hazir
hazirki
hazyna
hazynadan
hazynalar
hazynalary
hazynalaryn
hazynany
hazynasy
hazynasyna
hazynasyny
hbet
hbetdes
hbidi
hbidine
hbidini
hbit
hbitleri
hbitlerine
hbitlerini
hbitlerinin
hbitli
hd
hdi
hdp
he
head
header
headline
health
hear
heard
heart
hebrew
heder
hedow
hedy
hek
hekay
hekim
hekli
hel
hela
helc
held
helen
hello
help
helped
helper
helpful
helping
helps
helsinki
hem
hemay
hemde
hemedan
hemem
heminguey
hemis
hemma
hemme
hemmeler
hemmelere
hemmeleri
hemmelerin
hemmesi
hemmesinde
hemmesinden
hemmesine
hemmesini
hemmesinin
hemmetaraplay
hemra
hemralarynyn
hemrasy
hemswort
hemsworth
hemze
hen
heniz
henize
henizem
hennem
henry
heo
hepda
hepde
hepdede
hepdeden
hepdela
hepdelik
her
herara
herc
herda
herde
herden
herdir
here
hereket
hereketde
herekete
hereketi
hereketin
hereketinde
hereketinden
hereketine
hereketini
hereketinin
hereketjen
hereketlendiriji
hereketler
hereketlere
hereketleri
hereketlerin
hereketlerine
hereketlerini
hereketlerinin
hereketli
hereketsiz
herero
hergiz
heri
heridir
herin
herinda
herinde
herinden
herine
herini
herinin
herlenip
herler
herlerda
herlerde
herlerden
herlere
herleri
herlerin
herlerinde
herlerinden
herlerine
herlerini
herlerinin
herli
herliler
herlilerin
herna
herni
herniasy
hero
hersegowina
hersi
hersinde
hersine
hersinin
het
hetden
hett
hettler
hettlerin
hey
heykeli
hezil
hezret
hezreti
hhr
hi
hic
hida
hiday
hidden
hide
high
higher
highlight
highlighting
hijret
hijretin
hijri
hika
hikmet
hikmeti
hikmetler
hikmetleri
hil
hilal
hilaly
hilalyn
hilalyny
hile
hilega
hili
hilin
hiline
hilini
hilinin
hill
hilli
him
himik
himiki
himiy
himonukleoliz
himopapain
hin
hind
hinde
hindi
hindigus
hindiler
hindilerin
hindistan
hindistana
hindistanda
hindistandaky
hindistandan
hindistany
hindistanyn
hinjiy
hios
hip
hir
hirli
hirurgiki
hirurgiy
his
histo
historia
historical
history
hit
hiwa
hkp
hl
hlamidioz
hlamidiy
hle
hlelendiry
hleleri
hlelerinin
hlelilerin
hler
hlerde
hlesi
hlesinin
hlet
hletde
hlete
hleti
hletinden
hletini
hletinin
hletley
hletli
hli
hlihalk
hlihytay
hlisi
hlisinde
hlisine
hlisini
hlisinin
hliumumy
hlor
hlumumy
hmet
hmete
hmeti
hmetin
hmetinden
hmetini
hmetinin
hmetkes
hmetso
hmiy
hnet
ho
hobbes
hobbese
hoja
hojaahmet
hojaguly
hojalyga
hojalygy
hojalygyn
hojalygyna
hojalygynda
hojalygyndan
hojalygyny
hojalygynyn
hojalyk
hojalykda
hojalyklar
hojalyklary
hojalyklaryn
hojalyklarynda
hojalyklarynyn
hojambaz
hojams
hojanepes
hojanyn
hojanyy
hojay
hokkay
hokkey
hokmunde
hold
holding
holiday
hollabrunn
hollanda
hollywoodreporter
home
homem
homey
hommat
hong
honneur
hons
hook
hop
hope
hor
hora
horasan
horasana
horasanda
horasandaky
horasany
horasanyn
horda
hordalylar
horezm
horezmde
horezme
horezmi
horezmin
horezminin
horezmlilerin
horezms
horlanan
horluk
hormat
hormata
hormatlamak
hormatlany
hormatly
hormaty
hormatyna
horosan
horwat
horwatc
horwatiy
hos
hose
hosrow
hossarlyk
host
hosted
hosting
hot
hound
hour
hours
house
how
howa
howada
howadan
howalanyp
howaly
howandarlygynda
howandarlyk
howany
howanyn
howasy
howatyr
howay
howdan
howdanc
howdanlary
howdanlaryn
howdany
howdanyn
howdanynyn
however
howlukmac
howlusy
howly
howlynyn
howp
howpdan
howply
howpsuz
howpsuzlygy
howpsuzlygyny
howpsuzlyk
howpun
howpuna
howpuny
howpunyn
howpy
howsala
howsalaly
howuz
howzy
hoy
hoz
hq
hr
hra
hrada
hradaky
hralarynda
hraly
hran
hranda
hranyn
hrap
hrat
hrata
hratlanypdyr
hratly
hraty
hratyny
hre
hremi
hreminin
hri
hriban
hrin
hristian
hristianc
hristianlar
hristianlary
hristianlaryn
hristiy
hristofor
hristosyn
hristy
hriy
hroniki
hronologiy
hrus
hsb
ht
htden
htimal
htimaldyr
htimallygy
htm
htmhttps
html
htmlhttp
htmlhttps
htnama
http
https
httu
hu
huan
hubs
hudabende
huday
hudoz
hudson
hukugy
hukugyna
hukugyndan
hukugyny
hukugynyn
hukuk
hukukc
hukukdan
hukuklar
hukuklardan
hukuklary
hukuklaryn
hukuklaryna
hukuklaryndan
hukuklaryny
hukuklarynyn
hukukly
hukuklylyk
hukuksyz
hulagu
human
humanities
humar
humarly
humay
hun
hungarian
hunlar
hunlaryn
hur
hurdyr
hurlyga
hurlygy
hurlygyny
hurlyk
hurma
hus
husey
hususan
hususanda
hususy
hususylas
hususyy
hut
hutba
hutbe
huy
huzuryna
hwa
hwan
hy
hydyr
hydyrow
hyjuw
hyjuwy
hyn
hyr
hyrada
hyradyn
hyrat
hyratda
hyt
hytay
hywa
hywada
hywadaky
hywadan
hywany
hywanyn
hyy
hyz
hyzmat
hyzmatdas
hyzmatka
hyzmatlar
hyzmatlary
hyzmatlaryn
hyzmatlaryna
hyzmatlaryny
hyzmatlarynyn
hyzmaty
hyzmatyn
hyzmatyna
hyzmatynda
hyzmatyny
hz
hzada
i
ia
iai
ib
ibem
iberdi
iberen
iberenin
iberildi
iberilen
iberilipdir
iberily
iberip
iberipdir
iberipdirler
iberiy
ibermegi
ibermek
ibery
iblis
ibm
ibn
ibni
ibo
ibrahim
ic
icinde
icon
icons
id
iddet
ide
idea
ideal
idealab
idealistik
ideas
ideddin
ideddinin
ideg
iden
identified
identify
ideologiki
ideologiy
idetdin
idey
idi
idigini
idilmedik
idily
idin
idip
idir
idis
idris
idy
ie
ielts
if
iffhs
ifrat
iftar
iftitah
ig
igan
igde
igdir
ige
igem
igi
igide
igidi
igidin
igidir
igildem
igin
iginde
iginden
igine
igini
iginin
igit
igitler
igitlere
igitleri
igitlerin
igitlerine
igitlerinin
igitlik
ignore
igor
igrenc
igrenipdirler
igrenji
igreny
igrimi
igriminji
ih
ihanasy
ihanasynyn
ihtilaf
ihtilam
ii
iii
iir
iisus
iji
ijik
ijiler
ijileri
ijilerin
ijisi
ijtimagy
ik
ika
ikay
ikde
ikden
ikdir
ikes
ikeslenmegi
iki
ikiden
ikilik
ikin
ikindi
ikindinin
ikinji
ikinjiden
ikinjisi
ikinjisine
ikirjin
ikisem
ikisi
ikisinde
ikisini
ikisinin
ikitaraplay
ikiy
ikler
iklerde
iklerden
iklere
ikleri
iklerin
iklerinde
iklerine
iklerini
iklerinin
ikli
iklige
ikligi
ikligin
ikligini
iklik
iklikda
iklikde
ikp
iksiz
ikta
iktas
il
ila
ilat
ilata
ilatdan
ilatlar
ilatlary
ilatly
ilaty
ilatyn
ilatyna
ilatynda
ilatyny
ilatynyn
ilc
ilden
ildes
ildi
ildigi
ildigidir
ildiler
ile
ilen
ilende
ilenden
ilendigini
iler
ilerden
ilerdir
ilere
ileri
ilerin
ilerine
ilerini
ilerinin
ilga
ili
ilige
iligi
iligin
iliginda
iliginde
iliginden
iligine
iligini
iliginin
ilik
ilikda
ilikde
ilikden
ilikdir
ilikler
iliklere
ilikleri
iliklerin
iliklerinden
iliklerine
iliklerini
iliklerinin
ilikli
iliksiz
ilim
ilin
ilinde
iline
ilini
ilinin
ilip
ilipdir
ilis
iljek
ilk
ilki
ilkibada
ilkibas
ilkidurmus
ilkiler
ilkinji
ilkinjilerin
ilkinjisi
illek
iller
illeri
illerin
illes
illi
illik
illikler
illikleri
illikli
illiriy
ilma
ilmegi
ilmegine
ilmegini
ilmeginin
ilmek
ilmey
ilmez
ilnama
ilnamalary
ilnamalaryn
ilnamalaryny
ilnamalas
ilnamasy
ilnamasyna
ilnamasyny
ilse
ilteris
ilu
ily
im
image
images
iman
imany
imanyn
imdb
imdi
ime
imet
imf
img
imgd
imi
imiz
imizi
imler
imlik
immigrantlaryn
immun
imo
impact
imperator
imperatora
imperatorlar
imperatorlary
imperatorlaryn
imperatorlyk
imperatory
imperatoryn
imperial
imperialistik
imperiy
implementation
implementing
import
important
imported
improve
improved
improvements
improving
impuls
imran
imre
imsak
in
ina
inasy
inc
include
includes
including
increased
ind
inda
inde
indedi
indedir
indeks
indeksi
indeksin
indeksleri
inden
independent
index
indey
indi
india
indian
indiana
indiden
indiki
indir
indira
individual
individuals
indiwidual
indonesia
indonesian
indoneziy
induizm
indus
induslar
industrial
industriy
ine
inedo
inem
inen
inenden
inenler
iner
inereneri
inerlik
infeksion
infeksiy
infly
info
infobox
infoboxes
inform
informasiy
informatika
information
informed
infraclassis
infragyzyl
infraordo
infraphylum
infrastructure
ing
ingaly
ingiz
ington
ingtonda
ingtonyn
ingus
ini
inin
inip
inipdir
inisi
initial
initially
initiative
inji
injil
injili
injiller
injir
ink
inka
inkalar
inkalary
inkasy
inkubasion
inli
inline
inmegi
inna
inni
innowasiy
ino
inownikleri
input
ins
insert
inserted
inserter
inside
insiz
instagram
instead
institut
institutda
institute
institutlary
institutlarynyn
instituty
institutyn
institutyna
institutynda
institutyny
institutynyn
instructions
int
inta
integral
integrated
intellektual
intend
intended
inter
interaktiw
intercontinental
interested
interface
interfey
interlanguage
internal
internasional
international
internet
internetda
internetde
internete
interview
interwiki
into
introduction
invalid
invaziv
invisible
invitation
invite
invited
inviting
involved
iny
inz
io
iogann
ioi
ioniy
iordan
iordaniy
ios
ip
ipad
ipdi
ipdir
ipdirler
iphone
ipni
iprage
ipv
iq
ir
ira
iraflar
irak
iran
iranian
iranica
iraz
irc
irde
irden
irdi
irdiler
irdim
ire
irec
ireji
irejin
iren
irer
iresi
irgazy
irginsiz
iri
iriji
irijiler
irijilerin
irijilik
irijinin
irijisi
irildi
irilen
irilende
iriler
irilip
irilipdir
irilis
iriljek
irilmedi
irilmedik
irilmegi
irilmegine
irilmegini
irilmeli
irily
irimlilik
irin
irine
irinin
irip
iripdir
iripdirler
iris
irisi
irk
irket
irketlar
irketlery
irki
irland
irlandiy
irlen
irlende
irler
irlerde
irleri
irlerin
irles
irlip
irma
irmay
irmegi
irmegin
irmek
irmekde
irmekdir
irmeklik
irmeleri
irmeli
irmey
irrasional
irwan
irwing
iry
iryar
is
isa
isaak
isabel
isanyn
isaura
isbn
ise
isfendiy
isgender
isgenderin
ishak
isi
isidir
isine
isini
isinin
iskender
isla
islam
islamic
island
islandiy
isle
isledi
islediler
isleg
islege
islegi
islegidir
islegin
islegine
islegini
isleginin
islegleri
isleglerini
islema
islemek
islemey
islemezligi
islendik
islese
isleseler
islesen
isley
ismail
ismet
isn
iso
isolatorweg
ispan
ispanc
ispaniy
ispanlar
ispanlaryn
isrip
issn
issue
issues
issy
istanbul
istigfar
istik
istilam
istiwa
istler
istlere
istleri
istlerin
istoriy
isy
isyrasynda
it
ita
italian
italic
italiy
italmaz
italy
itburunyn
itdi
itel
item
items
iten
itergi
itgi
itgiler
itgisi
iti
itiles
itim
itin
itip
itipdir
itirdi
itiren
itirer
itirilen
itirilmegi
itirip
itiripdi
itiripdir
itirma
itirmegi
itirmey
itiry
itis
itler
itleri
itlerin
itlerinde
itlerinin
itmegi
itmek
itnazar
its
itself
ittifak
ittihat
itu
ity
iu
iucn
iudaizm
iudey
iuhd
iv
ivy
iwan
iwanowic
iwesi
iwrit
ix
iy
iyul
iz
iza
izc
izda
izde
izden
ize
izetbegowic
izi
izin
izine
izinin
izler
izlerde
izleri
izlerin
izm
izme
izmi
izmin
izmir
izoh
izolirlenen
izzetbegowic
j
ja
jadygo
jadyly
jagazlar
jahan
jahana
jahanda
jahankes
jahanyn
jak
jakarta
jam
jamal
james
jamy
jan
jana
janda
jandaky
jandan
jandarlar
jandarlary
jandarlaryn
jandaryn
jane
janko
janlandyran
janlandyrdy
janlandyrmak
janlandyry
janlandyryldy
janlanyp
janly
january
jany
janym
janyn
janyna
janyndan
janyny
japanaponiy
japanese
japarguly
jar
jarnama
java
javascript
jay
jaylar
jaylary
jaz
je
jean
jebel
jebir
jebis
jebisles
jebray
jedel
jedeller
jedelli
jedelsiz
jegi
jegin
jek
jekler
jeklerden
jeklere
jekleri
jeklerin
jekson
jelal
jelaleddin
jelaleddini
jelaleddinin
jelaletdin
jem
jemagat
jemagatlar
jemagatlary
jemagatlarynyn
jemagaty
jemagatyn
jemagatyndan
jemagatynyn
jemal
jemgiy
jemgyy
jemi
jeminin
jemla
jemledi
jemlemek
jemlendi
jemlenen
jemlenendir
jemlenip
jemlenipdi
jemlenipdir
jemlenis
jemlenmegi
jemleny
jemleri
jemley
jemrelere
jems
jen
jenap
jenay
jeneral
jenkinson
jenkinsonyn
jennet
jennete
jennifer
jent
jepa
jeren
jergelan
jerime
jerri
jerry
jesedi
jesedini
jeset
jet
jethrobt
jey
jeza
jezalandyrmak
jezalandyryldy
jezalandyryly
jezalandyrylyp
jezalandyryp
jezasy
jezasyna
jezasyny
jhilmar
ji
jibuti
jigistan
jigistanda
jigistanyn
jigsi
jihan
jik
jiklerin
jikme
jiler
jileri
jilerin
jilerinin
jilige
jiligi
jilik
jilikli
jilt
jiltlik
jim
jimmi
jimmy
jin
jini
jinin
jinping
jio
jipal
jir
jirc
jirler
jirleri
jirlerin
jirlerinin
jisi
jisim
jisimdir
jisime
jisimin
jisimler
jisimlere
jisimleri
jisimlerin
jisimlerinin
jizzakh
jj
jmg
jnu
jo
joan
jobs
joe
jogaby
jogap
jogapka
jogo
johanna
john
johr
join
joining
jolittinin
jomart
jon
jonas
jonathan
jones
jora
jorap
joray
jorge
jorj
jorjiy
jorjyn
jos
jose
joseph
journal
journals
journey
joy
jozef
jpeg
jpg
jpht
jr
js
ju
juc
juda
judey
julian
julie
julio
july
juma
jumageldiy
jumay
jump
june
jung
junior
just
justiceira
jv
jy
jyda
jydyr
jykyr
jylar
jylara
jylary
jylaryn
jylarynyn
jylyk
jyn
jynaza
jyns
jynsa
jynshana
jynslary
jynsly
jynssyz
jynsy
jynsyna
jynyn
jysy
k
ka
kabel
kabineti
kabinetinin
kabir
kabul
kabulhanasynda
kabulyn
kac
kada
kadalara
kadalary
kadalaryna
kadalaryny
kadalarynyn
kadalas
kadaly
kadar
kadasy
kaddafi
kadfiz
kadrlary
kafedralar
kafedrasy
kafedrasynyn
kagan
kaganyn
kagyz
kagyzlar
kagyzlary
kagyzy
kagyzyn
kaim
kak
kaka
kakabas
kakam
kakan
kakao
kakasy
kakasyna
kakasyndan
kakasyny
kakasynyn
kakay
kakyly
kal
kalby
kalbyn
kalbyna
kalbynda
kalbynyn
kaledoniy
kalendar
kalendary
kalendarynda
kali
kaliforniy
kalinin
kaliy
kalligrafiy
kalp
kalsiy
kaly
kam
kamary
kamat
kamboja
kamc
kamera
kamerun
kameruny
kamil
kampaniy
kampusu
kamus
kan
kanada
kanadada
kanadaly
kanadanyn
kanagat
kanagatlandyrmaga
kanagatlandyrmak
kanagatlandyrmay
kanagatlandyry
kanagatlandyryp
kanal
kanallar
kanallary
kanallaryn
kanaly
kanalyn
kanalynda
kanalynyn
kandidat
kandidaty
kangy
kanis
kanlar
kanlary
kanlarynda
kanonik
kansleri
kanun
kanuna
kanunalay
kanunc
kanunda
kanunlar
kanunlara
kanunlary
kanunlaryn
kanunlaryna
kanunlarynda
kanunlaryny
kanunlarynyn
kanunlas
kanuny
kanunyn
kanunyna
kanunyny
kanunynyn
kany
kanyn
kanzas
kap
kapablanka
kapilly
kapital
kapitalistik
kapitalizmin
kapitaly
kapitalyn
kapitalynyn
kapitan
kapitanlyk
kapitany
kapuy
kapyr
kapyy
kar
kara
karac
karaman
karantin
karanyn
karar
karara
kararlar
kararlary
kararlaryny
kararlarynyn
karary
kararyna
kararyny
kardawi
kardes
karel
karen
karfagen
karfagenin
karfogen
karhananyn
karib
karikatura
kariy
karjakin
karl
karlos
karlsen
karlsruhe
karo
karol
karolina
karollyk
karoly
karpow
karpowyn
karrera
karreranyn
kars
karst
kart
karta
kartada
kartalar
kartalary
kartasy
kartasynda
kartasyny
karter
kartlar
kartlary
kartoc
kartos
kary
karz
karzlar
karzlary
karzlas
karzy
karzyna
kas
kasam
kasparov
kaspi
kaspinin
kaspiy
kassit
kast
kasta
kastamonu
kastiliy
kasy
kasym
kat
katalan
katalog
katalon
kataloniy
katar
kate
kategori
kategoria
kategorie
kategorija
kategoriy
kategoriya
katolik
katoliki
katoliklerin
katy
kauc
kaufman
kaufmanyn
kawaleriy
kawkaz
kawkaza
kawkazda
kawkaziy
kawkazyn
kay
kaynag
kayseri
kaza
kazakhstan
kazan
kazany
kazasy
kazasyny
kazwin
kazy
kazylar
kazylyk
kazynyn
kazyy
kba
kbogma
kc
kd
kda
kde
kden
kdenc
kdepa
kdepe
kdere
kdi
kdir
kdirildi
kdirilen
kdirilendi
kdirilendir
kdirilipdi
kdirilipdir
kdirily
kdiripdir
kdirme
kdiry
kdu
ke
kebap
kebelekler
kec
keegan
keep
keffaret
keffareti
kek
kekilow
kel
kela
kelala
kelem
kelemin
kelemliler
keli
kelif
kella
kelle
kellec
kellede
kelleku
kelleli
keller
kelleri
kellesi
kellesinde
kellesine
kellesini
kellesinin
kelt
keltaras
keltler
kem
kemal
kemala
kemc
kemden
kemeldi
kemelmegine
kemelmez
kemely
kemenc
kemer
kemina
kemine
kemsidiji
kemsiz
ken
kenar
kenara
kenarda
kenarlary
kenarlaryna
kenarlarynda
kenarlaryndan
kenarlaryny
kenary
kenaryn
kenaryna
kenarynda
kenaryndaky
kenaryndan
kenaryny
kenarynyn
kende
kendi
kendin
kenep
kengan
keniksiz
kenin
keniy
kennedi
kennedinin
kent
kentda
kentde
kentin
kentinin
kepderi
kepil
kepili
kepillendiry
kepillik
kepjebas
kept
ker
kerahat
keramat
keramatly
keramika
keramiki
kerbabay
kerc
kerem
keri
kerim
kerimde
kerimi
kerimin
kerki
kerler
kerleri
kerlerini
kerlerinin
kerman
kermana
kerpic
kert
kerwen
kerwenler
kerwenleri
kerwensaray
kes
kesbi
kesdi
kese
keseki
kesekinin
kesel
keselc
keselde
keselden
keseldir
kesele
keselhana
keseli
keseligine
keselin
keselinde
keselinden
keseline
keselini
keselinin
kesella
keseller
kesellerden
kesellere
keselleri
kesellerin
kesellerinde
kesellerine
kesellerini
kesellerinin
keselley
keselli
kesen
kesgitla
kesgitledi
kesgitlema
kesgitleme
kesgitlemegine
kesgitlemek
kesgitlemekde
kesgitlemesi
kesgitlendi
kesgitlenen
kesgitlenendir
kesgitlenildi
kesgitlenily
kesgitlenip
kesgitlenipdir
kesgitleny
kesgitley
kesgitli
kesiginde
kesik
kesil
kesildi
kesilen
kesilenden
kesilip
kesilipdir
kesilmegi
kesilmelidir
kesily
kesip
kesis
kesmegi
kesmek
kesmelidir
kesy
ket
keteni
kethudasy
ketlikler
keurgeuz
key
keyboard
kg
kgi
kgu
khan
khdr
ki
kic
kiden
kidilipdir
kidip
kidipdir
kidipdirler
kidman
kids
kidy
kil
kiler
kilere
kilerin
kilik
kilis
kilogram
kilograma
kilometr
kilometrden
kilometrdir
kilometre
kilometri
kilometrlik
kilometrlikde
kim
kimde
kimdir
kime
kimi
kimin
kiminin
kimiy
kimler
kimleri
kimlerinin
kimligi
kimligine
kimligini
kimliginin
kimlik
kimy
kin
kind
kine
kinematografiy
king
kingdom
kini
kinin
kino
kinoda
kinofilmleri
kinonyn
kinosy
kiok
kip
kipc
kipr
kiprde
kiprin
kir
kira
kirey
kiril
kirin
kiris
kiritib
kirpiler
kirs
kis
kisi
kislorod
kislorody
kislorodyn
kislotalary
kistan
kistanda
kistanyn
kit
kitab
kitaba
kitaby
kitabydyr
kitabyn
kitabyna
kitabynda
kitabyndan
kitabyny
kitabynyn
kitabı
kitap
kitapc
kitapda
kitapdan
kitapdyr
kitaphana
kitaphanac
kitaphanada
kitaphanalar
kitaphanalary
kitaphanalarynyn
kitaphananyn
kitaphanasy
kitaphanasynda
kitaphanasynyn
kitaplar
kitaplarda
kitaplardan
kitaplary
kitaplaryn
kitaplarynda
kitaplaryndan
kitaplaryny
kitaplarynyn
kiy
kiz
kize
kje
kk
kki
kl
kla
klar
klark
klary
klarynyn
klas
klasiko
klassifikasiy
klassik
klassiki
klassyk
klassyky
klasy
klasyna
klawdiy
klemek
klen
klendiriji
klendirilen
klendirilmedik
klendirip
klendirmek
klendirmeler
klendirmeli
klendiry
klenen
klenily
klenipdir
klenma
klenmey
kleny
kleopatra
kler
klerda
klerde
klerden
klere
kleri
klerin
klerinda
klerinde
klerinden
klerine
klerini
klerinin
kles
kley
kli
klidi
klidir
kligi
klik
kliler
klimat
klimatly
klimaty
klimatyn
kliniki
klinopis
klinton
klip
kliwlend
kliy
klodiy
klu
klub
klubas
klublar
klublarynyn
kluby
klubyn
klubyna
klubynda
klubynyn
klykda
km
kman
kmandyr
kmany
kmanydyr
kme
kmegi
kmek
kmen
kmenistanyn
kmi
kmu
kn
knight
know
knowledge
known
kny
ko
koalisiy
kod
kodeksi
kodlary
kodlarynyn
kodu
kody
koeffisiy
kofa
kofe
kokanowa
kokos
kol
kolhoz
kolhozc
kollegiy
kollej
kolleji
kollejinin
kollejler
kolleksiy
kolonial
koloniy
kolorado
kolumb
kolumbiy
kolumbyn
kom
koma
komanda
komandanyn
komandasy
komandiri
komandirlik
komanduy
kombinaty
komediy
komek
komisiy
komissarlar
komissiy
komitet
komiteti
komitetin
komitetinde
komitetinin
kommunikasiy
kommunist
kommunistik
kommunistler
kommunistlere
kommunistleri
kommunistlerin
komor
komp
kompaniy
kompartiy
kompleks
kompleksi
kompleksley
kompozisiy
kompozitor
kompozitorlar
kompozitory
kompy
komsomol
kon
konditer
konfederasiy
konferensiy
kong
kongo
kongres
kongresi
kongress
konnektikut
konnelly
konrad
konsentrasiy
konsepsiy
konserni
konserninin
konsert
konserwatiw
konserwatoriy
konserwatorlar
konserwatorlaryn
konstansiy
konstantin
konstantinin
konstantinopolyn
konstitusion
konstitusiy
konstitutiy
konstruksiy
konsul
konsullar
konsullyk
kontey
kontinental
kontinentaldy
kontinentin
kontinentinin
kontinentler
kontrrewoly
konus
konwensiy
konwent
konwentin
kony
konya
kooperatiw
koordinatalar
kop
kopa
kopeltmek
kopengagen
kopernigin
kopernik
kor
korean
koreka
korey
korinf
korinfin
korneliy
kornell
korol
korola
korollary
korollygy
korollygyna
korollygynyn
korollyk
koroly
korolyn
koronawirus
korporasiy
korporatiw
korrupsiy
kos
kosmetiki
kosmos
kosmosa
kosmosdan
kosmosy
kosowo
kosta
kot
kow
kowa
kowalap
kowalas
kowlup
kowmak
kowmy
kowumdas
kowumlaryn
kowup
kowupdyrlar
kowus
kowusyn
kowy
kozmos
kp
kr
krakow
krasnowodsk
krass
kray
krbina
kredit
krek
krekden
krem
krepostnoy
krey
kriket
kriptowaly
kris
kristal
kristofer
krit
kritde
kriteriy
kritin
krizis
krizisinde
kromwel
kruy
kruz
krym
krymyn
ks
kserks
ksh
ksiz
ksu
kt
ktu
ku
kuala
kub
kuba
kubada
kubadyn
kuban
kubanyn
kubat
kubogy
kubogyn
kubogyna
kubogynda
kubogyny
kubogynyn
kubok
kuboklary
kudan
kudu
kufa
kufi
kufr
kuk
kul
kullanım
kulub
kulyy
kum
kun
kunic
kunut
kupası
kuprin
kur
kuran
kuranda
kurany
kuranyn
kurdistan
kuriy
kurs
kurus
kus
kusan
kut
kutadgu
kutups
kutusu
kuw
kuwey
kuwwat
kuwwatly
kuwwatlylygy
kuwwaty
kuwwatyny
kuwwatynyn
kuy
kuzey
kw
kwadrat
kwalifikasiy
kwant
kwartirasy
kwt
ky
kybapdas
kybla
kybladan
kyblanyn
kyda
kydan
kydy
kydyr
kyk
kyn
kync
kyndy
kyndyr
kynlas
kynlyk
kynyk
kyp
kyran
kyrk
kyrkdan
kys
kyssa
kyssac
kysymly
kyy
kıbrıs
kızım
l
la
label
laboratoriy
lac
ladan
lady
ladylar
ladyly
ladyp
ladypdyr
lag
lagy
lagyn
lagyna
lagynda
lagynyn
lajakdygyny
lak
laka
lakam
lakamlary
lakamly
lakamy
lakamyny
lakda
laksmanyn
lam
lama
lamaga
lamagy
lamagyn
lamagyna
lamak
lamaly
lamalydyr
laman
lamanka
lamay
lamaz
lamazdan
lan
lanan
lananda
lanandan
lanandygy
lanandygyna
lanandygyny
lanandyr
lanar
land
landa
landan
landda
lands
landy
landygyny
landyn
landyrma
landyrys
lang
language
languages
langyc
langyjy
langyjyny
lanka
lanma
lanmaga
lanmagy
lanmagyna
lanmagyny
lanmagynyn
lanmak
lanmalar
lanmay
lans
lansa
lansetnigin
lanson
lantisi
lantılar
lany
lanyar
lanylan
lanyldy
lanylmagy
lanyly
lanylyp
lanyn
lanyndan
lanyp
lanypdy
lanypdyr
lanypdyrlar
lanys
laos
lap
lapdy
lapdyr
lapdyrlar
lapykec
lar
lara
laram
larda
lardaky
lardan
lardyr
large
larger
larry
lary
larydyr
larygo
larymyz
laryn
laryna
larynda
laryndaka
laryndaky
laryndan
laryny
larynyn
las
lasa
lasan
lasiy
last
lat
latdy
late
later
latest
latex
latin
latmak
latmay
latwiy
laty
latyn
latync
latynlar
latys
launched
laura
laureaty
law
lawc
lawda
lawlar
lawlara
lawlarda
lawlardan
lawlary
lawlaryn
lawlaryna
lawlarynda
lawlaryny
lawlarynyn
lawly
lawr
laws
lawy
lawyn
lawynda
lawynyn
lay
layar
lazer
lb
lc
ld
lda
ldan
lde
lden
ldi
ldigi
ldigine
ldigini
ldiler
ldir
ldu
le
lead
leader
leadership
league
learn
learning
least
leave
lebanon
lebap
lebapda
lebbey
lec
led
lede
leden
ledi
ledigine
ledigini
ledily
ledipdirler
ledir
ledy
lee
left
leg
legal
lege
legend
legendar
legi
legidir
legin
leginda
leginde
leginden
legine
legini
leginin
legion
legleri
leglerini
legli
legsiz
lejik
lejikler
lejikleri
lejiklerin
lejiklerinin
lek
lekden
leki
lekiler
lekilerde
lekilerden
lekilere
lekileri
lekilerin
lekisi
lekisine
lekisinin
lekler
leklerden
leklere
lekleri
leklerinde
leklerinden
leklerine
leklerini
leklerinin
lekley
leksiy
leler
lelik
lelikde
lem
lema
lemdar
lemde
leme
lemegi
lemegin
lemegine
lemegini
lemek
lemekde
lemekden
lemeli
lemelidi
lemelidir
lemey
lemi
lemin
leminde
len
lend
lende
lenden
lendi
lendigi
lendigini
lendir
lendirdi
lendirilipdir
lendirip
lendiripdir
lendirma
lendirmegi
lendirmek
lendirmeli
lendiry
lenen
lener
length
leni
lenilip
lenilmegi
lenily
lenin
leninc
leninde
leninden
leningrad
leningradyn
leninin
lenip
lenipdi
lenipdir
lenipdirler
lenis
lenler
lenlerin
lenma
lenmedik
lenmegi
lenmegin
lenmegine
lenmegini
lenmek
lens
lenson
lenssen
lent
leny
leo
leonard
leonardo
leone
leonel
leonid
lepid
ler
lera
lerc
lerda
lerde
lerden
lerdir
lere
lerem
leri
leridir
lerimiz
lerin
lerinde
lerinden
lerine
lerini
lerinin
les
lese
lesi
less
let
letin
letinc
letinlik
letizia
letmek
lets
letter
letters
levant
levantine
level
lew
lewant
lewiathan
lewon
lewu
ley
leya
lezzet
lge
lgeleri
lgelerinde
lgesi
lgesinda
lgesinde
lgesinden
lgesine
lgesinin
lgi
lgu
lhasa
lhijja
lhit
li
lia
liberal
liberallar
liberiy
libertadores
libraries
library
lic
license
lider
lideri
liderimizin
lidi
lidigi
lidigine
lidigini
lidir
lidirler
lidiy
lidl
lien
lies
life
liga
ligada
liganyn
ligasy
ligasyna
ligasynda
ligasyndan
ligasyny
ligasynyn
lige
ligi
ligin
liginde
liginden
ligine
ligini
liginin
ligne
ligue
lihtens
lihu
lik
likda
likde
likden
like
likely
likgulyy
liki
likler
liklerde
liklere
likleri
liklerin
liklerinde
likley
liks
liler
lileri
liligi
lilik
lilikde
liliy
lim
lima
limc
limdir
limfa
limitations
limited
limon
lin
linc
linda
linden
lindgren
line
lines
lingwistik
lingwistika
linha
lini
linin
liniy
link
linked
linkler
links
lio
lionel
lip
lipdi
lipdir
lipdirler
lir
lirik
lirikasy
liriki
lis
lisc
lisenziy
lisey
lisi
lisiniy
lisiy
lisler
lislere
lisleri
lislerin
list
listan
listas
liste
listed
listening
lists
lit
litecoin
literature
litr
litre
little
litwa
litwan
litwany
litwanyn
liu
live
living
liwan
liwerpul
liwiy
liy
liza
lizden
ljek
ljemal
ljemalyn
lk
lka
lkarney
lkdarlar
lkdarlaryn
lke
lkelerde
lkesi
lkesinde
lkesinin
lki
lkin
lkiy
lkleri
lku
ll
lla
llar
llarda
llary
llaryn
ller
llerde
llere
lleri
llerin
llerinde
llerini
llerinin
lles
lley
lli
llige
lligi
llik
llu
lm
lma
lme
lmedik
lmegi
lmegine
lmeginin
lmek
lmeler
lmelere
lmeleri
lmelerin
lmelerine
lmeli
lmesi
lmey
lmez
lmezden
lmezinden
lmi
lmu
ln
lo
loading
local
localisation
location
lock
locked
log
logged
logika
logikanyn
logiki
login
logo
logos
logosy
lokallas
lokomotiw
lomakin
lomay
lon
london
londona
londonda
londondaky
londonyn
long
longer
look
looking
lopez
lor
lora
lord
lorenso
los
lost
lotaringiy
louis
louvre
love
loves
low
lowell
lower
lowic
loy
loyihaga
lp
lr
ls
lse
lsin
lt
ltd
lu
lua
luc
luckas
ludyr
lugat
lugy
lugyn
lugyna
lugynda
lugyndan
lugyny
lugynyn
lui
luis
luk
luka
lukda
luklar
lukman
lukmana
lukmanc
lukmanlar
lukmanlary
lukmanlyk
lukmany
lukmanyn
lumpur
lup
lupdyr
lur
lus
luwryn
luz
lv
lviv
lvl
lwan
lwet
ly
lya
lybasy
lydia
lydy
lydyr
lyga
lygy
lygydyr
lygyn
lygyna
lygynda
lygyndan
lygyny
lygynyn
lyk
lykda
lykdan
lykdyr
lyklar
lyklara
lyklardan
lyklary
lyklaryn
lyklaryna
lyklaryny
lyklarynyn
lyklygyna
lylar
lylaryn
lylygy
lylygyny
lylyk
lym
lyma
lymda
lymlar
lymy
lymynda
lyn
lyp
lyrics
lys
m
ma
mac
machine
macintosh
mad
madagaskar
madalena
madan
madda
maddalar
maddalary
maddalaryn
maddalaryny
maddalarynyn
maddany
maddanyn
maddasy
maddasyna
maddasynda
madde
maddy
made
madrid
madridde
mady
madyk
maersk
mag
maga
magaryf
magaryfc
magazine
magdan
magdanc
magdanlar
magdanlary
magdanlaryn
magdanly
magdany
magdanynyn
magellan
maggie
magic
magistral
maglumat
maglumata
maglumatlar
maglumatlara
maglumatlarda
maglumatlardan
maglumatlary
maglumatlaryn
maglumatlaryna
maglumatlaryny
maglumatlarynyn
maglumaty
maglumatyn
maglumatyna
magnewi
magnit
magnordo
magnus
mags
magtymguly
magtymgulynyn
magy
magyn
magyna
magynda
magyny
magynyn
mah
mahabat
mahal
mahallar
mahaly
mahalyn
mahalynda
mahesti
mahmud
mahmut
mahmydyn
mahmyt
mahrum
mahsus
mahsusdyr
mail
mailing
main
mainstream
maintain
maintenance
mais
majan
major
mak
makala
makalada
makalalar
makalalary
makalalaryn
makalalaryny
makalany
makalanyn
makalar
makalasy
makalasynda
makamy
makao
makbul
makc
makda
makdan
makdisi
makdyr
make
makedon
makedoniy
makedonskinin
makedonskiy
makes
making
maklary
maklygy
maklyk
maks
maksada
maksadalay
maksady
maksadymyz
maksadyna
maksadyny
maksat
maksatlar
maksatlara
maksatlary
maksatlaryna
maksatlaryny
maksatly
maksatnama
maksatnamada
maksatnamalar
maksatnamalary
maksatnamany
maksatnamanyn
maksatnamasy
maksatnamasyna
maksatnamasynda
maksatnamasyny
maksatnamasynyn
maksim
maksimum
makul
makuldyr
makullady
mal
mala
malakka
malar
malawi
malay
malazgirt
malaziy
maldan
maldarc
maldarlar
maldiwler
malhac
mali
maligin
malik
maliy
mall
mallar
mallara
mallarda
mallardan
mallary
mallaryn
mallaryny
mallarynyn
malline
malta
maly
malydy
malydyr
malyn
malyna
malyny
malynyn
mam
mamun
mamunyn
man
mana
manada
manadyn
management
manager
manat
manc
manda
mandan
mandy
mandyr
mandyrlar
manga
mangol
mangys
manifesti
manihey
manipuly
manjur
manjuriy
manjurlar
manjurlara
manjurlaryn
manlar
manlardan
manlary
manlaryn
manlaryna
manlaryny
manlarynyn
manlyk
mann
manografiy
manov
mans
mansur
manual
manually
many
manyda
manydadyr
manydas
manylar
manylary
manylaryny
manyly
manyn
manyny
manysy
manysyna
manysynda
manysyndaky
manysyny
manysynyn
mao
map
maps
mar
mara
maradona
marakana
marath
marathlar
marathon
marawadepe
march
marcus
marg
marganes
margiana
margianada
margiananyn
margin
margiy
margus
mari
maria
marian
mariana
marie
marina
marinin
marino
marisol
mariy
mark
marka
markasy
marked
markes
market
marketing
markets
markirlenen
marko
markos
marks
marksist
marksistik
marksizm
markup
markus
marn
maro
marokkanyn
marokko
mars
marsa
marsyn
mart
marta
martda
martin
martins
martynda
maru
marvel
marw
mary
maryda
marydaky
marydan
maryly
maryny
marynyn
marys
marz
mas
masa
masal
masgara
masgarac
maslahat
maslahata
maslahatc
maslahatda
maslahatlar
maslahatlary
maslahatlas
maslahaty
maslahatyn
maslahatyna
maslahatynda
maslahatyny
maslahatynyn
mass
massac
massaget
massagetler
massagetlerin
massasy
massasynyn
massi
masson
massonyn
master
masut
masy
masyn
mat
mata
matadan
matalar
matalary
matalaryn
matam
matanyn
matc
match
matematigi
matematik
matematika
matematikanyn
matematiki
material
materialdan
materialistik
materialistler
materiallar
materiallardan
materiallary
materiallaryn
materiallaryny
materiallarynyn
materials
materialy
materialyn
materigin
materik
materikler
materiy
math
mathrm
matlab
maturidi
maulana
mawerannahr
mawerannahra
mawerannahrda
mawerannahryn
mawrikiy
mawritaniy
mawut
mawy
mawzoley
max
may
maz
mazar
mazarda
mazarlarynyn
mazary
mazaryn
mazarynyn
mazda
mazdagyn
mazdak
mazdan
mazenderan
mazlyk
mazmun
mazmuna
mazmunlary
mazmunly
mazmuny
mazmunyn
mazmunyna
mazmunyny
mazyndan
mb
mba
mbappe
mbox
mc
mccloud
mda
mdar
mdara
mdarc
mdardyr
mdarlar
mdarlary
mdarlaryn
mdarlarynyn
mdarlygy
mdarlygyn
mdarlygyna
mdarlygyny
mdarlygynyn
mdarlyk
mdary
mdarydyr
mdaryn
mdaryna
mdarynyn
mde
mden
mdi
mdir
mdu
me
meaning
means
mebel
mec
mechanical
med
medal
medallar
medallary
medaly
mede
meden
medeni
medeniy
medeniyet
medeniyeti
medeniyetinin
medeny
medi
media
mediawiki
medic
medical
medigini
medik
medina
medine
medinede
medir
medisina
medisinanyn
medisinasy
mediterranean
mediy
medresa
medrese
medresede
medreseler
medreselerde
medreselerin
medresesi
medresesinde
medresesini
meet
meeting
meetings
mege
megerem
megi
megidir
megin
meginde
meginden
megine
megini
meginin
mehanika
mehaniki
mehanizmi
mehanizmleri
mehdi
mehmet
mejbur
mejbury
mejek
mejlis
mejlisde
mejlise
mejlisi
mejlisin
mejlisinde
mejlisinden
mejlisinin
mejnun
mek
mekan
mekanlary
mekany
mekc
mekde
mekdebe
mekdebi
mekdebidir
mekdebin
mekdebinde
mekdebine
mekdebini
mekdebinin
mekden
mekdep
mekdepde
mekdepden
mekdepler
mekdeplerde
mekdepleri
mekdeplerin
mekdeplerinde
mekdeplerini
mekdeplerinin
mekdir
mekga
mekge
mekgede
mekgeden
mekgejo
mekir
mekka
mekleri
meklige
mekligi
mekligin
meklik
mekruh
mekruhdyr
meksika
meksikada
meksikanyn
meksiko
mel
melaneziy
melburn
mele
melegus
melek
melekler
meleklerin
meler
melerde
melerden
melerdir
melere
meleri
melerin
melerinde
melerinden
melerine
melerini
melerinin
melhem
melhemi
meli
melidi
melidir
mellek
member
members
membership
memfis
memluk
memty
men
mena
menden
mendes
mendonc
mendupdyr
menem
menes
meni
menin
meninin
menje
menlik
mens
ment
menu
menuc
menzes
menzil
menzili
menzilinin
mer
merdana
meredow
meredowyn
meret
merezy
merfi
mergen
mergi
merhemetli
merhum
meri
merjen
merkez
merkezde
merkezden
merkeze
merkezi
merkezidir
merkezin
merkezinda
merkezinde
merkezinden
merkezine
merkezini
merkezinin
merkezler
merkezleri
merkezlerin
merkezlerinde
merkezlerinden
merkezlerine
merkezlerini
merkezlerinin
merkezles
merkezli
merkuriy
mermer
mermerden
mert
mertebe
mertebeli
mertebesi
mertebesine
mertebesini
mertlerc
mertligi
mertlik
merv
merw
merwda
merwde
merwden
merwe
merwezi
merwezinin
merwi
merwin
mery
mes
mesaj
mese
mesela
mesele
meselede
meseleler
meselelerde
meselelere
meseleleri
meselelerin
meselelerinde
meselelerine
meselelerini
meselelerinin
meselem
meselesi
meselesidir
meselesinde
meselesine
meselesini
meselesinin
mesen
mesge
mesgen
mesgeni
mesi
mesidir
mesih
mesihi
mesin
mesinde
mesinden
mesine
mesini
mesinin
mesjid
mesjide
mesjidi
mesjidine
mesjidler
mesnewi
mesopotamiy
message
messages
messeniy
messi
messor
mesud
mesudyn
mesut
met
meta
metal
metaldan
metallar
metallary
metallaryn
metallurgiy
metaly
metalyn
metara
metatrader
metbugat
metbugatda
metbugaty
metbugatynda
metde
metden
mete
meteo
meteorologik
meteorologiy
method
methods
meti
metin
metinden
metine
metini
metinin
metjid
metjide
metjidi
metjidin
metjidinde
metjidinin
metjit
metjitde
metjitdir
metjitler
metjitlerin
metler
metleri
metlerinin
metr
metrden
metrdir
metre
metrlik
metro
metrologiy
metropole
meu
mew
mewin
mewlid
mexico
mey
meydany
meyilnamasy
mez
mezden
mezhebe
mezhebi
mezhebinda
mezhebinde
mezhebine
mezhebinin
mezhep
mezheplerde
mezligi
mezlik
mezolit
mg
mgm
mi
mic
michael
micro
microphylum
microsoft
mid
middle
mide
miden
midi
midir
midiy
mifologiy
might
migrasiy
mihail
mihalkowyn
mihay
mik
mikay
mike
miken
mikeny
mikro
mikroner
mikroneziy
mil
milady
miladydan
miladynyn
milan
milanda
miler
mileri
milerin
milerini
milerinin
mili
military
mill
millennium
miller
milles
millet
milletara
milletbas
milletc
milletden
milleti
milletimizin
milletin
milletine
milletinin
milletler
milletleri
milletlerin
milletli
milli
milliard
milliarddan
millige
millik
milliles
milliligini
millilik
million
milliona
milliondan
millioner
millionlarc
milliony
milliy
milt
mily
mim
min
mina
minada
minadan
minara
minaranyn
minarasy
mind
minda
minde
minden
mine
mineral
minerallar
mingazow
minh
mini
miniaty
minimize
minimum
minin
ministr
ministri
ministrin
ministrinin
ministrler
ministrligi
ministrliginde
ministrligine
ministrliginin
ministrlik
ministrlikler
ministry
minnetdar
minnetdarlyk
minoy
minsk
minus
minut
minutda
minutdan
minutes
minutlap
minutlyk
mioma
miomanyn
mir
miras
mirasdar
mirasdarlary
mirasdary
mirasdu
mirasy
mirasyn
mirasyna
mirasyny
mirasynyn
mire
mirhay
miri
mirin
mirlen
mirler
mirza
mirziy
mis
miscellaneous
misden
misi
misin
misini
miss
misserian
missing
mission
missisipi
missiy
mist
mister
mit
miti
mitin
mitlenis
mitlenme
mitlenmek
mitleny
mitler
mitleri
mitlik
mitra
mitridat
miwa
miwe
miwec
miweler
miweleri
miwelerini
miweli
miwesi
miy
miz
mizan
mizde
mize
mizi
mizin
mk
mkin
mkinc
mkindi
mkindigini
mkindir
mku
ml
mla
mld
mle
mler
mlerde
mlerden
mlere
mleri
mlerin
mlerinde
mlerinden
mlerine
mlerini
mlerinin
mley
mli
mligi
mligin
mlik
mlikc
mlikdir
mlikler
mliklerde
mliklerden
mliklere
mlikleri
mliklerin
mliklerini
mliklerinin
mln
mlrd
mlu
mlər
mm
mmedin
mmedow
mmedowa
mmek
mmet
mmeti
mmetin
mmetinin
mmetnepes
mmetsizlenmeginin
mmetweli
mmez
mmezi
mmezin
mmezinin
mmezli
mmu
mnadzikiewicz
mo
mobil
mobile
moc
moda
modal
mode
model
modeli
modelini
models
modeni
modenin
modern
modul
module
mogol
mogollar
moldawiy
moldowa
molekuly
molla
mollanepes
mollanepesin
mollanyn
mollison
molly
moly
moment
momm
mon
monako
monarh
monarhistik
monarhiy
mong
mongol
mongoliy
mongollar
mongollara
mongollardan
mongollaryn
mongoloid
monitor
monitoring
monjugatdy
monjugatdylar
monjugatdylaryn
monjuk
monjuklar
mono
monobook
monografiy
monopol
monopoliy
monorhiy
montana
montaz
montenegro
montesky
month
monthly
months
monument
monumental
moon
mor
morawia
morazan
more
morfi
morfologiy
morgan
mos
moscow
moskwa
moskwada
moskwadaky
moskwadan
moskwaly
moskwanyn
mosovce
mosque
most
mostly
mosul
motorlary
motorlarynyn
motory
motorynyn
mount
mountain
move
moved
movement
movie
movies
moving
mowzeley
mowzoley
mowzugy
mowzugyn
mowzuk
mowzukda
mozaika
mozambik
mp
mpeg
mr
mri
mru
ms
msg
msiz
mt
mtil
mts
mu
muany
muawiy
mubah
much
muezzi
mug
mugallym
mugallymc
mugallymlar
mugallymlary
mugallymlaryn
mugallymlarynyn
mugallymy
mugallymyn
mugt
mugthor
muhadow
muhammed
muhammede
muhammedi
muhammedin
muhammet
muhammetguly
muhammetnazar
muhammetnyy
muhammetrahym
muharrem
muhtar
muhtarow
muizeddin
mukaddes
mukanna
mukdar
mukdarda
mukdardaky
mukdary
mukdaryna
mukdarynda
mukdaryndan
mukdaryny
mukdarynyn
mukmin
mukminler
mul
mulher
mulheres
multi
multilingual
multimedia
multiple
mumkin
mumy
mun
muna
munafyk
munda
mundan
mundanam
mundane
mundo
munun
muny
munyn
muqanna
murat
murawy
murgabyn
murgap
mus
musa
musay
muse
museum
music
muskullary
muslim
muslimin
mussolini
musson
must
mustafa
mustahap
mustahapdyr
mustapa
musty
musulman
musulmana
musulmanc
musulmanlar
musulmanlara
musulmanlary
musulmanlaryn
musulmany
musulmanyn
mutasiy
mutlak
muwatta
muzey
mw
my
mya
mycobank
mydam
mydama
mydamalyk
myhman
myhmanc
myhmanhana
myhmanhanada
myhmanhanalar
myhmanhananyn
myhmanhanasy
myhmanlar
myhmanlara
myhmanlary
myhmanlaryn
myhmanso
myhmanyn
mylay
mylly
myn
mynasybetli
mynasyp
mynasypdyr
mynasyplyga
mynasyplyk
mynlar
myradow
myrat
mys
mysal
mysaldyr
mysallar
mysaly
mysalydyr
mysalynda
mysapyr
mysapyra
mythology
mı
n
na
nabonid
nac
nacional
nadan
nadira
nadiranyn
nady
nadylan
nadyp
nafile
nag
nagasaki
nags
nagt
nagym
nagys
nah
nahar
nahardan
naharlary
nahary
naharyn
naharyny
nahic
nak
nakgas
nakyl
nakyllar
nal
nala
nalan
naly
nam
nama
namaga
namaglup
namagy
namak
namalar
namalary
namalaryn
namalaryna
namalaryny
namalarynyn
namangan
namart
namaz
namaza
namazda
namazdan
namazgadepe
namazlarda
namazlary
namazlarynda
namazlaryny
namazlarynyn
namazy
namazyn
namazyna
namazynda
namazyndan
namazyny
namazynyn
name
named
names
namespace
namespaces
namib
namibia
namibiy
namys
namysly
namysyny
nan
nanophylum
nanotehnologiy
nany
nanyn
nap
napaleon
napdyr
napdyrlar
napoleon
napoleonyn
nar
narmer
nas
nasa
nascente
nasdaq
nasional
nasr
nasreddin
nasretdin
nasrullah
nasyr
nasyreddin
nat
nataly
natco
nation
national
nations
native
natmaly
nato
natriy
natural
nature
natureserve
nawac
nawigasiy
nawuhodonosor
nay
nazar
nazara
nazarda
nazardan
nazaretli
nazarly
nazarow
nazary
nazaryndan
nazaryy
nazjan
nbatar
nbatara
nbatarda
nbatardaky
nbatardan
nbatary
nbataryn
nbatarynda
nbataryndaky
nbataryny
nbir
nc
ncaa
ncbi
nceler
ncia
nd
nda
ndan
nde
ndedir
ndeligi
ndelik
ndely
nden
ndermenem
ndew
ndey
ndi
ndigi
ndiginden
ndigine
ndigini
ndiginin
ndikleri
ndiklerine
ndiklerini
ndiler
ndim
ndir
ndirdi
ndirilis
ndirily
ndirip
ndiripdir
ndiris
ndirler
ndirma
ndirmek
ndiry
ndiz
ndizde
ndizi
ndizin
ndizine
ndizki
ndogar
ndogara
ndogarda
ndogardaky
ndogardan
ndogars
ndogary
ndogaryn
ndogaryna
ndogarynda
ndogaryndaky
ndogaryndan
ndogaryny
ndogarynyn
ndogdyy
nds
ndu
ne
near
nearly
nebere
nebereleri
neberelerinden
neberelerine
neberelerinin
neberesi
neberesinin
nebi
nebis
nebit
nebitc
nebitdag
nebitgaz
nebiti
nebitin
nebraska
nebsi
nebsin
nec
necessary
neden
nedir
nedirin
need
needed
needing
needs
negatiw
negrlerin
nejasetden
nejmeddin
nek
nekey
nelen
neleri
nelerin
nelerini
neli
nelip
nem
nema
nemek
nemes
nemesc
nemesler
nemeslere
nemeslerin
nemli
nen
nenen
neolit
nepal
nepes
nepesow
nepis
neps
neptun
ner
nerler
neron
neronyn
nerw
nerwler
nerwlerin
nes
nesay
nesewi
nesi
nesihat
nesil
nesilbas
nesilden
nesiller
nesillere
nesilleri
nesillerin
nesillerinin
nesils
nesimi
nesip
nesle
nesli
neslin
neslinden
neslini
net
netflix
netija
netije
netijede
netijeler
netijelere
netijeleri
netijelerine
netijelerini
netijelerinin
netijeli
netijeliligi
netijeliligini
netijesi
netijesidir
netijesinde
netijesine
netijesini
netijesiz
netimler
network
neu
neum
neumu
neutral
never
new
newa
newada
newadanyn
newcomers
newde
newer
news
newsletter
newspaper
newspapers
next
ney
nezir
nf
ng
ngilizce
ngr
ngugi
nh
ni
nia
niburc
nic
nickname
nicole
nide
niden
niderland
niderlandiy
niderlandlar
niderlandlaryn
nidir
nifa
nifas
niger
nigeriy
night
nik
nika
nikada
nikadan
nikalap
nikalas
nikanyn
nikaragua
nikey
nikler
nikolas
nikolay
nikow
nikson
nikulin
nikulinin
nil
nilin
nily
nin
ninde
ninden
nine
ninewiy
nini
ninin
nio
nip
nipdi
nipdir
nipdirler
nir
nira
nirede
nireden
niri
nis
nisa
nisaby
nisap
nisi
nisinin
nistan
nistanda
nistanyn
nits
niversitesi
niy
niz
nja
nje
njeginde
njeginden
njek
njeklerinde
njeklerinden
njeler
njelere
njeleri
njelerin
njelerine
njelerini
njelerinin
njeli
njen
njesi
njesine
njesini
njesinin
njey
nji
njiden
njin
njisi
nju
njy
nka
nki
nku
nl
nla
nlar
nlaryn
nler
nlerde
nlerden
nlere
nleri
nlerimizde
nlerimize
nlerin
nlerinde
nlerinden
nlerine
nlerini
nlerinin
nles
nley
nli
nlige
nligi
nligidir
nligin
nligini
nliginin
nlik
nlikden
nlikler
nliklerden
nliklere
nlikleri
nliklerin
nliklerini
nliklerinin
nlikli
nlu
nm
nma
nme
nmegi
nmegine
nmeginin
nmek
nmeli
nmey
nmez
nmezligi
nn
nna
nnama
nnamasy
nnet
nnetdir
nneti
nnetini
nnetleri
nnetlerini
nni
no
nobat
nobatda
nobatdaky
nobatynda
nobel
nobots
nocat
nodira
nog
nogai
nogais
nogay
noir
nok
nokada
nokady
nokadyna
nokat
nokatdan
nokatlar
nokatlary
nokatlarynda
nokatlarynyn
nokia
nol
nola
nom
nomerlik
nominal
nominasiy
nominate
nominations
non
none
noon
nor
normal
normally
norta
nortada
nortadaky
nortadan
nortan
nortanyn
nortasy
nortasyna
nortasynda
nortasyndaky
nortasyndan
nortasyny
north
northern
norweg
norwegiy
nos
not
notarial
notariat
note
notes
nothing
notice
notifications
notify
nova
novela
november
now
noway
nowgorod
nowruz
noy
noyabr
nr
ns
nsden
nse
nsi
nsiy
nsli
nson
nster
nsu
nt
ntgileri
ntginin
ntu
nu
nubiy
nuclear
nuh
nuk
nukday
number
numbers
numidiy
numizmatika
nun
nuna
nunda
nundan
nuny
nunyn
nur
nurberdi
nurberdiy
nuri
nurmuhammet
nurmyrat
nury
nuryy
nus
nusay
nusga
nusgada
nusgalary
nusgalaryny
nusgalyk
nusgasy
nusgasydyr
nusgasyna
nusgasynda
nusgasyndan
nusgasyny
nusgasynyn
nusgawy
nut
nuvola
nv
nwald
ny
nya
nygmat
nygmatlara
nygmatlaryn
nygtady
nygtaly
nygtamak
nygtap
nygtapdyr
nygtay
nyl
nyn
nynda
nyny
nynyn
nyp
nyrh
nyrhlar
nyrhlaryn
nyrhy
nys
nytimes
nyy
nyzam
nyzamly
nyzamy
nyzamylmu
nz
nzak
nztcs
nın
o
oazis
oazisi
oazisinde
oazisinin
oba
obada
obadaky
obadan
obadas
obadyr
obalar
obalara
obalarda
obalardan
obalary
obalaryn
obalaryna
obalarynda
obalaryndaky
obalaryndan
obalaryny
obalarynyn
obama
obamanyn
obany
obanyn
obasy
obasydyr
obasyna
obasynda
obasyndaky
obasyndan
obasyny
obasynyn
oblast
oblastda
oblasty
oblastyna
oblastynda
oblastynyn
obrazy
obs
obserwatoriy
oby
oc
ocaasi
october
ocuk
od
oda
odessa
odin
odissey
odor
odun
oduna
odunyn
ody
of
off
offer
offered
office
official
offline
offset
ofiser
ofiseri
often
og
oga
ogalan
ogalandan
ogaldy
ogalmagy
ogaly
ogalypdyr
ogg
oglan
oglanjyk
oglanlar
oglany
oglanyn
ogludyr
oglum
oglun
ogluna
oglundan
ogluny
oglunyn
ogly
oglydyr
oglynyn
ogra
ogry
ogs
ogsa
ogsam
ogul
ogullary
ogullaryna
ogullaryny
ogullarynyn
ogun
ogurjaly
ogurlanan
ogurlyk
oguz
oguzda
oguzhan
oguzhanyn
oguzlar
oguzlara
oguzlary
oguzlaryn
oguznama
oguznamada
oguznamanyn
oguzyn
ogy
ogyn
oh
ohan
ohana
ohin
ojagy
ojak
ojaklary
ok
oka
okady
okadyly
okajak
okalan
okalanda
okaldy
okalmagy
okals
okalsa
okaly
okalyp
okamaga
okamagy
okamagyn
okamak
okamakdan
okamaly
okaman
okan
okanc
okanjy
okanyn
okap
okapdyr
okar
okara
okarda
okardaky
okardan
okarky
okarlandy
okarlandyrdy
okarlandyrmaga
okarlandyrmagyn
okarlandyrmak
okarlandyry
okarlandyryp
okarlanmagy
okarlanmagyna
okarlany
okarlanyp
okarsynda
okarsyndaky
okary
okarydy
okarydyr
okaryk
okas
okasa
okatmak
okay
okc
okdugy
okdugyny
okdur
okdy
okdyr
okean
okeaniy
okeanlar
okeany
okeanyn
okeanyndaky
okeanynyn
okgunly
okka
oklahoma
oklar
oklary
oklaryn
oklu
oklugy
okly
oklygy
okolad
okrugy
okrugynyn
oks
oksford
oksula
oksuly
oktawian
oktawianyn
oktawiy
oktay
okty
okul
okumly
okun
okuna
okuny
okunyn
okunypdyrlar
okup
okus
okuw
okuwa
okuwc
okuwlar
okuwlaryny
okuwy
okuwyn
okuwyny
okuwynyn
oky
okyja
okyjylar
okyjylara
okyjylary
okyjylaryn
okyjylaryny
ol
ola
olagc
olam
olan
olar
olara
olarak
olarda
olardaky
olardan
olary
olaryn
olbars
olbas
olbashc
old
olda
oldan
oldas
oldid
oldug
oldy
oles
olga
olgu
olho
oligarhiy
olimpiada
olimpiadasy
olimpiy
oliveira
olja
ollady
ollap
ollar
ollary
ollaryn
ollaryna
ollarynda
ollaryndan
ollaryny
ollarynyn
ollay
olo
oludyr
olun
oluna
olunda
olundaky
olundan
oluny
olunyn
olupdyr
olur
olus
oly
olympiad
olynyn
om
oman
omar
omaryn
omay
ombuds
ombudsperson
omut
omutlar
omutlaryn
on
ona
onac
onat
onatda
onc
once
onda
ondaky
ondan
ondanam
one
oneplus
ones
ongin
onlar
onlarc
onlarda
onlarynda
onlay
online
onluga
onluk
only
onok
onow
onson
onu
onulyp
onun
onunjy
onurga
ony
onyn
onynda
onyndaky
onynyn
opan
opandepe
opanlar
ope
open
opening
opera
operasion
operasiy
operasy
operation
operations
operatiw
operator
operatory
opinions
opportunities
opportunity
oppozisiy
opt
optiki
optimizasiy
option
optional
optionnelle
options
or
ora
orak
oral
oran
oraz
oraza
orazalar
orazalary
orazaly
orazalynyn
orazany
orazanyn
orazasy
orazasyna
orazasyndan
orazasyny
orazasynyn
orazma
orazowa
orazsa
orba
orbita
orbitasynyn
ord
orda
ordanyn
ordasynyn
orden
ordeni
ordeninin
ordenleri
order
ordo
oregon
orfografiy
org
organ
organiki
organisation
organization
organized
organizing
organizm
organizmde
organizmin
organizmler
organizmlerin
organlar
organlary
organlaryn
organlaryna
organlarynyn
organy
organyn
orhan
orhon
original
origins
oris
orite
ork
orkda
orkestr
orlar
orlary
orlaryn
orlyk
orna
ornament
ornas
ornuna
ornunda
ornuny
ornunyn
orny
oro
orod
ors
orslar
orsy
orsyy
ort
orta
ortac
ortada
ortak
ortaky
ortalary
ortalaryna
ortalarynda
ortalaryndan
ortalyk
ortasyna
ortasynda
ortasyndaky
ortasyndan
ortay
orum
orun
oruna
orunbasary
orunda
orunja
orunlarda
orunlary
orunlaryny
orunlyk
oruntutarlary
oruntutary
orus
ory
orz
os
oscar
oskar
oslo
osman
osmanly
osmanlylaryn
osmanyn
osob
osoblary
ost
osumliklerin
ot
otag
otagda
otaglar
otaglarda
otaglary
otaglaryn
otagly
otagy
otc
otda
otdan
ote
otel
other
others
otherwise
otit
otitde
otitin
otjumak
otland
otlandiy
otlar
otlardan
otlary
otlaryn
otlarynyn
otly
otnositel
otparazc
otr
otrar
otrisatel
otry
otryn
ottoman
oturan
oturar
oturdy
oturdylan
oturgyc
oturmak
oturman
oturumly
otury
oturym
oturymly
oturyp
oturypdyr
oturys
otuz
otuza
otuzynjy
oty
otyr
otyrka
ou
our
out
outdated
output
outro
outside
ov
ovce
over
override
overrightarrow
ow
owa
owadan
owadanlygy
owal
owazasy
owazly
owazy
owc
owdur
owdurlaryn
owgan
owganlar
owganlaryn
owganystan
owganystana
owganystanda
owganystandaky
owganystandan
owganystanyn
owguc
owhun
owhunly
owl
owlak
owly
own
ownujak
ownuk
owradylan
owrat
ows
owsuz
owsuzlyga
owsuzlyklara
owuz
owyn
oxford
oy
oynap
oyun
oyunda
oyunlaryny
oz
oza
ozal
ozaldan
ozalky
ozaly
ozan
ozar
ozdy
ozef
ozi
ozlag
ozmagy
ozmak
ozmazlyk
ozone
ozu
ozune
ozup
ozupdyr
ozupdyrlar
ozus
ozy
p
pa
pac
padan
page
pagerank
pages
pagsa
pagsadan
pagta
pagtac
pagtan
pagtanyn
pahna
pai
paid
paint
pajarlap
pajygaly
pak
pakistan
pakyr
palar
palara
palarda
palardan
palary
palaryn
palaryna
palarynda
palaryndan
palaryny
palarynyn
palas
palata
palatadan
palataly
palatasy
palatasyndan
palatasynyn
palaw
palawy
palc
paleografiy
paleolit
palestina
palestinada
palestinany
palestinanyn
palestine
palma
palta
pamuk
pan
panama
panda
pandemiy
pany
panyn
paolo
papa
papasy
papasynyn
papay
papirusy
papua
par
para
paragway
parahat
parahatc
parahatlyk
parai
parallel
parame
parameter
parameters
parametr
parametresi
parametrga
paramore
params
paraphyletic
parasatly
parasimpatik
paraw
paraz
parc
pare
parent
parfiy
parfiya
parfiyanyn
parfy
pari
paris
pariz
park
parky
parlak
parlament
parlamentde
parlamente
parlamenti
parlamentin
parlamentinin
parn
parol
pars
parsah
parsc
parslar
parslara
parslardan
parslaryn
parsy
part
parti
partial
participants
participate
participated
participating
participation
particular
particularly
partiy
partizan
partlama
partners
partnerships
party
parvordo
parz
pas
paskal
pasly
paslynda
pasport
pasporty
pass
passi
passiw
password
passwords
past
pasy
pasyllaryn
pasyna
pasyndan
pasynyn
pata
patent
pathoschild
patma
patologiy
patriarhal
patrik
patrisiler
pats
pattay
patys
paul
paula
paulista
paulo
paulu
pawel
pay
payne
paytagty
pc
pden
pdf
pdi
pdiler
pdir
pdirler
pdt
pdu
pe
pec
pecado
pecados
pedagogik
pedagogika
pedra
pedro
pegi
pegin
pehlewi
pek
pekc
pekden
pekin
pekine
pekini
peldi
peldilis
peldilmeli
peldily
peldip
peldy
pele
pelegin
pelek
pelip
pelipdir
pelis
pelmegi
pelmegine
pelmek
pelopannes
peloponnes
pelsepa
pelsepe
pelsepec
pelsepesini
pelsepewi
peltmek
pely
pen
pena
penaka
pencil
pendi
penjaba
penjabyn
penjap
penje
penn
pens
pensilwaniy
pensiy
people
peoples
per
perc
perde
perdesi
pereira
peren
performance
performed
pergam
pergamen
pergament
perhat
peri
peridun
peridunyn
perikl
period
periodik
peris
perkutan
permakultura
perman
permany
permet
permission
permissions
pero
pers
persey
persian
persiy
person
personal
pert
peru
perunyn
perwana
perzendi
perzendinin
perzent
perzentleri
pes
pesdi
pesdir
pese
peseldip
peseldy
peselip
peselmegi
peselmegine
peseltmek
pesely
pesi
pesligi
peslik
pet
petdag
petdagda
petdagdan
petdagyn
peter
peterburg
peterburga
peterburgda
peterburgdaky
peterburgyn
petrogradda
petrol
petronas
petrus
peut
pew
pey
peyda
pf
pg
pgo
ph
phabricator
pharma
phase
phi
philosophia
pho
phone
photos
php
phuday
phylum
pi
pianino
picture
pictures
pida
pidasy
piece
pifagor
pifagoryn
pikc
piker
pikir
pikirdes
pikire
pikiri
pikiric
pikirimizc
pikirin
pikirine
pikirini
pikirlenip
pikirlenis
pikirlenma
pikirlenme
pikirler
pikirleri
pikirlerim
pikirlerin
pikirlerine
pikirlerini
pikirlerinin
pikirli
pil
pila
piliory
pilos
pilot
pin
ping
pintscher
pio
pir
piramida
piramidalar
piramidalaryn
pireney
pirey
pirgulyy
piri
pirin
piriney
pirma
pis
pisse
piter
pitne
pitnec
piwo
pix
pixels
piy
pjin
pju
pk
pka
pl
place
plain
plan
planeta
planetalar
planetalary
planetalaryn
planetanyn
planetasy
planetasynyn
planlas
planned
planning
plano
plans
plant
plantasiy
plantilla
plants
plany
planyndan
plaryn
plastik
platform
platina
platon
platonyn
play
players
please
pleased
plebey
plenc
pler
plerden
plere
pleri
plerin
plerinden
plerine
plerini
plerinin
plexr
pley
pli
plidir
plik
plomba
plowdiw
plu
plus
plutonyn
ply
pmilletli
pnewmoniy
png
po
poc
pods
poe
poema
poemalar
poemalary
poemasy
poemasynda
poemasyny
poeziy
point
pol
poladyn
polat
poliamid
policy
poliester
polimeks
polineziy
poliomiy
polipropilen
polis
polisin
polisiy
polisler
polisleri
polislerin
polislerinin
politehniki
political
polk
polkownik
polo
poloz
pols
poltawa
poly
pomes
pomidor
pomidoryn
pompey
ponseti
pont
pop
popular
population
populy
por
poros
porrugy
porsy
port
portakal
portal
portaly
portlary
porto
portrait
portredi
portreti
portugal
portugaliy
portugallar
portuguese
portun
porty
pos
position
positions
possible
post
posted
posting
posy
potential
potter
pour
power
powest
powesti
powestin
powestinde
powestini
powestler
powestleri
poy
pozision
pozisiy
pp
ppartiy
pr
pra
praga
praktiki
prawoslaw
prawoslawlary
pre
predefinic
predloga
predloz
predmeti
predmetin
prefekti
prefer
preference
preferences
preferred
prefix
premc
premie
premier
premiy
premy
prepare
prepared
present
presentation
president
press
prevent
preveza
preview
previews
previous
previously
prey
prezident
prezidente
prezidenti
prezidentidir
prezidentimiz
prezidentimizin
prezidentin
prezidentini
prezidentinin
prezidentleri
prezidentlerinin
prezidentlige
prezidentligi
prezidentligine
prezidentlik
prezidiumynyn
pri
pribaltika
primarily
primary
principles
prinsipi
prinston
print
priorities
priority
privacy
privada
private
prix
prnewswire
pro
probably
problem
problema
problemalary
problems
process
processes
producer
produces
product
production
products
prody
prof
professional
professor
professory
prog
program
programma
programmac
programmada
programmalar
programmalary
programmalaryn
programmalaryny
programmany
programmanyn
programmasy
programmasyny
programmasynyn
programming
programmirleme
programs
progress
progressiw
proje
project
projects
prokurory
pronounce
property
proposal
proposals
propose
proposed
prosent
proses
prosesi
prosesinde
prosesine
prosesinin
prosesler
prosesleri
proseslerin
protect
protected
protection
protest
protestant
protokol
protokollary
protokoly
prototype
provide
provided
provides
providing
prowinsiy
proy
proza
pru
prus
prussiy
ps
psanly
psihika
psihikanyn
psihiki
psiholog
psihologik
psihologiki
psihologiy
psiz
pt
ptaraplay
ptaraply
ptolemey
pu
public
publication
publications
published
publisher
publishing
publisistik
puc
pud
pudaga
pudagy
pudagydyr
pudagyn
pudagyna
pudagynda
pudagyndaky
pudagyny
pudagynyn
pudak
pudaklar
pudaklarda
pudaklary
pudaklaryn
pudaklaryna
pudaklarynda
pudaklaryny
pudaklarynyn
pudakly
puerto
pugac
pugta
pugtalandyrmaga
pugtalandyrmagyn
pugtalandyrmak
pugtalanmagy
pugurly
puja
pul
pula
puldan
pulemy
pullar
pullara
pullary
pullaryn
pullaryny
pullarynyn
pulun
puluny
pulunyn
puly
pump
puni
pure
purpose
purposes
pursady
pursat
pursatda
pursatdan
pursatlary
pursaty
pursatynda
pus
pushpin
put
putin
puzzle
px
py
pyc
pygamber
pygamberden
pygambere
pygamberi
pygamberimiz
pygamberimizin
pygamberin
pygamberler
pygamberlere
pygamberleri
pygamberlerin
pylan
pyn
pyp
pyragy
pyragynyn
pys
pytrak
pywikibot
pywikipedia
pywikipediabot
pyy
q
qara
qasam
qibla
qldnca
qu
quality
quarterly
quatre
quatro
que
quem
query
question
questions
qui
quick
quickly
r
ra
rabat
radan
radar
radiasiy
radikal
radikulitin
radio
radius
radiy
radoy
rady
radyjy
radylan
radyp
radypdyrlar
rafael
rafsanjany
rafsanjanynyn
rag
raga
ragoy
ragy
ragyn
ragyna
ragyny
ragynyn
rahat
rahatlandyryjy
rahatlyk
rahatsyz
rahim
rahman
rahmanguly
rahmanowa
rahmet
rai
rainha
raja
rajasy
rak
raketa
raklar
raklary
raklaryna
raklarynda
rakly
raky
ral
ralyk
ram
rama
ramagy
ramagyna
ramagynyn
ramaly
ramc
ramlar
ramow
ramowyn
ramses
ramy
ramyn
ramynyn
ran
rana
ranc
randa
randaky
randan
randyr
range
ranjit
ranks
ranly
ranlylar
ranlylaryn
rany
ranyn
rao
rap
rapc
rapdyr
rapid
rar
rare
ras
rat
rate
rather
ratification
ratmak
ratmakda
ratyn
ratynam
ratynda
ratynlygy
ratynlygydyr
ratynlygyna
ratynlyk
ratynlykda
ratynlyklar
ratynlyklary
ratynlyklaryn
ratynlyklaryna
ratynlyklaryny
ratynlyklarynyn
rau
raul
rawenna
rawy
rawynyn
ray
raz
razres
razy
razyc
razylas
razylygy
razylygyn
razylygyny
razylyk
rbesi
rbesinde
rboy
rc
rco
rd
rda
rde
rdekow
rden
rdes
rdi
rdiler
rdim
rdin
rdip
rdir
rdu
rdy
re
reach
read
readers
reading
ready
reaksion
reaksiy
reaktiw
real
realist
realistik
realizm
really
reason
reasons
reb
rebeg
rebeldes
rec
receive
receives
recent
recently
recognize
recommend
recommendations
recommended
record
records
red
redaksiy
redaktirla
redaktor
redaktory
reden
reder
redi
rediji
redijiler
redijilige
redijiligi
redijiligin
redijiliginde
redijiligine
redijiligini
redijiliginin
redijilik
redijilikli
redijisi
redildi
redilen
redilendigini
redilendir
redilip
redilipdi
redilipdir
redilmegi
redilmegine
redilmegini
redilmeginin
redily
redip
redipdi
redipdir
redipdirler
redirect
redirects
reduce
reduced
redy
ref
reference
references
referendum
reflist
reform
reforma
reformalar
reformalary
reformalaryn
reformasiy
reformasy
reformasyny
regarding
regards
rege
regi
regin
reginde
reginden
regine
regini
reginin
region
regional
regions
regir
registered
registration
regnum
regra
regular
rehim
rehimdar
rehimsiz
rehimsizlik
rehmet
reis
reisin
rejebow
reject
rejeli
rejep
rejepoff
rejepow
rek
reka
rekagat
rekagata
rekagatda
rekagatly
rekagaty
rekagatynda
rekat
rekc
rekden
rekdes
reklama
reklemek
rekler
rekli
rekord
rekordlar
rekordyny
rekortlary
rektory
rel
related
relde
release
released
releases
reler
relere
releri
relerin
relerinde
relerine
relerini
relerinin
relevant
relga
relge
relgeler
relgeleri
relgelerinden
relgelerine
relgelerini
relgesi
relgesine
relgesini
relgesinin
reli
reliable
reliably
rely
rem
rema
remaining
reme
remegi
remeginde
remegine
remegini
remeginin
remek
remel
remember
remey
remezan
remezana
remezanda
remezandan
remezany
remezanyn
remo
remont
remove
removed
removing
ren
rename
rende
rendec
rendesine
rendigini
rene
renen
reni
renijilerin
renin
renlerin
reno
renseigner
rentgen
rep
repetek
replaced
reply
report
reports
republic
request
requested
requests
require
required
requirements
requires
rer
rersin
res
research
resi
resim
resmi
resmiles
resminama
resminamalar
resminamalary
resminamalaryn
resolution
resource
resources
respirator
responsible
respublika
respublikac
respublikada
respublikadyr
respublikalar
respublikalary
respublikalaryn
respublikan
respublikany
respublikanyn
respublikasinda
respublikasy
respublikasyna
respublikasynda
respublikasyny
respublikasynyn
restoran
restoranlar
restore
resul
result
results
resulullah
resulullahyn
resuly
resurslary
resurslaryny
resurslarynyn
ret
retdi
retdiler
reti
retin
retjek
retli
retma
retmegi
retmegin
retmek
retmekde
retmeklige
retmeli
retrieved
return
returns
rety
revenue
revert
review
reviewing
reviews
revised
revision
revisions
revisionslider
rew
rewoly
rey
rez
reza
rezidensiy
rezoly
rf
rfc
rfi
rgala
rgalanyn
rgen
rgenc
rgende
rgenin
rgenje
rgenji
rgenjin
rgenleri
rgenles
rgic
rgu
rhana
rhanalar
rhanalara
rhanalarda
rhanalary
rhanalaryn
rhanalaryna
rhanalaryny
rhanalarynyn
rhananyn
rhanasy
rhanasyny
rhanasynyn
ri
ria
ric
rica
rich
rie
riga
right
rights
rigi
riji
rijiler
rijiligi
rijiligini
rijilik
rijilikli
rijinin
rijisi
rik
rika
rikdes
rikli
riklik
riko
ril
rildi
rilen
rilende
rilenden
rilendigi
rilendigini
rilip
rilipdi
rilipdir
rilis
rilma
rilmegi
rilmegine
rilmegini
rilmeli
rilse
rily
rim
rimde
rimden
rime
rimi
rimin
rimli
rimliler
rimlilere
rimlileri
rimlilerin
rin
rind
rinde
rinden
rine
ring
rini
rinin
rio
rip
ripdir
ripdirler
ris
rit
rite
riteles
ritm
ritonlar
river
riy
riz
rjek
rjew
rjewe
rji
rju
rk
rka
rkan
rkc
rkezdi
rkezdiler
rkezen
rkezer
rkeziji
rkezijiler
rkezijileri
rkezijilerine
rkezijisi
rkezildi
rkezilen
rkezilip
rkezilipdir
rkezilis
rkezilma
rkezilmegi
rkezily
rkezip
rkezipdir
rkezipdirler
rkezis
rkezma
rkezme
rkezmegi
rkezmek
rkezmeler
rkezmeleri
rkezmesi
rkezy
rki
rkilerin
rkisi
rkiy
rkiye
rkler
rklerde
rklere
rkleri
rklerin
rkles
rkm
rkmen
rkmenabat
rkmenbas
rkmenbasy
rkmenc
rkmenden
rkmene
rkmenfilm
rkmengala
rkmengaz
rkmenhoway
rkmeni
rkmenin
rkmenistan
rkmenistana
rkmenistanda
rkmenistandaky
rkmenistandan
rkmenistanly
rkmenistany
rkmenistanyn
rkmenler
rkmenlerde
rkmenlerden
rkmenlerdir
rkmenlere
rkmenleri
rkmenlerin
rkmenlerinden
rkmenlerinin
rkmennebit
rkmenportal
rkmensa
rkmneistanyn
rku
rl
rla
rlar
rledi
rlemek
rlen
rlendi
rlenen
rlenily
rleny
rler
rlerda
rlerde
rlerden
rlere
rleri
rlerin
rlerinde
rlerinden
rlerine
rlerini
rlerinin
rles
rley
rli
rlidir
rlige
rligi
rligin
rliginde
rligine
rligini
rliginin
rlik
rlikde
rlikler
rliklere
rlikleri
rliklerin
rliklerinde
rliklerine
rliklerini
rliklerinin
rliler
rlilerin
rliligi
rlip
rlipdir
rlu
rm
rma
rme
rmede
rmeden
rmedik
rmegi
rmegin
rmek
rmekde
rmekden
rmeklige
rmeklik
rmeli
rmen
rmenc
rmeni
rmenler
rmenleri
rmenlerin
rmenlerinin
rment
rmentc
rmentler
rmentlerin
rmey
rmez
rmis
rmo
rn
rnek
rner
rnk
rnu
rnus
ro
road
roald
robert
roberto
robin
robot
robots
rock
rockstar
rod
roda
rodjers
rodoguna
rodogunanyn
rodos
rogly
roglynyn
rohi
rohma
rok
rokirowka
rol
rola
rolda
role
roles
roll
rollarda
rollary
rolling
rolunda
roluny
roly
rolyny
roma
roman
romanda
romanlar
romanlary
romanlarynda
romanlaryny
romantik
romantiki
romantizm
romany
romanyn
romanynda
romanyny
romanynyn
romul
ron
ronald
ronaldo
ronaldu
roque
ros
rosa
rosatom
rose
rosly
rossii
rossiy
rostov
rostow
rouge
round
row
rowac
rowan
rowanlygy
rowanlyk
roway
rows
roy
royal
rp
rpe
rr
rrjedha
rru
rs
rsa
rsag
rsak
rsaklar
rsary
rsarylar
rsarylaryn
rsarynyn
rsdu
rse
rsek
rseler
rsen
rsfsr
rsi
rsin
rsiz
rslenin
rsssf
rsu
rt
rta
rtburc
rtden
rte
rtgeley
rtgyran
rti
rtik
rtler
rtleri
rtlerin
rtmek
rtogrul
rttemberg
rtu
rturs
rty
ru
ruanda
rub
rubagy
rubin
rubl
rufet
rug
rugsady
rugsat
rugy
rugyny
ruh
ruhabat
ruhany
ruhanylar
ruhanylary
ruhanylaryn
ruhdan
ruhlandyry
ruhnama
ruhnamada
ruhnamany
ruhnamasynda
ruhnamasynyn
ruhubelent
ruhubelenthabarlas
ruhun
ruhuna
ruhunda
ruhuny
ruhunyn
ruhy
ruhyy
ruk
ruklaryny
ruku
rul
rules
ruly
rum
ruma
rumtyl
rumy
rumyn
rumync
rumyniy
rumynyn
run
running
runs
rup
rupdyr
rur
rus
rusc
rusiy
ruslan
ruslar
ruslara
ruslaryn
russ
russia
russian
russiy
russiyanyn
russlaryn
russo
rusy
rut
ruth
ruzwelt
ruzweltin
rwe
ry
rya
rybas
rydan
ryk
ryklary
ryl
rylan
rylandan
rylar
rylaryn
ryldy
rylmagy
rylmagyny
rylmay
rylmaz
rylsa
ryly
rylykda
rylyp
rylypdyr
rylys
rym
ryn
ryna
rynda
ryny
rynyn
ryp
rys
rysar
rysarlar
rysarlary
rysarlaryn
rysgal
rysy
ryza
rza
rze
s
sa
saady
saadynyn
sabyn
sabynlar
sabynlary
sabyny
sabyr
sac
sada
sadaka
sadakalar
sadakan
sadakany
sadakanyn
sadakasyny
sadakasynyn
saddam
saddamyn
sadece
sadrazam
sadyk
safa
safavid
safety
sag
saga
sagada
sagadyn
sagaldys
sagat
sagatda
sagatdan
sagatlap
sagatlyk
sagc
sagda
sagdy
sagdyn
sagdynlygyn
saglar
saglara
saglarda
saglary
saglaryn
saglyga
saglygy
saglygyn
saglygyna
saglygyny
saglyk
saglylanmalar
sagy
sagyn
sah
sahabalar
sahabalaryn
sahara
saharanyn
sahawat
saherdir
saheri
sahih
sahilli
sahna
sahnada
sahnalar
sahnalas
sahnasyna
sahnasynda
sahsy
sahy
sahyh
sahyhdyr
sahypa
sahypada
sahypadaky
sahypadan
sahypalar
sahypalara
sahypalary
sahypalaryn
sahypalaryna
sahypalarynda
sahypalaryndan
sahypalaryny
sahypalarynyn
sahypan
sahypany
sahypanyn
sahypasy
sahypasyna
sahypasynda
sahypasyndan
sahypasyny
sahypasynyn
said
saime
saint
sajaksyz
sak
sakar
sakarc
sakc
sakgal
sakgalyn
sakgalyny
saklady
saklama
saklamaga
saklamagy
saklamagyn
saklamak
saklamakda
saklamaklyk
saklamaly
saklamalydyr
saklan
saklanan
saklandy
saklanmagy
saklanmagyna
saklanmak
saklanmalydyr
saklany
saklanyly
saklanylypdyr
saklanyp
saklanypdyr
saklap
saklapdyr
saklapdyrlar
saklar
saklaryn
saklay
saks
saksoniy
sal
sala
salam
salamlas
salan
salar
salary
salaryn
salarynyn
salawat
salawaty
saldamly
saldy
saldyryp
saldyrypdyr
salgy
salgydy
salgydyn
salgydyny
salgylanma
salgylanmak
salgylanmalar
salgylany
salgylanylan
salgylanyp
salgylar
salgysy
salgyt
salgytdan
salgytlar
salgytlara
salgytlardan
salgytlary
salgytlaryn
salkyn
sallah
sallanc
salmagy
salmak
salman
salnan
salnyp
salnypdyr
sals
salwador
saly
salyh
salym
salyn
salyndy
salynmagy
salyny
salynypdyr
salyp
salypdyr
salypdyrlar
salyr
salyrlar
salyrlaryn
salys
sam
saman
samany
samanyn
samanynyn
samarkand
samarkanda
samarkandy
samarkandyn
samarkant
samarkantda
same
sami
samnit
samnitler
samoa
samoly
samos
sample
samsun
samsung
samsyk
samuel
samuray
san
sana
sanalan
sanalyp
sanamak
sanap
sanardan
sanas
sanat
sanaw
sanawac
sanawda
sanawy
sanawyna
sanawynda
sanawyny
sanay
sanc
sanda
sandan
sandbox
sangue
sanguy
sanitar
sanitariy
sanjar
sanjara
sanjardan
sanjaryn
sanjy
sanjym
sanjymlary
sankt
sanlar
sanlardan
sanlary
sanlaryn
sanly
sanlyja
sanlysy
sans
sanskrit
sansyz
santa
santeiro
santiago
santimetr
santimetre
santos
sany
sanydyr
sanyn
sanyna
sanynda
sanyndan
sanyny
sanynyn
sanysy
sanysyny
sao
sap
sapagy
sapagyn
sapak
sapaklar
sapaklary
sapaklaryny
sapanc
sapar
sapara
saparda
saparlary
saparmurat
saparmyrat
saparow
sapary
saparynyn
saplanmak
sapporo
sar
sara
saragt
sarah
sarahs
sarahsa
sarahsda
sarahsdan
sarahsly
sarahsyn
saray
sardiniy
sardoba
sargysyny
sargyt
sarianidinin
sariy
sarp
sarpa
sarpaly
sarpasy
sary
sarygamys
saryhanow
saryja
saryk
saryklar
saryklaryn
sarymsak
sarymtyl
saryy
sasani
sasanid
sasanidler
sasaniler
sasanitler
sasany
sasanylar
sasy
sat
satas
satdy
satirik
satiriki
satlas
satlyk
satmagy
satmak
satrapy
saturn
saturnyn
satuw
satuwa
saty
satylan
satyldy
satyly
satylypdyr
satyn
satyp
satypdyrlar
satys
saud
save
saved
saw
sawc
sawmy
say
sayfa
saylandy
saylyklar
saylyklary
says
saz
saza
sazak
sazanda
sazandalar
sazandalary
sazandalaryn
sazandasy
sazc
sazlary
sazlaryn
sazlaryny
sazlas
sazlay
sazly
sazlyklary
sazy
sazyn
sazyna
sazynda
sazyny
sazynyn
sc
scale
schedule
scheduled
scho
scholarship
scholarships
school
schools
schwarzwald
science
sciences
scientific
scott
screen
screenshot
script
scripts
sd
sdes
sdi
sdu
se
sea
search
searches
searching
season
seasons
seba
sebabi
sebapli
sebastian
sebit
sebitara
sebitda
sebitde
sebitden
sebite
sebiti
sebitin
sebitinda
sebitinde
sebitinden
sebitine
sebitini
sebitinin
sebitler
sebitlerde
sebitlere
sebitleri
sebitlerin
sebitlerinda
sebitlerinde
sebitlerinden
sebitlerine
sebitlerini
sebitlerinin
sebitley
sebtinde
sec
second
secondary
seconde
sectio
section
sections
secure
security
sede
see
seeking
seen
sefewi
sefewiler
sefewilerin
sefi
sehiw
sejda
sejde
sejdesi
sejdesini
sek
sekiz
sekizburc
sekizinji
sekretar
sekretarlygyna
sekretary
sekunt
sekuntda
sela
selc
select
selected
selection
seler
selewkidler
selewkidlerin
selewkitlerin
self
selim
seljerip
seljeris
seljugyn
seljuk
seljuklar
seljuklary
seljuklaryn
seljukly
seljuklylar
seljuklylaryn
sell
selly
selva
sem
sement
semi
semit
semiz
semy
sen
sena
senagat
senagata
senagatc
senagatda
senagatlas
senagaty
senagatyn
senagatyna
senagatynda
senagatyny
senagatynyn
senasy
senat
senata
senatda
senatdan
senator
senatorlary
senatorlaryn
senaty
senatyn
send
sende
senden
sendigine
sendigini
sendir
sene
senegal
seneleri
senem
senenama
senenamasy
senenamasynyn
senesi
senesinde
senesini
senesinin
senet
senetc
senhora
seni
senin
sensorly
sent
sentence
senturiy
senty
senuber
seny
seo
sep
sepahan
separate
sepgidinde
sepgitler
sepgitlere
sepgitleri
sepinmek
sepler
sepleri
seplerin
seplerini
seplerinin
seples
sepmeli
september
septimiy
ser
sera
serb
serbiy
serbler
serblere
serbleri
serblerin
serc
serdar
serdara
serdarlar
serdarlary
serdarlaryn
serdarlarynyn
serdary
serdarymyz
serdarymyzyn
serdaryn
serdarynyn
sereden
seredende
seredenin
seredildi
seredilende
seredilip
seredily
seredin
seredip
seredy
seresaply
seresaplylyk
seret
seretma
seretmek
seretmeli
seretmezden
seretsen
sergey
sergi
serhedi
serhedinde
serhedinden
serhedine
serhedini
serhedinin
serhet
serhetabat
serhetc
serhetden
serhetdes
serhetler
serhetleri
serhetlerinde
serhetlerine
serhetlerini
serhetlerinin
serhetles
serhety
serhos
seri
serial
serialda
serialyn
serie
series
serif
seris
seriy
serkerde
serkerdebas
serkerdeler
serkerdeleri
serkerdelerin
serkerdelerinin
serkerdeliginde
serkerdelik
serkerdesi
serkerdesinin
serkow
serpay
serpikdirip
sert
serve
server
service
services
serwer
serwerimiz
serwi
serwisi
serwiy
ses
sesi
sesin
sesine
sesini
seslenme
sesler
sesleri
seslerin
sesli
session
sessions
sessiy
sessiz
set
sete
seti
setir
setirde
setirden
setiri
setirin
setirler
setirlerde
setirleri
setirlerin
setirlerinde
setirlerini
setirli
setri
setting
settings
sety
seul
seus
seven
several
sevgi
sewastopol
sewer
sewerin
sex
sey
sez
sezar
sezara
sezaryn
sezewar
sf
sfera
sgel
sgelc
sgerma
sgermezlik
sgrabarczuk
sgu
sh
shah
shaherinde
shakur
share
shared
she
shemasy
shey
sheyle
shield
shift
shirley
shol
short
shortdesc
should
show
showing
shown
shows
shu
si
sibir
sibirde
side
sidebar
sidon
siebrand
sign
signature
significant
signups
sikli
sil
sileziy
silindr
silva
sim
simfoniki
simfoniy
similar
simins
simpatik
simple
simpler
simptomatiki
simsiz
simwoliki
simwollary
simwoly
sin
sina
sinanyn
sinay
since
sind
sinda
sinde
sinden
sindh
sine
singapur
singh
single
sinha
sinhay
sini
sinin
sink
sinon
sinop
sinszy
sintetik
sintetiki
sio
sir
siri
sirinde
sirinden
sirine
sirini
sirinin
siriy
sirk
sirleri
sirlerini
sirles
sirli
siseron
sisiliy
sistana
sistema
sistemalary
sistemanyn
sistemasy
sistemasyna
sistemasynda
sistemasyny
sistemasynyn
sistematika
sister
sitata
sitatalar
site
sites
sitesi
sitoplazma
siwilizasiy
six
siy
siyasal
siz
sizden
size
sizes
sizi
sizin
sizing
sizlerin
sizlige
sizligi
sizligin
sizlik
sjabloon
sk
skabelon
skandinaw
skandinawiy
skelet
skif
skifler
skiflerin
skills
skin
skins
skiy
skobelew
skott
skripka
skwaz
sky
sl
slawy
slay
sleri
sles
sley
slightly
slim
slimin
slow
slowak
slowakiy
slowen
sloweniy
slower
slowy
sm
sma
small
smaller
smartfon
smartphone
smegi
smeginde
smegine
smegini
smeginin
smg
smit
smolensk
sms
smw
smyslow
so
soap
sobre
soc
soccer
social
society
sofiy
soft
software
sog
sogaby
sogabyn
sogabyny
sogan
sogany
sogap
soguljanynyn
sokrat
sokynyn
sol
sola
solda
solo
solomon
solon
solonyn
soltan
soltana
soltangala
soltangalanyn
soltanlar
soltanlary
soltanlaryn
soltanlarynyn
soltanlygy
soltanlygyny
soltanlygynyn
soltanlyk
soltans
soltany
soltanyn
soltanynyn
solve
somali
some
someone
something
sometimes
somewhere
somma
sommars
son
sonam
song
songay
sonho
sonky
sonra
sont
sonun
sony
soon
sopuc
sopy
sopyc
sopyy
sora
sorady
sorag
soraga
soraglar
soraglara
soramaga
soraman
soranda
soranlarynda
sorap
sorapdyr
sorapdyrlar
soray
sorry
sort
sorted
sorting
sortlary
sorujy
sorujyly
sorup
sosial
sosialist
sosialistik
sosialistler
sosializm
sosializmden
sosializmin
sosiologiy
sosiy
soslowiy
sossial
sossialistik
sostawyna
sosy
sosyal
soter
sotsial
soul
sound
soundtrack
source
sources
sousa
south
souza
soviet
sow
sowa
sowadyjy
sowal
sowala
sowat
sowatly
sowda
sowes
sowet
soweti
sowetinin
sowetler
sowetlerin
sowetlerinin
sowgat
sowgatlar
sowuk
sowukdan
sowuklama
sowuklamagy
sowuklamalarynda
sowuklamanyn
sowuklamasy
soy
sp
space
spaces
spam
spanish
spaniy
sparta
spartada
spartagyn
spartak
spartaly
spartalylar
spartalylaryn
spartanyn
spasski
spasskiy
spassky
spe
speak
speaking
special
species
specific
specified
specify
speed
spektral
spekuly
spider
spirtli
sporalary
sport
sporta
sportda
sports
sportun
sportuny
sportunyn
sporty
sportyn
spy
sq
sqrt
squad
square
sr
srew
ss
sse
ssin
sska
sskp
ssr
sssr
st
sta
stadion
stadionlar
stadiony
stadionynda
staff
stage
stalin
stalinin
stambul
stambula
stambulda
stambuldaky
stambulyn
stamp
stampa
stan
stana
stanbul
standa
standard
standart
standartlaryna
standarty
stanford
stanoklar
stanoklary
stanoklaryn
stansiy
stany
stanyn
star
stara
start
started
starting
stas
state
statement
statements
states
station
statistics
statistik
statistika
statistikalar
stats
status
statusy
statusyna
statusyny
statuy
stawropol
stay
stefan
stefano
stem
stemin
step
ster
stesine
steve
steward
stewards
stey
sti
stiker
stil
stili
stilinde
stilinin
still
stilleri
stipendiy
stiw
stiwen
stki
stleri
stockholm
stol
stomatologiy
stone
stop
stopped
store
stored
stories
story
stp
strabonyn
strategik
strategiki
strategiy
strategy
street
stres
stress
strictly
string
strodt
strong
strukturasy
stu
stub
stubs
students
studies
studio
studios
studiy
study
sty
style
styles
styyx
styyxtalk
su
subclassis
subdivisi
subdivisio
subdivision
subfamilia
subgenus
subgroup
subject
subkutan
submission
submit
subordo
subpage
subphylum
subregnum
subscribe
subscription
subspecies
subtribus
subtropik
subtropiki
subut
subutnamalar
subutnamalary
subutnamasy
subutnamasydyr
suby
sucata
succeeded
successful
such
sud
sudaba
sudan
sudanda
sudanyn
sudet
sudy
sues
sufy
suggested
sugun
suguny
suite
sul
sulla
sullanyn
sultan
sulu
sum
sumbar
summary
sun
sungat
sungata
sungatda
sungaty
sungatyn
sungatyna
sungatynda
sungatyny
sungatynyn
super
supercell
superclassis
superdivisio
superfamilia
superordo
superphylum
superregnum
supertribus
support
supported
supporting
supports
sur
sura
suradyn
surat
surata
suratc
suratda
suratkes
suratlandyrmak
suratlandyry
suratlandyryly
suratlar
suratlary
suratlaryn
suratly
suraty
suratyn
suratyny
sure
suresini
suresinin
surinam
survey
suryn
sus
susan
sutherland
suw
suwa
suwarmak
suwaryly
suwarymly
suwarys
suwasty
suwda
suwdaky
suwdan
suwlar
suwlarda
suwlary
suwlaryn
suwlaryny
suwlarynyn
suwly
suwsuz
suwsuzlykdan
suwsyz
suwuk
suwuklygy
suwuklyk
suwun
suwuna
suwundan
suwuny
suwunyn
suwy
suwyn
suy
suz
sv
svg
svn
swapo
sweden
swedish
switch
switching
sy
syc
sydarya
sydyr
sygryn
sygyr
syhhatynyn
syk
sykylykc
sylag
sylaglandy
sylaglany
sylaglary
sylaglay
sylagy
sym
syn
syna
synag
synaga
synagdan
synagy
synagyn
synalara
synalary
synalaryn
synandy
synans
synanys
synasy
sync
synd
synda
synlamak
synlap
synlay
synmagy
synonyms
synp
synpa
synpda
synplar
synplaryn
synpy
synpynyn
syntax
syny
synyn
syp
sypatlar
sypatlary
sypaty
sypay
syr
syrasynda
syrc
syrdarya
syrdas
syrdery
syrdyryp
syria
syrian
syrkaw
syrkawyn
syrlaryny
syrly
syry
syryn
syryny
syryp
sysop
sysops
system
systems
sysy
sysynyn
syy
syyasy
syz
syzlyga
syzlygy
syzlygymyzy
syzlygymyzyn
syzlygyn
syzlygyna
syzlygyny
syzlygynyn
syzlyk
syzlykdan
syzy
syzys
szedun
szedunyn
szy
t
ta
tab
tabindir
table
tables
tablisada
tablisasy
tabs
tabyn
tabyndyr
tabynlygyna
tabynlygyndaky
tac
tad
tada
tadan
tag
tagala
tagalanyn
tagalla
tagallalar
tagallalary
tagallalaryny
tagallasy
tagam
tagamlar
tagamlary
tagamly
tagamy
tagan
tagc
taglymat
taglymaty
taglymatyn
taglymatyna
taglymatyny
taglymatynyn
tagma
tagmasy
tags
tagt
tagta
tagtabazar
tagtanyn
tagtda
tagtdan
tagtlar
tagtlary
tagtlaryn
tagty
tagtymyz
tagtymyzyn
tagtyn
tagtyna
tagtynda
tagtyndan
tagtyny
tagtynyn
tagy
tagzym
taharet
tahareti
taharetli
taharetsiz
tahirid
tahmasp
tahrimen
tahwiller
tahy
tahyr
tahyryn
tahyy
tailand
taille
tajigistan
tak
takdyry
take
taken
takes
taking
takm
takmyn
takmynan
taksi
taksonomik
taktiki
takwa
takygy
takyk
takyklygy
takyklyk
tal
talaba
talabalay
talaby
talabyna
talabyny
talady
taladylar
talak
talamaga
talamak
talan
talandy
talanmagy
talanmajak
talant
talantly
talany
talanyp
talanypdyr
talap
talapdyr
talapdyrlar
talaplar
talaplary
talaplaryna
talaplaryny
talas
talay
tales
talk
taly
talyby
talyp
talyplar
talyplara
talyplarda
talyplary
talyplaryn
talyplarynyn
talys
tam
tama
tamam
tamamlady
tamamlamak
tamamlan
tamamlanan
tamamlanandan
tamamlandan
tamamlandy
tamamlanmagy
tamamlany
tamamlanyndan
tamamlanyp
tamamlanypdyr
tamamlap
tamamlapdyr
tamamlay
taman
tamdyr
tamdyra
tamdyrda
tamdyry
tamdyryn
tamil
tan
tanadan
tanady
tanadypdyr
tanalan
tanaldy
tanaly
tanalyp
tanalypdyr
tanamak
tanap
tanapyny
tanatdy
tanay
tankydy
tankyt
tankytc
tankytlay
tannenberg
tans
tansc
tanslary
tansy
tansyn
tany
tanymal
tanyn
tanys
tanzaniy
tap
tapan
tapar
taparyn
tapawudy
tapawudyny
tapawut
tapawutlandyrmak
tapawutlandyry
tapawutlandyryly
tapawutlandyrys
tapawutlanmay
tapawutlany
tapawutlanyp
tapawutlanypdyr
tapawutlar
tapawutly
tapawutlylykda
tapdy
tapdylar
tapel
tapgyr
tapgyra
tapgyrda
tapgyrlay
tapgyry
tapgyryna
tapgyrynda
tapgyryny
tapgyrynyn
taplay
tapmadyk
tapmaga
tapmagy
tapmak
tapmaly
tapsa
tapy
tapyjy
tapylan
tapylanok
tapyldy
tapylmagy
tapylmagyna
tapyly
tapylyp
tapylypdyr
tapyndy
tapyndylar
tapyndylary
tapyndylaryn
tapyp
tapypdyr
tapypdyrlar
tapys
tar
tara
tarafından
tarap
tarapa
tarapda
tarapdaky
tarapdan
tarapdarlary
tarapdarlaryna
tarapdarlaryndan
tarapdarlaryny
tarapdarlarynyn
tarapdary
tarapdarydy
tarapdarydyr
tarapgo
taraplar
taraplara
taraplary
taraplaryn
taraplaryna
taraplarynda
taraplaryny
taraplarynyn
taraplay
taraply
tarapy
tarapyn
tarapyna
tarapynda
tarapyndaky
tarapyndan
tarapyny
tarapynyn
taras
targariy
target
tarhan
tarih
tarihi
tarma
tarmak
tarpa
tary
taryh
taryha
taryhc
taryhda
taryhdaky
taryhdan
taryhnamasy
taryhy
taryhymyz
taryhymyza
taryhymyzy
taryhymyzyn
taryhyn
taryhyna
taryhynda
taryhyndaky
taryhyndan
taryhyny
taryhynyn
tarylyp
taryp
taryplay
tas
tasir
tasit
task
taskforce
taslama
taslamalar
taslamalary
taslamalaryny
taslamalarynyn
taslamany
taslamanyn
taslamasy
taslamasyny
tasmaniy
tassyk
tassyklady
tassyklama
tassyklamagyna
tassyklamak
tassyklanan
tassyklandy
tassyklany
tassyklanyp
tassyklay
tat
tata
tatar
tatarlar
tatarlary
tatarlaryn
tatarlarynyn
tatawwu
tatda
tatdaky
tatlar
tatlarda
tatlary
tatlaryn
tatlarynda
tatlarynyn
taty
tatyn
tatynda
tatynyn
tauty
taw
tawaf
tawafa
tawafda
tawafy
tawafydyr
tawafyn
tawafyndan
tawafyny
tawafynyn
tawarih
tawul
tax
tay
taydan
tayfunet
taylor
taypa
taypalary
taze
tazeden
tbilisi
tc
td
tda
tde
tden
tdepdi
tdesinden
tdi
tdy
tdylar
tdym
te
team
teams
teatr
teatra
teatrlar
teatry
teatrynda
teatrynyn
tebigat
tebigata
tebigatda
tebigatdaky
tebigatdan
tebigaty
tebigatyn
tebigatyna
tebigatyny
tebigatynyn
tebigi
tebigy
tebip
tebipc
tech
technical
technologies
technology
ted
tefsir
tefton
tegelek
tegin
teginin
tegmiller
tegmilli
teh
tehas
tehlil
tehnalogiy
tehnika
tehnikany
tehnikanyn
tehnikasy
tehnikasyny
tehnikasynyn
tehniki
tehnologik
tehnologiki
tehnologiy
tehran
teixeira
tej
tejen
tejende
tejene
tejenin
tejriba
tejribe
tejribeler
tejribeleri
tejribeli
tejribesi
tejribesinde
tejribesine
tejribesini
tejribesinin
tejrime
tek
teka
tekbir
tekbiri
tekbirine
teke
tekeler
tekelerin
tekelerinin
tekes
tekirdag
tekiz
tekizligi
tekizligine
tekizliginin
teklibi
teklibine
teklibini
teklip
teklipler
teklipleri
tekliplerini
tekst
teksti
tekstil
tekstin
tekstini
tekstler
tekstleri
tel
telbiy
tele
telefon
telefonlar
telefonlarda
telegeples
telego
telegraf
telegrafirleme
telegrafiy
telekec
telekommunikasiy
teles
teletoon
telewideniy
telewizion
telewizor
telewizorlar
teley
telim
tell
telpek
tem
tema
temada
temadan
temalar
temalarda
temalardan
temalary
temanyn
temasy
temasyna
temettu
temi
teminden
temine
temir
temirin
temlik
temma
temmi
temperatura
temperaturanyn
temperaturasy
temperaturasynyn
templat
template
templatedata
templates
temporary
tempsort
ten
tendag
tendagyn
tende
tenden
tendensiy
tene
tenec
teni
tenin
teninden
tennisc
tentek
teo
teodor
teologiy
teoman
teorema
teoremasy
teoretiki
teoriy
ter
tera
terakki
terbiy
teren
teriji
terilen
terilip
terilipdir
terilis
terilmegi
terilmegine
terily
terim
terime
terimi
terimine
terimini
terin
terip
teripdir
teripdirler
teritoriy
terjima
terjime
terjimec
terjimehaly
terjimeler
terjimeleri
terjimesi
terk
terkidu
term
terma
termek
termez
termin
terminaly
terminalynyn
termini
terminleri
terminologiy
terms
terra
territorial
territoriy
terrorc
ters
tersine
tersles
tertibe
tertibi
tertibin
tertibinde
tertibine
tertibini
tertibinin
tertip
tertipde
tertiplenmeli
tertiples
tertipli
tertipsiz
terwiy
tery
tes
tesbih
tesla
test
testcases
tested
testing
teswir
tet
tetc
tewi
tewton
tex
text
texte
tey
tf
tg
tga
tgeden
tgedi
tgedildi
tgedilen
tgedilip
tgedily
tgedip
tgedipdir
tgedy
tgema
tgemegi
tgemegine
tgemeginin
tgemek
tgemey
tges
tgese
tgetdi
tgetma
tgetme
tgetmegi
tgetmek
tgetmeler
tgetmey
tgewsiz
tgey
tghb
tghs
th
tha
thai
than
thank
thanks
that
the
theguardian
their
them
theme
themes
themselves
then
there
these
they
things
think
third
this
thomas
thor
thorc
thorlyk
those
though
thoughts
thread
three
through
thug
thumb
thumbnail
thumbnails
thursday
ti
tiberinin
tiberiy
tibet
tibi
tibinin
tie
tieta
tigir
tiglatpalasar
tigr
tigran
tik
tikilen
tikin
tili
tilki
till
tilsimaty
tim
tima
timarlanypdyr
time
timeline
times
timezone
timor
timur
timurid
tin
tindu
ting
tingi
tinginde
tini
tinin
tinley
tinsoy
tio
tip
tipi
tipler
tipli
tir
tira
tire
tireler
tireleri
tirelerin
tirelerinin
tireoid
tiresi
tiresinden
tiresinin
tirkes
tirmizi
tirsek
tiry
tis
titan
title
titles
tito
titr
titra
titre
titreme
titremesi
tituly
tiw
tiy
tiz
tizara
tizden
tizlenme
tizles
tizligi
tizligine
tizligini
tizliginin
tizlik
tizlikde
tizlikli
tk
tkm
tkp
tkwiki
tl
tlar
tlary
tld
tler
tleri
tm
tma
tmaga
tmagy
tmagyna
tmak
tmaklaryna
tmaly
tmaz
tme
tmek
tmt
tmys
tn
tnc
to
toba
tobago
toc
today
toefl
tog
togalagynyn
togalak
togap
together
toggle
togrul
togsan
togtamys
togtatmak
togun
tohum
tohumc
tohumlary
tohumlarynyn
tohumly
tohumy
tohumyny
tohumynyn
tok
tokay
tokio
tokmak
tokugawo
tolgunys
tolkun
tolkunlary
tolkuny
tolstow
tolstowyn
tolstoy
tom
tomas
tomdan
tome
tomluk
tommi
tompson
tomsun
tomsuna
tomsunda
tomus
tomusda
tomusky
tomy
tomzagy
tomzak
tomzaklar
ton
tonga
toni
tonna
too
tool
toolbar
tools
top
topalan
topar
topara
toparc
toparda
topardaky
topardan
toparlans
toparlanys
toparlar
toparlara
toparlarda
toparlardan
toparlary
toparlaryn
toparlaryna
toparlarynda
toparlaryny
toparlarynyn
toparlay
topary
toparydyr
toparyn
toparyna
toparynda
toparyndan
toparyny
toparynyn
topbak
topic
topics
topkapi
topkapy
toplady
toplamak
toplan
toplanan
toplany
toplap
toplapdyr
toplay
toplum
toplumda
toplumlary
toplumlay
toplumy
toplumydyr
toplumyn
toplumyna
toplumynda
toplumyndan
toplumyny
toplumynyn
toponimika
toponimiy
toppdoma
topraga
topragy
topragyn
topragyna
topragynda
topragyny
topragynyn
toprak
toprakda
toprakdan
topraklar
topraklarda
topraklary
topraklaryna
topraklarynda
topraklaryny
toprakly
topy
tor
tora
toran
torba
torly
torneio
toronto
torun
toruna
tory
tos
total
totalitar
tou
touch
tour
tournaments
tow
tower
towlanyp
tows
towuk
towuklar
towun
toy
tozan
tozandan
tozanly
tozany
tozdury
tozduryp
tozdurypdyr
tozgunc
tozmagy
tr
tra
trac
track
tracks
trademark
traffic
traffigi
tragediy
trahey
traktat
traktor
trans
transcluded
transfer
translate
translated
translatewiki
translathon
translating
translation
translations
translators
translit
transmilli
transparent
transport
transporty
tranzaksiy
trapesiy
travel
tray
tre
tres
trestinin
trevor
trey
trezege
tri
triage
tribuny
tribus
trigonometriy
trihomoniaz
trilogiy
trinidad
trinomial
tripoli
triy
tropik
tropiki
troy
trt
true
trump
trust
trustees
try
ts
tsak
tssr
tt
tu
tuesday
tuguna
tul
tulliy
tumar
tun
tundra
tunga
tungus
tunis
tunisi
tupac
tupacyn
tupan
tur
tura
turan
turanyn
turba
turbalary
turdy
turgut
turizm
turk
turkan
turkey
turkic
turkish
turkiy
turkiye
turkmen
turkmenistan
turkmenistanda
turkmenistanyn
turkmenleri
turkmenlerin
turkmennet
turkmenportal
turkmenweb
turmak
turn
turning
turs
turup
turupdyr
turuzdy
turuzdylar
turuzy
tury
turzup
turzupdyr
tus
tussag
tussaglykda
tussaglykdan
tut
tutan
tutanlar
tutanlary
tutanlarynyn
tutanlygy
tutanlygyna
tutanlygynda
tutanlygyndaky
tutanlyk
tutany
tutanymyz
tutanynyn
tutas
tutdy
tutdylar
tutgay
tutha
tutjak
tutma
tutmadyk
tutmaga
tutmagy
tutmagyn
tutmak
tutmakdan
tutmaly
tutmalydyr
tutman
tutmasa
tutmay
tutmazlyk
tutsa
tutsak
tutsan
tutsun
tutten
tutujy
tutulan
tutulanda
tutuldy
tutulmagy
tutulmalydyr
tutulsa
tutuly
tutulyp
tutulypdyr
tutumly
tutun
tutup
tutupdy
tutupdyr
tutupdyrlar
tutus
tuty
tutyar
tuz
tv
tw
twin
twitter
twl
two
tx
txt
ty
tya
tyg
tygs
tyl
tylla
tyn
tyna
tynda
tyndan
tyny
tynyn
type
types
typing
u
ua
uan
uaz
uaziy
ub
ubey
ubiley
uc
uchin
ucin
ucoc
ud
uda
udia
udihu
udo
udorlar
udowik
udur
udz
uefa
uels
ufa
ug
uga
uganda
ugedey
uger
uglewodlar
ugo
ugor
ugoslawiy
ugra
ugrady
ugradylar
ugradyldy
ugradyly
ugradyp
ugradypdyr
ugran
ugrap
ugrapdyr
ugrapdyrlar
ugratdy
ugratmaly
ugray
ugrudyr
ugrukdyrylan
ugrulan
ugrun
ugruna
ugrunda
ugrundaky
ugrundan
ugruny
ugrunyn
ugry
ugrynda
ugur
ugurda
ugurdaky
ugurdan
ugurdas
ugurlar
ugurlarda
ugurlary
ugurlaryn
ugurlaryna
ugurlarynda
ugurlaryndan
ugurlaryny
ugurlarynyn
ugurly
ugurta
ugurtapyjylygy
ugy
ugyn
uhud
ui
uitfild
ujuna
ujunda
ujundan
ujuny
ujy
ujylar
ujylaryn
ujypsyz
ujypsyzja
uk
uka
ukajyk
ukij
uklap
uklar
uklary
uklaryn
uklay
ukly
ukma
ukowskiy
ukoza
ukrain
ukraina
ukrainada
ukrainadaky
ukrainany
ukrainanyn
ukraine
ukraini
ukray
ukrop
uks
uksemburg
ukuda
ukur
ukusy
uky
ukyby
ukybyna
ukybyny
ukybynyn
ukynyn
ukyplary
ukyply
ukyplydyr
ukyplylygy
ukyplylygyny
ul
ula
ulag
ulaglar
ulaglary
ulaglaryn
ulalanson
ulaldy
ulalmagy
ulaly
ulalyp
ulamalar
ulan
ulanan
ulandy
ulandylar
ulanmaga
ulanmagy
ulanmagyn
ulanmak
ulanmakda
ulanmaklyga
ulanmaklyk
ulanmaly
ulanman
ulanmazdan
ulany
ulanyja
ulanyjy
ulanyjylar
ulanyjylara
ulanyjylary
ulanyjylaryn
ulanyjylaryna
ulanyjylarynyn
ulanyjynyn
ulanylan
ulanylanda
ulanyldy
ulanylmaga
ulanylmagy
ulanylmagyna
ulanylmagynyn
ulanylmaly
ulanylmalydyr
ulanylmay
ulanylsa
ulanyly
ulanylyar
ulanylyp
ulanylypdyr
ulanylys
ulanyp
ulanypdyr
ulanypdyrlar
ulanys
ular
ulara
ulardan
ulardyr
ulary
ularyn
ularynyn
ulas
ulda
uldy
uldylar
ulgam
ulgama
ulgamda
ulgamdyr
ulgamlar
ulgamlary
ulgamlaryn
ulgamlarynda
ulgamlaryny
ulgamlarynyn
ulgamy
ulgamydyr
ulgamyn
ulgamyna
ulgamynda
ulgamyndaky
ulgamyndan
ulgamyny
ulgamynyn
ulian
uliy
ullakan
ulmady
ulmaga
ulmagy
ulmagyny
ulmagynyn
ulmak
ulmalar
ulmaly
ulmasy
ulmasyz
ulmay
ulmazlyk
uloza
uls
ulsa
ultimate
ultra
ultramelews
ultrases
ulu
uludy
uludyr
ulug
ulugbegin
ulugbek
ulular
ululary
ulularyn
ulularynyn
ululy
ululygy
ululygyna
ululygynda
ululyk
ululykda
ululykdaky
ulumsylyk
ulupdyr
ulus
uluslar
ulusy
ulusydyr
uly
ulydyr
ulyga
ulygy
ulygyn
ulygyny
ulyk
ulykda
ulylar
ulylaryn
ulyn
ulyna
ulynda
ulyp
ulypdyr
ulypdyrlar
ulys
um
uma
umay
umer
umlar
umlary
umlaryn
umlaryny
umlarynyn
umman
ummany
ummanyn
ummanynda
ummanyndan
ummanynyn
ummasyz
umra
umre
umrede
umrulan
umrulypdyr
ums
umu
umuman
umumy
umumyadamzat
umumylas
umumylygy
umumymilli
umurtga
umurtgalar
umurtgalary
umurtgalaryny
umus
umut
umydy
umyny
umyt
un
una
unan
unana
unanyn
unanystan
unay
unbas
unc
unca
und
unda
undaky
undan
unde
under
underground
understand
understanding
undylar
undylary
undyr
une
unesco
unesko
unexpected
unfortunately
unhen
uni
unicode
union
unipet
unitar
united
universal
university
uniwersal
uniwersitet
uniwersitetde
uniwersitete
uniwersiteti
uniwersitetin
uniwersitetinde
uniwersitetine
uniwersitetini
uniwersitetinin
uniwersitetler
uniwersitetleri
uniwersitetlerin
uniwersitetlerinin
uniy
unknown
unlar
unlara
unlarda
unlary
unlaryn
unlaryna
unlarynda
unlaryndan
unlaryny
unlarynyn
unless
unlukda
unly
unlylar
unrankable
unranked
unsow
until
untly
unu
unudyp
unun
ununy
ununyn
unus
unutman
unwanlary
unwany
unwanyny
uny
unyn
unyna
unynda
unyndaky
unyndan
unyny
unynyn
up
upcoming
update
updated
updates
updy
updyr
updyrlar
upiter
upload
uploaded
uploads
upon
upper
upright
ur
ura
ural
uran
urartu
uratu
uratunyn
urban
urda
urdu
urdum
urdumyz
urdumyza
urdumyzda
urdumyzdaky
urdumyzy
urdumyzyn
urdun
urduna
urdunda
urduny
urdunyn
urdy
urdyn
urga
urgaly
urganyn
urgara
urgasyz
urgy
uri
uridik
uridiki
urin
uriy
urkac
url
urlan
urma
urmagy
urmak
urmiy
urnal
urnalist
urnalistlerin
urnallar
urnallarda
urnallarynda
urnaly
urnalyna
urnalynda
urnalynyn
uro
urosy
urosynyn
urp
urs
urt
urtda
urtdaky
urtdan
urtdur
urtdy
urtl
urtlar
urtlara
urtlarda
urtlardaky
urtlardan
urtlary
urtlaryn
urtlaryna
urtlarynda
urtlaryndaky
urtlaryndan
urtlaryny
urtlarynyn
urtly
urtlylar
urug
uruga
urugc
uruglar
uruglary
uruglarynyn
urugway
urugy
urugyn
urugyna
urugyndan
urugynyn
urup
urupdyr
urus
ury
uryldy
uryly
urymy
us
usa
usability
usage
usb
usd
use
used
useful
user
userboxes
username
users
uses
usets
ushbu
using
usion
usiy
uskalar
uskanyn
ussa
ussac
ussady
ussahana
ussahanalar
ussahanasynda
ussalar
ussalary
ussalaryn
ussalarynyn
ussanyn
ussasy
ussat
ussatlarc
ussatlary
ussatlarynyn
ussatlygy
ussatlygyny
ussatlyk
ussiy
ussr
ustac
ustaw
usual
usually
usuf
usufa
usul
usulda
usullar
usullary
usullaryn
usullaryny
usullarynyn
usuly
usulydyr
usulyn
usulyna
usulynda
usulyny
usulynyn
usulyy
usup
usy
usyna
usynyn
ut
uta
utany
utc
uter
uterde
utere
uteri
uterin
uterler
uterleri
uterlerin
utgas
utilisant
utilisateur
utilisateurs
utilisatrice
utilise
utiliser
utizm
uton
utuk
utuly
utulys
utup
utus
uwa
uwagt
uwagtky
uwal
uwas
uwey
uwmak
uwmalydyr
uwnanyn
uwnup
uwuly
uwunmak
uwup
uwy
uy
uz
uzaga
uzak
uzakda
uzakdaky
uzakdan
uzaklas
uzaklygy
uzaklykda
uzaklykdadyr
uzalan
uzaldy
uzalma
uzalmasy
uzaltmak
uzaly
uzalyp
uzap
uzay
uzboy
uzdas
uze
uzlar
uzu
uzunlygy
uzy
uzyn
uzyna
uzynda
uzynlygy
uzynlygyna
uzynlygynyn
uzynlyk
uzynlykda
uzyny
uzynyn
v
va
vaga
valeur
valid
value
values
van
vandalism
var
variable
variables
variety
various
vattenfall
ve
vec
vector
velvet
vera
verbund
verde
vermek
vers
version
versions
very
vi
via
victor
victoria
vida
vidas
video
vietnam
view
viewer
viewing
views
vii
viii
vikipedi
vikiproje
vila
villa
village
vilnius
vincent
virus
visible
visit
visual
visualeditor
vo
voce
voice
vol
volks
volunteer
volunteers
vorlage
vote
voter
voters
votes
voting
vs
vsu
vu
vulnerable
w
wa
wada
wag
waginizm
wagon
wags
wagt
wagta
wagtal
wagtda
wagtdaky
wagtdan
wagtky
wagtlap
wagtlar
wagtlarda
wagtlardan
wagtlary
wagtlaryn
wagtlarynda
wagtlaryny
wagtlay
wagtly
wagtlyk
wagty
wagtym
wagtyn
wagtyna
wagtynda
wagtyndan
wagtyny
wagtynyn
wagytda
wagyz
wagzy
wah
wahideddin
wahyt
wait
wajyp
wajypdyr
wajyplary
wajyplygy
waka
wakadan
wakalar
wakalara
wakalardan
wakalary
wakalaryn
wakalaryna
wakalaryny
wakalarynyn
wakany
wakanyn
wakasy
wakfa
wakfe
wakfesinden
waksina
waksinasiy
wakyf
wal
walensiy
walent
walentin
waleriy
walide
walinin
walker
wall
walla
walli
walt
walter
waly
wam
wamberi
wan
wana
wanat
wanda
wandallar
wanessa
wankuwer
wanlar
wanlara
wanlarda
wanlardan
wanlary
wanlaryn
wanlaryny
wanlarynyn
want
wanted
wants
wany
wanyn
wap
war
ward
wariant
wariantlary
warianty
warikoz
warner
warning
wars
was
washington
wasiliy
wasily
wasko
wasp
wassal
wassaly
wat
watan
watana
watanc
watandas
watanso
watany
watanym
watanymyz
watanymyzda
watanymyzyn
watanyn
watanyna
watanyny
watanynyn
watch
watching
watchlist
watchlists
water
watikan
watwat
wawilon
wawilona
wawilonda
wawilonlylar
wawilony
wawilonyn
wawilow
way
ways
wc
wda
wdada
wdadan
wdaga
wdany
wdanyn
wdasy
wdasyna
wdasynda
wdasyny
wdasynyn
wdega
wdi
wdu
we
web
weblinks
websay
website
wed
weda
wedalar
wednesday
week
weekly
weeks
wegas
wegetatiw
weight
wekgelc
wekgellik
wekil
wekilbazar
wekilc
wekili
wekilin
wekilini
wekilinin
wekiller
wekilleri
wekillerinden
wekillerine
wekillerini
wekillerinin
wektor
wektoryn
wel
wela
welay
welayat
welayaty
welayatyn
welayatynda
welayatynyn
welcome
welen
weli
welia
welin
well
wella
wellac
welosiped
wely
wen
wena
wenada
wenegi
wenera
weneriki
wenesiy
wenesuela
wenesuelanyn
wenger
wengriy
wenin
wenrgiy
went
wepa
wepaly
wepalylygy
wepalylyk
wepat
wepay
wer
werden
were
werege
weregi
weregin
wereginda
wereginde
wereginden
weregine
weregini
wereginin
werek
werekda
werekde
werekleri
wereklerinda
wereklerinde
wereklerine
werekley
wers
wersal
wersiy
wes
wesariy
wesi
wesini
wesiy
wesjen
weslendirjek
weslendirmek
weslendiry
west
western
wesy
wet
weterinar
weterinariy
weto
wey
wez
wezdurdy
wezine
wezini
wezipa
wezipd
wezipe
wezipede
wezipeler
wezipelerde
wezipelere
wezipeleri
wezipelerin
wezipelerinde
wezipelerine
wezipelerini
wezipelerinin
wezipeli
wezipesi
wezipesinde
wezipesinden
wezipesine
wezipesini
wezipesinin
wezir
weziri
wezirin
wezow
wezowa
wgi
wgu
what
whatamidoing
when
wher
where
wheri
wherin
wherinin
whether
which
while
white
whitfield
who
why
wi
wid
wide
widehat
wideo
wideomontaz
widow
width
wied
wiki
wikicode
wikidata
wikimania
wikimedia
wikimedians
wikipe
wikipedia
wikipedias
wikipediy
wikiproject
wikis
wikispecies
wikitaslama
wikitech
wikitext
wiktor
wiktoriy
wild
wildlife
wilgelm
wilhelm
will
willem
william
williams
willin
willing
wilny
wilson
wilsonyn
wily
win
winc
window
windows
winners
winter
wir
wirjiniy
wirtual
wirus
wirusa
wiruslar
wiruslary
wiruslaryn
wirusly
wirusy
wirusyn
wirusynyn
wis
wise
wish
wishes
wishlist
wisla
witaliy
witamini
witaminler
witaminleri
witaminlerin
witebsk
witfild
witfildin
with
within
without
witr
wiy
wizantiy
wizit
wizitka
wizual
wl
wla
wladimir
wladimirowic
wladislaw
wle
wledi
wlen
wlet
wletara
wletde
wletden
wletdir
wlete
wleti
wletidir
wletim
wletimiz
wletimizde
wletimizin
wletin
wletinda
wletinde
wletinden
wletine
wletini
wletinin
wletler
wletlerde
wletlerden
wletlere
wletleri
wletlerin
wletlerinde
wletlerinden
wletlerine
wletlerini
wletlerinin
wletli
wletma
wlety
wliy
wlu
wmal
wmde
wme
wmek
wmf
wne
wnejay
wni
wnu
wo
wodorod
wokal
woley
wolfram
wolga
wolwoksyn
women
won
woods
word
words
work
workboard
worked
workflow
working
works
world
worskla
would
woy
wozroz
wp
wpa
wpbannermeta
wra
wrac
wran
wre
wrebap
wrebaplas
wreda
wreden
wredip
wredipdirler
wredy
wregin
wrek
wreli
wreliligin
wrelilik
wren
wrendi
wrendiler
wrenen
wreniji
wrenijiler
wrenildi
wrenilen
wrenilende
wrenilip
wrenilipdir
wrenilis
wrenilma
wrenilmedik
wrenilmegi
wrenilse
wrenily
wrenip
wrenipdir
wrenipdirler
wrenis
wrenma
wrenmegi
wrenmegin
wrenmek
wrenmekde
wrenmekden
wrenmeklige
wrenmekligin
wrenmeklik
wrenmeli
wreny
wresi
wresinin
wretmek
wri
write
writing
written
wriz
wrizde
wrize
wrizi
wrong
wrote
wru
ws
wsi
wsinin
wsu
wu
wulkan
wulkanlar
wulkany
wut
wwa
wwe
www
wy
wyz
x
xbox
xeno
xi
xiaomi
xii
xiii
xiv
xix
xml
xt
xtools
xv
xvi
xvii
xviii
xx
xxi
xxii
y
ya
yabany
yada
yagday
yagdayda
yagny
yahoo
yak
yakyn
yale
yaly
yan
yana
yandex
yanynda
yar
yarag
yarlamak
yarym
yas
yasalan
yay
yayınları
yazan
yazylan
yb
yba
ybadat
ybadatdyr
ybadathana
ybadathanalar
ybadathanalarda
ybadathanalary
ybadathanalaryn
ybadathananyn
ybadathanasy
ybadathanasynyn
ybadatlar
ybadaty
ybadatyn
ybadatyna
ybadatyny
ybadatynyn
ybarat
ybaratdy
ybaratdyr
ybatalga
ybray
yby
ybynlar
yc
yd
yda
ydaky
ydam
ydaman
ydamly
ydamlylygy
ydan
ydap
ydas
ydy
ydyr
ye
year
years
yeke
yen
yene
yeni
yeniji
yenijisi
yenilish
yenish
yer
yerde
yere
yeri
yerin
yerine
yerler
yerleri
yerlerin
yerlerinde
yerlerini
yerles
yerlesen
yerlesiyar
yerli
yes
yet
yetis
yewropa
yewropada
yg
yga
ygal
ygallaryn
ygalyn
ygar
ygary
ygjamlas
yglan
ygly
yglylygy
yglylygyn
yglylyk
ygnady
ygnaga
ygnagy
ygnagyn
ygnagyna
ygnagynda
ygnagynyn
ygnak
ygnakda
ygnalan
ygnalmagy
ygnaly
ygnamaga
ygnamak
ygnanan
ygnandy
ygnans
ygnany
ygnanyp
ygnanypdyrlar
ygnanys
ygnap
ygnapdyr
ygnapdyrlar
ygnay
ygrynda
ygryy
ygtybarly
ygtyy
ygy
ygydan
ygydyr
ygylygy
ygym
ygyn
ygyna
ygynda
ygyndan
ygyndy
ygyndyda
ygyndylary
ygyndylarynyn
ygyndynyn
ygyndysy
ygyndysyna
ygyndysynda
ygyndysyndan
ygyndysyny
ygyndysynyn
ygyny
ygynyn
ygyr
ygyrlar
ygyrlary
ygyrlarynda
ygyrlaryndan
ygyrlaryny
ygyrlarynyn
ygyry
ygyrynda
yh
yhlas
yhlasly
yhlasy
yhram
yhrama
yhramdan
yhramsyz
yhramyn
yhsan
yhsar
yhzada
yi
yju
yjy
yjylar
yjylary
yjylaryn
yjysy
yk
ykalga
ykalgasy
ykan
ykanda
ykandan
ykandygy
ykandygyny
ykandyr
ykanlar
ykanlarynda
ykanson
ykanyndan
ykar
ykaran
ykarar
ykardy
ykardylar
ykarma
ykarmaga
ykarmagy
ykarmagyn
ykarmak
ykarmakda
ykarmaly
ykarmay
ykary
ykaryjy
ykarylan
ykaryldy
ykarylmagy
ykarylmagyny
ykaryly
ykarylyp
ykarylypdyr
ykarylys
ykaryp
ykarypdyr
ykarypdyrlar
ykarys
ykay
ykbal
ykbaly
ykbalyna
ykbalyny
ykbalynyn
ykc
ykda
ykdajy
ykdajylar
ykdajylary
ykdajylaryn
ykdan
ykday
ykdy
ykdylar
ykdyr
ykdysady
ykdysadyy
ykdysatc
ykgyn
ykgynsyz
ykgytlar
ykjak
ykjakdygyny
ykjam
yklar
yklara
yklarda
yklardan
yklary
yklaryn
yklaryna
yklarynda
yklaryndan
yklaryny
yklarynyn
ykly
yklydy
yklydyr
yklygy
yklygyny
yklyk
yklykda
yklylykda
yklymda
yklymynyn
ykma
ykmaga
ykmagy
ykmagyna
ykmagyny
ykmagynyn
ykmajak
ykmak
ykmalar
ykmaly
ykman
ykmandyr
ykmanka
ykmasy
ykmay
ykmaz
ykmazdan
ykrar
yksa
yksyz
yku
yky
ykyar
ykylan
ykylanda
ykyldy
ykylmagy
ykylmagyna
ykyly
ykylyp
ykylypdyr
ykyp
ykypdy
ykypdyr
ykypdyrlar
ykys
yl
yla
ylahy
ylahyy
ylalas
ylamaga
ylan
ylanc
ylanda
ylandan
ylandy
ylandyr
ylanly
ylany
ylap
ylar
ylara
ylarda
ylardan
ylardy
ylary
ylaryn
ylaryna
ylarynda
ylaryndan
ylaryny
ylarynyn
ylas
ylay
yld
ylda
yldaky
yldan
yldawuk
yldy
yldyrym
yldyz
yldyzlar
yldyzlary
yldyzlaryn
yldyzy
yldyzyn
yle
ylganc
ylgap
ylgas
ylgaw
ylgay
ylgyn
ylham
ylky
yllap
yllar
yllara
yllarda
yllardaky
yllardan
yllary
yllaryn
yllaryna
yllarynda
yllaryndaky
yllaryndan
yllaryny
yllarynyn
yllyga
yllygy
yllygyn
yllygyna
yllygynda
yllyk
yllykda
yllykdan
yllyklar
yllyklara
yllyklarda
yllyklardan
yllyklaryn
ylma
ylmadyk
ylmagy
ylmagyna
ylmanak
ylmanan
ylmay
ylmaz
ylmy
ylmyn
ylmyna
ylmynda
ylmyny
ylmynyn
ylow
yls
ylsa
ylsay
yltmac
yly
ylyga
ylygam
ylygy
ylygyn
ylygyna
ylygynda
ylygyndaky
ylygyndan
ylygyny
ylygynyn
ylyk
ylykda
ylykdan
ylykdyr
ylyklar
ylyklara
ylyklardan
ylyklary
ylyklaryn
ylyklaryna
ylyklaryndan
ylyklaryny
ylyklarynyn
ylykly
ylyksyz
ylylygy
ylylyk
ylym
ylyma
ylymda
ylymdyr
ylymlar
ylymlary
ylymlaryn
ylymlaryny
ylymlarynyn
ylymly
ylymy
ylymyn
ylyn
ylyna
ylynda
ylyndan
ylyny
ylynyn
ylyp
ylypdy
ylypdyr
ylys
ym
yma
ymam
ymama
ymamy
ymamyn
ymarat
ymaratc
ymaratlar
ymaratlary
ymaratlaryn
ymaraty
ymaratyn
ymtyly
ymtylys
ymy
ymykly
ymyn
ymyz
ymyzda
ymyzy
ymyzyn
yn
yna
ynal
ynam
ynamdar
ynamly
ynamsyzlyk
ynamy
ynamyna
ynamyny
ynanc
ynandyry
ynandyryjy
ynanjy
ynanjyna
ynanjynda
ynanmak
ynanmaly
ynanmay
ynanmazlyk
ynany
ynanyly
ynanyp
ynanypdyr
ynanypdyrlar
ynas
ynaslygy
ynaslyk
ync
ynda
yndady
yndaka
yndaky
yndam
yndan
yndygy
yndyr
yngurlus
ynha
ynjyk
ynkylaby
ynkylabyn
ynkylabynyn
ynkylap
ynkylapc
ynlakay
ynlanan
ynlar
ynlary
ynlaryn
ynlaryny
ynlarynyn
ynlyk
ynmac
ynsan
ynsana
ynsandan
ynsanlar
ynsanlara
ynsanlary
ynsanlaryn
ynsanperwer
ynsanperwerlik
ynsany
ynsanyn
yny
ynyn
ynyna
ynyny
ynynyn
yo
yok
yokary
yol
yola
yolbas
yoly
yone
yordam
yorite
york
yorkork
yorkorkun
yorumlar
you
young
your
youtube
yp
ypa
ypahana
ypahananyn
ypahanasy
ypdy
ypdyr
ypdyrlar
yplap
yplygy
yr
yra
yraga
yragy
yragyn
yrak
yrakda
yrakdaky
yran
yrda
yrdy
yrdylar
yrjak
yrlaryn
yrly
yrlydyr
yrmaga
yrmagy
yrmak
yrmakda
yrmakdan
yrmaly
yrmalydyr
yrman
yrmay
yrow
yrsarap
yrsy
yrsyna
yrsynda
yrsyndaky
yrtyjy
yrtyk
yry
yrygy
yryklary
yrylan
yryldy
yrylmagy
yryly
yrylyp
yrylypdyr
yrymlas
yrymly
yrymlydyr
yryn
yryp
yrypdyr
yrypdyrlar
yrys
ys
ysgyndan
ysgynsyzlyk
yshak
yslam
yslama
yslamda
yslamdan
yslamy
yslamyn
ysly
ysmamyt
ysmay
ysmaz
ysnys
yspyhan
yspyhana
yspyhanda
yspyhany
ysray
yssy
ysy
ysydyr
ysyna
ysynda
ysyndan
ysyny
ysynyn
ytly
yto
yu
yue
yun
yurdumyzda
yurdumyzyn
yurdun
yurt
yuwas
ywa
ywalar
ywalaryn
yy
yyl
yyla
yylda
yyldan
yyllap
yyllar
yyllarda
yyllyk
yylyn
yz
yza
yzagalak
yzarlamak
yzarlanyp
yzarlap
yzarlapdyr
yzarlay
yzda
yzdan
yzdyr
yzgy
yzgylar
yzgylary
yzgysy
yzky
yzlar
yzlary
yzlaryna
yzly
yzlyk
yzmak
yzmyks
yzy
yzygider
yzygiderli
yzygiderliligi
yzygy
yzygyn
yzyk
yzyklar
yzykly
yzylan
yzyn
yzyna
yzynda
yzyndan
yzyny
yzysu
yıl
yılın
yılında
z
za
zabt
zac
zada
zady
zadyn
zadyny
zahhagyn
zahhak
zahmet
zak
zakaspi
zakaspide
zakaspiy
zakawkaziy
zakawkazy
zakaznigi
zakymlay
zal
zalar
zallary
zaly
zalym
zalymlygy
zalymlyk
zalynda
zam
zaman
zamana
zamanasy
zamanasynda
zamanasyny
zamanasynyn
zamanda
zamanlar
zamanlarda
zamanlardan
zamany
zamanyn
zamanyna
zamanynda
zamanyndan
zamanynyn
zambiy
zammy
zan
zanetti
zappanyn
zar
zara
zaralarynda
zaratus
zarba
zarbasy
zarina
zary
zaryn
zat
zatdan
zatdyr
zatlar
zatlara
zatlarda
zatlardan
zatlary
zatlaryn
zatlaryny
zatlarynyn
zawod
zawodlar
zawodlary
zawodlaryn
zawody
zawodyn
zawodynyn
zay
zaz
zb
zbas
zbe
zbegistan
zbegistanda
zbegistanyn
zbegystan
zbek
zbekc
zbekler
zbeklerden
zbeklerin
zbolus
zde
zdelife
zdelifede
zden
zdi
zdu
ze
zealand
zec
zeden
zedilmegi
zedip
zedis
zega
zegc
zehin
zehini
zehinini
zehininin
zehinli
zek
zekai
zekat
zekata
zekatda
zekatdan
zekaty
zekatyn
zekatyny
zekatynyn
zel
zela
zelandiy
zeledi
zelel
zeleli
zelemek
zelenip
zelenis
zelenmegi
zeleny
zeler
zeli
zelik
zelikler
zelikleri
zeliklerin
zelili
zelilinin
zellige
zelligi
zelligini
zellik
zem
zemey
zeminin
zemzen
zen
zenan
zenana
zenanlar
zenanlara
zenanlaryn
zenanlarynyn
zenany
zenanyn
zenek
zeni
zenini
zenit
zeper
zeperlenmegi
zer
zeranyny
zerarly
zerga
zeri
zerin
zerur
zerurdy
zerurdygyny
zerurdyr
zerurlygy
zerurlygyna
zerurlygyny
zerurlyk
zerurlykdan
zerurlyklar
zerurlyklary
zerurlyklaryny
zes
zesi
zetmek
zeus
zewal
zewaldan
zey
zga
zgalan
zge
zgerdi
zgerdis
zgeris
zgermegi
zgertma
zgertmek
zgertmeler
zgertmeleri
zgertmelerin
zgery
zgu
zgyny
zh
zi
zid
zidane
zide
zik
zikge
zikgela
zikgelenen
zikir
zil
zilhijja
zilhijje
zimbabwe
zin
zinay
zinda
zinde
zinden
zine
zini
zinin
zip
zir
zire
zirem
zirin
zirki
zirkizaman
zirlikc
ziy
zl
zla
zle
zleg
zlegc
zlegi
zlegin
zleginde
zlegler
zlegleri
zleglerin
zlem
zlema
zlemde
zleme
zlemek
zlemeli
zlemi
zlemin
zlemler
zlemleri
zlemlerin
zlenilen
zlenip
zlenipdir
zlenipdirler
zleny
zler
zlerc
zlerden
zlere
zleri
zleric
zlerin
zlerinde
zlerinden
zlerine
zlerini
zlerinin
zles
zley
zli
zlu
zma
zme
zmegi
zmegin
zmek
zmekde
zmekden
zmeklige
zmeli
zmey
zmir
zn
znu
zo
zolagy
zolagynda
zolagyny
zolagynyn
zolak
zolakda
zolaklary
zolaklaryny
zolakly
zombies
zonalar
zonasynda
zond
zone
zoodivisio
zoologiy
zoom
zoosectio
zoosubsectio
zor
zordan
zorluk
zoroastrizm
zos
zsu
zu
zukerberg
zul
zulkarney
zulum
zulumyna
zulumyndan
zuni
zy
zygtyy
zygyr
zyk
zyl
zyn
zyna
zynat
zyndan
zyndana
zyp
zyy
{
|
}
~

¡
¢
£
¤
¥
¦
§
©
«
¬
­
®
°
±
²
³
¶
·
¸
º
»
¼
½
¾
×
ß
æ
÷
ørsted
đo
ħal
ı
ıktısı
ılgın
ın
ł
ʰ
ʻ
ʼ
ʾ
ˈ
ː
˚
̀
́
̂
̃
̄
̆
̇
̈
̉
̊
̋
̌
̓
̔
̛
̣
̦
̧
̨
͂
α
β
γ
ε
λ
ν
ς
σ
υ
ω
а
або
автор
азербаи
азии
ак
аль
ан
апреля
арабскии
ареалу
ас
ат
ашх
ашхабад
аятов
б
базі
баи
баргузинскии
баргузинских
баргузинского
баргузинском
без
безпеці
безрангових
безранговоі
бер
библиотека
близькии
больше
буде
будут
бурятии
был
в
ван
вв
века
великои
версия
версіі
вид
видалении
види
виду
видів
визнании
викимедиа
википедии
виключении
вилучено
вимерлии
вимерлі
винищении
виражении
владимирович
во
водиться
воз
вои
волі
вопросы
восточного
восточном
впере
время
все
вы
вып
від
відомии
вірусів
г
гг
герои
года
гос
государственныи
грибів
груп
групи
д
даних
держави
джерело
для
до
добровольцев
другии
других
е
его
если
есть
ж
же
жизни
жизнь
з
за
заголовок
загроз
загрозливого
загрозою
залежать
заповедник
заповедника
заповеднике
здесь
земля
значение
зниження
зникнення
зображення
и
из
изучения
ил
или
индустрия
иркутск
истории
история
их
к
как
калып
калья
канада
карти
категория
категорія
категорією
класифікаціі
класса
количество
комитет
комплекс
консультации
корана
коронавирусом
критичнии
критичніи
кто
л
легкая
м
мабуть
мапи
материалы
медведь
межах
межі
меншим
мечения
мира
млекопитающих
можливо
мсоп
мы
міри
н
на
назва
название
наи
нам
народ
народа
населения
научно
наша
не
небезпеці
невизнаним
невірним
недослідженим
недостатньо
неправильним
нептун
новозеландська
номер
ноября
ны
о
об
области
область
озне
они
организации
основы
от
официальныи
охорони
охороннии
охоронним
охоронного
охота
охотн
очерки
п
перевод
перевода
период
першии
пифагора
по
побережье
поведения
погано
получил
поля
популяціі
посилання
поступове
правда
прибаи
приорітет
припев
припускається
природа
про
проблемы
проектах
проектирование
пріоритет
під
р
раздел
рахман
рггу
революции
ред
республики
ризик
ризиком
ризику
рослин
россии
русскии
русско
русском
рідкіснии
рідкісним
с
саи
сборник
северо
сеи
сери
система
скачать
словарь
слово
соболеи
соболя
совет
советского
соломин
сочи
союз
спб
список
сср
ссср
статті
статус
статусом
статусу
статьи
статья
ства
стр
ступеня
сура
т
так
также
таксон
там
те
то
том
тр
третіи
туркмении
туркменистан
туркменистана
туркменистане
туркменскии
туркменского
туркменскои
тюркских
у
укп
универсаль
уразливии
уче
учебник
ф
фабрик
фауна
х
хоз
хозяи
хх
центр
ч
червонии
через
черникин
четвертии
чи
что
чтобы
шабле
шаблон
шаблона
ширина
ших
щ
що
э
экологии
это
этом
ю
я
языках
языке
якии
якого
якщо
і
із
інше
іншою
ҡалып
ҫ
ү
ַ
ָ
אינטרנט
ב
ה
המדינות
טבלת
י
כ
ם
סיומות
סיומת
פ
ר
ש
ת
،
ا
الا
الگو
ب
بن
ت
ح
خرد
د
ر
س
ش
شهرستان
ص
ع
ف
ق
قالب
ل
م
ن
ه
و
ي
َ
ُ
ِ
ّ
ْ
ٓ
ٔ
ٕ
پ
چ
ژ
ڮ
گ
ں
ۇ
ۋ
ی
۲
۳
ँ
च
ज
ट
ण
द
ब
र
ल
श
स
ह
ा
ि
ी
े
्
ং
ট
ণ
ন
ব
র
ল
স
়
া
ি
ে
্
ા
ો
ப
ர
வ
ா
ு
்
గ
్
ಿ
್
ം
ക
ഗ
ര
ല
ാ
ി
ൂ
േ
്
ต
ั
ิ
ี
ู
฿
่
้
์
་
ཆ
ད
ས
ི
ོ
ྐ
င
ာ
ိ
ု
း
်
თარგი
틀
​
‌
‍
‎
‏
‐
‑
–
—
―
‘
’
‚
“
”
„
•
…
′
″
‹
›
€
№
←
→
↔
↷
∇
−
≈
③
④
⑦
▪
►
○
☉
♣
⟨
⟩
⬇
⺀
⺄
⺆
⺈
⺊
⺌
⺕
⺝
⺸
⺼
⿰
⿱
⿲
⿳
⿴
⿵
⿶
⿷
⿸
⿹
⿺
⿻
。
《
》
〢
い
う
か
こ
さ
た
つ
て
と
の
も
れ
゙
ィ
ク
コ
ス
タ
テ
ト
フ
ム
モ
ユ
ワ
ン
ー
ㄧ
㇁
㇂
㇄
㇇
㇈
㇉
㇓
㐁
㐄
㐅
㐌
㐫
㐬
㐭
㐮
㐱
㑒
㒵
㒸
㒼
㓁
㓞
㔾
㕛
㕣
㖾
㘝
㚅
㚇
㚔
㚘
㝉
㝡
㝴
㝵
㞋
㞢
㞷
㠩
㠭
㠯
㡀
㡭
㡿
㢲
㢴
㣇
㣺
㥯
㪅
㫄
㫐
㫒
㫺
㬅
㬎
㬥
㬰
㲋
㳄
㷠
㸒
㸚
㸦
㼌
㼲
㽞
㿟
䀠
䂞
䍃
䏍
䒑
䖍
䖒
䖝
䖵
䙴
䚻
䜌
䝿
䡛
䧹
䪞
一
丁
丂
七
丄
丅
丆
万
丈
三
上
下
丌
不
与
丏
丐
丑
专
且
丕
世
丘
丙
业
东
丞
丢
丣
两
严
並
丨
丩
个
丫
丬
中
丮
丰
丱
串
丵
丶
丷
丸
丹
为
主
丽
丿
乀
乂
乃
久
乆
乇
么
义
之
乌
乍
乎
乏
乐
乑
乔
乖
乗
乘
乙
乚
乛
乜
九
乞
也
习
乡
乳
乾
亀
亅
了
亇
予
争
事
二
亍
于
亏
亐
云
互
亓
五
井
亘
亚
亜
亞
亟
亠
亡
亢
交
亥
亦
产
亨
亩
享
京
亭
亮
亯
亰
亲
亳
亶
亷
人
亻
亼
亾
仁
今
介
仌
从
仐
仑
仒
仓
仕
他
付
仝
代
令
以
任
企
伊
伏
伐
休
会
伯
但
位
何
佘
余
作
佥
使
來
侈
侌
侖
侯
侵
便
保
俞
信
修
倉
倍
候
倠
備
傳
僉
僕
儿
兀
允
兂
元
兄
充
兆
兇
先
光
兊
克
兌
免
兑
兒
兓
兔
党
兜
兟
入
全
兩
兪
八
公
六
兮
兰
共
关
兵
其
具
典
兹
兼
冀
冂
冃
冄
内
冈
冉
冊
冋
册
再
冎
冏
冐
冒
冓
冖
冗
冘
军
农
冝
冡
冥
冫
冬
冷
几
凡
凢
凵
凶
凷
凸
凹
出
函
凾
刀
刁
刂
刃
刄
刅
分
切
刍
刑
刕
刖
列
刘
则
初
別
利
别
到
制
刺
則
削
剌
前
剡
剽
劉
力
功
加
劦
助
劫
劳
劵
勃
勇
勉
勒
動
務
勞
勤
勲
勹
勺
勻
勾
勿
匀
匂
包
匆
匈
匊
匋
匍
匕
化
北
匚
匝
匡
匪
匱
匸
匹
区
医
匽
匿
區
十
卂
千
卄
卅
卆
升
午
卉
半
卌
华
卑
卒
卓
单
卖
南
卜
卝
卞
占
卡
卢
卣
卤
卦
卩
卪
卬
卯
印
危
即
却
卵
卷
卸
卻
厂
厃
厄
历
厈
厉
厌
厓
厘
厚
原
厤
厥
厨
厭
厲
厶
厷
厸
去
厼
厽
叀
参
參
叅
又
叉
及
友
双
反
叐
发
叒
叔
叕
取
受
叙
叚
叜
叟
口
古
句
另
叩
只
召
可
台
叱
史
右
叵
号
司
叹
吂
各
吅
合
吉
吊
吋
同
名
后
吏
向
吕
君
吝
吞
否
含
启
吳
吴
吹
吾
呂
呆
呈
告
员
呙
周
命
咅
和
咎
咠
咢
咨
咸
咼
哀
品
哉
員
哥
哲
唐
商
啇
問
啚
啬
啻
善
喜
喬
單
喿
嗇
噩
嚴
囊
囗
囘
囙
囚
四
回
囟
因
囧
囬
困
囱
囷
固
国
圂
圅
國
圍
園
圓
土
圡
圣
圥
在
圭
地
圶
圼
坐
坒
坚
坴
垂
垔
垚
埀
埋
埶
執
基
堂
堅
堆
堇
堯
塚
塞
墨
壘
士
壬
壯
声
壳
壴
壹
壺
壽
夂
处
夅
夆
备
夊
夋
夌
复
夏
夒
夕
外
夗
夘
多
夜
夢
大
夨
天
太
夫
夬
夭
央
失
夲
头
夷
夸
夹
夻
夾
奂
奄
奇
奈
奉
奎
奏
奐
契
奓
奔
奚
奞
奠
奢
奥
奭
女
奴
奻
好
如
妄
妙
妟
妥
妻
妾
姑
委
姜
威
娄
婁
婴
嬰
嬴
子
孑
孔
孕
孖
字
存
孚
孛
孝
孟
季
孤
学
孫
孱
學
宀
宁
宂
它
宅
宇
守
安
宋
完
宏
宓
宗
官
定
宛
宜
宝
客
宣
室
宮
宰
害
家
容
宾
宿
寄
寅
密
富
寒
察
寧
審
寫
寬
寮
寸
对
寺
寻
寽
対
寿
封
尃
射
将
將
專
尉
尊
尋
尌
對
小
少
尒
尓
尔
尖
尗
尚
尞
尢
尣
尤
尧
尨
尭
就
尸
尹
尺
尻
尼
尽
尾
尿
局
居
屈
屋
屎
屏
屑
展
屖
屚
属
屠
屡
屬
屮
屯
屰
山
屵
屾
岁
岂
岑
岡
岩
岳
岸
峯
島
崇
崑
崔
崖
崙
崩
嵬
嶲
巂
巛
川
州
巟
巠
巢
巤
工
左
巧
巨
巩
巫
差
己
已
巳
巴
巷
巸
巽
巾
巿
帀
市
布
希
帚
帛
帝
带
師
席
帶
常
干
平
年
幵
并
幷
幸
幺
幻
幼
幽
幾
广
広
庄
床
底
店
庚
府
度
庫
庭
庶
康
庸
廉
廌
廛
廣
廩
廴
延
廷
建
廾
廿
开
弁
弃
弄
弇
弋
式
弓
弔
引
弗
弘
弜
弟
弥
弦
弱
張
強
强
彊
彌
彎
彐
彑
当
彔
录
彖
彗
彡
形
彥
彦
彧
彭
彳
役
彼
往
待
律
徒
得
徙
從
復
微
徵
心
忄
必
忌
忍
志
忝
忠
忩
快
念
忽
忿
思
怠
急
怱
恆
恒
恩
恭
息
悉
患
悤
悲
悶
惠
惡
惢
愁
愈
意
愛
感
慈
慧
慮
憂
憲
應
戀
戈
戉
戊
戋
戌
戍
戎
成
我
戒
戔
或
戚
戠
戢
截
戲
戶
户
戹
戼
戾
房
所
扁
扇
手
扌
才
打
托
执
承
技
折
拉
拜
拿
掌
推
提
摩
支
攴
攵
收
攸
改
放
政
敄
敏
敕
敖
敗
敝
敞
敢
散
敦
敫
敬
数
敷
數
斂
文
斉
斊
斗
斤
斥
斩
斬
斯
新
方
於
施
斿
旁
旋
族
无
旡
既
旣
日
旦
旧
旨
早
旬
旱
旲
时
旾
昆
昇
昌
昍
明
昏
易
昔
昗
昜
星
春
昬
是
昱
昴
昷
時
晃
晋
晏
普
景
晶
智
暑
暴
曇
曩
曰
曲
曳
更
曷
書
曹
曼
曾
替
最
朁
會
月
有
朋
服
朔
朕
朗
望
朝
木
朩
未
末
本
札
朮
术
朱
朴
朵
朶
朿
杀
杏
杜
束
条
来
東
杲
杳
松
板
析
林
枚
果
枝
枲
枼
某
柔
查
柬
柰
柴
栗
桀
桑
桼
梁
條
梟
梨
棋
棘
棠
棥
森
楚
業
楽
榮
樂
樊
模
欠
次
欣
欮
欲
欶
欽
款
歆
歇
歛
止
正
此
步
武
歨
歪
歮
歯
歰
歲
歴
歷
歸
歹
歺
死
殳
段
殷
殸
殹
殺
殻
殿
毋
毌
母
每
毒
比
毕
毚
毛
毳
氏
氐
民
气
氣
水
氵
氶
氷
永
氺
氾
求
汝
汞
江
沃
沓
沙
沝
泉
法
波
泣
泥
泰
洛
洪
活
派
流
浦
浪
浮
淡
淮
清
渚
渠
湯
滿
漢
漸
澳
火
灬
灭
灰
灵
灷
炅
炎
炏
炗
炙
炭
為
烈
烏
烝
焉
無
焦
焱
然
煞
熊
熏
燕
營
燮
爪
爫
爭
爯
爰
爱
爲
爵
父
爻
爽
爾
爿
片
牙
牚
牛
牜
牟
牢
牧
牪
牽
犀
犬
犭
犮
狂
狄
狊
独
狺
猋
猒
猪
献
獻
玄
率
玉
王
玟
玨
珎
班
琴
瑟
瑩
瓜
瓦
甘
甚
生
産
用
甫
甬
田
由
甲
申
电
甶
男
甸
甹
画
甾
畀
界
畏
畐
留
畜
畟
畢
畧
畨
番
畫
異
畱
當
畺
畾
疊
疋
疌
疑
疒
疾
癶
癸
癹
登
發
白
百
皀
皃
的
皆
皇
皋
皐
皕
皮
皷
皿
盃
盆
盇
盈
益
盍
盎
监
盒
盖
盛
盡
監
盤
盧
目
直
相
盾
省
眇
眉
看
眔
眞
真
眷
眼
眾
着
睘
睪
睿
瞏
瞢
瞿
矍
矛
矞
矢
矣
知
矦
短
石
研
破
碎
磊
磨
示
礻
礼
祟
票
祭
禀
禁
禸
禹
禺
离
禽
禾
禿
秀
秃
秉
秋
科
秝
秦
移
稟
穀
穌
穴
究
穹
空
穿
突
窄
窒
立
竒
竜
竝
竟
章
童
竹
笑
笠
第
筆
等
答
箕
算
箴
節
篤
篭
米
类
粉
粛
粟
粤
粦
粲
糞
糸
糹
系
約
納
素
索
紫
累
細
絜
絫
絲
維
綿
縣
繇
纍
纟
缶
网
罒
罔
罕
罗
罙
罡
罢
罪
署
罷
羅
羊
羌
羍
美
羔
羕
羗
羞
羡
羣
群
義
羲
羸
羽
翁
翏
習
翕
翟
翠
翼
老
耂
考
者
耆
而
耎
耑
耒
耳
耴
耶
耷
聂
聊
聖
聚
聶
聿
肀
肃
肅
肉
肖
肙
肥
肩
肯
育
肴
胃
背
胡
胥
能
脊
脩
膚
臣
臤
臧
自
臬
臭
臯
臱
至
致
臺
臼
臽
臾
臿
舀
舂
舄
與
興
舉
舌
舍
舛
舜
舞
舟
般
艮
良
色
艸
艹
艾
芒
芔
芬
芮
花
芳
芺
芻
苔
苗
苟
若
苦
英
茶
茸
荅
草
荒
荣
荼
莆
莧
莫
莽
菆
菊
菐
華
萬
落
葉
著
葛
董
葵
蒙
蒦
蒼
蓋
蓬
蓺
蔑
蔡
蕉
蕭
薄
薛
薦
薰
藍
藏
藥
蘭
虍
虎
虐
虒
虔
處
虖
虗
虘
虚
虛
虜
虞
虫
虽
蚤
蚩
蜀
蜜
蟲
蠡
血
行
衍
術
衛
衣
衤
表
衮
衰
袁
袞
製
褭
褱
襄
襾
西
覀
要
覃
見
規
覓
覧
親
覽
见
角
解
言
訁
訇
計
記
詹
誩
諸
讠
谷
豆
豈
豊
豐
豕
豖
豙
象
豦
豩
豪
豸
貇
貝
貞
貟
負
貢
貧
貪
貫
責
貳
貴
買
費
賁
資
賈
賏
賓
賔
賛
賞
賢
賣
質
賴
贊
贝
贡
责
贯
贲
贵
赖
赞
赤
赦
走
越
足
路
蹇
身
躬
車
軍
軎
軟
輦
车
辛
辜
辟
辥
辰
辱
農
辵
辶
边
达
过
近
连
迷
追
退
送
逆
逐
通
速
造
逢
連
逮
進
遀
遂
過
道
達
遣
適
遷
遺
邊
邑
邕
那
邦
邪
郎
部
郭
都
鄉
酉
酋
配
酓
釆
采
里
重
野
量
金
釒
錢
钅
長
镸
长
門
閃
閉
開
閏
閑
閒
間
閔
閵
閻
闌
门
闰
间
闷
阑
阜
阝
阿
降
陳
隆
隊
隋
隡
隨
隱
隶
隹
隺
隻
隼
隽
难
雀
雁
集
雈
雋
雍
雐
雔
雙
雚
雜
雝
離
難
雨
雩
雪
雲
零
雷
需
霍
霜
霝
霞
霸
靈
靑
青
非
靡
面
靣
革
韋
韦
韭
韯
韱
音
頁
頃
項
須
頓
頗
頡
頻
顛
類
页
風
风
飛
飞
食
飠
飯
養
饣
首
香
馬
馮
駦
马
骨
高
髟
鬥
鬯
鬲
鬼
魚
魯
鮮
鱼
鲁
鳥
鳳
鸟
鹵
鹿
麃
麗
麥
麦
麻
黃
黄
黍
黎
黑
黒
黨
黹
黽
黾
鼎
鼓
鼠
鼻
齊
齋
齐
齒
齿
龍
龙
龜
龟
龠
龰
龱
龴
龵
龶
龷
龸
龹




者
艹
ﷺ
️
﻿
？
📍
📲
🔊
🚀
𠀁
𠀃
𠀆
𠀉
𠀎
𠀐
𠁁
𠁣
𠂆
𠂇
𠂈
𠂉
𠂊
𠂋
𠂎
𠂒
𠂔
𠂛
𠂡
𠂢
𠂤
𠂬
𠂭
𠂹
𠃊
𠃋
𠃌
𠃍
𠃎
𠃑
𠃓
𠃔
𠃜
𠄌
𠄎
𠄠
𠄢
𠆢
𠆥
𠇍
𠈌
𠌵
𠓜
𠔉
𠔥
𠔼
𠔽
𠔿
𠕀
𠕁
𠕋
𠘧
𠘨
𠙻
𠙼
𠚏
𠚒
𠚤
𠚪
𠣏
𠤎
𠤕
𠥓
𠦄
𠦑
𠦝
𠧒
𠧗
𠧪
𠩺
𠪚
𠫓
𠫔
𠫤
𠬛
𠬝
𠬞
𠬢
𠬤
𠬶
𠮛
𠮦
𠮷
𠯑
𠱠
𠳮
𠷎
𡈼
𡉀
𡉵
𡌥
𡍮
𡏳
𡕒
𡕩
𡕰
𡖅
𡗗
𡗜
𡘆
𡘤
𡧱
𡨄
𡩧
𡬠
𡭽
𡰣
𡰥
𡰪
𡰯
𡰱
𡷈
𡸁
𡿨
𡿩
𡿪
𡿺
𢀖
𢀛
𢀩
𢁙
𢆉
𢆰
𢆶
𢇁
𢇇
𢉖
𢌬
𢌿
𢏚
𢑑
𢑚
𢖻
𢙣
𢛳
𢦏
𢦒
𢧵
𢼄
𢾕
𣁋
𣄼
𣅀
𣅽
𣍘
𣎳
𣎵
𣏋
𣏼
𣗥
𣥂
𣥖
𣦵
𣦼
𣧄
𣪊
𣪠
𣬉
𣳾
𣶒
𤇾
𤊽
𤐫
𤓰
𤔔
𤕨
𤣩
𤰇
𤰔
𤰞
𤴓
𤴔
𤽄
𥁑
𥁕
𥃦
𥃩
𥃭
𥇡
𥑟
𥘅
𥘈
𥝢
𥫗
𥱡
𦈢
𦉪
𦉬
𦉼
𦍌
𦍒
𦎧
𦐇
𦓔
𦔮
𦘒
𦙃
𦚏
𦣝
𦣞
𦣻
𦥑
𦥔
𦥯
𦨉
𦭝
𦰩
𧆞
𧈧
𧘇
𧰨
𧴪
𧴮
𧵩
𧾷
𨸏
𨾴
𩙿
𩠐
𩫏
𩵋
𪉷
𪜀
𪟽
𪠲
𪩲
𫇦
𫔭
𫜸
𫝀
𫠣
𫠩
𫢉
𫥞
𫩏
𫩠
𫪡
𫲽
𫶧
𬀷
𬐘
𬗌
𬙙
𬛸
𬜯
𬟩
𬯁
𬴘
𬺻
𬼉
𬼖
𭀰
𭁈
𭁨
𭅰
𭑈
𭕄
𭗼
𭤨
𭥫
𭻾
𮅕
𮊿
𮍌
𮍏
𮓗
𮥼
𮧮
廾
𰀁
𰀄
𰀈
𰀉
𰀕
𰀠
𰀡
𰀢
𰀪
𰁜
𰃮
𰆊
𰆘
𰋙
𰕎
𰢴
𰧭
𰯲
00--
000--
01--
02--
04--
06--
120--
23--
42--
46--
47--
59--
60--
62--
72--
73--
80--
81--
84--
90--
92--
97--
99--
a--
aa--
aaral--
ab--
aba--
aban--
abd--
abdyl--
abi--
aborige--
above--
abr--
abs--
abu--
abul--
aby--
abzal--
ac--
acco--
ad--
ada--
adagl--
adap--
adat--
add--
ade--
adess--
adro--
ady--
adyl--
aer--
af--
aft--
ag--
aga--
agar--
agdar--
age--
agent--
agnos--
agty--
agyr--
agyrsyz--
agyz--
agzala--
ah--
aha--
ahadat--
ahi--
ahris--
ahtal--
ahu--
ahwal--
ahyr--
ai--
air--
ajy--
ak--
aka--
akar--
aklan--
akma--
akro--
akt--
aktiw--
aky--
akyl--
akyn--
al--
ala--
alaja--
alan--
ale--
alex--
ali--
aljy--
all--
alla--
alle--
alma--
aln--
alp--
als--
alt--
aly--
alyn--
alys--
am--
ama--
amak--
aman--
ame--
ammar--
an--
ana--
anal--
anat--
and--
ang--
anglosaks--
ani--
anje--
anly--
anna--
annama--
ano--
anr--
ans--
ant--
anti--
antitel--
antropo--
any--
anyk--
ao--
ap--
apa--
apol--
app--
apr--
apy--
apyk--
aqu--
ar--
ara--
araba--
aradylan--
arag--
araglandy--
aragsyz--
arakes--
aral--
aram--
arassa--
arat--
arbit--
arc--
ard--
arde--
are--
arena--
argen--
argumen--
arhip--
arhiw--
ari--
arifm--
aristok--
ark--
arl--
arly--
arny--
ars--
art--
ary--
arym--
as--
asa--
asat--
asi--
ask--
asp--
ass--
assis--
astek--
asteroid--
astma--
astog--
astra--
asy--
asyl--
at--
ata--
atan--
ate--
atom--
aty--
atyr--
au--
aug--
aus--
auto--
ava--
aw--
awa--
awia--
awise--
awt--
awtom--
ay--
az--
aza--
azada--
azalt--
azan--
azar--
azat--
azi--
azma--
azmak--
azuw--
azy--
azylma--
b--
ba--
bab--
baba--
babezio--
back--
bad--
bag--
baha--
bahy--
bak--
bakna--
bal--
bala--
balyk--
ban--
bank--
bap--
bar--
baran--
barsa--
bas--
bashl--
bassyr--
basy--
basybal--
basyp--
bat--
bay--
bc--
be--
beg--
bege--
beje--
bek--
beket--
bel--
belent--
belgi--
bellen--
belleni--
ben--
bende--
ber--
beren--
bergi--
beri--
berjek--
berk--
berkidi--
bermek--
bes--
bet--
bey--
bhe--
bi--
bib--
bije--
bil--
bildi--
bilen--
bilesigeli--
bill--
bin--
bio--
bir--
biri--
birikme--
birth--
bis--
bit--
biz--
bla--
blo--
blog--
blok--
bn--
bo--
bog--
bogaz--
bokur--
bol--
boli--
bolu--
bom--
bonap--
bor--
bos--
bot--
boy--
boz--
bozul--
br--
bra--
brah--
bred--
bri--
bro--
broad--
brok--
bron--
bronhl--
bu--
bud--
budd--
bug--
bul--
bulujy--
bur--
but--
buz--
by--
c--
ca--
camp--
can--
cap--
car--
cat--
ce--
cele--
celebra--
ch--
cham--
chap--
che--
ci--
cin--
cla--
clo--
cn--
co--
coll--
colla--
com--
compl--
con--
concern--
confi--
cove--
cr--
cs--
cu--
cur--
cy--
d--
da--
dabara--
dag--
daga--
dah--
dak--
dal--
dalaw--
daly--
dam--
damar--
dan--
dana--
dar--
dargat--
das--
dash--
dat--
day--
dd--
de--
deci--
defe--
deg--
degi--
dek--
del--
delil--
dem--
demet--
demo--
den--
dep--
depe--
der--
dere--
dery--
des--
despo--
det--
deter--
dev--
di--
dia--
dialek--
did--
dik--
dil--
dili--
dim--
din--
dio--
dip--
dir--
diri--
dis--
disk--
diy--
dj--
dl--
dn--
do--
doc--
dog--
doga--
dok--
doldu--
dolma--
dolu--
dom--
don--
dor--
dost--
dot--
dow--
dr--
dra--
dre--
du--
dub--
dul--
dun--
dur--
duran--
dush--
dushund--
duy--
duz--
dy--
dyk--
dyl--
dym--
dyn--
dyr--
dyz--
dz--
də--
e--
ebb--
ebu--
ebul--
ec--
ed--
eda--
ede--
eden--
edep--
edi--
edil--
edin--
edit--
ee--
ef--
eg--
egdi--
ege--
egi--
egri--
egridaban--
egzam--
eh--
eje--
eji--
ejik--
ejiz--
ek--
eka--
ekdi--
eke--
eki--
ekil--
ekin--
eklen--
eko--
eks--
eksperi--
ekwat--
ekzo--
el--
elam--
eldi--
ele--
elec--
elek--
elektro--
elen--
eli--
elim--
eliza--
elli--
eltme--
em--
emal--
emb--
eme--
emelda--
emi--
emir--
emr--
emre--
ems--
en--
enc--
end--
ene--
ener--
eng--
eni--
ep--
epig--
er--
era--
erbet--
ere--
ergin--
eri--
erif--
erk--
erli--
ermen--
ern--
ers--
ert--
erzin--
es--
esa--
esas--
esbap--
ese--
esen--
esi--
esir--
esse--
est--
et--
etdi--
etdir--
eten--
eti--
etik--
etim--
etiril--
etki--
etnog--
etnogene--
eto--
eu--
ev--
eva--
ew--
ewi--
ex--
exc--
exe--
ey--
eye--
ez--
ezd--
f--
fa--
fac--
faci--
facilit--
fan--
far--
fas--
favo--
fe--
feld--
fer--
ferment--
fermo--
fi--
fibr--
fil--
file--
filis--
film--
fin--
fir--
fit--
fizul--
fl--
flo--
flora--
flot--
fo--
folk--
fond--
for--
foto--
fr--
frank--
fre--
frie--
ft--
fu--
fuki--
ful--
fun--
fut--
fy--
g--
ga--
gaba--
gabak--
gabs--
gad--
gadagan--
gadymy--
gahar--
gak--
gal--
galjak--
galkyn--
galmy--
gam--
gan--
gana--
ganazl--
gap--
gar--
gara--
garyn--
garyndys--
gas--
gat--
gatla--
gaw--
gawun--
gay--
gaz--
gazan--
gazna--
gb--
ge--
gec--
gel--
gem--
gen--
gene--
geo--
gep--
ger--
gerak--
gerek--
ges--
get--
getir--
gez--
gh--
gi--
gid--
giden--
gidro--
gidros--
gif--
giji--
gijik--
gile--
gin--
giov--
gipo--
gipp--
gippok--
gir--
giren--
girizi--
gis--
git--
gitjek--
giz--
gl--
glise--
go--
god--
goja--
gol--
gomo--
gon--
gonal--
gopar--
gor--
goran--
gorkm--
gorku--
gornus--
gos--
goshu--
gospi--
gott--
gow--
goy--
goz--
gr--
gra--
graf--
gre--
grego--
grif--
gu--
gubur--
guburhana--
gul--
gulak--
gum--
gumanis--
gun--
gup--
gur--
gural--
gurban--
gurplan--
gurul--
gus--
gutl--
gutul--
guw--
guz--
gy--
gyjyn--
gyl--
gym--
gyn--
gyr--
gys--
gysgalt--
gyz--
gyzja--
gyzyl--
għ--
gə--
h--
ha--
hac--
had--
hadys--
haj--
hajy--
hak--
haky--
hal--
hala--
halif--
halk--
halka--
halyf--
ham--
han--
hana--
hand--
hapa--
har--
haraba--
harem--
has--
hasap--
hasiy--
hassa--
hat--
hata--
hatar--
hay--
hazyn--
he--
hek--
hel--
hem--
hen--
hepde--
her--
heri--
herji--
het--
hey--
hi--
him--
hin--
hir--
hit--
hju--
hle--
hlelen--
hler--
hlet--
hli--
ho--
hoja--
hokum--
hor--
hormat--
hos--
hossar--
how--
howandarl--
howlu--
howlujy--
howp--
howuz--
hoz--
hr--
hra--
hrat--
hre--
hri--
hrom--
hromosom--
hsta--
ht--
hu--
hun--
hur--
hus--
huzu--
hy--
hyjuw--
hyr--
hywa--
i--
ia--
ib--
iber--
iberi--
ic--
id--
ide--
idi--
ie--
if--
ig--
igren--
ih--
ij--
iji--
ik--
ikes--
ikeslen--
iki--
il--
ila--
ile--
ilen--
iler--
ili--
ilk--
illus--
iltur--
im--
imi--
immi--
impl--
in--
ina--
inc--
incor--
ind--
inde--
indi--
indir--
infrastruk--
infrastruktura--
ing--
ini--
ink--
inkub--
inowni--
ins--
insti--
int--
integ--
intel--
inter--
investi--
inwalid--
inz--
io--
ip--
ipni--
ir--
ire--
iren--
iri--
is--
isa--
ishle--
isi--
isle--
it--
ita--
itek--
iti--
iu--
iv--
iwel--
iwo--
iwu--
iy--
iz--
iza--
j--
ja--
jac--
jahy--
jam--
jan--
janpena--
jansyz--
jar--
jay--
je--
jebis--
jed--
jek--
jella--
jem--
jemal--
jen--
jenje--
jep--
jet--
jey--
jeza--
jezalandy--
ji--
jik--
jim--
jo--
jon--
jr--
js--
ju--
jum--
juma--
jy--
jyns--
k--
ka--
kabul--
kabylas--
kad--
kafe--
kafk--
kagan--
kah--
kak--
kaka--
kal--
kam--
kan--
kanagat--
kap--
kapasa--
kar--
kara--
kart--
kary--
kas--
kasy--
kat--
kate--
kay--
kaza--
kazi--
kazn--
kde--
kdir--
ke--
kebel--
kek--
kel--
keli--
kelle--
kelt--
kem--
kemsi--
ken--
kepil--
kepillendir--
ker--
kes--
kesgit--
kesgitlen--
ket--
kethu--
kh--
ki--
kil--
kim--
kimw--
kin--
kino--
kir--
kirpi--
kis--
kislo--
kislotas--
kit--
kk--
kl--
kla--
klawiat--
klen--
kli--
klip--
km--
kn--
ko--
kod--
kol--
kollek--
kollektiw--
kolon--
kolonizator--
kom--
komet--
komis--
komment--
kommun--
kommuna--
komp--
komponent--
kon--
konfe--
konflik--
konser--
konst--
kontr--
kontra--
kontrol--
koord--
koordina--
kop--
kor--
kos--
kosmo--
kot--
kow--
kowa--
kp--
kr--
kras--
krasno--
krat--
kri--
krip--
kristadelfi--
ks--
ksiz--
kt--
ku--
kub--
kul--
kum--
kun--
kur--
kurs--
kus--
kut--
kuw--
kuwwat--
kw--
kwart--
ky--
kys--
kı--
l--
la--
labor--
lag--
lak--
lam--
lan--
landy--
lanma--
lans--
lap--
lar--
las--
lat--
law--
lay--
lb--
ld--
ldi--
le--
ledi--
leg--
leji--
lek--
leksi--
lem--
leme--
len--
lendir--
leni--
lent--
leo--
ler--
les--
let--
lew--
lge--
li--
lia--
lider--
liga--
lik--
lim--
lin--
lip--
lir--
lis--
lissabo--
lit--
liv--
lk--
lke--
ll--
lli--
lme--
ln--
lo--
log--
logo--
lon--
lor--
los--
low--
lp--
ls--
lt--
lu--
luc--
lud--
luk--
lus--
lv--
lwan--
lwet--
ly--
lybas--
lyk--
m--
ma--
mac--
mad--
mag--
magis--
magistra--
mags--
magtymg--
mah--
maje--
mak--
makul--
mal--
mam--
man--
manda--
manif--
mao--
map--
mar--
mars--
mary--
mas--
mash--
mass--
mat--
mauri--
maus--
maw--
mawer--
mawri--
may--
maz--
mazar--
mb--
mc--
me--
mec--
med--
medi--
megapol--
meh--
mehan--
mek--
mel--
memb--
memor--
men--
menej--
menzil--
mer--
mes--
mesgen--
mesh--
mesji--
meso--
met--
meta--
mete--
meteorit--
metod--
mew--
mey--
mez--
mezheb--
mezhep--
mg--
mi--
mic--
micro--
mifl--
migra--
mik--
mikro--
mil--
milli--
min--
mini--
ministi--
mir--
miras--
miri--
mis--
mit--
miz--
mkin--
mle--
mli--
mm--
mmet--
mmez--
mo--
model--
modifi--
molek--
molekula--
molla--
mon--
monah--
monasty--
monju--
mono--
monst--
mor--
morfo--
mos--
motor--
mow--
mowzuk--
mr--
ms--
mt--
mu--
mug--
muh--
muha--
muham--
mukam--
mul--
multi--
mun--
mur--
murt--
mus--
muza--
my--
myn--
myrat--
mys--
n--
na--
nabo--
nag--
nah--
nahar--
nak--
nal--
nan--
nap--
nar--
nas--
nat--
nav--
navi--
nc--
nd--
nde--
ndir--
ndiz--
ne--
neand--
neandert--
negr--
neja--
nek--
nem--
nen--
ner--
nes--
net--
netije--
new--
news--
ng--
nh--
ni--
nic--
niji--
nik--
nika--
niko--
nil--
nin--
nir--
niy--
nje--
njek--
nji--
nkr--
nli--
nme--
nmek--
no--
nog--
nogsanly--
nol--
nom--
non--
nor--
nos--
not--
now--
nowel--
nowella--
ns--
nsi--
nt--
nu--
nuk--
nur--
nus--
ny--
nz--
o--
oazis--
ob--
oba--
objec--
oblast--
obra--
obs--
oc--
od--
oda--
of--
og--
oga--
ogul--
ogun--
ogurl--
oh--
ok--
oka--
okan--
okar--
okkupir--
oks--
oksid--
oksul--
okun--
okuwc--
oky--
ol--
ola--
old--
olim--
olja--
olo--
om--
on--
ona--
one--
onu--
opp--
opt--
optim--
or--
ora--
oraz--
ord--
orda--
org--
ort--
orun--
os--
ossu--
ost--
osum--
ot--
ote--
otparaz--
oturt--
ou--
out--
ov--
over--
ow--
owa--
owadan--
owkal--
owl--
own--
owren--
owsuz--
oy--
oyun--
oyunch--
oz--
ozan--
ozu--
p--
pa--
padd--
page--
pak--
paleo--
pales--
pamp--
pan--
papa--
par--
para--
paraz--
park--
part--
parus--
pas--
pasy--
pato--
patri--
pay--
pdf--
pe--
peder--
pedikul--
pek--
pen--
penjir--
per--
perde--
peri--
perman--
pes--
pessejik--
pet--
pey--
peyda--
ph--
phi--
pho--
phys--
pi--
pida--
pikt--
pil--
pin--
pio--
pir--
pis--
pisis--
piz--
pl--
plan--
plas--
plastin--
play--
pli--
plu--
po--
poe--
pol--
polk--
pop--
por--
port--
pos--
post--
pozi--
pr--
pra--
prakt--
pre--
pred--
pri--
prinsi--
prior--
pro--
prof--
propa--
prose--
prosedur--
prosta--
protezir--
proto--
ps--
psam--
psih--
pt--
pu--
pub--
pugta--
pul--
pun--
punkt--
pur--
pus--
py--
pyn--
pynty--
q--
qor--
qu--
que--
quot--
r--
ra--
rabb--
radio--
rahat--
rak--
raketa--
ral--
ram--
ramol--
ran--
rap--
ras--
rasio--
rat--
ray--
raz--
razy--
rc--
rdi--
re--
read--
recent--
red--
redaktir--
reden--
redi--
ref--
reflek--
regi--
reje--
rek--
rekon--
rekonst--
rem--
ren--
rep--
repertua--
repres--
repub--
requi--
res--
resanr--
ret--
rew--
rey--
rez--
ri--
rifl--
ril--
rim--
rino--
rip--
ris--
rit--
riz--
rji--
rk--
rkez--
rkezil--
rki--
rkmen--
rl--
rlen--
rli--
rm--
rme--
rmek--
rn--
ro--
rod--
rol--
roll--
ron--
ros--
rout--
row--
rr--
rs--
rsag--
rt--
rte--
ru--
rub--
ruh--
ruhy--
ruk--
rul--
rum--
run--
rus--
rut--
ry--
ryl--
ryp--
rys--
ryz--
s--
sa--
sab--
sabin--
sag--
sah--
sahy--
sak--
sakao--
sakla--
sakyr--
sakyrtga--
sal--
salgy--
salva--
sam--
saman--
san--
sanaw--
sap--
sar--
sarsd--
sary--
sat--
satrap--
saty--
saw--
say--
saz--
sc--
sd--
se--
sea--
seb--
sec--
seg--
sek--
sel--
selew--
selje--
sem--
sen--
senagat--
sene--
sep--
ser--
serb--
seret--
sergi--
seris--
serpi--
ses--
set--
sey--
sez--
sf--
sfera--
sger--
sh--
shah--
she--
show--
si--
sifr--
sigiz--
sign--
sikl--
sil--
sim--
simwo--
sin--
sinte--
sir--
sirak--
sirk--
sitad--
site--
sitir--
sito--
situ--
siy--
siz--
sk--
skulpt--
sl--
slov--
sm--
small--
so--
sog--
sogul--
sol--
son--
sor--
sora--
sosio--
sow--
sowa--
sowal--
sowhoz--
sowuk--
soy--
sp--
spar--
spe--
spekt--
spesialis--
spir--
spublik--
sputnik--
sr--
ss--
sse--
st--
sta--
stan--
ste--
sten--
ster--
sti--
sto--
stok--
stol--
strep--
struc--
struk--
stu--
studen--
sty--
su--
sub--
subs--
sud--
suff--
sug--
sugges--
suhan--
suiv--
sul--
sum--
sun--
super--
sur--
sura--
surat--
surnuk--
sus--
suw--
suwa--
suwlu--
suwuk--
suz--
swe--
swi--
sy--
syg--
sygd--
sygyn--
syh--
syk--
sylag--
sym--
syn--
syna--
synag--
synd--
syp--
syr--
syy--
syz--
t--
ta--
tab--
tablis--
tabyn--
tac--
tag--
tagta--
tah--
tak--
takyk--
tal--
tam--
tama--
tamam--
tan--
tanzi--
tap--
tapawut--
tapgyr--
tar--
tara--
tary--
taryp--
tas--
tassyk--
tat--
taw--
tawaf--
tay--
tayyar--
td--
tdep--
te--
teb--
teg--
tegel--
teh--
tek--
tekep--
tekiz--
tel--
tele--
teleseri--
tem--
temir--
ten--
teo--
ter--
term--
tes--
tet--
tew--
tewi--
tg--
tgedi--
th--
tha--
the--
thou--
ti--
tic--
tik--
tils--
tilsim--
tim--
tip--
tir--
tira--
titul--
tiz--
tk--
tl--
tm--
tma--
tmaz--
tme--
to--
tog--
togtad--
tohum--
tok--
tolgu--
tolgund--
tom--
tomoza--
ton--
top--
topon--
tor--
tos--
tow--
tozan--
tozdu--
tr--
tra--
trab--
tradi--
trans--
tre--
tri--
tribu--
trigl--
trium--
tro--
tropos--
ts--
tt--
tu--
tul--
tun--
tur--
turk--
turuz--
tus--
tussag--
tut--
tutul--
tw--
ty--
u--
ua--
uan--
ub--
uc--
ud--
ug--
uga--
uglew--
ugra--
ugruk--
ugur--
ui--
ujak--
ujet--
ujy--
uk--
uks--
ukur--
uky--
ukyply--
ul--
ula--
ulag--
ulan--
ulmaz--
ulu--
uly--
um--
uma--
umu--
umumy--
umyt--
un--
unc--
und--
uni--
uniwersit--
unjy--
unu--
up--
ur--
ura--
urga--
uri--
urma--
uro--
urs--
urt--
urtl--
ury--
us--
user--
usse--
ustun--
usy--
ut--
uta--
uw--
uwa--
uwdu--
uwu--
uwut--
uy--
uz--
uzak--
uzalt--
uzu--
uzyn--
v--
va--
vall--
van--
var--
varia--
ve--
vi--
via--
vir--
vo--
vv--
w--
wa--
wada--
wag--
wagon--
wah--
wal--
wan--
war--
was--
wat--
watan--
we--
web--
wed--
wekil--
wel--
weli--
wen--
wer--
wes--
west--
wet--
wetera--
wez--
wezir--
what--
whe--
wi--
wideo--
wiki--
will--
win--
wir--
wis--
wl--
wla--
wle--
wlet--
wme--
wo--
wok--
wol--
wood--
work--
wp--
wre--
wrek--
wren--
wri--
ws--
wu--
wy--
x--
xi--
xx--
y--
ya--
yak--
yan--
yar--
yarys--
yas--
yay--
yayın--
yaz--
yazgyl--
yazyl--
yb--
yby--
yd--
ydy--
ye--
yen--
yeni--
yet--
yg--
ygar--
ygnak--
ygnan--
ygty--
ygy--
yh--
yi--
yk--
ykan--
ykar--
ykdy--
yky--
yl--
yla--
ylan--
yle--
ylgam--
ylma--
yly--
ym--
ymam--
ymtyl--
yn--
yna--
ynand--
ynja--
yo--
yok--
yol--
you--
your--
yp--
yr--
yra--
yran--
yrly--
yrtyl--
yry--
ys--
ytl--
yu--
yurt--
yy--
yyl--
yz--
yza--
yzarla--
yzy--
z--
za--
zak--
zakaz--
zals--
zam--
zan--
zapas--
zar--
zara--
zaroas--
zat--
zb--
ze--
zel--
zelen--
zem--
zen--
zeper--
zeperlen--
zer--
zetme--
zge--
zgert--
zh--
zi--
zik--
zikge--
zir--
zle--
zlenme--
zli--
zn--
zo--
zolo--
zor--
zu--
zul--
zy--
zynjy--
zyy--
ð--
ħ--
ı--
ın--
а--
ал--
алекс--
ам--
ан--
б--
ба--
баг--
бе--
би--
биол--
бл--
бо--
бу--
бы--
бю--
в--
ве--
вел--
вес--
ви--
вики--
вл--
во--
вос--
вікі--
г--
ге--
го--
гор--
гр--
гражд--
гу--
д--
дан--
де--
дж--
ди--
дос--
др--
древ--
ду--
е--
ж--
жи--
живот--
з--
за--
зак--
зе--
зи--
и--
изд--
им--
ин--
инфо--
ис--
использо--
к--
ка--
кав--
кар--
кат--
ки--
кл--
кн--
ко--
код--
конфе--
кор--
кр--
ку--
куль--
л--
ле--
лес--
ли--
литер--
лю--
м--
ма--
ме--
между--
ми--
мо--
мол--
мос--
му--
між--
н--
на--
над--
не--
ник--
но--
ну--
о--
обме--
образо--
од--
окт--
оп--
ос--
от--
оцен--
п--
па--
павл--
пар--
параме--
пе--
пер--
пере--
по--
под--
поз--
пол--
пр--
при--
пу--
під--
р--
ра--
разв--
ре--
результ--
ро--
род--
рос--
ру--
різном--
с--
са--
св--
сдел--
се--
сис--
ск--
сл--
сла--
слу--
со--
совещ--
содерж--
ссы--
ст--
стеф--
сту--
су--
т--
та--
тар--
ти--
турк--
туркм--
туркме--
у--
ук--
ул--
универси--
ур--
уч--
ф--
фа--
фо--
х--
ха--
харак--
хи--
хо--
хр--
ц--
ч--
че--
ш--
э--
энцикл--
ю--
я--
язы--
ا--
ال--
ب--
ت--
ر--
س--
ش--
ع--
م--
ن--
--0
--00
--1
--2
--20
--28
--3
--4
--5
--6
--7
--75
--8
--9
--90
--a
--ab
--abad
--able
--abr
--ac
--acy
--ad
--ada
--adan
--ado
--ady
--af
--ag
--ah
--ai
--aj
--ak
--aki
--al
--alar
--alary
--alaryn
--ald
--alga
--all
--aly
--am
--amik
--ampton
--an
--ana
--anda
--ane
--aney
--ani
--ant
--any
--anyn
--ao
--ap
--ar
--ara
--ard
--arh
--arin
--arlar
--ary
--as
--asiy
--asy
--asynyn
--ası
--at
--ata
--atda
--ate
--ated
--ates
--ati
--atic
--ation
--ations
--ative
--atly
--ato
--aty
--au
--aw
--awi
--ay
--az
--b
--ba
--bakterial
--ball
--bam
--ban
--bank
--bas
--bat
--bay
--be
--beddin
--beg
--bent
--berg
--bi
--bibi
--bil
--bir
--ble
--bo
--bon
--book
--bot
--box
--bu
--burg
--by
--byn
--c
--ca
--cal
--ce
--ch
--che
--cher
--cho
--chysy
--ci
--ck
--co
--cs
--ct
--cy
--d
--da
--dag
--daky
--dan
--dar
--darc
--das
--daz
--ddin
--ddo
--de
--ded
--den
--depe
--der
--di
--digi
--digine
--digini
--dik
--dikleri
--diler
--dim
--din
--dir
--diris
--dirler
--dit
--diy
--dler
--do
--don
--dow
--dr
--ds
--dt
--du
--dur
--dy
--dygy
--dygyn
--dygyna
--dygyny
--dyk
--dyklary
--dylar
--dym
--dyn
--dyny
--dyp
--dyr
--dyrlar
--dyrys
--dze
--dı
--dıg
--dır
--e
--ea
--ear
--eb
--eba
--ec
--ech
--ect
--ection
--ed
--ede
--ee
--ef
--eg
--egi
--ei
--eia
--eira
--ek
--el
--eli
--ell
--ella
--els
--ely
--em
--ema
--emegi
--ement
--en
--enma
--ens
--ent
--ente
--enti
--ento
--ents
--eo
--eon
--ep
--epe
--er
--eri
--erin
--error
--ers
--es
--ese
--esi
--ess
--est
--et
--eta
--etc
--eti
--ett
--etta
--eu
--eum
--eur
--ev
--eval
--eve
--ew
--ewa
--ewic
--ews
--ey
--ez
--eza
--ezi
--f
--fa
--fas
--fe
--fen
--ff
--fi
--fik
--fika
--fiki
--fiy
--fobiy
--ft
--ful
--fy
--g
--ga
--gac
--gala
--gan
--gas
--gay
--gc
--gde
--ge
--ged
--gem
--gen
--ger
--ght
--gi
--gic
--gik
--giki
--gin
--gine
--gini
--git
--giy
--glan
--glar
--gler
--gly
--gne
--gny
--go
--gr
--grad
--gs
--gu
--gua
--gue
--guly
--guy
--gy
--gyc
--gydyr
--gymyz
--gyn
--gyna
--gynda
--gyndan
--gyny
--gynyn
--gyr
--gyry
--h
--ha
--hal
--hallar
--han
--hana
--hanalar
--hc
--hdan
--he
--hed
--hen
--hes
--hi
--hik
--hiy
--hlar
--hly
--hn
--ho
--hon
--hs
--ht
--http
--https
--hu
--hy
--hyar
--hyk
--hym
--hyn
--i
--ia
--ial
--ialy
--ian
--iana
--iano
--ians
--ianyn
--iat
--ib
--ibe
--ibility
--ic
--ica
--ical
--ice
--ich
--ici
--ics
--id
--ida
--idad
--ide
--idir
--idler
--ie
--ied
--ier
--ies
--if
--ific
--ification
--igi
--ih
--ihi
--ihin
--ii
--ija
--iji
--ik
--ika
--iki
--iks
--il
--ildi
--ile
--ilen
--iler
--ili
--ilip
--ilis
--illa
--ils
--ily
--im
--imer
--in
--ina
--inde
--inden
--ine
--ing
--ings
--ini
--inin
--io
--ion
--ional
--ionist
--ions
--ip
--ir
--ira
--ire
--irley
--iro
--is
--ise
--ised
--ish
--isi
--ising
--ism
--ist
--istanda
--isti
--it
--itar
--ite
--ities
--itler
--ito
--ity
--ium
--ius
--ive
--ivo
--iw
--ix
--iy
--iya
--iye
--iz
--izasiy
--ization
--ize
--ized
--izi
--izing
--izm
--izme
--izmin
--j
--ja
--jagy
--jak
--jan
--je
--jek
--jesi
--ji
--jigi
--jikler
--jit
--jo
--jow
--ju
--jun
--jy
--jygy
--jygyn
--jyk
--jyklar
--jyn
--k
--ka
--kalar
--kan
--kay
--kc
--kda
--kdan
--kde
--kdy
--ke
--kedi
--kes
--kga
--kh
--ki
--kid
--kin
--kiy
--klar
--kleri
--kly
--ko
--kow
--krat
--ks
--ksiy
--kt
--ktiw
--ku
--ky
--kyn
--l
--la
--lady
--lah
--lama
--lamak
--lamalar
--lan
--lanan
--landy
--landyrdy
--lany
--lanyp
--lap
--lar
--lara
--larda
--lardan
--lardy
--larin
--lary
--laryn
--laryna
--larynda
--laryny
--larynyn
--ları
--las
--lay
--ld
--ldi
--ldy
--le
--led
--lei
--lein
--len
--leny
--ler
--lerda
--lerde
--lerden
--lere
--leri
--lerin
--lerine
--lerini
--lerinin
--les
--ley
--lf
--lga
--lgy
--lha
--lho
--li
--lig
--lige
--ligi
--ligin
--ligine
--ligini
--lik
--likde
--likdir
--likli
--liler
--ling
--link
--lip
--lis
--list
--liy
--lizm
--ljak
--ll
--lla
--llah
--lle
--lm
--lma
--lmady
--lmadyk
--lmaga
--lmagy
--lmagyna
--lmagyny
--lmak
--lmaly
--lmalydyr
--lman
--lmandyr
--lmasa
--lmasy
--lmay
--lmaz
--lo
--load
--log
--lon
--lota
--lryn
--ls
--lsa
--lse
--lt
--ltma
--lu
--lug
--luga
--luk
--ly
--lyar
--lydyr
--lyga
--lygy
--lygyn
--lygyna
--lygyny
--lygynyn
--lyk
--lykda
--lykdan
--lyklar
--lylar
--lylyk
--lyn
--lyny
--lynyn
--lyp
--lypdy
--lypdyr
--lys
--lyy
--lı
--m
--ma
--maga
--magy
--mail
--mak
--maly
--man
--manka
--matiki
--may
--maz
--mc
--mda
--mdan
--mde
--me
--megi
--mek
--meli
--men
--ment
--mese
--metr
--mey
--mez
--mi
--min
--mis
--mium
--miy
--miz
--mizde
--mize
--mizi
--mizin
--mlar
--mlary
--mly
--mo
--ms
--msy
--mu
--murt
--muz
--my
--mygyn
--myka
--myn
--mynda
--myrat
--mys
--myz
--myza
--myzda
--myzdyr
--myzy
--myzyn
--n
--na
--nada
--nal
--nama
--namasy
--nan
--nay
--nc
--nce
--ncy
--nd
--nda
--ndady
--ndadyr
--ndaky
--ndan
--nde
--nden
--ndy
--ndygy
--ndyr
--ndyrlar
--ne
--nel
--nen
--ner
--ng
--ngo
--nha
--ni
--nim
--nin
--nis
--niy
--nk
--nka
--nlyk
--nn
--no
--nois
--now
--noy
--ns
--nsa
--nso
--nt
--ntly
--nto
--nu
--num
--ny
--nyn
--nyy
--nın
--o
--oa
--ob
--oc
--od
--ode
--odes
--oe
--of
--ofil
--oft
--og
--ogik
--ogiki
--ogiy
--ogly
--ogy
--oid
--ok
--okdy
--ol
--ole
--oln
--ologik
--ologiy
--om
--oma
--omy
--on
--one
--ong
--onga
--oni
--oniy
--onna
--ons
--ont
--ony
--op
--opol
--or
--ore
--oriy
--ory
--oryn
--os
--osa
--osiy
--osy
--osyn
--ot
--ota
--oto
--ource
--ous
--ov
--ova
--ow
--owa
--owic
--owy
--owyn
--oy
--oz
--p
--pa
--page
--pages
--pal
--pat
--pdy
--pdyr
--pdyrlar
--pe
--ph
--phy
--pi
--pik
--pisint
--ple
--po
--pp
--ppe
--ps
--pse
--pt
--pted
--pur
--py
--q
--qi
--que
--r
--ra
--rac
--rafiy
--rak
--ran
--rar
--ray
--rc
--rd
--rda
--rde
--rdi
--rdo
--rdy
--re
--red
--ren
--res
--ret
--rey
--ri
--rid
[...]
