!
"
#
##0
##1
##10
##11
##12
##13
##14
##15
##16
##17
##18
##19
##2
##20
##21
##22
##23
##24
##25
##26
##27
##28
##29
##3
##30
##31
##32
##33
##34
##35
##36
##37
##38
##39
##4
##40
##41
##42
##43
##44
##45
##46
##47
##48
##49
##5
##50
##51
##52
##53
##54
##55
##56
##57
##58
##59
##6
##60
##61
##62
##63
##64
##65
##66
##67
##68
##69
##7
##70
##71
##72
##73
##74
##75
##76
##77
##78
##79
##8
##80
##81
##82
##83
##84
##85
##86
##87
##88
##89
##9
##90
##91
##92
##93
##94
##95
##96
##97
##98
##99
$
%
&
'
(
)
*
+
,
-
.
/
0
00
000
01
02
03
0362
04
05
06
07
08
09
1
10
100
1000
1002
1007
101
1016
102
103
1038
104
105
106
107
108
1080
109
1093
11
110
1100
111
1111
112
113
114
115
116
117
1177
118
119
12
120
1200
121
122
123
124
125
126
127
128
129
13
130
1300
131
132
133
134
135
136
137
138
139
14
140
141
142
143
144
145
146
147
148
149
1492
15
150
1500
151
152
153
154
155
156
157
158
159
16
160
1600
161
162
163
164
1648
165
166
167
168
169
17
170
1700
171
172
173
174
175
1750
176
177
1770
1772
1774
1775
1776
1777
178
1780
1781
1782
1783
1784
1785
1786
1787
1788
1789
179
1790
1791
1792
1793
1794
1795
1796
1797
1798
1799
18
180
1800
1801
1802
1803
1804
1805
1806
1807
1808
1809
181
1810
1811
1812
1813
1814
1815
1816
1817
1818
1819
182
1820
1821
1822
1823
1824
1825
1826
1827
1828
1829
183
1830
1831
1832
1833
1834
1835
1836
1837
1838
1839
184
1840
1841
1842
1843
1844
1845
1846
1847
1848
1849
185
1850
1851
1852
1853
1854
1855
1856
1857
1858
1859
186
1860
1861
1862
1863
1864
1865
1866
1867
1868
1869
187
1870
1871
1872
1873
1874
1875
1876
1877
1878
1879
188
1880
1881
1882
1883
1884
1885
1886
1887
1888
1889
189
1890
1891
1892
1893
1894
1895
1896
1897
1898
1899
19
190
1900
1901
1902
1903
1904
1905
1906
1907
1908
1909
191
1910
1911
1912
1913
1914
1915
1916
1917
1918
1919
192
1920
1921
1922
1923
1924
1925
1926
1927
1928
1929
193
1930
1931
1932
1933
1934
1935
1936
1937
1938
1939
194
1940
1941
1942
1943
1944
1945
1946
1947
1948
1949
195
1950
1951
1952
1953
1954
1955
1956
1957
1958
1959
196
1960
1961
1962
1963
1964
1965
1966
1967
1968
1969
197
1970
1971
1972
1973
1974
1975
1976
1977
1978
1979
198
1980
1981
1982
1983
1984
1985
1986
1987
1988
1989
199
1990
1991
1992
1993
1994
1995
1996
1997
1998
1999
2
20
200
2000
2001
2002
2003
2004
2005
2006
2007
2008
2009
201
2010
2011
2012
2013
2014
2015
2016
2017
2018
2019
202
2020
2021
2022
2023
2024
203
204
205
206
207
208
209
21
210
211
212
213
214
215
216
217
218
219
22
220
221
222
223
224
225
226
227
228
229
23
230
231
232
233
234
235
236
237
238
239
24
240
241
242
243
244
245
246
247
248
249
25
250
251
252
253
254
255
256
257
258
259
26
260
261
262
263
264
265
266
267
268
269
27
270
271
272
273
274
275
276
277
278
279
28
280
281
282
283
284
285
286
287
288
289
29
290
291
292
293
294
295
296
297
298
299
29925
3
30
300
3000
301
302
303
304
305
306
307
308
309
31
310
311
312
313
314
315
316
317
318
319
32
320
321
322
323
324
325
326
327
328
33
330
331
332
333
334
335
336
337
338
34
340
342
343
345
346
35
350
351
353
354
355
356
357
359
36
360
365
366
367
37
370
375
377
38
380
383
384
385
387
39
390
393
395
4
40
400
4000
401
403
404
405
41
410
411
412
415
42
420
421
425
43
430
431
4331
44
440
45
450
46
460
47
470
48
480
49
5
50
500
5000
504
505
51
510
512
52
520
521
525
53
54
540
55
550
56
560
57
58
59
6
60
600
61
62
63
64
65
650
66
67
68
69
7
70
700
71
72
73
737
74
75
750
76
77
78
79
8
80
800
81
82
83
84
85
850
86
87
88
89
890
9
90
900
91
911
92
93
94
95
96
963
965
97
978
98
99
:
;
<
=
>
?
@
[
\
]
^
_
`
a
aa
aaron
ab
aba
abc
about
abraham
ac
academia
academic
academy
access
accessed
across
act
action
actor
ad
adam
adams
administration
adult
adventures
aew
affairs
africa
african
after
ag
again
against
age
agency
ah
ahs
ai
air
airport
akv
al
alan
alatt
albert
album
albums
alessandro
alex
alexander
alfred
alhatorah
ali
alice
aligned
all
allen
alliance
allmovie
allmusic
alone
alpha
also
alternative
am
amazing
amazon
america
american
among
amsterdam
amy
an
analysis
ancient
and
anderson
andre
andreeva
andrew
andy
angel
angeles
animal
animals
animation
ann
anna
anne
anniversary
announced
announces
annual
another
antarctica
anthony
anti
antonio
any
ap
apple
applied
approach
april
ar
arab
archaeology
architecture
archive
archived
archives
are
area
argentina
aria
ariana
arkive
arms
army
arnold
around
array
art
arthur
article
articles
artist
artists
arts
as
asia
asian
aspx
assessment
associated
association
astronomical
at
atlantic
atlas
atp
attack
au
audio
auf
august
aus
austin
australia
australian
author
authors
auto
av
ave
avengers
avenue
aviation
aviv
award
awards
away
az
b
ba
baby
back
bad
baha
ball
ban
band
bank
bar
barbara
barcelona
barry
base
based
basic
basketball
batman
battle
bay
bb
bbc
bc
bd
bdfutbol
be
beach
beat
beautiful
beauty
been
before
begin
behavior
behind
being
bejegyze
believe
bell
ben
benjamin
bennett
ber
berkeley
berlin
bernard
best
beta
better
between
beyonce
beyond
bf
bg
bi
bibcode
bible
biblical
bieber
big
biggest
bill
billboard
billie
biographical
biography
biology
bird
birds
birth
black
block
blog
blood
bloomberg
blu
blue
blues
blvd
bmatrix
bo
board
bob
body
book
books
border
born
boston
box
boy
boys
bp
bpi
br
brain
brazil
break
breaking
breslev
brian
bridge
brief
brightman
brill
britain
britannica
british
britney
broadcasting
broadway
bros
brothers
brown
bruce
bts
bu
bucures
budapest
building
bulletin
bureau
bush
business
but
bxc
by
c
ca
cafe
calcalist
california
call
called
cambridge
camp
campaign
campbell
can
canada
canadian
cancer
canyon
cap
capital
captain
car
care
career
carey
carl
carolina
cars
carter
casa
case
cases
cast
castle
cat
catalog
catalogue
cbc
cbs
cd
cdot
cdots
ce
cell
census
center
central
centre
century
certifications
ch
challenge
championship
change
changes
channel
chapter
character
charles
charlie
charlotte
chart
charts
chemical
chemistry
chess
chi
chicago
chief
child
children
china
chinese
choice
chris
christian
christmas
christopher
chronicle
church
cia
cinema
circ
circle
citation
cite
cities
city
civil
clark
class
classic
classical
climate
clinical
close
club
cm
cnn
co
coast
code
cognitive
cohen
cold
cole
collection
college
collins
color
columbia
com
come
comedy
comes
comic
comics
coming
command
commentary
commission
committee
common
communication
community
companion
company
comparative
complete
complex
complexity
computer
con
concept
concert
conference
confirms
conflict
congress
conservation
constitution
consulate
contemporary
content
contest
control
cooper
cooperation
copy
coronavirus
corporation
cos
could
council
count
countries
country
county
court
cover
covid
crazy
creative
credits
crime
crisis
critical
critics
cross
crown
cry
cs
ct
cultural
culture
cup
current
cut
cw
cyrus
d
da
daily
dan
dance
daniel
dans
dark
das
data
database
date
dates
dave
david
davis
dawn
day
days
db
dc
de
dead
deadline
deal
death
debut
dec
december
decision
deep
deezer
defence
defense
del
della
delta
dem
demi
democracy
den
denise
denmark
department
der
des
desert
design
details
deutsche
development
di
diamonds
dictionary
did
die
dies
different
digital
din
diplomatic
direct
director
discogs
discovery
disease
disney
disorder
disorders
displaystyle
district
diversity
division
dj
dk
dna
do
doctor
documentary
documents
does
dog
doi
don
donald
dos
dot
dots
double
douglas
down
dr
drake
drama
dream
dreams
drive
drug
ds
dt
du
duke
during
dutch
dvd
dx
e
early
earth
east
eastern
eco
economic
economics
economy
ed
edge
edited
edition
editor
editors
eds
edu
education
edward
effect
effects
egypt
egyptian
ein
eip
el
election
electric
electronic
elite
elizabeth
ell
else
em
embassy
emi
emily
empire
en
encyclopaedia
encyclopedia
end
energy
engineering
england
english
entertainment
environment
environmental
ep
episode
epsilon
equiv
er
era
eric
ernst
es
espan
espn
essays
est
et
ethiopia
eu
eurobasket
europa
europe
european
eurovision
evans
even
evening
event
events
ever
every
everything
evidence
evil
evolution
ex
exceeded
exceedednode
exchange
exclusive
executive
exp
experience
exploration
express
eye
eyes
f
fa
face
facebook
fact
factor
facts
fair
faith
fall
false
fame
family
famous
fans
fantasy
far
fashion
fast
father
fbi
fc
fda
fe
fear
feat
features
february
federal
federation
feel
female
feminist
festival
ff
fi
fiction
field
fifa
fifth
fight
file
files
film
films
final
finance
financial
find
fine
fire
first
fish
five
flag
flight
florida
fly
fm
fo
folklore
folyo
food
football
footballdatabase
for
forbes
force
forces
ford
foreign
forest
forever
form
formation
former
fort
forum
forward
found
foundation
four
fox
fr
frac
franc
france
francis
francisco
frank
frederick
free
freedom
french
friday
friedrich
friend
friends
from
front
ft
fu
full
fun
function
fund
fussballdaten
future
g
ga
gaga
galaxy
gallery
game
games
gamma
garden
gary
gay
gazette
gbif
ge
gender
gene
general
generation
genius
george
georgia
geq
german
germany
geschichte
get
gets
ghost
gi
girl
girls
github
give
glacier
glass
global
globe
globes
gm
gmail
go
god
goes
going
gold
golden
gomez
gone
good
goodreads
google
gordon
got
gov
government
governor
gps
grace
graham
grammy
grand
grande
grant
grave
gray
great
greatest
greece
greek
green
greenwood
group
groups
grove
growth
gt
gu
guardian
guide
guy
gyo
h
ha
haaretz
had
half
hall
halotti
hamilton
hand
handbook
hans
happy
hard
harper
harris
harry
harvard
has
hat
have
hbar
hbo
hd
he
head
health
heart
heaven
hebrew
hebrewbooks
helen
hell
hello
help
henry
her
herald
herbert
here
heritage
hero
heroes
hi
high
higher
hill
him
hip
his
histoire
historia
historic
historical
history
hit
hitler
hits
hiv
ho
hold
holiday
hollywood
holocaust
holy
home
hong
honor
hope
horror
hospital
hostel
hot
hotel
house
how
howard
hp
htm
html
http
https
hu
hudson
hugh
hulu
human
hung
i
ian
ibm
ice
id
identity
ie
ieee
if
ifpi
ign
ii
iii
il
illinois
illustrated
im
image
images
imdb
impact
imperial
in
inc
independence
independent
index
india
indian
indiana
indonesia
industry
info
information
infty
inn
inside
insider
instagram
institute
int
intelligence
interactive
international
internet
interview
into
introduction
ios
ip
ipni
ira
iran
iraq
ireland
irish
iron
is
isbn
islam
islamic
island
islands
iso
israel
israeli
issn
issue
issues
it
italia
italian
italy
item
itis
its
itunes
itv
iucn
iv
ix
j
ja
jack
jackson
jacob
jacques
james
jan
jane
january
japan
japanese
jason
java
jay
jazz
je
jean
jeff
jeffrey
jennifer
jersey
jerusalem
jessica
jesus
jewish
jewishgen
jews
jim
jo
joe
john
johnson
join
joins
joint
jon
jonathan
jones
jordan
jose
joseph
joshua
journal
journey
jr
jstor
ju
juan
judaism
julia
july
june
just
justice
justin
k
ka
karl
kate
kc
kd
ke
keith
kelly
kennedy
kenneth
kentucky
keru
kevin
key
kf
kg
kh
ki
kids
kill
killed
kim
king
kingdom
kings
kinopoisk
kiss
kit
knight
know
knowledge
ko
kong
korea
ku
l
la
labor
lady
lake
lambda
land
lane
lang
langle
language
languages
las
last
late
later
latest
latin
launch
laura
law
lawrence
ldots
le
lead
leader
league
learning
leave
lebanon
led
lee
left
legacy
legal
legend
leiden
leo
leonard
leq
les
lesbian
let
lete
leti
letter
letters
level
lewis
lexikon
lgbt
li
library
life
light
lights
like
lil
lim
limit
limited
limits
lincoln
line
link
linkedin
lion
lisa
list
listen
literary
literature
little
live
lives
living
ll
ln
lo
local
log
london
long
look
lopez
lord
los
lost
louis
love
low
lt
ltd
lu
m
ma
mac
machine
macmillan
mad
made
madonna
madrid
magazine
magic
magyar
mai
mail
main
major
make
makes
making
mako
malaysia
male
man
management
manchester
many
map
mar
marc
march
margaret
maria
marie
marina
marine
mario
mark
market
marriage
mars
marshall
martin
marvel
mary
mass
master
masters
match
mathbb
mathbf
mathcal
mathematical
mathematics
mathrm
mathworld
matrix
matt
matter
matthew
max
may
mbox
md
me
med
medal
media
medical
medicine
medieval
meet
member
members
memorial
memory
men
mental
meta
metacritic
metal
method
metro
mexico
mg
mi
michael
michigan
microsoft
mid
middle
mike
military
miller
million
min
mind
minister
ministry
minor
mirror
miss
mission
mit
mitchell
mix
mk
mls
mo
mobile
mod
mode
model
models
modern
mojo
molecular
moment
money
monster
month
monthly
mooma
moon
moore
more
morgan
morning
morris
moscow
most
mother
motion
motor
mount
mountain
mountains
move
movement
movie
movies
mp
mr
ms
mtv
mu
much
multiple
murder
murray
museum
music
musical
musicbrainz
muslim
must
mvp
my
mynet
mystery
n
na
nabla
nacional
name
named
names
nana
nancy
nasa
nation
national
nations
natural
nature
naval
navy
nazi
nb
nba
nbc
nc
ncaa
ncbi
nd
ne
near
need
neil
nellie
nelson
neq
net
netflix
network
networks
never
new
news
next
nf
nfl
ng
ngc
nh
nhl
ni
nia
nicholas
nick
nielsen
night
nine
nl
nli
nme
no
node
nominations
nominees
non
norman
north
northern
norton
nos
not
note
notes
nothing
nova
novel
november
now
npr
nr
nrg
nt
nu
nuclear
number
numbers
nxe
nxt
ny
nz
o
observations
observatory
observer
ocean
oclc
ocr
oct
october
oecd
of
off
office
official
officialcharts
oh
oil
old
olympedia
olympic
omega
on
once
one
online
only
op
open
opening
opera
operation
operations
operatorname
oplus
or
oral
order
org
organization
oriental
origin
original
origins
os
other
others
otto
ou
our
out
over
overview
own
oxford
p
pa
pacific
page
pages
pain
pakistan
palace
palestine
palestinian
pan
paper
papers
para
paradise
paris
park
parliament
part
partial
party
past
patients
patrick
paul
pbs
pc
pdf
pe
peace
penguin
pennsylvania
people
per
perfect
performance
period
perry
person
personal
personality
perspective
perspectives
peter
petski
pg
ph
phi
philadelphia
philip
philosophy
photo
photos
php
physical
physics
pi
piano
picture
pictures
pierre
pilot
pink
pitchfork
pl
place
plan
planet
planning
plant
platinum
play
player
plaza
plus
pm
pmatrix
pmc
pmid
po
poetry
point
poland
polga
police
policy
political
politics
pop
popular
population
por
port
portrait
portuguese
post
pour
power
pp
pr
practice
pre
premier
premiere
present
president
presidential
press
price
pride
prime
prince
princess
princeton
principles
print
private
prix
prize
pro
problem
problems
proceedings
process
production
productions
products
professor
profile
program
project
psi
psychiatry
psychological
psychology
pt
pub
public
publication
publications
published
publishers
publishing
q
qatar
qb
qc
qd
qe
qf
quad
quarterly
que
queen
questions
r
ra
race
rachel
radio
rain
rainbow
random
range
rangle
ranked
raw
ray
rb
rc
rca
rd
re
read
ready
real
really
rebecca
record
recording
records
red
reference
region
regional
related
relations
relationship
release
released
releases
religion
religious
remix
renaissance
report
reporter
reports
republic
res
research
resources
response
restaurant
result
results
retrieved
return
returns
reuters
rev
revealed
reveals
review
reviews
revised
revolution
rf
rg
rh
rho
ri
ria
riaa
rich
richard
right
rightarrow
rights
ring
rio
rise
risk
river
rna
ro
road
rob
robert
roberts
robin
robinson
rock
roger
role
roll
rolling
roma
roman
rome
ronald
room
rose
ross
rotten
round
routledge
royal
rs
rsssf
rt
rte
ru
rue
rule
rules
run
russell
russia
russian
ruth
ryan
s
sa
safety
said
saint
sales
sam
same
samuel
san
santa
sarah
saudi
save
say
says
sc
scar
school
schuster
sci
science
sciences
scientific
scott
screen
se
sea
search
season
sec
second
secondhandsongs
secret
secretary
section
security
see
sefaria
sefariaeng
select
selected
selena
self
senate
september
series
service
services
set
sets
seven
sex
sexual
shadow
shakira
she
sheffield
ship
short
shot
should
show
shows
si
side
sigma
sign
signs
silver
simon
sin
since
singer
single
singles
sir
site
sites
six
size
sky
small
smith
snow
so
soccerway
social
society
software
solo
some
something
son
song
songkick
songs
sons
sony
soul
sound
soundcloud
soundtrack
source
south
southern
soviet
sp
space
spain
spanish
special
species
speech
speed
spider
spin
spirit
sport
sports
spotify
spring
springer
spy
sqrt
square
sr
ss
st
stadium
staff
stage
stand
standard
stanford
stanley
star
stars
start
state
statement
states
station
statistics
status
stay
steel
stephen
stern
steve
steven
stewart
still
stone
stop
store
stories
storm
story
str
strange
street
string
structure
sts
studies
studio
studios
study
style
su
sub
subseteq
suicide
sum
summary
summer
sun
sunday
super
support
supreme
sur
survey
susan
sweet
swift
switzerland
sydney
syndrome
syria
system
systematic
systems
sz
sza
szerk
szi
szlo
szu
t
ta
table
taiwan
take
takes
tales
talk
talks
tan
tau
taylor
te
team
teams
tech
technology
ted
teen
tel
telegraph
television
tell
temple
ten
term
test
texas
text
tfrac
th
than
that
the
theater
theatre
their
them
themarker
then
theory
therapy
there
these
theta
they
thing
things
think
third
this
thomas
thompson
thought
three
through
ti
tidal
ties
tim
time
times
title
to
today
together
tokyo
tom
tomatoes
tonight
tony
too
top
toronto
total
tour
tower
town
tr
track
trade
tradition
trailer
training
trans
transfermarkt
transgender
translated
translation
travel
tre
treatment
tree
trek
trial
tribune
tropicos
true
trump
trust
truth
tu
turkey
turn
turner
tv
twitter
two
type
u
uefa
uk
ukraine
ul
uli
ultimate
ultratop
un
una
und
under
understanding
une
unesco
union
united
universal
universe
university
up
update
upon
urban
url
us
usa
use
used
using
v
va
valley
value
values
van
var
varepsilon
variation
variety
varphi
ve
vec
verlag
version
very
vi
via
vice
victor
victoria
video
videos
view
vii
viii
village
violence
virginia
virtual
virus
vision
visit
visual
vk
voice
void
vol
volume
von
vote
vs
vulture
w
wales
walk
walker
wall
walter
want
war
warner
wars
was
washington
watch
water
wave
way
wayback
wayne
we
weather
web
website
week
weekly
wehrmacht
welcome
well
were
west
western
what
when
where
which
while
white
who
why
wiki
wikisource
wild
wiley
wilhelm
will
william
williams
wilson
win
wind
windows
winners
wins
winter
with
within
without
wolf
woman
women
won
wood
word
words
work
working
works
world
worldfootball
worlds
worldwide
would
wrestling
writer
writing
wwe
www
x
xbox
xi
xnet
y
ya
yahoo
yale
yandex
year
years
yes
ynet
york
you
young
your
youth
youtube
yu
z
za
zassa
zealand
zero
zone
zu
zur
{
|
}
~
¡
£
§
¨
©
«
¬
­
®
¯
°
±
²
´
·
º
»
½
¿
×
ı
ʻ
ʼ
ʾ
ʿ
ˈ
ː
˙
̀
́
̂
̃
̄
̆
̇
̈
̉
̊
̋
̌
̓
̔
̛
̣
̦
̧
̨
̮
̱
̸
͂
͏
α
β
γ
δ
ε
ζ
η
θ
ι
κ
λ
μ
ν
ξ
ο
π
ρ
ς
σ
τ
υ
φ
χ
ψ
ω
ϕ
ϵ
а
б
в
г
д
е
з
и
к
л
м
н
на
не
о
от
п
по
р
россии
с
т
у
я
і
֑
֒
֓
֔
֕
֖
֗
֘
֙
֚
֛
֜
֝
֞
֠
֡
֢
֣
֤
֥
֧
֨
֩
֪
֫
֬
֭
֮
ְ
ֱ
ֲ
ֳ
ִ
ֵ
ֶ
ַ
ָ
ֹ
ֺ
ֻ
ּ
ֽ
־
ֿ
׀
ׁ
ׂ
׃
ׄ
ׅ
ׇ
א
אא
אאודי
אאוט
אב
אבא
אבאר
אבבה
אבד
אבדה
אבדו
אבדות
אבדן
אבה
אבהו
אבו
אבוא
אבוד
אבודה
אבודים
אבוה
אבוהב
אבוהון
אבוט
אבולוציה
אבולעפיה
אבות
אבותי
אבותיהם
אבותיו
אבותיך
אבותיכם
אבותינו
אבותם
אבחון
אבחזיה
אבחנה
אבטחה
אבטחת
אבטלה
אבי
אביא
אביב
אביבה
אביבי
אביגדור
אביגיל
אבידה
אבידן
אביה
אביהם
אביהן
אביו
אביון
אביחי
אביטל
אביי
אביך
אביכם
אבילות
אבימלך
אבין
אבינו
אביעד
אביר
אבירי
אבירים
אבירם
אבישי
אביתר
אבל
אבלות
אבלים
אבן
אבני
אבנים
אבנר
אבנרי
אבעבועות
אבק
אבקת
אבר
אבראהים
אברבנאל
אברהם
אברי
אבריו
אברייתא
אברים
אברכים
אברם
אברמוביץ
אבשלום
אג
אגב
אגד
אגדה
אגדות
אגדת
אגו
אגוד
אגודה
אגודות
אגודת
אגוז
אגוזים
אגיד
אגם
אגמון
אגמים
אגן
אגנס
אגף
אגר
אגרא
אגרה
אגרוף
אגרות
אגריפס
אגרת
אד
אדא
אדבר
אדג
אדגר
אדה
אדו
אדוארד
אדוארדס
אדווין
אדולף
אדום
אדומה
אדומות
אדומים
אדון
אדוני
אדוניו
אדונים
אדוק
אדי
אדינבורו
אדיסון
אדיר
אדירה
אדירים
אדית
אדל
אדלר
אדלשטיין
אדם
אדמדם
אדמה
אדמו
אדמון
אדמונד
אדמות
אדמירל
אדמס
אדמת
אדמתו
אדמתם
אדן
אדנ
אדני
אדע
אדעתא
אדעתיה
אדר
אדרב
אדרבא
אדרבה
אדרבי
אדרי
אדריאן
אדריאנוס
אדריכל
אדריכלות
אדריכלי
אדריכלים
אדריכלית
אדרכתא
אדרת
אה
אהא
אהאי
אהב
אהבה
אהבו
אהבת
אהבתה
אהבתו
אהבתי
אהבתם
אהדדי
אהדה
אהדר
אההיא
אהוב
אהובה
אהובי
אהובתו
אהוד
אהי
אהיה
אהל
אהלות
אהלי
אהלים
אהני
אהרון
אהרוני
אהרן
או
אוב
אובד
אובדן
אובייקט
אובייקטים
אובמה
אובר
אוברסט
אוג
אוגדה
אוגדת
אוגוסט
אוגוסטה
אוגוסטוס
אוגנדה
אודה
אודות
אודותיו
אודי
אודיו
אודיעך
אודם
אודסה
אודרי
אוהב
אוהבו
אוהבי
אוהבים
אוהבת
אוהד
אוהדי
אוהדים
אוהיו
אוהל
אוהלים
אווה
אווז
אווטאר
אוויר
אווירה
אווירי
אוויריות
אווירית
אוולין
אוון
אוונס
אוז
אוזבקיסטן
אוזן
אוזניים
אוחדו
אוחז
אוחזין
אוחזר
אוחיון
אוחנה
אוטו
אוטובוס
אוטובוסים
אוטוביוגרפיה
אוטומטי
אוטומטית
אוטונומי
אוטונומיה
אוטונומית
אוי
אויב
אויבי
אויביהם
אויביו
אויביך
אויבים
אויגן
אויל
אוילר
אויר
אוירא
אוירבך
אוכל
אוכלוסיות
אוכלוסייה
אוכלוסיית
אוכלוסייתה
אוכלוסין
אוכלי
אוכלים
אוכלין
אוכלת
אוכף
אול
אולג
אולגה
אולד
אולטרה
אולי
אוליביה
אוליבייה
אוליבר
אולימפי
אולימפיאדות
אולימפיאדת
אולימפיה
אולימפיק
אולימפית
אולם
אולמות
אולמן
אולמרט
אולף
אולפן
אולפני
אולריך
אום
אומ
אומגה
אומד
אומדין
אומדן
אומדנא
אומה
אומות
אומן
אומנות
אומנים
אומנם
אומץ
אומצה
אומר
אומרה
אומרו
אומרי
אומרים
אומרין
אומרם
אומרת
אומת
און
אונאה
אונגר
אונו
אונות
אונטריו
אוני
אוניברסיטאות
אוניברסיטה
אוניברסיטת
אוניברסלי
אוניברסלית
אוניות
אונייה
אוניית
אוניל
אונים
אונליין
אונן
אונס
אונסא
אונסין
אונסק
אונקלוס
אוסבורן
אוסטיה
אוסטין
אוסטן
אוסטרי
אוסטריה
אוסטרלי
אוסטרליה
אוסטרלית
אוסיף
אוסישקין
אוסלו
אוסף
אוספים
אוסקר
אוסר
אוסרים
אוסרין
אוסרת
אוף
אופ
אופה
אופוזיציה
אופוס
אופטי
אופטיים
אופטית
אופי
אופיו
אופייה
אופייני
אופייניים
אופיינית
אופיר
אופל
אופן
אופנה
אופנהיימר
אופנוע
אופני
אופניים
אופנים
אופציה
אופק
אופקי
אופקים
אופקית
אופרה
אופרות
אופרטור
אוצ
אוציא
אוצר
אוצרות
אוצרת
אוקטובר
אוקי
אוקיאניה
אוקיינוס
אוקימנא
אוקימתא
אוקלהומה
אוקלנד
אוקמה
אוקמוה
אוקספורד
אוקראינה
אוקראיני
אוקראינים
אוקראינית
אור
אורבך
אורגון
אורגן
אורגנה
אורגני
אורגניות
אורגניזמים
אורגניים
אורגנית
אורה
אורו
אורוגוואי
אורון
אורות
אורז
אורח
אורחא
אורחות
אורחיה
אורחים
אורחת
אורט
אורטון
אורי
אוריאל
אוריה
אוריון
אורייתא
אורים
אורית
אורך
אורכב
אורכה
אורכו
אורכי
אורכם
אורל
אורלי
אורליאן
אורלינס
אורלנדו
אורן
אורנג
אורנה
אורניום
אורנים
אורתודוקסי
אורתודוקסים
אורתודוקסית
אושוויץ
אושעיא
אושר
אושרה
אושרו
אות
אותה
אותו
אותות
אותי
אותיות
אותך
אותם
אותן
אותנו
אז
אזהרה
אזהרות
אזהרת
אזוב
אזוזי
אזולאי
אזור
אזורי
אזוריות
אזוריים
אזורים
אזורית
אזי
אזיל
אזכור
אזכורים
אזכרה
אזל
אזלא
אזלי
אזלינן
אזן
אזנו
אזנים
אזנך
אזרבייג
אזרח
אזרחות
אזרחי
אזרחיות
אזרחיים
אזרחים
אזרחית
אח
אחא
אחאב
אחאי
אחד
אחדות
אחדים
אחוה
אחווה
אחוות
אחוז
אחוזה
אחוזות
אחוזי
אחוזים
אחוזת
אחוזתו
אחוי
אחור
אחורה
אחורי
אחוריו
אחוריים
אחורית
אחות
אחותה
אחותו
אחותי
אחז
אחזה
אחזקה
אחזקת
אחי
אחיד
אחידה
אחידות
אחיה
אחיהם
אחיו
אחיות
אחיזה
אחיזת
אחיינו
אחיך
אחיכם
אחים
אחין
אחינו
אחמד
אחסון
אחר
אחרא
אחראי
אחראים
אחראית
אחרון
אחרונה
אחרונות
אחרוני
אחרונים
אחרות
אחרי
אחריה
אחריהם
אחריהן
אחריו
אחריות
אחריותו
אחריך
אחרים
אחרינא
אחריני
אחרית
אחריתא
אחריתי
אחרנין
אחרת
אחשורוש
אחת
אט
אטו
אטום
אטומי
אטומים
אטומית
אטיין
אטילה
אטינגר
אטלנטה
אטלנטיק
אטלס
אי
איאן
איב
איבד
איבדה
איבדו
איבה
איבוד
איבעי
איבעיא
איבעית
איבר
איברהים
איברי
איבריו
איברים
איגוד
איגודי
איגור
איגר
איגרות
איגרת
אידאולוגיה
אידה
אידי
אידיאל
אידיאלי
אידיבי
אידך
איה
איהו
איהי
איו
איוב
איוואן
איווה
איוון
איום
איומים
איור
איורים
איזבל
איזבלה
איזה
איזהו
איזו
איזון
איזי
איזיקוביץ
איחוד
איטי
איטית
איטליה
איטלקי
איטלקים
איטלקית
איי
אייאקס
איידהו
איידי
איידס
אייזיק
אייזנברג
אייזנהאואר
אייזנשטיין
אייזק
אייכמן
אייכנר
אייל
איילה
איילון
איילונית
איילנד
איילת
איים
איימי
איינשטיין
אייס
אייר
איירווייז
איירון
איירי
איירליינס
איירס
אייתי
איך
איכא
איכה
איכות
איכותי
איכפת
איכרים
איל
אילא
אילה
אילו
אילון
אילונית
אילי
איליה
אילים
אילימא
אילין
אילינוי
אילם
אילן
אילנא
אילנה
אילנות
אילני
אילנית
אילפס
אילת
אימא
אימה
אימו
אימון
אימוני
אימונים
אימוץ
אימור
אימות
אימי
אימן
אימפריה
אימפריית
אימץ
אימצה
אימצו
אימר
אימרה
אימת
אימתי
אין
אינגלנד
אינדונזיה
אינדיאנה
אינדיאנים
אינדקס
אינה
אינהו
אינו
אינון
אינטגרציה
אינטל
אינטליגנציה
אינטלקטואלים
אינטנסיבי
אינטר
אינטראקציה
אינטרנט
אינטרנשיונל
אינטרס
אינטרסים
איני
איניש
אינך
אינכם
אינם
אינן
איננה
איננו
אינני
אינסוף
אינסופי
אינסטגרם
אינץ
אינש
אינשי
איסוף
איסור
איסורא
איסורו
איסורי
איסורים
איסורין
איסט
איסטנבול
איסי
איסלנד
איסר
איפה
איפוא
איפכא
איפשיטא
איפשר
איפשרה
איפשרו
איצטריך
איצטריכא
איציק
איקלע
איקרי
איראן
איראני
אירו
אירוויזיון
אירווינג
אירוח
אירוסין
אירוע
אירועי
אירועים
אירופאי
אירופאיות
אירופאים
אירופאית
אירופה
אירופי
אירופיות
אירופיים
אירופית
אירח
אירחה
אירי
איריא
איריס
אירית
אירלנד
אירע
אירעה
אירעו
איש
אישה
אישום
אישור
אישורו
אישות
אישטוואן
אישי
אישיות
אישיותו
אישיים
אישים
אישית
אישר
אישרה
אישרו
אית
איתא
איתה
איתו
איתור
איתי
איתיביה
איתיה
איתך
איתם
איתמר
איתן
איתנהו
איתקש
איתרע
איתתא
אך
אכ
אכו
אכול
אכולהו
אכזבה
אכזרי
אכזריות
אכיל
אכילה
אכילת
אכילתו
אכיפה
אכיפת
אכל
אכלה
אכלו
אכלי
אכלתי
אכן
אכסדרה
אכפת
אכתוב
אכתי
אל
אלא
אלאדין
אלבה
אלבום
אלבומה
אלבומו
אלבומי
אלבומים
אלבומם
אלבז
אלביט
אלביס
אלבמה
אלבניה
אלבר
אלברט
אלברטה
אלברטו
אלברכט
אלג
אלגברה
אלגברית
אלגוריתם
אלגוריתמים
אלד
אלדד
אלדר
אלה
אלהא
אלהות
אלהי
אלהיהם
אלהיו
אלהיך
אלהיכם
אלהים
אלהינו
אלהם
אלו
אלוה
אלוהי
אלוהים
אלווין
אלול
אלומיניום
אלון
אלונה
אלוני
אלוף
אלופה
אלופי
אלופת
אלזה
אלזס
אלחנן
אלט
אלטו
אלטון
אלטמן
אלטרנטיבי
אלטרנטיבית
אלי
אליאב
אליאור
אליאס
אליבא
אליביה
אליה
אליהו
אליהם
אליהן
אליו
אליוט
אליזבת
אליי
אליך
אליכם
אליל
אלילים
אלים
אלימא
אלימה
אלימות
אלימים
אלימלך
אלין
אלינו
אלינור
אליס
אליסון
אליעזר
אליפויות
אליפות
אליצור
אליקים
אלישבע
אלישיב
אלישע
אלך
אלכוהול
אלכס
אלכסון
אלכסיי
אלכסנדר
אלכסנדרה
אלכסנדרו
אלכסנדריה
אללה
אלם
אלמא
אלמגור
אלמה
אלמוג
אלמוגים
אלמוני
אלמלא
אלמנה
אלמנות
אלמנט
אלמנטים
אלמנת
אלמנתו
אלן
אלנבי
אלנה
אלסנדרו
אלסקה
אלעאי
אלעד
אלעזר
אלף
אלפא
אלפונסו
אלפי
אלפיים
אלפים
אלפין
אלפס
אלפסי
אלפרד
אלק
אלקות
אלקטרה
אלקטרון
אלקטרוני
אלקטרוניים
אלקטרונים
אלקטרוניקה
אלקטרונית
אלקי
אלקיך
אלקיכם
אלקים
אלקינו
אלקנה
אלשיך
אלת
אלתר
אלתרמן
אם
אמ
אמא
אמאי
אמבר
אמה
אמהות
אמו
אמון
אמונה
אמונות
אמונים
אמונת
אמונתו
אמונתם
אמוץ
אמור
אמורא
אמוראי
אמורה
אמורות
אמורים
אמות
אמותיו
אמזון
אמי
אמיד
אמידה
אמיל
אמילי
אמיליה
אמימר
אמין
אמינא
אמינו
אמינות
אמינם
אמיץ
אמיר
אמירה
אמירות
אמירת
אמיתות
אמיתי
אמיתיות
אמיתיים
אמיתית
אמך
אמל
אמליה
אמם
אמן
אמנדה
אמנה
אמנואלה
אמנויות
אמנון
אמנות
אמנותי
אמנותית
אמני
אמנים
אמנית
אמנם
אמנת
אמסטרדם
אמצא
אמציה
אמצע
אמצעי
אמצעים
אמצעית
אמר
אמרה
אמרו
אמרות
אמרי
אמריטוס
אמרין
אמרינן
אמריקאי
אמריקאיות
אמריקאיים
אמריקאים
אמריקאית
אמריקה
אמריקן
אמריקני
אמריקנים
אמריקנית
אמרם
אמרן
אמרנו
אמרסון
אמרת
אמרתי
אמש
אמת
אמתי
אמתלא
אמתני
אמתניתין
אמתת
אן
אנ
אנא
אנג
אנגולה
אנגל
אנגלי
אנגליה
אנגלייה
אנגלים
אנגלית
אנד
אנדורה
אנדי
אנדר
אנדראה
אנדראס
אנדרה
אנדרו
אנדרואיד
אנדרוגינוס
אנדרוז
אנדרטה
אנדרטת
אנדריי
אנדרמן
אנדרס
אנדרסון
אנדרסן
אנה
אנהלט
אנו
אנוכי
אנוס
אנוסה
אנוסים
אנוש
אנושות
אנושי
אנושיות
אנושיים
אנושית
אנז
אנזים
אנזימים
אנחנו
אנט
אנטארקטיים
אנטארקטיקה
אנטואן
אנטוורפן
אנטולי
אנטומיה
אנטון
אנטוני
אנטוניו
אנטוניוס
אנטי
אנטיגנוס
אנטיוכוס
אנטיוכיה
אנטישמיות
אנטרטיינמנט
אני
אניה
אניות
אניטה
אנימציה
אנינות
אניס
אנכי
אנכית
אנליזה
אנן
אנני
אנס
אנסטסיה
אנסמבל
אנפין
אנפשיה
אנציקלופדיה
אנציקלופדיית
אנר
אנרגיה
אנרגיית
אנרי
אנרים
אנריקה
אנריקו
אנשי
אנשיה
אנשיו
אנשים
אנת
אנתולוגיה
אנתוני
אס
אסא
אסד
אסון
אסונות
אסופת
אסור
אסורה
אסורות
אסורים
אסורין
אסטון
אסטוניה
אסטרונומיה
אסטרטגי
אסטרטגיה
אסטרטגיות
אסטרטגיים
אסטרטגית
אסי
אסיה
אסיסטים
אסיף
אסיפא
אסיפה
אסיק
אסיקנא
אסיר
אסירא
אסירי
אסירים
אסכולת
אסלאם
אסלאמית
אסמכתא
אסנת
אסף
אספה
אספו
אספקה
אספקת
אספרנטו
אספת
אסר
אסרה
אסרו
אסרי
אסרינן
אסתי
אסתלק
אסתר
אע
אעלה
אעפ
אעשה
אף
אפ
אפגניסטן
אפה
אפו
אפוא
אפוטרופא
אפוטרופוס
אפולו
אפומא
אפור
אפותיקי
אפי
אפיה
אפיון
אפייה
אפילו
אפים
אפיפיור
אפיק
אפך
אפל
אפלה
אפלו
אפלטון
אפליה
אפליקציות
אפס
אפק
אפקט
אפקטים
אפר
אפרו
אפרוח
אפריל
אפרים
אפריקאי
אפריקאים
אפריקאית
אפריקה
אפריקני
אפרפר
אפרש
אפרת
אפרתי
אפשטיין
אפשי
אפשר
אפשרה
אפשרו
אפשרויות
אפשרות
אפשרי
אפשריות
אפשריים
אפשרית
אץ
אצ
אצבע
אצבעו
אצבעות
אצבעותיו
אצולה
אצטדיון
אצטריך
אציל
אצילות
אצילי
אצילים
אצל
אצלה
אצלו
אצלי
אצלינו
אצלך
אצלם
אצלנו
אק
אקדח
אקדמי
אקדמיה
אקדמיים
אקדמיית
אקדמית
אקו
אקוודור
אקולוגית
אקוסטית
אקח
אקי
אקלים
אקני
אקס
אקסל
אקספרס
אקרא
אקראי
אקראית
אקרון
אקרי
אקשי
אקשינן
אקשן
אר
אראגון
אראה
אראל
ארבה
ארבל
ארבע
ארבעה
ארבעים
ארבעת
ארג
ארגוב
ארגון
ארגוני
ארגונים
ארגונית
ארגז
ארגמן
ארגן
ארגנה
ארגנו
ארגנטינאי
ארגנטינה
ארד
ארדואן
ארדן
ארה
ארו
ארובה
ארווין
ארוחה
ארוחות
ארוחת
ארוך
ארוכה
ארוכות
ארוכי
ארוכים
ארוכת
ארון
ארונו
ארונות
ארוס
ארוסה
ארוסתו
ארור
ארז
ארזי
ארזים
ארח
ארחות
ארט
ארטילרי
ארטילריה
ארי
אריא
אריאל
אריאלה
אריאלי
אריאנה
אריה
אריות
אריזה
אריזונה
אריח
אריך
אריכות
אריס
אריסטו
אריק
אריקה
אריקסון
ארישא
אריתריאה
ארך
ארכאולוגי
ארכאולוגיה
ארכאולוגיות
ארכאולוגיים
ארכאולוגים
ארכה
ארכו
ארכיון
ארל
ארלוזורוב
ארלי
ארליך
ארלס
ארם
ארמון
ארמי
ארמיות
ארמייה
ארמיית
ארמית
ארמני
ארמניה
ארמנים
ארמנית
ארמסטרונג
ארן
ארנה
ארנולד
ארנון
ארנסט
ארס
ארסנל
ארעא
ארעי
ארץ
ארצ
ארצה
ארצו
ארצות
ארצי
ארצית
ארצך
ארצם
ארצנו
ארקנסו
ארתור
אש
אשא
אשד
אשדוד
אשדות
אשה
אשו
אשוב
אשור
אשורית
אשי
אשיב
אשים
אשיר
אשירה
אשכול
אשכולות
אשכח
אשכחיה
אשכחן
אשכנז
אשכנזי
אשכנזים
אשל
אשלגן
אשלי
אשליה
אשלם
אשם
אשמה
אשמו
אשמועינן
אשמע
אשמעינן
אשפה
אשפוז
אשקלון
אשר
אשראי
אשרה
אשרי
אשריך
אשרת
אשת
אשתו
אשתי
אשתך
אשתכח
את
אתא
אתאן
אתגר
אתגרים
אתה
אתו
אתוון
אתון
אתונה
אתחזי
אתי
אתיא
אתיופיה
אתיין
אתינן
אתיקה
אתך
אתכם
אתלט
אתלטיק
אתלטיקה
אתלטיקו
אתלטית
אתם
אתמול
אתמר
אתן
אתנה
אתנו
אתני
אתניות
אתניים
אתנית
אתנן
אתער
אתקרי
אתר
אתרא
אתרוג
אתרי
אתרים
אתתא
ב
בא
באב
באבא
באבו
באבות
באביב
באביו
באבל
באבן
באבנים
באבר
באברהם
באג
באגדה
באגודה
באגודת
באגם
באגן
באגף
באד
באדום
באדם
באדמה
באדן
באדר
באדרא
באדריכלות
באה
באהבה
באהל
באו
באואר
באוגוסט
באודסה
באוהל
באוויר
באוטובוס
באויר
באוכל
באוכלוסייה
באולימפיאדה
באולימפיאדת
באולם
באולפן
באולפני
באום
באומד
באומה
באומות
באומן
באומנות
באומר
באומרו
באומרת
באוניברסיטאות
באוניברסיטה
באוניברסיטת
באוניות
באונייה
באונס
באונסין
באוסטריה
באוסטרליה
באוסף
באופן
באופנים
באופרה
באופרת
באוצר
באוקטובר
באוקיינוס
באוקספורד
באוקראינה
באוקראינית
באור
באורח
באורייתא
באורך
באושוויץ
באות
באותה
באותו
באותיות
באותם
באותן
באז
באזהרה
באזור
באזורי
באזורים
באזני
באחד
באחדות
באחוזה
באחוזת
באחור
באחיו
באחר
באחרונה
באחרונים
באחריות
באחריותו
באחריותן
באחרים
באחרית
באחת
באטלנטה
באטלר
באטמוספירה
באטמן
באי
באיגוד
באידך
באיזה
באיזו
באיחוד
באיחור
באיטיות
באיטליה
באיטלקית
באיי
באיים
באייר
באיירן
באיכות
באילן
באילנות
באילת
באים
באימה
באימפריה
באין
באינדונזיה
באינו
באינון
באינטרנט
באיסוף
באיסור
באיסורא
באיסורי
באיסורין
באיסטנבול
באיראן
באירוויזיון
באירוע
באירועי
באירועים
באירופה
באירלנד
באיש
באישור
באך
באכזריות
באכילה
באכילת
באל
באלבום
באלבומה
באלבומו
באלג
באלה
באלהים
באלו
באלול
באלימות
באלין
באליפויות
באליפות
באלכסון
באלכסנדריה
באלמנה
באלף
באלפבית
באם
באמה
באמונה
באמירה
באמירת
באמנה
באמנויות
באמנות
באמסטרדם
באמצע
באמצעות
באמצעותו
באמצעי
באמצעים
באמר
באמרו
באמריקה
באמרם
באמת
באן
באנגליה
באנגלית
באנו
באנטארקטיקה
באנטוורפן
באנפי
באנציקלופדיה
באנרגיה
באנשי
באנשים
באס
באסון
באסיה
באסלאם
באספה
באף
באפגניסטן
באפט
באפי
באפר
באפריל
באפריקה
באפשרות
באצבע
באצבעו
באצטדיון
באצילות
באק
באקדח
באקדמיה
באקו
באקלים
באקס
באקראי
באר
בארבע
בארבעה
בארבעים
בארבעת
בארגון
בארגונים
בארגנטינה
בארה
בארו
בארוכה
בארון
בארות
בארט
בארי
באריכות
בארכיון
בארמון
בארמית
בארנו
בארנס
בארעא
בארץ
בארצו
בארצות
בארצם
בארתי
באש
באשדוד
באשה
באשכנז
באשם
באשמת
באשפה
באשקלון
באשר
באשת
באשתו
באת
באתונה
באתי
באתיופיה
באתלטיקה
באתם
באתר
באתרא
באתרי
באתרים
בב
בבא
בבאר
בבבא
בבבל
בבג
בבגד
בבגדאד
בבגדו
בבגדי
בבגדים
בבד
בבדיקה
בבדיקות
בבדיקת
בבה
בבהמה
בבוא
בבואו
בבואם
בבואנוס
בבודפשט
בבולגריה
בבולגרית
בבונדסליגה
בבוסטון
בבוקר
בבוקרשט
בבור
בבורסה
בבחי
בבחינה
בבחינות
בבחינת
בבחירה
בבחירות
בבחירת
בבטן
בבי
בביאה
בביאור
בביאת
בבידוד
בביולוגיה
בביטוי
בביטול
בביטחון
בבייג
בביירות
בבילבורד
בבימוי
בבימויה
בבימויו
בבינה
בביצה
בביצוע
בביצים
בביקור
בביקורת
בבירה
בבירור
בבירת
בבישול
בבית
בביתה
בביתו
בביתי
בביתך
בביתם
בבכור
בבכורה
בבכורות
בבכי
בבל
בבלארוס
בבלגיה
בבלגרד
בבלוג
בבלי
בבמה
בבן
בבנו
בבני
בבנייה
בבניין
בבניית
בבנים
בבנין
בבנק
בבסיס
בבעיה
בבעיות
בבעיטות
בבעל
בבעלה
בבעלות
בבעלותו
בבעלי
בבעלים
בבצלאל
בבקעה
בבקעת
בבקר
בבקשה
בבקשת
בבר
בבראשית
בברודוויי
בברוך
בברוקלין
בברזיל
בברזל
בברי
בבריא
בבריאה
בבריאות
בבריאת
בבריטניה
בברייתא
בבריכת
בבריסל
בברית
בברכה
בברכות
בברכת
בברלין
בברצלונה
בברקלי
בבשר
בבשרה
בבת
בבתי
בבתיהם
בבתים
בג
בגאורגיה
בגאורגית
בגב
בגבהים
בגבו
בגבול
בגבולות
בגבולין
בגבורה
בגביע
בגבעה
בגבעת
בגבעתיים
בגג
בגד
בגדאד
בגדה
בגדו
בגדוד
בגדול
בגדולה
בגדי
בגדיהם
בגדיו
בגדים
בגדלים
בגדר
בגו
בגובה
בגובהו
בגוגל
בגודל
בגודלה
בגודלו
בגוון
בגוי
בגויה
בגוים
בגולה
בגוף
בגופא
בגופה
בגופו
בגופים
בגופם
בגופן
בגורל
בגורן
בגוש
בגז
בגזירה
בגזל
בגזרה
בגזרת
בגט
בגטו
בגי
בגידה
בגידול
בגידין
בגיהנם
בגיוס
בגיטין
בגיטרה
בגיל
בגילאי
בגילאים
בגילוי
בגילומו
בגיליון
בגימטריא
בגימנסיה
בגין
בגינה
בגירושין
בגישה
בגל
בגלגול
בגלגל
בגלוי
בגלות
בגלותא
בגלי
בגליון
בגליל
בגליציה
בגלל
בגלריה
בגמ
בגמר
בגמרא
בגן
בגנות
בגני
בגניבה
בגנים
בגר
בגרה
בגרות
בגרמניה
בגרמנית
בגרנד
בגרסאות
בגרסה
בגרסת
בגרסתו
בגרף
בגשם
בגשר
בגת
בד
בדא
בדאבל
בדאורייתא
בדאיכא
בדבור
בדבלין
בדבר
בדברו
בדברי
בדבריהם
בדבריו
בדברים
בדבש
בדגים
בדגל
בדגם
בדגש
בדד
בדדמי
בדה
בדו
בדואים
בדואר
בדוגמה
בדוד
בדוח
בדוחק
בדוכתא
בדומה
בדופן
בדוק
בדוקא
בדור
בדורו
בדורות
בדטרויט
בדי
בדיבוב
בדיבור
בדידה
בדידות
בדידיה
בדיו
בדיון
בדיוני
בדיונים
בדיונית
בדיוק
בדיכוי
בדיל
בדים
בדימוס
בדין
בדינא
בדיני
בדינים
בדינר
בדיעבד
בדיקה
בדיקות
בדיקת
בדירה
בדירוג
בדלא
בדליכא
בדלק
בדלת
בדם
בדמויות
בדמות
בדמותה
בדמותו
בדמי
בדמיו
בדמיון
בדמים
בדמשק
בדנית
בדנמרק
בדעה
בדעות
בדעת
בדעתו
בדעתם
בדף
בדפוס
בדפוסים
בדצמבר
בדק
בדקדוק
בדקה
בדקו
בדר
בדראפט
בדרבי
בדרבנן
בדרג
בדרגה
בדרגות
בדרגת
בדרום
בדרומה
בדרוש
בדרישה
בדרישות
בדרך
בדרכה
בדרכו
בדרכי
בדרכיו
בדרכים
בדרכם
בדרמה
בדרמת
בדת
בה
בהא
בהאא
בהאג
בהאי
בהאמה
בהארכה
בהבאת
בהבנת
בהג
בהגבהה
בהגדרה
בהגדרת
בהגה
בהגהות
בהגהת
בהגוזל
בהגיע
בהגיעו
בהגנה
בהגשת
בהדה
בהדחה
בהדי
בהדיא
בהדיה
בהדייהו
בהדיפת
בהדרגה
בהדרכת
בהדרכתו
בההוא
בההיא
בהו
בהובלת
בהוד
בהודאה
בהודו
בהודעה
בהווה
בהוליווד
בהולנד
בהולנדית
בהון
בהונג
בהונגריה
בהונגרית
בהופעה
בהופעות
בהופעת
בהוצאה
בהוצאות
בהוצאת
בהוראה
בהוראות
בהוראת
בהחלט
בהחלטה
בהחלטת
בהטלת
בהיבטים
בהיות
בהיותה
בהיותו
בהיותם
בהיכל
בהינתן
בהיסטוריה
בהיעדר
בהיפך
בהיקף
בהיר
בהירה
בהירות
בהיריון
בהירים
בהיתר
בהך
בהכי
בהכנות
בהכנת
בהכרה
בהכרזה
בהכרח
בהכרת
בהכשר
בהל
בהלואה
בהליך
בהליכה
בהליכי
בהליכים
בהלכה
בהלכות
בהם
בהמ
בהמבורג
בהמה
בהמות
בהמלצת
בהמשך
בהמת
בהמתו
בהן
בהנאה
בהנדסה
בהנדסת
בהנהגה
בהנהגת
בהנהגתו
בהנהלת
בהנחה
בהנחיית
בהנחייתו
בהני
בהנך
בהסדר
בהסכם
בהסכמה
בהסכמת
בהספד
בהסתדרות
בהסתמך
בהעברת
בהעלותך
בהעלם
בהערה
בהפגנות
בהפועל
בהפך
בהפסד
בהפעלת
בהפצת
בהפקה
בהפקות
בהפקת
בהפקתו
בהפרש
בהצבעה
בהצגה
בהצגות
בהצגת
בהצהרה
בהצטיינות
בהצלחה
בהצעה
בהצעת
בהקב
בהקדם
בהקדמה
בהקדמת
בהקדמתו
בהקדש
בהקלטות
בהקמת
בהקשר
בהקשרים
בהר
בהרא
בהרבה
בהרחבה
בהרי
בהריון
בהרים
בהרכב
בהרצליה
בהרת
בהשאלה
בהשגות
בהשגחה
בהשגת
בהשוואה
בהשפעת
בהשקעה
בהשראת
בהשתתפות
בהתאם
בהתאמה
בהתבסס
בהתורה
בהתחלה
בהתחשב
בהתייחס
בהתייעצות
בהתלהבות
בהתמדה
בהתמודדות
בהתנגדות
בהתנדבות
בהתנהגות
בהתפתחות
בהתקיים
בהתקפה
בו
בוא
בואו
בואי
בואינג
בואם
בואנוס
בוב
בובה
בובות
בובי
בובר
בוגד
בוגר
בוגרי
בוגרים
בוגרת
בודאי
בודד
בודדות
בודדים
בודדת
בודה
בודפשט
בודק
בודקים
בודקין
בודקת
בוהמיה
בוואריה
בוודאות
בוודאי
בווידאו
בווייטנאם
בווילנה
בווינה
בוויקיטקסט
בוויקיפדיה
בוויקישיתוף
בווירג
בוונציה
בוועד
בוועדה
בוועדות
בוועדת
בוועידה
בוועידת
בוורשה
בוושינגטון
בוז
בוזגלו
בוחבוט
בוחן
בוחר
בוחרים
בוחרת
בוטה
בוטח
בוטינסקי
בוטל
בוטלה
בוטלו
בוי
בויד
בויז
בויל
בוים
בויקיטקסט
בוכה
בוכים
בול
בולגריה
בולגרית
בולד
בולדווין
בולוניה
בולט
בולטות
בולטים
בולטימור
בולטת
בולי
בוליביה
בולים
בולס
בולע
בום
בון
בונד
בונה
בונוס
בוני
בונים
בונין
בונפרטה
בוס
בוסטון
בוסניה
בוסקילה
בוסר
בועז
בועל
בוער
בוץ
בוצ
בוצינא
בוצע
בוצעה
בוצעו
בוצר
בוקה
בוקעת
בוקר
בוקרשט
בור
בורא
בוראו
בורבון
בורג
בורדו
בורו
בורוכוב
בורוסיה
בורות
בורח
בורחים
בורחת
בוריס
בורמה
בורנשטיין
בורסה
בורר
בורשטיין
בוש
בושה
בושת
בות
בז
בזאת
בזב
בזבחים
בזדון
בזה
בזהב
בזהות
בזהירות
בזהר
בזו
בזוג
בזוגות
בזוגיות
בזוה
בזוהר
בזווית
בזוזי
בזוחלין
בזול
בזולת
בזיהוי
בזיון
בזיכרון
בזירה
בזירת
בזכויות
בזכות
בזכותו
בזכר
בזכרון
בזכרים
בזל
בזלת
בזמן
בזמנא
בזמנה
בזמנו
בזמנים
בזמנינו
בזנות
בזק
בזר
בזרוע
בזריזות
בזריקה
בזריקת
בזרם
בח
בחבורה
בחבורו
בחבירו
בחבית
בחבל
בחבר
בחברה
בחברו
בחברון
בחברות
בחברת
בחג
בחגיגה
בחגיגות
בחד
בחדא
בחדר
בחדרה
בחדרי
בחדש
בחדשות
בחו
בחוב
בחובו
בחוברות
בחוברת
בחוג
בחוגים
בחודש
בחודשי
בחודשים
בחווה
בחוות
בחוזה
בחוזק
בחוט
בחול
בחולה
בחולו
בחולון
בחולי
בחולים
בחולין
בחום
בחומה
בחומץ
בחומר
בחומרי
בחומרים
בחומש
בחוסר
בחוף
בחופה
בחופי
בחופש
בחופשיות
בחוץ
בחוצה
בחוק
בחוקה
בחוקי
בחור
בחורה
בחורים
בחורף
בחוש
בחושך
בחושן
בחותם
בחותמיו
בחז
בחזה
בחזית
בחזקה
בחזקת
בחזקתו
בחזרה
בחזרת
בחטא
בחטאת
בחטיבה
בחטיבת
בחי
בחיבור
בחיבורו
בחידושי
בחידושיו
בחיה
בחיוב
בחיות
בחיי
בחייבי
בחייה
בחייהם
בחייו
בחיים
בחיל
בחינה
בחינוך
בחינות
בחינם
בחינת
בחיפה
בחיפוש
בחיק
בחירה
בחירות
בחירת
בחירתו
בחישוב
בחכמה
בחכמת
בחכמתו
בחלב
בחלה
בחלום
בחלון
בחלוף
בחלוקה
בחלוקת
בחליפין
בחליצה
בחלל
בחלק
בחלקה
בחלקו
בחלקים
בחלקם
בחלקת
בחמה
בחמור
בחמין
בחמישה
בחמישי
בחמץ
בחמש
בחמשה
בחמשים
בחן
בחנויות
בחנוכה
בחנות
בחנם
בחנק
בחסד
בחסות
בחסידות
בחסר
בחסרון
בחפירות
בחפץ
בחצוצרות
בחצות
בחצי
בחצר
בחצרו
בחצרות
בחקיקה
בחקירה
בחקירת
בחקלאות
בחקר
בחר
בחרב
בחרה
בחרו
בחרטה
בחריין
בחריפות
בחרם
בחשאי
בחשבון
בחשד
בחשוון
בחשיבות
בחשיבותה
בחשיבותו
בחשך
בחתיכה
בחתימת
בט
בטא
בטבול
בטבח
בטבילה
בטבלה
בטבלת
בטבע
בטבעו
בטבעת
בטבריה
בטבת
בטהובן
בטהראן
בטהרה
בטהרות
בטוב
בטובה
בטובת
בטווח
בטוויטר
בטוח
בטוחה
בטוחים
בטול
בטומאה
בטומאת
בטון
בטוען
בטופס
בטוקיו
בטור
בטורונטו
בטורניר
בטורקיה
בטורקית
בטח
בטחון
בטי
בטיב
בטיחות
בטיט
בטייסת
בטיל
בטילה
בטיסה
בטיסטה
בטיפול
בטירה
בטירת
בטכנולוגיה
בטכנולוגיית
בטכניון
בטכניקה
בטכניקות
בטל
בטלה
בטלו
בטלוויזיה
בטלות
בטלטול
בטלי
בטלים
בטלין
בטלית
בטלנובלה
בטלפון
בטמא
בטמפרטורה
בטמפרטורות
בטן
בטניס
בטעות
בטעם
בטעמא
בטענה
בטענות
בטענת
בטפח
בטקס
בטקסט
בטקסים
בטקסס
בטרור
בטרייד
בטרם
בי
ביאה
ביאור
ביאורים
ביאוש
ביאליסטוק
ביאליק
ביאר
ביארנו
ביאת
ביאתו
ביבי
ביבמה
ביבמות
ביבנה
ביבר
ביבש
ביבשה
ביבשת
ביג
ביגוד
ביד
בידא
בידה
בידו
בידוד
בידוע
בידור
בידי
בידיה
בידיהם
בידיו
בידיים
בידים
בידינו
בידיעה
בידיעת
בידך
בידכם
בידם
בידן
בידע
ביה
ביהדות
ביהודה
ביהודי
ביהודים
ביהמ
ביו
ביוב
ביובל
ביוגוסלביה
ביוגרפי
ביוגרפיה
ביוגרפיות
ביוה
ביוון
ביוונית
ביוזמת
ביוזמתו
ביוטיוב
ביולוגי
ביולוגיה
ביולוגיים
ביולוגית
ביולי
ביום
ביומא
ביומו
ביומי
ביון
ביוני
ביונסה
ביוצא
ביוקר
ביורה
ביורו
ביורן
ביושר
ביותר
ביזה
ביחד
ביחוד
ביחזקאל
ביחיד
ביחידה
ביחידות
ביחידת
ביחס
ביחסי
ביחסים
ביט
ביטאון
ביטוח
ביטוי
ביטויים
ביטול
ביטון
ביטחון
ביטחוני
ביטחוניים
ביטחונית
ביטל
ביטלה
ביטלו
ביי
בייבי
בייג
ביידיש
ביידן
בייחוד
בייטס
בייל
ביילי
ביים
ביימה
ביין
בייסבול
בייעוץ
בייצור
בייקון
בייקר
ביירות
ביישוב
ביישובים
ביישום
ביכולת
ביכולתו
ביכורים
ביל
בילבאו
בילבורד
בילד
בילדותה
בילדותו
בילדים
בילה
בילו
בילוי
בילי
בילקוט
בים
בימוי
בימות
בימי
בימיהם
בימיו
בימים
בימין
בימינו
ביממא
ביממה
בימת
בין
בינה
בינו
בינואר
בינוי
בינוני
בינוניים
בינונית
ביני
ביניהם
ביניהן
בינייהו
ביניים
ביניכם
בינינו
בינלאומי
בינלאומיות
בינלאומיים
בינלאומית
בינם
בינתיים
בינתים
ביסוד
ביסוס
ביסמרק
ביסס
ביעור
ביעילות
ביעקב
ביער
ביערות
ביפו
ביפן
ביפנית
ביץ
ביצ
ביצה
ביצוע
ביצועי
ביצועים
ביצור
ביצורים
ביצות
ביצחק
ביצי
ביציאה
ביציאת
ביציאתו
ביצים
ביצירה
ביצירות
ביצירותיו
ביצירת
ביצירתו
ביצע
ביצעה
ביצעו
ביצת
ביקום
ביקור
ביקורו
ביקורות
ביקורים
ביקורת
ביקורתי
ביקורתית
ביקוש
ביקר
ביקרה
ביקרו
ביקש
ביקשה
ביקשו
ביר
ביראה
ביראת
בירד
בירדן
בירה
בירור
בירוש
בירושה
בירושלים
בירושלם
בירושלמי
בירי
בירידה
ביריחו
בירך
בירן
בירר
בירת
בירתה
ביש
בישא
בישוב
בישול
בישולי
בישוף
בישיבה
בישיבות
בישיבת
בישין
בישל
בישראל
בית
ביתא
ביתה
ביתו
ביתי
ביתיים
ביתית
ביתך
ביתם
ביתן
ביתנו
ביתר
בך
בכ
בכאן
בכבד
בכבוד
בכבודו
בכביש
בכבלים
בכדור
בכדורגל
בכדוריד
בכדורסל
בכדי
בכה
בכהאי
בכהונה
בכהן
בכהנים
בכו
בכוונה
בכוונת
בכוונתו
בכוח
בכוחו
בכוחות
בכוכב
בכוכבים
בכולה
בכולהו
בכולו
בכוליה
בכולל
בכולם
בכולן
בכונה
בכוס
בכור
בכורה
בכורות
בכורי
בכורים
בכותל
בכותרת
בכזית
בכח
בכחו
בכי
בכיבוש
בכיוון
בכיוצא
בכיכובה
בכיכובו
בכיכובם
בכיכר
בכימיה
בכינוי
בכינויו
בכינוס
בכינור
בכיס
בכיר
בכירה
בכירי
בכירים
בכיתה
בכיתות
בכך
בכל
בכלא
בכלאים
בכלי
בכליו
בכלים
בכלכלה
בכלכלת
בכלל
בכללה
בכללו
בכללות
בכללי
בכללים
בכללם
בכם
בכמה
בכמויות
בכמות
בכניסה
בכניסתו
בכנס
בכנסייה
בכנסיית
בכנסת
בכנף
בכסא
בכסלו
בכסף
בכעס
בכף
בכפוף
בכפייה
בכפל
בכפר
בכפרים
בכר
בכרטיס
בכרי
בכריתות
בכרך
בכרם
בכרמל
בכרמלית
בכרת
בכשרות
בכת
בכתב
בכתבה
בכתבי
בכתביו
בכתבים
בכתוב
בכתובה
בכתובות
בכתובים
בכתובת
בכתובתה
בכתיב
בכתיבה
בכתיבת
בכתיבתו
בכתף
בכתר
בל
בלא
בלאו
בלאס
בלאק
בלארוס
בלב
בלבבו
בלבבך
בלבד
בלבו
בלבול
בלבוש
בלבי
בלבם
בלבן
בלבנון
בלגי
בלגיה
בלגרד
בלדה
בלה
בלהה
בלהקה
בלהקות
בלהקת
בלו
בלוב
בלוג
בלוד
בלוז
בלוח
בלוחות
בלוטות
בלוטת
בלוי
בלוך
בלול
בלולב
בלולה
בלום
בלומברג
בלומינגטון
בלומנטל
בלון
בלונדון
בלוס
בלוע
בלועזית
בלוק
בלוקח
בלוקים
בלח
בלחוד
בלחודוי
בלחי
בלחימה
בלחם
בלחץ
בלחש
בלט
בלטו
בלטינית
בלי
בליגה
בליגות
בליגת
בלידה
בליווי
בליטא
בלייפציג
בלייק
בלייר
בליל
בלילה
בלילות
בלילי
בליליא
בלימה
בלימוד
בלימודי
בלימודיו
בלימודים
בלינה
בליסבון
בליעל
בלישנא
בלמעלה
בלע
בלעדי
בלעדית
בלעז
בלעם
בלפור
בלק
בלקסיקון
בלש
בלשון
בלשונו
בלשונם
בלשכה
בלשכת
בלשנות
בלתי
בם
במ
במאבק
במאגר
במאה
במאות
במאזן
במאי
במאית
במאכל
במאמץ
במאמר
במאמרו
במאסר
במאתים
במבוא
במבוי
במבחן
במבט
במבנה
במבנים
במבצע
במבצר
במג
במגדל
במגו
במגוון
במגזין
במגזר
במגילה
במגילת
במגמה
במגמת
במגן
במגע
במגרש
במד
במדבר
במדד
במדה
במדויק
במדור
במדות
במדי
במדיה
במדים
במדינה
במדינות
במדיניות
במדינת
במדליה
במדליות
במדליית
במדע
במדעי
במדעים
במדרגה
במדרגות
במדרגת
במדריד
במדריך
במדרש
במדת
במה
במהדורא
במהדורה
במהדורות
במהדורת
במהירות
במהלך
במהלכה
במהלכו
במהלכן
במהפכה
במהרה
במהרי
במהרש
במו
במובן
במודיעין
במודל
במוזיאון
במוזיקה
במוח
במוחו
במוט
במוכר
במול
במונדיאל
במונח
במונחים
במונטריאול
במוסד
במוסדות
במוסף
במוסקבה
במועד
במועדו
במועדון
במועדונים
במועדים
במועמדות
במועצה
במועצות
במועצת
במופע
במוצאי
במוקד
במוקדמות
במורד
במושב
במושבה
במושבות
במושג
במות
במותו
במותחן
במותר
במזבח
במזג
במזוזה
במזומן
במזון
במזונות
במזונותיה
במזיד
במזל
במזמור
במזרח
במחאה
במחובר
במחוז
במחוזות
במחזה
במחזור
במחזות
במחזמר
במחט
במחיצה
במחיצות
במחיר
במחירים
במחלה
במחלוקת
במחלות
במחלקה
במחלקות
במחלקת
במחלת
במחנה
במחנות
במחצית
במחקר
במחקרים
במחשב
במחשבה
במחשבים
במחשבת
במחשבתו
במחתרת
במטבח
במטבע
במטה
במטוס
במטוסי
במטוסים
במטלטלין
במטרה
במי
במיאמי
במיגו
במידה
במידי
במידע
במידת
במיוחד
במיזם
במיטה
במיל
במילאנו
במילה
במילואים
במילוי
במילון
במילי
במילים
במילתא
במים
במימון
במימי
במין
במינהל
במינו
במינוי
במיני
במינכן
במינן
במינסק
במיעוט
במיקום
במירוץ
במישור
במישרין
במיתה
במיתולוגיה
במיתת
במכבי
במכה
במכוון
במכון
במכונית
במכות
במכילתא
במכירה
במכירות
במכירת
במכללה
במכללת
במכר
במכרז
במכשיר
במכתב
במלאכה
במלאכת
במלאכתו
במלאת
במלבורן
במלה
במלוא
במלואה
במלואו
במלוה
במלון
במלח
במלחמה
במלחמות
במלחמת
במלך
במלכות
במלכים
במלת
בממון
בממונו
בממוצע
בממלכה
בממלכת
בממשל
בממשלה
בממשלת
בממשלתו
במנגנון
במנה
במנהג
במנהטן
במנהל
במנוחה
במנוע
במנזר
במנחה
במנחות
במנחת
במניין
במנין
במניעת
במנצ
במס
במסגרות
במסגרת
במסגרתה
במסגרתו
במסד
במסדר
במסורה
במסורת
במסחר
במסיבה
במסיבת
במסירה
במסירת
במסכת
במסלול
במסמך
במסמכים
במסע
במסעדה
במסעו
במסעות
במספר
במספרים
במסקנא
במעבדה
במעבדות
במעבר
במעגל
במעון
במעות
במעט
במעי
במעילה
במעין
במעלה
במעלות
במעמד
במעצר
במערב
במערבא
במערה
במערות
במערך
במערכה
במערכות
במערכת
במערת
במעשה
במעשי
במעשיהם
במעשיו
במעשים
במעשר
במעשרות
במפגש
במפה
במפורש
במפלגה
במפלגת
במפעל
במפעלי
במפעלים
במפקד
במפקדת
במפרץ
במפרש
במפתח
במפתיע
במצב
במצבו
במצבי
במצבים
במצה
במצודה
במצוה
במצוות
במצוקה
במצור
במצות
במצותיו
במציאה
במציאות
במציאת
במצעד
במצעדי
במצעדים
במצפה
במצר
במצרים
במקביל
במקדש
במקו
במקוה
במקום
במקומה
במקומו
במקומות
במקומם
במקומן
במקור
במקורו
במקורות
במקח
במקל
במקסיקו
במקצה
במקצוע
במקצועו
במקצועות
במקצת
במקרא
במקרה
במקרים
במקרקעי
במקרקעין
במראה
במרבית
במרד
במרדכי
במרום
במרוץ
במרוצי
במרוצת
במרוקו
במרחב
במרחץ
במרחק
במרכז
במרכזה
במרכזו
במרמה
במרס
במרץ
במרשם
במרתף
במשא
במשאל
במשבר
במשה
במשהו
במשולש
במשותף
במשחה
במשחק
במשחקי
במשחקים
במשטר
במשטרה
במשטרת
במשיכה
במשימה
במשימות
במשך
במשכון
במשכן
במשל
במשלחת
במשמע
במשמעות
במשמר
במשנה
במשנת
במשנתינו
במשנתנו
במשפחה
במשפחת
במשפט
במשפטי
במשפטים
במשק
במשקה
במשקין
במשקל
במשרד
במשרדו
במשרדי
במשרה
במת
במתא
במתח
במתחם
במתכוין
במתכונת
במתמטיקה
במתן
במתנה
במתנות
במתני
במתניתא
במתניתין
במתנת
במתקן
במתקפה
במתקפת
בן
בנ
בנאום
בנאומו
בנאי
בנאמנות
בנבואה
בנבחרת
בנביא
בנביאים
בנג
בנגב
בנגינה
בנגיעה
בנגיף
בנגלדש
בנגע
בנגעים
בנד
בנדה
בנדון
בנדיקט
בנדיקטוס
בנדר
בנדרים
בנה
בנהר
בנהרות
בנו
בנובמבר
בנוגע
בנוי
בנויה
בנויות
בנויים
בנוכחות
בנוסח
בנוסף
בנוף
בנוקבא
בנורווגיה
בנורווגית
בנושא
בנושאי
בנושאים
בנות
בנותיה
בנותיו
בנותן
בנזין
בנזיר
בנזירות
בנזק
בנזקי
בנזקין
בנחל
בנחלה
בנחלת
בנחת
בנט
בנטילת
בני
בניגוד
בניגריה
בנידון
בניה
בניהו
בניהול
בניהולו
בניהם
בניו
בנייה
בניין
בנייני
בניינים
בנייר
בניית
בנייתה
בנייתו
בניך
בניכוי
בניכם
בנים
בנימוק
בנימין
בנימן
בנין
בנינו
בניסוי
בניסויים
בניסיון
בניסיונות
בניסן
בניצוח
בניצוחו
בניצחון
בניקוד
בנישואים
בניתוח
בנך
בנכס
בנכסי
בנכסים
בנם
בנמל
בנמצא
בנס
בנסיבות
בנסיון
בנסיעה
בנעוריו
בנערה
בנפח
בנפיקה
בנפרד
בנפש
בנפשו
בנפת
בנץ
בנצח
בנצרות
בנצרת
בנק
בנקאי
בנקב
בנקודה
בנקודות
בנקודת
בנקיטת
בנקים
בנקל
בנקס
בנר
בנשיא
בנשים
בנשימה
בנשק
בנתה
בנתיב
בנתיים
בנתים
בנתינת
בנתניה
בס
בסאה
בסבב
בסביבה
בסביבות
בסביבת
בסביבתו
בסברא
בסבת
בסגל
בסגנון
בסדר
בסדרה
בסדרות
בסדרת
בסה
בסוג
בסוגי
בסוגיא
בסוגיה
בסוגיות
בסוגיית
בסוגריים
בסוד
בסודאן
בסוטה
בסוכה
בסוכות
בסוכנות
בסולם
בסוף
בסופה
בסופו
בסופיה
בסופר
בסוריא
בסוריה
בסחורה
בסחר
בסט
בסטודיו
בסטוקהולם
בסטרא
בסי
בסיבוב
בסיד
בסידור
בסידני
בסיוון
בסיום
בסיון
בסיוע
בסיטקום
בסייעתא
בסייף
בסיכום
בסיכון
בסימטא
בסימן
בסימני
בסימנים
בסין
בסינגפור
בסיני
בסינית
בסינמטק
בסיס
בסיסי
בסיסיות
בסיסיים
בסיסים
בסיסית
בסיפא
בסיפור
בסיציליה
בסירה
בסך
בסכום
בסכין
בסכנה
בסכנת
בסכסוך
בסל
בסלובקיה
בסלון
בסלע
בסלעים
בסמ
בסמוך
בסמיכות
בסמים
בסמינר
בסמכות
בסמל
בסן
בסנאט
בסנהדרין
בסנט
בסנטה
בסניף
בסנקט
בסעודה
בסעודת
בסעיף
בסעיפים
בסערה
בספ
בספורט
בספטמבר
בספינה
בספינות
בספירת
בספק
בספר
בספרא
בספרד
בספרדית
בספרה
בספרו
בספרות
בספרי
בספריו
בספרייה
בספריית
בספרים
בסצנה
בסצנת
בסק
בסקוטלנד
בסקי
בסקילה
בסקר
בסרביה
בסרבית
בסרט
בסרטו
בסרטון
בסרטי
בסרטים
בסרטן
בסרייה
בסתיו
בסתירה
בסתם
בסתמא
בסתר
בע
בעא
בעבד
בעבדים
בעבודה
בעבודות
בעבודת
בעבודתה
בעבודתו
בעבודתם
בעבור
בעבורו
בעבורם
בעבירה
בעבירות
בעבר
בעברה
בעברו
בעברית
בעגלה
בעד
בעדה
בעדו
בעדות
בעדותו
בעדי
בעדים
בעדם
בעה
בעו
בעובד
בעובדא
בעובדה
בעובי
בעוד
בעודה
בעודו
בעודם
בעודן
בעוה
בעוון
בעול
בעולה
בעולם
בעולמו
בעולמות
בעולת
בעומד
בעומק
בעומר
בעון
בעונה
בעונות
בעוני
בעונש
בעונת
בעונתה
בעונתו
בעוף
בעופות
בעוצמה
בעור
בעורך
בעורף
בעושה
בעושר
בעז
בעזה
בעזרה
בעזרת
בעזרתו
בעזרתם
בעט
בעי
בעיא
בעיבוד
בעידי
בעידן
בעידנא
בעיה
בעיון
בעיות
בעיטור
בעיטות
בעיין
בעיירה
בעיירות
בעיית
בעייתי
בעילה
בעילת
בעילתו
בעימות
בעין
בעינא
בעינו
בעיני
בעיניה
בעיניהם
בעיניו
בעיניים
בעיניך
בעיניכם
בעינינו
בעינן
בעיסה
בעיסוק
בעיצוב
בעיצומה
בעיקר
בעיקרה
בעיקרו
בעיר
בעיראק
בעירה
בעירו
בעירוב
בעירובין
בעיריות
בעיריית
בעית
בעיתון
בעיתונות
בעיתונים
בעכו
בעל
בעלה
בעלות
בעלי
בעליה
בעליהם
בעליהן
בעליו
בעלייה
בעליית
בעליל
בעלילה
בעלים
בעלמא
בעלת
בעם
בעמ
בעמדה
בעמדות
בעמדת
בעמוד
בעמידה
בעמק
בעניין
בעניינו
בענייני
בעניינים
בענין
בעניני
בענינים
בענן
בענף
בענפי
בענפים
בעסק
בעסקה
בעסקי
בעסקים
בעפר
בעץ
בעצה
בעצי
בעצים
בעצם
בעצמאות
בעצמה
בעצמו
בעצמות
בעצמי
בעצמך
בעצמם
בעצמן
בעצרת
בעצת
בעקבות
בעקבותיה
בעקבותיו
בעקיפין
בער
בערב
בערבה
בערבות
בערבי
בערבית
בערוך
בערוץ
בערי
בעריות
בעריכת
בערים
בערך
בערכאות
בערכו
בערכים
בערכין
בערלה
בערעור
בעשה
בעשור
בעשורים
בעשיית
בעשר
בעשרה
בעשרות
בעשרים
בעשרת
בעת
בעתו
בעתיד
בפ
בפאה
בפארק
בפאתי
בפברואר
בפגישה
בפדיון
בפה
בפודקאסט
בפוליטיקה
בפולין
בפולנית
בפומבי
בפוסקים
בפועל
בפורום
בפורט
בפורטוגזית
בפורטוגל
בפורים
בפורמט
בפחות
בפטיש
בפי
בפיגוע
בפיהם
בפיו
בפיזיקה
בפייסבוק
בפיך
בפילדלפיה
בפילוסופיה
בפיליפינים
בפין
בפינה
בפינית
בפינלנד
בפינת
בפיצוץ
בפיקוד
בפיקודו
בפיקוח
בפירוט
בפירוש
בפירושו
בפירושיו
בפירות
בפירנצה
בפירקין
בפירש
בפיתוח
בפכ
בפלוגתא
בפלורידה
בפלייאוף
בפלישה
בפמ
בפני
בפניה
בפניהם
בפניו
בפנים
בפנינו
בפנקס
בפס
בפסגת
בפסול
בפסוק
בפסוקים
בפסח
בפסחים
בפסטיבל
בפסטיבלים
בפסיכולוגיה
בפסנתר
בפסק
בפסקאות
בפסקה
בפסקול
בפסקי
בפסקיו
בפסקת
בפעולה
בפעולות
בפעולת
בפעילויות
בפעילות
בפעילותו
בפעל
בפעם
בפער
בפקדון
בפקודה
בפקודת
בפקולטה
בפקיסטן
בפר
בפראג
בפרדס
בפרה
בפרהסיא
בפרו
בפרובינציית
בפרוטה
בפרוטוקול
בפרויקט
בפרויקטים
בפרוץ
בפרט
בפרטות
בפרטי
בפרטיות
בפרטים
בפרי
בפריז
בפרישה
בפרלמנט
בפרמייר
בפרנקפורט
בפרס
בפרסום
בפרסומות
בפרסומת
בפרסי
בפרסים
בפרסית
בפרק
בפרקי
בפרקים
בפרקין
בפרש
בפרשה
בפרשנות
בפרשת
בפשטות
בפשיטות
בפשיעה
בפשע
בפת
בפתאומיות
בפתח
בפתיחה
בפתיחת
בפתרון
בצ
בצאת
בצאתו
בצבא
בצבאות
בצבור
בצבע
בצבעי
בצבעים
בצד
בצדה
בצדו
בצדק
בצדקה
בצה
בצהריים
בצו
בצוות
בצוותא
בצומת
בצונן
בצור
בצורה
בצורות
בצורך
בצורת
בצורתה
בצורתו
בצי
בציבור
בצידה
בצידו
בצידי
בציוד
בציון
בציונות
בציור
בציורי
בציורים
בצילום
בצינעא
בציצית
בציר
בצירוף
בציריך
בצל
בצלאל
בצלי
בצלים
בצלם
בצמוד
בצמחים
בצמצום
בצמר
בצמרת
בצנעא
בצנעה
בצע
בצעד
בצעדים
בצעירותו
בצער
בצפון
בצפיפות
בצפת
בצק
בצר
בצרה
בצרור
בצרכי
בצרפת
בצרפתית
בק
בקב
בקבוצה
בקבוצות
בקבוצת
בקבוק
בקבוקי
בקבינט
בקביעות
בקביעת
בקבלה
בקבלנות
בקבלת
בקבר
בקדושה
בקדושין
בקדושת
בקדירה
בקדם
בקדמיתא
בקדמת
בקדרה
בקדש
בקדשי
בקדשים
בקהילה
בקהילות
בקהילת
בקהיר
בקהל
בקו
בקובה
בקוביא
בקובץ
בקוד
בקודש
בקווי
בקווים
בקוטר
בקול
בקולג
בקולו
בקולומביה
בקולי
בקולנוע
בקום
בקומדיה
בקומדיית
בקומה
בקומת
בקונגרס
בקונט
בקונטרס
בקונסרבטוריון
בקונצרט
בקופה
בקופות
בקופנהגן
בקופת
בקוראן
בקורה
בקוריאה
בקוריאנית
בקורס
בקורת
בקושי
בקושיא
בקטגוריה
בקטגוריות
בקטגוריית
בקטלוג
בקטן
בקטנה
בקטע
בקי
בקיאים
בקיאין
בקיבוץ
בקידום
בקידוש
בקידושין
בקיום
בקיומו
בקייב
בקיימברידג
בקיץ
בקיצור
בקיר
בקירוב
בקירות
בקל
בקלות
בקליפ
בקליפה
בקליפורניה
בקלפי
בקמח
בקמפוס
בקמפיין
בקן
בקנדה
בקנה
בקניה
בקניון
בקנין
בקנס
בקע
בקעה
בקערה
בקעת
בקפידה
בקפיצה
בקפריסין
בקצב
בקצה
בקצהו
בקצרה
בקצת
בקר
בקרא
בקרב
בקרבה
בקרבו
בקרבות
בקרבי
בקרבך
בקרבם
בקרבן
בקרבנו
בקרבנות
בקרבת
בקרה
בקרואטיה
בקרואטית
בקרוב
בקרון
בקריאה
בקריאת
בקריירה
בקריירת
בקריית
בקרית
בקרן
בקרקוב
בקרקע
בקרקעות
בקרת
בקש
בקשה
בקשו
בקשות
בקשיים
בקשר
בקשרי
בקשרים
בקשת
בקשתו
בקתדרלת
בר
ברא
בראג
בראד
בראדלי
בראו
בראוי
בראון
בראונינג
בראונשווייג
בראותו
בראותם
בראי
בראיה
בראיון
בראיות
בראייה
בראיית
בראלי
בראש
בראשה
בראשו
בראשון
בראשונה
בראשונים
בראשות
בראשותו
בראשי
בראשית
בראשיתה
בראשם
בראתי
ברב
ברבות
ברבי
ברבים
ברביעי
ברביעית
ברבית
ברבנות
ברבע
ברברה
ברברוסה
ברג
ברגימנט
ברגל
ברגלו
ברגליו
ברגלים
ברגמן
ברגן
ברגע
ברגר
ברד
ברדיו
ברה
ברהמס
ברוב
ברובא
ברובה
ברובו
ברובם
ברובן
ברובע
ברודוויי
ברודי
ברווז
ברוז
ברוח
ברוחב
ברוחו
ברוטב
ברוך
ברום
ברומא
ברומן
ברומניה
ברומנית
ברון
ברונו
ברונזה
ברוס
ברוסיה
ברוסית
ברוק
ברוקה
ברוקלין
ברוקס
ברור
ברורה
ברורות
ברורים
ברוש
ברז
ברזא
ברזיל
ברזילאי
ברזילי
ברזל
ברח
ברחבה
ברחבי
ברחה
ברחו
ברחוב
ברחובות
ברחוק
ברחיצה
ברחל
ברחמיו
ברחמים
ברט
ברטה
ברטון
ברטנורא
ברי
בריא
בריאה
בריאות
בריאותו
בריאיון
בריאים
בריאן
בריאת
בריבוי
בריבוע
בריבית
בריגדיר
ברידג
בריה
בריו
בריוח
בריות
בריותיו
בריח
בריחה
בריטי
בריטיות
בריטיים
בריטים
בריטית
בריטני
בריטניה
בריטניקה
בריידי
בריינז
ברייתא
ברייתו
בריך
בריכה
בריכוז
בריכות
בריכת
בריל
בריסטול
בריסל
בריצה
בריצת
בריק
ברירה
ברירת
בריש
ברישא
ברישום
ברישיון
ברית
בריתה
בריתו
בריתות
בריתי
בריתם
ברך
ברכאן
ברכב
ברכבת
ברכה
ברכו
ברכוש
ברכות
ברכי
ברכיה
ברכיו
ברכישת
ברכס
ברכת
ברכתו
ברל
ברלין
ברם
ברמב
ברמה
ברמות
ברמז
ברמינגהאם
ברמן
ברמת
ברן
ברנאר
ברנד
ברנדון
ברנדנבורג
ברנהרד
ברנט
ברני
ברנס
ברנע
ברנר
ברנרד
ברנשטיין
ברסט
ברסלב
ברע
ברעב
ברעיון
ברעם
ברעננה
ברפ
ברפואה
ברפובליקה
ברצון
ברצונו
ברצועה
ברצועת
ברצח
ברצינות
ברציפות
ברצלונה
ברצף
ברק
ברקאי
ברקוביץ
ברקיע
ברקלי
ברקן
ברקע
ברקת
ברש
ברשויות
ברשומות
ברשות
ברשותה
ברשותו
ברשותיה
ברשימה
ברשימות
ברשימת
ברשת
ברשתות
בש
בשאול
בשאין
בשאינה
בשאינו
בשאלה
בשאלות
בשאלת
בשאר
בשב
בשבא
בשבוע
בשבועה
בשבועות
בשבועת
בשבועתו
בשבח
בשבט
בשבי
בשביל
בשבילה
בשבילו
בשבילי
בשבילם
בשביעי
בשביעית
בשבע
בשבעה
בשבת
בשבתא
בשבתו
בשבתות
בשגגה
בשגרירות
בשדה
בשדות
בשדרות
בשדרת
בשה
בשו
בשואה
בשובו
בשוגג
בשוה
בשוודיה
בשוודית
בשווה
בשווי
בשוויון
בשווייץ
בשווקים
בשולחן
בשולי
בשום
בשומא
בשומר
בשומרון
בשונה
בשופר
בשוק
בשוקא
בשור
בשורה
בשורות
בשורש
בשורת
בשושלת
בשושן
בשותפות
בשחור
בשחיטה
בשחיטת
בשחייה
בשחיתות
בשחמט
בשחרית
בשטח
בשטחה
בשטחי
בשטחים
בשטר
בשטרא
בשטרות
בשטרי
בשיא
בשיאה
בשיאו
בשידור
בשידורי
בשיווק
בשיח
בשיחה
בשיחות
בשיטה
בשיטות
בשיטת
בשילהי
בשילוב
בשימוש
בשינה
בשינוי
בשינויים
בשיעור
בשיעורי
בשיעורים
בשיקגו
בשיקום
בשיר
בשירה
בשירו
בשירות
בשירותי
בשירותים
בשירי
בשירים
בשירת
בשיש
בשישה
בשיתוף
בשכבה
בשכבות
בשכבת
בשכונה
בשכונות
בשכונת
בשכירות
בשכל
בשכלו
בשכם
בשכר
בשכרו
בשל
בשלא
בשלב
בשלבי
בשלבים
בשלג
בשלה
בשלהי
בשלו
בשלום
בשלוש
בשלושה
בשלושת
בשלח
בשלחן
בשלטון
בשליחות
בשליחותו
בשליטה
בשליטת
בשלילה
בשלימות
בשליש
בשלישי
בשלישית
בשלל
בשלמא
בשלמות
בשלמותו
בשלמים
בשלש
בשלשה
בשלשים
בשם
בשמא
בשמאל
בשמאלו
בשמה
בשמו
בשמואל
בשמונה
בשמות
בשמחה
בשמחת
בשמי
בשמיים
בשמים
בשמיני
בשמינית
בשמירה
בשמירת
בשמם
בשמן
בשמעתא
בשמעתין
בשמש
בשן
בשנה
בשנות
בשנותיה
בשנותיו
בשני
בשניה
בשניהם
בשנייה
בשניים
בשנים
בשנית
בשנת
בשנתו
בשנתיים
בשעה
בשעות
בשעיר
בשער
בשערי
בשעריך
בשערים
בשעת
בשעתא
בשעתו
בשפה
בשפות
בשפחה
בשפע
בשפת
בשפתיו
בשקט
בשקל
בשקר
בשר
בשרא
בשרה
בשרו
בשריפה
בשרץ
בשרשרת
בשש
בששה
בששי
בששים
בששת
בשת
בשתי
בשתיה
בשתיהן
בשתייה
בשתים
בשתיקה
בת
בתא
בתאגיד
בתאונה
בתאונת
בתאוריה
בתאי
בתאילנד
בתאים
בתאריך
בתארים
בתבואה
בתביעה
בתבנית
בתבשיל
בתגובה
בתדירות
בתדר
בתה
בתהליך
בתהליכי
בתהליכים
בתו
בתואר
בתוי
בתוך
בתוכה
בתוכו
בתוכם
בתוכן
בתוכנה
בתוכנו
בתוכניות
בתוכנית
בתוכנת
בתולדות
בתולדותיה
בתולה
בתולות
בתולים
בתולת
בתום
בתוניסיה
בתוס
בתוספות
בתוספת
בתוספתא
בתוצאה
בתוצאות
בתוקף
בתור
בתורה
בתורו
בתורת
בתורתו
בתזמורת
בתחבורה
בתחום
בתחומה
בתחומו
בתחומי
בתחומים
בתחילה
בתחילת
בתחילתו
בתחלה
בתחלת
בתחלתו
בתחנה
בתחנות
בתחנת
בתחרויות
בתחרות
בתחתונים
בתחתית
בתי
בתיאום
בתיאור
בתיאטרון
בתיבה
בתיבת
בתיה
בתיהם
בתיכון
בתים
בתימן
בתיק
בתיקו
בתיקון
בתיקונים
בתירא
בתירה
בתך
בתכלית
בתכנון
בתכנית
בתל
בתלוש
בתלמוד
בתלמודא
בתלת
בתם
בתמוז
בתמונה
בתמונות
בתמורה
בתמיד
בתמיה
בתמיכה
בתמיכת
בתנ
בתנאי
בתנאים
בתנועה
בתנועות
בתנועת
בתנור
בתעודת
בתענית
בתער
בתערובת
בתערוכה
בתערוכות
בתערוכת
בתעשייה
בתעשיית
בתעתיק
בתפילה
בתפילין
בתפילת
בתפיסה
בתפיסת
בתפלה
בתפלת
בתפלתו
בתפקוד
בתפקיד
בתפקידו
בתפקידי
בתפקידים
בתצורת
בתקווה
בתקופה
בתקופות
בתקופת
בתקופתו
בתקיפה
בתקן
בתקנה
בתקנון
בתקנות
בתקנת
בתקציב
בתקשורת
בתר
בתרא
בתראה
בתראי
בתרבויות
בתרבות
בתרגום
בתרגומו
בתרגיל
בתרוייהו
בתרומה
בתרומות
בתרומת
בתרופות
בתרי
בתריה
בתרייתא
בתרין
בתרתי
בתשו
בתשוב
בתשובה
בתשובות
בתשובותיו
בתשובת
בתשובתו
בתשלום
בתשלומין
בתשמיש
בתשע
בתשעה
בתשרי
בתת
ג
גא
גאגא
גאה
גאוגרפי
גאוגרפיה
גאוגרפיים
גאוגרפית
גאוה
גאווה
גאולה
גאולוגיה
גאולת
גאומטריה
גאון
גאוני
גאונים
גאוס
גאורג
גאורגי
גאורגיה
גאות
גאזט
גאי
גאיוס
גאים
גאל
גאליה
גאנה
גארדן
גארט
גארי
גב
גבאי
גבה
גבהו
גבהים
גבו
גבוה
גבוהה
גבוהות
גבוהים
גבול
גבולה
גבולות
גבולותיה
גבור
גבורה
גבורות
גבורי
גבורים
גבורת
גבורתו
גבי
גביא
גביה
גביהן
גביו
גביזון
גבייה
גבייהו
גביית
גבינה
גבינות
גביע
גביעי
גביעים
גבירול
גבירתא
גביש
גבישי
גבישים
גבן
גבע
גבעה
גבעון
גבעות
גבעת
גבעתי
גבעתיים
גבר
גברא
גברה
גברו
גברי
גבריאל
גבריאלה
גברים
גברת
גג
גגו
גגות
גד
גדוד
גדודי
גדודים
גדול
גדולה
גדולות
גדולי
גדולים
גדולת
גדולתו
גדות
גדי
גדיל
גדילה
גדילים
גדיש
גדל
גדלה
גדלו
גדלות
גדליה
גדלים
גדעון
גדר
גדרה
גדרות
גדת
גה
גו
גואטמלה
גואל
גוב
גובה
גובהה
גובהו
גובין
גובל
גובלת
גובר
גוברין
גוברת
גוג
גוגל
גוד
גודל
גודלה
גודלו
גודלם
גודמן
גוון
גוונא
גווני
גוונים
גוונין
גוזל
גוזר
גוזרין
גוטליב
גוטמן
גוטנברג
גוטפריד
גוי
גויה
גויים
גויל
גוים
גויס
גויסו
גוך
גול
גולגולת
גולד
גולדברג
גולדה
גולדמן
גולדן
גולדשטיין
גולדשמידט
גולה
גולים
גולל
גולם
גולמי
גולן
גולני
גולף
גומא
גומות
גומז
גומי
גומל
גומלין
גומר
גונא
גונב
גונזלס
גוני
גונן
גוסטב
גוסס
גוף
גופא
גופה
גופו
גופות
גופי
גופיה
גופייהו
גופים
גופם
גופן
גופני
גופנים
גופנית
גופת
גופתה
גופתו
גור
גורביץ
גורבצ
גורדון
גורדי
גורי
גוריון
גורל
גורלו
גורלי
גורם
גורמות
גורמי
גורמים
גורמת
גורן
גורס
גורסים
גורסין
גורסת
גורר
גוררת
גורש
גורשו
גוש
גושי
גושן
גותה
גותי
גז
גזבר
גזולה
גזור
גזי
גזילה
גזים
גזירה
גזירות
גזירת
גזית
גזל
גזלה
גזלן
גזע
גזעי
גזעים
גזעית
גזענות
גזר
גזרה
גזרו
גזרות
גזרי
גזרינן
גזרת
גחלים
גחלת
גט
גטו
גי
גיא
גיבוי
גיבור
גיבורי
גיבורים
גיבורת
גיבוש
גיבסון
גיברלטר
גיד
גידול
גידולו
גידולי
גידולים
גידי
גידים
גידל
גיהנום
גיהנם
גיוס
גיוסו
גיור
גיורא
גיורת
גיזה
גיחות
גיטא
גיטה
גיטי
גיטיך
גיטין
גיטך
גיטרה
גיטרות
גיטריסט
גיטרת
גיי
גיידסטאר
גייטס
גייל
גייס
גייסה
גייסות
גיל
גילברט
גילדת
גילה
גילו
גילוח
גילוי
גילח
גילי
גיליון
גיליונות
גילם
גילמה
גילת
גילתה
גימטריא
גינאה
גינה
גינזבורג
גינס
גינצבורג
גינת
גיסא
גיסו
גיר
גירוי
גירוש
גירושין
גירי
גירסא
גירסת
גירש
גירשה
גישה
גישות
גישת
גישתו
גל
גלאזגו
גלאי
גלבוע
גלגול
גלגל
גלגלי
גלגלים
גלגלצ
גלה
גלו
גלובוס
גלובס
גלוי
גלויה
גלויות
גלויים
גלוריה
גלות
גלותא
גלי
גלידה
גליה
גליון
גליונות
גליות
גליל
גלילאו
גלילי
גלים
גלימא
גליציה
גליק
גלישה
גלית
גללים
גלם
גלן
גלעד
גלעדי
גלקסיות
גלר
גלריה
גלריית
גם
גמ
גמא
גמול
גמור
גמורה
גמורות
גמורים
גמורין
גמזו
גמי
גמילות
גמיר
גמירי
גמיש
גמישות
גמל
גמלא
גמליאל
גמלים
גמר
גמרא
גמרו
גמרי
גמרינן
גן
גנאי
גנב
גנבה
גנבים
גנבת
גנדי
גנו
גנוב
גנות
גנטי
גנטיים
גנטית
גני
גניבה
גניזה
גנים
גנץ
גנרל
גס
גסה
גסות
געש
געשי
געשית
גפן
גפני
גפנים
גר
גרא
גראמי
גראן
גראנד
גרג
גרגורי
גרגוריאני
גרגוריוס
גרדנר
גרה
גרהאם
גרהם
גרו
גרוב
גרובר
גרוגרות
גרון
גרוס
גרוסמן
גרוע
גרועה
גרועים
גרופ
גרוש
גרושה
גרושתו
גרטרוד
גרי
גרידא
גריזים
גריי
גרייס
גרילה
גרים
גרין
גרינברג
גרינג
גרינלנד
גריס
גריסין
גריפין
גריפית
גריר
גרם
גרמא
גרמה
גרמו
גרמי
גרמיה
גרמני
גרמניה
גרמניות
גרמניים
גרמנים
גרמנית
גרנד
גרנדה
גרנות
גרנט
גרניט
גרס
גרסאות
גרסה
גרסי
גרסיה
גרסינן
גרסת
גרסתו
גרע
גרעין
גרעיני
גרעיניים
גרעינים
גרעינית
גרף
גרפי
גרר
גרש
גרשום
גרשון
גרשוני
גרשם
גשם
גשמי
גשמים
גשר
גשרים
גת
גתה
ד
דא
דאב
דאבא
דאבוה
דאבי
דאביי
דאבל
דאברהם
דאג
דאגב
דאגה
דאגלס
דאדם
דאדעתא
דאדרבא
דאדרבה
דאה
דאהלות
דאו
דאומר
דאון
דאונס
דאוסר
דאוקי
דאוקימנא
דאורחא
דאוריית
דאורייתא
דאוריתא
דאותו
דאז
דאזיל
דאזלי
דאזלינן
דאחד
דאחר
דאטו
דאי
דאידך
דאיהו
דאיהי
דאיירי
דאייתי
דאיך
דאיכ
דאיכא
דאילו
דאימא
דאין
דאינה
דאינהו
דאינו
דאינון
דאינן
דאיסור
דאיסורא
דאיצטריך
דאית
דאיתא
דאיתיה
דאיתמר
דאכיל
דאכל
דאכתי
דאל
דאלאס
דאלו
דאליבא
דאלים
דאלמא
דאלת
דאם
דאמא
דאמאי
דאמור
דאמצעיתא
דאמר
דאמרה
דאמרו
דאמרי
דאמרינן
דאמרן
דאמרת
דאן
דאנא
דאנן
דאנס
דאנקן
דאסור
דאסורה
דאסיקנא
דאסר
דאע
דאעש
דאף
דאפ
דאפי
דאפילו
דאפשר
דאצטריך
דאצילות
דאקני
דאקרי
דאקשינן
דאר
דאריך
דארעא
דאשה
דאשכחן
דאשת
דאשתכח
דאת
דאתא
דאתו
דאתי
דאתיא
דאתמר
דב
דבא
דבאמת
דבבא
דבגמרא
דבדבר
דבדיעבד
דבה
דבהא
דבהדיא
דבההיא
דבהכי
דבהמה
דבודאי
דבוק
דבוקה
דבוקים
דבור
דבורה
דבורים
דבזה
דבזמן
דבטל
דבי
דביה
דביום
דבין
דבינה
דביצה
דביקות
דביר
דבירושלמי
דבית
דבכה
דבכורות
דבכל
דבלא
דבלאו
דבלין
דבמקום
דבן
דבני
דבסוף
דבסמוך
דבע
דבעי
דבעיא
דבעינן
דבעל
דבעלמא
דבפ
דבפרק
דבק
דבקה
דבקות
דבר
דברה
דברו
דברות
דברי
דבריאה
דבריה
דבריהם
דבריו
דברייתא
דבריך
דברים
דברינו
דברישא
דברכות
דברכת
דברת
דברתי
דבש
דבשאר
דבשבת
דבשלמא
דבשעה
דבשעת
דבשר
דבת
דבתר
דבתרא
דג
דגבי
דגברא
דגדלות
דגוד
דגופא
דגזרו
דגזרינן
דגט
דגי
דגיטין
דגים
דגימה
דגימות
דגל
דגלה
דגלו
דגלי
דגלים
דגם
דגמ
דגמי
דגמים
דגמר
דגמרא
דגן
דגנים
דגנך
דגר
דגריס
דגרמי
דגרסי
דגרסינן
דגש
דד
דדבר
דדברי
דדהבא
דדוד
דדווקא
דדוקא
דדחי
דדי
דדייני
דדייק
דדילמא
דדין
דדינא
דדכורא
דדלמא
דדם
דדמי
דדעת
דדעתו
דדריש
דדרך
דדרשינן
דה
דהא
דהאי
דהאידנא
דהב
דהבא
דהדין
דהדר
דההוא
דההיא
דהו
דהוא
דהואיל
דהוה
דהוו
דהוי
דהויא
דהטור
דהטעם
דהי
דהיא
דהיאך
דהיה
דהיינו
דהיכא
דהיכי
דהינו
דהך
דהכא
דהכי
דהכל
דהל
דהלא
דהלכה
דהלכות
דהלכתא
דהם
דהן
דהנה
דהנהו
דהני
דהנך
דהעיקר
דהקדש
דהר
דהרא
דהרי
דהרמב
דהרשב
דהשתא
דהתם
דו
דוא
דואג
דואט
דואר
דוב
דובאי
דובדבני
דובי
דובים
דובר
דוברות
דוברי
דוברים
דוברת
דוג
דוגמא
דוגמאות
דוגמה
דוגמנית
דוגמת
דוד
דודאי
דודג
דודה
דודו
דודי
דודים
דודתה
דודתו
דוודאי
דווח
דווייט
דווקא
דוח
דוחה
דוחות
דוחין
דוחק
דויד
דוידסון
דויטש
דויל
דוכן
דוכס
דוכסות
דוכסית
דוכתא
דוכתי
דולב
דולי
דולפין
דולק
דולר
דולרים
דום
דומה
דומות
דומיא
דומים
דומין
דומיניק
דומיננטי
דומם
דון
דונג
דונה
דונובן
דונלד
דונם
דונמים
דונצק
דוסא
דוסון
דופי
דופן
דופק
דוק
דוקא
דוקו
דוקומנטרי
דוקטור
דוקטורט
דור
דוראן
דורג
דורגה
דורגו
דורה
דורו
דורון
דורות
דורותי
דורטמונד
דורי
דורית
דורס
דורש
דורשים
דורשין
דורשת
דותן
דז
דזבחים
דזבין
דזה
דזהו
דזו
דזימנין
דזכי
דזמרה
דזעיר
דחבריה
דחגיגה
דחד
דחדא
דחה
דחו
דחוי
דחול
דחולין
דחופה
דחוק
דחזו
דחזי
דחזיא
דחזינן
דחזקה
דחטאת
דחי
דחיה
דחיי
דחייב
דחייה
דחייש
דחיישינן
דחיית
דחינן
דחכמים
דחלב
דחלה
דחמץ
דחמרא
דחף
דחצר
דחק
דחקו
דחשבינן
דחשיב
דחתה
דט
דטומאה
דטעם
דטעמא
דטפי
דטרויט
די
דיאז
דיאלוג
דיאן
דיאנה
דיבב
דיבבה
דיבה
דיבוב
דיבור
דיבורו
דיבמות
דיבר
דיברה
דיברו
דיג
דיגיטל
דיגיטלי
דיגיטליות
דיגיטליים
דיגיטלית
דיד
דידה
דידהו
דידוע
דידי
דידיה
דידך
דידן
דידע
דידעי
דיה
דיהיב
דיו
דיודין
דיווח
דיווחה
דיווחו
דיווחים
דיוויזיה
דיוויזיות
דיוויזיית
דיום
דיומא
דיון
דיונים
דיוק
דיוקא
דיוקן
דיוקנא
דיוקנאות
דיוקנו
דיור
דיורין
דיותר
דיזל
דיזנגוף
דיחוי
דיחיד
דיי
דייב
דייגו
דייגים
דייוויד
דייוויס
דייל
דיילי
דיים
דיימון
דיין
דיינא
דייני
דיינים
דיינין
דיינינן
דייק
דייקא
דייקי
דייקינן
דייר
דיירי
דיכאון
דיכוי
דיכול
דיל
דילה
דילי
דיליה
דיליף
דילמא
דילן
דילפינן
דים
דימוי
דימויים
דימום
דימונה
דימי
דימינא
דין
דינא
דינה
דינו
דינוזאור
דינוזאורים
דינור
דיני
דיניה
דינים
דינין
דינם
דינמו
דינן
דינר
דינרי
דינרים
דינרין
דיסני
דיסק
דיסקברי
דיסקוס
דיסקין
דיעבד
דיעות
דיעקב
דיפלומט
דיפלומטי
דיפלומטיים
דיפלומטים
דיפלומטית
דיצא
דיצירה
דיק
דיקא
דיקלא
דיקנא
דיקנס
דיקסון
דיר
דירג
דירה
דירוג
דירושלמי
דירות
דירקטור
דירקטוריון
דירת
דירתו
דיש
דישראל
דיתמי
דכ
דכא
דכאן
דכבר
דכד
דכה
דכהן
דכוותה
דכולה
דכולהו
דכולי
דכורא
דכי
דכיון
דכך
דכל
דכלא
דכלאים
דכלהו
דכלי
דכלים
דכמה
דכמו
דכן
דכר
דכרין
דכריתות
דכשר
דכתב
דכתבו
דכתובות
דכתי
דכתיב
דכתיבי
דל
דלא
דלאו
דלאחר
דלאנו
דלגבי
דלדידיה
דלדעת
דלה
דלהוי
דלהון
דלהי
דלהכי
דלהרמב
דלוה
דלוקח
דלות
דלי
דליה
דליהוי
דליכא
דלילה
דלים
דליקה
דלישנא
דלית
דליתא
דליתיה
דלכ
דלכאורה
דלכולי
דלכך
דלכל
דלכתחילה
דלכתחלה
דלמ
דלמא
דלמאי
דלמאן
דלמה
דלעולם
דלעיל
דלעילא
דלענין
דלעת
דלפ
דלפי
דלפני
דלפעמים
דלק
דלקמן
דלקת
דלר
דלרב
דלרבי
דלרבנן
דלשון
דלת
דלתא
דלתות
דלתתא
דם
דמ
דמא
דמאחר
דמאי
דמאן
דמברך
דמגו
דמגילה
דמדאורייתא
דמדברי
דמדינא
דמדרבנן
דמה
דמהאי
דמהימן
דמהימנותא
דמהני
דמו
דמודה
דמוי
דמויות
דמויי
דמוית
דמוכח
דמוכר
דמוקי
דמוקמינן
דמוקרטי
דמוקרטיה
דמוקרטיות
דמוקרטים
דמוקרטית
דמות
דמותה
דמותו
דמותר
דמחזי
דמחייב
דמחמת
דמטא
דמטי
דמטמא
דמטריוס
דמי
דמיא
דמיאן
דמיד
דמיה
דמיהם
דמיהן
דמיו
דמיון
דמיוני
דמיחזי
דמיטרי
דמיין
דמיירי
דמייתי
דמילה
דמילתא
דמים
דמין
דמית
דמכות
דמכל
דמכשיר
דמלה
דמלוה
דמלכא
דמלכותא
דמלתא
דמם
דממה
דממונא
דממילא
דמן
דמנחות
דמס
דמסיק
דמסכת
דמספקא
דמסקינן
דמסתבר
דמסתמא
דמעה
דמעות
דמעיקרא
דמעשה
דמעשר
דמפיק
דמפרש
דמפרשי
דמצוה
דמצות
דמצי
דמצינו
דמציעא
דמקבל
דמקדש
דמקום
דמקשה
דמר
דמש
דמשה
דמשום
דמשכחת
דמשלם
דמשמע
דמשנה
דמשני
דמשק
דמת
דמתה
דמתוך
דמתיר
דמתנה
דמתני
דמתניתין
דן
דנ
דנא
דנאמן
דנדה
דנדרים
דנה
דנהי
דנו
דנוור
דנון
דנוקבא
דנותן
דנזיר
דנחית
דנטה
דני
דניאל
דניאלה
דניחא
דנים
דנימא
דנין
דניס
דנית
דנמרק
דנן
דנעשה
דנפיק
דנפיש
דנפל
דנפק
דנפקא
דנפשיה
דנציגר
דנקט
דנקיט
דנקנר
דנראה
דנשבע
דס
דסבירא
דסבר
דסברא
דסברי
דסגי
דסד
דסובר
דסוגיא
דסוטה
דסוכה
דסוף
דסיפא
דסליק
דסלקא
דסמיך
דסנהדרין
דספיקא
דספק
דסתם
דסתמא
דע
דעבד
דעבדי
דעביד
דעבידא
דעבר
דעד
דעדיין
דעדים
דעדיף
דעדיפא
דעה
דעו
דעובד
דעובר
דעולא
דעות
דעותיו
דעיקר
דעירובין
דעכ
דעכו
דעכשיו
דעל
דעלמא
דער
דערכין
דערלה
דעשה
דעשיה
דעת
דעתא
דעתה
דעתו
דעתי
דעתיה
דעתין
דעתיק
דעתיקא
דעתך
דעתם
דעתן
דף
דפ
דפוס
דפוסי
דפוסים
דפורטיבו
דפחות
דפטור
דפטר
דפי
דפים
דפירש
דפלוגתא
דפליג
דפליגי
דפנה
דפנות
דפסול
דפסח
דפסחים
דפסיק
דפסק
דפרה
דפריך
דפריש
דפרישית
דפרכינן
דפרק
דפשיטא
דפתח
דצ
דצמבר
דצריך
דצריכה
דק
דקא
דקאי
דקאמר
דקאמרי
דקאמרינן
דקב
דקדוק
דקדוקי
דקדושה
דקדושין
דקדק
דקדקו
דקדשה
דקה
דקו
דקודם
דקודשא
דקוטה
דקות
דקטן
דקטנות
דקי
דקידושין
דקיי
דקיימא
דקיימי
דקים
דקירה
דקל
דקלים
דקמ
דקנה
דקנו
דקני
דקנין
דקס
דקסבר
דקר
דקרא
דקרו
דקרי
דקרקע
דקשה
דקשיא
דקתני
דר
דרא
דראובן
דראוי
דראפט
דראש
דראשון
דרב
דרבא
דרבה
דרבי
דרבים
דרבינא
דרבינו
דרבן
דרבנן
דרג
דרגא
דרגה
דרגון
דרגות
דרגין
דרגל
דרגת
דרה
דרו
דרוב
דרובא
דרווין
דרום
דרומה
דרומי
דרומית
דרוסה
דרור
דרורי
דרוש
דרושה
דרושים
דרזדן
דרחמנא
דרי
דריב
דריוש
דרייפוס
דרייק
דרים
דריסה
דריסת
דריש
דרישא
דרישה
דרישות
דרישת
דרך
דרכה
דרכו
דרכון
דרכי
דרכיו
דרכיך
דרכים
דרכך
דרכם
דרכן
דרמה
דרמטי
דרמטית
דרמי
דרמת
דרעי
דרק
דרקון
דררא
דרש
דרשא
דרשב
דרשה
דרשו
דרשות
דרשי
דרשינן
דש
דשא
דשאני
דשאר
דשבועה
דשבועות
דשביעית
דשבת
דשור
דשטר
דשטרא
דשייך
דשיעור
דשכיח
דשכיחי
דשל
דשלא
דשליח
דשם
דשמא
דשמואל
דשמיא
דשמע
דשמעינן
דשמעת
דשמעתא
דשמעתין
דשן
דשני
דשניהם
דשנים
דשפיר
דשקיל
דשרו
דשרי
דשריא
דשתי
דת
דתו
דתות
דתי
דתיות
דתיים
דתימא
דתימר
דתית
דתלינן
דתלמודא
דתם
דתמורה
דתמיד
דתמן
דתן
דתנא
דתנאי
דתנו
דתני
דתניא
דתנינן
דתנן
דתענית
דתפיס
דתקון
דתרווייהו
דתרוייהו
דתרומה
דתרומות
דתרי
דתרתי
ה
הא
האב
האבד
האבדות
האבוד
האבודה
האבולוציה
האבות
האבחנה
האבטחה
האבטלה
האביב
האביר
האבירים
האבל
האבן
האבנים
האבק
האבר
האברים
האג
האגאי
האגדה
האגדות
האגדי
האגודה
האגודות
האגם
האגמים
האגן
האגף
האגרה
האדום
האדומה
האדומים
האדון
האדם
האדמה
האדמו
האדמות
האדמירל
האדריכל
האדריכלות
האדריכלים
האהבה
האהוב
האהובה
האהובים
האהל
האו
האובייקט
האוגדה
האודיו
האוהדים
האוהל
האוויר
האווירה
האווירי
האווירית
האוונג
האוזן
האוזניים
האוטובוס
האוטובוסים
האוטוביוגרפיה
האוטונומי
האוטונומיה
האוטונומית
האויב
האויבים
האויר
האוכל
האוכלוסיות
האוכלוסייה
האוכלוסין
האוכלים
האוכלין
האולימפי
האולימפיאדה
האולימפיים
האולימפית
האולם
האולסטאר
האולפן
האולפנים
האומה
האומות
האומן
האומנות
האומנים
האומנין
האומר
האומרים
האומרת
האוניברסיטאות
האוניברסיטאי
האוניברסיטה
האוניברסלית
האוניה
האוניות
האונייה
האונס
האוס
האוסטרו
האוסטרי
האוסטרים
האוסטרית
האוסטרלי
האוסטרלים
האוסטרלית
האוסף
האוסקר
האוסר
האוסרים
האופוזיציה
האופי
האופייני
האופייניים
האופיינית
האופל
האופן
האופנה
האופניים
האופנים
האופרה
האוצר
האוצרות
האוקיינוס
האוקראיני
האוקראינים
האוקראינית
האור
האורה
האורות
האורז
האורח
האורחים
האורך
האורתודוקסית
האושר
האות
האותות
האותיות
האזהרה
האזור
האזורי
האזוריות
האזוריים
האזורים
האזורית
האזינו
האזכור
האזנה
האזרח
האזרחות
האזרחי
האזרחיים
האזרחים
האזרחית
האח
האחד
האחדות
האחווה
האחוזה
האחורי
האחוריות
האחוריים
האחורית
האחות
האחיות
האחים
האחין
האחר
האחראי
האחראים
האחראית
האחרון
האחרונה
האחרונות
האחרונים
האחרות
האחריות
האחרים
האחרת
האחת
האטום
האטומים
האטלנטי
האטמוספירה
האי
האיבה
האיבר
האיברי
האיברים
האיגוד
האיגרת
האידאולוגיה
האידנא
האיום
האיזון
האיחוד
האיטי
האיטלקי
האיטלקים
האיטלקית
האיי
האיידס
האיים
האיך
האיכות
האיכרים
האיל
האילן
האילנות
האימאם
האימה
האימון
האימונים
האימפריה
האין
האינדיאנים
האינטרנט
האינטרס
האינטרסים
האינפלציה
האינקה
האינתיפאדה
האיסור
האיסורים
האיסורין
האיפה
האיר
האיראני
האיראנית
האירו
האירוויזיון
האירוח
האירוסין
האירוע
האירועים
האירופאי
האירופאים
האירופאית
האירופי
האירופיים
האירופית
האירי
האירית
האיש
האישה
האישום
האישור
האישי
האישיות
האישיים
האישים
האישית
האכילה
האכיפה
האל
האלבום
האלבומים
האלגוריתם
האלה
האלהות
האלהי
האלהים
האלהית
האלו
האלוהי
האלוהים
האלוהית
האלוף
האלופה
האלופות
האלופים
האליה
האליטה
האלילים
האלים
האלימות
האליפות
האלמנה
האלמנטים
האלף
האלפבית
האלפיים
האלפים
האלקטרוני
האלקטרונים
האלקטרונית
האלקים
האם
האמה
האמהות
האמון
האמונה
האמונות
האמור
האמוראים
האמורה
האמורות
האמורי
האמורים
האמין
האמינה
האמינו
האמיר
האמירה
האמירויות
האמיתי
האמיתיים
האמיתית
האמן
האמנה
האמנויות
האמנות
האמנותי
האמנותית
האמנים
האמנית
האמנם
האמצע
האמצעי
האמצעים
האמצעית
האמר
האמריקאי
האמריקאיות
האמריקאים
האמריקאית
האמריקני
האמריקנים
האמריקנית
האמת
האמתי
האן
האנגלו
האנגלי
האנגלים
האנגלית
האנדים
האנדרטה
האנה
האנוש
האנושות
האנושי
האנושיות
האנושיים
האנושית
האנזים
האנט
האנטארקטי
האנטארקטיים
האנטארקטית
האנטי
האנטישמיות
האנטר
האני
האניה
האנייה
האנימציה
האנס
האנציקלופדיה
האנק
האנרגיה
האנשים
האס
האסון
האסור
האסורה
האסורים
האסורין
האסטרונאוטים
האסטרונום
האסטרטגי
האסטרטגיה
האסטרטגית
האסיפה
האסיר
האסירים
האסכולה
האסלאם
האסלאמי
האסלאמית
האספה
האספקה
האף
האפוד
האפוטרופוס
האפור
האפיפיור
האפל
האפלה
האפליקציה
האפס
האפקט
האפר
האפרו
האפרטהייד
האפריקאי
האפריקאית
האפשר
האפשרויות
האפשרות
האפשרי
האפשריות
האפשריים
האפשרית
האצ
האצבע
האצבעות
האצולה
האצטדיון
האציל
האצילות
האצילים
האקדח
האקדמי
האקדמיה
האקדמיים
האקדמית
האקולוגית
האקלים
האקס
האר
הארבה
הארבור
הארבע
הארבעה
הארבעים
הארגון
הארגונים
הארגמן
הארגנטינאי
הארגנטינאית
הארד
הארדי
הארה
הארווי
הארוך
הארוכה
הארוכות
הארוכים
הארון
הארט
הארטילריה
הארי
האריה
האריות
האריך
האריכו
האריס
האריסון
הארכאולוג
הארכאולוגי
הארכה
הארכובה
הארכיבישוף
הארכיון
הארכת
הארכתי
הארמון
הארמי
הארמיות
הארמייה
הארמית
הארמני
הארמנים
הארמנית
הארס
הארץ
הארצות
הארצי
הארצית
הארקטי
הארת
האש
האשה
האשים
האשימו
האשכול
האשכנזי
האשכנזים
האשם
האשמה
האשמות
האשראי
האתגר
האתיופית
האתיקה
האתלטיקה
האתני
האתנית
האתר
האתרוג
האתרים
הב
הבא
הבאה
הבאות
הבאי
הבאים
הבאין
הבאר
הבארוק
הבאת
הבאתי
הבבלי
הבגד
הבגדים
הבגרות
הבד
הבדואים
הבדולח
הבדיוני
הבדיל
הבדים
הבדיקה
הבדיקות
הבדל
הבדלה
הבדלי
הבדלים
הבה
הבהאית
הבהיר
הבהמה
הבהמות
הבהרה
הבהרת
הבו
הבובות
הבוגר
הבוגרים
הבוגרת
הבודד
הבודדות
הבודדים
הבודהיזם
הבוחר
הבוחרים
הבוטני
הבולגרי
הבולגרים
הבולגרית
הבולט
הבולטות
הבולטים
הבולטת
הבולים
הבולשביקים
הבונדסליגה
הבונה
הבונים
הבוס
הבוקר
הבור
הבורא
הבורים
הבורסה
הבושה
הבושת
הבזק
הבחור
הבחורים
הבחין
הבחינה
הבחינו
הבחינות
הבחירה
הבחירות
הבחנה
הבט
הבטון
הבטחה
הבטחון
הבטחת
הבטחתו
הבטיח
הבטיחה
הבטיחו
הבטיחות
הבטן
הבי
הביא
הביאה
הביאו
הבידור
הביוב
הביוגרפי
הביוגרפיה
הביולוגי
הביולוגיה
הביולוגית
הביון
הביזנטי
הביזנטים
הביזנטית
הביט
הביטוח
הביטוי
הביטול
הביטחון
הביטחוני
הביטלס
הבייסבול
הביכורים
הבילבורד
הבימה
הבימוי
הבין
הבינה
הבינו
הבינוי
הבינוני
הביניים
הבינלאומי
הבינלאומיות
הבינלאומיים
הבינלאומית
הבינתחומי
הביס
הביסה
הביסו
הביע
הביעה
הביעו
הביעור
הביצה
הביצוע
הביצועים
הביצורים
הביצות
הביצים
הביקור
הביקורות
הביקורת
הביקוש
הבירה
הבירור
הבישול
הבישוף
הבית
הביתה
הביתי
הבכור
הבכורה
הבכורות
הבכורים
הבכיר
הבכירה
הבכירים
הבל
הבלגי
הבלגים
הבלגית
הבלדה
הבלוג
הבלוע
הבלט
הבלטי
הבלים
הבליעה
הבלם
הבלקן
הבלש
הבלתי
הבמאי
הבמאית
הבמה
הבמות
הבן
הבנה
הבנוי
הבנויה
הבנות
הבניה
הבנייה
הבניין
הבניינים
הבנים
הבנין
הבנק
הבנקאות
הבנקאי
הבנקים
הבנת
הבנתי
הבס
הבסבורג
הבסיס
הבסיסי
הבסיסיות
הבסיסיים
הבסיסית
הבע
הבעה
הבעיה
הבעיות
הבעל
הבעלות
הבעלי
הבעלים
הבערה
הבעש
הבעת
הבצק
הבקיע
הבקעה
הבקר
הבקרה
הבקשה
הבקשות
הבר
הבראה
הברד
הברה
הברואים
הברון
הברונזה
הברור
הברזילאי
הברזילאית
הברזל
הברטנורא
הבריא
הבריאה
הבריאות
הבריאותי
הבריגדה
הבריות
הבריח
הבריחה
הבריטי
הבריטיות
הבריטיים
הבריטים
הבריטית
הברייתא
הבריכה
הברירה
הברית
הברכה
הברכות
הברק
הבשורה
הבשמים
הבשן
הבשר
הבת
הבתולה
הבתולות
הבתים
הג
הגאה
הגאוגרפי
הגאוגרפיה
הגאוגרפית
הגאוה
הגאווה
הגאולה
הגאולוגי
הגאון
הגאונים
הגאורגי
הגאורגית
הגאות
הגאזט
הגב
הגבהה
הגבוה
הגבוהה
הגבוהות
הגבוהים
הגבול
הגבולות
הגבור
הגבורה
הגבורות
הגבורים
הגביה
הגבינה
הגביע
הגביר
הגבירה
הגבלה
הגבלות
הגבלת
הגבעה
הגבעות
הגבר
הגברים
הגברת
הגג
הגדה
הגדוד
הגדודים
הגדול
הגדולה
הגדולות
הגדולים
הגדי
הגדיל
הגדילה
הגדילו
הגדיר
הגדיש
הגדל
הגדלה
הגדלים
הגדלת
הגדר
הגדרה
הגדרות
הגדרת
הגה
הגהה
הגהות
הגהת
הגואל
הגובה
הגוברת
הגודל
הגוזל
הגוי
הגויה
הגויים
הגוים
הגולגולת
הגולה
הגולים
הגולל
הגולן
הגומלין
הגון
הגונב
הגוף
הגופה
הגופות
הגופים
הגופני
הגופנית
הגורל
הגורם
הגורמים
הגורמת
הגורן
הגוש
הגות
הגותי
הגותית
הגז
הגזבר
הגזול
הגזילה
הגזים
הגזירה
הגזית
הגזל
הגזלה
הגזלן
הגזע
הגזרה
הגחלים
הגט
הגטאות
הגטו
הגי
הגיא
הגיב
הגיבה
הגיבו
הגיבור
הגיבורים
הגיד
הגידו
הגידול
הגידין
הגיה
הגיהנום
הגיון
הגיוני
הגיוס
הגיטרה
הגיטריסט
הגייה
הגיל
הגילאים
הגילוי
הגיליון
הגימנסיה
הגינה
הגיס
הגיע
הגיעה
הגיעו
הגירה
הגירוש
הגירושין
הגירסא
הגיש
הגישה
הגישו
הגל
הגלגל
הגלגלים
הגלובלית
הגלוי
הגלות
הגליל
הגלילי
הגלים
הגלם
הגלעד
הגלקסיה
הגלריה
הגם
הגמ
הגמדים
הגמול
הגמור
הגמל
הגמלים
הגמר
הגמרא
הגן
הגנאלוגיה
הגנב
הגנבים
הגנה
הגנו
הגנוז
הגנום
הגנטי
הגניבה
הגנים
הגנרל
הגנרלים
הגנת
הגס
הגסטפו
הגעה
הגעלה
הגעש
הגעת
הגעתו
הגעתם
הגפן
הגפנים
הגר
הגרגוריאני
הגרדיאן
הגרון
הגרוע
הגרים
הגרלה
הגרמני
הגרמניות
הגרמניים
הגרמנים
הגרמנית
הגרנד
הגרסא
הגרסאות
הגרסה
הגרעין
הגרעיני
הגרעינית
הגרף
הגרפי
הגשה
הגשושית
הגשם
הגשמי
הגשמיות
הגשמיים
הגשמים
הגשר
הגשרים
הגשת
הגת
הד
הדא
הדאגה
הדאנס
הדבור
הדבורים
הדבק
הדבקה
הדבקות
הדבקים
הדבר
הדברות
הדברי
הדברים
הדבש
הדג
הדגים
הדגיש
הדגל
הדגלים
הדגם
הדגמים
הדגן
הדגש
הדד
הדדי
הדדית
הדה
הדו
הדואר
הדוב
הדובר
הדוברים
הדוגמאות
הדוגמה
הדוד
הדוח
הדוחות
הדוכס
הדוכסות
הדוכסית
הדולר
הדומה
הדומים
הדומיניקנית
הדומיננטי
הדומיננטית
הדופן
הדוק
הדוקומנטרי
הדוקטור
הדוקטורט
הדור
הדורות
הדורש
הדורשים
הדחה
הדחק
הדחתו
הדי
הדיבוב
הדיבור
הדיג
הדיגיטלי
הדיגיטליים
הדיגיטלית
הדיו
הדיווח
הדיווחים
הדיוויזיה
הדיוט
הדיוטות
הדיון
הדיונים
הדיוק
הדיור
הדיח
הדיין
הדיינים
הדיינין
הדיירים
הדיכוי
הדים
הדימוי
הדין
הדינוזאורים
הדינים
הדינין
הדינר
הדיסק
הדיפלומטי
הדיפלומטיים
הדירה
הדירוג
הדירות
הדירקטוריון
הדל
הדלי
הדליק
הדליקה
הדלק
הדלקה
הדלקת
הדלת
הדלתות
הדם
הדמאי
הדמויות
הדמוקרטי
הדמוקרטיה
הדמוקרטים
הדמוקרטית
הדמות
הדמיה
הדמיון
הדמים
הדן
הדנובה
הדני
הדנים
הדנית
הדס
הדסה
הדסון
הדעה
הדעות
הדעת
הדף
הדפוס
הדפוסים
הדפים
הדפיס
הדפנות
הדפס
הדפסה
הדפסת
הדק
הדקדוק
הדקות
הדקל
הדר
הדרא
הדרבי
הדרג
הדרגה
הדרגות
הדרגתי
הדרגתית
הדרה
הדרוזים
הדרום
הדרומי
הדרומיים
הדרומית
הדרוש
הדרושה
הדרושות
הדרושים
הדרי
הדרים
הדרישה
הדרישות
הדרך
הדרכה
הדרכים
הדרכתו
הדרמה
הדרן
הדרקון
הדרשה
הדרת
הדשא
הדשן
הדת
הדתות
הדתי
הדתיות
הדתיים
הדתית
הה
ההארה
ההאשמות
ההבדל
ההבדלים
ההבחנה
ההבטחה
ההבנה
ההגבלות
ההגדה
ההגדרה
ההגהה
ההגייה
ההגירה
ההגנה
ההגעה
ההדחה
ההדפסה
ההדרכה
ההוא
ההובלה
ההוד
ההודאה
ההודי
ההודית
ההודעה
ההווה
ההויה
ההוכחה
ההולדת
ההולך
ההולכה
ההולכים
ההולכת
ההולנדי
ההולנדים
ההולנדית
ההומור
ההון
ההונגרי
ההונגרים
ההונגרית
ההופעה
ההופעות
ההוצאה
ההוצאות
ההוקי
ההוראה
ההוראות
ההורג
ההורה
ההורים
ההזדמנות
ההזמנה
ההחלטה
ההחלטות
ההי
ההיא
ההיאבקות
ההיבטים
ההיגוי
ההיגיון
ההיזק
ההיטל
ההיכל
ההיכר
ההימלאיה
ההין
ההיסטורי
ההיסטוריה
ההיסטוריון
ההיסטוריונים
ההיסטוריות
ההיסטוריים
ההיסטורית
ההיפ
ההיקף
ההיריון
ההישג
ההישגים
ההישרדות
ההיתר
ההכנה
ההכנות
ההכנסה
ההכנסות
ההכרה
ההכרזה
ההכרח
ההכרעה
ההכשרה
ההכתרה
ההלואה
ההלוואה
ההליך
ההליכה
ההליכים
ההלכה
ההלכות
ההלכתי
ההלל
ההלניסטית
ההם
ההמון
ההמונים
ההמונית
ההמנון
ההמראה
ההמשך
ההמתנה
ההן
ההנאה
ההנדסה
ההנהגה
ההנהלה
ההנחה
ההנעה
ההנפשה
ההנצחה
ההסבה
ההסבר
ההסברה
ההסדר
ההסכם
ההסכמה
ההסכמים
ההסמכה
ההסתברות
ההסתדרות
ההעברה
ההעדר
ההעפלה
ההערכה
ההערכות
ההפגנה
ההפגנות
ההפוך
ההפטרה
ההפיכה
ההפך
ההפלגה
ההפסד
ההפעלה
ההפצה
ההפצצה
ההפקה
ההפקות
ההפקר
ההפרדה
ההפרה
ההפרעה
ההפרש
ההצבעה
ההצגה
ההצהרה
ההצלה
ההצלחה
ההצעה
ההצעות
ההצפנה
ההקדמה
ההקדש
ההקלטה
ההקלטות
ההקמה
ההקשר
ההר
ההרגשה
ההרוגים
ההרחבה
ההריון
ההרים
ההרכב
ההרס
ההררי
ההשבחה
ההשגה
ההשגחה
ההשוואה
ההשכלה
ההשלכות
ההשמדה
ההשערה
ההשפעה
ההשפעות
ההשקה
ההשקעה
ההשקעות
ההשקפה
ההשראה
ההשתלטות
ההשתתפות
ההתאבדות
ההתאחדות
ההתאמה
ההתבגרות
ההתגלות
ההתחייבות
ההתחלה
ההתייחסות
ההתיישבות
ההתמודדות
ההתמחות
ההתנגדות
ההתנגשות
ההתנהגות
ההתנחלויות
ההתנחלות
ההתנקשות
ההתנתקות
ההתערבות
ההתפרצות
ההתפשטות
ההתפתחות
ההתקדמות
ההתקוממות
ההתקפה
ההתקפות
ההתקשרות
ההתשה
הו
הוא
הואי
הואיל
הוארך
הואשם
הואשמו
הובא
הובאה
הובאו
הוביל
הובילה
הובילו
הובלה
הובלת
הובס
הובסה
הובסו
הובר
הוברר
הוגדר
הוגדרה
הוגדרו
הוגה
הוגו
הוגים
הוגן
הוגנת
הוגש
הוגשה
הוגשו
הוד
הודא
הודאה
הודאת
הודאתו
הודג
הודה
הודו
הודות
הודח
הודחה
הודחו
הודי
הודים
הודיע
הודיעה
הודיעו
הודית
הודע
הודעה
הודעות
הודעת
הודעתיך
הודפס
הודפסו
הוה
הוו
הוואי
הווארד
הווה
הווי
הווידאו
הוויכוח
הווירטואלי
הווירטואלית
הוולד
הוועד
הוועדה
הוועדות
הוועידה
הוורמאכט
הוושט
הוות
הוותיק
הוותיקה
הוותיקות
הוותיקים
הוותיקן
הוזכר
הוזכרה
הוזכרו
הוזמן
הוזמנה
הוזמנו
הוחזק
הוחזקה
הוחזקו
הוחזר
הוחזרה
הוחזרו
הוחל
הוחלט
הוחלף
הוחלפה
הוחלפו
הוחתם
הוט
הוטל
הוטלה
הוטלו
הוי
הויא
הויה
הויות
הויין
הוינא
הוית
הוכח
הוכחה
הוכחות
הוכחת
הוכחתי
הוכיח
הוכיחה
הוכיחו
הוכן
הוכנס
הוכנסו
הוכר
הוכרה
הוכרו
הוכרז
הוכרזה
הוכרזו
הוכרח
הוכשר
הוכשרו
הוכתר
הול
הולד
הולדן
הולדת
הולדתה
הולדתו
הולחן
הולי
הוליד
הוליווד
הוליך
הולך
הולכה
הולכות
הולכי
הולכים
הולכין
הולכת
הולם
הולמס
הולמת
הולנד
הולנדי
הולנדית
הולצמן
הולשטיין
הומו
הומואים
הומוסקסואל
הומוסקסואליות
הומוסקסואלים
הומוסקסואלית
הומור
הומצא
הומר
הון
הונא
הונאה
הונג
הונגרי
הונגריה
הונגרים
הונגרית
הונדה
הונדורס
הונו
הונח
הונחה
הונחו
הוסב
הוסיף
הוסיפה
הוסיפו
הוסכם
הוסמך
הוסף
הוספה
הוספת
הוסר
הוסרו
הוסת
הועבר
הועברה
הועברו
הועד
הועדה
הועיל
הועילו
הועלה
הועלו
הועלתה
הועמד
הועמדו
הוענק
הוענקה
הוענקו
הועסק
הועסקו
הוערך
הועתק
הופ
הופיע
הופיעה
הופיעו
הופך
הופכות
הופכים
הופכת
הופל
הופמן
הופסק
הופסקה
הופסקו
הופעה
הופעות
הופעותיו
הופעל
הופעלו
הופעת
הופעתה
הופעתו
הופעתם
הופץ
הופצו
הופק
הופקד
הופקה
הופקו
הופקינס
הופר
הוצא
הוצאה
הוצאו
הוצאות
הוצאת
הוצאתו
הוצב
הוצבה
הוצבו
הוצג
הוצגה
הוצגו
הוציא
הוציאה
הוציאו
הוצע
הוצעה
הוצעו
הוצרך
הוצרכו
הוק
הוקדש
הוקי
הוקלט
הוקלטו
הוקם
הוקמה
הוקמו
הוקס
הוקף
הוקצו
הוקר
הוקרה
הוקרן
הוקשה
הוראה
הוראות
הוראת
הוראתו
הורביץ
הורג
הורגים
הורד
הורדה
הורדוס
הורדת
הורה
הורו
הורוביץ
הורוויץ
הורות
הורחב
הורחבה
הורחק
הורי
הוריד
הוריה
הוריהם
הוריו
הוריות
הורים
הוריקן
הוריש
הורית
הורכב
הורכבה
הורכבו
הורמון
הורן
הורס
הורקנוס
הורשה
הורשו
הורשע
הורתה
הושאל
הושבע
הושג
הושגה
הושט
הושיעה
הושלם
הושלמה
הושלמו
הושם
הושמד
הושמדו
הושמע
הושע
הושעה
הושעיא
הושעיה
הושפע
הושפעה
הושפעו
הושק
הושקה
הות
הותיר
הותירה
הותירו
הותקן
הותקנו
הותקף
הותקפה
הותקפו
הותר
הותרה
הותרו
הז
הזאב
הזאה
הזאת
הזב
הזבח
הזבחים
הזבל
הזדהות
הזדמנויות
הזדמנות
הזה
הזהב
הזהות
הזהיר
הזהירו
הזהר
הזו
הזוג
הזוגות
הזוגיות
הזוהר
הזווג
הזווית
הזוכה
הזוכים
הזול
הזולת
הזונה
הזורם
הזורע
הזורק
הזיהוי
הזיהום
הזיז
הזיכיון
הזיכרון
הזיק
הזיקה
הזיקו
הזיקוק
הזירה
הזית
הזיתים
הזכאות
הזכאי
הזכאים
הזכויות
הזכוכית
הזכות
הזכיון
הזכיות
הזכייה
הזכיר
הזכירה
הזכירו
הזכר
הזכרון
הזכרונות
הזכרים
הזכרת
הזמה
הזמין
הזמינה
הזמינו
הזמן
הזמנה
הזמנות
הזמני
הזמנים
הזמנית
הזמנת
הזמר
הזמרים
הזמרת
הזן
הזנב
הזנה
הזנות
הזעם
הזפת
הזקן
הזקנה
הזקנים
הזר
הזרה
הזרוע
הזרועות
הזרות
הזרים
הזרימה
הזרם
הזרמים
הזרמת
הזרע
הזרעים
הח
החאן
החבור
החבורה
החבורות
החביות
החבילה
החבית
החבל
החבלים
החבר
החברה
החברות
החברים
החברתי
החברתיות
החברתיים
החברתית
החג
החגים
החד
החדר
החדרים
החדש
החדשה
החדשות
החדשים
החוב
החובה
החובות
החובל
החוג
החוגים
החודש
החודשי
החודשים
החווה
החוויה
החוזה
החוזים
החוזר
החוזרת
החוט
החוטא
החוטאים
החוטין
החוטם
החול
החולה
החולות
החולי
החוליה
החוליות
החולים
החולין
החולץ
החולקים
החום
החומה
החומות
החומר
החומרי
החומרים
החומש
החוף
החופה
החופים
החופש
החופשי
החופשיים
החופשית
החוץ
החוצה
החוק
החוקה
החוקי
החוקים
החוקר
החוקרים
החוקתי
החוקתית
החור
החורבן
החורג
החורגת
החורף
החורש
החוש
החושים
החושך
החושן
החותם
החזה
החזון
החזיק
החזיקה
החזיקו
החזיר
החזירה
החזירו
החזית
החזן
החזק
החזקה
החזקות
החזקים
החזקת
החזר
החזרה
החזרת
החזרתי
החטא
החטאים
החטאת
החטיבה
החטים
החטיפה
החי
החיבור
החיד
החידוש
החיה
החיוב
החיובי
החיוני
החיות
החיטה
החייב
החיידק
החיידקים
החייל
החיילים
החיים
החיל
החילוני
החילונית
החילוץ
החילוק
החימוש
החינוך
החינוכי
החינוכית
החיסון
החיפוש
החיצון
החיצונה
החיצוני
החיצוניות
החיצוניים
החיצונים
החיצונית
החירום
החירות
החישוב
החיתוך
החכירה
החכם
החכמה
החכמות
החכמים
החל
החלב
החלבון
החלבונים
החלה
החלו
החלום
החלומות
החלון
החלונות
החלוץ
החלוצים
החלוק
החלוקה
החלות
החלטה
החלטות
החלטת
החלטתה
החלטתו
החליט
החליטה
החליטו
החליל
החלים
החליף
החליפה
החליפו
החליפין
החליצה
החלל
החללים
החללית
החלפה
החלפת
החלק
החלקה
החלקים
החלקיק
החלקיקים
החלש
החלת
החם
החמאס
החמה
החמור
החמורה
החמים
החמיץ
החמיר
החמירו
החמישה
החמישי
החמישים
החמישית
החמץ
החמצן
החמש
החמשה
החמשים
החן
החנויות
החנוכה
החנוני
החנות
החניכים
החנית
החסד
החסדים
החסות
החסיד
החסידות
החסידים
החסימה
החסר
החסרון
החפירה
החפירות
החפץ
החפצים
החץ
החצי
החצר
החצרות
החקים
החקיקה
החקירה
החקירות
החקלאות
החקלאי
החקלאיים
החקלאים
החקלאית
החקר
החרב
החרדה
החרדי
החרדים
החרדית
החרדל
החרושת
החרות
החרטום
החריף
החרם
החרמון
החרס
החרש
החשאי
החשאית
החשבון
החשבונות
החשד
החשוב
החשובה
החשובות
החשובים
החשוד
החשודים
החשיבה
החשיבות
החשיפה
החשך
החשמונאים
החשמל
החשמלי
החשמלית
החשש
החתול
החתום
החתומים
החתונה
החתיכה
החתיכות
החתים
החתימה
החתן
הט
הטבה
הטבור
הטבות
הטבח
הטבילה
הטבל
הטבלה
הטבע
הטבעות
הטבעי
הטבעיות
הטבעיים
הטבעית
הטבעת
הטבק
הטהור
הטהורה
הטהורים
הטהרה
הטו
הטוב
הטובה
הטובות
הטובים
הטובין
הטווח
הטוויטר
הטוטו
הטומאה
הטומאות
הטוען
הטוענים
הטופס
הטור
הטורים
הטורניר
הטורפים
הטורקי
הטורקים
הטורקית
הטיה
הטיול
הטיט
הטייס
הטייסים
הטייסת
הטיית
הטיל
הטילה
הטילו
הטילים
הטיס
הטיסה
הטיסות
הטיעון
הטיפה
הטיפול
הטיפוס
הטירה
הטכנולוגי
הטכנולוגיה
הטכנולוגית
הטכני
הטכניון
הטכניקה
הטכנית
הטל
הטלה
הטלוויזיה
הטליבאן
הטלית
הטלפון
הטלת
הטמא
הטמאה
הטמאים
הטמנה
הטמפלרים
הטמפרטורה
הטמפרטורות
הטניס
הטנק
הטנקים
הטעויות
הטעות
הטעם
הטעמים
הטענה
הטענות
הטפה
הטפל
הטקס
הטקסט
הטקסטיל
הטקסטים
הטקסים
הטרגדיה
הטרדה
הטרור
הטריטוריה
הטריטוריות
הטרף
הי
היא
היאבקות
היאור
היאך
היבוא
היבום
היבט
היבטים
היבם
היבמה
היברובוקס
היבש
היבשה
היבשות
היבשת
היבשתי
היבשתית
היגיון
היגינס
היגר
היגרה
היגרו
היד
הידוע
הידועה
הידועות
הידועים
הידור
הידידות
הידיים
הידים
הידיעה
הידיעות
הידע
הידען
היה
היהדות
היהודי
היהודיות
היהודיים
היהודים
היהודית
היהלום
היהלומים
היו
היובל
היודע
היוו
היווה
היווני
היוונים
היוונית
היווסדה
היוועצו
היווצרות
היוותה
היוזמה
היוטיוב
היולדת
היוליאני
היום
היומי
היומיום
היומית
היומן
היונה
היונים
היונקים
היועץ
היופי
היוצא
היוצאים
היוצאין
היוצאת
היוצר
היוצרים
היוצרת
היוקרתי
היורד
היורה
היורוליג
היורש
היורשים
היורשין
היושב
היושבים
היושבת
היושר
היות
היותה
היותו
היותם
היותר
היזם
היזק
היחוד
היחיד
היחידה
היחידות
היחידי
היחידים
היחס
היחסות
היחסי
היחסים
היחסית
היט
היטב
היטיב
היטל
היטלר
היי
הייד
היידי
היידיש
היידן
הייז
הייחוד
הייחודי
הייחודיים
הייחודית
הייחוס
הייל
היילי
היימן
היין
היינו
היינץ
היינריך
הייעוץ
הייצוא
הייצוג
הייצור
היישוב
היישובים
היישום
היישר
היית
הייתה
הייתי
הייתם
היך
היכא
היכולות
היכולת
היכי
היכל
היכלא
היכלות
היכן
היכר
היכרות
היל
הילד
הילדה
הילדות
הילדים
הילה
הילוך
הילוכים
הילטון
הילידים
הילך
הילכך
הילכתא
הילל
הילס
הילרי
הים
הימורים
הימי
הימיים
הימים
הימין
הימית
הימלר
היממה
הימן
הימנה
הימנו
הימני
הימנית
הימנעות
הימצאות
הין
הינה
הינו
היסוד
היסודות
היסודי
היסודיים
היסורים
היסורין
היסח
היסטורי
היסטוריה
היסטוריון
היסטוריונים
היסטוריות
היסטוריים
היסטוריית
היסטורית
היסת
היעד
היעדים
היעדר
היעדרות
היעילות
היער
היערות
היפ
היפה
היפוך
היפות
היפים
היפך
היפני
היפנים
היפנית
היפר
היצ
היצה
היצוא
היצור
היצורים
היציאה
היציבות
היציע
היצירה
היצירות
היצר
היצרן
היצרנים
היקב
היקום
היקף
היקר
היקרה
היקרים
היקש
היראה
הירדן
הירדני
הירוק
הירוקה
הירוקים
הירושה
הירושלמי
הירח
הירחון
הירי
היריב
היריבה
היריבות
היריבים
הירידה
היריון
היריעה
הירך
הירק
הירקון
הירקות
הירש
הירשפלד
היש
הישג
הישגי
הישגיו
הישגים
הישוב
הישועה
הישות
הישיבה
הישיבות
הישיר
הישירה
הישן
הישנה
הישנות
הישנים
הישר
הישראל
הישראלי
הישראליות
הישראליים
הישראלים
הישראלית
הישרדות
הישרה
הית
היתה
היתומים
היתר
היתרון
היתרונות
הך
הכ
הכא
הכאב
הכאה
הכבד
הכבדה
הכבדים
הכבוד
הכבושה
הכבושים
הכבידה
הכביש
הכבישים
הכבלים
הכבש
הכבשים
הכד
הכדור
הכדורגל
הכדורים
הכדורסל
הכה
הכהו
הכהונה
הכהן
הכהנים
הכו
הכובד
הכובע
הכובש
הכובשים
הכוונה
הכוונות
הכוונת
הכוח
הכוחות
הכוכב
הכוכבים
הכול
הכולל
הכוללות
הכוללים
הכוללת
הכומר
הכונה
הכונס
הכוס
הכוסות
הכופר
הכור
הכורדים
הכושר
הכותב
הכותבים
הכותי
הכותים
הכותל
הכותרת
הכז
הכח
הכחדה
הכחול
הכחולה
הכחות
הכחיש
הכחשה
הכט
הכי
הכיבוש
הכיוון
הכיוונים
הכיור
הכיכר
הכיל
הכילה
הכימי
הכימיה
הכימית
הכין
הכינו
הכינוי
הכינוס
הכיס
הכיסא
הכיסוי
הכיפה
הכיפורים
הכיר
הכירה
הכירו
הכישוף
הכישלון
הכיתה
הכיתוב
הככר
הכל
הכלא
הכלאים
הכלב
הכלבו
הכלבים
הכלה
הכלולים
הכלי
הכליה
הכליות
הכלים
הכלכלה
הכלכלי
הכלכליות
הכלכליים
הכלכלית
הכלל
הכללה
הכללות
הכללי
הכלליות
הכלליים
הכללים
הכללית
הכמות
הכן
הכנה
הכנופיה
הכנות
הכניס
הכניסה
הכניסו
הכניעה
הכנס
הכנסה
הכנסות
הכנסיות
הכנסייה
הכנסת
הכנסתו
הכנעני
הכנענים
הכנף
הכנפיים
הכנרת
הכנת
הכס
הכסא
הכסף
הכספי
הכספיים
הכספים
הכספית
הכעס
הכף
הכפול
הכפולה
הכפורים
הכפורת
הכפל
הכפר
הכפרי
הכפריים
הכפרים
הכר
הכרה
הכרובים
הכרוך
הכרוכות
הכרזה
הכרזת
הכרח
הכרחי
הכרחית
הכרטיס
הכרטיסים
הכרי
הכריז
הכריזה
הכריזו
הכרייה
הכריע
הכרך
הכרכים
הכרם
הכרמים
הכרמל
הכרע
הכרעה
הכרעת
הכרת
הכשדים
הכשיר
הכשר
הכשרה
הכשרות
הכשרים
הכשרת
הכשרתו
הכת
הכתב
הכתבה
הכתבים
הכתוב
הכתובה
הכתובות
הכתובים
הכתובת
הכתיב
הכתיבה
הכתלים
הכתם
הכתף
הכתר
הל
הלא
הלאה
הלאו
הלאום
הלאומי
הלאומיות
הלאומיים
הלאומים
הלאומית
הלב
הלבבות
הלבוש
הלבושים
הלבן
הלבנה
הלבנון
הלבנוני
הלבנים
הלבנת
הלברשטאם
הלגיון
הלה
הלהט
הלהיט
הלהיטים
הלהקה
הלהקות
הלו
הלוא
הלואה
הלואי
הלואתו
הלוגו
הלוה
הלוהו
הלוואה
הלוואות
הלוואי
הלווה
הלוויה
הלוויין
הלוח
הלוחות
הלוחם
הלוחמה
הלוחמים
הלוי
הלויים
הלוים
הלוך
הלול
הלולב
הלום
הלומד
הלומדים
הלופטוואפה
הלוקח
הלורד
הלורדים
הלז
הלח
הלחות
הלחי
הלחימה
הלחין
הלחם
הלחן
הלחץ
הלטיני
הלטינית
הליבה
הליברלי
הליברלים
הליברלית
הליגה
הליגות
הלידה
הליווי
הליטאי
הליטאית
הלייבור
הלייקרס
הליך
הליכה
הליכוד
הליכות
הליכי
הליכים
הלילה
הלילות
הלימוד
הלימודים
הליקון
הלך
הלכה
הלכו
הלכות
הלכך
הלכת
הלכתא
הלכתי
הלכתית
הלל
הללו
הללויה
הלם
הלמ
הלמד
הלמוט
הלמידה
הלן
הלנה
הלסינקי
הלסת
הלפרין
הלקוח
הלקוחות
הלקט
הלר
הלשון
הלשונות
הלשכה
הלשכות
הלת
הם
המ
המאבק
המאגר
המאה
המאובנים
המאוחד
המאוחדות
המאוחדת
המאוחר
המאוחרות
המאוחרים
המאוחרת
המאור
המאורות
המאורסה
המאורע
המאורעות
המאות
המאזן
המאיה
המאיר
המאירי
המאכל
המאכלים
המאמין
המאמינים
המאמן
המאמץ
המאמצים
המאמר
המאמרים
המאסר
המאפיה
המאפיין
המאפיינים
המאפשר
המאפשרות
המאפשרים
המאפשרת
המארחת
המבדיל
המבוא
המבואר
המבוארת
המבוגר
המבוגרים
המבוי
המבול
המבוסס
המבוססות
המבוססים
המבוססת
המבוקש
המבורג
המבחן
המבט
המבטא
המבטל
המביא
המביאה
המביאים
המבנה
המבנים
המבצע
המבצעי
המבצעים
המבצעית
המבצעת
המבצר
המבקר
המבקרים
המבקש
המבקשים
המבקשת
המברך
המג
המגבלות
המגדל
המגדלים
המגדר
המגדרית
המגוון
המגורים
המגורשים
המגזין
המגזר
המגיד
המגיה
המגילה
המגינים
המגיע
המגיעה
המגיעים
המגלה
המגמה
המגן
המגנטי
המגע
המגפה
המגרש
המדבר
המדברים
המדד
המדה
המדובר
המדוברת
המדויק
המדויקת
המדומה
המדור
המדורה
המדות
המדידה
המדיה
המדינה
המדינות
המדיני
המדיניות
המדינית
המדינתי
המדיר
המדליה
המדליות
המדמה
המדע
המדעי
המדעיים
המדעים
המדעית
המדען
המדענים
המדפיס
המדרגה
המדרגות
המדריך
המדרש
המדרשה
המה
המהגרים
המהדורה
המהווה
המהווים
המהומות
המהיר
המהירה
המהירות
המהלך
המהלכים
המהנדס
המהנדסים
המהפך
המהפכה
המהפכנית
המהר
המהרש
המו
המובא
המובהק
המובחר
המוביל
המובילה
המובילות
המובילים
המוגבל
המוגדר
המוגדרת
המוגן
המודיעין
המודל
המודעות
המודר
המודרני
המודרניות
המודרניים
המודרנית
המוות
המוזיאון
המוזיאונים
המוזיקאי
המוזיקאים
המוזיקה
המוזיקלי
המוזיקליים
המוזיקלית
המוזכר
המוזכרים
המוח
המוחזק
המוחין
המוחלט
המוחלטת
המוטל
המוכן
המוכר
המוכרות
המוכרים
המוכרת
המולד
המולדת
המוליך
המום
המומחה
המומחים
המון
המונגולים
המונגולית
המונדיאל
המונה
המונח
המונחים
המוני
המוניות
המוניטין
המונים
המונית
המונע
המוסברת
המוסד
המוסדות
המוסיף
המוסלמי
המוסלמים
המוסלמית
המוסמך
המוסמכת
המוסף
המוספין
המוסר
המוסרי
המוסרית
המועד
המועדון
המועדונים
המועדות
המועדים
המועדף
המועט
המועמד
המועמדות
המועמדים
המוענק
המועצה
המועצות
המופיע
המופיעה
המופיעות
המופיעים
המופלא
המופלאים
המופע
המופעים
המופעל
המופק
המופת
המופתי
המוצא
המוצב
המוצבים
המוצג
המוצגים
המוציא
המוצלח
המוצלחת
המוצע
המוצר
המוצרים
המוקד
המוקדם
המוקדמות
המוקדמים
המוקדמת
המוקדש
המוקדשין
המוקף
המוקצה
המור
המורדים
המורה
המורחבת
המוריה
המורים
המורכב
המורכבות
המורכבים
המורכבת
המורשה
המורשת
המושב
המושבה
המושבות
המושבים
המושבעים
המושג
המושגים
המושך
המושל
המושלים
המושלם
המות
המותג
המותר
המותרות
המותרים
המותרת
המזבח
המזוהה
המזוהים
המזוזה
המזוינים
המזון
המזונות
המזיק
המזכה
המזכיר
המזכירה
המזכירות
המזל
המזלות
המזמור
המזרח
המזרחי
המזרחיים
המזרחית
המח
המחאה
המחאות
המחבל
המחבלים
המחבר
המחברים
המחברת
המחדל
המחובר
המחוברים
המחודש
המחודשת
המחוז
המחוזות
המחוזי
המחוזית
המחויבים
המחוייבים
המחול
המחוקק
המחוקקים
המחוקקת
המחזאי
המחזה
המחזור
המחזות
המחזיק
המחזיקים
המחזמר
המחט
המחיה
המחייב
המחילה
המחיצה
המחיצות
המחיר
המחירים
המחלה
המחלוקת
המחלות
המחליף
המחלק
המחלקה
המחלקות
המחמיר
המחנה
המחנות
המחסור
המחצית
המחק
המחקר
המחקרים
המחרישה
המחרת
המחשב
המחשבה
המחשבות
המחשבים
המחשוב
המחתרת
המטאל
המטבח
המטבע
המטבעות
המטה
המטוס
המטוסים
המטופל
המטופלים
המטות
המטלטלין
המטען
המטפל
המטר
המטרה
המטרו
המטרופוליטן
המטרופולין
המטרות
המי
המידה
המידות
המידע
המיוחד
המיוחדות
המיוחדים
המיוחדת
המיוחס
המיון
המיועד
המיועדות
המיועדים
המיועדת
המיוצר
המיזוג
המיזם
המיטה
המייסד
המייסדים
המייעצת
המייצג
המייצגים
המייצגת
המילה
המילואים
המילוי
המילון
המילטון
המילים
המיליציה
המילניום
המים
המימון
המימן
המין
המינהל
המינוי
המיני
המיניות
המינים
המינימום
המינימלי
המינין
המינית
המינרל
המינרלים
המיסים
המיסיסיפי
המיעוט
המיעוטים
המיקום
המיקל
המיר
המירוץ
המישור
המית
המיתה
המיתולוגיה
המיתוס
המיתקן
המיתרים
המכ
המכביה
המכה
המכהן
המכהנת
המכוון
המכון
המכונה
המכונות
המכוניות
המכונים
המכונית
המכות
המכיל
המכילה
המכילות
המכילים
המכינה
המכירה
המכירות
המכללה
המכללות
המכס
המכסה
המכפלה
המכר
המכרות
המכרז
המכרזים
המכריע
המכשיר
המכשירים
המכשפה
המכשפות
המכתב
המכתבים
המל
המלא
המלאה
המלאי
המלאים
המלאך
המלאכה
המלאכות
המלאכים
המלה
המלו
המלוה
המלווה
המלווים
המלוכה
המלון
המלח
המלחים
המלחין
המלחינים
המלחמה
המלחמות
המלחמתי
המלט
המלים
המליץ
המליצה
המלך
המלכה
המלכות
המלכותי
המלכותית
המלכים
המלמד
המלצה
המלצות
המלצת
המלקט
הממון
הממונה
הממונים
הממוצע
הממוצעת
הממוקם
הממוקמים
הממוקמת
הממלא
הממלוכים
הממלכה
הממלכות
הממלכתי
הממלכתית
הממסד
הממצאים
הממשי
הממשל
הממשלה
הממשלות
הממשלתי
הממשלתיות
הממשלתית
המן
המנגנון
המנדט
המנדטורית
המנה
המנהג
המנהגים
המנהיג
המנהיגות
המנהיגים
המנהל
המנהלי
המנהלים
המנהלת
המנהרה
המנהרות
המנוח
המנוחה
המנוי
המנויות
המנויים
המנון
המנונא
המנוע
המנועים
המנוקדת
המנורה
המנזר
המנחה
המנחות
המניות
המניח
המניין
המנין
המניע
המניעה
המנכ
המנסה
המנצח
המנצחים
המנצחת
המס
המסגד
המסגרות
המסגרת
המסדר
המסה
המסוגל
המסוכן
המסוכנים
המסופר
המסוק
המסוקים
המסור
המסורה
המסורות
המסורת
המסורתי
המסורתיות
המסורתיים
המסורתית
המסחר
המסחרי
המסחריים
המסחרית
המסייע
המסילה
המסים
המסירה
המסך
המסכת
המסלול
המסלולים
המסמך
המסמכים
המסמל
המסע
המסעדה
המסעדות
המסעות
המספק
המספקת
המספר
המספרים
המסקנא
המסקנה
המסר
המסתורי
המסתורין
המע
המעבד
המעבדה
המעבורת
המעביד
המעביר
המעבר
המעגל
המעולה
המעון
המעוניינים
המעופף
המעורב
המעורבות
המעורבים
המעות
המעט
המעטים
המעטפת
המעי
המעיד
המעידים
המעיין
המעיינות
המעין
המעלה
המעלות
המעמד
המעמדות
המעמיד
המעניק
המעסיק
המעפילים
המעצמות
המעצר
המעקב
המערב
המערבי
המערביות
המערביים
המערבית
המערה
המערות
המעריצים
המערך
המערכה
המערכות
המערכת
המערער
המעשה
המעשי
המעשים
המעשית
המעשר
המעשרות
המפגינים
המפגש
המפגשים
המפד
המפה
המפואר
המפורט
המפורטות
המפורטים
המפורסם
המפורסמות
המפורסמים
המפורסמת
המפורש
המפות
המפטון
המפיק
המפיקים
המפלגה
המפלגות
המפלצת
המפלת
המפנה
המפעיל
המפעילה
המפעל
המפעלים
המפץ
המפקד
המפקדה
המפקדים
המפקח
המפקיד
המפר
המפרט
המפריד
המפריש
המפרץ
המפרק
המפרש
המפרשים
המפשייר
המפתח
המפתחות
המצאה
המצאת
המצב
המצבה
המצביא
המצבים
המצביעים
המצה
המצודה
המצוה
המצווה
המצוות
המצוי
המצויה
המצויים
המצוין
המצוינים
המצור
המצורע
המצות
המצח
המצטיין
המצטיינים
המציא
המציאה
המציאות
המציג
המציגה
המציגים
המציין
המציע
המצליח
המצליחה
המצליחים
המצלמה
המצניע
המצע
המצעד
המצעדים
המצפה
המצר
המצרי
המצריים
המצרים
המצרית
המקביל
המקבילה
המקבילים
המקבל
המקבלים
המקדים
המקדימות
המקדיש
המקדש
המקדשים
המקהלה
המקובל
המקובלות
המקובלים
המקובלת
המקודש
המקוה
המקוון
המקוונת
המקום
המקומות
המקומי
המקומיות
המקומיים
המקומית
המקור
המקורות
המקורי
המקוריות
המקוריים
המקורית
המקח
המקיים
המקיף
המקיפה
המקיפים
המקל
המקלט
המקנה
המקסימלי
המקסימלית
המקסיקני
המקסיקנית
המקצוע
המקצועות
המקצועי
המקצועיים
המקצועית
המקצוענית
המקרא
המקראות
המקראי
המקראית
המקרה
המקריב
המקרים
המקרקעין
המקשה
המקשר
המר
המראה
המראות
המרבה
המרבי
המרבית
המרגלים
המרד
המרדכי
המרדף
המרה
המרובה
המרובע
המרוחק
המרוץ
המרוצים
המרחב
המרחץ
המרחק
המרים
המרכבה
המרכז
המרכזי
המרכזיות
המרכזיים
המרכזים
המרכזית
המרכיב
המרכיבות
המרכיבים
המרקיז
המרת
המשא
המשאבים
המשאיל
המשבר
המשדר
המשודרת
המשוואה
המשווה
המשוונית
המשולב
המשולבים
המשולבת
המשולש
המשוער
המשורר
המשוררים
המשוררת
המשותף
המשותפים
המשותפת
המשחה
המשחק
המשחקים
המשחקת
המשחתות
המשחתת
המשטח
המשטר
המשטרה
המשי
המשיב
המשיח
המשיך
המשיכה
המשיכו
המשימה
המשימות
המשך
המשכב
המשכה
המשכון
המשכיל
המשכילים
המשכיר
המשכן
המשכת
המשל
המשלב
המשלבת
המשלוח
המשלח
המשלחת
המשלים
המשמעות
המשמעותי
המשמעותיים
המשמעותית
המשמעת
המשמר
המשמרות
המשמרת
המשמש
המשמשות
המשמשים
המשמשת
המשנה
המשניות
המשפחה
המשפחות
המשפחתי
המשפחתית
המשפט
המשפטי
המשפטיים
המשפטים
המשפטית
המשפיע
המשפיעות
המשפיעים
המשק
המשקה
המשקוף
המשקים
המשקין
המשקיעים
המשקיף
המשקל
המשקעים
המשרד
המשרדים
המשרה
המשרת
המשרתים
המשרתת
המשתה
המשתלח
המשתמש
המשתמשים
המשתנה
המשתנים
המשתרע
המשתתפות
המשתתפים
המת
המתאים
המתאימה
המתאימות
המתאימים
המתאר
המתארים
המתארת
המתגורר
המתגוררים
המתגלה
המתה
המתואר
המתוארים
המתוארת
המתוכנן
המתוכננת
המתופף
המתח
המתחיל
המתחם
המתחרה
המתחרים
המתיחות
המתייחס
המתייחסים
המתיישבים
המתים
המתין
המתיר
המתכות
המתכת
המתמודד
המתמודדים
המתמודדת
המתמחה
המתמטיקאי
המתמטיקה
המתמשך
המתנגדים
המתנדבים
המתנה
המתנות
המתעסק
המתפלל
המתפללים
המתקבל
המתקבלת
המתקדם
המתקדמים
המתקיים
המתקן
המתקנים
המתקפה
המתרגם
המתרחש
המתרחשים
המתרחשת
הן
הנ
הנאה
הנאו
הנאוליתית
הנאום
הנאות
הנאכל
הנאמן
הנאמנות
הנאמנים
הנאמר
הנאמרים
הנאצי
הנאצים
הנאצית
הנאשם
הנאשמים
הנאת
הנאתו
הנבדלים
הנבדק
הנבואה
הנבחר
הנבחרות
הנבחרים
הנבחרת
הנביא
הנביאים
הנבל
הנבלה
הנבראים
הנגב
הנגד
הנגדי
הנגזל
הנגזרת
הנגיד
הנגינה
הנגיף
הנגישות
הנגלה
הנגע
הנגעים
הנגרמת
הנדה
הנדון
הנדחת
הנדל
הנדלזלץ
הנדסה
הנדסי
הנדסת
הנדר
הנדרים
הנדריקס
הנדרסון
הנדרש
הנדרשות
הנדרשים
הנדרשת
הנה
הנהג
הנהגה
הנהגים
הנהגת
הנהגתו
הנהו
הנהוג
הנהיג
הנהיגה
הנהלה
הנהלת
הנהנה
הנהנין
הנהר
הנהרות
הנו
הנובע
הנובעות
הנובעים
הנובעת
הנובר
הנוגע
הנוגעות
הנוגעים
הנוגעת
הנוד
הנודע
הנודר
הנוהג
הנוהגים
הנוזל
הנוטה
הנוטל
הנוטע
הנוכחות
הנוכחי
הנוכחיים
הנוכחים
הנוכחית
הנולד
הנולדים
הנוסח
הנוסחא
הנוסחאות
הנוסחה
הנוסע
הנוסעים
הנוסף
הנוספות
הנוספים
הנוספת
הנוער
הנוף
הנופל
הנופלים
הנופש
הנוצר
הנוצרי
הנוצריות
הנוצרים
הנוצרית
הנוצרת
הנוקבא
הנוקמים
הנורא
הנוראים
הנורווגי
הנורווגית
הנושא
הנושאים
הנושאת
הנותן
הנותנת
הנותר
הנותרות
הנותרים
הנז
הנזיקין
הנזיר
הנזירות
הנזירים
הנזכר
הנזכרות
הנזכרים
הנזכרת
הנזק
הנזקים
הנזקין
הנח
הנחה
הנחושת
הנחות
הנחיה
הנחיות
הנחיתה
הנחל
הנחלה
הנחלים
הנחש
הנחשב
הנחשבים
הנחשבת
הנחשים
הנחת
הנחתה
הנחתים
הנטייה
הנטילה
הני
הניב
הניגון
הנידון
הניהול
הניו
הניווט
הניזק
הניזקין
הניח
הניחא
הניחה
הניחו
הנייר
הנילוס
הנינג
הניסוי
הניסויים
הניסיון
הניסיונות
הניצב
הניצולים
הניצחון
הניצחונות
הניקוד
הניקוז
הנישואים
הנישואין
הנישום
הניתוח
הניתן
הניתנות
הניתנים
הניתנת
הנך
הנכבד
הנכון
הנכונה
הנכות
הנכים
הנכנס
הנכנסים
הנכס
הנכסים
הנכרי
הנכרים
הנלווה
הנם
הנמוך
הנמוכה
הנמוכות
הנמוכים
הנמכר
הנמכרים
הנמל
הנמלים
הנמצא
הנמצאות
הנמצאים
הנמצאת
הנמר
הנמשך
הנמשכים
הנמשכת
הננו
הנני
הנס
הנסיבות
הנסיגה
הנסיון
הנסיך
הנסיכה
הנסיכות
הנסיכים
הנסים
הנסיעה
הנסקל
הנסתר
הנע
הנעה
הנעורים
הנעים
הנעל
הנעלה
הנעלם
הנער
הנערה
הנערות
הנערים
הנערך
הנעשה
הנעשים
הנעשית
הנפגע
הנפגעים
הנפה
הנפוץ
הנפוצה
הנפוצות
הנפוצים
הנפח
הנפט
הנפטר
הנפילה
הנפץ
הנפקד
הנפקת
הנפש
הנפשה
הנפשות
הנפשי
הנפשית
הנץ
הנצח
הנצחה
הנצחי
הנציב
הנציבות
הנציג
הנציגים
הנצרות
הנק
הנקב
הנקבה
הנקבות
הנקבים
הנקוב
הנקודה
הנקודות
הנקי
הנקמה
הנקרא
הנקראות
הנקראים
הנקראת
הנר
הנראה
הנראים
הנראית
הנרות
הנרחב
הנרי
הנרייטה
הנריק
הנשאר
הנשארים
הנשבע
הנשבעין
הנשה
הנשואין
הנשי
הנשיא
הנשיאה
הנשיאות
הנשיאותי
הנשיאותית
הנשיאים
הנשים
הנשימה
הנשית
הנשמה
הנשמות
הנשק
הנשר
הנשרפין
הנתבע
הנתון
הנתונה
הנתונות
הנתונים
הנתיב
הנתינה
הנתק
הס
הסב
הסבא
הסבה
הסבון
הסבורים
הסבות
הסביבה
הסביר
הסבירה
הסבירות
הסבל
הסבר
הסברא
הסברה
הסברים
הסגל
הסגנון
הסגר
הסדיר
הסדירה
הסדר
הסדרה
הסדרות
הסדרים
הסדרת
הסהר
הסובב
הסובבים
הסובייטי
הסובייטיים
הסובייטים
הסובייטית
הסובלים
הסוברים
הסוג
הסוגיא
הסוגיה
הסוגים
הסוד
הסודות
הסודי
הסודית
הסודר
הסוהר
הסוחר
הסוחרים
הסוכה
הסוכות
הסוכן
הסוכנות
הסוכר
הסולו
הסולטאן
הסוללה
הסולם
הסולן
הסוס
הסוסים
הסוף
הסופי
הסופית
הסופר
הסופרים
הסופרת
הסוציאל
הסוציאליזם
הסוציאליסטי
הסוציאליסטית
הסורי
הסורים
הסורית
הסחורה
הסחורות
הסחר
הסט
הסטודיו
הסטודנטים
הסטטוס
הסטנדרטי
הסטרימינג
הסיבה
הסיבוב
הסיבות
הסידור
הסיום
הסיומת
הסיוע
הסיור
הסייבר
הסיירת
הסיכוי
הסיכויים
הסיכון
הסיכונים
הסימון
הסימן
הסימנים
הסימפוניה
הסימפונית
הסינגל
הסינגלים
הסיני
הסינים
הסינית
הסיסמה
הסיעה
הסיפון
הסיפור
הסיפורים
הסיק
הסיר
הסירה
הסירו
הסירות
הסך
הסכום
הסכומים
הסכים
הסכימה
הסכימו
הסכין
הסכך
הסכם
הסכמה
הסכמות
הסכמי
הסכמים
הסכמת
הסכמתו
הסכנה
הסכסוך
הסכר
הסל
הסלג
הסלים
הסלע
הסלעים
הסמ
הסמוך
הסמוכה
הסמוכות
הסמוכים
הסמיך
הסמיכה
הסמיכו
הסמים
הסמכה
הסמכויות
הסמכות
הסמל
הסמלים
הסן
הסנאט
הסנאטור
הסנדל
הסנדלר
הסנה
הסנהדרין
הסנטר
הסניף
הסעד
הסעה
הסעודה
הסעודית
הסעיף
הסעיפים
הסער
הסערה
הסף
הספד
הספורט
הספורטאים
הספינה
הספינות
הספיק
הספיקה
הספיקו
הספיקות
הספירה
הספירות
הספנות
הספסל
הספציפי
הספק
הספקות
הספקטרום
הספר
הספרא
הספרדי
הספרדים
הספרדית
הספרות
הספרותי
הספרותית
הספרי
הספריה
הספריות
הספרייה
הספרים
הספרנים
הסצנה
הסקוטי
הסקוטית
הסקי
הסקר
הסרבי
הסרבים
הסרבית
הסרה
הסרט
הסרטון
הסרטונים
הסרטים
הסרטן
הסרת
הסתבר
הסתברות
הסתגלות
הסתדרות
הסתה
הסתיו
הסתיים
הסתיימה
הסתיימו
הסתירה
הסתכלות
הסתכם
הסתם
הסתפק
הסתר
הסתרים
הע
העבד
העבדות
העבדים
העבודה
העבודות
העביר
העבירה
העבירו
העבירות
העבר
העברה
העברות
העברי
העבריה
העבריים
העברים
העברית
העברת
העברתו
העגול
העגל
העגלה
העד
העדה
העדויות
העדות
העדים
העדיף
העדיפו
העדכון
העדן
העדפה
העדר
העו
העובד
העובדה
העובדות
העובדי
העובדים
העובדת
העובר
העוברים
העוברת
העודף
העוה
העוז
העוזר
העול
העולה
העולות
העולים
העולם
העולמות
העולמי
העולמים
העולמית
העומד
העומדות
העומדים
העומדת
העומס
העומק
העומר
העון
העונה
העונות
העוני
העונש
העונשים
העונשין
העוסק
העוסקות
העוסקים
העוסקת
העוף
העופות
העוצמה
העוקבת
העוקץ
העור
העורב
העורך
העורכים
העורף
העורקים
העושה
העושים
העושר
העות
העז
העזה
העזים
העזר
העזרה
העט
העטיפה
העטלף
העטרה
העי
העיבוד
העיבור
העיגול
העיד
העידה
העידו
העידן
העיון
העיט
העיטור
העיירה
העיירות
העיכול
העילית
העימות
העין
העיניים
העינים
העיסה
העיסוק
העיצוב
העיצום
העיקר
העיקרון
העיקרי
העיקריות
העיקריים
העיקרים
העיקרית
העיר
העיראקי
העיראקית
העירוב
העירוני
העירוניים
העירונית
העיריה
העיריות
העירייה
העיתון
העיתונאי
העיתונאים
העיתונאית
העיתונות
העיתונים
העכבר
העכו
העכשווית
העל
העלאה
העלאת
העלה
העלו
העלויות
העלול
העלולים
העלות
העליה
העליון
העליונה
העליונות
העליונים
העליות
העלייה
העלילה
העלילתי
העלים
העלין
העלם
העלמה
העלמין
העלתה
העם
העמד
העמדה
העמדות
העמדת
העמוד
העמודים
העמוק
העמוקה
העמותה
העמיד
העמידה
העמידו
העמים
העממי
העממית
העמק
העמקים
הענבים
הענוה
העני
העניים
העניין
העניינים
הענין
הענינים
העניק
העניקה
העניקו
הענן
העננים
הענף
הענפים
הענק
הענקת
העסק
העסקה
העסקי
העסקיים
העסקים
העסקית
העסקת
העפיל
העפילה
העפילו
העפלה
העפר
העץ
העצב
העצבים
העצה
העצום
העצומה
העצים
העצם
העצמאות
העצמאי
העצמאית
העצמות
העצמי
העצמית
העצר
העצרת
העקידה
העקר
העקרונות
הערב
הערבה
הערבות
הערבי
הערביות
הערביים
הערבים
הערבית
הערה
הערובה
הערוה
הערוך
הערוץ
הערוצים
הערות
העריות
העריך
העריכה
העריכו
הערים
הערך
הערכה
הערכות
הערכים
הערכת
הערל
הערלה
הערמה
הערעור
הערר
הערת
העשה
העשוי
העשויה
העשויות
העשויים
העשור
העשורים
העשיה
העשייה
העשיל
העשיר
העשירה
העשירות
העשירי
העשירים
העשירית
העשן
העשר
העשרה
העשרים
העת
העתודה
העתיד
העתידה
העתידי
העתידית
העתים
העתיק
העתיקה
העתיקו
העתיקות
העתיקים
העתירה
העתק
העתקה
העתקים
העתקת
הפ
הפאה
הפאן
הפאנצר
הפאנק
הפאראלימפיים
הפארק
הפארקים
הפגין
הפגינו
הפגיעה
הפגישה
הפגם
הפגנה
הפגנות
הפגנת
הפדיון
הפדרלי
הפדרליים
הפדרלית
הפדרציה
הפה
הפואמה
הפוגע
הפודקאסט
הפוטבול
הפוטנציאל
הפוך
הפוכה
הפולחן
הפוליטי
הפוליטיות
הפוליטיים
הפוליטיקה
הפוליטית
הפולני
הפולנים
הפולנית
הפולשים
הפונה
הפונקציה
הפונקציות
הפוסט
הפוסק
הפוסקים
הפועל
הפועלות
הפועלים
הפועלת
הפופ
הפופולרי
הפופולריות
הפופולריים
הפופולרית
הפורום
הפורח
הפורטוגזי
הפורטוגזים
הפורטוגזית
הפורטוגלי
הפורטוגלית
הפורים
הפורמולה
הפורמט
הפורענות
הפורש
הפושעים
הפותח
הפותחת
הפזמון
הפזמונים
הפחד
הפחות
הפחם
הפחמן
הפחת
הפחתה
הפחתת
הפטור
הפטיש
הפטנט
הפטריארך
הפטרת
הפי
הפיגוע
הפיגועים
הפיוט
הפיזי
הפיזיקאי
הפיזיקה
הפיזית
הפיילוט
הפייסבוק
הפיך
הפיכה
הפיכת
הפיל
הפילה
הפילהרמונית
הפילוג
הפילוסוף
הפילוסופיה
הפילוסופים
הפילוסופית
הפילים
הפיליפינים
הפינה
הפינוי
הפיני
הפינית
הפיננסי
הפיס
הפיסול
הפיצוי
הפיצויים
הפיצול
הפיצוץ
הפיק
הפיקה
הפיקו
הפיקוד
הפיקוח
הפיראטים
הפירוק
הפירוש
הפירושים
הפירות
הפיתוח
הפך
הפכה
הפכו
הפלא
הפלאה
הפלאות
הפלג
הפלגה
הפלדה
הפלה
הפלוגה
הפלות
הפלט
הפליג
הפליגה
הפליגו
הפליטה
הפליטים
הפלייאוף
הפלילי
הפלילית
הפלישה
הפלמ
הפלסטיני
הפלסטינים
הפלסטינית
הפלשתים
הפלת
הפמ
הפמיניזם
הפמיניסטית
הפנאי
הפנה
הפנוי
הפנטזיה
הפניה
הפנייה
הפנים
הפנימי
הפנימיות
הפנימיים
הפנימים
הפנימית
הפנסיה
הפס
הפסגה
הפסד
הפסדים
הפסול
הפסולים
הפסולין
הפסולת
הפסוק
הפסוקים
הפסח
הפסחא
הפסטיבל
הפסיד
הפסידה
הפסידו
הפסיכולוגי
הפסיכולוגיה
הפסים
הפסיק
הפסיקה
הפסיקו
הפסל
הפסלים
הפסנתר
הפסנתרן
הפסק
הפסקה
הפסקול
הפסקת
הפעולה
הפעולות
הפעיל
הפעילה
הפעילו
הפעילויות
הפעילות
הפעילים
הפעל
הפעלה
הפעלת
הפעם
הפעמון
הפעמונים
הפעמים
הפער
הפערים
הפצה
הפצוע
הפצועים
הפציעה
הפצצה
הפצצות
הפצת
הפקדון
הפקדת
הפקה
הפקודה
הפקודות
הפקודים
הפקולטה
הפקות
הפקיד
הפקידים
הפקיר
הפקעת
הפקר
הפקת
הפר
הפרדה
הפרדס
הפרדת
הפרה
הפרו
הפרובינציה
הפרובינציות
הפרווה
הפרוטוקול
הפרוטסטנטית
הפרויקט
הפרויקטים
הפרוכת
הפרוסי
הפרופסור
הפרוץ
הפרושים
הפרות
הפרח
הפרחים
הפרט
הפרטי
הפרטיות
הפרטיזנים
הפרטיים
הפרטים
הפרטית
הפרי
הפרידה
הפריחה
הפריטים
הפריצה
הפריש
הפרישה
הפרלמנט
הפרלמנטרית
הפרמטרים
הפרמייר
הפרנסה
הפרס
הפרסום
הפרסומים
הפרסי
הפרסים
הפרסית
הפרעה
הפרעון
הפרעות
הפרעת
הפרק
הפרקים
הפרקליט
הפרקליטות
הפרש
הפרשה
הפרשות
הפרשי
הפרשיות
הפרשים
הפרשנות
הפרשנים
הפרשת
הפרת
הפשוט
הפשוטה
הפשוטים
הפשט
הפשיטה
הפשיטתא
הפשיסטית
הפשיעה
הפשע
הפשרה
הפת
הפתוח
הפתוחה
הפתוחים
הפתח
הפתחים
הפתיחה
הפתילה
הפתעה
הפתרון
הפתרונות
הצ
הצאן
הצאר
הצבא
הצבאות
הצבאי
הצבאיות
הצבאיים
הצבאית
הצבור
הצבי
הצביע
הצביעה
הצביעו
הצבע
הצבעה
הצבעים
הצבת
הצגה
הצגות
הצגת
הצד
הצדדים
הצדדין
הצדוקים
הצדיק
הצדיקים
הצדק
הצדקה
הצהוב
הצהיר
הצהירה
הצהירו
הצהרה
הצהרות
הצהריים
הצהרים
הצהרת
הצו
הצואה
הצואר
הצוואה
הצוואר
הצוות
הצוללות
הצוללת
הצום
הצומח
הצומת
הצופה
הצופים
הצופן
הצור
הצורה
הצורות
הצורך
הצטברות
הצטיין
הצטיינות
הצטרף
הצטרפה
הצטרפו
הצטרפות
הצי
הציב
הציבו
הציבור
הציבורי
הציבוריות
הציבוריים
הציבורית
הציג
הציגה
הציגו
הציד
הציוד
הציווי
הציון
הציונות
הציוני
הציוניות
הציונים
הציונית
הציור
הציורים
הצייד
הצייר
הציירים
הציל
הצילה
הצילו
הצילום
הצילומים
הצינור
הציע
הציעה
הציעו
הציפור
הציפורים
הציץ
הציצית
הציר
הצירוף
הצירים
הצל
הצלב
הצלבני
הצלבנים
הצלבנית
הצלה
הצלחה
הצלחות
הצלחת
הצלחתה
הצלחתו
הצליח
הצליחה
הצליחו
הצליל
הצלילים
הצללים
הצלם
הצלמים
הצלע
הצלעות
הצלת
הצמד
הצמדה
הצמוד
הצמח
הצמחייה
הצמחים
הצמיחה
הצמצום
הצמר
הצנזורה
הצנחנים
הצעד
הצעדים
הצעה
הצעות
הצעיר
הצעירה
הצעירות
הצעירים
הצער
הצעת
הצעתו
הצפוי
הצפויה
הצפון
הצפוני
הצפוניים
הצפונית
הצפיות
הצפייה
הצפיפות
הצפירה
הצפנה
הצצה
הצר
הצרה
הצרות
הצריח
הצריך
הצריכה
הצריכו
הצריכים
הצרכים
הצרכן
הצרכנים
הצרעת
הצרפתי
הצרפתיים
הצרפתים
הצרפתית
הק
הקאמרי
הקאמרית
הקאנטרי
הקב
הקבה
הקבוע
הקבועה
הקבועות
הקבועים
הקבוצה
הקבוצות
הקבוצתית
הקבורה
הקבינט
הקבלה
הקבלן
הקבע
הקבצים
הקבר
הקברות
הקברים
הקדום
הקדומה
הקדומות
הקדומים
הקדוש
הקדושה
הקדושות
הקדושים
הקדושין
הקדים
הקדימה
הקדימו
הקדירה
הקדיש
הקדישה
הקדישו
הקדם
הקדמה
הקדמון
הקדמונים
הקדמות
הקדמי
הקדמיות
הקדמית
הקדמת
הקדרה
הקדש
הקדשה
הקדשים
הקהילה
הקהילות
הקהילתי
הקהל
הקו
הקואליציה
הקובע
הקובעת
הקובץ
הקוד
הקודם
הקודמות
הקודמים
הקודמת
הקודש
הקווים
הקוונטים
הקווקז
הקוטב
הקול
הקולג
הקולוניאלי
הקולוניאלית
הקולונל
הקולות
הקולנוע
הקולנועי
הקולנועיים
הקולנועית
הקומדיה
הקומה
הקומונה
הקומוניזם
הקומוניסטי
הקומוניסטים
הקומוניסטית
הקומות
הקומי
הקומיקס
הקומית
הקומנדו
הקומץ
הקונגרס
הקונה
הקונטרס
הקונסול
הקונסוליה
הקונסולרי
הקונספט
הקונפדרציה
הקונצ
הקונצרטים
הקוסם
הקוף
הקופה
הקופות
הקופים
הקור
הקורא
הקוראים
הקוראן
הקוראת
הקורבן
הקורבנות
הקורה
הקורונה
הקורות
הקוריאני
הקורס
הקורפוס
הקושי
הקושיא
הקושרים
הקטגוריות
הקטור
הקטורת
הקטין
הקטן
הקטנה
הקטנות
הקטנים
הקטנת
הקטע
הקטעים
הקטר
הקטרה
הקטרת
הקיבה
הקיבוץ
הקיבוצים
הקיבוצית
הקידוש
הקידושין
הקיום
הקיטור
הקיים
הקיימות
הקיימים
הקיימת
הקילו
הקים
הקימה
הקימו
הקיסר
הקיסרות
הקיסרי
הקיסרים
הקיסרית
הקיף
הקיפו
הקיץ
הקיצוני
הקיר
הקירות
הקישור
הקל
הקלאסי
הקלאסיים
הקלאסית
הקלדה
הקלה
הקלו
הקלות
הקלט
הקלטה
הקלטות
הקלטת
הקליט
הקליטה
הקליטו
הקלים
הקליפ
הקליפה
הקליפות
הקללה
הקלע
הקלעים
הקלף
הקלפי
הקלפים
הקמה
הקמח
הקמפוס
הקמפיין
הקמת
הקמתה
הקמתו
הקן
הקנאה
הקנדי
הקנדית
הקנה
הקניון
הקניות
הקניין
הקנים
הקנין
הקנס
הקסם
הקסמים
הקערה
הקפדה
הקפה
הקפטן
הקפיד
הקפידה
הקפידו
הקפיטול
הקפיטליזם
הקפיצה
הקפלה
הקץ
הקצאת
הקצב
הקצבה
הקצה
הקצוות
הקצין
הקצינים
הקציר
הקצר
הקצרה
הקצרים
הקר
הקראים
הקרב
הקרבה
הקרבות
הקרבית
הקרבן
הקרבנות
הקרבת
הקרדינל
הקרה
הקרואטית
הקרוב
הקרובה
הקרובות
הקרובים
הקרוי
הקרויה
הקרויים
הקרום
הקרון
הקרח
הקרחון
הקרטיקון
הקריאה
הקריב
הקריבו
הקריבי
הקריביים
הקריה
הקריטריונים
הקריירה
הקרינה
הקרמלין
הקרן
הקרנות
הקרניים
הקרנת
הקרע
הקרקע
הקרקעות
הקרשים
הקש
הקשב
הקשה
הקשו
הקשור
הקשורה
הקשורות
הקשורים
הקשות
הקשיים
הקשים
הקשר
הקשרים
הקשת
הקשתות
הקתדרה
הקתדרלה
הקתולי
הקתולים
הקתולית
הר
הרא
הראב
הראה
הראו
הראוי
הראויה
הראויים
הראות
הראי
הראיה
הראיון
הראיות
הראייה
הראל
הראפ
הראפר
הראש
הראשון
הראשונה
הראשונות
הראשוני
הראשוניים
הראשונים
הראשונית
הראשי
הראשיות
הראשיים
הראשים
הראשית
הראתה
הרב
הרבה
הרבו
הרבות
הרבי
הרבייה
הרבים
הרביעי
הרביעייה
הרביעית
הרבית
הרבנות
הרבני
הרבנים
הרבנית
הרברט
הרג
הרגה
הרגו
הרגיל
הרגילה
הרגילות
הרגילים
הרגימנט
הרגיש
הרגישה
הרגישו
הרגל
הרגלי
הרגליים
הרגלים
הרגע
הרגש
הרגשה
הרגשות
הרגשי
הרגשת
הרגשתי
הרד
הרדב
הרדיו
הרדינג
הרדיקלי
הרה
הרהור
הרהורים
הרואה
הרואים
הרוב
הרובאים
הרובה
הרובע
הרוג
הרוגי
הרוגים
הרודוטוס
הרווארד
הרווח
הרווחה
הרווחים
הרווחת
הרוויח
הרוזן
הרוח
הרוחב
הרוחות
הרוחני
הרוחניות
הרוחניים
הרוחנית
הרוטב
הרוכב
הרוכבים
הרולד
הרולינג
הרומאי
הרומאים
הרומאית
הרומי
הרומיים
הרומית
הרומן
הרומנטית
הרומני
הרומנים
הרומנית
הרוסי
הרוסיים
הרוסים
הרוסית
הרוע
הרועה
הרועים
הרופא
הרופאים
הרוצה
הרוצח
הרוצחים
הרוק
הרוקח
הרוקי
הרושם
הרז
הרחב
הרחבה
הרחבות
הרחבת
הרחוב
הרחובות
הרחוק
הרחוקים
הרחיב
הרחיבה
הרחיק
הרחם
הרחמים
הרחמן
הרחק
הרחקה
הרחקת
הרטמן
הרי
הריא
הריאה
הריאות
הריאלי
הריב
הריבוי
הריבונות
הריבית
הריגה
הריגול
הריגת
הריוח
הריון
הריח
הריטב
הרייך
הריין
הריכוז
הרים
הריני
הריסון
הריסת
הריצה
הריק
הריקוד
הרישוי
הרישום
הרישיון
הרך
הרכב
הרכבה
הרכבות
הרכבים
הרכבת
הרכוש
הרכיב
הרכיבים
הרכישה
הרכס
הרכש
הרלוונטיים
הרם
הרמ
הרמב
הרמה
הרמוני
הרמוניה
הרמות
הרמז
הרמטכ
הרמיקס
הרמן
הרמת
הרן
הרנסאנס
הרס
הרסו
הרע
הרעב
הרעה
הרעות
הרעיון
הרעיונות
הרעים
הרעש
הרף
הרפאים
הרפואה
הרפואי
הרפואיים
הרפואית
הרפובליקה
הרפובליקני
הרפובליקנים
הרפובליקנית
הרפורמה
הרפורמות
הרפורמית
הרפורמציה
הרפז
הרפר
הרפתקאות
הרפתקאותיו
הרץ
הרצאה
הרצאות
הרצה
הרצוג
הרצוי
הרצויה
הרצון
הרצועה
הרצועות
הרצח
הרצל
הרצליה
הרצף
הרצפה
הרקולס
הרקטות
הרקיע
הרקע
הררי
הרריים
הרש
הרשאה
הרשב
הרשויות
הרשום
הרשומות
הרשומים
הרשות
הרשיון
הרשימה
הרשל
הרשם
הרשמה
הרשמי
הרשמיות
הרשמיים
הרשמית
הרשע
הרשעה
הרשעים
הרשקוביץ
הרשת
הרשתות
הש
השאה
השאול
השאיפה
השאיר
השאירו
השאלה
השאלות
השאר
השב
השבה
השבויים
השבוע
השבועה
השבועון
השבועות
השבועי
השבות
השבח
השבחה
השבט
השבטים
השבי
השביל
השבים
השביעי
השביעית
השבירה
השביתה
השבע
השבעה
השבעים
השבר
השברים
השבת
השגה
השגות
השגחה
השגחת
השגחתו
השגריר
השגרירות
השגת
השד
השדה
השדות
השדים
השדרה
השה
השהייה
השו
השואה
השואל
השובר
השודדים
השוה
השוו
השוואה
השוואת
השוודי
השוודים
השוודית
השווה
השווי
השוויון
השווייצרי
השווייצרית
השוחט
השוטף
השוטר
השוטרים
השוכן
השוכנים
השוכנת
השוכר
השולח
השולחן
השולט
השוליים
השום
השומה
השומן
השומע
השומעים
השומר
השומרון
השומרונים
השומרים
השונה
השונות
השוני
השונים
השועל
השוער
השופט
השופטים
השופטת
השופר
השוק
השור
השורה
השורות
השורש
השורשים
השושלת
השותף
השותפות
השותפים
השותפין
השחור
השחורה
השחורות
השחורים
השחי
השחיטה
השחייה
השחין
השחיתות
השחמט
השחקים
השחקן
השחקנים
השחקנית
השחר
השחרור
השחתה
השטח
השטחים
השטן
השטעטל
השטר
השטרות
השי
השיא
השיב
השיבה
השיבו
השיג
השיגה
השיגו
השיגור
השידור
השידורים
השיווק
השיח
השיחה
השיחות
השיט
השיטה
השיטות
השייח
השייטת
השייך
השייכות
השייכים
השייכת
השיירה
השיירות
השיכון
השילוב
השילוח
השילוש
השימור
השימוש
השינה
השינוי
השינויים
השיניים
השיעור
השיעורים
השיעים
השיער
השיפוט
השיפוץ
השיק
השיקה
השיקום
השיר
השירה
השירות
השירותים
השירים
השישה
השישי
השישים
השישית
השכבה
השכבות
השכונה
השכונות
השכחה
השכינה
השכיר
השכירות
השכל
השכלה
השכלי
השכלית
השכלתו
השכם
השכן
השכנה
השכנות
השכנים
השכר
השל
השלב
השלבים
השלג
השלד
השלום
השלוש
השלושה
השלושים
השלחין
השלחן
השלט
השלטון
השלטונות
השלטת
השליח
השליחות
השליחים
השליט
השליטה
השליטים
השליך
השליכו
השלילי
השלים
השלימה
השלימו
השלימות
השליש
השלישי
השלישייה
השלישית
השלכות
השלל
השלם
השלמה
השלמות
השלמים
השלמת
השלש
השלשה
השם
השמאל
השמאלי
השמאלית
השמד
השמדה
השמדת
השמונה
השמונים
השמועה
השמועות
השמורה
השמות
השמחה
השמטה
השמטות
השמטת
השמיט
השמיטה
השמיטו
השמיים
השמים
השמימה
השמיני
השמינית
השמיע
השמיעה
השמירה
השמלה
השמן
השמע
השמעות
השמעת
השמר
השמרני
השמרנים
השמרנית
השמש
השמשות
השן
השנאה
השנה
השנהב
השנוי
השני
השניה
השניות
השנייה
השניים
השנים
השנית
השנתי
השנתיים
השנתית
השעבוד
השעה
השעון
השעורים
השעות
השעיר
השער
השערה
השערות
השערים
השערת
השעשועים
השף
השפה
השפות
השפחה
השפיע
השפיעה
השפיעו
השפל
השפלה
השפע
השפעה
השפעות
השפעת
השפעתה
השפעתו
השפעתם
השק
השקה
השקט
השקיה
השקיע
השקיעה
השקל
השקלים
השקעה
השקעות
השקפה
השקפת
השקר
השקת
השר
השראה
השרה
השרון
השרידים
השריון
השרים
השריף
השריפה
השריר
השרירים
השרפה
השרץ
השרשים
השרשרת
השרת
השש
הששי
השתא
השתדל
השתחרר
השתי
השתייה
השתייך
השתייכו
השתיים
השתים
השתיקה
השתלב
השתלט
השתלטה
השתלטו
השתלטות
השתלם
השתלמות
השתלשלות
השתלת
השתמש
השתמשה
השתמשו
השתן
השתנה
השתנו
השתנות
השתנתה
השתתף
השתתפה
השתתפו
השתתפות
השתתפותה
השתתפותו
הת
התא
התאבד
התאבדות
התאגיד
התאוה
התאוות
התאומים
התאונה
התאורה
התאוריה
התאוריות
התאחדה
התאחדו
התאחדות
התאים
התאמה
התאמות
התאמן
התאמת
התאפיינה
התאפשר
התארגנות
התארח
התארחה
התאריך
התאריכים
התארים
התבאר
התבואה
התבונה
התבוננות
התבוסה
התבטא
התביעה
התביעות
התבן
התבנית
התבסס
התבססה
התבססו
התבצע
התבצעה
התבקש
התברר
התבשיל
התגברות
התגובה
התגובות
התגורר
התגוררה
התגוררו
התגייס
התגלה
התגלו
התגלות
התגלתה
התגמול
התגרש
התגרשו
התה
התהום
התהילה
התהליך
התהליכים
התהלך
התו
התואר
התובע
התודה
התודעה
התוודע
התווים
התווך
התוכן
התוכנה
התוכניות
התוכנית
התומך
התומכים
התוס
התוספ
התוספות
התוספת
התוספתא
התועלת
התופעה
התופעות
התוצאה
התוצאות
התוצר
התוצרת
התוקף
התוקפים
התור
התורה
התורם
התורמים
התורן
התורני
התורף
התושבים
התותח
התותחים
התותחנים
התזה
התזונה
התזמורת
התחבורה
התחברות
התחדשות
התחולל
התחוללה
התחום
התחומים
התחושה
התחזק
התחיה
התחייב
התחייבה
התחייבויות
התחייבות
התחייה
התחיל
התחילה
התחילו
התחלה
התחלת
התחלתי
התחמושת
התחנה
התחנות
התחנך
התחרה
התחרו
התחרויות
התחרות
התחרתה
התחשבות
התחתון
התחתונה
התחתונות
התחתונים
התחתית
התחתן
התחתנה
התחתנו
התיאור
התיאטרון
התיבה
התיבות
התיידד
התייחס
התייחסה
התייחסו
התייחסות
התייעצות
התייצב
התיירות
התיירים
התיישב
התיישבה
התיישבו
התיישבות
התיכון
התיכונה
התיכוניים
התימני
התינוק
התינוקות
התיעוד
התיעודי
התיק
התיקון
התיקונים
התיר
התירה
התירו
התירוץ
התכוון
התכוונתם
התכונה
התכונות
התכלית
התכלת
התכנון
התכנות
התכנים
התכנית
התכנסה
התכנסו
התכנסות
התל
התלבושות
התלהבות
התלוי
התלויה
התלויות
התלויים
התלונה
התלות
התלמוד
התלמיד
התלמידים
התלת
התם
התמודד
התמודדה
התמודדו
התמודדות
התמוטטות
התמונה
התמונות
התמורה
התמורות
התמותה
התמחה
התמחות
התמיד
התמיכה
התמנה
התמקד
התמקדה
התמקדו
התמקדות
התמרים
התנ
התנא
התנאי
התנאים
התנגד
התנגדה
התנגדו
התנגדות
התנגדותו
התנגשויות
התנגשות
התנדב
התנה
התנהגויות
התנהגות
התנהגותו
התנהל
התנהלה
התנהלו
התנהלות
התנו
התנועה
התנועות
התנופה
התנור
התנצלות
התנקשות
התסמונת
התסמינים
התסריט
התסריטאי
התעבורה
התעודה
התעופה
התעורר
התעוררה
התעוררות
התעלה
התעלות
התעללות
התעלמות
התעמולה
התעמלות
התעניין
התעניינות
התענית
התעסוקה
התעקש
התערב
התערבות
התערובות
התערובת
התערוכה
התעשייה
התעשייתי
התעשייתית
התפארת
התפוח
התפוצה
התפוצות
התפוצץ
התפטר
התפטרות
התפטרותו
התפילה
התפילות
התפילין
התפיסה
התפלגות
התפלה
התפלות
התפלל
התפללו
התפקוד
התפקיד
התפקידים
התפרסם
התפרסמה
התפרסמו
התפרצויות
התפרצות
התפרקה
התפרקות
התפשט
התפשטה
התפשטות
התפתח
התפתחה
התפתחו
התפתחויות
התפתחות
התפתחותה
התפתחותו
התפתחותית
התצוגה
התצפית
התקבל
התקבלה
התקבלו
התקבלתי
התקדם
התקדמה
התקדמו
התקדמות
התקדשי
התקווה
התקוממות
התקון
התקופה
התקופות
התקיים
התקיימה
התקיימו
התקין
התקינה
התקינו
התקיעה
התקיפה
התקלה
התקליט
התקליטים
התקן
התקנה
התקנות
התקנים
התקנת
התקף
התקפה
התקפות
התקפי
התקפת
התקציב
התקרב
התקרבות
התקרה
התקרית
התקשה
התקשו
התקשורת
התקשר
התקשרות
התר
התראה
התראת
התרבויות
התרבות
התרבותי
התרבותית
התרגום
התרגיל
התרה
התרו
התרומה
התרומות
התרופה
התרופות
התרחב
התרחבה
התרחבות
התרחש
התרחשה
התרחשו
התרחשות
התריס
התרכזו
התרנגולת
התרסק
התרסקות
התרעה
התרשם
התרת
התש
התשובה
התשובות
התשוקה
התשי
התשיעי
התשיעית
התשכ
התשל
התשלום
התשלומים
התשלומין
התשמ
התשמיש
התשנ
התשס
התשע
התשעים
התשפ
התשתיות
התשתית
התת
ו
וא
ואאו
ואב
ואבא
ואבד
ואבדה
ואבי
ואבידה
ואביה
ואביהוא
ואביו
ואביי
ואבן
ואבני
ואבנים
ואבר
ואברהם
ואגב
ואדום
ואדוני
ואדי
ואדם
ואדרבא
ואדרבה
ואה
ואהא
ואהבה
ואהבת
ואהיה
ואהרן
ואו
ואוכל
ואוכלים
ואוכלין
ואוכלת
ואולי
ואולם
ואומר
ואומרו
ואומרים
ואומרת
ואוניברסיטת
ואוסטרליה
ואוסר
ואופן
ואוקי
ואוקימנא
ואור
ואורי
ואורך
ואורכה
ואורכו
ואות
ואותה
ואותו
ואותם
ואותן
ואז
ואזור
ואזורים
ואזי
ואזיל
ואזל
ואח
ואחד
ואחות
ואחותה
ואחותו
ואחיה
ואחיו
ואחר
ואחרונים
ואחרות
ואחרי
ואחריה
ואחריהם
ואחריו
ואחריך
ואחרים
ואחת
ואט
ואי
ואיבעית
ואידי
ואידך
ואיהו
ואיהי
ואיזה
ואיזהו
ואיזו
ואיטליה
ואיי
ואיידי
ואיך
ואיכא
ואיכות
ואיל
ואילו
ואילך
ואילן
ואימא
ואימתי
ואין
ואינדיאנפוליס
ואינה
ואינהו
ואינו
ואינון
ואיני
ואינך
ואינם
ואינן
ואיננו
ואיסור
ואיפשר
ואיצטריך
ואירועים
ואירופה
ואיש
ואישה
ואית
ואיתא
ואיתה
ואיתימא
ואיתמר
ואך
ואכיל
ואכל
ואכלה
ואכלו
ואכלת
ואכן
ואכתי
ואל
ואלא
ואלה
ואלהי
ואלו
ואלוף
ואלי
ואליבא
ואליה
ואליהו
ואליו
ואליזבת
ואלימות
ואלין
ואלכסנדר
ואלמנה
ואלף
ואלרי
ואם
ואמא
ואמאי
ואמה
ואמו
ואמונה
ואמור
ואמוראים
ואמן
ואמנות
ואמנים
ואמנם
ואמצעי
ואמר
ואמרה
ואמרו
ואמרי
ואמרינן
ואמרת
ואמרתי
ואמת
ואן
ואנא
ואנג
ואנגלית
ואנדרוגינוס
ואנה
ואנו
ואנחנו
ואנטי
ואני
ואנכי
ואנן
ואנשי
ואנשיו
ואנשים
ואסור
ואסורה
ואסורין
ואסיקנא
ואסף
ואסר
ואסרו
ואסתר
ואע
ואעפ
ואף
ואפ
ואפי
ואפילו
ואפיק
ואפר
ואפרים
ואפריקה
ואפשר
ואצ
ואצל
ואקשי
ואקשינן
ואר
וארא
ואראה
וארבע
וארבעה
וארבעים
וארגון
וארגוני
וארגונים
וארד
וארוך
וארון
וארז
ואריה
וארץ
וארצות
ואש
ואשה
ואשם
ואשר
ואשת
ואשתו
ואשתכח
ואת
ואתא
ואתה
ואתו
ואתחנן
ואתי
ואתיא
ואתם
ואתן
ואתנה
ואתר
ואתרי
וב
ובא
ובאה
ובאו
ובאוגוסט
ובאוניברסיטת
ובאופן
ובאוקטובר
ובאותה
ובאותו
ובאזור
ובאזורים
ובאיזה
ובאים
ובאין
ובאירופה
ובאישור
ובאליפות
ובאמצע
ובאמצעות
ובאמת
ובאנגלית
ובאני
ובאר
ובארץ
ובארצות
ובאשר
ובאת
ובאתר
ובב
ובבא
ובבית
ובברייתא
ובבתי
ובג
ובגביע
ובגדים
ובגיל
ובגין
ובגלל
ובגמ
ובגמרא
ובד
ובדבר
ובדברי
ובדין
ובדיעבד
ובדצמבר
ובדרום
ובדרך
ובה
ובהא
ובהאי
ובההוא
ובהו
ובהיות
ובהכי
ובהלכות
ובהם
ובהמה
ובהמשך
ובהן
ובהתאם
ובו
ובודאי
ובוהו
ובוודאי
ובונה
ובוניו
ובועז
ובוצע
ובור
ובזה
ובזו
ובזכות
ובזמן
ובח
ובחינת
ובחלק
ובחר
ובט
ובטור
ובטל
ובי
וביאור
וביאר
וביד
ובידו
וביה
וביולי
וביום
וביותר
וביחד
וביטול
וביטחון
ובייחוד
וביים
ובים
ובימי
ובין
ובינה
ובינואר
וביניהם
וביניהן
וביצוע
וביצע
וביקורת
וביקש
וביקשו
ובירושלים
ובירושלמי
ובירך
ובישראל
ובית
וביתו
וביתר
ובכ
ובכאן
ובכה
ובכי
ובכך
ובכל
ובכלי
ובכלל
ובכללם
ובכמה
ובכן
ובל
ובלא
ובלבד
ובלי
ובלילה
ובלע
ובלשון
ובלתי
ובמ
ובמאה
ובמאי
ובמדינות
ובמדליית
ובמדרש
ובמה
ובמהלך
ובמהלכה
ובמזרח
ובמידה
ובמיוחד
ובמים
ובמלחמת
ובמסגרת
ובמסכת
ובמספר
ובמערב
ובמעשה
ובמקביל
ובמקום
ובמקומו
ובמקומות
ובמקרה
ובמקרים
ובמרדכי
ובמרכז
ובמרץ
ובמשא
ובמשחה
ובמשחק
ובמשך
ובמשנה
ובן
ובנ
ובנבחרת
ובנה
ובנו
ובנובמבר
ובנוסף
ובנושא
ובנות
ובנותיו
ובני
ובניגוד
ובניה
ובניהם
ובניו
ובנייה
ובניית
ובנים
ובנימין
ובס
ובסדר
ובסוף
ובסופו
ובסי
ובסיום
ובסימן
ובסיפא
ובסך
ובסמ
ובסמוך
ובספטמבר
ובספר
ובספרי
ובסרט
ובע
ובעבור
ובעבר
ובעברית
ובעד
ובעוד
ובעולם
ובעונה
ובעונת
ובעזרת
ובעי
ובעיות
ובעינן
ובעיקר
ובעיר
ובעל
ובעלה
ובעלות
ובעלי
ובעלת
ובענין
ובעקבות
ובעקבותיו
ובערב
ובעת
ובפ
ובפי
ובפירוש
ובפני
ובפעם
ובפרט
ובפרס
ובפרק
ובפרשת
ובצד
ובצפון
ובקיץ
ובקיצור
ובקר
ובקרב
ובקרה
ובקש
ובקשו
ובר
וברא
ובראש
ובראשונה
ובראשי
ובראשית
ובראשם
וברוב
וברוך
וברור
וברח
וברי
ובריאות
ובריטניה
וברייתא
ובריצת
ובריש
וברית
וברך
וברכה
וברכו
וברכת
ובש
ובשאר
ובשביל
ובשבת
ובשו
ובשורות
ובשטר
ובשל
ובשלב
ובשלמא
ובשם
ובשנה
ובשנות
ובשני
ובשנים
ובשנת
ובשעה
ובשעת
ובשר
ובשתי
ובת
ובתה
ובתו
ובתוך
ובתוכו
ובתוכם
ובתום
ובתוס
ובתוספות
ובתוספתא
ובתחילת
ובתי
ובתים
ובתלמוד
ובתמורה
ובתנאי
ובתנאים
ובתפקיד
ובתקופה
ובתקופת
ובתר
ובתשו
ובתשובת
וג
וגאס
וגבה
וגבול
וגבורה
וגבי
וגביע
וגבר
וגברים
וגדול
וגדולה
וגדולי
וגדולים
וגדל
וגדלה
וגדר
וגה
וגו
וגובה
וגובהו
וגודל
וגומר
וגוף
וגופו
וגופים
וגורם
וגורמים
וגורמת
וגז
וגזל
וגזר
וגזרו
וגט
וגילה
וגילוי
וגם
וגמר
וגמרא
וגן
וגנר
וגר
וגרושה
וגרם
וגרמה
וגרמו
וגרמניה
וגרסינן
וד
ודא
ודאות
ודאי
ודאית
ודבר
ודברי
ודבריו
ודברים
ודבש
ודגים
ודה
ודו
ודוד
ודווקא
ודוחק
ודומה
ודומיהם
ודוק
ודוקא
ודור
ודורש
ודות
ודחה
ודחי
ודחינן
ודי
ודיו
ודייוויד
ודיין
ודייק
ודייקינן
ודילמא
ודין
ודינו
ודיני
ודית
ודכוותה
ודל
ודלא
ודלמא
ודם
ודמויות
ודמות
ודמי
ודן
ודני
ודניאל
ודע
ודעת
ודעתו
ודף
ודקדק
ודר
ודרום
ודריש
ודרך
ודרכו
ודרכי
ודרש
ודרשו
ודרשינן
וה
והא
והאב
והאדם
והאוכל
והאור
והאזור
והאזוריות
והאחד
והאחר
והאחרון
והאחרונה
והאחרונים
והאי
והאידנא
והאיך
והאימפריה
והאיש
והאם
והאמונה
והאמר
והאמת
והאנשים
והאריך
והארץ
והאש
והאשה
והב
והבא
והבאת
והבאתי
והבטיח
והביא
והביאה
והביאו
והביטחון
והבין
והבית
והבל
והבלתי
והבן
והבנות
והבניה
והבנייה
והבנים
והבעל
והבעלים
והבקיע
והבריאות
והבשר
והג
והגבורה
והגדול
והגהות
והגוף
והגטאות
והגיע
והגיעה
והגיעו
והגיש
והגישה
והגם
והגנה
והגנים
והגר
והד
והדבר
והדברים
והדין
והדם
והדעת
והדר
והדרך
והדרכה
והה
וההוא
וההיא
וההיסטוריה
והו
והוא
והואיל
והובא
והוביל
והובילה
והוד
והודאה
והודה
והודו
והודחה
והודיע
והוה
והוו
והוחלט
והוחלף
והוי
והויא
והוכיח
והולד
והולחן
והוליד
והולך
והולכים
והולכין
והולכת
והולנד
והוסיף
והוסיפו
והוסמך
והועבר
והועלה
והופיע
והופיעה
והופך
והופכת
והופץ
והופק
והוצא
והוצאה
והוצאות
והוצאת
והוצב
והוציא
והוציאה
והוציאו
והוצרך
והוקם
והוקמה
והוראות
והורג
והורה
והותיר
והותר
והותרה
והזה
והזהיר
והזיק
והזכיר
והזמן
והחברה
והחזיק
והחזיר
והחזירה
והחזירו
והחיה
והחיים
והחינוך
והחכמה
והחל
והחלה
והחלו
והחליט
והחליף
והחלל
והחלק
והט
והטוב
והטור
והטיל
והטיפול
והטכנולוגיה
והטלוויזיה
והטעם
והי
והיא
והיאך
והיה
והיהודים
והיו
והיום
והיוצא
והיחיד
והיחידה
והיין
והיינו
והיית
והייתה
והייתי
והייתם
והיכא
והיכי
והיכן
והילדים
והילכך
והים
והימים
והיסטורי
והיסטוריה
והירח
והיתה
והיתר
והך
והכא
והכבוד
והכה
והכהן
והכהנים
והכוונה
והכול
והכונה
והכי
והכין
והכל
והכלים
והכלל
והכניס
והכריז
והכתוב
והכתיב
והלא
והלאה
והלב
והלה
והלוה
והלוים
והלוקח
והלחין
והלילה
והלך
והלכה
והלכו
והלכות
והלכך
והלכתא
והלל
והללו
והלשון
והם
והמ
והמדינה
והמה
והמוכר
והמותר
והמזרח
והמחבר
והמטיב
והמידע
והמים
והמלוה
והמלחמה
והמלך
והממשלה
והמן
והמנהג
והמנהל
והמסחר
והמעשה
והמפיק
והמפלגה
והמצוה
והמצות
והמקום
והמרדכי
והמרכז
והמשטרה
והמשיך
והמשיכה
והמשיכו
והמשכיל
והמשפחה
והמשפט
והן
והנ
והנה
והנוער
והנורא
והנושא
והנותר
והנחה
והני
והניח
והניחו
והנך
והנכון
והנלע
והנני
והנפש
והנקבה
והנראה
והנשיא
והנשים
והסביבה
והסופר
והסכים
והסכימו
והסמ
והספורט
והספרות
והסרט
והסתיים
והסתיימה
והסתיימו
והעבודה
והעביר
והעברת
והעד
והעדים
והעובר
והעולם
והעונש
והעיד
והעידו
והעיקר
והעיר
והעלה
והעלו
והעם
והעמיד
והעמידו
והענין
והעניק
והעפילה
והערב
והערות
והערכה
והפוסקים
והפועל
והפיק
והפיתוח
והפך
והפכה
והפכו
והפסד
והפסיד
והפסידה
והפעם
והפקה
והפר
והפריש
והצבא
והצדק
והצומח
והצטרף
והצטרפה
והציג
והציע
והצלה
והצליח
והצליחה
והצליחו
והקב
והקבוצה
והקדוש
והקדיש
והקדש
והקהילה
והקהל
והקטיר
והקים
והקימה
והקימו
והקמת
והקריב
והקריבו
והקרן
והקשה
והקשו
והקשר
והר
והרא
והראב
והראה
והראיה
והראשון
והרב
והרבה
והרביעי
והרביעית
והרג
והרגו
והרווחה
והרוח
והרוטב
והרי
והריטב
והרים
והרמ
והרמב
והרס
והרע
והרצגובינה
והרצון
והרשב
והרשות
והש
והשאיר
והשאר
והשולחן
והשומרון
והשחקן
והשיב
והשיבו
והשיג
והשיכון
והשימוש
והשיר
והשירותים
והשכל
והשלום
והשלים
והשלימו
והשלישי
והשלישית
והשם
והשמן
והשני
והשניה
והשנייה
והשניים
והשנית
והשתא
והשתמש
והשתתף
והשתתפה
והשתתפו
והתגורר
והתוס
והתוספות
והתורה
והתחיל
והתחילו
והתחנך
והתיישב
והתיר
והתירו
והתלמוד
והתם
והתמנה
והתנה
והתנועה
והתניא
והתנן
והתעשייה
והתפלל
והתפתחות
והתקבל
והתקשורת
והתרבות
והתשובה
וו
ווא
וואלה
וואן
ווג
ווד
וודאי
וודי
וודס
ווטסון
ווטרס
ווי
וויל
וויליאם
ווילנא
ווין
וול
וולאס
וולברין
וולד
וולוו
וולט
וולטר
וולך
וולס
וולף
וולפגנג
וולפסון
וולש
וון
וונדר
ווסט
וועדת
ווקר
וורד
ווריורס
וורן
וורנר
וורשא
וושינגטון
וז
וזאת
וזבה
וזבחת
וזבין
וזה
וזהב
וזהו
וזו
וזוכה
וזיכה
וזכה
וזכו
וזכויות
וזכור
וזכות
וזכר
וזכתה
וזמן
וזמר
וזמרת
וזף
וזפה
וזרע
וזרעו
וזרק
וזרקו
וח
וחבירו
וחביריו
וחבל
וחבר
וחברה
וחברו
וחברות
וחברי
וחבריו
וחברים
וחברת
וחג
וחד
וחדא
וחדר
וחדש
וחוה
וחוזר
וחוזרים
וחוזרין
וחוזרת
וחול
וחום
וחומץ
וחומר
וחומרי
וחומרים
וחומש
וחוסר
וחופש
וחוץ
וחוצה
וחוק
וחוקר
וחוקרים
וחושב
וחותם
וחז
וחזק
וחזקה
וחזר
וחזרה
וחזרו
וחטאת
וחי
וחיה
וחיות
וחיי
וחייב
וחייבין
וחיילים
וחיים
וחיישינן
וחיל
וחינוך
וחכ
וחכם
וחכמה
וחכמי
וחכמים
וחלב
וחלה
וחלילה
וחליצה
וחלל
וחלק
וחלקו
וחלקים
וחלקם
וחלקן
וחמור
וחמישה
וחמישי
וחמישים
וחמש
וחמשה
וחמשים
וחנה
וחנון
וחסד
וחסר
וחסרי
וחפץ
וחצי
וחציה
וחציו
וחצר
וחקירה
וחקר
וחרב
וחשב
וחשבון
וחשוב
וחשיב
וחתם
וחתמו
וחתן
וט
וטבח
וטבל
וטבע
וטהור
וטהורה
וטהר
וטהרה
וטו
וטוב
וטובגו
וטובה
וטומאה
וטוען
וטור
וטיפול
וטכנולוגיה
וטלוויזיה
וטמא
וטמאה
וטעה
וטעם
וטעמא
וטעמו
וטען
וטענה
וטענו
וטרי
וטריא
וטריפה
וטרם
וטרפה
וי
ויאכל
ויאכלו
ויאמר
ויאמרו
ויבא
ויבאו
ויבוא
ויבואו
ויביא
ויבינו
ויבן
ויבקש
ויברך
ויבש
ויגד
ויגע
ויגש
ויד
וידאו
וידבר
וידו
וידוי
וידוע
וידע
וידעו
וידעת
ויה
ויהא
ויהודה
ויהודים
ויהושע
ויהי
ויהיב
ויהיה
ויהיו
ויו
ויואב
ויובל
ויודע
ויוה
ויוכל
ויולד
ויולה
ויוליה
ויום
ויונתן
ויוסי
ויוסף
ויועץ
ויוצא
ויוצאים
ויוצאין
ויוציא
ויוצר
ויוצרים
ויוצרת
ויורד
ויורדים
ויורדת
ויורה
ויושב
ויותר
ויז
ויזה
ויזהר
ויזכור
ויזל
ויחד
ויחולו
ויחזור
ויחזיר
ויחזק
ויחי
ויחיד
ויחידות
ויחל
ויחנו
ויחסי
ויחר
ויט
ויטול
ויטוריו
ויטמין
ויטני
ויי
וייד
וייט
וייטנאם
וייל
ויילד
ויילס
ויימאר
ויין
וייס
וייסד
וייצור
וייצר
וייראו
וייתכן
ויך
ויכוח
ויכוין
ויכול
ויכולה
ויכולים
ויכולין
ויכולת
ויכלו
ויכתוב
ויל
וילדה
וילדו
וילדים
וילה
וילהלם
וילי
ויליאם
ויליאמס
ויליס
ויליף
וילך
וילכו
וילם
וילנא
וילנאי
וילנה
וילסון
וילפינן
וים
וימבלדון
וימות
וימי
וימים
וימצא
וימת
וין
וינגייט
וינה
וינט
וינטר
ויניח
ויניציה
וינס
וינסטון
וינסנט
וינצ
וינר
ויס
ויסוד
ויסמן
ויסע
ויסעו
ויסקונסין
ויעבור
ויעבר
ויעידו
ויעל
ויעלה
ויעלו
ויעמד
ויעמדו
ויעמוד
ויען
ויעקב
ויעש
ויעשה
ויעשו
ויפה
ויפול
ויפטר
ויפלו
ויפן
ויפתח
ויץ
ויצא
ויצאה
ויצאו
ויצו
ויצחק
ויצטרך
ויציאה
ויציב
ויצירות
ויצירת
ויצמן
ויצר
ויצרה
ויצרו
ויק
ויקבל
ויקהל
ויקח
ויקחו
ויקטור
ויקטוריה
ויקי
ויקיטקסט
ויקיעורך
ויקיפדיה
ויקישיבה
ויקם
ויקר
ויקרא
ויקראו
וירא
ויראה
ויראו
ויראת
וירג
וירד
וירדה
וירדו
וירוס
וירושלים
וירח
וירטואלי
וירטואלית
וירטמברג
וירידה
וירק
וירקות
ויש
וישא
וישאר
וישב
וישבו
וישבע
וישוב
וישובו
וישי
וישימו
וישכב
וישלח
וישלחו
וישלם
וישם
וישמע
וישמעו
וישן
וישנה
וישנו
וישנם
וישר
וישראל
וישראלים
וישתה
וית
ויתבאר
ויתור
ויתיב
ויתכן
ויתן
ויתנו
ויתפלל
ויתר
ויתרה
ויתרו
וכ
וכאומר
וכאילו
וכאלו
וכאן
וכאשר
וכבד
וכבוד
וכבר
וכבש
וכבשו
וכגון
וכד
וכדאי
וכדאיתא
וכדאמר
וכדאמרי
וכדאמרינן
וכדברי
וכדומה
וכדי
וכדין
וכדכתיב
וכדכתיבנא
וכדלעיל
וכדלקמן
וכדמוכח
וכדמשמע
וכדעת
וכדפרישית
וכדתניא
וכדתנן
וכה
וכהן
וכו
וכוונת
וכוונתו
וכוח
וכוחות
וכולה
וכולהו
וכולי
וכולל
וכוללת
וכולם
וכולן
וכופין
וכותב
וכותבין
וכזה
וכח
וכי
וכיהן
וכיו
וכיוון
וכיום
וכיון
וכיוצא
וכינה
וכיצד
וכך
וככה
וככל
וכל
וכלא
וכלאי
וכלב
וכלה
וכלהו
וכלי
וכליו
וכלים
וכלכלה
וכלל
וכללה
וכללו
וכלם
וכלפי
וכמ
וכמבואר
וכמה
וכמו
וכמובן
וכמוהו
וכמות
וכמעט
וכמש
וכן
וכנ
וכנגד
וכנראה
וכסלו
וכסף
וכעבור
וכעין
וכענין
וכעת
וכפי
וכפל
וכפר
וכר
וכרת
וכשאין
וכשבא
וכשהוא
וכשהיא
וכשהיה
וכשם
וכשר
וכת
וכתב
וכתבה
וכתבו
וכתבי
וכתבתי
וכתוב
וכתובים
וכתוצאה
וכתיב
וכתיבה
ול
ולא
ולאה
ולאו
ולאור
ולאורך
ולאחד
ולאחר
ולאחריה
ולאחריו
ולאכול
ולאכיה
ולאם
ולאמו
ולאפוקי
ולאפשר
ולב
ולבא
ולבדוק
ולבו
ולבונה
ולבטל
ולבי
ולבית
ולבן
ולבנה
ולבנון
ולבנות
ולבני
ולבניו
ולבנים
ולבסוף
ולבצע
ולבקש
ולברך
ולבתר
ולגבי
ולגרום
ולד
ולדבר
ולדברי
ולדבריו
ולדות
ולדידי
ולדידיה
ולדידן
ולדימיר
ולדיסלב
ולדעת
ולדעתי
ולה
ולהאי
ולהבא
ולהביא
ולהבין
ולהגיה
ולהגיע
ולהגן
ולהוסיף
ולהוציא
ולהורדה
ולהורות
ולהזיז
ולהחזיר
ולהיות
ולהכי
ולהלן
ולהם
ולהמשיך
ולהניח
ולהעביר
ולהעלות
ולהפוך
ולהפך
ולהקים
ולהרחיב
ולהרמב
ולהשיב
ולהשיג
ולהשכיר
ולהשלים
ולהשתמש
ולהתפלל
ולו
ולוה
ולוי
ולוים
ולולב
ולולי
ולומר
ולוקה
ולוקח
ולזה
ולזוג
ולזכות
ולחומרא
ולחוץ
ולחזור
ולחזק
ולחיות
ולחלק
ולחם
ולחץ
ולחקור
ולטר
ולי
וליאן
וליד
וליה
וליחוש
וליטול
ולייט
וליכא
ולילה
ולימא
ולימד
ולימוד
ולימודי
ולימים
וליצור
ולישנא
ולישראל
ולית
וליתא
וליתן
וליתני
ולך
ולכאורה
ולכאן
ולכך
ולכל
ולכן
ולכתוב
וללא
וללכת
וללמד
וללמוד
ולמ
ולמאי
ולמאן
ולמד
ולמדה
ולמדו
ולמדנו
ולמה
ולמזבח
ולמחוק
ולמחר
ולמחרת
ולמטה
ולמי
ולמימר
ולמכור
ולמנוע
ולמעט
ולמעלה
ולמען
ולמעשה
ולמצוא
ולמקום
ולמר
ולמרות
ולמשקל
ולנסות
ולנסיה
ולס
ולסייע
ולע
ולעבוד
ולעבור
ולעולם
ולעומת
ולעיל
ולעיתים
ולעלות
ולעמוד
ולענ
ולעניין
ולענין
ולערב
ולעשות
ולפ
ולפום
ולפחות
ולפי
ולפיה
ולפיכך
ולפירוש
ולפיתוח
ולפמ
ולפני
ולפנים
ולפע
ולפעד
ולפעול
ולפעמים
ולפרש
ולפתח
ולצאת
ולצד
ולצורך
ולקבוע
ולקבל
ולקדם
ולקח
ולקחה
ולקחו
ולקחת
ולקחתם
ולקיים
ולקמן
ולקנות
ולקראת
ולקשר
ולר
ולראות
ולרב
ולרבות
ולרבי
ולרבנן
ולרוב
ולרי
ולשאר
ולשוב
ולשון
ולשם
ולשמור
ולשנות
ולשתות
ולתקן
ולתת
ומ
ומאה
ומאוחר
ומאות
ומאז
ומאחר
ומאי
ומאידך
ומאיר
ומאמן
ומאמר
ומאמרים
ומאן
ומאפשר
ומאפשרת
ומארק
ומאתים
ומבאר
ומבואר
ומבטל
ומביא
ומביאה
ומביאו
ומביאין
ומבין
ומבלי
ומבנה
ומבני
ומבנים
ומבצע
ומבקר
ומבקש
ומברך
ומברכין
ומגדל
ומגוג
ומגוון
ומגוונים
ומגיד
ומגיע
ומגלה
ומגן
ומדבר
ומדברי
ומדוע
ומדי
ומדיה
ומדינה
ומדינות
ומדיניות
ומדינת
ומדלא
ומדליית
ומדע
ומדעי
ומדרום
ומדרש
ומדת
ומה
ומהאי
ומהדר
ומהדרינן
ומהו
ומהווה
ומהירות
ומהם
ומהן
ומהר
ומהרי
ומהרש
ומו
ומואב
ומודה
ומודים
ומוות
ומוזיאון
ומוזיקה
ומוכח
ומוכר
ומונה
ומוסדות
ומוסיף
ומוסר
ומועד
ומועדים
ומוצא
ומוציא
ומוציאין
ומוצרי
ומוקי
ומוקמינן
ומור
ומורה
ומורי
ומוריד
ומורשת
ומושב
ומושל
ומותו
ומותר
ומותרת
ומזה
ומזוזות
ומזון
ומזיק
ומזכיר
ומזלות
ומזרח
ומחבר
ומחוץ
ומחוצה
ומחזיק
ומחזיר
ומחיר
ומחלוקת
ומחלות
ומחמת
ומחצה
ומחקר
ומחקרים
ומחשבה
ומחשבים
ומטה
ומטמא
ומטעם
ומטר
ומטרתו
ומי
ומיד
ומידע
ומיהו
ומיי
ומייסד
ומייקל
ומיירי
ומייתי
ומיכאל
ומילא
ומים
ומין
ומינה
ומיני
ומיעוט
ומיעט
ומכ
ומכאן
ומכה
ומכון
ומכח
ומכיוון
ומכיל
ומכירה
ומכל
ומכניס
ומכסה
ומכר
ומכרה
ומכרו
ומלא
ומלבד
ומלוה
ומלח
ומלחין
ומלחמה
ומלחמת
ומלך
ומלכות
ומלמד
ומלת
וממה
וממילא
וממכר
וממלא
וממלכת
וממנה
וממנו
וממערב
וממשיך
וממשלת
ומן
ומנא
ומנה
ומנהג
ומנהיג
ומנהל
ומנהלת
ומנו
ומנחה
ומנחם
ומנחת
ומניח
ומניחין
ומניין
ומנין
ומניעת
ומנכ
ומנסה
ומנצח
ומנשה
ומסחר
ומסיים
ומסיק
ומסירה
ומסמכים
ומספר
ומסקינן
ומסקנא
ומסר
ומסתבר
ומסתברא
ומסתיים
ומסתמא
ומעבר
ומעולם
ומעוצב
ומעט
ומעל
ומעלה
ומעמד
ומערב
ומערות
ומערכות
ומערכת
ומעשה
ומעשים
ומעשר
ומעשרות
ומעתה
ומפורש
ומפי
ומפיק
ומפלגת
ומפני
ומפקד
ומפרקינן
ומפרש
ומפתח
ומצא
ומצאה
ומצאו
ומצאתי
ומצב
ומצד
ומצה
ומצוה
ומצוות
ומצוי
ומצות
ומצטרף
ומציג
ומציל
ומצינו
ומציע
ומצליח
ומצפון
ומצרים
ומקבל
ומקבלים
ומקדש
ומקובל
ומקום
ומקומו
ומקומות
ומקור
ומקורות
ומקיים
ומקיף
ומקנה
ומקני
ומקצת
ומקרא
ומקריב
ומקשה
ומקשינן
ומר
ומראה
ומרבה
ומרבית
ומרדכי
ומרור
ומרי
ומריה
ומרים
ומרכז
ומרצה
ומש
ומשה
ומשהו
ומשו
ומשום
ומשורר
ומשחק
ומשחקי
ומשיב
ומשך
ומשלים
ומשלם
ומשם
ומשמע
ומשמעות
ומשמר
ומשמש
ומשמשת
ומשנה
ומשני
ומשנת
ומשפחת
ומשפחתו
ומשפט
ומשפטים
ומשקה
ומשקין
ומשקל
ומשקלו
ומשרד
ומשתה
ומשתמש
ומת
ומתאר
ומתה
ומתו
ומתוך
ומתחיל
ומתחילה
ומתחת
ומתי
ומתן
ומתנה
ומתנות
ומתני
ומתניתין
ומתפלל
ומתרגם
ומתרץ
ון
ונ
ונאכל
ונאלץ
ונאמן
ונאמר
ונאס
ונאסר
ונבאר
ונבחר
ונבחרת
ונבנה
ונג
ונגד
ונגל
ונגע
ונדבות
ונדה
ונדחה
ונה
ונהג
ונהגו
ונהי
ונהיה
ונהנה
ונהר
ונהרג
ונו
ונודע
ונוהג
ונוהגין
ונוהגת
ונוח
ונוטל
ונוטלין
ונולד
ונולדו
ונוס
ונוסף
ונועד
ונוער
ונופל
ונוצר
ונוקבא
ונורא
ונושא
ונושאים
ונותן
ונותנו
ונותנים
ונותנין
ונותנת
ונותר
ונזיר
ונזכר
ונח
ונחזור
ונחל
ונחשב
ונחשבת
ונחת
ונחתם
ונטל
ונטלו
ונטמא
ונטמן
ונטע
ונטען
וני
ונידון
וניהול
וניהל
וניו
וניור
וניחא
וניכר
ונימא
וניסה
וניסו
וניסיון
וניעור
וניצח
וניצחה
וניצחו
וניתוח
וניתן
ונכון
ונכלל
ונכנס
ונכנסה
ונכנסו
ונכרתה
ונכתב
ונלחם
ונלע
ונמכר
ונמלך
ונמצא
ונמצאו
ונמצאת
ונמשך
ונס
ונסה
ונסון
ונסטון
ונסע
ונעלם
ונערך
ונעשה
ונעשו
ונעשים
ונעשית
ונפגש
ונפטר
ונפיק
ונפל
ונפלאות
ונפלה
ונפלו
ונפצעו
ונפק
ונפקא
ונפש
ונפשו
ונפתח
ונצואלה
ונציה
ונקבה
ונקבות
ונקבל
ונקבע
ונקבר
ונקה
ונקובר
ונקודה
ונקט
ונקי
ונקרא
ונקראה
ונקראו
ונקראת
ונר
ונרא
ונראה
ונראין
ונשא
ונשאו
ונשאר
ונשארה
ונשארו
ונשאת
ונשבע
ונשבר
ונשיא
ונשים
ונשלח
ונשמה
ונשמע
ונשנות
ונשפך
ונתבאר
ונתגרשה
ונתחייב
ונתן
ונתנה
ונתנו
ונתת
ונתתי
ונתתם
וס
וסבור
וסביבה
וסביבתה
וסבירא
וסבר
וסברא
וסגן
וסדר
וסדרות
וסובר
וסוד
וסוכה
וסוף
וסופה
וסופו
וסופר
וסופרת
וסוריה
וסותם
וסט
וסטמינסטר
וסטס
וסי
וסיוע
וסיים
וסיימה
וסייע
וסייעתו
וסילי
וסימן
וסין
וסיפא
וסיפורים
וסיפר
וסמ
וסמוך
וסמיך
וסמך
וסמכו
וסעיף
וספורט
וספק
וספר
וספרד
וספרות
וספרי
וספרים
וסר
וסרטים
וסרמן
וסת
וסתה
וסתם
וסתמא
וע
ועבד
ועבדה
ועבדו
ועבדים
ועבודה
ועבודות
ועבודת
ועבור
ועביד
ועבר
ועברה
ועברו
ועד
ועדה
ועדות
ועדי
ועדיין
ועדים
ועדת
ועובד
ועובדי
ועובדים
ועובר
ועוג
ועוד
ועוזר
ועולה
ועולים
ועולם
ועולמי
ועומד
ועומדים
ועומדת
ועונה
ועונים
ועונש
ועוסק
ועוף
ועופות
ועור
ועורך
ועושה
ועושים
ועושין
ועז
ועזב
ועזר
ועזרה
ועזרו
ועזריה
ועי
ועיבוד
ועידה
ועידת
ועיין
ועין
ועיניו
ועיצוב
ועיקר
ועיר
ועיתונאי
ועכ
ועכו
ועכשיו
ועל
ועלה
ועלו
ועלי
ועליה
ועליהם
ועליו
ועלתה
ועם
ועמ
ועמד
ועמדה
ועמדו
ועמו
ועמי
וענבים
וענו
ועניין
וענין
ועסק
ועסקים
ועפ
ועפר
ועץ
ועצים
ועצם
ועצמות
ועקב
ועקר
וערב
וערבה
וערבים
וערבית
וערים
וערך
וערכו
ועשאו
ועשה
ועשו
ועשוי
ועשיר
ועשית
ועשיתם
ועשר
ועשרה
ועשרות
ועשרים
ועשתה
ועת
ועתה
ועתוי
ועתיד
ופ
ופאה
ופגיעה
ופגם
ופגע
ופה
ופוטר
ופול
ופוליטיקאי
ופוליטיקה
ופולין
ופוסל
ופוסק
ופוסקים
ופועל
ופועלים
ופורים
ופורסם
ופותח
ופחד
ופחות
ופטור
ופטר
ופי
ופיטר
ופילוסופיה
ופיקד
ופיקוח
ופירוש
ופירושו
ופירות
ופירש
ופירשו
ופיתוח
ופיתח
ופלגא
ופלוני
ופליג
ופליגא
ופליגי
ופנה
ופני
ופניו
ופסול
ופסוק
ופסח
ופסל
ופסנתר
ופסק
ופסקו
ופעולות
ופעיל
ופעילה
ופעילות
ופעל
ופעלה
ופעלו
ופעם
ופעמים
ופר
ופרה
ופרופ
ופרופסור
ופרח
ופרט
ופרטי
ופרי
ופריך
ופריק
ופרכינן
ופרס
ופרסום
ופרסם
ופרע
ופרק
ופרקי
ופרקינן
ופרש
ופרשו
ופרשת
ופשוט
ופשט
ופשיטא
ופשע
ופשתים
ופתח
ופתחו
וצ
וצאן
וצבא
וצבי
וצבע
וצד
וצדיק
וצדק
וצדקה
וצוה
וצוות
וצונו
וצורת
וציוד
וציין
וצייר
וצער
וצפה
וצפון
וצר
וצריך
וצריכא
וצריכה
וצריכים
וצריכין
וצרפת
וק
וקא
וקאי
וקאמר
וקב
וקבוצות
וקבוצת
וקבל
וקבלה
וקבלו
וקבלת
וקבע
וקבעה
וקבעו
וקבצים
וקדוש
וקדושה
וקדם
וקדש
וקדשה
וקדשיו
וקדשים
וקו
וקודם
וקול
וקולנוע
וקונה
וקורא
וקורה
וקורין
וקורס
וקטור
וקטורי
וקטן
וקטנה
וקטנים
וקי
וקיבל
וקיבלה
וקיבלו
וקידום
וקידושין
וקיום
וקיי
וקיים
וקיימא
וקים
וקל
וקלע
וקם
וקמ
וקנדה
וקנה
וקנו
וקני
וקנין
וקס
וקסבר
וקסמן
וקצין
וקצר
וקצת
וקר
וקרא
וקראה
וקראו
וקרב
וקרבן
וקרוב
וקרי
וקרן
וקרע
וקרקעות
וקשה
וקשיא
וקשר
וקתני
ור
ורא
וראה
וראו
וראובן
וראוי
וראיה
וראיתי
וראיתם
וראש
וראשו
וראשון
וראשי
וראשית
וראתה
ורב
ורבא
ורבה
ורבו
ורבותינו
ורבי
ורביה
ורבים
ורבינא
ורבינו
ורביע
ורביעית
ורבנן
ורבקה
ורג
ורגל
ורגליו
ורגלים
ורד
ורדה
ורדי
ורדיו
ורדים
ורדן
ורה
ורואה
ורואים
ורואין
ורוב
ורובו
ורובם
ורוברט
ורוד
ורוח
ורוחב
ורוחבו
ורומא
ורוניקה
ורוסיה
ורוצה
ורז
ורזא
ורחב
ורחבה
ורחוב
ורחוק
ורחל
ורחמים
ורחץ
ורי
וריאציות
וריב
וריבית
וריה
וריח
וריצ
וריש
ורישא
ורכב
ורמ
ורמב
ורמז
ורמי
ורמינהו
ורמת
ורן
ורנל
ורנר
ורסאי
ורע
ורעות
ורעייתו
ורפואה
ורצה
ורצו
ורצון
ורצונו
ורצח
ורק
ורש
ורשאי
ורשב
ורשה
ורשות
ורשם
וש
ושאול
ושאין
ושאינה
ושאינו
ושאל
ושאלו
ושאני
ושאר
ושארי
ושב
ושבה
ושבו
ושבועה
ושבח
ושבט
ושבים
ושבע
ושבעה
ושבעים
ושבעת
ושבר
ושבת
ושדה
ושדי
ושה
ושהה
ושהוא
ושהיא
ושהיה
ושו
ושואל
ושוב
ושודרה
ושוה
ושוחרר
ושוין
ושולח
ושום
ושומר
ושומרון
ושונה
ושוע
ושוק
ושור
ושורות
ושורש
ושות
ושותה
ושותין
ושחט
ושחטו
ושחקן
ושחקנית
ושטיפה
ושטר
ושיהיה
ושיווק
ושיחק
ושיחקה
ושיטות
ושייך
ושייר
ושימור
ושימוש
ושימש
ושימשה
ושינה
ושינוי
ושינויים
ושיעור
ושיפור
ושיקום
ושיר
ושירה
ושירות
ושירותי
ושירותים
ושירי
ושירים
ושירת
ושיש
ושישה
ושיתוף
ושכח
ושכל
ושכן
ושכר
ושל
ושלא
ושלום
ושלוש
ושלושה
ושלושת
ושלח
ושלחה
ושלחו
ושליטה
ושליש
ושלישי
ושלישית
ושלם
ושלמה
ושלמים
ושלש
ושלשה
ושלשים
ושם
ושמא
ושמאל
ושמה
ושמו
ושמואל
ושמונה
ושמור
ושמות
ושמח
ושמחה
ושמחת
ושמירה
ושמירת
ושמן
ושמע
ושמעו
ושמעון
ושמעינן
ושמעתי
ושמר
ושמרו
ושמרתם
ושמתי
ושנה
ושנות
ושני
ושניה
ושניהם
ושנייה
ושניים
ושנים
ושנת
ושעורה
ושעורים
ושעיר
ושעל
ושער
ושפחה
ושפיר
ושפל
ושקיל
ושר
ושרה
ושרי
ושרף
ושש
וששה
וששים
ושתה
ושתו
ושתי
ושתיה
ושתייה
ושתיים
ושתים
ושתק
ות
ותא
ותאכל
ותאמר
ותבא
ותבונה
ותבין
ותדע
ותהא
ותהי
ותהיה
ותו
ותואר
ותוך
ותוכניות
ותוכנית
ותולדות
ותולה
ותומים
ותוס
ותוספות
ותוספת
ותורגם
ותורה
ותורת
ותורתו
ותזמורת
ותחילת
ותחנת
ותחת
ותי
ותיאטרון
ותיאר
ותימא
ותימה
ותיפוק
ותיק
ותיקה
ותיקון
ותיקי
ותיקים
ותירץ
ותירצו
ותכוין
ותכלית
ותכנון
ותל
ותלד
ותלך
ותלמוד
ותלמיד
ותלמידי
ותלמידיו
ותמה
ותמהני
ותמונות
ותמיד
ותמיהני
ותמיכה
ותמך
ותמצא
ותמר
ותן
ותנא
ותנאי
ותנו
ותנועת
ותני
ותניא
ותנן
ותסריטאי
ותפילה
ותפילין
ותפלה
ותפס
ותצא
ותקופת
ותקח
ותקנו
ותקנות
ותקף
ותקרא
ותקשורת
ותרא
ותראה
ותרבות
ותרגום
ותרומה
ותרומת
ותרי
ותרין
ותרם
ותשב
ותשובות
ותשכח
ותשע
ותשעה
ותתא
ותתן
ז
זא
זאב
זאבי
זאבים
זאגרב
זאוס
זאק
זאת
זב
זבה
זבוב
זבולון
זבח
זבחי
זבחים
זביד
זביחה
זבים
זבין
זביני
זבל
זבנה
זבת
זדון
זה
זהב
זהבה
זהבי
זהה
זהו
זהוב
זהובים
זהויות
זהות
זהותה
זהותו
זהותם
זהים
זהיר
זהירות
זהר
זו
זואי
זוב
זובח
זוג
זוגה
זוגו
זוגות
זוגי
זוגיות
זוהה
זוהו
זוהי
זוהמא
זוהר
זווג
זוויות
זווית
זוז
זוזא
זוזי
זוחלים
זוטא
זוטר
זוטרא
זוית
זוכה
זוכי
זוכים
זוכין
זוכר
זוכרים
זוכת
זול
זולה
זולים
זולת
זולתו
זולתי
זומא
זוממין
זומן
זונה
זונות
זוסמן
זועם
זורחת
זורם
זורמים
זורע
זורק
זז
זזה
זי
זיבה
זיבורית
זיגלר
זיגמונד
זיהה
זיהו
זיהוי
זיהום
זיהומים
זיו
זיוה
זיווג
זיוף
זיז
זיזין
זייד
זיין
זיכה
זיכוי
זיכיון
זיכרון
זיכרונות
זיכתה
זיל
זילבר
זילברמן
זילנד
זילנדי
זימבבואה
זימון
זימן
זימנא
זימני
זימנין
זינגר
זינוק
זינתה
זיעה
זיקא
זיקה
זיקוק
זיקת
זירא
זירה
זירת
זית
זיתון
זיתים
זך
זכאה
זכאות
זכאי
זכאים
זכאין
זכאית
זכה
זכו
זכויות
זכויותיהם
זכויותיו
זכוכית
זכור
זכות
זכותא
זכותו
זכותם
זכי
זכיה
זכיות
זכייה
זכייתה
זכייתו
זכין
זכירה
זכיתי
זכר
זכרה
זכרו
זכרון
זכרונו
זכרונות
זכרונם
זכרי
זכריה
זכרים
זכרם
זכרנו
זכרתי
זכתה
זל
זלה
זלזול
זליג
זלמן
זלצבורג
זמביה
זמה
זמורה
זמין
זמינה
זמינות
זמינים
זמיר
זמירות
זמם
זמן
זמנא
זמנה
זמנו
זמני
זמניה
זמניים
זמנים
זמנין
זמנית
זמנם
זמנן
זמננו
זמר
זמרי
זמרים
זמרשת
זמרת
זן
זנב
זנבו
זנות
זני
זניט
זנים
זנתה
זע
זעיר
זעירא
זעירה
זעירים
זעם
זעמו
זצ
זצוק
זק
זקוף
זקופה
זקוק
זקוקה
זקוקים
זקן
זקנה
זקנו
זקני
זקנים
זקס
זר
זרה
זרובבל
זרוע
זרועו
זרועות
זרות
זרח
זרחיה
זריז
זרים
זרימה
זרימת
זריעה
זריקה
זריקת
זרם
זרמי
זרמים
זרע
זרעה
זרעו
זרעי
זרעים
זרעך
זרעם
זרק
ח
חאג
חאן
חב
חבור
חבורה
חבורות
חבורת
חבוש
חביב
חביבה
חביבין
חביות
חבילה
חבילות
חבילת
חבירו
חביריו
חבירתה
חבית
חבל
חבלה
חבלי
חבלים
חבצלת
חבקוק
חבר
חברה
חברו
חברון
חברות
חברותא
חברותיה
חברי
חבריה
חבריהם
חבריו
חברייא
חברים
חברך
חברת
חברתה
חברתו
חברתי
חברתיות
חברתיים
חברתית
חג
חגב
חגבים
חגורה
חגורות
חגורת
חגי
חגיגה
חגיגות
חגיגי
חגיגת
חגים
חגית
חד
חדא
חדד
חדה
חדוה
חדוש
חדות
חדים
חדירה
חדירת
חדל
חדלה
חדלו
חדלות
חדר
חדרה
חדרו
חדרי
חדרים
חדש
חדשה
חדשות
חדשי
חדשיו
חדשים
חדשנות
חדשני
חה
חו
חואן
חוב
חובב
חובבי
חובבים
חובה
חובו
חובות
חובותיו
חובי
חובל
חובלים
חובר
חוברו
חוברות
חוברת
חובת
חובתו
חובתן
חוג
חוגג
חוגגים
חוגי
חוגים
חודר
חודש
חודשה
חודשי
חודשיים
חודשים
חודשית
חוה
חוו
חווה
חוויה
חוויות
חוויית
חווים
חוות
חוותה
חוזה
חוזהו
חוזים
חוזק
חוזר
חוזרות
חוזרים
חוזרין
חוזרת
חוט
חוטא
חוטאים
חוטי
חוטים
חוטין
חוטף
חול
חולדה
חולה
חולון
חולות
חולי
חוליא
חוליה
חוליו
חוליות
חוליית
חולים
חולין
חולית
חולם
חולף
חולץ
חולצה
חולצות
חולצין
חולצת
חולק
חולקא
חולקה
חולקו
חולקים
חולקין
חולקת
חולשה
חולשת
חום
חומה
חומות
חומץ
חומצה
חומצות
חומצת
חומר
חומרא
חומרה
חומרי
חומרים
חומרת
חומש
חומשי
חומת
חונה
חונן
חוסה
חוסיין
חוסייני
חוסל
חוסן
חוסר
חוף
חופה
חופי
חופים
חופף
חופר
חופש
חופשה
חופשי
חופשיות
חופשיים
חופשית
חוץ
חוצה
חוצות
חוצץ
חוצצין
חוק
חוקה
חוקי
חוקיות
חוקיים
חוקים
חוקית
חוקק
חוקר
חוקרי
חוקרים
חוקרת
חוקת
חוקתי
חוקתית
חור
חורב
חורבה
חורבות
חורבן
חורבת
חורג
חורון
חורחה
חורי
חורים
חורין
חורף
חורש
חוש
חושב
חושבים
חושבת
חושי
חושים
חושך
חושן
חושף
חושפת
חושש
חוששים
חוששין
חוששת
חות
חותך
חותם
חותמו
חותמות
חותמים
חותמין
חותמת
חותנו
חז
חזא
חזבאללה
חזה
חזו
חזון
חזור
חזות
חזותי
חזותית
חזי
חזיא
חזייה
חזינא
חזינן
חזיר
חזירים
חזית
חזן
חזק
חזקה
חזקות
חזקי
חזקיה
חזקיהו
חזקים
חזקת
חזקתו
חזר
חזרה
חזרו
חזרות
חזרת
חזרתה
חזרתו
חזרתי
חטא
חטאה
חטאו
חטאות
חטאים
חטאנו
חטאת
חטאתו
חטאתי
חטאתם
חטה
חטיבה
חטיבות
חטיבת
חטים
חטין
חטיפות
חטיפת
חטף
חי
חיבה
חיבור
חיבורו
חיבורים
חיבר
חיברו
חיבת
חידה
חידוש
חידושי
חידושים
חידות
חידש
חיה
חיו
חיוב
חיובא
חיובו
חיובי
חיוביות
חיוביים
חיובית
חיוור
חיון
חיוני
חיוניים
חיונית
חיות
חיותא
חיותו
חיזוק
חיזור
חיזק
חיטה
חיטים
חיטין
חיי
חייא
חייב
חייבה
חייבו
חייבות
חייבי
חייבים
חייבין
חייבת
חיידקים
חייה
חייהם
חייהן
חייו
חייזרים
חייט
חייך
חייל
חיילא
חיילי
חייליו
חיילים
חיים
חיימוביץ
חיין
חיינו
חייש
חיישי
חיישינן
חיית
חיכוך
חיל
חילא
חילו
חילול
חילוני
חילונית
חילוף
חילופי
חילוץ
חילוק
חילוקי
חילות
חילק
חילקו
חימום
חימוץ
חימוש
חינוך
חינוכי
חינוכיות
חינוכיים
חינוכית
חינם
חיננא
חיסול
חיסון
חיסונים
חיסכון
חיפה
חיפוש
חיפושים
חיפש
חיפשו
חיצון
חיצוני
חיצוניות
חיצוניים
חיצונית
חיקוי
חיקוק
חירום
חירות
חירם
חישב
חישוב
חישובים
חית
חיתוך
חכים
חכירה
חכם
חכמה
חכמות
חכמי
חכמים
חכמינו
חכמת
חכמתא
חכמתו
חל
חלא
חלב
חלבו
חלבון
חלבוני
חלבונים
חלבי
חלה
חלו
חלול
חלום
חלומו
חלומות
חלון
חלונות
חלוף
חלופה
חלופות
חלופי
חלופית
חלוץ
חלוצה
חלוצי
חלוצים
חלוק
חלוקה
חלוקות
חלוקי
חלוקים
חלוקין
חלוקת
חלות
חליל
חלילה
חלים
חליפות
חליפין
חליפת
חליצה
חליצתה
חלל
חללה
חללו
חללי
חלליות
חללים
חללית
חלם
חלמיש
חלף
חלפו
חלפתא
חלץ
חלצה
חלק
חלקה
חלקו
חלקות
חלקי
חלקיה
חלקיו
חלקים
חלקיק
חלקיקי
חלקיקים
חלקית
חלקם
חלקן
חלקת
חלש
חלשה
חלשות
חלשים
חלת
חלתה
חם
חמא
חמאה
חמאס
חמד
חמדה
חמדת
חמה
חמו
חמוץ
חמור
חמורה
חמורו
חמורות
חמורים
חמוש
חמושים
חמות
חמותו
חמי
חמיה
חמיו
חמים
חמין
חמיר
חמירא
חמישה
חמישי
חמישים
חמישית
חמלה
חממה
חמס
חמץ
חמצו
חמצן
חמצני
חמר
חמרא
חמרי
חמרים
חמש
חמשה
חמשים
חמשין
חמשת
חמת
חמתו
חן
חנא
חנה
חנו
חנויות
חנוך
חנוכה
חנוכת
חנון
חנוני
חנות
חניבעל
חניה
חנייה
חנין
חנינא
חנינה
חנית
חנם
חנן
חננאל
חנניא
חנניה
חנק
חנקן
חס
חסד
חסדא
חסדו
חסדי
חסדים
חסדך
חסון
חסות
חסותו
חסיד
חסידות
חסידי
חסידיו
חסידים
חסידית
חסימה
חסימות
חסימת
חסין
חסינות
חסם
חסן
חסר
חסרה
חסרו
חסרון
חסרונות
חסרות
חסרי
חסרים
חסרת
חפיפה
חפירה
חפירות
חפירת
חפץ
חפצה
חפצו
חפצי
חפציו
חפצים
חפצתי
חפר
חפשי
חץ
חצאי
חצה
חצו
חצוצרות
חצור
חצות
חצי
חציה
חציו
חציית
חצים
חציצה
חציר
חצירו
חצירות
חצר
חצרו
חצרות
חק
חקי
חקיקה
חקיקת
חקירה
חקירות
חקירת
חקלאות
חקלאי
חקלאיות
חקלאיים
חקלאים
חקלאית
חקק
חקר
חקרה
חקרו
חקת
חרב
חרבה
חרבו
חרבות
חרבן
חרדה
חרדי
חרדים
חרדית
חרדל
חרה
חרוב
חרוד
חרוט
חרון
חרוץ
חרושצ
חרושת
חרות
חרטה
חרטום
חרי
חריג
חריגה
חריגות
חריגים
חריף
חריפה
חריפות
חריפים
חריץ
חרישה
חרם
חרס
חרסונסקי
חרף
חרפה
חרקוב
חרקים
חרש
חרשת
חש
חשאי
חשאית
חשב
חשבה
חשבו
חשבון
חשבונו
חשבונות
חשבינן
חשבתי
חשד
חשדא
חשה
חשו
חשוב
חשובה
חשובות
חשובים
חשובין
חשוד
חשודים
חשוון
חשוך
חשוף
חשופים
חשיב
חשיבא
חשיבה
חשיבות
חשיבותה
חשיבותו
חשיבי
חשיכה
חשים
חשיפה
חשיפת
חשך
חשכה
חשמונאי
חשמל
חשמלי
חשמליות
חשמליים
חשמלית
חשף
חשפה
חשפו
חשק
חשש
חששא
חששו
חששות
חת
חתול
חתולים
חתום
חתומה
חתומים
חתונה
חתיכה
חתיכות
חתיכת
חתימה
חתימות
חתימת
חתימתו
חתירה
חתך
חתם
חתמה
חתמו
חתן
חתנו
חתנות
חתנים
ט
טאו
טאון
טאיוואן
טאנג
טאפט
טאצ
טאקר
טב
טבא
טבול
טבח
טבילה
טבילות
טביליסי
טבילת
טביעות
טביעת
טבל
טבלא
טבלאות
טבלה
טבלת
טבע
טבעה
טבעו
טבעון
טבעות
טבעי
טבעיות
טבעיים
טבעית
טבעת
טבק
טבריא
טבריה
טברסקי
טבת
טג
טד
טדי
טה
טהור
טהורה
טהורות
טהורים
טהורין
טהר
טהראן
טהרה
טהרות
טהרת
טהרתו
טו
טוב
טובא
טובה
טובו
טובות
טובי
טוביה
טובים
טובין
טובל
טובלין
טובלת
טובת
טוגו
טוד
טוהר
טווח
טווי
טוויטר
טוויין
טוטנהאם
טויוטה
טול
טולסטוי
טולקין
טום
טומאה
טומאות
טומאת
טומאתו
טומטום
טומי
טומנין
טון
טונות
טוני
טוסקנה
טועה
טועים
טועם
טוען
טוענים
טוענין
טוענת
טופ
טופח
טופס
טוקיו
טוקר
טור
טורבו
טורה
טורו
טורונטו
טורח
טורי
טורים
טורינו
טורניר
טורנירי
טורס
טורף
טורפדו
טורפים
טורקי
טורקיה
טורקים
טורקית
טוש
טז
טחון
טחינה
טטיאנה
טי
טיב
טיבו
טיבריוס
טיהור
טיוב
טיול
טיולים
טיורינג
טיט
טיטו
טיטוס
טייט
טיילור
טיילר
טיים
טיימס
טייס
טייסות
טייסי
טייסים
טייסת
טיל
טילי
טילים
טים
טימור
טימותי
טינה
טינטין
טיס
טיסה
טיסות
טיסת
טיעון
טיעונים
טיפה
טיפוח
טיפול
טיפולי
טיפולים
טיפוס
טיפוסי
טיפוסים
טיפות
טיפין
טיפל
טיפש
טיפת
טיקטוק
טירה
טירחא
טירת
טכנאי
טכנולוגי
טכנולוגיה
טכנולוגיות
טכנולוגיים
טכנולוגיית
טכנולוגית
טכני
טכניות
טכניים
טכניקה
טכניקות
טכניקת
טכנית
טל
טלאי
טלאים
טלגרם
טלגרף
טלה
טלוויזיה
טלוויזיוני
טלטול
טלי
טליה
טלית
טליתו
טלסקופ
טלפון
טלפונים
טמא
טמאה
טמאות
טמאים
טמאין
טמון
טמונים
טמפל
טמפרטורה
טמפרטורות
טמפרטורת
טן
טנדר
טנור
טנזניה
טניס
טנסי
טנק
טנקי
טנקים
טס
טסה
טסלה
טעה
טעו
טעויות
טעון
טעונה
טעונות
טעונים
טעונין
טעות
טעין
טעינה
טעם
טעמא
טעמו
טעמי
טעמיה
טעמייהו
טעמים
טעמם
טען
טענה
טענו
טענות
טענותיהם
טענותיו
טענינן
טענת
טענתו
טפה
טפח
טפחים
טפי
טפילה
טפל
טפלה
טק
טקס
טקסט
טקסטיל
טקסטים
טקסי
טקסים
טקסס
טר
טראומה
טראמפ
טרה
טרוד
טרוי
טרויה
טרום
טרומן
טרומפלדור
טרופי
טרופיים
טרור
טרח
טרחא
טרחו
טרי
טריטוריה
טרייסי
טרינידד
טריף
טריפה
טריפולי
טריפות
טריפל
טרם
טרמינל
טרנס
טרנסג
טרנסילבניה
טרנר
טרף
טרפה
טרפו
טרפון
טרפות
טשרניחובסקי
י
יא
יאבד
יאבדו
יאהדונהי
יאו
יאוחר
יאוש
יאות
יאיר
יאכל
יאכלו
יאמין
יאמינו
יאמר
יאמרו
יאן
יאנג
יאנוש
יאסין
יאסר
יאפשר
יאקוב
יאר
יארד
יאריך
יארע
יאשיה
יאשיהו
יב
יבא
יבאו
יבגני
יבדוק
יבו
יבוא
יבואו
יבואן
יבואר
יבוטי
יבול
יבום
יבחר
יבטל
יביא
יביאו
יביאך
יבין
יבינו
יביע
יבם
יבמה
יבמות
יבמין
יבמתו
יבנה
יבצע
יבקש
יבקשו
יברך
יברכך
יבש
יבשה
יבשות
יבשים
יבשת
יבשתי
יבשתיים
יבשתית
יג
יגאל
יגבה
יגדל
יגו
יגואר
יגור
יגיד
יגידו
יגיע
יגיעו
יגיש
יגלה
יגלו
יגלח
יגמור
יגע
יגרום
יגרע
יד
ידא
ידאג
ידבק
ידבר
ידברו
ידה
ידו
ידווח
ידון
ידוע
ידועה
ידועות
ידועים
ידור
ידות
ידחה
ידי
ידיד
ידידו
ידידות
ידידי
ידידיה
ידידים
ידיה
ידיהם
ידיהן
ידיו
ידיים
ידיך
ידים
ידין
ידינו
ידיע
ידיעה
ידיעות
ידיעת
ידיעתו
ידית
ידך
ידם
ידמה
ידן
ידני
ידנית
ידע
ידעה
ידעו
ידעי
ידעין
ידעינן
ידענא
ידענו
ידעת
ידעתי
ידרוש
יה
יהא
יהאד
יהב
יהבי
יהבינן
יהדות
יהו
יהוא
יהוד
יהודא
יהודאי
יהודה
יהודי
יהודיה
יהודיות
יהודייה
יהודיים
יהודים
יהודית
יהוה
יהוידע
יהויכין
יהויקים
יהונתן
יהוסף
יהורם
יהושוע
יהושע
יהושפט
יהי
יהיב
יהיה
יהיו
יהל
יהלום
יהלומים
יהנה
יהפוך
יהפכו
יהרג
יהרוג
יו
יואב
יואכים
יואל
יואן
יואש
יובא
יובאו
יוביל
יובל
יובן
יובנטוס
יוג
יוגוסלביה
יוגש
יוד
יודא
יודה
יודו
יודי
יודילוביץ
יודין
יודיע
יודן
יודע
יודעי
יודעים
יודעין
יודעת
יוה
יוהאן
יוהנס
יוון
יווני
יוונים
יוונית
יוז
יוזמה
יוזמות
יוזמת
יוזף
יוחאי
יוחנן
יוחסין
יוטה
יוטיוב
יוכבד
יוכיח
יוכיחו
יוכל
יוכלו
יולד
יולדות
יולדת
יולי
יוליאני
יוליה
יוליוס
יוליך
יום
יומא
יומו
יומי
יומיים
יומים
יומין
יומית
יומם
יומן
יומנו
יומני
יומת
יומתו
יון
יונג
יונדאי
יונה
יוני
יוניברסל
יוניון
יונייטד
יונים
יונית
יונס
יונק
יונקים
יונת
יונתן
יוס
יוסה
יוסטון
יוסי
יוסיף
יוסיפו
יוסף
יועבר
יועברו
יועד
יועיל
יועילו
יועץ
יועצים
יועצת
יופי
יופיע
יופיעו
יוצא
יוצאה
יוצאות
יוצאי
יוצאים
יוצאין
יוצאת
יוציא
יוציאו
יוצר
יוצרה
יוצרו
יוצרות
יוצרי
יוצרים
יוצרת
יוקם
יוקרה
יוקרתי
יורד
יורדות
יורדי
יורדים
יורדין
יורדת
יורה
יורו
יורי
יורים
יורם
יורק
יורש
יורשה
יורשו
יורשי
יורשיה
יורשיו
יורשים
יורשין
יורשת
יושב
יושבי
יושביה
יושבים
יושבין
יושבת
יושר
יותם
יותן
יותקנו
יותר
יותרת
יז
יזהר
יזו
יזיק
יזכה
יזכו
יזכור
יזכיר
יזם
יזמה
יזרעאל
יח
יחד
יחדו
יחדיו
יחדל
יחו
יחוד
יחול
יחולו
יחוס
יחוש
יחזור
יחזיק
יחזיר
יחזקאל
יחזרו
יחטא
יחי
יחיא
יחיאל
יחיד
יחידה
יחידות
יחידי
יחידים
יחידת
יחיה
יחיו
יחל
יחלוקו
יחליט
יחליף
יחלל
יחלק
יחלקו
יחס
יחסו
יחסי
יחסיה
יחסיו
יחסים
יחסית
יחסר
יחפוץ
יחפור
יחשב
יחשבו
יחשוב
יט
יטה
יטהר
יטו
יטול
יטלו
יטמא
יטמאו
יטעה
יטעו
יטעון
יי
ייאוש
ייבוא
יידי
יידיש
ייחד
ייחוד
ייחודי
ייחודיות
ייחודיים
ייחודית
ייחוס
ייחס
ייחשב
ייטב
ייטס
ייל
יימי
יימס
יימצא
יימר
יין
יינה
יינו
יינות
ייני
יינם
יינן
יינתן
ייס
ייסד
ייסדה
ייסדו
ייסוד
ייסון
ייעוד
ייעודי
ייעודיים
ייעודית
ייעוץ
ייערך
ייעשה
ייצא
ייצג
ייצגה
ייצוא
ייצוג
ייצור
ייצר
ייצרה
ייק
ייקבע
ייקבעו
ייקוב
ייקובס
ייקובסקי
ייקרא
ייראה
יירש
יירשו
יישאר
יישארו
יישוב
יישובי
יישובים
יישום
יישומי
יישומים
יישן
ייתכן
ייתכנו
ייתן
יך
יכ
יכבס
יכה
יכו
יכוין
יכול
יכולה
יכולות
יכולותיו
יכולים
יכולין
יכולת
יכולתה
יכולתו
יכולתי
יכולתם
יכיל
יכין
יכיר
יכירו
יכל
יכלה
יכלו
יכלול
יכנוס
יכניס
יכנס
יכנסו
יכסה
יכפר
יכרת
יכשלו
יכתבו
יכתוב
יל
ילבש
ילד
ילדה
ילדו
ילדות
ילדותה
ילדותו
ילדי
ילדיה
ילדיהם
ילדיו
ילדים
ילה
ילו
ילי
יליאני
יליד
ילידי
ילידים
ילידת
ילין
יליף
ילך
ילכו
ילמד
ילמדו
ילמדנו
ילמוד
ילנה
ילפי
ילפינן
ילצין
ילקוט
ים
ימ
ימא
ימאות
ימה
ימו
ימול
ימונה
ימות
ימותו
ימחה
ימי
ימיה
ימיהם
ימיו
ימיות
ימיים
ימיך
ימים
ימימה
ימין
ימינא
ימינה
ימינו
ימיני
ימינך
ימית
ימכור
ימכר
ימכרו
ימלא
ימלוך
ימלט
ימנה
ימני
ימנית
ימנע
ימסור
ימעט
ימצא
ימצאו
ימשיך
ימשיכו
ימשך
ימת
ימתין
ין
ינ
ינאי
ינג
ינה
ינהג
ינו
ינואר
ינוח
ינון
ינוקא
יני
יניב
יניה
יניח
יניחו
יניקה
ינס
ינסקי
ינקה
ינקו
ינתן
יס
יסא
יסד
יסדה
יסו
יסוד
יסודות
יסודי
יסודיים
יסודית
יסור
יסורים
יסורין
יסיר
יסמוך
יסמין
יסעור
יספיק
יספר
יע
יעבדו
יעבוד
יעבור
יעביר
יעבץ
יעברו
יעד
יעדי
יעדים
יעו
יעוד
יעויין
יעזוב
יעזור
יעיד
יעידו
יעיל
יעילה
יעילות
יעילים
יעל
יעלה
יעלו
יעלון
יעמדו
יעמוד
יעמיד
יען
יענה
יענו
יענש
יעסוק
יעץ
יעקב
יעקבי
יעקוב
יעקובי
יעקובסון
יער
יערה
יערוך
יערות
יערי
יערים
יעשה
יעשו
יף
יפ
יפגע
יפה
יפו
יפול
יפות
יפחות
יפחת
יפים
יפלא
יפלו
יפן
יפנה
יפני
יפניים
יפנים
יפנית
יפסיד
יפסיק
יפעל
יפעת
יפר
יפרוש
יפרח
יפריש
יפרסם
יפרע
יפרש
יפת
יפתח
יץ
יצ
יצא
יצאה
יצאו
יצאת
יצדק
יצה
יצו
יצוא
יצוה
יצוייר
יצוין
יצוקה
יצור
יצורים
יצחק
יצחקי
יצטרך
יצטרכו
יצטרף
יציאה
יציאות
יציאת
יציאתו
יציב
יציבה
יציבות
יציבים
יציג
יציין
יציל
יציע
יצירה
יצירות
יצירותיו
יצירת
יצירתה
יצירתו
יצירתיות
יצליח
יצליחו
יצר
יצרה
יצרו
יצרן
יצרני
יצרנים
יצרנית
יצתה
יק
יקב
יקבל
יקבלו
יקבע
יקבר
יקדים
יקדש
יקו
יקוב
יקום
יקומו
יקותיאל
יקח
יקחו
יקטרינה
יקי
יקיים
יקים
יקיסטן
יקיר
יקל
יקנה
יקר
יקרא
יקראו
יקרב
יקרבו
יקרה
יקרות
יקריב
יקריבו
יקרים
יקשה
יר
ירא
יראה
יראו
יראי
יראים
יראת
ירבה
ירבו
ירבעם
ירגזי
ירגיש
ירגישו
ירד
ירדה
ירדו
ירדן
ירדני
ירדתי
ירה
ירו
ירוחם
ירון
ירוק
ירוקה
ירוקים
ירושה
ירושלים
ירושלם
ירושלמי
ירושת
ירח
ירחא
ירחון
ירחי
ירי
יריב
יריבו
יריבות
יריביו
יריבים
יריבתה
יריד
ירידה
ירידת
יריה
יריות
יריחו
ירייה
ירים
יריעה
יריעות
ירית
ירך
ירכו
ירמוז
ירמי
ירמיה
ירמיהו
ירעה
ירעו
ירצה
ירצו
ירק
ירקוני
ירקות
ירש
ירשה
ירשו
יש
ישא
ישאו
ישאל
ישאלו
ישאר
ישארו
ישב
ישבה
ישבו
ישבי
ישבע
ישבר
ישהה
ישו
ישוב
ישובו
ישויות
ישולם
ישולמו
ישוע
ישועה
ישועות
ישורון
ישות
ישחוט
ישחט
ישי
ישיב
ישיבה
ישיבות
ישיבת
ישיג
ישיגו
ישים
ישימו
ישיר
ישירה
ישירות
ישכב
ישכון
ישכח
ישלח
ישלים
ישלם
ישלמו
ישמור
ישמח
ישמחו
ישמע
ישמעאל
ישמעו
ישמרו
ישמש
ישמשו
ישן
ישנה
ישנו
ישנות
ישנים
ישנם
ישנן
ישע
ישעי
ישעיה
ישעיהו
ישפוט
ישפך
ישר
ישראל
ישראלי
ישראליות
ישראליים
ישראלים
ישראלית
ישרה
ישרים
ישרף
ישרפו
יששכר
ישתבח
ישתה
ישתמש
ישתנה
ית
יתב
יתבאר
יתבטל
יתבי
יתברך
יתברר
יתגלה
יתד
יתדות
יתהון
יתו
יתום
יתומה
יתומים
יתחייב
יתחיל
יתחילו
יתיב
יתיה
יתיר
יתירא
יתירה
יתירתא
יתכן
יתכנו
יתמודד
יתמי
יתן
יתנו
יתעלה
יתפלל
יתקיים
יתקיימו
יתקן
יתקע
יתר
יתרה
יתרו
יתרון
יתרונות
יתרת
ך
כ
כא
כאב
כאבא
כאבי
כאביי
כאבים
כאבן
כאדם
כאדמו
כאוכל
כאומר
כאומרו
כאור
כאות
כאותה
כאזור
כאחד
כאחת
כאילו
כאין
כאיש
כאישה
כאל
כאלה
כאלו
כאלף
כאמור
כאמן
כאמצעי
כאמרו
כאמרם
כאן
כאנשי
כארבע
כארבעה
כארגון
כארץ
כאש
כאשה
כאשר
כאשתו
כאתר
כב
כבד
כבדה
כבדות
כבדים
כבהמה
כבוד
כבודה
כבודו
כבודי
כבודך
כבודם
כבוש
כבי
כבידה
כביטוי
כביכול
כביסה
כביצה
כביר
כבירת
כביש
כבישים
כבית
כבל
כבלים
כבלתי
כבמאי
כבן
כבנו
כבני
כבנם
כבסיס
כבעל
כבעלי
כבעלת
כבר
כבראשונה
כבש
כבשה
כבשו
כבשים
כבשר
כבת
כבתחלה
כג
כגוונא
כגון
כגוף
כגורם
כגן
כגנב
כגריס
כד
כדאי
כדאית
כדאיתא
כדאמר
כדאמרי
כדאמרינן
כדאמרן
כדאשכחן
כדבעינן
כדבר
כדברי
כדבריהם
כדבריו
כדברים
כדברירנא
כדדרשינן
כדוגמה
כדוגמת
כדון
כדור
כדורגל
כדורגלן
כדורגלנים
כדורי
כדורים
כדורסל
כדורסלן
כדי
כדין
כדינו
כדכתב
כדכתיב
כדכתיבנא
כדלהלן
כדלעיל
כדלקמן
כדמוכח
כדמות
כדמסיק
כדמפרש
כדמשמע
כדעת
כדפי
כדפירש
כדפירשתי
כדפרישית
כדפרישנא
כדקא
כדקאמר
כדקתני
כדר
כדרב
כדרך
כדרכה
כדרכו
כדרכן
כדת
כדתני
כדתניא
כדתנן
כה
כהאי
כהגדרתה
כהגדרתו
כהגדרתם
כהדא
כהה
כההיא
כהוגן
כהונה
כהונת
כהונתה
כהונתו
כהוקרה
כהות
כהים
כהכנה
כהלכה
כהלכתא
כהלכתה
כהן
כהנא
כהני
כהנים
כהנת
כהר
כהרא
כהרי
כהרמב
כו
כואב
כוב
כובד
כובע
כובש
כוהן
כווית
כוון
כוונה
כוונו
כוונות
כוונת
כוונתה
כוונתו
כוונתם
כוורת
כוותי
כוותיה
כוותייהו
כוזב
כוח
כוחה
כוחו
כוחות
כוחותיה
כוחותיהם
כוחותיו
כוחם
כוי
כוכב
כוכבא
כוכבי
כוכבים
כוכבת
כול
כולא
כולה
כולהו
כולו
כולי
כוליה
כולכם
כולל
כוללות
כוללים
כוללת
כולם
כולן
כולנו
כומר
כונה
כונו
כונן
כוננה
כוננו
כונס
כונת
כונתה
כונתו
כוס
כוסות
כוסלובקיה
כועס
כופה
כופין
כופר
כור
כורדיסטן
כורים
כורש
כוש
כושל
כושר
כותב
כותבי
כותבים
כותבין
כותבת
כותי
כותיה
כותים
כותל
כותלו
כותלי
כותנה
כותר
כותרות
כותרת
כז
כזאת
כזב
כזה
כזו
כזית
כזכי
כזמר
כזמרת
כח
כחבר
כחברה
כחברת
כחד
כחדא
כחה
כחו
כחודש
כחודשיים
כחוט
כחול
כחולה
כחולים
כחומר
כחוק
כחוקר
כחוש
כחות
כחי
כחכמים
כחל
כחלון
כחלק
כחם
כחמישה
כחמש
כחן
כחצי
כחצר
כט
כטייס
כטעם
כי
כיבוד
כיבוי
כיבוס
כיבוש
כיבושה
כיד
כידון
כידוע
כיה
כיהן
כיהנה
כיהנו
כיו
כיוון
כיווני
כיוונים
כיום
כיון
כיועץ
כיוצא
כיורש
כיושב
כיחידה
כיין
כיכב
כיכבה
כיכבו
כיכר
כילד
כים
כימאי
כימי
כימיה
כימיות
כימיים
כימים
כימיקלים
כימית
כינה
כינו
כינוי
כינויו
כינון
כינוס
כינור
כיני
כינס
כיס
כיסא
כיסאות
כיסו
כיסוי
כיף
כיפה
כיפור
כיפר
כיפת
כיצד
כירה
כישוף
כישורי
כישורים
כישלון
כישראל
כישרון
כישרונו
כישרונות
כית
כיתה
כיתות
כיתת
כך
ככה
ככוח
ככולו
ככל
ככלי
ככלל
ככר
ככרות
ככתב
ככתוב
כל
כלא
כלאחר
כלאי
כלאיים
כלאים
כלב
כלבו
כלבי
כלבים
כלה
כלהו
כלו
כלוא
כלוב
כלוחם
כלול
כלולה
כלולים
כלום
כלומר
כלות
כלי
כליה
כליו
כליות
כליל
כלים
כלישנא
כלך
כלכלה
כלכלי
כלכליות
כלכליים
כלכליסט
כלכלית
כלכלן
כלכלת
כלכם
כלל
כללא
כללה
כללו
כללות
כללי
כלליות
כלליים
כללים
כללית
כלם
כלן
כלעיל
כלפי
כלפיה
כלפיו
כלשהו
כלשהי
כלשהם
כלשון
כלת
כלתה
כלתו
כמ
כמא
כמאה
כמאכל
כמאל
כמאמן
כמאמר
כמאן
כמבואר
כמדובר
כמדינה
כמדריך
כמדת
כמה
כמהנדס
כמו
כמובא
כמובן
כמוה
כמוהו
כמוהם
כמויות
כמוך
כמוני
כמועמד
כמוציא
כמורה
כמושל
כמות
כמותה
כמותו
כמותם
כמותן
כמזכיר
כמחווה
כמחליף
כמחליפו
כמחצית
כמי
כמיליון
כמים
כמין
כמיניה
כמלא
כמלוה
כמלך
כמנהג
כמנהיג
כמנהל
כמנהלת
כמנין
כמנכ
כמנצח
כמספר
כמעט
כמעין
כמעשה
כמפורט
כמפורש
כמפיק
כמפקד
כמקובל
כמקום
כמקור
כמר
כמראה
כמרים
כמרכז
כמרצה
כמש
כמשה
כמשל
כמשמעו
כמשמעותה
כמשמעותו
כמשמעותם
כמשנה
כמשפט
כמת
כמתנה
כמתנת
כמתקן
כן
כנ
כנגד
כנגדה
כנגדו
כנגדם
כנגדן
כנגן
כנדרש
כנה
כנהוג
כנו
כנודע
כנוי
כנוס
כנופיות
כנופיית
כנושא
כנז
כנזכר
כנים
כניסה
כניסת
כניסתה
כניסתו
כניסתם
כניעה
כניעת
כנישתא
כנלע
כנס
כנסה
כנסיות
כנסייה
כנסיית
כנסים
כנסת
כנען
כנעני
כנענית
כנער
כנף
כנפות
כנפי
כנפיו
כנפיים
כנפים
כנציג
כנקודת
כנקמה
כנר
כנראה
כנרת
כנשיא
כס
כסא
כסאו
כסבור
כסברא
כסברת
כסגן
כסגנית
כסדר
כסדרה
כסדרן
כסה
כסוי
כסוכן
כסולן
כסוף
כסות
כסיל
כסינגל
כסלו
כסלע
כסמל
כסף
כספו
כספי
כספיים
כספים
כספית
כספר
כסרט
כסתם
כע
כעבד
כעבור
כעד
כעובד
כעוזר
כעומד
כעונש
כעורך
כעורכת
כעין
כעיקר
כעיר
כעיתונאי
כעל
כעניין
כענין
כעס
כעסו
כעפר
כעץ
כערך
כעשור
כעשר
כעשרה
כעשרים
כעת
כף
כפ
כפה
כפו
כפוי
כפול
כפולה
כפולות
כפולים
כפועל
כפוף
כפופה
כפופים
כפור
כפורים
כפות
כפי
כפיו
כפייה
כפיים
כפים
כפיר
כפירה
כפירוש
כפירש
כפירת
כפל
כפלים
כפר
כפרה
כפרו
כפרופסור
כפרי
כפריים
כפרים
כפרית
כפרן
כפרש
כפשוטו
כפתור
כץ
כצ
כצאן
כצנלסון
כקבוצה
כקיסר
כקנין
כקפטן
כקצין
כקרקע
כר
כראב
כראוי
כראי
כראש
כרב
כרבא
כרבה
כרבי
כרבים
כרבן
כרבנן
כרבע
כרגיל
כרגלי
כרגע
כרוב
כרובים
כרוז
כרוך
כרוכה
כרום
כרונית
כרופא
כרחה
כרחו
כרחיך
כרחין
כרחך
כרחם
כרטא
כרטיס
כרטיסי
כרטיסים
כרי
כרייה
כריית
כריכות
כרים
כריס
כריסטוף
כריסטופר
כריסטי
כריסטיאן
כריסטין
כריסטינה
כריעה
כריש
כריתה
כריתות
כריתת
כרך
כרכים
כרם
כרמב
כרמו
כרמון
כרמי
כרמיאל
כרמים
כרמית
כרמל
כרמלי
כרמלית
כרמן
כרע
כרצון
כרצונו
כרש
כרשב
כרשות
כרת
כרתי
כרתים
כש
כשאדם
כשאומר
כשאין
כשאינו
כשאמר
כשאנו
כשאני
כשאר
כשאתה
כשב
כשבא
כשבאו
כשבה
כשבוע
כשבועיים
כשבת
כשגריר
כשדה
כשדים
כשהגיע
כשהוא
כשהיא
כשהיה
כשהיו
כשהייתה
כשהיתה
כשהם
כשהן
כשומר
כשופט
כשורה
כשזה
כשחזר
כשחל
כשחקן
כשחקנית
כשיבא
כשיגיע
כשיהיה
כשיטת
כשיעור
כשיצא
כשיר
כשירה
כשירות
כשירים
כשיש
כשכל
כשכתב
כשל
כשלא
כשלה
כשלו
כשלוש
כשלושה
כשליח
כשליט
כשליש
כשם
כשמו
כשמואל
כשמונה
כשמת
כשנה
כשני
כשנים
כשנכנס
כשנתיים
כשנתן
כשעה
כשעורה
כשעלה
כשער
כשעת
כשפה
כשפופרת
כשפים
כשפת
כשר
כשראה
כשרה
כשרות
כשרים
כשרין
כשתי
כת
כתב
כתבה
כתבו
כתבות
כתבי
כתביה
כתביו
כתבים
כתבינן
כתבם
כתבנו
כתבת
כתבתי
כתגובה
כתוב
כתובה
כתובו
כתובות
כתוביות
כתובים
כתובין
כתובת
כתובתה
כתום
כתונת
כתוצאה
כתות
כתחליף
כתי
כתיב
כתיבא
כתיבה
כתיבי
כתיבת
כתיבתו
כתלות
כתלמיד
כתם
כתמים
כתנא
כתנאי
כתנות
כתף
כתפו
כתפיו
כתר
כתרגומו
כתרומה
כתרים
כתת
ל
לא
לאב
לאבא
לאבד
לאבות
לאבותינו
לאבחון
לאבי
לאביה
לאביהם
לאביו
לאביי
לאבל
לאבן
לאברהם
לאגודה
לאגם
לאגף
לאדום
לאדון
לאדם
לאדמה
לאדן
לאדריכלות
לאה
לאהבה
לאהדורי
לאהוב
לאהל
לאהרן
לאו
לאובדן
לאוויר
לאויב
לאוין
לאויר
לאוכל
לאוכלו
לאוכלוסייה
לאולימפיאדת
לאולם
לאום
לאומה
לאומות
לאומי
לאומיות
לאומיים
לאומים
לאומית
לאומן
לאומנויות
לאומנות
לאומר
לאומרה
לאומרו
לאון
לאוניברסיטה
לאוניברסיטת
לאונס
לאונרד
לאונרדו
לאוס
לאוסטריה
לאוסטרליה
לאוסרה
לאופולד
לאופן
לאוצר
לאוקומה
לאוקומי
לאוקטובר
לאוקיינוס
לאוקמא
לאוקמה
לאוקמי
לאוקראינה
לאור
לאורה
לאורו
לאורויי
לאורך
לאורכו
לאושוויץ
לאות
לאותה
לאותו
לאותם
לאותן
לאזור
לאזורי
לאזורים
לאזן
לאזרח
לאזרחים
לאח
לאחד
לאחוז
לאחור
לאחוריו
לאחותו
לאחיו
לאחים
לאחסון
לאחר
לאחרונה
לאחריה
לאחריהם
לאחריו
לאחריות
לאחרים
לאחריני
לאחת
לאט
לאי
לאיבוד
לאיגוד
לאידך
לאיוש
לאיזה
לאיזו
לאיחוד
לאיטליה
לאיי
לאיים
לאיכות
לאילן
לאילת
לאימון
לאימוץ
לאימפריה
לאין
לאינו
לאינטרנט
לאיסוף
לאיסור
לאיסורא
לאיראן
לאירוויזיון
לאירוע
לאירועי
לאירועים
לאירופה
לאיש
לאישה
לאישור
לאישים
לאיתויי
לאיתור
לאכול
לאכוף
לאכילה
לאכילת
לאכל
לאכלה
לאכלו
לאכלן
לאל
לאלבום
לאלה
לאלהי
לאלהים
לאלו
לאלוהים
לאלוף
לאלופות
לאלים
לאלימות
לאליפות
לאלמנה
לאלף
לאלפים
לאלתר
לאם
לאמה
לאמו
לאמונה
לאמור
לאמן
לאמנה
לאמנויות
לאמנות
לאמנים
לאמץ
לאמצע
לאמצעי
לאמר
לאמרו
לאמריקה
לאמת
לאמתו
לאן
לאנג
לאנגליה
לאנגלית
לאנה
לאנטארקטיקה
לאנס
לאנרגיה
לאנשי
לאנשים
לאס
לאסוף
לאסוקי
לאסור
לאסירים
לאסלאם
לאסלו
לאספה
לאספקת
לאסתכלא
לאסתר
לאף
לאפוקי
לאפות
לאפיפיור
לאפס
לאפריל
לאפריקה
לאפשר
לאפשרות
לאצטדיון
לאקדמיה
לאקרנים
לאקשויי
לארבע
לארבעה
לארגון
לארגונים
לארגן
לארגנטינה
לארה
לארון
לארח
לארי
לארכאולוגיה
לארמון
לארמית
לארס
לארעא
לארץ
לארצו
לארצות
לאש
לאשה
לאשמועי
לאשמועינן
לאשמעינן
לאשר
לאשת
לאשתו
לאשתי
לאתויי
לאתר
לאתרים
לב
לבא
לבאר
לבב
לבבו
לבבות
לבבי
לבבך
לבבכם
לבבל
לבבם
לבג
לבגרות
לבד
לבדה
לבדו
לבדוק
לבדי
לבדיקה
לבדיקת
לבדך
לבדם
לבדק
לבה
לבהמה
לבו
לבוא
לבוב
לבוד
לבון
לבונה
לבור
לבוש
לבושה
לבושי
לבושים
לבחון
לבחור
לבחינה
לבחינת
לבחירה
לבחירות
לבחירת
לבטא
לבטח
לבטיחות
לבטל
לבטלה
לבטלו
לבי
לביא
לביאה
לביולוגיה
לביטוח
לביטוי
לביטול
לביטחון
לביים
לבין
לבינה
לביצוע
לביקור
לביקורות
לביקורת
לבירה
לבירור
לבירת
לבישול
לבישת
לבית
לביתה
לביתו
לביתם
לבך
לבכור
לבכות
לבל
לבלבל
לבלום
לבלוע
לבלות
לבלי
לבלתי
לבם
לבמאי
לבמה
לבן
לבנ
לבנה
לבנו
לבנון
לבנות
לבני
לבניה
לבניו
לבנייה
לבניין
לבניית
לבניך
לבנים
לבנין
לבנק
לבנת
לבסוף
לבסיס
לבסס
לבע
לבעול
לבעיה
לבעיות
לבעיית
לבעל
לבעלה
לבעלות
לבעלי
לבעליהן
לבעליו
לבעלים
לבעלת
לבער
לבערו
לבצע
לבקר
לבקרו
לבקש
לבקשה
לבקשת
לבקשתו
לבר
לברוא
לברוח
לברור
לברורי
לברזיל
לבריאות
לבריה
לבריות
לבריטים
לבריטניה
לברייתא
לברית
לברך
לברכה
לברכת
לברלין
לברצלונה
לברקוזן
לברר
לבש
לבשה
לבשו
לבשל
לבשר
לבת
לבתו
לבתולה
לבתי
לבתיהם
לבתים
לבתר
לג
לגאול
לגאולה
לגבה
לגבוה
לגבול
לגבולות
לגבור
לגבות
לגבי
לגביה
לגביהם
לגביו
לגבייהו
לגביע
לגבר
לגברים
לגבש
לגג
לגדוד
לגדול
לגדולה
לגדור
לגדל
לגדר
לגו
לגובה
לגודל
לגוי
לגוים
לגוף
לגופה
לגופו
לגופיה
לגופים
לגור
לגורם
לגורמים
לגזול
לגזור
לגזירה
לגטו
לגידול
לגיהנם
לגיון
לגיוס
לגיטימציה
לגייס
לגיל
לגילוי
לגירוש
לגירושין
לגישה
לגל
לגלגל
לגלויי
לגלות
לגלח
לגלם
לגמור
לגמלאות
לגמר
לגמרי
לגן
לגנאי
לגנוב
לגעת
לגר
לגרום
לגרוס
לגרוע
לגרור
לגרמניה
לגרמנים
לגרסה
לגרסת
לגרש
לגרשה
לגשר
לגשת
לגת
לד
לדאוג
לדבר
לדברי
לדבריה
לדבריהם
לדבריו
לדברים
לדגל
לדגם
לדו
לדוגמא
לדוגמה
לדוד
לדווח
לדוכן
לדוכתא
לדון
לדופן
לדור
לדורות
לדחוק
לדחות
לדחותו
לדידה
לדידהו
לדידי
לדידיה
לדידך
לדידן
לדיון
לדיור
לדיין
לדייק
לדין
לדינא
לדיני
לדיר
לדירה
לדכא
לדם
לדמויות
לדמוקרטיה
לדמות
לדמותו
לדמי
לדעה
לדעת
לדעתה
לדעתו
לדעתי
לדעתם
לדף
לדפוס
לדצמבר
לדקדק
לדקה
לדר
לדרב
לדרגת
לדרום
לדרוש
לדרישות
לדרך
לדרכו
לדרמה
לדרשא
לדת
לה
להא
להאזנה
להאי
להאיר
להאכיל
להאכילו
להאמין
להאריך
להב
להבא
להבדיל
להבה
להבהיר
להבחין
להבטחת
להבטיח
להביא
להביאו
להביאם
להביט
להבין
להביס
להביע
להבנה
להבנת
להבקיע
להבריח
להגביה
להגביל
להגביר
להגברת
להגדיל
להגדיר
להגדלת
להגדרה
להגדרת
להגהה
להגיב
להגיד
להגיה
להגיע
להגיש
להגן
להגנה
להגנת
להגר
להגשים
להגשת
להד
להדגיש
להדדי
להדוף
להדי
להדיא
להדיוט
להדיח
להדליק
להדפיס
לההוא
לההיא
להו
להוביל
להובלת
להודו
להודות
להודיע
להודיעו
להודיעך
להוות
להוי
להוכיח
להוליד
להוליך
להוליכו
להולנד
להון
להונגריה
להוסיף
להועיל
להופיע
להופעה
להופעות
להופעת
להוצאה
להוצאת
להוציא
להוציאה
להוציאו
להוציאם
להוראה
להוראות
להוראת
להורג
להורגו
להורדה
להורות
להוריד
להוריו
להורים
להושיב
להושיע
להזדהות
להזדווג
להזהיר
להזהר
להזות
להזיז
להזיק
להזכיר
להזמין
להחזיק
להחזיר
להחזירה
להחזירו
להחזירם
להחזרת
להחיות
להחיל
להחלטה
להחלטת
להחליט
להחליף
להחליפו
להחלפת
להחמיץ
להחמיר
להחרים
להט
להטביל
להטות
להטיב
להטיל
להטיף
להטמין
להטעות
להיאבק
להיבחר
להיבנות
להיגרם
להיווצר
להיווצרות
להיום
להיות
להיותה
להיותו
להיותם
להיזהר
להיחשב
להיט
להיטיב
להיטים
להיכא
להיכל
להיכלל
להיכן
להיכנס
להיכנע
להילחם
להימלט
להימנע
להימצא
להימשך
להינשא
להיסטוריה
להיעזר
להיערך
להיעשות
להיפגש
להיפוך
להיפטר
להיפך
להיפרד
להיקרא
להיראות
להירשם
להישאר
להישג
להישגים
להיתר
להך
להכא
להכות
להכותו
להכחיש
להכי
להכיל
להכין
להכיר
להכניס
להכניסו
להכניע
להכנס
להכנת
להכעיס
להכרה
להכריז
להכריח
להכריע
להכשיר
להכשירו
להכשרה
להכשרת
להלוות
להלוך
להלחם
להליך
להלך
להלכה
להלכתא
להלל
להלן
להם
להמיר
להמית
להמיתו
להמליץ
להמן
להמציא
להמשיך
להמשך
להמתין
להן
להנאת
להנדסה
להנדסת
להנהגת
להנהיג
להנות
להנחות
להנחיל
להנחת
להני
להניח
להניחו
להניחם
להניע
להניק
להנך
להנצחת
להנצל
להנשא
להסב
להסביר
להסגיר
להסדיר
להסדר
להסדרת
להסיק
להסיר
להסכים
להסכם
להסכמה
להסקה
להסרת
להסתגל
להסתובב
להסתיים
להסתיר
להסתכל
להסתלק
להסתמך
להסתפק
להסתתר
להעביר
להעבירו
להעברה
להעברת
להעדיף
להעיד
להעיר
להעלאת
להעלות
להעלותו
להעלים
להעמיד
להעמידה
להעמידו
להעמיק
להעניק
להעניש
להענקת
להעסיק
להעפיל
להעריך
להערכה
להערכת
להעשות
להעשרה
להעתיק
להפגין
להפוך
להפועל
להפחית
להפחתת
להפטר
להפיל
להפיץ
להפיק
להפך
להפליא
להפליג
להפנות
להפסד
להפסיד
להפסיק
להפסקת
להפעיל
להפעלת
להפצת
להפקה
להפקיד
להפקיע
להפקת
להפר
להפריד
להפריע
להפריש
להפרישו
להצביע
להצגה
להצגת
להצדיק
להצטרף
להציב
להציג
להציל
להצילו
להציע
להצלחה
להצליח
להצלת
להצעה
להצעת
להק
להקב
להקדוש
להקדים
להקדיש
להקדש
להקה
להקות
להקטין
להקטיר
להקים
להקיף
להקיש
להקל
להקליט
להקמת
להקמתה
להקנות
להקנותו
להקפיד
להקצות
להקרבה
להקריב
להקשות
להקשיב
להקת
להר
להרא
להראות
להרב
להרבה
להרבות
להרגו
להרגיע
להרגיש
להרהר
להרוג
להרוויח
להרויח
להרוס
להרחבה
להרחבת
להרחיב
להרחיק
להרי
להריון
להריח
להרים
להרכב
להרכיב
להרמב
להרס
להרע
להרצות
להרשב
להרשות
להש
להשאיל
להשאיר
להשביע
להשביעו
להשגיח
להשגת
להשהות
להשוות
להשחית
להשי
להשיא
להשיב
להשיבו
להשיג
להשכיל
להשכיר
להשכלה
להשכרה
להשליך
להשלים
להשלמת
להשם
להשמדה
להשמדת
להשמיד
להשמיע
להשמיענו
להשפיע
להשפעה
להשקות
להשקיע
להשקעות
להשתדל
להשתחוות
להשתחרר
להשתכר
להשתלב
להשתלט
להשתמש
להשתנות
להשתתף
להשתתפות
להתאבד
להתאבל
להתאחד
להתאים
להתאמן
להתבונן
להתבטא
להתבסס
להתבצע
להתברר
להתגבר
להתגונן
להתגורר
להתגייס
להתגייר
להתגלות
להתגרש
להתחבר
להתחזק
להתחייב
להתחיל
להתחמק
להתחרות
להתחשב
להתחתן
להתייחס
להתייצב
להתיישב
להתיישבות
להתיר
להתירה
להתירו
להתכבד
להתכונן
להתלבש
להתם
להתמודד
להתמודדות
להתמנות
להתמקד
להתנגד
להתנגדות
להתנהג
להתנהגות
להתנות
להתנקש
להתעורר
להתעטף
להתעלם
להתעמת
להתענות
להתעניין
להתעסק
להתערב
להתפטר
להתפלל
להתפנות
להתפרנס
להתפרסם
להתפשט
להתפתח
להתפתחות
להתקבל
להתקדם
להתקדש
להתקיים
להתקין
להתקפה
להתקרב
להתקשר
להתראות
להתרבות
להתרחק
להתרחש
להתרכז
לו
לואי
לואיג
לואיז
לואיזה
לואיזיאנה
לואיס
לוב
לובאטו
לובלין
לובן
לובש
לובשים
לובשת
לוג
לוגו
לוגי
לוגין
לוד
לודוויג
לודז
לוה
לוהק
לוהקה
לוואי
לוודא
לוודאי
לווה
לוויין
לווייני
לוויינים
לווייתן
לווייתנים
לווין
לווינה
לוויקיטקסט
לוויקימילון
לוויקימסע
לוויקיפדיה
לוועד
לוועדה
לוועדת
לוושינגטון
לוותה
לוותר
לוז
לוח
לוחות
לוחית
לוחם
לוחמה
לוחמי
לוחמים
לוחמת
לוט
לוטננט
לוי
לויד
לויה
לויטננט
לוים
לוין
לוינסון
לוינסקי
לויתי
לויתן
לול
לולא
לולב
לולה
לולי
לומ
לומד
לומדים
לומדת
לומר
לון
לונג
לונדון
לונה
לוס
לוסי
לוסיה
לועג
לופז
לופס
לוצ
לוק
לוקאס
לוקה
לוקהיד
לוקומוטיב
לוקח
לוקחים
לוקחין
לוקחת
לוקי
לוקין
לוקס
לוקסמבורג
לורד
לורה
לורי
לוריא
לורן
לורנס
לורנצו
לות
לותר
לז
לזאת
לזבוני
לזה
לזהב
לזהות
לזו
לזוג
לזוגות
לזוז
לזולת
לזולתו
לזון
לזונה
לזיהוי
לזיהום
לזייף
לזיכרון
לזירה
לזכויות
לזכור
לזכות
לזכותו
לזכייה
לזכר
לזכרה
לזכרו
לזכרון
לזכרים
לזכרם
לזלי
לזמן
לזמנו
לזמר
לזמרת
לזנות
לזר
לזרוע
לזרוק
לזרז
לזרים
לזריעה
לזרם
לזרע
לזרעו
לח
לחבור
לחבורה
לחבירו
לחבל
לחבר
לחברה
לחברו
לחברות
לחברי
לחבריה
לחבריו
לחברים
לחברת
לחברתה
לחג
לחגוג
לחד
לחדור
לחדר
לחדש
לחה
לחו
לחוב
לחובה
לחוג
לחוד
לחודה
לחודיה
לחודש
לחוות
לחוזה
לחול
לחולה
לחולי
לחולים
לחולין
לחום
לחומה
לחומות
לחומר
לחומרא
לחוסר
לחוף
לחופה
לחופי
לחופש
לחופשה
לחוץ
לחוק
לחוקה
לחוקי
לחוקרים
לחוקת
לחורבן
לחוש
לחות
לחזור
לחזות
לחזית
לחזק
לחזקה
לחזר
לחזרה
לחטא
לחטאת
לחטוא
לחטוף
לחטיבה
לחטיבת
לחי
לחיבור
לחידוש
לחיה
לחיוב
לחיות
לחיזוק
לחיי
לחייב
לחייבו
לחייה
לחייהם
לחייו
לחייל
לחיילי
לחיילים
לחיים
לחיל
לחים
לחימה
לחין
לחינוך
לחיפה
לחיפוש
לחיצה
לחיקוי
לחירות
לחישוב
לחכות
לחכם
לחכמה
לחכמי
לחכמים
לחלב
לחלה
לחלוחית
לחלוטין
לחלום
לחלון
לחלופין
לחלוץ
לחלוצי
לחלוק
לחלוקה
לחלוקת
לחלות
לחליצה
לחלל
לחללי
לחלץ
לחלק
לחלקו
לחלקים
לחם
לחמה
לחמו
לחמוק
לחמור
לחמי
לחמישה
לחמישיית
לחמם
לחמץ
לחמש
לחן
לחנות
לחנך
לחסוך
לחסום
לחסידות
לחסל
לחפור
לחפש
לחץ
לחצאין
לחצו
לחצות
לחצי
לחצים
לחצר
לחקור
לחקות
לחקירה
לחקירת
לחקלאות
לחקר
לחרוש
לחרישה
לחש
לחשב
לחשבון
לחשוב
לחשוד
לחשוף
לחשוש
לחשיפה
לחתוך
לחתום
לחתן
לט
לטבול
לטבח
לטביה
לטבילה
לטבע
לטהר
לטהרה
לטוב
לטובה
לטובת
לטובתו
לטווח
לטומאה
לטומאת
לטוס
לטורניר
לטורקיה
לטיול
לטייל
לטיני
לטינית
לטיסה
לטיסות
לטיפול
לטכנולוגיה
לטלוויזיה
לטלטל
לטלטלה
לטלטלו
לטלטלן
לטמא
לטעום
לטעון
לטעות
לטעם
לטעמא
לטעמיה
לטעמייהו
לטענה
לטענת
לטענתו
לטענתם
לטפח
לטפל
לטפס
לטקס
לטקסט
לטרוח
לטרוף
לי
ליאו
ליאון
ליאור
ליאם
ליאת
ליב
ליבה
ליבו
ליבוביץ
ליבום
ליבון
ליבי
ליבם
ליבנה
ליברטדורס
ליבריה
ליברלית
ליברמן
ליברפול
ליבשה
ליבשת
ליבת
ליג
ליגה
ליגות
ליגע
ליגת
ליד
לידה
לידו
לידון
לידות
לידי
לידיה
לידיו
לידים
לידיעת
לידס
לידע
לידר
לידת
לידתה
לידתו
ליה
ליהדות
ליהודה
ליהודי
ליהודים
ליהוה
ליהוי
ליהושע
ליהנות
ליהרג
ליו
ליווה
ליווי
ליוויוס
ליוון
ליוחסין
ליולי
ליום
ליון
ליוני
ליונל
ליוסף
ליועץ
ליורש
ליורשו
ליורשי
ליורשיו
ליורשים
ליושב
ליותר
ליז
ליזה
ליזהר
ליזום
ליחוש
ליחיד
ליחידה
ליחידות
ליחידים
ליחידת
ליחייב
ליחס
ליחסי
ליחסים
ליטא
ליטאי
ליטול
ליטל
ליטלו
ליטמא
ליטע
ליטר
ליטרא
ליטרים
ליי
לייב
לייבם
לייבניץ
ליידי
לייז
לייזר
לייחס
לייט
ליין
לייסד
לייף
לייפציג
לייצג
לייצוא
לייצוג
לייצור
לייצר
לייק
לייקרס
ליישב
ליישוב
ליישובים
ליישום
ליישם
ליך
ליכא
ליכולת
ליכטנשטיין
ליכי
ליכנס
ליכתב
ליל
לילד
לילדי
לילדים
לילה
לילות
לילי
ליליא
ליליאן
לילית
לילך
לים
לימא
לימד
לימדה
לימדו
לימוד
לימודי
לימודיה
לימודיהם
לימודיו
לימודים
לימון
לימור
לימות
לימי
לימים
לימין
לימינו
לין
לינדה
לינדזי
לינה
לינואר
לינוקס
ליניארי
ליניארית
לינץ
לינק
לינקולן
לינשא
ליס
ליסבון
ליסה
ליסוד
ליסט
ליסין
ליעד
ליעדים
ליעזר
ליעקב
ליער
ליף
ליפה
ליפו
ליפול
ליפות
ליפטר
ליפן
ליפקין
ליפרע
ליפשיץ
ליצור
ליצחק
ליציאה
ליציאת
ליצירה
ליצירות
ליצירת
ליקוט
ליקוטי
ליקוי
ליקויים
ליקח
ליקרב
ליר
ליראה
ליראיו
לירד
לירדן
לירון
לירושלים
לירושלם
לירות
לירח
לירי
לירידה
לירש
ליש
לישא
לישאל
לישב
לישבע
לישה
לישון
לישיבה
לישיבת
לישן
לישנא
לישני
לישראל
לית
ליתא
ליתומים
ליתי
ליתיה
ליתיום
ליתמי
ליתן
ליתנהו
ליתנו
ליתני
ליתנם
ליתר
ליתרון
לך
לכ
לכאורה
לכאן
לכבד
לכבוד
לכבודו
לכבוש
לכבות
לכביש
לכבס
לכבש
לכדור
לכדורגל
לכדי
לכה
לכהונה
לכהן
לכהנים
לכו
לכוון
לכוח
לכוחות
לכוין
לכוכב
לכוכבים
לכולהו
לכולי
לכולם
לכולן
לכון
לכונן
לכוס
לכוף
לכופו
לכותל
לכח
לכי
לכיבוש
לכיוון
לכיכר
לכימיה
לכינוי
לכינור
לכיס
לכיסוי
לכיש
לכישלון
לכיתה
לכך
לכל
לכלא
לכלב
לכלבים
לכלוך
לכלול
לכלום
לכלות
לכלי
לכלים
לכלכלה
לכלל
לכללי
לכללים
לכם
לכמה
לכמות
לכן
לכנוס
לכנות
לכניסה
לכנס
לכנסייה
לכנסת
לכס
לכסא
לכסות
לכסף
לכף
לכפול
לכפור
לכפות
לכפר
לכפרה
לכרות
לכרך
לכרמלית
לכת
לכתב
לכתבו
לכתבי
לכתוב
לכתובה
לכתובת
לכתובתה
לכתחילה
לכתחלה
לכתיבה
לכתיבת
לכתר
לל
ללא
ללאה
ללאו
ללב
ללבוש
ללבן
ללבנון
ללדת
ללהיט
ללהקה
ללהקת
ללוה
ללוות
ללוח
ללוחמה
ללוי
ללוים
ללון
ללונדון
ללוס
ללוקח
ללוש
ללות
ללחום
ללחוץ
ללחימה
ללחם
ללחץ
לליגה
לליגת
ללילה
ללימוד
ללימודי
ללימודים
ללישנא
ללכוד
ללכת
ללמד
ללמדו
ללמדך
ללמדנו
ללמוד
ללקוח
ללקוחות
ללקות
ללקט
ללשון
ללשכת
לם
למ
למאבק
למאה
למאות
למאי
למאכל
למאמן
למאמנה
למאמץ
למאמר
למאן
למאסר
למבוגרים
למבוי
למבנה
למבנים
למבצע
למבקרים
למבקש
למברט
למגדל
למגוון
למגורים
למגזין
למגזר
למגע
למגרש
למד
למדבר
למדה
למדו
למדוד
למדי
למדידת
למדיי
למדים
למדין
למדינה
למדינות
למדיניות
למדינת
למדנו
למדע
למדעי
למדעים
למדרגה
למדרש
למדת
למדתי
למה
למהדורה
למהדורת
למהדר
למהוי
למהירות
למהלך
למהפכה
למהר
למו
למוד
למודיעין
למודל
למוות
למוזיאון
למוזיקה
למוח
למוטב
למוכר
למוכרה
למוכרו
למול
למולו
למונדיאל
למונח
למונחי
למוסד
למוסדות
למוסיקה
למוסקבה
למועד
למועדון
למועמד
למועצה
למועצת
למופע
למוצאי
למוצר
למוקד
למור
למורה
למורי
למורים
למורשת
למורת
למושב
למושבה
למושג
למושל
למות
למותה
למותו
למותם
למזבח
למזון
למזונות
למזיד
למזכיר
למזרח
למחוז
למחוזות
למחול
למחוק
למחות
למחזה
למחזור
למחזיק
למחזיקות
למחלה
למחלוקת
למחלות
למחלקה
למחלקת
למחלת
למחנה
למחנות
למחצה
למחצית
למחקר
למחקרי
למחקרים
למחר
למחרת
למחשב
למחשבה
למחתרת
למטה
למטוס
למטוסים
למטופל
למטען
למטר
למטרה
למטרות
למטרת
למי
למיגזר
למידה
למידי
למידע
למידק
למידת
למיהדר
למיזל
למיחש
למיכל
למיכתב
למילה
למילוי
למיליון
למילים
למילף
למילתא
למילתיה
למים
למימון
למימוש
למימר
למימרא
למין
למינהו
למינהל
למינוי
למיני
למיניהם
למינים
למינקט
למיסר
למיעבד
למיעוט
למיעוטא
למיפרך
למיקום
למיקם
למישור
למישרי
למיתב
למיתה
למיתני
למכבי
למכה
למכון
למכור
למכירה
למכירת
למכרה
למכרו
למכשיר
למכתב
למלא
למלאות
למלאך
למלאכה
למלאכת
למלוה
למלוך
למלון
למלחמה
למלחמת
למלך
למלכא
למלכה
למלכות
למלכי
למלכים
למלקות
לממון
לממונה
לממלכה
לממלכת
לממן
לממש
לממשל
לממשלה
לממשלת
למן
למנהג
למנהיג
למנהיגות
למנהל
למנוחות
למנוע
למנות
למנזר
למנחה
למניין
למנין
למניעת
למנכ
למנצח
למנקט
למס
למסגרת
למסדר
למסור
למסורת
למסחר
למסכת
למסלול
למסע
למספר
למסקנא
למסקנה
למעבד
למעבר
למעגל
למעוטי
למעות
למעט
למעיין
למעין
למעל
למעלה
למעמד
למען
למעצר
למערב
למערה
למערך
למערכה
למערכות
למערכת
למעשה
למעשי
למעשר
למפגש
למפלגה
למפלגת
למפעל
למפקד
למפקח
למפרך
למפרע
למפרץ
למפת
למצא
למצב
למצוא
למצוה
למצות
למציאות
למציאת
למצעד
למצרים
למקבל
למקדש
למקוה
למקום
למקומה
למקומו
למקומות
למקומם
למקומן
למקור
למקורות
למקסיקו
למקפה
למקרא
למקרה
למקרים
למר
למראה
למראית
למרבה
למרבית
למרגלות
למרד
למרדכי
למרוד
למרום
למרות
למרחב
למרחוק
למרחץ
למרחק
למרחקים
למרי
למריה
למרים
למרכז
למרץ
למרצה
למשא
למשבר
למשה
למשוך
למשול
למשחק
למשחקי
למשחקים
למשטר
למשטרה
למשטרת
למשימה
למשימות
למשך
למשכב
למשכן
למשכנו
למשל
למשלחת
למשמע
למשמעות
למשמרת
למשנה
למשנהו
למשפחה
למשפחות
למשפחת
למשפחתו
למשפט
למשפטים
למשק
למשקל
למשרד
למשרה
למשרי
למשרת
למשתמש
למשתמשים
למת
למתחם
למתים
למתמטיקה
למתן
למתני
למתניתין
למתקן
למתקפה
לן
לנ
לנבחרות
לנבחרת
לנביא
לנג
לנגב
לנגד
לנגן
לנד
לנדא
לנדאו
לנדבה
לנדה
לנה
לנהג
לנהוג
לנהל
לנהר
לנו
לנובמבר
לנוח
לנוי
לנוכח
לנון
לנוסעים
לנוע
לנוער
לנושא
לנושאים
לנותן
לנזיר
לנזק
לנח
לנחות
לנחל
לנחלה
לנחש
לנטוש
לנטות
לנטילת
לני
לניהול
לניו
לניזק
לניירות
לנין
לנינגרד
לניסיון
לניצול
לניצחון
לנישואים
לנישואין
לניתוח
לנכון
לנכסי
לנכסיו
לנכרי
לנמל
לנס
לנסוע
לנסות
לנסח
לנסיך
לנסיעה
לנסך
לנעול
לנער
לנערות
לנערים
לנפגעי
לנפש
לנפשו
לנפשיה
לנצ
לנצח
לנציב
לנציג
לנצל
לנצרות
לנקבה
לנקבות
לנקה
לנקודה
לנקודת
לנקוט
לנקום
לנקות
לנקסטר
לנר
לנשיא
לנשיאות
לנשיאת
לנשים
לנשמה
לנשק
לנתבע
לנתח
לנתק
לס
לסבב
לסבול
לסביבה
לסביות
לסבית
לסברא
לסברת
לסגור
לסגירת
לסגל
לסגן
לסגנון
לסגת
לסדר
לסדרה
לסדרת
לסוג
לסוגים
לסווג
לסוכה
לסוכנות
לסוף
לסופר
לסופרים
לסוריה
לסחור
לסחורה
לסחר
לסטודנטים
לסטטיסטיקה
לסטים
לסטר
לסי
לסיבוב
לסיום
לסיומה
לסיוע
לסיור
לסיים
לסייע
לסיכום
לסילוק
לסימון
לסימן
לסין
לסינגל
לסיפור
לסירוגין
לסך
לסכום
לסכך
לסכל
לסכן
לסכסוך
לסל
לסלי
לסלק
לסלקו
לסמוך
לסמים
לסמל
לסמן
לסן
לסנאט
לסעודה
לסעיף
לספוג
לספוקי
לספור
לספורט
לספטמבר
לספינה
לספינות
לספירה
לספירת
לספק
לספר
לספרד
לספרו
לספרות
לספרי
לספרים
לסקר
לסרב
לסרט
לסרטי
לסרטים
לסרטן
לסתום
לסתור
לע
לעבד
לעבדו
לעבדות
לעבדים
לעבוד
לעבודה
לעבודות
לעבודת
לעבודתו
לעבור
לעבירה
לעבר
לעברו
לעברית
לעג
לעד
לעדה
לעדות
לעדים
לעדכן
לעובד
לעובדה
לעובדי
לעובדים
לעובר
לעוד
לעודד
לעוה
לעוזר
לעולא
לעולה
לעולים
לעולם
לעולמה
לעולמו
לעומק
לעומת
לעומתו
לעומתם
לעונה
לעונש
לעונת
לעוף
לעופות
לעור
לעורך
לעורר
לעז
לעזאזל
לעזה
לעזוב
לעזור
לעזר
לעזרה
לעזרת
לעזרתו
לעיבוד
לעידוד
לעיון
לעיין
לעיירה
לעיל
לעילא
לעימות
לעין
לעיני
לעיניהם
לעינים
לעיסוק
לעיצוב
לעיצובו
לעיקר
לעיר
לעיראק
לעיתון
לעיתונות
לעיתים
לעכב
לעכו
לעלות
לעליה
לעלייה
לעליית
לעלמא
לעלמין
לעם
לעמדת
לעמו
לעמוד
לעמק
לענ
לענות
לעני
לעניות
לעניי
לעניים
לעניין
לענייני
לעניינים
לענין
לעניני
לענף
לעסוק
לעסק
לעסקים
לעפר
לעץ
לעצב
לעצור
לעצים
לעצם
לעצמאות
לעצמה
לעצמו
לעצמי
לעצמך
לעצמם
לעצמן
לעקוב
לעקוף
לעקור
לערב
לערבים
לערבית
לערוך
לערוץ
לעריכת
לערים
לערך
לערכים
לערעורים
לערער
לעשה
לעשו
לעשות
לעשותה
לעשותו
לעשותם
לעשותן
לעשיית
לעשירים
לעשר
לעשרה
לעשרים
לעת
לעתיד
לעתים
לפ
לפארק
לפגוע
לפגוש
לפגיעה
לפגישה
לפגם
לפדות
לפדותה
לפדותו
לפדיון
לפה
לפוטרו
לפוליטיקה
לפולין
לפום
לפונקציה
לפועל
לפועלים
לפופולריות
לפוצץ
לפזר
לפחד
לפחות
לפטור
לפטירתו
לפטר
לפי
לפיגוע
לפיד
לפידות
לפיה
לפיהם
לפיהן
לפיו
לפיזיולוגיה
לפיזיקה
לפייס
לפיכך
לפילוסופיה
לפינוי
לפיצוי
לפיקוד
לפיקוח
לפירוק
לפירוש
לפירושו
לפירות
לפיתוח
לפלוגי
לפלוני
לפלוש
לפליטים
לפלייאוף
לפלישה
לפלסטינים
לפמ
לפנה
לפנות
לפנותו
לפני
לפניה
לפניהם
לפניו
לפניך
לפניכם
לפנים
לפנינו
לפסגת
לפסול
לפסוק
לפסח
לפסטיבל
לפסיכולוגיה
לפסנתר
לפסק
לפע
לפעול
לפעולה
לפעולות
לפעולת
לפעילות
לפעילותו
לפעם
לפעמים
לפענח
לפצות
לפקד
לפקוד
לפקודה
לפקודת
לפקח
לפקיד
לפקפק
לפר
לפרויקט
לפרוס
לפרוע
לפרופסור
לפרוץ
לפרוק
לפרוש
לפרושי
לפרט
לפרטים
לפריז
לפרישתו
לפרלמנט
לפרנס
לפרס
לפרסום
לפרסם
לפרעה
לפרעו
לפרעון
לפרק
לפרקים
לפרש
לפרשה
לפרשו
לפרשת
לפשוט
לפת
לפתוח
לפתור
לפתות
לפתח
לפתחו
לפתיחת
לפתע
לפתרון
לץ
לצ
לצאת
לצאתו
לצבא
לצבוע
לצבור
לצבע
לצד
לצדדים
לצדדין
לצדה
לצדו
לצדיק
לצדיקים
לצדם
לצדק
לצדקה
לצה
לצו
לצוד
לצוות
לצומת
לצופים
לצור
לצורה
לצורך
לצורכי
לצורת
לצחוק
לצי
לציבור
לציד
לצידה
לצידו
לצידם
לציון
לציונות
לציור
לציין
לצייר
לציית
לצילום
לציר
לצל
לצלות
לצלי
לצלם
לצמוח
לצמיתות
לצמצום
לצמצם
לצעוד
לצעוק
לצעירים
לצפון
לצפות
לצפייה
לצרכו
לצרכי
לצרכים
לצרכן
לצרף
לצרפת
לצרפתית
לק
לקב
לקבוע
לקבוצה
לקבוצות
לקבוצת
לקבוצתו
לקבור
לקבורה
לקביעת
לקבל
לקבלה
לקבלו
לקבלם
לקבלת
לקבץ
לקבר
לקברו
לקדושה
לקדם
לקדנציה
לקדרה
לקדש
לקדשה
לקדשו
לקה
לקהילה
לקהילות
לקהילת
לקהל
לקו
לקוברו
לקודש
לקוח
לקוחה
לקוחות
לקוחים
לקוטי
לקוי
לקויה
לקול
לקולא
לקולנוע
לקום
לקונגרס
לקונה
לקופת
לקוץ
לקורא
לקורס
לקות
לקח
לקחה
לקחו
לקחת
לקחתי
לקט
לקטן
לקטנים
לקי
לקיבוץ
לקידום
לקידוש
לקידושין
לקיום
לקיומה
לקיומו
לקיחה
לקיחת
לקיים
לקיימה
לקיימו
לקיסר
לקיר
לקיש
לקלוט
לקליטת
לקלל
לקלקל
לקמיה
לקמן
לקנדה
לקנות
לקנותו
לקס
לקסיקון
לקפוץ
לקפטן
לקצבה
לקצה
לקצור
לקצין
לקצינים
לקצר
לקרא
לקראת
לקראתו
לקרב
לקרבן
לקרוא
לקרוע
לקרות
לקרותה
לקרותו
לקריאה
לקריאת
לקריירה
לקרן
לקרקע
לקרקעות
לקשור
לקשיים
לקשר
לר
לראובן
לראות
לראותו
לראיה
לראש
לראשו
לראשון
לראשונה
לראשות
לראשי
לרב
לרבא
לרבה
לרבו
לרבויי
לרבות
לרבותא
לרבי
לרבים
לרבינא
לרבינו
לרבנות
לרבנים
לרבנן
לרבע
לרגימנט
לרגל
לרגלי
לרגע
לרדוף
לרדיו
לרדת
לרה
לרוב
לרוח
לרוחב
לרוחק
לרומא
לרומן
לרומניה
לרוסיה
לרוע
לרופא
לרוץ
לרחבה
לרחוב
לרחובות
לרחוץ
לרחל
לרחם
לריב
לריח
לריעותא
לריש
לרישום
לרכב
לרכבת
לרכוב
לרכוש
לרכז
לרכישת
לרמב
לרמה
לרמוז
לרמות
לרמז
לרמטכ
לרמת
לרנר
לרע
לרעה
לרעהו
לרעות
לרעיון
לרעך
לרפא
לרפואה
לרפואת
לרפובליקה
לרפורמה
לרצוח
לרצון
לרצונו
לרצועת
לרצות
לרצח
לרקוד
לרקיע
לרש
לרשב
לרשויות
לרשום
לרשות
לרשותו
לרשימה
לרשימת
לרשם
לרשע
לרשעים
לרשת
לש
לשאוב
לשאול
לשאלה
לשאלות
לשאלת
לשאר
לשאת
לשבוע
לשבועה
לשבור
לשבות
לשבח
לשבחים
לשבט
לשבטים
לשבע
לשבעה
לשבר
לשבת
לשגר
לשגריר
לשדה
לשדות
לשדר
לשהות
לשוא
לשואה
לשוב
לשווא
לשוודיה
לשוויון
לשווייץ
לשווק
לשווקים
לשוט
לשוכר
לשולחן
לשום
לשומר
לשומרו
לשון
לשונו
לשונות
לשוני
לשוניים
לשונית
לשונם
לשופט
לשוק
לשור
לשורה
לשורות
לשורש
לשושלת
לשותפות
לשחוט
לשחוק
לשחות
לשחזר
לשחיטה
לשחק
לשחקן
לשחקנים
לשחקנית
לשחרור
לשחרר
לשחררו
לשטח
לשטחי
לשטחים
לשטן
לשטר
לשטרא
לשיא
לשיאה
לשיאו
לשיגור
לשידור
לשידורי
לשיווק
לשיטה
לשיטות
לשיטת
לשיטתו
לשילוב
לשים
לשימור
לשימוש
לשינוי
לשינויים
לשיעור
לשיפור
לשיקום
לשיר
לשירה
לשירות
לשירותי
לשירותים
לשירי
לשירים
לשישה
לשיתוף
לשכב
לשכה
לשכוח
לשכונה
לשכונת
לשכור
לשכות
לשכינה
לשכנע
לשכר
לשכת
לשכתב
לשל
לשלב
לשלוח
לשלוחו
לשלוט
לשלול
לשלום
לשלומי
לשלוש
לשלושה
לשלושת
לשלח
לשלטון
לשלטונות
לשליח
לשליחות
לשליט
לשליטה
לשליטת
לשליש
לשלישי
לשלם
לשלמה
לשלמים
לשלש
לשלשה
לשלשים
לשם
לשמא
לשמאל
לשמה
לשמו
לשמואל
לשמוח
לשמונה
לשמוע
לשמור
לשמות
לשמחה
לשמי
לשמיטה
לשמים
לשמינית
לשמירה
לשמירת
לשמן
לשמע
לשמעון
לשמצה
לשמר
לשמרו
לשמש
לשנה
לשנויי
לשנות
לשנותה
לשנותו
לשני
לשניה
לשניהם
לשנייה
לשניים
לשנים
לשנת
לשנתיים
לשעבר
לשעה
לשעות
לשער
לשעת
לשפה
לשפוט
לשפוך
לשפות
לשפר
לשפת
לשקול
לשקם
לשקר
לשר
לשרה
לשרוד
לשרוף
לשרות
לשריון
לשריפה
לשרת
לשש
לשתוק
לשתות
לשתי
לשתיה
לשתיהן
לשתייה
לשתים
לשתף
לת
לתא
לתאגיד
לתאי
לתאר
לתאריך
לתבוע
לתגובה
לתהליך
לתואר
לתובע
לתודעה
לתוך
לתוכה
לתוכו
לתוכן
לתוכניות
לתוכנית
לתולדות
לתום
לתוספת
לתועלת
לתופעה
לתוצאה
לתוצאות
לתוקף
לתור
לתורה
לתורת
לתושבי
לתושבים
לתזמורת
לתחבורה
לתחום
לתחומי
לתחייה
לתחילת
לתחנה
לתחנות
לתחנת
לתחרות
לתיאבון
לתיאור
לתיאטרון
לתיבה
לתיירים
לתינוק
לתינוקות
לתיעוד
לתיקון
לתכלית
לתכנון
לתכנית
לתכנן
לתל
לתלות
לתלמוד
לתלמודא
לתלמיד
לתלמידי
לתלמידיו
לתלמידים
לתמוה
לתמוך
לתמונה
לתמיד
לתמיכה
לתמיכת
לתנא
לתנאי
לתנאים
לתנועה
לתנועת
לתנור
לתסריט
לתעשייה
לתעשיית
לתפוס
לתפור
לתפילה
לתפילין
לתפיסה
לתפיסת
לתפלה
לתפקד
לתפקיד
לתפקידו
לתפקידי
לתפקידים
לתקוני
לתקוע
לתקוף
לתקופה
לתקופות
לתקופת
לתקן
לתקנה
לתקנו
לתקנות
לתקשורת
לתקשר
לתרבות
לתרגום
לתרגם
לתרוייהו
לתרום
לתרומה
לתרומת
לתרופות
לתרוצי
לתרי
לתרץ
לתשובה
לתשומת
לתשלום
לתשמיש
לתשעה
לתת
לתתא
ם
מ
מא
מאב
מאבא
מאבד
מאבדת
מאבות
מאביו
מאבן
מאבני
מאבק
מאבקים
מאברהם
מאגנס
מאגר
מאגרי
מאגרים
מאד
מאדאם
מאדים
מאדם
מאה
מאהבה
מאהל
מאהלר
מאו
מאובנים
מאוגוסט
מאוד
מאוהב
מאוהבת
מאוחד
מאוחדת
מאוחר
מאוחרות
מאוחרים
מאוחרת
מאויר
מאוכלוסיית
מאומה
מאוניברסיטת
מאוס
מאוסטריה
מאוסטרליה
מאוסף
מאופיין
מאופיינים
מאופיינת
מאוקטובר
מאור
מאורגן
מאורגנים
מאורגנת
מאורות
מאורי
מאורע
מאורעות
מאושר
מאושרים
מאושרת
מאות
מאותה
מאותו
מאותם
מאותן
מאז
מאזור
מאזורים
מאזן
מאזנים
מאחד
מאחור
מאחורי
מאחוריו
מאחז
מאחיו
מאחר
מאחרי
מאחריו
מאחרים
מאחת
מאט
מאי
מאידך
מאיה
מאיזה
מאיטליה
מאיי
מאיים
מאיימת
מאייר
מאיירס
מאימתי
מאין
מאינון
מאיס
מאיסור
מאיר
מאירה
מאירופה
מאירות
מאירי
מאירים
מאירת
מאיש
מאיתנו
מאך
מאכיל
מאכילה
מאכילין
מאכילת
מאכל
מאכלות
מאכלים
מאל
מאלבום
מאלה
מאלו
מאלי
מאליה
מאליהן
מאליו
מאלף
מאם
מאמה
מאמו
מאמין
מאמינה
מאמינים
מאמן
מאמנים
מאמץ
מאמצי
מאמציו
מאמצים
מאמצע
מאמר
מאמרו
מאמרות
מאמרי
מאמריו
מאמרים
מאמרם
מאן
מאנגליה
מאנגלית
מאנה
מאני
מאנים
מאנית
מאנשי
מאנשים
מאס
מאסטר
מאסף
מאסר
מאסרו
מאפה
מאפיין
מאפייני
מאפיינים
מאפס
מאפריל
מאפריקה
מאפשר
מאפשרות
מאפשרים
מאפשרת
מאק
מאקו
מאר
מארב
מארבע
מארבעה
מארבעים
מארבעת
מארגון
מארגן
מארה
מארוול
מארח
מארחת
מארי
מאריה
מאריך
מארס
מארץ
מארצות
מארק
מארש
מאש
מאשה
מאשים
מאשר
מאשתו
מאת
מאתו
מאתיים
מאתים
מאתם
מאתמול
מאתנו
מאתר
מב
מבאר
מבבל
מבדיל
מבהמה
מבוא
מבואות
מבואר
מבוארים
מבוארת
מבוגר
מבוגרים
מבודד
מבודדים
מבוטל
מבוי
מבול
מבוסס
מבוססות
מבוססי
מבוססים
מבוססת
מבוצע
מבוצעת
מבוצר
מבוקר
מבוקרת
מבוקש
מבור
מבורך
מבורר
מבושל
מבחוץ
מבחי
מבחין
מבחינה
מבחינים
מבחינת
מבחן
מבחני
מבחנים
מבחר
מבט
מבטא
מבטאים
מבטו
מבטח
מבטחים
מבטיח
מבטיחה
מבטל
מבטלין
מבטלת
מבטן
מבי
מביא
מביאה
מביאו
מביאים
מביאין
מביט
מבין
מבינה
מביניהם
מבינים
מביע
מבית
מביתו
מבכירי
מבלה
מבלי
מבלתי
מבן
מבנה
מבנות
מבני
מבניו
מבנים
מבנין
מבסיס
מבע
מבעד
מבעוד
מבעי
מבעיא
מבעיות
מבעל
מבעלה
מבעלי
מבערב
מבפנים
מבצע
מבצעי
מבצעים
מבצעית
מבצעת
מבצר
מבצרים
מבקר
מבקרי
מבקרים
מבקרת
מבקש
מבקשי
מבקשים
מבקשת
מברטנורא
מבריח
מבריטניה
מברייתא
מבריק
מברית
מברך
מברכים
מברכין
מברכת
מברלין
מברק
מבשל
מבשר
מבשרו
מבת
מבתי
מבתיהם
מג
מגביה
מגביל
מגבלה
מגבלות
מגדוד
מגדולי
מגדים
מגדיר
מגדירה
מגדירים
מגדל
מגדלי
מגדלים
מגדלנה
מגדר
מגדרי
מגדרית
מגה
מגו
מגובה
מגודל
מגוון
מגוונות
מגוונים
מגוונת
מגולה
מגולם
מגונה
מגוף
מגופה
מגופו
מגורי
מגוריהם
מגוריו
מגורים
מגורשת
מגזין
מגזע
מגזרת
מגי
מגיב
מגיד
מגידו
מגיל
מגילה
מגילות
מגילת
מגיני
מגיע
מגיעה
מגיעות
מגיעים
מגיש
מגל
מגלגלין
מגלה
מגלות
מגלח
מגלחין
מגלים
מגלם
מגלמת
מגלן
מגמה
מגמות
מגמת
מגן
מגנה
מגנוס
מגנטי
מגע
מגעו
מגעים
מגעת
מגפה
מגפת
מגרמניה
מגרמנית
מגרש
מגרשה
מגרשי
מגרשים
מד
מדאורייתא
מדאי
מדאיצטריך
מדאמר
מדאמרינן
מדבר
מדברות
מדברי
מדבריהם
מדבריו
מדברים
מדברת
מדגים
מדגימים
מדגיש
מדגישה
מדגם
מדגסקר
מדד
מדה
מדהים
מדובר
מדוברת
מדווח
מדויק
מדויקות
מדויקים
מדויקת
מדומה
מדונה
מדוע
מדוקדק
מדור
מדורג
מדורגת
מדורה
מדות
מדותיו
מדי
מדידה
מדידות
מדידת
מדיה
מדים
מדין
מדינא
מדינאי
מדינה
מדינות
מדיני
מדיניות
מדיניותו
מדיניים
מדינית
מדינת
מדינתו
מדיסון
מדיצ
מדכתב
מדכתיב
מדלא
מדליה
מדליות
מדליית
מדליק
מדליקין
מדלקת
מדם
מדמה
מדמי
מדנקט
מדע
מדעי
מדעיות
מדעיים
מדעים
מדעית
מדען
מדענים
מדעת
מדעתה
מדעתו
מדף
מדצמבר
מדקא
מדקאמר
מדקדק
מדקדקין
מדקתני
מדר
מדרב
מדרבי
מדרבנן
מדרגה
מדרגות
מדרגת
מדרום
מדרון
מדריגה
מדריגות
מדריגת
מדריד
מדריך
מדריכים
מדרך
מדרכי
מדרס
מדרש
מדרשא
מדרשו
מדרשות
מדת
מדתו
מדתני
מדתניא
מדתנן
מה
מהא
מהאוויר
מהאוכלוסייה
מהאוניברסיטה
מהאזור
מהאי
מהאימפריה
מהאלבום
מהאנשים
מהארון
מהארמייה
מהארץ
מהאתר
מהבונדסליגה
מהבית
מהגדולים
מהגוף
מהגרים
מהדברים
מהדדי
מהדורא
מהדורה
מהדורות
מהדורת
מהדמויות
מהדף
מהדר
מהדרינן
מההוא
מההיא
מהו
מהודו
מהווה
מהווים
מהוות
מהול
מהולנד
מהומה
מהומות
מהונגריה
מהוראות
מהות
מהותה
מהותו
מהותי
מהותיים
מהותית
מהזמן
מהחברה
מהחוף
מהחיים
מהי
מהיהודים
מהיום
מהיות
מהיכא
מהיכן
מהים
מהימן
מהימנא
מהימני
מהיר
מהירה
מהירושלמי
מהירות
מהירים
מהך
מהכא
מהכלא
מהכפר
מהל
מהליגה
מהלך
מהלכה
מהלכות
מהלכי
מהלכים
מהלכין
מהלכת
מהם
מהמאה
מהמבקרים
מהמדינה
מהמדינות
מהמועד
מהמט
מהמילה
מהמים
מהמין
מהמינים
מהמיתולוגיה
מהמלחמה
מהממשלה
מהמפלגה
מהמקום
מהמקור
מהמקרים
מהמשחק
מהן
מהנדס
מהנדסים
מהנה
מהני
מהניא
מהנך
מהנשים
מהסביבה
מהסדרה
מהסוג
מהספר
מהסרט
מהעבר
מהעובדה
מהעולם
מהעונה
מהעיירה
מהעיר
מהערים
מהערכים
מהפועל
מהפך
מהפכה
מהפכנית
מהפכת
מהצבא
מהצד
מהצורה
מהציבור
מהקבוצה
מהקהילה
מהקהל
מהקולות
מהקורפוס
מהקרקע
מהר
מהרא
מהראוי
מהראשונים
מהרב
מהרגיל
מהרה
מהרי
מהרמב
מהרש
מהרשד
מהש
מהשחקנים
מהשטח
מהשיר
מהשירות
מהשירים
מהשלטון
מהשם
מהשמש
מהשני
מהשנים
מהשתא
מהתוכנית
מהתורה
מהתושבים
מהתם
מהתקופה
מהתקף
מו
מואב
מוארך
מובא
מובאים
מובאת
מובהק
מובהקים
מובהקת
מובטח
מוביל
מובילה
מובילות
מובילים
מובן
מובנה
מובנים
מובנת
מוג
מוגבל
מוגבלויות
מוגבלות
מוגבלים
מוגבלת
מוגבר
מוגברת
מוגדלת
מוגדר
מוגדרות
מוגדרים
מוגדרת
מוגה
מוגן
מוגנים
מוגנת
מוגש
מוד
מודגש
מודד
מודדין
מודה
מודו
מודול
מודי
מודים
מודין
מודיע
מודיעים
מודיעין
מודל
מודלים
מודן
מודע
מודעא
מודעה
מודעות
מודעים
מודעת
מודפס
מודר
מודרני
מודרניות
מודרניים
מודרנית
מוה
מוהר
מווילנה
מוות
מוותר
מוזהר
מוזיאון
מוזיאונים
מוזיקאי
מוזיקאים
מוזיקה
מוזיקלי
מוזיקליות
מוזיקליים
מוזיקלית
מוזיקת
מוזכר
מוזכרים
מוזכרת
מוזמביק
מוזמן
מוזמנים
מוזס
מוזר
מוזרים
מוח
מוחא
מוחה
מוחו
מוחזק
מוחזקים
מוחזקת
מוחי
מוחין
מוחל
מוחלט
מוחלטת
מוחמד
מוחק
מוט
מוטב
מוטה
מוטורס
מוטות
מוטי
מוטיב
מוטיבים
מוטיבציה
מוטל
מוטלת
מוטעה
מוטציה
מוטציות
מוטת
מוכה
מוכח
מוכחא
מוכחת
מוכיח
מוכיחות
מוכיחים
מוכן
מוכנה
מוכנות
מוכנים
מוכר
מוכרות
מוכרח
מוכרחים
מוכרחת
מוכרי
מוכרים
מוכרין
מוכרת
מוכשר
מוכשרים
מוכת
מוכתר
מול
מולד
מולדובה
מולדת
מולדתו
מולה
מולו
מולי
מוליד
מוליך
מוליכים
מוליכין
מולקולה
מולקולות
מולקולרית
מולקולת
מולר
מום
מומחה
מומחים
מומחין
מומים
מומין
מומלץ
מומנט
מומר
מון
מונגוליה
מונד
מונדיאל
מונה
מונו
מונופול
מונח
מונחה
מונחי
מונחים
מונחת
מונטגומרי
מונטה
מונטיפיורי
מונטנגרו
מונטנה
מונטריאול
מוני
מוניות
מוניטין
מונים
מונין
מוניקה
מונית
מונע
מונעים
מונעת
מונק
מונקו
מונרו
מונתה
מוס
מוסא
מוסב
מוסד
מוסדות
מוסדי
מוסוליני
מוסטפא
מוסיף
מוסיפה
מוסיפים
מוסיפין
מוסכם
מוסלמי
מוסלמיות
מוסלמים
מוסלמית
מוסמך
מוסמכת
מוסף
מוסקבה
מוסר
מוסרי
מוסריות
מוסרים
מוסרין
מוסרית
מועבר
מועברים
מועד
מועדון
מועדוני
מועדונים
מועדי
מועדים
מועדף
מועדת
מועט
מועטה
מועטים
מועטין
מועטת
מועיל
מועילה
מועילים
מועלין
מועלת
מועמד
מועמדויות
מועמדות
מועמדותו
מועמדים
מועמדת
מוענק
מועסקים
מועצה
מועצות
מועצת
מוערך
מוערכת
מופה
מופיע
מופיעה
מופיעות
מופיעים
מופלא
מופלג
מופנה
מופע
מופעי
מופעים
מופעל
מופעלת
מופקד
מופר
מופשט
מופת
מוצא
מוצאה
מוצאו
מוצאי
מוצאים
מוצאם
מוצאת
מוצב
מוצבים
מוצג
מוצגות
מוצגים
מוצגת
מוציא
מוציאה
מוציאים
מוציאין
מוצלח
מוצלחות
מוצלחים
מוצלחת
מוצע
מוצק
מוצקים
מוצקין
מוצר
מוצרט
מוצרי
מוצרים
מוקד
מוקדון
מוקדי
מוקדם
מוקדמות
מוקדמים
מוקדמת
מוקדש
מוקי
מוקים
מוקלד
מוקם
מוקמי
מוקמינן
מוקמת
מוקף
מוקפת
מוקצה
מוקש
מוקשים
מור
מורא
מורג
מורגן
מורד
מורדים
מורדת
מורה
מורו
מורחב
מורחבים
מורחבת
מורטון
מורי
מוריד
מורידין
מוריה
מורים
מורין
מוריס
מוריסון
מוריץ
מוריש
מורכב
מורכבות
מורכבים
מורכבת
מורן
מורנו
מורשה
מורשים
מורשת
מושא
מושב
מושבה
מושבו
מושבות
מושבי
מושבים
מושבם
מושבע
מושבת
מושג
מושגים
מושיע
מושך
מושכים
מושכת
מושל
מושלים
מושלם
מושלמת
מושפע
מושפעים
מושפעת
מות
מותאם
מותאמים
מותאמת
מותג
מותה
מותו
מותחן
מותיב
מותם
מותנה
מותנית
מותקן
מותר
מותרות
מותרים
מותרין
מותרת
מז
מזאת
מזבח
מזבין
מזג
מזה
מזהב
מזהה
מזהים
מזהיר
מזו
מזוג
מזוהה
מזוהים
מזוזה
מזוזות
מזויין
מזוייף
מזוין
מזויף
מזויפים
מזומן
מזומנים
מזון
מזונא
מזונו
מזונות
מזונותיה
מזונותיו
מזוני
מזוקק
מזור
מזיד
מזין
מזיק
מזיקים
מזכ
מזכה
מזכיר
מזכירה
מזכירו
מזכירות
מזכירים
מזכירין
מזכר
מזל
מזלו
מזמור
מזמורים
מזמין
מזמן
מזמנין
מזר
מזרח
מזרחה
מזרחי
מזרחיים
מזרחית
מזרע
מזרעו
מח
מחאה
מחאות
מחאת
מחבירו
מחבל
מחבלים
מחבר
מחברו
מחברות
מחברי
מחבריה
מחבריו
מחברים
מחברת
מחבת
מחד
מחדל
מחדר
מחדש
מחה
מחו
מחובר
מחוברות
מחוברים
מחוברין
מחוברת
מחובת
מחודד
מחודש
מחודשת
מחווה
מחוור
מחוז
מחוזות
מחוזי
מחויב
מחויבות
מחויבים
מחויבת
מחוייב
מחול
מחולי
מחולל
מחולק
מחולקים
מחולקת
מחומר
מחומרים
מחוסר
מחוסרי
מחוף
מחוץ
מחוצה
מחוק
מחוקק
מחושב
מחזאי
מחזה
מחזור
מחזורי
מחזורים
מחזות
מחזי
מחזיק
מחזיקה
מחזיקי
מחזיקים
מחזיקין
מחזיקת
מחזיר
מחזירה
מחזירים
מחזירין
מחזמר
מחזק
מחזקינן
מחזקת
מחזר
מחט
מחטא
מחטאת
מחי
מחיה
מחיי
מחייב
מחייבו
מחייבי
מחייבים
מחייבין
מחייבת
מחייו
מחיים
מחיל
מחילה
מחיצה
מחיצות
מחיקת
מחיר
מחירי
מחירים
מחית
מחכה
מחכים
מחכמה
מחכמי
מחל
מחלב
מחלה
מחלון
מחלוצי
מחלוקות
מחלוקת
מחלות
מחליט
מחליטה
מחליטים
מחליף
מחליפה
מחליפו
מחליפים
מחלל
מחללין
מחלף
מחלק
מחלקה
מחלקו
מחלקות
מחלקי
מחלקים
מחלקין
מחלקת
מחלת
מחלתו
מחמד
מחמוד
מחמיר
מחמירים
מחמירין
מחמישה
מחמץ
מחמש
מחמשה
מחמשת
מחמת
מחמתו
מחנה
מחנות
מחנך
מחסה
מחסום
מחסור
מחסן
מחסרא
מחפש
מחפשים
מחפשת
מחצה
מחצות
מחצי
מחצית
מחצר
מחק
מחקה
מחקר
מחקרו
מחקרי
מחקריו
מחקרים
מחר
מחרוזת
מחשב
מחשבה
מחשבון
מחשבות
מחשבותיו
מחשבי
מחשבים
מחשבין
מחשבת
מחשבתו
מחשוב
מחשובי
מחשש
מחתה
מחתרת
מט
מטא
מטאל
מטבח
מטבילין
מטבע
מטבעות
מטה
מטהר
מטהרין
מטו
מטווח
מטומאה
מטומאת
מטוס
מטוסי
מטוסים
מטופל
מטופלים
מטורף
מטות
מטח
מטי
מטיילים
מטיל
מטילה
מטילים
מטיפוס
מטכ
מטלטל
מטלטלי
מטלטלים
מטלטלין
מטמא
מטמאה
מטמאים
מטמאין
מטעה
מטעי
מטעים
מטעם
מטעמא
מטעמה
מטעמו
מטעמי
מטעמים
מטען
מטעני
מטענים
מטפח
מטפחת
מטפל
מטפלים
מטפלת
מטפס
מטקסט
מטר
מטרה
מטרו
מטרופולין
מטרות
מטרותיו
מטרים
מטריצה
מטריצות
מטרת
מטרתה
מטרתו
מטרתם
מטתו
מי
מיא
מיאון
מיאמי
מיאנה
מיאנמר
מיבעי
מיבעיא
מיג
מיגו
מיגון
מיגל
מיד
מידה
מידו
מידות
מידי
מידיו
מידם
מידן
מידע
מידת
מיה
מיהא
מיהו
מיהודה
מיהודי
מיהר
מיהת
מיו
מיוונית
מיוזיק
מיוחד
מיוחדות
מיוחדים
מיוחדת
מיוחס
מיוחסת
מיולי
מיום
מיומן
מיומנויות
מיומנות
מיון
מיוני
מיועד
מיועדים
מיועדת
מיוצג
מיוצגת
מיוצר
מיוצרים
מיור
מיושב
מיושבים
מיושבת
מיושנים
מיותר
מיותרת
מיזוג
מיזורי
מיזם
מיזמים
מיחה
מיחו
מיחוש
מיחזי
מיחייב
מיטב
מיטה
מיטות
מיטל
מיטמא
מיטמאין
מיטשל
מיי
מייבם
מייג
מייגן
מייד
מיידי
מיידית
מייחס
מייחסים
מייל
מיילס
מיימון
מיימוני
מיין
מייסד
מייסדי
מייסדת
מייסון
מייצג
מייצגים
מייצגת
מייצר
מייצרים
מייצרת
מייק
מייקה
מייקל
מיירי
מיית
מייתי
מיכאיל
מיכאל
מיכאלי
מיכה
מיכל
מיכלאנג
מיכן
מיל
מילא
מילאה
מילאו
מילאן
מילאנו
מילה
מילואים
מילוי
מילולי
מילולית
מילון
מילות
מילותיו
מילטון
מילי
מיליארד
מיליון
מיליוני
מיליונים
מילים
מילימטר
מילימטרים
מילין
מילס
מילר
מילשטיין
מילת
מילתא
מילתיה
מים
מימד
מימון
מימוש
מימות
מימי
מימיו
מימים
מימין
מימינו
מימן
מימר
מימרא
מין
מינא
מינאז
מינאי
מינג
מינה
מינהל
מינהלי
מינהלית
מינו
מינואר
מינוי
מינויו
מינויים
מינור
מיני
מיניה
מיניהו
מיניות
מינייהו
מיניים
מינים
מינימום
מינימלי
מינימלית
מינין
מינית
מינך
מינכן
מינסוטה
מינסק
מינץ
מינרל
מינרלים
מינתה
מיס
מיסוד
מיסודו
מיסוי
מיסטר
מיסים
מיסיסיפי
מיעוט
מיעוטא
מיעוטים
מיעט
מיעקב
מיפוי
מיפטר
מיפלגי
מיפר
מיץ
מיצ
מיצובישי
מיצוי
מיצירותיו
מיצר
מיק
מיקה
מיקוד
מיקום
מיקומה
מיקומו
מיקומם
מיקי
מיקל
מיקלוש
מיקס
מיקרו
מיקרוסופט
מיקרי
מיר
מיראה
מיראת
מירב
מירה
מירוח
מירון
מירושלים
מירי
מירנדה
מישאל
מישהו
מישור
מישורי
מישיגן
מישל
מישראל
מישרים
מית
מיתה
מיתולוגיה
מיתוס
מיתוקמא
מיתות
מיתיבי
מיתמי
מיתסר
מיתקן
מיתר
מיתרים
מיתת
מיתתו
מכ
מכאן
מכבד
מכבה
מכבי
מכביצה
מכבר
מכדור
מכדורגל
מכדי
מכה
מכהן
מכובד
מכוון
מכוונות
מכוונים
מכוונת
מכוח
מכוחות
מכוין
מכולם
מכולן
מכון
מכונה
מכונות
מכוניות
מכונים
מכונית
מכונת
מכוסה
מכוסים
מכוער
מכור
מכורה
מכורין
מכות
מכותל
מכזית
מכח
מכחו
מכחיש
מכחישו
מכי
מכיוון
מכיון
מכיל
מכילה
מכילות
מכילים
מכילתא
מכילתין
מכין
מכינה
מכינים
מכיר
מכירה
מכירו
מכירות
מכירים
מכירין
מכירת
מכירתו
מכך
מככבים
מכל
מכלא
מכלה
מכלול
מכלום
מכלי
מכלים
מכלל
מכללא
מכללה
מכללות
מכללת
מכם
מכמה
מכמות
מכן
מכנגד
מכנה
מכני
מכנים
מכניס
מכניסים
מכניסין
מכנית
מכנסיים
מכס
מכסה
מכסות
מכסים
מכסין
מכסף
מכספי
מכף
מכפי
מכפלה
מכפר
מכפרת
מכר
מכרה
מכרו
מכרות
מכרז
מכריז
מכריזין
מכריע
מכרם
מכרן
מכרעת
מכרת
מכרתי
מכשול
מכשולים
מכשיעור
מכשיר
מכשירי
מכשירים
מכשירין
מכשפה
מכשפות
מכת
מכתב
מכתבו
מכתבי
מכתביו
מכתבים
מכתובתה
מכתש
מל
מלא
מלאה
מלאו
מלאות
מלאי
מלאים
מלאך
מלאכה
מלאכול
מלאכות
מלאכותי
מלאכותיים
מלאכותית
מלאכי
מלאכיו
מלאכים
מלאכת
מלאכתו
מלאכתן
מלאני
מלאת
מלב
מלבד
מלבדו
מלבו
מלבורן
מלבוש
מלבי
מלבן
מלבנון
מלגה
מלגות
מלגת
מלה
מלהיות
מלהקת
מלו
מלוא
מלובלין
מלוג
מלוה
מלווה
מלווים
מלוח
מלוחים
מלוי
מלוכה
מלומד
מלומדים
מלון
מלונדון
מלונות
מלות
מלזיה
מלח
מלחי
מלחים
מלחין
מלחינים
מלחם
מלחמה
מלחמות
מלחמת
מלט
מלטה
מלטינית
מלי
מליאה
מליגה
מליגת
מלידה
מליח
מליחה
מלים
מלין
מליצה
מליקה
מלך
מלכא
מלכה
מלכו
מלכודת
מלכות
מלכותא
מלכותו
מלכותי
מלכותית
מלכי
מלכיות
מלכים
מלכין
מלכם
מלכנו
מלכת
מלכתחילה
מלמד
מלמדים
מלמדין
מלמדת
מלמטה
מלמטן
מלמן
מלמעלה
מלמעלן
מלעשות
מלפני
מלפניו
מלפניך
מלפנים
מלצר
מלקוחות
מלקולם
מלקות
מלקט
מלקין
מלשון
מלשונו
מלשלם
מלת
מלתא
ממ
ממאה
ממאי
ממאן
ממאנת
ממבקרי
ממגוון
ממד
ממדי
ממדים
ממדינה
ממדינות
ממדינת
ממדית
ממדת
ממה
ממהר
ממוחשב
ממוחשבת
ממול
ממון
ממונא
ממונה
ממונו
ממונות
ממונים
ממונם
ממועד
ממוצא
ממוצע
ממוצעים
ממוצעת
ממוקד
ממוקם
ממוקמות
ממוקמים
ממוקמת
ממורי
ממושך
ממושכת
ממות
ממזר
ממזרח
ממזרים
ממזרת
ממחוז
ממחלה
ממחלות
ממחלת
ממחנה
ממחצית
ממחרת
ממטה
ממי
ממייסדי
ממילא
ממיליון
ממים
ממין
ממיני
ממית
ממיתה
ממך
ממכבי
ממכירת
ממכר
ממל
ממלא
ממלאים
ממלאכה
ממלאכתו
ממלוה
ממלחמת
ממליץ
ממלכה
ממלכות
ממלכת
ממלכתו
ממלכתי
ממלכתית
מממלכת
ממנא
ממנה
ממנהיגי
ממנו
ממני
ממניות
ממנין
ממנן
ממס
ממסכת
ממספר
ממעות
ממעט
ממעטין
ממעטינן
ממעל
ממעלה
ממעמד
ממערב
ממערכת
ממעשה
ממעשיו
ממעשר
ממפיס
ממפלגת
ממצא
ממצאי
ממצאים
ממצב
ממצות
ממציא
ממצרים
ממקום
ממקומה
ממקומו
ממקומות
ממקומם
ממקור
ממקורות
ממקימי
ממרא
ממרוקו
ממרחק
ממרים
ממרכז
ממרץ
ממש
ממשה
ממשחק
ממשי
ממשיים
ממשיך
ממשיכה
ממשיכים
ממשית
ממשכנין
ממשל
ממשלה
ממשלות
ממשלת
ממשלתו
ממשלתי
ממשלתיות
ממשלתיים
ממשלתית
ממשנה
ממשעבדי
ממשפחה
ממשפחות
ממשפחת
ממשפחתו
ממשק
ממשרד
ממתין
ממתכת
ממתני
ממתניתין
מן
מנ
מנא
מנג
מנגד
מנגן
מנגנון
מנגנוני
מנגנונים
מנגנים
מנדט
מנדטים
מנדי
מנדין
מנדל
מנדלי
מנדלסון
מנדס
מנה
מנהג
מנהגו
מנהגי
מנהגים
מנהגם
מנהון
מנהטן
מנהיג
מנהיגה
מנהיגות
מנהיגי
מנהיגים
מנהל
מנהלה
מנהלי
מנהלים
מנהלית
מנהלת
מנהרה
מנהרות
מנהרת
מנו
מנואל
מנובמבר
מנוגד
מנוגדים
מנודה
מנוהל
מנוהלת
מנוח
מנוחה
מנוי
מנויים
מנומקת
מנוסה
מנוע
מנועי
מנועים
מנוף
מנוקב
מנוקד
מנוקדת
מנור
מנורה
מנורת
מנות
מנזר
מנח
מנחה
מנחות
מנחים
מנחם
מנחת
מני
מניה
מניו
מניות
מניח
מניחה
מניחו
מניחים
מניחין
מנייהו
מניין
מנין
מניסן
מניע
מניעה
מניעת
מניקה
מנישואיו
מנכ
מנכה
מנכסי
מנכסיו
מנכסים
מנלן
מנמל
מנסה
מנסים
מנע
מנעה
מנעו
מנעל
מנצ
מנצח
מנצחי
מנצחים
מנצחת
מנצל
מנצפ
מנקודה
מנקודת
מנשה
מנשיא
מנשים
מנת
מנתה
מנתח
מס
מסאבא
מסביב
מסביר
מסבירה
מסברא
מסגד
מסגל
מסגרות
מסגרת
מסד
מסדה
מסדר
מסדרת
מסה
מסהדי
מסובך
מסוג
מסוגו
מסוגיא
מסוגים
מסוגל
מסוגלות
מסוגלים
מסוגלת
מסוגת
מסוד
מסודר
מסודרים
מסודרת
מסווג
מסווגים
מסוטה
מסויים
מסויימת
מסוים
מסוימות
מסוימים
מסוימת
מסוכן
מסוכנות
מסוכנים
מסוכנת
מסומן
מסומנים
מסומנת
מסוף
מסופוטמיה
מסופק
מסופר
מסוק
מסוקי
מסוקים
מסור
מסורה
מסורות
מסוריה
מסורת
מסורתי
מסורתיות
מסורתיים
מסורתית
מסות
מסחר
מסחרי
מסחריות
מסחריים
מסחרית
מסטרא
מסי
מסיבה
מסיבות
מסיבי
מסיבת
מסיח
מסיים
מסייע
מסייעים
מסייעת
מסילה
מסילות
מסילת
מסים
מסין
מסיני
מסיפא
מסיק
מסיקה
מסיר
מסירה
מסירות
מסירת
מסך
מסכה
מסכום
מסכות
מסכים
מסכימה
מסכימים
מסככין
מסכם
מסכן
מסכת
מסכתא
מסכתות
מסל
מסלול
מסלולי
מסלולים
מסלע
מסלק
מסלקי
מסמך
מסמכי
מסמכים
מסמל
מסמלת
מסמן
מסמנים
מסמר
מסע
מסעדה
מסעדות
מסעדת
מסעו
מסעות
מסעותיו
מסעי
מספטמבר
מספיק
מספיקא
מספיקה
מספיקים
מספק
מספקא
מספקות
מספקים
מספקת
מספר
מספרד
מספרו
מספרות
מספרי
מספריו
מספרים
מספרם
מספרת
מסצ
מסקינן
מסקנא
מסקנה
מסקנות
מסקנת
מסר
מסרב
מסרבת
מסרה
מסרו
מסרטן
מסרים
מסת
מסתבר
מסתברא
מסתובב
מסתור
מסתורי
מסתיים
מסתיימת
מסתכל
מסתלק
מסתם
מסתמא
מסתמך
מסתפק
מסתתר
מע
מעבד
מעבדה
מעבדות
מעבדים
מעבדת
מעבודה
מעבודת
מעבודתו
מעבורות
מעבורת
מעביד
מעביר
מעבירה
מעבירים
מעבירין
מעבר
מעברו
מעברי
מעברים
מעברין
מעגל
מעגלי
מעגלים
מעדיף
מעדיפים
מעדן
מעה
מעובד
מעובדי
מעוברת
מעודד
מעודדת
מעודכן
מעוות
מעוז
מעוטר
מעולה
מעולם
מעומד
מעומדת
מעון
מעונה
מעונות
מעוניין
מעוניינים
מעוניינת
מעונת
מעוף
מעופף
מעוצב
מעור
מעורב
מעורבות
מעורבותו
מעורבים
מעורבין
מעורבת
מעורר
מעוררים
מעוררת
מעות
מעותיו
מעט
מעטה
מעטות
מעטים
מעטפת
מעי
מעיד
מעידה
מעידים
מעידין
מעיו
מעיז
מעיים
מעיין
מעיינות
מעיל
מעילה
מעים
מעין
מעיני
מעיניו
מעיקר
מעיקרא
מעיקרו
מעיר
מעכב
מעכבא
מעכבות
מעכבי
מעכבים
מעכבין
מעכבת
מעכו
מעכשיו
מעל
מעלה
מעלות
מעלי
מעליא
מעליה
מעליהם
מעליו
מעלייתא
מעלים
מעלין
מעלית
מעלמא
מעלת
מעלתו
מעלתם
מעם
מעמד
מעמדה
מעמדו
מעמדות
מעמדם
מעמיד
מעמידין
מעמיק
מעמיקה
מען
מענה
מעניין
מעניינת
מענין
מעניק
מעניקה
מעניקים
מענק
מעסיק
מעפילים
מעפר
מעץ
מעצב
מעצבת
מעצי
מעצם
מעצמה
מעצמו
מעצמות
מעצמם
מעצמן
מעצר
מעצרו
מעצרים
מעקב
מעקה
מערב
מערבא
מערבה
מערבי
מערביות
מערביים
מערבין
מערבית
מערה
מערות
מערי
מעריב
מעריך
מעריכים
מערים
מעריץ
מעריצים
מערך
מערכה
מערכונים
מערכות
מערכי
מערכת
מערער
מערת
מעש
מעשה
מעשהו
מעשות
מעשי
מעשיה
מעשיהם
מעשיו
מעשיות
מעשיך
מעשים
מעשית
מעשר
מעשרה
מעשרות
מעשרים
מעשרין
מעשרת
מעת
מעתה
מפ
מפא
מפאת
מפגינים
מפגיעה
מפגש
מפגשים
מפה
מפואר
מפוארת
מפוזרים
מפולין
מפולש
מפולת
מפורט
מפורטים
מפורטת
מפורסם
מפורסמים
מפורסמת
מפורש
מפורשות
מפורשים
מפורשת
מפות
מפותח
מפותחות
מפותחים
מפותחת
מפחד
מפטירין
מפי
מפיה
מפיהם
מפיו
מפיק
מפיקה
מפיקים
מפירות
מפירין
מפל
מפלגה
מפלגות
מפלגת
מפלגתו
מפלגתית
מפלה
מפלוני
מפלט
מפלי
מפליג
מפלס
מפלצות
מפלצת
מפלת
מפנה
מפני
מפניהם
מפניו
מפניך
מפנים
מפנין
מפסוק
מפסח
מפסיד
מפסיק
מפסיקין
מפסקת
מפעיל
מפעילה
מפעילות
מפעילי
מפעילים
מפעל
מפעלי
מפעלים
מפעם
מפציצים
מפצעיו
מפקד
מפקדה
מפקדו
מפקדי
מפקדים
מפקדת
מפקח
מפקי
מפקיד
מפקינן
מפקיע
מפר
מפראג
מפרויקט
מפרט
מפרי
מפריד
מפריז
מפריע
מפריש
מפרישין
מפרסם
מפרץ
מפרק
מפרקי
מפרקים
מפרש
מפרשי
מפרשים
מפרשינן
מפרשת
מפשע
מפת
מפתה
מפתח
מפתחות
מפתחים
מפתחת
מפתיע
מץ
מצ
מצא
מצאה
מצאו
מצאנו
מצאצאי
מצאת
מצאתי
מצב
מצבא
מצבה
מצבו
מצבות
מצבי
מצביא
מצבים
מצביע
מצביעה
מצביעים
מצבם
מצבת
מצד
מצדד
מצדה
מצדו
מצדם
מצה
מצהיר
מצו
מצודה
מצודות
מצודת
מצוה
מצווה
מצווים
מצווין
מצוות
מצוטט
מצוי
מצויד
מצוידים
מצויה
מצויות
מצויים
מצויין
מצוין
מצוינות
מצוינים
מצוינת
מצויר
מצוך
מצומצם
מצומצמת
מצופה
מצוק
מצוקה
מצור
מצורע
מצות
מצותו
מצותי
מצותיו
מצח
מצחו
מצחיק
מצטט
מצטיין
מצטיינים
מצטיינת
מצטער
מצטרף
מצטרפות
מצטרפי
מצטרפים
מצטרפין
מצטרפת
מצי
מציאה
מציאות
מציאותו
מציאת
מציב
מציג
מציגה
מציגים
מצידה
מצידו
מציון
מציין
מציינים
מציינת
מצייר
מציל
מצילין
מצינו
מצינן
מציע
מציעא
מציעה
מציעים
מצית
מצליח
מצליחה
מצליחים
מצלמה
מצלמות
מצלמת
מצלת
מצע
מצעד
מצעדי
מצער
מצפה
מצפון
מצפים
מצר
מצרא
מצרי
מצריים
מצריך
מצרים
מצרימה
מצרית
מצרכים
מצרף
מצרפת
מצרפתית
מק
מקארתי
מקבוצה
מקבוצות
מקבוצת
מקביל
מקבילה
מקבילות
מקבילים
מקבים
מקבל
מקבלות
מקבלי
מקבלים
מקבלין
מקבלת
מקבץ
מקבת
מקדוניה
מקדונלד
מקדים
מקדימה
מקדימין
מקדיש
מקדם
מקדמת
מקדש
מקדשא
מקדשי
מקדשים
מקדשין
מקהלה
מקהלת
מקו
מקואות
מקובל
מקובלות
מקובלים
מקובלת
מקובצת
מקודם
מקודש
מקודשת
מקוה
מקוואות
מקווה
מקווי
מקוון
מקוונת
מקויים
מקוים
מקול
מקולות
מקום
מקומה
מקומו
מקומות
מקומי
מקומיות
מקומיים
מקומית
מקומם
מקומן
מקוצר
מקור
מקורב
מקורה
מקורו
מקורות
מקורי
מקוריות
מקוריים
מקורית
מקורם
מקושר
מקושרים
מקושרת
מקח
מקחו
מקטע
מקיים
מקיימים
מקיימין
מקיימת
מקיין
מקילין
מקים
מקימי
מקינטוש
מקינלי
מקיף
מקיפה
מקיפים
מקיפין
מקיש
מקל
מקלדת
מקלה
מקלות
מקלט
מקלנבורג
מקלע
מקלעים
מקלקל
מקמי
מקמילן
מקנה
מקנזי
מקני
מקס
מקסוול
מקסים
מקסימיליאן
מקסימלי
מקסימלית
מקסיקו
מקסיקני
מקפיד
מקפידים
מקפידין
מקץ
מקצה
מקצוע
מקצועות
מקצועי
מקצועיות
מקצועיים
מקצועית
מקצועני
מקצת
מקצתה
מקצתו
מקצתם
מקצתן
מקרא
מקראות
מקראי
מקראית
מקרב
מקרבן
מקרה
מקרוב
מקרטני
מקרי
מקריב
מקריבים
מקריבין
מקרים
מקרית
מקרן
מקרקע
מקרקעי
מקרקעין
מקשה
מקשי
מקשים
מקשינן
מקשר
מר
מרא
מראה
מראהו
מראובן
מראות
מראיין
מראים
מראית
מראש
מראשו
מראשון
מראשוני
מראשי
מראשית
מרב
מרבה
מרבו
מרבותינו
מרבי
מרבים
מרבינן
מרביעית
מרבית
מרביתם
מרבני
מרבנן
מרג
מרגיש
מרגישה
מרגישים
מרגל
מרגליות
מרגלים
מרגלית
מרגמה
מרגע
מרגרט
מרגרטה
מרגש
מרגשת
מרד
מרדו
מרדות
מרדכי
מרדף
מרה
מרוב
מרובה
מרובות
מרובים
מרובין
מרובע
מרובעים
מרובעת
מרווח
מרוח
מרוחק
מרוחקים
מרוכז
מרוכזים
מרוכזת
מרום
מרומא
מרומניה
מרון
מרוסיה
מרוץ
מרוצה
מרוצי
מרוצים
מרוקו
מרור
מרות
מרחב
מרחבי
מרחביה
מרחבים
מרחבית
מרחוק
מרחיב
מרחיק
מרחיקין
מרחם
מרחץ
מרחק
מרחקים
מרטי
מרטין
מרטינס
מרי
מריאן
מריאנה
מריבה
מרידה
מרידות
מריה
מריו
מריון
מריוס
מריח
מרילין
מרילנד
מרים
מרין
מרינה
מרינו
מריש
מרישא
מרכב
מרכבה
מרכבות
מרכוס
מרכז
מרכזי
מרכזיות
מרכזיים
מרכזים
מרכזית
מרכיב
מרכיבי
מרכיבים
מרלין
מרמה
מרמז
מרמת
מרן
מרס
מרסיי
מרסל
מרע
מרעה
מרפא
מרפאה
מרפי
מרפסת
מרץ
מרצ
מרצדס
מרצה
מרצון
מרצונו
מרצועת
מרק
מרקו
מרקוביץ
מרקוס
מרקורי
מרקחת
מרקיז
מרקל
מרקם
מרקס
מרקר
מרשה
מרשות
מרשותו
מרשים
מרשימה
מרשימים
מרשימת
מרשל
מרשם
מרשת
מרת
מרתה
מרתון
מרתף
מש
משא
משאבי
משאבים
משאו
משאוי
משאיות
משאיל
משאיר
משאית
משאל
משאר
משאת
משבועה
משבועת
משבח
משבט
משביע
משביעין
משבע
משבעה
משבעת
משבצות
משבצת
משבר
משברים
משבת
משגב
משגיח
משגיחין
משגר
משגת
משדה
משדר
משה
משהו
משו
משואה
משוב
משובח
משוגע
משודרת
משוה
משוואה
משוואות
משוואת
משווה
משוח
משוחרר
משוחררים
משוי
משוך
משוכות
משוכנע
משולב
משולבות
משולבים
משולבת
משולם
משולש
משולשים
משולשת
משום
משומר
משונה
משונים
משועבד
משועבדים
משוער
משופע
משופר
משופרת
משור
משוריין
משוריינים
משורר
משוררים
משוררת
משורש
משורת
משושלת
משותף
משותפות
משותפים
משותפת
משחית
משחק
משחקה
משחקו
משחקי
משחקיה
משחקים
משחקת
משחרר
משחשיכה
משחת
משחתות
משטה
משטח
משטחה
משטחי
משטחים
משטר
משטרה
משטרו
משטרת
משטרתי
משי
משיאין
משיב
משיבין
משיג
משיגים
משיח
משיחא
משיחה
משייר
משיכה
משיכת
משים
משימה
משימוש
משימות
משימת
משימתו
משיעור
משירות
משירי
משיריה
משיריו
משך
משכב
משכה
משכו
משכון
משכונו
משכורת
משכח
משכחת
משכיל
משכילים
משכיר
משכל
משכן
משכנו
משכנות
משכנע
משכנתא
משכר
משל
משלב
משלבת
משלה
משלהם
משלהן
משלו
משלוח
משלוש
משלושה
משלושים
משלושת
משלח
משלחות
משלחת
משלי
משליך
משלים
משלימה
משלימים
משלימין
משליש
משלך
משלם
משלמים
משלמין
משלמת
משלש
משלשה
משלשים
משם
משמאל
משמו
משמונה
משמט
משמטת
משמיה
משמים
משמיע
משמן
משמע
משמעו
משמעויות
משמעון
משמעות
משמעותה
משמעותו
משמעותי
משמעותיות
משמעותיים
משמעותית
משמעי
משמעית
משמעת
משמעתי
משמר
משמרות
משמרת
משמש
משמשות
משמשים
משמשת
משנה
משנות
משני
משניהם
משניות
משניים
משנים
משנית
משנת
משנתו
משנתינו
משנתנו
משעה
משער
משערים
משערין
משערינן
משעת
משפחה
משפחות
משפחותיהם
משפחת
משפחתה
משפחתו
משפחתי
משפחתיים
משפחתית
משפחתם
משפט
משפטו
משפטי
משפטיות
משפטיים
משפטים
משפטית
משפטן
משפיע
משפיעה
משפיעים
משפת
משק
משקאות
משקה
משקולות
משקי
משקים
משקין
משקיע
משקיעים
משקל
משקלו
משקע
משקעים
משקף
משקפים
משקפת
משקר
משרד
משרדו
משרדי
משרדים
משרה
משרות
משרשי
משרשיא
משרת
משרתו
משרתי
משרתים
משרתת
משש
מששים
מששת
משתבע
משתדל
משתה
משתות
משתי
משתייך
משתייכים
משתלם
משתמע
משתמר
משתמרת
משתמש
משתמשות
משתמשי
משתמשים
משתמשין
משתמשת
משתנה
משתנות
משתנים
משתעבד
משתעבדי
משתעי
משתף
משתרע
משתרעת
משתתף
משתתפות
משתתפי
משתתפים
משתתפין
משתתפת
מת
מתא
מתאבל
מתאבק
מתאהב
מתאהבת
מתאוה
מתאחדים
מתאים
מתאימה
מתאימות
מתאימים
מתאם
מתאפיין
מתאפיינת
מתאר
מתאריך
מתארים
מתארת
מתבאר
מתבטא
מתבטאת
מתבטל
מתבייש
מתבסס
מתבססת
מתבצע
מתבצעת
מתבקש
מתברר
מתגבר
מתגורר
מתגוררים
מתגוררת
מתגלגל
מתגלה
מתגלים
מתגרשת
מתה
מתהליך
מתהלך
מתהפך
מתו
מתואם
מתואר
מתוארים
מתוארת
מתוודה
מתווה
מתוך
מתוכה
מתוכו
מתוכם
מתוכן
מתוכנית
מתוכנן
מתוכננת
מתום
מתון
מתונה
מתופף
מתוצרת
מתוק
מתוקים
מתוקמא
מתוקן
מתוקנים
מתוקנת
מתוקף
מתורגם
מתורת
מתושבי
מתושביה
מתות
מתח
מתחבר
מתחברים
מתחדש
מתחדשת
מתחום
מתחומי
מתחייב
מתחיל
מתחילה
מתחילות
מתחילים
מתחילין
מתחילת
מתחילתו
מתחלה
מתחלל
מתחלף
מתחלפות
מתחלפים
מתחלק
מתחלקים
מתחלקת
מתחלת
מתחלתו
מתחם
מתחנת
מתחרה
מתחרות
מתחרט
מתחרים
מתחת
מתחתיו
מתי
מתיא
מתיאס
מתיב
מתיבמת
מתיבתא
מתיו
מתיחות
מתיחת
מתייבמת
מתייחס
מתייחסים
מתייחסת
מתיירא
מתיישב
מתיישבים
מתים
מתימן
מתיר
מתירא
מתירים
מתירין
מתכוון
מתכוונים
מתכוונת
מתכוין
מתכון
מתכונת
מתכות
מתכנן
מתכננים
מתכננת
מתכנסת
מתכפר
מתכת
מתל
מתלבש
מתלמידי
מתלמידיו
מתמדת
מתמודד
מתמודדים
מתמודדת
מתמחה
מתמטי
מתמטיים
מתמטיקאי
מתמטיקה
מתמטית
מתמיד
מתמלא
מתמן
מתמנה
מתמקד
מתמקדים
מתמקדת
מתמשך
מתמשכת
מתן
מתנ
מתנאי
מתנגד
מתנגדי
מתנגדים
מתנגדת
מתנדב
מתנדבים
מתנה
מתנהג
מתנהל
מתנועת
מתנות
מתני
מתניתא
מתניתין
מתנשא
מתנת
מתנתו
מתעורר
מתעוררת
מתעלה
מתעלם
מתענה
מתענין
מתעסק
מתערב
מתפיס
מתפלל
מתפללים
מתפללין
מתפקד
מתפקיד
מתפקידו
מתפרש
מתפשט
מתפשטים
מתפשטת
מתפתח
מתפתחות
מתפתחים
מתפתחת
מתקבל
מתקבלים
מתקבלת
מתקדם
מתקדמות
מתקדמים
מתקדמת
מתקדשת
מתקופה
מתקופות
מתקופת
מתקיים
מתקיימות
מתקיימים
מתקיימת
מתקין
מתקיף
מתקן
מתקני
מתקנים
מתקנת
מתקפה
מתקפות
מתקפת
מתקרב
מתקשה
מתקשר
מתרבה
מתרגם
מתרומה
מתרומת
מתרחש
מתרחשות
מתרחשים
מתרחשת
מתרי
מתריעין
מתרץ
מתרצה
מתרצים
מתרת
מתשובת
מתשלום
מתשמיש
מתת
מתתיהו
ן
נ
נא
נאבד
נאבק
נאג
נאה
נאו
נאוה
נאום
נאומו
נאומים
נאור
נאות
נאותה
נאותים
נאחז
נאט
נאים
נאכל
נאכלים
נאכלין
נאכלת
נאלץ
נאלצה
נאלצו
נאלצים
נאלצת
נאם
נאמד
נאמן
נאמנה
נאמנות
נאמני
נאמנים
נאמנין
נאמנת
נאמר
נאמרה
נאמרו
נאנס
נאנסו
נאס
נאסף
נאספו
נאסר
נאסרה
נאסרו
נאסרת
נאפולי
נאצי
נאצים
נאצר
נאש
נאשם
נב
נבא
נבאר
נבדה
נבדל
נבדלים
נבדלת
נבדק
נבה
נבהל
נבו
נבואה
נבואת
נבואתו
נבוכדנצר
נבוכים
נבון
נבות
נבחן
נבחר
נבחרה
נבחרו
נבחרות
נבחרים
נבחרת
נבחרתו
נבט
נבי
נביא
נביאי
נביאים
נבילה
נבילות
נבל
נבלה
נבלות
נבלע
נבלת
נבנה
נבנו
נבנתה
נבע
נבעה
נבעלה
נבעלתי
נברא
נבראו
נברך
נברסקה
נג
נגב
נגבה
נגד
נגדה
נגדו
נגדי
נגדיר
נגדם
נגה
נגזל
נגזר
נגזרה
נגזרת
נגח
נגיד
נגיחה
נגינה
נגיעה
נגיף
נגיש
נגישה
נגישות
נגלה
נגמ
נגמר
נגמרה
נגמרו
נגן
נגנב
נגנבו
נגני
נגנים
נגע
נגעה
נגעו
נגעי
נגעים
נגר
נגרם
נגרמת
נגרר
נד
נדב
נדבה
נדבק
נדבר
נדד
נדה
נדוי
נדון
נדוניא
נדות
נדחה
נדחו
נדחית
נדחק
נדחתה
נדיב
נדיר
נדירה
נדירות
נדירים
נדל
נדלר
נדמה
נדע
נדפס
נדפסו
נדר
נדרה
נדרו
נדרי
נדריה
נדרים
נדרית
נדרש
נדרשה
נדרשו
נדרשים
נדרשת
נדתה
נה
נהג
נהגה
נהגו
נהגי
נהגים
נהדר
נהדרת
נהוג
נהוגה
נהורא
נהורין
נהי
נהיגה
נהיה
נהיר
נהירא
נהירו
נהלים
נהנה
נהנו
נהנים
נהנין
נהנית
נהנתה
נהפך
נהפכה
נהפכו
נהר
נהרא
נהרג
נהרגה
נהרגו
נהרגים
נהרגין
נהרות
נהריה
נהרס
נהרסה
נהרסו
נו
נואל
נוב
נובגורוד
נובה
נובו
נובי
נובל
נובמבר
נובע
נובעות
נובעים
נובעת
נוגדנים
נוגה
נוגע
נוגעות
נוגעים
נוגעין
נוגעת
נודד
נודדים
נודע
נודעה
נודעו
נודעת
נודר
נוה
נוהג
נוהגות
נוהגים
נוהגין
נוהגת
נוהל
נוהלי
נוודים
נווה
נוויל
נוזל
נוזלי
נוזלים
נוח
נוחה
נוחות
נוחים
נוחלין
נוטה
נוטות
נוטים
נוטל
נוטלו
נוטלים
נוטלין
נוטלת
נוטריקון
נוי
נוימן
נוכח
נוכחות
נוכחים
נוכל
נולד
נולדה
נולדו
נולדים
נון
נוסד
נוסדה
נוסדו
נוסח
נוסחא
נוסחאות
נוסחה
נוסחי
נוסחת
נוסיף
נוסע
נוסעים
נוסעת
נוסף
נוספה
נוספו
נוספות
נוספים
נוספת
נועד
נועדה
נועדו
נועה
נועם
נוער
נוף
נופי
נופים
נופל
נופלים
נופלת
נופש
נוצות
נוצר
נוצרה
נוצרו
נוצרות
נוצרי
נוצריות
נוצריים
נוצרים
נוצרית
נוצרת
נוקבא
נוקבין
נוקס
נוקשה
נור
נורא
נוראים
נורה
נורו
נורווגי
נורווגיה
נורווגית
נורטון
נורי
נורית
נורמות
נורמלי
נורמלית
נורמן
נורת
נושא
נושאות
נושאי
נושאים
נושאין
נושאת
נושה
נותן
נותנו
נותני
נותנים
נותנין
נותנת
נותר
נותרה
נותרו
נז
נזדמן
נזהר
נזהרים
נזונת
נזיקין
נזיר
נזירה
נזירות
נזירותו
נזירים
נזכר
נזכרה
נזכרו
נזכרים
נזכרת
נזק
נזקו
נזקי
נזקיו
נזקים
נזקין
נזקק
נזקקין
נזר
נזרו
נזרק
נח
נחה
נחוג
נחום
נחוניא
נחוץ
נחוש
נחושה
נחושת
נחות
נחזור
נחטף
נחית
נחיתה
נחיתת
נחל
נחלה
נחלו
נחלות
נחלים
נחלק
נחלקה
נחלקו
נחלקים
נחלש
נחלת
נחלתו
נחם
נחמד
נחמה
נחמיאס
נחמיה
נחמן
נחמני
נחנך
נחנכה
נחקק
נחקר
נחקרו
נחרב
נחש
נחשב
נחשבה
נחשבו
נחשבות
נחשבים
נחשבת
נחשד
נחשדו
נחשון
נחשים
נחשף
נחשפה
נחשפו
נחשפים
נחשת
נחת
נחתו
נחתך
נחתם
נחתמה
נחתמו
נט
נטבע
נטה
נטו
נטול
נטוע
נטוש
נטיות
נטייה
נטיל
נטילה
נטילת
נטיעה
נטיעות
נטל
נטלה
נטלו
נטלי
נטליה
נטמא
נטמאה
נטמאו
נטמאת
נטמן
נטע
נטען
נטפליקס
נטר
נטש
נטשה
נטשו
ני
ניב
ניבים
ניגוד
ניגון
ניגן
ניגנה
ניגריה
ניגש
נידה
נידוי
נידון
נידונו
ניה
ניהו
ניהול
ניהל
ניהלה
ניהלו
ניהליה
ניו
ניווט
ניוז
ניוטון
ניומן
ניוקאסל
ניז
ניזון
ניזונים
ניזונית
ניזונת
ניזוק
ניזק
ניחא
ניחוח
ניחוש
ניטור
ניטל
ניטלה
ניטשה
נייג
נייד
ניידות
ניידים
ניידת
נייט
נייטרלי
נייטרליות
נייטרלית
נייר
ניירו
ניירות
ניכוי
ניכר
ניכרות
ניכרים
ניכרת
ניל
נילי
נילס
נילסן
נילף
נים
נימא
נימול
נימוקי
נימין
נין
נינג
נינגס
נינה
נינהו
נינו
נינוה
נינטנדו
ניס
ניסא
ניסה
ניסו
ניסוח
ניסוי
ניסויי
ניסויים
ניסוך
ניסח
ניסיון
ניסיונו
ניסיונות
ניסים
ניסן
ניסת
ניסתה
ניפר
ניץ
ניצב
ניצבים
ניצבת
ניצה
ניצול
ניצולי
ניצולים
ניצוץ
ניצוצות
ניצח
ניצחה
ניצחו
ניצחון
ניצחונה
ניצחונו
ניצחונות
ניצל
ניצלה
ניצלו
ניצן
ניצנים
ניק
ניקב
ניקבה
ניקו
ניקוד
ניקוז
ניקוי
ניקול
ניקולא
ניקולאוס
ניקולאי
ניקולאס
ניקולה
ניקולס
ניקי
ניקיון
ניקיטה
ניקל
ניקלודיאון
ניקס
ניקסון
ניקרגואה
ניר
נירון
נירית
נירנברג
נישא
נישאה
נישאו
נישאת
נישואי
נישואיה
נישואיהם
נישואיו
נישואים
נישואין
ניתוח
ניתוחים
ניתוק
ניתן
ניתנה
ניתנו
ניתנות
ניתנים
ניתנת
ניתק
ניתר
נכבד
נכבדים
נכבש
נכבשה
נכבשו
נכד
נכדו
נכדים
נכדתו
נכה
נכון
נכונה
נכונות
נכונים
נכות
נכח
נכחד
נכחדה
נכחו
נכי
נכים
נכלא
נכלאו
נכלל
נכללה
נכללו
נכללים
נכללת
נכנס
נכנסה
נכנסו
נכנסים
נכנסין
נכנסת
נכנע
נכנעה
נכנעו
נכס
נכסי
נכסיה
נכסיו
נכסים
נכר
נכרי
נכרים
נכרית
נכרת
נכשל
נכשלה
נכשלו
נכתב
נכתבה
נכתבו
נכתוב
נל
נלהב
נלווה
נלווים
נלחם
נלחמו
נלחמים
נלי
נלך
נלכד
נלמד
נלמוד
נלסון
נלע
נלקח
נלקחה
נלקחו
נמאס
נמדד
נמדדת
נמוך
נמוכה
נמוכות
נמוכים
נמחק
נמחקה
נמי
נמיביה
נמכר
נמכרה
נמכרו
נמכרים
נמכרת
נמל
נמלח
נמלט
נמלטו
נמלטים
נמלי
נמלים
נמלך
נמנה
נמנו
נמנים
נמנע
נמנעה
נמנעו
נמנעים
נמנעת
נמסר
נמסרה
נמסרו
נמצא
נמצאה
נמצאו
נמצאות
נמצאים
נמצאת
נמר
נמרוד
נמרץ
נמשך
נמשכה
נמשכו
נמשכים
נמשכין
נמשכת
נמשל
נמתחה
ננו
ננטש
נניח
ננס
ננסי
נס
נסאו
נסגר
נסגרה
נסגרו
נסה
נסו
נסוג
נסוגו
נסיב
נסיבות
נסיגה
נסיגת
נסיון
נסיונל
נסיך
נסיכה
נסיכות
נסיכת
נסים
נסיעה
נסיעות
נסך
נסכים
נסמך
נסמן
נסע
נסעה
נסעו
נספה
נספו
נספח
נסר
נסתלק
נסתלקה
נסתפק
נסתר
נסתרה
נסתרים
נע
נעבד
נעדר
נעדרים
נעה
נעו
נעול
נעוץ
נעוריו
נעורים
נעות
נעזר
נעילה
נעילת
נעים
נעימה
נעימות
נעל
נעלה
נעלי
נעליים
נעלם
נעלמה
נעלמו
נעלמים
נעלמת
נעם
נעמה
נעמי
נעמן
נענה
נענו
נענע
נענש
נענשו
נענתה
נעצר
נעצרה
נעצרו
נעקר
נער
נערה
נערות
נערי
נערים
נערך
נערכה
נערכו
נערכות
נערכים
נערכת
נערת
נעשה
נעשו
נעשות
נעשים
נעשין
נעשית
נעשתה
נפאל
נפגם
נפגע
נפגעה
נפגעו
נפגעי
נפגעים
נפגש
נפגשה
נפגשו
נפגשים
נפדה
נפה
נפוליאון
נפוץ
נפוצה
נפוצו
נפוצות
נפוצים
נפות
נפח
נפט
נפטון
נפטר
נפטרה
נפטרו
נפטרים
נפיל
נפילה
נפילת
נפילתה
נפילתו
נפיק
נפיש
נפל
נפלא
נפלאה
נפלאות
נפלאים
נפלה
נפלו
נפסד
נפסל
נפסלה
נפסלו
נפסק
נפסקה
נפסקו
נפעל
נפץ
נפצע
נפצעו
נפק
נפקא
נפקד
נפקותא
נפקי
נפקין
נפרד
נפרדה
נפרדו
נפרדות
נפרדים
נפרדת
נפרע
נפרעין
נפרץ
נפרש
נפש
נפשה
נפשו
נפשות
נפשותיכם
נפשי
נפשיה
נפשיות
נפשייהו
נפשית
נפשך
נפשם
נפשנו
נפת
נפתח
נפתחה
נפתחו
נפתחת
נפתלי
נץ
נצ
נצב
נצבים
נצח
נצחי
נצטוו
נצטרך
נציב
נציבות
נציג
נציגות
נציגי
נציגים
נציגת
נצפה
נצפו
נצר
נצרך
נצרכה
נצרת
נק
נקב
נקבה
נקבות
נקבים
נקבל
נקבע
נקבעה
נקבעו
נקבעת
נקבר
נקברה
נקברו
נקו
נקוב
נקובה
נקוד
נקודה
נקודות
נקודת
נקט
נקטה
נקטו
נקטי
נקטיה
נקטינן
נקי
נקיה
נקיות
נקיט
נקיטת
נקייה
נקיים
נקל
נקלט
נקלע
נקלעה
נקם
נקמה
נקמת
נקנה
נקנין
נקנית
נקר
נקרא
נקראה
נקראו
נקראות
נקראים
נקראין
נקראת
נקרע
נקשר
נר
נרא
נראה
נראו
נראות
נראים
נראין
נראית
נראתה
נרדף
נרו
נרות
נרחב
נרחבות
נרחבים
נרחבת
נריה
נרכש
נרכשה
נרכשו
נרל
נרמז
נרצה
נרצח
נרצחה
נרצחו
נרקיס
נרשם
נרשמה
נרשמו
נש
נשא
נשאה
נשאו
נשאל
נשאר
נשארה
נשארו
נשארים
נשארת
נשאת
נשבה
נשבע
נשבעים
נשבעין
נשבעת
נשבעתי
נשבר
נשברה
נשברו
נשגב
נשוא
נשואה
נשואות
נשואים
נשואין
נשוי
נשות
נשותיהם
נשחט
נשחטה
נשי
נשיא
נשיאה
נשיאות
נשיאותו
נשיאי
נשיאים
נשיאת
נשיו
נשיונל
נשים
נשימה
נשיפה
נשיקה
נשית
נשך
נשכח
נשכר
נשלח
נשלחה
נשלחו
נשלט
נשלטה
נשלם
נשמה
נשמות
נשמט
נשמע
נשמעו
נשמעים
נשמעת
נשמר
נשמרה
נשמרו
נשמרים
נשמת
נשמתא
נשמתו
נשמתין
נשנית
נשען
נשף
נשפט
נשפך
נשק
נשר
נשרה
נשרו
נשרף
נשרפה
נשרפו
נשתייר
נשתמש
נשתנה
נשתנו
נשתעבד
נת
נתבאר
נתבטל
נתבטלה
נתבע
נתברר
נתבשל
נתגלה
נתגלו
נתגלתה
נתגרשה
נתון
נתונה
נתונות
נתוני
נתונים
נתח
נתחייב
נתחייבו
נתחלקה
נתי
נתיב
נתיבות
נתיבי
נתיבים
נתייאשו
נתיישב
נתינה
נתינת
נתיר
נתכוון
נתכוונו
נתכוין
נתלה
נתמך
נתמלא
נתמנה
נתמעט
נתן
נתנאל
נתנה
נתנו
נתניה
נתניהו
נתנם
נתעברה
נתערב
נתערבו
נתפס
נתפסה
נתפסו
נתפסים
נתפסת
נתפרש
נתפשט
נתק
נתקבל
נתקבלה
נתקדשה
נתקדשו
נתקיים
נתקיימה
נתקיימו
נתקל
נתקלה
נתקלו
נתקלים
נתקן
נתקנה
נתקנו
נתרן
נתרצה
נתת
נתתי
נתתיו
ס
סא
סאדאת
סאה
סאו
סאונד
סאות
סאין
סאלח
סאלי
סאליבן
סאם
סאן
סאנס
סאנצ
סאתים
סב
סבא
סבב
סבה
סבו
סבויה
סבון
סבור
סבורה
סבורים
סבות
סביב
סביבה
סביבו
סביבות
סביביו
סביבת
סביבתו
סביבתי
סביבתיים
סביבתית
סביליה
סביר
סבירא
סבירה
סבירות
סבירים
סבל
סבלה
סבלו
סבלונות
סבן
סבסטיאן
סבר
סברא
סברה
סברו
סברות
סברי
סברת
סברתו
סבת
סבתא
סבתה
סבתו
סג
סגול
סגולה
סגולות
סגור
סגורה
סגורות
סגורים
סגי
סגיא
סגירה
סגירת
סגל
סגן
סגנו
סגנון
סגנונו
סגנונות
סגנות
סגנית
סגר
סגרה
סד
סדאם
סדאן
סדום
סדור
סדין
סדיר
סדירה
סדירים
סדן
סדנאות
סדנת
סדק
סדקים
סדר
סדרה
סדרות
סדרי
סדרים
סדרת
סדרתי
סה
סהדא
סהדותא
סהדי
סהר
סהרה
סו
סואץ
סובב
סובייטי
סובייטים
סובייטית
סובל
סובלים
סובלנות
סובלת
סובר
סוברים
סוג
סוגה
סוגי
סוגיא
סוגיה
סוגיות
סוגיית
סוגים
סוגר
סוד
סודאן
סודה
סודו
סודות
סודי
סודיות
סודית
סודר
סוהר
סוויפט
סוזי
סוזן
סוחר
סוחרי
סוחרים
סוטה
סויוז
סויסה
סוכה
סוכות
סוכם
סוכן
סוכנויות
סוכנות
סוכני
סוכנים
סוכנת
סוכר
סוכרת
סוכת
סול
סולדת
סולה
סולו
סולובייצ
סולומון
סולטאן
סולידריות
סולימאן
סוללה
סוללות
סוללת
סולם
סולמות
סולן
סולק
סולת
סומא
סומך
סומכוס
סומכים
סומכין
סומליה
סון
סונאטה
סונג
סוני
סוניה
סוניק
סוס
סוסי
סוסים
סוער
סוף
סופג
סופה
סופו
סופות
סופח
סופחה
סופי
סופיה
סופית
סופן
סופר
סופרי
סופרים
סופרמן
סופרן
סופרת
סופת
סוצ
סוציאלי
סוציאליסטית
סוציאלית
סוציולוגיה
סוקולוב
סוקר
סוקרטס
סור
סורי
סוריה
סורים
סורית
סורר
סותם
סותר
סותרות
סותרים
סותרת
סז
סח
סחורה
סחורות
סחיטה
סחף
סחר
סחרוף
סט
סטאר
סטארק
סטודיו
סטודנט
סטודנטים
סטודנטית
סטון
סטוקהולם
סטטוס
סטטיסטי
סטטיסטיים
סטטיסטיקה
סטטיסטיקות
סטטיסטית
סטיב
סטיבן
סטיבנס
סטיבנסון
סטיוארט
סטייה
סטייט
סטיילס
סטיישן
סטיל
סטין
סטלה
סטלין
סטלינגרד
סטן
סטנדרטי
סטנלי
סטנפורד
סטפן
סטפני
סטר
סטרא
סטרונג
סטריט
סטריינג
סטרין
סי
סיאול
סיאטל
סיב
סיבה
סיבוב
סיבובי
סיבובים
סיבוכים
סיבות
סיבי
סיביות
סיבים
סיביר
סיבת
סיגל
סיגריות
סיד
סידור
סידורי
סידן
סידני
סידר
סיהרא
סיווג
סיוון
סיום
סיומה
סיומת
סיון
סיוע
סיור
סיורים
סיחון
סיטי
סיטרואן
סייבר
סייג
סייד
סיים
סיימה
סיימו
סיימון
סיינט
סייע
סייעה
סייעו
סייעתא
סייף
סייר
סיירה
סיירוס
סיירות
סיירת
סיכה
סיכוי
סיכויי
סיכום
סיכון
סיכונים
סיכם
סילבה
סילביה
סילבר
סילון
סילוק
סילק
סימה
סימון
סימונס
סימור
סימטרי
סימטריה
סימטרית
סימן
סימנא
סימנה
סימני
סימניה
סימנים
סימנין
סימפוניה
סימפסון
סין
סינג
סינגל
סינגלים
סינגפור
סינדרלה
סינה
סינון
סינטרה
סיני
סיניות
סיניים
סינים
סינית
סיסי
סיסרא
סיעה
סיעות
סיעת
סיפא
סיפוח
סיפון
סיפונה
סיפוק
סיפור
סיפורה
סיפורו
סיפורי
סיפוריו
סיפורים
סיפורם
סיפק
סיפקה
סיפקו
סיפר
סיפרה
סיפרו
סיציליה
סיקה
סיקור
סיר
סירא
סירב
סירבה
סירבו
סירה
סירוב
סירובו
סירות
סירכא
סירת
סך
סכ
סכום
סכומי
סכומים
סכין
סכך
סכנה
סכנין
סכנת
סכסוך
סכסוכים
סכר
סל
סלאם
סלבדור
סלה
סלובניה
סלובקיה
סלוודור
סלומון
סלון
סלונים
סלוניקי
סלטיקס
סליחה
סליחות
סלילת
סלים
סלינה
סליק
סלמאן
סלנג
סלע
סלעי
סלעים
סלק
סלקא
סלקין
סלת
סם
סמ
סמא
סמאקדאון
סמג
סמדר
סמואה
סמואל
סמוי
סמוך
סמוכה
סמוכות
סמוכים
סמוכין
סמי
סמיך
סמיכה
סמיכות
סמים
סמינר
סמית
סמך
סמכא
סמכה
סמכו
סמכויות
סמכויותיו
סמכות
סמכותו
סמכותי
סמכי
סמכינן
סמל
סמלי
סמלים
סמלית
סממנים
סמנכ
סמסונג
סן
סנאטור
סנג
סנגל
סנדי
סנדל
סנדלר
סנדרה
סנדרס
סנדרסון
סנה
סנהדרי
סנהדרין
סנונית
סנחריב
סנט
סנטה
סנטוס
סנטיאגו
סנטימטר
סנטימטרים
סנטר
סנטרל
סניף
סניפים
סנפיר
סנקט
סנקציות
סס
ססיל
סע
סעד
סעדיה
סעוד
סעודה
סעודות
סעודיה
סעודת
סעודתו
סעי
סעיד
סעיף
סעיפי
סעיפים
סער
סערה
סערת
סף
ספ
ספג
ספגה
ספגו
ספוטיפיי
ספור
ספורות
ספורט
ספורטאי
ספורטאים
ספורטיבית
ספורטינג
ספורים
ספורנו
ספטמבר
ספי
ספיידרמן
ספיישל
ספילברג
ספין
ספינה
ספינות
ספינת
ספינתו
ספיקא
ספיקו
ספיקות
ספיקת
ספיר
ספירה
ספירות
ספירס
ספירת
ספנות
ספנסר
ספסל
ספציפי
ספציפיות
ספציפיים
ספציפית
ספק
ספקא
ספקו
ספקות
ספקטור
ספר
ספרא
ספרד
ספרדי
ספרדים
ספרדית
ספרה
ספרו
ספרות
ספרותי
ספרותיות
ספרותיים
ספרותית
ספרטה
ספרטק
ספרי
ספריא
ספריה
ספריו
ספריות
ספרייה
ספריית
ספרים
ספרית
סצ
סצינות
סצנה
סצנות
סצנת
סק
סקו
סקוט
סקוטי
סקוטלנד
סקול
סקי
סקיי
סקילה
סקירה
סקירת
סקס
סקסוניה
סקסופון
סקר
[...]
