!
"
#
##0
##1
##10
##11
##12
##13
##14
##15
##16
##17
##18
##19
##2
##20
##21
##22
##23
##24
##25
##26
##27
##28
##29
##3
##30
##31
##32
##33
##34
##35
##36
##37
##38
##39
##4
##40
##41
##42
##43
##44
##45
##46
##47
##48
##49
##5
##50
##51
##52
##53
##54
##55
##56
##57
##58
##59
##6
##60
##61
##62
##63
##64
##65
##66
##67
##68
##69
##7
##70
##71
##72
##73
##74
##75
##76
##77
##78
##79
##8
##80
##81
##82
##83
##84
##85
##86
##87
##88
##89
##9
##90
##91
##92
##93
##94
##95
##96
##97
##98
##99
$
%
&
'
(
)
*
+
,
-
.
/
0
00
000
001
002
01
013
02
03
04
05
06
07
08
09
1
10
100
1000
10000
101
102
103
104
105
106
107
108
1080
109
11
110
1100
111
1111
112
113
114
115
116
117
118
119
12
120
1200
121
122
123
124
125
126
127
128
129
13
130
1300
131
132
133
134
135
136
137
138
139
14
140
1400
141
142
143
144
145
146
147
148
149
1492
1498
15
150
1500
151
152
153
154
155
156
157
158
159
16
160
1600
161
162
163
164
1640
1648
165
1650
166
1660
167
168
169
17
170
1700
1701
171
172
173
174
1740
175
1750
1753
1755
1758
1759
176
1760
1763
1765
1768
1769
177
1770
1771
1772
1773
1774
1775
1776
1777
1778
1779
178
1780
1781
1782
1783
1784
1785
1786
1787
1788
1789
179
1790
1791
1792
1793
1794
1795
1796
1797
1798
1799
18
180
1800
1801
1802
1803
1804
1805
1806
1807
1808
1809
181
1810
1811
1812
1813
1814
1815
1816
1817
1818
1819
182
1820
1821
1822
1823
1824
1825
1826
1827
1828
1829
183
1830
1831
1832
1833
1834
1835
1836
1837
1838
1839
184
1840
1841
1842
1843
1844
1845
1846
1847
1848
1849
185
1850
1851
1852
1853
1854
1855
1856
1857
1858
1859
186
1860
1861
1862
1863
1864
1865
1866
1867
1868
1869
187
1870
1871
1872
1873
1874
1875
1876
1877
1878
1879
188
1880
1881
1882
1883
1884
1885
1886
1887
1888
1889
189
1890
1891
1892
1893
1894
1895
1896
1897
1898
1899
19
190
1900
1901
1902
1903
1904
1905
1906
1907
1908
1909
191
1910
1911
1912
1913
1914
1915
1916
1917
1918
1919
192
1920
1921
1922
1923
1924
1925
1926
1927
1928
1929
193
1930
1931
1932
1933
1934
1935
1936
1937
1938
1939
194
1940
1941
1942
1943
1944
1945
1946
1947
1948
1949
195
1950
1951
1952
1953
1954
1955
1956
1957
1958
1959
196
1960
1961
1962
1963
1964
1965
1966
1967
1968
1969
197
1970
1971
1972
1973
1974
1975
1976
1977
1978
1979
198
1980
1981
1982
1983
1984
1985
1986
1987
1988
1989
199
1990
1991
1992
1993
1994
1995
1996
1997
1998
1999
2
20
200
2000
2001
2002
2003
2004
2005
2006
2007
2008
2009
201
2010
2011
2012
2013
2014
2015
2016
2017
2018
2019
202
2020
2021
2022
2023
2024
2025
203
204
205
206
207
208
209
21
210
211
212
213
214
215
216
217
218
219
22
220
221
222
223
224
225
226
227
228
229
23
230
231
232
233
234
235
236
237
238
239
24
240
241
242
243
244
245
246
247
248
249
25
250
2500
251
252
253
254
255
256
257
258
259
26
260
261
262
263
264
265
266
267
268
269
27
270
271
272
273
274
275
276
277
278
279
28
280
281
28143
282
283
284
285
286
287
288
29
290
291
293
294
295
296
297
299
3
30
300
3000
301
302
303
304
305
306
307
308
309
31
310
311
312
313
314
315
316
317
318
319
32
320
321
322
323
325
326
327
33
330
331
332
333
334
335
337
338
34
340
342
343
345
35
350
36
360
364
365
368
37
370
375
377
38
380
39
390
395
4
40
400
4000
401
402
403
404
405
41
410
411
42
420
425
43
430
431
44
440
45
450
46
460
47
470
48
480
4800
49
5
50
500
5000
51
512
513
52
520
53
530
54
540
55
550
56
560
57
570
58
59
6
60
600
61
62
63
630
64
640
641
65
650
66
67
68
69
7
70
700
7031
707
71
717
72
720
73
737
74
747
75
750
76
77
770
774
78
79
8
80
800
81
82
83
84
85
850
86
87
88
89
890
9
90
900
91
911
92
93
94
95
950
96
97
98
99
:
;
<
=
>
?
@
\
^
_
`
a
aa
ab
aba
abc
about
ac
academic
academy
access
accessed
act
action
ad
adam
add
addmore
aew
affairs
africa
african
after
ag
again
against
age
agency
ah
air
aj
al
albert
album
alexander
alfred
align
all
alpha
also
alt
am
america
american
amikamraz
among
an
analysis
ancient
and
andrew
angel
anna
anne
another
antarctica
anti
any
ap
api
apple
approx
april
ar
arab
architecture
archive
archived
archives
are
area
args
arms
army
around
array
art
arthur
article
articles
arts
as
assafn
assayas
association
at
atp
au
august
aus
australia
australian
author
auto
avi
aviv
award
awards
away
az
b
ba
baby
back
background
bad
balberg
ball
band
bank
bar
base
based
basic
baswim
battle
bay
bbc
bc
be
beautiful
been
before
begin
being
beit
ben
ber
berlin
best
beta
better
between
beyond
bi
bible
big
bill
biography
birthday
black
block
blood
blue
blues
bmatrix
bo
board
body
book
books
border
born
boston
bot
bottom
box
boy
boys
bp
break
breslev
bridge
brill
britain
british
brothers
brown
bu
bucures
budapest
building
business
but
by
c
ca
cache
california
call
cambridge
camp
can
canada
canadian
cap
car
care
carl
cas
case
cases
castle
cat
category
cbs
cc
cd
cdot
cdots
ce
celebration
cell
center
central
centre
century
ch
change
changes
channel
chapter
charles
chi
chicago
child
children
china
christian
christmas
church
cia
circle
cite
city
civil
class
classic
classical
close
club
cm
cnn
co
code
cohen
collection
college
color
columbia
com
come
comics
command
committee
common
commons
community
company
complete
computer
con
concacaf
conference
contemporary
content
control
corporation
corvus
cos
costello
could
council
country
court
covid
crazy
cropped
cross
cry
cs
css
ct
cultural
culture
cup
current
cw
d
da
daily
damzow
dan
dance
daniel
danny
dark
das
data
date
david
day
days
db
dc
de
dead
death
december
deep
default
defense
del
della
delta
dem
den
department
der
des
description
design
development
dgtal
di
dictionary
did
die
digital
din
display
division
dj
dl
dm
dmy
dna
do
document
does
dog
doi
don
dos
dot
dots
double
dovno
down
dr
dream
dreams
drork
ds
dsm
dt
du
during
dvd
dvh
dx
e
early
earth
east
eastern
easy
ec
economic
ed
eddau
edge
edit
edited
edition
editor
eds
education
edward
effect
egypt
ein
eip
el
eladti
eli
elite
elizabeth
ell
else
elseif
em
eman
emi
empire
en
encyclopedia
end
energy
england
english
entertainment
entity
ep
epsilon
equiv
er
era
error
es
essays
est
et
eta
euro
europe
european
ever
everything
evil
evolution
ewan
ex
example
eye
eyes
f
fa
face
factor
fall
false
family
far
fbi
fc
fda
fe
february
festival
ff
fi
fiction
field
file
film
films
final
find
fire
first
five
flag
flickr
flight
flow
fm
fo
fontsize
food
football
for
force
ford
foreign
forever
form
format
found
foundation
four
fox
fr
frac
frame
franc
france
francis
francisco
frank
free
freedom
french
friedrich
friends
from
front
fu
full
function
future
g
ga
gal
gallery
game
games
gamma
garden
gay
gb
ge
geagea
gender
general
generation
george
german
germany
geschichte
get
gha
gi
gif
girl
girls
give
glacier
global
go
god
gold
golden
good
google
googlemapslink
got
gov
government
gps
grand
gray
great
greatest
greek
green
gridge
group
gsub
gt
guide
guy
guycn
gyo
h
ha
had
hadani
haifa
half
hall
hanay
hand
hans
happy
hard
harel
harry
harvard
has
hashumai
hat
have
hbar
hbo
hd
he
head
health
heart
heaven
hebrew
hebrewbooks
height
hell
hello
help
henry
her
here
heritage
hh
hi
high
hill
his
histoire
historical
history
hits
hiv
hiyorix
hms
ho
holocaust
holy
home
hope
hot
hotel
house
how
hp
html
http
https
hu
human
i
ibm
icd
ice
id
idf
idt
ie
ieee
if
ii
iii
ikhitron
il
im
image
imdb
img
impact
in
inc
index
india
indian
information
infty
inline
inside
institute
int
intelligence
interior
international
internet
into
introduction
ios
ip
ira
is
isbn
island
islands
iso
israel
israeli
issue
ist
it
italia
item
its
itunes
itv
itzuvit
iucn
iv
ix
j
ja
jack
jacob
james
jan
jane
january
japan
java
javascript
jazz
je
jean
jerusalem
jewish
jews
jo
john
jones
jose
joseph
journal
jpeg
jpg
jr
js
ju
july
june
just
justice
k
ka
karl
ke
key
ki
kids
kill
king
kingdom
kiss
know
ko
kotz
kotzbot
ku
kulystab
l
la
label
lady
lake
lambda
land
lang
langle
language
languages
las
last
late
latin
law
ldorfman
ldots
le
league
learning
lee
left
legend
leo
leq
les
let
letters
level
lexikon
lhe
li
liad
library
life
light
like
lim
line
link
lionster
list
literature
little
live
lives
living
ll
ln
lo
local
log
logo
london
long
look
lord
los
lost
lostam
louis
love
low
ltd
m
ma
mac
machine
made
magazine
magic
magyar
main
major
make
making
mako
malone
man
management
many
map
march
maria
marie
mario
mark
martin
mary
mass
master
matankic
match
mathbb
mathbf
mathcal
mathknight
mathrm
matrix
max
may
mb
mbkv
mbox
mc
md
me
media
mediawiki
medical
medicine
memorial
memory
men
message
metacritic
metal
mexico
mg
mi
michael
microsoft
mid
middle
mikey
military
min
mind
miss
mission
mit
mk
mls
mo
mobile
mod
mode
model
modern
module
money
moon
more
morning
moshe
most
mother
motor
mount
mountain
mountains
movement
mp
mr
mri
ms
mt
mtv
mu
museum
music
must
mvp
mw
my
n
na
nabla
nachum
name
nation
national
natural
nature
naval
nave
navy
nba
nbc
ncaa
nd
ne
near
need
net
network
never
nevermore
new
news
next
nfc
nfl
ng
ngc
nhl
ni
night
nil
nirvadel
no
noeditsection
non
none
noon
north
northern
not
note
notes
nothing
notoc
november
now
np
nrg
nt
nu
number
nxt
ny
o
october
odedee
oecd
of
ofekalef
off
office
official
ogg
oh
old
omega
on
one
online
only
op
open
opera
operation
operatorname
oplus
options
or
order
org
organization
ori
original
os
other
otrs
our
out
ovedc
over
overline
own
oxford
oy
p
pa
pacific
pacman
page
pages
palestine
paper
parameter
params
paris
park
part
partial
partira
party
past
paul
pc
pdf
pe
peace
people
per
performance
period
peter
pg
ph
phi
philosophy
photo
php
pi
pictures
pierre
pikiwiki
pl
place
plan
play
please
plus
pm
pmatrix
png
po
point
police
policy
political
politics
pop
port
portrait
post
power
pp
pr
pre
present
president
press
pride
prince
private
pro
process
program
project
property
prrp
psi
psychology
pt
ptt
public
publications
published
publishers
publishing
px
q
quad
quarter
quarterly
que
queen
r
ra
radio
rain
ramiy
ranbar
range
rangle
ravit
raw
ray
rca
rd
re
real
rear
record
records
red
reference
relations
religion
report
republic
required
res
research
result
retrieved
return
review
revolution
rex
rho
ri
richard
right
rightarrow
rights
rimermoshe
ring
rise
river
rna
ro
road
robert
rock
roma
roman
ronam
room
rose
rotemliss
rotten
routledge
row
royal
rs
rt
rte
ru
run
russia
russian
s
sa
saint
same
samuel
san
santa
sapiens
say
sc
scale
scar
school
science
sciences
scientific
score
scott
se
sea
search
second
secret
section
security
see
self
september
series
service
services
set
setreset
seven
sex
shannen
she
shift
short
should
show
si
side
sigma
sign
silver
simon
sin
since
single
sir
site
six
size
sky
slav
small
smith
so
social
society
software
sokuya
some
something
son
song
songs
soul
sound
source
south
southern
sp
space
spanish
special
spirit
sport
sports
spring
sqrt
square
sr
ss
st
stamp
stand
standard
star
stars
start
state
states
station
stephen
still
stone
stop
stories
story
str
street
string
sts
studies
studio
studios
study
style
su
sub
subseteq
sum
summer
sun
super
support
sur
survey
svg
sweet
symbol
synagogue
system
systems
sz
sza
szerk
szi
szlo
t
ta
table
tag
take
takeover
tal
tales
talk
target
tau
taylor
td
te
team
tech
technology
tel
television
tell
template
temple
test
text
tfrac
th
than
that
the
theatre
their
them
themarker
then
theory
there
these
theshumai
theta
they
thing
things
third
this
thomas
three
through
thumb
ti
till
time
times
title
tmagen
tmima
tnt
to
toc
today
together
tom
tomatoes
tomtom
tonight
too
top
total
tour
tower
town
tr
trade
trans
translated
translation
tre
tree
true
trust
tshuva
tu
tv
two
type
tzafrir
u
uk
un
und
under
une
union
unit
united
university
up
url
us
usa
use
used
user
using
uss
ustring
utc
uziel
v
va
val
valley
value
van
var
varepsilon
varphi
ve
vec
verlag
version
very
vi
via
video
view
vii
viii
village
visual
vo
vod
voice
vol
volume
von
vs
w
wall
walter
want
war
wars
was
washington
watch
water
way
we
web
website
weekly
wehrmacht
well
were
west
western
what
when
where
which
white
who
why
width
wii
wiki
wikidata
wikimedia
wikipedia
wild
wilhelm
will
william
williams
wind
windows
winter
with
without
wmf
woman
women
word
words
work
workflow
works
world
would
wrestling
wta
wwe
wwf
www
x
xbox
xi
xs
xx
xxx
y
ya
year
years
yellow
yes
yeshiva
yhyh
ynet
yoavd
yonidebest
york
you
young
your
youth
youtube
z
za
zu
zur
{
|
}
~
¡
¢
£
¦
§
©
«
¬
­
®
¯
°
±
²
³
´
µ
·
¹
º
»
½
¿
×
ı
ʻ
ʼ
ˈ
ː
̀
́
̂
̃
̄
̆
̇
̈
̊
̋
̌
̓
̔
̛
̣
̦
̧
̨
͂
α
β
γ
δ
ε
η
θ
ι
κ
λ
μ
ν
ο
π
ρ
ς
σ
υ
φ
ω
а
в
г
д
е
и
к
л
м
н
на
о
р
россии
с
т
у
я
֑
֒
֔
֕
֖
֗
֘
֙
֚
֛
֜
֝
֞
֠
֡
֣
֤
֥
֧
֨
֩
֪
֫
֬
֭
֮
ְ
ֱ
ֲ
ֳ
ִ
ֵ
ֶ
ַ
ָ
ֹ
ֺ
ֻ
ּ
ֽ
־
ֿ
׀
ׁ
ׂ
׃
ׅ
ׇ
א
אא
אאודי
אאוט
אאל
אב
אבא
אבאר
אבבה
אבגד
אבד
אבדה
אבדו
אבדות
אבדן
אבה
אבהו
אבו
אבוא
אבוד
אבודה
אבודים
אבוה
אבוהון
אבוט
אבולוציה
אבולוציונית
אבולעפיה
אבות
אבותי
אבותיהם
אבותיו
אבותיך
אבותיכם
אבותינו
אבותם
אבחון
אבחזיה
אבחנה
אבטחה
אבטחת
אבטלה
אבי
אביא
אביב
אביבה
אביבי
אביגדור
אביגיל
אבידה
אבידן
אביה
אביהו
אביהם
אביהן
אביו
אביחי
אביטל
אביי
אביך
אבילות
אבימלך
אבין
אבינו
אביעד
אביעדוס
אביר
אבירות
אבירי
אבירים
אבירם
אבישי
אביתר
אבל
אבלות
אבלים
אבן
אבני
אבנים
אבנר
אבנרי
אבעבועות
אבק
אבקה
אבקש
אבקת
אבר
אבראהים
אברבנאל
אברגיל
אברהם
אברטון
אברי
אבריו
אברים
אברכים
אברם
אברמוביץ
אבשלום
אג
אגב
אגד
אגדה
אגדות
אגדת
אגו
אגוד
אגודה
אגודות
אגודת
אגוז
אגוזים
אגיד
אגילרה
אגירה
אגם
אגמון
אגמים
אגן
אגנס
אגסי
אגף
אגפים
אגר
אגרא
אגרה
אגרוף
אגרות
אגריפס
אגרת
אד
אדא
אדבר
אדג
אדגר
אדה
אדו
אדוארד
אדוארדו
אדוארדס
אדווין
אדולף
אדום
אדומה
אדומות
אדומים
אדון
אדונו
אדוני
אדוניו
אדונים
אדוק
אדי
אדינבורו
אדיסון
אדיר
אדירה
אדירים
אדית
אדל
אדלייד
אדלר
אדלשטיין
אדם
אדמדם
אדמה
אדמו
אדמון
אדמונד
אדמוני
אדמות
אדמירל
אדמס
אדמת
אדמתם
אדן
אדנ
אדני
אדע
אדעתא
אדעתיה
אדר
אדרב
אדרבא
אדרבה
אדרבי
אדרי
אדריאן
אדריאנוס
אדריכל
אדריכלות
אדריכלי
אדריכליים
אדריכלים
אדריכלית
אדרת
אה
אהא
אהב
אהבה
אהבו
אהבת
אהבתה
אהבתו
אהבתי
אהבתם
אהדדי
אהדה
אהוב
אהובה
אהובי
אהובתו
אהוד
אהי
אהיה
אהל
אהלי
אהלים
אהמ
אהני
אהרון
אהרוני
אהרן
או
אואנס
אוב
אובד
אובדן
אובחן
אובייקט
אובייקטיבי
אובייקטיבית
אובייקטים
אובמה
אובר
אוברסט
אוג
אוגדה
אוגדת
אוגוסט
אוגוסטה
אוגוסטוס
אוגנדה
אודה
אודות
אודותיה
אודותיו
אודי
אודיו
אודין
אודם
אודסה
אודרי
אוהב
אוהבו
אוהבי
אוהבים
אוהבת
אוהד
אוהדי
אוהדים
אוהיו
אוהל
אוהלים
אווה
אווז
אווטאר
אוויר
אווירה
אווירי
אוויריות
אווירית
אוולין
אוון
אוונס
אוורור
אוורט
אוז
אוזבקיסטן
אוזן
אוזניים
אוחדה
אוחדו
אוחז
אוחזין
אוחזת
אוחיון
אוחנה
אוטו
אוטובוס
אוטובוסים
אוטוביוגרפי
אוטוביוגרפיה
אוטומטי
אוטומטיות
אוטומטיים
אוטומטית
אוטונומי
אוטונומיה
אוטונומית
אוטיס
אוטרכט
אוי
אויב
אויבו
אויבי
אויביהם
אויביו
אויביך
אויבים
אויגן
אוילר
אויר
אוירא
אוירבך
אוכל
אוכלוסיות
אוכלוסייה
אוכלוסיית
אוכלוסייתה
אוכלוסין
אוכלי
אוכלים
אוכלין
אוכלת
אוכף
אול
אולג
אולגה
אולד
אולדנבורג
אולטימטום
אולטרה
אולי
אוליביה
אוליבייה
אוליבר
אולימפי
אולימפיאדה
אולימפיאדות
אולימפיאדת
אולימפיאקוס
אולימפיה
אולימפיות
אולימפיים
אולימפיק
אולימפית
אולם
אולמות
אולמן
אולמרט
אולף
אולפן
אולפני
אולץ
אולצו
אולריך
אום
אומ
אומגה
אומד
אומדן
אומדנא
אומה
אומות
אומן
אומנה
אומנות
אומנים
אומנם
אומץ
אומצה
אומר
אומרו
אומרי
אומרים
אומרין
אומרם
אומרת
אומת
און
אונאה
אונגר
אונו
אונות
אונטריו
אוני
אוניברסיטאות
אוניברסיטה
אוניברסיטת
אוניברסלי
אוניברסלית
אוניות
אונייה
אוניית
אוניל
אונים
אונליין
אונן
אונס
אונסק
אונקלוס
אוסבורן
אוסטיה
אוסטין
אוסטן
אוסטרו
אוסטרי
אוסטריה
אוסטרים
אוסטרית
אוסטרלי
אוסטרליה
אוסטרליות
אוסטרלים
אוסטרלית
אוסיף
אוסישקין
אוסלו
אוסף
אוספי
אוספים
אוסקר
אוסר
אוסרים
אוסרין
אוסרת
אוף
אופ
אופה
אופוזיציה
אופוס
אופטי
אופטיים
אופטיקה
אופטית
אופי
אופיו
אופייה
אופייני
אופייניים
אופיינית
אופיר
אופל
אופן
אופנה
אופנהיימר
אופנוע
אופנועים
אופני
אופניים
אופנים
אופציה
אופציונלי
אופציות
אופק
אופקי
אופקים
אופקית
אופרה
אופרות
אופרטור
אופרת
אוצ
אוצר
אוצרו
אוצרות
אוצרת
אוקטובר
אוקי
אוקיאניה
אוקיי
אוקיינוס
אוקימנא
אוקימתא
אוקלהומה
אוקלנד
אוקמוה
אוקספורד
אוקראינה
אוקראיני
אוקראינים
אוקראינית
אור
אורבך
אורבן
אורגון
אורגן
אורגנה
אורגנו
אורגני
אורגניות
אורגניזמים
אורגניים
אורגנית
אורה
אורו
אורוגוואי
אורון
אורורה
אורות
אורז
אורח
אורחא
אורחות
אורחיה
אורחים
אורחת
אורט
אורטון
אורי
אוריאל
אוריה
אוריון
אוריינות
אוריינטציה
אורייתא
אורים
אורית
אורך
אורכב
אורכה
אורכו
אורכי
אורכם
אורל
אורלי
אורליאן
אורליוס
אורלינס
אורלנדו
אורן
אורנג
אורנה
אורניום
אורנים
אורתודוקסי
אורתודוקסים
אורתודוקסית
אושוויץ
אושסקו
אושעיא
אושפז
אושר
אושרה
אושרו
אות
אותה
אותו
אותות
אותי
אותיות
אותך
אותם
אותן
אותנו
אותרו
אז
אזהרה
אזהרות
אזהרת
אזוב
אזולאי
אזור
אזורי
אזוריות
אזוריים
אזורים
אזורית
אזי
אזיל
אזכור
אזכורים
אזכיר
אזכרה
אזל
אזלא
אזלי
אזלינן
אזן
אזנו
אזרבייג
אזרח
אזרחות
אזרחי
אזרחיה
אזרחיות
אזרחיים
אזרחים
אזרחית
אח
אחא
אחאב
אחאי
אחד
אחדות
אחדים
אחוה
אחווה
אחוות
אחוז
אחוזה
אחוזות
אחוזי
אחוזים
אחוזת
אחוזתו
אחור
אחורה
אחורי
אחוריים
אחורית
אחורנית
אחות
אחותה
אחותו
אחותי
אחז
אחזה
אחזור
אחזקה
אחזקות
אחזקת
אחי
אחיד
אחידה
אחידות
אחידים
אחיה
אחיהם
אחיו
אחיות
אחיזה
אחיזת
אחיינו
אחיך
אחים
אחין
אחינו
אחלה
אחמד
אחסון
אחר
אחרא
אחראי
אחראים
אחראית
אחרון
אחרונה
אחרונות
אחרוני
אחרונים
אחרות
אחרי
אחריה
אחריהם
אחריהן
אחריו
אחריות
אחריותו
אחריך
אחרים
אחרינא
אחריני
אחרית
אחריתי
אחרנין
אחרת
אחשורוש
אחת
אט
אטו
אטווש
אטום
אטומי
אטומים
אטומית
אטיין
אטילה
אטימולוגיה
אטינגר
אטלנטה
אטלנטיס
אטלנטיק
אטלס
אטפל
אי
איאן
איב
איבד
איבדה
איבדו
איבה
איבוד
איבן
איבעי
איבעיא
איבעית
איבר
איברהים
איברי
איברים
איג
איגוד
איגודי
איגודים
איגור
איגר
איגרוף
איגרות
איגרת
אידאולוגי
אידאולוגיה
אידאולוגיות
אידאולוגית
אידה
אידי
אידיאל
אידיאלי
אידך
איה
איהו
איהי
איו
איוב
איוואן
איווה
איוון
איום
איומי
איומים
איור
איורים
איז
איזבל
איזבלה
איזה
איזהו
איזו
איזון
איזי
איזשהו
איחד
איחוד
איטי
איטית
איטליה
איטלקי
איטלקיות
איטלקיים
איטלקים
איטלקית
איי
אייאקס
איידהו
איידי
איידס
אייזיק
אייזנברג
אייזנהאואר
אייזנר
אייזק
אייכמן
אייל
איילה
איילון
איילים
איילנד
איילת
איים
איימה
איימו
איימי
איינדהובן
איינשטיין
אייס
אייפון
אייקון
אייר
איירבוס
איירווייז
איירון
איירי
איירליינס
איירס
אייתי
איך
איכא
איכה
איכות
איכותי
איכותיים
איכותית
איכפת
איכרים
איכשהו
איל
אילה
אילו
אילולא
אילון
אילי
איליה
אילים
אילימא
אילין
אילינוי
אילם
אילן
אילנא
אילנה
אילנות
אילני
אילנית
אילץ
אילצה
אילצו
אילת
אימא
אימה
אימהות
אימו
אימון
אימוני
אימונים
אימוץ
אימור
אימות
אימן
אימפריה
אימפריית
אימץ
אימצה
אימצו
אימר
אימרה
אימת
אימתי
אין
אינג
אינגלנד
אינדונזיה
אינדי
אינדיאנה
אינדיאנים
אינדיקציה
אינדקס
אינה
אינהו
אינו
אינון
אינטגרל
אינטגרלי
אינטגרציה
אינטל
אינטליגנציה
אינטלקטואלים
אינטלקטואלית
אינטנסיבי
אינטנסיבית
אינטר
אינטראקציה
אינטראקציות
אינטרנט
אינטרנשיונל
אינטרס
אינטרסים
אינטרסקופ
איני
איניש
אינך
אינם
אינן
איננה
איננו
אינני
אינסברוק
אינסולין
אינסוף
אינסופי
אינסופית
אינפורמציה
אינפלציה
אינץ
אינש
אינשי
איסוף
איסור
איסורא
איסורו
איסורי
איסורים
איסורין
איסט
איסטנבול
איסלנד
איסר
איפה
איפוא
איפור
איפכא
איפשיטא
איפשר
איפשרה
איפשרו
איצ
איצטריך
איציק
איקס
איקרי
איראן
איראני
איראנים
אירו
אירוויזיון
אירווינג
אירוח
אירוני
אירוסין
אירוע
אירועי
אירועים
אירופאי
אירופאיות
אירופאים
אירופאית
אירופה
אירופי
אירופיות
אירופיים
אירופית
אירח
אירחה
אירי
איריא
אירים
איריס
אירית
אירלנד
אירן
אירע
אירעה
אירעו
איש
אישה
אישום
אישור
אישורה
אישורו
אישורי
אישורים
אישות
אישטוואן
אישי
אישיות
אישיותו
אישיים
אישים
אישית
אישר
אישרה
אישרו
אית
איתא
איתה
איתו
איתור
איתות
איתי
איתיביה
איתיה
איתך
איתם
איתמר
איתן
איתנהו
איתתא
אך
אכ
אכו
אכול
אכולהו
אכזבה
אכזרי
אכזריות
אכזרית
אכיל
אכילה
אכילס
אכילת
אכילתו
אכיפה
אכיפת
אכל
אכלה
אכלו
אכלוס
אכלי
אכלתי
אכן
אכסדרה
אכפת
אכתוב
אכתי
אל
אלא
אלאדין
אלבה
אלבום
אלבומה
אלבומו
אלבומי
אלבומים
אלבומם
אלביון
אלביט
אלביס
אלבמה
אלבניה
אלבר
אלברט
אלברטה
אלברטו
אלברכט
אלברשטיין
אלג
אלגברה
אלגברית
אלגברת
אלגוריתם
אלגוריתמים
אלד
אלדד
אלדר
אלה
אלהי
אלהיהם
אלהיו
אלהיך
אלהיכם
אלהים
אלהינו
אלו
אלוה
אלוהי
אלוהים
אלוהית
אלווין
אלול
אלומיניום
אלון
אלונה
אלוני
אלונסו
אלוף
אלופה
אלופות
אלופי
אלופים
אלופת
אלוקים
אלות
אלזה
אלזס
אלחוטי
אלחוטית
אלחנדרו
אלחנן
אלט
אלטו
אלטון
אלטמן
אלטרנטיבה
אלטרנטיבי
אלטרנטיבית
אלי
אליאב
אליאנס
אליאס
אליבא
אליה
אליהו
אליהם
אליהן
אליו
אליוט
אליזבת
אליי
אליך
אליכם
אליל
אלילים
אלים
אלימה
אלימות
אלימים
אלימלך
אלין
אלינו
אלינור
אליס
אליסון
אליסף
אליעזר
אליפויות
אליפות
אליצור
אליקים
אלירן
אלישבע
אלישיב
אלישע
אלך
אלכוהול
אלכס
אלכסון
אלכסיי
אלכסנדר
אלכסנדרה
אלכסנדרו
אלכסנדרוביץ
אלכסנדריה
אללה
אלם
אלמא
אלמגור
אלמה
אלמוג
אלמוגים
אלמוני
אלמונים
אלמלא
אלמנה
אלמנות
אלמנט
אלמנטים
אלמנת
אלמנתו
אלן
אלנבי
אלנה
אלסטר
אלסנדרו
אלסקה
אלעאי
אלעד
אלעזר
אלף
אלפא
אלפבית
אלפונסו
אלפי
אלפיים
אלפים
אלפין
אלפיני
אלפס
אלפסי
אלפרד
אלק
אלקות
אלקותו
אלקטרה
אלקטרו
אלקטרומגנטית
אלקטרון
אלקטרוני
אלקטרוניים
אלקטרונים
אלקטרוניקה
אלקטרונית
אלקי
אלקיך
אלקיכם
אלקים
אלקינו
אלקנה
אלשיך
אלת
אלתר
אלתרמן
אם
אמ
אמא
אמאי
אמבולנס
אמבר
אמברוז
אמדורסקי
אמה
אמהות
אמו
אמון
אמונה
אמונות
אמונים
אמונת
אמונתו
אמונתם
אמוץ
אמור
אמורא
אמוראי
אמורה
אמורות
אמורים
אמות
אמזון
אמי
אמיד
אמידה
אמיל
אמילי
אמיליה
אמיליו
אמימר
אמין
אמינא
אמינה
אמינו
אמינות
אמינים
אמינם
אמיץ
אמיר
אמירה
אמירו
אמירות
אמירת
אמיתות
אמיתי
אמיתיות
אמיתיים
אמיתית
אמך
אמל
אמליה
אמם
אמן
אמנדה
אמנה
אמנואלה
אמנויות
אמנון
אמנות
אמנותי
אמנותיים
אמנותית
אמני
אמניות
אמנים
אמנית
אמנם
אמנסטי
אמנת
אמסטרדם
אמסלם
אמפה
אמפתיה
אמצא
אמצו
אמצע
אמצעי
אמצעים
אמצעית
אמר
אמרה
אמרו
אמרות
אמרי
אמריטוס
אמרין
אמרינן
אמריקאי
אמריקאיות
אמריקאיים
אמריקאים
אמריקאית
אמריקה
אמריקן
אמריקני
אמריקניות
אמריקניים
אמריקנים
אמריקנית
אמרם
אמרן
אמרנו
אמרסון
אמרת
אמרתי
אמש
אמת
אמתי
אמתלא
אמתני
אמתניתין
אמתת
אן
אנ
אנא
אנג
אנגולה
אנגל
אנגלו
אנגלי
אנגליה
אנגליות
אנגלייה
אנגלים
אנגלית
אנד
אנדורה
אנדי
אנדמי
אנדמיים
אנדר
אנדראה
אנדראס
אנדרה
אנדרו
אנדרואיד
אנדרוז
אנדרטאות
אנדרטה
אנדרטת
אנדריאה
אנדריי
אנדרס
אנדרסון
אנדרסן
אנה
אנהלט
אנו
אנוכי
אנונימי
אנונימיים
אנוס
אנוסים
אנוש
אנושות
אנושי
אנושיות
אנושיים
אנושית
אנז
אנזים
אנזימים
אנחל
אנחנו
אנט
אנטארקטיים
אנטארקטיקה
אנטואן
אנטוורפן
אנטולי
אנטוליה
אנטומיה
אנטון
אנטוני
אנטוניה
אנטוניו
אנטוניוס
אנטונסקו
אנטי
אנטיגונוס
אנטיגנוס
אנטיוכוס
אנטיוכיה
אנטישמי
אנטישמיות
אנטישמיים
אנטישמית
אנטרטיינמנט
אנטרפרייז
אני
אניה
אניות
אניטה
אניית
אנימה
אנימציה
אנינות
אניס
אנכי
אנכית
אנליזה
אנליטית
אנן
אנני
אנס
אנסה
אנסטסיה
אנסמבל
אנפין
אנפשיה
אנצ
אנציקלופדי
אנציקלופדיה
אנציקלופדיות
אנציקלופדית
אנר
אנרגטית
אנרגיה
אנרגיית
אנרי
אנרים
אנריקה
אנריקו
אנשי
אנשיה
אנשיו
אנשים
אנת
אנתולוגיה
אנתוני
אס
אסא
אסבסט
אסד
אסון
אסונות
אסופת
אסור
אסורה
אסורות
אסורים
אסורין
אסטון
אסטוניה
אסטוריאס
אסטרונאוטים
אסטרונומיה
אסטרונומיות
אסטרונומים
אסטרטגי
אסטרטגיה
אסטרטגיות
אסטרטגיים
אסטרטגיית
אסטרטגית
אסי
אסיה
אסייתי
אסיסטים
אסיף
אסיפא
אסיפה
אסיפות
אסיפת
אסיק
אסיקנא
אסיר
אסירי
אסירים
אסכולת
אסלאם
אסלאמי
אסלאמית
אסם
אסמאעיל
אסמכתא
אסנת
אסף
אספה
אספו
אספן
אספניול
אספנייה
אספסיאנוס
אספקה
אספקת
אספת
אסר
אסרה
אסרו
אסרי
אסתי
אסתר
אע
אעלה
אעפ
אעשה
אף
אפ
אפאצ
אפגניסטן
אפו
אפוא
אפוטרופוס
אפולו
אפור
אפורה
אפורים
אפותיקי
אפי
אפיה
אפיון
אפייה
אפילו
אפילפסיה
אפים
אפין
אפיפיור
אפיפיורים
אפיק
אפיקים
אפל
אפלה
אפלו
אפלטון
אפליה
אפליקציות
אפס
אפק
אפקט
אפקטיבי
אפקטיבית
אפקטים
אפר
אפרו
אפריל
אפרים
אפריקאי
אפריקאיות
אפריקאים
אפריקאית
אפריקה
אפריקני
אפרפר
אפרש
אפרת
אפשטיין
אפשי
אפשר
אפשרה
אפשרו
אפשרויות
אפשרות
אפשרי
אפשריות
אפשריים
אפשרית
אץ
אצ
אצבע
אצבעו
אצבעות
אצבעותיו
אצולה
אצות
אצטדיון
אצטדיונים
אצטריך
אציין
אציל
אצילות
אצילי
אצילים
אצל
אצלה
אצלו
אצלי
אצלינו
אצלך
אצלם
אצלנו
אק
אקדח
אקדחים
אקדמאים
אקדמי
אקדמיה
אקדמיות
אקדמיים
אקדמיית
אקדמית
אקו
אקוודור
אקולוגיה
אקולוגית
אקוסטית
אקורד
אקט
אקטואליה
אקטואליים
אקטיבי
אקטיביזם
אקטיבית
אקי
אקלים
אקס
אקסבייר
אקסום
אקסינו
אקסל
אקספלורר
אקספרס
אקצא
אקרא
אקראי
אקראיות
אקראיים
אקראית
אקרי
אקרמן
אקשן
אר
אראגון
אראה
אראל
ארבה
ארבל
ארבע
ארבעה
ארבעים
ארבעת
ארג
ארגוב
ארגון
ארגוני
ארגונים
ארגונית
ארגז
ארגמן
ארגן
ארגנה
ארגנו
ארגנטינאי
ארגנטינאים
ארגנטינה
ארד
ארדואן
ארדן
ארה
ארו
ארובה
ארווין
ארוחה
ארוחות
ארוחת
ארוך
ארוכה
ארוכות
ארוכי
ארוכים
ארוכת
ארון
ארונו
ארונות
ארוס
ארוסה
ארוסתו
ארור
ארז
ארזי
ארזים
ארחות
ארט
ארטילרי
ארטילריה
ארטילרית
ארטמיס
ארי
אריאל
אריאלי
אריאנה
אריה
אריות
אריזה
אריזונה
אריזות
אריך
אריכות
אריס
אריסטו
אריק
אריקה
אריקסון
ארישא
אריתריאה
ארך
ארכאולוגי
ארכאולוגיה
ארכאולוגיות
ארכאולוגיים
ארכאולוגים
ארכאולוגית
ארכה
ארכו
ארכיון
ארכיטקטורה
ארכימדס
ארל
ארלוזורוב
ארלי
ארליך
ארלס
ארלסטון
ארם
ארמון
ארמונות
ארמי
ארמיות
ארמייה
ארמיית
ארמית
ארמני
ארמניה
ארמנים
ארמסטרונג
ארן
ארנב
ארנה
ארנו
ארנולד
ארנון
ארנונה
ארנסט
ארס
ארסנל
ארעא
ארעי
ארץ
ארצ
ארצה
ארצו
ארצות
ארצי
ארציות
ארציים
ארצית
ארצם
ארצנו
ארק
ארקנסו
ארתור
אש
אשא
אשד
אשדוד
אשדות
אשה
אשור
אשורית
אשי
אשירה
אשכול
אשכולות
אשכח
אשכחן
אשכנז
אשכנזי
אשכנזים
אשל
אשלגן
אשלי
אשליה
אשם
אשמה
אשמו
אשמועינן
אשמח
אשמים
אשמעינן
אשפה
אשפוז
אשקלון
אשר
אשראי
אשרה
אשרות
אשרי
אשריך
אשרת
אשת
אשתדל
אשתו
אשתי
אשתך
אשתכח
את
אתא
אתאיסטים
אתגר
אתגרים
אתה
אתו
אתוון
אתון
אתונה
אתוס
אתחול
אתי
אתיא
אתיופיה
אתיקה
אתך
אתכם
אתלט
אתלטיות
אתלטים
אתלטיק
אתלטיקה
אתלטיקו
אתלטית
אתם
אתמול
אתמר
אתן
אתנה
אתנו
אתני
אתניות
אתניים
אתנית
אתנן
אתער
אתערותא
אתר
אתרוג
אתרי
אתרים
ב
בא
באב
באבא
באבו
באבות
באביב
באביו
באבל
באבן
באבני
באבנים
באבר
באברהם
באג
באגדה
באגודה
באגודת
באגם
באגן
באגף
באד
באדום
באדי
באדם
באדמה
באדמות
באדן
באדר
באדרא
באדריכלות
באה
באהבה
באהל
באו
באואר
באוגוסט
באוגנדה
באודסה
באוהיו
באוהל
באוויר
באווירה
באוטובוס
באויר
באוכל
באוכלוסייה
באוכלוסיית
באולימפיאדה
באולימפיאדות
באולימפיאדת
באולם
באולמות
באולפן
באולפני
באום
באומות
באומן
באומנות
באומר
באומרו
באוניברסיטאות
באוניברסיטה
באוניברסיטת
באוניות
באונייה
באונס
באונסין
באוסטריה
באוסטרליה
באוסלו
באוסף
באופוזיציה
באופי
באופיו
באופן
באופנים
באופרה
באופרת
באוצר
באוקטובר
באוקיינוס
באוקספורד
באוקראינה
באוקראינית
באור
באורח
באורייתא
באורך
באושוויץ
באות
באותה
באותו
באותיות
באותם
באותן
באז
באזהרה
באזור
באזורי
באזורים
באזני
באזרחים
באח
באחד
באחדות
באחוזה
באחוזים
באחוזת
באחור
באחיו
באחר
באחרונה
באחריות
באחריותו
באחריותן
באחרים
באחרית
באחת
באטלנטה
באטלר
באטמוספירה
באטמן
באי
באיגוד
באיגרת
באידך
באיור
באיזה
באיזו
באיזור
באיחוד
באיחור
באיטיות
באיטליה
באיטלקית
באיי
באיים
באייר
באיירן
באיכות
באילו
באילן
באילת
באים
באימון
באימונים
באימפריה
באין
באינדונזיה
באינו
באינטרנט
באיסוף
באיסור
באיסורא
באיסורי
באיסטנבול
באיסלנד
באיראן
באירוויזיון
באירוע
באירועי
באירועים
באירופה
באירלנד
באיש
באישה
באישור
באיתור
באך
באכזריות
באכילה
באכילת
באל
באלבום
באלבומה
באלבומו
באלבניה
באלג
באלה
באלו
באלוהים
באלול
באלור
באלימות
באליפויות
באליפות
באלכסון
באלכסנדריה
באלמנה
באלסקה
באלף
באלפבית
באלפי
באם
באמה
באמונה
באמונתו
באמור
באמירה
באמירת
באמנה
באמנויות
באמנות
באמסטרדם
באמצע
באמצעות
באמצעותה
באמצעותו
באמצעי
באמצעים
באמרו
באמריקה
באמרם
באמת
באן
באנגליה
באנגלית
באנו
באנטארקטיקה
באנטוורפן
באני
באנפי
באנציקלופדיה
באנרגיה
באנשי
באנשים
באס
באסון
באסטוניה
באסיה
באסיפה
באסלאם
באספה
באספקת
באף
באפגניסטן
באפט
באפי
באפיק
באפלו
באפר
באפריל
באפריקה
באפשרות
באצ
באצבע
באצטדיון
באצילות
באק
באקדח
באקדמיה
באקדמיית
באקו
באקלים
באקס
באקראי
באר
בארבע
בארבעה
בארבעת
בארגון
בארגוני
בארגונים
בארגז
בארגנטינה
בארד
בארה
בארו
בארוכה
בארון
בארות
בארט
בארי
באריזונה
באריכות
בארכיון
בארמון
בארמית
בארמניה
בארנו
בארנס
בארעא
בארץ
בארצו
בארצות
בארצם
בארצנו
בארתי
באש
באשדוד
באשה
באשכנז
באשם
באשמה
באשמת
באשקלון
באשר
באשת
באשתו
באת
באתונה
באתי
באתיופיה
באתלטיקה
באתר
באתרא
באתרי
באתרים
בב
בבא
בבאר
בבבא
בבבל
בבג
בבגד
בבגדאד
בבגדו
בבגדי
בבגדים
בבגידה
בבד
בבדיקה
בבדיקות
בבדיקת
בבה
בבהמה
בבוא
בבואו
בבואם
בבואנוס
בבודפשט
בבוואריה
בבוט
בבולגריה
בבולגרית
בבונדסליגה
בבוסטון
בבוסניה
בבוקר
בבוקרשט
בבור
בבורות
בבורסה
בבזל
בבחי
בבחינה
בבחינות
בבחינת
בבחירה
בבחירות
בבחירת
בבטחה
בבטן
בבי
בביאה
בביאור
בבידוד
בביולוגיה
בביטוח
בביטוי
בביטול
בביטחון
בבייג
בביירות
בבילבורד
בבילון
בבימוי
בבימויה
בבימויו
בבינה
בביצה
בביצוע
בביצועה
בביצועו
בביצות
בביקור
בביקורו
בביקורת
בבירה
בבירור
בבירת
בבישול
בבית
בביתה
בביתו
בביתי
בביתך
בביתם
בביתן
בבכור
בבכורה
בבכורות
בבכי
בבל
בבלארוס
בבלגיה
בבלגרד
בבלוג
בבלי
בבלקן
בבמה
בבן
בבנו
בבני
בבנייה
בבניין
בבניית
בבנין
בבנק
בבסיס
בבעיה
בבעיות
בבעיטות
בבעל
בבעלות
בבעלותה
בבעלותו
בבעלי
בבעלים
בבצלאל
בבקעה
בבקעת
בבקר
בבקשה
בבקשות
בבקשת
בבר
בבראשית
בברודוויי
בברוך
בברוקלין
בברזיל
בברזל
בברי
בבריא
בבריאה
בבריאות
בבריאת
בבריטניה
בברייתא
בבריכה
בבריכת
בבריסל
בברית
בברכה
בברכו
בברכות
בברכת
בברלין
בברצלונה
בברקלי
בבשר
בבת
בבתי
בבתיהם
בבתים
בג
בגאומטריה
בגאורגיה
בגאורגית
בגב
בגבהים
בגבו
בגבול
בגבולות
בגבורה
בגביע
בגבעה
בגבעת
בגבעתיים
בגברים
בגג
בגד
בגדאד
בגדה
בגדו
בגדוד
בגדול
בגדולה
בגדי
בגדיהם
בגדיו
בגדים
בגדלים
בגדר
בגו
בגובה
בגובהו
בגוגל
בגודל
בגודלה
בגודלו
בגוון
בגויה
בגוים
בגולה
בגומלין
בגוף
בגופה
בגופו
בגופים
בגופם
בגופן
בגורל
בגוש
בגז
בגזל
בגזרה
בגזרת
בגט
בגטו
בגי
בגיבוש
בגידה
בגידול
בגיהנם
בגיוס
בגיטין
בגיטרה
בגיל
בגילאי
בגילאים
בגילוי
בגילומו
בגיליון
בגימטריא
בגימנסיה
בגין
בגינה
בגישה
בגל
בגלאזגו
בגלגול
בגלגל
בגלוי
בגלות
בגלי
בגליון
בגליל
בגליציה
בגלל
בגלריה
בגלריית
בגמ
בגמר
בגמרא
בגן
בגנות
בגני
בגניבה
בגנים
בגר
בגראנד
בגרות
בגרמניה
בגרמנית
בגרנד
בגרסאות
בגרסה
בגרסת
בגרסתו
בגרעין
בגרף
בגשר
בגת
בד
בדא
בדאבל
בדאורייתא
בדאיכא
בדאלאס
בדבור
בדבלין
בדבר
בדברו
בדברי
בדבריהם
בדבריו
בדברים
בדבש
בדגים
בדגל
בדגם
בדגמים
בדגש
בדד
בדה
בדו
בדואים
בדואר
בדוגמה
בדוד
בדוח
בדוחות
בדוחק
בדוי
בדומה
בדופן
בדוק
בדור
בדורו
בדורות
בדטרויט
בדי
בדיבוב
בדיבור
בדידה
בדידות
בדיו
בדיווח
בדיון
בדיוני
בדיוניים
בדיונים
בדיונית
בדיוק
בדיחה
בדיחות
בדיכאון
בדיכוי
בדיל
בדים
בדימוס
בדין
בדינא
בדיני
בדינר
בדיעבד
בדיקה
בדיקות
בדיקת
בדירה
בדירוג
בדירקטוריון
בדירת
בדירתו
בדלא
בדלק
בדלקת
בדלת
בדלתיים
בדם
בדמויות
בדמוקרטיה
בדמות
בדמותה
בדמותו
בדמי
בדמיון
בדמים
בדמשק
בדנית
בדנמרק
בדעה
בדעות
בדעת
בדעתו
בדעתי
בדעתם
בדף
בדפדפן
בדפוס
בדפי
בדפים
בדצמבר
בדק
בדקדוק
בדקה
בדקו
בדקות
בדקתי
בדר
בדראפט
בדרבי
בדרבנן
בדרג
בדרגה
בדרגות
בדרגת
בדרום
בדרומה
בדרוש
בדרזדן
בדרישה
בדרישות
בדרך
בדרכה
בדרכו
בדרכי
בדרכיו
בדרכים
בדרכם
בדרמה
בדרמת
בדת
בה
בהא
בהאא
בהאג
בהאי
בהאיטי
בהאמה
בהארכה
בהבאת
בהבנה
בהבנת
בהג
בהגדרה
בהגדרת
בהגה
בהגהות
בהגהת
בהגיע
בהגיעו
בהגיעם
בהגנה
בהגנת
בהגרלה
בהגשת
בהדה
בהדי
בהדיא
בהדיה
בהדייהו
בהדיפת
בהדרגה
בהדרכת
בהדרכתו
בההוא
בההיא
בהו
בהובלת
בהוד
בהודו
בהודעה
בהודעת
בהוואי
בהווה
בהוטן
בהוליווד
בהולנד
בהולנדית
בהומור
בהון
בהונג
בהונגריה
בהונגרית
בהוספת
בהופעה
בהופעות
בהופעת
בהוצאה
בהוצאות
בהוצאת
בהוקי
בהוראה
בהוראות
בהוראת
בהוראתו
בהזדמנות
בהזמנה
בהזמנת
בהחלט
בהחלטה
בהחלטות
בהחלטת
בהחלקה
בהטלת
בהיבט
בהיבטים
בהיות
בהיותה
בהיותו
בהיותם
בהיטל
בהיכל
בהינתן
בהיסטוריה
בהיסטוריית
בהיעדר
בהיעדרו
בהיקף
בהיר
בהירה
בהירות
בהיריון
בהירים
בהישג
בהיתר
בהך
בהכי
בהכנות
בהכנסות
בהכנת
בהכרה
בהכרזה
בהכרח
בהכשרה
בהל
בהלה
בהליך
בהליכה
בהליכי
בהליכים
בהלכה
בהלכות
בהלסינקי
בהם
בהמ
בהמבורג
בהמה
בהמות
בהמלצת
בהמשך
בהמשכים
בהמת
בהמתו
בהן
בהנאה
בהנדסה
בהנדסת
בהנהגה
בהנהגת
בהנהגתו
בהנהלת
בהנחה
בהנחיית
בהנחייתו
בהני
בהנך
בהסבר
בהסדר
בהסכם
בהסכמה
בהסכמת
בהסכמתו
בהספק
בהסתברות
בהסתדרות
בהסתמך
בהעברה
בהעברת
בהעדפות
בהעדר
בהעלאת
בהעלותך
בהעלם
בהערה
בהערות
בהערכה
בהערכת
בהפגנה
בהפגנות
בהפועל
בהפחתת
בהפיכה
בהפך
בהפסד
בהפעלת
בהפצת
בהפקה
בהפקות
בהפקת
בהפקתו
בהפרש
בהפרת
בהפתעה
בהצבעה
בהצבעות
בהצבעת
בהצגה
בהצגות
בהצגת
בהצהרה
בהצטיינות
בהצלחה
בהצעה
בהצעת
בהקב
בהקדם
בהקדמה
בהקדמת
בהקדמתו
בהקדש
בהקלטות
בהקמת
בהקשר
בהקשרים
בהר
בהרבה
בהרחבה
בהרחבת
בהרי
בהריון
בהרים
בהרכב
בהרצליה
בהרת
בהשאלה
בהשארת
בהשגות
בהשגחה
בהשגת
בהשוואה
בהשפעה
בהשפעת
בהשקעה
בהשראת
בהשתתפות
בהתאחדות
בהתאם
בהתאמה
בהתבסס
בהתורה
בהתחלה
בהתחשב
בהתייחס
בהתייחסות
בהתייעצות
בהתלהבות
בהתמדה
בהתמודדות
בהתנגדות
בהתנדבות
בהתנהגות
בהתעמלות
בהתערבות
בהתפתחות
בהתקיים
בהתקפה
בהתקפות
בהתראה
בהתרסקות
בו
בוא
בואה
בואו
בואי
בואינג
בואם
בואנוס
בוב
בובה
בובות
בובי
בובספוג
בובר
בובת
בוגד
בוגר
בוגרות
בוגרי
בוגרים
בוגרת
בודאי
בודד
בודדות
בודדים
בודדת
בודה
בודהה
בודהיזם
בודפשט
בודק
בודקים
בודקין
בודקת
בוהמיה
בוהק
בוואלטה
בוואריה
בוודאות
בוודאי
בווידאו
בווייטנאם
בוויכוח
בווילנה
בווינגייט
בווינה
בוויקי
בוויקינתונים
בוויקיפדיה
בוויקישיתוף
בווירג
בוונצואלה
בוונציה
בווסט
בוועד
בוועדה
בוועדות
בוועדת
בוועידה
בוועידת
בוורמאכט
בוורשה
בוושינגטון
בוז
בוזגלו
בוחן
בוחנים
בוחנת
בוחר
בוחרים
בוחרת
בוט
בוטה
בוטים
בוטינסקי
בוטל
בוטלה
בוטלו
בוי
בויד
בויז
בויל
בוים
בויקי
בויקיפדיה
בוכה
בול
בולגריה
בולגרים
בולדווין
בולוניה
בולט
בולטון
בולטות
בולטים
בולטימור
בולטת
בולי
בוליביה
בולים
בולס
בולע
בום
בון
בונד
בונה
בונוס
בוני
בונים
בונין
בונפרטה
בוס
בוסטון
בוסניה
בועדה
בועות
בועז
בועל
בוער
בוץ
בוצ
בוצע
בוצעה
בוצעו
בוק
בוקה
בוקובינה
בוקס
בוקעת
בוקר
בוקרשט
בור
בורא
בוראו
בורבון
בורג
בורגונדיה
בורדו
בורה
בורו
בורוכוב
בורוסיה
בורות
בורח
בורחים
בורחת
בוריס
בורמה
בורן
בורנשטיין
בורסה
בורק
בורר
בוררות
בורשטיין
בוש
בושה
בושת
בות
בז
בזאת
בזב
בזבוז
בזבחים
בזדון
בזה
בזהב
בזהות
בזהירות
בזהר
בזו
בזוג
בזוגות
בזוגיות
בזוה
בזוהר
בזווית
בזוזי
בזול
בזולת
בזיהוי
בזיון
בזיכיון
בזיכרון
בזיליקת
בזירה
בזירת
בזכויות
בזכות
בזכותו
בזכר
בזכרון
בזכרים
בזל
בזלת
בזמן
בזמנה
בזמנו
בזמנים
בזנות
בזעם
בזק
בזר
בזרוע
בזריזות
בזריקה
בזריקת
בזרם
בח
בחבורה
בחבורו
בחבירו
בחבית
בחבל
בחבר
בחברה
בחברון
בחברות
בחברת
בחג
בחגיגה
בחגיגות
בחגים
בחד
בחדא
בחדר
בחדרה
בחדרו
בחדרי
בחדש
בחדשות
בחו
בחוב
בחובו
בחובות
בחוברות
בחוברת
בחוג
בחוגי
בחוגים
בחודש
בחודשי
בחודשים
בחווה
בחוות
בחוזה
בחוזק
בחוזקה
בחוט
בחול
בחולה
בחולון
בחולי
בחולים
בחולין
בחום
בחומה
בחומר
בחומרה
בחומרי
בחומרים
בחומש
בחוסר
בחוף
בחופי
בחופש
בחופשה
בחופשיות
בחוץ
בחוצה
בחוק
בחוקה
בחוקי
בחוקים
בחוקת
בחור
בחורה
בחורים
בחורף
בחוש
בחושך
בחושן
בחותם
בחזה
בחזית
בחזקה
בחזקת
בחזקתו
בחזרה
בחטא
בחטאת
בחטיבה
בחטיבת
בחי
בחיבור
בחיבורו
בחידוש
בחידושי
בחידושיו
בחיוב
בחיות
בחיי
בחייבי
בחייה
בחייהם
בחייו
בחיילים
בחיים
בחיל
בחילות
בחינה
בחינוך
בחינות
בחינם
בחינת
בחיפה
בחיפוש
בחיק
בחיקוק
בחירה
בחירות
בחירת
בחירתו
בחישוב
בחכמה
בחכמת
בחכמתו
בחלב
בחלה
בחלום
בחלון
בחלונות
בחלוף
בחלוקה
בחלוקת
בחליפין
בחליצה
בחלל
בחלק
בחלקה
בחלקו
בחלקי
בחלקים
בחלקם
בחלקן
בחלקת
בחמה
בחמין
בחמישה
בחמישי
בחמישייה
בחמץ
בחמש
בחמשה
בחן
בחנויות
בחנוכה
בחנות
בחנם
בחנק
בחסד
בחסות
בחסידות
בחסר
בחפירות
בחפץ
בחצות
בחצי
בחצר
בחצרו
בחצרות
בחקיקה
בחקירה
בחקירת
בחקלאות
בחקר
בחר
בחרב
בחרה
בחרו
בחריין
בחריפות
בחרם
בחרתי
בחשאי
בחשבון
בחשד
בחשוון
בחשיבות
בחשיבותה
בחשיבותו
בחשמל
בחתונה
בחתיכה
בחתימה
בחתימת
בט
בטא
בטאיוואן
בטבח
בטבילה
בטביליסי
בטבלה
בטבלת
בטבע
בטבעת
בטבריה
בטבת
בטהובן
בטהראן
בטהרה
בטוב
בטובה
בטובת
בטווח
בטוויטר
בטוח
בטוחה
בטוחים
בטול
בטומאה
בטומאת
בטון
בטוען
בטופס
בטוקיו
בטור
בטורונטו
בטורינו
בטורניר
בטורנירים
בטורקיה
בטורקית
בטח
בטחון
בטי
בטיב
בטיבה
בטיוטה
בטיחות
בטיחותי
בטיט
בטייסת
בטיל
בטילה
בטיסה
בטיסות
בטיסטה
בטיפול
בטיפוס
בטירה
בטירת
בטכנולוגיה
בטכנולוגיות
בטכנולוגיית
בטכניון
בטכניקה
בטכניקות
בטכניקת
בטל
בטלה
בטלו
בטלוויזיה
בטלות
בטלטול
בטלים
בטלית
בטלנובלה
בטלפון
בטמא
בטמפרטורה
בטמפרטורות
בטן
בטניס
בטעות
בטעם
בטעמא
בטענה
בטענות
בטענת
בטקס
בטקסט
בטקסטים
בטקסים
בטקסס
בטרור
בטריטוריה
בטרייד
בטרם
בטרנסילבניה
בי
ביאה
ביאור
ביאורים
ביאטריס
ביאליסטוק
ביאליק
ביאנקה
ביאר
ביארנו
ביאת
ביאתו
ביבי
ביבליוגרפיה
ביבמות
ביבנה
ביבר
ביבש
ביבשה
ביבשת
ביג
ביגוד
ביד
בידה
בידו
בידוד
בידוע
בידור
בידי
בידיה
בידיהם
בידיו
בידיים
בידים
בידינו
בידיעה
בידיעת
בידך
בידם
בידע
ביה
ביהדות
ביהודה
ביהודי
ביהודים
ביהמ
ביו
ביוב
ביובל
ביוגוסלביה
ביוגרפי
ביוגרפיה
ביוגרפיות
ביוגרפיים
ביודעין
ביוה
ביוון
ביוונית
ביוזמה
ביוזמת
ביוזמתו
ביוטה
ביוטיוב
ביולוגי
ביולוגיה
ביולוגיות
ביולוגיים
ביולוגים
ביולוגית
ביולי
ביום
ביומא
ביומו
ביומן
ביומנו
ביון
ביוני
ביונסה
ביוסטון
ביוצא
ביוקנן
ביוקר
ביורה
ביורו
ביורוליג
ביורוקרט
ביורן
ביושר
ביות
ביותר
ביזה
ביזנטית
ביחד
ביחוד
ביחזקאל
ביחיד
ביחידה
ביחידות
ביחידת
ביחס
ביחסי
ביחסים
ביט
ביטא
ביטאון
ביטוח
ביטוי
ביטויים
ביטול
ביטולה
ביטולו
ביטון
ביטחון
ביטחוני
ביטחוניים
ביטחונית
ביטל
ביטלה
ביטלו
ביי
בייבי
בייג
ביידיש
ביידן
בייחוד
בייט
בייטס
בייל
ביילי
ביים
ביימה
ביין
בייסבול
בייעוץ
בייצוג
בייצור
בייקון
בייקר
ביירון
ביירות
ביישוב
ביישובים
ביישום
ביכולות
ביכולת
ביכולתה
ביכולתו
ביכולתם
ביכורים
ביל
בילבאו
בילבורד
בילד
בילדות
בילדותה
בילדותו
בילדים
בילה
בילו
בילוי
בילי
בילקוט
בילתה
בים
בימוי
בימות
בימי
בימיו
בימים
בימין
בימינו
ביממה
בימת
בין
בינארי
בינג
בינה
בינו
בינואר
בינוויקי
בינוי
בינוני
בינוניות
בינוניים
בינונית
ביני
ביניהם
ביניהן
בינייהו
ביניים
בינינו
בינלאומי
בינלאומיות
בינלאומיים
בינלאומית
בינם
בינתיים
בינתים
ביסוד
ביסוס
ביסמרק
ביסס
ביעור
ביעילות
ביעקב
ביער
ביערות
ביפו
ביפן
ביפנית
ביץ
ביצ
ביצה
ביצוע
ביצועה
ביצועו
ביצועי
ביצועים
ביצור
ביצורי
ביצורים
ביצות
ביצחק
ביצי
ביציאה
ביציאת
ביצים
ביצירה
ביצירות
ביצירותיו
ביצירת
ביצירתו
ביצע
ביצעה
ביצעו
ביצת
ביקום
ביקור
ביקורו
ביקורות
ביקורים
ביקורת
ביקורתי
ביקורתית
ביקוש
ביקר
ביקרה
ביקרו
ביקש
ביקשה
ביקשו
ביקשתי
ביר
ביראה
ביראת
בירד
בירדן
בירה
בירוק
בירוקרט
בירור
בירורים
בירוש
בירושה
בירושלים
בירושלם
בירושלמי
בירי
בירידה
ביריחו
בירך
בירן
בירת
בירתה
בירתו
ביש
בישא
בישוב
בישול
בישולים
בישוף
בישופ
בישופים
בישיבה
בישיבות
בישיבת
בישל
בישראל
בית
ביתא
ביתה
ביתו
ביתי
ביתיים
ביתית
ביתך
ביתם
ביתן
ביתנו
ביתר
ביתרון
בך
בכ
בכאן
בכבד
בכבוד
בכבודו
בכביש
בכבישים
בכבלים
בכדור
בכדורגל
בכדוריד
בכדורסל
בכדי
בכה
בכהונה
בכהן
בכהנים
בכוונה
בכוונת
בכוונתו
בכוח
בכוחה
בכוחו
בכוחות
בכוחם
בכוכב
בכוכבים
בכול
בכולה
בכולהו
בכולו
בכולל
בכולם
בכולן
בכונה
בכוס
בכור
בכורה
בכורות
בכורי
בכורים
בכושר
בכותל
בכותרת
בכזית
בכח
בכחו
בכחול
בכי
בכיבוש
בכיוון
בכיכובה
בכיכובו
בכיכובם
בכיכר
בכימיה
בכינוי
בכינויו
בכינוס
בכינור
בכיס
בכיסא
בכיסוי
בכיר
בכירה
בכירי
בכירים
בכיתה
בכיתות
בכך
בכל
בכלא
בכלוב
בכלי
בכליו
בכלים
בכלכלה
בכלכלת
בכלל
בכללה
בכללו
בכללותה
בכללותו
בכללי
בכללים
בכללם
בכם
בכמה
בכמויות
בכמות
בכניסה
בכנס
בכנסיות
בכנסייה
בכנסיית
בכנסים
בכנסת
בכסלו
בכסף
בכספי
בכספים
בכעס
בכף
בכפוף
בכפייה
בכפר
בכפרים
בכר
בכרטיס
בכרי
בכריתות
בכרך
בכרם
בכרמל
בכרמלית
בכרת
בכשרות
בכת
בכתב
בכתבה
בכתבי
בכתביו
בכתבים
בכתוב
בכתובה
בכתובות
בכתובים
בכתובת
בכתובתה
בכתיב
בכתיבה
בכתיבת
בכתיבתו
בכתף
בכתר
בל
בלא
בלאו
בלאס
בלאק
בלארוס
בלארוסים
בלב
בלבד
בלבו
בלבוב
בלבול
בלבוש
בלבי
בלבם
בלבן
בלבנון
בלגי
בלגיה
בלגים
בלגרד
בלדה
בלדווין
בלדות
בלה
בלהה
בלהקה
בלהקות
בלהקת
בלו
בלוב
בלוג
בלוגים
בלוד
בלוז
בלוח
בלוחות
בלוחמה
בלוטות
בלוטת
בלוך
בלול
בלום
בלומפילד
בלון
בלונדון
בלוס
בלועזית
בלוק
בלוקח
בלוקים
בלז
בלזן
בלזק
בלח
בלחוד
בלחי
בלחימה
בלחם
בלחץ
בלחש
בלט
בלטביה
בלטה
בלטו
בלטינית
בלי
בליבו
בליברפול
בליגה
בליגות
בליגת
בלידה
בליווי
בליטא
בלייזרס
בליין
בלייפציג
בלייק
בלייר
בליל
בלילה
בלילות
בלילי
בלימה
בלימוד
בלימודי
בלימודיו
בלימודים
בליס
בליסבון
בליסטיים
בליעה
בליעל
בלישנא
בלית
בלם
בלמי
בלמעלה
בלנק
בלע
בלעדי
בלעדיו
בלעדית
בלעז
בלעם
בלפור
בלק
בלש
בלשון
בלשונו
בלשכה
בלשכת
בלשנות
בלשנים
בלתי
בם
במ
במאבק
במאגר
במאה
במאורעות
במאות
במאזן
במאי
במאים
במאית
במאכל
במאמץ
במאמצים
במאמר
במאמרו
במאמרים
במאסר
במאתים
במבוא
במבוי
במבחן
במבחנים
במבט
במבנה
במבנים
במבצע
במבצעים
במבצר
במג
במגדל
במגו
במגוון
במגזין
במגזר
במגילה
במגילת
במגמה
במגמת
במגן
במגע
במגפה
במגרש
במד
במדבר
במדד
במדה
במדויק
במדור
במדות
במדי
במדיה
במדים
במדינה
במדינות
במדיניות
במדינת
במדליה
במדליות
במדליית
במדע
במדעי
במדעים
במדרגה
במדרגות
במדריד
במדריך
במדרש
במדת
במה
במהדורא
במהדורה
במהדורות
במהדורת
במהותו
במהירויות
במהירות
במהלך
במהלכה
במהלכו
במהלכם
במהלכן
במהפכה
במהרה
במו
במובן
במובנים
במודיעין
במודל
במוות
במוזיאון
במוזיאונים
במוזיקה
במוח
במוחו
במוט
במוכר
במול
במונדיאל
במונח
במונחי
במונחים
במונטריאול
במוסד
במוסדות
במוסף
במוסקבה
במועד
במועדו
במועדון
במועדונים
במועדים
במועמדות
במועצה
במועצת
במופע
במוצאי
במוצר
במוצרי
במוצרים
במוקד
במוקדמות
במורד
במושב
במושבה
במושבות
במושג
במושגים
במות
במותו
במותחן
במזבח
במזג
במזוזה
במזומן
במזון
במזונות
במזיד
במזל
במזמור
במזנון
במזרח
במחאה
במחובר
במחוז
במחוזות
במחזה
במחזור
במחזות
במחזמר
במחיקה
במחיר
במחירי
במחירים
במחלה
במחלוקת
במחלות
במחלקה
במחלקות
במחלקת
במחלת
במחנה
במחנות
במחסן
במחצית
במחקר
במחקריו
במחקרים
במחשב
במחשבה
במחשבים
במחשבת
במחשבתו
במחתרת
במטבח
במטבע
במטה
במטוס
במטוסי
במטוסים
במטלטלין
במטרה
במטרות
במי
במיאמי
במיגו
במידה
במידות
במידי
במידע
במידת
במיוחד
במיזם
במייל
במיל
במילאנו
במילה
במילואים
במילוי
במילון
במילי
במילים
במילתא
במים
במימון
במימי
במין
במינהל
במינו
במינוי
במיני
במינים
במינכן
במינסק
במיעוט
במיקום
במירוץ
במישור
במישרין
במיתה
במיתולוגיה
במיתקן
במיתת
במכבי
במכה
במכוון
במכון
במכונה
במכונות
במכונית
במכות
במכילתא
במכירה
במכירות
במכירת
במכללה
במכללות
במכללת
במכר
במכרות
במכרז
במכשיר
במכשירים
במכתב
במלאכה
במלאכת
במלאכתו
במלאת
במלבורן
במלה
במלוא
במלואה
במלואו
במלואם
במלוה
במלון
במלזיה
במלח
במלחמה
במלחמות
במלחמת
במלטה
במליאת
במלך
במלכות
במלת
בממון
בממונו
בממוצע
בממלכה
בממלכת
בממשל
בממשלה
בממשלות
בממשלת
בממשלתו
בממשק
במנגנון
במנה
במנהג
במנהטן
במנהל
במנוחה
במנוע
במנועי
במנזר
במנחה
במנחות
במנחת
במניות
במניין
במנין
במניעת
במנצ
במס
במסגד
במסגרות
במסגרת
במסגרתה
במסגרתו
במסדר
במסווה
במסורת
במסחר
במסיבה
במסיבת
במסירה
במסירת
במסך
במסכת
במסלול
במסמך
במסמכי
במסמכים
במסע
במסעדה
במסעו
במסעות
במספר
במספרים
במעבדה
במעבדות
במעבר
במעגל
במעון
במעורבות
במעות
במעט
במעי
במעין
במעל
במעלה
במעלות
במעמד
במעמדו
במעצר
במעקב
במערב
במערה
במערות
במערך
במערכה
במערכות
במערכת
במערת
במעשה
במעשי
במעשיהם
במעשיו
במעשים
במעשר
במפגש
במפה
במפורש
במפות
במפלגה
במפלגת
במפלס
במפעל
במפעלי
במפעלים
במפקד
במפקדת
במפרץ
במפת
במפתח
במפתיע
במצב
במצבו
במצבי
במצבים
במצה
במצודה
במצוה
במצוות
במצוקה
במצור
במצות
במצטבר
במציאות
במציאת
במצעד
במצעדי
במצעדים
במצפה
במצר
במצרים
במקביל
במקדש
במקוה
במקום
במקומה
במקומו
במקומות
במקומם
במקומן
במקור
במקורו
במקורות
במקח
במקל
במקלט
במקסיקו
במקצה
במקצוע
במקצועו
במקצועות
במקצת
במקרא
במקרה
במקרי
במקרים
במקרקעין
במראה
במרבית
במרד
במרדכי
במרדף
במרום
במרוץ
במרוצי
במרוצים
במרוצת
במרוקו
במרחב
במרחבים
במרחק
במרכז
במרכזה
במרכזו
במרכזי
במרמה
במרס
במרפאה
במרץ
במרשם
במרתון
במרתף
במשא
במשאבים
במשאל
במשבר
במשה
במשהו
במשולש
במשותף
במשחה
במשחים
במשחק
במשחקה
במשחקו
במשחקי
במשחקים
במשטר
במשטרה
במשטרת
במשיכה
במשימה
במשימות
במשימת
במשך
במשכון
במשכן
במשל
במשלחת
במשמע
במשמעות
במשמר
במשנה
במשנתינו
במשנתנו
במשפחה
במשפחות
במשפחת
במשפחתו
במשפט
במשפטו
במשפטי
במשפטים
במשק
במשקה
במשקין
במשקל
במשרד
במשרדו
במשרדי
במשרה
במשרות
במשתמש
במת
במתח
במתחם
במתכוון
במתכונת
במתמטיקה
במתן
במתנה
במתנות
במתני
במתניתין
במתנת
במתקן
במתקפה
במתקפת
בן
בנ
בנאום
בנאומו
בנאי
בנאמנות
בנאפולי
בנבואה
בנבחרות
בנבחרת
בנביא
בנביאים
בנג
בנגב
בנגד
בנגינה
בנגיף
בנגל
בנגלדש
בנגע
בנגעים
בנד
בנדה
בנדון
בנדיקט
בנדיקטוס
בנדלאק
בנדר
בנדרים
בנה
בנהר
בנהרות
בנו
בנובמבר
בנוגע
בנוהל
בנווה
בנוח
בנוי
בנויה
בנויות
בנויים
בנוכחות
בנוסח
בנוסף
בנוף
בנורווגיה
בנורמנדי
בנושא
בנושאי
בנושאים
בנות
בנותיה
בנותיו
בנותן
בנזין
בנזיר
בנזק
בנזקי
בנח
בנחל
בנחלה
בנחלת
בנחת
בנט
בנטילת
בנטל
בנטלי
בנטפליקס
בני
בניגוד
בניגריה
בנידון
בניה
בניהול
בניהולו
בניהם
בניו
בניטו
בנייה
בניין
בנייני
בניינים
בנייר
בניירות
בניית
בנייתה
בנייתו
בניך
בניכוי
בניכם
בנים
בנימוק
בנימין
בנימן
בנין
בניסוח
בניסוי
בניסויים
בניסיון
בניסיונו
בניסיונות
בניסן
בניצוח
בניצוחו
בניצחון
בניקוד
בנישואים
בניתוח
בנך
בנכס
בנכסי
בנכסים
בנם
בנמל
בנמצא
בננה
בננות
בנס
בנסון
בנסיבות
בנסיגה
בנסיון
בנסיכות
בנסיעה
בנספח
בנעוריו
בנעשה
בנפח
בנפיקה
בנפרד
בנפש
בנפשו
בנפת
בנץ
בנצח
בנצי
בנצרות
בנצרת
בנק
בנקאות
בנקאי
בנקאית
בנקב
בנקודה
בנקודות
בנקודת
בנקיטת
בנקים
בנקל
בנקס
בנר
בנשיא
בנשיאות
בנשים
בנשימה
בנשק
בנתה
בנתונים
בנתיב
בנתיים
בנתינת
בנתניה
בס
בסבב
בסביבה
בסביבות
בסביבת
בסביבתו
בסגל
בסגנון
בסגנונות
בסדר
בסדרה
בסדרות
בסדרי
בסדרת
בסה
בסוג
בסוגי
בסוגיא
בסוגיה
בסוגיות
בסוגיית
בסוגריים
בסוד
בסודאן
בסוטה
בסוכה
בסוכות
בסוכנות
בסולם
בסוף
בסופה
בסופו
בסופיה
בסופר
בסוריה
בסחר
בסט
בסטודיו
בסטוקהולם
בסטנדרטים
בסי
בסיאטל
בסיבוב
בסיביר
בסיד
בסידור
בסידני
בסיוון
בסיום
בסיומה
בסיומו
בסיון
בסיוע
בסיור
בסיטקום
בסייעתא
בסיכום
בסיכון
בסימון
בסימן
בסימני
בסימנים
בסין
בסינגפור
בסיני
בסינית
בסיס
בסיסו
בסיסי
בסיסיות
בסיסיים
בסיסים
בסיסית
בסיפא
בסיפור
בסיפורי
בסיפורים
בסיציליה
בסירה
בסירות
בסך
בסכום
בסכין
בסכנה
בסכנת
בסכסוך
בסל
בסלובקיה
בסלון
בסלוניקי
בסלע
בסלעים
בסמ
בסמוך
בסמיכות
בסמים
בסמינר
בסמכויות
בסמכות
בסמכותו
בסמל
בסן
בסנאט
בסנהדרין
בסנט
בסנטה
בסניף
בסנקט
בסעודה
בסעודת
בסעיף
בסעיפים
בסערה
בספ
בספוטיפיי
בספורט
בספטמבר
בספינה
בספינות
בספינת
בספירת
בספק
בספר
בספרא
בספרד
בספרדית
בספרה
בספרו
בספרות
בספרי
בספריה
בספריו
בספרייה
בספריית
בספרים
בספרינט
בסצנה
בסצנת
בסקוטלנד
בסקי
בסקילה
בסקר
בסקרים
בסרביה
בסרבית
בסרט
בסרטו
בסרטון
בסרטי
בסרטים
בסרטן
בסרייה
בסתיו
בסתירה
בסתם
בסתמא
בסתר
בע
בעא
בעבד
בעבדים
בעבודה
בעבודות
בעבודת
בעבודתה
בעבודתו
בעבודתם
בעבור
בעבורו
בעבירה
בעבירות
בעבירת
בעבר
בעברה
בעברו
בעברית
בעגלה
בעד
בעדה
בעדו
בעדות
בעדותו
בעדי
בעדים
בעדם
בעה
בעו
בעובד
בעובדא
בעובדה
בעובדות
בעובי
בעוד
בעודה
בעודו
בעודם
בעוה
בעוון
בעולה
בעולם
בעולמו
בעולמות
בעולת
בעומק
בעומר
בעון
בעונה
בעונות
בעוני
בעונש
בעונת
בעונתה
בעונתו
בעוף
בעופות
בעוצמה
בעור
בעורך
בעורף
בעושר
בעז
בעזה
בעזרה
בעזרת
בעזרתה
בעזרתו
בעזרתם
בעט
בעי
בעיא
בעיבוד
בעידוד
בעידן
בעיה
בעיון
בעיות
בעיטה
בעיטור
בעיטות
בעייה
בעיירה
בעיירות
בעיית
בעייתי
בעייתיות
בעייתיים
בעייתית
בעילה
בעילת
בעימות
בעין
בעינא
בעינו
בעיני
בעיניה
בעיניהם
בעיניו
בעיניי
בעיניים
בעיניך
בעינן
בעיסה
בעיסוק
בעיצוב
בעיצומה
בעיצומו
בעיקר
בעיקרה
בעיקרו
בעיקרון
בעיר
בעיראק
בעירה
בעירו
בעירוב
בעירובין
בעירום
בעיריית
בעית
בעיתון
בעיתונות
בעיתונים
בעכו
בעל
בעלה
בעלויות
בעלות
בעלי
בעליה
בעליהם
בעליהן
בעליו
בעלייה
בעליית
בעליל
בעלילה
בעלים
בעלמא
בעלת
בעם
בעמדה
בעמדות
בעמדת
בעמוד
בעמידה
בעמלק
בעמק
בעניין
בעניינו
בענייני
בעניינים
בענין
בעניני
בענינים
בענן
בענף
בענפי
בענפים
בעסק
בעסקה
בעסקי
בעסקים
בעסקת
בעפולה
בעפר
בעץ
בעצי
בעצים
בעצם
בעצמאות
בעצמאותה
בעצמה
בעצמו
בעצמות
בעצמי
בעצמך
בעצמם
בעצמן
בעצרת
בעצת
בעקבות
בעקבותיה
בעקבותיו
בעקביות
בעקיפין
בעקרון
בעקרונות
בער
בערב
בערבה
בערבות
בערבי
בערבית
בערוך
בערוץ
בערוצי
בערי
בעריות
בעריכה
בעריכת
בעריכתו
בערים
בערך
בערכאות
בערכו
בערכי
בערכים
בערכין
בערלה
בערעור
בערפל
בערר
בעשה
בעשור
בעשורים
בעשיית
בעשר
בעשרה
בעשרות
בעשרים
בעשרת
בעת
בעתו
בעתיד
בעתירה
בפ
בפארק
בפאתי
בפברואר
בפגיעה
בפגישה
בפה
בפודקאסט
בפוליטיקה
בפולין
בפולנית
בפומבי
בפוסקים
בפועל
בפופולריות
בפורום
בפורט
בפורטוגזית
בפורטוגל
בפורטל
בפורים
בפורמט
בפחות
בפי
בפיגוע
בפיהם
בפיו
בפיזיקה
בפייסבוק
בפיך
בפילדלפיה
בפילוסופיה
בפיליפינים
בפין
בפינה
בפינוי
בפינלנד
בפינת
בפיצוץ
בפיקוד
בפיקודו
בפיקוח
בפירוט
בפירוק
בפירוש
בפירושו
בפירות
בפירנצה
בפירקין
בפיתוח
בפכ
בפלוגתא
בפלורידה
בפלייאוף
בפלילים
בפלישה
בפני
בפניה
בפניהם
בפניו
בפנים
בפנימיות
בפנינו
בפנסילבניה
בפנקס
בפנקסי
בפס
בפסגת
בפסוק
בפסוקים
בפסח
בפסחים
בפסטיבל
בפסטיבלים
בפסיכולוגיה
בפסיקה
בפסנתר
בפסק
בפסקאות
בפסקה
בפסקול
בפסקי
בפסקיו
בפסקת
בפעולה
בפעולות
בפעולת
בפעילויות
בפעילות
בפעילותו
בפעם
בפער
בפקדון
בפקודה
בפקודת
בפקולטה
בפקיסטן
בפר
בפראג
בפרדס
בפרה
בפרהסיא
בפרו
בפרובינציית
בפרוטה
בפרוטוקול
בפרויקט
בפרויקטים
בפרוסיה
בפרוץ
בפרט
בפרטי
בפרטיות
בפרטים
בפרי
בפריז
בפריים
בפריימריז
בפריפריה
בפרישה
בפרלמנט
בפרמטר
בפרמייר
בפרנקפורט
בפרס
בפרסום
בפרסומות
בפרסומת
בפרסי
בפרסים
בפרסית
בפרק
בפרקי
בפרקים
בפרקין
בפרקליטות
בפרש
בפרשה
בפרשנות
בפרשת
בפשטות
בפשיטות
בפשיעה
בפשע
בפת
בפתאומיות
בפתח
בפתיח
בפתיחה
בפתיחת
בפתרון
בצ
בצאתו
בצבא
בצבאו
בצבאות
בצבור
בצבע
בצבעי
בצבעים
בצד
בצדה
בצדו
בצדק
בצדקה
בצה
בצהריים
בצו
בצוואר
בצוואתו
בצוות
בצוותא
בצומת
בצונן
בצור
בצורה
בצורות
בצורך
בצורת
בצורתה
בצורתו
בצורתם
בצי
בציבור
בציד
בצידה
בצידו
בצידי
בציוד
בציון
בציונות
בציור
בציורי
בציורים
בצילום
בצינור
בציצית
בציר
בצירוף
בציריך
בצל
בצלאל
בצלב
בצלם
בצמד
בצמוד
בצמחים
בצמצום
בצמרת
בצנעא
בצע
בצעד
בצעדים
בצעירותה
בצעירותו
בצער
בצפון
בצפיפות
בצפת
בצק
בצר
בצרה
בצרכי
בצרפת
בצרפתית
בק
בקב
בקבוצה
בקבוצות
בקבוצת
בקבוק
בקבוקי
בקבינט
בקביעות
בקביעת
בקבלה
בקבלת
בקבר
בקדושה
בקדושין
בקדושת
בקדירה
בקדם
בקדמיתא
בקדמת
בקדרה
בקדש
בקדשי
בקדשים
בקהילה
בקהילות
בקהילת
בקהיר
בקהל
בקו
בקואליציה
בקובה
בקובץ
בקוד
בקודש
בקווי
בקווים
בקוטר
בקול
בקולג
בקולו
בקולומביה
בקולות
בקולנוע
בקום
בקומדיה
בקומדיית
בקומה
בקומיקס
בקומת
בקונגרס
בקונטרס
בקונסטנטינופול
בקונסרבטוריון
בקונצרט
בקופה
בקופות
בקופנהגן
בקופת
בקוראן
בקוריאה
בקורס
בקורסים
בקורת
בקושי
בקט
בקטגוריה
בקטגוריות
בקטגוריית
בקטלוג
בקטן
בקטנה
בקטע
בקטעים
בקי
בקיא
בקיאות
בקיאים
בקיאין
בקיבוץ
בקיבוצים
בקידום
בקידוש
בקידושין
בקיום
בקיומו
בקייב
בקיימברידג
בקיסריה
בקיץ
בקיצור
בקיר
בקירוב
בקירות
בקישור
בקישורים
בקל
בקלות
בקליבלנד
בקליבר
בקליפ
בקליפה
בקליפורניה
בקלפי
בקמפוס
בקמפיין
בקן
בקנדה
בקנה
בקניה
בקניון
בקנין
בקנס
בקע
בקעה
בקערה
בקעת
בקפידה
בקפיצה
בקפריסין
בקצב
בקצה
בקצהו
בקצרה
בקצת
בקר
בקרא
בקרב
בקרבה
בקרבו
בקרבות
בקרבי
בקרבך
בקרבם
בקרבן
בקרבנו
בקרבנות
בקרבת
בקרה
בקרואטיה
בקרוב
בקרון
בקרח
בקרטיקון
בקריאה
בקריאת
בקריטריונים
בקריירה
בקריירת
בקריית
בקרית
בקרן
בקרקוב
בקרקע
בקרקעות
בקרקעית
בקרת
בקש
בקשה
בקשו
בקשות
בקשיים
בקשר
בקשרי
בקשרים
בקשת
בקשתה
בקשתו
בקתדרלה
בקתדרלת
בר
ברא
בראבו
בראג
בראד
בראדלי
בראוי
בראון
בראונינג
בראונשווייג
בראותו
בראי
בראיה
בראיון
בראיונות
בראיות
בראייה
בראיינט
בראיית
בראלי
בראש
בראשה
בראשו
בראשון
בראשונה
בראשות
בראשותו
בראשי
בראשית
בראשיתה
בראשם
ברב
ברבדוס
ברבור
ברבות
ברבי
ברבים
ברביעית
ברבית
ברבנות
ברבע
ברברה
ברברוסה
ברג
ברגימנט
ברגל
ברגלו
ברגליו
ברגלים
ברגמן
ברגן
ברגע
ברגר
ברגשות
ברד
ברדיו
ברה
ברהמס
ברוב
ברובה
ברובו
ברובם
ברובן
ברובע
ברודוויי
ברודי
ברווז
ברוז
ברוח
ברוחב
ברוחו
ברוטו
ברויאר
ברוך
ברוכים
ברום
ברומא
ברומן
ברומניה
ברומנית
ברון
ברונו
ברונזה
ברוניי
ברוס
ברוסיה
ברוסית
ברוק
ברוקה
ברוקולי
ברוקלין
ברוקס
ברור
ברורה
ברורות
ברורים
ברוש
ברז
ברזא
ברזולוציה
ברזיל
ברזילאי
ברזילאים
ברזילי
ברזל
ברח
ברחבה
ברחבי
ברחבת
ברחה
ברחו
ברחוב
ברחובות
ברחוק
ברחל
ברחם
ברחמים
ברט
ברטה
ברטון
ברי
בריא
בריאה
בריאות
בריאותו
בריאותי
בריאותיות
בריאיון
בריאים
בריאן
בריאת
בריבוי
בריבוע
בריבית
בריגדיר
בריגדת
ברידג
בריה
בריו
בריח
בריחה
בריחת
בריטי
בריטיות
בריטיים
בריטים
בריטית
בריטני
בריטניה
בריטניקה
בריידי
ברייטמן
ברייתא
בריך
בריכה
בריכוז
בריכות
בריכת
בריל
בריסטול
בריסל
בריצה
בריצת
בריק
ברירה
ברירת
בריש
ברישא
ברישום
ברישיון
ברית
בריתה
בריתו
בריתות
בריתי
בריתם
ברך
ברכאן
ברכב
ברכבות
ברכבת
ברכה
ברכו
ברכוש
ברכות
ברכט
ברכי
ברכיה
ברכישת
ברכס
ברכת
ברכתו
ברל
ברלין
ברם
ברמב
ברמה
ברמות
ברמז
ברמינגהאם
ברמלה
ברמן
ברמת
ברן
ברנאר
ברנד
ברנדון
ברנדט
ברנדייס
ברנדנבורג
ברנהרד
ברנט
ברני
ברנל
ברנס
ברנע
ברנר
ברנרד
ברנשטיין
ברסט
ברסלב
ברסלמניה
ברע
ברעב
ברעידת
ברעיון
ברעיונות
ברעם
ברעננה
ברפ
ברפואה
ברפואת
ברפובליקה
ברצון
ברצונו
ברצוני
ברצועה
ברצועת
ברצח
ברצינות
ברציפות
ברצלונה
ברצף
ברק
ברקאי
ברקוביץ
ברקים
ברקיע
ברקלי
ברקמות
ברקע
ברקת
ברש
ברשויות
ברשומות
ברשות
ברשותה
ברשותו
ברשותיה
ברשותם
ברשיון
ברשימה
ברשימות
ברשימת
ברשת
ברשתות
בש
בשאול
בשאין
בשאינו
בשאלה
בשאלות
בשאלת
בשאנגחאי
בשאר
בשב
בשבוע
בשבועה
בשבועון
בשבועות
בשבועת
בשבח
בשבט
בשבי
בשביל
בשבילה
בשבילו
בשבילי
בשבילך
בשבילם
בשביעי
בשביעית
בשבע
בשבעה
בשבת
בשבתו
בשבתות
בשגגה
בשגרירות
בשדה
בשדות
בשדרות
בשדרת
בשו
בשואה
בשובו
בשוגג
בשוה
בשוודיה
בשוודית
בשווה
בשווי
בשוויון
בשווייץ
בשווקים
בשולחן
בשולי
בשום
בשומר
בשומרון
בשונה
בשופר
בשוק
בשור
בשורה
בשורות
בשורותיה
בשורש
בשורת
בשושלת
בשותפות
בשחור
בשחיטה
בשחיטת
בשחייה
בשחיתות
בשחמט
בשחרור
בשחרית
בשטוטגרט
בשטח
בשטחה
בשטחו
בשטחי
בשטחים
בשטר
בשטרות
בשטרי
בשיא
בשיאה
בשיאו
בשידור
בשידורי
בשידורים
בשיווק
בשיח
בשיחה
בשיחות
בשיחת
בשיטה
בשיטות
בשיטת
בשילהי
בשילוב
בשים
בשימור
בשימוש
בשינה
בשינוי
בשינויים
בשיעור
בשיעורי
בשיעורים
בשיפור
בשיקגו
בשיקול
בשיקום
בשיר
בשירה
בשירו
בשירות
בשירותו
בשירותי
בשירותים
בשירי
בשירים
בשירת
בשיש
בשישה
בשיתוף
בשכבה
בשכבות
בשכבת
בשכונה
בשכונות
בשכונת
בשכירות
בשכל
בשכלו
בשכם
בשכר
בשל
בשלא
בשלב
בשלבי
בשלבים
בשלג
בשלה
בשלהי
בשלו
בשלום
בשלוש
בשלושה
בשלושת
בשלח
בשלט
בשלטון
בשליחות
בשליטה
בשליטת
בשליטתו
בשלילה
בשלימות
בשליש
בשלישי
בשלישית
בשלל
בשלמא
בשלמות
בשלמותה
בשלמותו
בשלש
בשלשה
בשם
בשמא
בשמאל
בשמה
בשמו
בשמונה
בשמורה
בשמורת
בשמות
בשמחה
בשמחת
בשמי
בשמיים
בשמים
בשמיני
בשמינית
בשמירה
בשמירת
בשמם
בשמן
בשמעתין
בשמש
בשן
בשנה
בשנות
בשנותיה
בשנותיו
בשני
בשניה
בשניהם
בשנייה
בשניים
בשנים
בשנית
בשנת
בשנתו
בשנתיים
בשעה
בשעות
בשעיר
בשער
בשערי
בשעריך
בשעת
בשעתא
בשעתו
בשפה
בשפות
בשפע
בשפת
בשפתיו
בשקט
בשקלים
בשר
בשרה
בשרו
בשרי
בשריון
בשריפה
בשרפה
בשרץ
בשרשרת
בשש
בששים
בששת
בשתי
בשתיה
בשתיהן
בשתייה
בשתים
בשתיקה
בשתן
בת
בתא
בתאגיד
בתאונה
בתאונת
בתאוריה
בתאי
בתאילנד
בתאים
בתאריך
בתאריכים
בתארים
בתביעה
בתביעות
בתבניות
בתבנית
בתבשיל
בתגובה
בתדירות
בתדר
בתה
בתהליך
בתהליכי
בתהליכים
בתו
בתואר
בתובענה
בתודה
בתודעה
בתוואי
בתווך
בתוי
בתוך
בתוכה
בתוכו
בתוכם
בתוכן
בתוכנה
בתוכנו
בתוכניות
בתוכנית
בתוכניתו
בתולדות
בתולדותיה
בתולה
בתולות
בתולים
בתום
בתוניסיה
בתוס
בתוספות
בתוספת
בתוספתא
בתופעה
בתוצאה
בתוצאות
בתוקף
בתור
בתורה
בתורו
בתורת
בתורתו
בתזמורת
בתחבורה
בתחום
בתחומה
בתחומו
בתחומי
בתחומים
בתחילה
בתחילת
בתחילתה
בתחילתו
בתחלה
בתחלת
בתחנה
בתחנות
בתחנת
בתחרויות
בתחרות
בתחתונים
בתחתית
בתי
בתיאום
בתיאור
בתיאטראות
בתיאטרון
בתיבה
בתיבת
בתיה
בתיהם
בתיווך
בתיכון
בתים
בתימן
בתיעוד
בתיק
בתיקו
בתיקון
בתיקונים
בתירא
בתך
בתכונות
בתכלית
בתכנון
בתכנית
בתל
בתלוש
בתלייה
בתלמוד
בתלת
בתם
בתמוז
בתמונה
בתמונות
בתמורה
בתמיה
בתמיכה
בתמיכת
בתנ
בתנאי
בתנאים
בתנועה
בתנועות
בתנועת
בתנור
בתנך
בתסמונת
בתעודה
בתעודות
בתעודת
בתעלה
בתעלת
בתענית
בתער
בתערובת
בתערוכה
בתערוכות
בתערוכת
בתעשייה
בתעשיית
בתעתיק
בתפוצות
בתפילה
בתפילין
בתפילת
בתפיסה
בתפיסת
בתפלה
בתפלת
בתפלתו
בתפקוד
בתפקיד
בתפקידה
בתפקידו
בתפקידי
בתפקידים
בתפריט
בתצהיר
בתצוגה
בתצוגת
בתצורה
בתצורת
בתקווה
בתקופה
בתקופות
בתקופת
בתקופתו
בתקיפה
בתקיפות
בתקן
בתקנה
בתקנון
בתקנות
בתקנת
בתקציב
בתקציר
בתקרית
בתקשורת
בתר
בתרא
בתראי
בתרבויות
בתרבות
בתרגום
בתרגומו
בתרגיל
בתרומה
בתרומות
בתרומת
בתרופות
בתרי
בתריה
בתרייתא
בתרשים
בתרתי
בתשו
בתשובה
בתשובות
בתשובת
בתשובתו
בתשלום
בתשלומים
בתשמיש
בתשע
בתשעה
בתשרי
בתשתיות
בתת
ג
גא
גאבור
גאגא
גאדג
גאה
גאוגרפי
גאוגרפיה
גאוגרפיים
גאוגרפית
גאוה
גאווה
גאולה
גאולוגיה
גאולת
גאומטריה
גאומטריות
גאון
גאוני
גאונים
גאוס
גאורג
גאורגה
גאורגי
גאורגיה
גאורגיוס
גאורגים
גאות
גאי
גאיה
גאיוס
גאים
גאל
גאלה
גאלוס
גאליה
גאן
גאנה
גארדן
גארט
גארי
גארסיה
גארפילד
גב
גבאי
גבה
גבהים
גבו
גבוה
גבוהה
גבוהות
גבוהים
גבול
גבולה
גבולות
גבולותיה
גבולי
גבור
גבורה
גבורות
גבורים
גבורת
גבורתו
גבי
גביא
גביה
גביהן
גביו
גבייה
גביית
גבינה
גבינות
גביע
גביעי
גביעים
גביר
גבירול
גביש
גבישי
גבישים
גבלס
גבס
גבע
גבעה
גבעון
גבעות
גבעת
גבעתי
גבעתיים
גבר
גברא
גברה
גברו
גברי
גבריאל
גבריאלה
גבריות
גברים
גברית
גברת
גג
גגו
גגות
גד
גדוד
גדודי
גדודים
גדול
גדולה
גדולות
גדולי
גדולים
גדולת
גדולתו
גדות
גדי
גדיל
גדילה
גדל
גדלה
גדלו
גדלות
גדליה
גדלים
גדס
גדעון
גדר
גדרה
גדרות
גדת
גה
גו
גואטמלה
גואל
גוב
גובה
גובהה
גובהו
גובין
גובל
גובלת
גובר
גוברין
גוברת
גוג
גוגל
גוגנהיים
גוד
גודל
גודלה
גודלו
גודלם
גודמן
גוון
גוונא
גווני
גוונים
גוונין
גוזל
גוזר
גוטליב
גוטמן
גוטנברג
גוטפריד
גוי
גויה
גויים
גוים
גויס
גויסו
גוך
גול
גולגולת
גולד
גולדברג
גולדה
גולדמן
גולדן
גולדשטיין
גולה
גוליית
גולים
גולם
גולמי
גולן
גולני
גולף
גולש
גולשים
גומא
גומות
גומז
גומי
גומלין
גומר
גון
גונב
גונג
גונזלס
גוני
גונן
גוסטב
גוסס
גוף
גופא
גופה
גופו
גופות
גופותיהם
גופי
גופיה
גופייהו
גופים
גופיקו
גופם
גופן
גופני
גופניות
גופניים
גופנית
גופרית
גופת
גופתה
גופתו
גוקו
גור
גורביץ
גורבצ
גורד
גורדון
גורדי
גורי
גוריון
גורל
גורלה
גורלו
גורלם
גורם
גורמות
גורמי
גורמים
גורמת
גורן
גורס
גורסים
גורסת
גורף
גורפת
גורר
גוררת
גורש
גורשו
גוש
גושי
גושן
גות
גותה
גותי
גותית
גז
גזבר
גזה
גזור
גזי
גזילה
גזים
גזירה
גזירות
גזירת
גזית
גזל
גזלה
גזלן
גזע
גזעי
גזעים
גזעית
גזענות
גזר
גזרה
גזרו
גזרות
גזרי
גזרינן
גזרת
גחלים
גחלת
גט
גטאות
גטה
גטו
גטינגן
גי
גיא
גיאנה
גיבוב
גיבוי
גיבור
גיבורי
גיבורים
גיבורת
גיבוש
גיבס
גיבסון
גיברלטר
גיברס
גיד
גידול
גידולו
גידולי
גידולים
גידי
גידל
גידלו
גיהנום
גיהנם
גיוון
גיום
גיוס
גיוסו
גיור
גיורא
גיורת
גיחות
גיטא
גיטה
גיטין
גיטך
גיטרה
גיטרות
גיטריסט
גיטרת
גיי
גייטס
גייל
גייס
גייסה
גייסו
גייסות
גיל
גילברט
גילגמש
גילדת
גילה
גילו
גילוח
גילוי
גילויו
גילויים
גילום
גילי
גיליון
גיליונות
גיליתי
גילם
גילמה
גילמור
גילתה
גימטריא
גימנסיה
גינאה
גינה
גינו
גינוי
גינזבורג
גינס
גינת
גיס
גיסא
גיסו
גיר
גירוי
גירוש
גירושים
גירושין
גירי
גירסא
גירסת
גירש
גירשה
גישה
גישור
גישות
גישת
גישתו
גל
גלאזגו
גלאי
גלבוע
גלגול
גלגל
גלגלי
גלגלים
גלגלצ
גלה
גלו
גלובוס
גלובלי
גלובלית
גלובס
גלוי
גלויה
גלויות
גלויים
גלוקוז
גלוריה
גלות
גלותא
גלי
גלידה
גליה
גליון
גליונות
גליות
גליל
גלילאו
גלילי
גלים
גליציה
גלישה
גלישת
גלית
גלם
גלן
גלעד
גלעדי
גלקסי
גלקסיות
גלר
גלריה
גלריות
גלריית
גם
גמ
גמא
גמול
גמור
גמורה
גמורות
גמורים
גמילה
גמילות
גמיר
גמירי
גמיש
גמישות
גמל
גמלא
גמלה
גמליאל
גמלים
גמר
גמרא
גמרו
גמרי
גמרינן
גן
גנאי
גנב
גנבה
גנבים
גנבת
גנדי
גנדלף
גנו
גנוב
גנות
גנטי
גנטיות
גנטיים
גנטיקה
גנטית
גני
גניבה
גנים
גנץ
גנרל
גנרלים
גס
גסה
גסות
גסטון
געש
געשי
געשיות
געשיים
געשית
גפ
גפיים
גפן
גפני
גפנים
גר
גרא
גראמי
גראן
גראנד
גראנדה
גראף
גרג
גרגור
גרגורי
גרגוריוס
גרדנר
גרה
גרהאם
גרהם
גרו
גרוב
גרובר
גרון
גרוס
גרוסמן
גרוע
גרועה
גרועים
גרופ
גרוש
גרושה
גרושתו
גרזן
גרטרוד
גרי
גרידא
גריזים
גריזליס
גריי
גרייס
גרילה
גרים
גרימת
גרין
גרינברג
גרינג
גרינלנד
גריס
גריפין
גריפית
גריר
גרם
גרמא
גרמה
גרמו
גרמי
גרמני
גרמניה
גרמניות
גרמניים
גרמנים
גרמנית
גרנד
גרנדה
גרנות
גרנט
גרניט
גרס
גרסאות
גרסה
גרסי
גרסיה
גרסינן
גרסת
גרסתו
גרע
גרעין
גרעיני
גרעיניים
גרעינים
גרעינית
גרף
גרפי
גרפיים
גרפיקה
גרפית
גרר
גררה
גררו
גרש
גרשווין
גרשום
גרשון
גרשוני
גרשם
גשם
גשמי
גשמים
גשר
גשרים
גת
גתה
ד
דא
דאב
דאבא
דאבוה
דאבי
דאביי
דאבל
דאברהם
דאג
דאגה
דאגו
דאגלס
דאדם
דאדרבה
דאהלות
דאו
דאון
דאונים
דאוקימנא
דאורייתא
דאותו
דאז
דאזיל
דאזלינן
דאחד
דאחר
דאטו
דאי
דאיהו
דאיהי
דאיירי
דאיכא
דאילו
דאימא
דאין
דאינה
דאינהו
דאינו
דאינון
דאינן
דאיסור
דאיסורא
דאיצטריך
דאית
דאיתא
דאיתיה
דאיתמר
דאכתי
דאל
דאלאס
דאלו
דאלמא
דאם
דאמא
דאמאי
דאמר
דאמרה
דאמרו
דאמרי
דאמרינן
דאמרן
דאמרת
דאן
דאנן
דאנס
דאנקן
דאסור
דאסר
דאע
דאעש
דאף
דאפ
דאפי
דאפילו
דאפשר
דאצטריך
דאצילות
דאקני
דאקרי
דאר
דאריך
דארעא
דארת
דאשה
דאשכחן
דאת
דאתא
דאתו
דאתי
דאתיא
דאתמר
דב
דבא
דבאמת
דבבא
דבגמרא
דבה
דבהא
דבהמה
דבוק
דבוקה
דבור
דבורה
דבורים
דבזה
דבי
דבין
דבינה
דביצה
דביקות
דביר
דבית
דבכה
דבכורות
דבכל
דבלא
דבלאו
דבלין
דבמקום
דבן
דבני
דבסמוך
דבע
דבעי
דבעיא
דבעינן
דבעל
דבעלמא
דבפ
דבפרק
דבק
דבקות
דבר
דברה
דברו
דברי
דבריאה
דבריה
דבריהם
דבריו
דבריי
דברייתא
דבריך
דברים
דברינו
דברישא
דברכות
דברת
דברתי
דבש
דבשאר
דבשלמא
דבשעת
דבת
דבתר
דג
דגבי
דגדלות
דגופא
דגי
דגיטין
דגים
דגימה
דגימות
דגימת
דגל
דגלה
דגלו
דגלי
דגלים
דגם
דגמי
דגמים
דגמר
דגמרא
דגן
דגניה
דגנים
דגנך
דגרמי
דגרסי
דגרסינן
דגש
דד
דדבר
דדברי
דדוקא
דדי
דדייק
דדילמא
דדין
דדינא
דדלמא
דדם
דדמי
דדעת
דדפול
דדריש
דדרך
דדרשינן
דה
דהא
דהאי
דהדר
דההוא
דההיא
דהו
דהוא
דהואיל
דהוה
דהוו
דהוי
דהויא
דהי
דהיא
דהיה
דהיינו
דהיכא
דהיכי
דהינו
דהך
דהכא
דהכי
דהכל
דהלכה
דהלכות
דהלכתא
דהם
דהן
דהנה
דהני
דהנך
דהר
דהרא
דהרי
דהרמב
דהשתא
דהתם
דו
דוא
דואג
דואט
דואר
דוב
דובאי
דובב
דובי
דובים
דובר
דוברות
דוברי
דוברים
דוברת
דוג
דוגמא
דוגמאות
דוגמה
דוגמניות
דוגמנים
דוגמנית
דוגמת
דוד
דודאי
דודג
דודה
דודו
דודי
דודים
דודתה
דודתו
דוודאי
דווח
דווחו
דווי
דווייט
דווקא
דוח
דוחה
דוחות
דוחים
דוחין
דוחק
דויד
דויטש
דויל
דוכן
דוכס
דוכסות
דוכסית
דוכתא
דוכתי
דולב
דולגו
דולי
דולפין
דולק
דולר
דולרים
דום
דומה
דומות
דומיא
דומים
דומין
דומינגו
דומיניק
דומיננטי
דומיננטית
דומם
דון
דונג
דונה
דונובן
דונלד
דונם
דונמים
דונצק
דוסא
דוסון
דופי
דופן
דופק
דוק
דוקא
דוקו
דוקומנטרי
דוקטור
דוקטורט
דוקטרינת
דוקינס
דור
דוראן
דורג
דורגה
דורגו
דורה
דורו
דורון
דורות
דורותי
דורטמונד
דורי
דוריאן
דוריס
דורית
דורס
דורסי
דורסים
דורש
דורשות
דורשים
דורשין
דורשת
דותן
דז
דזבחים
דזבין
דזה
דזהו
דזו
דזעיר
דזרט
דחד
דחה
דחו
דחוי
דחול
דחולין
דחוס
דחוף
דחופה
דחוק
דחזו
דחזי
דחזקה
דחי
דחיי
דחייב
דחייה
דחייש
דחיישינן
דחיית
דחיסה
דחיפה
דחמרא
דחף
דחפור
דחק
דחקו
דחשיב
דחתה
דטעם
דטעמא
דטרויט
די
דיאז
דיאלוג
דיאן
דיאנה
דיאס
דיבב
דיבבה
דיבה
דיבוב
דיבור
דיבורים
דיבמות
דיבר
דיברה
דיברו
דיברתי
דיג
דיגיטלי
דיגיטליות
דיגיטליים
דיגיטלית
דיד
דידה
דידהו
דידוע
דידי
דידיה
דידן
דידע
דיה
דיהיב
דיו
דיואי
דיווח
דיווחה
דיווחו
דיווחי
דיווחים
דיוויזיה
דיוויזיות
דיוויזיית
דיום
דיומא
דיון
דיוני
דיונים
דיוק
דיוקלטיאנוס
דיוקן
דיוקנאות
דיוקנו
דיור
דיורין
דיזל
דיזנגוף
דיחוי
דיחיד
דיטריך
דיי
דייב
דייגו
דייגים
דייוויד
דייוויס
דייל
דיילי
דיים
דיימון
דיין
דייני
דיינים
דיינינן
דייק
דייקא
דייקינן
דייר
דיירי
דיכאון
דיכוי
דיכול
דיל
דילה
דיליה
דיליף
דילמא
דילן
דילפינן
דים
דימוי
דימויים
דימום
דימונה
דימות
דימי
דין
דינא
דינה
דינו
דינוזאור
דינוזאורים
דינור
דיני
דיניה
דינים
דינין
דינם
דינמו
דינמי
דינמית
דינן
דינר
דינרי
דינרים
דינרין
דיסלדורף
דיסני
דיסק
דיסקברי
דיסקו
דיסקוגרפיה
דיסקונט
דיסקוס
דיסקים
דיסקין
דיעבד
דיעקב
דיפלומט
דיפלומטי
דיפלומטיות
דיפלומטיים
דיפלומטים
דיפלומטית
דיפרנציאלית
דיצירה
דיק
דיקא
דיקנא
דיקנס
דיקסון
דיר
דירג
דירה
דירוג
דירות
דירקטור
דירקטוריון
דירקטורים
דירת
דירתו
דיש
דישראל
דיתמי
דכ
דכא
דכאו
דכאן
דכבר
דכה
דכהן
דכולה
דכולהו
דכולי
דכורא
דכי
דכיון
דכך
דכל
דכלא
דכלהו
דכלי
דכלים
דכמו
דכן
דכר
דכשר
דכתב
דכתבו
דכתובות
דכתי
דכתיב
דל
דלא
דלאו
דלאוור
דלאחר
דלאנו
דלגבי
דלדידיה
דלדעת
דלה
דלהון
דלהי
דלהכי
דלוקח
דלות
דלי
דליה
דליהוי
דליכא
דלילה
דלים
דלישנא
דלית
דליתא
דליתיה
דלכ
דלכאורה
דלכתחלה
דלמ
דלמא
דלמאי
דלמה
דלעולם
דלעיל
דלעילא
דלענין
דלעת
דלפ
דלפי
דלפק
דלק
דלקמן
דלקת
דלר
דלרב
דלרבי
דלרבנן
דלשון
דלת
דלתא
דלתות
דלתתא
דם
דמ
דמא
דמאחר
דמאי
דמאן
דמבלדור
דמגילה
דמדאורייתא
דמדינא
דמה
דמהני
דמו
דמוגרפיה
דמודה
דמוי
דמויות
דמויותיהם
דמויי
דמוית
דמוכח
דמוכר
דמוקי
דמוקמינן
דמוקרטי
דמוקרטיה
דמוקרטיות
דמוקרטיים
דמוקרטים
דמוקרטית
דמות
דמותה
דמותו
דמותר
דמחייב
דמטריוס
דמי
דמיא
דמיאן
דמיה
דמיהן
דמיו
דמיון
דמיוני
דמיטרי
דמיין
דמיירי
דמייתי
דמילה
דמילתא
דמים
דמית
דמכות
דמכל
דמלוה
דמלכא
דמלכותא
דמלתא
דמם
דממה
דממונא
דממילא
דמן
דמנחות
דמסיק
דמסכת
דמספקא
דמסקינן
דמסתבר
דמסתמא
דמעות
דמעיקרא
דמעשה
דמעשר
דמפרש
דמצוה
דמצות
דמצי
דמציעא
דמקשה
דמר
דמשה
דמשום
דמשלם
דמשמע
דמשני
דמשק
דמת
דמתני
דמתניתין
דן
דנ
דנא
דנאמן
דנדה
דנדרים
דנה
דנהי
דנו
דנוור
דנון
דנוקבא
דנזיר
דנטה
דני
דניאל
דניאלה
דניאלס
דניחא
דנים
דנימא
דנין
דניס
דנית
דנמרק
דנן
דנפיק
דנפל
דנפק
דנפקא
דנפשיה
דנציגר
דנקט
דנקיט
דנקנר
דנראה
דס
דסבירא
דסבר
דסברי
דסגי
דסובר
דסוטה
דסוכה
דסוף
דסיפא
דסליק
דסלקא
דסנהדרין
דספק
דסתם
דסתמא
דע
דעבד
דעביד
דעבר
דעד
דעדיין
דעה
דעולא
דעות
דעותיו
דעיקר
דעירובין
דעכ
דעכו
דעל
דעלמא
דער
דעשיה
דעת
דעתא
דעתה
דעתו
דעתי
דעתיה
דעתך
דעתכם
דעתם
דעתן
דף
דפ
דפדפן
דפוס
דפוסי
דפוסים
דפורטיבו
דפטור
דפי
דפים
דפירש
דפליג
דפליגי
דפנה
דפנות
דפני
דפסול
דפסח
דפסחים
דפסק
דפרה
דפריך
דפריש
דפרישית
דפרק
דפשיטא
דצ
דצמ
דצמבר
דצריך
דק
דקא
דקאי
דקאמר
דקאמרי
דקב
דקדוק
דקדוקי
דקדושה
דקדושין
דקדק
דקדשה
דקה
דקו
דקודם
דקודשא
דקוטה
דקויות
דקות
דקטן
דקטנות
דקי
דקידושין
דקיי
דקיימא
דקים
דקירה
דקל
דקלים
דקמ
דקנה
דקני
דקס
דקסבר
דקסטר
דקר
דקרא
דקרי
דקשה
דקשיא
דקתני
דר
דראג
דראפט
דרב
דרבא
דרבה
דרבי
דרבים
דרבינא
דרבינו
דרבן
דרבנן
דרג
דרגא
דרגה
דרגון
דרגות
דרגין
דרגת
דרדק
דרה
דרו
דרוב
דרובא
דרווין
דרוזים
דרום
דרומה
דרומי
דרומית
דרוסה
דרוקמן
דרור
דרורי
דרוש
דרושה
דרושים
דרזדן
דרחמנא
דרי
דריה
דרייפוס
דרייק
דרים
דריסה
דריסת
דריש
דרישא
דרישה
דרישות
דרישת
דרישתו
דרך
דרכה
דרכו
דרכון
דרכי
דרכיה
דרכיו
דרכיך
דרכים
דרכם
דרכן
דרמה
דרמטי
דרמטית
דרמי
דרמת
דרעי
דרק
דרקולה
דרקון
דרש
דרשא
דרשב
דרשה
דרשו
דרשות
דרשי
דרשינן
דש
דשא
דשאני
דשאר
דשבועות
דשביעית
דשבת
דשטר
דשייך
דשכיח
דשל
דשלא
דשם
דשמא
דשמואל
דשמיא
דשמעתין
דשן
דשני
דשניהם
דשנים
דשפיר
דשקיל
דשרי
דשתי
דת
דתו
דתות
דתי
דתיות
דתיים
דתימא
דתית
דתלמודא
דתם
דתנא
דתנאי
דתני
דתניא
דתנינן
דתנן
דתרווייהו
דתרוייהו
דתרומה
דתרומות
דתרי
ה
הא
האב
האבד
האבדות
האבוד
האבודה
האבולוציה
האבות
האבחון
האבחנה
האבטחה
האבטלה
האביב
האביר
האבירים
האבל
האבן
האבנים
האבק
האבקה
האבר
האברים
האג
האגאי
האגדה
האגדות
האגדי
האגודה
האגודות
האגם
האגמים
האגן
האגף
האגפים
האגרה
האגרות
האדום
האדומה
האדומים
האדון
האדיר
האדם
האדמה
האדמו
האדמות
האדמירל
האדס
האדריאטי
האדריכל
האדריכלות
האדריכלים
האהבה
האהוב
האהובה
האהובים
האהל
האו
האובייקט
האוגדה
האודיו
האוהדים
האוהל
האוויר
האווירה
האווירי
האווירית
האוונג
האוזן
האוזניים
האוטובוס
האוטובוסים
האוטוביוגרפי
האוטוביוגרפיה
האוטונומי
האוטונומיה
האוטונומית
האויב
האויבים
האויר
האוכל
האוכלוסיות
האוכלוסייה
האוכלוסין
האוכלין
האולימפי
האולימפיאדה
האולימפיים
האולימפית
האולם
האולסטאר
האולפן
האולפנים
האומה
האומות
האומן
האומנות
האומנים
האומנין
האומר
האומרים
האומרת
האוניברסיטאות
האוניברסיטאי
האוניברסיטה
האוניברסלי
האוניברסלית
האוניה
האוניות
האונייה
האונס
האוס
האוסטרו
האוסטרי
האוסטרים
האוסטרית
האוסטרלי
האוסטרלים
האוסטרלית
האוסף
האוספים
האוסקר
האוסר
האוסרים
האופוזיציה
האופי
האופייני
האופייניים
האופיינית
האופל
האופן
האופנה
האופניים
האופציה
האופק
האופקי
האופרה
האוצר
האוצרות
האוקיינוס
האוקיינוסים
האוקראיני
האוקראינים
האוקראינית
האור
האורה
האורות
האורז
האורח
האורחים
האורך
האורתודוקסי
האורתודוקסים
האורתודוקסית
האושר
האות
האותות
האותיות
האזהרה
האזור
האזורי
האזוריות
האזוריים
האזורים
האזורית
האזינו
האזכור
האזנה
האזרח
האזרחות
האזרחי
האזרחיים
האזרחים
האזרחית
האח
האחד
האחדות
האחווה
האחוז
האחוזה
האחורי
האחוריות
האחוריים
האחורית
האחות
האחזקה
האחיד
האחיות
האחיזה
האחים
האחין
האחסון
האחר
האחראי
האחראים
האחראית
האחרון
האחרונה
האחרונות
האחרונים
האחרות
האחריות
האחרים
האחרת
האחת
האטה
האטום
האטומים
האטלנטי
האטלס
האטמוספירה
האי
האיבה
האיבר
האיברי
האיברים
האיגוד
האיגודים
האיגרת
האידאולוגיה
האידיאלי
האידיאלים
האידנא
האיום
האיומים
האיור
האיזון
האיחוד
האיטי
האיטלקי
האיטלקיות
האיטלקים
האיטלקית
האיי
האיידס
האיים
האייפון
האיך
האיכות
האיכרים
האיל
האילן
האילנות
האימאם
האימה
האימון
האימונים
האימוץ
האימפריאלי
האימפריה
האין
האינדיאנים
האינטגרל
האינטליגנציה
האינטראקציה
האינטרנט
האינטרס
האינטרסים
האינסוף
האינפלציה
האינקה
האינקוויזיציה
האינתיפאדה
האיסוף
האיסור
האיסורים
האיפה
האיר
האיראני
האיראנית
האירו
האירוויזיון
האירוח
האירוסין
האירוע
האירועים
האירופאי
האירופאיות
האירופאים
האירופאית
האירופי
האירופיות
האירופיים
האירופית
האירי
האירים
האירית
האיש
האישה
האישום
האישור
האישורים
האישי
האישיות
האישיים
האישים
האישית
האיתור
האכילה
האכיפה
האל
האלבום
האלבומים
האלג
האלגוריתם
האלה
האלהי
האלהים
האלהית
האלו
האלוה
האלוהות
האלוהי
האלוהים
האלוהית
האלוף
האלופה
האלופות
האלופים
האלחוטי
האליטה
האלילים
האלים
האלימות
האליפות
האלכוהול
האלמוגים
האלמוני
האלמנה
האלמנטים
האלף
האלפבית
האלפיים
האלפים
האלקטורים
האלקטרון
האלקטרוני
האלקטרונים
האלקטרונית
האלקים
האם
האמה
האמהות
האמון
האמונה
האמונות
האמור
האמוראים
האמורה
האמורות
האמורי
האמורים
האמזונאס
האמין
האמינה
האמינו
האמיץ
האמיר
האמירה
האמירויות
האמיתי
האמיתיים
האמיתית
האמן
האמנה
האמנויות
האמנות
האמנותי
האמנותית
האמנים
האמנית
האמנם
האמפרי
האמצע
האמצעי
האמצעים
האמצעית
האמר
האמריקאי
האמריקאיות
האמריקאיים
האמריקאים
האמריקאית
האמריקני
האמריקניות
האמריקנים
האמריקנית
האמת
האמתי
האן
האנגלו
האנגלי
האנגלים
האנגליקנית
האנגלית
האנדים
האנדרטה
האנה
האנוש
האנושות
האנושי
האנושיות
האנושיים
האנושית
האנזים
האנט
האנטארקטי
האנטארקטית
האנטומיה
האנטי
האנטישמיות
האנטר
האנטרפרייז
האני
האניה
האנייה
האנימה
האנימציה
האנכי
האנס
האנציקלופדיה
האנציקלופדית
האנק
האנרגיה
האנשים
האס
האסון
האסור
האסורה
האסורים
האסורין
האסטרואיד
האסטרונאוטים
האסטרונום
האסטרטגי
האסטרטגיה
האסטרטגית
האסיפה
האסיר
האסירים
האסכולה
האסלאם
האסלאמי
האסלאמית
האסם
האספה
האספקה
האף
האפוטרופוס
האפור
האפיפיור
האפל
האפלה
האפליה
האפלים
האפליקציה
האפס
האפקט
האפקטים
האפר
האפרו
האפרטהייד
האפריקאי
האפריקאים
האפריקאית
האפשר
האפשרויות
האפשרות
האפשרי
האפשריות
האפשריים
האפשרית
האצ
האצבע
האצבעות
האצולה
האצטדיון
האציל
האצילות
האצילים
האקדח
האקדמי
האקדמיה
האקדמיים
האקדמית
האקולוגית
האקלים
האקס
האר
הארבה
הארבור
הארבע
הארבעה
הארבעים
הארגון
הארגוני
הארגונים
הארגונית
הארגמן
הארגנטינאי
הארגנטינאית
הארד
הארדי
הארה
הארווי
הארוחה
הארוך
הארוכה
הארוכות
הארוכים
הארון
הארט
הארטילריה
הארי
האריה
האריות
האריזה
האריך
האריכו
האריס
האריסון
הארכאולוג
הארכאולוגי
הארכאולוגיה
הארכאולוגיים
הארכאולוגים
הארכה
הארכובה
הארכיבישוף
הארכיון
הארכת
הארכתי
הארלי
הארמון
הארמי
הארמיות
הארמייה
הארמית
הארמני
הארמנים
הארמנית
הארס
הארץ
הארצות
הארצי
הארצית
הארקטי
הארת
האש
האשה
האשורית
האשים
האשימה
האשימו
האשכול
האשכנזי
האשכנזים
האשכנזית
האשם
האשמה
האשמות
האשפה
האשפוז
האשראי
האתגר
האתגרים
האתונאים
האתיופי
האתיופית
האתיקה
האתלטיקה
האתני
האתניות
האתנית
האתר
האתרוג
האתרים
הב
הבא
הבאה
הבאות
הבאים
הבאין
הבאר
הבארוק
הבאת
הבאתי
הבבלי
הבגד
הבגדים
הבגרות
הבד
הבדואים
הבדולח
הבדיוני
הבדיונית
הבדיל
הבדים
הבדיקה
הבדיקות
הבדל
הבדלה
הבדלי
הבדלים
הבה
הבהאית
הבהיר
הבהירות
הבהמה
הבהמות
הבהרה
הבהרות
הבהרת
הבו
הבובה
הבובות
הבוגר
הבוגרים
הבוגרת
הבודד
הבודדים
הבודהיזם
הבודק
הבודקים
הבוחן
הבוחר
הבוחרים
הבוט
הבוטני
הבול
הבולגרי
הבולגרים
הבולגרית
הבולט
הבולטות
הבולטים
הבולטת
הבולים
הבולשביקים
הבונדסליגה
הבונה
הבונים
הבוס
הבוקר
הבור
הבורא
הבורגנות
הבורות
הבורים
הבורסה
הבורר
הבוררות
הבושה
הבזיליקה
הבזק
הבחור
הבחורים
הבחין
הבחינה
הבחינו
הבחינות
הבחירה
הבחירות
הבחנה
הבט
הבטון
הבטחה
הבטחון
הבטחות
הבטחת
הבטחתו
הבטיח
הבטיחה
הבטיחו
הבטיחות
הבטן
הבי
הביא
הביאה
הביאו
הביאור
הבידוד
הבידור
הביוב
הביוגרפי
הביוגרפיה
הביולוגי
הביולוגיה
הביולוגית
הביון
הביורוקרטים
הביזנטי
הביזנטים
הביזנטית
הביט
הביטוח
הביטוי
הביטויים
הביטול
הביטחון
הביטחוני
הביטחונית
הביטלס
הבייסבול
הביכורים
הבילבורד
הבימה
הבימוי
הבין
הבינה
הבינו
הבינוי
הבינוני
הביניים
הבינלאומי
הבינלאומיות
הבינלאומיים
הבינלאומית
הבינתחומי
הביס
הביסה
הביסו
הביע
הביעה
הביעו
הביעור
הביצה
הביצוע
הביצועים
הביצורים
הביצות
הביצים
הביקור
הביקורות
הביקורת
הביקוש
הבירה
הבירוקרטים
הבירור
הבירורים
הבישול
הבישוף
הבישופים
הבית
הביתה
הביתי
הביתן
הבכור
הבכורה
הבכורים
הבכיר
הבכירה
הבכירות
הבכירים
הבל
הבלארוסית
הבלגי
הבלגים
הבלגית
הבלדה
הבלוג
הבלוז
הבלוק
הבלט
הבלטי
הבלטיות
הבליטה
הבלים
הבלימה
הבליעה
הבלם
הבלעדי
הבלעדית
הבלקן
הבלש
הבלתי
הבמאי
הבמאים
הבמאית
הבמה
הבמות
הבן
הבנה
הבנוי
הבנויה
הבנויים
הבנות
הבניה
הבנייה
הבניין
הבניינים
הבנים
הבנין
הבנק
הבנקאות
הבנקאי
הבנקים
הבנת
הבנתי
הבס
הבסבורג
הבסיס
הבסיסט
הבסיסי
הבסיסיות
הבסיסיים
הבסיסים
הבסיסית
הבע
הבעה
הבעיה
הבעיות
הבעייה
הבעייתיות
הבעל
הבעלות
הבעלי
הבעלים
הבערה
הבעש
הבעת
הבצק
הבקיע
הבקעה
הבקר
הבקרה
הבקשה
הבקשות
הבר
הבראה
הברברים
הברה
הברואים
הברון
הברונזה
הברור
הברורה
הברזילאי
הברזילאית
הברזל
הבריא
הבריאה
הבריאות
הבריאותי
הבריגדה
הבריות
הבריח
הבריחה
הבריטי
הבריטיות
הבריטיים
הבריטים
הבריטית
הברייתא
הבריכה
הברירה
הברית
הברך
הברכה
הברכות
הברק
הבשורה
הבשמים
הבשן
הבשר
הבת
הבתולה
הבתים
הג
הגאה
הגאוגרפי
הגאוגרפיה
הגאוגרפית
הגאוה
הגאווה
הגאולה
הגאולוגי
הגאומטריה
הגאון
הגאונים
הגאורגי
הגאורגית
הגאות
הגאזט
הגאלים
הגב
הגבהה
הגבוה
הגבוהה
הגבוהות
הגבוהים
הגבול
הגבולות
הגבורה
הגבורות
הגביה
הגבייה
הגביל
הגבינה
הגביע
הגביר
הגבירה
הגבלה
הגבלות
הגבלת
הגבעה
הגבעות
הגבר
הגברי
הגברים
הגברת
הגג
הגדה
הגדוד
הגדודים
הגדול
הגדולה
הגדולות
הגדולים
הגדי
הגדיל
הגדילה
הגדילו
הגדיר
הגדירה
הגדירו
הגדל
הגדלה
הגדלים
הגדלת
הגדר
הגדרה
הגדרות
הגדרת
הגדרתו
הגה
הגהה
הגהות
הגואל
הגובה
הגובר
הגוברת
הגודל
הגוזל
הגוי
הגויים
הגוים
הגולגולת
הגולה
הגולים
הגולל
הגולם
הגולמי
הגולן
הגולשים
הגומי
הגומלין
הגון
הגוף
הגופה
הגופות
הגופים
הגופני
הגופנית
הגורים
הגורל
הגורם
הגורמים
הגורמת
הגורן
הגוש
הגות
הגותו
הגותי
הגותית
הגז
הגזבר
הגזול
הגזילה
הגזים
הגזירה
הגזית
הגזל
הגזלה
הגזלן
הגזע
הגזעים
הגזעית
הגזענות
הגזרה
הגחלים
הגט
הגטאות
הגטו
הגיא
הגיב
הגיבה
הגיבו
הגיבור
הגיבורים
הגיד
הגידול
הגידולים
הגידין
הגיה
הגיהנום
הגיון
הגיוני
הגיונית
הגיוס
הגיטרה
הגיטריסט
הגייה
הגיל
הגילאים
הגילוי
הגיליון
הגימנסיה
הגינה
הגיס
הגיע
הגיעה
הגיעו
הגיר
הגירה
הגירוש
הגירושים
הגירושין
הגירסא
הגירעון
הגיש
הגישה
הגישו
הגישות
הגל
הגלגל
הגלגלים
הגלובלית
הגלוי
הגלות
הגליל
הגלילי
הגלים
הגלישה
הגלם
הגלקסיה
הגלריה
הגם
הגמ
הגמדים
הגמול
הגמור
הגמל
הגמר
הגמרא
הגן
הגנב
הגנבים
הגנה
הגנו
הגנוז
הגנום
הגנות
הגנטי
הגניבה
הגנים
הגנרל
הגנרלים
הגנת
הגנתי
הגס
הגסטפו
הגעה
הגעלה
הגענו
הגעש
הגעת
הגעתה
הגעתו
הגעתי
הגעתם
הגפיים
הגפן
הגפנים
הגר
הגראנד
הגרגוריאני
הגרדיאן
הגרון
הגרוע
הגרילה
הגרים
הגרלה
הגרמני
הגרמניות
הגרמניים
הגרמנים
הגרמנית
הגרנד
הגרסאות
הגרסה
הגרעין
הגרעיני
הגרעינים
הגרעינית
הגרף
הגרפי
הגשה
הגשושית
הגשם
הגשמי
הגשמיות
הגשמים
הגשר
הגשרים
הגשת
הגת
הד
הדא
הדאגה
הדאנס
הדב
הדבור
הדבורים
הדבק
הדבקה
הדבקות
הדבקים
הדבר
הדברה
הדברות
הדברים
הדבש
הדג
הדגים
הדגימה
הדגיש
הדגישה
הדגישו
הדגל
הדגלים
הדגם
הדגמה
הדגמים
הדגש
הדגשת
הדד
הדדי
הדדיות
הדדית
הדה
הדו
הדואר
הדוב
הדובר
הדוברים
הדוגמאות
הדוגמה
הדוגמנית
הדוד
הדוח
הדוחות
הדוכס
הדוכסות
הדוכסית
הדולר
הדומה
הדומות
הדומים
הדומיניקנית
הדומיננטי
הדומיננטיות
הדומיננטית
הדופן
הדוק
הדוקומנטרי
הדוקטור
הדוקטורט
הדוקטרינה
הדוקים
הדור
הדורות
הדורש
הדורשים
הדחה
הדחות
הדחף
הדחק
הדחת
הדחתו
הדי
הדיאלוג
הדיבוב
הדיבור
הדיברות
הדיג
הדיגיטלי
הדיגיטליים
הדיגיטלית
הדיו
הדיווח
הדיווחים
הדיוויזיה
הדיוויזיות
הדיוט
הדיוטות
הדיון
הדיונים
הדיוק
הדיור
הדיח
הדיחה
הדיין
הדיינים
הדיינין
הדייר
הדיירים
הדיכוי
הדים
הדימוי
הדין
הדינוזאורים
הדינים
הדינין
הדיסק
הדיפלומטי
הדיפלומטיים
הדיפלומטית
הדיקטטורה
הדירה
הדירוג
הדירות
הדירקטוריון
הדירקטורים
הדל
הדליקה
הדלק
הדלקה
הדלקת
הדלת
הדלתא
הדלתות
הדם
הדמויות
הדמוקרטי
הדמוקרטיה
הדמוקרטים
הדמוקרטית
הדמות
הדמיה
הדמיון
הדמים
הדן
הדנובה
הדני
הדנים
הדנית
הדס
הדסה
הדסון
הדעה
הדעות
הדעת
הדף
הדפדפן
הדפוס
הדפים
הדפיס
הדפנות
הדפס
הדפסה
הדפסת
הדק
הדקדוק
הדקה
הדקות
הדקל
הדר
הדרא
הדראפט
הדרבי
הדרג
הדרגה
הדרגות
הדרגתי
הדרגתית
הדרה
הדרוזים
הדרוזית
הדרום
הדרומי
הדרומיות
הדרומיים
הדרומית
הדרוש
הדרושה
הדרושות
הדרושים
הדרי
הדריך
הדרים
הדרישה
הדרישות
הדרך
הדרכה
הדרכים
הדרכתו
הדרמה
הדרן
הדרקון
הדרקונים
הדרשה
הדרת
הדשא
הדשן
הדת
הדתות
הדתי
הדתיות
הדתיים
הדתית
הה
ההארה
ההארכה
ההאשמות
ההבדל
ההבדלה
ההבדלים
ההבחנה
ההבטחה
ההבנה
ההבראה
ההגבלה
ההגבלות
ההגבלים
ההגדה
ההגדרה
ההגדרות
ההגה
ההגיון
ההגייה
ההגירה
ההגמוניה
ההגנה
ההגעה
ההגשה
ההדבקה
ההדדית
ההדחה
ההדחות
ההדפסה
ההדרכה
ההוא
ההובלה
ההוד
ההודאה
ההודי
ההודים
ההודית
ההודעה
ההודעות
ההווה
ההויה
ההוכחה
ההולדת
ההולך
ההולכה
ההולכים
ההולכת
ההולנדי
ההולנדיים
ההולנדים
ההולנדית
ההומור
ההון
ההונגרי
ההונגרים
ההונגרית
ההונים
ההופעה
ההופעות
ההוצאה
ההוצאות
ההוקי
ההוראה
ההוראות
ההורה
ההורים
ההורמון
ההזדמנויות
ההזדמנות
ההזמנה
ההחזקה
ההחלטה
ההחלטות
ההחלפה
ההיא
ההיאבקות
ההיבט
ההיבטים
ההיגוי
ההיגיון
ההיטל
ההיכל
ההיכר
ההימורים
ההימלאיה
ההין
ההיסטורי
ההיסטוריה
ההיסטוריון
ההיסטוריונים
ההיסטוריות
ההיסטוריים
ההיסטורית
ההיפ
ההיפך
ההיקף
ההיריון
ההישג
ההישגים
ההישרדות
ההיתר
ההכנה
ההכנות
ההכנסה
ההכנסות
ההכרה
ההכרזה
ההכרח
ההכרעה
ההכשרה
ההכתרה
ההלבשה
ההלואה
ההלוואה
ההלוויה
ההליך
ההליכה
ההליכים
ההלכה
ההלכות
ההלכתי
ההלכתית
ההלל
ההלם
ההלניסטית
ההם
ההמון
ההמוני
ההמונים
ההמונית
ההמלצה
ההמלצות
ההמנון
ההמצאה
ההמראה
ההמרה
ההמשך
ההמתנה
ההנאה
ההנדסה
ההנהגה
ההנהלה
ההנחה
ההנחות
ההנחיה
ההנחיות
ההנעה
ההנפשה
ההנצחה
ההסבה
ההסבר
ההסברה
ההסברים
ההסגר
ההסדר
ההסדרים
ההסכם
ההסכמה
ההסכמים
ההסמכה
ההספק
ההסתברות
ההסתדרות
ההעברה
ההעברות
ההעפלה
ההערה
ההערות
ההערכה
ההערכות
ההעתקה
ההפגנה
ההפגנות
ההפוך
ההפוכה
ההפחתה
ההפטרה
ההפיכה
ההפך
ההפלגה
ההפניה
ההפסד
ההפסקה
ההפעלה
ההפצה
ההפצצה
ההפצצות
ההפקה
ההפקות
ההפקר
ההפרדה
ההפרה
ההפרעה
ההפרש
ההפתעה
ההצבעה
ההצבעות
ההצגה
ההצגות
ההצהרה
ההצטיינות
ההצלה
ההצלחה
ההצמדה
ההצעה
ההצעות
ההצפנה
ההקדמה
ההקדש
ההקדשות
ההקלטה
ההקלטות
ההקמה
ההקפה
ההקשר
ההר
ההרג
ההרגשה
ההרוגים
ההרחבה
ההריון
ההרים
ההרכב
ההרס
ההרפתקאות
ההרצאה
ההרצאות
ההררי
ההרשאה
ההרשאות
ההרשמה
ההשאלה
ההשבחה
ההשבעה
ההשגה
ההשגחה
ההשוואה
ההשכלה
ההשלכות
ההשלמה
ההשמדה
ההשערה
ההשפעה
ההשפעות
ההשקה
ההשקעה
ההשקעות
ההשקפה
ההשראה
ההשתלטות
ההשתתפות
ההתאבדות
ההתאגדות
ההתאחדות
ההתאמה
ההתבגרות
ההתגלות
ההתחייבות
ההתחלה
ההתחלתי
ההתייחסות
ההתיישבות
ההתיישנות
ההתמודדות
ההתמחות
ההתנגדות
ההתנגשות
ההתנהגות
ההתנהלות
ההתנחלויות
ההתנחלות
ההתנקשות
ההתנתקות
ההתעמלות
ההתערבות
ההתפלגות
ההתפרצות
ההתפשטות
ההתפתחויות
ההתפתחות
ההתקדמות
ההתקוממות
ההתקפה
ההתקפות
ההתקפי
ההתקשרות
ההתראה
ההתרחשות
ההתרסקות
ההתשה
הו
הוא
הואי
הואיל
הוארך
הואשם
הואשמו
הובא
הובאה
הובאו
הובטח
הוביל
הובילה
הובילו
הובלה
הובלו
הובלת
הובס
הובסה
הובסו
הובר
הוברר
הוגאן
הוגבל
הוגבלה
הוגדל
הוגדר
הוגדרה
הוגדרו
הוגה
הוגו
הוגי
הוגים
הוגלו
הוגן
הוגנת
הוגרלה
הוגש
הוגשה
הוגשו
הוד
הודאה
הודאת
הודאתו
הודג
הודה
הודו
הודות
הודח
הודחה
הודחו
הודי
הודים
הודיע
הודיעה
הודיעו
הודית
הודע
הודעה
הודעות
הודעת
הודפס
הודפסו
הודתה
הוה
הוהנצולרן
הוו
הוואי
הווארד
הוודאות
הווה
הווי
הווידאו
הוויכוח
הווילה
הוויקטוריאנית
הוויקי
הוויקיפדיה
הוויקיפדים
הווירטואלית
הוולגה
הוועד
הוועדה
הוועדות
הוועידה
הוורמאכט
הוושט
הוותיק
הוותיקה
הוותיקות
הוותיקים
הוותיקן
הוזכר
הוזכרה
הוזכרו
הוזמן
הוזמנה
הוזמנו
הוחזק
הוחזקה
הוחזקו
הוחזר
הוחזרה
הוחזרו
הוחל
הוחלט
הוחלף
הוחלפה
הוחלפו
הוחרם
הוחתם
הוט
הוטל
הוטלה
הוטלו
הוטספר
הוי
הויא
הויה
הויות
הויין
הוינא
הויקיפדיה
הויקיפדים
הוכח
הוכחה
הוכחות
הוכחת
הוכיח
הוכיחה
הוכיחו
הוכן
הוכנה
הוכנו
הוכנס
הוכנסה
הוכנסו
הוכר
הוכרה
הוכרו
הוכרז
הוכרזה
הוכרזו
הוכרח
הוכרע
הוכשר
הוכשרו
הוכתר
הוכתרה
הול
הולד
הולדן
הולדת
הולדתה
הולדתו
הולחן
הולט
הולי
הוליד
הוליווד
הוליך
הולך
הולכה
הולכות
הולכי
הולכים
הולכין
הולכת
הולם
הולמס
הולמת
הולנד
הולנדי
הולנדיות
הולנדים
הולנדית
הולשטיין
הומבולדט
הומו
הומואים
הומוסקסואל
הומוסקסואליות
הומוסקסואליים
הומוסקסואלים
הומוסקסואלית
הומופוביה
הומור
הומניטרי
הומצא
הומצאה
הומר
הומרוס
הון
הונא
הונאה
הונג
הונגרי
הונגריה
הונגריות
הונגרים
הונגרית
הונדה
הונדורס
הונהג
הונהגה
הונו
הונח
הונחה
הונחו
הונצח
הוסב
הוסיף
הוסיפה
הוסיפו
הוסכם
הוסמך
הוסף
הוספה
הוספת
הוספתי
הוסר
הוסרה
הוסרו
הועבר
הועברה
הועברו
הועד
הועדה
הועיל
הועילו
הועלה
הועלו
הועלתה
הועמד
הועמדה
הועמדו
הוענק
הוענקה
הוענקו
הועסק
הועסקו
הוערך
הועתק
הופ
הופחת
הופיע
הופיעה
הופיעו
הופך
הופכות
הופכים
הופכת
הופל
הופלו
הופמן
הופנו
הופסק
הופסקה
הופסקו
הופעה
הופעות
הופעותיה
הופעותיו
הופעל
הופעלה
הופעלו
הופעת
הופעתה
הופעתו
הופעתם
הופץ
הופצה
הופצו
הופק
הופקד
הופקה
הופקו
הופקינס
הופר
הוצא
הוצאה
הוצאו
הוצאות
הוצאת
הוצאתו
הוצאתם
הוצב
הוצבה
הוצבו
הוצג
הוצגה
הוצגו
הוציא
הוציאה
הוציאו
הוצע
הוצעה
הוצעו
הוצרך
הוצרכו
הוק
הוקדש
הוקי
הוקינס
הוקלט
הוקלטו
הוקם
הוקמה
הוקמו
הוקס
הוקף
הוקצה
הוקצו
הוקר
הוקרה
הוקרן
הוקשה
הוראה
הוראות
הוראותיו
הוראס
הוראת
הוראתו
הורביץ
הורג
הורגים
הורגת
הורד
הורדה
הורדוס
הורדת
הורה
הורו
הורוביץ
הורות
הורחב
הורחבה
הורחבו
הורחק
הורי
הוריד
הוריה
הוריהם
הוריו
הוריות
הורים
הוריקן
הוריש
הורית
הורכב
הורכבה
הורכבו
הורמון
הורמונים
הורן
הורנטס
הורס
הורקנוס
הורשה
הורשו
הורשע
הורשעו
הורתה
הושאל
הושבע
הושג
הושגה
הושגו
הושט
הושלם
הושלמה
הושלמו
הושם
הושמד
הושמדו
הושמט
הושמע
הושע
הושעה
הושעיא
הושפע
הושפעה
הושפעו
הושק
הושקה
הות
הותיר
הותירה
הותירו
הותקן
הותקנה
הותקנו
הותקף
הותקפה
הותקפו
הותר
הותרה
הותרו
הז
הזאב
הזאבים
הזאה
הזאת
הזב
הזבח
הזבחים
הזבל
הזדהות
הזדמנויות
הזדמנות
הזה
הזהב
הזהה
הזהות
הזהיר
הזהירו
הזהירות
הזהר
הזהרו
הזו
הזוג
הזוגות
הזוגיות
הזוהר
הזווג
הזווית
הזוויתי
הזוכה
הזוכים
הזול
הזולו
הזולת
הזורם
הזורמים
הזורק
הזזה
הזחל
הזיהוי
הזיהום
הזיז
הזיכיון
הזיכרון
הזיק
הזיקה
הזיקוק
הזירה
הזית
הזיתים
הזכאות
הזכאי
הזכאים
הזכויות
הזכוכית
הזכות
הזכיון
הזכיות
הזכייה
הזכיר
הזכירה
הזכירו
הזכר
הזכרון
הזכרונות
הזכרים
הזכרת
הזכרתי
הזמה
הזמין
הזמינה
הזמינו
הזמינות
הזמיר
הזמן
הזמנה
הזמנות
הזמני
הזמנים
הזמנית
הזמנת
הזמר
הזמרים
הזמרת
הזן
הזנב
הזנה
הזנות
הזעם
הזקן
הזקנה
הזקנים
הזר
הזרה
הזרוע
הזרועות
הזרות
הזרים
הזרימה
הזרם
הזרמים
הזרמת
הזרע
הזרעים
הזרקת
הח
החאן
החבורה
החבורות
החביב
החבילה
החבית
החבל
החבלה
החבלים
החבר
החברה
החברות
החברים
החברתי
החברתיות
החברתיים
החברתית
החג
החגורה
החגיגות
החגים
החד
החדירה
החדר
החדרים
החדרת
החדש
החדשה
החדשות
החדשים
החדשנות
החוב
החובה
החובות
החובל
החוברת
החוג
החוגים
החודש
החודשי
החודשים
החווה
החוויה
החוזה
החוזים
החוזר
החוזרות
החוזרים
החוזרת
החוט
החוטא
החוטאים
החוטם
החוטפים
החול
החולה
החולות
החולי
החוליה
החוליות
החולים
החולין
החולץ
החולצה
החולקים
החום
החומה
החומות
החומצה
החומר
החומרה
החומרי
החומרים
החומש
החוף
החופה
החופים
החופש
החופשה
החופשי
החופשיים
החופשית
החוץ
החוצה
החוק
החוקה
החוקי
החוקים
החוקית
החוקר
החוקרים
החוקרת
החוקתי
החוקתית
החור
החורבן
החורג
החורגת
החורף
החורש
החושים
החושך
החושן
החותם
החותרים
החזה
החזון
החזותי
החזיק
החזיקה
החזיקו
החזיר
החזירה
החזירו
החזירים
החזית
החזן
החזק
החזקה
החזקות
החזקים
החזקת
החזר
החזרה
החזרת
החזרתי
החטא
החטאים
החטאת
החטיבה
החטים
החטיפה
החי
החיבור
החיבורים
החיד
החידה
החידוש
החיה
החיוב
החיובי
החיובית
החיוני
החיוניים
החיות
החיטה
החייב
החייבת
החיידק
החיידקים
החייל
החיילים
החיים
החיכוך
החיל
החילוני
החילונית
החילוץ
החילוק
החימום
החימוש
החינוך
החינוכי
החינוכית
החיסון
החיסכון
החיפוש
החיפושים
החיצון
החיצונה
החיצוני
החיצוניות
החיצוניים
החיצונים
החיצונית
החירום
החירות
החישוב
החיתוך
החכירה
החכם
החכמה
החכמות
החכמים
החל
החלב
החלבון
החלבונים
החלה
החלו
החלום
החלומות
החלון
החלונות
החלופי
החלוץ
החלוצים
החלוקה
החלות
החלטה
החלטות
החלטת
החלטתה
החלטתו
החלטתי
החליט
החליטה
החליטו
החליל
החלים
החליף
החליפה
החליפו
החליפין
החליצה
החלל
החללים
החללית
החלמה
החלפה
החלפות
החלפת
החלק
החלקה
החלקים
החלקיק
החלקיקים
החלש
החלשה
החלשות
החלת
החם
החמאס
החמה
החמור
החמורה
החמורים
החמים
החמיץ
החמיר
החמירו
החמישה
החמישי
החמישים
החמישית
החממה
החמץ
החמצן
החמש
החמשים
החן
החנויות
החנוכה
החנות
החניה
החניכים
החסד
החסדים
החסות
החסיד
החסידות
החסידי
החסידים
החסידית
החסימה
החסר
החסרון
החסרונות
החסרים
החפירה
החפירות
החפץ
החפצים
החץ
החצי
החצר
החצרות
החקיקה
החקירה
החקירות
החקלאות
החקלאי
החקלאיות
החקלאיים
החקלאים
החקלאית
החקר
החרב
החרדה
החרדי
החרדיות
החרדים
החרדית
החרושת
החרות
החרטום
החרימו
החריף
החריפה
החרם
החרמון
החרס
החרקים
החרש
החשאי
החשאית
החשב
החשבון
החשבונות
החשד
החשוב
החשובה
החשובות
החשובים
החשוד
החשודים
החשיב
החשיבה
החשיבות
החשיכה
החשיפה
החשך
החשמונאים
החשמל
החשמלי
החשמלית
החשש
החת
החתול
החתולים
החתום
החתומים
החתונה
החתיכה
החתים
החתימה
החתך
החתן
הט
הטבה
הטבור
הטבות
הטבח
הטבילה
הטביעה
הטבלה
הטבע
הטבעות
הטבעי
הטבעיות
הטבעיים
הטבעית
הטבעת
הטבק
הטברנה
הטהור
הטהורה
הטהורים
הטהרה
הטוב
הטובה
הטובות
הטובים
הטובין
הטווח
הטוויטר
הטוטו
הטומאה
הטומאות
הטוען
הטוענים
הטופס
הטור
הטורים
הטורניר
הטורף
הטורפדו
הטורפים
הטורקי
הטורקים
הטורקית
הטטרים
הטיה
הטיוטה
הטיול
הטיות
הטיט
הטיטאנים
הטייס
הטייסים
הטייסת
הטיית
הטיל
הטילדה
הטילה
הטילו
הטילים
הטיס
הטיסה
הטיסות
הטיעון
הטיעונים
הטיפה
הטיפול
הטיפולים
הטיפוס
הטירה
הטכנולוגי
הטכנולוגיה
הטכנולוגיות
הטכנולוגית
הטכני
הטכניון
הטכניות
הטכניים
הטכניקה
הטכנית
הטל
הטלגרף
הטלה
הטלוויזיה
הטלוויזיוני
הטלוויזיונית
הטליבאן
הטלית
הטלסקופ
הטלפון
הטלפונים
הטלת
הטמא
הטמאה
הטמאים
הטמפלרים
הטמפרטורה
הטמפרטורות
הטניס
הטנק
הטנקים
הטעון
הטעות
הטעיה
הטעם
הטעמים
הטענה
הטענות
הטקטיקה
הטקס
הטקסט
הטקסטיל
הטקסטים
הטקסים
הטרגדיה
הטרדה
הטרוסקסואלים
הטרופיים
הטרור
הטריטוריה
הטריטוריות
הטרילוגיה
הטרנס
הטרנסג
הטרף
הי
היא
היאבקות
היאור
היאך
היבוא
היבואן
היבול
היבחרו
היבט
היבטים
היבם
היבש
היבשה
היבשות
היבשת
היבשתי
היבשתית
היגוי
היגיון
היגינס
היגר
היגרה
היגרו
היד
הידוע
הידועה
הידועות
הידועים
הידור
הידידות
הידיים
הידים
הידיעה
הידיעות
הידע
הידעת
הידרדרות
הידרו
היה
היהדות
היהודי
היהודיות
היהודיים
היהודים
היהודית
היהלום
היהלומים
היו
היובל
היובש
היוגוסלבית
היודנראט
היודע
היוו
היווה
היווני
היווניות
היוונים
היוונית
היווסדה
היווצרות
היוותה
היוזמה
היוטיוב
היולדת
היוליאני
היום
היומי
היומיום
היומית
היומן
היונה
היונים
היונקים
היועץ
היועצים
היופי
היוצא
היוצאים
היוצאין
היוצאת
היוצר
היוצרות
היוצרים
היוצרת
היוקרתי
היורד
היורה
היורוליג
היורש
היורשים
היורשין
היושב
היושבים
היושר
היות
היותה
היותו
היותם
היותר
היזם
היזק
היחוד
היחיד
היחידה
היחידות
היחידי
היחידים
היחס
היחסות
היחסי
היחסים
היחסית
היט
היטב
היטיב
היטל
היטלר
היי
הייד
היידי
היידיש
היידלברג
היידן
הייז
הייחוד
הייחודי
הייחודיות
הייחודיים
הייחודית
הייחוס
הייל
היילה
היילי
היימן
היין
היינו
היינס
היינץ
היינריך
הייעוץ
הייצוא
הייצוג
הייצור
היישוב
היישובים
היישום
היישר
היית
הייתה
הייתי
הייתם
היכא
היכול
היכולות
היכולים
היכולת
היכי
היכל
היכלא
היכלות
היכן
היכר
היכרות
היל
הילברט
הילד
הילדה
הילדות
הילדים
הילה
הילוך
הילוכים
הילטון
הילידים
הילך
הילכך
הילכתא
הילל
הילס
הילרי
הים
הימ
הימורים
הימי
הימיים
הימים
הימין
הימית
הימלר
היממה
הימנה
הימנו
הימני
הימנית
הימנעות
הימצאות
הין
הינדנבורג
הינה
הינו
היסוד
היסודות
היסודי
היסודיים
היסודית
היסטורי
היסטוריה
היסטוריון
היסטוריונים
היסטוריות
היסטוריים
היסטוריית
היסטורית
היסת
היעד
היעדים
היעדר
היעדרות
היעיל
היעילות
היער
היערות
היערכות
היפ
היפה
היפוך
היפות
היפים
היפך
היפני
היפניות
היפניים
היפנים
היפנית
היפר
היצ
היצה
היצוא
היצור
היצורים
היציאה
היציבה
היציבות
היצירה
היצירות
היצע
היצר
היצרן
היצרנים
היקב
היקום
היקף
היקר
היקרה
היקרים
היראה
הירדן
הירדני
הירדנית
הירונימוס
הירוק
הירוקה
הירוקים
הירושה
הירושימה
הירושלמי
הירושלמית
הירח
הירחון
הירי
היריב
היריבה
היריבות
היריבים
הירידה
היריון
היריעה
הירך
הירק
הירקון
הירקות
הירש
היש
הישג
הישגי
הישגיה
הישגיו
הישגים
הישוב
הישועה
הישועים
הישות
הישיבה
הישיבות
הישיר
הישירה
הישן
הישנה
הישנות
הישנים
הישר
הישראל
הישראלי
הישראליות
הישראליים
הישראלים
הישראלית
הישרדות
הית
היתה
היתוך
היתומים
היתר
היתרה
היתרון
היתרונות
היתרים
הך
הכ
הכא
הכאב
הכאה
הכאוס
הכבאות
הכבד
הכבדה
הכבדות
הכבדים
הכבוד
הכבושה
הכבושים
הכבידה
הכביש
הכבישים
הכבלים
הכבש
הכבשים
הכדור
הכדורגל
הכדורגלן
הכדורים
הכדורסל
הכה
הכהונה
הכהן
הכהנים
הכו
הכובד
הכובע
הכובש
הכובשים
הכוהנים
הכוונה
הכוונות
הכוח
הכוחות
הכוכב
הכוכבים
הכול
הכולל
הכוללות
הכוללים
הכוללת
הכומר
הכונה
הכונס
הכוס
הכוסות
הכופר
הכור
הכורדים
הכורים
הכושל
הכושר
הכותב
הכותבים
הכותל
הכותנה
הכותרות
הכותרת
הכח
הכחדה
הכחול
הכחולה
הכחולים
הכחות
הכחיש
הכחשה
הכחשת
הכט
הכי
הכיבוש
הכיוון
הכיוונים
הכיור
הכיכר
הכיל
הכילה
הכילו
הכימי
הכימיה
הכימית
הכין
הכינה
הכינו
הכינוי
הכינוס
הכינור
הכיס
הכיסא
הכיסוי
הכיפה
הכיפורים
הכיר
הכירה
הכירו
הכישוף
הכישורים
הכישלון
הכיתה
הכיתוב
הככר
הכל
הכלא
הכלב
הכלבו
הכלבים
הכלה
הכלול
הכלולות
הכלולים
הכלי
הכליאה
הכליה
הכליות
הכלים
הכלכלה
הכלכלי
הכלכליות
הכלכליים
הכלכלית
הכלל
הכללה
הכללות
הכללי
הכלליות
הכלליים
הכללים
הכללית
הכללת
הכמורה
הכמות
הכנה
הכנופיה
הכנות
הכניס
הכניסה
הכניסו
הכניעה
הכנס
הכנסה
הכנסות
הכנסותיו
הכנסיות
הכנסייה
הכנסת
הכנסתו
הכנעני
הכנענים
הכנענית
הכנף
הכנפיים
הכנר
הכנרת
הכנת
הכס
הכסא
הכסף
הכספי
הכספיים
הכספים
הכספית
הכעס
הכף
הכפול
הכפולה
הכפורים
הכפורת
הכפייה
הכפל
הכפר
הכפרי
הכפריים
הכפרים
הכפרית
הכפתור
הכר
הכרה
הכרובים
הכרוך
הכרוכה
הכרוכות
הכרוכים
הכרזה
הכרזת
הכרח
הכרחי
הכרחית
הכרטיס
הכרטיסים
הכריז
הכריזה
הכריזו
הכריח
הכרייה
הכריע
הכרך
הכרכים
הכרם
הכרמל
הכרעה
הכרעת
הכרת
הכרתו
הכרתי
הכשיר
הכשירות
הכשר
הכשרה
הכשרות
הכשרים
הכשרת
הכשרתו
הכת
הכתב
הכתבה
הכתבים
הכתוב
הכתובה
הכתובות
הכתובים
הכתובת
הכתיב
הכתיבה
הכתיר
הכתם
הכתף
הכתר
הכתרתו
הל
הלא
הלאה
הלאו
הלאום
הלאומי
הלאומיות
הלאומיים
הלאומים
הלאומית
הלאומנים
הלב
הלבבות
הלבה
הלבוש
הלבושים
הלבלב
הלבן
הלבנה
הלבנון
הלבנוני
הלבנונית
הלבנים
הלבנת
הלברשטאם
הלבשה
הלגיון
הלגיונות
הלה
הלהט
הלהיט
הלהיטים
הלהקה
הלהקות
הלו
הלוא
הלואה
הלואתו
הלובי
הלובר
הלוגו
הלוגיקה
הלוה
הלוהו
הלוואה
הלוואות
הלוואי
הלווה
הלוויה
הלוויין
הלוח
הלוחות
הלוחם
הלוחמה
הלוחמים
הלוי
הלויים
הלוים
הלוך
הלול
הלולב
הלום
הלומד
הלומדים
הלוע
הלועזי
הלופטוואפה
הלוקח
הלורד
הלורדים
הלח
הלחות
הלחי
הלחימה
הלחין
הלחם
הלחן
הלחנה
הלחץ
הלטיני
הלטינית
הליבה
הליברלי
הליברלים
הליברלית
הליגה
הליגות
הלידה
הליווי
הליטאי
הליטאית
הלייב
הלייבור
הלייבל
הלייזר
הלייקרס
הליך
הליכה
הליכוד
הליכות
הליכי
הליכים
הליכת
הלילה
הלילות
הלימוד
הלימודים
הליקויים
הליקון
הלך
הלכה
הלכו
הלכות
הלכך
הלכת
הלכתא
הלכתי
הלכתיות
הלכתיים
הלכתית
הלל
הללו
הללויה
הלם
הלמ
הלמד
הלמוט
הלמידה
הלן
הלנה
הלסינקי
הלסת
הלפרין
הלקוח
הלקוחות
הלקט
הלר
הלשון
הלשונות
הלשוני
הלשונית
הלשכה
הם
המ
המאבק
המאבקים
המאגמה
המאגר
המאה
המאו
המאובנים
המאוחד
המאוחדות
המאוחדת
המאוחר
המאוחרות
המאוחרים
המאוחרת
המאור
המאורגן
המאורות
המאורסה
המאורע
המאורעות
המאושר
המאות
המאזינים
המאזן
המאיה
המאיר
המאירי
המאכל
המאכלים
המאמין
המאמינים
המאמן
המאמנים
המאמץ
המאמצים
המאמר
המאמרים
המאסטר
המאסר
המאפיה
המאפיין
המאפיינים
המאפיינת
המאפשר
המאפשרות
המאפשרים
המאפשרת
המארח
המארחת
המבדיל
המבוא
המבואר
המבוגר
המבוגרים
המבוטח
המבוי
המבול
המבוסס
המבוססות
המבוססים
המבוססת
המבוקש
המבוקשים
המבוקשת
המבורג
המבחן
המבחנים
המבט
המבטא
המבטח
המבטיח
המבטל
המביא
המביאה
המביאים
המבנה
המבנים
המבצע
המבצעי
המבצעים
המבצעית
המבצעת
המבצר
המבקר
המבקרים
המבקש
המבקשים
המבקשת
המברך
המג
המגבלות
המגדיר
המגדל
המגדלים
המגדר
המגדרי
המגדרית
המגוון
המגורים
המגורשים
המגזין
המגזר
המגיד
המגילה
המגילות
המגינים
המגיע
המגיעה
המגיעות
המגיעים
המגיש
המגלה
המגמה
המגן
המגנטי
המגנים
המגע
המגעים
המגפה
המגרש
המדבר
המדברים
המדד
המדה
המדובר
המדוברת
המדווח
המדויק
המדויקים
המדויקת
המדומה
המדור
המדורג
המדורגת
המדות
המדידה
המדידות
המדיה
המדים
המדינה
המדינות
המדיני
המדיניות
המדינית
המדינתי
המדיר
המדליה
המדליות
המדמה
המדע
המדעי
המדעיים
המדעים
המדעית
המדען
המדענים
המדרגה
המדרגות
המדרון
המדריך
המדרש
המדרשה
המה
המהגרים
המהדורה
המהדורות
המהווה
המהווים
המהוות
המהומות
המהות
המהותי
המהיר
המהירה
המהירות
המהירים
המהלך
המהלכים
המהנדס
המהנדסים
המהפך
המהפכה
המהפכני
המהפכנים
המהפכנית
המהר
המהרש
המו
המובא
המובהק
המובחר
המוביל
המובילה
המובילות
המובילים
המובן
המוגבל
המוגבלות
המוגבלת
המוגדר
המוגדרים
המוגדרת
המוגן
המוגנים
המודיעין
המודל
המודלים
המודעות
המודר
המודרני
המודרניות
המודרניים
המודרנית
המוות
המוזיאון
המוזיאונים
המוזיקאי
המוזיקאים
המוזיקה
המוזיקלי
המוזיקליים
המוזיקלית
המוזכר
המוזכרים
המוזר
המוח
המוחזק
המוחזקים
המוחין
המוחלט
המוחלטת
המוט
המוטאנטים
המוטו
המוטיבציה
המוטל
המוטלת
המוטסת
המוכן
המוכר
המוכרות
המוכרים
המוכרת
המולד
המולדת
המוליך
המולקולה
המולקולות
המום
המומחה
המומחים
המומלץ
המומלצים
המון
המונגולי
המונגולים
המונגולית
המונדיאל
המונה
המונח
המונחים
המוני
המוניות
המוניטין
המונים
המוניציפלי
המונית
המונע
המונעים
המונעת
המונרך
המונרכיה
המוסד
המוסדות
המוסדי
המוסלמי
המוסלמים
המוסלמית
המוסמך
המוסמכים
המוסמכת
המוסף
המוסר
המוסרי
המוסרית
המועד
המועדון
המועדונים
המועדות
המועדים
המועדף
המועדפת
המועט
המועמד
המועמדות
המועמדים
המוענק
המועסק
המועסקים
המועצה
המועצות
המוערך
המופיע
המופיעה
המופיעות
המופיעים
המופלא
המופלאים
המופע
המופעים
המופעל
המופעלים
המופק
המופת
המופתי
המוצא
המוצב
המוצבים
המוצג
המוצגים
המוצגת
המוצהרת
המוציא
המוצלח
המוצלחת
המוצע
המוצעים
המוצעת
המוצר
המוצרים
המוקד
המוקדם
המוקדמות
המוקדמים
המוקדמת
המוקדש
המוקדשין
המוקדשת
המוקף
המוקשים
המור
המורד
המורדים
המורה
המורחב
המורחבת
המוריה
המורים
המורכב
המורכבות
המורכבים
המורכבת
המורשה
המורשת
המושב
המושבה
המושבות
המושבים
המושבעים
המושג
המושגים
המושך
המושל
המושלים
המושלם
המות
המותאם
המותג
המותקן
המותר
המותרות
המותרים
המותרת
המזבח
המזהה
המזהים
המזוהה
המזוהים
המזוזה
המזוינים
המזון
המזונות
המזיק
המזכה
המזכיר
המזכירה
המזכירות
המזכירים
המזל
המזלות
המזמור
המזנון
המזערי
המזרח
המזרחי
המזרחיות
המזרחיים
המזרחית
המח
המחאה
המחאות
המחבל
המחבלים
המחבר
המחברים
המחברת
המחדל
המחובר
המחוברים
המחודש
המחודשת
המחוז
המחוזות
המחוזי
המחוזית
המחויבים
המחוייבים
המחול
המחוקק
המחוקקים
המחוקקת
המחזאי
המחזה
המחזור
המחזות
המחזיק
המחזיקים
המחזמר
המחט
המחיה
המחייב
המחייבת
המחיצה
המחיצות
המחיקה
המחיר
המחירים
המחלה
המחלוקות
המחלוקת
המחלות
המחליף
המחלף
המחלק
המחלקה
המחלקות
המחמד
המחנה
המחנות
המחסום
המחסור
המחסן
המחצית
המחקר
המחקרים
המחקרית
המחר
המחרת
המחשב
המחשבה
המחשבות
המחשבים
המחשה
המחשוב
המחתרות
המחתרת
המטאל
המטבח
המטביל
המטבע
המטבעות
המטה
המטוס
המטוסים
המטופל
המטופלים
המטורף
המטות
המטכ
המטלטלין
המטמון
המטען
המטענים
המטפל
המטר
המטרה
המטרו
המטרופוליטן
המטרופולין
המטרות
המטריצה
המי
המידה
המידות
המידע
המיוחד
המיוחדות
המיוחדים
המיוחדת
המיוחס
המיוחסים
המיוחסת
המיון
המיועד
המיועדות
המיועדים
המיועדת
המיוצר
המיוצרים
המיז
המיזוג
המיזם
המיזמים
המיטה
המייסד
המייסדים
המייעצת
המייצג
המייצגים
המייצגת
המילה
המילואים
המילוי
המילולי
המילון
המילטון
המילים
המיליציה
המילניום
המים
המימון
המימן
המין
המינהל
המינהלה
המינוח
המינוי
המינויים
המיני
המיניות
המינים
המינימום
המינימלי
המינין
המינית
המינרל
המינרלים
המיסוי
המיסיון
המיסים
המיסיסיפי
המיעוט
המיעוטים
המיקום
המיקל
המיר
המירוץ
המישור
המיתה
המיתולוגיה
המיתוס
המיתקן
המיתר
המיתרים
המכ
המכבי
המכביה
המכה
המכהן
המכהנת
המכוון
המכון
המכונה
המכונות
המכוניות
המכונים
המכונית
המכוננת
המכוסה
המכות
המכיל
המכילה
המכילות
המכילים
המכינה
המכירה
המכירות
המכלול
המכללה
המכללות
המכס
המכסה
המכסות
המכסים
המכפלה
המכר
המכרות
המכרז
המכרזים
המכריע
המכשול
המכשיר
המכשירים
המכשף
המכשפה
המכשפות
המכתב
המכתבים
המכתש
המל
המלא
המלאה
המלאי
המלאים
המלאך
המלאכה
המלאכות
המלאכים
המלה
המלו
המלוה
המלווה
המלווים
המלוכה
המלומד
המלון
המלח
המלחים
המלחין
המלחינים
המלחמה
המלחמות
המלחמתי
המלט
המלים
המליץ
המליצה
המלך
המלכה
המלכות
המלכותי
המלכותיים
המלכותית
המלכים
המלמד
המלפפונים
המלצה
המלצות
המלצת
המלקט
הממדים
הממון
הממונה
הממונים
הממוצע
הממוצעת
הממוקם
הממוקמים
הממוקמת
הממלא
הממלוכים
הממלוכית
הממלכה
הממלכות
הממלכתי
הממלכתית
הממנה
הממסד
הממצא
הממצאים
הממשי
הממשיים
הממשל
הממשלה
הממשלות
הממשלתי
הממשלתיות
הממשלתיים
הממשלתית
הממשק
המן
המנגינה
המנגנון
המנדט
המנדטורי
המנדטורית
המנה
המנהג
המנהגים
המנהיג
המנהיגות
המנהיגים
המנהל
המנהלי
המנהלים
המנהלית
המנהלת
המנהרה
המנהרות
המנוח
המנוחה
המנוחות
המנוי
המנויה
המנויות
המנויים
המנון
המנונא
המנוע
המנועים
המנורה
המנזר
המנזרים
המנחה
המנחות
המנחים
המנטר
המניות
המניח
המניין
המנין
המניע
המניעה
המניעים
המנכ
המנסה
המנסים
המנצח
המנצחות
המנצחים
המנצחת
המס
המסגד
המסגרות
המסגרת
המסדר
המסה
המסוגל
המסוגלים
המסוים
המסוכן
המסוכנים
המסומן
המסופר
המסוק
המסוקים
המסור
המסורה
המסורות
המסורת
המסורתי
המסורתיות
המסורתיים
המסורתית
המסחר
המסחרי
המסחריים
המסחרית
המסיבה
המסייע
המסייעים
המסייעת
המסילה
המסילות
המסים
המסירה
המסך
המסכה
המסכת
המסלול
המסלולים
המסמך
המסמכים
המסמל
המסע
המסעדה
המסעדות
המסעות
המספק
המספקים
המספקת
המספר
המספרים
המספרת
המסקנא
המסקנה
המסקנות
המסר
המסרים
המסתורי
המסתורין
המע
המעבד
המעבדה
המעבורת
המעביד
המעביר
המעבר
המעברים
המעגל
המעודכן
המעולה
המעון
המעוניין
המעוניינים
המעופף
המעורב
המעורבות
המעורבים
המעורבת
המעות
המעט
המעטה
המעטים
המעטפת
המעי
המעיד
המעידה
המעידים
המעיין
המעיינות
המעין
המעלה
המעלות
המעלית
המעמד
המעמדות
המענה
המעניק
המענק
המעסיק
המעסיקים
המעפילים
המעצב
המעצמה
המעצמות
המעצר
המעקב
המערב
המערבי
המערביות
המערביים
המערבית
המערה
המערות
המעריצים
המערך
המערכה
המערכות
המערכת
המערער
המעשה
המעשי
המעשיות
המעשים
המעשית
המעשר
המעשרות
המפגינים
המפגש
המפגשים
המפד
המפה
המפואר
המפורט
המפורטות
המפורטים
המפורטת
המפורסם
המפורסמות
המפורסמים
המפורסמת
המפורש
המפות
המפטון
המפיק
המפיקים
המפלגה
המפלגות
המפלצת
המפלת
המפנה
המפעיל
המפעילה
המפעילים
המפעל
המפעלים
המפץ
המפציצים
המפקד
המפקדה
המפקדים
המפקח
המפקיד
המפר
המפרט
המפריד
המפרץ
המפרק
המפרש
המפרשים
המפשייר
המפתח
המפתחות
המפתחים
המצאה
המצאות
המצאת
המצב
המצבה
המצביא
המצבים
המצביע
המצביעים
המצה
המצודה
המצוה
המצווה
המצוות
המצוי
המצויה
המצויות
המצויים
המצוין
המצוירת
המצומצם
המצוקה
המצור
המצורע
המצות
המצח
המצטבר
המצטיין
המצטיינים
המצטיינת
המציא
המציאה
המציאות
המציג
המציגה
המציגים
המציין
המציינת
המציע
המצליח
המצליחה
המצליחים
המצלמה
המצע
המצעד
המצעדים
המצפה
המצר
המצרי
המצריים
המצרים
המצרית
המקביל
המקבילה
המקבילים
המקבל
המקבלים
המקבלת
המקבץ
המקדונית
המקדים
המקדימות
המקדיש
המקדם
המקדש
המקדשים
המקהלה
המקובל
המקובלות
המקובלים
המקובלת
המקודש
המקוה
המקוון
המקוונת
המקום
המקומות
המקומי
המקומיות
המקומיים
המקומית
המקור
המקורות
המקורי
המקוריות
המקוריים
המקורית
המקושרים
המקח
המקיים
המקיימים
המקיסט
המקיף
המקיפה
המקיפים
המקל
המקלדת
המקלט
המקנה
המקסימלי
המקסימלית
המקסיקני
המקסיקנית
המקצוע
המקצועות
המקצועי
המקצועיות
המקצועיים
המקצועית
המקצועני
המקצוענית
המקרא
המקראי
המקראית
המקרה
המקריב
המקרים
המקרקעין
המקשה
המקשר
המר
המראה
המראות
המרבה
המרבי
המרבית
המרגלים
המרד
המרדכי
המרדף
המרה
המרובה
המרובע
המרוחק
המרוץ
המרוצים
המרחב
המרחבים
המרחץ
המרחק
המרידה
המרים
המרכבה
המרכז
המרכזי
המרכזיות
המרכזיים
המרכזים
המרכזית
המרכיב
המרכיבות
המרכיבים
המרפאה
המרצה
המרק
המרקיז
המרשל
המרשם
המרת
המרתון
המשא
המשאבים
המשאית
המשבר
המשגיח
המשגר
המשדר
המשודרת
המשוואה
המשוואות
המשווה
המשוונית
המשוחררים
המשולב
המשולבים
המשולבת
המשולש
המשולשת
המשוער
המשוריינת
המשורר
המשוררים
המשוררת
המשותף
המשותפים
המשותפת
המשחה
המשחית
המשחק
המשחקים
המשחקת
המשחתות
המשחתת
המשטח
המשטר
המשטרה
המשי
המשיב
המשיבים
המשיח
המשיך
המשיכה
המשיכו
המשימה
המשימות
המשיקים
המשך
המשכה
המשכון
המשכורת
המשכיות
המשכיל
המשכילים
המשכיר
המשכן
המשכת
המשל
המשלב
המשלבת
המשלוח
המשלח
המשלחות
המשלחת
המשלים
המשלם
המשמעויות
המשמעות
המשמעותי
המשמעותיים
המשמעותית
המשמעת
המשמעתי
המשמר
המשמרות
המשמרת
המשמש
המשמשות
המשמשים
המשמשת
המשנה
המשני
המשניות
המשפחה
המשפחות
המשפחתי
המשפחתית
המשפט
המשפטי
המשפטיים
המשפטים
המשפטית
המשפיע
המשפיעות
המשפיעים
המשק
המשקה
המשקים
המשקין
המשקיעים
המשקל
המשקעים
המשרד
המשרדים
המשרה
המשרות
המשרת
המשרתים
המשרתת
המשתה
המשתייכים
המשתלח
המשתמש
המשתמשים
המשתמשת
המשתנה
המשתנים
המשתרע
המשתתף
המשתתפות
המשתתפים
המת
המתאבק
המתאבקים
המתאים
המתאימה
המתאימות
המתאימים
המתאר
המתארות
המתארים
המתארת
המתגורר
המתגוררים
המתגלה
המתה
המתואר
המתוארים
המתוארת
המתווה
המתוכנן
המתוכננת
המתופף
המתח
המתחיל
המתחילה
המתחם
המתחרה
המתחרים
המתיחות
המתייחס
המתייחסים
המתייחסת
המתיישבים
המתים
המתין
המתינו
המתיר
המתכות
המתכת
המתמודד
המתמודדים
המתמחה
המתמטי
המתמטיקאי
המתמטיקה
המתמטית
המתמקד
המתמשך
המתמשכת
המתנגד
המתנגדים
המתנדבים
המתנה
המתנות
המתנחלים
המתנשא
המתעד
המתפלל
המתפללים
המתקבל
המתקבלת
המתקדם
המתקדמים
המתקדמת
המתקיים
המתקיימת
המתקן
המתקנים
המתקפה
המתרגם
המתרחש
המתרחשים
המתרחשת
הן
הנ
הנאה
הנאו
הנאוליתית
הנאום
הנאורות
הנאות
הנאמן
הנאמנות
הנאמנים
הנאמר
הנאצי
הנאציזם
הנאצים
הנאצית
הנאשם
הנאשמים
הנאת
הנאתו
הנבדק
הנבואה
הנבחר
הנבחרות
הנבחרים
הנבחרת
הנביא
הנביאים
הנבל
הנבראים
הנגב
הנגבי
הנגד
הנגדי
הנגזל
הנגזרת
הנגיד
הנגינה
הנגיף
הנגישות
הנגנים
הנגע
הנגרם
הנגרמת
הנדה
הנדון
הנדחת
הנדל
הנדסה
הנדסי
הנדסת
הנדר
הנדריקס
הנדרסון
הנדרש
הנדרשות
הנדרשים
הנדרשת
הנה
הנהג
הנהגה
הנהגים
הנהגת
הנהגתו
הנהו
הנהוג
הנהוגה
הנהוגים
הנהיג
הנהיגה
הנהלה
הנהלים
הנהלת
הנהנה
הנהר
הנהרות
הנו
הנובלה
הנובע
הנובעות
הנובעים
הנובעת
הנובר
הנוגע
הנוגעות
הנוגעים
הנוגעת
הנוד
הנודע
הנודר
הנוהג
הנוהגים
הנוהל
הנוזל
הנוחות
הנוטה
הנוטל
הנוכחות
הנוכחי
הנוכחיים
הנוכחים
הנוכחית
הנולד
הנולדים
הנוסח
הנוסחאות
הנוסחה
הנוסע
הנוסעים
הנוסף
הנוספות
הנוספים
הנוספת
הנוער
הנוף
הנופל
הנופלים
הנופש
הנוצר
הנוצרי
הנוצריות
הנוצריים
הנוצרים
הנוצרית
הנוצרת
הנוקבא
הנוקמים
הנורא
הנוראים
הנורדית
הנורווגי
הנורווגית
הנושא
הנושאים
הנושאת
הנושה
הנושים
הנותן
הנותנת
הנותר
הנותרות
הנותרים
הנז
הנזיקין
הנזיר
הנזירות
הנזירים
הנזכר
הנזכרות
הנזכרים
הנזכרת
הנזק
הנזקים
הנח
הנחה
הנחוצים
הנחושת
הנחות
הנחיה
הנחיות
הנחיית
הנחיתה
הנחל
הנחלה
הנחלים
הנחש
הנחשב
הנחשבים
הנחשבת
הנחשים
הנחת
הנחתה
הנחתי
הנחתים
הנחתת
הנטוש
הנטייה
הני
הניב
הניגוד
הניגון
הנידון
הנידונים
הניהול
הניו
הניווט
הניזוק
הניזק
הניזקין
הניח
הניחא
הניחה
הניחו
הניטור
הנייד
הנייטרליות
הנייר
הנילוס
הנימוק
הנימוקים
הנינג
הניסוח
הניסוי
הניסויים
הניסיון
הניסיונות
הניסים
הניצב
הניצול
הניצולים
הניצוץ
הניצוצות
הניצחון
הניצחונות
הניקוד
הניקוז
הנישואים
הנישואין
הנישום
הניתוח
הניתן
הניתנות
הניתנים
הניתנת
הנך
הנכבד
הנכה
הנכון
הנכונה
הנכונות
הנכות
הנכים
הנכנס
הנכנסים
הנכס
הנכסים
הנכרי
הנכרים
הנלווה
הנם
הנמוך
הנמוכה
הנמוכות
הנמוכים
הנמכר
הנמכרים
הנמל
הנמלים
הנמנע
הנמען
הנמצא
הנמצאות
הנמצאים
הנמצאת
הנמר
הנמשך
הנמשכים
הנמשכת
הננו
הנני
הנס
הנסון
הנסחרות
הנסיבות
הנסיגה
הנסיון
הנסיך
הנסיכה
הנסיכויות
הנסיכות
הנסיכים
הנסים
הנסיעה
הנסיעות
הנסן
הנספים
הנסתר
הנע
הנעה
הנעורים
הנעים
הנעל
הנעלה
הנעליים
הנעלם
הנער
הנערה
הנערות
הנערים
הנערך
הנעשה
הנעשים
הנעשית
הנפגע
הנפגעים
הנפה
הנפוליאוניות
הנפוץ
הנפוצה
הנפוצות
הנפוצים
הנפח
הנפט
הנפטר
הנפילה
הנפץ
הנפקד
הנפקת
הנפש
הנפשה
הנפשות
הנפשי
הנפשית
הנפת
הנץ
הנצח
הנצחה
הנצחי
הנצחת
הנציב
הנציבות
הנציג
הנציגות
הנציגים
הנצפה
הנצרות
הנק
הנקב
הנקבה
הנקבות
הנקה
הנקוב
הנקובים
הנקודה
הנקודות
הנקי
הנקמה
הנקרא
הנקראות
הנקראים
הנקראת
הנר
הנראה
הנראים
הנראית
הנרות
הנרחב
הנרי
הנרייטה
הנריק
הנרצחים
הנרתיק
הנשאר
הנשארים
הנשבע
הנשבעין
הנשה
הנשואין
הנשי
הנשיא
הנשיאה
הנשיאות
הנשיאותי
הנשיאותית
הנשיאים
הנשים
הנשימה
הנשית
הנשמה
הנשמות
הנשק
הנשר
הנתבע
הנתון
הנתונה
הנתונות
הנתונים
הנתיב
הנתינה
הס
הסאונד
הסאסאנית
הסב
הסבא
הסבב
הסבה
הסבון
הסבורים
הסביבה
הסביר
הסבירה
הסבירו
הסבירות
הסבל
הסבר
הסברא
הסברה
הסברים
הסברתי
הסגול
הסגולה
הסגור
הסגירה
הסגל
הסגנון
הסגר
הסדיר
הסדירה
הסדנה
הסדר
הסדרה
הסדרות
הסדרי
הסדרים
הסדרת
הסהר
הסובב
הסובבים
הסובייטי
הסובייטיות
הסובייטיים
הסובייטים
הסובייטית
הסובל
הסובלים
הסובלנות
הסוברים
הסוג
הסוגיא
הסוגיה
הסוגיות
הסוגים
הסוד
הסודות
הסודי
הסודית
הסוהר
הסוואה
הסוחר
הסוחרים
הסוכה
הסוכות
הסוכן
הסוכנות
הסוכנים
הסוכר
הסולו
הסולטאן
הסולטן
הסוללה
הסוללות
הסולם
הסולן
הסוס
הסוסים
הסוף
הסופה
הסופי
הסופיים
הסופית
הסופר
הסופרים
הסופרת
הסוציאל
הסוציאליזם
הסוציאליסטי
הסוציאליסטים
הסוציאליסטית
הסוציאלית
הסורי
הסורים
הסורית
הסחורה
הסחורות
הסחר
הסט
הסטודיו
הסטודנט
הסטודנטים
הסטטוס
הסטטיסטיקה
הסטנדרטי
הסטנדרטית
הסטרא
הסטרימינג
הסיבה
הסיבוב
הסיבות
הסידור
הסיווג
הסיום
הסיומת
הסיוע
הסיור
הסייבר
הסיירת
הסיכוי
הסיכויים
הסיכום
הסיכון
הסיכונים
הסילון
הסימון
הסימן
הסימנים
הסימפוניה
הסימפונית
הסימפטומים
הסינגל
הסינגלים
הסיני
הסינים
הסינית
הסיסמה
הסיעה
הסיעות
הסיפוח
הסיפון
הסיפור
הסיפורים
הסיק
הסיר
הסירה
הסירו
הסירות
הסך
הסכום
הסכומים
הסכים
הסכימה
הסכימו
הסכין
הסכך
הסכם
הסכמה
הסכמות
הסכמי
הסכמים
הסכמת
הסכמתו
הסכמתם
הסכנה
הסכנות
הסכסוך
הסכר
הסל
הסלאוקית
הסלג
הסלטיקס
הסלים
הסלע
הסלעים
הסם
הסמ
הסמוך
הסמוכה
הסמוכות
הסמוכים
הסמיך
הסמיכה
הסמיכו
הסמים
הסמינר
הסמכה
הסמכויות
הסמכות
הסמל
הסמלים
הסן
הסנאט
הסנאטור
הסנאטורים
הסנדל
הסנדלר
הסנה
הסנהדרין
הסנטר
הסניף
הסנקציות
הסעד
הסעה
הסעודה
הסעודי
הסעודית
הסעיף
הסעיפים
הסער
הסערה
הסף
הספד
הספורט
הספורטאים
הספורטיבית
הספיישל
הספין
הספינה
הספינות
הספיק
הספיקה
הספיקו
הספיקות
הספירה
הספירות
הספנות
הספסל
הספציפי
הספציפית
הספק
הספקטרום
הספקת
הספר
הספרדי
הספרדיות
הספרדים
הספרדית
הספרה
הספרות
הספרותי
הספרותית
הספרטנים
הספרי
הספריה
הספריות
הספרייה
הספרים
הסצנה
הסצנות
הסקוטי
הסקוטים
הסקוטית
הסקי
הסקר
הסקרים
הסקריפט
הסר
הסרבי
הסרבים
הסרבית
הסרה
הסרט
הסרטון
הסרטונים
הסרטים
הסרטן
הסרת
הסתבר
הסתברות
הסתגלות
הסתדרות
הסתה
הסתיו
הסתייגות
הסתיים
הסתיימה
הסתיימו
הסתיר
הסתירה
הסתכלות
הסתכם
הסתכמו
הסתלקות
הסתם
הסתמך
הסתמכות
הסתפק
הסתר
הסתרה
הסתרים
הסתרת
הע
העבד
העבדות
העבדים
העבודה
העבודות
העביר
העבירה
העבירו
העבירות
העבר
העברה
העברות
העברי
העבריות
העבריים
העבריין
העברים
העברית
העברת
העברתו
העברתי
העגול
העגל
העגלה
העד
העדה
העדויות
העדות
העדים
העדיף
העדיפה
העדיפו
העדיפויות
העדכון
העדן
העדפה
העדפות
העדפת
העדר
העדשה
העו
העובד
העובדה
העובדות
העובדי
העובדים
העובדת
העובר
העוברים
העוברת
העודף
העוה
העוז
העוזר
העול
העולה
העולות
העולים
העולם
העולמות
העולמי
העולמים
העולמית
העומד
העומדות
העומדים
העומדת
העומס
העומק
העומר
העון
העונה
העונות
העוני
העונש
העונשים
העונשין
העוסק
העוסקות
העוסקים
העוסקת
העוף
העופות
העוצמה
העוצר
העוקב
העוקבת
העוקץ
העור
העורב
העורך
העורכים
העורף
העורק
העורקים
העושה
העושים
העושר
העות
העותרים
העז
העזבון
העזה
העזים
העזר
העזרה
העט
העטיפה
העטלף
העטרה
העי
העיבוד
העיבור
העיגול
העיד
העידה
העידו
העידן
העיוור
העיון
העיט
העיטור
העיטורים
העיירה
העיירות
העיכוב
העיכול
העילה
העילית
העימות
העימותים
העין
העיניים
העינים
העיסה
העיסוק
העיצוב
העיצום
העיצורים
העיקר
העיקרון
העיקרי
העיקריות
העיקריים
העיקרים
העיקרית
העיר
העיראקי
העיראקית
העירוב
העירוני
העירוניים
העירונית
העיריה
העיריות
העירייה
העיתון
העיתונאי
העיתונאים
העיתונאית
העיתונות
העיתונים
העכביש
העכבר
העכו
העכשווי
העכשווית
העל
העלאה
העלאת
העלה
העלו
העלויות
העלול
העלולה
העלולים
העלות
העליה
העליון
העליונה
העליונות
העליונים
העליות
העלייה
העלילה
העלילתי
העלים
העליתי
העלם
העלמה
העלמין
העלתה
העם
העמדה
העמדות
העמדת
העמוד
העמודים
העמוק
העמוקה
העמותה
העמותות
העמיד
העמידה
העמידו
העמים
העמית
העמל
העממי
העממית
העמק
העמקים
הענבים
הענוה
העני
העניים
העניין
העניינים
הענין
הענינים
העניק
העניקה
העניקו
הענישה
הענן
העננים
הענף
הענפים
הענק
הענקים
הענקית
הענקת
העסיק
העסק
העסקאות
העסקה
העסקי
העסקיים
העסקים
העסקית
העסקת
העסקתו
העפיל
העפילה
העפילו
העפלה
העפר
העץ
העצב
העצבים
העצה
העצום
העצומה
העצור
העצורים
העצים
העצם
העצמאות
העצמאי
העצמאיים
העצמאית
העצמות
העצמי
העצמית
העצר
העצרת
העקורים
העקרון
העקרונות
העקרונית
הערב
הערבה
הערבות
הערבי
הערביות
הערביים
הערבים
הערבית
הערה
הערובה
הערוה
הערוך
הערוץ
הערוצים
הערות
העריות
העריך
העריכה
העריכו
העריכות
הערים
העריץ
הערך
הערכה
הערכות
הערכים
הערכת
הערל
הערלה
הערעור
הערפדים
הערפל
הערר
הערת
העשה
העשוי
העשויה
העשויות
העשויים
העשור
העשורים
העשיה
העשייה
העשיר
העשירה
העשירות
העשירי
העשירים
העשירית
העשן
העשר
העשרה
העשרים
העת
העתודה
העתיד
העתידה
העתידי
העתידיים
העתידית
העתיק
העתיקה
העתיקו
העתיקות
העתיקים
העתירה
העתק
העתקה
העתקים
העתקת
הפ
הפאה
הפאזה
הפאן
הפאנצר
הפאנק
הפאר
הפאראלימפיים
הפארק
הפארקים
הפגין
הפגינו
הפגיעה
הפגיעות
הפגישה
הפגם
הפגנה
הפגנות
הפגנת
הפדיון
הפדרלי
הפדרליים
הפדרלית
הפדרציה
הפה
הפואמה
הפוגה
הפוגע
הפוטבול
הפוטנציאל
הפוך
הפוכה
הפולחן
הפוליטי
הפוליטיות
הפוליטיים
הפוליטיקאי
הפוליטיקאים
הפוליטיקה
הפוליטית
הפולמוס
הפולני
הפולנים
הפולנית
הפולשים
הפונה
הפונים
הפונקציה
הפונקציות
הפוסט
הפוסקים
הפועל
הפועלות
הפועלים
הפועלת
הפופ
הפופולרי
הפופולריות
הפופולריים
הפופולרית
הפורה
הפורום
הפורטוגזי
הפורטוגזים
הפורטוגזית
הפורטוגלי
הפורטוגלית
הפורטל
הפורטלים
הפוריות
הפורים
הפורמולה
הפורמט
הפורנוגרפיה
הפורענות
הפורש
הפושעים
הפותח
הפותחת
הפזמון
הפזמונים
הפחד
הפחות
הפחם
הפחמן
הפחת
הפחתה
הפחתת
הפטור
הפטיש
הפטנט
הפטנטים
הפטריארך
הפי
הפיגוע
הפיגועים
הפיוט
הפיות
הפיזי
הפיזיים
הפיזיקאי
הפיזיקה
הפיזית
הפיילוט
הפייסבוק
הפיך
הפיכה
הפיכת
הפיכתה
הפיכתו
הפיל
הפילה
הפילהרמונית
הפילוג
הפילוסוף
הפילוסופיה
הפילוסופים
הפילוסופית
הפילים
הפיליפינים
הפין
הפינה
הפינוי
הפיני
הפינים
הפינית
הפיננסי
הפיננסיים
הפיננסית
הפיס
הפיסול
הפיץ
הפיצה
הפיצוי
הפיצויים
הפיצול
הפיצוץ
הפיק
הפיקדון
הפיקה
הפיקו
הפיקוד
הפיקוח
הפיראטים
הפירוט
הפירוק
הפירוש
הפירושים
הפירות
הפירמידה
הפירעון
הפיתוח
הפך
הפכה
הפכו
הפלא
הפלאוליתית
הפלאות
הפלאש
הפלג
הפלגה
הפלגים
הפלדה
הפלה
הפלוגה
הפלות
הפלט
הפלטפורמה
הפלי
הפליג
הפליגה
הפליגו
הפליטה
הפליטים
הפלייאוף
הפלילי
הפלילית
הפליסטוקן
הפלישה
הפלמ
הפלסטיני
הפלסטיניים
הפלסטינים
הפלסטינית
הפלשתים
הפלת
הפמיניזם
הפמיניסטית
הפן
הפנאי
הפנה
הפנוי
הפנטום
הפנטזיה
הפניה
הפניות
הפנייה
הפנים
הפנימי
הפנימיות
הפנימיים
הפנימית
הפניקס
הפנסיה
הפנקס
הפנתר
הפס
הפסגה
הפסגות
הפסד
הפסדים
הפסול
הפסולים
הפסולת
הפסוק
הפסוקים
הפסח
הפסחא
הפסטיבל
הפסיד
הפסידה
הפסידו
הפסיכולוג
הפסיכולוגי
הפסיכולוגיה
הפסיכולוגית
הפסים
הפסיפס
הפסיק
הפסיקה
הפסיקו
הפסל
הפסלים
הפסנתר
הפסנתרן
הפסק
הפסקה
הפסקול
הפסקות
הפסקת
הפעולה
הפעולות
הפעיל
הפעילה
הפעילו
הפעילויות
הפעילות
הפעילים
הפעל
הפעלה
הפעלת
הפעלתו
הפעם
הפעמון
הפעמונים
הפעמים
הפער
הפערים
הפצה
הפצוע
הפצועים
הפציעה
הפצצה
הפצצות
הפצצת
הפצת
הפקדון
הפקדת
הפקה
הפקודה
הפקודות
הפקולטה
הפקות
הפקחים
הפקיד
הפקידים
הפקעת
הפקר
הפקת
הפר
הפרא
הפרברים
הפרדה
הפרדס
הפרדת
הפרה
הפרו
הפרובינציה
הפרובינציות
הפרוגרסיבית
הפרווה
הפרוטוקול
הפרוטוקולים
הפרוטסטנטים
הפרוטסטנטית
הפרויקט
הפרויקטים
הפרוכת
הפרוסי
הפרוע
הפרופיל
הפרופסור
הפרושים
הפרות
הפרח
הפרחים
הפרט
הפרטה
הפרטי
הפרטיות
הפרטיזנים
הפרטיים
הפרטים
הפרטית
הפרי
הפרידה
הפריה
הפריחה
הפריט
הפריטים
הפריע
הפריצה
הפריש
הפרישה
הפרלמנט
הפרלמנטרית
הפרמטר
הפרמטרים
הפרמייר
הפרנסה
הפרנקים
הפרס
הפרסום
הפרסומים
הפרסומת
הפרסי
הפרסים
הפרסית
הפרעה
הפרעון
הפרעות
הפרעת
הפרק
הפרקים
הפרקליט
הפרקליטות
הפרש
הפרשה
הפרשות
הפרשי
הפרשיות
הפרשים
הפרשנות
הפרשנים
הפרשת
הפרת
הפשוט
הפשוטה
הפשוטים
הפשט
הפשיטה
הפשיסטית
הפשיעה
הפשע
הפשרה
הפת
הפתוח
הפתוחה
הפתוחים
הפתח
הפתחים
הפתיח
הפתיחה
הפתילה
הפתעה
הפתרון
הפתרונות
הצ
הצאן
הצאצאים
הצאר
הצב
הצבא
הצבאות
הצבאי
הצבאיות
הצבאיים
הצבאית
הצבור
הצבי
הצבים
הצביע
הצביעה
הצביעו
הצבע
הצבעה
הצבעות
הצבעים
הצבעת
הצבעתי
הצבת
הצגה
הצגות
הצגת
הצד
הצדדים
הצדדין
הצדוקים
הצדיק
הצדיקים
הצדק
הצדקה
הצה
הצהוב
הצהובה
הצהיר
הצהירה
הצהירו
הצהרה
הצהרות
הצהריים
הצהרים
הצהרת
הצו
הצואה
הצואר
הצוואה
הצוואר
הצוות
הצוותים
הצוללות
הצוללת
הצום
הצומח
הצומת
הצופה
הצופים
הצופן
הצור
הצורה
הצורות
הצורך
הצטברות
הצטיין
הצטיינות
הצטמצם
הצטמצמה
הצטרף
הצטרפה
הצטרפו
הצטרפות
הצטרפותה
הצטרפותו
הצי
הציב
הציבה
הציבו
הציבור
הציבורי
הציבוריות
הציבוריים
הציבורית
הציג
הציגה
הציגו
הציד
הצידה
הציוד
הציווי
הציוויליזציה
הציון
הציונות
הציוני
הציוניות
הציוניים
הציונים
הציונית
הציור
הציורים
הציטוט
הציטוטים
הצייד
הצייר
הציירים
הציל
הצילה
הצילו
הצילום
הצילומים
הצינור
הצינורות
הציע
הציעה
הציעו
הציפור
הציפורים
הציפיות
הציץ
הציצית
הציר
הצירוף
הצירים
הצל
הצלב
הצלבני
הצלבנים
הצלבנית
הצלה
הצלחה
הצלחות
הצלחת
הצלחתה
הצלחתו
הצלחתי
הצלחתם
הצליח
הצליחה
הצליחו
הצליל
הצלילה
הצלילים
הצללים
הצלם
הצלמים
הצלע
הצלעות
הצלת
הצמד
הצמדה
הצמוד
הצמח
הצמחייה
הצמחים
הצמיחה
הצמצום
הצמר
הצנזורה
הצנחנים
הצעד
הצעדים
הצעה
הצעות
הצעיר
הצעירה
הצעירות
הצעירים
הצער
הצעת
הצעתו
הצעתי
הצפה
הצפוי
הצפויה
הצפון
הצפוני
הצפוניים
הצפונית
הצפיות
הצפייה
הצפיפות
הצפנה
הצצה
הצר
הצרה
הצרות
הצריח
הצריך
הצריכה
הצריכו
הצרכים
הצרכן
הצרכנים
הצרעת
הצרפתי
הצרפתיות
הצרפתיים
הצרפתים
הצרפתית
הק
הקאמרי
הקאמרית
הקאנטרי
הקב
הקבה
הקבוע
הקבועה
הקבועות
הקבועים
הקבוצה
הקבוצות
הקבוצתי
הקבוצתית
הקבורה
הקבורים
הקבינט
הקביעה
הקבלה
הקבלות
הקבלן
הקבע
הקבצים
הקבר
הקברות
הקברים
הקברניט
הקדום
הקדומה
הקדומות
הקדומים
הקדוש
הקדושה
הקדושות
הקדושים
הקדושין
הקדים
הקדימה
הקדימו
הקדירה
הקדיש
הקדישה
הקדישו
הקדם
הקדמה
הקדמון
הקדמונים
הקדמות
הקדמי
הקדמיות
הקדמית
הקדמת
הקדנציה
הקדרה
הקדש
הקדשה
הקדשים
הקהילה
הקהילות
הקהילתי
הקהילתית
הקהל
הקו
הקואורדינטות
הקואליציה
הקובע
הקובעת
הקובץ
הקוד
הקודם
הקודמות
הקודמים
הקודמת
הקודש
הקודשים
הקווים
הקוונטים
הקווקז
הקוטב
הקול
הקולג
הקולוניאלי
הקולוניאליזם
הקולוניאלית
הקולונל
הקולורדו
הקולות
הקולנוע
הקולנועי
הקולנועית
הקומדיה
הקומה
הקומונה
הקומוניזם
הקומוניסטי
הקומוניסטים
הקומוניסטית
הקומות
הקומי
הקומיקס
הקומית
הקומנדו
הקומץ
הקונגרס
הקונה
הקונטיננטלי
הקונטרס
הקונסול
הקונסוליה
הקונסולרי
הקונספט
הקונסרבטוריון
הקונפדרציה
הקונפדרציות
הקונפליקט
הקונצ
הקונצנזוס
הקונצרט
הקונצרטים
הקוסם
הקוסמים
הקוף
הקופה
הקופות
הקופים
הקופסה
הקור
הקורא
הקוראים
הקוראן
הקוראת
הקורבן
הקורבנות
הקורה
הקורונה
הקורות
הקוריאני
הקוריאנית
הקורס
הקורסים
הקורפוס
הקושי
הקושיא
הקושרים
הקטגוריה
הקטגוריות
הקטור
הקטורת
הקטין
הקטלוג
הקטן
הקטנה
הקטנות
הקטנים
הקטנת
הקטע
הקטעים
הקטר
הקטרה
הקטרת
הקיבה
הקיבוץ
הקיבוצים
הקיבוצית
הקידוש
הקידושין
הקיום
הקיטור
הקיים
הקיימות
הקיימים
הקיימת
הקילו
הקים
הקימה
הקימו
הקיסר
הקיסרות
הקיסרי
הקיסרים
הקיסרית
הקיף
הקיפו
הקיץ
הקיצוני
הקיצוניים
הקיצונית
הקיר
הקירור
הקירות
הקישור
הקישורים
הקל
הקלאסי
הקלאסיים
הקלאסית
הקלה
הקלו
הקלות
הקלט
הקלטה
הקלטות
הקלטת
הקליט
הקליטה
הקליטו
הקלים
הקליפ
הקליפה
הקליפות
הקללה
הקלע
הקלעים
הקלף
הקלפי
הקלפים
הקמה
הקמח
הקמפוס
הקמפיין
הקמת
הקמתה
הקמתו
הקן
הקנאה
הקנדי
הקנדית
הקנה
הקניון
הקניות
הקנייה
הקניין
הקניית
הקנים
הקנין
הקנס
הקנצלר
הקסום
הקסם
הקסמים
הקערה
הקפאת
הקפדה
הקפה
הקפות
הקפטן
הקפיד
הקפידו
הקפיטול
הקפיטליזם
הקפיצה
הקפלה
הקפת
הקץ
הקצאה
הקצאת
הקצב
הקצבה
הקצה
הקצוות
הקצין
הקצינים
הקציר
הקצר
הקצרה
הקצרים
הקר
הקראים
הקרב
הקרבה
הקרבות
הקרבית
הקרבן
הקרבנות
הקרבת
הקרדיט
הקרדינל
הקרה
הקרואטי
הקרואטים
הקרואטית
הקרוב
הקרובה
הקרובות
הקרובים
הקרוי
הקרויה
הקרויים
הקרום
הקרון
הקרח
הקרחון
הקרחונים
הקרטיקון
הקרי
הקריאה
הקריב
הקריבו
הקריבי
הקריביים
הקריה
הקריטריון
הקריטריונים
הקריירה
הקרינה
הקרמלין
הקרן
הקרנה
הקרנות
הקרניים
הקרנת
הקרע
הקרפטים
הקרקס
הקרקע
הקרקעות
הקרקעית
הקרשים
הקש
הקשב
הקשה
הקשו
הקשור
הקשורה
הקשורות
הקשורים
הקשות
הקשיים
הקשים
הקשר
הקשרים
הקשת
הקשתות
הקתדרה
הקתדרלה
הקתולי
הקתולים
הקתולית
הר
הרא
הראב
הראה
הראו
הראוי
הראויה
הראויים
הראות
הראי
הראיה
הראיון
הראיות
הראייה
הראל
הראפ
הראפר
הראש
הראשון
הראשונה
הראשונות
הראשוני
הראשוניים
הראשונים
הראשונית
הראשי
הראשיות
הראשיים
הראשים
הראשית
הראתה
הרב
הרבה
הרבו
הרבות
הרבי
הרבייה
הרבים
הרביעי
הרביעייה
הרביעית
הרבית
הרבנות
הרבני
הרבניים
הרבנים
הרבנית
הרבעים
הרברט
הרג
הרגה
הרגו
הרגיל
הרגילה
הרגילות
הרגילים
הרגימנט
הרגיש
הרגישה
הרגישו
הרגישות
הרגל
הרגלי
הרגליים
הרגלים
הרגע
הרגש
הרגשה
הרגשות
הרגשי
הרגשית
הרגשת
הרגשתי
הרד
הרדב
הרדיו
הרדינג
הרדיקלי
הרדמה
הרה
הרהור
הרהורים
הרואה
הרואים
הרוב
הרובאים
הרובה
הרובוט
הרובע
הרוג
הרוגי
הרוגים
הרודוטוס
הרווארד
הרווח
הרווחה
הרווחים
הרווחת
הרוויזיוניסטית
הרוויח
הרוזן
הרוזנת
הרוח
הרוחב
הרוחות
הרוחני
הרוחניות
הרוחניים
הרוחנית
הרוטב
הרויאל
הרוכב
הרוכבים
הרולד
הרולינג
הרומאי
הרומאים
הרומאית
הרומח
הרומי
הרומיים
הרומית
הרומן
הרומנטי
הרומנטית
הרומני
הרומנים
הרומנית
הרוסי
הרוסיות
הרוסיים
הרוסים
הרוסית
הרוע
הרועה
הרועים
הרופא
הרופאים
הרוצה
הרוצח
הרוצחים
הרוק
הרוקח
הרוקי
הרושם
הרז
הרחב
הרחבה
הרחבות
הרחבת
הרחוב
הרחובות
הרחוק
הרחוקה
הרחוקים
הרחיב
הרחיבה
הרחיבו
הרחיק
הרחם
הרחמים
הרחק
הרחקה
הרחקת
הרטמן
הרי
הריא
הריאה
הריאות
הריאלי
הריאליטי
הריב
הריבוי
הריבונות
הריבית
הריגה
הריגול
הריגת
הריוח
הריון
הריח
הריטב
הרייך
הריין
הריינג
הריכוז
הרים
הרימון
הריני
הריסה
הריסון
הריסות
הריסת
הריפוי
הריצה
הריק
הריקוד
הריקודים
הרישוי
הרישום
הרישומים
הרישיון
הרך
הרכב
הרכבה
הרכבות
הרכבי
הרכבים
הרכבת
הרכוש
הרכז
הרכיב
הרכיבה
הרכיבים
הרכישה
הרכס
הרכש
הרלוונטי
הרלוונטיות
הרלוונטיים
הרלוונטית
הרם
הרמ
הרמב
הרמה
הרמוני
הרמוניה
הרמות
הרמז
הרמזים
הרמטכ
הרמיקס
הרמן
הרמס
הרמת
הרן
הרנסאנס
הרס
הרסו
הרע
הרעב
הרעה
הרעות
הרעיון
הרעיונות
הרעים
הרעלת
הרעש
הרף
הרפאים
הרפואה
הרפואי
הרפואיות
הרפואיים
הרפואית
הרפובליקה
הרפובליקות
הרפובליקני
הרפובליקנים
הרפובליקנית
הרפורמה
הרפורמות
הרפורמית
הרפורמציה
הרפז
הרפר
הרפתקאות
הרפתקאותיו
הרפתקה
הרץ
הרצאה
הרצאות
הרצה
הרצוג
הרצוי
הרצויה
הרצון
הרצועה
הרצועות
הרצח
הרצי
הרציחות
הרציף
הרצל
הרצליה
הרצף
הרצפה
הרקולס
הרקטות
הרקיע
הרקמה
הרקע
הררי
הרריים
הרש
הרשאה
הרשאות
הרשאת
הרשב
הרשה
הרשויות
הרשום
הרשומה
הרשומות
הרשומים
הרשות
הרשיון
הרשימה
הרשימות
הרשל
הרשם
הרשמה
הרשמי
הרשמיות
הרשמיים
הרשמית
הרשע
הרשעה
הרשעים
הרשעתו
הרשקוביץ
הרשת
הרשתות
הש
השאה
השאול
השאיפה
השאיר
השאירה
השאירו
השאלה
השאלות
השאר
השארת
השב
השבה
השבויים
השבוע
השבועה
השבועון
השבועות
השבועי
השבועית
השבות
השבח
השבחה
השבט
השבטים
השבי
השביל
השבים
השביעי
השביעית
השבירה
השביתה
השבע
השבעה
השבעים
השבר
השברים
השבת
השגה
השגות
השגחה
השגחתו
השגיאה
השגריר
השגרירות
השגת
השד
השדה
השדות
השדים
השדרה
השהות
השהייה
השו
השואה
השואל
השובר
השוד
השודדים
השוה
השוהים
השוו
השוואה
השוואת
השוודי
השוודים
השוודית
השווה
השווי
השוויון
השווייצרי
השווייצרית
השווקים
השוחט
השוטף
השוטפת
השוטר
השוטרים
השוכן
השוכנים
השוכנת
השוכר
השולח
השולחן
השולט
השולטים
השולטת
השוליים
השום
השומה
השומן
השומע
השומעים
השומר
השומרון
השומרונים
השומרים
השונה
השונות
השוני
השונים
השועל
השוער
השופט
השופטים
השופטת
השופר
השוק
השור
השורה
השורות
השורש
השורשים
השושלת
השותף
השותפות
השותפים
השותפין
השחור
השחורה
השחורות
השחורים
השחזור
השחי
השחיטה
השחייה
השחיין
השחיתות
השחמט
השחקים
השחקן
השחקניות
השחקנים
השחקנית
השחר
השחרור
השחתה
השחתות
השטח
השטחים
השטן
השטר
השטרות
השי
השיא
השיאים
השיב
השיבה
השיבו
השיג
השיגה
השיגו
השיגור
השידור
השידורים
השיווק
השיח
השיחה
השיחות
השיט
השיטה
השיטות
השייח
השייטת
השייך
השייכות
השייכים
השייכת
השיירה
השיירות
השיכון
השילוב
השילוח
השילוש
השימור
השימוש
השימושים
השינה
השינוי
השינויים
השיניים
השיעור
השיעורים
השיעים
השיער
השיפוט
השיפוטית
השיפוץ
השיפור
השיק
השיקה
השיקולים
השיקום
השיר
השירה
השירות
השירותים
השירים
השישה
השישי
השישים
השישית
השיתוף
השכבה
השכבות
השכונה
השכונות
השכיח
השכיחות
השכינה
השכיר
השכירות
השכל
השכלה
השכלי
השכלית
השכלתו
השכם
השכן
השכנה
השכנות
השכנים
השכר
השל
השלב
השלבים
השלג
השלד
השלום
השלוש
השלושה
השלושים
השלחין
השלחן
השלט
השלטון
השלטונות
השלטונית
השלטת
השליח
השליחות
השליחים
השליט
השליטה
השליטים
השליך
השליכו
השלילה
השלילי
השליליות
השלילית
השלים
השלימה
השלימו
השלימות
השליש
השלישי
השלישייה
השלישית
השלכה
השלכות
השלכת
השלל
השלם
השלמה
השלמות
השלמים
השלמת
השלשה
השם
השמאי
השמאל
השמאלי
השמאלית
השמד
השמדה
השמדת
השמונה
השמונים
השמועה
השמועות
השמור
השמורה
השמות
השמח
השמחה
השמטה
השמיד
השמידו
השמיט
השמיטה
השמיים
השמים
השמימה
השמיני
השמינית
השמיע
השמיעה
השמירה
השמן
השמע
השמעה
השמעות
השמעת
השמצה
השמר
השמרני
השמרנים
השמרנית
השמש
השמשות
השן
השנאה
השנה
השנהב
השנוי
השני
השניה
השניות
השנייה
השניים
השנים
השנית
השנתי
השנתיים
השנתית
השעבוד
השעה
השעון
השעורים
השעות
השעיר
השער
השערה
השערות
השערים
השערת
השעשועים
השף
השפה
השפות
השפחה
השפיע
השפיעה
השפיעו
השפל
השפלה
השפע
השפעה
השפעות
השפעת
השפעתה
השפעתו
השפעתם
השק
השקה
השקט
השקיה
השקיע
השקיעה
השקיעו
השקל
השקלים
השקעה
השקעות
השקעת
השקפה
השקפות
השקפותיו
השקפת
השקפתו
השקר
השקת
השר
השראה
השרה
השרון
השרות
השרידים
השריון
השרים
השריעה
השריף
השריפה
השריר
השרירים
השרפה
השרץ
השרשים
השרשרת
השרת
השש
הששי
השתא
השתדל
השתחרר
השתי
השתייה
השתייך
השתייכה
השתייכו
השתייכות
השתיים
השתים
השתיקה
השתכנע
השתכנעתי
השתלב
השתלבו
השתלט
השתלטה
השתלטו
השתלטות
השתלם
השתלמות
השתלשלות
השתלת
השתמש
השתמשה
השתמשו
השתן
השתנה
השתנו
השתנות
השתנתה
השתפר
השתקע
השתתף
השתתפה
השתתפו
השתתפות
השתתפותה
השתתפותו
השתתפותם
הת
התא
התאבד
התאבדות
התאגדות
התאגיד
התאגידים
התאהב
התאוה
התאום
התאומים
התאונה
התאורה
התאורטי
התאוריה
התאוריות
התאחדה
התאחדו
התאחדות
התאים
התאימו
התאמה
התאמות
התאמן
התאמת
התאמתו
התאפיין
התאפיינה
התאפיינו
התאפשר
התאפשרה
התארגנו
התארגנות
התארח
התארחה
התארחו
התאריך
התאריכים
התארים
התבאר
התבואה
התבונה
התבוננות
התבוסה
התבטא
התבטאה
התבטאויות
התביעה
התביעות
התבלט
התבניות
התבנית
התבסס
התבססה
התבססו
התבססות
התבצע
התבצעה
התבצעו
התבקש
התברר
התבשיל
התגבר
התגברה
התגברות
התגבשה
התגובה
התגובות
התגורר
התגוררה
התגוררו
התגייס
התגייסו
התגלה
התגלו
התגלות
התגלית
התגלתה
התגמול
התגמולים
התגרש
התגרשו
התדירות
התדרים
התה
התהוות
התהום
התהילה
התהליך
התהליכים
התהלך
התו
התואר
התובלה
התובע
התובעים
התובענה
התודה
התודעה
התוודע
התווים
התווך
התוך
התוכן
התוכנה
התוכניות
התוכנית
התומך
התומכות
התומכים
התומכת
התוס
התוספ
התוספות
התוספת
התוספתא
התועלת
התופעה
התופעות
התוצאה
התוצאות
התוצר
התוצרת
התוקף
התוקפים
התור
התורה
התורם
התורמים
התורן
התורני
התורנית
התושבים
התותח
התותחים
התותחנים
התזה
התזונה
התזמורת
התחבורה
התחבר
התחברו
התחברות
התחדשות
התחולל
התחוללה
התחוללו
התחום
התחומים
התחושה
התחזוקה
התחזק
התחזקה
התחזקות
התחיה
התחייב
התחייבה
התחייבו
התחייבויות
התחייבות
התחייה
התחיל
התחילה
התחילו
התחלה
התחלת
התחלתי
התחמושת
התחממות
התחנה
התחנות
התחנך
התחקיר
התחרה
התחרו
התחרויות
התחרות
התחרתה
התחשבות
התחתון
התחתונה
התחתונות
התחתונים
התחתית
התחתן
התחתנה
התחתנו
התיאום
התיאור
התיאוריה
התיאורים
התיאטרון
התיבה
התיבות
התיידד
התייחס
התייחסה
התייחסו
התייחסויות
התייחסות
התייעצות
התייצב
התיירות
התיירים
התיישב
התיישבה
התיישבו
התיישבות
התיכון
התיכונה
התיכוניים
התימני
התימנים
התינוק
התינוקות
התינוקת
התיעוד
התיעודי
התיק
התיקון
התיקונים
התיקים
התיר
התירה
התירו
התירוץ
התכוון
התכוונו
התכוונת
התכוונתי
התכונה
התכונות
התכלית
התכלת
התכנון
התכנות
התכנים
התכנית
התכנס
התכנסה
התכנסו
התכנסות
התכשיר
התל
התלבושות
התלבטות
התלהבות
התלוי
התלויה
התלויות
התלויים
התלונה
התלונות
התלונן
התלוננו
התלות
התלמוד
התלמודית
התלמיד
התלמידים
התלת
התם
התמ
התמודד
התמודדה
התמודדו
התמודדות
התמודדותו
התמוטט
התמוטטות
התמונה
התמונות
התמורה
התמורות
התמותה
התמזגה
התמזה
התמחה
התמחות
התמחותו
התמיד
התמיכה
התמכרות
התמנה
התמקד
התמקדה
התמקדו
התמקדות
התמרה
התמרון
התנ
התנא
התנאי
התנאים
התנגד
התנגדה
התנגדו
התנגדויות
התנגדות
התנגדותו
התנגדותם
התנגשויות
התנגשות
התנדב
התנדבות
התנה
התנהגויות
התנהגות
התנהגותו
התנהגותם
התנהל
התנהלה
התנהלו
התנהלות
התנהלותו
התנו
התנועה
התנועות
התנופה
התנור
התנחלויות
התנחלות
התנין
התנסות
התנע
התנצל
התנצלות
התנקשות
התסמונת
התסמינים
התסריט
התסריטאי
התעבורה
התעודה
התעודות
התעופה
התעורר
התעוררה
התעוררו
התעוררות
התעלה
התעלות
התעללות
התעלם
התעלמות
התעמולה
התעמלות
התעמת
התעניין
התעניינות
התענית
התעסוקה
התעקש
התערב
התערבות
התערובות
התערובת
התערוכה
התערוכות
התעריף
התעשיה
התעשייה
התעשייתי
התעשייתית
התעתיק
התפארת
התפוח
התפוצה
התפוצות
התפוצץ
התפוצצה
התפוצצות
התפוקה
התפטר
התפטרות
התפטרותו
התפילה
התפילות
התפילין
התפיסה
התפלגות
התפלה
התפלל
התפללו
התפעול
התפצלה
התפקוד
התפקיד
התפקידים
התפרסם
התפרסמה
התפרסמו
התפרצויות
התפרצות
התפרק
התפרקה
התפרקות
התפשט
התפשטה
התפשטו
התפשטות
התפתח
התפתחה
התפתחו
התפתחויות
התפתחות
התפתחותה
התפתחותו
התפתחותית
התצוגה
התצלום
התצפית
התקבל
התקבלה
התקבלו
התקבלתי
התקדם
התקדמה
התקדמו
התקדמות
התקדשי
התקווה
התקוממות
התקון
התקופה
התקופות
התקיים
התקיימה
התקיימו
התקין
התקינה
התקינו
התקיעה
התקיפה
התקיפות
התקלה
התקליט
התקליטים
התקן
התקנה
התקנון
התקנות
התקני
התקנים
התקנת
התקף
התקפה
התקפות
התקפי
התקפים
התקפת
התקציב
התקציבים
התקרב
התקרבו
התקרבות
התקרה
התקרית
התקשה
התקשו
התקשורת
התקשורתי
התקשר
התקשרות
התקשתה
התר
התראה
התרבויות
התרבות
התרבותי
התרבותיים
התרבותית
התרגום
התרגומים
התרגיל
התרה
התרו
התרומה
התרומות
התרופה
התרופות
התרחב
התרחבה
התרחבות
התרחש
התרחשה
התרחשו
התרחשות
התריס
התרכז
התרכזה
התרכזו
התרמית
התרנגולות
התרנגולת
התרסק
התרסקות
התרעה
התרשם
התרת
התש
התשובה
התשובות
התשוקה
התשי
התשיעי
התשיעית
התשכ
התשל
התשלום
התשלומים
התשמ
התשנ
התשס
התשע
התשעים
התשפ
התשתיות
התשתית
התת
ו
וא
ואאו
ואב
ואבא
ואבד
ואבדה
ואבי
ואבידה
ואביה
ואביהוא
ואביו
ואביי
ואבן
ואבני
ואבנים
ואברהם
ואגב
ואדוארד
ואדום
ואדוני
ואדי
ואדם
ואדרבא
ואדרבה
ואה
ואהבה
ואהבת
ואהרן
ואו
ואובדן
ואוכל
ואוכלים
ואוכלין
ואולי
ואולם
ואומר
ואומרו
ואומרים
ואומרת
ואוניברסיטת
ואוסטריה
ואוסטרליה
ואופן
ואוקימנא
ואור
ואורי
ואורך
ואורכו
ואושר
ואות
ואותה
ואותו
ואותות
ואותם
ואותן
ואז
ואזור
ואזורי
ואזורים
ואזי
ואזיל
ואזרחים
ואח
ואחד
ואחות
ואחותה
ואחותו
ואחיה
ואחיו
ואחיות
ואחר
ואחראי
ואחרות
ואחרי
ואחריה
ואחריהם
ואחריו
ואחריות
ואחרים
ואחת
ואט
ואי
ואיבד
ואיבעית
ואידי
ואידך
ואיהו
ואיזה
ואיזו
ואיחוד
ואיטליה
ואיי
ואיים
ואיך
ואיכא
ואיכות
ואיל
ואילו
ואילך
ואימא
ואין
ואינה
ואינו
ואינון
ואיני
ואינך
ואינם
ואינן
ואיננו
ואיסור
ואיפה
ואיפשר
ואיראן
ואירועים
ואירופה
ואירלנד
ואיש
ואישה
ואישור
ואישים
ואית
ואיתא
ואיתימא
ואך
ואכיל
ואכל
ואכלה
ואכלו
ואכלת
ואכן
ואכתי
ואל
ואלא
ואלה
ואלהי
ואלו
ואלון
ואלוף
ואלי
ואליבא
ואליה
ואליהו
ואליו
ואליזבת
ואלימות
ואלין
ואלכסנדר
ואלן
ואלס
ואלפי
ואלרי
ואם
ואמא
ואמאי
ואמה
ואמו
ואמונה
ואמור
ואמן
ואמנות
ואמנים
ואמנם
ואמצעי
ואמצעים
ואמר
ואמרה
ואמרו
ואמרי
ואמרינן
ואמריקה
ואמרת
ואמרתי
ואמת
ואן
ואנא
ואנג
ואנגלית
ואנדרוגינוס
ואנה
ואנו
ואנחנו
ואנטי
ואני
ואנכי
ואנן
ואנרגיה
ואנשי
ואנשיו
ואנשים
ואסור
ואסורה
ואסיה
ואסיקנא
ואסף
ואספקה
ואסר
ואסתר
ואע
ואעפ
ואף
ואפ
ואפי
ואפילו
ואפר
ואפריקה
ואפשר
ואצ
ואצל
ואקשינן
וארא
ואראה
וארבע
וארבעה
וארבעים
וארגון
וארגוני
וארגונים
וארד
וארוך
ואריה
ואריק
וארץ
וארצות
ואש
ואשה
ואשם
ואשמח
ואשר
ואשת
ואשתו
ואת
ואתא
ואתה
ואתו
ואתחנן
ואתי
ואתיא
ואתם
ואתן
ואתר
ואתרי
ואתרים
וב
ובא
ובאה
ובאו
ובאוגוסט
ובאוניברסיטת
ובאופן
ובאוקטובר
ובאותה
ובאותו
ובאזור
ובאזורים
ובאי
ובאיזה
ובאים
ובאין
ובאירופה
ובאישור
ובאליפות
ובאמנות
ובאמצע
ובאמצעות
ובאמת
ובאנגלית
ובאני
ובאפריל
ובאר
ובארץ
ובארצות
ובאשר
ובאת
ובאתר
ובב
ובבחירות
ובבימויו
ובבית
ובבתי
ובג
ובגביע
ובגדים
ובגיל
ובגין
ובגלל
ובגמ
ובגמר
ובגמרא
ובד
ובדבר
ובדברי
ובדומה
ובדין
ובדיעבד
ובדף
ובדצמבר
ובדרום
ובדרך
ובה
ובהא
ובהו
ובהווה
ובהיות
ובהכי
ובהם
ובהמה
ובהמשך
ובהן
ובהתאם
ובו
ובוב
ובודאי
ובוהו
ובוודאי
ובוים
ובונה
ובוצע
ובור
ובזה
ובזכות
ובזמן
ובחזרה
ובחינת
ובחירת
ובחלק
ובחצי
ובחר
ובטור
ובטח
ובטל
ובטלוויזיה
ובי
וביאור
וביאר
וביד
ובידו
וביה
וביוב
וביולי
וביום
וביוני
וביותר
וביחד
וביטויים
וביטול
וביטחון
וביטל
ובייחוד
וביים
וביימה
ובים
ובימוי
ובימי
ובין
ובינה
ובינואר
ובינוי
וביניהם
וביניהן
ובינתיים
וביצוע
וביצע
וביצעה
וביקורת
וביקר
וביקש
וביקשה
וביקשו
ובירושלים
ובירושלמי
ובישל
ובישראל
ובית
וביתו
וביתר
ובכ
ובכה
ובכך
ובכל
ובכלי
ובכלל
ובכללם
ובכמה
ובכן
ובכפוף
ובכתב
ובל
ובלא
ובלבד
ובלי
ובלילה
ובלשון
ובלתי
ובמ
ובמאה
ובמאי
ובמדינות
ובמדליית
ובמדרש
ובמה
ובמהלך
ובמהלכה
ובמהלכו
ובמועד
ובמזרח
ובמידה
ובמידת
ובמיוחד
ובמים
ובמלחמת
ובמסגרת
ובמסגרתו
ובמסכת
ובמספר
ובמערב
ובמקביל
ובמקום
ובמקומה
ובמקומו
ובמקומות
ובמקרה
ובמקרים
ובמרכז
ובמרץ
ובמשחה
ובמשחק
ובמשך
ובמשנה
ובן
ובנ
ובנבחרת
ובנה
ובנו
ובנובמבר
ובנוסף
ובנות
ובנותיו
ובני
ובניגוד
ובניה
ובניהם
ובניו
ובנייה
ובניין
ובניית
ובנים
ובנימין
ובס
ובסדרה
ובסוף
ובסופה
ובסופו
ובסי
ובסיום
ובסיומה
ובסיוע
ובסימן
ובסיס
ובסך
ובסמוך
ובספטמבר
ובספר
ובספרות
ובספרי
ובסרט
ובע
ובעבור
ובעבר
ובעברית
ובעד
ובעוד
ובעולם
ובעונה
ובעונת
ובעזרת
ובעי
ובעיות
ובעינן
ובעיקר
ובעיר
ובעל
ובעלה
ובעלות
ובעלי
ובעלת
ובענין
ובעצם
ובעקבות
ובעקבותיה
ובעקבותיו
ובערב
ובערך
ובעת
ובפ
ובפברואר
ובפני
ובפעם
ובפרט
ובפרס
ובפרק
ובפרשת
ובצורה
ובצפון
ובצרפת
ובקיץ
ובקיצור
ובקנדה
ובקר
ובקרב
ובקרה
ובקש
ובר
וברא
ובראש
ובראשה
ובראשו
ובראשונה
ובראשית
ובראשם
ובראשן
וברוב
וברוך
וברור
וברח
וברחבי
וברי
ובריאות
ובריטניה
וברייתא
ובריצת
ובריש
וברית
וברכה
וברכת
ובש
ובשאר
ובשביל
ובשבת
ובשו
ובשינויים
ובשיתוף
ובשל
ובשלב
ובשם
ובשנה
ובשנות
ובשני
ובשנים
ובשנת
ובשעה
ובשעת
ובשר
ובשתי
ובת
ובתגובה
ובתה
ובתו
ובתוך
ובתוכו
ובתוכם
ובתום
ובתוס
ובתוספתא
ובתחילת
ובתי
ובתים
ובתלמוד
ובתמורה
ובתנאי
ובתנאים
ובתפקיד
ובתקופה
ובתקופת
ובתר
ובתרבות
ובתשו
ובתשובת
וג
וגאס
וגבורה
וגבי
וגביע
וגבר
וגברה
וגברים
וגדוד
וגדול
וגדולה
וגדולי
וגדולים
וגדל
וגדלה
וגדר
וגה
וגו
וגובה
וגובהו
וגובר
וגוברת
וגודל
וגומר
וגוף
וגופו
וגופים
וגורם
וגורמים
וגורמת
וגז
וגזר
וגידול
וגילה
וגילו
וגילוי
וגילם
וגם
וגמר
וגן
וגנר
וגר
וגרם
וגרמה
וגרמו
וגרמניה
וגרסינן
וד
ודא
ודאג
ודאות
ודאי
ודאית
ודבר
ודברי
ודבריו
ודברים
ודבש
ודגים
ודה
ודו
ודוד
ודווקא
ודוחק
ודומה
ודוק
ודוקא
ודור
ודורג
ודורש
ודחה
ודחי
ודי
ודיו
ודיווח
ודייוויד
ודייק
ודילמא
ודין
ודינו
ודיני
ודית
ודל
ודלא
ודלמא
ודם
ודמויות
ודמות
ודמי
ודן
ודני
ודניאל
ודע
ודעות
ודעת
ודעתו
ודף
ודר
ודרום
ודרך
ודרכו
ודרכי
ודרש
ודרשו
ודרשינן
ודת
וה
והא
והאב
והאדם
והאזור
והאחד
והאחר
והאחרון
והאחרונה
והאחרונים
והאי
והאידנא
והאימפריה
והאיש
והאישה
והאם
והאמונה
והאמנות
והאמר
והאמת
והאנשים
והאריך
והארץ
והאש
והאשה
והב
והבא
והבטיח
והבטיחות
והביא
והביאה
והביאו
והביטחון
והבין
והביע
והבית
והבל
והבלתי
והבמאי
והבן
והבנה
והבנות
והבניה
והבנייה
והבעל
והבעלים
והבקיע
והבריאות
והבשר
והג
והגבורה
והגדול
והגוף
והגיע
והגיעה
והגיעו
והגיש
והגישה
והגליל
והגם
והגנה
והגנים
והגנת
והגר
והד
והדבר
והדברים
והדין
והדעת
והדר
והדרך
והדרכה
והה
וההגנה
וההוא
וההיא
וההיסטוריה
והו
והוא
והואיל
והובא
והוביל
והובילה
והוד
והודאה
והודה
והודו
והודחה
והודיע
והוה
והוו
והוחלט
והוחלף
והוי
והויא
והוכיח
והולחן
והולך
והולכים
והולכין
והולכת
והולנד
והונגריה
והוסיף
והוסיפה
והוסיפו
והוסמך
והוספת
והועבר
והועברו
והועלה
והופיע
והופיעה
והופך
והופכים
והופכת
והופץ
והופק
והוצא
והוצאה
והוצאות
והוצאת
והוצב
והוצג
והוציא
והוציאה
והוציאו
והוצרך
והוקם
והוקמה
והוקמו
והוקרה
והוראה
והוראות
והורג
והורה
והותיר
והותר
והותרה
והזה
והזהיר
והזכיר
והזמן
והחברה
והחוק
והחזיק
והחזיר
והחזירה
והחזירו
והחיה
והחיים
והחינוך
והחכמה
והחל
והחלה
והחלו
והחליט
והחליטה
והחליטו
והחליף
והחלל
והחלק
והט
והטוב
והטור
והטיל
והטיפול
והטכנולוגיה
והטלוויזיה
והטעם
והי
והיא
והיאך
והיה
והיהודים
והיו
והיווה
והיום
והיחיד
והיחידה
והיחס
והיחסים
והיין
והיינו
והייתה
והייתי
והייתם
והיכא
והיכולת
והיכי
והיכן
והילד
והילדים
והילכך
והים
והיסטוריה
והירח
והישגים
והיתה
והיתר
והך
והכא
והכבוד
והכה
והכהן
והכהנים
והכוונה
והכוח
והכוחות
והכול
והכונה
והכי
והכין
והכל
והכלים
והכלכלה
והכלל
והכניס
והכניסה
והכנסייה
והכרה
והכריז
והכשרה
והכתוב
והכתיב
והלא
והלאה
והלה
והלהקה
והלומד
והלחין
והלך
והלכה
והלכו
והלכך
והלכתא
והלל
והללו
והלשון
והם
והמבנה
והמדינה
והמדיניות
והמה
והמוזיקה
והמוכר
והמועצה
והמזרח
והמחבר
והמחקר
והמטיב
והמידע
והמילה
והמים
והמלחמה
והמלך
והמלכה
והממלכה
והממשלה
והמנהל
והמסחר
והמפיק
והמפלגה
והמצוה
והמצות
והמקום
והמרדכי
והמרכז
והמשחק
והמשטרה
והמשיך
והמשיכה
והמשיכו
והמשך
והמשכיל
והמשפחה
והמשפט
והן
והנדסה
והנה
והנוער
והנורא
והנושא
והנחה
והני
והניח
והניחו
והנכון
והנני
והנסיך
והנפש
והנקבה
והנראה
והנרי
והנשיא
והנשים
והסביבה
והסביר
והסדר
והסופר
והסיבה
והסכים
והסכימו
והסכמים
והסמ
והספורט
והספר
והספרות
והסרט
והסתיים
והסתיימה
והסתיימו
והעבודה
והעביר
והעבירה
והעבירו
והעברת
והעד
והעדים
והעובדה
והעובר
והעולם
והעיקר
והעיר
והעלה
והעלו
והעם
והעמיד
והעמידו
והענין
והעניק
והעפילה
והערות
והערך
והערכה
והפועל
והפזמון
והפיק
והפיתוח
והפך
והפכה
והפכו
והפסד
והפסיד
והפסידה
והפעלת
והפעם
והפקה
והפקת
והפר
והפרעות
והפרת
והצבא
והצהיר
והצוות
והצומח
והצורך
והצטרף
והצטרפה
והצטרפו
והצי
והציבור
והציג
והציוד
והציע
והצלה
והצלחה
והצליח
והצליחה
והצליחו
והקב
והקבוצה
והקדוש
והקדיש
והקהילה
והקהל
והקים
והקימה
והקימו
והקליטה
והקמת
והקרב
והקריב
והקרן
והקשה
והקשו
והקשר
והר
והרא
והראב
והראה
והראיה
והראשון
והראשונה
והרב
והרבה
והרביעי
והרביעית
והרג
והרגו
והרווחה
והרוח
והרחבה
והרחבת
והרי
והריטב
והרמ
והרמב
והרס
והרע
והרפובליקה
והרצגובינה
והרצון
והרשב
והרשות
והש
והשאיר
והשאלה
והשאר
והשומרון
והשחקן
והשיב
והשיבו
והשיג
והשיכון
והשימוש
והשיר
והשירותים
והשכל
והשכלה
והשלום
והשלטון
והשלים
והשלישי
והשלישית
והשם
והשני
והשניה
והשנייה
והשניים
והשפה
והשפעה
והשפעתו
והשר
והשתא
והשתמש
והשתמשו
והשתתף
והשתתפה
והשתתפו
והתגורר
והתוס
והתוספות
והתוצאה
והתורה
והתחיל
והתחילו
והתחנך
והתיישב
והתיישבו
והתיר
והתירו
והתלמוד
והתם
והתמנה
והתנאים
והתנגדות
והתנהגות
והתנועה
והתניא
והתנן
והתעסוקה
והתעשייה
והתפתחות
והתקבל
והתקופה
והתקנות
והתקשורת
והתרבות
והתשובה
וו
וואט
וואלה
וואן
ווג
ווד
וודאי
וודי
וודס
ווטסון
ווטרס
ווי
וויאג
וויאט
ווידאו
ווייט
וויין
וויל
וויליאם
ווין
וויקיפדיה
וול
וולאס
וולברין
וולדמורט
וולוו
וולוז
וולט
וולטר
וולך
וולס
וולף
וולפגנג
וולפסון
וולקן
וולש
וומן
וון
וונג
וונדר
וונדררס
ווסט
וועד
וועדה
וועדת
ווקר
וורד
ווריורס
וורלד
וורן
וורנר
וורת
וושינגטון
וז
וזאת
וזה
וזהב
וזהו
וזהות
וזו
וזוהי
וזוכה
וזיכרון
וזכה
וזכו
וזכויות
וזכור
וזכות
וזכר
וזכתה
וזמן
וזמר
וזמרת
וזף
וזפה
וזרע
וזרעו
וזרק
וזרקו
וח
וחבירו
וחבל
וחבר
וחברה
וחברו
וחברות
וחברי
וחבריה
וחבריו
וחברים
וחברת
וחברתיים
וחברתית
וחג
וחד
וחדא
וחדר
וחובות
וחודש
וחוה
וחוזר
וחוזרים
וחוזרין
וחוזרת
וחום
וחומר
וחומרי
וחומרים
וחומש
וחוסר
וחופש
וחוץ
וחוק
וחוקר
וחוקרים
וחושב
וחותם
וחז
וחזק
וחזקה
וחזר
וחזרה
וחזרו
וחטאת
וחי
וחיבור
וחיבר
וחידוש
וחיה
וחיות
וחיזוק
וחיי
וחייב
וחייבין
וחיילים
וחיים
וחיל
וחינוך
וחיפוש
וחירותו
וחכ
וחכם
וחכמה
וחכמי
וחכמים
וחלב
וחלה
וחלוקת
וחלילה
וחליצה
וחלל
וחלק
וחלקה
וחלקו
וחלקי
וחלקים
וחלקם
וחלקן
וחמור
וחמישה
וחמישי
וחמישים
וחמש
וחמשה
וחמשים
וחנה
וחסד
וחסר
וחסרי
וחסרת
וחפצים
וחצי
וחציו
וחצר
וחקירה
וחקר
וחרב
וחשב
וחשבון
וחשוב
וחתם
וחתמו
וחתן
וט
וטבח
וטבל
וטבע
וטהור
וטהר
וטהרה
וטו
וטוב
וטובגו
וטובה
וטובים
וטומאה
וטוען
וטור
וטורקיה
וטיפול
וטכנולוגיה
וטלוויזיה
וטמא
וטעה
וטעם
וטעמא
וטעמו
וטען
וטענה
וטענו
וטרי
וטריא
וטריטוריות
וטרינר
וטרם
וי
ויאכל
ויאכלו
ויאמר
ויאמרו
ויבא
ויבאו
ויבוא
ויבואו
ויביא
ויבן
ויברך
ויבש
ויגו
ויגש
ויד
וידאו
וידבר
וידו
וידוי
וידוע
וידע
וידעו
וידעת
ויה
ויהא
ויהדות
ויהודה
ויהודי
ויהודים
ויהושע
ויהי
ויהיב
ויהיה
ויהיו
ויו
ויובל
ויודע
ויוה
ויוכל
ויולה
ויוליה
ויום
ויוני
ויונתן
ויוסי
ויוסף
ויועץ
ויוצא
ויוצאים
ויוצאין
ויוציא
ויוצר
ויוצרים
ויוצרת
ויורד
ויורה
ויורשו
ויושב
ויותר
ויז
ויזה
ויזואלית
ויזל
ויזם
ויחד
ויחולו
ויחזור
ויחי
ויחיד
ויחידות
ויחל
ויחסי
ויחר
ויט
ויטול
ויטוריה
ויטוריו
ויטמין
ויטני
ויי
וייד
ויידר
וייט
וייטנאם
וייל
ויילד
ויילס
ויימאר
ויין
וייס
וייסד
וייעוץ
וייצור
וייתכן
ויכוח
ויכוחים
ויכוין
ויכול
ויכולה
ויכולות
ויכולים
ויכולת
ויכלו
ויכתוב
ויל
וילד
וילדה
וילדיו
וילדים
וילה
וילהלם
וילי
ויליאם
ויליאמס
ויליס
ויליף
וילך
וילכו
וילם
וילנאי
וילנה
וילסון
וים
וימבלדון
וימות
וימי
וימים
וימצא
וימת
וין
וינברג
וינגייט
וינדזור
וינה
וינט
וינטר
ויניח
וינס
וינסטון
וינסנט
וינצ
וינר
ויס
ויסוד
ויסות
ויסנטה
ויסעו
ויסקונסין
ויעבור
ויעל
ויעלה
ויעלו
ויעמוד
ויען
ויעקב
ויעש
ויעשה
ויעשו
ויפה
ויפן
ויצ
ויצא
ויצאה
ויצאו
ויצו
ויצחק
ויציאה
ויציב
ויצירה
ויצירות
ויצירת
ויצמן
ויצר
ויצרה
ויצרו
ויק
ויקבל
ויקהל
ויקח
ויקחו
ויקטור
ויקטוריה
ויקי
ויקיטקסט
ויקימדיה
ויקינתונים
ויקיפד
ויקיפדיה
ויקיפדיות
ויקיפדים
ויקיפדית
ויקישיתוף
ויקם
ויקר
ויקרא
ויקראו
וירא
ויראה
ויראו
ויראת
וירג
וירד
וירדה
וירדו
וירוס
וירושלים
וירטואלי
וירטואלית
וירטמברג
וירידה
וירקות
ויש
וישא
וישאר
וישב
וישבו
וישוב
וישובו
וישי
וישלח
וישלם
וישם
וישמע
וישן
וישנה
וישנו
וישנם
וישר
וישראל
וית
ויתבאר
ויתור
ויתיב
ויתכן
ויתן
ויתנו
ויתפלל
ויתר
ויתרה
ויתרו
וכ
וכאילו
וכאלה
וכאלו
וכאמור
וכאן
וכאשר
וכבד
וכבוד
וכבר
וכבש
וכבשה
וכבשו
וכגון
וכד
וכדאי
וכדאיתא
וכדאמר
וכדאמרינן
וכדברי
וכדו
וכדומה
וכדי
וכדין
וכדכתיבנא
וכדלעיל
וכדלקמן
וכדמוכח
וכדמשמע
וכדפרישית
וכדתנן
וכה
וכהן
וכו
וכוונת
וכוונתו
וכוח
וכוחות
וכולה
וכולהו
וכולי
וכולל
וכוללים
וכוללת
וכולם
וכולן
וכונה
וכותב
וכח
וכחול
וכחלק
וכי
וכיבוש
וכיהן
וכיו
וכיוון
וכיום
וכיון
וכיוצא
וכינה
וכיצד
וכך
וככה
וככל
וכל
וכלא
וכלב
וכלה
וכלהו
וכלי
וכליו
וכלים
וכלכלה
וכלכלי
וכלכלית
וכלל
וכללה
וכללו
וכללי
וכלם
וכלפי
וכמ
וכמבואר
וכמה
וכמו
וכמובן
וכמוהו
וכמות
וכמעט
וכמש
וכן
וכנ
וכנגד
וכנזכר
וכנראה
וכסף
וכעבור
וכעין
וכענין
וכעת
וכפי
וכפר
וכר
וכריס
וכשבא
וכשהוא
וכשם
וכשר
וכת
וכתב
וכתבה
וכתבו
וכתבי
וכתבתי
וכתוב
וכתובים
וכתוצאה
וכתיב
וכתיבה
ול
ולא
ולאה
ולאו
ולאור
ולאורך
ולאחד
ולאחר
ולאחריה
ולאחריו
ולאכול
ולאכיה
ולאם
ולאפוקי
ולאפשר
ולאשתו
ולב
ולבדוק
ולבו
ולבטל
ולבי
ולבית
ולבן
ולבנה
ולבנון
ולבנות
ולבני
ולבניו
ולבנים
ולבסוף
ולבצע
ולבקש
ולברך
ולבתר
ולגבי
ולגלות
ולגרום
ולד
ולדבר
ולדברי
ולדבריו
ולדון
ולדות
ולדימיר
ולדיסלב
ולדעת
ולדעתי
ולדרוש
ולה
ולהבא
ולהבטיח
ולהביא
ולהבין
ולהגיע
ולהגן
ולהוסיף
ולהוציא
ולהורות
ולהחזיק
ולהחזיר
ולהיות
ולהילחם
ולהימנע
ולהכי
ולהכניס
ולהלן
ולהם
ולהמשיך
ולהניח
ולהעביר
ולהעלות
ולהפוך
ולהפך
ולהציג
ולהציל
ולהקים
ולהקת
ולהרוג
ולהרחיב
ולהשאיר
ולהשיב
ולהשיג
ולהשמיד
ולהשתמש
ולהתחיל
ולהתפלל
ולו
ולוה
ולוח
ולוי
ולולי
ולומר
ולוקח
ולזה
ולזוג
ולזכות
ולח
ולחוץ
ולחזור
ולחזק
ולחיות
ולחלק
ולחם
ולחן
ולחפש
ולחץ
ולחקור
ולטלוויזיה
ולטעון
ולטר
ולי
וליאן
וליד
וליה
וליו
וליטול
ולייט
וליכא
ולילה
ולימא
ולימד
ולימוד
ולימודי
ולימים
וליצור
ולישנא
ולישראל
ולית
וליתא
וליתן
ולך
ולכאורה
ולכאן
ולכבוש
ולכך
ולכל
ולכן
ולכתוב
וללא
וללכת
וללמד
וללמוד
ולמ
ולמאי
ולמאן
ולמד
ולמדה
ולמדו
ולמדעים
ולמה
ולמחר
ולמחרת
ולמטה
ולמי
ולמכור
ולמנוע
ולמעט
ולמעלה
ולמען
ולמעשה
ולמצוא
ולמקום
ולמרות
ולמשקל
ולנהל
ולנוער
ולנסות
ולנסיה
ולנשים
ולס
ולסביות
ולסייע
ולספק
ולעבוד
ולעבור
ולעולם
ולעומת
ולעזור
ולעיל
ולעיתים
ולעלות
ולעמוד
ולענ
ולעניין
ולענין
ולערוך
ולעשות
ולפ
ולפגוע
ולפחות
ולפי
ולפיה
ולפיו
ולפיכך
ולפיתוח
ולפני
ולפנים
ולפעול
ולפעמים
ולפרש
ולפתוח
ולפתח
ולצאת
ולצד
ולצורך
ולקבוע
ולקבל
ולקדם
ולקח
ולקחה
ולקחו
ולקחת
ולקיים
ולקמן
ולקראת
ולקרוא
ולר
ולראות
ולראשונה
ולרב
ולרבות
ולרבי
ולרבנן
ולרוב
ולרי
ולשאר
ולשוב
ולשון
ולשים
ולשלוח
ולשם
ולשמור
ולשנות
ולשפר
ולשתות
ולתקן
ולתת
ומ
ומאה
ומאוחר
ומאות
ומאז
ומאחר
ומאי
ומאידך
ומאיר
ומאמן
ומאמר
ומאמרים
ומאן
ומאפשר
ומאפשרת
ומארק
ומאתים
ומבואר
ומבוסס
ומבטל
ומביא
ומביאה
ומביאו
ומבין
ומבלי
ומבנה
ומבני
ומבנים
ומבצע
ומבצעים
ומבקר
ומבקש
ומבקשת
ומברך
ומברכין
ומגדל
ומגדר
ומגוג
ומגוון
ומגוונים
ומגיע
ומגיעה
ומגיעים
ומגלה
ומגלים
ומגן
ומדבר
ומדברי
ומדובר
ומדוע
ומדי
ומדינה
ומדינות
ומדיניות
ומדינת
ומדלא
ומדליית
ומדע
ומדעי
ומדרום
ומדת
ומה
ומהאי
ומהו
ומהווה
ומהווים
ומהירות
ומהם
ומהן
ומהר
ומו
ומואב
ומוביל
ומודה
ומודים
ומודיע
ומוות
ומוזיאון
ומוזיקה
ומוכח
ומוכן
ומוכר
ומול
ומונה
ומונטנגרו
ומונע
ומוסדות
ומוסיף
ומוסר
ומועד
ומועדים
ומועמדויות
ומועצת
ומופיע
ומוצא
ומוציא
ומוציאין
ומוצרי
ומוצרים
ומוקי
ומורה
ומוריד
ומורכב
ומורשת
ומושב
ומושל
ומותו
ומותר
ומותרת
ומזה
ומזון
ומזכיר
ומזלות
ומזרח
ומחבר
ומחוז
ומחוץ
ומחוצה
ומחזיק
ומחזיר
ומחלות
ומחליט
ומחלקת
ומחמת
ומחצה
ומחקר
ומחקרים
ומחשבה
ומחשבים
ומטה
ומטמא
ומטעם
ומטרתו
ומי
ומיד
ומידע
ומידת
ומיהו
ומייסד
ומייק
ומייקל
ומיירי
ומייתי
ומיכאל
ומילא
ומים
ומימון
ומין
ומינה
ומיני
ומיעוט
ומיפוי
ומכ
ומכאן
ומכה
ומכון
ומכונה
ומכיוון
ומכיל
ומכירה
ומכל
ומכללות
ומכסה
ומכר
ומכרה
ומכרו
ומלא
ומלבד
ומלווה
ומלח
ומלחין
ומלחמה
ומלחמת
ומלך
ומלכות
ומלמד
ומלת
וממה
וממזרח
וממילא
וממכר
וממלא
וממלכת
וממנה
וממנו
וממערב
וממשיך
וממשל
וממשלת
ומן
ומנא
ומנגד
ומנה
ומנהג
ומנהגים
ומנהיג
ומנהל
ומנהלת
ומנחה
ומנחת
ומניח
ומנין
ומניעת
ומנכ
ומנסה
ומנסים
ומנע
ומנצח
ומס
ומסביר
ומסחר
ומסיים
ומסייע
ומסיק
ומסירה
ומסמכים
ומספק
ומספר
ומסר
ומסתבר
ומסתברא
ומסתיים
ומסתמא
ומעביר
ומעבר
ומעולם
ומעט
ומעל
ומעלה
ומעמד
ומענו
ומעקב
ומערב
ומערות
ומערכות
ומערכת
ומעשה
ומעשי
ומעשים
ומעשר
ומעשרות
ומעתה
ומפורש
ומפיק
ומפלגת
ומפני
ומפקד
ומפרקינן
ומפרש
ומפתח
ומצא
ומצאה
ומצאו
ומצאתי
ומצב
ומצד
ומצוה
ומצוות
ומצות
ומציג
ומציין
ומצינו
ומציע
ומצליח
ומצפון
ומצרים
ומקבל
ומקבלים
ומקדש
ומקובל
ומקום
ומקומות
ומקור
ומקורות
ומקיים
ומקיף
ומקנה
ומקס
ומקצת
ומקשה
ומקשינן
ומר
ומראה
ומרבית
ומרדכי
ומרור
ומרי
ומריה
ומרים
ומרכז
ומרכזי
ומרצה
ומש
ומשה
ומשהו
ומשום
ומשורר
ומשוררים
ומשחק
ומשחקי
ומשיב
ומשך
ומשלים
ומשלם
ומשם
ומשמע
ומשמעות
ומשמעותו
ומשמר
ומשמש
ומשמשים
ומשמשת
ומשנה
ומשני
ומשנת
ומשפחה
ומשפחות
ומשפחת
ומשפחתה
ומשפחתו
ומשפט
ומשפטים
ומשקה
ומשקין
ומשקל
ומשקלו
ומשרד
ומשתמש
ומשתמשים
ומת
ומתאר
ומתגלה
ומתה
ומתו
ומתוך
ומתחיל
ומתחילה
ומתחת
ומתי
ומתמיד
ומתן
ומתנה
ומתני
ומתניתין
ומתפלל
ומתקני
ומתקנים
ומתרגם
ומתרץ
ון
ונ
ונאלץ
ונאלצו
ונאמן
ונאמר
ונאס
ונאסר
ונבחר
ונבחרת
ונבנה
ונבנו
ונג
ונגד
ונגל
ונגע
ונדה
ונה
ונהג
ונהגו
ונהי
ונהיה
ונהנה
ונהר
ונהרג
ונו
ונודע
ונוהג
ונוהגת
ונוח
ונוטל
ונוטלין
ונולד
ונולדו
ונוס
ונוסף
ונועד
ונוער
ונופל
ונוצר
ונוצרה
ונוצרים
ונוקבא
ונורא
ונושא
ונושאים
ונותן
ונותנים
ונותנין
ונותנת
ונותר
ונזכר
ונח
ונחזור
ונחל
ונחשב
ונחשבת
ונחת
ונחתם
ונטל
ונטלו
ונטמן
ונטען
וני
וניגן
ונידון
וניהול
וניהל
וניו
וניור
וניורס
וניחא
וניכר
ונימא
וניסה
וניסו
וניסיון
וניסיונות
וניצול
וניצח
וניצחה
וניצחו
וניצחון
וניתוח
וניתן
וניתנה
ונכדו
ונכון
ונכלא
ונכלל
ונכנס
ונכנסה
ונכנסו
ונכסים
ונכתב
ונלחם
ונלע
ונמכר
ונמלט
ונמנה
ונמנע
ונמצא
ונמצאו
ונמצאת
ונמשך
ונמשכה
ונס
ונסה
ונסון
ונסטון
ונסע
ונעלם
ונערות
ונערך
ונערכו
ונעשה
ונעשו
ונעשים
ונעשית
ונפגש
ונפטר
ונפיק
ונפל
ונפלה
ונפלו
ונפצע
ונפצעו
ונפקא
ונפש
ונפשו
ונפתח
ונצואלה
ונציג
ונציגי
ונציה
ונקבה
ונקבות
ונקבל
ונקבע
ונקבר
ונקברה
ונקה
ונקובר
ונקודה
ונקט
ונקי
ונקרא
ונקראה
ונקראו
ונקראת
ונר
ונראה
ונרצחו
ונשא
ונשאר
ונשארה
ונשארו
ונשאת
ונשבע
ונשבר
ונשיא
ונשים
ונשלח
ונשלחו
ונשמה
ונשמע
ונשנות
ונשנים
ונשפך
ונשק
ונתונים
ונתן
ונתנה
ונתנו
ונתת
ונתתי
וס
וסביבה
וסביבתה
וסביר
וסבירא
וסבל
וסבר
וסגן
וסגנו
וסגנון
וסדר
וסדרות
וסדרת
וסובר
וסוג
וסוד
וסוף
וסופו
וסופר
וסופרת
וסוריה
וסחר
וסט
וסטמינסטר
וסטס
וסי
וסיום
וסיוע
וסיים
וסיימה
וסיימו
וסייע
וסילי
וסימון
וסימן
וסין
וסיפא
וסיפורים
וסיפר
וסירב
וסלי
וסמ
וסמוך
וסמיך
וסמך
וסעיף
וספורט
וספינות
וספק
וספר
וספרד
וספרות
וספרי
וספרים
וסר
וסרט
וסרטי
וסרטים
וסרמן
וסת
וסתה
וסתם
וע
ועבד
ועבדה
ועבדו
ועבדים
ועבודה
ועבודות
ועבודת
ועבודתו
ועבור
ועביד
ועבר
ועברה
ועברו
ועד
ועדה
ועדות
ועדי
ועדיין
ועדים
ועדיף
ועדת
ועובד
ועובדי
ועובדים
ועובר
ועוברים
ועוד
ועודד
ועוזר
ועולה
ועולים
ועולם
ועומד
ועומדים
ועומדת
ועונה
ועונש
ועוסק
ועוף
ועופות
ועור
ועורך
ועורכת
ועורר
ועושה
ועושים
ועושין
ועז
ועזב
ועזר
ועזרה
ועזריה
ועי
ועיבד
ועיבוד
ועידה
ועידת
ועיין
ועין
ועיצוב
ועיקר
ועיר
ועיתונאי
ועכ
ועכשיו
ועל
ועלה
ועלו
ועלול
ועלי
ועליה
ועליהם
ועליו
ועליות
ועלייה
ועליית
ועלתה
ועם
ועמ
ועמד
ועמדה
ועמדו
ועמו
ועמיתיו
ועמק
וענבים
ועניין
וענין
ועסק
ועסקה
ועסקים
ועפ
ועפר
ועץ
ועצים
ועצם
ועצמות
ועקב
ועקר
וערב
וערבה
וערבים
וערבית
וערוץ
ועריכה
וערים
וערך
וערכה
וערכו
וערכים
ועשה
ועשו
ועשוי
ועשיר
ועשית
ועשיתם
ועשר
ועשרה
ועשרות
ועשרים
ועשתה
ועת
ועתה
ועתוי
ועתיד
ופ
ופאה
ופגיעה
ופגם
ופגע
ופה
ופול
ופוליטיקאי
ופוליטיקה
ופוליטית
ופולין
ופונה
ופוסל
ופוסק
ופוסקים
ופועל
ופועלו
ופועלים
ופועלת
ופורטוגל
ופורים
ופורסם
ופותח
ופחד
ופחות
ופטור
ופטר
ופי
ופיטר
ופילוסופיה
ופיקד
ופיקוח
ופירוש
ופירושו
ופירושים
ופירות
ופירש
ופירשו
ופיתוח
ופיתח
ופלגא
ופלוני
ופליג
ופליגי
ופנאי
ופנה
ופני
ופניו
ופסול
ופסח
ופסל
ופסנתר
ופסק
ופסקו
ופעולה
ופעולות
ופעיל
ופעילה
ופעילויות
ופעילות
ופעל
ופעלה
ופעלו
ופעם
ופעמיים
ופעמים
ופר
ופרה
ופרופ
ופרופסור
ופרח
ופרט
ופרטי
ופרטים
ופרי
ופריך
ופריק
ופרכינן
ופרס
ופרסום
ופרסים
ופרסם
ופרע
ופרק
ופרקינן
ופרש
ופרשנות
ופרשת
ופשוט
ופשט
ופשיטא
ופשע
ופשתים
ופתח
ופתחה
ופתחו
וצ
וצאן
וצבא
וצבי
וצבע
וצבר
וצד
וצדיק
וצדק
וצדקה
וצוה
וצוות
וצוותו
וצורות
וצורת
וציוד
וציור
וציין
וצייר
וצמחים
וצמצום
וצפה
וצפון
וצר
וצריך
וצריכה
וצריכים
וצריכין
וצרפת
וצרפתית
וק
וקא
וקאי
וקאמר
וקבוצות
וקבוצת
וקביעת
וקבל
וקבלה
וקבלו
וקבלת
וקבע
וקבעה
וקבעו
וקדושה
וקדם
וקדש
וקדשיו
וקו
וקוב
וקוביץ
וקובע
וקודם
וקווים
וקול
וקולות
וקולנוע
וקורא
וקורה
וקורין
וקורס
וקטור
וקטורי
וקטן
וקטנה
וקטנים
וקי
וקיבל
וקיבלה
וקיבלו
וקידום
וקיום
וקיי
וקיים
וקיימא
וקיימים
וקיימת
וקים
וקל
וקלע
וקם
וקמ
וקנדה
וקנה
וקנו
וקני
וקנס
וקס
וקסבר
וקצב
וקצין
וקצינים
וקצר
וקצת
וקר
וקרא
וקראה
וקראו
וקרב
וקרוב
וקרי
וקריירה
וקרל
וקרן
וקשה
וקשיא
וקשר
וקשת
וקתני
ור
וראה
וראו
וראובן
וראוי
וראיה
וראיתי
וראש
וראשו
וראשון
וראשי
וראשית
וראתה
ורב
ורבא
ורבה
ורבו
ורבות
ורבותינו
ורבי
ורביה
ורבים
ורבינא
ורבינו
ורבנן
ורבקה
ורג
ורגל
ורגליו
ורגלים
ורד
ורדה
ורדי
ורדיו
ורדים
ורדן
ורדר
ורה
ורואה
ורואים
ורוב
ורובו
ורובם
ורוברט
ורוד
ורוח
ורוחב
ורוחבו
ורומא
ורון
ורונה
ורוניקה
ורוסיה
ורוצה
ורוצים
ורות
ורז
ורחב
ורחבה
ורחוב
ורחוק
ורחל
ורחמים
ורי
וריאציה
וריאציות
וריב
וריבית
וריה
וריח
וריכוז
וריצ
וריש
ורישא
ורישום
ורכב
ורכש
ורמב
ורמונט
ורמז
ורמי
ורמת
ורן
ורנל
ורנר
ורסאי
ורע
ורעייתו
ורפ
ורפואה
ורץ
ורצה
ורצו
ורצוי
ורצון
ורצונו
ורצח
ורק
ורש
ורשאי
ורשב
ורשה
ורשות
ורשימת
ורשם
ורשת
וש
ושאול
ושאין
ושאינו
ושאל
ושאלה
ושאלו
ושאני
ושאר
ושב
ושבה
ושבו
ושבועה
ושבט
ושבים
ושבע
ושבעה
ושבעים
ושבעת
ושבר
ושבת
ושדה
ושדות
ושהה
ושהוא
ושהיא
ושהיה
ושהם
ושו
ושואל
ושוב
ושודרה
ושוודיה
ושוויון
ושווייץ
ושוחרר
ושוטרים
ושולח
ושום
ושומר
ושומרון
ושונה
ושונים
ושוע
ושוק
ושור
ושורש
ושות
ושותה
ושותף
ושותפו
ושחור
ושחט
ושחקן
ושחקנים
ושחקנית
ושחרור
ושטח
ושטר
ושיאן
ושיהיה
ושיווק
ושיחה
ושיחק
ושיחקה
ושיטות
ושיטת
ושייך
ושייר
ושימור
ושימוש
ושימש
ושימשה
ושימשו
ושינה
ושינוי
ושינויים
ושיעור
ושיפור
ושיקום
ושיר
ושירה
ושירות
ושירותי
ושירותים
ושירי
ושירים
ושירת
ושיש
ושישה
ושיתוף
ושכח
ושכל
ושכן
ושכר
ושל
ושלא
ושלום
ושלוש
ושלושה
ושלושת
ושלח
ושלחה
ושלחו
ושליטה
ושליש
ושלישי
ושלישית
ושלם
ושלמה
ושלמים
ושלש
ושלשה
ושלשים
ושם
ושמא
ושמאל
ושמה
ושמו
ושמואל
ושמונה
ושמור
ושמות
ושמח
ושמחה
ושמחת
ושמירה
ושמירת
ושמן
ושמע
ושמעו
ושמעון
ושמעינן
ושמעתי
ושמר
ושמרו
ושמרתם
ושנה
ושנות
ושני
ושניהם
ושנייה
ושניים
ושנים
ושנת
ושעיר
ושער
ושפות
ושפיר
ושפל
ושר
ושרה
ושרי
ושש
וששה
ושתה
ושתי
ושתיה
ושתייה
ושתיים
ושתים
ושתק
ות
ותא
ותאמר
ותאריך
ותבין
ותדע
ותהא
ותהי
ותהיה
ותהליך
ותו
ותואר
ותודה
ותוך
ותוכן
ותוכניות
ותוכנית
ותולדות
ותומאס
ותומים
ותוס
ותוספות
ותוספת
ותוקף
ותורגם
ותורה
ותורת
ותורתו
ותושבי
ותזמורת
ותחזוקה
ותחילת
ותחמושת
ותחנת
ותחת
ותיאור
ותיאטרון
ותיאר
ותימא
ותימה
ותיפוק
ותיק
ותיקה
ותיקון
ותיקי
ותיקים
ותירץ
ותירצו
ותכוין
ותכלית
ותכנון
ותל
ותלד
ותלמוד
ותלמיד
ותלמידו
ותלמידי
ותלמידיו
ותמה
ותמונות
ותמיד
ותמיכה
ותמך
ותמצא
ותמר
ותן
ותנא
ותנאי
ותנאים
ותנו
ותנועה
ותנועות
ותנועת
ותני
ותניא
ותנן
ותסריטאי
ותפילה
ותפילין
ותפלה
ותפס
ותפקידו
ותצא
ותק
ותקופת
ותקנות
ותקף
ותקפו
ותקשורת
ותראה
ותרבות
ותרבותית
ותרגום
ותרומה
ותרומת
ותרופות
ותרי
ותרם
ותרמו
ותשובות
ותשכח
ותשע
ותשעה
ותשתיות
ותת
ז
זא
זאב
זאבי
זאבים
זאגרב
זאוס
זאק
זאת
זב
זבה
זבוב
זבולון
זבח
זבחי
זבחים
זביד
זבין
זביני
זבל
זדון
זה
זהב
זהבה
זהבי
זהה
זהו
זהוב
זהובים
זהויות
זהות
זהותה
זהותו
זהותם
זהים
זהיר
זהירות
זהר
זו
זואי
זוג
זוגה
זוגו
זוגות
זוגי
זוגיות
זוגית
זוהה
זוהו
זוהי
זוהר
זוהתה
זווג
זוויות
זווית
זוז
זוזי
זוחל
זוחלים
זוטא
זוטר
זוטרא
זוית
זוכה
זוכות
זוכי
זוכים
זוכין
זוכר
זוכרים
זוכרת
זוכת
זול
זולה
זולים
זולת
זולתו
זולתי
זום
זומא
זוממין
זומן
זונה
זונות
זוסמן
זועם
זורם
זורמים
זורע
זורק
זז
זזה
זחל
זי
זיבה
זיבורית
זיגלר
זיגמונד
זיגפריד
זיהה
זיהו
זיהוי
זיהום
זיהומיות
זיהומים
זיו
זיוה
זיווג
זיוף
זיז
זייד
זיין
זיכה
זיכוי
זיכיון
זיכרון
זיכרונות
זיכרונותיו
זיכתה
זיל
זילבר
זילברמן
זילנד
זילנדי
זילנדים
זילנדית
זימבבואה
זימון
זימן
זימנא
זימני
זימנין
זינגר
זינוק
זינק
זיקה
זיקוק
זיקת
זירא
זירה
זירו
זירת
זית
זיתים
זך
זכאה
זכאות
זכאי
זכאים
זכאית
זכה
זכו
זכויות
זכויותיהם
זכויותיו
זכוכית
זכור
זכות
זכותה
זכותו
זכותם
זכי
זכיה
זכיון
זכיות
זכייה
זכייתה
זכייתו
זכין
זכירה
זכיתי
זכר
זכרו
זכרון
זכרונו
זכרונות
זכרונותיו
זכרוני
זכרונם
זכרי
זכריה
זכרים
זכרם
זכרנו
זכתה
זל
זלה
זלזול
זליג
זלמן
זלצבורג
זמביה
זמורה
זמין
זמינה
זמינות
זמינים
זמיר
זמירות
זמם
זמן
זמנא
זמנה
זמנו
זמני
זמניות
זמניים
זמנים
זמנין
זמנית
זמנם
זמננו
זמר
זמרות
זמרי
זמרים
זמרת
זן
זנב
זנבו
זנות
זני
זניח
זניחה
זניט
זנים
זע
זעיר
זעירא
זעירה
זעירות
זעירים
זעם
זעמו
זצ
זצוק
זק
זקוף
זקופה
זקוק
זקוקה
זקוקים
זקן
זקנה
זקנו
זקני
זקנים
זקס
זר
זרה
זרוע
זרועו
זרועות
זרות
זרח
זריז
זרים
זרימה
זרימת
זריעה
זריקה
זריקת
זרם
זרמי
זרמים
זרע
זרעו
זרעי
זרעים
זרעך
זרק
ח
חאג
חאן
חב
חבור
חבורה
חבורות
חבורת
חביב
חביבה
חביות
חבילה
חבילות
חבילת
חבירו
חבית
חבל
חבלה
חבלי
חבלים
חבקוק
חבר
חברה
חברו
חברון
חברות
חברותו
חברותיה
חברי
חבריה
חבריהם
חבריו
חברייא
חברים
חברת
חברתה
חברתו
חברתי
חברתיות
חברתיים
חברתית
חג
חגורה
חגורות
חגורת
חגי
חגיגה
חגיגות
חגיגי
חגיגית
חגיגת
חגים
חגית
חד
חדא
חדד
חדה
חדוש
חדות
חדים
חדירה
חדירת
חדל
חדלה
חדלו
חדלות
חדר
חדרה
חדרו
חדרי
חדרים
חדש
חדשה
חדשות
חדשים
חדשנות
חדשני
חדשניים
חדשנית
חה
חו
חואן
חוב
חובב
חובבי
חובבים
חובבשירה
חובה
חובו
חובות
חובותיו
חובל
חובלים
חובר
חוברה
חוברו
חוברות
חוברת
חובש
חובת
חובתו
חוג
חוגג
חוגגים
חוגי
חוגים
חוד
חודר
חודש
חודשה
חודשו
חודשי
חודשיים
חודשים
חודשית
חוה
חוו
חווה
חוויה
חוויות
חוויותיו
חוויית
חווים
חוות
חוותה
חוזה
חוזהו
חוזי
חוזים
חוזק
חוזר
חוזרות
חוזרים
חוזרין
חוזרת
חוט
חוטא
חוטאים
חוטי
חוטים
חוטין
חוטף
חויבו
חוכך
חול
חולדה
חולה
חולון
חולות
חולי
חוליה
חוליו
חוליות
חוליית
חולים
חולין
חולית
חולם
חולף
חולץ
חולצה
חולצות
חולצין
חולצת
חולק
חולקה
חולקו
חולקים
חולקין
חולקת
חולשה
חולשת
חום
חומה
חומות
חומים
חומץ
חומצה
חומצות
חומצת
חומר
חומרא
חומרה
חומרי
חומרים
חומרת
חומרתה
חומש
חומשי
חומת
חונה
חונך
חוסה
חוסיין
חוסייני
חוסל
חוסם
חוסן
חוסר
חוף
חופה
חופי
חופים
חופף
חופפים
חופר
חופש
חופשה
חופשי
חופשיות
חופשיים
חופשית
חופשת
חוץ
חוצה
חוצות
חוצץ
חוצצין
חוק
חוקה
חוקי
חוקיות
חוקיים
חוקים
חוקית
חוקק
חוקר
חוקרי
חוקרים
חוקרת
חוקת
חוקתי
חוקתית
חור
חורב
חורבות
חורבן
חורבת
חורג
חורון
חורחה
חורי
חורים
חורין
חורף
חורש
חוש
חושב
חושבים
חושבת
חושד
חושי
חושים
חושך
חושן
חושף
חושפת
חושש
חוששים
חוששין
חוששת
חות
חותך
חותם
חותמו
חותמות
חותמים
חותמין
חותמת
חותנו
חותר
חז
חזבאללה
חזה
חזו
חזון
חזונו
חזור
חזות
חזותי
חזותיים
חזותית
חזי
חזיא
חזיונות
חזינא
חזינן
חזיר
חזירים
חזית
חזיתות
חזן
חזק
חזקה
חזקות
חזקיה
חזקיהו
חזקים
חזקת
חזקתו
חזר
חזרה
חזרו
חזרות
חזרת
חזרתה
חזרתו
חזרתי
חטא
חטאה
חטאו
חטאות
חטאיו
חטאים
חטאת
חטאתו
חטאתי
חטאתם
חטה
חטיבה
חטיבות
חטיבת
חטים
חטין
חטיפה
חטיפות
חטיפת
חטף
חי
חיבה
חיבור
חיבורו
חיבוריו
חיבורים
חיבר
חיברה
חיברו
חיבת
חידה
חידוש
חידושו
חידושי
חידושים
חידות
חידש
חידשה
חידשו
חיה
חיו
חיוב
חיובא
חיובו
חיובי
חיוביות
חיוביים
חיובים
חיובית
חיוג
חיוור
חיוך
חיון
חיוני
חיוניות
חיוניים
חיונית
חיות
חיותו
חיזוי
חיזוק
חיזור
חיזק
חיטה
חיטוי
חיטים
חיטין
חיי
חייא
חייב
חייבה
חייבו
חייבות
חייבי
חייבים
חייבין
חייבת
חיידק
חיידקי
חיידקים
חייה
חייהם
חייהן
חייו
חייזרים
חייט
חייך
חייל
חיילא
חיילות
חיילי
חייליו
חיילים
חיים
חיין
חיינו
חייש
חיישי
חיישינן
חיישן
חיית
חיכוך
חיל
חילו
חילוט
חילול
חילוני
חילוניים
חילונים
חילונית
חילוף
חילופי
חילוץ
חילוק
חילוקי
חילות
חילק
חילקו
חימום
חימוש
חימר
חינוך
חינוכי
חינוכיות
חינוכיים
חינוכית
חינם
חיסול
חיסון
חיסונים
חיסכון
חיסרון
חיפה
חיפוי
חיפוש
חיפושים
חיפש
חיפשו
חיפשתי
חיץ
חיצון
חיצוני
חיצוניות
חיצוניים
חיצונית
חיקוי
חיקוק
חירום
חירות
חירם
חישב
חישוב
חישובים
חישובית
חית
חיתוך
חכים
חכירה
חכם
חכמה
חכמות
חכמי
חכמים
חכמינו
חכמת
חכמתו
חל
חלב
חלבו
חלבון
חלבוני
חלבונים
חלבי
חלה
חלו
חלוט
חלול
חלום
חלומו
חלומות
חלון
חלונות
חלוף
חלופה
חלופות
חלופי
חלופיות
חלופיים
חלופית
חלוץ
חלוצה
חלוצי
חלוצים
חלוק
חלוקה
חלוקות
חלוקים
חלוקין
חלוקת
חלות
חליל
חלילה
חלים
חליפות
חליפין
חליפת
חליצה
חלל
חללה
חללי
חלליות
חללים
חללית
חלם
חלמיש
חלף
חלפה
חלפו
חלץ
חלק
חלקה
חלקו
חלקות
חלקי
חלקיה
חלקיו
חלקיים
חלקים
חלקיק
חלקיקי
חלקיקים
חלקית
חלקם
חלקן
חלקת
חלש
חלשה
חלשות
חלשים
חלתה
חם
חמא
חמאה
חמאס
חמד
חמדה
חמדת
חמה
חמו
חמוייש
חמוץ
חמור
חמורבי
חמורה
חמורו
חמורות
חמורים
חמוש
חמושה
חמושים
חמות
חמותו
חמי
חמיה
חמיו
חמים
חמין
חמיר
חמישה
חמישי
חמישיית
חמישים
חמישית
חמלה
חממה
חמס
חמץ
חמצון
חמצן
חמצני
חמר
חמרא
חמרי
חמרים
חמש
חמשה
חמשים
חמשת
חמת
חמתו
חן
חנא
חנה
חנו
חנויות
חנוך
חנוכה
חנוכת
חנון
חנוני
חנות
חני
חניבעל
חניה
חניון
חנייה
חניך
חניכי
חניכים
חנין
חנינא
חנינה
חנית
חנכה
חנם
חנן
חננאל
חנניא
חנניה
חנק
חנקן
חס
חסד
חסדא
חסדו
חסדי
חסדים
חסדך
חסוי
חסום
חסומה
חסון
חסות
חסותה
חסותו
חסיד
חסידות
חסידי
חסידיו
חסידיים
חסידים
חסידית
חסימה
חסימות
חסימת
חסין
חסינות
חסם
חסן
חסר
חסרה
חסרו
חסרון
חסרונות
חסרות
חסרי
חסרים
חסרת
חף
חפים
חפיפה
חפירה
חפירות
חפירת
חפץ
חפצו
חפצי
חפצים
חפר
חפשי
חץ
חצאי
חצה
חצו
חצוצרה
חצוצרות
חצור
חצות
חצי
חציה
חציו
חציית
חציל
חצים
חציצה
חצירות
חצר
חצרו
חצרות
חצתה
חק
חקיקה
חקיקת
חקירה
חקירות
חקירת
חקירתו
חקלאות
חקלאי
חקלאיות
חקלאיים
חקלאים
חקלאית
חקק
חקר
חקרה
חקרו
חקת
חרב
חרבה
חרבו
חרבות
חרדה
חרדי
חרדיות
חרדים
חרדית
חרדל
חרוב
חרוד
חרוט
חרון
חרוץ
חרושצ
חרושת
חרות
חרטה
חרטום
חרי
חריג
חריגה
חריגות
חריגים
חריף
חריפה
חריפות
חריפים
חריץ
חרם
חרס
חרף
חרקוב
חרקים
חרש
חש
חשאי
חשאיות
חשאית
חשב
חשבה
חשבו
חשבון
חשבונו
חשבונות
חשבינן
חשבתי
חשד
חשדות
חשה
חשו
חשוב
חשובה
חשובות
חשובים
חשוד
חשודים
חשוך
חשוף
חשופים
חשיב
חשיבא
חשיבה
חשיבות
חשיבותה
חשיבותו
חשיבותם
חשיבי
חשיכה
חשים
חשין
חשיפה
חשיפת
חשך
חשמונאי
חשמל
חשמלי
חשמליות
חשמליים
חשמלית
חשף
חשפה
חשפו
חשק
חשש
חששא
חששה
חששו
חששות
חת
חתול
חתולים
חתום
חתומה
חתומים
חתונה
חתונות
חתיכה
חתיכות
חתיכת
חתימה
חתימות
חתימת
חתימתו
חתירה
חתך
חתם
חתמה
חתמו
חתן
חתנו
חתנים
ט
טאו
טאון
טאי
טאיוואן
טאנג
טאפט
טאצ
טאקר
טב
טבא
טבול
טבח
טבילה
טביליסי
טבילת
טביעות
טביעת
טבל
טבלאות
טבלה
טבלת
טבע
טבעה
טבעו
טבעון
טבעות
טבעי
טבעיות
טבעיים
טבעית
טבעת
טבק
טבריא
טבריה
טברסקי
טבת
טג
טד
טדי
טה
טהור
טהורה
טהורות
טהורים
טהורין
טהראן
טהרה
טהרות
טהרת
טו
טוב
טובא
טובה
טובו
טובות
טובי
טוביה
טובים
טובין
טובל
טובת
טוגו
טוד
טוהר
טווח
טוויטר
טוויין
טוטו
טוטנהאם
טויוטה
טול
טולדו
טולוז
טולסטוי
טולקין
טום
טומאה
טומאות
טומאת
טומאתו
טומטום
טומי
טון
טונה
טונות
טוני
טוסברהינדי
טוסקנה
טועה
טועים
טועם
טוען
טוענים
טוענין
טוענת
טופ
טופח
טופל
טופלו
טופס
טוקיו
טור
טוראי
טורבו
טורה
טורו
טורונטו
טורח
טורי
טורים
טורינו
טורניר
טורנירי
טורנירים
טורס
טורף
טורפדו
טורפים
טורקי
טורקיה
טורקים
טורקית
טורקמניסטן
טוש
טז
טחון
טחינה
טחנות
טחנת
טטיאנה
טי
טיב
טיבו
טיבט
טיבריוס
טיהור
טיוב
טיוטה
טיוטת
טיול
טיולים
טיורינג
טיט
טיטו
טיטוס
טייב
טייט
טייטלבוים
טיילור
טיילר
טיים
טיימס
טיין
טייס
טייסות
טייסי
טייסים
טייסת
טיל
טילי
טילים
טים
טימברוולבס
טימור
טימותי
טין
טינה
טינטין
טיס
טיסה
טיסות
טיסת
טיעון
טיעוני
טיעונים
טיפה
טיפוח
טיפול
טיפולי
טיפולים
טיפולית
טיפוס
טיפוסי
טיפוסים
טיפוסית
טיפות
טיפל
טיפש
טיפת
טיראן
טירה
טירונות
טירת
טכנאי
טכנולוגי
טכנולוגיה
טכנולוגיות
טכנולוגיים
טכנולוגיית
טכנולוגית
טכני
טכניות
טכניים
טכניקה
טכניקות
טכניקת
טכנית
טל
טלאי
טלאים
טלגרף
טלה
טלוויזיה
טלוויזיוני
טלטול
טלי
טליה
טלית
טליתו
טלסקופ
טלפון
טלפונים
טמא
טמאה
טמאות
טמאים
טמאין
טמון
טמונה
טמפל
טמפרטורה
טמפרטורות
טמפרטורת
טן
טנדר
טנור
טנזניה
טניה
טניס
טניסאיות
טניסאים
טנסי
טנק
טנקי
טנקים
טס
טסה
טסו
טסלה
טעה
טעו
טעויות
טעון
טעונה
טעונות
טעונים
טעונין
טעות
טעין
טעינה
טעיתי
טעם
טעמא
טעמו
טעמי
טעמיה
טעמייהו
טעמים
טען
טענה
טענו
טענות
טענותיהם
טענותיו
טענינן
טענת
טענתו
טענתי
טפה
טפח
טפחים
טפי
טפל
טק
טקטי
טקטיקה
טקס
טקסונים
טקסט
טקסטיל
טקסטים
טקסי
טקסים
טקסס
טר
טראומה
טראמפ
טראנס
טרבלינקה
טרגדיה
טרה
טרוד
טרוי
טרויה
טרול
טרולים
טרום
טרומן
טרומפלדור
טרופי
טרופיים
טרור
טרוריסטים
טרח
טרחה
טרחו
טרי
טריטוריה
טריטוריות
טריטוריית
טרייל
טריים
טרייסי
טרילוגיית
טרינידד
טריניטי
טריפה
טריפולי
טריפות
טריפל
טרם
טרמינל
טרנס
טרנסג
טרנסילבניה
טרנר
טרף
טרפה
טרפון
טרפות
טשרניחובסקי
י
יא
יאבד
יאבדו
יאה
יאו
יאוגרפיק
יאוחר
יאוש
יאות
יאזעפוס
יאיר
יאכל
יאכלו
יאמינו
יאמר
יאמרו
יאן
יאנג
יאנה
יאנוש
יאסין
יאסר
יאפשר
יאפשרו
יאקוב
יאר
יארד
יאריך
יארע
יאשי
יאשיה
יאשיהו
יאשר
יב
יבא
יבאו
יבגני
יבדוק
יבו
יבוא
יבואו
יבואן
יבואר
יבוטי
יבול
יבום
יבוצע
יבוצעו
יבחן
יבחר
יבחרו
יבטיח
יבטל
יביא
יביאו
יבין
יבינו
יבלד
יבם
יבמה
יבמות
יבמין
יבמתו
יבנה
יבצע
יבקש
יבקשו
יברך
יברכך
יבש
יבשה
יבשות
יבשים
יבשת
יבשתי
יבשתיים
יבשתית
יג
יגאל
יגבה
יגדל
יגה
יגו
יגואר
יגור
יגיד
יגידו
יגיע
יגיעו
יגיש
יגלה
יגלו
יגמור
יגע
יגרום
יגרמו
יגרע
יד
ידא
ידאג
ידבר
ידברו
ידה
ידו
ידווח
ידון
ידוע
ידועה
ידועות
ידועים
ידוענים
ידור
ידות
ידחה
ידי
ידיד
ידידו
ידידות
ידידותי
ידידותיים
ידידותית
ידידי
ידידיה
ידידיו
ידידים
ידיה
ידיהם
ידיו
ידיים
ידיך
ידים
ידין
ידינו
ידיע
ידיעה
ידיעות
ידיעת
ידיעתו
ידיעתי
ידית
ידך
ידם
ידן
ידני
ידנית
ידע
ידעה
ידעו
ידעי
ידעינן
ידענא
ידענו
ידעת
ידעתי
ידרוש
יה
יהא
יהאד
יהב
יהבי
יהבינן
יהדות
יהו
יהוא
יהוד
יהודא
יהודה
יהודי
יהודיה
יהודיות
יהודייה
יהודיים
יהודים
יהודית
יהוה
יהווה
יהוידע
יהויקים
יהונתן
יהוסף
יהורם
יהושע
יהושפט
יהי
יהיב
יהיה
יהיו
יהל
יהלום
יהלומים
יהנה
יהפוך
יהפכו
יהרג
יהרוג
יו
יואב
יואכים
יואל
יואן
יואש
יובא
יובאו
יוביל
יובל
יובן
יובנטוס
יוג
יוגה
יוגוסלביה
יוגש
יוגשו
יוד
יודא
יודה
יודי
יודין
יודיע
יודן
יודע
יודעי
יודעים
יודעין
יודעת
יוה
יוהאן
יוהנס
יוון
יווני
יווניות
יווניים
יוונים
יוונית
יוז
יוזם
יוזמה
יוזמות
יוזמת
יוזף
יוחאי
יוחזר
יוחלט
יוחנן
יוחסין
יוטה
יוטיוב
יוטל
יוכבד
יוכיח
יוכל
יוכלו
יולד
יולדות
יולדת
יולי
יוליאנוס
יוליה
יוליוס
יוליסס
יום
יומא
יומה
יומו
יומי
יומיומי
יומיות
יומיים
יומין
יומית
יומם
יומן
יומנו
יומני
יומת
יון
יונג
יונדאי
יונה
יוני
יוניברסיטי
יוניברסל
יוניון
יונייטד
יונים
יונית
יונס
יונק
יונקים
יונת
יונתן
יוס
יוסאריאן
יוסה
יוסוף
יוסטון
יוסטיניאנוס
יוסי
יוסיף
יוסיפו
יוסף
יוספוס
יועבר
יועברו
יועד
יועיל
יועץ
יועצים
יועצת
יופי
יופיטר
יופיע
יופיעו
יוצא
יוצאה
יוצאות
יוצאי
יוצאים
יוצאין
יוצאת
יוצג
יוצגו
יוציא
יוציאו
יוצר
יוצרה
יוצרו
יוצרות
יוצרי
יוצרים
יוצרת
יוקם
יוקרה
יוקרתי
יורד
יורדות
יורדי
יורדים
יורדין
יורדת
יורה
יורו
יורי
יורים
יורם
יורק
יורקשייר
יורש
יורשה
יורשו
יורשי
יורשיו
יורשים
יורשין
יורשת
יושב
יושבי
יושביה
יושבים
יושבין
יושבת
יושר
יות
יותם
יותן
יותקן
יותקנו
יותר
יותרת
יז
יזהר
יזו
יזיק
יזכה
יזכו
יזכור
יזכיר
יזם
יזמה
יזמו
יזמות
יזמים
יזרעאל
יח
יחד
יחדו
יחדיו
יחדל
יחו
יחוד
יחויב
יחול
יחולו
יחוס
יחוש
יחושב
יחזור
יחזיק
יחזיר
יחזקאל
יחזרו
יחטא
יחי
יחיא
יחיאל
יחיד
יחידה
יחידות
יחידי
יחידים
יחידת
יחיה
יחיו
יחייב
יחל
יחלוקו
יחליט
יחליף
יחלל
יחלקו
יחס
יחסה
יחסו
יחסי
יחסיה
יחסיו
יחסיות
יחסים
יחסית
יחסם
יחסר
יחפוץ
יחפור
יחשב
יחשבו
יחשוב
יחתום
יט
יטה
יטו
יטול
יטמא
יטמאו
יטעה
יי
ייאוש
ייבוא
ייבוש
ייבחר
ייד
יידי
יידיש
יידע
יידרש
ייחד
ייחוד
ייחודו
ייחודי
ייחודיות
ייחודיים
ייחודית
ייחוס
ייחס
ייחסו
ייחשב
ייחשבו
ייטב
ייטס
ייכנס
ייכתב
ייל
יילד
יימחק
יימי
יימס
יימסר
יימצא
יימר
יין
יינה
יינו
יינות
ייני
יינם
יינתן
יינתנו
ייס
ייסד
ייסדה
ייסדו
ייסוד
ייסון
ייעוד
ייעודו
ייעודי
ייעודיות
ייעודיים
ייעודית
ייעול
ייעוץ
ייענש
ייערך
ייעשה
ייעשו
ייפוי
ייצא
ייצג
ייצגה
ייצגו
ייצוא
ייצוג
ייצוגית
ייצור
ייצורו
ייצר
ייצרה
ייצרו
ייק
ייקבע
ייקבעו
ייקוב
ייקובס
ייקובסקי
ייקח
ייקרא
ייראה
יירוט
יירש
יירשם
יירשמו
יישא
יישאר
יישארו
יישוב
יישובי
יישובים
יישום
יישומי
יישומים
יישור
יישמר
יישר
ייתכן
ייתכנו
ייתן
יך
יכ
יכהן
יכו
יכוין
יכול
יכולה
יכולות
יכולותיו
יכולים
יכולין
יכולת
יכולתה
יכולתו
יכולתי
יכולתם
יכיל
יכין
יכיר
יכירו
יכל
יכלה
יכלו
יכלול
יכללו
יכניס
יכנס
יכנסו
יכסה
יכפר
יכריע
יכתבו
יכתוב
יל
ילבש
ילד
ילדה
ילדו
ילדות
ילדותה
ילדותו
ילדי
ילדיה
ילדיהם
ילדיו
ילדים
ילה
ילו
ילי
יליאני
יליד
ילידות
ילידי
ילידים
ילידת
ילין
יליף
ילך
ילכו
ילמד
ילמדו
ילמדנו
ילמוד
ילנה
ילפינן
ילצין
ילקוט
ים
ימ
ימא
ימאים
ימה
ימו
ימול
ימונה
ימות
ימותו
ימחה
ימחק
ימי
ימיה
ימיהם
ימיו
ימיות
ימיים
ימיך
ימים
ימימה
ימין
ימינא
ימינה
ימינו
ימיני
ימינך
ימית
ימכור
ימכר
ימלא
ימלוך
יממה
ימנה
ימני
ימנית
ימנע
ימסור
ימצא
ימצאו
ימציא
ימשיך
ימשיכו
ימשך
ימת
ימתין
ין
ינ
ינאי
ינבושד
ינג
ינה
ינהג
ינהגו
ינהל
ינו
ינואר
ינון
יני
יניב
יניה
יניח
ינים
יניקה
ינס
ינסה
ינסו
ינסקי
ינצח
ינקה
ינקו
ינשוף
ינתן
יס
יסד
יסו
יסוד
יסודות
יסודי
יסודיים
יסודית
יסור
יסורים
יסורין
יסייע
יסיר
יסכים
יסכימו
יסמין
יסעור
יספיק
יספק
יספר
יע
יעבדו
יעבוד
יעבור
יעביר
יעבץ
יעברו
יעד
יעדי
יעדים
יעו
יעוד
יעויין
יעזוב
יעזור
יעיד
יעיל
יעילה
יעילות
יעילים
יעל
יעלה
יעלו
יעלון
יעלי
יעמדו
יעמוד
יעמיד
יען
יענה
יעסוק
יעץ
יעקב
יעקוב
יעקובי
יעקובסון
יער
יערוך
יערות
יערי
יעשה
יעשו
יף
יפ
יפגע
יפגעו
יפה
יפו
יפול
יפורטו
יפורסם
יפורסמו
יפות
יפחת
יפים
יפלא
יפלו
יפן
יפנה
יפני
יפניות
יפניים
יפנים
יפנית
יפס
יפסיד
יפסיק
יפעיל
יפעל
יפעלו
יפעת
יפר
יפרוש
יפרח
יפרט
יפרסם
יפרע
יפת
יפתח
יפתחו
יץ
יצ
יצא
יצאה
יצאו
יצאת
יצדק
יצה
יצו
יצוא
יצוה
יצוין
יצוינו
יצוקה
יצור
יצורים
יצורף
יצורפו
יצחק
יצחקי
יצטרך
יצטרכו
יצטרף
יציאה
יציאות
יציאת
יציאתו
יציאתם
יציב
יציבה
יציבות
יציבים
יציג
יציין
יציל
יציע
יצירה
יצירות
יצירותיה
יצירותיהם
יצירותיו
יצירת
יצירתה
יצירתו
יצירתי
יצירתיות
יצירתית
יצירתם
יצליח
יצליחו
יצר
יצרה
יצרו
יצרן
יצרני
יצרנים
יצרנית
יצרף
יצרתי
יצתה
יק
יקב
יקבל
יקבלו
יקבע
יקבעו
יקדים
יקדש
יקו
יקוב
יקום
יקותיאל
יקח
יקחו
יקטרינה
יקיים
יקים
יקיסטן
יקיר
יקירי
יקל
יקנה
יקר
יקרא
יקראו
יקרב
יקרה
יקרות
יקריב
יקרים
יקשה
יר
ירא
יראה
יראו
יראי
יראים
יראת
ירבה
ירבו
ירבעם
ירגזי
ירגיש
ירד
ירדה
ירדו
ירדן
ירדני
ירה
ירו
ירוד
ירודה
ירוחם
ירון
ירוק
ירוקה
ירוקות
ירוקים
ירושה
ירושלים
ירושלם
ירושלמי
ירושת
ירח
ירחון
ירחי
ירחים
ירי
יריב
יריבו
יריבות
יריביו
יריבים
יריבתה
יריד
ירידה
ירידת
יריה
יריות
יריחו
ירייה
ירים
יריעה
יריעות
ירך
ירמוז
ירמיה
ירמיהו
ירצה
ירצו
ירק
ירקון
ירקות
ירש
ירשה
ירשו
ירשום
יש
ישא
ישאו
ישאל
ישאר
ישארו
ישב
ישבה
ישבו
ישבע
ישהה
ישו
ישוב
ישובו
ישויות
ישולם
ישולמו
ישוע
ישועה
ישועות
ישורון
ישות
ישחוט
ישי
ישיב
ישיבה
ישיבות
ישיבת
ישיג
ישים
ישיר
ישירה
ישירות
ישירים
ישכון
ישכח
ישלח
ישלים
ישלם
ישלמו
ישמור
ישמח
ישמע
ישמעאל
ישמעו
ישמרו
ישמש
ישמשו
ישן
ישנה
ישנו
ישנות
ישנים
ישנם
ישנן
ישע
ישעי
ישעיה
ישעיהו
ישפיע
ישפיעו
ישפך
ישר
ישראל
ישראלי
ישראליות
ישראליים
ישראלים
ישראלית
ישרה
ישרון
ישרות
ישרים
ישרף
יששכר
ישתה
ישתמש
ישתמשו
ישתנה
ישתתף
ישתתפו
ית
יתבאר
יתבטל
יתבצע
יתברך
יתברר
יתגלה
יתד
יתדות
יתהלל
יתו
יתום
יתומה
יתומים
יתחייב
יתחיל
יתחילו
יתיב
יתיר
יתירא
יתירה
יתכן
יתמודד
יתמי
יתמנה
יתן
יתנו
יתעלה
יתפלל
יתקבל
יתקבלו
יתקיים
יתקיימו
יתקן
יתקע
יתר
יתרה
יתרו
יתרון
יתרונות
יתרת
ך
כ
כא
כאב
כאבי
כאביי
כאבים
כאבן
כאדם
כאדמו
כאומר
כאומרו
כאוס
כאור
כאות
כאזור
כאחד
כאחראי
כאחת
כאילו
כאיש
כאישה
כאל
כאלבום
כאלה
כאלו
כאלוף
כאלף
כאמור
כאמן
כאמצעי
כאמרו
כאמרם
כאן
כארבע
כארבעה
כארבעים
כארגון
כאש
כאשה
כאשר
כאשתו
כאתר
כב
כבאות
כבד
כבדה
כבדות
כבדים
כבהמה
כבוד
כבודה
כבודו
כבודי
כבודך
כבודם
כבול
כבוש
כבידה
כביטוי
כביכול
כביסה
כביצה
כביר
כבירת
כביש
כבישים
כבית
כבל
כבלים
כבלתי
כבמאי
כבן
כבנו
כבני
כבנם
כבסיס
כבעל
כבעלי
כבעלת
כבר
כברירת
כבש
כבשה
כבשו
כבשים
כבשר
כבת
כג
כגוונא
כגון
כגוף
כגורם
כגיבור
כגן
כגריס
כד
כדאי
כדאית
כדאיתא
כדאמר
כדאמרי
כדאמרינן
כדאמרן
כדאשכחן
כדבר
כדברי
כדבריו
כדוגמה
כדוגמת
כדור
כדורגל
כדורגלן
כדורגלני
כדורגלנים
כדורי
כדוריד
כדורים
כדורסל
כדורסלן
כדורסלני
כדורסלנים
כדורעף
כדי
כדיין
כדין
כדירקטור
כדכתב
כדכתיב
כדכתיבנא
כדלהלן
כדלעיל
כדלקמן
כדמוכח
כדמות
כדמסיק
כדמפרש
כדמשמע
כדעת
כדפי
כדפירש
כדפרישית
כדקא
כדקאמר
כדקתני
כדרב
כדרך
כדרכה
כדרכו
כדת
כדתניא
כדתנן
כה
כהאי
כהגדרתה
כהגדרתו
כהגדרתם
כהה
כההיא
כהוגן
כהונה
כהונת
כהונתה
כהונתו
כהונתם
כהוקרה
כהות
כהים
כהכנה
כהלכה
כהמשך
כהן
כהנא
כהני
כהנים
כהנת
כהרמב
כו
כואב
כוב
כובד
כובע
כובש
כובשים
כווית
כוון
כוונה
כוונו
כוונות
כוונת
כוונתה
כוונתו
כוונתי
כוונתך
כוונתם
כוורת
כוותיה
כוותייהו
כוזב
כוח
כוחה
כוחו
כוחות
כוחותיה
כוחותיהם
כוחותיו
כוחם
כוחן
כוכב
כוכבא
כוכבי
כוכבים
כוכבת
כול
כולא
כולה
כולהו
כולו
כולי
כוליה
כולכם
כולל
כוללות
כוללים
כוללת
כולם
כולן
כולנו
כומר
כונה
כונו
כונן
כוננה
כוננו
כונס
כונת
כונתה
כונתו
כוס
כוסות
כוסלובקיה
כועס
כופה
כופין
כופר
כור
כורדים
כורדיסטן
כורים
כורש
כוש
כושל
כושלים
כושר
כותב
כותבות
כותבי
כותבים
כותבין
כותבת
כותי
כותיה
כותים
כותל
כותלי
כותנה
כותר
כותרות
כותרי
כותרת
כז
כזאת
כזב
כזה
כזו
כזית
כזמר
כזמרת
כח
כחבר
כחברה
כחברת
כחד
כחדא
כחה
כחו
כחודש
כחודשיים
כחוט
כחול
כחולה
כחולות
כחולים
כחומר
כחוק
כחוקר
כחות
כחי
כחייל
כחכמים
כחלון
כחלק
כחם
כחמישה
כחמישים
כחמש
כחצי
כט
כטייס
כטעם
כי
כיבוד
כיבוי
כיבוס
כיבוש
כיבושה
כיבושים
כיד
כידון
כידוע
כיה
כיהודי
כיהן
כיהנה
כיהנו
כיו
כיוון
כיוונו
כיווני
כיוונים
כיום
כיון
כיועץ
כיוצא
כיורש
כיושב
כיחידה
כיכב
כיכבה
כיכבו
כיכר
כילד
כילדה
כים
כימאי
כימי
כימיה
כימיות
כימיים
כימיקלים
כימית
כינה
כינו
כינוי
כינויו
כינויי
כינויים
כינון
כינוס
כינור
כינס
כינתה
כיס
כיסא
כיסאות
כיסה
כיסו
כיסוי
כיף
כיפה
כיפור
כיפת
כיצד
כירה
כישוף
כישורי
כישוריו
כישורים
כישלון
כישלונו
כישלונות
כישראל
כישרון
כישרונו
כישרונות
כית
כיתה
כיתוב
כיתות
כיתת
כך
ככה
ככוח
ככולו
ככותב
ככזה
ככינוי
ככל
ככלי
ככלל
ככר
ככרות
ככתב
ככתוב
כל
כלא
כלאחר
כלאי
כלאיים
כלאים
כלב
כלבו
כלבי
כלבים
כלה
כלהו
כלהלן
כלו
כלוא
כלואים
כלוב
כלוחם
כלול
כלולה
כלולות
כלולים
כלום
כלומר
כלות
כלי
כליאה
כליה
כליו
כליות
כליל
כלים
כלישנא
כלכלה
כלכלי
כלכליות
כלכליים
כלכליסט
כלכלית
כלכלן
כלכלנים
כלכלת
כלל
כללא
כללה
כללו
כללות
כללי
כלליות
כלליים
כללים
כללית
כלם
כלן
כלעיל
כלפי
כלפיה
כלפיהם
כלפיו
כלשהו
כלשהי
כלשהם
כלשהן
כלשון
כלת
כלתה
כלתו
כמ
כמאה
כמאל
כמאמן
כמאמר
כמאן
כמאתיים
כמבאר
כמבואר
כמגן
כמדובר
כמדומני
כמדינה
כמדריך
כמה
כמהנדס
כמו
כמובא
כמובן
כמודל
כמוה
כמוהו
כמוזיאון
כמויות
כמוך
כמוני
כמוסד
כמועמד
כמורה
כמושל
כמות
כמותה
כמותו
כמותי
כמותם
כמזכיר
כמחאה
כמחווה
כמחליף
כמחליפו
כמחצית
כמי
כמיטב
כמיליון
כמים
כמין
כמיניה
כמלא
כמלחין
כמלך
כממלא
כמנהג
כמנהיג
כמנהל
כמנהלת
כמנחה
כמנין
כמנכ
כמנצח
כמספר
כמעט
כמעין
כמערכת
כמעשה
כמפורט
כמפורש
כמפיק
כמפעיל
כמפקד
כמקובל
כמקום
כמקור
כמר
כמראה
כמרים
כמרכז
כמרצה
כמש
כמשה
כמשל
כמשמעו
כמשמעותה
כמשמעותו
כמשמעותם
כמשנה
כמשפט
כמת
כמתואר
כמתוכנן
כמתנה
כן
כנ
כנגד
כנגדה
כנגדו
כנגדם
כנגדן
כנגן
כנדרש
כנה
כנהג
כנהוג
כנו
כנודע
כנוסחו
כנופיות
כנופיית
כנושא
כנז
כנזכר
כנים
כניסה
כניסות
כניסת
כניסתה
כניסתו
כניסתם
כניעה
כניעת
כנישתא
כנלע
כנס
כנסה
כנסיות
כנסייה
כנסיית
כנסים
כנסת
כנען
כנעני
כנענית
כנער
כנף
כנפות
כנפי
כנפיו
כנפיים
כנפים
כנציג
כנקודת
כנקמה
כנר
כנראה
כנרת
כנשיא
כנשק
כס
כסא
כסאו
כסברא
כסגן
כסגנית
כסדר
כסדרן
כסוג
כסוי
כסוכן
כסולן
כסוף
כסופר
כסות
כסיל
כסימן
כסינגל
כסלו
כסמל
כסף
כספו
כספי
כספיות
כספיים
כספים
כספית
כספר
כסרט
כסתם
כעבד
כעבור
כעובד
כעוזר
כעוזרו
כעונש
כעורך
כעורכת
כעין
כעיקר
כעיר
כעיתונאי
כעל
כעניין
כענין
כעס
כעסו
כעץ
כערך
כעשור
כעשר
כעשרה
כעשרים
כעת
כף
כפ
כפה
כפו
כפוי
כפויה
כפול
כפולה
כפולות
כפולים
כפונקציה
כפועל
כפוף
כפופה
כפופות
כפופים
כפור
כפורים
כפות
כפי
כפיה
כפיו
כפייה
כפיים
כפילות
כפים
כפיר
כפירה
כפירוש
כפירש
כפל
כפלים
כפפות
כפקיד
כפר
כפרה
כפרופסור
כפרי
כפריים
כפרים
כפרית
כפרן
כפרשן
כפשוטו
כפתור
כפתורים
כפתרון
כץ
כצ
כצאן
כצייר
כציר
כצנלסון
כצעד
כקבוע
כקבוצה
כקילומטר
כקיסר
כקנין
כקפטן
כקצין
כקרקע
כר
כראוי
כראיה
כראש
כרב
כרבא
כרבה
כרבי
כרבים
כרבן
כרבנן
כרבע
כרגיל
כרגלי
כרגע
כרוב
כרוז
כרוך
כרוכה
כרום
כרומוזום
כרונולוגי
כרוני
כרונית
כרופא
כרזה
כרזות
כרזת
כרחה
כרחו
כרחין
כרחך
כרטיס
כרטיסי
כרטיסים
כרי
כרייה
כריית
כריכות
כריכת
כרים
כריס
כריסטוף
כריסטופר
כריסטי
כריסטיאן
כריסטין
כריסטינה
כריש
כרישים
כריתות
כריתת
כרך
כרכים
כרם
כרמב
כרמי
כרמיאל
כרמים
כרמל
כרמלה
כרמלי
כרמלית
כרמן
כרצונו
כרש
כרשב
כרשות
כרת
כרתי
כרתים
כש
כשאדם
כשאומר
כשאין
כשאינו
כשאמר
כשאנו
כשאני
כשאר
כשאת
כשאתה
כשב
כשבא
כשבוע
כשבועיים
כשבת
כשג
כשגריר
כשדה
כשדים
כשהגיע
כשהגיעו
כשהוא
כשהיא
כשהיה
כשהיו
כשהייתה
כשהם
כשהן
כשומר
כשוער
כשופט
כשורה
כשותף
כשזה
כשחזר
כשחיין
כשחיינית
כשחל
כשחקן
כשחקנית
כשטח
כשיגיע
כשיהיה
כשיטת
כשיעור
כשיצא
כשיר
כשירה
כשירות
כשירים
כשיש
כשכל
כשל
כשלא
כשלה
כשלו
כשלוש
כשלושה
כשלושים
כשליח
כשליט
כשלים
כשליש
כשלעצמה
כשלעצמו
כשם
כשמדובר
כשמו
כשמואל
כשמונה
כשמת
כשנה
כשני
כשנים
כשנכנס
כשנתיים
כשסיים
כשעה
כשעורה
כשעל
כשעלה
כשער
כשעת
כשפה
כשפים
כשפת
כשר
כשראה
כשרה
כשרות
כשרים
כשרין
כששיחק
כשתי
כת
כתב
כתבה
כתבו
כתבות
כתבי
כתביה
כתביו
כתבים
כתבינן
כתבם
כתבנו
כתבת
כתבתי
כתגובה
כתוב
כתובה
כתובו
כתובות
כתוביות
כתובים
כתובע
כתובת
כתובתה
כתום
כתוצאה
כתות
כתחליף
כתי
כתיב
כתיבא
כתיבה
כתיבי
כתיבת
כתיבתה
כתיבתו
כתלות
כתלמיד
כתם
כתמים
כתנא
כתנאי
כתף
כתפו
כתפיו
כתר
כתרומה
כתרים
כתת
ל
לא
לאב
לאבא
לאבד
לאבות
לאבותינו
לאבחון
לאבחן
לאבטחת
לאבי
לאביה
לאביהם
לאביו
לאביי
לאבל
לאבן
לאברהם
לאגודה
לאגודת
לאגם
לאגף
לאדום
לאדון
לאדם
לאדמה
לאדמו
לאדן
לאדריכלות
לאה
לאהבה
לאהדורי
לאהוב
לאהרן
לאו
לאובדן
לאוגוסט
לאוויר
לאוזן
לאויב
לאוין
לאויר
לאוכל
לאוכלו
לאוכלוסייה
לאולימפיאדת
לאולם
לאולפן
לאום
לאומה
לאומות
לאומי
לאומיות
לאומיים
לאומים
לאומית
לאומן
לאומנויות
לאומנות
לאומנים
לאומרו
לאון
לאוניברסיטה
לאוניברסיטת
לאוניות
לאונס
לאונרד
לאונרדו
לאוס
לאוסטריה
לאוסטרליה
לאוסף
לאוסרה
לאופולד
לאופי
לאופן
לאופק
לאופר
לאופרה
לאוצר
לאוקומי
לאוקטובר
לאוקיינוס
לאוקמה
לאוקמי
לאוקראינה
לאור
לאורה
לאורח
לאורך
לאורכה
לאורכו
לאושוויץ
לאות
לאותה
לאותו
לאותיות
לאותם
לאותן
לאזור
לאזורי
לאזורים
לאזן
לאזרח
לאזרחי
לאזרחים
לאח
לאחד
לאחדות
לאחוז
לאחור
לאחוריו
לאחותו
לאחיו
לאחים
לאחסון
לאחסן
לאחר
לאחראי
לאחרונה
לאחריה
לאחריהם
לאחריו
לאחריות
לאחרים
לאחת
לאט
לאטמוספירה
לאי
לאיבוד
לאיגוד
לאידך
לאיום
לאיוש
לאיזה
לאיזו
לאיחוד
לאיטליה
לאיי
לאיים
לאיכות
לאילן
לאילת
לאימון
לאימונים
לאימוץ
לאימות
לאימפריה
לאין
לאינטרנט
לאיסוף
לאיסור
לאיסורא
לאיראן
לאירוויזיון
לאירוח
לאירוע
לאירועי
לאירועים
לאירופה
לאירלנד
לאיש
לאישה
לאישור
לאישים
לאיתויי
לאיתור
לאכול
לאכוף
לאכילה
לאכילת
לאכיפת
לאכל
לאכלה
לאכלו
לאכלן
לאל
לאלבום
לאלה
לאלהים
לאלו
לאלוהים
לאלוף
לאלופות
לאלים
לאלימות
לאליפות
לאלמנה
לאלף
לאלפי
לאלפים
לאלץ
לאלתר
לאם
לאמה
לאמו
לאמונה
לאמור
לאמן
לאמנה
לאמנויות
לאמנות
לאמנים
לאמץ
לאמצע
לאמצעי
לאמר
לאמריקה
לאמת
לאן
לאנג
לאנגליה
לאנגלית
לאנה
לאנטארקטיקה
לאנס
לאנציקלופדיה
לאנרגיה
לאנשי
לאנשים
לאס
לאסון
לאסוף
לאסור
לאסירים
לאסלאם
לאסלו
לאספה
לאספקת
לאסתר
לאף
לאפגניסטן
לאפוטרופוס
לאפוקי
לאפות
לאפיין
לאפיפיור
לאפס
לאפריל
לאפריקה
לאפשר
לאפשרות
לאצטדיון
לאציו
לאקדמיה
לאקרנים
לאקשויי
לארבע
לארבעה
לארגון
לארגוני
לארגונים
לארגן
לארגנטינה
לארה
לארון
לארח
לארי
לארכאולוגיה
לארכב
לארמון
לארס
לארעא
לארץ
לארצו
לארצות
לאש
לאשה
לאשלי
לאשמועינן
לאשמעינן
לאשר
לאשת
לאשתו
לאשתי
לאתגר
לאתויי
לאתונה
לאתיופיה
לאתר
לאתרי
לאתרים
לב
לבא
לבאר
לבב
לבבו
לבבות
לבבי
לבבך
לבבכם
לבבל
לבבם
לבג
לבגרות
לבד
לבדה
לבדו
לבדוק
לבדיקה
לבדיקות
לבדיקת
לבדם
לבדק
לבה
לבהמה
לבו
לבוא
לבוב
לבוגרים
לבוד
לבודד
לבוט
לבולגריה
לבון
לבונדסליגה
לבונה
לבור
לבורא
לבוש
לבושה
לבושים
לבזבז
לבחון
לבחור
לבחינה
לבחינות
לבחינת
לבחירה
לבחירות
לבחירת
לבחירתו
לבטא
לבטח
לבטיחות
לבטל
לבטלה
לבטלו
לבי
לביא
לביאה
לבידוד
לביולוגיה
לביטוח
לביטוי
לביטול
לביטחון
לביים
לבין
לבינה
לביסוס
לביצוע
לביצועו
לביקור
לביקורות
לביקורת
לבירה
לבירור
לבירת
לבישול
לבישת
לבית
לביתה
לביתו
לביתם
לבך
לבכות
לבל
לבלבל
לבלגיה
לבלום
לבלוע
לבלות
לבלט
לבלי
לבלתי
לבם
לבמאי
לבמה
לבן
לבנ
לבנה
לבנו
לבנון
לבנונים
לבנות
לבני
לבניה
לבניו
לבנייה
לבניין
לבניית
לבנים
לבנין
לבנק
לבנת
לבסוף
לבסיס
לבסס
לבע
לבעול
לבעיה
לבעיות
לבעיית
לבעל
לבעלה
לבעלות
לבעלי
לבעליו
לבעלים
לבעלת
לבער
לבצע
לבקר
לבקרו
לבקרת
לבקש
לבקשה
לבקשת
לבקשתו
לבר
לברוא
לברוח
לברון
לברור
לברזיל
לבריאות
לבריות
לבריטים
לבריטניה
לברית
לברך
לברכה
לברכת
לברלין
לברצלונה
לברקוזן
לברר
לבש
לבשה
לבשו
לבשל
לבשר
לבת
לבתו
לבתי
לבתיהם
לבתים
לבתר
לג
לגאול
לגאולה
לגבוה
לגבול
לגבולות
לגבור
לגבות
לגבי
לגביה
לגביהם
לגביהן
לגביו
לגביית
לגביע
לגבר
לגברים
לגבש
לגג
לגדוד
לגדול
לגדולה
לגדור
לגדל
לגדר
לגו
לגובה
לגודל
לגוי
לגוף
לגופה
לגופו
לגופיה
לגופים
לגור
לגורם
לגורמים
לגוש
לגזול
לגזור
לגזירה
לגזע
לגטו
לגיבור
לגיבוש
לגידול
לגיהנם
לגיון
לגיונות
לגיוס
לגיטימי
לגיטימית
לגיטימציה
לגייס
לגיל
לגילאי
לגילוי
לגירוש
לגירושין
לגישה
לגל
לגלגל
לגלות
לגלח
לגלם
לגמול
לגמור
לגמלאות
לגמר
לגמרי
לגן
לגנוב
לגנות
לגנרל
לגעת
לגר
לגרום
לגרוע
לגרור
לגרמניה
לגרמנים
לגרמנית
לגרסה
לגרסת
לגרעין
לגרש
לגרשה
לגשר
לגשת
לד
לדאוג
לדבוק
לדבר
לדברי
לדבריה
לדבריהם
לדבריו
לדבריך
לדברים
לדגל
לדגם
לדה
לדו
לדוגמא
לדוגמה
לדוד
לדווח
לדוכן
לדון
לדופן
לדור
לדורות
לדחוף
לדחוק
לדחות
לדחיית
לדידהו
לדידי
לדידיה
לדידן
לדיווח
לדיון
לדיונים
לדיור
לדיין
לדייק
לדיכוי
לדין
לדינא
לדיני
לדירה
לדירוג
לדכא
לדלג
לדלת
לדם
לדמויות
לדמוקרטיה
לדמות
לדמותו
לדמי
לדמיין
לדמשק
לדניאל
לדנמרק
לדעה
לדעת
לדעתה
לדעתו
לדעתי
לדעתך
לדעתכם
לדעתם
לדף
לדפוס
לדפי
לדצמבר
לדקדק
לדקה
לדרג
לדרגה
לדרגת
לדרום
לדרוש
לדרישה
לדרישות
לדרישת
לדרך
לדרכו
לדרמה
לדת
לה
להא
להאזין
להאט
להאי
להאיץ
להאיר
להאכיל
להאכילו
להאמין
להאריך
להארכה
להארכת
להאשים
להב
להבא
להבאת
להבדיל
להבהיר
להבות
להבחין
להבטחת
להבטיח
להבי
להביא
להביאו
להביאם
להביט
להבים
להבין
להביס
להביע
להבנה
להבנת
להבנתי
להבקיע
להבריח
להגביה
להגביל
להגביר
להגבלת
להגברת
להגדיל
להגדיר
להגדלת
להגדרה
להגדרת
להגות
להגיב
להגיד
להגיה
להגיע
להגירה
להגיש
להגן
להגנה
להגנת
להגר
להגשים
להגשת
להד
להדביק
להדגים
להדגיש
להדדי
להדוף
להדיא
להדיוט
להדיח
להדליק
להדפיס
להדריך
לההוא
לההיא
להו
להוביל
להובלת
להודו
להודות
להודיע
להודיעו
להודיעך
להודעה
להוות
להוי
להוכחת
להוכיח
להוליד
להוליך
להולכי
להולנד
להון
להונגריה
להוסיף
להוספה
להוספת
להועיל
להופיע
להופעה
להופעות
להופעת
להוצאה
להוצאות
להוצאת
להוציא
להוציאה
להוציאו
להוציאם
להוראה
להוראות
להוראת
להורג
להורגו
להורדה
להורדת
להורות
להוריד
להוריו
להורים
להותיר
להזדהות
להזהיר
להזהר
להזיז
להזין
להזיק
להזכיר
להזמין
להחזיק
להחזיר
להחזירה
להחזירו
להחזירם
להחזרת
להחיות
להחיל
להחלטה
להחלטות
להחלטת
להחליט
להחליף
להחליפו
להחליש
להחלפה
להחלפת
להחמיץ
להחמיר
להחרים
להט
להטביע
להטות
להטיב
להטיל
להטיף
להטלת
להטמין
להטעות
להיאבק
להיבחן
להיבחר
להיבנות
להיגרם
להיווצר
להיווצרות
להיום
להיות
להיותה
להיותו
להיותם
להיזהר
להיחלץ
להיחשב
להיט
להיטיב
להיטים
להיטלר
להיכא
להיכל
להיכלל
להיכן
להיכנס
להיכנע
להיכתב
להילחם
להימחק
להימלט
להימנע
להימצא
להימשך
להינצל
להינשא
להינתן
להיסטוריה
להיעדר
להיעזר
להיעלם
להיענות
להיערך
להיעשות
להיפגע
להיפגש
להיפטר
להיפך
להיפרד
להיפתח
להיקף
להיקרא
להיראות
להיריון
להירשם
להישאר
להישבע
להישג
להישגים
להישמע
להיתר
להך
להכות
להכחיש
להכי
להכיל
להכין
להכיר
להכליל
להכניס
להכניע
להכנס
להכנסת
להכנת
להכעיס
להכרה
להכריז
להכריח
להכריע
להכרעה
להכרעת
להכרת
להכשיר
להכשרה
להכשרת
להלוות
להלחין
להלחם
להליך
להלך
להלכה
להלל
להלן
להם
להמחיש
להמיר
להמית
להמליץ
להמן
להמנע
להמציא
להמשיך
להמשך
להמתין
להן
להנדסה
להנדסת
להנהגת
להנהיג
להנהלת
להנות
להנחות
להנחיות
להנחיל
להנחת
להני
להניח
להניחו
להניע
להניף
להניק
להנך
להנפיק
להנצחת
להנציח
להנצל
להנשא
להסב
להסביר
להסבר
להסגיר
להסדיר
להסדר
להסדרת
להסיט
להסיק
להסיר
להסכים
להסכם
להסכמה
להסמיך
להסקה
להסרת
להסתגל
להסתדר
להסתובב
להסתיים
להסתיר
להסתכל
להסתלק
להסתמך
להסתפק
להסתתר
להעביר
להעבירו
להעברה
להעברת
להעדיף
להעיד
להעיר
להעלאת
להעלות
להעלותו
להעלים
להעמיד
להעמידו
להעמיק
להעניק
להעניש
להענקת
להעסיק
להעפיל
להערות
להעריך
להערכה
להערכת
להעשות
להעשיר
להעתיק
להפגין
להפוך
להפועל
להפחית
להפחתת
להפטר
להפיכת
להפיל
להפיץ
להפיק
להפך
להפלות
להפליא
להפליג
להפנות
להפסד
להפסיד
להפסיק
להפסקת
להפעיל
להפעלה
להפעלת
להפצה
להפצת
להפקה
להפקיד
להפקיע
להפקת
להפר
להפרדה
להפריד
להפריך
להפריע
להפריש
להפרעות
להצביע
להצבעה
להצבעות
להצבעת
להצגה
להצגת
להצדיק
להצהיר
להצטרף
להצטרפות
להציב
להציג
להציל
להצילו
להציע
להצלחה
להצלחת
להצליח
להצלת
להצמיד
להצעה
להצעות
להצעת
להק
להקב
להקדים
להקדיש
להקדש
להקה
להקות
להקטין
להקטיר
להקים
להקיף
להקיש
להקל
להקליט
להקמת
להקמתה
להקמתו
להקנות
להקפיד
להקצות
להקרבה
להקריב
להקשות
להקשיב
להקת
להקתו
להר
להרא
להראות
להרב
להרבה
להרבות
להרגו
להרגיע
להרגיש
להרהר
להרוג
להרוויח
להרויח
להרוס
להרחבה
להרחבת
להרחיב
להרחיק
להרי
להריון
להריח
להרים
להריץ
להרכב
להרכיב
להרמב
להרס
להרע
להרצות
להרשות
להרתיע
להש
להשאיל
להשאיר
להשאר
להשביע
להשבת
להשגה
להשגיח
להשגת
להשהות
להשוואה
להשוות
להשחית
להשי
להשיא
להשיב
להשיג
להשכיל
להשכיר
להשכלה
להשכרה
להשליך
להשלים
להשלמת
להשם
להשמדה
להשמדת
להשמיד
להשמיט
להשמיע
להשמיענו
להשפיע
להשפעה
להשקות
להשקיע
להשקעה
להשקעות
להשתדל
להשתחוות
להשתחרר
להשתכר
להשתלב
להשתלט
להשתמש
להשתנות
להשתתף
להשתתפות
להתאבד
להתאבל
להתאושש
להתאחד
להתאים
להתאמה
להתאמן
להתארגן
להתבונן
להתבטא
להתבסס
להתבצע
להתגבר
להתגונן
להתגורר
להתגייס
להתגייר
להתגלות
להתגרש
להתווכח
להתחבר
להתחדשות
להתחזק
להתחייב
להתחיל
להתחמק
להתחרות
להתחשב
להתחתן
להתייחס
להתייחסות
להתייעץ
להתייצב
להתיישב
להתיישבות
להתיר
להתירה
להתירו
להתכונן
להתלבש
להתלונן
להתם
להתמודד
להתמודדות
להתמחות
להתמנות
להתמקד
להתנגד
להתנגדות
להתנדב
להתנהג
להתנהגות
להתנהל
להתנות
להתנסות
להתנצל
להתנקש
להתנתק
להתעורר
להתעלות
להתעלם
להתעמת
להתענות
להתעניין
להתעסק
להתערב
להתערבות
להתפטר
להתפלל
להתפנות
להתפרנס
להתפרסם
להתפרצות
להתפרק
להתפרש
להתפשט
להתפשטות
להתפשר
להתפתח
להתפתחות
להתקבל
להתקדם
להתקדמות
להתקיים
להתקין
להתקפה
להתקפות
להתקרב
להתקשר
להתראות
להתרבות
להתרחב
להתרחק
להתרחש
להתרכז
להתרשם
לו
לואי
לואיג
לואיז
לואיזה
לואיזיאנה
לואיס
לוב
לובאטו
לובי
לובלין
לובן
לובש
לובשים
לובשת
לוג
לוגאן
לוגו
לוגי
לוגין
לוגיקה
לוגית
לוגן
לוד
לודוויג
לודז
לוה
לוהק
לוהקה
לוהקו
לוו
לוואי
לוודא
לוודאי
לווה
לוויין
לווייני
לוויינים
לווייתן
לווייתנים
לוויכוח
לווין
לווינה
לוויקיפדיה
לוויקישיתוף
לוועד
לוועדה
לוועדת
לוועידה
לוורשה
לוושינגטון
לוותה
לוותר
לוז
לוזאן
לוח
לוחות
לוחיות
לוחית
לוחם
לוחמה
לוחמי
לוחמים
לוחמת
לוחץ
לוט
לוטננט
לוי
לויד
לויה
לויטננט
לוים
לוין
לוינסון
לוינסקי
לוינשטיין
לויקיפדיה
לויתן
לול
לולא
לולב
לולה
לולי
לומברדיה
לומד
לומדים
לומדת
לומר
לון
לונג
לונדון
לונה
לוס
לוסי
לוסיה
לוע
לועדה
לועדת
לופז
לופס
לוצ
לוק
לוקאס
לוקה
לוקהיד
לוקומוטיב
לוקח
לוקחים
לוקחין
לוקחת
לוקי
לוקיוס
לוקין
לוקס
לוקסמבורג
לורד
לורה
לורי
לוריא
לורן
לורנס
לורנץ
לורנצו
לות
לותר
לז
לזאת
לזה
לזהב
לזהות
לזהותו
לזו
לזוג
לזוגות
לזוז
לזוכה
לזולת
לזולתו
לזון
לזיהוי
לזיהום
לזיכרון
לזירה
לזירת
לזכויות
לזכור
לזכות
לזכותו
לזכייה
לזכייתה
לזכר
לזכרה
לזכרו
לזכרון
לזכרים
לזכרם
לזלזל
לזלי
לזמן
לזמנו
לזמר
לזמרת
לזנות
לזר
לזרום
לזרוע
לזרוק
לזרז
לזרים
לזריעה
לזרם
לזרע
לח
לחבור
לחבורה
לחבירו
לחבל
לחבר
לחברה
לחברו
לחברות
לחברי
לחבריה
לחבריו
לחברים
לחברת
לחברתה
לחג
לחגוג
לחד
לחדול
לחדור
לחדר
לחדש
לחה
לחו
לחוב
לחובה
לחובות
לחוג
לחוד
לחודיה
לחודש
לחוות
לחוזה
לחול
לחולה
לחולי
לחולים
לחולין
לחולל
לחום
לחומה
לחומות
לחומר
לחומרא
לחומרים
לחוסר
לחוף
לחופה
לחופי
לחופש
לחופשה
לחופשי
לחוץ
לחוק
לחוקה
לחוקי
לחוקים
לחוקק
לחוקר
לחוקרים
לחוקת
לחורבן
לחוש
לחות
לחזור
לחזות
לחזית
לחזק
לחזקה
לחזר
לחזרה
לחטא
לחטאת
לחטוא
לחטוף
לחטיבה
לחטיבת
לחי
לחיבור
לחידוש
לחיה
לחיוב
לחיות
לחיזוק
לחיי
לחייב
לחייבו
לחייה
לחייהם
לחייו
לחייל
לחיילי
לחיילים
לחיים
לחיל
לחילופין
לחילוץ
לחים
לחימה
לחינוך
לחיסול
לחיפה
לחיפוש
לחיצה
לחיקוי
לחירות
לחישוב
לחכות
לחכם
לחכמה
לחכמי
לחכמים
לחלב
לחלבון
לחלה
לחלוטין
לחלום
לחלון
לחלופין
לחלוץ
לחלוק
לחלוקה
לחלוקת
לחלות
לחלל
לחללי
לחלץ
לחלק
לחלקו
לחלקים
לחלקם
לחם
לחמה
לחמו
לחמוק
לחמי
לחמישה
לחמישייה
לחמישיית
לחמם
לחמש
לחן
לחנה
לחנויות
לחנות
לחנים
לחנך
לחסוך
לחסום
לחסידות
לחסימה
לחסל
לחפור
לחפש
לחץ
לחצאין
לחצו
לחצות
לחצי
לחצים
לחצר
לחקור
לחקות
לחקיקה
לחקירה
לחקירות
לחקירת
לחקלאות
לחקר
לחרוג
לחרוש
לחרם
לחש
לחשב
לחשבון
לחשוב
לחשוד
לחשוף
לחשוש
לחשיבה
לחשיבות
לחשיפה
לחתוך
לחתום
לחתונה
לחתור
לחתימה
לחתימת
לחתן
לט
לטאה
לטאות
לטבול
לטבח
לטביה
לטבע
לטהר
לטהרה
לטוב
לטובה
לטובת
לטובתו
לטובתם
לטווח
לטומאה
לטוס
לטור
לטורניר
לטורקיה
לטיוטה
לטיול
לטייל
לטייס
לטיני
לטיניות
לטינית
לטיסה
לטיסות
לטיפול
לטכנולוגיה
לטלוויזיה
לטלטל
לטלטלו
לטמא
לטמפרטורה
לטעום
לטעון
לטעות
לטעם
לטעמא
לטעמי
לטעמיה
לטענה
לטענות
לטענת
לטענתה
לטענתו
לטענתם
לטפח
לטפל
לטפס
לטקס
לטקסט
לטרוח
לטרון
לטרוף
לטרור
לי
ליאה
ליאו
ליאון
ליאופולד
ליאור
ליאם
ליאת
ליב
ליבה
ליבו
ליבוביץ
ליבום
ליבון
ליבי
ליבם
ליבנה
ליברטדורס
ליברטי
ליבריה
ליברלי
ליברליות
ליברלים
ליברלית
ליברמן
ליברפול
ליבשה
ליבשת
ליבת
ליג
ליגה
ליגות
ליגע
ליגת
ליד
לידה
לידו
לידות
לידי
לידיה
לידיהם
לידיו
לידיים
לידים
לידיעת
לידם
לידס
לידע
לידר
לידת
לידתה
לידתו
ליה
ליהדות
ליהודה
ליהודי
ליהודים
ליהוה
ליהוי
ליהוק
ליהושע
ליהנות
ליו
ליוגוסלביה
ליוו
ליווה
ליווי
ליוון
ליוותה
ליוטיוב
ליולי
ליום
ליון
ליוני
ליונל
ליוסף
ליועץ
ליורו
ליורש
ליורשו
ליורשי
ליורשיו
ליושב
ליותר
ליז
ליזה
ליזהר
ליזום
ליחיד
ליחידה
ליחידות
ליחידים
ליחידת
ליחס
ליחסי
ליחסים
ליטא
ליטאי
ליטאים
ליטול
ליטל
ליטע
ליטר
ליטרא
ליטרים
ליי
לייב
לייבא
לייבם
לייבניץ
ליידי
ליידע
לייז
לייזר
לייחס
לייט
ליילה
ליין
לייסד
לייסוד
לייעוץ
לייעץ
לייף
לייפציג
לייצב
לייצג
לייצוא
לייצוג
לייצור
לייצר
לייק
לייקרס
ליישב
ליישוב
ליישובים
ליישום
ליישם
ליכא
ליכולת
ליכטנשטיין
ליכי
ליכנס
ליל
לילד
לילדי
לילדים
לילה
לילות
לילי
ליליא
ליליאן
לילית
לילך
לים
לימא
לימד
לימדה
לימדו
לימה
לימוד
לימודי
לימודיה
לימודיהם
לימודיו
לימודים
לימון
לימור
לימות
לימי
לימים
לימין
לימינו
לין
לינדה
לינדון
לינדזי
לינה
לינואר
לינוקס
ליניאוס
ליניארי
ליניארית
לינץ
לינק
לינקולן
לינשא
ליס
ליסבון
ליסה
ליסוד
ליסט
ליסין
ליעד
ליעדים
ליעקב
ליער
ליערות
ליף
ליפה
ליפו
ליפול
ליפות
ליפן
ליפרע
ליפשיץ
ליצור
ליצחק
ליציאה
ליציאת
ליציאתו
ליצירה
ליצירות
ליצירת
ליצירתו
ליצרן
ליקוט
ליקוטי
ליקוי
ליקויים
ליקום
ליקח
ליר
ליראה
לירד
לירדן
לירה
לירון
לירושלים
לירות
לירח
לירי
לירידה
לירידת
לירן
לירש
ליש
לישא
לישאל
לישב
לישבע
לישון
לישיבה
לישיבות
לישיבת
לישן
לישנא
לישני
לישראל
לית
ליתא
ליתומים
ליתי
ליתיה
ליתיום
ליתן
ליתנו
ליתני
ליתר
ליתרון
לך
לכ
לכאב
לכאורה
לכאן
לכבד
לכבוד
לכבודו
לכבוש
לכבות
לכביש
לכבס
לכבש
לכדור
לכדורגל
לכדורגלן
לכדי
לכה
לכהונה
לכהונת
לכהן
לכהנים
לכו
לכוון
לכוח
לכוחות
לכוחותיו
לכוין
לכוכב
לכוכבים
לכול
לכולהו
לכולי
לכולם
לכולן
לכולנו
לכונן
לכוף
לכופו
לכותב
לכותל
לכח
לכי
לכיבוש
לכידת
לכיוון
לכיכר
לכימיה
לכינוי
לכינון
לכינור
לכיסוי
לכיש
לכישלון
לכיתה
לכך
לככב
לכל
לכלא
לכלב
לכלבים
לכלוך
לכלול
לכלום
לכלי
לכלים
לכלכלה
לכלל
לכללי
לכללים
לכם
לכמה
לכמות
לכן
לכנוס
לכנות
לכניסה
לכניסת
לכנס
לכנסייה
לכנסת
לכנען
לכס
לכסות
לכסף
לכף
לכפול
לכפות
לכפר
לכפרה
לכרות
לכרך
לכרמלית
לכת
לכתב
לכתבה
לכתבי
לכתוב
לכתובה
לכתובת
לכתחילה
לכתחלה
לכתיבה
לכתיבת
לכתר
לל
ללא
ללאה
ללאו
ללב
ללבוש
ללבן
ללבנון
ללדת
ללהיט
ללהקה
ללהקת
ללוה
ללוות
ללוח
ללוחמה
ללוחמים
ללוי
ללון
ללונדון
ללוס
ללוקח
ללוש
ללחום
ללחוץ
ללחימה
ללחם
ללחץ
לליגה
לליגת
ללילה
ללימוד
ללימודי
ללימודים
ללישנא
ללכוד
ללכת
ללמד
ללמדך
ללמדנו
ללמוד
ללמידה
ללקוח
ללקוחות
ללקות
ללקט
ללשון
ללשכת
לם
למ
למאבק
למאגר
למאה
למאות
למאזן
למאי
למאכל
למאמן
למאמנה
למאמץ
למאמר
למאן
למאסר
למבוגרים
למבוי
למבחן
למבנה
למבנים
למבצע
למבצעים
למבצר
למבקר
למבקרים
למבקש
למברט
למגדל
למגוון
למגורי
למגורים
למגזין
למגזר
למגע
למגרש
למד
למדבר
למדד
למדה
למדו
למדוד
למדי
למדידה
למדידת
למדים
למדין
למדינה
למדינות
למדיניות
למדינת
למדנו
למדע
למדעי
למדעים
למדרגה
למדרש
למדת
למדתי
למה
למהדורה
למהוי
למהירות
למהלך
למהפכה
למהר
למו
למוד
למודיעין
למודל
למוות
למוזיאון
למוזיקה
למוח
למוטב
למוכר
למוכרו
למול
למונדיאל
למונח
למוסד
למוסדות
למוסיקה
למוסלמים
למוסקבה
למועד
למועדון
למועמד
למועצה
למועצת
למופע
למוצא
למוצאי
למוצר
למוצרי
למוצרים
למוקד
למורדים
למורה
למורים
למורשת
למורת
למושב
למושבה
למושג
למושל
למות
למותה
למותו
למותם
למזבח
למזג
למזון
למזונות
למזכיר
למזרח
למחוז
למחוזות
למחול
למחוק
למחות
למחזה
למחזור
למחזיק
למחזיקות
למחזמר
למחיקה
למחיקת
למחלה
למחלוקת
למחלות
למחלקה
למחלקת
למחלת
למחנה
למחנות
למחצה
למחצית
למחקר
למחקרי
למחקרים
למחר
למחרת
למחשב
למחשבה
למחשבים
למחתרת
למטבע
למטה
למטוס
למטוסי
למטוסים
למטופל
למטען
למטר
למטרה
למטרות
למטרת
למי
למיגזר
למידה
למידע
למידק
למידת
למיזם
למיחש
למיטב
למיכל
למיכתב
למילה
למילוי
למיליון
למילים
למילף
למים
למימון
למימוש
למימר
למימרא
למין
למינהל
למינוי
למינויו
למיני
למיניהם
למינים
למיעבד
למיעוט
למיפרך
למיקום
למיקם
למישהו
למישור
למיתב
למיתה
למיתני
למיתקן
למכבי
למכה
למכון
למכוניות
למכונית
למכור
למכירה
למכירת
למכרה
למכרו
למכשיר
למכתב
למל
למלא
למלאות
למלאך
למלאכה
למלאכת
למלוה
למלוך
למלוכה
למלון
למלחמה
למלחמות
למלחמת
למלך
למלכה
למלכות
למלכי
למלכים
לממון
לממונה
לממלכה
לממלכת
לממן
לממש
לממשל
לממשלה
לממשלת
למן
למנהג
למנהיג
למנהיגות
למנהל
למנהלת
למנוחה
למנוע
למנות
למנותו
למנזר
למנחה
למנין
למניעת
למנכ
למנצ
למנצח
למנקט
למס
למסגד
למסגרת
למסדר
למסור
למסורת
למסחר
למסירת
למסך
למסכת
למסלול
למסע
למסעות
למספר
למספרים
למסקנה
למעבד
למעבר
למעגל
למעוטי
למעורבות
למעט
למעיין
למעין
למעל
למעלה
למעמד
למען
למענה
למענו
למענק
למעצר
למעקב
למערב
למערה
למערך
למערכה
למערכות
למערכת
למעשה
למעשי
למעשים
למעשר
למפגש
למפלגה
למפלגות
למפלגת
למפעיל
למפעילים
למפעל
למפקד
למפקדת
למפקח
למפר
למפרע
למפרץ
למצא
למצב
למצבו
למצבים
למצוא
למצוה
למצוות
למצות
למציאות
למציאת
למצעד
למצרים
למקבל
למקדש
למקהלה
למקובל
למקוה
למקום
למקומה
למקומו
למקומות
למקור
למקורות
למקלט
למקם
למקסיקו
למקצוע
למקצועות
למקרא
למקרה
למקרים
למר
למראה
למראית
למרבה
למרבית
למרגלות
למרד
למרדכי
למרוד
למרוץ
למרות
למרחב
למרחוק
למרחק
למרחקים
למרי
למריה
למרים
למרכז
למרץ
למרצה
למשא
למשבר
למשה
למשהו
למשוך
למשול
למשחק
למשחקי
למשחקים
למשטר
למשטרה
למשטרת
למשימה
למשימות
למשימת
למשך
למשכב
למשכן
למשל
למשלוח
למשלחת
למשמע
למשמעות
למשמעת
למשמר
למשמרת
למשנה
למשנהו
למשפחה
למשפחות
למשפחת
למשפחתו
למשפט
למשפטים
למשק
למשקל
למשרד
למשרדי
למשרה
למשרת
למשתמש
למשתמשים
למת
למתוח
למתחם
למתים
למתמטיקה
למתן
למתני
למתניתין
למתקן
למתקפה
לן
לנ
לנאום
לנאשם
לנבוע
לנבחרות
לנבחרת
לנביא
לנג
לנגב
לנגד
לנגן
לנד
לנדא
לנדאו
לנדבה
לנדה
לנדוד
לנה
לנהג
לנהוג
לנהיגה
לנהל
לנהר
לנו
לנובמבר
לנווט
לנוח
לנוי
לנוכח
לנוכחות
לנון
לנוסח
לנוסעים
לנוע
לנוער
לנוצרים
לנורווגיה
לנורמנדי
לנושא
לנושאי
לנושאים
לנותן
לנזיר
לנזק
לנזקים
לנזקקים
לנח
לנחות
לנחיתה
לנחל
לנחלה
לנחש
לנטוש
לנטות
לנטילת
לנטרל
לנטרן
לני
לניהול
לניו
לניירות
לנין
לנינגרד
לניסוח
לניסיון
לניצול
לניצחון
לניקוי
לנישואים
לנישואין
לניתוח
לנכון
לנכות
לנכים
לנכס
לנכסי
לנכרי
לנמל
לנמק
לנסוע
לנסות
לנסח
לנסיבות
לנסיגה
לנסיך
לנסיעה
לנעול
לנער
לנערות
לנערים
לנפגעי
לנפח
לנפילת
לנפש
לנפשו
לנפשיה
לנצ
לנצח
לנציב
לנציג
לנצל
לנצרות
לנקבה
לנקבות
לנקה
לנקודה
לנקודות
לנקודת
לנקוט
לנקום
לנקות
לנקסטר
לנר
לנשום
לנשיא
לנשיאה
לנשיאות
לנשיאת
לנשים
לנשמה
לנשק
לנתבע
לנתונים
לנתח
לנתק
לס
לסבב
לסבול
לסביבה
לסביות
לסבית
לסברת
לסגור
לסגירת
לסגל
לסגן
לסגנו
לסגנון
לסגת
לסדר
לסדרה
לסדרות
לסדרת
לסהרה
לסוג
לסוגי
לסוגיה
לסוגים
לסווג
לסוחר
לסוכה
לסוכנות
לסוף
לסופר
לסופרים
לסוריה
לסחוט
לסחור
לסחר
לסטודנטים
לסטות
לסטטיסטיקה
לסטים
לסטר
לסי
לסיבוב
לסיום
לסיומה
לסיוע
לסיור
לסיים
לסייע
לסיכום
לסיכון
לסילוק
לסימון
לסימן
לסין
לסינגל
לסיפור
לסיקור
לסירוגין
לסך
לסכום
לסכך
לסכל
לסכם
לסכן
לסכסוך
לסל
לסלי
לסלק
לסלקו
לסמוך
לסמים
לסמכות
לסמל
לסמן
לסן
לסנאט
לסנט
לסנר
לסעודה
לסעיף
לספוג
לספור
לספורט
לספח
לספטמבר
לספינה
לספינות
לספירה
לספירת
לספק
לספר
לספרד
לספרו
לספרות
לספרי
לספרייה
לספרים
לסקר
לסרב
לסרט
לסרטי
לסרטים
לסרטן
לסתום
לסתור
לע
לעבד
לעבדו
לעבדות
לעבדים
לעבוד
לעבודה
לעבודות
לעבודת
לעבודתו
לעבור
לעבירה
לעבר
לעברו
לעברית
לעג
לעד
לעדה
לעדות
לעדים
לעדכן
לעובד
לעובדה
לעובדי
לעובדים
לעובר
לעוד
לעודד
לעוה
לעוזר
לעולה
לעולים
לעולם
לעולמו
לעומק
לעומת
לעומתו
לעומתם
לעונה
לעונש
לעונת
לעוף
לעופות
לעור
לעורך
לעורכים
לעורר
לעז
לעזאזל
לעזה
לעזוב
לעזור
לעזר
לעזרה
לעזרת
לעזרתו
לעיבוד
לעידוד
לעידן
לעיון
לעיטור
לעיין
לעיירה
לעיכוב
לעיל
לעילא
לעימות
לעין
לעיני
לעינים
לעיסוק
לעיצוב
לעיקר
לעיר
לעיראק
לעיתון
לעיתונות
לעיתים
לעכב
לעכו
לעכשיו
לעלות
לעליה
לעלייה
לעליית
לעלמא
לעלמין
לעם
לעמדה
לעמדות
לעמדת
לעמו
לעמוד
לעמים
לעמית
לעמק
לענ
לענוד
לענות
לעני
לעניות
לעניים
לעניין
לענייני
לעניינים
לענין
לעניני
לענף
לעסוק
לעסק
לעסקה
לעסקים
לעץ
לעצב
לעצור
לעצים
לעצם
לעצמאות
לעצמה
לעצמו
לעצמי
לעצמך
לעצמם
לעצמן
לעקוב
לעקוף
לעקור
לעקרונות
לערב
לערבים
לערבית
לערוך
לערוץ
לערור
לערי
לעריכה
לעריכת
לערים
לערך
לערכי
לערכים
לערעור
לערעורים
לערער
לעשה
לעשו
לעשות
לעשותה
לעשותו
לעשותם
לעשותן
לעשיית
לעשירייה
לעשן
לעשר
לעשרה
לעשרות
לעשרים
לעשרת
לעת
לעתיד
לעתים
לפ
לפארק
לפברואר
לפגוע
לפגוש
לפגיעה
לפגישה
לפגם
לפדות
לפדותו
לפדיון
לפה
לפולחן
לפוליטיקה
לפולין
לפום
לפונקציה
לפועל
לפועלים
לפופולרי
לפופולריות
לפוצץ
לפורט
לפורטוגל
לפורטל
לפזר
לפחד
לפחות
לפטור
לפטירתו
לפטר
לפי
לפיגוע
לפיד
לפידות
לפיה
לפיהם
לפיהן
לפיו
לפיזור
לפיזיולוגיה
לפיזיקה
לפייס
לפיכך
לפילוסופיה
לפינה
לפינוי
לפיצוי
לפיצויים
לפיצוץ
לפיקוד
לפיקוח
לפירוק
לפירוש
לפירושו
לפירות
לפיתוח
לפלוני
לפלוש
לפליטים
לפלייאוף
לפלישה
לפלס
לפלסטינים
לפמ
לפנה
לפנות
לפני
לפניה
לפניהם
לפניו
לפניך
לפניכם
לפנים
לפנינו
לפסגת
לפסול
לפסוק
לפסח
לפסטיבל
לפסיכולוגיה
לפסל
לפסנתר
לפסק
לפסקה
לפסקול
לפע
לפעוטות
לפעול
לפעולה
לפעולות
לפעולת
לפעילויות
לפעילות
לפעילותו
לפעם
לפעמים
לפענח
לפצות
לפצל
לפקד
לפקוד
לפקודה
לפקודת
לפקח
לפקיד
לפקפק
לפר
לפרוטוקול
לפרויקט
לפרויקטים
לפרוס
לפרוע
לפרופסור
לפרוץ
לפרוק
לפרוש
לפרושי
לפרט
לפרטיות
לפרטים
לפריז
לפריצת
לפרישתו
לפרלמנט
לפרנס
לפרס
לפרסום
לפרסם
לפרעה
לפרעון
לפרק
לפרקים
לפרש
לפרשה
לפרשו
לפרשנות
לפרשת
לפשוט
לפשט
לפשע
לפשרה
לפת
לפתוח
לפתור
לפתות
לפתח
לפתיחה
לפתיחת
לפתע
לפתרון
לצ
לצאת
לצאתו
לצבא
לצבוע
לצבור
לצבי
לצבע
לצד
לצדדים
לצדדין
לצדה
לצדו
לצדיק
לצדיקים
לצדם
לצדק
לצדקה
לצה
לצו
לצוד
לצוות
לצום
לצומת
לצופה
לצופים
לצור
לצורה
לצורך
לצורכי
לצורת
לצחוק
לצטט
לצי
לציבור
לציד
לצידה
לצידו
לצידם
לציוד
לציון
לציונות
לציור
לציין
לצייר
לציית
לצילום
לציר
לצל
לצלם
לצמד
לצמוח
לצמיחה
לצמיתות
לצמצום
לצמצם
לצמרת
לצעוד
לצעוק
לצעירים
לצערי
לצפון
לצפות
לצפייה
לצרוך
לצריכה
לצרכי
לצרכיו
לצרכים
לצרכן
לצרכנים
לצרף
לצרפת
לצרפתית
לק
לקב
לקבוע
לקבוצה
לקבוצות
לקבוצת
לקבוצתו
לקבור
לקבורה
לקביעת
לקבל
לקבלה
לקבלו
לקבלם
לקבלת
לקבץ
לקבר
לקברו
לקדושה
לקדם
לקדמותו
לקדנציה
לקדש
לקדשה
לקדשו
לקה
לקהילה
לקהילות
לקהילת
לקהיר
לקהל
לקו
לקואליציה
לקובה
לקובץ
לקוד
לקודש
לקווי
לקוח
לקוחה
לקוחות
לקוחים
לקוטי
לקוי
לקויה
לקויות
לקול
לקולא
לקולנוע
לקום
לקונגרס
לקונה
לקופת
לקורא
לקוראים
לקורבנות
לקוריאה
לקורס
לקות
לקח
לקחה
לקחו
לקחים
לקחת
לקחתי
לקט
לקטגוריה
לקטגוריות
לקטן
לקטע
לקטעי
לקי
לקיבוץ
לקידום
לקידוש
לקידושין
לקיום
לקיומה
לקיומו
לקיומם
לקיחה
לקיחת
לקיים
לקיימה
לקיימו
לקיסר
לקיר
לקיש
לקישור
לקלוט
לקליטת
לקליפורניה
לקלל
לקמיה
לקמן
לקמפיין
לקנדה
לקנות
לקנותו
לקנס
לקס
לקסיקון
לקפוץ
לקפטן
לקפריסין
לקצבה
לקצה
לקצור
לקצין
לקציני
לקצינים
לקצץ
לקצר
לקרא
לקראת
לקראתו
לקרב
לקרבות
לקרבן
לקרוא
לקרוע
לקרות
לקרותו
לקריאה
לקריאת
לקריירה
לקריית
לקרינה
לקרן
לקרקע
לקשור
לקשיים
לקשר
לקשת
לר
לראובן
לראות
לראותה
לראותו
לראיה
לראש
לראשו
לראשון
לראשונה
לראשות
לראשי
לרב
לרבא
לרבה
לרבו
לרבויי
לרבות
לרבותא
לרבי
לרבים
לרבינו
לרבנות
לרבנים
לרבנן
לרבע
לרבקה
לרגימנט
לרגל
לרגלי
לרגע
לרדוף
לרדיו
לרדת
לרה
לרוב
לרובע
לרווחת
לרוח
לרוחב
לרוחק
לרומא
לרומן
לרומניה
לרוסיה
לרוע
לרופא
לרופאים
לרוץ
לרחבה
לרחוב
לרחובות
לרחוץ
לרחל
לרחם
לריאל
לריב
לריח
לריפוי
לריש
לרישום
לרישיון
לרכב
לרכבת
לרכוב
לרכוש
לרכז
לרכישה
לרכישת
לרכס
לרמב
לרמה
לרמוז
לרמות
לרמז
לרמטכ
לרמת
לרנר
לרסן
לרע
לרעה
לרעהו
לרעות
לרעיון
לרעיונות
לרעך
לרפא
לרפואה
לרפואת
לרפובליקה
לרפורמה
לרצוח
לרצון
לרצונו
לרצועת
לרצות
לרצח
לרצף
לרקוד
לרקיע
לרש
לרשב
לרשויות
לרשום
לרשות
לרשותו
לרשותם
לרשימה
לרשימת
לרשם
לרשע
לרשעים
לרשת
לרשתות
לש
לשאוב
לשאול
לשאוף
לשאלה
לשאלות
לשאלת
לשאלתך
לשאר
לשאת
לשבוע
לשבועה
לשבור
לשבות
לשבח
לשבחים
לשבט
לשבטים
לשבע
לשבעה
לשבר
לשבש
לשבת
לשגר
לשגריר
לשגרירות
לשדה
לשדות
לשדר
לשהות
לשוא
לשואה
לשוב
לשווא
לשוודיה
לשוויון
לשווייץ
לשווק
לשווקים
לשוחח
לשוט
לשוטר
לשוטרים
לשוכר
לשולחן
לשום
לשומר
לשון
לשונו
לשונות
לשוני
לשוניות
לשוניים
לשונית
לשונם
לשוער
לשופט
לשוק
לשורה
לשורות
לשורש
לשושלת
לשותפות
לשחוט
לשחות
לשחזור
לשחזר
לשחיטה
לשחק
לשחקן
לשחקנים
לשחקנית
לשחרור
לשחרורו
לשחרר
לשחררו
לשטח
לשטחי
לשטחים
לשטר
לשיא
לשיאה
לשיאו
לשיגור
לשידור
לשידורי
לשידורים
לשיווק
לשיח
לשיחה
לשיחות
לשיחת
לשיטה
לשיטות
לשיטת
לשיטתו
לשייך
לשילוב
לשים
לשימור
לשימוש
לשימושים
לשינוי
לשינויים
לשיעור
לשיפור
לשיקגו
לשיקול
לשיקום
לשיר
לשירה
לשירו
לשירות
לשירותי
לשירותים
לשירי
לשירים
לשישה
לשיתוף
לשכב
לשכה
לשכוח
לשכונה
לשכונת
לשכור
לשכות
לשכינה
לשכן
לשכנע
לשכר
לשכת
לשכתב
לשכתוב
לשל
לשלב
לשלוח
לשלוט
לשלול
לשלום
לשלוש
לשלושה
לשלושת
לשלח
לשלטון
לשלטונו
לשלטונות
לשליח
לשליחות
לשליט
לשליטה
לשליטת
לשליש
לשלם
לשלמה
לשלש
לשלשה
לשם
לשמא
לשמאל
לשמה
לשמו
לשמואל
לשמוח
לשמונה
לשמוע
לשמור
לשמות
לשמח
לשמחה
לשמים
לשמינית
לשמירה
לשמירת
לשמן
לשמע
לשמעון
לשמצה
לשמר
לשמרו
לשמש
לשנה
לשנויי
לשנות
לשנותה
לשנותו
לשני
לשניה
לשניהם
לשנייה
לשניים
לשנים
לשנת
לשנתיים
לשעבר
לשעה
לשעות
לשער
לשעת
לשפה
לשפוט
לשפוך
לשפות
לשפר
לשפת
לשקול
לשקם
לשקף
לשקר
לשר
לשרה
לשרוד
לשרוף
לשריון
לשריפה
לשרת
לשש
לשתוק
לשתות
לשתי
לשתייה
לשתף
לת
לתא
לתאגיד
לתאוריה
לתאי
לתאים
לתאם
לתאר
לתאריך
לתארים
לתבוע
לתביעה
לתבניות
לתבנית
לתגבר
לתגובה
לתגובות
לתהילה
לתהליך
לתואר
לתובע
לתודעה
לתוך
לתוכה
לתוכו
לתוכן
לתוכנה
לתוכניות
לתוכנית
לתולדות
לתום
לתוספת
לתועלת
לתופעה
לתופעות
לתוצאה
לתוצאות
לתוקף
לתור
לתורה
לתורת
לתושבי
לתושבים
לתזמורת
לתחבורה
לתחום
לתחומי
לתחומים
לתחייה
לתחילת
לתחנה
לתחנות
לתחנת
לתחרויות
לתחרות
לתיאום
לתיאור
לתיאטרון
לתיבה
לתיבת
לתייג
לתיירים
לתינוק
לתינוקות
לתיעוד
לתיקון
לתכלית
לתכנון
לתכנית
לתכנן
לתל
לתלות
לתלמוד
לתלמודא
לתלמיד
לתלמידו
לתלמידי
לתלמידיו
לתלמידים
לתמוה
לתמוך
לתמונה
לתמונות
לתמיד
לתמיכה
לתמיכת
לתנ
לתנא
לתנאי
לתנאים
לתנועה
לתנועות
לתנועת
לתסריט
לתעד
לתעודת
לתעופה
לתעשייה
לתעשיית
לתעתק
לתפוס
לתפילה
לתפיסה
לתפיסת
לתפלה
לתפעול
לתפקד
לתפקוד
לתפקיד
לתפקידו
לתפקידי
לתפקידים
לתקוע
לתקוף
לתקופה
לתקופות
לתקופת
לתקיפה
לתקיפת
לתקן
לתקנה
לתקנו
לתקנות
לתקנת
לתקציב
לתקשורת
לתקשר
לתרבות
לתרגום
לתרגם
לתרום
לתרומה
לתרופות
לתרוצי
לתרץ
לתשובה
לתשומת
לתשלום
לתשמיש
לתשעה
לתשתיות
לתת
לתתא
ם
מ
מא
מאב
מאבד
מאבדים
מאבדת
מאבות
מאביה
מאביו
מאבן
מאבני
מאבק
מאבקי
מאבקים
מאברהם
מאבריקס
מאג
מאגמה
מאגנס
מאגר
מאגרי
מאד
מאדאם
מאדים
מאדם
מאה
מאהבה
מאהל
מאהלר
מאו
מאובני
מאובנים
מאוגוסט
מאוד
מאוהב
מאוהבת
מאוזן
מאוזנת
מאוחד
מאוחדים
מאוחדת
מאוחר
מאוחרות
מאוחרים
מאוחרת
מאויש
מאוישות
מאוישים
מאוישת
מאוכלוסיית
מאוכלס
מאומה
מאוניברסיטת
מאוס
מאוסטריה
מאוסטרליה
מאוסף
מאופיין
מאופיינים
מאופיינת
מאוצר
מאוקטובר
מאוקראינה
מאור
מאורגן
מאורגנים
מאורגנת
מאורות
מאורי
מאוריציוס
מאורך
מאורע
מאורעות
מאושר
מאושרים
מאושרת
מאות
מאותה
מאותו
מאותם
מאותן
מאז
מאזור
מאזורי
מאזורים
מאזן
מאזנים
מאחד
מאחור
מאחורי
מאחוריה
מאחוריו
מאחז
מאחיו
מאחר
מאחרי
מאחריות
מאחרים
מאחת
מאט
מאי
מאידך
מאיה
מאיות
מאיזה
מאיטליה
מאיי
מאיים
מאיימת
מאייר
מאיירס
מאימתי
מאין
מאיס
מאיסור
מאיפה
מאיץ
מאיר
מאיראן
מאירה
מאירועי
מאירופה
מאירי
מאירים
מאיש
מאיתנו
מאך
מאכיל
מאכילה
מאכילין
מאכילת
מאכל
מאכלות
מאכלי
מאכלים
מאל
מאלבום
מאלה
מאלו
מאלי
מאליה
מאליהן
מאליו
מאלף
מאם
מאמו
מאמין
מאמינה
מאמינים
מאמן
מאמנה
מאמנו
מאמני
מאמנים
מאמץ
מאמצי
מאמציו
מאמצים
מאמצע
מאמר
מאמרו
מאמרות
מאמרי
מאמריו
מאמרים
מאמריקה
מאמרם
מאן
מאנגליה
מאנגלית
מאנה
מאני
מאניים
מאנים
מאנית
מאנשי
מאנשיו
מאנשים
מאס
מאסטר
מאסטרס
מאסף
מאסר
מאסרו
מאפה
מאפיין
מאפייני
מאפיינים
מאפס
מאפריל
מאפריקה
מאפשר
מאפשרות
מאפשרים
מאפשרת
מאק
מאקו
מאר
מארב
מארבע
מארבעה
מארבעים
מארבעת
מארגון
מארגן
מארגני
מארה
מארוול
מארח
מארחת
מארי
מאריה
מאריך
מארס
מארץ
מארצות
מארק
מארש
מאש
מאשה
מאשים
מאשר
מאשתו
מאת
מאתו
מאתיופיה
מאתיים
מאתים
מאתמול
מאתנו
מאתר
מאתרי
מב
מבאר
מבבל
מבדיל
מבהיר
מבהמה
מבוא
מבואות
מבואר
מבוארים
מבוגר
מבוגרים
מבוגרת
מבודד
מבודדים
מבודדת
מבוטא
מבוטח
מבוטל
מבוטלת
מבוי
מבול
מבוסס
מבוססות
מבוססי
מבוססים
מבוססת
מבוצע
מבוצעות
מבוצעת
מבוצר
מבוקר
מבוקרת
מבוקש
מבוקשים
מבורך
מבורר
מבושל
מבחוץ
מבחי
מבחין
מבחינה
מבחינים
מבחינת
מבחינתו
מבחינתי
מבחן
מבחני
מבחנים
מבחר
מבט
מבטא
מבטאים
מבטאת
מבטו
מבטון
מבטח
מבטחים
מבטיח
מבטיחה
מבטל
מבטלין
מבטלת
מבי
מביא
מביאה
מביאו
מביאים
מביאין
מביט
מבין
מבינה
מביניהם
מבינים
מביס
מביע
מביצוע
מבית
מביתו
מבכירי
מבלבל
מבלה
מבלו
מבלי
מבן
מבנה
מבנהו
מבנות
מבני
מבניו
מבניים
מבנים
מבסיס
מבע
מבעד
מבעוד
מבעי
מבעיא
מבעיות
מבעל
מבעלה
מבעלי
מבפנים
מבצע
מבצעי
מבצעיות
מבצעים
מבצעית
מבצעת
מבצר
מבצרים
מבקר
מבקרי
מבקרים
מבקרת
מבקש
מבקשי
מבקשים
מבקשת
מברזיל
מבריטניה
מברייתא
מבריק
מברית
מברך
מברכים
מברכין
מברכת
מברלין
מברסלב
מברק
מבשל
מבשר
מבת
מבתי
מבתיהם
מג
מגבול
מגביה
מגביל
מגביר
מגבלה
מגבלות
מגבלת
מגברים
מגדוד
מגדולי
מגדיל
מגדים
מגדיר
מגדירה
מגדירים
מגדל
מגדלי
מגדלים
מגדלנה
מגדר
מגדרי
מגדרית
מגה
מגו
מגובה
מגודל
מגוון
מגוונות
מגוונים
מגוונת
מגוחך
מגולה
מגולל
מגולם
מגונה
מגוף
מגופה
מגופו
מגורי
מגוריהם
מגוריו
מגורים
מגורמים
מגורשת
מגזין
מגזינים
מגזע
מגזר
מגזרת
מגי
מגיב
מגיבים
מגיד
מגידו
מגיל
מגילה
מגילות
מגילת
מגיני
מגיסטר
מגיע
מגיעה
מגיעות
מגיעים
מגיש
מגישה
מגישים
מגל
מגלגלין
מגלה
מגלות
מגלח
מגלחין
מגלי
מגלים
מגלם
מגלמת
מגלן
מגמה
מגמות
מגמת
מגן
מגנה
מגנוס
מגנזיום
מגנטו
מגנטי
מגנטיים
מגנטית
מגני
מגנים
מגע
מגעו
מגעים
מגעת
מגפה
מגפת
מגרמניה
מגרמנית
מגרש
מגרשה
מגרשי
מגרשים
מגשר
מד
מדאורייתא
מדאי
מדאמר
מדאמרינן
מדבב
מדבבים
מדבדב
מדבר
מדברות
מדברי
מדבריהם
מדבריו
מדברים
מדברת
מדגים
מדגיש
מדגישה
מדגם
מדגמי
מדגסקר
מדד
מדדי
מדדים
מדה
מדהים
מדובב
מדובר
מדוברת
מדוד
מדווח
מדווחים
מדוייק
מדויק
מדויקות
מדויקים
מדויקת
מדומה
מדונה
מדוע
מדוקדק
מדור
מדורג
מדורגת
מדורה
מדות
מדותיו
מדחף
מדי
מדידה
מדידות
מדידת
מדיה
מדים
מדין
מדינא
מדינאי
מדינה
מדינות
מדיני
מדיניות
מדיניותה
מדיניותו
מדיניים
מדינית
מדינת
מדינתו
מדינתי
מדיסון
מדיצ
מדכתב
מדכתיב
מדלא
מדליה
מדליות
מדליית
מדליק
מדליקין
מדלקת
מדם
מדמה
מדמי
מדע
מדעי
מדעיות
מדעיים
מדעים
מדעית
מדען
מדעני
מדענים
מדעת
מדעתו
מדף
מדפי
מדצמבר
מדקאמר
מדקדק
מדקתני
מדר
מדרב
מדרבי
מדרבנן
מדרג
מדרגה
מדרגות
מדרגת
מדרום
מדרון
מדריגה
מדריגות
מדריד
מדריך
מדריכי
מדריכים
מדרך
מדרכי
מדרס
מדרש
מדרשא
מדרשו
מדרשות
מדרשי
מדרשים
מדרשת
מדת
מדתו
מדתניא
מדתנן
מה
מהא
מהאוויר
מהאוכלוסייה
מהאוניברסיטה
מהאזור
מהאזורים
מהאי
מהאיחוד
מהאימפריה
מהאלבום
מהאמור
מהאנשים
מהארון
מהארמייה
מהארץ
מהאתר
מהבונדסליגה
מהבית
מהג
מהגדולים
מהגוף
מהגטו
מהגר
מהגרים
מהדברים
מהדור
מהדורה
מהדורות
מהדורת
מהדיוויזיה
מהדיון
מהדמויות
מהדר
מהדרינן
מההוא
מההוראות
מההיא
מההיסטוריה
מהו
מהודו
מהווה
מהווים
מהוות
מהול
מהולנד
מהומה
מהומות
מהונגריה
מהוראות
מהות
מהותה
מהותו
מהותי
מהותיים
מהותית
מהזמן
מהחברה
מהחוף
מהחוקרים
מהחזית
מהחיים
מהטבע
מהטורניר
מהי
מהיהודים
מהיום
מהיות
מהיכא
מהיכן
מהילדים
מהים
מהימן
מהימנא
מהיר
מהירה
מהירויות
מהירות
מהירים
מהך
מהכא
מהכוחות
מהכלא
מהכלל
מהכנסת
מהכפר
מהל
מהלהקה
מהליגה
מהלך
מהלכות
מהלכי
מהלכים
מהלכין
מהלכת
מהם
מהמאה
מהמבקרים
מהמדינה
מהמדינות
מהמועד
מהמזרח
מהמחנה
מהמט
מהמילה
מהמים
מהמין
מהמינים
מהמיתולוגיה
מהמכון
מהמלחמה
מהמלך
מהממלכה
מהממשלה
מהמעמד
מהמפלגה
מהמצב
מהמצביעים
מהמציאות
מהמקובל
מהמקום
מהמקומות
מהמקור
מהמקורות
מהמקרים
מהמרכז
מהמשחק
מהמשחקים
מהן
מהנבחרת
מהנדס
מהנדסי
מהנדסים
מהנה
מהני
מהניא
מהנך
מהנשים
מהסביבה
מהסדרה
מהסוג
מהסיבה
מהסיבות
מהסכום
מהספסל
מהספר
מהספרים
מהסרט
מהסרטים
מהעבודה
מהעבר
מהעובדה
מהעולם
מהעונה
מהעיירה
מהעיר
מהערים
מהערך
מהערכים
מהפועל
מהפך
מהפכה
מהפכני
מהפכנית
מהפכת
מהפסוק
מהפרמייר
מהצבא
מהצד
מהצדדים
מהצורה
מהצורך
מהציבור
מהצפון
מהקבוצה
מהקבוצות
מהקהילה
מהקהל
מהקולות
מהקורפוס
מהקרקע
מהר
מהרא
מהראשונים
מהרב
מהרגיל
מהרה
מהרי
מהרפובליקה
מהרש
מהרשות
מהרשימה
מהשבי
מהשדה
מהשורה
מהשורש
מהשחקנים
מהשטח
מהשיר
מהשירות
מהשירים
מהשלטון
מהשם
מהשמש
מהשני
מהשנים
מהתוכנית
מהתורה
מהתושבים
מהתחרות
מהתם
מהתנ
מהתנאים
מהתפקיד
מהתקופה
מהתקף
מהתרבות
מו
מואב
מואץ
מוארך
מובא
מובאות
מובאים
מובאת
מובהק
מובהקים
מובהקת
מובטח
מוביל
מובילה
מובילות
מובילים
מובלעת
מובן
מובנה
מובנים
מובנת
מוג
מוגבל
מוגבלויות
מוגבלות
מוגבלים
מוגבלת
מוגבר
מוגברת
מוגדר
מוגדרות
מוגדרים
מוגדרת
מוגזם
מוגזמת
מוגן
מוגנים
מוגנת
מוגש
מוגשת
מוד
מודגש
מודד
מודדים
מודדין
מודה
מודו
מודול
מודולו
מודי
מודים
מודיע
מודיעה
מודיעים
מודיעין
מודיעיני
מודל
מודלים
מודן
מודע
מודעא
מודעה
מודעות
מודעים
מודעת
מודפס
מודפסים
מודרני
מודרניות
מודרניזציה
מודרניים
מודרנית
מוהר
מוויקיפדיה
מוות
מוותר
מוזהר
מוזיאון
מוזיאונים
מוזיקאי
מוזיקאים
מוזיקה
מוזיקלי
מוזיקליות
מוזיקליים
מוזיקלית
מוזיקת
מוזכר
מוזכרים
מוזכרת
מוזמביק
מוזמן
מוזמנים
מוזס
מוזר
מוזרה
מוזרות
מוזרים
מוח
מוחא
מוחה
מוחו
מוחזק
מוחזקים
מוחזקת
מוחי
מוחין
מוחל
מוחלט
מוחלטת
מוחמד
מוחץ
מוחק
מוחקים
מוחשי
מוט
מוטב
מוטה
מוטורס
מוטות
מוטי
מוטיב
מוטיבים
מוטיבציה
מוטל
מוטלת
מוטעה
מוטעית
מוטציה
מוטציות
מוטת
מויקיפדיה
מוכה
מוכח
מוכחא
מוכחת
מוכיח
מוכיחה
מוכיחות
מוכיחים
מוכן
מוכנה
מוכנות
מוכנים
מוכר
מוכרות
מוכרז
מוכרח
מוכרחים
מוכרים
מוכרין
מוכרת
מוכשר
מוכשרים
מוכת
מוכתר
מול
מולד
מולדובה
מולדת
מולדתו
מולה
מולו
מולוטוב
מולי
מוליד
מוליך
מוליכים
מוליכין
מולם
מולקולה
מולקולות
מולקולרית
מולקולת
מולר
מום
מומחה
מומחי
מומחיות
מומחים
מומחין
מומים
מומין
מומלץ
מומלצים
מומלצת
מומנט
מומר
מון
מונגוליה
מונד
מונדיאל
מונה
מונו
מונופול
מונח
מונחה
מונחות
מונחים
מונחת
מונטגומרי
מונטה
מונטי
מונטיפיורי
מונטנגרו
מונטנה
מונטריאול
מוני
מוניות
מוניטין
מונים
מונין
מוניקה
מונית
מונע
מונעים
מונעת
מונק
מונקו
מונרו
מונתה
מוס
מוסא
מוסב
מוסבר
מוסד
מוסדות
מוסדי
מוסדר
מוסוליני
מוסטפא
מוסיף
מוסיפה
מוסיפים
מוסיפין
מוסך
מוסכם
מוסכמת
מוסלמי
מוסלמיות
מוסלמים
מוסלמית
מוסמך
מוסמכים
מוסמכת
מוסף
מוסקבה
מוסר
מוסרי
מוסריות
מוסריים
מוסרים
מוסרית
מוסתר
מוסתרת
מועבר
מועברים
מועברת
מועד
מועדון
מועדוני
מועדונים
מועדי
מועדים
מועדף
מועדפת
מועט
מועטה
מועטות
מועטים
מועטין
מועטת
מועיל
מועילה
מועילים
מועלין
מועלת
מועמד
מועמדויות
מועמדות
מועמדותו
מועמדים
מועמדת
מוענק
מועסק
מועסקים
מועצה
מועצות
מועצת
מוערך
מוערכת
מופה
מופז
מופחת
מופיע
מופיעה
מופיעות
מופיעים
מופלא
מופלג
מופנה
מופע
מופעי
מופעים
מופעל
מופעלים
מופעלת
מופק
מופקד
מופר
מופרדים
מופשט
מופשטת
מופת
מופתע
מוצא
מוצאה
מוצאו
מוצאי
מוצאים
מוצאם
מוצאת
מוצב
מוצבים
מוצבת
מוצג
מוצגות
מוצגים
מוצגת
מוצדק
מוצדקת
מוציא
מוציאה
מוציאים
מוציאין
מוצלח
מוצלחות
מוצלחים
מוצלחת
מוצע
מוצק
מוצקה
מוצקים
מוצקין
מוצר
מוצרט
מוצרי
מוצרים
מוקד
מוקדון
מוקדי
מוקדים
מוקדם
מוקדמות
מוקדמים
מוקדמת
מוקדש
מוקדשת
מוקי
מוקים
מוקם
מוקמינן
מוקמת
מוקף
מוקפת
מוקצה
מוקש
מוקשים
מור
מורא
מורגן
מורד
מורדים
מורדת
מורה
מורו
מורחב
מורחבת
מורטון
מורי
מוריד
מורידין
מוריה
מוריו
מורים
מורין
מוריס
מוריסון
מוריץ
מוריש
מורכב
מורכבות
מורכבים
מורכבת
מורל
מורן
מורנו
מורס
מורשה
מורשים
מורשעים
מורשת
מורשתו
מושא
מושב
מושבה
מושבו
מושבות
מושבי
מושבים
מושבם
מושבע
מושבעים
מושבת
מושג
מושגי
מושגים
מושגת
מושחת
מושך
מושכים
מושכל
מושכת
מושל
מושלי
מושלים
מושלם
מושלמת
מושפע
מושפעים
מושפעת
מות
מותאם
מותאמים
מותאמת
מותג
מותגי
מותגים
מותה
מותו
מותחן
מותיר
מותם
מותנה
מותנית
מותקן
מותקנים
מותקנת
מותר
מותרות
מותרים
מותרין
מותרת
מז
מזאת
מזבח
מזג
מזדהה
מזדמן
מזה
מזהב
מזהה
מזהים
מזהיר
מזהמים
מזו
מזוג
מזוהה
מזוהים
מזווית
מזוזה
מזוין
מזויף
מזויפים
מזומן
מזומנים
מזון
מזונו
מזונות
מזוני
מזור
מזיד
מזימה
מזיק
מזיקה
מזיקים
מזכ
מזכה
מזכויות
מזכיר
מזכירה
מזכירו
מזכירות
מזכירי
מזכירים
מזכירין
מזכירת
מזכר
מזכרת
מזל
מזלו
מזלזל
מזמור
מזמורים
מזמין
מזמן
מזמנין
מזנון
מזערי
מזר
מזרח
מזרחה
מזרחי
מזרחיות
מזרחיים
מזרחית
מזרע
מזרעו
מח
מחאה
מחאות
מחאת
מחבירו
מחבל
מחבלים
מחבר
מחברה
מחברו
מחברות
מחברי
מחבריה
מחבריו
מחברים
מחברת
מחד
מחדל
מחדר
מחדש
מחה
מחו
מחובר
מחוברות
מחוברים
מחוברין
מחוברת
מחובת
מחודד
מחודש
מחודשת
מחווה
מחוור
מחוות
מחוז
מחוזות
מחוזי
מחוזית
מחויב
מחויבות
מחויבים
מחויבת
מחוייב
מחול
מחולי
מחולל
מחולק
מחולקות
מחולקים
מחולקת
מחומר
מחומרים
מחוסר
מחוסרי
מחוף
מחוץ
מחוצה
מחוק
מחוקק
מחוקקים
מחושב
מחזאי
מחזאים
מחזה
מחזהו
מחזור
מחזורי
מחזורים
מחזות
מחזיק
מחזיקה
מחזיקות
מחזיקי
מחזיקים
מחזיקין
מחזיקת
מחזיר
מחזירה
מחזירים
מחזירין
מחזמר
מחזק
מחזקינן
מחזקת
מחזר
מחט
מחטיבת
מחיה
מחיי
מחייב
מחייבו
מחייבות
מחייבי
מחייבים
מחייבין
מחייבת
מחייה
מחייו
מחיילי
מחיים
מחיל
מחילה
מחיפה
מחיצה
מחיצות
מחיקה
מחיקת
מחיר
מחירו
מחירי
מחירים
מחכה
מחכות
מחכים
מחכמה
מחכמי
מחל
מחלב
מחלה
מחלון
מחלוצי
מחלוקות
מחלוקת
מחלות
מחליט
מחליטה
מחליטים
מחליף
מחליפה
מחליפו
מחליפים
מחלל
מחללין
מחלף
מחלק
מחלקה
מחלקו
מחלקות
מחלקי
מחלקים
מחלקת
מחלת
מחלתו
מחמד
מחמוד
מחמיר
מחמירות
מחמירים
מחמירין
מחמישה
מחמש
מחמשת
מחמת
מחנה
מחנות
מחנך
מחסה
מחסום
מחסור
מחסן
מחסני
מחפש
מחפשים
מחפשת
מחצה
מחצי
מחצית
מחצר
מחק
מחקה
מחקר
מחקרה
מחקרו
מחקרי
מחקריה
מחקריו
מחקרים
מחקרית
מחקתי
מחר
מחרוזת
מחרקים
מחשב
מחשבה
מחשבון
מחשבות
מחשבותיו
מחשבי
מחשבים
מחשבת
מחשבתו
מחשוב
מחשובי
מחשיב
מחשיבים
מחשש
מחתרת
מט
מטא
מטאל
מטבח
מטבילין
מטבע
מטבעות
מטה
מטהר
מטהרין
מטווח
מטומאה
מטומאת
מטוס
מטוסו
מטוסי
מטוסים
מטופל
מטופלים
מטורף
מטורפים
מטורקיה
מטות
מטח
מטי
מטיילים
מטיל
מטילה
מטילים
מטיפוס
מטכ
מטלות
מטלטלי
מטלטלים
מטלטלין
מטמא
מטמאה
מטמאים
מטמאין
מטמון
מטע
מטעה
מטעי
מטעים
מטעם
מטעמא
מטעמה
מטעמו
מטעמי
מטעמים
מטעמם
מטען
מטעני
מטענים
מטפח
מטפחת
מטפל
מטפלים
מטפלת
מטפס
מטר
מטרה
מטרו
מטרופולין
מטרות
מטרותיה
מטרותיו
מטרים
מטריצה
מטריצות
מטרת
מטרתה
מטרתו
מטרתם
מטתו
מי
מיא
מיאון
מיאמי
מיאנמר
מיבעי
מיבעיא
מיג
מיגו
מיגון
מיגל
מיד
מידה
מידו
מידות
מידי
מידיו
מידית
מידם
מידע
מידת
מיה
מיהא
מיהו
מיהודה
מיהודי
מיהר
מיהרו
מיהת
מיו
מיוון
מיוונית
מיוזיק
מיוחד
מיוחדות
מיוחדים
מיוחדת
מיוחס
מיוחסים
מיוחסת
מיולי
מיום
מיומן
מיומנויות
מיומנות
מיומנים
מיון
מיוני
מיועד
מיועדות
מיועדים
מיועדת
מיופה
מיוצג
מיוצגים
מיוצגת
מיוצר
מיוצרים
מיור
מיורקה
מיושב
מיושבים
מיושבת
מיושן
מיותר
מיותרות
מיותרים
מיותרת
מיזוג
מיזורי
מיזם
מיזמי
מיזמים
מיחה
מיחזור
מיחזי
מיחידות
מיחייב
מיטב
מיטה
מיטות
מיטמא
מיטשל
מיי
מייג
מייגן
מייד
מיידי
מיידיש
מיידית
מייחס
מייחסים
מייל
מיילי
מיילים
מיילס
מיימון
מיימוני
מיין
מיינץ
מייסד
מייסדי
מייסדת
מייסון
מייעץ
מייעצת
מייצג
מייצגות
מייצגים
מייצגת
מייצר
מייצרים
מייצרת
מייק
מייקה
מייקל
מייקלס
מיירי
מייתי
מיכאי
מיכאיל
מיכאל
מיכאלי
מיכה
מיכל
מיכלאנג
מיכן
מיל
מילא
מילאה
מילאו
מילאן
מילאנו
מילה
מילוא
מילואים
מילווקי
מילוט
מילוי
מילולי
מילולית
מילון
מילות
מילותיו
מילטון
מילי
מיליארד
מיליארדי
מיליון
מיליוני
מיליונים
מילים
מילימטר
מילימטרים
מילין
מיליציה
מיליציות
מילס
מילר
מילת
מילתא
מילתיה
מים
מימד
מימון
מימוש
מימות
מימי
מימיו
מימים
מימין
מימינו
מימן
מימר
מימרא
מין
מינאז
מינג
מינה
מינהל
מינהלי
מינהליים
מינהלית
מינו
מינואר
מינוי
מינויו
מינויים
מינוס
מינור
מינורי
מיני
מיניה
מיניות
מינייהו
מיניים
מינים
מינימום
מינימלי
מינימלית
מינין
מינית
מינך
מינכן
מינסוטה
מינסק
מינץ
מינרל
מינרלים
מינתה
מיס
מיסוד
מיסודו
מיסוי
מיסטר
מיסיונרים
מיסים
מיסיסיפי
מיעוט
מיעוטא
מיעוטים
מיעט
מיעקב
מיפוי
מיפטר
מיפלגי
מיפן
מיפר
מיץ
מיצ
מיצב
מיצג
מיצובישי
מיצוי
מיצירות
מיצירותיו
מיצר
מיק
מיקה
מיקוד
מיקום
מיקומה
מיקומו
מיקומי
מיקומם
מיקי
מיקל
מיקלוש
מיקס
מיקרו
מיקרוסופט
מיקרי
מיר
מיראז
מירב
מירה
מירון
מירושלים
מירי
מירנדה
מישאל
מישהו
מישהי
מישור
מישורי
מישורים
מישיגן
מישל
מישראל
מישרים
מית
מיתאר
מיתה
מיתוג
מיתולוגיה
מיתוס
מיתוסים
מיתוקמא
מיתות
מיתיבי
מיתסר
מיתקן
מיתקני
מיתקנים
מיתר
מיתרים
מיתת
מיתתו
מכ
מכאן
מכבד
מכבה
מכבי
מכבים
מכביש
מכבר
מכדור
מכדורגל
מכדי
מכה
מכהונתו
מכהן
מכהנים
מכהנת
מכובד
מכובדים
מכובדת
מכוון
מכוונות
מכוונים
מכוונת
מכוח
מכוחו
מכוחות
מכוין
מכוכב
מכולם
מכולן
מכון
מכונה
מכונות
מכוני
מכוניות
מכונים
מכונית
מכוניתו
מכונן
מכונת
מכוסה
מכוסים
מכוער
מכור
מכורה
מכות
מכזית
מכח
מכחו
מכחילים
מכחיש
מכי
מכיוון
מכיון
מכיל
מכילה
מכילות
מכילים
מכילתא
מכין
מכינה
מכינים
מכיר
מכירה
מכירות
מכירים
מכירין
מכירת
מכירתו
מכך
מככבים
מכל
מכלול
מכלי
מכלים
מכלל
מכללה
מכללות
מכללת
מכם
מכמה
מכמות
מכן
מכנה
מכני
מכניים
מכנים
מכניס
מכניסה
מכניסים
מכניסין
מכניקה
מכניקת
מכנית
מכנסיים
מכס
מכסה
מכסות
מכסים
מכסף
מכספי
מכסת
מכפי
מכפלה
מכפלת
מכפר
מכפרת
מכר
מכרה
מכרו
מכרות
מכרז
מכרזים
מכריז
מכריזה
מכריע
מכרן
מכרסמים
מכרעת
מכרת
מכשול
מכשולים
מכשיר
מכשירי
מכשירים
מכשירין
מכשף
מכשפה
מכשפות
מכת
מכתב
מכתבו
מכתבי
מכתביו
מכתבים
מכתש
מכתשי
מל
מלא
מלאה
מלאו
מלאווי
מלאות
מלאי
מלאים
מלאך
מלאכה
מלאכול
מלאכות
מלאכותי
מלאכותיים
מלאכותית
מלאכי
מלאכים
מלאכת
מלאכתו
מלאכתן
מלאני
מלאת
מלב
מלבד
מלבדו
מלבו
מלבורן
מלבוש
מלבי
מלבן
מלבנון
מלבני
מלבנים
מלגה
מלגות
מלגת
מלה
מלהיות
מלהקת
מלו
מלוא
מלובלין
מלוג
מלוה
מלווה
מלווים
מלוח
מלוחים
מלוי
מלוכה
מלומד
מלומדים
מלון
מלונדון
מלונות
מלות
מלזיה
מלח
מלחים
מלחין
מלחיני
מלחינים
מלחמה
מלחמות
מלחמת
מלט
מלטה
מלטינית
מלי
מליאה
מליאת
מליגה
מליגת
מלידה
מליון
מליח
מליחה
מלים
מלין
מליסה
מלך
מלכ
מלכא
מלכה
מלכו
מלכודת
מלכות
מלכותו
מלכותי
מלכותית
מלכי
מלכיות
מלכים
מלכם
מלכנו
מלכת
מלכתחילה
מלל
מלמד
מלמדים
מלמדין
מלמדת
מלמטה
מלמעלה
מלעשות
מלפני
מלפניו
מלפניך
מלפנים
מלצר
מלקולם
מלקות
מלשון
מלשלם
מלת
מלתא
ממ
ממאה
ממאי
ממאמריו
ממאנת
ממבנה
ממבקרי
ממגוון
ממד
ממדי
ממדיים
ממדים
ממדינה
ממדינות
ממדיניות
ממדינת
ממדית
ממדת
ממה
ממהר
ממוות
ממוזער
ממוחשב
ממוחשבים
ממוחשבת
ממוכן
ממול
ממון
ממונא
ממונה
ממונו
ממונות
ממונים
ממונם
ממוסגר
ממוסדות
ממועד
ממוצא
ממוצע
ממוצעים
ממוצעת
ממוקד
ממוקדת
ממוקם
ממוקמות
ממוקמים
ממוקמת
ממושך
ממושכות
ממושכים
ממושכת
ממות
ממזר
ממזרח
ממזרים
ממזרת
ממחוז
ממחיר
ממחלה
ממחלות
ממחלת
ממחנה
ממחסור
ממחצית
ממחרת
ממטה
ממי
ממייסדי
ממילא
ממיליון
ממים
ממין
ממיני
ממך
ממכבי
ממכון
ממכירת
ממכר
ממלא
ממלאים
ממלאכה
ממלאת
ממלחמת
ממליץ
ממלכה
ממלכות
ממלכת
ממלכתו
ממלכתי
ממלכתיים
ממלכתית
מממלכת
מממשלת
ממנה
ממנהיגי
ממנו
ממני
ממניות
ממניעים
ממס
ממסע
ממספר
ממעות
ממעט
ממעל
ממעלה
ממעמד
ממערב
ממערכות
ממערכת
ממעשה
ממעשיו
ממעשר
ממפיס
ממפלגת
ממפעילים
ממצא
ממצאי
ממצאיו
ממצאים
ממצב
ממצות
ממציא
ממציאים
ממצרים
ממקום
ממקומה
ממקומו
ממקומות
ממקומם
ממקור
ממקורות
ממקימי
ממקסיקו
ממרא
ממרוקו
ממרחק
ממרכז
ממרץ
ממש
ממשה
ממשחק
ממשחקי
ממשי
ממשיים
ממשיך
ממשיכה
ממשיכות
ממשיכים
ממשיכין
ממשית
ממשל
ממשלה
ממשלו
ממשלות
ממשלת
ממשלתו
ממשלתי
ממשלתיות
ממשלתיים
ממשלתית
ממשעבדי
ממשפחה
ממשפחות
ממשפחת
ממשפחתו
ממשק
ממשרד
ממתין
ממתכת
ממתן
ממתני
ממתניתין
ממתקים
מן
מנ
מנא
מנג
מנגד
מנגן
מנגנון
מנגנוני
מנגנונים
מנגנים
מנגנת
מנדט
מנדטים
מנדי
מנדל
מנדלה
מנדלסון
מנדס
מנה
מנהג
מנהגו
מנהגי
מנהגים
מנהגם
מנהון
מנהטן
מנהיג
מנהיגה
מנהיגות
מנהיגי
מנהיגים
מנהיגם
מנהל
מנהלה
מנהלו
מנהלי
מנהליים
מנהלים
מנהלית
מנהלת
מנהר
מנהרה
מנהרות
מנהרת
מנו
מנואל
מנובמבר
מנוגד
מנוגדות
מנוגדים
מנוגדת
מנודה
מנוהל
מנוהלת
מנוח
מנוחה
מנוי
מנויים
מנומקת
מנוס
מנוסה
מנוסח
מנוסים
מנוע
מנועי
מנועים
מנוף
מנוקד
מנוקדת
מנור
מנורה
מנורות
מנורת
מנות
מנותק
מנזר
מנזרים
מנח
מנחה
מנחות
מנחי
מנחים
מנחם
מנחש
מנחת
מנטר
מני
מניה
מניו
מניות
מניח
מניחה
מניחו
מניחים
מניחין
מנייהו
מניין
מנימוקי
מנימוקים
מנין
מניסיון
מניע
מניעה
מניעים
מניעת
מניקה
מנישואיו
מנכ
מנכה
מנכסי
מנכסיו
מנכסים
מנלן
מנמל
מנסה
מנסור
מנסים
מנע
מנעה
מנעו
מנעל
מנצ
מנצח
מנצחות
מנצחי
מנצחים
מנצחת
מנצל
מנצלים
מנקודה
מנקודות
מנקודת
מנשה
מנשיא
מנשים
מנשמע
מנשנגלדבך
מנשק
מנת
מנתה
מנתח
מס
מסביב
מסביר
מסבירה
מסבירים
מסברא
מסגד
מסגדים
מסגל
מסגרות
מסגרת
מסד
מסדה
מסדר
מסדרה
מסדרת
מסה
מסובך
מסובכת
מסוג
מסוגה
מסוגו
מסוגי
מסוגיא
מסוגים
מסוגל
מסוגלות
מסוגלים
מסוגלת
מסוגת
מסוד
מסודר
מסודרות
מסודרים
מסודרת
מסווג
מסווגים
מסויים
מסויימים
מסויימת
מסוים
מסוימות
מסוימים
מסוימת
מסוכן
מסוכנות
מסוכנים
מסוכנת
מסומן
מסומנים
מסומנת
מסוף
מסופוטמיה
מסופק
מסופר
מסוק
מסוקי
מסוקים
מסור
מסורה
מסורות
מסוריה
מסורת
מסורתי
מסורתיות
מסורתיים
מסורתית
מסות
מסחר
מסחרי
מסחריות
מסחריים
מסחרית
מסטרא
מסי
מסיבה
מסיבות
מסיבי
מסיבית
מסיבת
מסיח
מסיים
מסיימת
מסייע
מסייעים
מסייעת
מסילה
מסילות
מסילת
מסים
מסין
מסיני
מסיפא
מסיק
מסיקה
מסיר
מסירה
מסירות
מסירת
מסך
מסכה
מסכום
מסכות
מסכי
מסכים
מסכימה
מסכימים
מסכם
מסכן
מסכת
מסכתות
מסל
מסלול
מסלולו
מסלולי
מסלולים
מסלע
מסלק
מסמך
מסמכי
מסמכים
מסמל
מסמלים
מסמלת
מסמן
מסמנים
מסנן
מסע
מסעדה
מסעדות
מסעדת
מסעו
מסעוד
מסעות
מסעותיו
מסעי
מספור
מספטמבר
מספיק
מספיקה
מספיקות
מספיקים
מספק
מספקא
מספקות
מספקים
מספקת
מספר
מספרד
מספרו
מספרות
מספרי
מספריו
מספריים
מספרים
מספרית
מספרם
מספרת
מסצ
מסקינן
מסקנא
מסקנה
מסקנות
מסקנת
מסקסוניה
מסר
מסרב
מסרבים
מסרבת
מסרה
מסרו
מסרטי
מסרטן
מסרים
מסת
מסתבר
מסתברא
מסתדר
מסתובב
מסתור
מסתורי
מסתורית
מסתיים
מסתיימת
מסתיר
מסתכל
מסתכלים
מסתלק
מסתם
מסתמא
מסתמך
מסתמכים
מסתמכת
מסתננים
מסתפק
מסתתר
מע
מעבד
מעבדה
מעבדות
מעבדי
מעבדים
מעבדת
מעבודה
מעבודותיו
מעבודת
מעבודתו
מעבורות
מעבורת
מעביד
מעביר
מעבירה
מעבירים
מעבירין
מעבר
מעברו
מעברי
מעברים
מעברין
מעגל
מעגלי
מעגלים
מעגלית
מעגן
מעדיף
מעדיפה
מעדיפים
מעדן
מעה
מעובד
מעובדי
מעובדים
מעוברת
מעוגל
מעודד
מעודדת
מעודכן
מעודכנים
מעודכנת
מעוות
מעוז
מעוטר
מעוטרי
מעוטרים
מעולה
מעולים
מעולם
מעומד
מעון
מעונה
מעונות
מעוניין
מעוניינים
מעוניינת
מעונש
מעונת
מעוף
מעופף
מעוצב
מעוקב
מעוקבים
מעור
מעורב
מעורבות
מעורבותה
מעורבותו
מעורבים
מעורבת
מעורר
מעוררים
מעוררת
מעות
מעותיו
מעט
מעטה
מעטות
מעטים
מעטפת
מעי
מעיד
מעידה
מעידות
מעידים
מעידין
מעיו
מעיז
מעיים
מעיין
מעיינות
מעיל
מעילה
מעים
מעין
מעיני
מעיקר
מעיקרא
מעיקרו
מעיר
מעיראק
מעכב
מעכבות
מעכבי
מעכבים
מעכבין
מעכבת
מעכו
מעכשיו
מעל
מעלה
מעלות
מעלי
מעליא
מעליה
מעליהם
מעליו
מעליות
מעלייתא
מעלים
מעלין
מעלית
מעלמא
מעלת
מעלתו
מעם
מעמד
מעמדה
מעמדו
מעמדות
מעמדם
מעמדן
מעמיד
מעמידה
מעמידין
מעמיק
מעמיקה
מען
מענה
מענו
מעניין
מעניינות
מעניינים
מעניינת
מענין
מעניק
מעניקה
מעניקים
מענק
מענקים
מעסיק
מעסיקים
מעפילים
מעץ
מעצב
מעצבי
מעצבים
מעצבת
מעצם
מעצמה
מעצמו
מעצמות
מעצמם
מעצמן
מעצר
מעצרו
מעצרים
מעקב
מעקה
מערב
מערבא
מערבה
מערבי
מערביות
מערביים
מערבין
מערבית
מערה
מערות
מערי
מעריב
מעריך
מעריכים
מערים
מעריץ
מעריצי
מעריצים
מערך
מערכה
מערכונים
מערכות
מערכי
מערכים
מערכת
מערער
מערת
מעשה
מעשהו
מעשור
מעשות
מעשי
מעשיה
מעשיהם
מעשיו
מעשיות
מעשיים
מעשיך
מעשים
מעשית
מעשר
מעשרה
מעשרות
מעשרים
מעשרת
מעת
מעתה
מפ
מפא
מפאת
מפברואר
מפגין
מפגינים
מפגיעה
מפגיעת
מפגש
מפגשי
מפגשים
מפה
מפואר
מפוארים
מפוארת
מפוזרים
מפולין
מפולש
מפולת
מפורט
מפורטות
מפורטים
מפורטת
מפורסם
מפורסמות
מפורסמים
מפורסמת
מפורש
מפורשות
מפורשים
מפורשת
מפות
מפותח
מפותחות
מפותחים
מפותחת
מפחד
מפחית
מפי
מפיהם
מפיו
מפיונשיפ
מפיץ
מפיק
מפיקה
מפיקי
מפיקים
מפירות
מפל
מפלגה
מפלגות
מפלגת
מפלגתו
מפלגתי
מפלגתית
מפלה
מפלוני
מפלט
מפלי
מפליג
מפלס
מפלצות
מפלצת
מפלת
מפנה
מפני
מפניהם
מפניו
מפנים
מפסוק
מפסיד
מפסיק
מפסיקין
מפסקת
מפעולות
מפעיל
מפעילה
מפעילות
מפעילי
מפעילים
מפעל
מפעלי
מפעלים
מפעם
מפציעה
מפציץ
מפציצי
מפציצים
מפצעיו
מפקד
מפקדה
מפקדו
מפקדי
מפקדים
מפקדת
מפקח
מפקחים
מפקיד
מפקינן
מפר
מפראג
מפרה
מפרויקט
מפרט
מפרי
מפריד
מפריז
מפריע
מפריש
מפרישין
מפרסם
מפרץ
מפרק
מפרקי
מפרקים
מפרש
מפרשי
מפרשים
מפרשת
מפשע
מפת
מפתה
מפתח
מפתחות
מפתחי
מפתחים
מפתחת
מפתיע
מפתיעה
מץ
מצ
מצא
מצאה
מצאו
מצאנו
מצאצאי
מצאת
מצאתי
מצב
מצבא
מצבה
מצבו
מצבות
מצבי
מצביא
מצבים
מצביע
מצביעה
מצביעות
מצביעים
מצבם
מצבת
מצג
מצגת
מצד
מצדה
מצדו
מצדיק
מצדיקה
מצדם
מצה
מצהיר
מצו
מצודה
מצודות
מצודת
מצוה
מצווה
מצווים
מצוות
מצוי
מצויד
מצוידים
מצויה
מצויות
מצויים
מצויין
מצוין
מצוינות
מצוינים
מצוינת
מצויר
מצוירים
מצולם
מצומצם
מצומצמת
מצופה
מצופים
מצוק
מצוקה
מצור
מצורע
מצורף
מצות
מצותו
מצותיו
מצח
מצחיק
מצטבר
מצטט
מצטיין
מצטיינים
מצטיינת
מצטער
מצטרף
מצטרפות
מצטרפים
מצטרפין
מצטרפת
מצי
מציאה
מציאות
מציאותו
מציאת
מציב
מציג
מציגה
מציגות
מציגים
מצידה
מצידו
מצידם
מציון
מציין
מציינים
מציינת
מצייר
מציל
מצילים
מצילין
מצינו
מצינן
מציע
מציעא
מציעה
מציעים
מצית
מצליח
מצליחה
מצליחות
מצליחים
מצלמה
מצלמות
מצלמת
מצלת
מצע
מצעד
מצעדי
מצעדים
מצער
מצפה
מצפון
מצפים
מצפן
מצר
מצרא
מצרי
מצריות
מצריים
מצריך
מצריכה
מצרים
מצרימה
מצרית
מצרך
מצרכים
מצרף
מצרפת
מצרפתית
מק
מקארתור
מקארתי
מקבוצה
מקבוצות
מקבוצת
מקביל
מקבילה
מקבילות
מקבילים
מקבל
מקבלות
מקבלי
מקבלים
מקבלין
מקבלת
מקבץ
מקבת
מקדוניה
מקדונלד
מקדים
מקדימה
מקדימות
מקדימים
מקדימין
מקדיש
מקדם
מקדמי
מקדמת
מקדש
מקדשי
מקדשים
מקדשין
מקהילת
מקהלה
מקהלות
מקהלת
מקו
מקואות
מקובל
מקובלות
מקובלים
מקובלת
מקובצת
מקודם
מקודש
מקודשת
מקוה
מקווה
מקווי
מקוון
מקוונים
מקוונת
מקול
מקולות
מקום
מקומה
מקומו
מקומות
מקומי
מקומיות
מקומיים
מקומית
מקומם
מקומן
מקופת
מקוצר
מקוצרת
מקור
מקורב
מקורבים
מקורה
מקורו
מקורות
מקורי
מקוריות
מקוריים
מקורית
מקורם
מקורן
מקושר
מקושרים
מקושרת
מקח
מקחו
מקטע
מקטעים
מקיים
מקיימות
מקיימים
מקיימין
מקיימת
מקיין
מקילין
מקים
מקימי
מקינטוש
מקינטייר
מקינלי
מקיף
מקיפה
מקיפים
מקיפין
מקיש
מקל
מקלארן
מקלדת
מקלה
מקלות
מקלט
מקלנבורג
מקלע
מקלעים
מקלקל
מקמהן
מקמי
מקמילן
מקנדה
מקנה
מקנזי
מקני
מקס
מקסוול
מקסים
מקסימום
מקסימוס
מקסימיליאן
מקסימלי
מקסימלית
מקסיקו
מקסיקני
מקסיקנים
מקף
מקפיד
מקפידים
מקץ
מקצב
מקצה
מקצוע
מקצועות
מקצועי
מקצועיות
מקצועיים
מקצועית
מקצועני
מקצוענית
מקצת
מקצתה
מקצתו
מקצתם
מקצתן
מקרא
מקראות
מקראי
מקראית
מקרב
מקרבן
מקרה
מקרוב
מקרטני
מקרי
מקריאת
מקריב
מקריבים
מקריבין
מקרים
מקרית
מקרן
מקרקעי
מקרקעין
מקש
מקשה
מקשי
מקשים
מקשינן
מקשר
מקשרים
מר
מרא
מראה
מראהו
מראובן
מראות
מראים
מראית
מראש
מראשו
מראשוני
מראשות
מראשי
מראשית
מרב
מרבה
מרבו
מרבי
מרבים
מרביעית
מרבית
מרביתם
מרבני
מרבנן
מרג
מרגיש
מרגישה
מרגישים
מרגל
מרגליות
מרגלים
מרגלית
מרגמה
מרגמות
מרגע
מרגרט
מרגרטה
מרד
מרדו
מרדות
מרדכי
מרדף
מרה
מרוב
מרובה
מרובות
מרובי
מרובים
מרובין
מרובע
מרובעים
מרובעת
מרובת
מרווח
מרווין
מרוח
מרוחק
מרוחקים
מרוחקת
מרוכבים
מרוכז
מרוכזים
מרוכזת
מרום
מרומא
מרומז
מרומניה
מרון
מרוסיה
מרוץ
מרוצה
מרוצי
מרוצים
מרוקאים
מרוקו
מרור
מרות
מרחב
מרחבי
מרחביה
מרחבים
מרחבית
מרחוב
מרחוק
מרחיב
מרחיק
מרחם
מרחץ
מרחצאות
מרחק
מרחקים
מרטי
מרטין
מרטינה
מרטינז
מרטינס
מרי
מריאן
מריאנה
מריבה
מרידה
מרידות
מריה
מריו
מריון
מריוס
מריט
מרילין
מרילנד
מרים
מרין
מרינה
מרינו
מרישא
מרכב
מרכבה
מרכבות
מרכוס
מרכז
מרכזי
מרכזיות
מרכזיים
מרכזים
מרכזית
מרכיב
מרכיבי
מרכיבים
מרלבורו
מרלין
מרמה
מרמז
מרמת
מרן
מרס
מרסיי
מרסל
מרע
מרעב
מרעה
מרפא
מרפאה
מרפאות
מרפי
מרפסת
מרץ
מרצ
מרצדס
מרצה
מרצון
מרצונו
מרצועת
מרצים
מרק
מרקו
מרקוביץ
מרקוס
מרקורי
מרקחת
מרקיז
מרקל
מרקם
מרקס
מרקר
מרשה
מרשות
מרשותו
מרשים
מרשימה
מרשימות
מרשימים
מרשימת
מרשל
מרשם
מרשת
מרת
מרתה
מרתון
מרתף
מרתק
מש
משא
משאב
משאבות
משאבי
משאבים
משאו
משאיות
משאיר
משאירים
משאית
משאל
משאר
משבוע
משבועה
משבח
משבט
משביע
משביעין
משבע
משבעה
משבעת
משבצות
משבר
משברים
משבת
משגב
משגיח
משגר
משגת
משדה
משדר
משה
משהו
משו
משואה
משוב
משובח
משוגע
משודרת
משוה
משוואה
משוואות
משוואת
משוודיה
משווה
משווק
משוח
משוחרר
משוחררים
משוי
משוך
משוכות
משוכלל
משוכנע
משולב
משולבות
משולבים
משולבת
משולם
משולש
משולשים
משולשת
משום
משונה
משועבד
משועבדים
משוער
משופע
משופר
משופרת
משוריין
משוריינים
משורר
משוררות
משוררים
משוררת
משורש
משורת
משושלת
משותף
משותפות
משותפים
משותפת
משחה
משחית
משחיתים
משחק
משחקה
משחקו
משחקי
משחקיה
משחקים
משחקני
משחקת
משחרר
משחת
משחתות
משטה
משטח
משטחה
משטחי
משטחים
משטר
משטרה
משטרו
משטרת
משטרתי
משטרתית
משי
משיב
משיג
משיגים
משיח
משיכה
משיכת
משים
משימה
משימוש
משימות
משימת
משימתו
משינה
משינוי
משיעור
משיקולים
משיר
משירות
משירי
משיריה
משיריו
משישה
משך
משכב
משכה
משכו
משכון
משכורות
משכורת
משכח
משכחת
[...]
